!
"
#
##0
##1
##10
##11
##12
##13
##14
##15
##16
##17
##18
##19
##2
##20
##21
##22
##23
##24
##25
##26
##27
##28
##29
##3
##30
##31
##32
##33
##34
##35
##36
##37
##38
##39
##4
##40
##41
##42
##43
##44
##45
##46
##47
##48
##49
##5
##50
##51
##52
##53
##54
##55
##56
##57
##58
##59
##6
##60
##61
##62
##63
##64
##65
##66
##67
##68
##69
##7
##70
##71
##72
##73
##74
##75
##76
##77
##78
##79
##8
##80
##81
##82
##83
##84
##85
##86
##87
##88
##89
##9
##90
##91
##92
##93
##94
##95
##96
##97
##98
##99
$
%
&
'
(
)
*
+
,
-
.
/
0
00
000
0000
0001
0003
001
0010
0011
002
003
004
005
01
0100
0101
0110
0111
0167
018
02
022
029
03
04
044
045221
05
0546
06
0602
066
07
08
09
098
1
10
100
1000
10000
101
1012
1016
1019
102
1020
1024
103
1037
104
1046
105
1050
1054
106
1066
1069
107
1077
108
1087
109
1093
1094
1099
11
110
1100
1101
1104
111
1111
112
1126
113
1131
114
1141
115
1150
1154
116
1160
1163
1169
117
1170
1171
1175
118
1185
119
1190
1198
12
120
1200
12000
1204
1207
121
1219
122
1222
1224
1225
1227
1229
123
1232
1235
124
1240
1247
125
1250
1257
126
1260
1261
127
1274
1275
128
129
1299
13
130
1300
1306
131
1317
132
1321
133
1336
134
1340
1348
135
1350
1353
1356
136
1365
137
1370
1375
1378
138
1380
1381
1389
139
1396
1397
14
140
1400
141
1412
1413
1415
1416
142
1420
1422
1425
1429
143
1430
1431
1433
1434
1439
144
1440
1442
1443
1444
1448
1449
145
1450
1452
1453
1455
1457
1458
1459
146
1460
1461
1466
1467
1468
1469
147
1470
1471
1473
1475
1476
1478
1479
148
1481
1482
1483
1484
1485
149
1491
1492
1493
1494
1496
1497
1498
1499
15
150
1500
1501
1502
1503
1504
1506
1508
1509
151
1510
1511
1512
1513
1514
1515
1516
1517
1518
1519
152
1520
1521
1522
1523
1524
1525
1526
1527
1528
1529
153
1530
1531
1532
1533
1534
1536
1539
154
1540
1541
1542
1543
1544
1545
1546
1547
1548
1549
155
1550
1552
1553
1554
1555
1556
1557
1558
1559
156
1560
1561
1563
1564
1565
1567
1568
1569
157
1570
1571
1572
1575
1576
1577
1578
158
1580
1581
1582
1583
1584
1585
1587
1588
1589
159
1590
1592
1593
1594
1595
1596
1597
1598
1599
16
160
1600
1601
1602
1603
1604
1605
1606
1608
1609
161
1610
1611
1612
1613
1614
1615
1616
1618
162
1620
1622
1623
1624
1625
1626
1628
1629
163
1630
1631
1632
1633
1634
1635
1636
1638
1639
164
1640
1641
1642
1643
1644
1645
1646
1647
1648
1649
165
1650
1651
1652
1653
1654
1656
1658
1659
166
1660
1661
1662
1663
1664
1665
1666
1667
1668
167
1670
1672
1673
1674
1675
1676
1678
1679
168
1680
1681
1683
1684
1685
1686
1687
1688
1689
169
1692
1694
1695
1698
17
170
1700
1701
1702
1703
1704
1705
1706
1707
1708
1709
171
1710
1713
1714
1715
1716
1717
1718
1720
1723
1724
1726
1727
1728
1729
173
1730
1732
1733
1735
1736
1737
1738
1739
174
1740
1741
1742
1743
1744
1745
1746
1747
1748
1749
175
1750
1751
1752
1753
1754
1755
1756
1757
1758
1759
176
1760
1761
1762
1763
1764
1766
1768
1769
177
1770
1771
1772
1773
1774
1775
1776
1777
1778
1779
178
1780
1781
1782
1783
1784
1785
1786
1787
1788
1789
179
1790
1791
1792
1793
1794
1795
1796
1797
1798
1799
18
180
1800
1801
1802
1803
1804
1805
1806
1807
1808
1809
180957851
181
1810
1811
1812
1813
1814
1815
1816
1817
1818
1819
182
1820
1821
1822
1823
1824
1825
1826
1827
1828
1829
183
1830
1831
1832
1833
1834
1835
1836
1837
1838
1839
184
1840
1841
1842
1843
1844
1845
1846
1847
1848
1849
185
1850
1851
1852
1853
1854
1855
1856
1857
1858
1859
186
1860
1861
1862
1863
1864
1865
1866
1867
1868
1869
187
1870
1871
1872
1873
1874
1875
1876
1877
1878
1879
188
1880
1881
1882
1883
1884
1885
1886
1887
1888
1889
1890
1891
1892
1893
1894
1895
1896
1897
1898
1899
19
190
1900
1901
1902
1903
1904
1905
1906
1907
1908
1909
191
1910
1911
1912
1913
1914
1915
1916
1917
1918
1919
192
1920
1921
1922
1923
1924
1925
1926
1927
1928
1929
193
1930
1931
1932
1933
1934
1935
1936
1937
1938
1939
194
1940
1941
1942
1943
1944
1945
1946
1947
1948
1949
195
1950
1951
1952
1953
1954
1955
1956
1957
1958
1959
196
1960
1961
1962
1963
1964
1965
1966
1967
1968
1969
197
1970
1971
1972
1973
1974
1975
1976
1977
1978
1979
198
1980
1981
1982
1983
1984
1985
1986
1987
1988
1989
199
1990
1991
1992
1993
1994
1995
1996
1997
1998
1999
2
20
200
2000
20000
2001
2002
2003
2004
2005
2006
2007
2008
2009
201
2010
2011
2012
2013
2014
2015
2016
2017
2018
2019
202
2020
2021
2022
203
204
205
206
207
208
209
21
210
211
212
213
214
215
216
217
218
219
22
220
221
222
223
224
225
226
227
228
229
23
230
231
232
233
234
235
236
237
238
239
24
240
241
242
2425
244
245
246
247
248
249
25
250
2500
251
252
253
254
255
256
258
259
26
260
2600
261
262
264
265
266
269
27
270
271
272
273
274
275
276
277
2770
278
28
280
281
282
283
284
285
286
287
288
29
290
291
292929
293
2941
295
296
297
299
3
30
300
3000
301
302
3021
303
303030
304
305
306
307
31
310
311
312
313
314
315
316
3166
317
318
319
32
320
3200
321
322
323
324
325
326
327
33
330
331
332
333
335
336
337
338
339
34
340
342
343
344
345
347
35
350
353
354
355
357
359
36
360
361
363
364
365
366
36607
37
370
371
372
373
374
375
376
378
379
38
380
381
382
383
384
385
386
387
388
389
39
390
391
392
393
394
395
397
399
4
40
400
4000
401
402
403
404
405
408
41
410
411
415
416
418
419
42
420
421
423
424
425
4263
427
428
43
430
431
434
435
439
44
440
441
443
444
446
447
449
45
450
451
453
455
458
459
46
460
462
465
467
468
47
470
471
476
477
48
480
481
483
484
485
486
487
488
489
49
490
491
492
493
494
496
499
5
50
500
5000
500000
501
502
507
509
51
510
511
512
52
520
521
524
525
526
527
528
529
53
530
531
532
534
535
536
537
538
539
54
540
544
55
550
551
557
5590
56
560
561
563
565
567
57
570
575
579
58
580
583
587
588
59
590
5907
591
596
6
60
600
6000
602
603
604
607
61
610
613
62
622
624
625
627
628
63
633
636
639
64
640
643
645
646
647
65
650
653
66
660
661
67
670
672
675
68
680
683
686
688
69
693
696
699
7
70
700
7000
701
704
7073
709
71
7103
711
71179
71196
712
716
717
718
72
720
7206
721
722
729
73
730
7309115994
731
732
737
74
740
742
747
749
7492
75
750
751
753
756
757
758
76
7600
765
766
767
768
77
770
773
774
776
778
78
780
782
785
79
792
798
8
80
800
8000
8008
802
8028
8058
806
8080
8091
81
810
811
814
8147
8153
82
824
825
83
834
84
842
843
85
850
854
857
859
86
8601
863
865
87
870
874
88
880
885
8859
889
89
8910
898
9
90
900
9000
90082
901
903912
906
907
91
918393
92
920
922257
93
930
931
938
94
947
95
950
95882
959
96
960
963
967
968
97
970
971940
973
976
978
98
980
985
987
988
99
990
999
:
;
<
=
>
?
@
\
^
_
`
a
aa
aachen
aalborg
aarhus
aaron
ab
aba
abaco
abaddon
abajo
abandona
abandonar
abandonate
abandonava
abandono
abatter
abattite
abba
abbate
abbatessa
abbatia
abbey
abbordar
abbordate
abbreviate
abbreviation
abbreviationes
abbreviaturas
abc
abcdefghijlmnopqrst
abchasia
abd
abdication
abdicava
abdominal
abdomine
abdon
abdu
abe
abel
abelardo
abelian
aberdeen
aberrante
aberration
abhandlungen
abilitate
abiogenic
ablation
able
abnormal
abolir
abolite
abolition
abolitionista
aboliva
abomaso
abonamento
abonatos
aboriginal
aborigine
aborigines
abortate
aborto
about
above
abraham
abrahamic
abrams
abril
abrupte
abruzzo
absalon
absconde
absente
absentia
absolute
absolutemente
absolutismo
absoluto
absolvite
absorbe
absorbente
absorber
absorbite
absorption
abstinentia
abstiner
abstract
abstracte
abstraction
abstracto
absurde
abu
abundante
abundantia
abuse
abusive
abuso
abusos
abysmo
ac
acabava
acade
academia
academias
academic
academico
academicos
academy
acasos
acca
accede
acceder
accedeva
accedite
accelerar
accelerate
acceleration
accelerator
accelerava
accendite
accento
accentos
accentua
accentuar
accentuate
accentuava
accepta
acceptabile
acceptante
acceptar
acceptate
acceptation
acceptava
acception
access
accessed
accessibile
accessibilitate
accession
accesso
accessores
accessori
accidental
accidentalmente
accidente
acclamate
acclamation
acclarar
accommodar
accommodation
accompania
accompaniamento
accompaniante
accompaniar
accompaniate
accompaniava
accomplimento
accomplir
accomplite
accorda
accordante
accordar
accordate
accordatura
accordava
according
accordion
accordo
accordos
accostamento
account
accreditate
accresce
accrescente
accrescer
accresceva
accrescimento
accrescite
accumula
accumular
accumulate
accumulation
accumulava
accurate
accuratemente
accuratessa
accusa
accusante
accusas
accusate
accusation
accusationes
accusative
accusativo
accusatos
accusava
ace
acerbe
acetic
achaea
achee
achemenide
acheo
acheos
achievement
achille
achilles
acid
acide
acido
acidos
aciero
acinonyx
acme
acordo
acosta
acpv
acquaviva
acquire
acquirer
acquireva
acquirite
acquisition
acquisitive
acre
acres
acronymo
acropole
across
act
acta
acte
actes
acting
actinidos
actinium
actinopterygii
action
actiones
actium
activa
activamente
activar
activate
activation
active
activemente
activex
activismo
activist
activista
activistas
activists
activitate
activitates
activities
activo
acto
actor
actores
actos
actress
actrice
actrices
acts
actua
actual
actualisate
actualisation
actualisationes
actualitate
actualitates
actualmente
actuante
actuar
actuation
actuationes
actuava
acu
acude
acuerdo
acus
acustic
acustica
acute
ad
ada
adab
adagio
adam
adams
adan
adansonia
adapta
adaptar
adaptate
adaptation
adaptationes
adaptava
adapted
adar
adc
add
adda
addams
adde
addendum
addente
adder
addeva
addis
addison
addite
addition
additional
additionalmente
additiones
additive
addressing
adduceva
adelaide
adelante
aden
adenoidectomia
adenoides
adeos
adepto
adeptus
adequate
adhe
adhere
adherente
adherentes
adherentia
adherer
adhereva
adherite
adhesion
adhuc
adi
adiabatic
adieux
adige
adj
adjace
adjacente
adjectival
adjective
adjectivo
adjectivos
adjudantes
adjudicate
adjuncte
adjuncto
adjunge
adjungeva
adjustamento
adjustar
adjuta
adjutante
adjutantes
adjutar
adjutas
adjutate
adjutava
adjuva
adjuvar
adler
administra
administrar
administrate
administration
administrationes
administrative
administrativemente
administrator
administratores
administrava
admira
admiral
admiralitate
admirate
admiration
admiratores
admirava
admission
admitte
admitter
admitteva
admittite
adn
ado
adobe
adolescente
adolescentes
adolescentia
adolesceva
adolf
adolfo
adonai
adonis
adopta
adoptante
adoptar
adoptate
adoptava
adoption
adoptive
ador
adora
adorar
adorate
adoration
adorava
adrenal
adressa
adressar
adressate
adressava
adresse
adresses
adria
adrian
adriana
adriano
adriatic
adrien
adrienne
adult
adulte
adulterio
adultes
adulto
adultos
adults
adv
advanced
advances
advantia
advectional
adveni
advenimento
adveniva
adventistas
advento
adventure
adventures
adverbial
adverbio
adverbios
adversario
adversarios
adverse
adversus
adverte
advertimento
advertimentos
advertite
advertiva
advoca
advocate
advocatia
advocato
advocatos
advocava
ae
aec
aedo
aegagrus
aelc
aer
aera
aere
aeree
aerial
aerobic
aeronautica
aeronave
aeronaves
aeroplano
aeroplanos
aeroporto
aeroportos
aerporto
aeta
af
afarensis
affair
affaire
affaires
affairs
affecta
affectar
affectate
affectava
affection
affective
affecto
affectuose
affice
afficer
afficeva
afficite
affila
affiliate
affiliation
affiliava
affin
affinitate
affinitates
affirma
affirmante
affirmar
affirmate
affirmation
affirmationes
affirmava
affixate
affixo
affixos
affliction
affligeva
affligite
affluente
affluentes
affricate
affronta
affrontamento
affrontante
affrontar
affrontava
afghanistan
afiel
afonso
africa
african
africana
africano
africanos
africanus
afrikaans
afro
afroamerican
afroinsectiphilia
afrosoricida
afrotheria
aft
after
aftermath
ag
again
against
agamemnon
agamemnone
agamenon
agaricales
agata
age
agency
agenda
agenor
agent
agente
agentes
agentia
agentias
ager
ages
ageva
agglomeration
agglutinante
agglutinative
aggrandimento
aggrandite
aggregate
aggregation
aggregato
aggression
aggressive
aggressor
aggruppa
aggruppar
aggruppate
aggruppava
agile
agilitate
agita
agitate
agitation
agnesi
agnostic
agnosticismo
agnosticos
agony
agora
agordino
agostino
agosto
agradabile
agrari
agressiones
agricola
agricole
agricultor
agricultores
agricultura
agricultural
agrigento
agrippa
agrippina
agro
agrola
agrono
agua
aguas
aguascalientes
aguila
aguilar
aguinaldo
agulha
agulia
agulla
aguti
ah
ahlstedt
ahmed
ahora
ai
aiace
aid
aide
aider
aids
aiglon
aikhenvald
aikido
ailen
aim
aime
ain
ainu
air
airbag
aircraft
airdrie
aires
airesis
ais
aise
aix
aj
ajax
aje
ajuta
aka
akademi
akb
akbar
akira
akkadian
akron
akutagawa
akva
al
ala
alabama
aladdin
alagoas
alain
alamos
alan
alanos
alarico
alarmate
alas
alaska
alba
albacete
albanese
albania
albanian
albano
albany
albatros
albe
alberga
albergava
albergo
albert
alberta
alberti
alberto
albin
albrecht
albrekt
albricochiero
album
albumes
albums
albuquerque
albus
alca
alcala
alcali
alcalin
alces
alchimic
alcinoo
alco
alcohol
alcoholic
alcoholicos
alcoholismo
alcolea
alcun
alcunes
alcuno
alcunos
alcunproprietate
aldea
aldeanueva
aldehuela
aldenhoven
aldrin
ale
aleatori
aleatorimente
alec
alegre
alejandro
aleksandr
alert
alerta
alessandria
alessandro
alessio
aleut
alex
alexander
alexanderson
alexandra
alexandre
alexandria
alexandrin
alexandro
alexei
alexopoulos
alf
alfabeto
alfaguara
alfarrobeira
alfil
alfonic
alfonso
alfort
alfoz
alfred
alfredo
alga
algas
algebra
algebras
algebric
algeria
algerian
algic
algo
algol
algonquian
algorithm
algorithmo
algorithmos
alhambra
ali
alia
aliantia
alianza
alias
alibi
alicante
alice
alicia
alicun
alicunes
alicuno
alicunos
alie
alien
alienation
alighieri
alimenta
alimentar
alimentari
alimentate
alimentation
alimento
alimentos
alinea
alineamento
alineate
aliquando
aliquanto
alique
alive
alje
alkali
all
alla
allah
allan
alle
allee
allegante
allegate
allegava
allegoria
allegoric
allegre
allegretto
allegro
alleles
alleluia
allen
allende
aller
allergenes
allergia
allergic
alleviation
alliance
alliantia
alliantias
alliar
alliate
alliato
alliatos
alliava
allier
alligate
alligato
alligatos
allmusic
allocate
allogiamento
allude
alluder
alludeva
allusiones
allvarsamma
alma
almagor
almanac
almeida
almeri
almeria
almo
almodo
aloe
alone
alongar
alonso
alora
alpaca
alpes
alpha
alphabet
alphabetic
alphabeticamente
alphabetisation
alphabeto
alphabetos
alphonse
alphonso
alpin
alpinista
alquanto
alque
als
alsatia
alsdorf
alsi
also
alt
alta
altar
altares
alte
altemente
alter
altera
alterante
alterar
alteras
alterate
alteration
alterationes
alterava
altercation
altere
alteremente
alteres
alternar
alternate
alternativa
alternativas
alternative
alternativemente
altero
alteros
alterubi
altes
altessa
althusser
altiar
altiplanos
altissime
altissimo
altitude
altitudes
alto
altocumulo
altor
altos
altostrato
altre
altres
altri
altura
aluminium
alumno
alumnos
alveolar
alveolata
alves
alyson
alzheimer
am
ama
amabile
amadeo
amadeus
amado
amala
amalasuntha
amalgama
amalia
amalickiah
amanda
amandola
amanita
amante
amantes
amapa
amar
amarelo
amaro
amate
amateur
amator
amatores
amatori
amava
amazon
amazonas
amazones
amazonie
amb
ambassada
ambassadas
ambassador
ambassator
ambassatores
ambe
amberes
ambes
ambiental
ambiente
ambientes
ambigue
ambiguedad
ambiguitate
ambite
ambition
ambitiones
ambitiose
ambito
ambitos
ambos
ambra
ambroise
ambrosio
ambula
ambulante
ambulantia
ambulantias
ambular
ambulocetides
ame
amelia
ameliora
ameliorar
ameliorationes
ameliorava
amen
america
american
americana
americano
americanos
americanus
americas
americium
amerindian
amerindie
amerindios
ami
amiably
amic
amica
amicabile
amical
amicitate
amico
amicos
amida
amiens
amiga
amin
amino
aminoacido
aminoacidos
amis
amita
amizade
amlici
ammad
amman
ammon
ammoniaco
amniota
amniotes
amo
amon
among
amonta
amontas
amor
amore
amores
amorose
amos
amour
amours
ampe
ampelma
ampere
amphibia
amphibie
amphibios
amphitheatro
amphora
ample
amplemente
amplia
ampliamente
ampliar
ampliate
ampliation
ampliationes
amplie
amplificate
amplification
amplificator
amplificatores
amplitude
amputate
amputation
amsterdam
amulio
amun
amundsen
amusamento
amusante
amy
an
ana
anabasis
anagnorisis
anai
anakin
anal
analizable
analog
analoge
analogemente
analogia
analogias
analogic
analogo
analphabetismo
analysa
analysar
analysate
analysator
analysava
analyse
analyses
analysis
analytic
ananas
anania
anarchia
anarchismo
anarchist
anarchista
anarchistas
anarcho
anarchy
anasazi
anate
anates
anatolia
anatomia
anatomic
anatomica
anatomical
anatomie
anatomy
anaya
anc
ancestral
ancestre
ancestres
ancestria
anchieta
anchise
anchises
anchor
ancian
ancianmente
ancianos
ancien
ancient
ancona
anconi
ancora
ancorava
and
anda
andaluci
andalucia
andalus
andaluse
andalusia
andante
andere
anders
andersen
anderson
anderssen
andersson
andes
andin
andina
andna
andorra
andrade
andre
andrea
andreae
andreas
andres
andreu
andrew
andri
andria
andrias
andriette
android
andromaca
andronico
andross
andy
ane
anecdota
anello
anellos
anemia
anesthesia
ang
ange
angel
angela
angeles
angelina
angelo
angelos
angelov
angels
angelus
angl
anglaterra
angle
anglese
angleses
anglican
anglicanismo
anglo
anglophone
anglosaxone
angola
angora
angra
anguilla
angular
angulo
angulos
angus
anhalt
anhui
anhydrido
ani
anic
anima
animal
animales
animalia
animals
animas
animate
animated
animation
animationes
animator
anime
animes
animismo
animistic
animo
anita
ankara
anke
ann
anna
annaeus
annalen
annales
anne
annelos
annex
annexate
annexava
annexion
annexo
anni
annidate
annie
annihilava
anniversario
anniversary
anno
annos
annotate
annotation
annotationes
annual
annualmente
annuario
annullate
annullava
annuncia
annunciante
annunciar
annunciate
annunciator
annunciava
annuncio
annuncios
annunzio
ano
anonyme
anor
anos
another
anque
ans
ansan
anschluss
ansere
ansi
answers
ant
antagonismo
antagonista
antagonistic
antarctic
antarctica
antas
ante
antea
antebracio
antecedente
antecedentes
antecessor
antenna
antennas
antepenultime
anterior
anteriores
anterioritate
anteriormente
antes
antestomachos
anthologia
anthologias
anthony
anthrax
anthropologia
anthropologic
anthropologo
anthropomorphic
anti
antibiotico
antibioticos
anticipar
anticipate
anticipava
anticonceptive
anticorpores
antifascista
antiga
antigenos
antigu
antigua
antilinear
antillas
antimonio
antinomia
antinoo
antiochia
antipsychiatria
antiqua
antiquark
antiquate
antique
antiquemente
antiques
antiquitate
antiquitates
antiretroviral
antisemitismo
anto
antoine
antologi
antologia
antologie
anton
antoni
antonia
antonino
antonio
antony
antwerpen
anu
anular
anulos
anxietate
any
anymore
anything
ao
aol
aomori
aosta
ap
apache
aparato
aparte
apartheid
apatheism
apatheismo
apathia
ape
apenninos
aperi
aperiente
aperir
aperite
aperiva
aperte
apertemente
apertura
apes
aphorismos
aphrodite
api
apical
apice
apices
apiru
apis
apiu
apocalypse
apocalyptic
apocalyptica
apocryphe
apocryphos
apogeo
apolline
apollo
apollodoro
apollon
apolo
apolodoro
apologetica
apologi
apologia
apoplexia
aporia
apostasia
apostata
apostles
apostoles
apostolic
apostolo
apostolos
app
appara
apparato
apparatos
apparava
appare
appareil
apparentate
apparente
apparentemente
apparentia
apparentias
apparer
apparera
appareva
apparite
apparition
apparitiones
appartamento
appelate
appelava
appella
appellante
appellar
appellate
appellates
appellation
appellativo
appellava
appello
appellos
appender
appendice
appendices
appendicitis
appendite
appendix
appertine
appertinentia
appetito
applattante
apple
applet
appleton
applets
applica
applicabile
applicabilitate
applicante
applicar
applicate
application
applicatione
applicationes
applications
applicative
applicava
appoia
appoiante
appoiar
appoiate
appoiava
appoio
appoios
apporta
apportar
apportate
apportava
apprecia
appreciar
appreciate
appreciation
appreciava
apprehendite
apprende
apprender
apprendeva
apprendimento
apprendissage
apprendite
apprentissage
apprentisse
apprentisses
approba
approbar
approbate
approbation
approbationes
approbava
approcha
approchar
approche
approches
appropriate
appropriatemente
approvate
approvava
approx
approxima
approximar
approximate
approximatemente
approximation
approximative
approximativemente
approximava
appuncta
appunctate
appunctava
apre
aprender
april
aprilo
apte
apted
aptitude
apud
apulia
aqdas
aqua
aqual
aquarellas
aquario
aquas
aquatic
aqueducto
aquellas
aquelle
aquelles
aqui
aquila
aquilas
aquillos
aquino
aquisgrano
aquitania
ar
ara
arab
arabe
arabes
arabia
arabic
arabismos
arabo
arabuta
arago
aragon
aragone
aragonese
aragorn
arahau
aramaic
aramaico
aramee
aran
aranea
araneas
araquari
ararangua
aratro
arau
araucani
arbeiterpartei
arbeitsgemeinschaft
arbitrari
arbitrarimente
arbitrio
arbitro
arbore
arboree
arbores
arbusto
arbustos
arc
arca
arcadia
arcate
arcesilao
archaea
archaeopteryx
archaeplastida
archaic
archaismo
arche
archeologia
archeologic
archeologo
archeologos
archeos
archer
archetto
archidiocese
archidiocesis
archiepiscopo
archimedes
archipelago
archipelagos
architecto
architectonic
architectos
architectura
architectural
architecturas
architecture
archivate
archivava
archive
archived
archives
archivo
archivos
arco
arcos
arctic
arctica
arctos
arde
ardeche
ardennes
ardente
ardeva
ardi
ardimento
ardite
ardrossan
ardue
are
area
areas
arena
arenas
arequipa
ares
arezzo
argentee
argentin
argentina
argentino
argento
argilla
argon
argonautas
argos
argot
args
argue
argueva
arguite
argumenta
argumentante
argumentar
argumentation
argumentava
argumento
argumentos
ari
aria
ariane
arianismo
arianos
arias
aride
arie
ariel
aries
ariete
ario
aristocrate
aristocratia
aristocratic
aristonico
aristophanes
aristotele
aristoteles
aristotle
arithmetic
arithmetica
arius
arivava
arizona
arkansas
arles
arlington
arm
arma
armada
armamento
armand
armando
armario
armas
armate
armatura
armaze
arme
armea
armeas
armenia
armenian
armenie
armenio
armenios
arminianismo
armistitio
armitage
armo
armstrong
army
arn
arne
arno
arnold
arnsberg
aroma
aromanian
aromaniano
aromatic
aron
around
arpanet
arquitectura
arragiamento
arrakis
arrangia
arrangiamento
arrangiamentos
arrangiar
arrangiate
arrangiator
arrangiava
arras
array
arresta
arrestar
arrestate
arrestation
arresto
arrestos
arri
arriba
arriva
arrivante
arrivar
arrivarea
arrivata
arrivate
arrivava
arrogava
arroio
arrow
arroyo
arroyomolinos
ars
arse
arsenico
art
arte
artefacto
artefactos
artemis
artemisa
artemisia
arteria
arterial
arterias
artes
arthropoda
arthropodos
arthur
arthuro
arti
article
articles
articulate
articulation
articulationes
articulatori
articulista
articulo
articulos
articulus
artificial
artificialitate
artificialmente
artificio
artilleria
artiodactyla
artis
artist
artista
artistas
artistic
artists
artivist
arts
artsakh
artur
arturo
aruba
arvoredo
arwing
aryan
as
asbestos
ascanio
ascelino
ascende
ascendente
ascendentia
ascendeva
ascension
ascetic
ascetismo
ascii
ascoli
ascolta
ascoltante
ascoltar
ascoltate
ascoltatores
ascomycetos
ascribite
ascurra
ase
ases
asexual
asexualmente
asgard
ashby
ashes
ashford
ashjian
ashkenazi
ashkin
ashley
ashoka
asi
asia
asian
asiatic
asimov
asin
asino
asinos
asociacio
asocio
asp
aspect
aspecto
aspectos
aspects
aspira
aspirar
aspirate
aspiration
aspx
assai
assaltar
assalto
assam
assamese
assassinar
assassinate
assassination
assassinato
assassinatos
assassinava
assassino
assassinos
assatis
assecura
assecurante
assecurantia
assecurar
assecurate
assecurava
assedio
assemblage
assemblate
assemblava
assemblea
assembleas
assembly
assen
assere
asserente
asserer
assereva
asserite
assertion
assertiones
assessinato
assessment
assessor
assessoramento
assi
assigna
assignar
assignate
assignation
assignava
assimil
assimila
assimilar
assimilate
assimilation
assimilava
assistant
assiste
assistens
assistente
assistentes
assistentia
assister
assisteva
assistite
associa
associar
associate
associated
association
associationes
associative
associativitate
associato
associava
assortir
assume
assumed
assumer
assumeva
assumite
assumption
assuntos
assyria
assyrie
ast
astana
astato
asteroide
asteroides
asthma
asti
aston
astral
astro
astrologia
astrologic
astrometria
astronauta
astronautas
astronautica
astronave
astronomer
astronomia
astronomic
astronomical
astronomo
astronomos
astronomy
astrophysic
astrophysica
astrophysico
astros
astures
asturian
asturiana
asturiano
asturianos
asturias
astute
astutia
asumirse
asuncio
asylo
at
ata
atalanta
atatu
ate
ateles
atelier
ateneo
athalarico
athanasian
athanasio
athee
atheismo
atheista
atheistas
athena
athenas
athenea
atheniese
athenieses
atheo
atheos
atherstone
athleta
athletas
athletic
athletica
athletismo
ati
ation
ativismo
atlango
atlanta
atlantic
atlantico
atlantida
atlantique
atlantis
atlas
atman
atmosphera
atmospheric
atollo
atomic
atomo
atomos
ator
atque
atrocitates
atsch
attacate
attacca
attaccante
attaccar
attaccate
attaccava
attacco
attaccos
attacha
attachate
attack
attaco
attempto
attende
attendente
attender
attendeva
attentato
attentatos
attente
attentemente
attention
attentive
attentivemente
atterrage
attesta
attestate
attinge
attingente
attinger
attingeva
attingibile
attingimento
attingimentos
attingite
attis
attitude
attitudes
attraction
attractiones
attractive
attrahe
attraher
attraheva
attrahite
attrappa
attrappar
attrappate
attribue
attribuer
attribueva
attribuite
attribution
attributiones
attributo
attributos
au
auc
auckland
auctionate
audace
aude
audi
audibile
audiente
audientia
audientias
audio
audiovisual
audir
audite
audition
auditive
audito
auditores
auditorio
audiva
auf
auflage
aug
augmenta
augmentante
augmentar
augmentate
augmentation
augmentava
augmento
augsburg
augurio
august
augusta
auguste
augustin
augustinian
augustino
augusto
augustos
augustus
aulide
aumentar
aun
aunque
aura
aurate
aure
auree
aurelio
aures
auro
aurora
aus
auschwitz
auspicio
auspicios
austeritate
austin
austral
australia
australian
australis
austrasia
austria
austriac
austrian
austro
austrohungare
austronesian
aut
autem
authentic
authentication
authenticitate
author
authorised
authoritate
authority
auto
autobiographia
autobiographic
autobiography
autobus
autobuses
autochthone
autocratic
autodetermination
autodiagnose
autogestion
autographos
automatic
automaticamente
automation
automatisate
automatisation
automato
automobile
automobiles
autonome
autonomemente
autonomia
autonomic
autoportrait
autor
autorato
autores
autorisa
autorisate
autorisation
autorisava
autoritari
autoritate
autoritates
autoritative
autos
autostrata
autostratas
autotrophic
autre
autres
autshumato
autumno
auvernia
aux
auxiliar
auxiliari
auxiliary
auxilio
av
ava
avad
available
avant
avantage
avantages
avantagiose
avante
avantia
avantiamento
avantiamentos
avantiar
avantias
avantiate
avantiava
avar
avatar
avatares
ave
avec
avellana
avellino
avena
aventura
aventuras
avenue
avery
aves
avian
aviation
aviator
avicina
avide
avignon
avila
avion
aviones
avis
avisa
aviso
avisos
aviv
avo
avon
avraham
avt
avui
avunculo
aw
award
awardes
awards
away
awt
ax
axb
axe
axes
axial
axioma
axiomas
axiomatic
ay
ayacucho
aye
ayers
aymara
ayn
az
azal
azali
azerbaidzhan
azerbaijan
aznar
aznavour
azores
aztec
aztecan
aztecas
azur
azusa
azzano
b
ba
baarle
baba
babbage
babel
babi
babilonia
babism
babismo
babiste
baby
babylon
babylonia
babylonian
babylonic
bac
baccalaureato
baccalaureo
baccho
bach
bacillo
back
background
bacon
bacteria
bacterial
bacterio
bacterios
bad
badajoz
baden
badia
baena
baesweiler
baez
bag
bagdad
baggins
baghdad
bagnolo
baha
bahadur
bahai
bahais
bahaismo
bahamas
bahia
bahrain
bai
baia
baikal
baile
bailey
baixo
baja
bajo
bajos
baker
bakonyi
baku
bakunin
bal
balagtas
balakian
balancia
balbo
balcanes
balcanic
balder
baldur
baldwin
balear
baleares
balearic
balena
balenas
balenero
balkan
balkanes
balkanic
balki
ball
balla
ballada
balladas
ballas
ballet
ballo
ballon
ballones
balloon
balnea
balrog
balsa
baltasar
baltic
baltico
baltimore
balto
bambi
bambini
bambu
bambuco
ban
bana
banal
banana
bananas
banca
bancari
bancarupta
bancas
banchetto
banco
bancos
band
banda
bandas
bandeira
bandeirante
bandiera
bandieras
bando
bang
bangkok
bangladesh
baniar
banio
bank
bankruptcy
banks
banner
bannir
bano
banshees
bantu
baobab
baobabes
baptisate
baptisava
baptismal
baptismo
baptista
baptistas
baptiste
bar
bara
barack
barangay
barba
barbados
barbara
barbare
barbaric
barbaros
barbera
barbero
barca
barcas
barcelona
barcino
barclay
barco
barcos
bardeen
barfi
bari
bariju
barker
barletta
barnaba
barnard
barnes
barney
barngarla
baroc
baroco
baron
baronia
barra
barraca
barrage
barral
barranquilla
barras
barrate
barre
barrel
barrett
barriera
barrieras
barrio
barrios
barros
barry
bart
barth
barthes
bartitsu
bartolome
bartolomeo
barton
baruch
bas
basa
basal
basante
basar
basate
basava
basc
basco
bascos
base
baseball
based
basel
bases
basho
basia
basic
basicamente
basics
basidiomycetos
basil
basilan
basilea
basilica
basilicata
basilio
basilisco
basilisk
basis
basketball
bass
bassa
bassano
bassate
basse
bassino
bassinos
bassista
basso
basta
bastante
bastardo
bastille
bastion
baston
bastones
bastos
bat
bata
bataille
batallia
batangas
batavia
batavos
batista
batman
baton
bator
battaglia
battalia
battalias
battallia
batte
batter
batteria
batterias
batterista
batteva
battista
battite
battle
baudelaire
baudouin
bauhaus
baum
bauserman
bavaria
bay
baya
bayard
baybayin
bayer
bazar
bb
bbc
bc
bce
bd
bds
be
beach
beagle
bean
beans
bear
beast
beasts
beat
beate
beatification
beatles
beatriz
beaufront
beaumont
beautiful
beauty
beauvoir
beaux
bebe
bebox
bec
becco
beck
beckett
become
becomes
bede
been
beethoven
beezus
before
befreite
begin
beginners
beginning
beginnings
beha
behai
behavior
behind
bei
beijing
beijo
being
beirut
bel
bela
belarus
belbo
belfast
belfort
belgas
belge
belgica
belgio
believe
belisario
belize
bell
bella
belle
belles
belletristic
bellic
belligerente
bellissime
bello
belloc
bellos
bells
belluno
belmont
belmonte
belo
belt
beltate
beltra
belvedere
bemol
ben
benacerraf
bendit
bene
benedetto
benedicite
benedict
benedicte
benediction
benedictiones
benedicto
benedito
benefic
beneficente
beneficia
beneficiava
beneficio
beneficios
benelux
benes
benesser
benet
benevento
benevole
bengala
bengali
benidorm
benigne
benin
benito
benjamin
benjamins
bennett
benny
benoi
benque
bent
benten
bentley
bento
benton
bentosto
benvenita
benvenite
benz
benzina
beowulf
ber
berber
berbero
berenguer
berg
bergamo
bergen
berger
bergman
bergwerks
berillos
bering
beringei
berkeley
berlin
berman
bermuda
berna
bernard
bernardino
bernardo
bernat
berne
berners
bernhard
bernhardt
bernoulli
bernstein
berolini
berry
bertie
bertrand
beryllium
besonia
besoniate
besoniava
besonio
besonios
bessarabia
best
bestia
bestial
bestiario
bestias
bestseller
bet
beta
beth
bethlehem
beton
better
betty
betula
between
beverly
bey
beyond
bf
bg
bh
bha
bhara
bhutan
bi
bia
biagio
bialik
bianco
bibbiena
bibe
biber
biberage
biberages
bibita
bibitas
bibitura
bible
biblia
biblias
biblic
biblical
bibliografi
bibliographia
bibliographic
bibliography
biblioteca
bibliotecas
bibliotheca
bibliothecario
bibliothecarios
bibliothecas
bibliotheken
bicameral
bicarbonato
bicycletta
bicyclettas
biden
bidimensional
bielefeld
biella
bielorusse
bielorussia
bielorusso
bien
bierzo
bifida
bifrost
bifurca
big
bigg
bigodot
biguac
bihar
bijection
bil
bilabial
bilateral
bilateria
bilbao
bilbo
bild
bilder
bile
biliari
bilinear
bilingue
bill
billboard
billetes
billion
billiones
billstro
billy
bimensual
bimestral
bin
binari
binaria
binary
binarysearch
bing
bingen
binh
binocular
binomio
bio
biobi
biocentrism
biocentrismo
biochimia
biochimic
biochimista
biodiversitate
biogene
biogenesis
biografia
biographia
biographias
biographic
biographical
biographo
biographos
biography
biologia
biologic
biologista
biologistas
biologo
biologos
biology
biomedic
biophysica
bios
bioscientia
biot
biota
biotechnologia
biotechnology
bioware
bipede
biphobia
bipm
bira
bird
birds
birman
birmania
birmingham
birth
birthday
bis
biscaya
biscuit
bisexual
bisexuales
bisexualitate
bishamon
bishop
bism
bismarck
bismo
bismuth
bison
bisonte
bisontes
bissau
bissextil
biste
bit
bitcoin
bits
biu
bius
biwa
bl
bla
black
blacks
blackwell
blair
blaise
blake
blanc
blanca
blanco
blancos
blande
blandino
blanke
blas
blason
blau
blava
bli
blica
blico
blind
bliss
blizzard
bloc
bloca
blocada
blocage
blocamento
blocar
blocate
bloco
blocos
blog
blogs
blomberg
blonde
blood
bloom
bloomfield
bloomington
bloomsbury
blu
blue
blues
bluetooth
bluffs
blumenau
blyth
bmg
bnf
bo
boa
board
boat
bob
bobby
bobina
boca
bocaina
boccaccio
bochica
bochum
bodhi
bodhisattva
body
boe
boedo
boer
bogolyubov
bogota
bohemia
bohemian
bohr
bohusla
boirac
bois
boise
boiteux
bokma
boku
bokutachi
bolchevic
bolchevicos
bolchevistas
boldsymbol
boli
bolivar
bolivarian
bolivariana
bolivia
bolivian
bolla
bollas
bollettas
bologna
bolognese
bolonia
bolsa
bolsonaro
boltran
boltzmann
bolzano
bom
bomba
bombardamento
bombardamentos
bombas
bombay
bombinhas
bompiani
bon
bona
bonaire
bonaparte
bonasus
bond
bone
bones
bonifa
bonifacio
bonita
bonitate
bonn
bono
bonobo
bonobos
book
books
boolean
boom
boomerang
bop
bopp
bora
borbon
borda
bordate
border
bordo
bordodecorator
bordos
boreal
borealis
boreoeutheria
borg
borge
borges
borghetto
borgo
boris
bormida
born
borneo
bornholm
boro
boromir
borough
boroughs
borovac
bos
bosch
bosco
boscos
bose
bosnia
boson
bosones
boss
boston
boswell
bosworth
bot
botania
botanic
botanica
botanico
botanista
botanistas
botany
boteca
botecas
boteller
bots
botswana
bottilia
bottilias
bottom
bottrop
botuvera
boulevard
boulogne
bounty
bourbon
bourdon
bove
boves
bovidae
bovin
bovino
bovinos
bowie
bowness
box
boxa
boxator
boxatores
boxe
boxer
boxes
boxing
boxrec
boy
boyd
boyle
boylovers
boys
boywiki
bq
br
bra
brabant
brabante
brac
brachio
bracio
bracios
bradford
bradley
braga
brahe
brahma
brahman
brahms
braille
brain
bramante
branca
brancas
branco
brand
brandeburgo
brandenburg
branta
braque
bras
brasil
brasileira
brasileiro
brasilia
brasilian
brasilianos
brassica
bratislava
braun
braunschweig
brava
brave
bravo
brazzaville
bre
break
brecha
brecht
breda
breinig
breinstrup
bremen
brenta
brescia
breton
breve
brevemente
brian
brianza
briccas
bride
bridge
brie
brief
brieftauben
brien
briggs
brigham
brighton
brigitte
brill
brilla
brillante
brillantia
brindisi
briseida
briseide
bristol
brit
britain
britannia
britannic
britannica
britannico
britannos
brithenig
british
britone
brittonic
broad
broadcasting
broadway
broca
brochure
brochures
broken
brongersma
bronx
bronzo
brooker
brooklyn
brooks
bros
brother
brothers
brown
browne
brownella
browse
browser
bru
bruce
bruckner
bruma
brun
bruna
brunei
bruno
brunswick
bruscamente
brusque
brussel
brutal
brutalitate
brute
bruto
bruxa
bruxelles
bryant
bsd
bt
bu
bubalus
bubonic
bucarest
bucca
buch
buchanan
buck
bucket
buckingham
buckinghamshire
buckley
bucla
buclas
buda
budapest
buddha
buddhas
buddhic
buddhism
buddhismo
buddhismus
buddhist
buddhista
buddhistas
budget
buena
bueno
buenos
bufalo
buffalo
bufon
building
buildings
built
bulacan
bulgare
bulgaria
bulgaro
bull
bulla
bullas
bulldog
bullenbeisser
bulletin
bulletines
bullite
bullmastiff
bullonera
bullough
bun
bunita
buonarroti
bura
burbank
bureau
bureaucratia
bureaus
bureba
burg
burgese
burgeses
burgesia
burgo
burgomaestro
burgos
burgundia
burgundie
burkina
burlas
burnett
burning
burns
burroughs
burrows
bursa
bursas
burundi
bus
busca
bush
business
bussola
bustillo
busto
but
butino
butterworth
button
buttones
butyro
buzz
bvh
bxc
bxd
bxe
by
byrne
byron
bysshe
byte
bytecode
bytes
byti
byzantin
byzantine
byzantinos
byzantio
byzantium
c
ca
caballeros
caballus
caban
cabana
cabanas
cabeza
cabezas
cabezo
cabinetto
cablo
cablos
cabo
cabral
cac
cacao
caceres
cache
cada
cadaver
cadavere
cadaveres
cade
cadente
cader
caderas
cadeva
cadita
caditas
cadite
cadmium
cadmo
cadore
caesar
caesium
cafe
caffe
caffeina
cage
cagliari
cahiers
caibi
caico
caio
cairo
cal
calabria
calabro
calais
calamar
calcari
calcario
calcas
calce
calceatura
calceaturas
calcite
calcium
calco
calcula
calcular
calculate
calculation
calculationes
calculator
calculatores
calculava
calculo
calculos
calcutta
caldas
calde
caldecott
caldero
cale
caledonia
calefacer
calefacite
calefaction
calendar
calendario
calendarios
calendas
calgary
cali
calice
calide
califa
califato
califia
california
californium
caligula
caliphato
call
called
calling
callithrix
callitrichidae
calma
calme
calmon
calor
caloric
caltanissetta
calve
calvin
calvinismo
calvinista
calvino
calvo
calypso
cam
cama
camargo
cambara
cambia
cambiamento
cambiamentos
cambiante
cambiar
cambiara
cambiarea
cambiate
cambiava
cambio
cambios
cambodgia
cambodja
camboriu
cambridge
camden
came
camelidae
camelides
camelo
camelos
camelus
camembert
camemberti
camera
camerada
cameras
camerera
camerero
cameron
cameroon
camerun
camille
camillo
caminho
camino
camion
camiones
camisa
cammino
camminos
camo
camp
campaign
campamento
campana
campanas
campaneros
campania
campanias
campanil
campbell
campestre
campillo
campion
campionato
campionatos
campiones
campo
campobasso
campoo
campos
campus
camus
can
cana
canaan
canada
canadensis
canadese
canadian
canal
canales
canari
canaria
canasta
cancellate
cancellera
cancelleria
cancellero
cancer
cancere
canceres
candela
candelabro
candelas
candida
candidate
candidato
candidatos
candidatura
candido
candomble
cane
canelinha
canes
canidae
canides
canin
canini
canino
canis
canna
cannabis
cannas
cannella
cannon
cano
canoa
canoinhas
canon
canone
canones
canonic
canonical
canonisate
canonisation
canta
cantabria
cantabric
cantabros
cantagallo
cantante
cantar
cantate
cantator
cantatores
cantatrice
cantautor
cantava
canterbury
cantier
cantion
cantiones
canto
canton
cantones
cantonese
cantor
cantores
cantos
canyon
cap
capa
capabile
capabilitate
capabilitates
capace
capacitate
capacitates
cape
capecchi
capella
capillo
capillos
capinzal
capita
capital
capitales
capitalismo
capitalista
capitanias
capitano
capite
capites
capitol
capitolio
capitulation
capitulava
capitulo
capitulos
capivari
capo
capoeira
cappa
cappadocia
cappella
cappellas
cappello
capra
capras
capri
capricorno
caprinae
capro
capros
capsula
captain
captivate
captive
captivitate
captura
capturante
capturar
capturate
capturava
capuchino
capuchinos
car
cara
caracal
caracas
caras
caravaggio
carbohydrato
carbohydratos
carbon
carbonato
carbonic
carbono
carboxylation
carboxylic
carburante
carcere
card
carden
cardenal
cardenales
cardiac
cardiff
cardinal
cardinales
cardinalitate
cardines
cardiologia
cardiopulmonar
cardiovascular
cardona
care
carentia
caressas
careva
carga
cargamento
cargar
cargas
cargate
cargava
cargo
cargos
caribbean
caribe
caribes
caricatura
caricaturas
cariera
carinthia
carinthian
carinthianos
caritate
carl
carlisle
carlo
carlos
carlsson
carmel
carmem
carmen
carne
carneades
carnegie
carneiro
carneval
carnivora
carnivore
carnivores
carnivoro
carnot
caro
carol
carolina
caroline
carolinensis
carolinge
carolingos
carolo
carolomanno
carolus
carolyn
carpenter
carpentero
carpenters
carpentier
carrara
carre
carrie
carrier
carriera
carrieras
carro
carrol
carroll
carros
carrossa
carry
carta
cartagena
cartas
cartel
carter
cartes
cartesian
carthagine
carthaginenses
carthagineses
carthago
cartier
cartilagine
cartilaginose
cartledge
cartographia
cartographo
cartones
cartoon
cartucha
carvalho
cas
casa
casal
casale
casaletto
casandra
casanova
casar
casas
casate
casava
cascada
cascadas
casco
case
caseo
caseos
caserta
cases
cash
casi
casimir
casino
caso
casos
caspie
cassa
cassandra
cassano
cassas
cassero
cassini
casta
castan
castel
castelfranco
castell
castella
castellana
castellano
castelle
castelletto
castellina
castello
castellos
castelnuovo
castelo
casteyre
castigate
castigation
castiglione
castilia
castilian
castiliano
castilla
castillo
castitate
castle
castor
castration
castrillo
castro
castrum
casu
casual
cat
cata
catacombas
catala
catalan
catalana
catalanico
catalano
catalans
catalina
catalogate
catalogo
catalogos
catalonia
catalun
catalunya
catalysator
catanduvas
catania
catanzaro
cataracta
catarina
catarinense
catarrhini
catastrophe
catastrophes
catch
cate
catechismo
categori
categoria
categorias
categoric
categoricamente
categorisate
category
catena
catenas
catharina
cathedra
cathedral
cathedrales
catherine
cathodic
catholic
catholica
catholicismo
catholico
catholicos
cationes
cato
caton
catta
catto
cattos
catullo
catus
cauca
caucasicus
caucaso
cauchy
caucus
cauda
caudas
caule
causa
causal
causante
causar
causara
causas
causate
causava
cause
causes
caute
cava
cavalca
cavalcava
cavalla
cavalleria
cavallero
cavalleros
cavallo
cavallos
cave
cavendish
caverna
cavernas
cavitate
cavitates
cavite
cavo
cavos
cavour
caxambu
cayce
cayley
cb
cbc
cbs
cc
cd
cdc
cdot
cdots
ce
ceara
cebu
cec
ceca
ceci
cecil
cecilia
cecitate
ceco
ced
cede
ceder
cedeva
cedite
cedric
cedro
cedros
cee
cel
cela
celar
celate
celava
cele
celebra
celebrante
celebrar
celebrate
celebration
celebrationes
celebrava
celebre
celebritate
celere
celeste
celestial
celibato
celibe
celine
cell
cella
cellas
celle
celles
cello
cellos
cells
cellula
cellular
cellulas
cellulosa
celo
celos
celsius
celso
celtas
celtiberos
celtic
celtico
cembre
cemeterio
cena
censimento
censo
censos
censura
censurar
censurate
census
centauri
centauro
centena
centenario
centenarios
centenas
center
centesime
centimetro
centimetros
cento
centos
centra
central
centrales
centralisar
centralisate
centralisation
centrate
centrava
centre
centro
centroafrican
centrolobular
centros
century
ceo
cephalopoda
cephalopodos
ceramica
cerca
cercante
cercar
cercas
cercate
cercator
cercatores
cercava
cereal
cereales
cerebral
cerebro
cerebros
ceremonia
ceremonial
ceremonias
cerere
ceres
cerium
cern
cerqueira
cerrato
cerreto
cerrito
cerro
certain
certainly
certe
certemente
certification
certificato
certitude
certo
cervantes
cervo
cervos
ces
cesar
cesare
cesarea
cesario
cesena
cesium
cesnu
cessa
cessar
cessara
cessate
cessation
cessava
cestodo
cestodos
cetacea
cetaceos
cetera
cetero
ceterum
cette
ceuta
cevennas
cf
cfm
cfr
cgi
cgpm
ch
cha
chac
chacarera
chachiero
chaco
chacos
chad
chadic
chagall
chahine
chain
chaise
chakates
chakona
chalandon
chalcedonia
chalcedonian
chalcogenos
chamber
chamberlain
chamorro
champignon
champignones
champion
champions
championship
champollion
chan
chance
chandler
chandrasekhar
chang
change
changing
channel
chansons
chante
chants
chanukah
chaos
chaotic
chap
chapada
chapeco
chaplin
chapman
chapter
char
character
characteres
characterisa
characterisar
characterisate
characterisation
characterisava
characteristic
characteristica
characteristicas
charges
charisma
charismatic
charles
charleston
charlie
charlotte
charme
chart
charta
chassa
chassar
chassate
chassator
chassatores
chassava
chassis
chat
chaucer
chaus
chaux
chavacano
chavo
che
chec
chechia
checo
checoslovac
checoslovachia
chef
chefes
chefs
chekhov
chemical
chemin
chemistry
chemoton
chepelare
cher
cherokee
ches
cheshire
chester
chesterman
chesterton
chez
chi
chiang
chibcha
chibchan
chicago
chiche
chicken
chico
chiesa
chieti
chigi
child
childhood
children
childsexual
chile
chilen
chiloe
chimia
chimic
chimicamente
chimico
chimicos
chimista
chimpanze
chimpanzee
chimpanzes
chin
china
chinese
chineses
ching
chios
chip
chiptune
chirac
chiron
chironex
chiroptera
chiropteras
chirurgia
chirurgic
chirurgo
chis
chitina
chlorhydric
chloro
chloroplastos
chloruro
cho
choc
choco
chocolate
chof
choice
chok
cholera
cholesterol
chomsky
chondrichthyes
chopin
chopra
choral
chorda
chordas
chordata
chordate
chordatos
choreographo
choro
chr
chris
christ
christi
christiaan
christian
christiana
christiane
christiani
christianismo
christianitate
christianity
christiano
christianos
christie
christina
christine
christmas
christo
christologia
christologic
christoph
christopher
christophoro
christum
christus
chromatic
chrome
chromium
chromo
chromodynamica
chromosomas
chronic
chronica
chronicas
chronicles
chronista
chrono
chronologia
chronologic
chronologicamente
chronometria
chronometro
chronos
chten
chu
chuck
chung
church
churchill
ci
cia
cias
cibollas
cicatrice
cicero
ciceron
cid
cidade
cidive
cie
ciel
cieles
cielo
ciencia
ciencias
cifra
cifras
cii
cil
cilento
cilicia
cim
cima
cincinnati
cinco
cinctura
cincturas
cine
cineasta
cinema
cinemas
cinematic
cinematographia
cinematographic
cinere
cineres
cinetic
cinquanta
cinque
cio
circa
circe
circle
circo
circuito
circuitos
circula
circular
circulation
circulatori
circulo
circulos
circum
circumcision
circumfere
circumferente
circumferentia
circumferite
circumflexe
circumjacente
circumnavigation
circumnavigava
circumstantia
circumstantias
circumvallate
circus
cirith
ciro
cirrhosis
cirriforme
cirro
cirrocumulo
cirrose
cirrostrato
cirugi
cis
cisgenere
cisjordania
cisterna
cit
cita
citadella
citado
citar
citatania
citatanitate
citatano
citatanos
citate
citates
citation
citationes
citava
cities
citizen
cito
citta
city
citypopulation
ciudad
ciutat
cive
cives
civic
civil
civiles
civilisation
civilisationes
civilization
civilizations
civitas
civitate
civitella
ck
cke
ckelhoven
cken
cl
cla
cladistic
cladistica
clado
cladogram
cladogramma
claim
claims
claire
clama
clamate
clamava
clan
clandestin
clanes
clar
clara
clare
clarendon
clarificar
clarificate
clarinetto
claritate
clark
clarke
clarkson
clarmente
claro
clary
clase
clases
clasica
class
classate
classe
classes
classic
classica
classical
classicismo
classico
classicos
classifica
classificar
classificate
classification
classificationes
classificava
classis
classix
claude
clauder
claudeva
claudia
claudimento
claudio
claudite
claudius
claus
clause
clausura
clave
claves
clavierista
claviero
clavieros
clavo
clavos
clay
cle
clean
cleary
cleij
clemens
clement
clemente
cleomenes
cleopatra
clerical
clerico
clericos
clerk
clerke
clermont
clero
cleveland
cli
cliath
clic
clicca
cliccar
click
clicked
cliente
clientes
cliff
clifford
clima
climate
climatic
climatologia
climax
clinic
clinica
clinical
clinicas
clinton
clitemnestra
clive
clodoveo
clon
clonage
clones
close
clp
club
clubes
clubs
clusters
clyster
cm
cmm
cn
cnica
cnidaria
cnn
cnossos
co
coagulate
coagulation
coahuilteco
coalition
coalitiones
coarde
coardia
coast
cobalt
cobol
coc
coca
cocaina
cocal
cocer
cochimi
cocina
cocinar
cocinas
cocinera
cocite
coclear
coco
cocon
code
codes
codex
codice
codices
codificate
codification
codificationes
codominio
coeli
coercition
coexisteva
coffee
coffeedecorator
coffro
coffros
cofundator
cognate
cognatos
cogniscite
cognite
cognition
cognitive
cognocite
cognomine
cognosce
cognoscente
cognoscentia
cognoscentias
cognoscer
cognosceva
cognoscientia
cognoscimento
cognoscimentos
cognoscite
cognoscites
cohabitation
cohen
coherente
coherentia
coherer
coheritor
cohesion
cohesor
cohn
coimbra
coincide
coincidentia
coincider
coincideva
coito
col
cold
cole
coleccio
colectivos
colegio
coleridge
colet
colica
colin
coll
collabeva
collabora
collaborar
collaborate
collaboration
collaborationes
collaborative
collaborator
collaboratores
collaborava
collado
collage
collapso
collateral
colle
collecta
collection
collectiones
collectionismo
collections
collective
collectivemente
collectivitate
collectivitates
collectivo
collectivos
collector
collectores
collega
collegas
college
collegio
collegios
collegite
collegium
colles
collide
collideva
collige
colligente
colliger
colligeva
colligite
collina
collinas
collins
collinson
collision
collisiones
collo
collocar
collocate
collocava
collodi
colloquial
colloquialmente
colo
colombia
colombian
colombianos
colombo
colon
colonia
colonial
colonialismo
colonias
colonisar
colonisate
colonisation
colonisatores
colonisava
colonnello
colonos
color
colorado
colorate
coloration
colores
colossenses
colosseo
colosso
colour
colours
colpa
colpante
colpar
colpate
colpava
colpo
colpos
columba
columbari
columbas
columbia
columbian
columbiera
columbo
columna
columnas
com
coma
comanche
comandava
comarcas
combat
combati
combatique
combatte
combattente
combattentes
combatter
combatteva
combattite
combatto
combattos
combina
combinante
combinar
combinate
combination
combinationes
combinava
combustibile
combustibiles
combustion
come
comecrudan
comedia
comedias
comedo
comedy
comencia
comenciamento
comenciamentos
comenciante
comenciantes
comenciar
comenciate
comenciava
comencio
comenius
comercio
comes
comestibile
cometa
cometas
comic
comicamente
comico
comicos
comics
comida
coming
comisi
comission
comite
commandamento
commandamentos
commandante
commandantes
commandate
commandator
commandava
commando
commandos
comme
commemora
commemorar
commemorate
commemoration
commemorative
commentario
commentarios
commentary
commentate
commentator
commentatores
commentava
commento
commentos
commercial
commercialisate
commercialisation
commercialmente
commerciante
commerciantes
commerciava
commercio
commissario
commission
commissionate
commissionava
commissiones
commisso
committe
committee
committees
committeva
committite
commode
commodore
common
commons
commonwealth
commun
communa
communal
communas
commune
communes
communica
communicar
communicate
communication
communicationes
communications
communicative
communicato
communicator
communicava
communion
communism
communismo
communist
communista
communistas
communistic
communitari
communitate
communitates
community
communmente
commutation
commutative
commutator
como
comocunque
comores
compacte
compania
companias
companion
companiones
company
compara
comparabile
comparante
comparar
comparate
comparation
comparationes
comparative
comparativo
compare
comparison
comparite
comparte
comparti
compartir
compartite
compartiva
compasso
compatibile
compatibilitate
compellite
compendio
compensation
competente
competentia
competentias
competer
competeva
competition
competitiones
competitive
competitivitate
competitor
compiere
compilar
compilate
compilation
compilationes
compilator
compilatores
compilava
comple
complementa
complementari
complemento
compler
completa
completar
completate
completava
complete
completemente
completes
completion
complex
complexe
complexitate
complexo
complexos
compli
complicate
complicates
complicationes
complimento
complimentos
complir
complite
compliva
complutense
compone
component
componente
componentes
componer
componeva
componite
comporta
comportamental
comportamento
comportamentos
comportar
comportate
comportava
composite
composites
composition
compositiones
compositions
composito
compositor
compositores
compositos
composte
compostela
compostos
compound
compra
comprar
compras
comprate
comprava
comprehende
comprehendente
comprehender
comprehendeva
comprehendite
comprehension
comprehensive
comprende
comprendente
comprender
comprenderea
comprendeva
comprendite
comprendre
comprensibile
comprension
compression
comprimite
comprise
compromiso
compromisso
compuesta
compulsori
computar
computate
computation
computational
computator
computatores
computatorial
computer
computers
computing
computo
comte
comun
comunication
comunidad
comunitari
comunitate
comunleng
con
conakry
conan
conca
concatenate
concede
concedeva
concedite
concentra
concentrar
concentrate
concentration
concentrationes
concentrator
concentrava
concepcio
concept
conception
conceptiones
concepto
conceptos
concepts
conceptual
conceptualmente
concernant
concerne
concernente
concerneva
concerning
concernite
concert
concerto
concertos
concession
concessiones
concha
conchas
concilia
concilio
concilios
concipe
conciper
concipeva
concipite
concise
conclude
concludente
concluder
concludeva
concludite
conclusion
conclusiones
conclusive
conco
concolor
concorda
concordantia
concordantias
concordate
concorde
concordia
concretar
concrete
concretemente
concurre
concurrente
concurrentemente
concurrentia
concurrer
concurso
concursos
conde
condemna
condemnar
condemnate
condemnation
condemnava
condensar
condensate
condensation
condensator
condensatores
condimento
condimentos
condita
condition
conditional
conditionamento
conditionate
conditiones
conditions
condivide
conduce
conducer
conduceva
conducite
conducta
conductas
conduction
conductivitate
conducto
conductor
conductores
conepatus
confederate
confederation
confere
conference
conferentia
conferentias
confereva
conferite
confessa
confessar
confession
confessional
confessiones
confessions
confide
confidentia
confidentialitate
confideva
confidibile
configura
configurate
configuration
configurationes
confina
confinate
confinava
confinio
confinios
confirma
confirmar
confirmate
confirmation
confirmava
confiscate
conflict
conflicto
conflictos
confluentes
confluentia
conforma
conformante
conformar
conformate
conforme
conformitate
confronta
confrontar
confrontate
confrontation
confrontationes
confrontava
confucianismo
confucio
confunde
confundente
confunder
confundite
confusate
confuse
confusion
confusiones
cong
congedate
congelation
congenital
congestion
congesto
congo
congre
congregation
congregational
congregationes
congreso
congress
congressional
congresso
congressos
congruentia
conic
conilio
conilios
conjectura
conjucto
conjugal
conjugate
conjugation
conjugationes
conjuncte
conjunctemente
conjunction
conjunctiones
conjuncto
conjunto
conlang
conlangers
connect
connecta
connecte
connecter
connecticut
connection
connectiones
connectite
connective
conner
connexe
connexion
connexiones
connor
connotation
connotationes
cono
conque
conquerite
conquest
conquesta
conquestas
conquirer
conquireva
conquirite
conquisitor
conquisitores
conquista
conquistador
conquistate
conrad
consacrate
consanguinitate
conscie
consciente
conscientia
consciousness
conscription
conse
consecrar
consecrate
consecration
consecrava
consecutive
conselios
consenso
consensual
consensus
consent
consenti
consentimento
consentir
consentite
consentiva
conseque
consequente
consequentemente
consequentia
consequentias
consequer
conserva
conservancy
conservar
conservate
conservation
conservatismo
conservative
conservator
conservatores
conservatori
conservatorio
conservava
considera
considerabile
considerabilemente
considerante
considerar
considerate
consideration
considerationes
considerava
consilia
consiliator
consiliero
consilieros
consilio
consilios
consiste
consistente
consistentemente
consistentia
consister
consisteva
consola
consolas
consolation
console
consolidation
consolidava
consonantal
consonante
consonantes
consonantia
consonantic
consorte
consortium
conspicue
conspiracy
conspirar
conspiration
conspirationes
conspirava
consta
constant
constante
constantemente
constantes
constantia
constantino
constantinopole
constantio
constants
constata
constatar
constatate
constatava
constellation
constellationes
consternate
constiste
constitucio
constitue
constituente
constituentes
constituer
constitueva
constitui
constituite
constitution
constitutional
constitutionalmente
constitutiones
constitutivas
constitutive
constituyente
constituyentes
constriction
construccio
construcciones
constructe
constructed
construction
constructiones
constructive
constructor
constructores
construe
construer
construeva
construir
construite
construiva
consubstantiation
consul
consulato
consule
consules
consulta
consultar
consultas
consultate
consultation
consultative
consultive
consultor
consume
consumer
consumeva
consumite
consumitor
consumitores
consummation
consumo
consumption
conta
contabile
contabilitate
contact
contacta
contactar
contacto
contactos
contacts
contagion
contagiose
container
containers
contaminate
contante
contar
contate
contato
contator
contatos
contava
conte
contea
contemplation
contemplative
contempora
contemporanee
contemporaneemente
contemporaneo
contemporaneos
contemporari
contemporary
contempto
contene
contener
contenite
contenito
content
contente
contention
contentiones
contento
contentos
contes
contessa
contest
contestar
contestate
contestation
contestava
context
contexto
contextos
contiene
contine
continental
continente
continentes
continentia
continer
contineva
contingente
continite
continua
continuante
continuar
continuara
continuate
continuation
continuava
continue
continuemente
continueva
continuitate
continuo
conto
contornos
contos
contra
contraattacca
contraattaccar
contraattacco
contrabasso
contraction
contractiones
contracto
contractos
contracultura
contradice
contradiction
contradictiones
contradictori
contraexemplo
contrafacite
contrahe
contraher
contrahite
contraoffensiva
contraposition
contrapuncto
contrareforma
contrari
contraria
contrariar
contrarie
contrarimente
contrario
contrasigno
contrasta
contrastante
contrastar
contraste
contrasto
contrastos
contravention
contre
contribue
contribuente
contribuer
contribuera
contribueva
contribuite
contribuiva
contribution
contributiones
contributores
contro
control
controla
controlante
controlar
controlate
controlator
controlatores
controlava
controles
controllate
controllator
controlled
controllo
controlo
controlos
controverse
controversia
controversial
controversias
controvertite
convection
convective
convencite
conveni
convenibile
conveniente
convenientia
convenios
conveniva
convention
conventional
conventionalmente
conventiones
convento
converge
convergente
convergentia
converger
conversation
conversationes
conversion
conversiones
conversos
converte
convertente
converter
convertera
converterea
converteva
convertir
convertite
convertiva
conviction
convictiones
convince
convincer
convinceva
convincite
convoca
convocate
convocation
convocava
conway
cook
cookbook
cooper
coopera
cooperation
cooperativa
cooperativas
cooperative
coordina
coordinadas
coordinar
coordinatas
coordinate
coordinates
coordination
coordinator
coornhert
copacabana
cope
copenhagen
coperi
coperiente
coperir
coperite
coperiva
copernico
coperta
coperte
copertura
coperturas
copia
copiar
copias
copiate
copiava
copiose
coppe
copte
coptic
copula
copulas
copulation
copy
copyleft
copyright
copyrightes
cor
corage
coragiose
coral
corallifere
corallin
corallo
corallos
coran
corbusier
corcos
corda
cordas
corde
cordel
cordes
cordilheira
cordillera
cordis
cordova
core
corea
corean
coreano
corfu
corinthios
corintho
corinto
cormoran
cornamusa
cornamusas
corneille
corneja
cornelio
cornelius
cornell
corneria
cornic
cornico
cornioley
corno
cornos
cornuallia
cornwell
corollario
corona
coronas
coronate
coronation
coronava
coronavirus
coronel
corpo
corporal
corporate
corporation
corporationes
corporative
corpore
corpores
corporis
corps
corpulente
corpus
corradini
corral
corre
correcte
correctemente
correction
correctiones
corrective
corrector
correia
correlate
correlation
corresponde
correspondente
correspondentia
corresponder
correspondeva
corridor
corriere
corriger
corrigite
corrosion
corrosive
corrumper
corrumpite
corrupte
corruption
corruptores
corsarios
corse
corsica
corso
corte
cortes
cortesana
cortese
cortice
cortina
corun
corundo
corupa
corvo
corydon
cos
cosa
cosas
coscribeva
cosenza
cosimo
cosina
cosino
cosme
cosmic
cosmo
cosmoglotta
cosmologia
cosmologic
cosmonauta
cosmonave
cosmopolita
cosmos
costa
costalago
costari
costas
costava
costo
costos
costose
costumari
costume
costumes
cotidianus
coton
cotoname
cottage
cotton
cottrell
cougar
could
coulomb
council
count
counter
countries
country
county
coup
couplet
courier
course
court
courts
cousteau
cout
couturat
cov
covalente
covenant
cover
covid
cox
coxa
coxu
cp
cpgb
cpj
cpr
cpu
cqc
cr
crac
cracovia
cradock
crafoord
craig
crane
cranial
cranio
craniofacial
crash
crasse
crater
crateres
crates
cravata
crc
cre
crea
creante
crear
creara
crearea
create
created
creation
creationes
creationismo
creative
creativitate
creator
creatores
creatura
creaturas
creava
crede
credente
credentes
credentia
credentias
creder
credeva
credibile
credibilitate
creditate
credite
credito
creditos
credo
credos
cree
creed
crema
cremasco
cremation
cremona
creol
creolo
crepusculo
cresce
crescente
crescentia
crescer
cresceva
crescimento
crescite
creso
cresta
creta
cretacee
creusa
creutzfeldt
cri
criciu
crick
cricket
cries
crime
crimea
crimes
criminal
criminales
criminalitate
crimine
crimines
criminologia
criniera
crise
criseide
crises
crisis
crisp
cristal
cristian
cristina
cristo
critar
critava
criterio
criterios
critic
critica
critical
criticamente
criticar
criticas
criticate
criticava
criticism
criticismo
critico
criticos
critics
critique
crito
critos
crits
crivain
croate
croatia
croato
croatos
croc
croce
crochetage
crocker
crocodilo
crocodilos
crocodylus
crofts
cromwell
crono
cropped
crosby
cross
crotone
crown
cruce
crucia
cruciada
cruciadas
crucial
cruciamento
cruciar
cruciata
cruciate
cruciava
crucifigite
crucifixion
crucis
crude
cruel
crusta
crustaceos
cruz
cry
cryogenic
crypto
cryptogamos
cryptographia
cryptomoneta
crystal
crystallin
crystallo
crystallographic
crystallos
cs
csesznek
csn
css
csv
ct
cthulhu
ctica
cticamente
cticas
ctico
cticos
ctor
cu
cuadernos
cual
cuales
cuando
cuba
cuban
cubanos
cube
cubic
cubismo
cubista
cubito
cubo
cubozoa
cucu
cuddy
cue
cuenca
cuenta
cuentos
cuesta
cueva
cuevas
cuirassato
cuje
culbert
culinari
culminante
culmination
culminava
culmine
culo
culos
culpa
culpabile
culpabilitate
cult
culte
cultiva
cultivar
cultivate
cultivation
culto
cultos
cultual
cultura
cultural
culturalmente
culturas
culture
cultures
cultuur
cum
cumbia
cumbre
cumbria
cumplir
cumuliforme
cumulo
cumulonimbiforme
cumulonimbo
cumulos
cun
cuneate
cuneiforme
cuneo
cunha
cunhatai
cunnilingus
cunningham
cup
cupido
cupola
cuppa
cuppas
cupro
cura
curac
curar
curate
curation
curative
cure
curia
curie
curiose
curiositate
curiositates
curitiba
curitibanos
curley
curre
current
currente
currentemente
currentes
currents
currer
currero
curreva
curriculo
currite
cursa
cursas
curso
cursos
cursus
curt
curte
curtis
curva
curvas
curvate
curvatura
curve
cusano
custode
custodia
custom
customari
cut
cute
cutter
cutugno
cuvier
cv
cw
cx
cxe
cxxiv
cyanobacterios
cybele
cyclic
cyclismo
cyclista
cyclo
cyclon
cyclones
cyclonic
cyclopes
cyclos
cyclotis
cygno
cylindric
cylindro
cypresso
cypriano
cypro
cyrillic
cytologia
cytoplasma
cz
cœur
d
da
dabney
dacca
dacian
dacianos
dactylo
dada
dadaismo
dade
daejeon
dai
daikoku
daily
daire
dakinis
dakota
dal
dalai
dale
dalecarlia
dali
dalila
dallas
dalmatia
dam
dama
damage
damas
damasco
damascus
dame
damiano
damnate
damnificar
damnificate
damno
damnos
damnose
dan
dana
dance
dancer
dancing
dane
danese
daneses
danet
danger
dangerous
dania
daniel
danish
danmark
dannebrog
danny
dano
dans
dansa
dansante
dansar
dansas
dansator
dansatores
dante
danubio
daome
dar
dara
dare
darea
daredevil
dari
darie
dario
darius
dark
darmstadt
darth
dartmouth
darwin
darwinismo
das
dasyprocta
dasyproctidae
data
database
datar
datas
datate
datation
datava
date
dateformat
dates
dative
dativo
dato
datos
dattilos
datum
daughter
dava
dave
david
davies
davis
davy
dawn
day
days
dayton
db
dc
dd
ddots
de
dea
dead
deal
dealing
dean
deas
death
debate
debatte
debattite
debatto
debattos
debe
deben
debente
deber
debera
deberea
deberes
debeva
debian
debile
debilemente
debilitarea
debilitate
debilitates
debilitava
debita
debitas
debite
debito
debitores
debitos
debut
debutava
dec
decadas
decade
decadentia
decades
decadeva
decano
decarboxylation
decca
dece
decedeva
decedite
deceduo
december
decembre
decenas
decennio
decennios
decent
decentralisate
deception
deces
decesso
deci
decide
decider
decideva
decidite
decidiva
decifrar
decima
decimal
decimate
decime
decimo
decir
decirse
decision
decisiones
decisive
decissiones
declara
declarado
declarante
declarar
declarate
declaration
declarationes
declarative
declarava
declina
declinar
declinate
declination
declinationes
declinava
decline
declino
declive
decodedimage
decompone
decomposition
deconstruction
decorar
decorate
decoration
decorationes
decorative
decorator
decoratorconcretea
decoratorconcreteb
decrescer
decrescite
decretate
decretava
decreto
decretos
dedekind
dedica
dedicar
dedicate
dedicated
dedication
dedicationes
dedicava
deduce
deducer
deducite
deduction
deductive
deep
deepin
def
defaite
defamation
default
defection
defecto
defectos
defende
defendente
defender
defendeva
defendite
defensa
defensas
defense
defensive
defensor
defensores
defia
defiar
defias
defiate
defiava
deficientia
deficientias
deficit
defilava
defini
definibile
definir
definite
definition
definitiones
definitions
definitive
definitivemente
definiva
deforestation
deformate
defuncte
deg
degenerate
degli
degradation
degree
degrees
dei
dein
deinde
deiphobo
deismo
deitate
deitates
deixis
deja
deklaracio
del
dela
delacroix
delano
delauney
delaware
delega
delegar
delegate
delegation
delegato
delegatos
deler
delete
deletion
deleuze
delhi
deliberate
deliberatemente
deliberationes
delicate
delicto
delictos
delimitate
delinear
delinquente
delinquentes
delite
delito
delivra
delivrate
delivrava
dell
della
delle
dello
delmas
delphi
delphos
dels
delta
deltoide
dem
dema
deman
demanda
demandante
demandar
demandara
demandarea
demandas
demandate
demandava
demarato
demarcation
dementia
demeter
demo
democrate
democrates
democratia
democratic
democrito
demographia
demographic
demolite
demolition
demon
demoner
demones
demonios
demonstra
demonstrante
demonstrar
demonstrate
demonstrated
demonstration
demonstrationes
demonstrative
demonstrativos
demonstrava
demora
demos
dempsey
demum
den
dene
denega
denegar
denero
denethor
deneuve
dengue
denip
denis
denise
denisova
denisovanos
denistouret
denmark
dennis
denoe
denomina
denominar
denominate
denomination
denominationes
denominator
denominava
denota
denotante
denotar
denotate
denotation
dense
densemente
densen
densitate
densitates
dental
dente
dentes
dentro
denuncia
denuncian
denunciate
denunciation
denunciava
denunctiava
denver
deo
deorum
deos
departamento
departimento
departimentos
department
departments
depende
dependente
dependentia
dependentias
depender
dependeva
depicte
depiction
depinge
depingite
depois
deponente
deponentes
deponeva
deponite
deportation
deportivo
depositate
deposition
deposito
depositos
depost
depravation
depression
dept
deputato
deputatos
der
derberg
derby
derecho
derechos
derecta
derecte
derecto
derectos
derek
deride
deriva
derivante
derivar
derivate
derivation
derivationes
derivative
derivativos
derivato
derivatos
derivava
dermoptera
derogation
derouta
deroutate
deroutava
derrida
des
desarrollo
descanso
descartes
descende
descendente
descendentes
descendentia
descender
descendeva
descendita
descendite
descenso
describe
described
describente
describer
describeva
describite
descripte
description
descriptiones
descriptive
descriptor
desde
desertic
deserto
desertos
desholmen
desiderate
desiderio
design
designa
designante
designar
designate
designation
designator
designatores
designava
designo
designos
desinentia
desinentias
desinformation
desintegration
desira
desirabile
desirar
desirate
desirava
desire
desiro
desiros
desktop
despecto
despide
dessau
destacate
destacca
destaccar
destinatarios
destinate
destination
destino
destitution
destroy
destroyer
destructe
destruction
destructive
destructor
destrue
destruer
destrueva
destruite
destruiva
det
detail
detaliate
detalio
detalios
detectar
detectate
detection
detective
detector
deteger
detegite
deteneva
detenite
detention
detentor
detentores
deteriorar
deterioration
deteriorava
determina
determinante
determinantes
determinar
determinate
determination
determinatores
determinava
determinismo
deterministic
detestava
detlev
detmold
detra
detractores
detras
detrimento
detritic
detrito
detritos
detroit
detruite
detsen
deu
deum
deus
deut
deuterium
deuterocanonic
deuteronomio
deuteronomista
deuteronomistic
deuterostomia
deutsch
deutsche
deutschen
deutscher
deutsches
deutschland
deux
devanagari
devastante
devastate
devastation
devastava
deve
development
developpa
developpamento
developpar
developpate
developpava
deveni
deveniente
devenir
devenira
devenirea
devenite
deveniva
deveva
deviation
deviationes
device
devices
devil
devinite
deviniva
devisa
devolution
devolver
devorate
devorava
devotar
devotava
devote
devotion
dewahl
dewey
dexter
dextera
dextere
dextra
dextre
df
dfrac
dg
dh
dharma
di
dia
diabete
diabetes
diable
diabolo
diabolos
diachronic
diacritic
diacritico
diacriticos
diagnose
diagnosis
diagnostic
diagnosticar
diagnosticate
diagnostico
diagonal
diagonales
diagonalmente
diagramma
diagrammas
dialectal
dialectic
dialectica
dialecto
dialectos
dialogo
dialogos
diamante
diamantes
diametro
diamond
dian
diana
diano
diaphragma
diari
diaries
diario
diarios
diarista
diarrhea
diary
dias
diaspora
diatomic
diaz
dica
dicas
diccionari
diccionario
dice
dicente
dicer
dicerea
diceva
dicho
dicis
dicit
dicite
dick
dickens
dickinson
dict
dictar
dictate
dictator
dictatorial
dictatura
dictava
dicte
diction
dictionario
dictionarios
dictionarium
dictionary
dictionnaire
dicto
dictos
did
didactic
didactica
diderot
didon
die
died
diego
dies
diesel
dieta
dietate
dieter
dietrich
dieu
diez
diferentes
diff
diffamation
diffe
differe
different
differente
differentemente
differentes
differentia
differential
differentiante
differentiar
differentias
differentiate
differentiation
differer
differeva
difficile
difficilemente
difficultate
difficultates
diffidentia
diffraction
diffunder
diffundeva
diffundite
diffuse
diffusion
dificultates
digest
digestion
digestive
digital
digitalisate
digitata
digito
digitos
dignaction
digne
dignitate
dignitatum
digrapho
dijk
dikter
dilemma
dimension
dimensional
dimensiones
diminue
diminuente
diminuer
diminueva
diminuite
diminution
diminutive
diminutivo
dimission
dimitter
dimitteva
dimittite
din
dinar
dinger
dinosauro
dinosauros
dio
diocese
dioceses
diocesis
diocletian
diocletiano
diodo
diodoro
diogenes
diomede
diomedes
dion
dioni
dionysio
dionysius
dionyso
diophanto
dios
dioses
dioxydo
diphthongo
diphthongos
diploma
diplomas
diplomate
diplomatia
diplomatic
diplomatico
diplomaticos
dipolo
diprosopo
diprosopus
dir
dirac
direc
direct
directamente
directe
directemente
direction
directional
directiones
directiva
directivas
directive
directivos
directly
directo
director
directores
directorio
directorios
directory
directos
directrice
direito
dirige
dirigente
dirigentes
diriger
dirigeva
dirigite
dirigiva
dis
disaccharidos
disaccordo
disaccordos
disagradabile
disambiguation
disapprobation
disarmamento
disastro
disastros
disastrose
disavantage
disavantages
disbordamento
disc
discarga
discargar
discargas
discargate
discargava
discatenava
discentralisate
discerner
dischettos
disciplina
disciplinas
discipulo
discipulos
disco
discographia
discographic
discogs
discontente
discontento
discoperi
discoperir
discoperite
discoperitor
discoperiva
discoperta
discopertas
discoperte
discoragiar
discordia
discorsi
discos
discover
discovery
discreditar
discreditate
discrepantia
discrete
discretemente
discretion
discrimination
discurso
discursos
discursosinterlingua
discussion
discussione
discussiones
discussions
discute
discuter
discuteva
discutite
disdigno
disease
diseases
disequilibrar
disface
disfacer
disfaceva
disfacite
disfacta
disfacte
disfavorabile
disgratia
dishabilitate
dishoneste
disimbarcava
disinformation
disintegration
disk
diskrom
dismembramento
disney
disobedientia
disoccupation
disorder
disorders
disordinate
disordine
disordines
disorientation
dispare
disparer
disparera
dispareva
disparite
disparition
dispenalisation
dispendiose
dispensa
dispensas
dispensate
dispergite
dispersa
dispersate
dispersava
disperse
dispersion
displacia
displaciamento
displaciar
displaciate
displaciava
display
displica
displicamento
dispone
disponer
disponeva
disponibile
disponibilitate
disponite
disposite
disposition
dispositiones
dispositivo
dispositivos
disproportion
disproviste
disputa
disputas
disputate
disputava
dissemination
dissertation
dissidente
dissimilation
dissimile
dissolution
dissolve
dissolver
dissolveva
dissolvite
distacca
distaccamento
distaccate
distaccava
distachar
distante
distantia
distantias
disthronar
disthronate
disthronava
distillate
distillation
distincte
distinctemente
distinction
distinctiones
distinctive
distingue
distinguente
distinguer
distingueva
distinguite
distorquite
distorte
distortion
distrahe
distribue
distribuer
distribueva
distribuite
distribution
distributiones
distributism
distributismo
distributista
distributive
distributor
district
districto
districtos
districts
distrito
disturbantia
disturbar
disuso
disvellopamento
disvellopate
disveloppa
disveloppamental
disveloppamento
disveloppamentos
disveloppante
disveloppar
disveloppate
disveloppator
disveloppatores
disveloppava
dite
diterrane
dition
ditions
dits
diu
diurne
diva
dive
diverge
divergente
divergentias
divergeva
diverse
diversificar
diversificate
diversification
diversion
diversitate
diversity
divert
divertimento
divi
divide
dividente
divider
divideva
dividite
divin
divina
divinar
divination
divine
divinisate
divinitate
divinitates
divino
divisa
divise
divisibile
divisio
division
divisiones
divisions
divisor
divisores
divisori
divo
divorciate
divorciava
divorcio
divulgate
divulgation
divulgava
diwali
dix
dixit
dixon
diz
dj
djibuti
dk
dl
dle
dm
dmitri
dmoz
dmusic
dna
dnl
dns
do
doana
doaner
dobkin
doc
doce
docente
docs
docte
doctor
doctoral
doctorato
doctores
doctors
doctrina
doctrinal
doctrinas
doctrine
document
documenta
documental
documentar
documentari
documentario
documentary
documentate
documentation
documentava
documento
documentos
documents
dodecatheic
dodo
does
dog
doge
dogma
dogmas
dogmatismo
dogs
doha
dohn
doi
dois
dole
dolgoff
dollar
dollares
dollars
dolo
dolon
dolor
dolores
dolorose
dolto
dom
doma
domain
domar
dome
domenica
domenico
domesday
domestic
domesticate
domestication
domestiques
domiciliava
domicilio
domina
dominante
dominantia
dominar
dominate
domination
dominava
domingo
domingos
domini
dominica
dominical
dominican
dominicas
dominico
dominio
dominios
dominique
domino
dominos
domitiano
domo
domos
domus
don
dona
donahue
donald
donaldson
donante
donar
donate
donatello
donation
donationes
donato
donatores
donava
donde
done
dong
doni
donjon
donjones
donna
donne
donnell
dono
donos
doo
doom
door
doors
dopamina
dophile
dophiles
dophilie
dor
dora
dorado
dore
dorian
dorje
dorking
dormi
dormiente
dormir
dormiva
dorothy
dorsal
dorset
dorso
dortmund
doryphora
dos
dose
doses
dosexuelle
dota
dotar
dotate
dote
doto
dots
douard
double
doubleday
douce
dougherty
douglas
douro
doutor
dove
dover
down
downey
downing
doyle
dozena
dozenas
dpa
dpal
dq
dr
draco
dracon
dracones
draft
draga
drago
dragon
dragons
drakar
drake
drama
dramas
dramatic
dramaticamente
dramaturgo
dramaturgos
drame
drastic
drasticamente
drawstring
dre
dream
drei
drenthe
dresden
drive
droga
drogas
droit
dromedario
drop
ds
dsa
dsm
dt
dtd
dtds
du
dual
dualitate
duarte
dubhlinn
dubita
dubitas
dubitava
dubitose
dublin
dubois
duc
ducal
ducation
ducato
ducatos
duce
ducente
ducer
ducerea
duces
duceva
duchamp
duchessa
ducite
duck
ducklings
duct
ductile
ducto
ductos
duda
dudley
due
duello
duen
duero
dugue
duhamel
duisburg
dukakis
duke
dukkha
dulce
dulcor
dum
dumas
dumbledore
dumont
dumpty
duna
dunas
duncan
dune
dungeons
dunn
dunque
duo
duodece
duodecime
duomo
duong
duos
dupa
dupar
dupe
duple
duplica
duplicar
duplicate
duplication
dupo
duque
dur
dura
durabile
durabilitate
durante
durar
durata
durate
duration
durationes
durava
duressa
durham
during
durkheim
durmente
duro
dushanbe
dutch
duterte
dutroux
duvert
dux
dvd
dvds
dwight
dwyer
dx
dxc
dxe
dyar
dyer
dying
dylan
dynamic
dynamica
dynamicamente
dynamite
dynastia
dynastias
dynastic
dysenteria
dysfunction
dysplasia
dz
dʒ
e
ea
each
eagle
earl
early
earth
east
eastern
eastman
easy
eau
ebichu
ebing
ebisu
ebner
ebola
eboraci
ebore
ebrietate
ebro
ebullition
ec
eca
ecce
eccentric
ecclesia
ecclesial
ecclesias
ecclesiastic
ecclessia
ecdysozoa
echinococcose
echinococcus
echo
eclectic
eclipsate
eclipse
ecliptic
ecmascript
eco
ecole
ecologia
ecologic
ecological
ecologismo
ecologista
ecology
econo
economia
economias
economic
economica
economicamente
economista
economistas
ecopoese
ecopoesis
ecosocialismo
ecosystema
ecosystemas
ecran
ecstase
ecuador
ecumenic
ecumenical
ed
eddie
ede
eden
eder
edgar
edibile
edicio
ediciones
edicions
edicto
edificar
edificate
edification
edificationes
edificava
edificio
edificios
edinburgh
edipo
edirne
edison
edit
edita
editar
editate
editava
edited
edith
editing
editio
edition
editiones
editor
editora
editores
editorial
editors
editrice
edizioni
edmonton
edmund
edo
eds
edu
eduard
eduardo
educacio
educar
educate
education
educational
educative
educator
educatores
edvard
edward
edwin
ee
een
eerdmans
eeten
ef
effect
effective
effectivemente
effecto
effectos
effects
effectua
effectuar
effectuate
effectuava
effendi
efficace
efficacemente
efficacia
efficiente
efficientia
effortia
effortiava
effortio
effortios
efi
eg
egee
egin
egisto
egman
ego
egoismo
egunkaria
egypt
egyptian
egyptiano
egyptianos
egyptie
egyptios
egypto
ei
eien
eifel
eiffel
eigen
eigenvalor
eigenvector
eikan
ein
eindhoven
eine
einem
einer
einfu
einheitsreligion
einstein
eisenhower
eisho
eius
eixample
ejb
ejemplares
ejus
ek
eklund
el
elabora
elaborar
elaborate
elaboration
elaborationes
elaborava
elamu
elas
elastic
elba
elder
eleanor
electe
election
electiones
elective
elector
electoral
electorato
electores
electos
electra
electric
electrical
electricitate
electrodynamica
electrolyse
electromagnete
electromagnetic
electromagnetismo
electromotive
electron
electronegativitate
electrones
electronic
electronica
elegante
elegantia
elegite
element
elemental
elementar
elementari
elemento
elementos
elements
elena
elenas
elephante
elephantes
elephantidae
elephas
eleva
elevamento
elevar
elevate
elevation
elevationes
elevava
elf
elfes
elgin
eli
elia
elias
elige
eliger
eligeva
eligibile
eligibilitate
eligite
elimina
eliminante
eliminar
eliminate
elimination
eliminava
eliot
elis
elisabeth
eliseo
elite
elites
elizabeth
ell
ella
ellacott
ellas
elle
ellen
elleore
elles
ellipse
ellipses
elliptic
ellis
ellison
elogio
elohim
elohista
elongate
eloquente
eloquentia
elrond
els
elsa
else
elsinor
eluder
elvira
elvis
em
emacs
emanate
emanation
emancipation
embargo
emblema
emblemas
emblematic
embryon
embryonic
eme
emendamento
emerge
emergente
emergentia
emerger
emergeva
emergite
emergy
emerite
emeva
emi
emigrate
emigration
emigrava
emil
emile
emilia
emiliano
emilio
emily
eminente
emirato
emiratos
emission
emissiones
emissor
emissores
emite
emitte
emitter
emitteva
emittite
emma
emmanuel
emmanuelle
emmy
emo
emoticon
emotion
emotional
emotionalmente
emotiones
emotive
empathia
emperor
emphasa
emphase
emphatisa
emphatisava
emphysema
empire
empires
empiric
empirical
emplea
empleante
emplear
empleate
empleato
empleator
empleatores
empleatos
empleava
empleo
empleos
empresas
emptiness
emption
emptyset
empu
emular
emulate
emulation
emulator
emulatores
en
encantado
encapsular
encephalopathia
enchiridion
enciclope
enciclopedia
enclave
encyclica
encyclopaedia
encyclope
encyclopedia
encyclopedias
encyclopedic
encyclopædia
end
endangered
ende
endeavour
endemic
endl
endoce
endocrin
endocrina
endocrinarum
endocrine
enea
eneas
eneide
energetic
energetica
energia
energias
energic
energy
enfance
enfant
enfants
enfrenta
eng
engel
engelbert
engels
engiadina
engine
engineering
engines
england
englewood
english
enigma
enigmas
enigmatic
enklave
enlightenment
enna
ennes
ennio
eno
enoiate
enorme
enormemente
enough
enque
enrico
enrique
ensemble
ensembles
ent
entartetes
ente
entente
enter
enterprise
entertainment
entes
enthalpia
enthusiasmo
enthusiasta
entitate
entitates
entra
entrai
entrar
entrarea
entrata
entratas
entrate
entrava
entre
entropia
enumera
enunciation
enviar
enviate
enviava
environment
environmental
eny
enz
enza
enzo
enzyma
enzymas
enzymatic
eo
eoceno
eolo
ep
epa
epe
eph
ephemere
ephesios
epheso
epi
epic
epica
epicteto
epicureanismo
epicuro
epidemia
epidemias
epidemiologia
epidemiology
epigramma
epilogo
epiro
episcopal
episcopato
episcopo
episcopos
episod
episode
episodes
episodio
episodios
episodul
epistemologia
epistola
epistolas
epitaphio
epitaphios
epithelium
epithetos
epitome
epoca
epocha
epochas
eponyme
epopeia
epopeias
epos
epsilon
epstein
equal
equala
equalar
equalitate
equality
equalmente
equasigruppo
equation
equationes
equator
equatorial
equestre
equi
equidae
equilibrate
equilibrio
equin
equinoctio
equipa
equipage
equipamento
equipas
equipate
equipo
equitation
equivale
equivalente
equivalentes
equivalentia
equo
equus
er
era
eras
erasmo
erasmus
erat
erbil
erc
ere
erechim
erecte
eremitas
eresma
ergo
eric
erica
erich
erie
eriger
erigite
erik
eriksson
erinaceomorpha
eris
eritrea
erkelenz
erlangen
ermo
ernest
ernesto
ernst
ero
erode
eros
erosion
erotic
erotica
erra
errante
erronee
erroneemente
error
errores
erudite
erudition
erudito
eruditos
erumpe
erumpeva
eruption
eruptiones
erval
erwin
erythrocytos
es
esa
esar
esas
esb
escala
escalada
escapat
escape
escappa
escappamento
escappar
escappata
escappate
escappava
escathologia
eschatologia
eschatologic
eschimo
eschimos
eschweiler
eschylo
escola
escolamento
escortate
escuela
esdra
ese
esen
eser
esgueva
esime
esiste
eskimo
eso
esophago
esopo
esoteric
esox
esp
espan
espania
espaniol
espaniola
espanioles
espaventa
especial
especialmente
espejo
esperanc
esperantic
esperantido
esperantidos
esperantista
esperantistas
esperanto
espi
espinosa
espoir
esque
esquema
esr
essa
essay
essaya
essayante
essayar
essayate
essayava
essayista
essayo
essayos
essays
esse
essen
essenos
essente
essentia
essential
essentialmente
essentials
esser
essera
essere
esserea
esseres
esseva
essex
essite
esso
est
esta
establi
establiente
establimento
establimentos
establir
establite
establiva
estadi
estado
estados
estas
estate
estates
este
esteban
estel
estelada
estelle
ester
esterhill
esteve
esther
esthetic
esthetica
esti
estiano
estima
estimar
estimate
estimation
estimationes
estimava
estive
esto
estonia
estonian
estranie
estranier
estraniero
estranieros
estructurales
estu
estuario
estudio
estudios
estufa
eswatini
et
eta
etage
etages
etan
etape
etapes
etate
etates
etc
etcetera
ete
eternal
eternalmente
eterne
eternitate
ethere
ethernet
ethic
ethica
ethics
ethiope
ethiopia
ethnic
ethnicamente
ethnicitate
ethnologue
ethologia
ethos
etiam
etiquetta
etiquettas
etna
etruria
etrusc
etrusco
etruscos
etsi
etwinning
etymologia
etymologic
etymologicamente
etymology
eu
euarchonta
euarchontoglires
eucaryote
eucaryotes
eucaryotic
eucharistia
euclide
euclidian
eufemia
euforbo
euge
eugen
eugene
eugenia
euh
eukaryota
euler
eulipotyphla
eulogio
eum
eumeo
eunucho
euphoria
euphrate
euphrates
eur
eurasia
eurasian
eurasiatic
euratom
euripides
euro
eurolang
europa
europaea
europaio
europanto
europe
europea
european
europee
europeo
europeos
euros
eurovision
eurozona
euscara
eustatio
euthanasia
eutheria
eva
evacuation
evaluta
evalutar
evalutation
evangelic
evangelical
evangelicales
evangelicalismo
evangeline
evangelio
evangelios
evangelisation
evangelismo
evangelista
evans
evapora
evaporation
evasion
eve
evelia
eveliar
eveliate
eveliava
even
eveni
evenimento
evenimentos
evening
evenir
evenira
evenite
eveniva
event
evento
eventos
events
eventual
eventualitate
eventualmente
ever
everest
every
everybody
everything
evidence
evidente
evidentemente
evidentia
evidentias
evil
evita
evitante
evitar
evitate
evitava
evo
evoca
evocava
evoluite
evolution
evolutionari
evolutive
evolve
evolver
evolveva
evolvite
ew
ex
exacerbate
exacte
exactemente
exactitude
exaggerate
exaggeration
exalta
exaltation
examen
examina
examinar
examinate
examination
examinationes
examine
examines
example
examplo
exarchato
excambia
excambiar
excambiate
excambio
excavate
excavationes
excede
excedente
excel
excellente
excellentia
excepte
exception
exceptional
exceptionalmente
exceptiones
excepto
excerpts
excessive
excessivemente
excesso
excessos
exchange
excitamento
exclamation
exclude
excludente
excluder
excludeva
excludite
exclusion
exclusive
exclusivemente
excommunicate
excommunication
excrementos
excretion
excretiones
excursion
excursionesinterlingua
excusa
exe
executa
executabile
executante
executar
executate
executava
execution
executiones
executive
exegese
exegetic
exemplar
exemplares
exemplarmente
exemple
exempli
exemplificate
exemplificative
exemplo
exemplos
exempte
exeque
exequer
exequeva
exequite
exerce
exercer
exerceva
exercitar
exercitate
exercitation
exercite
exercitio
exercitios
exercito
exf
exhaurite
exhaustion
exhaustive
exhibi
exhibir
exhibite
exhibition
exhibitiones
exhortante
exhortar
exhortava
exige
exigente
exigentia
exigentias
exiger
exigeva
exigite
exiguus
exile
exiliate
exiliava
exilio
exir
exista
existe
existence
existente
existentia
existential
existentialismo
exister
existeva
existite
existiva
exists
exit
exite
exito
exitos
exiva
exo
exodo
exopero
exotic
expande
expander
expandeva
expandite
expandiva
expansion
expansiones
expe
expecta
expectar
expectate
expectation
expectationes
expectativa
expectava
expediente
expedite
expedition
expeditiones
expediva
expelle
expeller
expelleva
expellite
expendite
expensa
expensas
experi
experience
experientia
experiential
experientias
experimenta
experimental
experimentar
experimentate
experimentation
experimentationes
experimentava
experimento
experimentos
experiva
expert
experte
experto
expertos
expiation
expira
expl
explanar
explanation
explica
explicante
explicar
explicate
explication
explicationes
explicative
explicava
explicite
explicitemente
explodeva
exploita
exploitar
exploitate
exploitation
explora
explorar
explorate
exploration
explorationes
explorator
exploratores
exploratori
explorava
explore
explorer
explorers
explosion
explosiones
explosive
explosivo
explosivos
expo
expone
exponente
exponentes
exponential
exponer
exponeva
exponite
exportar
exportate
exportation
exportationes
exportator
exporto
exposite
exposition
expositiones
express
expressa
expressar
expresse
expression
expressiones
expressive
exprime
exprimente
exprimer
exprimeva
exprimite
expulsar
expulsate
expulsava
expulsion
ext
extante
extende
extended
extendente
extender
extendeva
extendite
extends
extense
extensemente
extensibile
extensible
extension
extensiones
extensive
extensivemente
extere
exterior
exterminate
extermination
external
externe
extincte
extinction
extingueva
extinguite
extinte
extra
extraction
extracto
extractor
extractos
extrahe
extraher
extraheva
extrahite
extranee
extraordinari
extraordinarimente
extraterrestre
extraterrestres
extraterrestrial
extravagante
extre
extremadura
extreme
extrememente
extremes
extremitate
extremitates
extremo
extremos
eye
eyes
ez
ezekiel
f
fa
faba
fabas
faber
fabio
fabrica
fabricante
fabricantes
fabricar
fabricas
fabricate
fabrication
fabula
fabulas
fabules
fabulose
fac
face
facebook
facente
facer
facera
facerea
faces
faceva
fachada
facia
faciada
facial
facie
faciente
facies
facile
facilemente
facilita
facilitar
facilitate
facilitates
facilitava
facite
facsimile
fact
facta
factbook
facte
faction
factiones
facto
factor
factores
factorial
factos
facts
factual
factura
factus
facula
faculdade
facultad
facultas
facultate
facultates
faculty
fag
fagotto
fagottos
fahrenheit
fair
fairy
faith
fajita
fakir
fala
falce
falco
falcon
falko
fall
falle
faller
falleva
fallimento
fallimentos
falling
fallite
falls
falsar
false
falsificate
falso
falta
falun
falve
fam
fama
fame
fami
famiglia
famiglias
familia
familial
familiar
familiaris
familias
family
famosa
famose
famosemente
famosissime
famous
fan
fanatic
fanatico
fanes
fango
fanny
fans
fantaisie
fantasias
fantasma
fantastic
fantasy
faq
far
fara
faraday
faramir
faranah
farina
farm
faroe
faroese
fasce
fasces
fascinante
fascism
fascismo
fascist
fascista
fascistas
fasciste
fashion
faso
fast
fasti
fat
fata
fatal
fate
father
fatiga
fatigate
fato
fauna
fauno
faure
fausto
favicon
favo
favor
favora
favorabile
favorabilemente
favorar
favorava
favori
favorite
favoriva
faxinal
fayard
faz
fbi
fc
fe
fear
feature
features
feb
febre
februario
februarius
february
fecula
fecunditate
fede
federal
federalismo
federate
federation
federative
federico
fee
feed
feel
fees
feijoa
feito
feldspato
fele
felice
felicitate
felidae
felide
felides
felinae
felino
felinos
felipe
felis
felix
feliz
fellation
fellowship
female
femina
feminas
feminin
feminino
feminismo
feminista
feministas
feministic
femme
femmes
femore
fender
fenestra
fenestraabstracte
fenestradecorator
fenestras
feno
fer
ferdinand
ferdinando
fere
ferenc
feretro
ferguson
feri
feria
feriate
ferir
ferita
feritas
feritate
ferite
feriva
ferma
fermas
fermentar
fermentate
fermentation
fermero
fermeros
fermi
fermiones
fermo
ferna
fernando
feroce
ferrara
ferreira
ferrer
ferrero
ferro
ferromagnetic
ferrovia
ferroviari
ferrovias
ferry
fertile
fertilisation
fertilitate
ferus
fervente
festa
festas
fester
festival
festivales
festive
festivitate
festivitates
festschrift
fetish
feto
feudal
feudalismo
few
ff
fi
fiabile
fiasco
fibra
fibras
fibrato
fibrose
fic
fica
ficato
ficcio
ficha
ficicchia
fico
ficos
ficticie
fiction
fictional
fictive
fidantiata
fide
fidel
fideles
fidelitate
fidelmente
fides
field
fields
fifa
figaro
figeac
fighter
fighting
figura
figuras
figurative
figurativemente
figure
figures
fiji
fila
filamentos
filamentose
filas
file
files
filhas
filho
filia
filial
filias
filiastro
filiation
filices
filii
filio
filioque
filios
filipin
filipinas
filipino
filipinos
filippo
filius
fille
film
filmate
filme
filmes
filmfare
filmographia
films
filo
filos
filosofi
fils
filtro
fim
fin
final
finala
finalas
finale
finalemente
finales
finalitate
finalmente
financia
financial
financiamento
financiar
financiari
financias
financiate
financiation
financiava
financiera
financiero
find
finder
findings
fine
fines
finger
finginte
fini
finiente
finir
finirea
finite
finitesimal
finiva
fink
finland
finlandese
finlandia
finnegans
finnese
finnic
fino
fionia
fiord
fire
firebird
firefox
firenze
firma
firmas
firmate
firmava
firme
firmemente
firmware
first
firth
fiscal
fischer
fish
fisher
fishman
fisico
fisk
fission
fissura
fissuras
fitzgerald
fiuman
fiume
five
fixa
fixante
fixar
fixate
fixation
fixava
fixe
fl
fla
flack
flacones
flag
flagello
flamenco
flaminge
flamingos
flammarion
flammas
flammiferos
flanagan
flanco
flancos
flandes
flandra
flash
flat
flauta
flautas
flave
flavio
flavius
flecha
flechas
fleckeri
fleetwood
fleming
flerovium
fleurs
flevoland
flexibile
flexibilitate
flexion
flexione
flexiones
flexura
flickr
flight
flinders
flip
flitwick
flocco
floccos
floor
flor
flora
florence
florentia
florentin
florentino
flores
floresce
florescente
florescer
floresceva
floriano
florida
floriva
flota
flotta
flottante
flowers
floyd
fluctuationes
flue
fluente
fluentemente
fluer
fluide
fluido
fluidos
fluor
fluvglant
fluvial
fluvio
fluvios
flux
fluxo
fluxos
fly
flying
flynn
fm
fmi
fmri
fo
focal
focalisa
focalisate
focalisava
focar
foco
focos
focus
foerster
foggia
fogo
foiled
foliate
folie
foliettos
folio
folios
folk
folkho
folklore
folkloric
folkspraak
folle
folles
follia
fomentar
fomentava
fondo
fondos
fonds
fonseca
font
fontaine
fontal
fontana
fonte
fontes
fontsize
food
foosball
football
footballista
for
fora
forall
foramine
foramines
foras
forbes
force
forced
ford
foreign
forel
forest
foresta
foreste
forestes
forever
forgiate
foris
forli
form
forma
formal
formalisation
formalismo
formalmente
formante
formar
formara
formas
format
formatate
formatation
formate
formation
formationes
formations
formato
formatos
formava
formicas
formidabile
formosa
forms
formula
formular
formulas
formulate
formulation
formulationes
formulava
forni
fornir
fornite
forniva
foro
foros
forquilhinha
forrage
forsan
forster
fort
fortalessa
fortalessas
forte
fortemente
forth
fortia
fortiante
fortiar
fortias
fortiate
fortiava
fortificar
fortificate
fortification
fortificationes
fortificava
fortran
fortuna
fortunate
fortunatemente
forum
forward
fossa
fossato
fossey
fossile
fossiles
foster
foto
foucault
found
foundation
foundations
founder
four
fourier
fous
fowler
fox
foxes
fr
fra
frac
fracassar
fracassate
fracassava
fracasso
fractal
fraction
fractionari
fractiones
fractura
fractus
fragile
fragmentate
fragmentation
fragmento
fragmentos
fragments
fraiburgo
framasonic
frame
framework
frameworks
franc
franca
francavilla
france
frances
francesa
francesc
francesca
francesco
francese
franceses
franche
franchitia
francia
francico
francis
franciscan
francisco
francium
franck
franco
francoforte
franconia
francophone
francophonia
francos
frangia
frangias
frank
frankenstein
frankfurt
franklin
franks
frans
franz
frashe
frate
frater
fraternitate
frates
fratre
fratres
fraude
fray
fre
freaknet
fred
freddie
frederic
frederick
frederico
frederik
fredrik
free
freebsd
freedom
freguesia
frei
freiburg
freire
freitas
fremen
french
frent
frente
frequency
frequentamente
frequentar
frequentate
frequentava
frequente
frequentemente
frequentia
frequentias
fresc
fresco
frescos
fresno
freud
freude
freudian
freund
fri
frias
fribourg
frica
fricative
friction
friedrich
friend
friends
friendship
frigidar
frigide
frigido
frisia
frisios
frison
frite
frits
fritz
friuli
frivole
fro
frodo
from
fronhoven
front
frontal
frontalis
fronte
frontera
frontes
frontier
frontiera
frontieras
frontispicio
frosinone
fructifere
fructo
fructos
fructuose
frue
frueva
fruit
fruition
frumento
frustrar
frustration
fry
fs
fsf
fsln
ft
ftadalens
ftp
fu
fudan
fudge
fue
fuente
fuentes
fuentiduen
fuga
fugace
fuge
fugi
fugiente
fugir
fugita
fugite
fugitivos
fugiva
fuji
fujita
fukushima
full
fuller
fulmine
fulvipes
fumac
fumar
fumo
fun
function
functiona
functional
functionalitate
functionalitates
functionamento
functionante
functionar
functionario
functionarios
functionava
functiones
fund
funda
fundamental
fundamentales
fundamentalismo
fundamentalista
fundamentalistas
fundamentalmente
fundamentava
fundamento
fundamentos
fundante
fundar
fundate
fundation
fundational
fundationes
fundator
fundatores
fundatrice
fundava
funde
funder
fundeva
fundite
fundo
fundos
funebre
funeral
funerales
funerari
funere
funeres
fungal
funge
fungi
fungo
fungos
funk
fur
furar
furava
furca
fures
furiose
furneaux
furry
further
furtive
fury
fusil
fusilate
fusiles
fusion
fusionar
fusionate
fusionava
fuso
fusos
futur
future
futurista
futuro
fx
g
ga
gab
gabon
gabriel
gabriela
gabriele
gabrielle
gaddafi
gades
gadolinimum
gadolinium
gaelic
gaelico
gaetana
gafotas
gagarin
gai
gaia
gaio
gaius
gaivota
gajd
gal
gala
galactic
galatas
galaxia
galaxias
galaxy
galbraith
galdo
gale
galeri
galeria
galerias
galicia
galid
galilea
galilei
galileo
galion
gall
gallagher
gallecia
gallecian
galleciano
galleco
gallego
gallegos
galleria
gallery
galles
gallese
gallia
gallic
gallico
gallimard
gallina
gallinas
gallium
gallo
gallos
gallup
gallus
galva
galveston
gama
gamba
gambas
gambia
game
games
gamma
gammas
gamp
gana
ganava
gandalf
gandhi
gang
gangelt
ganges
gangrena
gania
ganiante
ganiar
ganiate
ganiator
ganiatores
ganiava
ganio
ganios
gans
gansu
gap
gar
gara
garage
garante
garanti
garantia
garantias
garantir
garantite
garantiva
garbage
garc
garci
garcia
garda
garde
garden
gardner
gargantua
garibaldi
garland
garonne
garopaba
garrel
garrett
garrick
garrison
garry
garson
garsones
garuva
gary
garzo
gas
gases
gasolina
gasose
gaspar
gaston
gastos
gastric
gastrointestinal
gastronomia
gata
gate
gates
gato
gaude
gauder
gaudeva
gaudi
gaudio
gaudiose
gaulle
gauss
gautama
gauteng
gavin
gay
gays
gaz
gaza
gazeta
gazette
gb
gdan
ge
gea
geht
geilenkirchen
gel
gela
gelar
gelate
geldria
gelo
gelsenkirchen
gemimento
gemination
gemine
gemini
gemino
geminos
gemma
gemmas
gen
gena
gene
genealogia
genealogic
genera
general
generales
generalisa
generalisate
generalisation
generalisationes
generalitat
generalmente
generante
generar
generate
generation
generationes
generativa
generative
generativistas
generator
genere
generes
generic
genero
generos
generose
genes
genese
genesis
genetic
genetica
geneticamente
geneticista
geneva
genial
geniculo
genio
genital
genitales
genitive
genitivo
genitores
genko
gennin
genocide
genocidio
genoma
genova
genre
gens
gent
gente
gentes
gentil
gentiles
gentilhomine
gentium
genu
genua
genuin
genuine
genus
geo
geochimic
geodesia
geoffrey
geoffroy
geogra
geografia
geographia
geographic
geographical
geographicamente
geographo
geographos
geologia
geologic
geological
geologo
geometria
geometrias
geometric
geomorphologia
geopolitic
georg
george
georges
georgetown
georgia
georgian
georgicos
georgio
geos
geoscientia
geothermal
gepardo
ger
gera
gerais
gerald
gerard
gerassi
gerber
gercino
gere
gerente
gerentia
gerer
gereva
gerite
germ
germain
germaine
german
germana
germani
germania
germanic
germanico
germanium
germano
germanophone
germanos
germany
gershwin
gerundio
geschichte
gesellschaft
gesta
gestas
gestation
gesticulatori
gestion
gesto
gestor
gestos
get
getbasecost
gets
gettext
getting
gettysburg
getu
gezinsvorming
ggen
gh
ghana
ghashang
ghetto
ghil
ghirlandaio
ghost
ghs
ghusn
gi
giacomo
gian
giant
gibbon
gibbones
gibbs
gibraltar
gibran
gibson
gica
gide
gieles
gieseking
gif
gifreader
gigabytes
gigante
gigantes
gigantesc
gigantopithecus
gil
gilbert
giles
gilet
gilgamesh
gilles
gimli
gina
ginas
ginny
ginsberg
gioia
gion
giorgio
giovanni
gira
girl
girls
girona
gis
giselle
giss
gitarra
giulia
giuliano
giulio
giuseppe
give
giza
gje
gla
glaad
glacial
glaciation
glacie
glaciero
glacieros
gladio
glam
gland
glandem
glands
glandula
glandulae
glandulas
glandulis
glas
glasgow
glass
glauco
glaucoma
glbtq
glen
glenn
glf
gli
glires
gliriformes
glissatores
global
globale
globalisation
globalmente
globasa
globe
globina
globo
globular
glomeromycota
gloria
glorificate
gloriose
glory
glosa
glosas
glossario
glossarios
glossary
glottal
glottalisation
gloucester
gloucestershire
gls
glu
glucksmann
glucosa
gmt
gn
gnathostomata
gneo
gnosticismo
gnu
go
goa
goal
goals
goat
gobierno
god
goddard
gode
godoy
gods
godwin
goes
goethe
gogh
goia
goidelic
golan
gold
golden
goldman
goldstein
golf
golfo
goliad
gollum
gomez
gon
gondica
gondor
gone
gonna
gono
gonza
gonzalez
gonzalo
good
goodall
goodbye
goode
goodman
google
googol
gopsill
gordon
gore
gorga
gorgonzola
gorilla
gorillas
gorizia
gormley
gorz
gospel
gospels
got
gothic
gothico
gotho
gothos
gotland
gott
gottfried
goulart
gould
gov
governa
governador
governamental
governamento
governamentos
governante
governantes
governantia
governar
governate
governator
governatorato
governatores
governava
government
governmento
governo
goya
gpl
gr
gra
grace
gradiente
grado
grados
gradual
gradualmente
graduar
graduate
graduation
graduato
graduava
graeco
graffiti
graham
grail
grama
gramatical
gramma
grammaire
grammar
grammas
grammatic
grammatica
grammatical
grammaticas
grammatico
grammaticos
grammatik
grammophonos
grammy
gran
grana
granada
granas
granatieros
grand
grande
grandemente
grandes
grandine
grandiose
grandissime
grandor
grandorder
grandordine
grandores
granfilia
granfilio
granger
granito
granmaestro
granmamma
granmatre
grano
granos
granpasso
granpatre
grant
granth
graphema
graphia
graphic
graphicamente
graphico
graphicos
graphics
graphisation
grapo
grappa
grasse
grassia
gratia
gratias
gratiose
gratis
gratitude
gratta
grattacelos
grattar
gratuite
gratuitemente
grau
gravatal
gravate
grave
gravella
gravemente
graves
gravide
graviditate
gravitate
gravitation
gravitational
gravity
gravure
gravures
gray
graz
gre
great
greater
greatest
grec
grecia
greco
grecolatin
grecolatino
grecoroman
grecos
gred
gredin
gredos
greece
greek
green
greenwich
greenwood
greer
grefrath
grege
greges
gregorian
gregorio
gregory
grek
grenada
grenoble
grenzen
grey
grieg
griffin
griffith
grigor
grillet
grillia
grimeton
grimm
grindelwald
gris
grisastre
gro
groening
groenlandese
groenlandia
groninga
groningen
groove
gropius
grosse
grosser
grosseto
grosso
groucho
ground
group
groupe
groupprops
groups
gru
grue
grundlagen
grundrisse
grundtvig
gruner
grunge
grupo
grupos
gruppa
gruppate
gruppe
gruppo
gruppoide
gruppos
gryffindor
gskola
gt
gta
gtk
gu
gua
guabiruba
guadalajara
guadalquivir
guadalupe
guadeloupe
guadiana
guaido
guajira
guam
guanaco
guanacos
guangdong
guangxi
guangzhou
guantanamera
guantos
guaraciaba
guaramirim
guarani
guard
guarda
guardar
guardas
guardate
guardava
guardia
guardian
guardiano
guaruja
guas
guastate
guastava
guatambu
guatemala
guayaba
guayaquil
guedes
guernica
guerra
guerras
guerre
guerrero
guerreros
guerrier
guerrilleros
guevara
guez
guglielmo
guia
guiana
guida
guidante
guidar
guidas
guidate
guidava
guide
guidelines
guido
guigna
guijo
guild
guillain
guillaume
guillebaud
guillermo
guillotine
guinea
guinness
guitarista
guitarra
guitarras
guitarrista
guitarristas
gujarat
gujarati
gulf
gulielmo
gumma
gummo
gun
gundam
gunter
guo
guru
gusta
gustaf
gustar
gustav
gustava
gustave
gustavo
gusto
gustos
gustu
gut
gutenberg
gutta
guttas
guttettas
guy
guyana
gyalwa
gyi
gymnasio
gymnastica
gynecologia
gypso
gyrava
gyro
h
ha
haag
haagsma
haarlem
hab
habava
habe
habente
haber
habera
haberea
habersetzer
habeva
habile
habilita
habilitate
habilitates
habilitava
habiru
habita
habitante
habitantes
habitar
habitat
habitate
habitates
habitation
habitationes
habitats
habitava
habite
habito
habitos
habitual
habitualmente
habitude
habitudes
habsburgo
hac
hacer
hachas
hachberg
hachette
hachiman
hacker
hackers
had
hades
hadj
hadji
haendel
hafnium
haga
hagen
haggadah
haggerty
hagrid
hahn
haifa
haijin
haiku
haile
haiti
haitian
haka
hakim
hale
halen
half
hall
halland
halle
hallelujah
halley
hallo
halloamico
hallomundo
halloween
halmstad
halo
halogenos
halto
ham
haman
hamburg
hamburgo
hamilton
hamlet
hamm
hammer
hammond
hampshire
han
handball
handbook
handbuch
handlebuttonclicked
hands
hanja
hanna
hannah
hannover
hanoi
hanover
hans
hansa
hanse
hanseatic
hanson
hansson
hanuka
hanukia
hapiru
happy
harald
haram
harbor
harcourt
hard
hardcore
hardin
hardite
hardware
hardy
hare
haringo
haringos
harlem
harm
harman
harmattan
harmful
harmonia
harmonias
harmonic
harmonica
harmony
harnese
harold
harper
harpercollins
harpo
harriet
harriette
harrington
harris
harrison
harry
hart
hartford
harum
harvard
harvey
has
hasardo
hasardos
hasardose
hasbro
hase
hash
hashanah
hasselt
hassium
hasta
hastings
hastive
hat
haus
haute
hautes
hauts
havana
have
havelock
haven
havente
haver
haverea
haveva
havilland
hawai
hawaian
hawaiano
hawaianos
hawaii
hawaiian
hawk
hawking
haworth
hay
haya
haydn
haza
hb
hbar
hbo
hch
hd
hdc
he
head
health
heart
heartbeat
heat
heaven
heavy
heb
hebdo
hebe
heber
heberita
heberitas
hebr
hebraic
hebree
hebreo
hebreos
hebrew
hebron
heck
hectares
hector
hectore
hedgehog
hedonismo
hefesto
hegel
hegelian
hegemonia
hehlrath
heidegger
heidelberg
heidi
height
heights
heimbach
heimdal
heinrich
heinsberg
heinz
hel
helen
helena
heleno
helicoptero
heliocentric
heliographo
helios
helium
helix
hell
helladico
hellenic
hellenismo
hellenista
hellenistic
hello
helmholtz
helms
help
helpers
helsingborg
helsinki
helvetic
hemingway
hemispherio
hemoglobina
hemorrhagia
hen
henares
henderson
hendrik
hendrix
hennen
henri
henrico
henrik
henrique
henriques
henry
henson
hepate
hepatic
hepatitis
her
hera
heracles
heraclito
herakles
heraldic
heraldica
heraldo
herba
herbas
herbert
herbivore
herculaneum
hercules
herdt
here
herede
heredes
heredita
hereditage
hereditar
hereditari
hereditario
hereditate
hereditava
herencia
herero
heresia
heresias
heretic
hereticos
heretics
herge
heri
heritage
herman
hermann
hermeneutica
hermes
hermetic
hermione
herna
herne
hero
herodes
herodoto
heroe
heroes
heroic
heroina
herpestidae
herrera
herschel
hertfordshire
hertog
hertz
herval
herz
herzegovina
herzl
herzogenrath
hes
heschel
hesiodo
hesita
hesitava
hess
hesse
hestia
het
heterochromatina
heterocratia
heterogenee
heterosexismo
heterosexual
heterosexuales
heterosexualitate
heterotrophic
hex
hexagonal
hexametros
hg
hi
hiato
hibernal
hibernation
hiberno
hibernos
hic
hidalgo
hidden
hierarchia
hierarchic
hierarchicamente
hierarchy
hiero
hieroglyphicos
hieronymus
hierro
high
higher
highland
highlands
highway
higuera
hijo
hilaire
hilario
hilbert
hildegard
hill
hillary
hillenburg
hills
him
himalaya
hinc
hindenburg
hindi
hindu
hinduismo
hindus
hindustani
hinojosa
hinstance
hip
hiparco
hippolyta
hippona
hiragana
hiroshima
his
hispan
hispania
hispanic
hispaniola
hispano
hispanoamerican
hispanos
histo
histoire
histologia
historia
historian
historianos
historias
historiator
historic
historica
historical
historicamente
historico
historicos
historie
histories
historietta
historiographia
history
hit
hitchhiker
hitler
hits
hittita
hizaki
hjalmar
hl
hle
hmo
hms
ho
hoa
hob
hobbit
hobbites
hobby
hobbys
hoboken
hoc
hockey
hocquenghem
hodie
hodierne
hoene
hof
hoffman
hoffmann
hogan
hogben
hogrogian
hogwarts
hohenzollern
hoi
hokusai
holandese
holberg
holding
hole
holger
holiday
holland
hollanda
hollandese
hollandeses
hollywood
holm
holmes
holocaust
holocausto
holstein
holy
hom
homage
hombres
homburg
home
homem
homenaje
homeopathia
homer
homeric
homero
homestead
homicidio
homicidios
homine
homines
hominidae
hominide
hominides
homininae
hominini
homme
homo
homogene
homogenee
homomorphismo
homonyme
homophobia
homosexual
homosexuales
homosexualitate
homosexualite
homosexuality
homosexuels
honduras
honecker
honestate
honeste
honestitate
honey
hong
honolulu
honor
honora
honorabile
honorar
honorari
honorary
honorate
honorava
honores
honorific
honoris
hood
hooke
hop
hope
hopi
hopkins
hora
horaactual
horace
horari
horario
horas
horatio
hordeo
horizontal
horizontalmente
horizonte
hormon
hormones
horn
hornburg
horndon
horologic
horologio
horologios
horologista
horribile
horror
horse
horst
horta
horus
hos
hose
hospicio
hospital
hospitales
hospitalitate
hospite
hospites
host
hostages
hoste
hostil
hostilitate
hostilitates
hot
hotei
hotel
hoteles
hotspot
houghton
hound
hour
house
houseful
housepian
houses
houston
hovhaness
how
howard
hoy
hoyos
hrsg
hrung
htc
htm
html
htmlhttps
http
https
hu
hua
huang
hub
hubble
hubert
hudson
hue
huebner
huesca
hufflepuff
hugh
hugo
huguenotes
hui
huimanguillo
huldrych
human
humana
humanas
humanes
humanismo
humanista
humanistas
humanistic
humanita
humanitari
humanitarian
humanitate
humanitates
humanite
humanities
humano
humanoide
humanos
humans
humboldt
hume
humero
humeros
humide
humiditate
humile
humiliation
humilitate
humor
humoristic
humorose
humphrey
humpty
hundred
hungare
hungaria
hungaro
hunnos
hunt
hunter
hunters
hunting
huracan
hurd
hurican
huron
hus
hussein
huston
hutt
hutter
huxley
huygens
hven
hw
hwnd
hybrida
hybridas
hybride
hyde
hydratos
hydrocarbonos
hydrocarburos
hydroelectric
hydrogeno
hydrographic
hydrologia
hydromel
hydrothermal
hydroxydo
hygiene
hylobatidae
hyman
hymno
hymnos
hypatia
hypercarbonic
hyperinflation
hyperligamines
hypertext
hypertexto
hyphal
hyphas
hypocrisia
hypothalamus
hypothecate
hypothese
hypotheses
hypothesis
hypothetic
hyracoidea
hysteria
hz
i
ia
ial
iala
iam
ian
ianuarius
iau
iba
ibaan
iberia
iberic
iberico
ibero
iberos
ibge
ibi
ibiam
ibicare
ibidem
ibirama
ibiza
ibm
ibn
ibor
ibrahim
ibsen
ic
ica
icaria
icd
ice
iceberg
icedtea
icewind
ich
iche
icon
icone
icones
iconic
iconographia
icq
id
ida
idaho
idaltu
ide
idea
ideal
ideales
idealisate
idealismo
ideario
ideas
ideate
idem
idempotente
identic
identifica
identificabile
identificante
identificar
identificate
identification
identificator
identificatores
identificava
identifier
identitate
identities
ideologia
ideologias
ideologic
ideology
idi
idiom
idioma
idiomas
idiomatic
idiot
idiota
idista
idistas
ido
idol
idolatria
idomeneo
ids
idus
ie
iec
ied
ieee
iesum
iesus
ietf
if
ifenestraabstracte
ifree
ig
igitur
iglesia
ignacio
ignatio
ignatius
igne
ignora
ignorante
ignorantia
ignorate
ignorava
igor
igual
ihre
ihrer
ihs
ii
iii
ij
ijo
ike
ikea
il
ile
iles
ilga
ilhota
ili
iliac
iliade
ill
illa
illac
illas
ille
illegal
illegalisation
illegalisava
illegalmente
illegitime
illes
illi
illic
illicite
illimitate
illinois
illo
illos
illumina
illuminate
illumination
illuminismo
illusion
illustra
illustrante
illustrar
illustrate
illustrated
illustration
illustrationes
illustrator
illustrava
illustre
ilo
ilos
ils
ilulissat
ilva
im
ima
image
imagereader
imagereaderfactory
images
imagina
imaginar
imaginari
imaginary
imaginate
imagination
imagine
imagines
imago
imarui
imbarcava
imbituba
imboscada
imbracia
imbucca
imbuccatura
imbuia
imdb
ime
img
imie
imita
imitar
imitate
imitation
immagazina
immagazinage
immagazinar
immagazinate
immanentia
immanuel
immaterial
immatur
immediate
immediatemente
immense
immergite
immerse
immigrante
immigrantes
immigrate
immigration
immigrationes
immigrava
imminente
immobile
immobilisation
immoral
immortal
immortalitate
immovibile
immunditias
immunitari
immunitate
immunologia
immunologic
immutabile
imo
impact
impacto
impare
imparti
impartial
impartite
impe
impedi
impediente
impedimento
impedir
impediva
impejorava
imperative
imperativo
imperator
imperatores
imperatrice
imperatriz
imperfecte
imperfective
imperfecto
imperia
imperial
imperialismo
imperialista
impericulate
imperio
imperios
imperium
impersonal
impeto
implantate
implantation
implementa
implementar
implementate
implementation
implementationes
implements
implica
implicar
implicarea
implicate
implication
implicationes
implicava
implicite
implora
impone
imponente
imponer
imponeva
imponite
impopular
import
importa
importance
importante
importantes
importantia
importantissime
importar
importate
importation
importationes
importava
imposition
impossibile
impossibilitate
imposto
impostos
impracticabile
imprecise
impresse
impression
impressionante
impressionar
impressionate
impressiones
impressionismo
impressive
impressor
imprime
imprimer
imprimeria
imprimeva
imprimite
imprimitor
imprimitores
imprisionamento
imprisionate
improbabile
improprie
improved
improvisate
improvisation
impulsar
impulsate
impulsion
impulso
impulsos
impur
impuritates
imputate
imputationes
in
ina
inacceptabile
inactive
inadequate
inalienabile
inamora
inamorate
inamorava
inanimate
inari
inarrestabile
inaugural
inaugurate
inauguration
inaugurava
inc
incantate
incantator
incapabile
incapace
incapacitate
incarceramento
incarcerate
incarceration
incarga
incargate
incargava
incarnate
incarnation
incastrate
incendio
incendios
incenso
incentivo
incentivos
inception
incerte
incertitude
incesto
incidental
incidente
incidentes
incinerar
incircular
incirculate
incisa
incisive
inclina
inclinate
inclination
include
includente
includer
includes
includeva
including
includite
incluse
inclusion
inclusive
inclusivemente
incluso
incluyendo
incognite
incognito
incognoscibile
incognoscite
incolor
incomparabile
incompatibile
incomplete
incomprensibile
inconditional
inconditionate
inconsciente
inconsistentia
incontra
incontrar
incontrate
incontrava
incontro
incontros
incoragia
incoragiante
incoragiar
incoragiate
incoragiava
incorpora
incorporar
incorporate
incorporation
incorporava
incorrecte
incorrectemente
incostose
incredibile
incredibilemente
incremental
incrementar
incrementava
incrustate
incubation
inculpate
incursion
incursiones
indaial
inde
indebitate
indecise
indefinite
indefinitemente
indemann
inden
independencia
independent
independente
independentemente
independentes
independentia
independentista
independentistas
independentistic
index
indexation
india
indian
indiana
indiano
indianos
indias
indic
indica
indicante
indicar
indicate
indication
indicationes
indicative
indicativo
indicator
indicatores
indicava
indice
indices
indicio
indicios
indie
indifferente
indifferentia
indigena
indigenas
indigene
indigenous
indignant
indigne
indira
indirecte
indirectemente
indispensabile
indistincte
indium
individual
individualismo
individualista
individualitate
individuals
individuo
individuos
indivisibile
indo
indoaryan
indochina
indoeuropee
indoeuropeo
indoiranian
indonesia
indonesian
indri
indubitabilemente
induce
inducer
induceva
inducite
inductantia
induction
inductive
indulgentias
indurar
indus
industria
industrial
industrialisate
industrialisation
industrialista
industrias
industry
ine
inedite
inefficace
inequal
inequalitate
inerte
inertia
inertial
inevitabile
inexistente
inexpectate
inf
infallibile
infante
infanteria
infantes
infantia
infantil
infarcto
infecta
infectar
infectate
infection
infectiones
infectiose
infectious
inferentia
inferior
inferiore
inferite
infermitate
infermitates
infernal
inferno
infernos
inferos
infesta
infestate
infidel
infideles
infidelitate
infiltrate
infiltration
infimo
infini
infinitate
infinite
infinitemente
infinitesimal
infinitivo
infinitivos
infirmera
infirmeria
infirmitate
infirmitates
inflammabile
inflammation
inflammava
inflation
inflection
inflectiones
inflectite
inflexion
inflige
infligite
influe
influence
influencia
influenciate
influencite
influente
influentia
influential
influentiar
influentiarea
influentias
influentiate
influentiava
influenza
influer
influeva
influite
influxos
info
infobox
informa
informal
informalmente
informante
informar
informate
informatic
informatica
informatico
informaticos
information
informationes
informative
informava
informe
infortunatemente
infra
infraclasse
infraction
infrarubie
infrastructura
infrastructuras
infrequente
infringe
infringer
infty
infunde
infundibulo
ingagia
ingagiamento
ingagiar
ingagiate
ingagiava
ingenerate
ingenerava
ingeniera
ingenieria
ingeniero
ingenieros
ingenio
ingeniose
ingerite
ingestion
ingle
inglobate
inglutite
ingrediente
ingredientes
ingressava
ingresso
ingressos
ingria
ingvar
inhabitantes
inhabitate
inhalate
inherente
inhibition
inhibitores
ini
iniciate
iniciativa
inimic
inimico
inimicos
iniquitate
init
initia
initial
initialemente
initiales
initialisation
initialmente
initiante
initiar
initiate
initiation
initiativa
initiativas
initiator
initiava
initio
initios
injectate
injection
injuria
injurias
injuste
injustemente
injustitia
injustitias
inmediatos
inn
innate
inner
innocent
innocente
innocentia
innocentio
innocue
innovation
innovationes
innovative
innovator
innumerabile
inodor
inoffensive
inorganic
input
inquadrate
inquesta
inquestas
inquiete
inquiry
inquisicio
inquisition
inricchimento
inrolate
inrolava
ins
insalubre
inscribe
inscribeva
inscribite
inscripte
inscription
inscriptiones
insecta
insectos
insecur
insenia
inseniamento
inseniamentos
inseniante
inseniantes
inseniantias
inseniar
inseniate
inseniator
inseniava
insere
inserer
inserite
insertate
insertion
inside
insignia
insignias
insimul
insimule
insimules
insiste
insisteva
insolite
inspection
inspira
inspirar
inspirate
inspiration
inspirava
inspissa
insta
instabile
instabilitate
instalava
installa
installar
installate
installation
installationes
installava
instantanee
instantaneemente
instante
instantia
instantias
instaura
instaurate
instauration
instigava
instincto
institueva
instituite
institut
institute
institutes
institution
institutional
institutionalisate
institutiones
instituto
institutor
institutos
instituzioni
instruction
instructiones
instructor
instructores
instrue
instruer
instrueva
instruite
instrument
instrumental
instrumentation
instrumento
instrumentos
instruments
insufficiente
insufficientia
insufflator
insula
insular
insulas
insulate
insulator
insulina
insulta
insultos
insurgentia
insurrection
insurrectiones
int
intacte
intal
intangibile
inte
integer
integr
integra
integral
integralmente
integrante
integrantes
integrar
integrate
integration
integrava
integre
integremente
integritate
intel
intelectual
intellecto
intellectual
intellectuales
intelligence
intelligent
intelligente
intelligentia
intelligibile
intelligibilitate
intelvi
intende
intender
intendeva
intendimento
intendite
intense
intensificava
intensitate
intensive
intensivemente
intentava
intention
intentional
intentiones
intento
intentos
inter
interaction
interactiones
interactions
interactive
interactivemente
interactuar
interage
interager
intercambia
intercambiabilemente
intercambiar
intercambio
interconnectite
interconnexion
interconnexiones
interdependentia
interdicite
interdicte
interdiction
interdisciplinari
interdit
interdum
interea
interessa
interessante
interessantemente
interessate
interessatos
interessava
interesse
interesses
interface
interfacie
interfacies
interferentia
intergenerational
interglossa
intergovernamental
interim
interimari
interime
interior
interiores
interjectar
interjection
interjectiones
interlacing
interlinear
interlingua
interlingual
interlinguan
interlingue
interlinguista
interlinguistas
interlinguistic
interlinguistica
interlinguistics
interlocutores
intermaritage
intermedia
intermediari
intermediario
intermediate
intermedie
intermedio
intermittente
internacia
internaciona
internacional
internal
internamento
international
internationale
internationalitate
internationalmente
interne
internet
interno
interpersonal
interplanetari
interprender
interprendeva
interprendite
interprenditor
interpreta
interpretar
interpretate
interpretation
interpretationes
interpretative
interpretator
interpretava
interprete
interpretes
interprisa
interprisas
interramento
interrante
interrate
interrava
interrete
interrobang
interrogation
interrogative
interrumpeva
interrumpite
interrumption
interrumptiones
interruption
interruptiones
interseca
intersection
intersex
interslave
interslavo
interstellar
intertanto
intertenimento
intervallo
intervallos
interveni
intervenir
intervenite
interveniva
intervention
interventiones
interview
interviewate
interviews
intestinal
intestine
intestino
intestinos
intimacy
intime
intimemente
intimitate
intitulate
into
intolerantia
intonation
intoxication
intra
intrata
intravenose
intre
intricate
intriga
intrigas
intrinsec
intrinsic
intro
introduce
introducer
introduceva
introducing
introducite
introducte
introduction
intrusos
intuition
intuitive
inuit
inuktitut
inundate
inundation
inundationes
inusual
inutile
invade
invader
invadeva
invadite
invalidate
invalide
invariabile
invariante
invariantia
invasion
invasiones
invasive
invasor
inveloppe
inventa
inventar
inventario
inventate
inventator
inventava
invented
invention
inventiones
inventor
inventores
inverse
inversemente
inversion
inverso
inverte
invertebrate
invertebratos
invertibile
invertite
investiga
investigar
investigate
investigation
investigationes
investigations
investigative
investigator
investigatores
investigava
investimento
investimentos
invetera
invia
inviar
inviate
inviava
invicte
invisibile
invisible
invita
invitate
invitation
invitationes
invitato
invitava
invoca
invocar
invocate
invocation
invocationes
invocava
involuntari
involute
involution
involve
involvente
involver
involveva
involvite
invulnerabile
io
iodo
iohannes
iomere
ion
iones
ionic
ionio
ionisante
ionisate
ionisation
ios
iowa
ip
ipa
ipcc
ipce
iphigenia
iphone
ipira
ipoh
ipora
ippon
iprage
ipse
ipso
ipt
ipuac
ipumirim
ipv
ir
ira
iraceminha
irak
iraki
iran
irani
iranian
iranic
iranica
iraq
irate
irati
irc
ire
ireann
ireland
irene
ireneo
iride
iridium
irineo
iris
irish
irlanda
irlandese
irlandeses
iron
ironia
iroquoian
irpino
irrational
irre
irreal
irregular
irregularitates
irregularmente
irrelevante
irresistibile
irrigation
irritante
irritate
irvine
irving
irwin
is
isa
isaac
isabel
isabella
isaia
isaiah
isbn
ischemia
isengard
isere
isernia
ishmael
isidoro
isildur
isis
isla
islam
islamic
islamismo
islamista
island
islanda
islandese
islands
isle
ism
ismo
iso
isola
isolamento
isolante
isolar
isolate
isolation
isolava
isomorphismo
isonzo
isotope
isotopo
isotopos
israel
israeli
israelita
israelitas
iss
issa
isse
issn
isso
issos
issue
issues
ist
ista
istanbul
istas
iste
istes
isthmo
istiti
istituto
istmo
isto
istoria
istos
istrategia
istrategy
it
ita
itaberaba
itaio
itajai
itala
italia
italian
italiana
italiani
italiano
italianos
italic
italica
italico
italo
italy
itapema
itaperiu
itapiranga
itapoa
itaque
itate
ite
item
items
iteration
itero
itesimal
ithaca
iti
itie
itinerario
its
itsf
itu
ituporanga
itza
iu
iucn
iunius
iupac
iuris
ius
iustitia
iv
iva
ivan
ivar
ive
ivo
ivor
ivy
ix
ixode
iya
iz
izanagi
izanami
ize
j
ja
jabal
jabberwocky
jabora
jabr
jac
jace
jacente
jacer
jaceva
jachetta
jacimento
jacimentos
jacinto
jack
jackie
jackson
jacob
jacobi
jacobo
jacobs
jacopo
jacqueline
jacques
jade
jadraque
jae
jaguar
jaguaruna
jah
jaime
jainismo
jak
jakarta
jakob
jakub
jalisco
jalne
jam
jama
jamaica
jamaican
jamais
jamblicho
jamboree
james
jamie
jammais
jan
jane
janeiro
janet
janko
jano
januario
january
januthri
jap
japan
japanese
japo
japon
japonese
japoneses
jar
jaragua
jardi
jardim
jardin
jardinero
jardines
jardino
jargon
jarlaath
jarosław
jason
jaume
jauntal
java
javabean
javabeans
javan
javanicus
javascript
javax
javier
jawe
jay
jazz
jb
jdr
je
jean
jeanne
jecta
jectal
jectar
jectate
jectava
jedi
jeff
jefferson
jeffrey
jehovah
jeju
jejunar
jejuno
jejunos
jelling
jena
jenkins
jenner
jennifer
jensen
jentaculo
jeny
jeopardy
jer
jeremy
jeroen
jerome
jeronimo
jerry
jersey
jerusalem
jerzy
jeshua
jespersen
jesse
jest
jesu
jesuita
jesuitas
jesus
jeszenszky
jet
jetix
jetstream
jewish
jews
jez
jezebel
jezik
jhvh
ji
jiangsu
jihad
jim
jimbo
jime
jimmy
jingo
jinn
jisho
jk
jn
jo
joa
joac
joachim
joan
joanna
joaqui
joaquim
job
jobs
joca
jocante
jocar
jocate
jocator
jocatores
jocators
jocava
joco
jocos
jocose
joculo
joculos
joe
joel
joensuu
joey
jogen
jogging
jogo
joh
johan
johann
johanna
johannes
johannesburg
johansson
john
johnny
johns
johnson
joia
joiel
joieles
joinville
jon
jonas
jonathan
jones
jong
jorda
jordan
jordania
jordi
jorge
jornal
jornales
jornalismo
jornalista
jornalistas
jornalistic
jorno
jornos
jose
josef
josep
joseph
josepho
joshua
jota
jouko
joule
jour
journal
journalista
journals
journey
jov
jove
jovedi
joven
jovene
joy
joyanna
joyce
jp
jpeg
jpg
jr
js
jsp
jsr
jstor
jt
ju
juan
juana
juarros
jubatus
jud
judaic
judaismo
judea
judee
judeo
judeos
judianne
judica
judicamento
judicar
judicate
judice
judices
judicial
judiciari
judicio
judicios
judith
judo
judy
jugo
jujitsu
jul
jules
julia
julian
juliana
juliano
julie
julien
julietta
julio
julius
julliard
july
jump
jun
juncte
junctemente
junction
juncto
junctura
juncturas
june
juneteenth
junge
junger
jungeva
jungla
jungle
jungne
junio
junior
juno
junon
junta
jupia
jupiter
jura
juraj
juramento
juramentos
jurassic
jurate
jurato
juratos
jurava
jure
juri
juridic
juridicamente
jurio
juris
jurisdiction
jurisdictional
jurisdictiones
jurisprudentia
jurista
jury
just
juste
justemente
justice
justicia
justifica
justificar
justificate
justification
justinian
justiniano
justino
justitia
justo
justus
jutlandia
juvene
juvenes
juvenil
juventute
juxta
juxtaposition
jvm
k
ka
kaaba
kabbalah
kabul
kaczyn
kafka
kage
kaho
kai
kailash
kaiser
kaj
kajo
kal
kalendae
kalendas
kalendis
kali
kalium
kalmar
kama
kamelot
kami
kampf
kan
kana
kanamon
kanji
kanjis
kankan
kanpo
kansas
kant
kanto
kao
kapital
kara
karabakh
karachi
karate
karchen
kard
kardec
karel
karen
karl
karlsruhe
karma
karol
kashmir
kasi
kasparov
kassab
kassel
katakana
katanga
kate
katherine
kathmandu
katie
katipunan
katowice
katrina
kattegat
kava
kayak
kayalar
kazakhstan
kazan
kazimierz
kazuhiko
kb
kc
kde
ke
kedar
kegan
kei
keith
keiun
kel
kell
kelly
kelvin
kempen
ken
kendall
kenji
kennedy
kenneth
kenobi
kent
kentucky
kenya
kenyon
kepeken
kepler
kernel
kerr
kerry
kessab
ket
kets
kevin
key
keys
kg
kh
kha
khag
khagim
khalil
khan
khandro
kharkiv
khayyam
kho
khwarizmi
khz
ki
kib
kibibyte
kibo
kick
kickboxing
kid
kids
kiel
kierkegaard
kieseritsky
kiev
kiir
kill
killed
killing
kilo
kilogramma
kilogrammas
kilometres
kilometro
kilometros
kilos
kim
kin
kind
kinderen
kindia
kinetic
king
kingdom
kings
kingsley
kinks
kinsey
kinshasa
kippur
kirche
kirchheimbolanden
kirghizistan
kiribati
kirk
kirke
kirkuk
kiss
kit
kita
kitab
kitsune
kitts
kiu
kla
klagenfurt
klamer
klan
klaus
klein
kleine
klemperer
klingon
klingones
klux
km
knew
knight
knights
knock
know
knowledge
known
knutson
ko
koblenz
koch
koine
koinos
koj
koji
koka
koko
kolker
kolpen
kom
komi
komitee
komplex
kon
konarski
kong
konrad
kor
korach
korakh
koran
kore
korea
korean
kosmoglott
kosovo
kotava
kowalski
kpa
kr
kra
krafft
kraftwerk
krai
kravmaga
krefeld
kreis
kremlin
kreuzau
kri
krieger
krimi
kring
krishna
kristian
kristofer
kritischer
kriya
kriz
kro
kronborg
kropotkin
kruif
krumme
krypton
ks
ksie
kto
ktory
ku
kuala
kuale
kubrick
kubuntu
kudelski
kuiper
kukulca
kule
kulon
kun
kung
kuopio
kurdistan
kurdo
kuriero
kurpfalz
kurt
kuwait
kvarnholmen
kwango
ky
kyi
kyle
kyo
kyodan
kyoto
kyros
kyroupaideia
kyu
l
la
lab
labe
labio
labiodental
labios
labor
labora
laboral
laborante
laborar
laborate
laborator
laboratores
laboratorio
laboratorios
laboratory
laborava
labores
lac
lacerate
lacerda
lacerdo
lacertas
laco
laconia
lacos
lacte
lactee
laden
ladies
ladino
lado
lady
laertes
laffont
laga
lageado
lages
lago
lagomorpha
lagos
laguna
lahore
lai
laic
laicismo
laicitate
laicos
laid
laja
lajeado
lake
lakota
lali
lam
lama
lamanitas
lamarck
lamas
lambda
lambro
lamenta
lamentation
lamina
laminas
lampa
lampas
lampredas
lan
lana
lancashire
lancaster
lancea
lanceamento
lanceamentos
lanceante
lancear
lanceate
lanceava
lancelot
land
landmaster
landrut
lands
landscape
landschaftsverband
landseer
landsma
lane
lang
langerwehe
langle
langobardic
language
languages
langue
langues
lanka
lanose
lansa
lansel
lanthanidos
lanthano
lanza
lao
laos
laozi
lapide
lapides
laplace
lapponia
lapso
lapu
lara
laredo
lares
large
largemente
largest
largo
largor
lario
larousse
larry
lars
larva
larvas
las
lasava
laser
lasers
laso
lassa
lassante
lassar
lassate
lassava
last
lat
latakia
late
latemente
latente
latentia
later
lateral
lateralmente
latere
lateres
latex
lati
latibulo
latifundios
latin
latina
latine
latini
latinisate
latinitate
latino
latinoamerican
latinos
latio
latitude
latitudes
laton
latrato
latta
lattes
lauda
laudar
laudate
laudation
laudava
laude
laura
laurasiatheria
laureate
laureato
laureatos
laurence
laurent
laurentino
laurentio
laurentius
lauro
lava
lavalle
lavar
lavash
lavin
lavinia
law
lawrence
lawrencium
laws
laxe
layer
layton
lazio
lb
lbt
lc
lcr
lcs
lds
le
leader
leaderes
leaders
leading
league
leakey
leal
lear
learn
learning
leau
leaves
leben
leblanc
lebon
leccar
lecce
lecco
lech
lecouvreur
lectiera
lection
lectiones
lecto
lector
lectores
lectos
lectura
lecturas
lecture
lectures
led
leda
lee
leeds
leer
leeuwarden
left
leftrightarrow
legacy
legal
legalisation
legalitate
legalmente
legate
legato
legava
legazpi
lege
legend
legenda
legendari
legendas
legente
leger
leges
legeva
legibile
legibilemente
legibilitate
legier
legiermente
legion
legiones
legislation
legislative
legislator
legislatura
legite
legitimation
legitime
legitimitate
legolas
legumines
leguminosas
lehmann
lehre
lei
leibniz
leicester
leicestershire
leiden
leigh
leila
leinster
leipzig
leken
leland
lemma
lemmas
lemnos
lemur
lemures
len
lena
lenape
lenard
length
lengua
lenguaje
lenguas
lenin
lennon
lentar
lente
lentemente
lentes
leo
leoberto
leon
leonard
leonardo
leone
leones
leonese
leonhard
leonidas
leopardi
leopardo
leopardus
leopold
leopoldo
lepido
lepore
lequal
lequales
lerda
les
lesbian
lesbiana
lesbianas
lesbic
lese
lesion
lesiones
lesotho
less
lessons
let
lethargia
leti
leto
letran
letras
letter
lettera
letteras
letters
lettonia
lettres
leur
leuven
lev
leva
levante
levar
levate
levation
levatura
levava
leve
level
levemente
leverkusen
levi
levine
levitico
levitt
levon
levorso
levy
lewis
lex
lexic
lexical
lexico
lexicographia
lexicographo
lexicologia
lexicon
lexikon
lexique
ley
leyden
lez
lf
lfflin
lfn
lgbt
lha
lhc
lheim
li
lia
liaisons
lias
lib
libanese
libano
libe
liber
libera
liberal
liberales
liberalisation
liberalismo
liberar
liberate
liberation
liberator
liberava
libere
liberemente
liberi
liberia
libero
libertad
libertari
libertarian
libertate
libertates
liberte
libertino
liberty
libra
library
libras
libre
libreria
librerias
libretto
librettos
libri
libro
libros
libya
libyc
lica
licaon
license
licentia
licentiamento
licentias
licentiate
licentiatos
lich
licio
liddell
lider
lie
liebe
liechtenstein
lied
lieder
lien
lies
life
liffey
liga
ligamento
ligamentos
ligamiento
ligamine
ligamines
ligante
ligar
ligas
ligate
ligation
light
lights
lightyear
ligne
lignite
ligno
lignose
ligo
ligure
liguria
like
lil
lili
lilio
lim
lima
limburg
limerick
limine
limita
limitante
limitar
limitate
limitation
limitationes
limitava
limite
limites
limitrophe
limits
limose
lin
lincoln
lincolnshire
lind
linda
lindo
lindon
lindows
lindsay
lindstedt
line
linea
lineage
lineages
lineal
linear
lineas
linga
lingu
lingua
linguadoc
linguae
linguage
linguages
lingual
linguas
lingue
lingues
linguetta
linguist
linguista
linguistas
linguistic
linguistica
linguisticamente
linguistics
linguistique
link
links
linn
linnaea
linnaeus
linne
linnich
linnæus
lino
lint
linus
linux
lio
lion
lionel
lipidos
lippe
liquide
liquido
liquidos
lis
lisa
lisboa
lisbona
lisburn
lise
lisie
lisp
list
lista
listas
listate
listava
liste
lists
lit
lite
literal
literalmente
literari
literary
literatura
literature
lithium
lithuania
lito
litoral
litore
litro
litros
litt
litte
littera
litteral
litteralmente
litterari
litteras
litteratura
little
lituan
lituania
liturgia
liturgias
liturgic
liv
live
liverpool
lives
livia
living
livio
livorno
livrar
livration
livre
livres
livro
lix
lj
lken
ll
lla
llanos
llar
lle
llengua
ller
llerena
llibre
llingua
lliure
llo
llobregat
llorenc
lloyd
llui
ln
lo
lobo
lobulo
lobulos
loc
loca
local
locales
localisa
localisar
localisate
localisation
localisationes
localisava
localitate
localitates
localmente
locar
locate
location
locationes
locke
loco
locomotion
locomotiva
locomotivas
locos
locotenente
locution
locutiones
locutores
lod
lodi
lodigiano
loeb
log
logan
logarithmo
logarithmos
logic
logica
logical
logicamente
logicas
logico
logicos
logique
logiques
logistic
loglan
logo
logogramma
logogrammas
logos
lograva
logros
lohn
loi
loir
loire
lois
lojban
loje
loke
lokiarchaeum
lokiarcheotes
lol
lola
lolita
lombardi
lombardia
lombardo
lombardos
lomellina
lon
london
londonan
londres
lonely
long
longa
longbottom
longe
longemente
longeve
longevitate
longissime
longitude
longitudes
longman
longo
longor
lono
lontan
lontano
lontras
look
looking
loop
lope
lopes
lopez
lor
lord
lords
lore
lorena
lorentz
lorenz
lorenzo
loris
lorn
lorraine
los
losa
lose
lost
lot
lothar
loto
lots
lotta
lotus
lou
louie
louis
louise
louisiana
louisville
lourdes
lourenc
louvre
love
loved
lovegood
lovelace
lover
lovers
loving
low
lowe
lowell
lowlands
loxodonta
loyal
loyalitate
loyola
loze
lp
lparam
lpg
lpich
ls
lsf
lt
ltd
ltimo
ltimos
lts
lu
lua
lublin
lubos
luc
luca
lucania
lucano
lucas
lucca
luce
lucente
lucentia
lucerna
lucha
lucia
lucide
lucio
lucius
lucky
lucrative
lucretio
lucro
lucta
luctante
luctar
luctas
luctate
luctator
luctatores
luctava
lucto
lucy
ludgero
ludo
ludos
ludovico
ludvig
ludwig
ludwik
lugo
lui
luigi
luis
luiz
luka
luke
lukin
lukla
lula
lulas
lulu
lumen
lumie
luminal
luminar
luminares
lumine
lumines
luminose
luminositate
lun
luna
lunar
lunas
lund
lunedi
luo
lupin
lupinos
lupo
lupos
lupus
lurch
lusiadas
lusitan
lustra
lustro
lut
luther
lutheran
lutheranismo
lutta
lux
luxemburg
luxemburgese
luxemburgo
luxo
luxuose
luz
luzerna
luzia
luzon
lv
lvares
lvaro
lvia
lwo
lxx
ly
lyceo
lycia
lydia
lylat
lympha
lymphatic
lynn
lynx
lyon
lyric
lyrica
m
ma
maa
maarten
maas
maastricht
mac
macao
macarthur
macau
macbeth
maccabeos
macdonald
macedone
macedonia
maceoin
macerata
mach
machado
machiavelli
machina
machinario
machinas
machine
machineria
machines
macieira
macintosh
mackay
macleod
macmillan
macovei
macro
macron
macros
macroscelidea
macroscopic
macrotis
macula
maculas
maculate
mad
madagascar
madalena
madama
maddie
made
madeira
madeleine
mademoiselle
mader
madhya
madhyamaka
madison
madonna
madras
madre
madrid
mads
maduro
mae
maestra
maestral
maestrar
maestria
maestro
maestros
mafra
maga
magalha
magas
magazin
magazine
magazines
magdalena
magdeburg
magellan
magellanes
maggie
maggiore
magia
magic
magical
magis
magister
magisterio
magistra
magistral
magistratos
magistro
magliano
magma
magna
magne
magnesium
magnete
magnetes
magnetic
magnetismo
magnetophonos
magnetos
magnific
magnitude
magnitudes
magno
magnoliophyta
magnoliopsida
magnorder
magnordine
magnus
mago
magos
magpie
magre
mags
magyar
maha
mahabharata
mahal
mahatma
mahaya
mahayana
mahdi
mahe
mahler
mahmoud
mahomet
mai
maia
mail
mailing
main
maine
mainz
maio
maior
mairie
mais
maitreya
maius
majar
majestate
majestatic
major
majorca
majores
majoria
majoritari
majoritarimente
majoritate
majormente
majusculas
majuscule
makahiki
make
makes
making
mal
mala
malabar
malade
malades
maladia
maladias
malala
malaria
malawi
malay
malaya
malayo
malaysia
malcolm
maldivas
maldonado
male
maledicite
maledicte
malefic
males
malesser
malevolente
malfoy
malgache
malgrado
malhac
mali
maligne
malina
malitiose
malleabile
mallorca
malmo
malo
malos
malta
maltese
malthus
malthusian
malu
malus
malvales
malveillant
malvina
malvinas
mama
mamma
mammal
mammales
mammalia
mammari
mammife
mammifero
mammiferos
mammut
mammuthus
mamou
man
mana
management
managua
manca
mancante
mancava
mancha
manche
manchester
manchuria
manco
manda
mandar
mandara
mandarin
mandate
mandato
mandatori
mandatos
mandava
mandela
mandibula
mandibulas
mando
mandrake
mandriva
mandy
maneamento
manear
maneate
manera
manet
manfred
manga
manganese
mangia
mangiar
mangiate
mangiava
mango
manhattan
mania
manica
manicheismo
maniera
manieras
manierismo
manierista
manifest
manifesta
manifestante
manifestar
manifestarea
manifestate
manifestation
manifestationes
manifestava
manifesto
manila
manipula
manipulate
manipulation
manju
mann
mannahatta
mannese
mano
manolito
manos
manovra
manovras
mansuete
manta
mantello
mantene
mantenente
mantenentia
mantener
manteneva
mantenimento
mantenite
mantenitor
mantissa
manto
mantova
mantra
manual
manuales
manualmente
manuel
manuela
manufactura
manufacturas
manuscript
manuscripte
manuscripto
manuscriptos
manuscripts
many
manzarek
manzetti
mao
maori
map
mappa
mappage
mappamento
mappas
mapped
maps
mar
mara
maracaja
maradona
maranha
marano
marathi
maravilha
marble
marc
marca
marcante
marcar
marcas
marcate
marcation
marcator
marcava
marcel
marcela
marcello
marcelo
march
marcha
marchar
marchas
marchava
marche
marchese
marcia
marco
marconi
marcos
marcus
mardocheo
marduk
mare
marea
mareas
marechal
marema
mares
margaret
margareta
margarita
marge
margherita
marginal
margine
margines
margit
marguerite
mari
maria
marian
mariana
mariano
marido
marie
marilyn
marin
marina
marine
mariner
marinero
marineros
marino
mario
marion
marionettes
marita
maritage
maritages
maritar
maritate
maritava
maritime
maritimus
marito
marittima
marittimo
marjorie
mark
market
markt
markup
marlene
marmara
marmore
marmota
marne
maroccan
marocco
marquis
marrakech
marriage
marry
mars
marsan
marseillaise
marseille
marshall
marsi
marta
marte
martedi
martel
martello
martha
marti
martial
martiaux
martijn
martin
martineau
martinet
martinho
martinica
martino
martins
martio
martius
marto
martyr
martyre
martyres
martyrio
marvel
marx
marxismo
marxista
marxistas
mary
maryland
marzano
mas
masca
mascule
masculin
masculino
masculo
masculos
mash
mashiah
mashtots
maso
mason
masques
masquinongy
mass
massa
massachusetts
massacrate
massacro
massacros
massaranduba
massas
massive
massivemente
massivo
mast
master
masters
masticate
mastiff
mastin
masturbation
masuria
mat
mata
matante
matar
matava
match
matches
mate
matejka
mater
matera
materia
material
materiales
materialismo
materials
materias
maternal
materne
maternitate
matese
math
mathbb
mathbf
mathcal
mathematic
mathematica
mathematical
mathematicamente
mathematicas
mathematico
mathematicos
mathematics
mathfrak
mathrm
mathsf
matija
matilde
matino
matique
matisse
mato
matos
matrastra
matre
matres
matrice
matrices
matriculation
matrimonial
matrimonio
matrix
matroska
matsuo
matt
matter
mattheo
matthew
matthias
matur
maturation
maturitate
matza
matzneff
mau
maui
maul
maupassant
maureen
mauriac
maurice
mauritania
mauritianos
mauritio
mauro
mausbach
max
maxim
maxima
maximal
maxime
maximiano
maximilian
maximisar
maximo
maximus
maxwell
may
maya
mayardit
mayas
mayer
mayhew
maynard
mayo
mayor
mayorga
mayotte
mays
mazda
mb
mbox
mc
mca
mccartney
mccloskey
mccloud
mcdonald
mceoin
mcgonagall
mcgraw
mckinley
mcphail
mcreynolds
mcvie
md
me
mea
meaning
means
measurate
measure
mecca
mecenas
mechanic
mechanica
mechanicamente
mechanics
mechanismo
mechanismos
mecklenburg
mecklenburgo
med
medal
medalia
medalias
mede
medeiros
medelli
media
medial
median
mediante
medias
mediate
mediatic
mediation
mediator
mediatos
mediawiki
medic
medica
medical
medicamento
medicamentos
medicationes
medici
medicina
medicinal
medicinas
medicine
medicinenet
medicis
medico
medicos
medidas
medie
mediedie
medienocte
medietate
medieval
medievo
medina
medio
mediocre
medios
meditar
meditation
meditative
mediterra
mediterranean
mediterranee
mediterraneo
medium
medos
medulla
medusa
medz
meer
meet
meeting
meetings
meg
megabytes
megatokyo
mein
meireles
mejor
mel
melanesia
melanie
melbourne
meleiro
melgar
melilla
melio
melior
meliora
melioramento
meliorante
meliorar
meliorate
melioration
meliorationes
meliorava
meliores
mella
melle
mellin
mellitus
melo
melodia
melodias
melodic
melon
melville
mem
member
members
membrana
membranas
membrato
membro
membros
memora
memorabilia
memorandum
memorar
memorate
memoration
memorava
memoria
memorial
memoriam
memorias
memorisar
memory
memphis
men
mena
menace
menacia
menaciante
menacias
menaciate
menaciava
menandro
menar
menava
mende
mendel
mendelssohn
mendes
mendicante
mendico
menealo
menelao
menhires
meno
menopausa
menor
menora
menos
mensa
menschen
mense
menses
menstruation
mensual
mensura
mensurar
mensuras
mensurate
mensuration
mensurationes
ment
mental
mentalmente
mente
mentes
mention
mentiona
mentionar
mentionate
mentionava
mentiones
mentitor
mentiva
mento
mentor
mentores
ments
menu
menudo
menuetto
menus
mephitis
mer
meravilia
meravilias
meraviliose
mercado
mercante
mercantes
mercantias
mercantil
mercato
mercator
mercatores
mercatos
merce
mercedes
mercenari
mercenarios
mercer
merces
mercosur
mercurial
mercuridi
mercuridis
mercurio
mercury
mercy
mere
meridian
meridiano
meridie
meridional
merindad
merit
merita
meritate
meritava
merito
meritori
meritos
merkel
mermente
merriam
merry
mes
mesa
mesenterio
mesme
mesmes
mesmo
mesoamerica
mesolithic
meson
mesopotamia
mesozoic
mesrop
message
messageria
messagero
messageros
messages
messenger
messia
messianic
messier
messina
mesticios
mestiero
mestieros
mesura
mesurar
mesuras
mesurate
mesuration
mesurationes
mesurava
mesures
met
meta
metabolic
metabolismo
metadatos
metal
metalingua
metallic
metallo
metalloide
metalloides
metallos
metallurgic
metamorphose
metamorphoses
metanalyse
metaphora
metaphoric
metaphoricamente
metaphysic
metaphysica
metarex
metatherios
metazoa
meteo
meteorologia
meteorologic
methano
methanol
metheny
method
methode
methodismo
methodista
methodistas
methodo
methodologia
methodologic
methodos
methylic
meti
metir
metonymia
metrage
metric
metrica
metro
metropole
metropolitan
metropolitana
metropolitano
metropolitanos
metros
metz
metzeltin
meu
meucci
mexican
mexicana
mexicano
mexicanos
mexico
mey
meyer
mez
mg
mgm
mhz
mi
mia
miami
miapplet
mica
michae
michael
michel
michelangelo
michele
michell
michelle
michelson
michigan
mick
mickey
mico
micre
micro
microbe
microbic
microbiologia
microbiology
microbios
micrometro
micrometros
micron
micronation
micronationes
micronesia
micronucleo
microorganismos
microphono
microprocessor
microprocessores
microregion
microregiones
microscopic
microscopio
microsoft
microstatos
microsystems
mid
midas
middle
middlesex
midgard
midi
midnight
midsummer
mie
mientras
mieres
might
migrate
migration
migrationes
migratori
migrava
miguel
mike
mikhail
mil
mila
milan
milanese
milano
mile
miles
mileto
milieu
militante
militantes
militar
militare
militares
militari
militarismo
military
milite
militia
militum
milk
mill
milla
mille
millennio
millennios
millennium
miller
milles
millesime
millia
milliardo
milliardos
millias
millicent
millimetros
million
milliones
millions
millones
milo
milton
milwaukee
mimic
min
mina
minas
mind
mindanao
mine
minecraft
mineral
minerales
mineralic
mineralogia
minerva
minetest
mineurs
ming
mingora
minh
minha
mini
miniatura
miniaturas
minijoco
minimal
minimalist
minimalista
minime
minimo
minister
ministerial
ministerio
ministerios
ministers
ministro
ministros
minix
minneapolis
minnelli
minnesota
mino
minoan
minor
minores
minorias
minoritari
minoritate
minoritates
minorities
minors
minos
minsk
mint
minuit
minus
minuscule
minuta
minutas
minute
minutes
minutiose
minutos
mio
miquel
mir
mira
mirabel
miracle
miraculo
miraculos
miraculose
mirage
miranda
mirandese
mirate
mircea
miriam
mirim
mirmidones
miro
mirordine
mirror
mis
misanthrope
misce
miscente
miscer
misceva
miscite
mise
miseria
misericordia
mishnah
misinformation
miskito
miskitos
misma
misme
mismo
miss
missa
missal
misse
mission
missionari
missionario
missionarios
missiones
mississippi
missouri
mist
mistral
mit
mitate
mitchell
mites
mithras
mitochondrial
mitochondrios
mitsubishi
mitte
mittente
mitter
mitterrand
mitteva
mittite
mitzel
mix
mixe
mixte
mixtion
mixtura
miyamoto
miyazaki
ml
mln
mm
mn
mo
moais
mobile
mobiles
mobilisation
mobilitate
moby
mod
moda
modal
modalitate
modalitates
mode
model
modellar
modellate
modello
modellos
modelo
modena
modera
moderate
modern
moderna
moderne
modernes
modernisation
modernismo
modernista
moderno
modeste
modestia
modi
modifica
modificabile
modificador
modificar
modificate
modification
modificationes
modificator
modificatores
modificava
modo
modos
modular
modulate
modulation
module
modulo
modulos
moeno
moffetta
moffettas
mofu
mohamet
mohammed
mohawk
moi
moins
moires
moishe
moj
mol
molar
moldavia
mole
molecula
molecular
moleculas
molecules
molester
molie
molina
molino
molinos
molise
molite
moll
molle
molliatura
mollusca
molluscos
molly
molt
molto
molybdenum
momento
momentos
mon
mona
monacha
monachas
monacho
monachos
monaco
monarcha
monarchas
monarchia
monarchias
monarchic
monasterio
monasterios
monastic
mondadori
mondai
monde
mondes
mondi
mondial
mondo
mondovi
monero
moneta
monetari
monetas
money
monferrato
mongol
mongoles
mongolia
monica
monitor
monkey
monne
monnes
mono
monograph
monographias
monoide
monolingue
monolithic
monomeros
monophyletic
monoplacophora
monopolio
monopolios
monorail
monotheismo
monotheista
monotheistic
monotremata
monoxydo
monroe
monschau
monsieur
monsters
monstra
monstrante
monstrar
monstrara
monstras
monstrate
monstrava
monstro
monstros
mont
monta
montage
montaigne
montalbo
montalto
montan
montana
montania
montanias
montaniose
montante
montar
montate
montava
monte
montebello
montejo
monteleone
montemagno
montemayor
montenegro
montes
montessori
montevideo
montgolfiere
montgomery
montherlant
monthly
monticello
monticulo
montjui
montpellier
montre
montreal
montreux
montserrat
monty
monument
monumental
monumento
monumentos
monza
monzo
moob
mool
moon
moore
mora
moral
moraleja
morales
moralitate
morality
moralmente
moravia
morbiditate
morbo
morbos
morde
mordechai
morder
mordor
more
morelos
morena
moreno
mores
moresnet
morgan
morgana
morgoth
morgue
mori
morir
morira
moriscos
morite
moritz
moriva
mormon
mormones
mormonismo
mornas
morning
morocco
moroni
moros
morphema
morphemas
morphologia
morphologic
morris
morrison
morro
morse
morsura
mort
mortal
mortales
mortalitate
morte
mortes
morticia
mortifere
mortivores
mortiz
morto
mortos
morus
mos
mosaic
mosaico
moschea
moscheas
moscova
moscovia
moscovita
moscow
mosella
moses
mosfilm
mosiah
moslem
moslemes
mosquito
mosquitos
most
mostra
mot
mota
mother
motineros
motion
motiones
motivate
motivation
motivationes
motive
motivo
motivos
moto
motocycletta
motor
motorcyclo
motores
motta
motto
motu
mou
moulin
mount
mountain
mourut
mouse
mouskouri
moustaki
mouvement
mov
move
movement
movemento
movente
mover
moveva
movie
movies
movimente
movimento
movimentos
movimiento
movite
mox
moz
mozambique
mozarabe
mozart
mozilla
mp
mpeg
mph
mpla
mpushbutton
mr
ms
msg
msx
mt
mtr
mtv
mu
muammar
much
mucha
mucor
mucores
mucose
muenchen
muflo
muflon
muggle
mugglegenite
muggles
mughal
muh
muhammad
muito
mujeres
mulaik
mulcta
mulctas
mulher
mulier
mulieres
muller
mulo
multa
multe
multejocator
multes
multi
multicellular
multidimensional
multijocator
multilingual
multilingue
multilinguismo
multilocularis
multimedia
multimedial
multinational
multiple
multiplica
multiplicate
multiplication
multiplicava
multiplicitate
multiplos
multissime
multitude
multitudes
multo
multos
mumbai
mumia
mun
muncho
munda
mundan
mundar
munde
mundeze
mundi
mundial
mundialmente
mundo
mundos
munich
municipal
municipalitate
municipalitates
municipio
municipios
munsee
muon
mural
muralha
muralia
muralias
murcia
murder
murders
murdock
mure
murio
muro
muros
murray
mus
musa
musado
musas
muscas
muscate
musco
muscos
muscular
musculo
musculos
musculose
muse
musello
museo
museos
muses
museu
museum
music
musica
musical
musicales
musicante
musicantes
musicava
musico
musicos
musimon
musique
musk
muskellunge
muslim
muso
mussolini
must
musta
mustachios
mustang
mustangs
mustarda
mustela
mustelidae
musulman
musulmana
musulmanes
muta
mutabile
mutant
mutate
mutation
mutationes
mutatores
mute
mutual
mutualmente
mutue
mutuemente
muy
muzaiko
mvc
mx
my
myanmar
mycenas
mycene
mycenian
mycologia
mycorrhizal
mycotoxinas
myeon
myotis
myspace
myste
mysterio
mysterios
mysteriose
mystery
mystic
mystica
mysticismo
mystico
mythic
mytho
mythologia
mythologic
mythology
mythos
myxomycetos
n
na
nabla
nabokov
naboo
nach
nachislamischen
nacht
nachweis
nacio
nacional
nada
nadia
naerssen
nafarroa
nafta
nagasaki
nagorno
nagra
nah
nahuatl
nahuelbuta
naim
naissance
naive
nak
nakels
nam
nambla
namblalowenthal
name
names
namibia
nan
nana
nanak
nancy
nang
nano
nanos
nantes
napier
napole
napoleon
napoleonic
napoli
narbona
narci
narcomania
narekac
narekatsi
naro
narra
narrar
narrate
narration
narrationes
narrativa
narrative
narrator
narrava
naruto
nas
nasa
nasal
nasce
nascente
nascentia
nascentias
nascer
nasceva
nascimento
nascite
nashville
naso
nasos
nassau
nat
nata
natal
natalitate
natation
nate
nathan
nathanahel
nathaniel
nation
national
nationale
nationalismo
nationalista
nationalistas
nationalistic
nationalitate
nationalitates
nationalsocialista
nationes
nations
native
nativitate
nativo
nativos
nato
natrium
natura
naturae
natural
naturales
naturaleza
naturalis
naturalisate
naturalismo
naturalista
naturalistas
naturalistic
naturalmente
naturas
nature
naturismo
naturista
nauru
nausea
nausicaa
nauta
nautic
nava
navajo
naval
navarra
navarro
navas
nave
navegantes
naves
naviga
navigabile
navigante
navigar
navigation
navigator
navigatores
navigava
naviglio
navy
naya
nazareno
nazareth
nazgu
nazi
nazianzo
nazis
nazismo
nazista
nb
nbc
nc
ncbi
nccl
nchen
nchengladbach
nchez
ncia
ncias
ncipe
ncsa
nd
nda
ndchen
nde
ndez
ndia
ndnis
ndung
ne
nea
neanderthalensis
neapole
neapolis
near
nebraska
nebrija
nebula
nebulosa
nebulose
nec
necessari
necessarimente
necesse
necessemente
necessita
necessitante
necessitar
necessitate
necessitates
necessitava
nech
neci
neckar
necker
necropole
necun
necuna
necuno
nederland
nederlandese
nederlandeses
nederlandia
nederlands
nederlandse
nee
need
neerlandese
nega
negar
negate
negation
negative
negativemente
negativo
negava
neglect
neglige
negligentia
negligite
negotiar
negotiate
negotiation
negotiationes
negotio
negotios
negre
negrinho
negro
negros
nehemia
nehor
neil
neill
nel
nelson
nematoda
nement
nemo
nen
neo
neoclassic
neodymium
neolatin
neolatino
neolithic
neolithico
neologismo
neologismos
neon
neonate
neonato
neopagan
neopaganismo
neoplatonic
neoptolemo
neoslavonic
neoteric
neotericos
neozelandese
nepal
neper
neperian
nephi
nephitas
nephite
nepote
nepta
nepto
neptuno
neq
neque
nere
nereide
nereu
nero
neron
nervo
nervos
nervose
nervous
nes
nestor
nestore
net
netboxe
netherlands
neto
netscape
netsukuku
netta
nettar
nette
nettemente
nettetal
network
neu
neubronner
neuilly
neumann
neunkirchen
neur
neural
neurochirurgia
neurologia
neurologic
neurological
neurones
neurosis
neuss
neustria
neutral
neutralisar
neutralisation
neutralitate
neutralization
neutre
neutrino
neutrinos
neutro
neutron
neutrones
nevada
neve
never
neville
nevis
new
newgon
newgonwiki
newhart
newman
newport
news
newsletter
newt
newton
newtonian
nexo
next
nez
nf
nfl
ng
ngc
ngdi
ngel
ngela
ngeles
ngltf
ngora
ngua
nh
nha
nhat
nhk
ni
nia
niagara
nic
nica
nicaragua
nicaraguan
nicas
niccolo
nice
nicea
nicene
niche
nicholas
nichols
nick
nickel
nickelodeon
nicks
nico
nicola
nicolas
nicolaus
nicole
nicomacho
nicosia
nideggen
nido
nie
niederkru
niedermeyer
niels
nielsen
niemeyer
nietzsche
nig
niger
nigeria
nigerian
night
nightingale
nights
nigra
nigre
nigro
nih
nihil
nijmegen
nika
nikola
nikolai
nilo
nils
nimbo
nimbostrato
nimega
nimis
nimoy
nimzowitsch
nin
nina
nine
nineveh
ninh
ninja
ninjas
nintendo
nio
niobium
nirvana
nis
nisan
nishi
niso
nist
nisvorst
nit
nitrogeno
nitroglycerina
niu
nival
nive
nivel
nivello
nivellos
nix
nixon
nj
nk
nkel
nko
nl
nlm
nm
nnchen
no
noam
nobel
nobelprize
nobile
nobiles
nobilitate
nobis
noble
nocer
nocive
nocte
noctes
nocturne
nodo
nodos
noe
noemi
noether
noi
noir
noire
noite
nokia
nolan
noli
nom
noma
nomade
nomades
nomadic
nombre
nome
nomen
nomenclatura
nomenclature
nomina
nominal
nominalmente
nominar
nominate
nomination
nominationes
nominative
nominativo
nominava
nomine
nomines
nomino
nomo
noms
non
nona
nonae
nonas
nonconvective
none
nonis
nonmetallo
nonmetallos
nonobstante
nonsense
nonsenso
nootka
nor
nord
nordamerican
norden
nordest
nordic
nordico
nordien
nordin
nordwest
norfolk
norfuk
norma
normal
normale
normalisate
normalisation
normalitate
normalmente
norman
normandia
normandie
normanne
normanno
normannos
normas
normativa
normative
norte
north
northamptonshire
northern
northside
northumberland
norton
norvega
norvegia
norvegian
norvegiano
norwich
nos
nostalgia
noster
nostr
nostra
nostre
nostri
nostro
nostros
nostrum
not
nota
notabile
notabilemente
notae
notar
notarstefano
notas
notate
notation
notationes
notava
note
notes
nothberg
noti
notice
noticia
noticias
notion
notiones
notitia
notitias
notoc
notori
notorietate
notre
nous
nouveau
nouveaux
nouvel
nouvelle
nouvelles
nov
nova
novanta
novas
nove
novel
novela
novelas
novelista
novella
novellas
novelle
novellista
novello
novem
november
novembre
novemente
noventa
novesime
novgorod
novi
novial
novicios
novikov
novilunio
novo
novos
novosibirsk
now
np
npr
nps
nr
nro
ns
nsdap
nsp
nster
nsterla
nsula
nt
ntara
nte
nter
ntgen
ntie
ntricas
nu
nuances
nube
nubes
nubic
nubifere
nuce
nuces
nuclear
nucleic
nucleo
nucleones
nucleos
nucleotide
nucleotides
nude
nudes
nudist
nuditate
nue
nuestra
nuestros
nueva
nuevo
nuit
null
nulle
nullemente
nullo
num
numa
numantia
number
numbers
numera
numeral
numerales
numerante
numerar
numerario
numerate
numeration
numerava
numeric
numerica
numericamente
numero
numeros
numerose
numisma
numismas
numitor
nun
nunavut
nunc
nunca
nunquam
nuntii
nuovo
nuptial
nuptias
nur
nuraghe
nuremberg
nus
nusen
nutri
nutrientes
nutrimento
nutrimentos
nutrir
nutrite
nutrition
nuuk
nuwas
nvsh
nwt
nxe
ny
nya
nyata
nyc
nyctereutes
nyingma
nyingpo
nympha
nymphas
nyssa
nytimes
nyu
nze
o
oa
oahu
oak
oakenshield
oakland
ob
obama
obedi
obedientia
obedir
obelisco
oberhausen
oberon
obesitate
obi
obituaries
obituario
object
objection
objectiones
objective
objectivemente
objectivo
objectivos
objecto
objectos
objects
objetivo
oblast
oblationes
oblidar
oblidate
oblidava
obliga
obligate
obligation
obligationes
obligatori
obligava
oblique
oboe
oboes
obra
obras
obrer
obrero
obreros
obres
obscene
obscur
obscura
obscurate
obscure
obscuritate
obseque
observa
observabile
observante
observantia
observar
observate
observateur
observation
observational
observationes
observations
observator
observatores
observatorio
observatorios
observatory
observava
observer
observite
obsolete
obstaculo
obstaculos
obstante
obstetricia
obstinate
obstruction
obstruer
obstruite
obtene
obtenente
obtener
obteneva
obtenite
obteniva
obtention
obtuse
obvie
obviemente
oca
occ
occasion
occasional
occasionalmente
occasionava
occasiones
occide
occidental
occidentales
occidentalista
occidentalistas
occidente
occider
occideva
occidite
occitan
occitano
occulta
occultar
occultava
occulte
occultista
occupa
occupante
occupar
occupate
occupation
occupationes
occupava
occuppa
occure
occurente
occurer
occureva
occurite
occurre
occurrente
occurrentia
occurrentias
occurrer
occurrera
occurreva
occurrite
oce
ocean
oceania
oceanic
oceano
oceanographia
oceanos
och
ocho
oclc
oct
octanta
octava
octavas
octave
octaviano
octavio
octavo
octavos
octo
october
octobre
octoniones
octubre
octuple
ocular
oculo
oculos
ocurre
ocurren
od
oda
oddiyana
ode
oden
odense
odeon
oder
odessa
odf
odia
odiate
odiava
odin
odio
odoacre
odor
odot
odum
odyseo
odyssea
odysseo
odysseus
odyssey
oe
oeste
oeuvre
of
off
offenbach
offenders
offensiva
offensive
offere
offerente
offerer
offereva
offerite
offerta
offertas
offical
office
official
officiales
officialmente
officiero
officieros
officina
officinas
officio
officios
oficial
ofrece
og
oganesson
ogden
oglio
oh
ohana
ohio
ohm
ohne
ohonamochi
oi
oide
oil
oireachtas
ois
oise
ojeda
ojibwa
ok
okah
okapi
okayama
okeh
okinawa
oklahoma
oko
oktoberfest
ol
ola
old
ole
oleo
oleos
oleracea
olga
olhar
olho
oli
olim
olinto
oliva
oliveira
olivenza
oliver
olivia
olivier
olivo
ollivander
ollivanders
olmo
olof
olona
olsen
olympia
olympic
olympie
olympo
om
omaha
omai
oman
omar
omaso
ombudsman
omc
omega
omegat
omission
omissiones
omitte
omitter
omittite
omne
omnes
omni
omnibus
omniglot
omnipotente
omnipresente
omnisciente
omnivore
oms
on
ona
onca
once
oncle
oncles
oncologia
one
onepage
onere
ones
ong
onglet
online
only
onme
ono
onomatopeia
ons
ontario
ontbonden
ontologia
onu
oocities
ooides
oomoto
oomycetos
op
opac
open
opening
openoffice
opera
operando
operandos
operante
operar
operari
operas
operate
operation
operational
operationes
operative
operativos
operator
operatores
operatorname
operava
operose
ophiuchus
opina
opinava
opinio
opinion
opinione
opiniones
opio
opisthokonta
opium
oplus
opold
oportunitate
oposition
oppone
opponente
opponentes
opponer
opponeva
opponite
opportunitate
opportunitates
opposite
opposition
opposito
oppositores
oppression
oppressive
opprimite
ops
opta
optar
optava
optic
optica
optime
optimisation
optimo
option
optional
optionalmente
optiones
opulentia
opus
or
ora
oracle
oraculo
oraculos
oral
oralmente
orang
orange
orangeria
orangutan
orangutanes
orar
oration
orationes
orator
oratores
oratoria
oratorio
orbita
orbital
orbitales
orbitas
orchestra
orchestral
orchestras
orci
ordbok
orden
ordena
order
ordina
ordinal
ordinamento
ordinamentos
ordinantia
ordinantias
ordinar
ordinari
ordinarios
ordinata
ordinate
ordination
ordinator
ordinava
ordine
ordines
ordo
ore
oregon
oreste
orestes
org
organ
organic
organisa
organisante
organisar
organisate
organisation
organisationes
organisative
organisator
organisava
organismo
organismos
organista
organization
organizational
organizations
organo
organos
organulos
orgolio
orgoliose
orgulho
ori
orient
orienta
oriental
orientales
orientalis
orientate
orientation
oriente
orificio
origen
origin
origina
original
originale
originales
originalitate
originalmente
originante
originari
originarimente
originate
originator
originava
origine
origines
origins
orinoco
orkes
orlando
orle
orleans
ornamental
ornamentos
ornatus
oro
orphano
orphismo
orpington
orqui
ortega
orthodoxe
orthodoxia
orthodoxos
orthographia
orthographias
orthographic
ortographia
orwell
os
osa
osaka
osar
oscar
oscillante
oscillation
oscillationes
oscillator
oscuro
osiris
oslo
oss
ossee
osseta
ossetia
osso
ossos
ossose
ostrogotho
ostrogothos
ostwald
oswald
ota
otaci
otan
otariidae
otero
oteros
other
othon
otio
oto
otra
ots
ottawa
otto
ottoman
ottomanos
ou
oud
oui
our
ouro
out
outline
output
ouverture
oval
ovaric
ovario
ovce
ove
ovenden
over
overline
overview
oves
ovidio
oviedo
oviparos
ovis
ovo
ovos
owa
owen
own
owyn
oxford
oxfordshire
oxonian
oxydante
oxydation
oxydo
oxydos
oxygen
oxygeno
oxymoro
oz
ozono
p
pa
pablo
pac
pacchetto
pacchettos
pace
paci
pacific
pacificamente
pacifico
pacifismo
pacifista
pacifistas
pacifistic
pacino
pacioli
paco
pacto
pactos
paderborn
paderno
padma
padmasambhava
padre
padua
paedophile
paedophiles
paedophilia
paenungulata
pag
paga
pagamento
pagamentos
pagan
paganism
paganismo
paganos
pagar
pagate
pagava
page
pagecontext
pagerank
pages
pagina
paginas
pagine
pagodinho
pahlavi
pai
paial
paidika
paidikion
pain
paine
painel
paint
pais
paisage
paisages
paisano
paisanos
paises
paisin
paiute
paixa
pakicetides
pakistan
pal
palabra
palabras
palace
palacio
palacios
palaeontology
palais
palanti
palatal
palatalisation
palatinato
palatino
palatio
palatios
palato
palau
palazzo
palden
pale
palea
palenberg
palencia
palentia
paleolithic
paleolithico
paleontologia
paleozoic
paleozoica
palermo
palestin
palestina
palestinian
palgrave
palgyi
palhoc
pali
palladio
palladium
pallas
pallide
palm
palma
palmas
palmeira
palmitos
palo
palpatine
palude
paludes
pampa
pamphleto
pan
panama
pancreas
pancreatic
panda
pandemia
pandunia
pane
panentheismo
paneuropee
panhas
pani
panic
panico
panina
paniscus
panjabi
pankhurst
panlobular
pannello
pannellos
pano
panorama
panoramic
panslave
panspermia
pantagruel
pantalon
pantalones
pantheismo
pantheon
pantheones
panthera
pantherinae
paolo
papa
papal
papanduva
papas
papato
papel
paper
paperback
papers
papiamento
papiamentu
papilion
papiro
papiros
papista
pappa
papua
papyro
papyros
par
para
paraballas
parabolas
parabrisa
paracadita
parachoches
paracolpos
parada
paradas
parade
paradigma
paradigmas
paradis
paradise
paradiso
paradox
paradoxe
paradoxes
paradoxicamente
paradoxo
paradoxos
parafango
parafoco
parafulmine
paragrapho
paragraphos
paraguay
parai
parallel
parallelmente
parallelo
parallelogramma
parallelos
paralumine
paralysate
paralyse
paralysis
paramahansa
parametro
parametros
paramount
parana
paranoia
paraoculos
paraphilia
paraphyletic
parapluvia
parapluvias
paraseptal
parasitic
parasito
parasitos
parasol
parasoles
paravento
parc
parco
parcos
pardo
pardofelis
pardona
pardonar
pardono
pardos
pare
parece
paredes
parental
parentalschuijer
parentato
parente
parentes
parentheses
parer
pares
pareva
pari
pariete
parietes
paris
parisian
paritate
park
parker
parkinson
parks
parla
parlamentari
parlamentarios
parlamento
parlamentos
parlante
parlantes
parlar
parlara
parlarea
parlate
parlator
parlatores
parlators
parlava
parle
parlen
parliament
parlo
parma
parnaso
parochia
parochias
parocho
parodia
parodic
parola
parolas
parole
parousia
parque
parsi
parsis
parsons
part
parte
partei
partement
partenariato
partenario
partenarios
partes
parthian
parti
partial
partialmente
participa
participante
participantes
participar
participate
participation
participava
participio
participios
particula
particular
particularitate
particularitates
particularmente
particulas
particulo
particulos
partido
partie
partij
partir
partis
partisanos
partita
partitas
partite
partition
partitionamento
partitiones
partito
partitos
partiva
parto
parts
parturi
parturition
parturiva
party
parva
parvati
parve
parves
parvissime
parvum
pas
pasa
pasadena
pascal
pascha
paschal
paso
passa
passage
passagero
passageros
passages
passant
passante
passaporto
passar
passara
passarea
passate
passato
passava
passe
passion
passionate
passiones
passive
passivitate
passivo
passo
passos
past
pasta
pastas
pasteur
pastisseria
pastor
pastoral
pastores
pastura
pasturas
pat
pata
patagonia
patas
patata
patatas
patay
patella
patentate
patente
patentes
pater
paternal
paterne
paternitate
paterno
path
pathogenos
pathologia
pathologic
pathways
pati
patiala
patiente
patientes
patientia
patil
patinage
patio
patr
patrastro
patre
patrenostre
patres
patria
patriarcha
patriarchal
patriarchas
patriarchato
patricia
patricio
patrick
patrimonio
patriota
patriotic
patristic
patritios
patro
patrocle
patroclo
patron
patrona
patronisava
patrono
patronos
patronymic
patronymico
pattern
patterns
patterson
patti
patz
pau
pauc
pauco
paul
paula
pauling
paulist
paulo
paulus
paupere
pauperes
pauperitate
paupertate
pausa
pausanias
pausini
pavel
pavese
pavia
pavilion
pavlov
pavor
pax
payot
pays
paysage
paz
pb
pbs
pc
pce
pda
pdf
pe
peace
peano
pearl
pearson
pecados
peccato
peccator
peccatores
peccatos
pecia
pecias
pecietta
peciettas
pectore
peculiar
pecunia
pedagogia
pedagogic
pedagogo
pede
pedemonte
pedemontese
pederasta
pederastas
pederastia
pederastic
pedes
pediatra
pediva
pedo
pedobaptismo
pedofielen
pedofilia
pedofilie
pedon
pedones
pedophile
pedophiles
pedophilia
pedophiliaosborne
pedophilic
pedophilo
pedophilophobia
pedophilos
pedovereniging
pedras
pedraza
pedrinho
pedro
pedrosa
pedunculos
peer
pehr
pei
peider
pejor
pejorative
pekin
pelage
pelayo
pelea
pelegrinage
pelegrinos
peleo
pelle
pelles
pellicula
pelliculas
peloponeso
peloponneso
peluso
pelve
pema
pen
pena
penal
penang
penas
penates
pence
pendente
pendulo
pene
penelope
penetra
penetrante
penetrar
penetrate
penetration
penetrava
pengo
penguin
penha
peni
penicillina
penicillinas
penicillium
peninsula
peninsular
peninsulas
penis
penitentia
penitentiari
penna
penni
pennsylvania
penny
peno
penrose
pensa
pensamento
pensamentos
pensamiento
pensante
pensar
pensata
pensatas
pensate
pensator
pensatores
pensava
pension
pentateucho
pentecostal
pentecoste
penthesilea
penultime
penumbra
people
peoples
pepe
pepper
peppy
peptides
pequen
per
perak
percentage
perceptibile
perception
perceptiones
perceptive
percipe
perciper
percipeva
percipite
percurre
percurrer
percurso
percussion
percussionista
percy
perde
perdente
perder
perdeva
perdio
perdita
perditas
perdite
perdition
perdiva
perdona
perdurava
pere
pereira
perek
perenne
perez
perfect
perfecte
perfectemente
perfection
perfectionar
perfective
perfecto
perforar
perforate
perforation
performa
performance
performate
pergamon
peri
pericles
periculo
periculos
periculose
peril
perimetro
period
periodic
periodicamente
periodicitate
periodico
periodicos
periodo
periodos
peripatetic
peripheral
peripheria
peripheric
perissodactyla
peritiba
peritoneo
perjudicial
perl
perla
perlas
perlucido
perm
permane
permanecer
permanente
permanentemente
permanentia
permaneva
permeabilitate
permission
permissiones
permisso
permite
permitte
permittente
permitter
permitterea
permitteva
permittite
permulte
permulto
permutationes
pernambuco
pero
perpendicular
perpetrate
perpetuar
perpetuation
perpetue
perpignan
perpinia
perque
perquisition
perrault
perry
persa
persas
perse
persecutate
persecution
persecutiones
persecutor
perseo
perseque
persequer
persequeva
persequite
perses
perseus
perseverantia
persia
persian
persiano
persic
persica
persiste
persistente
persistentia
persisteva
person
persona
personage
personages
personal
personalisate
personalitate
personalitates
personalmente
personas
persones
personification
perspectiva
perspectivas
perspective
perspectives
perspicacitate
persuade
persuader
persuadeva
persuadite
pertenece
pertine
pertinente
pertinentia
pertiner
pertineva
perturbationes
peru
peruanos
perugia
perugino
peruvian
perveni
pervenir
pervenite
perveniva
perverse
perversion
perversiones
perverti
pervertitores
pesa
pesante
pesar
pesaro
pesava
pescara
pese
peso
pesos
pessoa
pestalozzi
peste
pestilentia
pestis
pet
pete
petente
peter
petersburg
peterson
peteva
petit
petite
petition
petitiones
petitot
petits
petiva
petra
petrarca
petras
petri
petro
petroburgo
petroglyphos
petrograd
petrola
petroleo
petyo
peyrefitte
pez
pg
ph
phane
phantasia
phantasma
phantasmas
phantastic
phantom
pharaon
pharaones
phariseos
pharmaceutic
pharmacia
pharmacologia
pharmacos
pharo
pharsalia
pharynge
phase
phases
phasic
phd
phe
pheacios
phebo
phenice
phenicie
phenicios
phenomena
phenomeno
phenomenon
phenomenos
phi
phil
philadelphia
philanthropo
philatelia
philharmonic
philip
philipp
philippe
philippin
philippinas
philippine
philippines
philippino
philippinos
philippo
philippus
philips
phillip
phillips
philoctetes
philologia
philologic
philologo
philologos
philosophal
philosophes
philosophi
philosophia
philosophiae
philosophias
philosophic
philosophical
philosophie
philosophies
philosopho
philosophos
philosophy
phoca
phocas
phoenice
phoenix
pholidota
phone
phonema
phonemas
phonematica
phonemic
phonetic
phonetica
phoneticamente
phong
phono
phonologia
phonologic
phosphoro
photo
photoelectric
photographate
photographava
photographes
photographia
photographias
photographic
photographique
photographo
photographos
photography
photon
photones
photos
photosynthese
photosynthetic
php
phrasal
phrase
phrases
phrygie
phu
phylo
phylogenetic
phylogenetica
phylogenia
phylos
phylum
physic
physica
physical
physicamente
physicas
physico
physicos
physics
physik
physiologia
physiologic
pi
pia
piacentino
piacenza
piaget
pian
pianista
pianistas
piano
piaui
piave
piazza
piazzi
pib
pic
pica
picard
picardia
picardo
picasso
picchettos
picco
piccolo
piceno
pico
picos
pictor
pictores
pictoresc
pictoric
pictura
picturas
picturate
picture
pictures
pide
pidgin
pidgines
pie
piece
pied
pieds
piemonte
pierce
piero
pierre
pierrot
piet
pieta
pietate
pieter
pietismo
pietra
pietrelcina
pietro
pieve
pigafetta
pigal
pigeon
pigeons
pigma
pigre
pike
pila
pilage
pilar
pilares
pilas
pilato
pilgrimage
pilipino
pillares
pilo
pilos
pilose
pilot
pilota
pilotas
piloto
pimeja
pin
pinar
pinares
pincia
pine
pineal
ping
pinger
pingeva
pingite
pinhalzinho
pinheiro
pinilla
pink
pino
pinocchio
pinter
pinto
pinyin
pio
pioneer
pionero
pioneros
pip
pipa
pipas
pipere
pipin
pipino
pipion
pipiones
pipistrellus
pippin
pira
pirata
piratas
piratuba
piro
pis
pisa
pisca
piscar
piscator
piscatores
pisce
pisces
piscina
pisin
pismo
pista
pistas
pistillos
pistoia
pistola
pistolas
pistols
piston
pisuerga
pitaka
pitcairn
pitkern
pittsburgh
piu
pius
pivot
pixar
pixels
pl
pla
placa
placard
placas
place
placenta
placentalia
placente
placer
placeres
placeva
plachettas
placia
placiar
placias
placiate
placiava
plaga
plagas
plagia
plagias
plague
plain
plaisir
plan
plana
planalto
planar
planas
planate
planatores
planca
plancas
planck
plancton
plane
planes
planessa
planessas
planet
planeta
planetari
planetas
planete
planets
planificate
planification
planning
plano
planos
plant
planta
plantae
plantal
plantarum
plantas
plantate
plantationes
plants
plasma
plastic
plastico
plat
plata
plateau
platform
plathelminthes
platino
plato
platon
platonic
platta
plattas
platte
platteforma
platteformas
platto
plattos
play
player
playing
playwright
plaza
please
plebe
plebiscito
pleiku
pleistoceno
plen
plena
plenar
plenari
plenate
plenmente
pleno
plicas
plinio
plon
plorar
plotino
plu
pluma
plumas
plumbo
plur
plural
plurales
pluralitate
plure
pluremajusculas
plures
plurimo
plurinational
plus
plusquamperfecto
plustosto
plutarcho
pluto
pluton
plutonium
pluvia
pluvial
pluvias
pluviose
pm
pmatrix
pmc
pmid
pms
pneumonia
png
pnictogenos
pnvd
po
poblacio
pobre
poc
poca
pocket
poco
pocos
pod
pode
poder
poderose
podeva
poe
poem
poema
poemas
poems
poesi
poesia
poesias
poeta
poetas
poetessa
poetic
poetica
poetovio
poetry
poggio
poings
point
pointes
points
pois
poitiers
pojo
poke
poki
pol
polac
poland
polanski
polar
polarisate
polarisation
pole
polemic
polemica
polemicas
poles
polesine
poli
police
policia
policial
policiari
policias
policiero
policieros
policy
polidamante
polidoro
polifemo
polis
polite
politic
politica
political
politicamente
politicas
politico
politicos
politics
politique
pollice
pollices
polline
pollution
polo
polonese
polonia
polonium
polos
poltergeist
polybio
polydor
polyglotta
polygono
polygonos
polymeros
polynesia
polynesian
polynesianos
polynomio
polynomios
polyphyletic
polysaccharidos
polytheismo
polytheistic
pombal
pomerania
pomerode
pomo
pomona
pompei
pompeio
pompilio
pon
pona
pond
pondicherry
pone
ponente
poner
ponera
poneva
pongo
ponite
pont
ponta
ponte
pontes
pontevedra
pontic
pontificato
pontifice
pontificio
pontio
ponto
pony
pool
pop
pope
popiełuszko
popper
popular
populares
popularisar
popularisate
popularisation
popularisava
popularitate
popularmente
populate
population
populationes
populatores
populava
populism
populo
populos
populose
por
pora
porca
porcentage
porcin
porco
porcos
pordenone
porgy
porn
porno
pornographia
pornographic
pornography
poros
porose
porpentina
porphyrio
porque
port
porta
portabile
portabilitate
portable
portal
portales
portante
portar
portara
portas
portata
portatas
portate
portative
portator
portatores
portava
portavoce
porte
porter
portion
portiones
portland
portmanteau
porto
portorican
portoricanos
portos
portrait
portraita
portraitate
portraits
portugal
portugese
portugeses
portuguesa
portuguese
portus
pos
posate
poseidon
posibilitate
position
positionate
positiones
positive
positivemente
positivismo
positivista
positron
possede
possedente
posseder
possedeva
possedite
possession
possessiones
possessive
possessives
possessivo
possessor
possessores
possi
possibile
possibilemente
possibilitate
possibilitates
possible
possiblemente
post
posta
postal
poste
postea
postere
posterior
posteriori
posterioritate
posteriormente
posthume
postmeridie
postmoderne
postmodernismo
posto
postone
postos
postquam
postscript
postula
postulante
postulate
postulato
postulatos
postulava
postume
postumemente
postura
posturas
pot
potabile
potassium
pote
potente
potentia
potential
potentialmente
potentias
potentiation
potenza
poter
potera
poterea
poteres
poterose
potes
potestate
potet
poteva
potion
potite
potsdam
potter
pottermore
poupe
pour
pouso
povre
povres
povressa
powell
power
pozo
pozuelo
pp
ppa
pr
pra
practic
practica
practical
practicamente
practicante
practicantes
practicar
practicas
practicate
practicava
practice
practicitate
pradesh
prado
praga
pragmatic
pragmatica
pragmatismo
praia
praseodymium
prata
pratchett
prateria
praterias
pratique
prato
pratos
praxis
prayer
pre
preambulo
preca
precar
precaria
precarias
precaution
precava
prece
precede
precedente
precedentes
precedeva
precedite
precepto
preceptor
preceptos
preces
precio
precios
preciose
precipitante
precipitation
precipitationes
precipitava
precisa
precisar
precise
precisemente
precision
precitate
precoce
precursor
precursores
preda
predas
predation
predator
predatores
predecessor
predecessores
predefinite
predestination
predeterminate
predica
predicar
predicate
predication
predicationes
predicato
predicator
predicatos
predicava
predice
predicer
prediceva
predicite
prediction
predictiones
predomina
predominante
predominantemente
predominantia
preeminente
preeminentia
preexistente
prefacio
prefecto
prefectura
prefecturas
prefer
prefere
preferentia
preferentias
prefereva
preferibile
preferite
prefixar
prefixate
prefixes
prefixo
prefixos
pregnante
pregnantia
prehende
prehistoria
prehistoric
preimagine
prejudicio
prejudicios
preliminar
preludio
prematrimonial
prematur
preme
premiate
premiato
premiatos
premie
premier
premiere
premio
premios
premisare
premissa
prende
prendente
prender
prendeva
prendite
prener
prenomine
prension
prentice
preoccupa
preoccupate
preoccupation
preoccupationes
preocupation
prep
prepara
preparar
preparate
preparation
preparatori
preparava
preposition
prepositiones
prepubere
prepubescente
preromanic
presa
presbyterian
presbyterianismo
prescott
prescribite
prescription
prescriptiones
prescriptive
present
presenta
presentante
presentar
presentarea
presentate
presentation
presentationes
presentator
presentava
presente
presented
presentemente
presentes
presentia
preserva
preservante
preservar
preservate
preservation
preservava
preside
president
presidente
presidentes
presidentia
presidential
presideva
presidite
presley
press
pressa
presse
presses
pression
pressionate
pressiones
presso
presta
prestar
prestate
prestation
prestava
preste
prestigio
prestigiose
presto
prestos
prestre
prestres
presume
presumibilemente
presumite
presumption
presuppone
presuppositionalista
presuppositiones
pretende
pretendentes
pretendeva
pretendite
pretense
pretension
pretensiones
preter
pretexto
preto
pretoria
prevale
prevalente
prevalentemente
prevalentia
prevaler
prevaleva
preveni
preveniente
prevenir
preveniva
prevention
preventive
previde
prevideva
previdite
previe
previemente
previste
prf
pri
priamo
pride
pridie
prie
prim
prima
primal
primari
primarimente
primate
primates
primatia
primatomorpha
primavera
prime
primemente
primer
primera
primero
primes
primigenius
primitive
primitivos
primo
primogenite
primordial
primordios
primos
prince
princes
princesa
princess
princessa
princeton
principal
principales
principalmente
principato
principatos
principe
principes
principia
principio
principios
principle
principles
print
println
prion
prionailurus
priones
prionic
prior
priori
prioritari
prioritate
pris
prisa
priscilla
prise
prision
prisionero
prisioneros
prisiones
prisma
prison
private
privilegiate
privilegio
privilegios
prix
prize
prizes
pro
proa
proba
probabile
probabilemente
probabilitate
probabilitates
probablemente
probar
probas
probate
probation
probava
probi
problema
problemas
problematic
problematicas
problemma
proboscidea
proc
procaryotes
procede
procedente
proceder
procedeva
procedimento
procedimentos
procedura
proceduras
procedure
proceedings
proceso
process
processal
processamento
processar
processate
processator
processatores
processo
processor
processos
proclama
proclamar
proclamate
proclamation
proclamava
proclo
procol
procopio
procura
procurator
procurava
procyon
procyonidae
procyonoides
prodige
prodigio
produce
producente
producer
producera
produceva
producir
producite
producte
production
productiones
productions
productive
productivitate
producto
productor
productores
productos
products
prof
profesional
professa
professava
profession
professional
professionales
professionalmente
professiones
professor
professorato
professores
profile
profilo
profilos
profit
profitar
profito
profunde
profundemente
profunditate
progenitor
progenitores
prognostico
prognosticos
program
programa
programas
programma
programmabile
programmar
programmario
programmas
programmate
programmation
programmator
programmatores
programmatura
programme
programming
progreso
progressava
progression
progressive
progressivemente
progresso
progressos
prohi
prohibe
prohibeva
prohibi
prohibir
prohibite
prohibition
prohibitiones
prohibiva
project
projecta
projectar
projectate
projectava
projection
projectiones
projecto
projectos
prole
proles
proletari
proletariato
proletarios
proliferation
prolific
prologo
prolongar
prolongate
prolongation
prolongava
promedio
promenada
promenar
promethium
prominente
prominentia
promissa
promissas
promitte
promittente
promitteva
promittite
promote
promotion
promotional
promotor
promove
promovente
promover
promoveva
promovite
promulgate
promulgation
promulgava
pron
pronominal
pronomine
pronomines
pronto
pronuncia
pronunciar
pronunciate
pronunciation
pronunciava
propaga
propaganda
propagante
propagar
propagate
propagation
propagava
propellite
propende
propension
proper
properties
propheta
prophetas
prophetia
prophetias
prophetic
prophylaxe
propie
propietario
propietate
propitiation
propone
proponente
proponer
proponeva
proponite
proportion
proportiona
proportional
proportionalitate
proportionar
proportionate
proportiones
propos
proposite
proposition
propositional
propositione
propositiones
proposito
propositos
proposte
proprie
propriemente
proprietari
proprietario
proprietarios
proprietate
proprietates
propulsion
proque
pros
prosa
prosequer
prosequeva
proserpina
prosimia
prosimias
prositi
prosodia
prosodic
prosopagnosia
prospera
prosperar
prosperava
prospere
prosperitate
prospero
prostitution
prostitutos
protagonisate
protagonista
protagonistas
prote
protected
protection
protectiones
protective
protector
protectorato
protectores
protege
proteger
protegeva
protegite
proteic
proteina
proteinas
proteo
protest
protesta
protestante
protestantes
protestantismo
protestantse
protestar
protestava
protesto
protestos
protista
protistos
proto
protocol
protocollo
protocollos
proton
protones
prototherios
prototypic
prototypo
prototypos
protozoa
prova
provar
provas
provate
provava
provenc
provence
proveni
proveniente
provenientia
provenientias
provenir
provenite
proveniva
proverbio
proverbios
provide
providence
providencia
providente
providentia
providential
provider
provideva
providite
providitores
province
provincia
provincial
provincias
provision
provisional
provisiones
provisori
proviste
provoca
provocante
provocar
provocate
provocava
proxime
proximemente
proximitate
proximo
prudente
prudentemente
prudentia
prunus
prusiner
prussia
prussian
przewalski
przewalskii
ps
psalmo
psalmos
pseudalopex
pseudo
pseudoanello
pseudocodice
pseudoepigraphos
pseudonymo
pseudonymos
pseudoscientia
psg
psi
psicologia
psidium
psilocybe
psilocybina
pst
psvg
psyche
psychedelic
psychiatras
psychiatria
psychiatric
psychiatro
psychiatros
psychic
psychoactive
psychoanalyse
psychoanalysta
psychoanalytic
psychologia
psychologic
psychological
psychologo
psychologos
psychology
psychopathia
psychosexual
psychotherapia
pt
ptolemaic
ptolemeo
pu
pub
pubchem
pubertate
public
publica
publicaciones
publicamente
publicante
publicar
publicara
publicat
publicate
publication
publicationes
publications
publicator
publicava
publicitari
publicitate
publico
publio
publique
published
publisher
publishers
publishing
pubmed
puccini
pudeur
pudor
puducherry
pue
puebla
pueblo
pueden
puente
puera
pueras
pueretta
pueritia
puero
pueros
puerto
puf
pug
pugilato
pugilistic
puglia
pugno
pugnos
pugsley
pula
pulice
pulitzer
pullo
pullos
pulmon
pulmonar
pulmonari
pulmones
pulo
pulpa
pulsa
pulsante
pulsar
pulsate
pulsation
pulsava
pulso
pulsos
pulvere
puma
pumpa
pumpero
pumperos
punch
puncta
punctal
punctas
punctate
punctator
puncto
punctos
punctual
punctuation
punctute
punic
punir
punite
punition
punjab
punjabi
punk
punt
punta
punto
pupa
pupillos
puppy
pur
pura
pure
purga
purificar
purification
purim
puritan
puritate
purmente
purpose
purpura
purpuree
pus
pusa
put
puteo
putin
putnam
pvda
px
pygmalion
pygmeo
pyra
pyramidal
pyramide
pyramides
pyre
pyreneos
pyrrho
pyrrhonismo
pythagoras
pythagoric
python
q
qa
qaeda
qatar
qb
qc
qd
qe
qena
qf
qi
qin
qing
qsl
qu
qua
quad
quadr
quadrante
quadrantes
quadrata
quadrate
quadratic
quadrato
quadratos
quadri
quadrilatero
quadro
quadrodesalutation
quadros
quadrupede
quae
quaestione
quaker
qual
qualcosa
qualcun
qualcuno
qualcunque
quale
quales
qualifica
qualificar
qualificate
qualification
qualificationes
qualificava
qualitate
qualitates
qualitative
quality
qualque
qualunque
quam
quamquam
quand
quando
quandocumque
quandocunque
quang
quanquam
quante
quantic
quantificate
quantificator
quantitate
quantitates
quantitative
quanto
quantum
quaranta
quaresima
quark
quarkes
quarte
quarter
quarterly
quartet
quartettos
quartiero
quartieros
quarto
quartos
quarz
quasi
quasigruppo
quaternion
quaterniones
quatre
quatro
quattro
quay
que
quebec
quechua
quecunque
queda
queen
queens
queensland
queer
queimado
quel
quem
quemada
quence
quentin
quenya
quer
querco
quere
querela
querelas
querer
quereva
query
quesada
quest
question
questiona
questionamento
questionar
questionate
questionava
questiones
questions
questo
quezon
qui
quia
quick
quickfacts
quicunque
quidditch
quidem
quie
quien
quiet
quiete
quijote
quilombo
quine
quinque
quinta
quintana
quintanilla
quinte
quintilis
quinto
quintos
quirino
quita
quitar
quitava
quito
quitta
quittava
quixote
quiz
qumran
quo
quoc
quod
quomodo
quoniam
quota
quotation
quotidian
quotidianmente
quotidiano
quotiente
qur
r
ra
raad
rabbi
rabbin
rabbinismo
rabbis
rabe
rabelais
rabi
rabies
race
racemo
racemos
racia
racial
racialismo
racias
racine
racismo
racista
racontas
radar
rader
radiation
radiationes
radiator
radical
radicales
radicalisation
radicalismo
radicalmente
radicate
radice
radices
radio
radioactive
radioactivitate
radioamator
radioamatores
radioamatori
radioamatorismo
radiodiffusion
radiographia
radiologia
radiophonic
radios
radiotherapia
radium
radon
radow
rae
rafael
raffaello
raffinamento
raffles
rag
ragnarok
rahman
raid
rail
railes
rails
rain
rainbow
rainer
rainha
raire
ral
rale
ralph
ram
rama
ramakrishna
ramas
ramayana
ramen
ramification
ramificationes
ramiro
ramo
ramon
ramona
ramos
ramses
ran
rana
ranas
rancho
randolph
random
randstad
rang
range
ranger
rangia
rangle
rango
rangos
ranh
rankin
ranking
rap
rapa
raphael
rapide
rapidemente
rapiditate
rapids
rapto
rar
rard
raritate
rarmente
ras
rashi
rasmus
rasmussen
rastafari
rastro
rasura
rat
rata
ratas
rate
rates
rathaus
ratifica
ratificate
ratification
ratificava
ratio
ration
rationabile
rationabilemente
rational
rationalisar
rationalismo
rationamento
rationamentos
rationar
rationes
ratto
rattos
rattus
rau
raul
raumismo
raval
ravel
raven
ravenclaw
ravenna
ray
raymond
razo
razzia
rb
rbara
rboles
rc
rca
rcel
rculo
rd
rde
rden
rdg
rdia
rdoba
re
reach
reaction
reactionari
reactiones
reactive
reactivitate
reactor
reactores
read
reader
readers
reading
readings
reagan
reage
reager
reageva
real
reales
realimentation
realisa
realisar
realisate
realisation
realisationes
realisator
realisava
realismo
realistic
realitate
realitates
reality
realmente
reanimation
rearm
rebeca
rebecca
rebel
rebella
rebellar
rebellava
rebelle
rebellion
rebelliones
rebello
rebellos
rebollar
rec
reccio
recension
recensiones
recent
recente
recentemente
recepta
receptaculo
receptas
reception
receptive
receptor
receptores
receptus
recerca
recercar
recercas
recercator
recercatores
recession
recherche
recherches
recht
recife
recipe
recipente
reciper
recipera
recipeva
recipiente
recipientes
recipite
reciproc
reciprocamente
reciproco
recita
recitate
recitation
reciver
recklinghausen
reclama
reclamar
reclamate
reclamation
reclamo
reclamos
recogniscite
recognite
recognition
recognocite
recognosce
recognoscente
recognoscentia
recognoscentias
recognoscer
recognosceva
recognoscibile
recognoscimento
recognoscite
recognose
recollection
recolligite
recolta
recoltas
recoltate
recoltatores
recomenciava
recommenda
recommendar
recommendate
recommendation
recommendationes
recommendava
recompensa
recompensas
recompensate
recompilation
reconcilia
reconciliar
reconciliation
reconoce
reconquesta
reconstituite
reconstruction
reconstruer
reconstrueva
reconstruite
record
recorda
recordante
recordar
recordate
recordava
records
recrear
recreation
recreational
recreative
recrutamento
recrutar
recrutava
recta
rectangular
rectangulo
rectas
recte
recto
rector
reculamento
recupera
recuperar
recuperate
recuperation
recuperava
recurre
recurrente
recurrentia
recursive
recurso
recursos
red
redaction
redactiones
redactor
redactores
redefinite
redemption
redemptive
rediger
redigeva
redigite
redistribue
redistribuer
redondo
reduce
reducente
reducer
reduceva
reducir
reducite
reducte
reduction
reductiones
reductor
redundante
redundantia
reed
reeditado
reedition
reeligite
reeve
refere
reference
referencia
referencias
referendum
referente
referentia
referential
referentias
referer
refereva
referite
reflecte
reflectente
reflecter
reflecteva
reflections
reflectite
reflex
reflexion
reflexiones
reflexive
reflexo
reflexos
reform
reforma
reformar
reformas
reformate
reformation
reformator
reformatores
reformava
reformista
reformistas
refraction
refrain
refugia
refugiar
refugiate
refugiato
refugiatos
refugiava
refugio
refusa
refusar
refusate
refusava
refutar
reg
regal
regalava
regalitate
reganiava
rege
regeneration
regente
regentes
regentia
reger
reges
regeva
reggae
reggio
regia
regime
regimen
regimento
regimes
regina
reginald
reginas
regio
region
regional
regione
regiones
regions
register
registra
registrar
registrate
registration
registrationes
registrava
registro
registros
regite
regna
regnante
regnar
regnate
regnava
regnia
regno
regnos
regnum
rego
regressa
regressar
regressava
regression
regresso
regrettabilemente
reguarda
reguardante
reguardar
reguardate
reguardava
reguardo
regula
regulamento
regulamentos
regular
regularisation
regularitate
regularmente
regulas
regulate
regulation
regulationes
regulator
regulava
regulos
rehabilitation
rei
reich
reid
reiki
reimplacia
reimplaciamento
reimplaciante
reimplaciar
reimplaciate
reimplaciava
reimpression
reimprimite
reims
reina
reincarnation
reine
reiner
reinfortia
reinfortiar
reinfortiate
reinfortiava
reinfortios
reinhard
reinhold
reino
reintegrava
reintroducer
reintroducite
reintroduction
reisman
reissue
reivindica
reivindicationes
rejecta
rejectante
rejectar
rejectate
rejectava
rejection
rejewski
relacionate
relais
relapse
relata
relatate
relate
related
relation
relationa
relational
relationar
relationate
relationes
relations
relationships
relativamente
relative
relativemente
relativismo
relativistic
relativitate
relativity
relativo
relato
relatos
relaxar
relay
release
relectura
relevante
relevantia
relevar
relevate
relievo
relievos
religio
religion
religiones
religions
religiosa
religiosas
religiose
religioses
religiositate
religiosos
religious
relinqueva
reliquias
remane
remanente
remaner
remanera
remaneva
remanite
remarca
remarcabile
remarcabilemente
remarcava
rematch
rembrandt
remedio
remedios
rememora
rememorar
rememoration
remission
remitte
remitteva
remix
remixes
remo
remonta
remote
remotion
remove
remover
removeva
removite
remscheid
remus
ren
renaissance
renal
renascentia
renascientia
renata
renato
rence
rende
rendente
render
rendeva
rendez
rendimento
rendite
rendition
rendu
rene
renes
rennes
renominate
renominava
renova
renovabile
renovar
renovate
renovation
renovava
renta
rente
renuncia
renunciar
renunciation
renunciava
reorganisate
reorganisation
reorganisava
reparar
reparation
reparationes
reparos
repartio
repartite
reparto
repasto
repastos
repelle
repeller
repententia
repercussion
repertoire
repertorio
repete
repetente
repeter
repetite
repetitemente
repetition
repetitive
repite
replica
replication
replied
replies
report
reporta
reportages
reportar
reportate
reportava
reporter
reporto
reportos
reposa
reposante
reposar
reposava
repositorio
reposo
repr
reprendente
reprendeva
representa
representabile
representante
representantes
representar
representate
representation
representationes
representative
representator
representava
represente
repression
repressive
reprimer
reprint
reprisa
reprise
reprobation
reprobatos
reproduce
reproducer
reproduceva
reproducite
reproduction
reproductive
reproductor
reptiles
reptilia
repu
republic
republica
republican
republicanismo
republicanos
republicas
republika
repugnante
repulsate
repulsava
reputa
reputate
reputation
request
requesta
requestar
requestas
requestate
requiem
require
requirente
requirer
requirerea
requireva
requirimento
requirimentos
requirite
requisite
requisito
requisitos
rer
res
resacca
rescribite
rescue
research
resentimento
reserva
reservar
reservas
reservate
reservoir
reside
residente
residentes
residentia
residential
residentias
resideva
residual
residuo
residuos
resignate
resignation
resignava
resimila
resimilante
resimilava
resina
resistance
resiste
resistente
resistentia
resister
resisters
resisteva
resistor
resolute
resolution
resolutiones
resolve
resolver
resolveva
resolvite
resonante
resonantia
resonator
resorto
resource
resources
respect
respecta
respectante
respectar
respectate
respectava
respectivamente
respective
respectivemente
respecto
respectos
respectu
respectuose
respice
respirar
respiration
respiratori
resplendente
responde
respondente
responder
respondera
respondeva
respondit
respondite
responsa
responsabile
responsabilitate
responsabilitates
responsas
response
responsibile
responsibilitate
responsible
ressource
ressources
ressurrection
resta
restabilir
restablir
restante
restar
restate
restaurante
restaurantes
restaurar
restaurate
restauration
restaurative
restaurava
restava
reste
restitue
restituer
restituite
restitution
resto
restoration
restos
restricte
restriction
restrictiones
restringe
restringer
restringite
result
resulta
resultante
resultar
resultarea
resultate
resultato
resultatos
resultava
resulto
results
resume
resumite
resund
resurgeva
resurgimento
resurgite
resurrection
resuscitate
resuscitava
retardate
retardava
retardo
rete
retene
retenente
retener
reteneva
retenite
retention
retes
rethymno
reti
reticular
reticulo
reticulorumine
retira
retiramento
retirar
retirate
retirava
retiro
retorna
retornar
retornara
retornarea
retornate
retornava
retorno
retraction
retraheva
retraite
retrato
retribution
retrieved
retro
retroceder
retroflexe
retrospective
retrova
retrovar
return
reune
reuni
reunificate
reunification
reunion
reuniones
reunir
reunite
reuniva
reuso
reutilisation
rev
revela
revelar
revelate
revelation
revelationes
revelava
reveni
revenir
reveniva
revere
reverie
reverse
reverso
reverte
reverteva
revertite
revestite
revider
revideva
revidite
review
reviews
revindicate
revisate
revised
revision
revisiones
revista
revistas
revitalisation
revival
reviver
revivification
revocar
revocate
revocava
revolta
revoltas
revolution
revolutionari
revolutionario
revolutionarios
revolutionava
revolutiones
revue
revues
rex
rey
reyes
reymont
rez
rf
rfc
rfcs
rfg
rg
rgb
rgen
rgyal
rh
rhe
rhea
rhead
rhenan
rhenania
rheno
rhetoric
rhetorica
rheumatismo
rheumatologia
rhin
rhine
rhino
rhinoceros
rhinocerote
rhinocerotes
rhizaria
rho
rhodano
rhode
rhodesia
rhodium
rhodos
rhombo
rhythm
rhythmic
rhythmo
rhythmos
ri
ria
ribera
ribosomal
ribosomas
ric
rica
ricardian
ricardo
ricas
ricchessa
ricchessas
rice
rich
richard
richards
richessa
richmond
richter
rick
rico
ricos
rida
ride
rider
ridicule
ridley
rie
riegel
riego
riemann
rien
rience
ries
rieti
riff
riga
right
rightarrow
rights
rigide
rigiditate
rigor
rigorose
rigorosemente
rilate
riley
rima
rimas
rimini
rinaire
rind
ring
ringo
rings
rinpoche
rinzai
rio
riofri
rioja
rios
riot
ripa
ripas
riquer
riqueza
ris
risco
riscos
riscose
rise
riso
risos
rita
ritchie
rito
ritos
ritual
rituales
rival
rivales
rivalitate
rivendell
river
rivera
riverside
riviera
rivieras
rivo
rivos
rizal
rk
rko
rm
rminos
rn
rna
rnberg
ro
roa
road
rob
roba
robar
robatores
robbe
robbie
robert
roberto
roberts
robertson
robespierre
robin
robinson
robore
robot
robotes
robotica
robuste
roc
rocca
roccas
rocchetta
rocchettas
rocco
roccose
roche
rochefort
rocher
rochette
rock
rockefeller
rockets
rocks
rockstar
roda
rodeio
rodente
rodentes
rodentia
rodri
rodrigo
rodrigues
roemer
roetgen
roga
rogava
roge
roger
rogers
roh
rohan
roi
roja
rola
rolamento
roland
rolando
role
rolf
roll
rolling
rollo
rolo
rolos
rom
roma
romagna
romain
romaine
roman
romana
romanal
romance
romancero
romanceros
romances
romancio
romane
romanes
romani
romania
romanian
romaniano
romanic
romanica
romanid
romanisate
romanisation
romano
romanos
romans
romantic
romanticamente
romanticismo
romanum
rome
romela
romeo
romero
romper
romulo
ron
ronald
roncesvalles
ronco
ronde
rondo
ronnie
roo
room
rooney
roosevelt
roots
rooz
roquefort
roraima
ros
rosa
rosales
rosario
rosas
rosate
rose
rosen
rosenberger
rosental
rosenthal
roses
rosetta
rosh
roskilde
rosmarino
rosmarinus
rosnay
rosnow
ross
rossellon
rossen
rossi
rossini
rosso
rostite
rostock
rota
rotante
rotar
rotas
rotation
rotational
roth
rotterdam
rotunde
rouen
rouge
round
rousseau
route
routes
routledge
roux
rovigo
rowan
rowe
rowena
rowling
roy
royal
royale
rp
rpc
rper
rquez
rr
rromani
rs
rselen
rsi
rss
rt
rte
rterbuch
rtgenwald
rtolas
rts
rttemberg
ru
ruanda
rubaiyat
rube
rubee
rubens
rubidium
rubie
rubin
rubinstein
rubrica
ruby
rude
rudi
rudolf
rudolph
rue
rufino
rufus
rugby
ruhr
ruina
ruinas
ruito
ruitos
ruiz
rules
rum
rumantsch
rumba
rumbo
rumina
ruminante
ruminantes
ruminantia
rumination
rumine
rumores
rumours
rumpe
rumper
rumpeva
rumpite
run
runas
runic
rupert
ruptura
rur
rural
rus
rusia
russ
russe
russel
russell
russia
russian
russo
russos
rustaveli
rustin
ruth
ruthenium
rutherford
rutherfordium
rutland
ruy
rvc
rvenich
rwanda
rxc
rxg
ry
ryaku
ryu
rza
rzano
s
sa
saale
saarbru
saarland
saavedra
sab
saba
sabbath
sabbato
sabbatos
sabina
sabino
sabir
sabliero
sablo
sablos
sabotage
sabrina
saccharo
saccharomyces
saccheava
sacco
sacerdotal
sacerdote
sacerdotes
sacerdotessa
sacerdotio
sachons
sachs
sacks
sacramental
sacramento
sacramentos
sacramentum
sacrate
sacre
sacrificar
sacrificate
sacrificava
sacrificio
sacrificios
sacro
sad
sade
sae
saepe
saepissime
safari
safe
safehaven
safety
saga
sagas
sage
sagessa
sagessas
sagesse
sagio
sagios
sagitta
sagittario
sagittas
sagrada
sagrate
saguinus
sahara
sahel
sahrawi
sai
said
saint
sainte
saison
saisones
saki
sakum
sakura
sal
sala
salaam
salamanca
salario
salarios
salas
salate
salazar
sale
salentino
salerno
sales
salete
salice
saliente
salin
salinitate
salir
salisbury
salishan
saliva
salivari
salle
sallustio
sally
salman
salmero
salomon
salon
salsa
salt
salta
saltar
saltinho
salto
salubritate
saluta
salutation
salute
saluto
salva
salvador
salvadorian
salvage
salvamento
salvante
salvar
salvate
salvation
salvator
salvatore
salvava
salve
salveguarda
salvific
salvo
salzburg
sam
sama
samaritaine
samarium
samba
same
sami
samma
samoa
samoan
samos
samples
samsung
samuel
samurai
samye
san
sanar
sancho
sancta
sanctas
sancte
sanctificat
sanctificate
sanctification
sanctificato
sanction
sanctiones
sanctitate
sancto
sanctos
sanctuario
sand
sanders
sandfort
sandra
sandre
sands
sandwich
sanga
sangallo
sanger
sangro
sangue
sanguinari
sanguine
sanguinee
sanguinis
sanguinose
sanitari
sanitate
sankt
sankta
sannio
sannita
sanremo
sans
sanscrite
sanscrito
sanskrit
sanskrito
sant
santa
santafe
santana
santander
sante
santeri
santi
santiago
santiba
santillana
santo
santorum
santos
sao
sape
sapente
saper
sapere
sapeva
sapiens
sapiente
sapientia
sapir
sapite
sapor
sapores
sapphiro
sappho
sar
sara
saragossa
sarah
sarcophago
sarde
sardenia
sardinia
sardo
sardou
sarek
sarkozy
sarpedon
sars
sartor
sartre
saruman
sas
sasuke
satala
satan
satellite
satellites
satie
satira
satiric
satis
satisface
satisfacer
satisfaceva
satisfacite
satisfacte
satisfaction
satisfactori
saturate
saturation
saturday
saturno
satyarthi
sauce
saudades
saudi
saudita
sauerkraut
saul
sauron
sauropsida
sausenberg
sausenburg
saussure
savage
savala
savalla
savanna
savannas
save
savoia
savoie
savona
saw
saxe
saxon
saxones
saxonia
saxophono
say
sayago
says
sayyid
sb
sc
scabello
scala
scalar
scalas
scale
scalia
scalias
scamander
scan
scandal
scandalo
scandalos
scandalose
scandentia
scander
scandinave
scandinavia
scandinavian
scandium
scania
scar
scarabeos
scarpa
scarpas
scena
scenario
scenarista
scenas
scenic
sceptic
scepticismo
scepticos
schaefer
sche
schema
schemas
schematic
scheme
schengen
scherma
schermo
schild
schiller
schisma
schismas
schismo
schizophrenia
schizzo
schizzos
schleicher
schleswig
schleyer
schloss
schmidt
schmitt
schnauzer
schneider
scho
schoenberg
schola
scholar
scholara
scholarcho
scholares
scholars
scholas
scholastic
scholastica
scholasticismo
school
schooley
schools
schro
schroeder
schuijer
schulz
schumacher
schuman
schumann
schuster
schwalmtal
schwarze
sci
science
sciences
sciencia
scientia
scientias
scientific
scientificamente
scientifico
scientificos
scientist
scientista
scientistas
scientologia
scinder
scindite
scintigraphia
scintilla
scipion
scission
sciuro
sciurus
sclava
sclavitude
sclavitute
sclavo
sclavos
scola
scolio
scolios
scooby
scopo
scopos
scorbuto
score
scorpion
scorpiones
scote
scotese
scotia
scotland
scoto
scots
scott
scottish
scout
scouts
scranton
scrapie
scratch
screen
screenplay
scribas
scribe
scribente
scriber
scribera
scribeva
scribite
scrimgeour
script
scripta
scripte
scripter
scripting
scriptlet
scriptlets
scripto
scriptor
scriptora
scriptores
scriptorio
scriptos
scriptrice
scripts
scriptura
scriptural
scripturas
scripture
scriptures
scrir
scrivener
scrivia
scrolls
scrotifera
scrum
sculpite
sculptor
sculptores
sculptura
sculpturas
scuriolo
scuto
scutos
scylla
se
sea
seamus
sean
seara
search
season
seasons
seattle
seaux
sebastia
sebastian
sebhan
sec
seca
secale
secar
secate
secava
secession
second
seconde
secondo
seconds
secret
secreta
secretariat
secretariato
secretario
secretarios
secretate
secrete
secretemente
secretion
secreto
secretos
secrets
secta
sectari
sectas
section
sectiones
sections
sector
sectores
sectos
secular
seculo
seculos
secun
secunda
secundal
secundari
secundas
secunde
secundo
secur
secure
securitate
securmente
sed
seda
sede
sedentari
sedente
seder
sedes
sedimentari
sedimento
sedimentos
sedite
sedition
seds
seduce
seducite
see
seed
seen
sega
seghers
segmentation
segmento
segmentos
segovia
segredo
segregation
segu
segunda
sein
seine
seis
seismic
seismo
seismos
seix
seize
sej
seja
sejano
sek
selahattin
selandia
selassie
selecta
selecte
selected
selection
selectiona
selectionar
selectionate
selectionava
selectiones
selective
selegite
selena
selenium
seleucide
self
selfkant
selige
seliger
seligeva
seligite
sella
selters
selva
sem
semana
semantic
semantica
semantics
sembla
semblar
semblava
semel
semi
semiconducente
semiconductor
semiconductores
semideo
semigruppo
seminal
seminar
seminario
seminarios
seminary
semine
semines
semiologo
semiotext
semiotic
semiotica
semirecta
semireticulo
semisymmetric
semitic
semivita
semper
sempre
sen
senate
senato
senator
senatores
seneca
senegal
senge
sengers
senior
seniora
seniores
senioria
seno
sens
sensation
sensationalismo
sensationalistic
sensationes
sense
sensibile
sensibilitate
sensitive
sensitivitate
senso
sensori
sensorial
sensos
sensual
sent
sente
sentencing
sententia
sententias
sententiate
senti
sentido
sentiero
sentieros
sentimental
sentimento
sentimentos
sentir
sentite
sentiva
seoul
sep
separa
separar
separate
separatemente
separation
separatista
separator
separava
sepelite
sephardi
sephardim
septanta
septe
september
septembre
septembro
septentrional
septimana
septimanal
septimanas
septime
septuaginta
sepulcral
sepulcro
sepultura
seq
seque
sequel
sequela
sequelas
sequente
sequentes
sequentia
sequential
sequentialmente
sequentias
sequer
sequera
sequestrate
sequestro
sequeva
sequite
sequitores
ser
sera
serbe
serbia
serbian
serbo
serbocroate
serbocroato
serbos
sercha
sere
serea
serena
seres
serge
sergio
sergipe
seria
serial
serialisabile
serie
seriemente
series
serio
seriose
seriosemente
sermo
sermon
sermones
sero
serpente
serpentes
serra
serrada
serrano
serrate
serravalle
serta
servage
serval
serve
server
servet
servi
service
services
servicio
serviciohallomundo
servicios
serviente
servientes
servir
servirea
servite
servitor
servitores
serviva
servlet
servlets
servo
servos
ses
sesquilinear
session
sessiones
sesto
set
seta
sete
seth
setminus
seu
seuil
seus
seven
seventeen
sever
several
severe
severin
severitate
severmente
severo
sevilla
sewi
sex
sexanta
sexe
sexismo
sexo
sexologia
sexologo
sexos
sexte
sextilis
sexto
sexton
sexual
sexualis
sexualitate
sexualite
sexuality
sexualmente
sexualtheorie
sexuelle
sexy
seychelles
seymour
sff
sfm
sforza
sg
sgh
sgml
sh
sha
shabbath
shacklebolt
shade
shadows
shah
shahmukhi
shakespeare
shakespearean
shamash
shambhala
shanghai
shankar
shannon
shape
share
sharia
shark
sharon
sharpe
shatner
shavuot
shaw
shawnee
she
sheet
sheffield
sheik
sheila
sheldon
shell
shelley
shelter
shema
sheridan
sherlock
sherman
shes
shetland
shh
shi
shia
shift
shin
shinto
shintoismo
shiraz
shire
shiva
shlomo
sho
shoah
shock
shoghi
shores
short
should
show
showa
shows
shoyu
shtml
shu
shuadit
shuttle
si
sia
siberia
siberian
sibilante
sibylla
sic
sica
siccate
siccitate
sicilia
sicilian
sicilias
sicut
sid
sida
siddhartha
siddhi
side
sideman
sideral
sidero
siderurgic
sidney
sie
siegel
siegen
siempre
siena
siensa
sierra
sig
sight
sigillo
sigillos
sigismund
sigla
siglo
siglos
sigma
sigmoide
sigmund
sign
signa
signal
signala
signalar
signalate
signales
signar
signate
signatores
signatoros
signatura
signaturas
signava
significa
significante
significantemente
significantia
significar
significarea
significate
signification
significationes
significative
significativemente
significato
significatos
significava
signo
signorelli
signos
sikh
sikhes
sikhismo
sil
silence
silencieux
silent
silente
silentio
silesia
silesian
silicate
silicates
silicium
silicon
silkworm
silmarillion
silurian
silva
silvano
silvanus
silvas
silveira
silvestre
silvestris
silvia
silvio
silvose
sim
sima
simbolo
simia
simias
simiesc
simil
simila
similabile
similar
similaritate
similaritates
similarmente
simile
similemente
similes
similitude
simo
simon
simone
simonot
simple
simplemente
simplex
simplice
simplicitate
simplifica
simplificar
simplificate
simplification
simpson
simpsons
simul
simular
simulation
simultanee
simultaneemente
sin
sina
sinai
sinatra
since
sincer
sinceritate
sinclair
sind
sinde
sine
sing
singapore
singapur
singapurian
singer
singh
single
singles
sings
singular
singularitate
singule
singules
singulo
singulos
sinistra
sinistre
sino
sint
sinta
sintagma
sintagmas
sintaxis
sio
sion
siouxsie
sir
sirena
sirenas
sirenia
siri
sirius
sirop
sis
sistema
sistemas
sister
sisters
sit
sitcom
site
sites
sitges
sith
sitio
sitios
sito
sitos
sittas
situa
situar
situate
situation
situationes
situava
siva
sive
six
sixth
sixtina
sixto
size
sj
sk
ska
skagen
skagerrak
skeletal
skeleto
skeletos
skeptic
skepticismo
sketch
ski
skiffle
skin
skinner
skt
sky
skywalker
sl
slate
slave
slavo
slavonic
slavonico
slavos
sle
sleep
sleipnir
slippy
slot
slovac
slovachia
slovaco
slovene
slovenia
sloveno
slovenos
slovianski
slovio
slow
slu
slughorn
slytherin
sm
sma
small
smalltalk
smart
smaug
smile
smith
smithsonian
smithsonianmag
smo
smolensk
smue
smund
smyrna
sn
snake
snow
so
sob
sobre
sociabile
social
socialdemocratia
socialdemocratic
sociale
sociales
socialisation
socialism
socialisme
socialismo
socialist
socialista
socialistas
socialistic
socialmente
socie
sociedad
societa
societas
societate
societates
societe
societo
society
socio
sociocultural
socioeconomic
sociolinguistic
sociolinguistica
sociologia
sociologic
sociologo
sociologos
sociology
sociopolitic
socios
socorro
socrates
soda
sodium
sofia
soft
software
softwares
soja
sojorno
sol
sola
solamente
solander
solano
solar
solas
soldato
soldatos
soldier
sole
soleil
solemne
soleva
soli
solicitar
solidaritate
solide
solido
solidos
solingen
solis
solista
solitari
solitario
solitemente
solitude
sollers
sollicitar
sollicitava
solmente
solo
solomon
solorzano
solos
solresol
solstitio
solubile
solus
solution
solutiones
solve
solver
solveva
solvite
som
somalia
sombra
sombrio
some
somerset
somerville
something
somewhere
somno
somos
son
sona
[...]
