!
"
#
##0
##1
##10
##11
##12
##13
##14
##15
##16
##17
##18
##19
##2
##20
##21
##22
##23
##24
##25
##26
##27
##28
##29
##3
##30
##31
##32
##33
##34
##35
##36
##37
##38
##39
##4
##40
##41
##42
##43
##44
##45
##46
##47
##48
##49
##5
##50
##51
##52
##53
##54
##55
##56
##57
##58
##59
##6
##60
##61
##62
##63
##64
##65
##66
##67
##68
##69
##7
##70
##71
##72
##73
##74
##75
##76
##77
##78
##79
##8
##80
##81
##82
##83
##84
##85
##86
##87
##88
##89
##9
##90
##91
##92
##93
##94
##95
##96
##97
##98
##99
$
%
&
'
(
)
*
+
,
-
.
/
0
00
000
00016
0006
001
002
0022
002542
004
007522
01
0175
019
02
0205820375
027
03
04
05
06
07
07736
0779
08
080
09
091
092266
0956797611416253
098
1
10
100
1000
100000
1002
1004
1007
101
1012
1014
1016
102
1024
1025
1027
1028
103
1030
1035
1037
1038
1039
104
1041
1046
105
1050
1056
106
1061
1068
107
1074
1076
108
1080
1081
1084
1086
109
1090
1093
1096
1097
11
110
1100
1104
1105
1106
111
1111
1113
112
1120
1122
1125
1126
1127
1128
1129
113
1130
1131
1135
1136
1139
114
1141
1144
1145
1146
1147
1148
115
1150
1152
1155
1156
116
1166
1167
117
1170
1177
1179
1180
1182
1183
1184
1187
1188
1189
119
1190
1191
1195
1196
1197
1198
12
120
1200
1201
1207
121
1214
1215
1216
1219
122
1222
1225
1226
1227
123
1230
1231
1232
1234
1235
1236
1237
124
1240
1246
1249
125
1250
1251
1255
1260
1262
1265
127
1278
128
1281
1282
1286
1287
1288
1290
1291
1293
1294
1295
1297
1298
1299
13
130
1300
1302
1303
1304
1306
1308
131
1310
1312
1313
1314
1316
1317
1318
132
1320
1322
1324
1326
1327
1328
1329
133
1330
1331
1334
1335
1336
1337
1339
134
1344
1345
1347
1348
1349
135
1350
1351
1352
1353
1355
1356
1359
136
1360
1361
1363
1364
1365
1366
1369
137
1372
1375
138
1385
1386
1388
1391
1393
1394
14
140
1400
1406
1408
141
1410
1417
142
1420
1426
143
1430
1432
1434
1435
1437
144
1443
1444
1445
145
1450
1453
14570
1458
1459
146
1460
14606
1461
1462
1464
1467
1468
1469
147
1470
1471
1478
148
1480
1482
1483
1485
1488
1489
149
1490
1492
1494
1495
1496
1498
1499
15
150
1500
1502
1503
15031
1504
15045
1505
1506
1509
151
1511
1512
1515
1516
1517
1519
152
1520
1521
1523
1525
1526
1527
1529
153
1530
1532
1534
1535
1539
154
1540
1541
1544
1545
1546
155
1550
1552
1555
1558
1559
1560
1562
1564
1565
1568
157
1570
1572
1574
1575
1576
158
1580
1582
1583
1584
1585
1588
159
1591
1592
1594
1595
1598
1599
16
160
1600
1601
1602
1603
1606
1610
1611
1612
1613
1614
1618
162
1620
1621
1622
1623
1625
1628
1630
1631
1632
1633
1634
1635
1636
1637
164
1640
1641
1644
1648
1650
1657
166
1660
1661
1669
167
1672
1677
1678
1679
1680
1681
1683
1684
1685
1686
1688
1689
1690
1691
1693
1695
1696
1697
1698
17
170
1700
1704
1705
1706
1707
1708
1709
171
1710
1711
1712
1713
1715
1716
1717
1719
172
1720
1721
1722
1723
1725
1726
1727
173
1730
1732
1733
1735
1738
1740
1741
1742
1748
1749
175
1750
1751
1754
1755
1756
1757
1758
1759
1761
1763
1764
1765
1766
1767
1768
1769
177
1770
1771
1772
1773
1774
1775
1776
1777
1778
1779
1780
1781
1782
1783
1785
1786
1787
1788
1789
179
1790
1791
1792
1793
1794
1795
1796
1797
1798
1799
18
180
1800
1801
1802
1803
1804
1805
1806
1807
1810
1811
1812
1813
1814
1815
1816
1817
1818
1819
182
1820
1821
1822
1823
1824
1825
1826
1827
1828
1829
183
1830
1831
1832
1834
1835
1836
1837
1838
1839
184
1840
1841
1842
1843
1844
1845
1846
1847
1848
1849
185
1850
1853
1854
1856
1857
1858
1859
186
1860
1861
1862
1863
1864
1865
1866
1867
1868
1869
187
1870
1871
1872
1874
1875
1876
1877
1878
1879
188
1880
1881
1882
1883
1884
1885
1886
1887
1888
1889
189
1890
1891
1892
1893
1894
1895
1896
1897
1898
1899
19
190
1900
1901
1902
1903
1904
1905
1906
1907
1908
1909
1910
1911
1912
1913
1914
1915
1916
1917
1918
1919
192
1920
1921
1922
1923
1924
1925
1926
1927
1928
1929
193
1930
1931
1932
1933
1934
1935
1936
1937
1938
1939
194
1940
1941
1942
1943
1944
1945
1946
1947
1948
1949
195
1950
1951
1952
1953
1954
1955
1956
1957
1958
1959
196
1960
1961
1962
1963
1964
1965
1966
1967
1968
1969
197
1970
1971
1972
1973
1974
1975
1976
1977
1978
1979
198
1980
1981
1982
1983
1984
1985
1986
1987
1988
1989
199
1990
1991
1992
1993
1994
1995
1996
1997
1998
1999
2
20
200
2000
2001
2002
2003
2004
2005
2006
2007
20070521
2008
2009
201
2010
2011
20110320
20110611
2012
20120503071507
2013
20130217051340
20130602
2014
2015
2016
20160914062349
2017
2018
2019
202
2020
2021
2022
203
205
206
207
208
209
21
210
211
213
214
215
216
217
21726
218
22
220
2200
221
222
223
225
226
227
228
229
23
230
2307
231
232
2334
234
235
238
239
24
240
2400
242
243
245
248
249
25
250
2500
251
252
254
256
258
259
26
260
261
262
263
264
265
266
267
268
269
27
270
271
273
274
275
276
277
278
279
28
280
2800
281
283
284
285
287
289
29
290
291
292
294
295
296
297
299
3
30
300
3000
301
302
303
304
306
307
309
31
310
31031
311
3110
312
313
314
315
317
318
319
32
320
321
324
325
326
327
328
329
33
330
331
332
333
335
336
337
338
339
34
340
341
343
344
345
346
347
349
35
350
3500
3514
352
353
355
357
358
359
36
360
361
362
363
363877
364
365
366
367
368
37
370
371
372
374
379
38
380
381
382
383
384
385
386
387
39
390
3900
392
393
395
397
399
4
40
400
4000
402
403
405
406
41
410
412
413
415
416
417
418
42
420
421
422
423
427
43
430
433
435
436
437
438
439
44
440
442
443
444
446
45
450
451
452
453
454
456
457
458
46
460
462
463
464
465
467
468
47
470
471
473
475
476
48
480
482
484
486
488
49
490
491
492
494
495
496
497
498
499
5
50
500
5000
503
504
505
51
510
515
517
52
520
521
524
525
527
528
529
53
530
530067
531
534
54
540
547
549
55
550
551
555
558
56
560
561
562
563
564
565
567
568
569
57
570
576
577
578
58
580
581
584
586
587
588
59
590
593
596
6
60
600
605
606
61
614
617
62
620
62349
626
63
632
64
648
649
65
650
653
655
656
658
66
6616
67
670
673
675
68
69
691
7
70
700
7000
7003
70070
708
7091
71
710
717
72
722
727
728
73
730
732
735
7359
739
74
742
744
747
748
75
750
753
755
756
76
762
7650
766
768
7688
769
77
770
772
773
774
777
778
78
780
781
784
785
786
788
789
79
790
792
7954
798
8
80
800
801
8035
8062
81
817
8173
82
820
821
8218
823
826
8273
828
8286
8289
829
83
830
835
8356
8367
837
8392
84
840
846
85
850
85148
852
853
854
86
860
86047
862726425
867
87
870
875
87629
877
88
8800
88462
88874
89
890
893
896
89735
899
89977
9
90
900
9000
906
91
910
911
915
916475
92
920
921797
922903
925077
927754
93
930
935071
936216
937
937329
937640
939233
94
941
942720
95
950
951
95428
9578
96
962
963
97
970
972
973
978
9781119165811
9781138244504
98
9801574
9809914
9814506
983
987
99
991
995
:
;
<
=
>
?
@
\
^
_
`
a
aa
aabaid
aach
aache
aachebligg
aachemol
aachn
aad
aade
aafa
aafang
aag
aagfange
aagumend
aah
aahald
aahaldische
aahalt
aaischologie
aal
aale
aam
aame
aamee
aami
aan
aaned
aangefang
aankomm
aanschluss
aare
aargau
aarich
aarisch
aarsch
aasch
aaschiv
aat
aawa
ab
aba
abarweidunge
abba
abbau
abbaue
abbel
abbelierd
abbeliere
abbelladionshofs
abber
abbildung
abbruch
abd
abda
abdai
abdailung
abde
abdei
abdeilung
abdeilunge
abdias
abdomen
abdonge
abdrede
abdrifd
aber
abfa
abfaggle
abfallstoffe
abg
abga
abgang
abgawe
abgbrend
abgebaud
abgebaut
abgebrennd
abgebrennt
abgedraare
abgedrede
abgefaggeld
abgekihlt
abgela
abgelaarert
abgelachert
abgeleed
abgeleesd
abgelehnd
abgeordnede
abgeordneder
abgeriss
abgerisse
abgerufen
abgerutschd
abges
abgeschloss
abgeschnied
abgewunge
abgewwe
abgezo
abgfaggld
abgfilld
abghalde
abgleehd
abglehnd
abgrenze
abgrenzung
abgrisse
abgroode
abgrufe
abgschdimmd
abgschdorwene
abgschlache
abgschlosse
abgschnidde
abgschosse
abgsedzd
abgslosse
abgzoche
abha
abhang
abi
abidur
abka
abkalde
abkomme
ablaaf
ablaafe
ablaide
ableng
abm
abna
abodhekersbu
aboncourt
about
aboutus
abraisse
abreschviller
abril
abrill
abriss
abriß
abs
absatz
abschaffe
abschdamme
abschdammung
abschdand
abschdimmung
abschdimmunge
abschdond
abschiede
abschliss
abschluss
abschluß
abschmegge
abschnidd
abschnidde
abschnitt
absence
absischd
absolud
absolude
absoludismus
absonnert
abstiech
abstiechspladz
absurd
abt
abtei
abteilung
abteilungen
abtstab
abuse
abusive
abwa
abwaischung
abwehr
abweichunge
abweisender
abwesnhaid
abwinge
abzield
abzuch
abzuuch
abzwaischung
abzweische
ac
academic
academy
acb
access
accessed
account
accounts
accuracy
acetosella
ach
acha
achain
achd
achde
achdeggische
ache
achen
achs
achsema
acht
achteck
achza
achzehnde
achzischa
ackerbau
across
act
action
actions
acts
acu
ad
adaincourt
adalbert
adam
adaptive
addedad
addigl
addragdiv
addraggdiva
addraggdivided
addsd
ade
adel
adelange
adelheid
adeliche
adelphe
adelsfamilie
adenaua
adenauwapaag
adenner
adersbach
adiggel
adiggl
adla
adlaba
adlandig
adler
adlisch
adlische
adminisdradivi
administration
adolf
adomma
adomschbrengkebb
adomwaffe
adress
adria
advent
aeneas
aeronautics
aerospace
aethusa
aevi
afang
afassung
afassungsrad
afassungsrischda
aff
affa
affairs
affe
affective
affekt
affelboch
affewald
affhellerboch
affolderbach
afghanistan
afra
africa
african
afriga
afrika
after
ag
again
against
agd
agde
agdiv
agdsa
agdsja
agduell
agduelle
age
agency
agenda
agentur
agenture
agenturhaus
agfange
agga
aggabau
aggdiv
aggdive
agger
aggerbau
aggumend
agiro
agla
agnes
agrarbrodukde
agree
agumend
agumendazion
agung
ah
ahorn
ai
aiabescha
aian
aich
aichene
aicheschda
aichini
aichndlisch
aiderbach
aier
aigema
aigendlich
aigendlisch
aigene
aigeni
aigeschafde
aigfiehrd
aim
ain
aina
aine
aingedaild
ainische
ainischn
ainzlna
air
airenma
airlebach
airopa
ais
aisbach
aisch
aische
aischen
aischendlisch
aischene
aischenes
aischeni
aischeschda
aischini
aischn
aischndlich
aischndlisch
aischndlische
aischne
aischni
aischschdedda
aise
aisebahn
aisebahnvekea
aisebahschdregg
aisebohnnedz
aiswaiher
aiszaid
aisßa
aiwohna
aiwohner
aiwoohna
aiwuhna
aißerschde
ajg
ajoncourt
ajschidegd
ajschologische
ak
akademie
akademische
akannd
akert
akira
akla
aktion
aktiv
aktive
aktivida
aktivita
aktuell
aktuelle
aktuelles
al
ala
alabama
alae
alaincourt
alamonne
alan
alarm
alarmiert
alasga
alastair
alb
alba
albach
alban
albanie
albe
albert
albestroff
albinismus
albrecht
album
alchemilla
alcott
ald
alda
aldaa
aldanadiv
aldanadive
aldar
aldasglass
aldbaude
aldbeadl
aldbschdond
alde
aldebach
aldeheem
alder
alders
aldes
aldgrieschisch
aldhochdaitsch
aldhochdeitsche
aldi
aldie
aldlusse
aldmarg
aldperdel
aldrhoi
aldrhoia
aldrhoiaam
aldrib
aldsbrachlich
aldschbaja
aldschbrachlicher
aldschdad
aldschdadd
aldschdaddfeschd
aldschdadt
ale
alemannia
alemannische
alessandri
alex
alexander
alexandre
alexandrien
alexondrije
alfons
alfred
algerie
algeriegriesch
algrange
alisch
alische
alkohol
alkoholgehalt
all
alla
allaa
alladings
allahailischeschdifd
allda
alle
allee
alleeschtroß
allegar
allegorisch
allein
allem
allen
allende
allenwiller
aller
allerbeschde
allerdings
allererscht
alles
alleweil
allg
allgejewa
allgema
allgemaine
allgemein
allgemeine
allgemeiner
allgemeines
allgemoin
allgmoin
allhier
alli
allierder
alliiade
alliieade
alliierde
alliierte
alliioade
alliteration
allium
allm
allma
alloinische
allta
allwail
allweil
almaza
almehoof
alois
alom
alpe
alpha
alphabet
als
alsa
alsace
alsacien
alsat
alsbach
alsde
alseborn
alsemol
alsenz
alses
alsfod
alsma
alsn
also
alsting
alt
alta
altaischebschda
altar
altbu
altda
altdahn
altdo
alte
alteckendorf
alten
altenhofen
alter
alternative
altertu
altertumskunde
altes
altkirch
altlosse
altnaidorf
alto
altpo
altporthor
altrhein
altrheins
altrip
altrippe
altschdadt
altschlossfelse
altviller
altwihr
always
alwe
alzay
alzey
alzing
am
amalie
amanda
amanvillers
amara
amateurliga
ambystoma
amd
amdlisch
amdsschbrooch
amdszaid
ame
ameise
amele
amen
amerbach
america
american
ameriga
ameriganer
ameriganische
amerika
amerikaana
amerikaner
amerikanisch
amerikanische
amerikonische
amesebersch
amez
amis
amische
ammerich
ammerschwihr
ammis
amne
amnesia
amonn
amorba
amorbach
amos
amschderdam
amsterdam
amstutz
amt
amtlich
amtliche
amtliches
amtlisch
amtsanzeiger
amtsschbrooch
amtsschbrooche
an
ana
anacamptis
analyse
analysis
anatomie
anbaue
ancerville
anchoring
ancient
ancy
and
anda
andaagdis
ande
andeel
andelnans
andere
anderem
anderen
anderer
anderson
andige
andisemidismus
andlau
andorra
andreas
andreaska
andreasschdrooß
andrew
android
andworde
anerem
anerkand
anerkannt
anfa
anfang
angeblich
angeda
angeho
angela
angeles
angelhof
angelhofer
angels
angeot
anges
angesiedelt
angevillers
angkasa
angle
angschd
angulus
angwiller
anha
anhand
anilin
anja
anjoutey
ankemmlinge
anklam
ankunft
anlach
anlass
anlaß
anmerkung
ann
anna
annan
annare
annarem
anne
annean
annegdiad
annegdierd
annemme
annen
anner
annere
annerem
annerer
anneres
anneri
annern
anners
annersch
annerschd
annerschder
annerscht
annerschwo
annexe
annexion
anno
annre
annwailer
annweiler
anonyme
ans
anschdadd
anschließend
anse
anselm
ansiedele
ansiedelung
anslmonn
ansunschde
ant
ante
anthologie
anthriscus
anti
antike
antilly
antisemitismus
antoine
anton
antonius
antrieb
antriewe
antwort
anze
anzeling
apach
apfel
apfig
api
apiaceae
apogrype
apollo
apostelgschischd
appeal
appealing
appeals
appell
apple
applied
april
aquarell
aquarelle
aquarium
ar
arabie
arabisch
aragon
arame
arawer
arawische
arbeitskreis
arc
arch
archa
arches
architektur
archiv
archive
archivverwaltung
ard
arde
ardenne
ardiggel
ardiggl
ardikel
are
areal
arelse
arena
arg
argancy
argentinje
argie
arguer
arguing
argument
argumentation
argumentieren
arguments
argumentum
arid
ariely
arisch
arischded
arische
arm
armazi
armbrust
arme
armee
armeeoinhaide
armeeputsch
armen
armeria
armin
army
arnhem
arnhemland
arnold
aroma
aronson
arraincourt
arriance
arrisch
arrondissement
arry
ars
arsch
arschidekdur
art
arten
arthur
article
artikel
arwaidgewwa
arwaidslose
arwaitspla
arweide
arweider
arweit
arweitskopp
arweitskra
arzviller
as
asabaidschan
asammlung
asbach
ascafd
asch
aschaffeburg
aschbach
aschbacher
aschbegd
aschbekte
aschde
aschdregge
aschdronaudig
aschdronomie
asche
aschebonn
aschedswiller
aschidegd
aschidegdua
ascho
ase
aserbaidschan
asia
asiadische
asie
asowsche
aspach
ass
assault
assenoncourt
assessment
association
astor
astronautics
astronomischs
asv
at
atatu
atatuerk
atemlo
atemorgane
athen
atiararin
atlantic
atlantikschdaade
atlas
atme
atmospa
atoll
atomausschdieg
attedorf
attilloncourt
attitude
attitudes
attractive
attractiveness
atzel
au
aube
auch
audio
audo
audoare
audoba
audobahn
audobiographie
audofahre
audohaus
audomadisch
audonome
audonomi
audor
audore
audoresaid
audorida
audorided
audoridedsagumend
audos
audun
aue
auenem
auerbach
auerbacher
auf
aufgabe
aufgedeckt
aufgefasst
aufgrund
aufl
auflage
aufreschd
aufschluß
aufstieg
auftakt
auftrag
augen
augeschainlisch
augny
augsbuasch
augsburg
augsbursch
auguschd
auguschdinagloschda
auguscht
august
auguste
augustus
aulnois
aumetz
aura
aurich
aurisch
aus
ausa
ausaaweide
ausarbeitung
ausbau
ausbaue
ausbilde
ausbildung
auschdralie
auschdria
auschwitz
ausda
ausde
ausdehnt
ausdehnung
ausdrigg
ausdrigglisch
ausdrugg
ausem
auserdemm
ausfahrt
ausflieschsschiff
ausflugsziel
ausfu
ausg
ausga
ausgaab
ausgab
ausgabe
ausgang
ausgange
ausgangssituation
ausgawb
ausgawe
ausgbaud
ausgbuddld
ausgebaud
ausgebaut
ausgebild
ausgebra
ausgebroche
ausgedehnd
ausgedehnde
ausgedrede
ausgehend
ausgeht
ausgelo
ausgeloßd
ausgemolt
ausgepra
ausgerischd
ausgeruuf
ausgeschbroch
ausgeschdellt
ausgeschdorb
ausgeschdorwe
ausgeschproch
ausgesieh
ausgewa
ausgewannerd
ausgewiese
ausgewirkt
ausgewiss
ausgewwe
ausgfillt
ausglaisch
ausglaische
ausglaischende
ausgong
ausgonge
ausgrabunge
ausgrawunge
ausgrufe
ausgsa
ausgschbroche
ausgschdelld
ausgschdellt
ausgsedzd
ausgsehe
ausgsuchd
ausgwiese
ausha
ausiewe
ausla
auslaifa
auslaifer
ausles
auslond
auslondssenda
ausm
ausna
ausnahm
ausnahme
ausnutze
ausraischend
ausru
ausrufe
ausruhe
aussa
aussaat
aussach
aussache
aussade
aussage
ausschbroche
ausschbrooch
ausschdaddung
ausschdellung
ausschdellunge
ausschderwe
ausschließlich
ausschließlisch
ausschnidd
ausschu
ausschusses
ausse
aussehe
ausseje
aussem
ausser
ausserdem
ausserhalb
aussicht
aussichtsplattform
aussichtsturm
aussieht
aussischdsbladdform
aussischdstuam
aussischdsturm
aussischt
aussischtsturm
ausstellung
ausstellungskataloge
aussuche
austerlich
austria
auswa
auswahl
auswannerer
auswannerung
auswertung
auswiage
auswiagunge
auswiagungen
auswiagungsvazerrung
auswirgunge
auswirkunge
auswoandara
auszaischnung
auszaischnunge
auszaischnungssbrooch
auszeischnunge
auszunudze
author
authoritarian
auto
autobahnpolizei
autor
autore
autovision
autreche
autumnale
auwald
aux
auxelles
auß
außa
außada
außadem
außademm
außagwenlische
außahalb
außam
auße
außegebiede
außem
außepolidik
außer
außera
außerda
außerdem
außerdemm
außerhalb
außerm
außerum
außfu
avold
avolsheim
avricourt
aw
awa
awaide
awaidgewa
award
awed
awedsbla
awedslosequood
awer
awersche
awerschmi
awwa
awwas
awwe
awwee
awwees
awwer
awwwer
axel
axolotl
axt
ay
az
azd
azoudange
azt
b
ba
baade
baage
baam
baar
babbe
babbeld
babbeln
babbelt
babbld
babbldma
babble
babbler
babbln
babell
babier
bach
bachdal
bachelor
back
backeza
backfire
backfischfeschd
bacourt
bacteria
baculum
bad
badai
badaie
baddai
baddeberg
bade
badelema
badelemee
baden
badepark
badesee
badewassaqwalided
badisch
badische
badischen
badisches
badischi
badminton
badolomeuskea
badolomeuskeasch
baerenthal
bagaasch
baggad
baggasee
baggaseeje
baggaseje
baggfischfeschd
baggschda
baginski
baha
bahai
bahn
bahnheef
bahnhof
bahnlinie
bahnlinje
bahnstreck
bahnstrecke
bahrain
bai
baian
baide
baidem
baidema
baides
baidra
baiere
baiern
baigsedzd
baijan
baijrische
baim
baina
bains
bairisch
bairische
baisbiel
baischbiel
baischbiele
baispiel
baisschbiel
baitra
baja
baker
bal
balakov
balamend
balamendarisch
balbronn
bald
baldische
bali
balin
balinesische
balka
balkelecher
balkon
ball
balladen
balsbach
balthasar
balz
bambi
bambidaschtroff
bammedal
ban
band
banderf
banfald
bangert
bank
bann
bannay
banner
bannwihr
bans
banvillars
banze
baptist
bar
barack
barbara
barbarossa
barbe
barbie
barchain
bardai
bardaie
bardailose
barembach
barezwiller
barge
bargholz
bargholzza
baribiete
baries
barige
barnwiller
barock
barocke
barogg
baroggbaumeschda
barogge
baron
baronville
barr
barrwiller
barschem
barst
barstett
barth
barthe
bartholoma
baruch
bas
basalt
baschdeld
baschdije
base
based
basel
basf
basgedball
basiad
basierd
basiert
basilika
basis
basische
baskin
basler
bass
bassd
basse
basseere
basseert
bassel
bassemberg
bassen
bassende
bassiad
bassierd
bassiere
bassiert
bassing
basta
bastian
batschdorf
batschwiller
batterf
batterie
batzendorf
bau
bauare
bauarehof
bauchmark
baud
baude
baudrecourt
baue
bauen
bauer
bauere
bauern
bauernfeind
bauersfraa
baufa
bauholz
baula
bauland
bauma
bauplatz
bauprojekt
baur
baure
baurehaufe
baurekriech
bauschda
bauschdoff
bausubschda
bausubschdanz
baut
baute
bautze
bauwa
bauwe
bauweag
bauweak
bauwerg
bauwerge
bauwerk
bauwerke
bavilliers
bawle
bay
bayan
bayarische
baydat
bayer
bayere
bayerische
bayerischen
bayerischer
bayern
bayre
bayrisch
bayrische
bayrischi
bazoncourt
baßd
bb
bbc
bbd
bbds
bbe
bber
bbes
bbl
bbscha
bbt
bbts
bd
bdaach
bdaidnde
bde
bdriewb
bdriwwe
bdroffe
bds
be
bea
beach
beachde
bealin
beamde
beansprucht
bearwaided
bearweide
beaschhause
beaucourt
bebaud
bebaut
bebauung
bebbelin
becher
bechhofe
bechtermu
beck
becker
beckmann
become
bedaidende
bedaidendschde
bedaidenschde
bedaidung
bedailischd
bedaitung
bedd
beddl
beddschdroh
bede
bedeggd
bedegge
bedeidende
bedeidendes
bedeidung
bedeit
bedeitung
bedeutung
bedhlehem
bediend
bediene
bedient
bedingunge
bedong
bedra
bedraache
bedrachde
bedraiwe
bedrieb
bedriebssischerhaid
bedriewb
bedriewe
bedriwwe
bedrohde
bedroht
bedrohung
beede
beeden
beeder
beedsche
beehl
beel
beem
beeme
beemisch
been
beend
beende
beendet
beer
beerdischd
beere
beerfelden
beerwisch
bees
beese
befa
befahre
befassd
befasse
befasst
befaßt
befehl
befehle
befehlshaba
beferrrere
befeschdischung
befind
befinded
befinne
befohle
before
befreit
befunne
bega
begegent
begg
begga
begge
beginn
beginnd
beginne
beginnend
beginsdischd
beglaid
beglaided
begon
begonn
begonne
begrab
begradigung
begrawe
begrenzd
begrenzt
begriff
begriffe
begriffskla
begrind
begru
beh
beha
behalde
behall
behalt
behalten
behandelt
behaubde
behaupte
behavior
behavioral
behaviors
beheerde
beheewe
beherde
beherrscht
behinerde
behme
beho
behondeld
behren
bei
beide
beiden
beides
beigedraare
beigeschmack
beigesetzt
beijing
beil
beim
beindersheim
being
beirem
beirer
beischbiel
beischbiele
beischbielsweis
beischpiel
beispiel
beispiele
beith
beitra
beitrag
beiz
beize
beka
bekandschde
bekannd
bekannde
bekannder
bekanndeschd
bekanndeschde
bekanndschde
bekannt
bekannte
bekannteschte
bekenne
bekomme
bekond
bekonnd
bekonnde
bekonnt
bekumme
bel
belachert
belacherunge
belagerung
belecht
beleed
beleg
belegd
belegt
belesch
beleschd
belfort
belgie
belgisch
belgische
belgje
belibbt
beliebd
beliebde
beliebt
belief
beliefs
believe
believing
belize
bell
bella
bellange
bellefosse
bellemagny
belles
bellschde
belmont
belsem
belseniggel
belseniggl
bem
bemergunge
bemu
ben
bena
benachbade
benachbarde
benannd
benannde
benannt
bend
benedigdinerabdei
benedikt
benediktinerkonvent
benedischd
benelux
benennd
benito
benitzt
benjamin
benn
benochbade
benonnd
benonnt
bensem
bensemer
benth
benudzd
benudze
benutze
benutzt
benutzung
benz
beo
beobachd
beobachdunge
beoiflussd
beomte
beowachde
bequa
bequem
ber
beraid
beraids
beraisch
beraits
berarb
berch
berche
bercherma
berchfried
berchhause
berchhong
berchrigge
berchzawwere
berchzawwre
bereich
bereid
bereisch
bereischa
bereische
bereit
bereschdischung
berfelle
berg
berge
berger
berghausen
bergheum
berglond
bergschdrooß
bergschdroß
bergstra
bergstrasse
bergstraße
bergstrooß
bergzabern
bergzabre
berichd
berichde
bericht
beriehre
beriemd
beriemde
beriimde
berischd
berischde
berischded
berje
berjer
berjermeischder
berlassen
berlegungen
berlin
berliner
berling
berm
bermering
bermesens
bermont
bermuda
bermudadraieg
bern
bernard
bernd
berner
bernha
bernhard
bernhardt
bernolsheim
bernus
berscghause
bersch
berschbohnekraud
berschborre
bersche
berschhause
bersetzt
bersetzung
bersing
berstett
bersviller
bertha
berthelming
bertrange
beru
beruf
berufe
berufen
berufsbildendi
beruhd
beruhe
beruhen
beruht
berviller
berwald
berwartschda
berwartstein
berzeugungen
bes
besadzungszon
besakih
besan
besatzung
besatzungsarmee
besch
bescha
beschaffenhaid
beschd
beschda
beschdanne
beschde
beschded
beschdeed
beschdehd
beschdehe
beschdehende
beschdeht
beschdes
beschdimmd
beschdimmde
beschdimmt
beschdimmung
beschdonn
beschelbrunn
beschloss
beschra
beschraiwung
beschreibung
beschreiwung
beschriwwe
beschte
besedsd
besedsung
besedzd
besetze
besetzt
besetzung
besichtiche
besidz
besidzd
besiedeld
besiedelde
besiedelt
besiedlung
besitz
besitzer
besonders
besonerschd
besonnere
besonners
besonnersch
besonnerschd
bessa
bessare
besser
bessere
besseri
bessoncourt
best
besta
beste
bestehd
bestehe
bestehend
bestehn
besteht
bester
bestimme
bestimmen
bestroff
besuche
besucher
besucht
besunnerschd
beta
betailischd
bethonvilliers
beton
betont
betra
betraad
betracht
betreibt
betreud
betrieb
betriebe
betriebssu
betriebssyschdem
betriewe
betriewwe
betriwwe
betroffe
betschdorf
bettange
bettborn
bette
bettel
bettelainville
better
bettermann
betting
bettle
bettpisserle
bettviller
between
betze
betzeberch
betzebersch
beuger
beux
bevelgarung
bevelgarungsdischd
bevelgerung
bevelgerungsendwigglung
bevelgerungsentwigglung
bevelkerung
bevelkerungsdischd
bevelkerungsentwicklung
bevo
bevoazuchd
bevor
bevora
bevorer
bevorzuchd
bewa
bewachse
bewaise
bewalded
bewaldede
bewaldet
bewechung
bewegt
bewerdung
bewesche
beweschunge
bewiese
bewo
bewohnd
bewohner
bewuhner
bewuhnt
bewunnara
bewussd
bey
beyliks
beyond
beyren
beza
bezahld
bezahle
bezahlen
bezaichned
bezaichnet
bezaischnd
bezaischned
bezaischnet
bezaischnung
bezaischnunge
bezange
bezeichent
bezeichnet
bezeichnung
bezeischend
bezeischent
bezeischnung
bezeischnunge
beziehe
bezieht
beziehung
beziehunge
beziehungsweis
bezirg
bezirge
bezirgsamd
bezirk
bezirke
bezirksa
bezirksamd
bezirksdaach
bezirksgruppe
bezirksomt
bezirksrechierung
bezirksregierung
bezirksverband
bezoore
bezuch
bezungter
bfehl
bfiehld
bfraijungsgriesch
bfrochde
bft
bgaud
bgradischd
bgrawe
bgriff
bgrindung
bgunne
bhalde
bi
biachama
bias
biascha
biased
biases
biasiedasee
białystok
bibel
bibiche
bibliographie
bibliothe
bibliothek
bibliotheken
biblothek
bicha
bickenholtz
bidd
biddafeld
biden
bidestroff
biding
bieasiedasee
bied
biede
bieded
biegt
biehn
bielefeld
biene
bienwald
bier
bierbach
bierboch
bierbraue
biere
bierg
bierthel
biese
bietle
biewel
biewermiel
biewl
big
bihl
bihnewerge
biichig
biiwl
bikini
bilanz
bild
bilda
bilde
bilden
bilder
bildern
bildhaua
bildhauer
bildhauwa
bildsche
bildschiam
bildschirm
bildt
bildung
bill
billione
billisch
billischa
billische
bilsat
bin
binder
bindnis
bing
binge
bingen
binger
binh
bining
binne
binnen
binneschdaad
binomio
binsfeld
binsfeldsee
bio
bioenergiedorf
biografie
biographie
biography
biolflor
biological
biologische
biologischi
biology
bioloschie
bioncourt
bionville
biospha
biotob
biotop
bip
bircher
birgamaischda
birgefeld
birgel
birgl
birkefeld
birkenau
birkenwald
birkerder
birkert
birlenbach
birscha
birschameeschda
birschaschafd
bis
bisa
bisbismaaka
bisch
bischa
bischarai
bischaraije
bischd
bischde
bischdima
bischdimma
bischdum
bische
bischeef
bischef
bischeflische
bischer
bischerbrunne
bischese
bischheef
bischheeflische
bischheim
bischo
bischof
bischoff
bischoffsheim
bischoof
bischt
bischtimer
bischuf
bischwiller
bises
bisher
bisherische
bisje
bismaak
biss
bissa
bisse
bissel
bissele
bisses
bissje
bissl
bist
bisten
bistroff
bistum
bitche
bitsch
bitschwiller
bitt
bitte
bitter
bitung
biwel
biwelse
biwlis
biwwels
biwwelse
biwwelser
bizing
bißje
bjarne
bkonde
bkonnde
bl
bla
blaase
bladd
bladde
bladdeitsch
blads
bladz
blaggeburg
blaibd
blaise
blaiwe
blake
blamiad
blanche
blancherupt
blancrupt
blange
blank
blankenloch
blaschda
blasonierung
blatt
blatz
blau
blaue
blauen
bleck
bleddle
bleds
bledsinn
bleed
bleede
blegg
blei
bleib
bleibd
bleibt
bleiwe
bleschwiller
blica
blick
blieb
blied
bliede
bliedeknospe
bliedesta
bliedezeit
bliehe
blies
bliesbruck
bliesgau
bliet
bligg
bligger
blimcheskaffee
blimelsmiehl
blind
blinde
blindhaid
blindness
bling
blitzschlach
bliwwe
blo
bloan
bloch
block
blockabschdand
blockabschidd
blocksicherung
blocksischerung
blodelse
blog
blogg
blogs
blohze
blond
blonse
bloo
blooe
blooma
bloomaulorde
bloos
blooß
blos
bloss
blouß
bloß
blu
blud
bludisch
blue
blues
bluff
blum
blume
blumenbalsam
blumepeter
blumeschda
blumme
blummeaade
blummepeder
blut
blutkreislauf
blutwerscht
blutworscht
bmw
bnatschg
bner
bnudzd
bnudze
bnudzen
bnudzung
bnuzd
bo
boad
boadaal
boahn
boan
bobby
boch
bock
bockbier
bockenheim
bockrem
bod
bodde
boddm
bode
bodedrubbe
boden
bodesee
bodschafde
body
bogal
bogota
bohhof
bohne
bohnegemies
bohnekraud
bohnekraut
bohnenkraut
boi
boialwe
boiama
boiema
boim
boinderschem
bois
boja
bojakeenisch
bojalwe
bojama
bojema
bolchen
bolesław
bolidig
bolidiga
bolidiger
bolidigg
bolidigga
bolidik
bolidiker
bolidisch
bolidische
bolidischi
bolitiker
bolivje
bolizai
bolle
bollem
bollheimer
bollidigg
bollwiller
bolsene
bolsenheim
bolzplatz
bombardierung
bombe
bombeangriff
bombeo
bonapaad
bond
bong
bongg
bongge
bonhomme
bonn
bood
boode
boofze
book
books
boone
boore
boot
booze
bopp
bor
bord
bordkerch
bore
borge
borjara
borjema
borke
boron
borre
borrem
borschte
borussia
bosborus
bosch
boschla
bosnie
bosporus
bossedorf
bosselshu
bossendorf
bosslet
bossue
boston
bot
botanik
botans
both
bots
boucheporn
boulange
boulay
bourbon
bourbone
bourdonnay
bourg
bourgaltroff
bourgogne
bourogne
bourscheid
bousbach
bousse
bousseviller
boust
boustroff
bouxwiller
bouzonville
bowwedahl
box
boxberg
bpb
br
bra
braach
braache
braaremisch
brache
bragdisch
brahms
braiba
braid
braide
brain
brais
braisch
braischd
braisdra
braiteba
branche
brand
brandebursch
brandenburg
brasil
brasilie
brasilja
brasilje
brassica
bratan
bratislava
bratte
brauarei
brauch
brauchd
brauchds
brauchdum
brauche
brauchen
braucht
braue
brauerai
brauerei
brauereie
braun
braunbraun
braune
braunschwaijer
braunschwaisch
braunschweig
braut
brav
bravo
brd
bre
brebotte
brechtel
bredone
brehm
brehme
brei
breidenbach
breis
breisgau
breistroff
breit
breite
breitenau
breitenbach
brema
bremen
bremerhave
bremse
brendisbach
brenne
brennende
brennholz
brennt
brensbach
brentano
brentanomarkomannenwiki
brepols
breschung
bresidend
bresidende
bresidendschafdswahl
bresidenschafd
bress
bresseschbrescha
bretagne
bretesche
bretten
brettnach
breuberg
breydenbach
brezlbu
brezlfeschd
bri
brian
brich
brichd
brid
bridde
briddisch
briddische
bride
bridische
briede
brieder
briederlischkaid
brief
briefe
brieh
briehl
brigadie
brigg
brigge
briggehaus
brigger
brigitte
brihl
brihler
briif
brille
bring
bringd
bringe
bringen
bringt
brinnche
briq
brisa
brisch
britannica
britische
british
britta
brivade
briwilesche
brn
bro
brobagonda
brobagondateschnigg
brobagondischde
broblem
brochd
broche
brod
brode
brodeschdandische
brodeschdiad
brodugd
broduggd
brogramm
brogramme
brogrammierschbrooch
brojegd
brombach
brombachtal
bromill
bromisch
bromischdal
brond
bronvaux
bronze
broque
brosezaid
brot
brouck
brouderdorff
brouviller
browier
browisorisch
brown
brozend
brozent
brozess
bru
bruce
bruch
bruche
bruchhause
bruchhof
bruchsaal
bruchweiler
bruckedswiller
bruda
brudale
bruder
bruhra
brulange
bruler
brumath
brumbach
brunei
brung
brunhildisstuhl
brunn
brunne
brunner
brunneregion
brunneschacht
bruno
brunscht
brunstatt
brurer
bruschd
bruscht
brusel
bs
bsadzung
bsadzungszon
bsch
bscha
bschd
bschda
bschdanddeel
bschde
bschded
bschdehd
bschdehe
bschdeht
bschdeje
bschdimmd
bschdimmde
bschdimme
bschdrofd
bsche
bschedischungsfehla
bschefdischd
bschefdischde
bscher
bschidza
bschlosse
bschraibd
bschriwwe
bse
bsedzd
bsidz
bsidzer
bsiedeld
bsiedelde
bsiedld
bsiedlung
bsieschd
bsitz
bsondare
bsondas
bsondere
bsonders
bsonners
bsorsche
bspw
bsuch
bsucha
bsuchd
bsuche
bsucher
bsucherbergwerk
bsucht
bsunna
bsunnare
bsunnas
bsunnaschd
bsunnaschda
bsunnere
bsunners
bsunnersch
bsunnerschd
bt
bts
bu
bubb
buc
buch
buchdruck
buchdruckerei
buche
buchgesellschaft
buchschdaawe
buchschdawe
buchstawe
buchsweiler
buchy
buckel
buckelquader
buckenum
budange
budda
budder
buddha
buddhismus
bude
buding
budling
bueno
buergermeister
bug
buggel
buggl
buhl
buhne
bulgarie
bulgarien
bull
bulldog
bulle
bulletin
bulwersche
bumbe
bump
bunaken
bund
bundahl
bunde
bundes
bundesa
bundesamt
bundesdaach
bundeskonzla
bundesla
bundesland
bundeslenda
bundeslicha
bundesliga
bundesloand
bundeslond
bundesrad
bundesrebublig
bundesrebublik
bundesrepublik
bundesschdaad
bundesschdaade
bundesschdrooß
bundestag
bundestra
bundsa
bundsandschda
bungen
bunna
bunnesaudoba
bunnesdischdriggd
bunnesla
bunneslicha
bunnesliga
bunneslond
bunnesrepublik
bunnesschdaad
bunnesschdaade
bunnesschdrooß
bunte
buntsa
buntsandschda
buntsondschda
burba
burbach
burch
burcha
burchdor
burche
burchegrupp
burchfelse
burchhause
burchherre
burchkisch
burchmuseum
burchruin
burg
burga
burgalben
burgan
burgberwartstein
burge
burgelondkra
burgen
burgenfu
burgenlexikon
burgenparadies
burger
burgruin
burgund
burige
burkhart
burlioncourt
burrweiler
bursch
bursche
burtoncourt
burundi
busch
buschdawe
buseberch
bush
bushaldeschdell
business
busneds
buss
busse
bussi
but
butonik
butzel
butzle
buu
buuch
buwe
buwwehause
buxwiller
bvelgarung
bw
by
byzantinische
bzahle
bzaischd
bzaischnd
bzaischned
bzaischnung
bzw
c
ca
caballus
caesar
cafe
california
call
calling
camargue
cambridge
campaign
campaigns
campestre
campo
camps
can
canadian
candidate
candidates
canner
canossa
cap
cape
capelle
cappel
captandum
caput
cardamine
cardauns
cargolifter
carl
carling
carlos
carmen
carneval
carol
carola
carolina
caroline
carota
carvacrol
case
cases
casimir
caspar
caspary
castanea
castrum
cat
category
catherine
cattenom
caucasian
caucasica
cava
cc
ccsds
cd
cdot
cds
cdu
celebrity
celsius
cem
cent
center
central
centre
century
cervus
ceylan
ch
cha
chaarlsruej
chailly
chako
chambrey
chamorro
champions
chance
chandelle
change
chanville
chaotic
chapelle
chaplin
charagder
charakter
charles
charleville
charlotta
charlotte
charly
charmois
charta
chartres
chatenois
chaussy
chaux
chavanatte
chavannes
chazelles
chba
chbagmainde
chbarde
chd
chda
chde
chdich
chdie
che
chebrunn
check
checking
cheerleader
chef
cheftra
chel
chelba
chelbe
chelche
cheld
cheloh
chema
chemie
cheminot
chemische
chems
chen
chene
chennutzungsplan
chenois
cher
cherei
chesny
cheval
chgiewisch
chi
chicago
chicourt
chief
chiel
chieulles
children
chile
chilenische
chin
china
chiou
chirac
chitin
chitinschicht
chitinskellet
chlich
chlisch
choice
choices
chor
chr
chris
chrischba
chrischde
chrischdedum
chrischdetum
chrischdi
chrischdian
chrischdianisierd
chrischdlische
chrischdus
chrisdlische
christ
christi
christian
christine
christlich
christoffel
christoph
christopher
christus
chromodoris
chronica
chronik
chs
chschde
chschte
chsd
chse
chsisch
chsische
chst
chstaan
chste
chsten
cht
chte
chtelse
chter
chtniskirche
chts
church
chwais
chy
chzall
cia
cid
cie
cindi
circumstantial
city
civil
civis
civitas
ck
ckchen
ckcher
cke
ckelte
cken
ckene
cker
ckert
ckisch
ckla
ckle
ckwiller
claims
clairvaux
class
classical
claude
claudia
claus
clause
clausensee
cle
clemens
cleuves
climate
clinton
clocher
clouange
club
cluny
cm
cnn
co
coa
coast
cobar
cobra
cocheren
code
codex
cognition
cognitive
cohen
coin
coincy
coke
colchicom
colchicum
cole
coleoptera
collective
college
colligny
collins
colmar
colmen
colmer
colonel
color
colors
colroy
columbia
com
comedian
comedy
comedyanten
committee
common
commons
communaute
commune
communes
communication
community
como
company
comparative
compass
compiz
compjuder
complete
completed
compliance
compostela
computer
comte
comtois
con
concepcio
conceptual
conde
conference
conflict
conrad
consensus
consequentiam
conservatism
conspiracism
conspiracy
constant
constellation
consultative
consumer
contemporary
contente
context
conthil
continental
contingentia
control
contz
convar
conversation
conway
conze
cook
cooper
cooperation
copi
cops
cornelius
cornell
corny
corpora
corporate
corporation
corps
corpus
corydalis
cosme
coty
could
coume
country
county
couraschiade
courcelles
court
courtavon
courtelevant
cout
coverage
covid
craincourt
cranes
cravanche
cre
created
cresheim
creutzwald
criminal
critical
croix
crooked
cross
cuculi
cultural
cultures
cunelie
cup
curitiba
current
curtis
cuticula
cutting
cutty
cuvry
cymbalaria
cynapium
d
da
daa
daac
daach
daachbladd
daachesposchd
daad
daade
daag
daagschdellt
daal
daamschdadt
daaschberg
daaschdellende
daaschdellung
dabbe
dabbisch
dabei
dabo
dach
dachzisch
dadai
dade
dadei
dadierd
dadursch
dafel
dafir
dafrika
dafu
dag
dagege
dageje
dagogik
dagschdellt
dah
daher
dahin
dahl
dahlba
dahm
dahn
dahner
dai
daia
daid
daidlich
daidlisch
daidsch
daidscha
daidsche
daidschi
daidschlond
daidtsche
daidung
daidunge
daifa
daifel
daifelsdisch
daiflsb
daijara
dail
daile
dailgebiede
dailnehma
dailung
dailwais
daintree
daire
dairopa
daisch
daische
daischte
daisem
daitlich
daitlisch
daits
daitsch
daitscha
daitsche
daitschen
daitscher
daitsches
daitschi
daitschla
daitschland
daitschlo
daitschlond
daitschschbrochische
daitschschbroochische
daiwel
dal
dala
dalem
dalhain
dalhunde
dalhunden
dali
dalsohl
dalstein
daluffwa
damalische
damals
dambach
dame
damid
damidd
damit
damm
dammschdadt
dammstadt
damols
dampfnudl
damstadt
dan
dance
daneewe
danewe
dange
dangerous
dangolsheim
daniel
daniela
danielle
danjoutin
dank
danke
dann
danne
dannefels
dannelbourg
dannschdadt
danoch
danooch
danu
dar
dard
dardanelle
dare
darf
dargeschdellt
dargschdelld
darin
dark
darm
darmschdadt
darmschtadt
darmsta
darmstadt
darschdelle
darschdellung
darschdellunge
darstelle
darstellt
darstellung
darwin
das
dass
dassa
dassade
dassde
dasse
dassen
dassene
dasser
dasses
dassma
dassman
dassme
dassn
dat
data
date
datei
dateisu
daten
datenbank
datenverkehrs
datiert
dauad
daubensand
dauche
daucht
daucus
dauer
dauerhaft
dauert
daunus
dausend
dausende
dausndfach
dauwahafde
dave
david
davis
davor
davu
davuu
dawaausschdellung
daweller
dawid
dawiller
day
days
dazu
dazukumme
dazwische
daß
daßa
daßes
daßs
daßsa
daßse
dche
dchen
dd
dda
dde
ddel
dden
dder
ddi
ddisch
ddl
ddlichama
ddn
ddr
dds
ddschafd
ddschafds
ddsdeka
ddse
de
dea
death
debadd
debadde
debai
debate
debates
debating
debbisch
debei
debus
december
deception
decision
decisions
deckel
decken
decker
decket
deckflieschel
ded
dedai
dede
dedegohl
deden
dedn
dee
deed
deede
deedenoff
deedn
deeg
deel
deeld
deele
deer
deesche
deet
defense
defia
defier
definiere
definiert
definition
definizion
definizione
defir
defu
deg
degee
degesche
deggl
deggungsglaisch
deglarierde
deglisch
degohl
degoriert
deha
dehemm
dehinna
dehinner
dehn
dehnt
dei
deidsche
deidschland
deidschlands
deil
deile
deilnehma
deils
deilweis
deimos
deinem
deiner
deisem
deitlich
deitsch
deitsche
deitscher
deitsches
deitschla
deitschland
deitschlond
deiwel
dekan
dekor
del
delfine
delius
dell
della
delle
dellwing
delme
delse
dem
demag
demagoge
demagogue
dembradur
demendschbreschend
demid
demirovic
demit
demm
democracy
demogradie
demogradiebewechung
demogradije
demografie
demokradie
demokradische
demokratie
demonisierung
dems
demweeche
den
dena
dendera
dene
denen
deng
dengd
denge
denglisch
dengmalzon
dengmol
dengmolschudz
dengschda
denk
denke
denken
denkma
denkmal
denkmalpflege
denkmol
denkmolschudz
denkmolschutz
denkt
denn
denna
denne
denney
denno
deno
denoch
denoh
denoo
denooch
denselben
denting
depa
depaadmo
departement
departements
department
depatmo
depaulo
depenau
depot
der
deranze
derat
derbrunn
derburba
derburnhaipt
derch
derching
derd
dere
derekt
deren
derer
derf
derfe
derfel
derfer
derfma
dergem
derha
derherge
derhu
derkem
derkema
derkemer
derkm
derla
dermodere
dermorschwi
dermschda
dern
dernahn
derr
derraischbe
derre
derrebach
derrebacher
derreddere
ders
derschafelse
dersche
derschlenk
derselben
derstanbach
dersulzba
dert
dertro
derzaid
derzeit
des
descha
deschdens
deschdnis
deschdniskea
deschdniskeasch
desche
desdewee
desdeweje
desdewesche
desdo
deshalb
design
desinformation
desire
desktop
desktopreschna
desmol
dess
dessau
desse
desseling
dessem
dessen
desser
destry
deswa
desweche
desweege
desweeje
desweesche
deswege
desweje
deswesche
det
detail
details
dethard
dettwiller
deu
deud
deuteronomium
deutsch
deutsche
deutschen
deutscher
deutsches
deutschland
deutschlandfunk
deutschlands
deux
development
devil
devoa
devu
devun
devunn
devuu
dez
dezemba
dezember
dezimiert
dezu
dezugewwe
dezugsedzd
dezukumme
dezuu
dezwische
deß
dfb
dfg
dhaus
dhessisches
dhu
dhv
di
diagonale
diagonisse
dialect
dialegd
dialegde
dialegdgrubb
dialegdkontinuum
dialeggd
dialeggde
dialekt
dialekte
dialektik
dialektinstitut
dialektisch
dialog
diane
dianthus
diaspora
dibborg
dich
dichd
dichder
dicht
dichter
dick
dicke
dicki
dictator
dictionary
dictionnaire
did
diddl
didena
didenheim
didl
didn
die
diebling
diebolsheim
dieda
diedehofe
diedenhofen
diedesfeld
diedesfelder
diedrischsfeld
dief
diefe
diefeba
diefebach
diefeda
diefegschdein
diefer
diefere
diefewene
dieffenbach
diefi
diefma
diefschd
diefschde
diele
diema
diemeringen
dien
diend
diene
dienschd
dienschdaach
dienschde
dienschdlaischdung
dienst
dient
dier
diere
dies
dieschersalamander
diese
diesem
diesen
dieser
dieses
dietary
dieter
dieterwunderlich
dietmar
dietrich
dietwiller
dieuze
diewo
diezees
diffembach
differences
different
difftong
difftonge
digadure
diger
diggdador
diggdadur
digge
digidali
digidalisat
digital
digitale
digitalisat
dihre
dii
diibach
diine
dilemma
dilg
dilibri
dilje
dilsberg
dimin
ding
dinge
dingemiddl
dingler
dinglerwerke
dingmert
dinn
dinne
dinner
dinotherium
dinsheim
dio
dipenten
diphthonge
diphthongierung
diphtongierung
dir
dira
diregd
diregde
diregder
direggd
direggde
direkd
direkt
dirk
dis
disaster
disch
dischbediad
dischd
dischda
dischde
dischder
dischdesde
dischdisch
dischdri
dischdributione
dische
dischen
disches
dischkaide
discht
discourse
discussion
disgust
disinformation
diskographie
diskussion
dismissal
disposition
disseldorf
dissertation
dissonance
dissonante
dissonanz
dissonanzen
distinction
distributive
district
distroff
dition
dits
div
diverse
dizier
dl
dlich
dliche
dlicher
dlisch
dlrg
dm
dmc
dna
dnamgriesch
dnoch
do
doa
doad
doaf
doan
doann
dobai
dobbel
dobbelkabell
dobbld
dobei
dobelli
doch
dochda
dochder
dochter
documentation
dod
dodd
dode
dodebai
dodebei
dodedraus
dodefa
dodefer
dodefia
dodefier
dodefir
dodefor
dodefu
dodemid
dodemit
dodeno
dodenoch
dodenoh
dodenoo
dodenooch
doderch
dodevor
dodevu
dodevun
dodezu
dodezwische
dodmid
dodmidd
dodnoch
dodorch
dodorsch
dodra
dodraus
dodrin
dodriwwa
dodriwwanaus
dodriwwer
dodro
dodroa
dodruff
dodruffhi
dodruffhie
dodrufhie
dodrum
dodrunna
doduajsch
doduasch
dodurch
dodursch
dodvoa
dodvu
dodzu
doe
doerd
does
dogder
dogs
dogumend
dogumendazion
dogumende
doh
dohea
doheer
doher
dohi
dohie
dohin
doi
doin
dokter
dokumentation
dokumente
doll
dollar
dollere
dolsch
dolving
dom
doma
dombauverein
dome
domes
domfassel
domgarten
domid
domidd
domids
domidse
domini
domit
domkapitel
domkirche
domnom
domolisch
domolische
domols
don
donald
donau
done
dong
donjeux
donn
donnelay
donnenheim
donns
donoch
donsieders
doo
dood
doode
doodebai
doodemid
doodorsch
door
doosne
doppel
doppelstrang
dor
dora
dorans
dorch
dorchfiehre
dorchga
dorchgong
dorchs
dord
dordische
dordrecht
dore
dorelse
dorf
dorfbach
dorfbewohner
dorfes
dorflump
dorin
dorlisheim
dornot
dors
dorsch
dorschfließd
dorschflosse
dorschgsedzd
dorschs
dorschschnidd
dorschschniddlisch
dorschschniddstemberadur
dorschschniddstemberadure
dorschsedze
dorscht
dort
dorturm
doruff
dorunna
dorunner
dos
doschde
doss
dossa
dosse
dossemer
dossene
dossenheim
dosses
dossier
doubt
douglas
dovun
dozu
doß
doßa
doßde
doßes
doßma
doßn
doßs
doßsa
doßse
doßses
dpfalz
dr
dra
draa
draache
draane
draarende
drache
drachefels
drachenbronn
dradidsion
draditionell
dradizion
dradizionell
dradizionelle
drai
draiberg
draiegg
draifaldichkaidska
draifaldischkaidska
draifaldischkaidskea
draifaldischkaidskeasch
draila
draimol
drais
draistromland
draiwa
draiwe
draißichja
draißischja
drama
dran
drang
drauahall
draum
draus
drausse
drauß
drauße
draußen
drebb
drebbe
dreck
drede
dreede
dreesde
dreffe
dreh
drehbuch
drehd
drehe
drehmuschkel
dreht
drei
dreidimensionalen
dreieck
dreihunnert
dreimol
dreiwe
dreiza
dreißichja
dreißischja
drend
drennd
drenne
drennt
dresde
dresden
drew
dreyfus
dria
dridd
dridda
dridde
driddel
driddgreeschd
driddl
driefels
driemba
driffd
drimba
drin
dring
dringe
dringend
dringge
drink
drinn
drinne
drinnen
dritt
dritte
drittel
dritter
driumph
driwwa
driwwe
driwwer
drk
dro
droa
drobena
drodsdem
drodzda
drodzdem
droffe
droffene
droggene
droggenschde
drohd
droht
drohung
droi
droizeh
drollschobbe
droo
droppe
drotzdem
drozda
drubbe
druch
druchschluss
druck
drucke
druckenschde
druckerei
druf
druff
druffschmeert
drugg
druggerei
druli
drulingen
drum
drumerum
drumm
drummerum
drumrum
drunna
drunner
druppe
drusenheim
drw
ds
dsch
dschd
dsche
dschechie
dschns
dspra
dsummer
dt
dtche
dte
dter
dtirol
dtische
dtl
dtle
dtv
du
dua
duajsch
duajschgehend
duajschmesser
duasch
duaschbroche
duaschde
duaschn
dub
dubbe
dubbegla
dubbeglas
dublin
duch
dud
dudd
dudda
duddehofe
duddwailer
duddzend
dudehofe
duden
dudenho
duds
due
duen
duh
duhd
duhn
duht
duhter
duisburg
dum
dumboch
dume
dumm
dummdekan
dummgaade
dummherr
dummhischl
dummies
dummkabidl
dummschissel
dun
dung
dungel
dunggle
dungl
dunk
dunke
dunkel
dunkle
dunkler
dunkles
dunnene
dunnersba
dunnersberch
dunnersbersch
dunnersberschkra
dunnerschberg
dunnerschbergkra
dunning
dunzne
duras
durch
durchfu
durchs
durchschnittlich
during
durischde
durm
dursch
durschde
durschlaafender
durschmessa
durschs
durschschniddlisch
durschschnitt
durschtel
duss
dut
dutch
duts
dutt
duu
duud
duuda
duun
duusne
duut
duwak
dvd
dvu
dwa
dweschde
dwest
dwesten
dwoskin
dynamikum
dynamisch
dz
dzd
dzde
dze
dzlich
dzlisch
dzlische
dzt
dzu
dzukumme
dzung
dzwische
e
ea
eabfolschegriesch
ead
eadeel
eadlischi
eaeffnd
eaeffnung
eafolsch
eagensungsschdudium
eagewnis
eagla
eahod
eainnad
eainnare
eainnarungsvazerrung
eainnere
eakla
ealauwbd
ealisch
ean
eana
eanaiad
eanaijad
eanaijarung
eareba
earefriedhof
early
easch
easchd
easchda
easchde
easchdemol
easchdmol
easchmol
easchte
easedzd
east
eawa
eawadung
eawaidad
eawaidarung
eawbfolschegriesch
eawed
eawedd
eaweend
eawend
eawfolschegriesch
eawiadarung
eb
ebbe
ebbes
eben
ebenda
ebene
eberbach
eberhard
ebersing
ebert
ebi
ebook
ecclesiastes
ecclesiasticus
ech
echa
echelscha
echner
echo
echte
eck
eckbach
eckbolsheim
ecke
eckel
eckelse
ecken
eckertswiller
eckhard
eckwersche
economic
economics
economy
ecuador
ed
edekowe
edekowwe
ederbi
edesem
edinge
edischm
edit
edited
edition
editions
edlische
edmund
edsma
eduard
eduardo
education
edwa
edward
ee
eea
eefach
eel
eem
een
eena
eener
eeni
eens
eerschd
eerscht
eerstain
eesdraisch
eestraisch
eestreich
eestreichisch
eewene
eeweso
efa
efach
efacha
efache
efangelisch
efangelische
efda
efdas
efders
efei
effect
effective
effects
effegd
effeggd
effekt
effekte
effendlisch
effendlische
effendlischi
effendlischkaid
effentlische
efficiency
effizienda
effiziendare
effizient
effizienz
effizienzschdaischarung
effizienzschdaischarunge
effnd
effndlisch
effndlischa
effne
effnung
effnungszaide
effron
efters
egal
eger
egg
eggbach
egge
egli
eglise
egoismus
egschdra
eguenigue
egydien
eh
eha
ehe
ehefrau
ehem
ehema
ehemalich
ehemaliche
ehemalichi
ehemaliger
ehemalisch
ehemalische
ehemolisch
ehemolische
ehemolischer
ehepaa
eher
ehlers
ehmalsche
ehmolisch
ehnder
ehnedd
ehnedder
ehr
ehre
ehrea
ehreamdlische
ehreamtliche
ehrebirger
ehrebu
ehrenamdlische
ehrenamtliche
ehrenbu
ehrenfriedhofes
ehreomtliche
ehrer
ehrfurcht
ehrfurschd
ehrlinger
ehrm
ehrmantraut
ehrn
ei
eich
eichborn
eichendlich
eichendorff
eichener
eicheni
eichenie
eichentlich
eichentliche
eienlische
eier
eiersto
eifel
eigene
eigenen
eigenes
eigentlich
eigentumsverha
eigeschafde
eijene
eim
ein
einbeck
eincheville
eine
einem
einen
einer
eines
einfu
eingklisch
einige
einische
einmal
einsatz
einsichten
einst
einstein
eintrag
einwohner
einzelhandelsentwicklungskonzeption
einzelnachweise
einzelne
einzelnochweis
einzelnochweise
einzig
einzlnochweis
eiroba
eiropa
eis
eische
eischeholzdiele
eischene
eischentlich
eischne
eise
eisebahn
eisebahnstrooß
eisezeid
eisveggl
eiszeit
eiweiß
eiwohna
eiwohner
eiwuhner
eizenho
eja
ejemaalsche
ejemolisch
ejemolische
ekarius
ekoaudo
ekolaade
ekologie
ekonomie
eksklav
ekuma
el
elba
elbach
elbe
eldare
eldere
eldeschde
eldschd
eldschde
election
elefand
elegdrische
elegdronisches
elekdronischi
elektronische
elemend
elemende
elena
elf
elisabeth
elite
elizabeth
ellebach
ellebachdal
ellen
eller
ellhorn
elliot
elmschdee
elri
elsa
elsass
elsaß
elsbeth
else
elsenz
elsenzdal
elsenztal
elvange
elwe
elwedridschle
elwedritsch
elwedritsche
elwenfels
elytra
elz
elzange
em
emanuel
eme
emenz
emich
emigrande
emil
emily
emirad
emirade
emli
emm
emma
emme
emmeram
emodzionel
emol
emotional
emotions
empfa
empfange
empfohle
empfunne
empirische
empore
ems
emschwi
en
enagie
enaus
enausgwoffe
enchenberg
encoding
encyclopedia
encyclopædia
end
endangered
ende
ended
enderle
enderlesag
endfalle
endfeand
endfernde
endfernung
endgesche
endgildisch
endgu
endhalde
endhubbse
endl
endla
endlang
endlong
endloss
endrunn
ends
endschaide
endschaidung
endschaidunge
endschbrechend
endschbrechende
endschbresche
endschbreschende
endschbroch
endschda
endschdann
endschdanne
endschdehe
endschdehung
endschdonn
endschdonne
endscheidendie
endscheidunge
endschiede
endung
endunge
endwedda
endwedder
endwiggeld
endwiggelt
endwiggld
endwigglung
endwigglunge
ene
ener
enere
enerer
energy
enerschie
enfach
eng
enga
engadin
enge
engebach
engel
engelhardt
engella
engelmann
engere
engine
engl
engla
england
englisch
englische
englischen
englischi
englischsprochische
english
englon
englond
engschd
engschde
eni
eninn
enkel
enn
enne
enner
ennere
ennerer
ennery
ennfach
ennre
ennrer
enns
enoi
enoigsedzd
enorme
ens
enschaidung
enschaidunge
enschdehung
enstonn
entdeckt
entertainment
entferne
entfernt
entfernung
entga
entha
enthalde
enthalt
enthoore
entla
entlang
entlong
entlosse
entomologie
entrange
entschaide
entschda
entschdanne
entschdehe
entschdehung
entschdonn
entscheidungen
entschied
entschprechende
entschtanne
entschtonn
entschuldich
entschuldiche
entsprechende
entsprecht
entstand
entstanne
entstehung
entwa
entweda
entwedder
entweder
entwickelt
entwicklung
entwiggelt
entwurf
enuf
enuff
enunna
environment
environmental
enzelhannel
enzelne
enzelnochweis
enziem
enzigschd
enzische
enzyklopa
epfenbach
epfig
epflbach
epheser
ephrata
epideiktische
epidemiology
episode
epitaph
epling
epoche
eppele
eppelsheim
epping
eppstein
epvre
equality
equus
er
era
eraignis
eraigniss
eraus
erauskommt
erauskumme
erb
erba
erbach
erbaud
erbaude
erbaut
erbe
erbfolchekriech
erbfolgekriech
erbfolgekrieg
erbprinz
erbschaft
erbse
erching
erd
erdbeobachtungssadellidde
erdbewe
erdeel
erdmann
erdo
erdowwerfla
ere
ereffend
ereffned
ereffnede
ereffnet
erefned
ereichniss
erer
erfa
erfahrung
erfassde
erfasst
erfassung
erfebach
erfi
erfilld
erfillt
erfindergeist
erfolch
erfolchd
erfolche
erfolg
erfolge
erfolgraisch
erfolgreich
erfolsch
erfolschd
erfolschraisch
erfolschraische
erforschd
erforschung
erfort
erfunne
erfurt
erga
ergebbd
ergebert
ergebnis
ergebniss
ergebnisse
ergersheim
ergewnis
ergewnisvazerrung
ergewwe
ergla
erglerung
erha
erhal
erhalde
erhaldene
erhall
erhalle
erhalte
erhaltung
erhebt
erheed
erhehd
erheht
erhewung
erhielt
erhole
erholungsord
erhoowe
eric
erich
erickson
erik
erikson
erinnad
erinnare
erinnarung
erinnarunge
erinnerd
erinnere
erinnert
erinnerung
erinnerungen
eristische
erkannd
erkannder
erkannt
erkenne
erkennt
erkenntnis
erkertswiller
erkla
erla
erlaubd
erlaubnis
erlaubt
erlauwe
erleba
erlebach
erlebnis
erlees
erlehof
erlenbach
erlo
ermi
ermorded
ermordung
ern
erna
ernaid
ernannd
ernannt
ernd
ernde
ernennd
ernennung
ernestviller
ernolsheim
ernschdwiller
ernscht
ernst
ernstthal
ero
erobert
eroberung
erowwerd
erowwere
erowwerung
erraichd
erraischd
erraische
errbach
erreichbar
erreiche
erreicht
erreische
erreischt
errichd
errichde
erricht
errichtung
errischd
error
ers
ersch
erschaind
erschd
erschda
erschde
erschdemol
erschdens
erschder
erschdes
erschdi
erschdmo
erschdmol
erschdmols
erschdreckt
erschdreggd
erschds
ersche
erscheint
erschiene
erschließt
erschlosse
erschmol
erschosse
erscht
erschte
erschtemol
erschter
erschtes
erschtmols
erschtsmols
ersedzd
ersetzt
erst
erste
erstein
ersten
erster
erstreckt
erstroff
erum
erwa
erwachsene
erwachsne
erwaidade
erwaiderung
erwaischung
erwartungshaltung
erwe
erwed
erwede
erweiderde
erweidert
erweitern
erweiterte
erwin
erworbe
erworwe
erza
erzaischda
erzaische
erzange
erzbischdum
erzbischof
erzwung
es
esa
esch
eschau
eschba
eschbach
eschbe
eschburi
eschd
eschde
eschdlich
eschdliche
eschdlicher
eschdlisch
eschdlische
eschdraich
eschdreisch
esche
eschelbronn
eschelbrunner
eschen
escherange
eschlbrunn
eschnwo
eschterreich
eschtringe
eschwiller
esdaraisch
esderaichisch
esdlisch
esdlische
esdlond
ese
esel
esele
esper
esperanto
esra
ess
essay
essays
essbare
esse
essen
essert
essisch
essleffl
esst
est
estaing
estas
ester
esterha
esterreich
estlich
estlisch
estlische
estlischer
estw
et
etc
etcs
eteimbes
etene
eth
ethics
ethwiller
etienne
etliche
etlische
etting
etwa
etwas
etwiller
etzling
eu
euch
euer
euge
eugen
eumetsat
eur
eure
euro
euroba
europa
europabogal
europabolidik
europas
europe
european
euwuhner
euwuhnerendwigglung
eußerthal
ev
eva
evakuiert
evakuird
evaluation
evang
evangelie
evangelisch
evangelische
even
evenduell
events
ever
everybody
evg
evidence
evolution
evolutionary
evong
evongelisch
evongelischde
evongelischi
ewe
ewefalls
eweggemach
ewene
ewerburnhaipt
ewerhoffe
ewerhosle
ewernahn
eweso
ewidens
ewisch
ewwe
ewwer
ewwerbach
ewwerbacher
ewwerdsem
ewwerhard
ex
exakde
examination
exberde
exdra
exdrem
exe
exembla
exemblaa
exemplar
exemplare
exerzierhall
exerzierplatz
exil
exischdierd
exischdiere
exischdiert
existence
existiert
exklav
exklave
exodus
expansion
expedition
experience
experimend
experimende
experiment
experimental
expert
explains
exploitation
exploration
explorations
export
exposure
express
extension
extra
ey
eze
ezechiel
f
fa
faa
faab
faahd
faahde
faahn
faawe
fabrigg
fabrigge
fabrik
facebook
faces
fach
fachbereich
fachbischer
fache
fachhochschul
fachhochschule
fachlait
fachwa
fachwerghaiser
fachwerkhaiser
fachwerkhaus
facility
fact
factcheck
factor
facts
fadde
fade
fadie
faen
fagde
faggde
faggdisch
faggle
fahn
fahnemaschd
fahrd
fahrdinschtlaider
fahre
fahrn
fahrplan
fahrra
fahrschdrooße
fahrt
fahrwa
fahrzeisch
fahrzeische
fahrzeischsingnale
fahrzeusch
fahrzeusche
faia
faiada
faian
faidene
faier
faierra
faierrad
faierwehr
faija
faijabach
faijabachhaus
faijalischkaide
faijawea
fail
failly
failne
failure
faind
fair
faischde
faischdischkaid
fajersche
fake
fakten
fakulta
falbe
falck
faldki
falgetuam
falkeburch
falkenturm
fall
fallacies
fallacious
fallacy
falle
fallen
fallene
falleri
fallt
falmgseeß
falsch
falsche
falsches
falschhaid
falschi
falschmeldunge
false
falsehood
falsehoods
falsification
fameck
familie
familiemidglieda
familien
familieowwerhaubd
familije
familijegrawb
familje
family
fan
fang
fange
fangs
fangt
fans
far
farb
fare
farenzvafelschung
farmer
farr
farschviller
fartas
farwe
fas
fasanerie
fasces
fasch
faschd
faschdesunndag
faschdezeit
faschoda
fascht
fasd
fase
fasekiechle
fasere
fasnachdinschdag
fasnacht
fasnachtdinschdag
fasnachtsfaier
fasnachtshaufe
fass
fassad
fassade
fasse
fassenachd
fassene
fassne
fassung
fast
fastnacht
faul
faule
faulquemont
fauna
faverois
faß
fbi
fc
fck
fd
fde
fdisch
fdischd
fdischde
fdische
fdp
fe
fea
feadisch
feah
fear
features
februa
februar
february
fedd
fedde
federadsion
federadsionskra
federal
federalist
federalny
feelschluss
feer
feerd
feeslis
fegersheim
fehde
fehischkaide
fehla
fehld
fehle
fehlende
fehler
fehlschluss
fehlt
fehlvahalde
fehrbach
feier
feierd
feiert
feierwehr
feierwehre
feld
felda
feldenkirchen
felder
feldkamp
feldschba
feldschbad
felisch
felix
fell
felon
fels
felse
felseburch
felseland
felselond
felsemeer
felsemeere
felsenburgen
felsformatione
felswand
fen
fenschda
fenschdarosedd
fenschdavawalda
fenschder
fer
ferd
ferderung
ferdich
ferdinand
ferdisch
ferdische
ferenzverfa
fergess
ferije
fern
fernau
fernseh
fernsehe
fernsehfilm
fernsehpreis
fernsehserie
ferr
fers
ferschd
ferschde
ferschdedu
ferschdedum
ferschder
ferschdetum
fertisch
ferus
fes
fesch
feschd
feschda
feschdbladd
feschde
feschdgelegt
feschdghalde
feschdglehd
feschdgschdelld
feschdhall
feschdi
feschdiwal
feschdlond
feschdschdelle
feschdstecke
feschdung
fescht
feschtung
fessenheim
fest
festinger
festival
festschrift
fett
feuerbach
feuerbachpark
feuerrad
feuerwehr
feuschdwiese
fewrua
ff
ffd
ffe
ffelfalde
ffelwirsche
ffendlischd
ffene
ffentliche
ffentlichkeit
ffentlichungen
ffentlischd
ffer
ffesta
ffh
ffho
ffholz
ffhu
ffler
fflum
ffnet
ffnung
ffoffe
ffolsheim
fft
fg
fh
fi
fia
fiad
fiamedscheds
fiare
fiaren
fiarunge
fiddere
fiehl
fiehle
fiehler
fiehr
fiehrd
fiehre
fiehrt
fiehrunge
fiel
field
fiele
fienf
fier
fiera
fierd
fiere
fieren
fiers
fiert
fierung
fieß
fighter
figur
figure
fihre
fihrt
fiirt
filder
file
files
filgriese
filiale
fille
fillung
film
filme
filosofie
filstroff
filzfabrigg
fimf
fimpf
fin
fina
final
finale
financial
finanziell
finanzielle
finanzminischda
finanzwese
find
finden
findet
findsch
findt
finf
finfa
finfd
finfde
finfe
finga
finggeboch
finlond
finn
finnd
finne
finnen
finnisch
finnische
finnland
finnlond
finnt
finocchiaro
finonze
finonzielle
fir
firm
firma
firme
firs
firschde
first
fis
fisch
fischbach
fischbachdal
fische
fischer
fischernache
fischerwa
fischmaagd
fischweiher
fisher
fiske
fitness
fitzroy
fix
fixem
fk
fla
flaaschblumm
flach
flache
fladdad
fladdre
flag
flagg
flagge
flagschburi
flammkuche
flankeschuds
flanville
flasch
flasche
flassbeck
flastroff
flatrate
flavonoide
fld
fle
fleckeschda
fleesch
fleeschblumm
flegge
fleggeschda
fleisch
fleisheim
fleming
flesch
flesche
fleury
fleßer
flichtling
flieche
flieder
fliegenden
fliehe
flien
fliescha
flieschel
flieschende
flieschladere
fliesd
fliessd
fliesst
fließd
fließda
fließe
fließend
fließende
fließendem
fließt
fliggedebbisch
fliggl
fliss
flo
flocourt
flomerschem
flomme
flonkierungsturm
flor
flora
florange
flori
florida
florimont
flos
flower
flu
fluchblatz
fluchd
fluchinsekte
fluchspordveroi
flucht
fluchtverhalle
flug
flughafe
flugzaisch
fluss
flussaue
fluuchbladz
fluuchhaafe
fluuchschboadvaroi
fluuchzaisch
fluuchzaischweag
fluud
fluß
flying
fo
foalewald
foam
foaschungsoaschdalde
fod
fodgedun
fodgemachd
fodgsedzd
fodo
fodos
fogende
fohr
foi
foine
fokus
fol
folche
folchende
folda
folge
folgen
folgend
folgende
folgender
folgendermaße
folgendes
folgeschburg
folkling
follower
folsch
folscha
folschd
folschdm
folsche
folschende
folschnd
folschnde
folschviller
foltz
fomo
fon
fonds
fong
fongd
fonge
fontaine
fontenelle
fonteny
fontoy
food
foolish
foot
for
forbach
force
forces
ford
forderte
forderunge
fore
forecasting
forest
forges
form
formal
formation
forme
formel
formuliad
forrest
forscha
forschd
forschdbeamde
forschdwa
forschem
forschfald
forschung
forschunge
forschungserwede
forschungssonde
forst
forster
forstfeld
fort
fortplanzungsorgane
fortschwihr
fortsetzung
forum
fosche
fossieux
foster
foto
fotogra
fotografie
fotos
foucaultsches
fouday
foulcrey
fouligny
foundation
foussemagne
foville
fox
foyer
fr
fra
fraa
fraae
frachd
frage
frai
fraibad
fraiburch
fraibursch
fraid
fraidaach
fraidach
fraie
fraies
fraiga
fraigschbroche
fraihaid
fraihaide
fraihaidsschdadue
fraii
fraij
fraija
fraiji
fraikor
fraimaura
fraind
fraindschafd
fraindschafdlische
fraindschafdsvadroch
frais
fraischdaad
fraising
fraiwillisch
fraizaid
fraizait
frameless
framing
franc
francaltroff
france
franche
francis
francisco
franck
franckfurt
franco
frangford
frangge
frangreich
frank
franka
franke
franken
frankeschda
frankfort
frankfuet
frankfurt
frankfurter
frankraich
frankreich
frankreisch
franz
franzeesich
franzeesisch
franzeesische
franzesisch
franzesische
franzesischi
franzesischie
franziskus
franzo
franzoose
franzose
franzosen
fraquelfing
frau
fraue
frauen
frauenberg
frauwe
frauwesinagog
fre
fred
free
freedman
frees
frehnige
frei
freibad
freiburg
freidag
freie
freien
freier
freies
freieschda
freiheit
freiherr
freind
freischhauer
freistroff
freitag
freiwillichi
freiwillige
freiwillisch
freiwillische
freizeit
frelsem
fremde
fremdschbrooch
fremdword
freng
frequency
fresche
freschwiller
fresge
fresgo
freske
fresnes
fresse
freund
freunde
frey
freybouse
freyming
fri
fria
fribourg
friddrichsfeld
friede
friedel
frieden
friedensgruß
friedenskirche
friedenspolidiger
friedensveadrach
friedheef
friedho
friedhof
friedhofs
friedhofsgraiz
friedhofskabell
friedhofsmauer
friedl
friedlich
friedlisch
friedrich
friedrichsdal
friedrisch
friedrischsfeld
frieer
frieh
frieha
friehe
frieher
friehere
friehgrischdlischi
friehjohr
friehling
friehre
frieja
friejer
friejohr
frier
friere
fries
friese
friesene
friesenheim
friher
frihjohr
frihling
frihroma
frija
frijare
frijari
frije
frisch
frischd
frischde
frische
frischer
frisea
friso
fritz
fro
froansesche
froanzesische
froch
frochd
froche
frocheboche
frohmi
froidefontaine
froindschafdspakd
from
frong
fronge
frongedahl
frongeraisch
frongeschda
frongford
frongfort
frongrais
frongraisch
fronke
fronkraich
fronkreich
fronkreisch
fronleichnam
fronseesische
fronsesisch
fronsesische
fronsesischi
front
fronz
fronza
fronzeesisch
fronzeesische
fronzesis
fronzesisch
fronzesische
fronzesischer
fronzesisches
fronzesischi
fronzesischschbroochische
fronzoose
fronzos
fronzose
frooch
frooche
froore
frozeesisch
fru
fruchd
frucht
fruchthall
fruucht
frz
fsm
fsv
ft
fte
ftisch
ftischde
fu
fuchdl
fuchza
fuchzee
fuchzeh
fuchzisch
fudder
fudsch
fuer
fuerboch
full
fum
fun
function
fund
fundamend
fundament
funde
fundschdigg
fung
fungdsjoniert
funk
funkmeldeempfa
funktion
funktione
funn
funne
furichhu
fusion
fusioniert
fuss
future
fuß
fußball
fußballabda
fußballclub
fußballer
fußballschbieler
fußballspieler
fußballverein
fußballveroi
fußga
fußgenem
fußgengerzoon
fußgennem
fußnode
fußnote
fv
fwg
fwv
g
ga
gaa
gaabs
gaade
gaale
gaaned
gaanedd
gaarbuerj
gaare
gaawe
gab
gabler
gabriele
gabs
gaddafi
gadde
gaddin
gaddung
gaiberg
gaiderte
gail
gailsmarik
gaischda
gaisdlische
gaishu
gaispi
gaiwene
gake
gala
galarie
galater
galaxie
gald
galerie
galileo
gallas
gallia
gallije
gallo
gambsheim
games
gandrange
ganedd
ganemme
gang
gange
gangga
ganggschdeine
ganglie
ganglion
ganix
gans
ganse
ganz
ganze
ganzen
ganzer
ganzi
gar
garaasch
garage
garagen
garagenverordnung
garandierd
garde
gardebohnekraud
gare
garfield
garland
garned
garnison
garnix
garrebourg
garten
gartenbuch
gary
gas
gaschd
gaskonnija
gass
gasse
gattung
gau
gauangelloch
gaul
gaulicha
gaulle
gauner
gavena
gavisse
gawe
gawerschwihr
gawiller
gayer
gaß
gbaide
gbar
gbaud
gbied
gbild
gbliewe
gbliwwe
gbore
gbrauchd
gbrochd
gbuddeld
gd
gda
gdaach
gde
gdeng
gdengd
gdeschdniskeasch
gdiad
gdraache
gdrache
gdraide
gdrennd
gdroffe
ge
gea
geacht
geamasche
gean
gearweidet
geb
geba
gebaad
gebabbeld
gebabbelt
gebabbld
geback
gebagge
gebaide
gebannte
gebaud
gebaude
gebaut
gebaßd
gebb
gebbd
gebbds
gebbe
gebbt
gebbts
gebd
gebds
gebet
gebied
gebiede
gebiedsreform
gebiet
gebiete
gebild
gebilded
gebildede
gebildet
gebildt
gebirdische
gebirge
gebirsch
gebirsche
gebirschszuuch
geblib
geblibb
geblieb
gebliewe
geblisch
gebliwwe
geboan
geboarene
gebode
gebohre
geboode
geboore
gebor
gebore
geborene
geboten
gebott
gebr
gebra
gebraach
gebraachd
gebraacht
gebrachd
gebracht
gebrauch
gebrauchd
gebrauche
gebraucht
gebraut
gebrennt
gebroch
gebrochd
gebroche
gebrocht
gebrode
gebrung
gebrunge
gebt
gebts
gebu
gebuad
gebuadsdaach
gebuadshaus
gebundene
gebunn
gebunnde
gebunne
geburd
geburt
gebweiler
geche
gechend
gechesatz
ged
geda
gedaaft
gedaal
gedachd
gedaild
gedailt
gedauad
gedauert
gedauscht
gedder
gedderfamilie
geddinge
geddinger
geddlische
gedeggd
gedeilt
gedengd
gedenkdafel
gedenken
gedenkschda
gedenkt
gederfd
gederft
gedicht
gedichte
gediend
gedient
gedischd
gedischde
gedischt
gedoffel
gedoffelmanne
gedra
gedraud
gedrede
gedrehd
gedreht
gedrennd
gedriggd
gedriwwe
gedroffe
geds
gedu
geduh
geduhn
geduun
gee
geed
geede
geeje
geejeiwwer
geel
geele
geema
geer
geerbsaire
geerbt
geere
geerlinge
geerndt
geerschdeschrot
geerscht
geerschte
geerung
geerwe
geerwer
gees
geesatz
geeschna
gefa
gefaa
gefahr
gefaiad
gefall
gefehrd
gefeiert
geferderd
geferdert
gefiehrt
gefiert
gefillt
gefloh
gefolgd
gefong
geformt
gefunn
gefunne
gege
gegeben
gegebenenfalls
gegeerbt
gegeewe
gegeiwwer
gegen
gegend
gegende
gegenwa
gegesadz
geghehrt
geghert
geglaabd
gegliedert
gegliggd
gegner
gegolde
gegrachd
gegriffe
gegrilld
gegrind
gegrinded
gegrindede
gegrindet
gegrindt
gegru
geguckt
geguggt
geh
geha
gehabd
gehackt
gehadd
gehaisa
gehal
gehall
gehallene
gehalt
gehalten
gehat
gehatt
gehaus
gehd
gehds
gehe
geheerd
geheere
geheert
gehefd
geheimnis
geheirad
geheirat
gehen
geherd
gehere
geheren
geherrscht
gehert
gehirn
gehn
gehne
geho
geholfe
geholt
gehorsche
gehrd
geht
gehts
geie
geig
geiger
geinsheim
geischd
geischdliche
geischt
geispolsheim
geisswa
geiswiller
gejagde
geje
gejeiwwa
gejen
gejend
gejende
gejesatz
gejeschda
gejeschdand
geka
gekaafd
gekaaft
gekehrt
gekennd
gekennt
gekickt
gekimmert
gekla
gekloppt
gekobbld
gekochd
gekocht
gekonnd
gekoschd
gekreent
gekriegt
gekroche
gela
gelade
gelaid
gelb
gelbrandka
geld
gelde
geldung
gele
gelebd
gelebt
gelee
geleet
gelege
gelegen
gelegene
gelegt
gelehnd
gelehne
geleht
geleje
gelejene
gelend
gelernt
geleschd
gelesche
geleschehaide
geleschene
gelese
gelet
gelibbde
gelisch
gell
gelle
gelleriewe
geloff
geloffe
gelongd
gelongt
geloss
gelossd
geloßd
geloßt
gelse
gelucourt
gelung
gelunge
gelupft
gelurt
gem
gema
gemaagung
gemaagunge
gemaagungsfla
gemach
gemachd
gemacht
gemagung
gemaind
gemainde
gemaindebiblothek
gemainderad
gemainderadswahl
gemainderat
gemainsame
gemajkung
gemakung
gemargung
gemarkung
gemeelde
gemeend
gemeende
gemeent
gemeind
gemeinde
gemeindefreie
gemeinden
gemeinderat
gemeinderatswahlen
gemeindereform
gemeindevorstand
gemeine
gemeingebrauches
gemeinsame
gemeinsamer
gemeld
gemen
gemeschd
gemesse
gemiedlisch
gemies
gemischde
gemischt
gemissd
gemißd
gemochd
gemoinde
gemoinderad
gemoinderot
gemoinsame
gemoinsamer
gemolt
gemu
gen
gena
genaa
genannd
genannde
genannt
genaral
genau
genaue
genauer
genaugenumme
genauso
genausoviel
genbru
genennd
genennt
general
generaldirektion
generalguwerno
generation
generell
genesis
genf
genfersee
geniale
genieße
genius
genizd
genn
gennent
genomm
genomme
genond
genonnd
genonnt
genoss
gensedreggsee
gensing
gent
gentium
genua
genuch
genudzd
genudzdi
genudzt
genumm
genumme
genutzd
genutzt
genuuch
genuzd
geo
geoasch
geografie
geografisch
geografische
geografischi
geographic
geographie
geographisch
geographische
geographischi
geography
geologie
geologisch
geologische
geologischer
geoloschie
geomedrie
geometrie
georch
georg
george
georges
georgia
georgian
georgie
georgien
georgische
geplant
geplindert
gepra
gepredichd
gepresst
geprobd
gequellde
gequellt
ger
gera
geraichert
geraubd
geraubdi
gerbe
gerd
gerding
geredd
geredt
gereeschd
gereescht
gerets
gerhard
gericht
gering
geringe
geringem
geringi
gerischd
gerischde
gerisse
geriß
germa
germain
german
germane
germanen
germania
germanisch
germanische
germanistik
germantown
germany
germersche
germersheim
germon
gern
gernot
gerolld
gerolsem
gerolsm
gersbach
gerschbach
gerschbrenz
gerschbrenzdal
gerschdorf
gertwiller
gerufe
geruht
geruuf
gerwerei
gerwereie
ges
gesa
gesaat
gesamd
gesangverein
gescha
geschaff
geschaffd
geschafft
geschbielt
geschbra
geschbroch
geschbroche
geschd
geschdann
geschde
geschdelld
geschdiege
geschdieh
geschdig
geschdommt
geschdonn
geschdorb
geschdorwe
gesche
geschede
geschedeel
geschemiddl
geschend
geschende
gescheniwwa
geschesadz
geschesaid
gescheschdigg
geschichd
geschichde
geschicht
geschichte
geschichten
geschichtliche
geschichtsbla
geschichtstra
geschichtsverein
geschichtswissenschaft
geschickt
geschisch
geschischd
geschischde
geschischdsbischa
geschitzt
geschlaache
geschlacht
geschlahne
geschlecht
geschlechter
geschlechtsreif
geschloss
geschlosse
geschmack
geschna
geschnd
geschnierenes
geschosse
geschribb
geschriwwe
geschuld
geschwa
gesedslich
gesehe
gesellen
gesellschafdliche
gesellschaft
gesellschaftlichen
gesetz
gesetzd
gesichert
gesicht
gesieh
gesindel
gesommelt
gesprengd
gesproch
gess
gesse
gestaltwandel
gesteine
gestellt
gestern
gestorb
gesture
gesundheit
gesung
gesunge
geta
getra
getraa
getrache
getraide
getreidemaisch
getrennt
getrickelt
getroffe
getu
geuzt
gevasischerung
gewa
gewaad
gewachs
gewagse
gewaih
gewaihd
gewaiht
gewaldisch
gewaldische
gewarnd
gewe
gewechselt
geween
gewehn
geweiht
gewelld
gewelwejoch
gewerbe
gewerbegebied
gewerbegebiet
gewerbepark
gewerz
gewerze
gewesd
gewese
gewesen
gewessd
gewesse
gewesst
gewest
gewidder
gewidemt
gewidmed
gewiese
gewinn
gewinna
gewinne
gewischd
gewisse
gewissi
gewisst
gewißd
gewo
gewohnt
gewolld
gewollt
geworf
geworn
geworre
geworrn
gewu
gewuhnt
gewundne
gewunn
gewunne
gewwe
gewwen
geza
gezaischd
gezehlt
gezeicht
gezindt
gezo
gezoche
gezoge
gezoo
gezooche
gezoore
gezwunge
gfa
gfahr
gfahre
gfaiad
gfaierd
gfaiert
gfaijad
gfalle
gfange
gfangene
gfangeschafd
gfeadad
gfehla
gfehld
gfeierd
gfeiert
gfengnis
gfiad
gfiehl
gfiehld
gfiehrt
gfilld
gfillde
gflochde
gflohe
gflosse
gfo
gfochd
gfoddad
gfolchd
gfoldad
gfolgt
gfolschd
gfonge
gfordad
gfrochd
gfrood
gfu
gfun
gfune
gfunne
gg
gga
gge
gger
ggisch
gglaabd
gglisch
ggschde
gha
ghaaße
ghabbd
ghabd
ghabt
ghad
ghaiad
ghaid
ghaisse
ghalde
ghalte
ghat
ghatt
ghead
gheare
gheat
ghed
gheerd
gheere
gheert
gheeße
ghehrd
gheiert
gheiße
gherd
ghere
gheren
ghert
ghet
ghetto
gho
ghogd
gholfe
gi
gib
gibbd
gibbds
gibd
gibds
gibdsn
gibfel
gibfl
gibs
gibt
gibts
gidda
giddafo
giddarischde
gieder
giederverkehr
gieshiwwlbach
gieße
giiterwaggongs
gilbert
gild
gildisch
gilschvoaschdadd
gilt
gimmeldinge
gimmldinge
gimnasije
gimnasijum
gimnasium
gimnasjum
ging
gings
ginschdisch
ginschdische
ginschdisches
giovanni
gipfel
gipfl
gipl
gippert
giromagny
giscard
gische
gisela
gits
giu
giuliani
givrycourt
giwwel
giz
gje
gkabd
gl
gla
glaa
glaab
glaabd
glaabe
glaach
glaacha
glaache
glaakimmd
glaawe
glaawen
glaawn
glabbd
glabd
glabschd
glai
glaich
glaiche
glaichgschdelld
glaichma
glaichzaidich
glaideno
glaiemol
glais
glaisch
glaische
glaischgschdelld
glaischhaid
glaischnamische
glaischung
glaischzaidisch
glaiwisch
glaiwische
glan
glance
glas
glasenberg
glashitt
glashitter
glassische
glatigny
glatt
glaube
glauwe
glawe
glawen
glead
glebd
glee
gleena
gleenare
gleene
gleeni
gleewbd
glegt
glehd
glei
gleich
gleiche
glein
gleische
gleischzeidisch
gleje
glencore
glenn
glennes
gleschd
gleschda
glich
gliche
glichen
glichkeitspru
glick
gliedad
gliedarung
gliederfu
gliederung
gliehba
gliehende
gligg
gliggsgfiehl
glima
glimalaischna
glimawondl
glimmer
glingd
glisch
glische
glise
gloai
global
globale
globalisierung
globe
globus
glock
glocke
glogg
glogge
gloggeturm
glongd
gloschda
gloschder
glu
glubb
gluck
glunge
gma
gmach
gmachd
gmacht
gmaind
gmainde
gmaindeverwaldungsverband
gmainsame
gmbh
gmc
gmeela
gmeend
gmeind
gmeinde
gmeinderot
gmeiner
gmeinschaft
gmela
gmeschd
gmesse
gmies
gmind
gmoind
gmoinde
gmol
gmolschudz
gn
gna
gnade
gnannd
gnau
gneis
gnennt
gniff
gnome
gnu
gnuch
gnudzd
gnumm
gnumme
gnungg
gnutzt
gnuzd
go
goadde
goal
goans
goch
gocha
god
godal
godd
goddes
goddesdienschd
godisch
godischa
godische
godischer
goethe
goetzenbruck
gogschwiller
goin
going
goischt
golba
gold
golde
golden
goldene
goldenem
goldener
goldenes
goldeni
goldini
goldne
goldstein
goldwa
golf
golfschdrom
gollenstein
gomelange
gondrexange
gondrom
gone
gong
gonge
gons
gonse
gonz
gonze
gonzes
gonzi
good
google
gop
gorze
goschbel
gosse
gosselming
gossens
gotische
gott
gottehu
gottes
gottesheim
gottfried
gottlieb
gottsne
gouvernehr
gov
government
gpl
gps
gr
gra
graabplatt
graad
graaichbach
graaichgau
graawe
grab
grabdeng
grabhichel
grabmal
grabpladd
grabschda
grabsta
grabstein
grad
gradaus
grade
grademol
gradi
gradiarwa
gradifikadzione
gradso
graf
grafd
grafe
grafeda
grafendahn
graff
graffenried
grafschafd
grafschaft
graifd
graife
graifswald
grais
graisaschiwa
graishaubdschdadd
graisreform
graisschdad
graiz
graizgong
graizische
graizung
graizziesch
graizzuch
gramm
grammadig
grand
grande
grandelbru
grands
grandvillars
granid
granit
granodiorit
gras
grasellebach
grasse
grasswiller
grathoff
grau
grauehafde
gravelotte
grawb
grawbbladd
grawbmeela
grawe
grawebruch
grawunge
gre
great
grebsfa
gredd
greegschd
greegschde
green
greenlond
greenung
greenwood
greesa
greesare
greeschd
greeschde
greeschder
greescht
greewa
greewe
greeß
greeßa
greeßare
greeßde
greeßer
greeßere
gregor
gregory
gregschd
gregschde
greifswald
grein
greiner
greis
gremie
grenadier
grenadiere
grendelbruch
grens
grenz
grenzd
grenze
grenzende
grenzschda
grenzt
greschd
greschde
grescht
greß
greßa
greßari
greßer
greßere
greßeri
gribbda
gribda
grickt
gridigg
gridisch
gridische
grie
griech
grieche
griechen
griechisch
griechische
griechsenn
gried
griehd
griehda
griehe
grieje
grien
griene
grienem
grieni
grienschdadd
grienschdadt
gries
griesch
griesche
grieschelond
grieschisch
grieschische
grieschsa
grieschsminischder
griese
griesheim
griet
griewe
grieweworschd
grießblumm
griff
griffe
griffin
griffsseit
grigd
grigge
griggt
grigt
grill
grimhildeschduhl
griminelle
grimm
grimmd
grin
grind
grinde
grinder
grinderzait
grindlisch
grindorff
grindt
grindung
grindungsmidglieda
grindungsreschdferdischung
grine
grinnschdadd
grinnschdadt
grinse
gris
grischbe
grischd
grischde
grischdedum
grischdlich
grischdlische
grischdus
grisdlische
grit
gro
grobb
grohn
grong
gronig
groos
grooskarlbach
grooß
grooße
grooßi
gros
grosbliederstroff
grose
grosmagny
grosne
gross
grossbrunn
grosse
grosser
grosses
grossi
grossmann
grostenquin
group
groups
groussherzogtum
grouß
grouße
groußes
groußherzogdum
groußherzogtum
groß
großbetriebe
großbridannje
großbritannie
großbritannien
großbritannje
großda
große
großen
großer
großes
großha
großherzogtum
großi
großie
großo
großschda
großvadder
gru
grub
grubb
grubbe
grube
grufd
grumbeer
grumbeere
grumbeermuseum
grumbiere
grummbeere
grund
grundbegriffe
grundgebirge
grundkabidaal
grundlaach
grundlaache
grundlach
grundlagen
grundlegende
grundleschend
grundleschende
grundmaure
grundriss
grundriß
grundsa
grundschda
grundschdigg
grundschul
grundschule
grundsedzlisch
grundsteinlegung
grundviller
grupp
gruppe
grus
gruschd
gruschel
grusselbeer
gruun
gruuß
gruuße
gruwe
gruwega
gruyter
gruß
gruße
grußi
gs
gsa
gsaad
gsaahs
gsaat
gsachd
gsamdbevelgarung
gsamde
gsamdvaschuldung
gsammeld
gsamtschul
gsang
gsangbicha
gsangbuch
gscha
gschafd
gschaffd
gschaffe
gschafft
gschaid
gschaidad
gschaiderd
gschaidi
gschbaat
gschbalde
gschberrd
gschbield
gschbielt
gschbra
gschbrengd
gschbroche
gschbrochene
gschd
gschda
gschdald
gschdalde
gschdalded
gschdaldet
gschdaldung
gschdanne
gschde
gschdeggd
gschdein
gschdeine
gschdelld
gschdellt
gschderf
gschdidzd
gschdifd
gschdift
gschdimmd
gschdische
gschdoawe
gschdobbd
gschdohle
gschdonne
gschdorf
gschdorwe
gschdribs
gschdridde
gschdrisch
gschdu
gschefd
gschehe
gscheje
gscheng
gschengd
gscherrpla
gschi
gschichd
gschichde
gschicht
gschid
gschidzd
gschiehd
gschigd
gschiggd
gschischd
gschischde
gschischt
gschischtsveroi
gschizde
gschlache
gschleschd
gschliffe
gschlosse
gschlossen
gschlossene
gschlossenes
gschmiggd
gschmisse
gschnidde
gschoss
gschosse
gschpielt
gschrie
gschriwwa
gschriwwe
gscht
gschtanne
gschwa
gschwindischkeit
gschwisder
gsedz
gsedzd
gsedze
gsehe
gseje
gsellschafd
gsellschafdlische
gsellschaft
gsengd
gsetzt
gsezd
gsicherde
gsiedeld
gsien
gsischad
gsischd
gsische
gsischerung
gsomde
gsorschd
gspielt
gsrhoinische
gstorwe
gsuch
gsuchd
gsucht
gsunde
gsundhaid
gsundhaidlische
gsundhaidsiwwazaischung
gsundheit
gsunge
gt
gu
guadeloupe
guantanamo
guardian
guayana
guck
gucke
guckt
gud
gudde
gude
guder
gudes
gudi
gue
guebenhouse
guelshardt
guenviller
guermange
guerstling
guersviller
guerting
guessling
guest
guez
gugg
guggd
guggdma
gugge
guggemussig
guggen
guggn
guggsch
guggschd
guggt
guggug
guggugg
gugguggsblumm
guggugsblumm
gugsch
gugschd
guhde
guide
guido
guinglange
guinkirchen
guinzeling
gulde
gumbertshoffe
gummer
gummerschdorf
gummeue
gummeuend
gunacht
gundach
gunderschoffe
gundersheim
gungelse
gungwiller
gunnerschem
gunohmd
gunovend
gunschtett
gunther
guntzviller
gunung
guri
gurs
guschdaf
guschdav
gut
gutachten
gute
gutenberg
gutes
guth
guthmann
gutshof
guttland
guud
guude
guudes
guudi
guverna
gwa
gwaid
gwaihd
gwasche
gweahaus
gwechseld
gwechselt
gwehlt
gwell
gwelle
gwelwe
gwerkschaft
gwesd
gwese
gwesed
gwessd
gwesst
gwest
gwinne
gwischd
gwissd
gwohnd
gwonne
gworre
gwunne
gybda
gybde
gymnasie
gymnasium
gymnasiums
gymnastik
gypte
gzaischd
gzoche
h
ha
haabdsa
haabdschdadt
haabtfunktion
haad
haadebursch
haadt
haaf
haafe
haag
haaje
haapdschda
haard
haardt
haardtrand
haarlass
haarlaß
haas
haast
hab
habakuk
habd
habe
habekost
habekostbarkeiten
haben
haberman
habitat
haboudange
habsbuasch
habsbuascha
habsburg
habsburger
habsbursch
habsburscha
habt
had
hadberg
hadd
hadda
hadde
hadder
hadderod
hads
hafd
hafe
hafeschdadt
haffmans
haftende
hageha
hagen
hagenau
hagenbach
hagene
hagg
haggai
hagondange
haguenau
hai
haid
haide
haidedirml
haidelberscha
haidelsbursch
haidelsbuursch
haidelse
haidige
haidisch
haidische
haidlba
haidlbeasch
haidlberg
haidn
haidnische
haidsche
haidwi
haidzudaach
haidzudaag
haifigschde
haifisch
hailbronn
haile
hailich
hailisch
hailische
hailischgaischdkeasch
hailischkraizschda
haillos
hailsche
hailɔ
haimersdorf
hain
hainbund
hainrisch
hairad
hairade
haisa
haisch
haise
haiselscher
haiser
haissd
hait
haitre
haiwi
haiß
haiße
hajenai
hal
halb
halba
halbbruda
halbe
halbfinal
halbinsel
hald
halde
halden
haldepungd
haldeschdell
halfra
hall
hallberjer
halle
hallebad
hallering
hallo
halo
halpern
hals
halsgrawe
halstroff
halt
halte
halwa
halwb
halwe
halwer
halwes
ham
hambach
hambacha
hambacher
hamblin
hambuesch
hamburch
hamburg
hamburger
hammer
hampont
han
hanau
hand
handbook
handbuch
handel
handelt
handicapping
handlung
handschrifde
handschrifdeanaliis
handschuheim
handwerger
handwerk
handwerker
hang
hange
hangviller
hangwiller
hann
hannah
hannes
hanni
hannl
hannocourt
hannover
hans
hansa
hanse
hansen
hanser
hansgetraub
hansgetrauwe
hanviller
happy
harald
haraucourt
harbaugh
harbor
harbus
hard
hardt
hardtbach
hardtwald
harelse
hargarten
harmonie
harold
harprich
harrde
harre
harreberg
harris
harrsch
harry
hart
hartmann
hartmut
hartworscht
hartzviller
harvard
harz
has
hase
haselbourg
haselton
hasepuhl
hasher
haspelschiedt
hass
hassiae
hat
hats
hatt
hatte
hatten
hatter
hattigny
hatzebehl
hau
haubd
haubdba
haubdboahof
haubdbohof
haubdoaschl
haubdoigong
haubdord
haubdroll
haubdsa
haubdschdadd
haubdschdadt
haubdschdrooß
haubdschiff
haubdschtadt
haubdsidz
haubdung
haubdunge
haubtschdadt
haucht
hauconcourt
haud
hauenstein
haufe
hauhald
haupt
hauptauslescher
hauptbahnhof
hauptmann
hauptquelle
hauptsa
hauptschdadt
hauptschtadt
hauptschtroß
hauptstadt
hauptstroos
haus
hause
hausen
hausgnosse
haushalde
hausmacher
hausmeschda
hausmu
haut
haute
hautfliggler
hautskellet
hautskellett
hauwe
havange
have
havel
haven
hawai
hawaii
hawe
hawen
hawende
hawense
hawensesisch
hawn
haww
hawwa
hawwe
hawwen
hawwende
hawwens
hawwense
hawwn
hawwnma
hayange
haydn
hayes
hazembourg
haß
haßloch
haßlocher
hbs
hd
hdbk
he
hea
head
heade
heag
heagerischd
heagrischd
heagschdeld
heagschdelld
health
heare
heaschdella
heaschdellung
heazgrawb
heazoch
hebra
hebschdahl
hechler
hechsd
hechsde
hecke
hecker
hed
hedd
hedda
hedden
heddense
heddesbach
heddese
heddn
hedwisch
hee
heea
heeaschbiel
heeb
heecher
heef
heefe
heegschd
heegschde
heeh
heeja
heejares
heejepungd
heem
heemkomm
heene
heer
heerd
heere
heert
heeschare
heesd
heesds
heese
heesen
heest
heestett
heewe
heeßd
heeße
heeßt
heeßts
hef
hefdisch
heflischkaidsvazerrung
heft
hegda
hegdaa
hegemonie
heggdar
hegge
heggschd
heggschde
hegschd
hegschda
hegschde
hegschdns
hegscht
hegsegraud
heh
heha
hehe
heher
hehere
heherigge
heheunnerschied
hehl
hehlegleichnis
hehlesyschdem
heid
heidelberg
heidelberger
heidelberjer
heidelberscha
heidelsburch
heider
heidich
heidiche
heidisch
heidische
heidlberg
heidlberjer
heieck
height
heilbronn
heilich
heiliche
heilig
heilige
heiligen
heiligenberg
heiligenstein
heiligensten
heiligkreuzsteinach
heilikriz
heilisch
heilische
heilischkreizschda
heilkra
heilkraud
heim
heimadmuseum
heimat
heimatbuch
heimatdischder
heimatkalender
heimatmuseum
heimkehr
heineken
heiner
heining
heinrich
heinrichs
heinrisch
heint
heinz
heirade
heiser
heit
heitere
heiteres
heitische
heißen
heja
hejare
hektar
hel
held
helderschberg
helen
helf
helfd
helfe
helfer
helfrich
helft
helium
heljestain
hell
helle
hellebari
helleborus
heller
hellerboch
hellering
helles
hellese
hellgrau
hellimer
hellinger
helmholds
helmschd
helmut
help
helsinki
helstroff
hembach
hemisch
hemm
hemma
hemsbach
hemschbach
hemschprung
hemshof
hen
hend
henderson
hendese
hendse
henga
hengd
henggel
hengsberg
hengschberch
hengschdbach
henn
henri
henridorff
henriette
henriville
henry
hens
hense
hensel
hensn
heppene
heppenheim
hepprum
her
heracleum
herausforderung
herausgeber
herausgehobb
herausrachend
herb
herberger
herbert
herbschd
herbscht
herbse
herbst
herbstzeitlose
herchheimer
hercules
herd
herde
herdt
here
heren
herende
herero
hergenummener
hergeschdellt
hergschdelld
hergschdellt
hering
herische
herkummt
herkunfd
herkunft
herkunftsbezeischnung
herma
herman
hermann
hermanns
hermannsha
hermelange
hermerschberch
hermerschwiller
hermeschbeier
hermeschberg
hernieder
herny
herodes
herr
herre
herren
herrgott
herrlese
herrlisheim
herrmann
herrn
herrnsheim
herrschafd
herrschaft
herrschd
herrsche
herrscher
herrschfla
herschdeller
herschdellung
herschhorn
hershey
herstelle
herstellung
hert
hertzing
herum
hervor
hervorbringe
hervorga
hervorgange
herxe
herxem
herxemer
herxm
herz
herzchen
herzdrobbe
herze
herzegowina
herzen
herzepitaph
herzoch
herzochdum
herzochschloss
herzochtum
herzog
herzum
herzuschdelle
hesd
hesekiel
hesperis
hess
hessd
hesse
hesseegg
hessen
hessenheim
hessisch
hessische
hessischen
hessischer
hessisches
hestroff
het
hetschboch
hett
hettange
hette
hetteschla
hetzbach
heuristics
heute
hewwe
hewwel
hex
heyl
heylsche
heylshof
heyscht
heßd
heßt
hg
hgeschichtlichen
hgs
hhof
hi
hia
hibbelschboch
hichel
hidde
hiddla
hie
hiechl
hiechllond
hiefahre
hieg
hiegella
hiegericht
hiegschdeld
hiegschdelld
hiegschmiß
hien
hier
hierarchical
hieschmeiße
hieunhea
hieß
higher
higkeit
hiischigge
hilbesheim
hildebrand
hildegaad
hilf
hilfe
hilfraisch
hilfs
hilfsb
hilft
hill
hillary
hilschbach
hilschbachdal
hilseha
hilsenheim
hilsprich
him
himalaya
himba
himmel
himmelslieder
himml
himmler
himmlische
himself
hin
hinaus
hinckange
hindenburg
hindisheim
hindsight
hinduismus
hingelsbix
hingesche
hinggl
hinkel
hinna
hinnaburg
hinnagrund
hinnam
hinnare
hinne
hinnedro
hinner
hinnerdarm
hinnere
hinnergrund
hinnerher
hinnerleib
hinnerm
hinnernis
hinnerpa
hinnersta
hinsi
hinter
hinzu
hiob
hip
hipothese
hipsheim
hirde
hirn
hiroshi
hirsch
hirschhorn
his
hisch
hischdoarische
hischdoarisches
hischdoorische
hischdoriker
hischdorisch
hischdorische
hischdorisches
hischkaid
hischkaide
hisdoriga
hisdorisch
hisdorische
histoire
historian
historians
historie
historique
historisch
historische
historischen
historischer
historisches
history
hitler
hitred
hitz
hitzkopp
hiwwe
hje
hka
hl
hla
hlau
hlba
hlbach
hlbi
hld
hlde
hle
hlen
hler
hlergemeinschaft
hlich
hliche
hling
hlinge
hlisch
hlische
hlt
hlte
hlung
hlunge
hlungen
hlwi
hm
hmaschine
hme
hmer
hmicht
hmte
hmten
hn
hna
hnd
hnde
hnder
hne
hnel
hnen
hner
hnhof
hnlich
hnliche
hnlicher
hnlisch
hnlischa
hnlische
hnlisches
hnlischi
hnlischkaid
hnschdens
hnt
hnte
hnung
hnunge
ho
hoa
hobbs
hobby
hoboken
hoch
hocha
hochaldaa
hochaldar
hochalemannisch
hochdaidsch
hochdaidsche
hochdaitsch
hochdaitsche
hochdeidsch
hochdeidsche
hochdeitsch
hochdeitsche
hochdeutschen
hoche
hoches
hochezolla
hochfahre
hochfla
hochgeba
hochgebirge
hochgschdaad
hochi
hochkant
hochmiddelalder
hochschbaija
hochschdifd
hochschdift
hochschul
hochschuul
hochstette
hochterrass
hochwa
hochwassa
hochwasser
hock
hockt
hod
hoda
hodd
hodda
hoddas
hoddde
hodde
hodder
hoddi
hoddma
hoddmade
hoddman
hoddmas
hoddmase
hoddmol
hoddn
hoddon
hodds
hoddsde
hoddse
hoddsisch
hoddsn
hode
hodel
hodm
hodma
hodn
hods
hodse
hodsn
hoe
hof
hofdaach
hoffe
hoffenheim
hoffmann
hoffnung
hofgrubb
hoggd
hogge
hoggemer
hoggene
hohatzenheim
hohe
hoheburch
hoheburg
hohen
hohenstein
hoheslied
hohezollan
hohezollern
hohgeft
hohi
hohl
hohle
hohrod
hohwiesesee
hoi
hoimatmuseum
hoinrich
hoinrisch
hoit
hol
holacourt
hole
holiday
holla
holland
hollande
holle
holler
hollerbusch
holling
hollywood
holmes
holschda
holstein
holtzmann
holunder
holunderbeere
holving
holz
holzbalge
holzdegg
holze
holzfachwerg
holzgaraasch
holzmaagd
holzrad
hombach
hombourg
homburch
homburg
hombursch
home
homepa
homepage
homepeidsch
homer
hominem
hommarting
hommert
hon
hond
hondbuch
hondel
hondeld
hondl
hondle
hondln
hondlung
hondlunge
hondschrifde
hondwerk
hong
honn
honors
hons
honseschdadt
honskirch
hooch
hoor
hoowa
hop
hopfe
hopkins
hopp
hoppe
hoppen
hor
horch
hordfund
horeb
horizond
horizondale
horn
hornbach
hornbacher
horns
hornung
hors
horsch
horsche
horst
hortensis
horwrig
hosch
hoschd
hoschde
hoscht
hosea
hoste
hostie
hot
hotel
hots
hott
hotter
hottviller
houche
houghton
houmpa
houmpeidsch
hous
house
hove
how
howwl
hp
hr
hrd
hrde
hre
hren
hrend
hrendde
hrenddesse
hrende
hrendem
hrenfrei
hrer
hrerschein
hrerscheinfoto
hrhunnerd
hrich
hriche
hriches
hrige
hrigen
hring
hrisch
hrische
hrischer
hrisches
hrischi
hrlich
hrlisch
hrmann
hrnd
hrr
hrsche
hrsg
hrstoffe
hrt
hrung
hschde
ht
htm
html
http
https
hu
hubbelische
huber
hubert
hubris
huchenodde
huchi
hucho
huck
hud
hudson
hufaise
huffalde
hugo
huhfra
hultehouse
human
humanisdische
humanities
humba
humborch
humborjer
humburg
hummel
humor
humoresge
humoreske
humoresken
hun
hunawihr
hund
hundling
hundsangen
hundsbe
hunga
hunge
hunger
hunna
hunnad
hunnderd
hunne
hunnerd
hunnert
hunnertfuchzich
hunschpa
hunsrick
hunsrickisch
hunsrigg
hunsriggisch
hunsriggische
hunsrik
hunsru
hunter
hunting
hurrikan
hurtful
hus
huschderheh
huschterheh
husseren
hussong
husterhoeh
hutz
hutzel
hutzle
huud
huuscht
hußmoug
hw
hyacinthus
hymenoptera
hymne
hynkel
hypericum
i
ia
iam
ian
iane
iare
iba
ibanez
ibero
ibigny
iblumm
iblumme
ibrische
ice
ich
ichtratzheim
id
ida
idalie
idalienisch
idalije
idalje
idaljener
idaljenisch
idaljenische
idallja
idder
ide
ideal
ideale
idee
ideen
ideje
idendisch
identity
ideologie
ideschiff
idiotikon
ids
idsch
ie
ieblisch
iebse
iedene
iedorf
iep
ier
ierer
iewene
iewl
if
iford
ifra
ig
igezorene
iggelheim
igglem
ignaz
ignoierd
ignorance
ignorantiam
ignoriad
ignorierd
ignoriere
igor
ih
ihesse
ihm
ihn
ihne
ihnen
ihr
ihra
ihre
ihrem
ihren
ihrer
ihrerer
ihrm
ihrn
ihrne
ii
iia
iiane
iii
iirschnd
ijan
ijane
ijob
ik
ikea
ilias
illange
illias
illinois
illkirch
illuschdrazione
illusion
illusionist
illusions
illusory
illustrationen
ilse
ilvese
ilwedritsche
ilwese
ilwesemer
im
ima
image
imaging
imberadiw
imberialismus
imes
iminz
imling
imm
imma
immahie
imme
immer
immerhi
immerhie
immermehr
immernoch
imne
impact
imperium
imporde
improvement
improvisator
ims
in
ina
inaccurate
inc
include
increment
ind
inda
indaned
indanedd
indanedduffdridd
indaneduffdridd
indaresse
inde
indegriad
indegrierde
indem
indema
indemm
indemma
indemse
indensiv
independent
inder
indernadsionale
indernazionale
indernazjonale
inderned
indernedseide
indernet
indernetpra
indernetsaide
indernetuffdritt
index
indiana
indie
indioner
individual
individuals
individuelle
indizije
indogermanisch
indogermanische
indogermanischer
indonesie
indonesischi
indoschinakolonie
indresa
indressa
indresse
indressiad
indressiert
indruck
indus
induschdrialisiarung
induschdrialisierung
induschdrie
induschdrielle
induschtrialisierung
industry
ine
inem
inernadsional
infantrischt
infinidiv
infladsion
inflata
influence
info
infoamadzione
infoamazione
infoamzione
informadsione
informadsjone
information
informatione
informationen
informationsausdausch
informationsausdausches
informazijone
informazione
informazionssischdem
informaziunssyschdem
informazjone
informierd
infraschdrugdur
infraschdruggdur
infraschtrukdur
infraschtruktur
infrastruktur
ing
inga
ingebrung
ingeda
ingefiehrt
ingema
ingemeend
ingenieur
ingenumm
ingerichd
ingeweecht
ingeweiht
ingfalle
ingfiad
inghold
inglange
inglusiv
ingobert
ingolschdedda
ingong
ingrid
ingwiller
inhald
inhalde
inhaldlisch
inhaldlische
inhaldsverzeischnis
inhalt
inhaltsverzeichnis
inkl
inklusive
inkomme
inkrais
inmarschiert
inmidde
inn
inna
innahalb
innaned
innare
inne
innem
inneminischderium
inneminischter
innen
inner
innere
innerhalb
inneschdadd
inneschdadt
inngenomm
innovation
innre
innreiwe
inns
innwa
innweihung
innwohner
inrem
inrichdung
ins
insbesondere
insbesonnere
inschdiduzion
inschdrumend
inschrifd
inschrifde
insekde
insekt
insekte
insel
inseln
insgesamd
insgesomt
insgsamd
insgsamt
insgsomd
insider
insl
insle
insming
instagram
instinkte
institut
institute
instituto
insults
insviller
intas
inte
integrierdi
intelligent
intensive
intentions
interessonde
interimstra
internacional
international
internationale
internet
internetpra
interni
internierungslager
interpretation
intersputnik
intervenzione
interview
into
intresse
introduction
intrudiert
invasion
inventor
invulnerability
inwohna
inwohner
inwohnerentwicklung
inwohnergrenz
inwohnerzahl
inzelna
inzuuch
inzwische
ios
ip
ipa
iphone
ippling
ir
irak
iran
iranische
irdische
ire
irenetuam
irgendwa
iris
irisch
irische
irla
irland
irlond
iro
iroba
ironic
iropa
irrd
irre
irrefiehrend
irrtum
irschend
irschendwie
irschendwonn
irschnd
irving
is
isa
isaias
isar
isbn
isch
ischa
ischboch
ischd
ischdambul
ischde
ische
ischemussig
ischen
ischer
isches
ischma
ischn
ischs
ischse
ischsn
ischterze
isde
ise
isenach
ises
isla
islam
island
islond
ism
isn
isoglosse
isolierde
ispi
israel
israelidische
iss
issa
issch
isse
issehu
issen
isser
isses
issm
issn
issue
issues
ist
istanbul
iswiller
it
ital
italiana
italie
italien
iteba
its
ittene
itterschwiller
iudicium
iv
ivan
iwa
iwabligg
iwade
iwagong
iwam
iwanumme
iwe
iwer
iwil
iwiller
iwriche
iwrischens
iwuhner
iwuhnerzahle
iwwa
iwwaall
iwwablaibsl
iwwabligg
iwwabriefung
iwwade
iwwadraiwunge
iwwafall
iwwafalle
iwwafillde
iwwaga
iwwageje
iwwagong
iwwagonge
iwwahaabd
iwwahaubd
iwwaleewe
iwwaleje
iwwalesche
iwwaleschunge
iwwaliefad
iwwam
iwwan
iwwana
iwwanachdung
iwwanachdungsbdriewb
iwwanemme
iwwanumm
iwwanumme
iwwaoischdimmd
iwwaraal
iwwarall
iwwareschd
iwwarisch
iwwarische
iwwarischens
iwwas
iwwaschdeje
iwwaschdonne
iwwaschedze
iwwaschedzn
iwwasedzd
iwwasedzunge
iwwasee
iwwasetzt
iwwazaischd
iwwazaische
iwwazaischung
iwwazaischunge
iwwe
iwwee
iwwer
iwweraal
iwweral
iwwerall
iwwerarwaide
iwwerbaut
iwwerdeckt
iwwerdraa
iwwerdraare
iwwerenanner
iwwerflissiche
iwwerga
iwwergang
iwwergange
iwwergehd
iwwergewwe
iwwergong
iwwerhaubd
iwwerhaupt
iwwerhold
iwwerig
iwwerischens
iwwerlebd
iwwerlifert
iwwerlifferde
iwwerliffert
iwwerloss
iwwerm
iwwernahm
iwwernemme
iwwernimmd
iwwernomme
iwwernumm
iwwernumme
iwwerprieft
iwwerquert
iwwerregional
iwwerreschde
iwwers
iwwersedzung
iwwersetzt
iwwersetzung
iwwerwa
iwwerwacht
iwwerwald
iwwerwaldba
iwwerwiechend
iwwerwiege
iwwerwiegend
iwwhaubd
iwwlisch
iwwlischawais
iwwlische
iwwlischerweis
iwwrich
iwwriche
iwwrisch
iwwrische
iwwrischens
ix
ixem
iz
ize
iß
j
ja
jaahunad
jaahunnad
jabaaner
jachd
jachde
jachdhaafe
jachdschloss
jack
jackie
jacob
jacobs
jacobus
jacques
jagd
jahhunad
jahhunnad
jahhunnnad
jahr
jahrbuch
jahre
jahren
jahres
jahrestagung
jahrfeier
jahrhundert
jahrhunderts
jahrhunert
jahrhunnerd
jahrhunnert
jahunad
jahunnad
jahunnerd
jakob
jakobusbrief
jallaucourt
jamaica
jamaika
jamais
james
jan
jana
janar
janua
januar
januwa
jap
japa
japan
japaner
japanische
japon
jara
jare
jared
jason
jawohl
jazehnde
jazz
je
jean
jed
jeda
jedare
jede
jedem
jeden
jedenfalls
jeder
jedere
jedes
jedi
jedm
jedn
jednfalls
jedoch
jeds
jedz
jedzad
jedzd
jedzische
jeed
jeeda
jeede
jeednfalls
jemand
jemmand
jemond
jemondem
jemonden
jena
jenna
jennifer
jens
jensen
jer
jeremia
jeremias
jerenfalls
jeres
jeri
jersey
jerusala
jerusalem
jesaja
jesp
jessica
jester
jesu
jesuidde
jesus
jetterschwiller
jettinge
jettingen
jetz
jetzad
jetzat
jetzd
jetzert
jetzischa
jetzische
jetzt
jeune
jevons
jewailisch
jewailische
jewails
jeweilige
jeweils
jewwails
jezad
jezd
jg
jge
jh
ji
jiddisch
jiddische
jiddischer
jiddischi
jidisch
jidische
jidischi
jiedische
jiedischi
jiidisch
jiidischa
jiidische
jim
jimmy
jinga
jingare
jinger
jingere
jingerer
jingschd
jingschde
jl
jo
joa
joachim
joah
joahrhunnadd
joahuna
joahunad
joahunnad
joahunnade
joahunnerd
joar
joare
job
joch
jockgrim
joe
joel
joha
johann
johannes
johannesschdrooß
johannishof
johanniska
johansson
john
johns
johnson
johonn
johonnes
johr
johre
johrelang
johresniederschlach
johresumsadz
johreszahl
johreszahle
johreszaitliche
johrhundert
johrhunnad
johrhunnat
johrhunnderd
johrhunnerd
johrhunnerde
johrhunnerdelong
johrhunnert
johrzehnde
jomond
jona
jonah
jonas
jonathan
joncherey
jones
jonuar
jooa
joor
joore
joorhunnad
jor
jordan
jordanie
jorge
jose
josef
josefskea
josefskeasch
joseph
josephskirche
josephus
joshua
jost
josua
journal
journalism
jouy
jov
joy
jpeg
jpg
jr
js
jsch
jstor
ju
jubila
jubileum
juchend
juchendlische
jud
judaica
judas
judd
judde
juddedum
juddefriedhof
juddega
juddehaß
juddehof
juddeva
jude
judehof
juden
judenhof
judgement
judgment
judgments
judit
judy
juga
jugend
jugendschdil
jugendtreff
jugoslawie
juley
juli
julian
juliana
juliane
julie
julien
julius
juliwocheend
julli
july
june
jung
jungbusch
junge
junger
jungfra
jungholz
jungi
jungschda
jungschdoinzaid
juni
juniore
junker
junnersinke
jupiter
jura
jure
jurischde
jurra
jury
juschdizminischderium
jussy
just
justify
justin
juude
juvelize
juville
k
ka
kaad
kaade
kaadinal
kaaf
kaafd
kaafe
kaafen
kaal
kaalsruh
kaam
kabaredischd
kabarett
kabbaredischt
kabbes
kabd
kabedinga
kabee
kabell
kabelle
kabellmeeschda
kabelsender
kabiad
kabida
kabon
kabs
kabudd
kabudnes
kabutt
kabuzinaplonke
kadalanische
kadalog
kadd
kaddoligge
kaddolike
kaddolisch
kaddolische
kadegorie
kadholisch
kadinaal
kadinal
kadohlische
kadolige
kadoligge
kadolik
kadolike
kadolisch
kadolische
kadolischi
kadollisch
kadoolische
kafd
kafe
kafem
kaffee
kafreidag
kahneman
kai
kaiber
kaifa
kaimzell
kairo
kaisa
kaisadum
kaisadumm
kaisagrewa
kaisagrohn
kaisapalz
kaisarais
kaisaraisch
kaisarin
kaisasaal
kaiser
kaiserdom
kaiserliche
kaiserlicher
kaiserlische
kaiserschbarig
kaiserschduhl
kaiserslautern
kaiserslautre
kaisertum
kakadu
kal
kalbfla
kald
kalde
kalender
kalenna
kalhausen
kalifornie
kalifornien
kalifornje
kaliningrad
kalk
kalkar
kalkda
kalkmillich
kalkschda
kall
kalli
kallschdadt
kallsruh
kallsruher
kalmid
kalmit
kalsberch
kaltblut
kalte
kam
kambodscha
kame
kamen
kameras
kamerun
kamin
kamm
kamma
kammer
kampf
kana
kanada
kanal
kandel
kandidaade
kandidadur
kandidiert
kandon
kanfen
kann
kannel
kanns
kannschd
kannsche
kanonosiad
kanton
kantone
kanzler
kap
kapell
kapelle
kapiduliert
kapita
kapitel
kapitol
kapp
kappelkinger
kappenstein
kappes
kapsweyer
kaputt
kara
karagder
karangasem
karch
kard
karde
kardina
kardolisch
karen
karfreida
karibik
karl
karlbach
karllsruh
karlsruh
karlsruhe
karlsruher
karneval
karnewal
karoline
karotte
karria
karriere
karrillon
karschbach
kart
karte
karthago
kartoffel
kasachsdan
kaschde
kaschdell
kaschdilie
kasern
kaserne
kass
kassel
kassiad
kassl
kastanien
kat
katalog
katanga
katar
kataschdtrophenhilf
katastrophe
katastrophen
kate
kategorie
katharina
katholike
katholisch
katholische
katholischen
katholisches
katholischi
katt
katze
katzeberscha
katzebuggl
katzenberger
katzenbergers
katzers
kaub
kauf
kauflaid
kaufmann
kaukasisch
kaukasische
kaukasus
kaum
kaysersberg
kb
kc
ke
kea
keach
kead
kean
keanschdad
kearen
keasch
keasche
keazare
kebabbel
keddigkeit
kee
keegan
keen
keener
keenich
keenichin
keenichlisch
keenichraisch
keenichreich
keenichsdum
keenig
keenigin
keenigraisch
keenisch
keenischraisch
keenischs
keenischsbach
keenschin
keerd
keersch
kees
keese
keffena
kefferdal
kehl
kehrd
kehre
kehrer
kehrt
keilformation
keime
kein
keine
keith
kelde
keldisch
keldische
keldischer
kella
keller
kellerbier
kellerei
kellyanne
keln
kelna
kelten
keltische
kelvin
kemal
kemplich
ken
kend
kenich
kenichlich
keniglische
kenigreich
kenisch
kenischdochda
kenische
kenischraisch
kenischsbladds
kenn
kennd
kennde
kenndma
kenne
kennedy
kennen
kennens
kenner
kennt
kennzaiche
kennzaische
kennzeische
kent
kenzaischnd
kepp
kerb
kerbach
kerbber
kerch
kerche
kerchel
kerd
keren
kerl
kerling
kern
kernbereich
kernel
kerner
kerns
kernschdadt
kerper
kerprich
kerrbrich
kersch
kersche
kerschlisch
kert
kerwe
kerwedanz
kerweredd
kerweruf
kerweschtrauß
kerwewa
kerzere
kerzfald
keschde
keschdeba
keschdebaam
keschdebersch
keschdebliede
keschdebursch
keschdegemies
keschdeweg
keschdewesch
keschteholz
kessel
kesseldorf
kessler
ketsch
ketscha
ketscher
kettrichhof
ketzige
kevin
key
kfz
kg
kgb
kha
khad
khalde
khanh
khinalug
ki
kib
kich
kickers
kids
kiefer
kiefere
kieffer
kieh
kiel
kielere
kiene
kiere
kierer
kies
kihle
kihlung
kilian
killaphrase
killerphrasen
killomeda
kilomeda
kilomeder
kilomeeda
kilometer
kim
kimmd
kimmel
kimmere
kimml
kimmschd
kimmschde
kimmt
kind
kinda
kinder
kinderstu
kindheid
kindlein
king
kinn
kinna
kinnakraizzuch
kinne
kinnen
kinner
kinnerga
kinnergaade
kinnergadde
kinnerschul
kinnerschule
kinnersprich
kinnrem
kinofilm
kinschdla
kinschdler
kiosk
kip
kirb
kirbrich
kirch
kirchberg
kirche
kirchen
kirchengeba
kirchengeschichte
kirchheim
kirchturm
kirrberg
kirrmaier
kirsch
kirschbromisch
kirsche
kirschnaumen
kirviller
kisch
kischd
kischde
kischdeewene
kisd
kisde
kislau
kissel
kl
kla
klaa
klaabd
klaache
klabd
klagelieder
klaidung
klaingeft
klammare
klang
klar
klara
klasing
klass
klasse
klasseerhald
klassik
klassiker
klassizismus
klaus
klavier
klee
kleeburi
kleena
kleene
kleeni
kleenie
kleije
klein
kleine
kleinen
kleines
klene
klenere
klenne
klennere
kleschder
kleve
klewerla
kliema
kliewer
kliima
klima
klimatabell
klimatabelle
klimazoon
klimba
klinge
klingmann
klingt
klisch
kloine
kloiner
kloppe
kloschda
kloschder
kloschderka
kloster
klosterkirche
klotz
klouschder
klub
klughardt
klumbe
km
kmc
kmg
kna
knabb
knabenkraut
knapp
knehrige
knersche
knesebeck
knie
knobloch
knoche
knoddel
knode
knolle
knoschbe
know
knowledge
known
knows
knutange
ko
koa
koalitionskrieche
koan
koann
koaz
koaze
koazi
kobb
kobie
koblenz
kobukson
koch
kochbuch
kochd
koche
kocherbach
kochere
kochern
kochersberg
kocherthal
kocherthaler
kocherthalern
kocherthals
kocht
kodex
koehler
kognitionen
kognitive
kognitiven
kohelet
kohl
kohle
kohlesaire
kohlhammer
koi
koiene
koin
koischboch
kolbse
kolbsheim
kold
kolfe
kolleg
kollerinsel
kollersee
kollesche
kolonie
koloniee
kolonischde
kolosser
kolumbie
kom
kombass
kombaß
kombination
kombla
kombledd
kombonende
komboniert
kombonischd
kombonischde
kombonischt
kombromiss
komedibrais
komm
komma
kommandand
kommando
kommas
komme
kommend
kommendaa
kommendiad
kommer
kommersbuch
kommerzielle
kommisar
kommissar
kommission
kommre
kommt
kommun
kommunale
kommunalrechd
kommunalvaband
kommunalwahl
kommunalwahle
kommunikation
kommunikazionswisseschafdlarin
kommunischde
kommunisdische
kommwis
kompiliere
komplett
komplex
komponje
kond
kondaggd
konde
kondexschd
kondinend
kondinendale
kondinende
kondinent
kondo
kondroll
kondrolldaischung
kondrollgrubb
kondrolliere
konfarenz
konfession
konfessione
konfessionelle
konfessionslos
konfligd
kongo
kongra
kongress
kongreß
kongurrenz
konkoadaad
konkordad
konkurrenz
konn
konna
konnd
konnde
konns
konnsch
konnschd
konnse
konnt
konnte
konrad
konschdidudsionell
konschdrugzion
konschdruierd
konschdruierde
konsequende
konsequenze
konseqwense
konsischdendes
konsol
konsonand
konsonande
konsonante
konstantin
konstantinopel
konsul
konsuldadzione
konsuln
konsum
kont
kontakt
kontext
kontz
konveasionsfall
konverdidde
konversationslexikon
konza
konzebd
konzept
konzepte
konzerd
konzerde
konzern
kopf
kopfbedeckung
kopie
kopilod
kopp
korb
korbmacherai
korea
koreanische
korinther
korke
korn
korregd
korsika
kortelshitt
korz
korza
korze
korzem
korzes
korzfilm
korzgschischde
koschd
koschde
koschdegrind
koselleck
kosmisch
kosovo
kosswiller
kourtzerode
koz
kozdeno
kozi
kozz
kpd
kra
kraatz
krabb
krach
krafd
kraft
kraftposchd
kraichgau
kraichgaumundart
krais
kraischbach
kraischd
kraischgau
kraisdaach
kraisfraie
kraisfraii
kraisschdadt
kraiszahl
kraitche
kraiz
kraiznach
kraizzuch
kran
krane
kranich
krappere
krasnodar
kraud
kraus
kraut
krautergersheim
kreadive
kreatu
kreene
kreenung
krehberg
kreirisch
kreirischer
kreis
kreisbeschreibung
kreisbeschreibungen
kreise
kreisel
kreisen
kreisfreie
kreisfreien
kreisverband
kreiz
kreizschda
kreizunge
kreuz
kreuzfahrt
kridisch
kridisierd
krie
kriech
krieche
kriechsende
kriechsphilosophie
kriecht
kried
krieg
kriegd
kriege
krieger
krieges
kriegsheim
kriegt
kriehd
krieht
kriejse
kriemhildenstuhl
krien
kries
kriesch
kriesem
kriet
krigge
kriggebach
krije
krim
krimi
kriminalhauptkommissar
kriminalida
kriminelle
krimis
kringle
kris
krischd
krischdalle
krischdalline
krischdalliner
krischdlische
krische
krischen
krischer
krise
kristen
krit
kritiker
kritischer
kro
kroad
kroade
kroadsie
kroatie
kron
krong
krongehaisa
krongehaus
kropsburch
kru
kruger
ksc
kschte
ksische
kt
ku
kua
kuafa
kuapa
kuapals
kuapalz
kuba
kubba
kubber
kubfa
kuckusba
kudder
kuhschnappel
kuhunda
kuhundasee
kuld
kuldivierd
kuldschda
kuldua
kulduadeng
kulduaschock
kuldur
kuldurdenkma
kuldure
kuldurelle
kuldurelles
kuldurveroi
kuldurzentrum
kulinaria
kultur
kulturdenkma
kulturelles
kumd
kumm
kummd
kummdma
kummds
kumme
kummen
kummn
kummschd
kummt
kummunalwahl
kunde
kunnd
kunne
kunrad
kunschd
kunschdweg
kunschdwerge
kunschdwerk
kunscht
kunst
kunstdenkma
kuntzig
kunz
kur
kuran
kurfa
kurferschd
kurferschdedum
kurfirschd
kurfirscht
kurfu
kurie
kurier
kurmoinz
kuro
kurosawa
kurosawas
kurpa
kurpalz
kurpfa
kurpfalz
kurs
kurse
kurt
kurv
kurwu
kurz
kurze
kurzehu
kurzel
kurzkrimi
kusel
kuster
kutzehu
kutztown
kwa
kwadrad
kwelle
kyrillisch
kz
kzs
kœnigsmacker
l
la
laab
laach
laacha
laache
laade
laaf
laafd
laafe
laafsch
laaft
laag
laale
laare
lab
labaroche
labbedascherhof
labels
labor
lac
lach
lacha
lachambre
lachapelle
lachd
lache
lachen
lacollonge
lacroix
lacs
lad
lada
ladain
ladainisch
ladainische
ladainseeschl
ladde
lade
ladeberg
ladeinisch
ladeinische
laden
ladern
ladoin
ladoinische
ladoinschul
lady
lafrimbolle
lag
lagarde
lage
lagerschda
lagis
lagrange
lahn
lai
laib
laichd
laichehall
laicht
laid
laida
laide
laider
laiderschwiller
laidung
laie
laihd
laije
laila
laimba
laimbach
laininga
laininge
laininger
laischd
laischda
laischde
laischdung
laischdunge
laischehall
laischna
laischnd
laischne
lait
lajer
lamadeleine
lambach
lambadm
lambda
lambdazismus
lambiek
lambrecht
lambschbachdal
lameli
lampedusa
lampertheim
lancaster
land
landa
landaach
landach
landange
landau
landbier
lande
landes
landesamt
landesbibliothek
landesgschischdliche
landeshohaid
landeskunde
landeskundliche
landeswahlleiter
landfraue
landgra
landgraf
landgrais
landgu
landjuchnd
landkaad
landkra
landkrais
landkreis
landkreise
landkreises
landrad
landroff
landsberg
landschade
landschafd
landschafde
landschaft
landschaften
landschaftsschutzgebiet
landstuhl
landtag
landwa
landwehr
landwerdschafdlisch
landwerdschaft
landwirdschafdlich
landwirtschaft
landwirtschaftlich
landwirtschaftliche
lane
laneuveville
lang
langatte
langd
lange
langebromisch
langen
langer
langhaus
langi
langsam
langsamfahrsingnale
language
languages
languimberg
laning
laos
lapoutroie
laquenexy
larivie
larry
lars
larv
larve
lasse
lassen
lasst
last
lat
latein
lateinisch
lateinische
latte
lauba
laubach
laud
lauda
laudabursch
laudare
laude
laudebach
laudeburich
lauder
laudere
laudet
laudre
laudrefang
laue
lauf
laumesfeld
laun
launstroff
laura
laurent
laurentius
laurenzius
laurenziuskabell
laut
laute
lauter
lautre
lautrer
lavoisier
law
lawrence
laws
lawson
laxbach
layme
laze
laßt
lba
lbe
lbm
lbrijjel
lburi
lccn
lch
lche
ld
lda
ldan
ldare
lde
ldem
ldene
lder
ldere
lderi
lderische
lderschba
ldersche
ldesch
ldeschd
ldeschde
ldgreeschd
ldgriech
ldighofe
ldisch
ldische
ldlisch
ldnis
ldnisma
ldnisse
ldniswahl
ldorf
ldschd
ldschde
ldstai
ldung
ldwi
le
lea
leaders
leads
league
leanna
learned
learning
least
leb
lebach
lebd
lebe
leben
lebensmittel
lebetain
lebius
lebt
lech
leda
ledder
leder
lediglisch
ledsch
ledschd
ledschdare
ledschde
ledschdes
ledschdi
ledschte
ledzdlisch
lee
leeb
leed
leer
leerbischa
leere
leesa
leesche
leese
leesung
leet
leewa
leewe
leewende
leewnsmiddl
leeß
leffl
left
legacybrands
legale
legend
legenda
legende
legt
lehe
lehm
lehmann
lehn
lehr
lehra
lehre
lehrer
leht
leibeichene
leicht
leid
leida
leider
leidershause
leidung
leie
leiende
leimbach
leimen
leimheim
lein
leiningen
leipzig
leis
leischd
leischde
leischt
leischtad
leise
leit
leithengscht
lejzer
lela
lellebollem
lelling
lemba
lembe
lembeh
lemberch
lembercher
lemberg
lemma
lemoncourt
lemud
lemy
len
lena
lenda
leng
lengelsheim
lengschd
lenis
lenisierung
lenna
lenor
lent
leo
leon
leonard
leonhard
leopold
lepidium
lepuix
ler
lern
lernd
lerne
lerrer
les
lesa
leschd
leschde
lesche
leschion
lese
lesebuch
leseprobe
leser
lesse
lessy
lest
lesung
lesunge
letschde
letscht
letschte
lettlond
letzte
letzten
leut
leval
level
leverkuse
levitikus
levoncourt
lewe
lewende
lewensraum
leweschda
lewwe
lewwer
lewwerwerscht
lewwerworschd
lewwerworscht
lewwewese
lexikon
ley
leyman
leyviller
lez
lezey
lf
lfd
lfde
lfe
lfi
lfiesler
lfprophetenbuch
lft
lga
lgara
lgelse
lgerung
lhausen
lhor
lhu
li
liar
liard
liars
libanon
libelle
liberte
library
libschde
libye
licenses
licensing
licha
lichd
lichdeschda
lichen
licht
lichteberch
lichtenberch
lichtenberg
lida
lidaradua
lidaradur
lidda
lidder
lidderadur
lideradur
liderarische
lideratur
lidrezing
lie
lieb
liebe
liebedswi
liebschde
liebschel
liebsderf
liechd
lieche
liecht
liechtenstein
lied
lieda
lieder
liederkranz
liederschiedt
liedguud
liedsche
liegd
liege
liegt
liehd
lieje
lies
liesch
lieschd
liesche
lieschn
lieschna
liescht
liest
liet
lieux
liewa
liewe
liewer
ließ
life
liga
ligd
lige
ligg
liggd
ligge
liggt
light
ligl
ligne
ligt
lihd
lije
lik
like
limbach
limburg
limburgisch
limburgische
limbursch
limerick
limersche
limersheim
limes
limited
lin
linaria
linda
lindefels
lindelbrunn
lindemann
linden
lindeplatz
lindre
lindstro
linegrey
ling
linge
lingefeld
lingge
linggs
lingolsheim
lings
lingsrheinische
lingsrhoinisch
lingsrhoinische
linguasphere
linguischde
linguistik
linie
liniefa
linielaider
linje
link
linke
links
linksrhoinisch
linksrhoinische
linnaeus
linnefels
linqua
linus
linux
linuxhttp
linuxkernel
liocourt
liportal
lipsheim
lisa
lisch
lischa
lischd
lischdde
lischde
lischdeschdain
lischdjohr
lischds
lische
lischen
lischn
lischt
lisd
lisdchd
list
liste
lit
litaue
liter
literadur
literatur
literature
littenem
little
littne
live
liwwa
lixheim
lixing
lixingen
lizenz
lk
lkedorf
lkermord
lkerung
lkerungsentwicklung
lkw
lkwiller
ll
lla
llan
llberg
lld
llda
llde
lldegschd
lldeponie
lle
llebach
llen
ller
llere
llerische
llerschdorf
lleschdorf
llewiller
llfert
llga
llhi
llich
llisch
llki
llt
llzi
lmerschba
ln
lner
lo
loand
lobach
lobefeld
loch
lochagga
lochhewwel
lochwiller
lock
lockdown
lodhringisch
lodringa
lodringe
lodringisch
lodringische
loess
loewe
lofeld
loffe
logele
logga
loggare
logge
loggomodiv
loggomodive
logic
logical
logig
logik
logika
logisch
logischa
logische
logo
loh
lohbrih
lohdringsche
lohgeerwerei
lohnung
lohr
lohse
loie
loininge
loininger
loire
lokal
lokale
lokalzaidung
lokbespannte
lokfiehrer
lombra
lombreschda
lombsbacher
lommerange
lomsem
lomsemer
lon
lond
londau
londbrigg
londe
londesherr
londesliga
londfriede
londgra
londgraf
londgrafschaft
londgrais
londkra
londkrais
londkreis
london
londra
londrad
londschafd
londschafde
londschafdsbild
londschaft
londschdooß
londschdrooß
londschdroß
londschduhl
londschduul
londschtroß
londung
londvogd
londwa
londwea
londwerdschafd
londwerdschafdlische
londwerschafdlisch
londzung
long
longe
longes
longeville
longhaus
longi
longsam
longsom
loo
loog
look
lora
lorquin
lorrain
lorraine
lorry
lorsch
lorscher
los
loschd
loschiad
lose
loss
lossa
lossd
losse
lossen
losst
lostroff
loswerre
loszuwerre
lothar
lothr
lothri
lothringe
lothringen
lothringer
lothringisch
lothringische
lothringisches
loudrefing
louis
louise
loupershouse
loutzviller
louvigny
love
low
lower
loy
loßd
loßt
lp
ls
lsa
lsawald
lschd
lschde
lschdraidkra
lsche
lschesta
lschungen
lschwi
lse
lsg
lsisch
lsische
lstett
lt
ltackedorf
lte
lteba
ltehu
ltena
ltene
lteste
ltki
ltnis
ltnisse
ltniswahl
ltschde
ltwiller
lu
lube
lublin
lucanus
lucas
luchs
lucy
ludarischi
ludda
luddadengmol
ludder
ludderische
luddwisch
luddwischshaafe
luddwischshafe
luddwischshain
ludewig
ludowici
ludwich
ludwichsbladz
ludwichshaafe
ludwichshafe
ludwig
ludwigsburg
ludwigshaafe
ludwigshafe
ludwigshafen
ludwik
ludwisch
ludwischshafe
ludwischshoin
lufa
lufd
lufdfaischdischkaid
lufdlinie
lufdwaff
luft
luftkurort
luftsa
lugsbursch
lugsebursch
luhdringe
lui
luis
luise
luisepaak
luitpoldturm
lukas
lump
lune
lung
lunge
luppy
lupschte
lus
luschd
luschdisch
luschdschbiel
luscht
lust
lustige
luther
lutherische
lutran
lutrina
luttange
lutter
lutz
lutzelbourg
luvoa
luxembourg
luxmbursch
luxor
luß
lußhardt
lwais
lwe
lwere
lychnis
lying
lynchis
lynn
lyon
lyoner
lyra
lyriktheorie
lyrische
lyzealbibliothek
lz
lza
lzawald
lzb
lze
lzer
lzerland
lzersch
lzerwald
lzheim
lzisch
lzische
lzischen
lzischer
lzisches
lzischi
lzweier
m
ma
maa
maabach
maache
maade
maagd
maagdbladz
maagdpladz
maagdstrooß
maageding
maagezaische
maagus
maala
maas
maaß
mac
mach
machd
machda
machde
machdfakdor
machdgier
machdlos
mache
machen
machere
macheren
macht
machte
madde
maddemadig
maddin
maddinska
maddinspoad
made
madhemadisch
madin
madinsumzuch
madrial
madrid
mag
magazin
magazine
magdalena
magdebursch
maggie
maggjado
maggraf
magie
magischdrad
magma
magmadische
magnedkombaß
magnesium
magnus
magny
mai
maide
maiene
maier
maika
maikammer
main
mainde
mainderad
maine
maintal
mainvillers
mainz
mainzer
maire
mairie
mais
maischd
maischde
maischdens
maische
maischt
maischte
maisegott
maiwocheend
maizeroy
maizery
maizie
majeraan
majeschda
majgdblatz
majkd
majktblatz
majkus
major
majoran
make
makes
making
makkaba
mal
mala
malachias
malaraije
malaucourt
malaysia
malche
malchen
malda
male
maleachi
maler
malling
mallorca
malroy
malsch
malse
malta
malz
malze
mammelshoffe
man
management
manager
manche
mancher
manchmol
mande
mandelbachtal
manderen
mandle
manfred
mange
mangelnde
manhattan
manhoue
manipulation
mann
manne
mannelse
mannem
mannemer
mannesmann
mannheim
mannheimer
mannlich
mannschafd
mannschafde
mannschaft
mannschaftsfahre
manom
mansche
manschmo
manschmol
manuscript
manusgribde
many
mar
mara
marange
marau
marburg
marc
march
marco
mardigny
mardin
marg
mari
maria
marian
marianne
maridime
marie
marieulles
marilyn
marimont
marin
marine
marino
mario
marion
maritime
mark
marker
marketing
markgraf
markgrafschaft
markiert
markomannenwiki
markt
markus
marlene
marlenheim
marliese
marlise
marly
marmaramea
marmoutier
marokko
marokogrise
mars
marsal
marsch
marschall
marseillaise
marseille
marsilius
marsilly
marthille
martin
martinique
marx
marxe
mary
mas
maschall
maschd
maschde
maschin
maschine
maschinebau
maschinefabrigg
mascula
masevaux
masge
masmu
mass
massaker
masse
massevanischdungswaffe
massisch
massiv
mat
material
materie
mathrm
matrial
matronalis
matt
matters
mattha
matthew
matthias
matzera
maua
maudach
mauer
mauern
mauerreschde
mauerritze
mauerwerk
mauerziech
maul
maure
maurice
maursmu
mauwa
mauware
max
maxbursch
maxdorf
maxe
maximilian
maximilianstraße
maximiljoanschdrooß
maxstadt
may
mayer
mazedonie
maß
mb
mba
mbade
mbeha
mbf
mbfe
mbh
mbse
mbtma
mc
mcdonald
mcdonnell
mcdowell
mcginnis
mclaughlin
md
mda
mde
mder
mdk
mdl
mdlische
mdm
mdszaid
mdszeid
me
mea
meahaid
means
measchd
measchde
meat
meaz
mecey
mecha
mechanik
mechlich
mechlichkeit
mechtershaim
mechtersheim
mecklenburg
meckrem
meckremer
meckse
meckser
med
meda
medaille
medall
medallmodelle
medamorphide
medd
meddelimburgisch
meddem
meddis
meder
medersche
media
medical
medie
medien
medieval
medii
medije
mediterranes
medizin
medizinische
medropole
medropolregion
meds
medz
mee
meechlich
meechlisch
meeda
meeder
meena
meend
meendma
meenen
meens
meent
meenung
meenunge
meenz
meenza
meer
meeresschbiggl
meeresschbischl
meeresschpiggel
meeresspiechel
meerschde
meeschdens
meeschder
meeschlich
meeschlisch
meeschlischkaid
meewel
megalith
megalithe
megaparsec
megglebursch
meglich
meglisch
meglische
meglischerweis
meh
mehl
mehmed
mehr
mehrere
mehrhaid
mehrheit
mehrheitswahl
mehrja
mehrmols
mehrschd
mehrschdaatliche
mehrschde
mehrzahl
mei
meier
meim
mein
meine
meinem
meiner
meischd
meischde
meischdens
meischdns
meischt
meischte
meischtens
meisenthal
meisl
meister
meisterschnu
meißner
melagg
melandryum
melchior
meld
melde
meleboges
melebogus
melfang
melfing
melge
melibocus
melibogus
melibokus
meling
mellag
melodie
melolontha
melschbach
memory
men
mend
mendale
meng
menge
mengelea
menne
menoncourt
mens
mensbschdanddeil
mensch
mensche
menschen
menschevaschdond
menschhaid
menschlische
menskirch
mensvedder
ment
mental
mentalist
mer
merberg
merburch
merchants
mercieca
mere
merge
mergen
mergmal
mergunge
meri
meriga
merika
merikwiller
mering
merkmale
merkmole
merlebach
meroux
merr
merritt
mers
mersche
merschhbach
merschweiller
merten
mery
merz
merzalwe
merze
merzwiller
mescha
meschanisme
meschd
meschlisch
meschlischawais
meschlische
meschlischkaid
meschlischkaide
mescht
mesquita
mess
messa
message
messe
messegesellschaft
messer
messeschdondord
messschdatione
messschdazione
messunge
mestroff
met
meta
metadiscourse
metamorphe
metamorphose
meteorological
meteorologischer
meteosat
meter
method
methode
methods
methuen
metop
metrics
metropolregion
metting
metz
metzeresche
metzervisse
metzger
metzing
metzja
metzler
meurthe
meuse
mewwl
mexika
mexiko
mey
meyer
meyers
mez
meßbacher
mg
mgv
mhd
mhz
mi
mia
mich
micha
michael
michaels
michel
michelbach
michelsbach
michelstadt
microstock
mid
mida
midarwaider
midawaida
midawaider
midd
midda
middach
middachs
middanonna
middawaida
midde
middebai
middel
middelalda
middelalder
middelalderliche
middelalderlische
middelbach
middelgebirge
middelhessisch
middelhochdeitsche
middelmeer
middelpunkt
middels
middelschiff
middem
middenna
middezu
middgfiehl
middl
middla
middlalda
middlaldalischi
middlare
middlawail
middlburg
middldarm
middle
middlere
middlerwail
middleuropa
middlgebirsche
middlgebirschsgebied
middlmea
middlmeea
middlmeer
middloiroba
middloiropa
middlpungd
middlschiff
middltuam
middlweschde
middm
middna
mide
midem
midgebrocht
midgedun
midgemengd
midgenumme
midglied
midglieda
midgliedan
midglieder
midgliedern
midgza
midm
midmache
midna
midsamt
midschraiwe
midwesd
miede
mieh
miehl
miele
mielhu
miellbeasch
miesebach
mieterschulz
mietsem
mifflin
might
migwe
mihlbach
mihle
mihleka
mihlhause
mikro
mikwe
mil
milan
milch
mild
milde
mildeberg
mildes
milhu
milich
milichdriese
milida
milideergela
miliderisch
milie
milisch
milita
military
millarde
miller
milliarde
millich
millijone
millilidda
millimeder
million
milliona
millione
millionen
milliune
milljione
milljone
milly
milsch
milutin
mim
mimig
mimling
mimlingdal
mimm
mimne
min
mina
minche
minchner
mind
minde
minded
minderhaide
minderja
mindeschdens
mindlich
mindschd
mindung
mineral
mineralien
mineralienatlas
mineralog
mines
ming
minh
mini
miniatur
minichhause
minigolf
minischda
minischdapra
minischdens
minischderium
minischderpra
minischdre
minischzell
minnesa
minneschdens
minneschens
minnischns
minschda
minschder
minsche
minschmaya
minschner
minschwiller
minud
minudde
minude
minute
minz
minza
minze
mio
mir
mirre
mirrem
mirrer
misch
mischael
mischd
mische
mischelbach
mischelschdadt
mischen
mischer
mischlbach
mischung
miss
missd
misse
missen
missing
mission
missionare
missioniere
missions
misslungene
missn
missschda
missschdond
misstatements
mistakes
mit
mitchell
mitem
mitglied
mitglieda
mitglieder
mitm
mitmache
mitnemme
mitt
mitte
mitteilungen
mittel
mittelalta
mittelalter
mittelalterliche
mittelalterlichen
mittelalters
mittelbronn
mitteldaitsche
mittelma
mittelrhein
mittelrheinische
mittem
mitterrand
mittersheim
mittlere
mittlerwaile
mittweida
mitunner
mixed
mißd
mjo
mkern
ml
mlich
mlinga
mlisch
mm
mma
mmd
mme
mmegewachse
mmeha
mmelschboch
mmelt
mmenau
mmende
mmer
mmerba
mmerki
mmerling
mmersche
mmerschma
mmeschluss
mmgarnspinnerei
mmlich
mmlisch
mmlung
mmra
mmt
mmung
mne
mo
moarids
moascheposchd
mob
mobile
mobilita
moby
modaradorin
modau
modder
moddo
model
modell
modelle
moder
moderator
modere
modern
moderne
modernes
modernisierd
modoa
modor
modorkonzepte
modorra
mogradie
mohan
mohr
moi
moim
moin
moind
moinde
moinded
moine
moinung
moinz
mojave
mol
moldawie
moler
molerei
molge
molisch
molla
mollki
molring
molse
molsheim
momend
momentan
momerstroff
mommenheim
mon
monad
monade
monaggo
monarchie
monarsche
monarschie
monat
monate
monche
monchem
moncheux
monchmal
monchmol
moncourt
mond
mondag
monde
mondelange
mondelmauer
mondorff
mondsee
monet
money
mongel
mongelnde
mongolai
monibuliere
monin
monitoring
monkey
monn
monnem
monnema
monnemer
monneren
monnschafd
monnschaft
monologische
monopole
monothei
monscha
monsche
monschmol
monster
monswiller
mont
montagne
montana
montanunion
montbe
montbouton
montbronn
montclar
montdidier
montenach
montenegro
montigny
montois
montoy
montreux
montsoreau
monumenta
monzo
moo
mool
moore
moorniederung
moos
moosbrunn
moosch
moral
moralisch
moralische
moralischi
mord
mordbra
morddeich
morde
mords
more
morge
morgen
morgenpost
morhange
morio
moritz
morje
morlautern
morlautre
morlautrer
morning
morrlautre
morsbach
morschbrunn
morsche
morschwi
morschwiller
morvillars
morville
mos
mosbach
moschd
moschee
moschellandsba
mose
mosel
moselarmee
moselfra
moselle
moses
moskau
mosl
moslfra
mossbach
most
motive
motor
mott
moulins
mount
mountainbike
mountains
moussey
mouterhouse
moval
moyenvic
moyeuvre
moynihan
mozart
mozat
mp
mpd
mperado
mperte
mpertschloch
mpf
mpfd
mpfe
mpft
mpfung
mpi
mr
ms
msa
mschdroff
mschtel
mspiel
mswiller
mt
mter
mu
much
mud
mudda
muddamilich
muddaschbrooch
muddaschdadt
muddeerspooch
mudder
muesum
muggaseggl
muirhead
mulcey
multimedia
mummle
munad
mund
mundaad
mundaaddischder
mundaade
mundaadwettbewerb
mundaat
mundardaudore
mundarde
mundart
mundartdichter
mundartdischder
mundarten
mundartgedichte
mundartliche
mundartlideradur
mundartliteratur
mundelse
mundschenk
munster
munwiller
munze
munzinger
murbach
murray
mursel
mus
muscari
muschd
muschda
muschkele
muschlkalk
muscht
muse
musee
museje
museum
museums
museumsbahn
music
musical
musigg
musigger
musiggva
musik
musikalisch
musiker
musikvaein
musikverein
muskle
muslime
muslimi
muslimische
muss
mussde
mussig
mussigakademie
mussiger
mussikalische
mussma
mussolini
musste
mustafa
mutter
mutzehu
muud
muß
mußbach
mußd
my
myself
myth
mythe
mythologie
mythos
mz
n
na
naame
nabf
naboleon
nabor
nach
nachbaan
nachbagema
nachbagemoinde
nachbar
nachbargemainde
nachbargmainde
nachbarord
nachbarorde
nachbarschdaade
nachd
nachdem
nachdenkseiten
nachds
nachem
nachfolga
nachrichten
nachrichtliches
nacht
nachweis
nachweise
nacional
nad
nadeerlich
nadialich
nadialisch
nadiealisch
nadierlich
nadierlisch
nadirlisch
nadirlische
nadirlischi
nadler
nadsionale
nadsionalhymne
nadsionalsozialismus
nadsione
naduaschudz
nadur
nadurdenkma
nadurpaak
nadurpark
nadurraim
nadurraimlische
nadurraum
nadurschda
nadurschudz
nadurschudzgebied
nadurschutz
nadurschutzgebiede
nadurschutzgebiet
nadurwisseschafdliche
nadzion
nadzionalpaag
nadzionalsozialischde
nadzionalva
nagel
nah
nahe
nahegau
naherholungsgebiet
nahrung
nahrungs
nahrungserga
nahum
nai
naia
naibau
naibaugebiede
naid
naida
naideschdoi
naideschtoi
naidorf
naie
naier
naiere
naies
naiginea
naigotisch
naihermse
naihofe
naii
naij
naijare
naije
naijes
naiji
naijischkaide
nailond
nailosse
naimaagd
naimiehl
nain
naindi
nainza
nainzehnde
nainzischa
naioffschda
naiordnung
naioste
naiperdel
naipotz
nairomonische
naischd
naischdad
naischdadd
naischdadt
naischdadta
naischdadter
naischde
naischen
naischloß
naischtadt
naizaid
nam
nama
name
namen
namens
nancy
nange
nanna
nanni
naomi
napoleon
napolion
narbe
nardini
nare
narweseit
nasa
nasaids
nasallaute
nasion
nasional
nassau
nasse
nation
national
nationale
nationalelf
nationalmannschaft
nationalpark
nationalsozialischde
nationalspieler
nationen
nato
natu
natur
natura
naturam
nature
naturfreundehaus
naturkunde
naturpark
naturschutz
nau
nauer
naus
nauseam
nauso
naval
navigiere
nawer
nawi
nawiller
nazarena
nazarener
nazareth
nazi
nazionalbiblothek
nazionalva
nazis
nazizaid
nazizeit
nc
nch
nche
nchen
nchhausen
nchmeyer
nd
nda
nde
nded
ndel
ndelse
ndelt
nden
nder
nderad
nderat
ndermasse
nderreie
nders
nderschbiel
ndersche
nderweg
ndes
ndesgschischdlische
ndet
ndfa
ndfunk
ndgesche
ndgildisch
ndgrais
ndhaiser
ndhause
ndich
ndiche
ndie
ndig
ndiges
ndigg
ndisch
ndische
ndischen
ndkatt
ndkreis
ndl
ndla
ndlassung
ndld
ndle
ndler
ndli
ndlich
ndlicher
ndlisch
ndlische
ndlo
ndlosse
ndlung
ndma
ndnis
ndo
ndorde
ndort
ndra
ndre
ndschafd
ndschafde
ndschaft
ndschaftsmoler
ndschda
ndse
ndser
ndstain
ndt
ndte
ndung
ndunge
ndwa
ndwertschaft
ndwi
ndwiggld
ndwigglung
ne
neabl
neadlisch
neadlische
nebel
nebst
neckar
neckarschleimer
neckarsteinach
neckartal
ned
nedd
nedda
nedde
neddemol
nedna
nedz
nedzwerg
nedzwerge
nee
need
needisch
needische
neeh
neewe
neewefliss
neff
neffe
negadive
negative
negga
neggar
neggara
neggarau
neggaschdadt
negger
neggerbischese
neggerdal
neggerelz
neggergmind
neggerhause
neggerkatzebach
neggerschda
neggersteinach
neggerwimmerschbach
neglect
neglectum
negschd
negschde
neh
nehemia
nehme
nei
neibau
neiburg
neida
neiderfer
neidorf
neie
neiene
neier
neiere
neierte
neies
neiffer
neiflieschler
neigodische
neigriggebach
neihisel
neihof
neijohrsempfong
neiki
neil
neilosse
neiminschder
nein
neinka
neischdadt
neistadt
neiwiller
nej
nel
nelge
nelling
nem
nemarg
nemark
nemeda
nemetum
nemmd
nemme
nemmen
nemmt
nemsi
nen
nennd
nenne
nennen
nennt
nensitz
neoptera
ner
neraat
nerad
nerat
nerdl
nerdlich
nerdliche
nerdlicher
nerdlisch
nerdlische
nere
nerne
nerot
nerrvesyschdem
nerungsform
nerv
nerve
nervesyschdem
nes
neschd
neschder
neschloss
nescht
nestroff
net
netbooks
nett
network
netz
netzseide
netzwerk
neu
neuauflage
neuburg
neudral
neue
neuen
neuer
neues
neuf
neufchef
neufgrange
neufmoulins
neufvillage
neumann
neumu
neunkirchen
neustadt
neuviller
neuweiler
neuwiller
never
new
newa
newade
newald
newam
newana
newburgh
newe
newede
newedra
newelkerz
newem
newer
newerm
newman
news
newwa
newwam
newwe
newwer
nf
nfl
nftgreeschte
nftig
nftige
ng
nga
ngd
nge
ngebiete
ngeburi
ngedal
ngedhal
ngedorf
ngegrad
ngeldorf
ngelisch
ngelische
ngeloch
ngelse
ngen
ngend
ngende
ngene
nger
ngere
ngerhosle
ngeri
ngerin
ngersche
ngert
ngesulzba
nggd
ngge
nggelisch
nggelische
nggisch
nggische
nggreisch
nggri
ngi
ngig
ngige
ngisch
ngische
ngischi
ngischkaid
ngl
nglich
nglisch
nglische
ngne
ngnis
ngraich
ngs
ngsam
ngsch
ngschd
ngschde
ngscht
ngse
ngsel
ngt
ngung
ngunge
ngwellesender
ngwiller
nh
nha
nhalbinsel
nheim
nhn
nhof
ni
nich
nichhoffe
nichlich
nicholas
nicht
nichts
nickel
nico
nicolas
nicole
nid
nida
nidasaksa
niderbrucke
niderhoff
niderlauterbach
niderviller
nidsch
nidzd
nie
nied
nieda
niedafeld
niedagelasse
niedagelosse
niedala
niedalande
niedalonde
niedarhoi
niedaschla
niedaschlaach
niedaschlachsmeng
niedasorbisch
niedaterrass
nieder
niederauerbach
niederbronn
niederbruck
niederdaitsch
niedergebrennt
niederhessisch
niederlaach
niederlache
niederlande
niedermi
niederrhein
niederrhoi
niedersa
niedersachse
niederschla
niederschlaach
niederschlach
niederschlettenbach
niedersimde
niederstaibrunn
niederstinzel
niedervisse
niedhammer
niedrigschde
niedrisch
niedrische
niedrischer
niedrischere
niemand
niemeyer
niemond
niere
niewelungesaach
niewelungetuam
niffer
nig
nige
niger
nigeria
nigeriasat
niggolaus
nigra
nigreich
nigs
niidalonde
niiderterrass
niken
nikol
nikola
nikolaus
niks
nilvange
nimi
nimma
nimmd
nimmda
nimmdma
nimmer
nimmermehr
nimmi
nimmie
nimmt
nina
ning
ninh
ninn
ninschwiller
nirnba
nirraschla
nisch
nischd
nischdal
nische
nischer
nischkaid
nischkaide
nischraische
nit
nitt
nitting
niwwer
nix
nj
nk
nka
nke
nkel
nkheit
nkhu
nkisch
nkische
nkne
nkraich
nkreisch
nkt
nlischkaide
nlischkeide
nm
nmattenwag
nn
nna
nnad
nnan
nnarai
nnare
nnarung
nnarunge
nnaschd
nnche
nncher
nnd
nnde
nne
nneki
nnel
nnem
nnen
nner
nnera
nnerbeirot
nnerd
nnere
nneregg
nnergrenze
nnern
nnert
nnerung
nnerunge
nnes
nni
nnich
nniche
nnie
nnije
nnisch
nnische
nnischer
nnischi
nnle
nnlische
nnre
nnrer
nns
nnschafd
nnschaft
nnschde
nnsche
nnse
nnswiller
nnt
nnunge
no
noad
noade
noadeschdlisch
noadoschde
noadufa
noadweschde
noadweschdlisch
noadwond
noah
noame
noand
noande
noble
noch
nocha
nochbagma
nochbaord
nochbaort
nochbargma
nochbau
nochbergema
nochde
nochdem
nochdemm
nochdra
nochem
nochemo
nochemol
nochfolgendem
nochfolschewersion
nochgewiese
nochlese
nochm
nochmo
nochmol
nochmols
nochn
nochrischde
nochwa
nochwais
nochwaise
nochwaislisch
nochweis
nochwugs
nod
noda
nodemm
noe
nofember
nofolcher
nogewiss
noh
nohfolcher
nohm
noi
noikumme
noisseville
nom
nome
nomen
nomenklatur
nomensga
nominiert
nommandie
nommo
nomol
noms
non
nond
nonde
none
nonna
nonnd
nonnde
nonnebach
noo
nooch
noochwais
nooda
noode
noodem
noodhelfa
noofolscha
noohfolcher
noolese
noom
noome
noomol
noos
noowaise
noozudue
nor
norbert
nord
nordafriga
nordafrika
nordameriga
nordamerika
nordasie
nordbade
norde
nordelsaß
nordeschdlisch
nordeschdlische
nordesdlische
nordgermanisch
nordheim
nordirlond
nordkaukasus
nordkorea
nordoiropa
nordoschde
nordosde
nordowerdaitsch
nordpa
nordpalz
nordpolarmeer
nordrhoi
nordsee
nordturm
nordvogese
nordvogesen
nordweschde
nordweschdlich
nordweschdliche
nordweschdrusslond
nordweschtlich
nordwesdlische
nore
norenz
norma
normal
normale
normalerweis
normalhehenull
normalnull
normandie
norpol
norre
norroy
north
northen
northern
norton
norwege
not
notebooks
nothweiler
notre
notwennich
nouilly
nousseviller
nouvelle
nov
nova
nove
novell
novemba
november
novillard
noviomagus
novitatem
now
nowachse
nowaja
nowemba
nr
nre
nrem
ns
nsch
nschafd
nschba
nschbe
nschburi
nschde
nschderf
nschdler
nschdregg
nsche
nschin
nschmauscherland
nschmol
nschte
nschter
nsdap
nse
nsee
nses
nsich
nska
nslnochwees
nsm
nstadt
nste
nsten
nster
nsterol
nstlergeschichte
nstlers
nsu
nswi
nt
nta
ntel
nter
nterschhu
nther
ntze
nu
nua
nuch
nuchemol
nuchn
nudelsieb
nudzd
nudzda
nudze
nudzen
nudzung
nuff
nuffschdeie
nuhrd
null
numeri
numme
nummere
nun
nung
nunge
nunna
nunner
nur
nutzd
nutze
nutzung
nuutelt
nuzd
nußdorf
nußloch
nversche
nw
ny
nz
nza
nzchi
nzd
nze
nzeba
nzeesisch
nzeesische
nzeesischer
nzel
nzeld
nzelfell
nzelne
nzelni
nzelnochwais
nzelnochweis
nzelnohweise
nzelnoweise
nzene
nzeno
nzer
nzesisch
nzesische
nzi
nzich
nzigschd
nzigschde
nzisch
nzischde
nzische
nzischer
nzl
nzlbach
nzle
nzlhondl
nzlnochwais
nzlnochwees
nzlnochweis
nzlnoochwais
nzlnoochweis
nzlnoowa
nzlnoowais
nzne
nzose
nzt
nzungsmiddl
nzwiller
nzz
o
oa
oad
oade
oadinariad
oadnsfriedhof
oadsdeel
oadsgmoinde
oafong
oafonge
oag
oaganiserd
oagbaud
oagbrochd
oagfonge
oagriff
oagugge
oaha
oalach
oals
oam
oan
oande
oandie
oanere
oannare
oannere
oans
oaschl
oaschliessend
oasiedle
oasiedlung
oasischd
oasischde
ob
oba
obachdung
obadja
obama
obba
obbe
oben
obends
ober
oberdorf
oberdorff
obergailbach
oberha
oberhaslach
oberhausbergen
oberhoffen
oberla
oberma
obermi
obermu
obern
oberraischbi
oberrhein
obersept
oberstaibrunn
oberstinzel
obervisse
oberzent
obfa
objegd
objekd
objekde
objekt
oblast
obma
obreck
obs
obschd
obschdwisse
obscht
obse
observer
obwohl
obwohls
occupational
och
ochsebach
oclc
october
oda
odachd
odd
odda
oddade
oddas
oddaschda
oddaschdadd
oddaschdadt
oddase
odder
oddewald
oddhainrisch
oddo
odeel
odenwald
odenwaldes
oder
odere
oderze
odewa
odewald
odewaldklub
odewaldkreis
odin
odium
odyssee
oehrling
of
ofang
ofd
ofderse
off
offd
offe
offebaarung
offebach
offebar
offedorf
offemont
offenbach
offene
offenen
offenes
offeni
offesischdlisch
official
officinalis
offizia
offiziell
offizielle
offizielli
offizier
offiziere
offizjelle
offne
offschda
offwiller
ofm
ofong
oft
often
og
ogdoba
ogdowa
ogdower
ogebaud
ogeblisch
ogefong
ogfange
ogfonge
oggdoba
oggdowa
oggerschm
ogriff
ogschdelld
ogschlosse
oguggd
ogugge
ogy
oh
oha
ohgelegt
ohio
ohlunge
ohne
ohnung
ohre
ohscht
oi
oibruch
oideelung
oidrede
oidridd
oidrigg
oidringe
oidrugg
oifahrd
oifihrung
oifliss
oifluss
oiflussd
oiflusse
oiflussung
oifluß
oig
oiga
oigang
oigebroche
oigebrung
oigedrede
oigedrunge
oigefihrd
oigegliederd
oigegliedert
oigegriffe
oigema
oigemaindt
oigemeindt
oigenumme
oigerischd
oigerischt
oigeschdufd
oigewannerd
oigeweiht
oigfa
oigfalle
oigfiad
oigfiehrd
oigfiehrt
oigfu
oigma
oignumme
oigong
oigongsbraisch
oigrischd
oigschdelld
oigschdellt
oigschdufd
oigschra
oigschuld
oigsedsdi
oigsedzd
oigsedzde
oigsedzt
oigsetzt
oigsezd
oigwaid
oihaid
oihaimische
oihaus
oiheid
oiheit
oikaafe
oilaidende
oim
oimaschiad
oimische
oin
oinahm
oine
oiner
oinische
oinisches
oinischi
oinwohna
oinzelne
oinzelnochwais
oinzlnochwais
oinzlnochweis
oiredd
oirischde
oirischdung
oirischdunge
oiro
oiroba
oirobawaid
oiropa
oiropaparlamend
ois
oisadz
oisatz
oischbarung
oischbarunge
oischdelle
oischdellung
oischdellunge
oischedzung
oischließlisch
oischnierung
oischra
oischusslescha
oisedzd
oisedze
oiwannerer
oiwannerung
oiwohna
oiwohner
oiwohnerschwa
oiwohnersta
oiwohnerzahl
oiwuhner
oiwuhnerdischd
oiwuhnerendwigglung
oiwuhnern
oiwuhnerzahl
oizuch
okdober
okdower
oker
okerau
okrug
oktober
oktowa
oktower
okumme
okummn
ol
ola
olaach
olach
old
oldtimer
oleracea
olfe
olifin
olitoria
olive
olivia
olla
olm
ologie
ologische
olse
olti
olwa
olympische
om
oman
omd
omerigo
omerika
omerikonische
omgekeerd
omkomm
ommeray
omnium
omriga
omsadds
omt
on
ona
onare
onaschda
once
ond
onde
ondie
ondword
one
onere
ong
ongelveroi
ongfonge
onglafisch
onglhoofa
onglwald
ongschd
onlain
online
onlinefassung
only
onn
onna
onnan
onnare
onnarem
onnares
onnari
onnaschd
onnaschda
onnaschdes
onner
onnere
onnerem
onneres
onneri
onnerschd
onnerscht
onnre
ons
onschdadd
ontologie
ontont
oo
ooda
oofa
oofang
oofange
oofangs
ooga
oogawe
oogebaud
oogfang
oogfange
oogfonge
oogonge
oogriffe
oogschlosse
ooma
oomelde
oor
oosassisch
ooschbrisch
ooschte
op
opac
open
openleaks
operation
operations
opfa
opfer
opoldville
opus
opuscula
or
ora
oradour
oram
orange
orbey
orchis
ord
ordd
ordde
orde
ordensfriedhof
ordenswald
ordentlich
ordne
ordnung
ordsbairad
ordsbezirg
ordsbirgamaischda
ordschafd
ordschafde
ordschafte
ordsda
ordsdail
ordsdeel
ordsdeele
ordsdeil
ordsgema
ordsherrschafd
ordskern
ordsna
ordsname
ordsrond
ordswabbe
orer
oreskes
orewa
orewald
org
organe
organisadsion
organisation
organisatione
organisierd
organisiere
organisiert
organisme
organization
organizational
orgel
orginal
orienderde
orientalis
orientierung
original
originale
originaltitel
oriocourt
orleans
orleona
ormersviller
orne
orny
oro
oron
orra
orrde
orrdentlich
orre
orrer
orrewald
orsbeck
orschebach
orschwihr
orschwiller
ort
orte
orthodox
orthodoxe
ortsbezirge
ortsbild
ortsboiema
ortsbu
ortschafte
ortschronik
ortsda
ortsdeele
ortsgema
ortsgemeinde
ortskern
ortslexikon
ortsna
ortsnecknamen
ortsvorschteer
ortsvorsteher
ortswabbe
os
osa
osama
oscar
osch
oschbruch
oschd
oschdairopa
oschdare
oschddeel
oschde
oschdere
oschdereier
oschderhas
oschderkerz
oschdersunndag
oschdfra
oschdkischd
oschdoiropa
oschdpraiße
oschdrand
oschdre
oschdsaid
oschdsee
oschdsiedla
oschdufa
oschfrongraisch
oschte
oschtfra
oschthoffe
oschwa
osd
osde
oseba
osee
osischde
oskar
oslo
osman
osmane
osmanisch
osmanische
ost
oste
ostern
ostfa
ostfra
osthessisch
ostwald
oswald
ot
otail
others
otherwise
ottange
otterbach
otterschda
otterschwiller
ottmar
ottmersche
otto
ottonville
ottrott
otwiller
ou
ouch
oudewald
oudrenne
oulewald
oune
our
ourewa
ourewald
ourewaldhaus
ourewaldkreis
out
outcome
outcomes
outre
ouwerkirch
oval
over
overconfidence
overview
owa
owe
owend
owene
owens
owerbrunn
owerdorf
owere
owerherge
owerhoffe
owerhu
owerlauterba
owermodre
owermorschwi
owermorschwihr
owerreddere
owerrhaialemannisch
owerstanbach
owersulzbach
own
owwa
owwabojama
owwaelsass
owwafla
owwahalwb
owwakabell
owwalandesgerichd
owwapalz
owware
owwarhoi
owwe
owwer
owwerabtsteinach
owweramt
owweranze
owwerauerbach
owwerbaiere
owwerbirgamaischda
owwerbirschameeschda
owwerbrucke
owwerburch
owwerdaitsche
owwerdorf
owwere
owwerfla
owwerfloggebach
owwerfra
owwergeerig
owwergeerjem
owwergeerung
owwergeschoß
owwerhalb
owwerhaubd
owwerhaupt
owwerhaut
owwerhessisch
owweringe
owwerlaaf
owwerlauf
owwerlicha
owwerliga
owwerpra
owwerrha
owwerrhainische
owwerrhoi
owwerrhoiewene
owwerrhoigraawe
owwerrhoigrawe
owwerrhoinische
owwerschde
owwerschul
owwersorbisch
owwerzent
owwwerhaut
ox
oxalis
oxford
ozahl
ozean
p
pa
paa
paadies
paag
paagbladz
paagoddesdienschd
paakea
paar
pabschd
pabscht
pacific
pad
paddnaschafd
pader
paderborn
padizib
padjiende
paff
paffegass
paffegrund
page
pages
pagesperso
paggd
pagny
pahlbaude
paif
paife
paila
pajka
paka
paket
pakt
pala
palaeographica
palamend
palas
palaschd
palatina
palatinat
palatine
palatinensis
palatines
palatinus
palazzo
palde
palenque
palimpsesthandschriften
palm
palmeha
pals
palustris
palz
palzdoaf
palzdorf
palzgraf
palzgrafe
palzgrafschafd
palzki
palzkis
palzlied
palzwei
pan
pandemie
pange
pankratius
pann
panne
panorama
paper
paperback
pappa
papua
paradeblatz
paradies
paradis
paradox
paraguay
paralipse
parallel
parana
pard
pardai
pardaie
pardaien
pardaiprogromm
pardei
pardnaschafd
paris
parisa
park
parke
parks
parlamen
parlament
parodie
parra
parrai
parre
parrei
parrer
parrka
partei
parteie
partement
partements
parties
partizip
partnerschafde
pas
pascha
paschalis
passaschiere
passau
passe
passion
passiones
passive
pasta
pastafari
pastafarianismus
pastafarinismus
patent
patente
patijend
patois
patriarchalbasilika
patrick
patrona
patterns
pattnaord
pattnaorde
pattnaschafd
pattnaschafde
pattnaschaft
pattnergemeinde
paul
paulo
paulska
paulusbriif
pays
paz
pazifigg
pda
pdf
pe
pearl
pearson
peasenlischi
peason
pech
pechelbronn
peda
pedakea
pedakeasch
peddaschm
peders
pedersdal
pedro
pedrus
peer
peeter
peeterschulz
peffer
peggelsche
peif
pel
pelsa
pelsawald
pelsin
pelsisch
pelsische
peltre
pendel
pendle
pennsilfaani
pennsilfaanie
pennsilfaanisch
pennsylvania
pennsylvanisch
pennsylvanischer
pentagon
pentateuch
people
per
pera
perceptions
perd
perfekte
perforatum
performance
performative
perm
persa
perseenlischkaide
persenlichkaide
persenlisch
persenlische
persenlischkaide
persenlischkeide
perso
person
personal
personalisierde
personality
personam
persone
personetransport
personifikation
perspective
perspectives
perspektive
persuasion
persuasive
peru
peschd
peta
peter
peterschba
peterskirche
petersthal
petit
petite
petitefontaine
petitmagny
petra
petrus
pettoncourt
pf
pfa
pfaffenhoffen
pfalz
pfalzdorf
pfalzgraf
pfarrer
pfatterhu
pfeffer
pfeiffer
pferd
pferde
pferdezuchtverband
pfetze
pfi
pfitzenmeier
pflanze
pflanzen
pflege
pfleschd
pflicht
pflug
pfort
pfu
pfund
pha
phaffans
phalsbourg
phil
philadelphia
philemon
philip
philipp
philipper
philippine
philippsbourg
philippsburg
philipsbursch
phillip
philosoph
philosophical
philosophie
philosophy
pho
phone
phonetic
photo
php
phras
phrase
physical
physik
pi
piblange
piel
piele
pieler
pielzaid
pierre
pierrevillers
pietsch
piladus
pilcher
pilger
pilgerspuren
pille
pilod
pils
pilscha
pilschawesch
pilscher
pilsener
pilzchen
pilze
pinen
pingschde
pinto
pirade
piradepardai
pirat
pirate
piraten
piratentuch
pirmasens
pirmasenser
pirmin
pirminiseusna
pirminius
pit
pital
pittsburgh
pius
pkw
pl
pla
place
pladd
pladdaitsch
pladdforme
pladz
plaggenburg
plaiderschbach
plaine
plan
planed
planede
planet
planete
planeten
plankscht
plant
plants
planung
planungsausschusses
planz
planza
planze
planzename
plappeville
plasma
plateau
platon
platt
plattforme
platz
plaue
plausibel
play
plaz
pleen
plesnois
plischd
plo
plobse
plobsheim
plodda
plon
plonke
plonz
plonze
plotdata
plumarius
plural
plus
plw
plz
pmc
pmid
png
po
poadaal
poadra
pochwerk
poetry
pogrom
pogrome
pohl
pohlit
pokal
pokalsieger
pol
polares
pole
policy
polidig
polidiga
polidiger
polidik
polidiker
polidisch
polidische
polidischi
political
politicians
politico
politicomagazine
politics
politik
politiker
politisch
politische
politischen
politischer
polizaioisedz
pollichia
pollmer
polnisch
polnische
polygala
pomme
pompidou
pont
pontoy
pontpierre
poor
pop
poppe
popula
popular
populischde
populum
por
porcelette
pordal
pordugal
pordugiese
pordugiesisch
pordugiesische
port
portal
portas
porte
porzellan
poschd
poschde
poschdgraawe
poschdhum
poschdmaag
poscht
posidiv
position
positive
post
posting
postroff
postum
pouilly
pournoy
powell
power
pp
ppel
ppele
ppewihr
ppje
ppschwihr
pr
pra
practical
prag
pragdisch
prais
praise
praiße
praißisch
praißische
prakdisch
praktisch
pratensis
praxis
pre
precision
prediger
preference
preis
preise
preiße
premierminischda
premijeminischda
premuzic
prentice
present
presented
president
presidential
press
pressburg
presse
preußen
preß
pri
priefung
pries
prieschda
prieschter
prima
primacy
princeton
print
prinz
prinzessin
prinzip
prinzipiell
prioa
prior
prischdorf
privada
privade
privadspha
privat
private
priwadunnarichd
pro
probagonda
probla
probleem
problem
probleme
probonde
proceedings
processes
processing
prodeschdande
prodeschdandisch
prodeschdandismus
prodeschde
prodesdandisch
prodesdandische
prodokolle
product
products
produktion
produziere
prof
profeede
professor
profid
profil
profile
profine
proglamiere
program
programm
programme
progromm
project
projects
projegd
projegde
projekd
projekt
projektblattbundesministerium
projektleitung
projekts
prolog
promi
promotion
proosa
propaganda
prophet
prospect
proste
proteschtantisch
protestantisch
protokolle
provence
provinz
provinze
provinzhaubdschdadt
provisorisch
prowe
prowinz
prowinze
prozend
prozent
prozess
prozesse
prozeß
pru
przewalski
przewalskigail
przewalskigaul
ps
psalmen
pse
pseudonym
psischoloch
psischologe
psischologie
psischologische
psychological
psychologie
psychology
pterygota
ptolema
pu
puamonn
puberich
public
publikum
publishing
pubmed
pudsch
pulmonaria
pulver
pulvermu
pund
pungd
pungde
punkd
punkde
punkt
punkte
punktfahre
pur
pura
purpose
purrmann
pustet
putin
puttelange
puttigny
puzieux
pvre
pwv
px
pxthumb
pyrena
q
qanon
qiu
qua
quaaz
quaazporphyr
quack
quacklied
quader
quador
quadrad
quadrade
quadrate
quadratkilomeder
quaida
qualida
qualifizierd
qualita
quallida
quang
quantitative
quarterly
quartier
quarzporphyr
quasi
quatre
que
quealy
quebec
queen
queensland
queich
quell
quelle
quellen
quellka
quer
querband
quermbach
quermbacher
querschbach
quetsch
quetschkommod
quirin
quirk
quirnbach
quoque
quote
quwalided
qwelle
qwo
r
ra
raa
raach
raacha
raache
raad
raadhaus
raam
raawisch
rache
rachel
racrange
rad
radebeul
raderschderf
radersche
radfaaverei
radhaus
radikale
radio
radrennbahn
radrenne
radsmidgliedan
radsmidglieder
radwesch
radwondawesch
raffinarie
raffinerie
rahling
rahme
rahmen
rahmenlos
raich
raiche
raichsdaach
raichsschdadd
raichsschdadt
raid
raide
raided
raidschafd
raif
raih
raije
railinge
rain
rainer
rainhardsmi
raini
rais
raisch
raischd
raischdkommag
raische
raischsbursch
raischsdaach
raischsdach
raischsde
raischsdebudazionshaubdschluß
raischska
raischslond
raise
raisea
raiwa
raiwer
ralf
ram
ramann
ramen
rammung
ramon
ramschda
ramstein
ran
rand
randwordung
range
ranger
rangschiersingnale
ranguevaux
ranrupt
ranspach
rasch
raschdadd
raschihaus
rashomon
rass
rasse
rat
rate
rath
rathaus
rather
rational
rationality
ratsmitglieder
ratzwi
raubach
raubacher
raubridder
rauh
raum
raumabschdand
raumfahrt
raumfahrzeugen
raumordnungsverbandes
raupekrane
raupenkran
raus
rausch
rausg
rausgebrocht
rausgewwe
rausgewwer
rausgfunne
rausgg
rauskumm
rauskumme
rauskummt
rausposaund
raville
rawe
raybach
rb
rba
rbd
rbde
rbe
rblisch
rbt
rbuch
rburi
rch
rchdua
rche
rchingen
rckel
rckschte
rd
rda
rdad
rdd
rddeberg
rde
rdel
rder
rderbuch
rderbuchnetz
rderischer
rders
rderung
rderverein
rdigkeiten
rdisch
rdische
rdischkaide
rdischkeide
rdl
rdlich
rdliche
rdlisch
rdlische
rdnerei
rds
rdschafd
rdschafdlisch
rdschafdlische
rdschafdsimberialismus
rdschafdslaischdung
rdschafdswaggsdum
rdschaft
re
read
readings
reagan
reagiere
reagzion
reagzione
real
realided
realisiere
reality
reallexikon
realschul
realschule
reason
reasoning
rebach
rebariad
rebariere
rebecca
rebfla
rebmesser
rebordware
rebound
rebra
rebublig
receiver
recency
rech
rechbarg
rechd
rechds
rechelma
rechion
rechionale
recht
rechte
rechten
rechts
rechtsverordnung
reclam
recmusic
records
recouvrance
red
redagdo
redaktion
redaktionsleitung
redal
redd
redde
redden
redensaade
redlach
redorf
redorig
redorigg
redorisch
redorische
redscha
redt
reductio
reduziere
ree
reedensaade
reedna
reeje
reelma
reema
reemaba
reemer
reemisch
reemische
reesche
refeerendum
reffedaal
reffenthal
refoamierdi
reform
reformadsion
reformadzion
reformation
reformazion
reforme
reformierde
refrain
reg
rege
regel
regelma
regelung
regen
regensburch
regensburg
regentschaft
reger
regiad
regiarung
regiarungsbeziag
regierd
regiere
regierende
regiert
regierung
regierunge
regierungsb
regierungsbeza
regierungsbeziag
regierungsbezirg
regierungsbezirge
regierungsbezirk
regierungsbra
regierungsbziag
regierungsfo
regierungspra
regierungsscheff
reginbach
regio
region
regional
regionalboahne
regionale
regionales
regionalexbress
regionalkultur
regionalliga
regionalrad
regionalschbrooche
regione
regischdriad
regischdrierd
regischdriert
regisseur
register
regnum
regse
rehagel
rehaus
rehbach
reibach
reich
reiche
reiches
reichlich
reichs
reichshoffen
reichsstadt
reidinger
reif
reih
reihe
reilinge
rein
reine
reiner
reinhard
reinhart
reinhold
reinige
reinje
reippach
reis
reisch
reischebach
reischspogromnachd
reischt
reise
reiskerje
reiskirchen
reit
reje
rejel
rekdal
rekord
rektor
reladiv
relations
relationship
relativ
relichion
relichione
relief
reliefs
religiese
religio
religion
religione
religwije
relischion
relischione
relischionsgriesch
relischjese
relischjon
rem
rema
remabeasch
remer
remisch
remische
remischer
remischi
remling
remmele
ren
renaissance
renano
rende
rendering
rendern
rendez
rene
reneso
renesoance
renn
renne
renovierd
renoviert
renovierung
renowiad
rentabel
rentgen
rentier
reports
reppe
repra
repu
republig
republik
republoik
repulik
rer
rereservad
rereservat
rerre
res
reschd
reschdauradzion
reschdaurede
reschdauriad
reschdauriert
reschdaurierung
reschdaurierungsmaßnohme
reschde
reschdeggische
reschdfeadischen
reschdfeadischung
reschdferdische
reschdlisch
reschdlische
reschds
reschdsprofessoa
reschehart
reschel
reschelma
reschie
reschiem
reschierung
reschion
reschionale
reschionalra
reschione
reschisso
reschl
reschle
reschlma
reschna
reschnaarschitektur
reschnd
reschned
reschnsbursch
reschnt
rescht
reschts
reschwuch
resd
resdlische
research
residenz
residiert
resigniad
resource
rest
resuldad
retonfey
retorigg
retorische
retschwiller
retted
rettel
reubach
reunion
reuters
reverse
review
reviewed
revista
revoludsion
revoludsiona
revolution
revue
rewe
rewia
rewoldzion
rewoludzion
rewoludzions
rewoluzion
rex
rexinge
rey
reybach
reyersviller
rezebd
rezension
rezensionen
rezepd
rezepte
rezonville
rf
rfa
rfahre
rfahrung
rfassung
rfd
rfde
rfe
rfel
rfels
rfen
rfer
rfille
rfolsch
rfolschraich
rfoor
rg
rga
rgare
rgd
rge
rgemer
rgen
rger
rgere
rgerhospitalwald
rgerlichen
rgermeister
rgerscha
rgerung
rgi
rgla
rgod
rgs
rgschd
rgschde
rgunge
rha
rhai
rhaifra
rhailand
rhain
rhainau
rhaine
rhainland
rhalde
rhei
rheifra
rheihesse
rhein
rheinau
rheinberger
rheinische
rheinland
rheinpfalz
rheins
rhetoric
rhetorical
rhetorigg
rhetorik
rhetorische
rhin
rhina
rho
rhoda
rhodazismus
rhodes
rhoi
rhoiamee
rhoiarm
rhoiba
rhoibegradischung
rhoibrigg
rhoiewene
rhoifra
rhoigau
rhoigrais
rhoigrawe
rhoihaisa
rhoihesse
rhoihessisch
rhoihessische
rhoiinsel
rhoikra
rhoikreis
rhoila
rhoiland
rhoilond
rhoinegga
rhoiniderung
rhoiniedarung
rhoinische
rhoinland
rhoinlond
rhoinzawere
rhoio
rhoipals
rhoipalz
rhoischdrooß
rhoizawere
rhotazismus
ri
ria
ribes
riboarisch
rica
ricain
ricarda
rich
richard
richdich
richdisch
richdung
riche
richeling
richemont
richeval
richewihr
richstett
richtig
richtisch
richtung
richwiller
ridd
ridda
ridder
riddersaal
riddim
ridisch
ridselz
rie
rieb
riecken
ried
riedse
riegel
riervescemont
rieschbi
rieschwiller
riese
riesebockka
riesische
riesling
riespach
rieulles
rieux
riewe
riff
riffe
rig
rige
rigg
rigge
riggguggfehla
riggrunn
riggschlach
riggzuch
right
rights
rikewa
rikinge
rilze
rimbach
rimboch
rimdidim
rimling
rimschwiller
rind
rinda
rindfla
ring
ringe
ringen
ringmauer
ringschebeaschahof
rinn
rio
riograndenser
ripertswiller
rique
risch
rischad
rischd
rischda
rischde
rischder
rischdich
rischdisch
rischdischa
rischdische
rischdisches
rischdischi
rischdischkaid
rischdung
rischdunge
rische
rischi
rischljo
risey
risfald
risigge
risigo
risigofagdore
risike
risiko
risk
riskiad
riskondes
riss
risse
risshoffe
rita
riteburi
ritter
ritterschoffe
ritzing
river
riviera
riwwa
riwwer
rje
rjer
rk
rka
rke
rkei
rkelse
rken
rkenndnis
rker
rkheim
rkheimer
rki
rkisch
rkische
rkischen
rkla
rklich
rkm
rkrane
rkster
rkt
rlasse
rlaubnis
rle
rlebach
rlich
rlische
rlp
rm
rmasens
rme
rmeck
rmen
rmene
rmer
rmere
rmesens
rmesensa
rmesenser
rmische
rmischi
rmord
rmorde
rmott
rmschde
rmstett
rmung
rn
rna
rnberg
rnd
rnde
rne
rner
rni
rnische
rnl
rnschdaal
rnsehe
rnwaff
rnwaffe
rnz
ro
robbins
roberd
robert
roche
rochefort
rochonvillers
rochus
rock
rod
roda
rodalb
rodalbe
rodalwe
rodarin
rode
rodeberch
rodem
rodemack
rodere
rodern
rodha
rodhaus
rodi
rodliggende
rodm
rodri
rodung
roger
rogge
roggehause
roggehu
roh
rohde
rohme
rohnacher
rohr
rohrbach
rohre
rohschdoff
roi
roiewene
roine
roinhard
rokoko
roland
rolbing
role
rolf
roll
rolle
rollinge
rollingen
rollt
rom
roma
romagny
roman
romane
romani
romanisch
romanische
romanum
rombach
rombas
rome
romelfing
romoanisch
romoanische
romonische
romschda
romy
ronald
roncourt
rond
roo
rood
roode
room
rooreschda
rooschd
roose
root
roppe
roppenem
ropperzwiller
roppeviller
rorbach
rorschwihr
ros
rosamunde
rosbruck
roschbach
roschdischa
roschtai
rose
roseberch
rosegaade
rosen
rosenau
rosenberg
rosenblum
rosenfeld
rosenheim
roseno
rosesorde
rosewiller
rosheim
rosine
rosinepigge
rosische
ross
rosselange
rosselle
rossfald
rosy
rot
rotbewehrter
rote
rotem
roten
roth
rothau
rothaus
rothenberger
rotschwiller
rott
rottelse
rotterdam
rottmanner
roubaix
roud
rouge
rougegoutte
rougemont
rouhling
roupeldange
roureba
rouscheba
rouse
roussy
route
router
routing
routingprotokolle
routledge
rowiller
rowohlt
royal
roze
roßlau
rp
rpra
rquelle
rr
rra
rraischd
rre
rreba
rrem
rrenanze
rrer
rres
rrlische
rrn
rrscha
rrschafd
rrschd
rrwiller
rrz
rs
rsadz
rsch
rscha
rschad
rschaind
rschaine
rschan
rschba
rschberg
rschborch
rschd
rschda
rschdbischuf
rschde
rschdeead
rschdemol
rschdendamm
rschdi
rschdiggld
rschdlich
rschdlische
rschdmol
rschdridde
rschdurm
rsche
rschegemeinde
rscheholz
rscher
rschfried
rschhorn
rschiche
rschkra
rschl
rschland
rschlbad
rschlische
rschlond
rschm
rschner
rscht
rschwarte
rschzawere
rsg
rsinge
rsion
rst
rste
rster
rt
rte
rtebersch
rtel
rtelse
rtene
rter
rterbuch
rth
rtigen
rtje
rtl
rtma
rtner
rts
rtschafdlisch
rtschaft
rttemberg
rtz
ru
ruanda
rubberschwiller
rubrechd
rubrum
rubus
ruchem
ruda
rudergesellschaft
rudi
rudolf
rudolph
rue
ruf
rufd
rufe
ruff
ruffa
ruffine
ruft
rufung
ruh
ruhbonk
ruhesta
ruhisch
ruhm
ruhme
ruht
ruin
ruine
rule
rum
ruma
rumbach
rumedswiller
rumm
rumpf
rund
runde
rundgang
rundrum
rundrumbligg
rundschau
rundweg
rung
runge
runna
runner
running
runzenem
rupprecht
rupra
ruprecht
rupreschd
rurange
rus
russ
russange
russe
russell
russenweiher
russewaija
russia
russian
russisch
russische
russischi
russland
russlond
rustroff
rut
ruth
ruubach
ruufe
ruur
ruuwiller
rußland
rußlond
rwa
rwaidarunge
rwe
rwed
rwerde
rwet
rwi
rwu
ry
rz
rza
rzare
rzba
rzbischuf
rzburg
rzd
rze
rzeesch
rzfalde
rzoch
rzoche
rzt
rzte
rzung
rzunge
s
sa
saa
saabrigge
saabrigger
saach
saachd
saachda
saachde
saachdma
saache
saachen
saachn
saacht
saad
saag
saagebied
saagofaag
saal
saala
saaland
saalbach
saalbau
saale
saales
saalische
saalond
saame
saan
saapa
saapalz
saar
saarbrigge
saare
saargemi
saarla
saarland
saarlo
saarlond
saarpa
saarpalz
saasch
saat
saatkorn
sabine
sabrigge
sach
sacharja
sachbuch
sachd
sachdma
sache
sachen
sachgrubb
sachse
sachsen
sacht
sachvahald
sacrum
sadd
sadellide
sadz
safety
saft
sag
sage
sagen
sagg
saggse
sagralbau
sagralbaude
sagramendskabell
sagrischdai
sagse
sah
sahara
sahn
sahne
saht
sai
said
saida
saidda
saidde
saiddem
saide
saidem
saideschiff
saidlisch
saidm
saie
saifla
saigedier
saigediere
sailly
saim
sain
saina
saine
sainer
sainere
sainre
saint
sainte
saison
saisons
sait
sakristei
saksa
salade
salami
salbert
salenthal
salia
saliern
salija
salins
salisch
salische
salma
salmbach
salmon
salomos
salon
salonnes
saltuarius
saltus
salvador
salz
salzbach
salzburg
salzgau
salzschtroß
salzwasser
salzwooch
sam
samba
sambucus
sambunigrin
samd
same
sammegesetzt
sammle
sammlung
sammlunge
sampi
samschdaags
samt
samuel
samurai
san
sand
sanddiene
sanddu
sande
sandhausen
sandische
sandra
sandrase
sandschda
sandsta
sanduhr
sandwich
sanft
sangd
sankt
sann
sanne
sanry
sans
sant
santa
sante
santiago
sap
sara
sarah
sardine
sare
sark
sarkozy
sarmersche
sarralbe
sarraltroff
sarrebourg
sarreguemines
sarreinsming
saselse
sasic
satellite
satellites
saterfriesisch
sativa
sativum
sattler
saturday
satureja
satz
sau
sauaschdoff
sauastoff
sauce
saudi
sauer
sauerda
sauerstoff
saugerties
saul
saulnois
saulny
saulxures
saumaache
sauna
saure
sauwer
sauwermache
saverne
say
saying
says
sba
sbar
sbarje
sbz
sc
scale
sch
scha
schaade
schaaf
schaafe
schaal
schaan
schabebaam
schabeis
schabeise
schabhack
schache
schacht
schachter
schachtzischdern
schad
schadad
schadd
schadde
schaddlbuss
schade
schadeck
schadt
schafd
schafelse
schafersche
schaffd
schaffe
schaffen
schaftlose
schai
schaidl
schaidung
schainds
schaiwert
schal
schalbach
schalde
schalke
schalom
scharfe
scharle
scharlemanje
schatz
schau
schauberchwerk
schaum
schauschbiel
schauschbiela
schauschbielan
schauschbielern
schauspieler
schautafle
schba
schbaakass
schbaanisch
schbaij
schbaija
schbaijabach
schbaijadoaf
schbaijagau
schbaijamara
schbaijara
schbaijerer
schbaijmara
schbaijmarisch
schbaijmarische
schbaima
schbaimara
schbaja
schbajia
schbalde
schbania
schbanie
schbanije
schbanisch
schbanje
schbannung
schbare
schbargl
schbarre
schbaya
schbayabach
schbayer
schbayra
schbaziere
schbeda
schbedare
schbeder
schbedere
schbeeda
schbeeschbach
schbegdagula
schbekdagl
schbend
schberrsingnale
schbessad
schbessat
schbet
schbeyer
schbeyrer
schbezialfall
schbezialida
schbezialisiert
schbeziell
schbezielle
schbezielles
schbiare
schbidserhoihof
schbidz
schbidze
schbiel
schbiela
schbielblatz
schbield
schbiele
schbielen
schbieler
schbielsache
schbielt
schbielzaisch
schbieß
schbießbrode
schbija
schbijalaxsee
schbitz
schbiz
schboad
schboddnome
schbonisch
schbord
schborda
schbort
schbortplatz
schbortverei
schbra
schbrecher
schbrenge
schbrescha
schbresche
schbrieh
schbrisch
schbrischd
schbrischdma
schbrischwa
schbroch
schbroche
schbrochlisch
schbrochwisseschafd
schbrooch
schbrooche
schbroochforscher
schbroochgebied
schbroochgebiet
schbroochgeografie
schbroochgrenz
schbroochinsel
schbroochkadde
schbroochraum
schbruch
schbuggraud
schbure
schburgebunne
schd
schda
schdaad
schdaade
schdaadlisch
schdaadlische
schdaadlischi
schdaadsbesuch
schdaadsbirga
schdaadsbirscha
schdaadschdraich
schdaadsgebied
schdaadsowwahaubd
schdaadspra
schdaag
schdaage
schdaages
schdaak
schdaanbruch
schdaane
schdaatsbonk
schdabile
schdad
schdadboahn
schdadbrond
schdadd
schdadda
schdaddaaschiv
schdaddbfeschdischung
schdaddbischarai
schdaddbiss
schdaddbrond
schdaddda
schdadddeel
schdadddesse
schdaddeel
schdaddeele
schdaddeil
schdaddeile
schdaddesse
schdaddfinne
schdaddg
schdaddgefunne
schdaddgfunne
schdaddhalda
schdaddmaua
schdaddmauwa
schdaddraad
schdaddreschd
schdaddsieschl
schdaddwald
schdadflech
schdadgebied
schdadgliederung
schdadion
schdadischdigge
schdadpungd
schdadraad
schdadrechde
schdadsione
schdadt
schdadtbeza
schdadtbezirg
schdadtbezirge
schdadtbezirke
schdadtbild
schdadtbirgamaischda
schdadtda
schdadtdail
schdadtdaile
schdadtdeel
schdadtdeele
schdadtdeil
schdadtdeile
schdadtgebied
schdadtgebiet
schdadtgliedarung
schdadtgliederung
schdadtgrindung
schdadtkreis
schdadtmaua
schdadtmauer
schdadtmuseum
schdadtor
schdadtra
schdadtrad
schdadtrat
schdadtrechte
schdadtreschd
schdadtreschde
schdadtrundgong
schdadtverwaldung
schdadtwald
schdadua
schdadue
schdadus
schdaffl
schdahl
schdaiabord
schdaige
schdaije
schdaile
schdaische
schdajg
schdald
schdaldung
schdaldunge
schdall
schdamm
schdammd
schdamme
schdammt
schdand
schdandaddeitsch
schdandardisierung
schdandort
schdarde
schdardsaid
schdarg
schdarge
schdargi
schdark
schdarke
schdation
schdationiert
schdatistische
schdatt
schdaufa
schdaufer
schdauferzeit
schdazion
schdazione
schde
schdebursch
schdeckische
schded
schdedd
schdeddisch
schdeddische
schdedische
schdedt
schdeduhm
schdeed
schdeffelsberch
schdegg
schdeggisch
schdeggische
schdeggt
schdehd
schdehda
schdehe
schdehegebliwwe
schdehne
schdeht
schdeie
schdeierung
schdeil
schdeile
schdeje
schdejen
schdeld
schdell
schdelld
schdelle
schdellt
schdellung
schdellvadreda
schdellwerge
schdellwerk
schdemol
schdendal
schdengl
schdennografie
schder
schdergschde
schdern
schderschafd
schderschaft
schderschafte
schderzd
schdesche
schdewedaach
schdich
schdick
schdicker
schdidzn
schdiel
schdielmiddl
schdifd
schdifde
schdifdskerch
schdifdung
schdift
schdigg
schdigga
schdigge
schdiggl
schdil
schdill
schdille
schdimm
schdimmd
schdimme
schdimmhafde
schdimmung
schdisch
schdlisch
schdoff
schdogg
schdolle
schdolz
schdomm
schdomme
schdond
schdondbild
schdorchemillich
schdorsch
schdorscheschnawwel
schdra
schdradegie
schdrahleburg
schdraid
schdraidaraije
schdraidkra
schdraidmachd
schdraife
schdralije
schdralische
schdraßbursch
schdreck
schdreckbrick
schdreckdalpark
schdreemung
schdregg
schdregge
schdreich
schdreiche
schdreid
schdreife
schdrich
schdrof
schdrofd
schdrofe
schdroff
schdrofreschd
schdroh
schdrohbobb
schdrohmonn
schdroof
schdroofe
schdroos
schdrooß
schdrooßbuasch
schdrooßbursch
schdrooße
schdrooßeboane
schdroß
schdroßbursch
schdroße
schdroßefeschd
schdrugdur
schdrukdur
schdrukduua
schds
schduagadd
schdudende
schdudesee
schdudiad
schdudierd
schdudiert
schdudije
schdudium
schdudje
schdufe
schduggad
schduggat
schduhl
schduije
schdumbe
schdund
schdunde
schdung
schdunn
schdunne
schdurm
sche
schedlische
schedzd
schee
scheede
scheehaid
scheen
scheena
scheenau
scheenburi
scheene
scheeneburi
scheenes
scheer
scheere
schef
scheff
schefft
scheibenhard
scheider
scheine
scheint
scheiwe
scheiweschlaare
scheiße
schel
schela
schelermiehl
schellebach
schema
schemie
schemische
schen
schenau
schene
scheneral
schenge
schenggung
schengung
schengungsurkund
schenk
schenkel
schenkte
schenschde
scher
scherer
scherung
scherwiller
scherzhafd
schgetz
schgschdelld
schhoffe
schi
schichd
schicht
schichte
schick
schickard
schicksal
schicksale
schidze
schiebt
schief
schieferdach
schiela
schieler
schiene
schienenedz
schienevakea
schiere
schiewe
schießd
schießt
schiff
schiffaschdad
schiffaschdadd
schiffe
schifferschdadt
schiffersta
schifferstadt
schifffaadmuseum
schiffsbauwa
schiffsweafd
schiffswerft
schigge
schiiler
schiiroffe
schild
schilddries
schildgra
schildmauer
schiler
schilf
schilla
schiller
schilling
schiltigheim
schimmel
schimmeldewa
schimmeldewog
schimmeldewoog
schina
schinesisch
schinste
schiran
schischd
schisma
schissl
schitze
schitzeverei
schiwwerschdadd
schiwwerschdadt
schißmus
schki
schkulbdure
schl
schla
schlabbe
schlabbefligga
schlach
schlachd
schlacht
schlachte
schlachteturm
schlachtfeschd
schlafe
schlagwerder
schlaif
schlamm
schlappen
schlatel
schlau
schlauchfermisch
schlechde
schlecht
schlechte
schlechter
schleddebach
schleichert
schleschd
schleschda
schleschde
schleschdes
schlesie
schlesser
schleswig
schleswisch
schlettsta
schli
schlickel
schlierbach
schlierbi
schliesse
schließd
schließe
schließend
schließende
schließlich
schließlisch
schlimm
schlisch
schlischder
schlische
schlissel
schlissl
schlo
schloss
schlossberch
schlosse
schlosser
schlosska
schlossplatz
schloß
schloßdrepp
schlu
schlucht
schluss
schlussendlisch
schlussfolscharung
schlussfolscherunge
schluß
schmal
schmala
schmale
schmaleberg
schmali
schmecke
schmedderlinge
schmelz
schmelzwasser
schmi
schmidt
schmidts
schmied
schmiedtuam
schmiedturm
schmitt
schmittviller
schna
schnack
schnaid
schnarsche
schnawwel
schnd
schne
schneckenbusch
schnee
schneeschibber
schneid
schneide
schneider
schnell
schnella
schnelle
schneller
schnellerts
schnelles
schnellfahrschdregge
schnidd
schniddpungd
schnitt
schnittmodell
schnooge
schnooke
schnsaidsche
schnubb
schnug
schnurre
scho
schoa
schoanschda
schobbe
schobbeglas
schober
schodder
schoener
schoi
schoiagumend
schoinagumend
schoind
schoint
scholz
schon
schone
schongauer
schoof
school
schopenhauer
schopp
schopper
schopperte
schorbach
schorle
schornalischd
schornalischde
schorsch
schows
schpa
schpayerer
schpeyer
schpeyerbach
schpeyerer
schpi
schpiel
schpieler
schpielt
schpira
schprooch
schprudel
schra
schraibd
schraibt
schraibwais
schraiwe
schraudolph
schreibd
schreibmaschine
schreibt
schreibweis
schreibweise
schreit
schreiwe
schribb
schridd
schriese
schriesemer
schriesemit
schriesheim
schrifd
schrifde
schrifdlich
schrifdlisch
schrifdschda
schrifdschdella
schrifdschdeller
schrift
schriftdaitsch
schriftenreihe
schriftlich
schriftsteller
schriwwe
schro
schrodd
schroin
schrot
schseit
scht
schta
schtaat
schtadt
schtatt
schteburi
schteht
schter
schterin
schterschafte
schtinkt
schtrauß
schtraußbuwe
schtroß
schtroße
schtroßefeschd
schtroßeziech
schtudende
schtudiere
schtudiert
schtuwwedeer
schu
schubbe
schubert
schudz
schudzpadron
schuh
schuhbetriebe
schuhfabrig
schuhfabrigge
schuhfabrik
schuhinduschdrie
schuhinduschtrie
schuhmann
schuhmuseum
schukow
schul
schuld
schulde
schuldisch
schule
schulhaus
schultheis
schultheiß
schultheißerei
schultz
schulz
schulzendrum
schum
schumanblan
schun
schuna
schunemol
schunmol
schunn
schunsch
schunschd
schunschdische
schunschdisches
schuschder
schuss
schutz
schutzwerdischkait
schuul
schuß
schwa
schwab
schwabe
schwaben
schwach
schwache
schwaddse
schwaddzwald
schwaighu
schwaische
schwaiz
schwaiza
schwaizer
schwalweneschd
schwange
schwankt
schwann
schwanne
schwartz
schwarz
schwarzbach
schwarzbachdal
schwarze
schwarzer
schwarzes
schwatt
schwatz
schwatzwald
schwawe
schwaz
schwaze
schwazeagger
schwazebach
schwazwald
schwea
schweapungd
schwede
schwedisch
schwedische
schwedischer
schwedzinga
schwedzinge
schweer
schweere
schweich
schweighouse
schweische
schweitzer
schweiz
schweizer
schweizerische
schweißtreibende
schwellbeiz
schwelle
schwemmfa
schwer
schwera
schwerd
schwerderkaffee
schwerdorff
schwere
schwerer
schwerere
schweri
schwerpungd
schwerpunkt
schwert
schwertgosch
schweschda
schwesder
schwetze
schwetzinga
schwetzinge
schwetzingen
schwetzinger
schwetzt
schweyen
schwi
schwiel
schwierisch
schwierischer
schwierischkaide
schwierso
schwihr
schwiller
schwimmbaad
schwimmbad
schwimmbegge
schwimme
schwimmlehrer
schwindel
schwinn
schwitze
schwo
schwobe
schwobse
schwoineblut
schwolf
schworscht
schwung
schœneck
science
sciences
scientific
scientist
scientists
sclafani
scope
scott
scratch
scy
sd
sda
sdaach
sdaachswahle
sdb
sdoro
sdr
se
sea
seal
search
season
seb
sebastian
sebastianska
sebbdemba
sebda
sebdemba
sebdember
sebdemberwocheend
sebtemba
sec
sechs
secht
sechzischer
sechzscha
secourt
secret
secretary
security
sedan
sedimende
sedum
sedzd
sedzda
sedze
see
seeba
seebach
seee
seehafe
seehd
seehn
seeje
seel
seelaid
seele
seelische
seem
seemaile
seen
seeschl
seeschla
seeschlboode
seeschle
seeschlschoi
seg
segeln
seggd
seggene
seggs
segleich
segler
segs
segzion
sehe
sehen
sehenswerdischkaite
sehenswert
sehenswirdichkaide
sehenswirdischkaide
sehenswu
seheswa
sehn
sehr
sei
seibel
seid
seide
seideda
seidedal
seidher
seidlich
seifert
seille
seim
sein
seine
seinem
seinen
seiner
seinere
seines
seingbouse
seit
seitda
seite
seiten
seje
sejen
sejnswirdischkaide
sekund
sekunda
sel
sela
selb
selbad
selbe
selber
selbschd
selbschda
selbschdiwwaschedzung
selbschdiwwazaischung
selbschdschda
selbschdstennische
selbschdverlach
selbscht
selbst
selbstverlach
selbstverlag
selde
seldene
seldener
seldenes
seldna
selegdiv
selegdive
self
selgdiv
sell
sella
selle
sellem
sellemols
sellen
seller
sellerzeit
selles
selli
sellmols
seltene
seltsra
seltz
selwa
selwad
selwe
selwer
selwerd
selwert
selz
sem
seme
semidische
seminar
sen
sena
senaad
senad
senador
senda
sendadive
sende
sendemaschd
sendemaschde
sender
sendung
sendunge
sene
seng
senior
seniorenochmiddache
senk
senkrecht
sens
senschboch
senschbochdal
sense
sensore
sentiert
senz
separatischde
separatischte
sepdember
sepp
sept
september
ser
serbie
serbisch
serbische
sere
sergio
serial
serick
serickgetra
serie
series
serigg
seriggang
serije
serio
sermamagny
serte
servelatwerscht
server
service
servigny
ses
seschd
seschemihle
sescht
seschza
sesl
seste
setz
setze
setzen
setzt
seu
seum
seune
seuner
sevenans
severity
sex
sexauer
seyer
sezd
sfraie
sgaie
shankar
shapiro
shatterhand
shift
shiva
short
show
shows
si
sibirie
sibirje
sibylla
sibzischer
sich
sicha
siche
sichel
sicher
sichere
sichergeschdellt
sichre
sichs
sicht
sichtchance
sickinge
sickinger
sid
side
sidend
sidende
sidendin
sidendscha
sidendschafdswahl
sidendschafdswahlkombf
sident
sideschdlisch
sideschtlich
sidfra
sidhesse
sidhessisch
sidhessische
sidhessisches
sidium
sidlich
sidlisch
sidlische
sido
sidoschde
sids
siduazion
siduazione
sidz
sidzunge
sidzveatailung
sidzvertailung
sie
sieb
siebeck
sieben
siebenpeiffa
siebzischa
siech
sieche
siechel
siecher
sied
sieda
siedameriga
siedasie
siedbade
sieddaitsche
sieddaitschlond
siede
siedelsbrunn
siedeschdlich
siedeschdlisch
siedeschdlische
siedfra
siedhesse
siedhessische
siedkorea
siedla
siedle
siedler
siedlich
siedliche
siedlicher
siedlisch
siedlische
siedlischi
siedlung
siedlunge
siedlungen
siedlungs
siedlungsfla
siedlungsgebied
siedlungsinsl
siedoiropa
siedoschdairopa
siedoschdasie
siedoschde
siedoschoiropa
siedpa
siedpalz
siedrhoifra
siedrusslond
siedsaid
siedschdaade
siedschdadt
siedschinesische
siedseit
siedufa
siedweschd
siedweschde
siedweschdlich
siedweschdliche
siedweschdlisch
siedweschdlische
siedweschdpalz
siedwescht
siedweschtpalz
siedwesdlische
siedwestpalz
sieg
sieger
siegfried
siegl
sieh
siehd
siehe
siehn
siehsch
siehschde
sieht
siehts
sielaif
siemens
siempre
sien
sierck
sierez
siersthal
sieschl
siewe
sieß
sieße
sießer
sige
sigginger
sigillata
sigismund
sigmaringen
signal
signale
signalsicht
signaltechnik
signalteschnisch
sihn
siide
sije
silber
silbernen
silene
sillegny
sillsbrunn
silly
silva
silvanes
silvange
silvani
silwa
silwasee
silwe
silweafang
silwer
silwerne
silwerner
sim
simde
simile
simma
simmern
simon
simone
simonie
sin
sinagog
sinai
sind
sinda
sinde
sindi
sine
siner
sinfoniee
sing
singd
singe
singers
singnale
singrist
singt
sini
sinkronisierd
sinn
sinne
sinner
sinnlos
sinns
sinnse
sins
sinse
sio
sipp
sirach
sirup
sis
sisch
sischa
sischahaid
sischd
sischda
sischdbare
sischde
sischdem
sische
sischelbach
sischen
sischer
sischere
sischerhaidsrad
sischerhaidsschdandard
sischerung
sischl
sischn
sischs
sischt
site
situation
sitz
sitze
sitzung
sitzveda
sitzverda
sitzverdeilung
siwe
siwwe
siwweja
siwweldinge
siwweldinger
six
sizilie
sizilje
skandinavie
skills
skippa
sklave
skonzla
skpdisch
skulbdure
sla
slam
slawe
slawische
sleight
sling
slogan
slogans
slond
slovic
slow
slowakai
slowakei
slowakische
slowenie
sm
small
smartphone
smartphones
smi
smiljan
smith
smus
snallygaster
so
soa
sobald
social
society
sociolinguistic
soda
sodass
soem
sofdwa
sofia
soford
software
sog
soga
sogaa
sogaar
sogar
sogena
sogenande
sogenannde
sogenannte
sogenennte
sogenonde
sogenonnde
sogenonnte
soggl
sognondi
sohl
sohle
sohllerrer
sohn
soi
soim
soin
soina
soinare
soine
soinem
soiner
soinere
soinerzeit
soko
solanum
solba
solche
sold
soldade
soldat
soldate
solgne
solida
soll
solld
sollde
solle
sollen
solln
sollse
sollt
sollte
sollten
solna
solong
solsche
solzburg
some
something
somid
sommer
sommerau
sommerlatt
sommlung
son
sona
sond
sondafall
sondan
sondann
sondara
sondas
sonddiene
sonderheft
sonderlich
sondern
sondschda
song
songd
songend
soniert
sonne
sonneborn
sonnern
sonntag
sonntagsgeschichten
sonora
sons
sonscht
soo
soonwald
sophia
sophie
sophonias
sorbey
sorche
sorde
sordiert
sorgd
sorge
sorgt
soria
sorsche
sorscht
sort
sorte
sotschi
sotzeling
sou
soucht
soultz
soultzbach
soun
source
sous
south
souvera
soviel
sowaid
sowas
soweit
sowie
sowiertische
sowjedunion
sowjetische
sowjetunion
sowohl
sozial
soziale
sozialen
sozialisdische
sozialisdischi
sozialismus
sozialpsychologie
sozialvasischad
sozijale
sozjale
sozusache
sp
spa
space
spachbi
spagheddimonschda
spaghetti
spaghettimonschda
spaghettimonsters
spanien
spass
spatz
spaziergang
spd
speaks
spechbach
special
speck
speder
speeches
speeda
speer
spegg
spehter
speier
spencer
speyer
speyerbach
speyerdorf
speyerer
speyergau
speyrer
spezialida
speziell
sphondylium
spice
spicer
spicheren
spiegel
spiegelberger
spiehler
spiel
spiela
spield
spieldaa
spiele
spieler
spielt
spihlt
spindler
spira
spiralfermisch
spirensis
spitz
spitze
spiznomme
spontanga
spoo
spooder
spordliche
sport
sportliche
sprach
sprache
sprachen
sprachlandschaft
sprachliche
sprachra
sprachraum
sprachwissenschaft
sprater
sprechen
sprecher
sprich
sprichwo
spring
springer
sproch
sprooch
sprooche
spru
sprung
spuert
spure
spvgg
sr
sre
srebublig
srebubligg
sri
ss
ssa
ssad
sschda
sschdadt
ssd
sse
ssedorf
ssel
sseldorf
sser
sserburig
ssern
ssert
ssig
ssisch
ssische
ssischen
ssle
sso
sst
sswiller
st
sta
staab
staade
staat
staate
staaten
staatl
staatlich
staatliche
stab
stadd
staddbild
stadion
stadler
stadt
stadtarchiv
stadtbezirk
stadtbu
stadtbus
stadtda
stadtdeel
stadtdeil
stadtejl
stadtentwicklung
stadtgeschichte
stadtmauer
stadtportrait
stadtrat
stadtrechte
stadtreschde
stadtteilverein
stadtumbau
stadtverordnedeversa
stadtverwaltung
stadtwald
staffel
stafford
stahl
staiba
staisulz
staiweri
stallman
stamme
stammt
stand
standard
standardisierung
standards
standortdaten
standorte
stanford
stangl
stanley
stanselz
star
stark
starnebarg
starratt
start
stat
state
statements
states
statistics
statistik
statistische
statistisches
statt
stattdesse
stattfinne
stattrot
statue
status
staufen
stauferzeitliche
stauffenberg
staufische
staweba
std
ste
steckbriefe
steckling
stee
steebruch
steerk
stefan
steffen
steg
stehd
stehe
stehen
stehn
steht
steige
steiget
steil
stein
steinach
steinbach
steine
steiner
steinha
steini
steinsfurt
stell
stella
stelld
stelle
stellt
stellvertreter
stenburg
stengel
stephan
stephanie
stephanus
stephen
sterben
stern
sternberg
sterreich
sterreichisches
stert
steuere
steve
sti
stica
stichwort
stick
stickstoffhaltich
stie
stiermer
stift
stiftung
stigme
stil
still
stimm
stimmt
stiring
stlich
stliche
stlisch
sto
stockheim
stoewer
stoggholm
stoll
stolle
stoltzfus
stolz
stoncourt
stone
stooswihr
stoppelfelder
storchenbluemen
stories
storksoh
story
stotze
stra
straidkra
strait
strandschreck
strasbourg
strasse
strategy
straw
straßburg
straße
streben
streck
strecker
streit
strohhutfescht
strom
stroosburi
strooß
strooße
stroustrup
stroß
stroße
stroßerenne
stru
strukturen
struth
stu
stuckange
students
studie
studien
studierende
studies
studium
studjos
study
studying
stumpf
stundwiller
sturm
sturmtruppe
sturzelbronn
stutensee
stuttgart
stuttgarter
style
su
suarce
subbacombjuda
subschdanze
subsp
substantive
success
such
sucha
suchd
suche
sucht
sugaa
suhn
suisse
sukasada
sul
sulawesi
suldanad
sulong
sultan
sulz
sulzba
sulzbach
sulzere
sulzma
sumbf
summ
summa
summer
summerbohnekraut
summerdagszug
summers
sumpf
sun
sundaach
sundach
sundahl
sunderna
sundgau
sundhofe
sundhu
sung
sungerschderf
sunn
sunna
sunnan
sunndach
sunndag
sunnebrigg
sunnekeenisch
sunnern
sunnerna
sunneschoi
sunnesee
sunnesyschdem
sunnische
sunnisches
sunsch
sunschd
sunschdiches
sunschdisches
sunscht
sunsdisches
superbiam
superior
superstition
supp
supplementation
supplements
sur
susan
susanna
susanne
suu
suuch
suun
suwara
suzanne
sv
svg
sw
swf
swil
swisch
swr
sy
sylvestris
symbol
synagoch
synagoche
synagochegass
synagog
synagoge
synagoog
synode
synonym
syntax
synthesis
syrie
syringa
syschdem
syschdematik
sysdemadische
system
systeme
systems
sz
t
ta
taadsa
taafe
tabell
tabelle
tabellepladz
tach
tacitus
tadd
tafel
tag
tage
tages
tagesschau
tail
tailgebied
tairies
taiwon
taken
taking
tal
talange
talent
talga
talgans
talibu
talk
talking
talljewefze
talmudvabra
taman
tang
tangs
tanks
tanne
tanschda
tanstein
tapetewechsel
taraxacum
tare
tarifgebied
tarquimpol
tas
tasa
taschenbuch
taschereschna
tass
tat
tatsa
tatsach
tau
tauber
taunus
tavris
taxobox
taxonomie
taylor
taz
tc
te
team
teamfehla
teau
teba
technig
technik
techniques
technisch
technische
technisches
technology
ted
tee
teen
teer
tees
tefan
teglisch
tegschd
tegschde
tehme
tehoffe
teil
teile
teilnehmer
teilweis
tel
telefon
teleskop
teleskopkran
telet
tell
telld
telling
teltschik
tembel
temberadur
temberadure
temberadurschwangunge
temberadurunnerschied
tembl
temblolaach
temperadur
temperatur
templba
temple
tempo
ten
tendenz
tendenziell
tendu
tennis
tennisclub
tenois
tenquin
tenteling
ter
terchen
terex
term
terms
terra
terrain
terrische
territoire
territorial
territorie
territorium
terrorischde
terrorism
terverordnung
terville
terzia
teschd
teschdamend
teschder
teschdmargd
teschnig
teschnigg
teschnigge
teschniggmuseum
teschnisch
teschnische
teschnisches
teschnischi
teschnologie
teschnologije
teschtamend
teschtprojekt
tesla
tessa
test
testing
tet
teting
teufel
texas
texd
texde
text
texte
tgv
th
tha
thailond
thal
thaler
thalys
than
thann
that
the
theada
theadakaad
theadaschdigg
theader
theaderschdigg
theater
their
theiss
them
thema
theme
theo
theodor
theolog
theologie
theologische
theophanu
theoredisch
theorie
theorieje
theories
theory
there
therische
thes
thesaurus
these
thessalonicher
they
thiancourt
thicourt
thieringe
thimonville
thing
things
think
thinking
thionville
thiringe
this
thiusk
thomas
thompson
thon
thonville
thor
thorax
thorndike
threat
threatens
threats
through
thu
thumb
thumbnail
thun
thymian
ti
tiam
tibbisch
tibbische
tibisch
tibische
tibisches
tiche
tiddel
tidl
tie
tiech
tief
tiefebene
tiefewene
tieffenbach
tieflond
tiefseeschlomm
tier
tierarde
tiere
tiiringa
till
tille
tillerson
tilleul
time
times
timotheus
timothy
timur
tincry
tinkerbell
tipisch
tipischawais
tipische
tipp
tirge
tirgisch
tirgische
tirkai
tirkei
tirm
tirol
tiroler
tirta
tirtagangga
titel
titus
tive
tlichkeit
to
tobacco
tobias
tobit
tod
today
todd
todesdaach
todschlachagumend
tokio
tom
tomania
tomas
ton
tond
tonn
tonne
tonnen
tonnerre
top
topf
topographia
topographischen
topographischi
tor
torcheville
torg
torm
toromanisch
toronto
torsten
torvalds
torz
tot
totally
toten
tour
tourischde
tourismus
tourismusregion
town
tra
trachee
trade
tradidsionell
tradition
traditionell
traditionelle
tradizion
tradizione
tradizionell
tragen
tragfa
tragny
tragus
traiba
train
trainer
trang
trange
trans
transportiert
trapp
trasse
traubach
traum
traumschiff
trauwe
tre
trebbe
treffe
treffen
treffpunkt
tremmel
tremulous
trend
trennd
trenne
trennung
treppe
treppen
treppeturm
tressange
treue
tria
trias
triathlon
tribbschdadt
tribune
tricks
tricolore
tridd
trieb
triebfahrzaisch
triebwache
trier
trifels
trifolium
trigne
trimmer
trinke
tripolis
trippschdadt
tritteling
triumph
triumphalis
trivia
tro
trockene
trodz
trodzda
troie
troisfontaines
troja
trojanisch
tromborn
tromm
trotha
trotz
trotzda
trotzdem
tru
trubbe
truchschluss
trudel
true
trufant
truge
truggenschde
trugschluss
trump
trumpp
trumps
trunzerhaus
truppe
trust
truth
truths
truuschel
truuschele
ts
tsbibliothek
tsbu
tsch
tscha
tschau
tschechie
tschechisch
tschkes
tschoffe
tsel
tsg
tt
ttc
tte
tteba
ttedorf
ttelbarige
ttelhu
ttelschafelse
ttelse
ttelwihr
tten
ttene
tter
tterba
ttersche
tteschwi
tti
ttingen
ttje
ttla
ttle
ttliche
ttma
ttre
ttschet
ttse
ttwiller
tu
tuam
tuberkulos
tuberosum
tudo
tue
tueffont
tuffe
tulla
tun
tunell
turbu
turischde
turismus
turm
turmnamen
turnhall
turnhout
turnier
turnverein
turquestein
tus
tut
tuts
tuwak
tuwakinduschdrie
tv
tversky
tweet
tweets
twerscht
twiller
twin
twitter
two
tybisch
tymologique
typ
typisch
typische
typischerweis
tz
tza
tze
tzebuerg
tzeda
tzedorf
tzel
tzelhu
tzelsta
tzen
tzene
tzer
tzig
tzinga
tzl
tzlich
tzlisch
tzne
tzner
tzt
u
ua
uabha
uabwohl
uadeel
uakund
uasache
uaschbringlisch
ub
uba
ubschdadt
ubstadt
ubud
ubuntu
uch
uche
uckange
ude
udekomplex
udssr
ueberblick
uefa
uetersen
uf
ufa
ufbau
ufbaue
ufbewahrd
ufc
ufde
ufer
uff
uffa
uffbau
uffbaue
uffberaidung
uffbewahrt
uffda
uffde
uffdra
uffdraach
uffdrach
uffdrede
uffdreede
uffdridd
uffeaschdejung
uffem
uffeme
ufferschdehung
ufffa
ufffassung
uffg
uffga
uffgaab
uffgab
uffgawe
uffgbaud
uffgebaud
uffgebaut
uffgedaild
uffgedeilt
uffgeha
uffgehob
uffgeleesd
uffgeleest
uffgelesd
uffgelockert
uffgemach
uffgemacht
uffgenomm
uffgenumm
uffgenumme
uffgeschdelld
uffgeschribb
uffgewwe
uffgeza
uffgfalle
uffgfoadad
uffgfordad
uffghowe
uffgmachd
uffgnumme
uffgong
uffgonge
uffgrund
uffgschdeld
uffgschdelld
uffgschdellt
uffgschriwwe
uffguß
uffiehrung
uffkalde
uffkead
uffkomme
uffkowe
uffkumme
ufflaach
ufflach
ufflag
uffleese
uffleesung
ufflesung
ufflo
uffm
uffmergsomkaid
uffn
uffna
uffnemme
uffnohm
uffreschd
uffruuf
uffs
uffsa
uffschda
uffschdand
uffschdelle
uffschdieg
uffschdond
uffschwung
uffsenemme
uffsischd
uffstiech
ufftrach
uffwond
uffzieg
uffzubaue
uffzubauwe
uffzuschdelle
ufgaab
ufgab
ufgebaud
ufgebaut
ufgebroch
ufgeda
ufgeschwemmt
ufgetaucht
ufgewagse
ufgfiehrt
ufgleesd
ufgrund
ufgschdelld
ufgwagse
ufich
ufisch
ufkumme
uflaach
uflesung
uflo
ufm
ufn
ufna
ufs
ufschda
ufzbaue
ug
ugefa
ugfa
ugfehr
ugligg
uha
uhgfehr
uhne
uhr
uhre
uhrzaigasinn
uhrzaigersinn
ujung
uk
uklaa
ukraine
ukrainer
ukrainisch
ukrainische
ukw
ulanen
ule
uler
ulfebach
ulfebachdal
ulischkaid
ulrich
ulrike
ulrisch
ulster
ulun
um
uma
umb
umbaue
umbenennd
umde
umdie
ume
umen
umfa
umfang
umfassd
umfasst
umfeld
umfong
umfroche
umg
umga
umgang
umgbaud
umgbrochd
umgebaud
umgebaut
umgebrochd
umgebung
umgeewung
umgehe
umgekehrt
umgewannelt
umgewung
umgewwe
umgongschbrochlisch
umgongsschbrooch
umgschdalded
umgsedzd
umiddelbaa
umkomm
umkrais
umkumme
umland
umliechende
umliegende
umlischi
umlond
umm
umma
ummauwad
ummen
ums
umsads
umsadz
umschda
umschdridde
umschlachsbladz
umschlosse
umse
umseeschld
umso
umsta
umwannele
umweld
umwelt
umweltbundesamt
umweltpolitik
umzuch
umzuuch
un
una
unabha
unadeeld
unam
unare
unauswaischlisch
uncertainty
und
undde
unde
under
underground
undie
undo
une
unem
unen
unes
unesco
unfallwahrschainlischkait
ungaan
ungan
ungarn
ungefa
ungenauischkait
ungersche
ungfa
ungl
uni
uniform
uniforme
union
unit
united
universal
universida
universided
universita
university
universum
universums
uniwa
uniweasideed
uniwersida
unix
unkel
unm
unma
unmoralisch
unn
unna
unnabrischd
unnade
unnadesse
unnaelsass
unnagschoss
unnahald
unnahbare
unnakabell
unnakumme
unnalassunge
unnam
unnamied
unnan
unnana
unnanehme
unnanehmensgrubb
unnanumm
unnapalz
unnare
unnarichd
unnarischd
unnarischde
unnas
unnaschaid
unnaschaide
unnaschdelld
unnaschdidsung
unnaschdidzd
unnaschdidze
unnaschdidzung
unnaschdizung
unnaschied
unnaschiedlich
unnaschiedliche
unnaschiedlisch
unnaschiedlische
unnaschiedlischi
unnasuchd
unnasuchunge
unnasuschd
unnawassanationalpaag
unnawegs
unnaweschs
unnazoche
unnde
unne
unnem
unnen
unner
unnerart
unnerbau
unnerbeza
unnerburch
unnerda
unnerdaile
unnerdeelt
unnerdorf
unnerdriggd
unnere
unnerelsaß
unnerfra
unnergebrocht
unnergeerig
unnergeerjem
unnergeerung
unnergeoadna
unnergliedert
unnergrund
unnerhal
unnerhalb
unnerhalde
unnerhambach
unnerirdische
unnerkom
unnerlaaf
unnerm
unnernanner
unnernehme
unnernemme
unnerordnunge
unnerprefegdur
unnerrischd
unnerschaide
unnerschaidung
unnerschde
unnerschditzt
unnerschdonne
unnerscheide
unnerscheidung
unnerschied
unnerschiede
unnerschiedlich
unnerschiedliche
unnerschiedlicher
unnerschiedlisch
unnerschiedlische
unnerschlundganglion
unnersuchd
unnersuchunge
unnerwegs
unnes
unniglinigg
unnma
unnn
unns
unnse
unnuch
uno
unprecedented
unrecht
uns
unsa
unsah
unsam
unsan
unsara
unsare
unsari
unsdorf
unser
unsere
unserem
unserer
unserm
unsern
unsre
unten
unter
untera
unteren
unterfra
unterfranken
unterm
unternehme
unternehmensfo
untersuchungen
untruths
up
upright
ur
uraischnes
ural
urban
urbeis
urcerey
urda
urdaile
urdeel
ure
uregelma
ureschd
urknall
urkund
urkunde
urkundlich
urkundlisch
ursach
ursache
urschbringlich
urschbringlisch
urschbringlische
urschbru
urschbrung
urspringlich
urspringlisch
urspru
ursprung
ursula
urtica
urwes
us
usa
uschen
use
used
user
usern
userwu
uses
usgrufe
uspd
usw
ute
uter
uterung
uterungen
utigam
utm
uttenheim
uua
uuabha
uub
uubedingd
uudief
uufa
uug
uugefehr
uugfa
uugfea
uugfillde
uugligg
uugsund
uugsundes
uugwaide
uuhaldba
uukaija
uumiddelba
uumiddelbaa
uumoralisch
uuna
uune
uunesglaische
uuno
uuwissehaid
uwische
uzna
uzname
uzsprisch
v
va
vaa
vaachdung
vaagla
vaba
vabasse
vabind
vabindung
vabindunge
vabinnung
vabliwwene
vabod
vabode
vabond
vabondsg
vaboode
vabra
vabraid
vabraide
vabraided
vabraidede
vabraiden
vabraidung
vabrait
vabrauch
vabraucha
vabrennd
vabrochd
vabunn
vabunne
vada
vadaidischd
vadaidischung
vadda
vaddalandsverein
vadder
vade
vadie
vadiend
vadiene
vadient
vadikan
vadra
vadraach
vadraud
vadrauensfrooch
vadrauwe
vadreda
vadrede
vadredung
vadriwwe
vadrooch
vaeffendlischd
vaeffendlischunge
vafahre
vafall
vafassd
vafassung
vafischd
vafischung
vafolschd
vafolschung
vaga
vagandezaid
vageblisch
vageewlich
vagesse
vagewwe
vagifde
vagla
vaglaisch
vaglaische
vaglische
vagniesche
vagongehaid
vagongene
vagreßad
vaha
vahafd
vahaiad
vahalde
vaheldnis
vahinnad
vahinnare
vahinnere
vahl
vahungan
vakaafd
vakaafe
vakaafsflesch
vakaafsteschnigge
vakaf
vakea
vakeasfla
vakeaslondeblads
vakeasunanehme
vakeasvabund
vakehr
val
valaach
valaachad
valaafd
valaafe
valauf
valdieu
valdivia
valdoie
vale
valedze
valeht
valentin
valerianella
valerie
valescha
valeschd
valf
validity
valiehe
valierd
valiere
vallenato
vallerange
valley
vallon
valmestroff
valmont
valmunster
valoan
valoimdunge
valongd
valoore
valore
valoss
valosse
valparai
valter
value
valuschd
valuschdongschd
vamaide
vameesche
vamiddle
vamischd
vamoindlische
vamude
vamuud
van
vange
vangene
vaninfdisch
vannecourt
vantoux
vanunfd
vany
vaoandwoadung
vaoi
vaoinischde
vaondwordlisch
vaondwordung
vapachd
vapaggd
var
varia
variable
variand
variande
variiere
vario
variond
varionde
variskische
varize
varoi
varoin
varoine
varsberg
vas
vasa
vasalle
vascha
vaschbra
vaschbresche
vaschda
vaschdeagd
vaschdehd
vaschdeje
vaschdendnis
vaschdond
vaschdonne
vaschdorwene
vaschengd
vaschiedene
vaschiedenen
vaschiedne
vaschiewe
vaschond
vaschwerungstheorije
vaschwind
vaschwunne
vasehnung
vasorge
vasperviller
vasuch
vasuchd
vasuchdma
vasuche
vasuchen
vasuchsdailnehme
vasucht
vasuuch
vater
vatikanische
vatikanischen
vatikanstadt
vatimont
vaudreching
vaurdaild
vaursachd
vauthiermont
vauuglimpfd
vauuglimpfung
vaux
vawa
vawais
vawalde
vawalded
vawaldung
vawaldungsg
vawaldungsgliedarung
vawaldungsreform
vawaldungssidz
vawaldungswisseschafde
vawaltung
vawande
vawegseld
vawegsle
vawend
vawendung
vawieschd
vawiesd
vawond
vawonde
vawondschaft
vawondt
vaxy
vaza
vazerrung
vazischd
vazischde
vb
vbood
ve
vea
veabandsgema
veadl
veazee
vebandsgema
vebesserung
vebindung
vebondsgema
vebunn
veckersviller
veckring
veda
vedantam
vedeeld
vedoreschd
vegelshofe
veha
vehinnre
vekaafd
vekehrsverei
vekehrsvereins
vekla
veldenz
veleet
velga
velgamoad
velger
velgerungsdischd
vellerdi
vellescot
vellisch
veloor
velor
veloss
velse
veltehouf
veltenhejwer
veltenhejwersch
veltenhof
velving
vemischt
venans
vendenheim
veneur
venezuela
venninge
venninger
vents
veplichd
ver
vera
verain
verainde
veraine
verainischd
verainischde
verainischdes
verainische
verainischung
verandwordlich
veranstaltungen
verarweide
verarweidung
verarweit
verb
verbal
verbale
verband
verbandsfreie
verbandsgema
verbandsgemeinde
verbandsgemeinderat
verbandsgma
verbe
verbesserte
verbind
verbindung
verbinne
verbondsgema
verbott
verbra
verbraided
verbreid
verbreidt
verbreidung
verbreit
verbund
verbunne
verbunnene
verda
verdailung
verdaue
verdauungskanal
verdauungssyschdem
verde
verdeilt
verdeilung
verdel
verdelfinale
verdraach
verdrede
verdreder
verdriwwe
vere
verecundiam
vereffendlischd
verein
vereine
vereinigte
vereinigung
vereins
vereinshomepage
vereinten
vereu
verfassung
verfiechd
verfiechung
verfiegbar
verfiegung
verfiichung
verfischd
verfolge
verfu
verga
vergangenheit
vergaville
vergebb
vergeere
vergesse
vergewwe
verglaisch
verglaischende
vergleich
vergleisch
vergreßert
verha
verhaftet
verhaierd
verhaiert
verhalde
verhalle
verhas
verheirat
verkaaf
verkaafd
verkaafe
verkaaft
verkehr
verkehrsfla
verkehrsknodebunkt
verkehrsverbund
verkehrsverein
verkindischung
verkla
verl
verla
verlaafd
verlaafende
verlach
verlachert
verlag
verlags
verlagsanstalt
verlagsgesellschaft
verlagsgruppe
verlasse
verlegt
verleihung
verliehe
verliere
verlor
verlore
verlorn
verlorne
verlust
verluste
vermehrt
vermehrung
vermud
vermude
vermudlich
vermut
verne
verny
vero
veroi
veronschtaltunge
verooschdaldunge
veroschdaldunge
verpa
verpfa
versaai
versailles
versbuch
verschda
verschdanne
verschiede
verschiedene
verschiedenes
verschiedne
verschierene
verschiewe
verschmelze
verschwindt
verse
versen
versetzt
version
versorgd
versproche
versteht
versuchd
versucht
versuchung
versus
verteidischung
verteilt
verteilung
vertel
vertond
vertra
vertrag
verwa
verwachse
verwalded
verwaldung
verwaldungssidz
verwaldungssitz
verwalt
verwaltung
verwaltungsgeschichte
verwaltungswissenschaften
verwandt
verwe
verweis
verwend
verwende
verwenden
verwendt
verwendte
verwendung
verwenne
verwerfunge
verwidderung
very
verza
verzehlt
verzeichnis
verzichten
verzweigt
ves
vescemont
vescheim
veschickt
veschiedene
veschiedne
veschl
vesiehn
veste
vetraach
vette
vetter
vewaldung
vewaldungsreform
vewaldungssitz
vewende
vewendt
vfb
vfk
vfl
vfr
vg
vgl
vi
via
viabus
viadugd
vibersviller
vic
vices
victoria
vidamin
video
videos
vie
viea
viech
viecher
vieh
viehhof
viel
vielaischd
viele
vieles
vielfa
vielfach
vielfalt
vieli
viellaischd
vielleicht
vielseidisch
vielzahl
vier
vierschburisch
vierteljahresheft
vierteljahreshefte
vierter
viescher
vietnam
vietnamkriesch
vieux
vigneulles
vignoble
vigny
vigy
vii
viii
viktor
vill
villa
village
villars
ville
villeischt
viller
villers
villing
villinge
vilsberg
vilson
vincent
vintrange
vionville
virginia
virming
virtual
virtues
visawi
visawie
vischy
viscusi
visual
vitamin
vitry
vittersbourg
vittoncourt
viva
viviers
vizema
vladimir
vleisch
vo
voa
voaallm
voabai
voadapa
voadapals
voade
voadraach
voaga
voaha
voahall
voahea
voaheasache
voaherisch
voahondene
voakumme
voalaifa
voalesche
voaliewe
voam
voaorde
voaschdadd
voaschdelle
voaschdellung
voaschlaach
voaschlehd
voazaid
vochel
vochelbach
vochelschutzgebiet
vochlgsong
vocourt
vodderpalz
vogel
vogelgrien
vogese
voggal
vogt
vohea
voimhaut
vokal
vokale
vokalisierdes
vokalsystem
vol
volg
volgelse
volgriehd
volgsfeschd
volgsgraizzuch
volgsschul
volgsza
volk
volker
volkes
volkschburi
volksforschung
volkskund
volkskunde
volksmund
volksna
volksnamen
volkswagen
voll
volle
vollem
voller
vollja
vollschda
vollschdennich
vollsta
volmerange
volstroff
volume
vom
vomm
vomme
von
vonde
vonn
vor
voralbelond
vorallem
voraus
vorausgehendem
vorausgehendes
voraussichdlich
vorba
vorbai
vorbei
vorbereirende
vorbereiring
vorbereit
vorbild
vorburch
vorda
vordaburg
vordail
vordapa
vordeel
vorder
vorderdarm
vordere
vorderer
vordergrund
vorderpa
vorderpalz
vorem
vorfahre
vorfahren
vorg
vorga
vorgedraare
vorgedrunge
vorgeje
vorgelegt
vorgenumme
vorgeschlaa
vorgeworfe
vorgschdellt
vorgschischd
vorgschriwwe
vorhande
vorhanne
vorhawe
vorher
vorheriche
vorherrschend
vorherrschende
vorhondene
vorkomme
vorkumme
vorkummt
vorla
vorlage
vorm
vormerz
vorn
vorne
vornehmlich
vorpommern
vorpommre
vors
vorschdeher
vorschdelle
vorschdellung
vorschdellunge
vorschla
vorschrifd
vorsidz
vorsingnale
vorsischd
vorsitzenda
vorsitzende
vorsitzender
vorstelle
vortra
vorurdeel
vorwa
vorwerk
vorwiegend
vorwirf
vorwurf
vosges
voters
voue
vous
vox
voyer
vr
vrahovice
vrange
vremont
vrn
vry
vs
vsg
vu
vul
vulgaris
vulgus
vulka
vulkanide
vulkanismus
vulkanit
vulmont
vum
vumm
vumma
vumme
vumne
vun
vuna
vunare
vunde
vundem
vundene
vunem
vung
vunm
vunn
vunna
vunnare
vunnde
vunnem
vunnera
vunnere
vunnrer
vunre
vunrem
vunremm
vuun
vwind
vy
vœlfling
w
wa
waa
waad
waade
waahaid
waam
waan
waane
waans
waar
waara
waardtuam
waare
waarn
waas
waaschoints
waase
waasgau
waaß
wabbe
wabben
wach
wache
wachene
wachnm
wachse
wachsen
wachst
wacht
wachtelkenisch
wackelse
wadds
waddwiller
wadgassehof
wadigaan
wadikaan
wadikan
wadle
waffe
waffelacha
waffeschdillschdand
wage
waggongs
waggse
wagner
wagschaid
wagse
wah
wahl
wahlb
wahlbedeilischung
wahlbedruch
wahle
wahlen
wahlergebnisse
wahlga
wahlgrais
wahlkampf
wahlkombf
wahn
wahnehmung
wahnsinn
wahre
wahrschains
wahrscheinlich
wahrschoinlich
wahrzeische
wahschoinlisch
wai
waiblische
waibscht
waiche
waichsel
waid
waida
waidaa
waidahin
waidakumme
waidare
waidari
waide
waidego
waider
waidere
waiderer
waideres
waiderfahre
waideri
waideschde
waih
waiher
waija
wail
waila
waile
wailer
wailm
wailma
wails
wailse
waimara
waimarer
wais
waisch
waische
waischewa
waisd
waise
waiseburch
waisemsand
waishait
waisrem
waisseburich
wait
waitere
waiß
waiße
waißebuasch
waißeburch
waißebursch
waißeburscha
waißer
waißrusslond
walbach
wald
walda
waldbra
waldbrunn
walde
waldegg
waldenburg
walderholung
waldes
waldfischbach
waldfischbacher
waldfla
waldfriedhof
waldgebied
waldgebiet
waldhilsbach
waldhof
waldhouse
waldkirch
waldlehrpad
waldlehrpfad
waldmark
waldmeister
waldpark
waldsee
waldsiedlung
waldva
waldweistroff
waldwimmerschbach
waldwisse
wale
wales
walker
wall
walldoaf
walldorf
walldu
wallfahrt
wallfahrtsort
wallis
wallstadt
walmdach
walrom
wals
walsch
walschbronn
walscheid
waltembourg
waltenheim
walter
walther
walton
walwich
walz
walzer
wamer
wamiba
wamma
wammer
wan
wanadoo
wand
wandaweesche
wandel
wandersmann
wanderwalter
wane
wangen
wann
wanna
wannde
wanner
wannere
wanns
wannsde
wannse
wanse
wanted
wanzwi
wappe
wappen
wappenbuch
wappenkunde
war
wara
ware
waren
warer
wares
wariande
warm
warmes
warmgema
warming
warn
warna
warning
warre
wars
warschau
warschaua
warscht
wartberg
wartturm
warum
was
wasa
waschtha
wasde
wase
wasgau
washington
wasma
wasn
wasne
wason
wass
wassa
wassadurm
wassafla
wassapalaschd
wassaschaid
wassaschboadvaroi
wassaschdoff
wasse
wassem
wassen
wasser
wasserfehd
wasserfla
wasserli
wasserowwerfla
wasserschdoff
wasserschloss
wasserturm
wasservorrat
wassma
wat
watch
water
wattelse
way
wdr
we
wea
wead
weada
weadde
weade
weads
weadschafd
weag
weagzaisch
wearreraa
web
weber
webling
weblings
weblink
weblinks
webpeidsch
webpra
websaid
websaide
websait
webseid
webseidde
webseide
webseite
website
webverwais
wech
weche
wechelnburch
wechem
wechsel
wechseld
wechselnde
wechsle
weck
wedd
wedda
wedder
wedebrunne
weder
wee
weech
weeche
weege
weeje
weenscha
weenschns
weer
wees
weesch
weesche
weeschede
weesma
weeze
weeß
weeßes
wefalls
wefze
weg
wege
wegelnburch
wegem
wegg
wegge
weggefall
weggenumme
wegger
weggfalle
weggong
wegsche
wegseld
wegselnde
wegsl
wegsle
weh
wehla
wehld
wehling
wehr
wehra
wehrend
wehrlose
wehrmachd
wehrmacht
wehrschdachel
weht
wei
weibche
weibcher
weiblisch
weiblische
weid
weida
weidare
weide
weider
weidere
weiderhie
weideri
weiders
weidlich
weier
weihen
weiher
weihnachde
weihnachten
weihnachtsgedichte
weihnachtsgeschichten
weihnachtsmann
weije
weil
weila
weilbach
weiler
weilerkopp
weils
weilse
weimar
weimarer
wein
weinbau
weinbrenner
weinem
weingut
weinheim
weinheimer
weinstrasse
weinstraße
weire
weirer
weis
weisch
weise
weiseburch
weisen
weisenheimamsand
weisheit
weislingen
weisrem
weiss
weist
weit
weitbruch
weite
weiter
weitere
weiteres
weiterhin
weiß
weiße
weißeburch
weißenburg
weja
weje
welche
welcome
weld
weldall
weldgriech
weldgriesch
weldkaad
weldkriech
weldkrieg
weldkriesch
weldkulduaeawe
weldlisch
weldlische
weldma
weldraumorganisatione
weldvoaha
weldwaid
welf
well
wella
welle
wellebad
wellem
wellen
weller
welles
wellfla
wellho
welli
wellness
welsche
welsches
welschi
welse
welt
weltachs
weltall
weltbild
weltbildverlag
weltgeschicht
weltgeschichte
weltkriech
weltkrieg
weltkrieges
weltkriesch
weltkulturerbe
weltma
weltraum
weltraumorganisation
weltraumorganisatione
weltweit
welwung
wem
wemm
wemmas
wemmer
wen
wenau
wend
wende
wendel
wendeldrebb
wendeltrepp
wengerde
wenich
weniger
wenisch
wenischa
wenische
wenischer
wenn
wennich
wennicher
wennigschde
wennisch
wennischa
wennische
wennischer
wenns
wenschns
wenzahn
wer
werach
werba
werbung
werburba
werd
werda
werdabuch
werddeba
werddeberg
werde
werden
werder
werderbuch
werderbuchnetz
werds
werdschafd
werdschaft
werdvoll
werdvolle
were
weren
werenzhu
werft
werg
werge
werk
werke
werklich
werklisch
werkschda
werksrealschul
werkzaisch
werkzeich
wern
werner
wernher
wernonner
werra
werrd
werre
werren
werrense
werrn
werrt
wers
wersaia
wersau
werschd
werschdorf
wersche
werscht
werschwiller
werstrooss
wert
werte
werth
wertheim
wertra
wertschaft
werwung
werze
wes
wesa
wesch
weschbau
weschd
weschdairopa
weschdbau
weschde
weschdeel
weschdfa
weschdfaale
weschdfasad
weschdfassad
weschdlich
weschdliche
weschdlisch
weschdlische
weschdmiddeldaitsche
weschdoiropa
weschdpa
weschdpals
weschdpalz
weschdpole
weschdsaid
weschdufa
weschdufer
weschdweag
wesche
weschede
weschem
weschendlisch
weschm
weschmiehl
weschnitz
wescht
weschtfa
weschthoffe
weschthu
weschtlich
weschtliche
weschtlische
weschtpa
weschtpalz
weschtschdadt
wesd
wesde
wesdfa
wesdlisch
wesdlische
wesdschdaade
wese
wesendlisch
wesendlische
wesentlich
wesentliche
weshalb
wesingnale
weso
wessd
west
western
westeuropa
westlich
westliche
westlische
weswesche
wettbewerb
wetter
wettersatelliten
wewa
weyer
weyersheim
what
whataboutism
when
which
while
white
who
whole
why
wi
wia
wiaddebeasch
wiaglisch
wichdich
wichdichschde
wichdige
wichdigschde
wichdisch
wichdische
wichtigste
wickersche
wickerschwi
wida
widaschrischlisch
widbru
widda
widdahold
widdaholde
widdaholung
widdaleschd
widdalesche
widdan
widdarum
widdaschbreschen
widdaschbruch
widdaschdond
widdauffbau
widdaufs
widdeba
widdee
widdelsbacher
widder
widderschdandsfa
widderufbau
widderuffbau
widdheagschdellt
widdlsbacha
wide
wider
widerstand
widfraa
widsole
width
widwe
wie
wiea
wieblinge
wieda
wiedahold
wiedarum
wiedaverainischung
wiede
wieder
wiederau
wiederholt
wiederspruch
wiederuffbau
wiegenliedwww
wiegt
wiem
wiema
wien
wiena
wiener
wiera
wieramol
wiere
wies
wiesbaden
wieschd
wieschde
wiesde
wiese
wiesemann
wiesen
wieslauder
wiesmann
wiesviller
wieviel
wigipedia
wihr
wiki
wikileaks
wikimedia
wikinga
wikipedia
wikiquote
wikisource
wikivoyage
wiktionary
wild
wildbahn
wilde
wilden
wildentenweg
wilder
wildersbach
wildkatze
wildnis
wildpflanzen
wildwutze
wilesta
wiley
wilfried
wilhelm
wilhelms
wilhelmsfeld
wilhelmsfelder
will
willa
wille
willem
willer
willerwald
willi
william
willibald
willischen
willm
willma
willsch
willschd
wilson
wiltzhu
wimmerschbach
wimpfe
win
winburi
winchenbach
wind
winda
winde
winder
winderbohnekraut
windkraftanlach
windkraftanlache
windows
windparks
wine
winfried
winga
wingad
wingen
wingersheim
wingert
wingl
wingolf
winkel
winn
winna
winnder
winne
winnetou
winning
winnweiler
winnwiller
winter
winterfeld
winters
wintersbourg
winza
winzeln
winzer
winzerdorf
winzerschaft
winzinge
winzische
winzle
winzler
wir
wira
wirbeltiere
wird
wirddeba
wirddeberg
wirddebersch
wirdschaft
wirf
wirge
wirglisch
wirglische
wirglischkaid
wirgung
wirken
wirklichkeiten
wirkt
wirkung
wirra
wirrdeba
wirre
wirrer
wirreruffstiech
wirsche
wirth
wirtschaft
wirtschaftliche
wisawi
wisawie
wisch
wischd
wischdich
wischdigschd
wischdigschde
wischdigsde
wischdisch
wischdischa
wischdischde
wischdische
wischdischer
wischdisches
wischdischi
wischdischkaid
wischdlblouer
wischdlblouwer
wische
wisches
wise
wisli
wiss
wissbade
wissd
wisse
wissebach
wissembourg
wissen
wissenschafdler
wissenschafdlische
wissenschaft
wissenschaftliche
wissenschaftsverlag
wisseschafd
wisseschafde
wisseschafdla
wisseschafdlisch
wisseschafdlische
wisseschaft
wisseschaumkraut
wissloch
witerschwiller
with
wittelsbacher
wittelse
wittenberg
wittene
witterschdorf
wittisheim
wittring
witz
wiwersche
wiß
wißte
wladimir
wladiwoschdog
wo
woa
woad
woama
woams
woamsa
woamsgau
woann
woanse
woar
wobai
wobei
woch
woche
wocheend
wochen
wochenend
woda
wodan
wodevun
wodorch
wodurch
woerr
woerterbuchnetz
wohea
wohl
wohn
wohnbaute
wohnberaisch
wohne
wohnen
wohner
wohngebied
wohngebiet
wohngema
wohnhaisa
wohnhaus
wohnpla
wohnraum
wohnsitz
wohnt
wohnung
wohnunge
wohnverdel
wohr
wohrgenomm
wohrhaid
woi
woibau
woibaugebied
woibauord
woibied
woibiid
woiblum
woibrand
woifeschd
woifeschde
woifescht
woiguud
woihnachde
woihnachdsmaagd
woihnachdsmonn
woihnachtsmargd
woihnachtsmarkt
woihschdrooß
woika
woikeenigin
woikeenschin
woikehlscha
woikella
woikerwe
woil
woilesefeschdt
woinem
woinemer
woiobau
woippy
woirebe
woireewe
woischdroos
woischdrooß
woischdroß
woischrooß
woischtroß
woistrooß
woitraub
wol
wold
wolda
wolf
wolferschdorf
wolfga
wolfgang
wolfgong
wolfisheim
wolfsburch
wolfsbursch
wolfski
wolfze
wolga
wolixe
woll
wolld
wollda
wollde
wolle
wollen
wolln
wollsaggverwidderung
wollt
wollten
wolminschter
wololse
wolsche
wolschwi
wom
woma
woman
womas
womma
wommas
wommase
wommer
woms
won
wond
wondawesch
wonn
wonna
wonnde
wonnegau
wonns
wonnsde
wonnse
wonse
woochbach
woog
woogbach
woor
woore
wor
wora
word
worde
worden
wordherkunfd
wordschadz
wordschatz
wore
worfe
work
working
world
worldcat
worms
wormsa
wormser
worn
worr
worre
worrehttp
worrn
wors
worschd
worschdmaagd
worschdsupp
worscht
worschtmarkt
worst
wort
wortart
wortschatz
worzele
wos
wose
would
woustviller
wozu
wp
wrua
wtc
wu
wua
wuad
wuade
wuche
wuchea
wud
wude
wudes
wudorsch
wuem
wuen
wuerttemberg
wuh
wuhl
wuhn
wuhne
wuhnt
wuhnung
wuisse
wulkon
wulle
wum
wuma
wumid
wumidda
wun
wunde
wunna
wunne
wunner
wunnerscha
wunsch
wunschdeng
wurd
wurde
wurden
wurds
wurfholz
wurfstock
wurst
wurstmarkt
wurzle
wus
wusde
wuse
wussd
wutz
wutze
wuus
wuvu
wuzz
ww
wwa
wwe
wwel
wwer
wwerm
wwermuskel
wwernemmt
wwrd
www
wœlfling
wœrth
wɛ
x
xanrey
xanthochlora
xaver
xe
xhu
xi
xico
xiii
xiv
xla
xocourt
xouaxange
xprooch
xv
xvii
xviii
xxii
y
yale
yang
year
years
yi
yn
york
you
your
youtube
yu
yum
yur
yutz
z
za
zaa
zabbe
zabern
zacharias
zahl
zahld
zahle
zahlen
zahlraiche
zahlraische
zahlreiche
zahlreische
zahlunge
zaich
zaiche
zaid
zaide
zaidpungd
zaidschrifd
zaidschrifde
zaidung
zaidunge
zaidwais
zaighaus
zail
zaisch
zaischd
zaischde
zaische
zaischen
zaischn
zaischnd
zaischnis
zaischnung
zaischnunge
zait
zaitung
zajonc
zallebarg
zallwiller
zamenhof
zamme
zammearwaid
zammegeschlaa
zammegfassd
zammeghalde
zammegschlosse
zammeha
zammehang
zammelejung
zammenschliss
zammenschluss
zammeschluss
zammeschluß
zapf
zar
zarbeling
zaschdead
zaschdeade
zaschdere
zaschderung
zauberburg
zb
zd
zdemir
zdf
ze
zee
zeehlt
zeeja
zeeld
zefanja
zeh
zehausend
zehle
zehn
zehna
zehne
zeich
zeiche
zeichekett
zeichnung
zeichnunge
zeicht
zeid
zeide
zeidschrift
zeidung
zeigt
zeije
zeire
zeischnung
zeischnunge
zeit
zeite
zeitpunkt
zeitschrift
zeitung
zell
zelois
zem
zemend
zendimeder
zendra
zendrale
zendrum
zeno
zent
zentrale
zentrum
zeppelinschdrooß
zerfalle
zerick
zerickbesonne
zerickga
zerickgedra
zermahla
zerschdeerd
zerschdeere
zerschdeerunge
zerschdehrt
zerschderd
zerschdert
zerschderung
zerschdo
zersteerd
zersteert
zersto
zerstu
zesamme
zesammegeleed
zesammegschdoß
zeschderd
zeschschda
zetting
zewen
zezaid
zhou
zi
ziag
zibbe
zidaad
zidiad
zidierd
zidiert
zidrusfrischde
zied
ziegelai
ziegelhausen
zieh
ziehd
ziehda
ziehe
ziehen
ziehn
zieht
zieje
ziel
zield
zielde
ziele
ziemlich
ziemlisch
ziepan
zier
ziesch
zieschemelker
ziffabledda
zigglhause
zije
zilling
zimlich
zimma
zimmer
zimmermann
zimmern
zimming
zimmlisch
zinfd
zinn
zins
zinse
zion
zire
zirgl
zirich
zisch
zischa
zischdern
zischle
zisterzienser
zitat
zitiert
zivil
zivilisadsion
zizazenser
zißmus
zmaischd
zmindschd
zo
zobel
zoche
zoll
zom
zommange
zomme
zommehong
zon
zondrange
zone
zoo
zooloschie
zor
zores
zorn
zornisch
zotzeboch
zoufftgen
zowwle
zrigg
zriggkumme
zsamme
zseje
zsomme
zu
zua
zuam
zuare
zuch
zucker
zuda
zudade
zude
zudem
zudreffe
zue
zueaschd
zuem
zuersch
zuerschd
zuerscht
zufa
zufliss
zufluss
zug
zuga
zugedeeld
zugedeggt
zugemacht
zugeng
zugenumme
zugeordned
zugeordnet
zugeschlaache
zugeschlache
zugewwe
zugezoh
zugga
zuggariewe
zugger
zuglaisch
zugong
zugschda
zugschdimmd
zugschidd
zugschriwwe
zugugge
zugunschde
zuhera
zuherer
zukinfdische
zuku
zukunfd
zukunft
zula
zuledschd
zuletscht
zuletzt
zulieferfirme
zum
zumache
zumal
zumindeschd
zumindescht
zumindschd
zuminneschd
zumm
zumme
zumne
zuna
zunanna
zunegschd
zunehmend
zunemmende
zunerm
zunfd
zung
zuordnung
zur
zurick
zurigg
zuriggange
zuriggdra
zuriggedreede
zuriggfalle
zuriggkumme
zuriggonge
zuriggwaise
zuru
zurzaid
zusa
zusadssingnale
zusamme
zusammen
zusammenarbeit
zusammenschluss
zusammesedzung
zuschaua
zuschauer
zuschda
zuschdand
zuschdanne
zuschdendisch
zuschdimme
zuschdimmung
zuschdond
zuschneid
zusedzlische
zusomme
zutade
zutzedorf
zuuch
zuuchbeoiflussung
zuuchschdrooße
zuviel
zuvor
zuwendunge
zuzehause
zuzuch
zwa
zwaa
zwai
zwaich
zwaifel
zwaifl
zwaifle
zwaig
zwaische
zwansisch
zwanzich
zwanzig
zwanzisch
zwar
zwe
zweaschgalarie
zwebrigge
zweck
zwecke
zwedd
zwedda
zwedde
zwedder
zweddes
zweddgreeschd
zwee
zweebrigge
zweebrigger
zweede
zweemol
zweeschdundetagd
zwegg
zwei
zweibru
zweich
zweige
zweite
zweiter
zweites
zwelf
zwesche
zwett
zwette
zwilling
zwinge
zwingeberg
zwingenberg
zwingera
zwisch
zwische
zwischede
zwischedrin
zwischem
zwischen
zwischezaidlisch
zwischm
zwischnm
zwiwwele
zwiwwl
zwiwwle
zwiwwlkuche
zwo
zwodde
zwonsisch
zwonzisch
zwonzsch
zwoo
zwor
zylindrische
zypan
zz
{
|
}
~
§
«
­
®
°
±
²
³
´
·
»
¼
½
×
ß
ßd
ße
ßen
ßer
ßere
ßich
ßichte
ßig
ßisch
ßischdes
ßische
ßlischn
ßt
ð
ł
łobez
łobzie
œting
ɐ
ɔ
ɛ
ʀ
ʃ
ʳ
ʹ
ˀ
ˈ
ˌ
ː
ˑ
̀
́
̂
̃
̄
̆
̇
̈
̊
̋
̌
̓
̔
̛
̣
̥
̧
̨
̯
͂
α
γ
ε
ι
ν
ς
υ
в
и
к
округ
п
с
федеральныи
‎
‏
‐
‑
–
—
‘
’
‚
“
”
„
†
•
…
′
″
‹
›
ⁿ
€
⅓
→
↔
↷
−
③
④
⑦
☉
♃
⺀
⺄
⺆
⺈
⺊
⺌
⺕
⺝
⺸
⺼
⿰
⿱
⿲
⿳
⿴
⿵
⿶
⿷
⿸
⿹
⿺
⿻
〢
コ
ユ
㇁
㇂
㇄
㇇
㇈
㇉
㇓
㐁
㐄
㐅
㐌
㐫
㐬
㐭
㐮
㐱
㑒
㒵
㒸
㒼
㓁
㓞
㔾
㕛
㕣
㖾
㘝
㚅
㚇
㚔
㚘
㝉
㝡
㝴
㝵
㞋
㞢
㞷
㠩
㠭
㠯
㡀
㡭
㡿
㢲
㢴
㣇
㣺
㥯
㪅
㫄
㫐
㫒
㫺
㬅
㬎
㬥
㬰
㲋
㳄
㷠
㸒
㸚
㸦
㼌
㼲
㽞
㿟
䀠
䂞
䍃
䏍
䒑
䖍
䖒
䖝
䖵
䙴
䚻
䜌
䝿
䡛
䧹
䪞
一
丁
丂
七
丄
丅
丆
万
丈
三
上
下
丌
不
与
丏
丐
丑
专
且
丕
世
丘
丙
业
东
丞
丢
丣
两
严
並
丨
丩
个
丫
丬
中
丮
丰
丱
串
丵
丶
丷
丸
丹
为
主
丽
丿
乀
乂
乃
久
乆
乇
么
义
之
乌
乍
乎
乏
乐
乑
乔
乖
乗
乘
乙
乚
乛
乜
九
乞
也
习
乡
乳
乾
亀
亅
了
亇
予
争
事
二
亍
于
亏
亐
云
互
亓
五
井
亘
亚
亜
亞
亟
亠
亡
亢
交
亥
亦
产
亨
亩
享
京
亭
亮
亯
亰
亲
亳
亶
亷
人
亻
亼
亾
仁
今
介
仌
从
仐
仑
仒
仓
仕
他
付
仝
代
令
以
任
企
伊
伏
伐
休
会
伯
但
位
何
佘
余
作
佥
使
來
侈
侌
侖
侯
侵
便
保
俞
信
修
倉
倍
候
倠
備
僉
僕
儿
兀
允
兂
元
兄
充
兆
兇
先
光
兊
克
兌
免
兑
兒
兓
兔
党
兜
兟
入
全
兩
兪
八
公
六
兮
兰
共
关
兵
其
具
典
兹
兼
冀
冂
冃
冄
内
冈
冉
冊
冋
册
再
冎
冏
冐
冒
冓
冖
冗
冘
军
农
冝
冡
冥
冫
冬
冷
几
凡
凢
凵
凶
凷
凸
凹
出
函
凾
刀
刁
刂
刃
刄
刅
分
切
刍
刑
刕
刖
列
刘
则
初
別
利
别
到
制
刺
則
削
剌
前
剡
剽
劉
力
功
加
劦
助
劫
劳
劵
勃
勇
勉
勒
動
務
勞
勤
勹
勺
勻
勾
勿
匀
匂
包
匆
匈
匊
匋
匍
匕
化
北
匚
匝
匡
匪
匱
匸
匹
区
医
匽
匿
區
十
卂
千
卄
卅
卆
升
午
卉
半
卌
华
卑
卒
卓
单
卖
南
卜
卝
卞
占
卡
卢
卣
卤
卦
卩
卪
卬
卯
印
危
即
却
卵
卷
卸
卻
厂
厃
厄
历
厈
厉
厌
厓
厘
厚
原
厤
厥
厨
厭
厲
厶
厷
厸
去
厼
厽
叀
参
參
叅
又
叉
及
友
双
反
叐
发
叒
叔
叕
取
受
叚
叜
叟
口
古
句
另
叩
只
召
可
台
叱
史
右
叵
号
司
叹
吂
各
吅
合
吉
吊
吋
同
名
后
吏
向
吕
君
吝
吞
否
含
启
吳
吴
吹
吾
呂
呆
呈
告
员
呙
周
命
咅
和
咎
咠
咢
咨
咸
咼
哀
品
哉
員
哥
哲
唐
商
啇
問
啚
啬
啻
善
喜
喬
單
喿
嗇
噩
嚴
囊
囗
囘
囙
囚
四
回
囟
因
囧
囬
困
囱
囷
固
国
圂
圅
國
圍
圓
土
圡
圣
圥
在
圭
地
圶
圼
坐
坒
坚
坴
垂
垔
垚
埀
埋
埶
執
基
堂
堅
堆
堇
堯
塞
墨
壘
士
壬
壯
声
壳
壴
壹
壺
壽
夂
处
夅
夆
备
夊
夋
夌
复
夏
夒
夕
外
夗
夘
多
夜
夢
大
夨
天
太
夫
夬
夭
央
失
夲
头
夷
夸
夹
夻
夾
奂
奄
奇
奈
奉
奎
奏
奐
契
奓
奔
奚
奞
奠
奢
奥
奭
女
奴
奻
好
如
妄
妙
妟
妥
妻
妾
姑
委
姜
威
娄
婁
婴
嬰
嬴
子
孑
孔
孕
孖
字
存
孚
孛
孝
孟
季
孤
学
孫
孱
學
宀
宁
宂
它
宅
宇
守
安
宋
完
宏
宓
宗
官
定
宛
宜
宝
客
宣
室
宮
宰
害
家
容
宾
宿
寄
寅
密
富
寒
察
寧
審
寫
寬
寮
寸
对
寺
寻
寽
対
寿
封
尃
射
将
將
專
尉
尊
尋
尌
對
小
少
尒
尓
尔
尖
尗
尚
尞
尢
尣
尤
尧
尨
尭
就
尸
尹
尺
尻
尼
尽
尾
尿
局
居
屈
屋
屎
屏
屑
展
屖
屚
属
屠
屡
屬
屮
屯
屰
山
屵
屾
岁
岂
岑
岡
岩
岳
岸
峯
島
崇
崑
崔
崖
崙
崩
嵬
嶲
巂
巛
川
州
巟
巠
巢
巤
工
左
巧
巨
巩
巫
差
己
已
巳
巴
巷
巸
巽
巾
巿
帀
市
布
希
帚
帛
帝
带
師
席
帶
常
干
平
年
幵
并
幷
幸
幺
幻
幼
幽
幾
广
広
庄
床
底
店
庚
府
度
庫
庭
庶
康
庸
廉
廌
廛
廣
廩
廴
延
廷
建
廾
廿
开
弁
弃
弄
弇
弋
式
弓
弔
引
弗
弘
弜
弟
弥
弦
弱
張
強
强
彊
彌
彎
彐
彑
当
彔
录
彖
彗
彡
形
彥
彦
彧
彭
彳
役
彼
往
待
律
徒
得
徙
從
復
微
徵
心
忄
必
忌
忍
志
忝
忠
忩
快
念
忽
忿
思
怠
急
怱
恆
恒
恩
恭
息
悉
患
悤
悲
悶
惠
惡
惢
愁
愈
意
愛
感
慈
慧
慮
憂
憲
應
戀
戈
戉
戊
戋
戌
戍
戎
成
我
戒
戔
或
戚
戠
戢
截
戲
戶
户
戹
戼
戾
房
所
扁
扇
手
扌
才
打
托
执
承
折
拉
拜
拿
掌
推
提
摩
支
攴
攵
收
攸
改
放
政
敄
敏
敕
敖
敗
敝
敞
敢
散
敦
敫
敬
数
敷
數
斂
文
斉
斊
斗
斤
斥
斩
斬
斯
新
方
於
施
斿
旁
旋
族
无
旡
既
旣
日
旦
旧
旨
早
旬
旱
旲
时
旾
昆
昇
昌
昍
明
昏
易
昔
昗
昜
星
春
昬
是
昱
昴
昷
時
晃
晋
晏
普
景
晶
智
暑
暴
曇
曩
曰
曲
曳
更
曷
書
曹
曼
曾
替
最
朁
會
月
有
朋
服
朔
朕
朗
望
朝
木
朩
未
末
本
札
朮
术
朱
朵
朶
朿
杀
杏
杜
束
条
来
東
杲
杳
松
析
林
枚
果
枝
枲
枼
某
柔
查
柬
柰
柴
栗
桀
桑
桼
梁
條
梟
梨
棘
棠
棥
森
楚
業
楽
榮
樂
樊
欠
次
欣
欮
欲
欶
欽
款
歆
歇
歛
止
正
此
步
武
歨
歪
歮
歯
歰
歲
歴
歷
歸
歹
歺
死
殳
段
殷
殸
殹
殺
殻
殿
毋
毌
母
每
毒
比
毕
毚
毛
毳
氏
氐
民
气
氣
水
氵
氶
氷
永
氺
氾
求
汝
汞
江
沃
沓
沙
沝
泉
法
波
泣
泥
泰
洛
洪
活
派
流
浦
浪
浮
淡
淮
清
渚
渠
湯
滿
漸
澤
灣
火
灬
灭
灰
灵
灷
炅
炎
炏
炗
炙
炭
為
烈
烏
烝
焉
無
焦
焱
然
煞
熊
熏
燕
營
燮
爪
爫
爭
爯
爰
爱
爲
爵
父
爻
爽
爾
爿
片
牙
牚
牛
牜
牟
牢
牧
牪
牽
犀
犬
犭
犮
狂
狄
狊
独
狺
猋
猒
猪
献
獻
玄
率
玉
王
玟
玨
珎
班
琴
瑟
瑩
瓜
瓦
甘
甚
生
産
用
甫
甬
田
由
甲
申
电
甶
男
甸
甹
画
甾
畀
界
畏
畐
留
畜
畟
畢
畧
畨
番
畫
異
畱
當
畺
畾
疊
疋
疌
疑
疒
疾
癶
癸
癹
登
發
白
百
皀
皃
的
皆
皇
皋
皐
皕
皮
皷
皿
盃
盆
盇
盈
益
盍
盎
监
盒
盖
盛
盡
監
盤
盧
目
直
相
盾
省
眇
眉
看
眔
眞
真
眷
眼
眾
着
睘
睪
睿
瞏
瞢
瞿
矍
矛
矞
矢
矣
知
矦
短
石
破
碎
磊
磨
示
礻
礼
祟
票
祭
禀
禁
禸
禹
禺
离
禽
禾
禿
秀
秃
秉
秋
科
秝
秦
移
稟
穀
穌
穴
究
穹
空
穿
突
窄
窒
立
竒
竜
竝
竟
章
童
竹
笑
笠
筆
等
答
箕
算
箴
節
篤
篭
米
粉
粛
粟
粤
粦
粲
糞
糸
糹
系
約
納
素
索
紫
累
細
絜
絫
絲
維
綿
縣
繇
纍
纟
缶
网
罒
罔
罕
罗
罙
罡
罢
罪
署
罷
羅
羊
羌
羍
美
羔
羕
羗
羞
羡
羣
群
義
羲
羸
羽
翁
翏
習
翕
翟
翠
翼
老
耂
考
者
耆
而
耎
耑
耒
耳
耴
耶
耷
聂
聊
聖
聚
聶
聿
肀
肃
肅
肉
肖
肙
肥
肩
肯
育
肴
胃
背
胡
胥
能
脊
脩
膚
臣
臤
臧
自
臬
臭
臯
臱
至
致
臺
臼
臽
臾
臿
舀
舂
舄
與
興
舉
舌
舍
舛
舜
舞
舟
般
艮
良
色
艸
艹
艾
芒
芔
芬
芮
花
芳
芺
芻
苔
苗
苟
若
苦
英
茶
茸
荅
草
荒
荣
荼
莆
莧
莫
莽
菆
菊
菐
華
萬
落
葉
著
葛
董
葵
蒙
蒦
蒼
蓋
蓬
蓺
蔑
蔡
蕉
蕭
薄
薛
薦
薰
藍
藏
藥
蘭
虍
虎
虐
虒
虔
處
虖
虗
虘
虚
虛
虜
虞
虫
虽
蚤
蚩
蜀
蜜
蟲
蠡
血
行
衍
衛
衣
衤
表
衮
衰
袁
袞
褭
褱
襄
襾
西
覀
要
覃
見
規
覓
覧
親
覽
见
角
解
言
訁
訇
計
詹
誩
諸
讠
谷
豆
豈
豊
豐
豕
豖
豙
象
豦
豩
豪
豸
貇
貝
貞
貟
負
貢
貧
貪
貫
責
貳
貴
買
費
賁
資
賈
賏
賓
賔
賛
賞
賢
賣
質
賴
贊
贝
贡
责
贯
贲
贵
赖
赞
赤
赦
走
越
足
路
蹇
身
躬
車
軍
軎
軟
輦
车
辛
辜
辟
辥
辰
辱
農
辵
辶
边
达
过
近
连
迷
追
退
送
逆
逐
通
速
造
逢
連
逮
進
遀
遂
過
道
達
遣
適
遷
遺
邊
邑
邕
那
邦
邪
郎
部
郭
都
鄉
酉
酋
配
酓
釆
采
里
重
野
量
金
釒
錢
钅
長
镸
长
門
閃
閉
開
閏
閑
閒
間
閔
閵
閻
闌
门
间
闷
阑
阜
阝
阿
降
陳
隆
隊
隋
隡
隨
隱
隶
隹
隺
隻
隼
隽
难
雀
雁
集
雈
雋
雍
雐
雔
雙
雚
雜
雝
離
難
雨
雩
雪
雲
零
雷
需
霍
霜
霝
霞
霸
靈
靑
青
非
靡
面
靣
革
韋
韦
韭
韯
韱
音
頁
頃
項
須
頗
頡
頻
顛
页
風
风
飛
飞
食
飠
養
饣
首
香
馬
馮
駦
马
骨
高
髟
鬥
鬯
鬲
鬼
魚
魯
鮮
鱼
鲁
鳥
鳳
鸟
鹵
鹿
麃
麗
麥
麦
麻
黃
黄
黍
黎
黑
黒
黨
黹
黽
黾
鼎
鼓
鼠
鼻
齊
齋
齐
齒
齿
龍
龙
龜
龟
龠
龰
龱
龴
龵
龶
龷
龸
龹
者
艹
？
🜨
𠀁
𠀃
𠀆
𠀉
𠀎
𠀐
𠁁
𠁣
𠂆
𠂇
𠂈
𠂉
𠂊
𠂋
𠂎
𠂒
𠂔
𠂛
𠂡
𠂢
𠂤
𠂬
𠂭
𠂹
𠃊
𠃋
𠃌
𠃍
𠃎
𠃑
𠃓
𠃔
𠃜
𠄌
𠄎
𠄠
𠄢
𠆢
𠆥
𠇍
𠈌
𠌵
𠓜
𠔉
𠔥
𠔼
𠔽
𠔿
𠕀
𠕁
𠕋
𠘧
𠘨
𠙻
𠙼
𠚏
𠚒
𠚤
𠚪
𠣏
𠤎
𠤕
𠥓
𠦄
𠦑
𠦝
𠧒
𠧗
𠧪
𠩺
𠪚
𠫓
𠫔
𠫤
𠬛
𠬝
𠬞
𠬢
𠬤
𠬶
𠮛
𠮦
𠮷
𠯑
𠱠
𠳮
𠷎
𡈼
𡉀
𡉵
𡌥
𡍮
𡏳
𡕒
𡕩
𡕰
𡖅
𡗗
𡗜
𡘆
𡘤
𡧱
𡨄
𡩧
𡬠
𡭽
𡰣
𡰥
𡰪
𡰯
𡰱
𡷈
𡸁
𡿨
𡿩
𡿪
𡿺
𢀖
𢀛
𢀩
𢁙
𢆉
𢆰
𢆶
𢇁
𢇇
𢉖
𢌬
𢌿
𢏚
𢑑
𢑚
𢖻
𢙣
𢛳
𢦏
𢦒
𢧵
𢼄
𢾕
𣁋
𣄼
𣅀
𣅽
𣍘
𣎳
𣎵
𣏋
𣏼
𣗥
𣥂
𣥖
𣦵
𣦼
𣧄
𣪊
𣪠
𣬉
𣳾
𣶒
𤇾
𤊽
𤐫
𤓰
𤔔
𤕨
𤣩
𤰇
𤰔
𤰞
𤴓
𤴔
𤽄
𥁑
𥁕
𥃦
𥃩
𥃭
𥇡
𥑟
𥘅
𥘈
𥝢
𥫗
𥱡
𦈢
𦉪
𦉬
𦉼
𦍌
𦍒
𦎧
𦐇
𦓔
𦔮
𦘒
𦙃
𦚏
𦣝
𦣞
𦣻
𦥑
𦥔
𦥯
𦨉
𦭝
𦰩
𧆞
𧈧
𧘇
𧰨
𧴪
𧴮
𧵩
𧾷
𨸏
𨾴
𩙿
𩠐
𩫏
𩵋
𪉷
𪜀
𪟽
𪠲
𪩲
𫇦
𫔭
𫜸
𫝀
𫠣
𫠩
𫢉
𫥞
𫩏
𫩠
𫪡
𫲽
𫶧
𬀷
𬐘
𬗌
𬙙
𬛸
𬜯
𬟩
𬯁
𬴘
𬺻
𬼉
𬼖
𭀰
𭁈
𭁨
𭅰
𭑈
𭕄
𭗼
𭤨
𭥫
𭻾
𮅕
𮊿
𮍌
𮍏
𮓗
𮥼
𮧮
廾
𰀁
𰀄
𰀈
𰀉
𰀕
𰀠
𰀡
𰀢
𰀪
𰁜
𰃮
𰆊
𰆘
𰋙
𰕎
𰢴
𰧭
𰯲
00--
000--
001--
01--
019--
02--
03--
04--
05--
06--
07--
08--
09--
095679761--
12--
13--
[...]
