!
"
#
##0
##1
##10
##11
##12
##13
##14
##15
##16
##17
##18
##19
##2
##20
##21
##22
##23
##24
##25
##26
##27
##28
##29
##3
##30
##31
##32
##33
##34
##35
##36
##37
##38
##39
##4
##40
##41
##42
##43
##44
##45
##46
##47
##48
##49
##5
##50
##51
##52
##53
##54
##55
##56
##57
##58
##59
##6
##60
##61
##62
##63
##64
##65
##66
##67
##68
##69
##7
##70
##71
##72
##73
##74
##75
##76
##77
##78
##79
##8
##80
##81
##82
##83
##84
##85
##86
##87
##88
##89
##9
##90
##91
##92
##93
##94
##95
##96
##97
##98
##99
$
%
&
'
(
)
*
+
,
-
.
/
0
00
000
002
004
005
01
02
020
03
04
05
050
06
07
08
09
1
10
100
1000
1003
101
1010
1012
102
103
1030
104
1045
105
1057
1058
106
1060
107
108
1080
109
11
110
1100
1104
1105
111
1110
112
113
1130
1137
114
1144
1145
115
1153
1154
116
117
118
1187
119
1190
12
120
1200
1204
1208
121
1210
122
123
1234
124
1241
125
1254
126
1265
1266
127
1273
1276
1277
128
1282
1285
1286
129
1290
13
130
1300
1301
1302
131
1310
132
133
1334
134
1349
135
136
137
1378
138
1386
139
14
140
1400
141
142
143
1430
1431
1439
144
1440
1442
1443
145
1455
1458
146
1460
1465
147
1470
1472
1475
1476
1478
148
1480
149
1490
1491
1492
1494
1495
1499
15
150
1500
1503
1504
1507
1508
1509
151
1510
1512
1513
1515
1517
1519
152
1521
1522
1523
153
1530
1534
154
1541
155
1553
1554
1557
156
1560
1566
1569
157
1570
1572
1574
1577
158
1582
1585
1587
159
1590
1591
1597
16
160
1600
1604
1605
1606
1608
1609
161
1610
1613
1615
162
1621
1622
1625
1626
163
1631
164
1640
1643
1644
1647
1648
1649
165
1655
1656
166
1660
1665
1666
1667
167
1670
1673
1675
1678
168
1680
1684
169
1690
1694
1699
17
170
1700
1702
1705
1707
171
1711
1715
172
1721
1728
173
1730
1731
1732
1734
1735
1736
1737
1738
174
1740
1741
1742
1743
1744
1745
1747
1748
1749
175
1751
1752
1753
1754
1755
1757
1758
1759
176
1760
1761
1763
1764
1765
1766
1767
1768
1769
177
1770
1771
1772
1773
1774
1775
1776
1777
1778
1779
178
1780
1781
1782
1783
1784
1785
1786
1787
1788
1789
179
1790
1791
1792
1793
1794
1795
1796
1797
1798
1799
18
180
1800
1801
1802
1803
1804
1805
1806
1807
1808
1809
181
1810
1811
1812
1813
1814
1815
1816
1817
1818
1819
182
1820
1821
1822
1823
1824
1825
1826
1827
1829
183
1830
1831
1832
1833
1834
1835
1836
1837
1838
1839
184
1840
1841
1842
1843
1844
1845
1846
1847
1848
1849
185
1850
1851
1852
1853
1854
1855
1856
1857
1858
1859
186
1860
1861
1862
1863
1864
1865
1866
1867
1868
1869
187
1870
1871
1872
1873
1874
1875
1876
1877
1878
1879
188
1880
1881
1882
1883
1884
1885
1886
1887
1888
1889
189
1890
1891
1892
1893
1894
1895
1896
1897
1898
1899
19
190
1900
1901
1902
1903
1904
1905
1906
1907
1908
1909
191
1910
1911
1912
1913
1914
1915
1916
1917
1918
1919
192
1920
1921
1922
1923
1924
1925
1926
1927
1928
1929
193
1930
1931
1932
1933
1934
1935
1936
1937
1938
1939
194
1940
1941
1942
1943
1944
1945
1946
1947
1948
1949
195
1950
1951
1952
1953
1954
1955
1956
1957
1958
1959
196
1960
1961
1962
1963
1964
1965
1966
1967
1968
1969
197
1970
1971
1972
1973
1974
1975
1976
1977
1978
1979
198
1980
1981
1982
1983
1984
1985
1986
1987
1988
1989
199
1990
1991
1992
1993
1994
1995
1996
1997
1998
1999
2
20
200
2000
2001
2002
2003
2004
2005
2006
2007
2008
2009
201
2010
2011
2012
2013
2014
2015
2016
2017
2018
2019
202
2020
2021
2022
203
2030
2038
204
205
206
207
208
209
21
210
211
212
213
214
215
216
217
218
219
22
220
221
222
223
224
225
226
227
228
229
23
230
231
232
233
234
235
236
237
238
239
24
240
241
242
243
244
245
246
247
248
249
25
250
251
252
253
254
255
256
257
258
259
26
260
261
262
263
264
265
266
267
268
269
27
270
271
272
273
274
275
276
277
278
279
28
280
281
282
283
284
285
286
287
288
289
29
290
291
292
293
294
295
296
297
298
299
3
30
300
3000
301
302
303
304
305
306
307
308
309
31
310
311
312
313
314
315
316
317
318
319
32
320
321
322
323
324
325
326
327
328
329
33
330
331
332
333
334
335
336
337
338
339
34
340
341
342
343
344
345
346
347
348
349
35
350
3500
351
352
353
354
355
356
357
358
359
36
360
361
362
363
364
365
366
367
368
369
37
370
371
372
373
374
375
376
377
378
379
38
380
381
382
383
384
385
386
387
388
389
39
390
391
392
393
394
395
396
397
398
399
4
40
400
401
402
403
404
405
406
407
408
409
41
410
411
412
413
414
415
416
417
418
419
42
420
421
422
423
424
425
426
427
428
429
43
430
431
432
433
434
435
436
437
438
439
44
440
441
442
443
444
445
447
448
449
45
450
451
452
453
454
455
456
457
458
459
46
460
461
463
465
466
468
469
47
470
471
472
473
474
475
476
477
479
48
480
482
483
485
486
487
488
489
49
490
492
494
496
497
499
5
50
500
501
503
504
506
507
508
509
51
510
511
512
515
516
517
518
52
520
521
522
523
524
525
527
529
53
530
533
535
536
537
538
54
540
541
543
545
546
55
550
554
556
558
56
560
561
562
563
565
566
567
568
569
57
570
571
573
576
578
579
58
585
587
589
59
590
594
6
60
600
602
604
606
607
608
609
61
611
613
614
615
62
620
622
624
627
63
630
632
633
634
635
637
639
64
640
642
643
647
649
65
650
653
657
659
66
660
662
664
667
669
67
670
672
673
675
676
68
680
682
683
684
686
687
688
69
690
698
7
70
700
701
702
703
705
706
707
708
709
71
716
718
72
720
721
723
724
726
73
730
731
733
734
74
740
741
749
75
750
752
755
758
76
769
77
770
772
774
779
78
780
781
785
79
790
798
799
8
80
800
81
815
816
817
818
82
820
824
825
83
830
833
838
84
840
842
843
844
846
847
85
850
851
852
854
855
857
858
859
86
860
863
864
865
866
87
870
88
884
885
89
890
891
892
896
897
899
9
90
900
903
906
909
91
911
913
914
92
920
927
928
929
93
930
931
935
936
939
94
940
942
949
95
950
951
953
955
957
959
96
963
964
965
968
97
970
978
98
980
988
99
990
996
:
;
<
=
>
?
@
[
\
]
^
_
`
a
aa
aaah
ab
abascio
abate
abba
abbada
abbadate
abbaglio
abbagna
abbagnano
abbaia
abbaja
abbajare
abballa
abballanno
abballano
abballava
abballe
abbamonte
abbandona
abbandonando
abbandonandosi
abbandonare
abbandonata
abbandonate
abbandonato
abbandono
abbanduna
abbandunata
abbandunate
abbandunato
abbannunato
abbara
abbarate
abbasci
abbascio
abbassa
abbassando
abbasso
abbasta
abbastanza
abbasto
abbate
abbatte
abbattuto
abbazi
abbazia
abbazzi
abbe
abbecina
abbede
abbellita
abbenche
abbesogna
abbesuogno
abbeta
abbetand
abbetande
abbetante
abbetate
abbetato
abbi
abbia
abbiaie
abbiaje
abbiam
abbiamo
abbiano
abbiaro
abbiata
abbiate
abbiato
abbiento
abbigliamento
abbitante
abbitato
abbo
abbocca
abbondanza
abbotta
abbottaguoffole
abbottare
abbracce
abbraccia
abbracciaie
abbracciaje
abbracciame
abbracciando
abbracciandola
abbracciandolo
abbraccianno
abbracciannola
abbracciano
abbracciare
abbracciarla
abbracciata
abbracciate
abbracciato
abbracciava
abbraccio
abbre
abbree
abbrevia
abbreviammo
abbrile
abbrividendo
abbru
abbrucia
abbruciate
abbrunzo
abbruscia
abbrusciano
abbrusciato
abbruzz
abbruzze
abbruzzese
abbucca
abbuffa
abbusca
abbuscaje
abbuscano
abbuscato
abbusco
abe
abele
abeta
abetante
abetato
abete
abeto
abile
abilita
abisso
abita
abitante
abitanti
abitare
abitata
abitate
abitato
abitazione
abiti
abito
abituati
abitudine
abitudini
aboriginal
about
abruzzese
abruzzi
abruzzo
abuso
ac
academia
academy
acala
acalaie
acalanno
acalate
acale
acampora
acaronte
acate
acaulis
acc
acca
accade
accademia
accademici
accaduto
accalorandosi
accanoscere
accanto
accapi
accaremmia
accarezza
accarezzando
accarezzandola
accasaje
accasione
accatta
accattaie
accattaje
accattare
accattata
accattate
accattato
accatte
accatto
acce
accebbato
accede
accedette
accedeva
accedite
accelienzia
accelle
accellenza
accellenzia
accende
accendere
accendono
accenna
accennando
accenno
accenti
accento
accerta
accesa
accese
accesi
acceso
accessi
accesso
accetta
accettante
accettare
accettate
accettato
accette
accetto
acchiale
acchiappa
acchiappaje
acchiappate
acchiappato
acci
accia
acciaffa
acciare
acciaro
accide
accideme
accidente
accidere
acciditeme
accido
accinge
accio
acciocche
accire
accirere
accisa
accise
acciso
acclamazioni
acco
accolta
accolto
accommenza
accommenzaie
accommenzaje
accommenzammo
accommenzato
accomoda
accomodare
accomodatevi
accomodi
accompagna
accompagnando
accompagnare
accompagnata
accompagnate
accompagnato
accompagno
acconcia
acconcio
acconsente
acconto
accoppatura
accorante
accorda
accordata
accordi
accordo
accorge
accorgendosi
accorre
accorrendo
accorrono
accorta
accorte
accorto
accossi
accossl
accosta
accostaje
accostandosi
accostano
accostata
accostato
accostava
accosti
accosto
accresce
accrianzato
accu
accuieta
accumencia
accumenciaje
accumenzaglia
accumincia
accuminciaie
accuminciaje
accuminciammo
accumincianno
accuminciato
accummencia
accummenciaje
accummience
accummincia
accumminciaie
accumminciaje
accumminciammo
accumminciate
accumminciato
accumpagna
accumpagnaie
accumpagnate
accumpagnato
accumpagne
accumpagno
accumpare
accuncia
accunte
accunto
accuoncio
accuorto
accuoste
accuoveto
accupato
accuppatura
accusa
accusai
accusato
accusci
accusi
accussi
accusta
accustaie
accustato
ace
aceno
aceossi
acerno
acerra
aceto
ache
achille
achilluccio
acido
acierno
aciesto
acite
acito
aco
acqua
acquaiuolo
acquaviva
acque
acquedotto
acquee
acquista
acquistare
acquistato
acquisto
acre
action
acussi
acuta
acutamente
acute
acutissimo
acuto
ad
ada
adam
adamo
adams
adaso
adatta
adattato
adatto
add
adda
addavero
adde
addedecata
addedecato
addelurata
addemmannaje
addenocchia
addensa
addenucchiato
addepra
addeprata
addeprate
addepre
addereto
adderettura
addeve
addevenda
addevendate
addevende
addeventa
addeventaje
addeventanno
addeventano
addeventata
addeventate
addeventato
addeventava
addevento
addi
addietro
addimanna
addimannate
addimannato
addimanno
addimmanna
addimmannaje
addimmannate
addimmannato
addimmanne
addimmanno
addimustraje
addio
addirittura
addirosa
addiruso
addita
additando
addiventa
addiventaje
addiventanno
addiventato
addiventette
addivide
addivinta
addivintaje
addo
addobbata
addolorata
addona
addonaje
addonato
addonatose
addonca
addonche
addono
addora
addore
addorme
addormenta
addoruso
addossato
addosso
addotte
addove
addu
addulurata
addulurato
adduna
addunaje
addunata
addunato
adduo
adduone
adduorme
adduosso
addura
addurmette
addurmi
addurmuta
addurmuto
addurosa
addurose
adelaide
adesa
adesso
adige
adio
adirata
ado
adonca
adoppo
adora
adorabile
adore
adoro
adottato
adriano
adriateco
adriatico
aducazzione
adunque
aduosso
adv
advance
ae
aeroe
af
afa
afe
affa
affacce
affaccia
affacciaje
affacciano
affacciata
affacciate
affacciato
affacciatose
affanna
affanne
affanno
affannosa
affannosamente
affannoso
affare
affari
affatto
affatturato
affe
affenne
afferma
affermo
afferra
afferraie
afferraje
afferrando
afferrandola
afferrandolo
afferrano
afferrare
afferrata
afferrate
afferrato
afferro
affese
affetta
affettando
affette
affetto
affettuosa
affettuoso
affezionata
affezionato
affezione
affi
affianca
affianco
afficiale
affidata
affidato
affido
affiette
affin
affinale
affitta
affitto
affligge
afflitta
afflitto
affoca
affocato
affolla
affollano
afforza
affrezzione
affritta
affritte
affritto
affronte
affronto
affrunta
afghanistan
afn
afravola
afreca
africa
africana
africane
afro
ag
aga
agata
agatina
agency
agente
agenti
agenzia
ager
agg
aggarbato
agge
aggenzia
agghiusto
aggi
aggia
aggiate
aggie
aggio
aggiu
aggiunge
aggiungere
aggiurnato
aggiusta
aggiustato
aggrappa
aggraziata
aggraziato
aggrisso
agi
agio
agire
agita
agitando
agitata
agitatissima
agitatissimo
agitato
agitazione
agl
agle
agli
aglie
aglio
agn
agnano
agne
agnele
agnello
agnelo
agnemale
agnese
agnone
agnuno
ago
agostini
agostino
agosto
agr
agrecheltura
agresta
agri
agricoltura
agricula
agricule
agriculo
agricultura
agrigento
agrippa
agro
aguanno
agunia
agurie
agurio
agusto
ah
ahi
ahimaaz
ahmadinejad
ai
aia
aic
aie
aiello
aiemme
aiere
aieressera
aiero
ailanthus
aio
air
aires
airo
aissera
aita
aito
aiuta
aiutaie
aiutare
aiutate
aiutateme
aiutatemi
aiutato
aiuteme
aiuto
aiza
aizaje
aizanno
aizannose
aizata
aizate
aizato
aizele
aizo
aja
ajaccio
aje
ajere
ajero
aju
ajuta
ajutame
ajutare
ajutato
ajute
ajuto
al
ala
alabama
alagi
alan
alarba
alarbo
alaska
alb
alba
albanese
albanesi
albania
albano
albe
albere
albergo
alberi
alberiche
albero
albert
alberto
albino
albu
album
alcamo
alcun
alcuna
alcune
alcuni
alcuno
aldo
ale
alena
aleno
ales
alesio
alessandra
alessandria
alessandro
alessio
aletto
alex
alexander
alf
alfa
alfieri
alfio
alfo
alfonsina
alfonso
alfre
alfred
alfredo
algeria
algiris
ali
alia
alias
alice
alicia
alifante
alife
alighieri
alimentare
alimento
alitalia
all
alla
allacci
allah
allancato
allarga
allarmate
allarme
allato
allattato
alle
alleanza
alleate
allecorda
allecordare
alleggeri
allegra
allegramente
allegre
allegrezza
allegri
allegria
allegro
allenatore
allera
alleramente
allere
allero
allerta
allesci
alletterato
allevate
allevato
alli
allianza
alliate
allicorda
allicordo
allicuorde
allicurda
allicurdate
alliegre
alliegro
allievo
allippa
alliscia
allium
allo
alloggia
alloggiato
allommare
allommato
allonga
allons
allontana
allontanando
allontanano
allontanarsi
allontanate
allor
allora
allorche
allorquando
allu
allucca
alluccanno
alluccate
alluccava
allucche
allucco
alludendo
allumma
allummata
allummate
allummato
allunga
alluntana
allusione
alluvione
alm
alma
alme
almeno
alo
alois
alone
alp
alpe
alpha
alpi
alpino
alquanto
alt
alta
altamura
altare
altavilla
alte
alterandosi
alterazione
alterigia
alternativa
alternative
altezza
altissima
altissimo
alto
altra
altre
altrettanto
altri
altrimenti
altro
altronde
altrove
altrui
aluite
alunni
alvitana
alvito
alyga
alza
alzando
alzandosi
alzano
alzar
alzare
alzarsi
alzata
alzate
alzato
alzo
am
ama
amabile
amabilissima
amalfi
amalia
amami
amano
amante
amanti
amar
amara
amaramente
amare
amarezza
amarezze
amaro
amata
amate
amatissimo
amato
amaua
amava
amba
ambasciatore
ambi
ambie
ambientale
ambiente
ambito
ambo
ambra
ambresso
ambrogio
ambrosio
ambruoso
ambulante
ambulanza
amburgo
ame
amedeo
amelia
amelio
amen
ameno
amenta
amereca
amerecane
amerecano
america
american
americana
americane
americano
ami
amica
amice
amiche
amici
amicizia
amico
amie
amitrano
amleto
amma
ammacare
ammacaro
ammacca
ammacco
ammalata
ammalati
ammalato
amman
ammancano
ammantecato
ammara
ammaro
ammatura
ammazzato
ammazzo
ammazzuccato
amme
ammenaccia
ammenes
ammenistrativa
ammenistrative
ammenistrazzione
ammennole
ammeno
ammes
ammesca
ammette
ammettere
ammice
ammico
ammiezzo
amministrativa
amministrazione
amministrazzione
ammira
ammirazione
ammis
ammisso
ammo
ammogliato
ammoina
ammore
ammosta
ammostaje
ammuina
ammuola
amo
amor
amore
amoreggiava
amori
amorosa
amoroso
amoruse
amoruso
amour
ampia
ampie
ampio
ampressa
ampresso
amsterdam
amuri
an
ana
anacleto
analese
analisi
anastasia
anato
anatolia
anca
anch
anche
anchieta
anchione
anchise
anchiso
ancient
ancino
anco
ancona
ancor
ancora
ancorche
ancore
and
anda
andalusia
andando
andar
andare
andarsene
andata
andate
andato
andava
ande
anderson
andiamo
andica
andich
andiche
ando
andorra
andre
andrea
andremo
andrete
andreuccio
andrew
andria
andro
andromaca
ane
anea
aneide
anelito
anella
anelle
anello
anema
anemale
anemata
anemate
anemato
anemazzione
aneme
anemo
anfi
anfino
anfora
ang
ange
angeine
angel
angela
angele
angeles
angeli
angelica
angelina
angelis
angelo
angels
angio
angioine
angioini
angiolina
angiolino
angiporto
angiuine
anglo
angolo
angora
angoscia
angri
anguilla
angulo
ani
anidride
anie
anielle
aniello
anima
animage
animale
animali
animaluccio
animata
animation
animato
animazione
animazzione
anime
animeclick
animedia
animerica
animo
animore
ann
anna
annammora
annammuraie
annanz
annanze
annanzo
annar
annare
annarella
annasconne
annasconnere
annasconno
annascosa
annascunne
annascunnuto
annascuse
annascuso
annata
anne
annecchia
annegato
annese
annetiello
annetta
annevierzo
annevina
anni
annia
anniato
annibaie
annibale
annichilito
annie
annina
anniversario
annivierzo
anno
annoda
annodecata
annommena
annorato
annore
annuale
annuda
annude
annumenata
annumenate
annumenato
annummena
annummenata
annummenate
annummenato
annunciaje
annunciato
annunzia
annunziando
annunziata
annunzio
annura
annusa
annuzza
ano
anpi
ans
ansante
anse
anseimo
anselmo
ansia
ansie
ansimante
ansiosa
ansioso
ant
anta
antartico
antartide
ante
antecore
antemonia
antenne
anteriori
anthony
anthus
anti
antica
anticamente
anticamera
antiche
antichi
antichita
anticipate
anticipato
anticipo
antico
antiello
antignano
antigua
antimafia
antimo
antinori
antiochia
antipatico
antiquario
anto
antologia
anton
antona
antonella
antonello
antonia
antoniello
antonietta
antonino
antonio
antro
antunietta
antuono
anversa
anze
anzelmo
anzi
anzie
ao
aoki
aosta
ap
apara
aparata
aparate
aparato
ape
aperta
aperte
aperti
aperto
apertura
aperture
aperze
api
apice
apierte
apierto
apollo
apostoli
apostolo
appa
appalorciaje
appalto
appara
apparato
apparature
appare
apparecchia
apparecchiare
apparecchiata
apparecchiate
apparecchiato
apparecchiava
apparecchio
apparente
apparenza
appariscono
apparizzione
appartamento
appartamiento
apparte
appartene
apparteneno
appartenente
apparteniente
appartiene
appassa
appassiunate
appassiunato
appaura
appaurata
appaurate
appaurato
appe
appeccecate
appello
appena
appenne
appennere
appennine
appennino
appero
apperzi
appesa
appese
appeso
appetito
appi
appia
appicceca
appiccecanno
appiccecata
appiccecate
appiccecato
appicceche
appicceco
appiccia
appicciano
appicciata
appicciate
appicciato
appiccio
appie
appietto
appila
appilare
appilate
appise
appiso
applauso
applica
applicate
appo
appoggia
appoggiando
appoggiata
appoggio
appoja
appontamiento
appontuto
apporta
apposizzione
apposta
apprendere
apprenzione
appresenta
appresentaje
appresentato
appressa
appresso
appretta
appretto
apprezza
apprezzate
apprezzato
apprie
appriess
appriesse
appriesso
apprima
apprimma
apprimmo
appripara
appriparata
appriparato
approfitta
approva
approvando
approvazione
appuiato
appuntamento
appuntata
appuntato
appunto
appura
appuraie
appurato
appuro
apre
aprendo
aprenno
aprette
apri
aprile
aprire
aprite
apruzze
apuo
aq
aquela
aquila
aquine
ar
ara
araba
arabe
arabi
arabia
aracole
aracolo
aragona
aragonese
aragune
aragunese
arancia
arancio
arape
arapette
arapi
arapite
arapo
araputa
arate
arba
arbanese
arbanno
arbe
arbere
arbero
arbitrio
arbitro
arbore
arc
arca
arcagnelo
arcaico
arcangelo
arcano
arcata
arce
arcepelaco
arch
arche
archeme
archeolo
archeologgece
archeologgeco
archeologico
archetetto
archetettura
archi
archibugio
architette
architetto
architettonica
architettura
archive
archiviato
archivio
arcidiocese
arciduchessa
arcipelago
arciulo
arcivescovo
arco
arcune
ard
arda
arde
ardea
ardente
ardenti
ardere
ardeva
ardi
ardia
ardichella
ardire
ardisce
ardita
ardite
ardito
ardo
ardore
are
area
arecchia
arecchie
arece
arecheta
arede
aree
arena
arene
arenella
ares
aret
areto
arezzo
arfabeto
argenteria
argentina
argentino
argento
argiento
argine
argomento
argomiento
argumente
ari
aria
ariana
arianna
ariano
aricio
ariel
arietta
ariette
arillo
ario
arioplano
ariopuorto
aristide
arlo
arma
armadio
armaje
armando
armare
armata
armate
armato
armatura
arme
armenia
armeno
armi
armo
armonia
arno
aro
aroje
aropea
aropp
aroppe
aroppo
arpaia
arpe
arpia
arpie
arpine
arpino
arra
arrabbiandosi
arraccumanno
arragge
arraggia
arraggiata
arraggiate
arraggiato
arraggio
arraggiunate
arrangia
arrape
arrapprese
arrasse
arrasseme
arrasso
arrassosia
arrassusia
arravoglia
arravogliata
arravugliata
arravugliato
arravuoglio
arre
arrecoglie
arrecogliere
arrecuglienno
arreddutto
arredotta
arreduce
arreducere
arredutto
arreferito
arremmedia
arrenne
arrepara
arrepiglia
arreposa
arreposo
arrepuoso
arrepusa
arresecato
arresedia
arresoluto
arresta
arrestano
arrestare
arrestato
arresto
arret
arreto
arreva
arrevaje
arrevata
arrevate
arrevato
arrevava
arreventa
arreventaje
arrevo
arrezzo
arri
arriccia
arricetta
arricetto
arricietto
arricorda
arricordo
arricuorde
arricurda
arriva
arrivai
arrivaie
arrivaje
arrivajeno
arrivammo
arrivando
arrivanno
arrivano
arrivare
arrivaro
arrivasse
arrivata
arrivate
arrivati
arrivato
arrivava
arrivavano
arrive
arrivederci
arrivo
arro
arrobba
arrobbare
arrobbato
arrobbo
arrogante
arronza
arropp
arroppo
arrore
arrostere
arrostuto
arroto
arrozzuto
arrubba
arrubbanno
arrubbata
arrubbato
arrubbava
arruina
arruobbe
arruobbo
arrure
arrusto
ars
arsenio
art
arta
arte
artefice
artemisia
arthur
arti
articolo
articule
articuli
articulo
artificiale
artigianato
artigu
artista
artiste
artisteca
artisteco
artisti
artistica
artistiche
artistico
artografia
arts
arturo
aru
aruna
aruta
arvere
arvole
arvolo
arza
arzano
arze
arzenale
arzo
as
asa
asahi
asburgo
ascanio
asce
ascea
ascelle
ascenno
ascesse
ascette
ascettero
asceva
asci
ascia
ascianno
asciato
ascimmo
ascio
ascione
ascire
ascite
asciuga
asciuta
asciute
asciuto
asciutta
asciutte
asciutto
ascoli
ascolta
ascoltare
ascolto
ascura
ascure
ascuro
asd
asdr
asdru
asdrubale
ase
asempio
asene
asenetate
aseno
aserceto
aserzeto
ashevolire
ashiaie
ashiare
asi
asia
asie
asilio
asilo
asini
asino
asiste
asistenza
asma
asotto
asp
aspe
aspetta
aspettammo
aspettando
aspettanno
aspettano
aspettare
aspettarne
aspettasse
aspettata
aspettate
aspettato
aspettava
aspettavo
aspetti
aspetto
aspiette
aspira
aspra
aspramente
asprezza
asprinio
asprino
aspro
ass
assa
assaggia
assaggiare
assai
assaie
assaje
assale
assalito
assape
assassina
assassinato
assassine
assassini
assassinio
assassino
assate
asse
asseconna
assedio
asseluta
assemblea
assempio
assenza
asservabbele
asservazzione
assestente
assetta
assettata
assettate
assettateve
assettato
assettete
assetto
assi
assicura
assicurare
assicurata
assicurate
assicuratevi
assicurato
assicuro
assie
assieme
assignata
assignato
assisa
assisi
assiste
assistente
assistere
assistito
asso
associati
association
associazione
associazzione
assolto
assoluta
assolutamente
assoluto
assomma
assommano
assorta
assorto
assu
assuciazzione
assuluta
assume
assumeglia
assunta
assuntina
assuntulella
assutte
asta
astanti
asteco
asteroide
asti
astipa
astipata
astipato
astipo
astolfo
astraco
astre
astreco
astrinto
astritto
astro
astrologo
astronauta
astronomo
astronumia
astuccio
asuka
at
ata
ate
atella
atemosfera
atena
atene
aterna
aterno
ati
atina
atini
atlante
atlanteco
atlantic
atle
atleta
atletico
atmesfe
atmosfera
ato
atomeca
atomo
atra
atre
atri
atriere
atrio
atro
atroce
atta
attacca
attaccaje
attaccante
attaccapanni
attaccata
attaccate
attaccati
attaccato
attacche
attacco
attanasio
atte
atteggiamento
attende
attendere
attendete
attendo
attene
attenne
attenta
attentamente
attentate
attentato
attenti
attento
attenzione
atterra
atterrata
atterrate
atterrato
atterrita
atterrito
attesa
attesta
attestare
attestato
atteveta
atti
attienne
attienta
attiente
attiento
attilio
attimo
attira
attitudine
attiva
attive
attivista
attivita
attivo
atto
attocca
attone
attore
attori
attorno
attorre
attratto
attrave
attraversa
attraversano
attraverso
attraverzata
attraverzato
attravie
attravierzo
attre
attri
attribuito
attrice
attrufo
attu
attuale
attualmente
attuccante
attuorn
attuorno
atture
atu
au
aucie
aucielle
auciello
audienza
audienzia
audio
auf
auff
aufficiale
auguri
augurii
augurio
auguro
auguste
augusto
augustus
auh
aula
aule
auletta
aulisse
auliva
aulive
aulivo
aumenta
aumento
auna
aune
aunesce
aunette
auni
aunificazzione
aunione
aunisce
aunita
aunite
aunito
aure
aurecchia
aurecchie
aurelio
aurialo
aurinale
auro
auropa
aurora
aus
ausa
ausaje
ausajeno
ausanno
ausano
ausanza
ausanze
ausata
ausate
ausato
ausava
ausaveno
auso
austo
australia
australian
australiano
austria
austriaca
austriace
austriaco
austro
ausuraro
aut
auta
autare
autaro
autavilla
aute
autezza
auti
autilizzate
autilizzato
auto
autobus
automaticamente
automobile
autonoma
autonomia
autonomo
autore
autorevole
autori
autorita
autostrada
autr
autra
autramente
autre
autri
autrice
autriere
autro
autunn
autunne
autunno
auture
auza
auzaie
auzaje
auzanno
auzare
auzaro
auzata
auzate
auzato
auzatose
auzava
auze
av
ava
avagliano
avanta
avante
avanti
avanza
avanzandosi
avanzare
avanzata
avanzate
avanzato
avanze
avanzo
avarizia
avaro
avarra
avarraie
avarranno
avarri
avarria
avarriano
avarrie
avarrisse
avarrisseve
avascia
avasciate
avasta
ave
avea
aveano
avella
avellinese
avellino
avendo
avenno
avennole
avennose
aver
avere
averla
averle
averlo
avermi
averne
averno
averrai
averria
averriano
aversa
avervi
averza
aves
avess
avessa
avesse
avessemo
avessero
avessi
aveste
aveta
avete
aveto
avett
avetta
avette
avetteno
avettero
avev
aveva
avevamo
avevano
avevate
aveveno
avevi
avevo
avevu
avi
avidamente
avierno
avile
avimm
avimma
avimme
avimmo
avisato
aviso
avisse
avisseve
aviste
avit
avita
avitabile
avite
avito
aviv
aviva
avive
aviveve
avo
avolio
avota
avotaje
avoto
avra
avraggio
avrai
avraje
avranno
avrebbe
avrebbero
avrei
avremo
avreste
avresti
avrete
avria
avriano
avrisseve
avro
avta
avuciello
avummaria
avuote
avut
avuta
avutaie
avutata
avute
avuto
avv
avvede
avvedendosi
avvelenata
avvelenate
avvelenati
avvelenato
avvenire
avvenne
avventa
avventarsi
avvento
avventore
avventori
avventura
avventure
avvenuto
avversario
avverte
avvertenza
avverti
avvertimento
avvertire
avvertiremo
avvertito
avverto
avvia
avviaje
avviandosi
avviandoti
avviano
avviarsi
avviata
avvicina
avvicinandosi
avvicinano
avvicinarsi
avvicinata
avvicine
avvicino
avviene
avvilita
avvilito
avvio
avvisa
avvisate
avvisato
avviso
avvoca
avvocata
avvocati
avvocato
avvolge
avvolta
avvucato
aw
award
awards
ayanami
azeglio
azerbaijan
azienda
azio
azione
azioni
azuma
azzano
azzardo
azzecca
azzeccata
azzeccate
azzeccato
azzeccosa
azzeccose
azzeccuso
azzetta
azzicc
azzicco
azzione
azzo
azzoppo
azzurra
azzurre
azzurri
azzurro
b
ba
baba
babbeo
babione
baby
baccala
baccalaiuolo
baccara
bacche
bacchetta
bacco
baci
bacia
baciando
baciano
baciare
baciarvi
baciate
bacile
bacino
bacio
back
baco
bad
bada
badate
badessa
badi
badia
badiamo
bado
baffi
bagattella
baggio
baghdad
baglioni
bagnato
bagni
bagno
bagnole
bagnoli
bagnolo
bahia
bai
baia
baianese
baiano
baie
baja
baje
baka
baker
balaustra
balbetta
balbettando
balbettante
balcane
balconcello
balcone
baldassarre
bale
ball
balla
ballabile
ballando
ballano
ballare
ballarine
balle
ballerina
ballerine
ballerino
balletto
ballo
balneare
balsamo
balteco
balza
balzo
bambina
bambini
bambino
bambola
bammeniello
bammino
ban
banach
banca
bancarelle
bancariello
banche
banchetto
banco
bancone
band
banda
bande
bandera
bandiera
banditore
bando
bang
banna
banne
bannera
bannere
banno
baptiste
bar
bara
baracca
barattiere
barba
barbados
barbaja
barbanera
barbara
barbaramente
barbare
barbari
barbaro
barbiere
barbuda
barca
barcellona
barcelona
barche
barchetta
barcolla
barcollando
barcollante
barcone
barcunciello
barcune
barda
bardacchino
bardascia
bardasciello
bardasela
bardi
bare
barese
bari
barletta
baro
barocca
barocco
baronci
baroncino
barone
baronessa
baronessina
baroni
baronia
barra
barrio
bart
bartolo
bartolomeo
bartolommeo
baruncino
barune
barunessa
barunisse
bas
basa
basata
basato
bascia
bascio
base
baseleca
baselecata
basi
basile
basileca
basilica
basilicata
basket
bass
bassa
bassano
basse
bassi
bassista
basso
basta
bastano
bastantamente
bastante
bastantemente
bastevole
basti
bastimento
basto
bastona
bastonate
bastone
bastoni
batessa
battaglia
battaglie
battaglione
batte
battendo
battenne
battenti
battere
batteria
batterista
battette
batticola
battimani
battipaglia
battista
batto
battono
battuta
battute
baudo
bavero
baviera
bb
bba
bbascio
bbase
bbato
bbc
bbe
bbeca
bbeco
bbede
bbedite
bbele
bbella
bbelle
bbello
bbene
bbenuto
bbera
bbere
bbestie
bbete
bbeto
bbi
bbia
bbide
bbita
bbleca
bbo
bbona
bbone
bbote
bbracce
bbraccia
bbreca
bbrede
bbu
bbuie
bbuje
bbuo
bbuon
bbuone
bbuono
be
beach
beata
beati
beatles
beato
beatri
beatrice
beautiful
bebe
bec
becchiere
becchiero
becco
becino
beco
bedde
bede
bedenno
bedere
bedimmo
bedini
bedite
beeell
befana
beffe
beh
bei
beila
bel
belbo
bele
beleno
belga
belge
belgio
belize
bell
bella
bellavista
belle
bellella
bellezza
bellezze
bellezzetudene
belli
bellillo
bellini
bellissema
bellissemo
bellissima
bellissimo
bellizze
bello
bellu
belluccia
belluno
belmonte
belo
belta
belve
belvedere
bemmenuto
ben
benaggia
benche
benda
bene
benedetta
benedettine
benedetto
benedica
benedice
benedicere
benedico
benedicta
benedicti
beneditt
beneditto
benedizione
beneficenza
beneficio
beneno
benevento
beneviento
benfica
beni
benincasa
benissimo
benito
benna
bennato
bennere
benone
bensi
benuta
benute
benuto
benvenuto
benzi
beo
beppe
ber
bere
bergamasco
bergamo
berio
berkeley
berlin
berlina
berlino
berlusconi
berna
bernardina
bernardo
bero
berretta
berretto
bersagliere
bersaglieri
bertolini
bertu
berzagliere
bes
besogna
best
bestemmie
besti
bestia
bestiai
bestiale
bestialita
bestie
bestuto
besuogne
besuogno
beta
betlemme
beto
bett
betta
betti
bettina
bevanda
beve
bevendo
bevere
bevete
bevo
bevono
bevuto
beyonce
bf
bg
bi
bia
biagio
bianca
biancaria
bianche
biancheria
bianchetti
bianchi
bianchina
bianco
bias
biascica
biase
biasie
biasiello
biasillo
biatrice
biava
bibbia
biblioteca
bic
bicchiere
bicchieri
bicchierino
bicchiero
bicie
bicienzo
bicino
bide
bideri
bie
biecchio
bieco
biella
biellese
bielorussia
bien
biene
biento
bierzo
bifolchi
bifolco
big
bigliardo
biglietti
biglietto
bilancio
bile
bilineata
bill
billboard
bimbi
bimbo
bin
binario
bino
binocolo
binommiale
binte
bio
biografia
biologgia
bionda
biondina
biondo
birbante
birmano
birra
bis
bisaccia
bisanzio
bisceglia
bisceglie
biscegliese
bise
bisestile
bisignano
bisogna
bisogno
bisole
bisto
bita
bito
biundinella
biva
bive
bivo
bizantino
bizzarra
bizzoca
bl
bla
black
blanca
blase
blasetti
ble
bleu
blood
blu
blue
blues
bnje
bno
bo
boa
bob
bobba
boca
bocca
boccaccio
boccale
bocche
boccoli
boce
boffune
boglia
boglie
boglio
bogota
boh
bohe
bohr
boi
boia
boja
boje
bola
bole
bolenno
bolesse
boleva
bolite
bolivia
bolla
bolle
bollente
bollo
bologna
bolognese
bolzano
bomba
bomma
bomme
bompiani
bon
bona
bonaccia
bonagura
bonanema
bonanotte
bonaparte
bonarma
bonasera
bone
bongiorno
boni
bonifacio
bonito
bonni
bonno
bono
bonora
bonta
bonus
boogie
book
booklet
booklets
books
borbone
borboni
borbonico
borbotta
borbottando
bordeaux
bordo
borghese
borghesia
borghetto
borghi
borgia
borgo
bormida
borrelli
borsa
borso
borza
boschetto
boschi
bosco
bosnia
boss
bota
botanica
botanico
bote
botta
botte
bottega
botteghe
botticelli
bottiglia
bottiglie
bottino
botto
bottone
bottune
bouquet
bove
bovio
box
boxe
boxing
boy
boys
bozze
bozzetto
br
bra
bracce
braccelle
braccetto
braccia
braccie
braccio
bracco
brache
braciere
bracigliano
bradisismo
bragaglia
brama
bramo
bran
branca
branco
brandeburgo
brando
brano
brasciole
brasi
brasile
brasiliana
brasiliano
brassica
brav
brava
brave
bravi
bravissimo
bravo
bravura
bre
brenta
brescia
bresciano
breve
brevi
brevis
bri
brian
brianza
bricatie
bricatiere
briccona
briccone
bricconi
briciole
bridge
brie
brig
briga
brigadiere
brigantaggio
brigante
briganti
brigata
brigatie
brigida
brigitta
brilla
brillante
brillantissima
brillo
brindisi
brinnese
brinneso
brio
briogna
britannico
british
brividi
brivido
brocca
brocchiero
brodo
brontolo
bronzo
brooklyn
broro
bros
brothers
bruca
bruce
bruna
brune
brunetto
bruni
bruno
brusca
bruscamente
brusciano
brusco
bruto
brutt
brutta
brutte
brutti
brutto
bruxelles
bs
bu
buatta
bucarest
bucato
buche
bucia
buco
bud
budapest
buena
buenos
buffa
buffo
buffone
bugia
bugiardo
bugie
buglietto
bui
buie
buio
buje
buleva
bulgaria
bulgaro
bulite
buluto
bum
bunea
bunta
buo
buoie
buoje
buon
buona
buonanima
buonasera
buone
buongiorno
buongiovanni
buoni
buonne
buono
buonumore
buonvicino
buordo
burbero
burbone
burie
burla
burlando
burlandolo
burlato
burro
buscia
busciarda
busciardo
buscie
bush
business
bussa
bussare
busso
bussola
busta
busto
butta
buttare
buttate
buttato
butte
butteglia
butteglie
buttigliella
butto
buvero
by
bz
c
ca
cabalista
cabberne
cablo
caca
cacare
cacate
cacato
cacaure
cacavesse
cacc
caccavella
caccavelle
cacce
cacche
cacci
caccia
cacciaie
cacciaje
caccianno
cacciano
cacciare
cacciarene
cacciarra
cacciata
cacciate
cacciato
cacciatore
cacciature
cacciava
caccio
caccosa
cacio
cada
cadavere
cadde
cade
cadenno
cadeno
cadenza
cadere
cadette
cadeva
cadevano
cadono
cadore
caduta
cadute
caduti
caduto
cafe
cafettie
cafettiere
caffe
caffettiere
cafiero
cafo
cafona
cafone
cagione
cagliari
caglini
cagliuso
cagna
cagnaje
cagnajeno
cagnamie
cagnamiente
cagnamiento
cagnammo
cagnanno
cagnano
cagnare
cagnata
cagnate
cagnato
cagne
cagno
cagnola
cai
caia
caina
cainate
cainato
caio
caiola
cairo
caiva
caivano
cal
cala
calabbria
calabrese
calabria
calabro
calaje
calamaio
calamare
calamaro
calamita
calannarie
calannario
calano
calare
calasanzio
calascione
calasciunate
calata
calate
calato
calavrea
calavrese
calavria
calcare
calci
calciatore
calcio
calcolo
calda
calderai
caldo
cale
calice
calidris
califano
california
calimma
call
calla
calle
calligrafia
callisto
callo
calma
calmante
calmo
calo
calore
calpesta
caltanissetta
calunnia
calvario
calvi
calza
calze
calzone
calzoni
cam
camaldule
camba
cambagna
cambania
cambe
cambia
cambiale
cambiamonete
cambiando
cambiano
cambiare
cambiato
cambiera
cambio
cambrano
cambridge
cambrin
cambuasce
camelie
camera
camere
cameriera
cameriere
camerini
camerino
camerone
camerun
camice
camicetta
camicia
camilla
camillo
camino
cammara
cammarata
cammare
cammarella
cammarera
cammariere
cammariero
cammarino
cammarone
cammarota
camme
cammena
cammenaje
cammenanno
cammenare
cammenate
cammenato
cammenava
cammera
cammere
cammi
cammina
camminanno
camminano
camminare
camminato
cammine
cammini
cammino
cammisa
cammise
cammorza
cammurrista
cammurristo
camo
camorra
camorrista
camorristi
camp
campa
campagna
campagnata
campagne
campagnola
campagnuolo
campammo
campana
campanaro
campane
campanella
campanelle
campanelli
campanello
campania
campaniello
campanile
campanno
campano
campare
campata
campate
campato
campava
campe
campeonato
campese
campestre
campi
campidano
campionati
campionato
campione
campioni
campiu
campiunate
campiunati
campiunato
campiune
campo
campobasso
camposanto
campus
campusanto
can
cana
canada
canadese
canaglia
canal
canale
canape
canaria
canarie
canario
canasciuta
canasciute
canasciuto
canavese
canazza
cancaro
cancella
cancellata
cancelle
cancelliere
cancello
canchero
canciello
cancro
cand
cande
candela
candelabri
candelabro
candele
candelieri
candia
candida
candidato
cane
canetate
cangia
cangiano
cani
canillo
canis
canna
cannarone
cannarsi
cannaruta
cannarute
cannaruto
cannavola
canne
cannela
cannele
canneliere
cannella
cannelora
canneloro
cannelotto
cannete
cannetella
cannio
cannonata
cannone
cannuccia
cannune
cannuniere
cannuolo
cano
canone
canonica
canonico
canoro
canosa
canosce
canoscenno
canoscenza
canoscere
canoscette
canosceva
canosciuta
canosciute
canosciuto
canosco
canta
cantaie
cantaje
cantalupo
cantammo
cantando
cantanno
cantano
cantanta
cantante
cantare
cantaro
cantasse
cantastorie
cantata
cantate
cantato
cantatore
cantautore
cantautrice
cantava
cantavano
cante
cantenera
canteniere
canterale
canterano
cantero
canti
canticchia
canticchiando
cantilena
cantina
cantine
cantiniere
canto
cantone
cantune
canusce
canuscenza
canuscenze
canuscette
canusceva
canuscimmo
canuscite
canusciuta
canusciute
canusciuto
canyon
canza
canzirro
canzo
canzona
canzonatorio
canzone
canzonetta
canzoni
canzuncella
canzune
cap
capa
capaccio
capace
capaceta
capaci
capacita
capaldo
capanna
capasso
cape
capellera
capelli
capeluoco
capemonte
capenno
capera
caperrone
capesco
capesse
capetale
capeva
capezza
capezzale
capezzone
capi
capigliatura
capille
capillo
capilo
capimmo
capir
capire
capirete
capisce
capisci
capisco
capita
capitaje
capitala
capitale
capitan
capitane
capitano
capitata
capitate
capitato
capite
capito
capitole
capitoli
capitolo
capitone
capitule
capitulo
capo
capocchia
capodanno
capodichino
capodimonte
capolavoro
capolinea
capolino
capoluo
capoluoco
capoluogo
capone
capoparanza
caporal
caporale
capozzi
cappa
cappadocia
cappella
cappelle
cappelli
cappellino
cappello
cappie
cappielle
cappiello
cappotto
cappuccio
capra
capracotta
capraio
capre
capreolo
caprese
capri
capricci
capriccio
capricciosa
capua
capuana
capuano
capune
capura
capurro
caputo
car
cara
carabiniere
carabinieri
caracciolo
caradonia
carafa
caraibi
caramella
carate
carattere
caratteri
caratteristeca
caratteristeche
caratteristica
caratteristiche
caratteristico
caratterizzato
caravaggio
carbonara
carbonia
carcagna
carcara
carcassa
carcasso
carcera
carcerata
carcerate
carcerati
carcerato
carcere
carceri
carcio
carcioff
carcioffola
card
cardascio
cardella
cardenale
cardi
cardillo
cardinale
cardito
carducci
carduccianelle
carduelis
care
careca
carella
carestia
carezza
carezzandola
carezzandolo
carezze
cari
caria
cariati
carica
caricata
caricatura
caricature
carie
carina
cario
carissima
carissimo
carita
caritatevole
cariuccio
carizze
carl
carla
carlini
carlino
carlo
carlos
carlotta
carlu
carluccio
carm
carma
carmagnola
carme
carmela
carmene
carmenella
carmenie
carmeniello
carmine
carminella
carminiello
carmosina
carn
carna
carnacottaro
carnale
carne
carnefice
carnevale
carni
carnuse
caro
carocchie
carofano
carogna
caroli
carolina
caroline
carolinella
caronte
carosello
carosone
carota
carp
carpe
carpineto
carrafa
carrara
carre
carreca
carreche
carreco
carrera
carretta
carrettiere
carrettino
carretto
carri
carria
carriera
carrine
carrino
carro
carrozza
carrozze
carrozzella
carrucola
carruzzella
carruzzelle
cart
carta
cartagene
cartagenise
carte
cartella
cartelle
cartier
cartiera
cartoccio
cartolina
cartoline
cartone
cartoscella
cartuscella
carugnone
carugnune
caruli
carulina
carulinella
carullo
caruofene
caruso
caruta
carvo
cas
casa
casadduoglio
casador
casal
casalanza
casale
casali
casalnuovo
casaluie
casamia
casamicciola
casandrino
casanova
casarella
casata
casatiello
casato
casavatore
cascata
casce
cascetta
cascettino
cascia
casciabanco
casciaforte
cascione
casciulella
case
casecavalle
caselle
casene
caserma
caserta
casertano
casetta
casi
casimiro
casine
casino
caso
casoria
casotto
caspeta
caspita
cassa
cassandra
cassano
cassesie
cassetta
cassette
cassettino
cassettone
cassiere
cassino
cast
castagna
castagnaro
castagne
castel
castelfranco
castell
castellammare
castellana
castellani
castellano
castelletto
castelli
castello
castelluccio
castelnuovo
casticate
castico
castiellammare
castielle
castiello
castiglia
castiglione
castigo
castro
castrucci
castrum
casualmente
cat
cata
catalana
catalane
catalano
cataldo
catalogna
catalogo
catammaro
catania
catanzaro
catapecchie
catarchio
catarenella
catari
catarina
catarozzola
catarro
catasta
catastrofe
cate
categoria
categuri
catena
catenaccio
catene
catenella
cateratta
caterenella
caterina
catiello
cato
catone
cattedra
cattedrale
cattera
cattiva
cattive
cattivo
catto
cattoleca
cattolica
cattolico
cauce
cauciata
caucio
cauda
caudara
caude
caudina
caudo
cauro
causa
causanno
cause
cautamente
cauto
cauza
cauzune
cav
cava
cavagl
cavagle
cavalcanti
cavalie
cavalier
cavaliere
cavalieri
cavaliero
cavallaro
cavalle
cavalleria
cavalletto
cavalli
cavallo
cavando
cavare
cavato
cave
cavece
cavera
cavero
cavita
cavo
cavolo
cavour
cavulo
cazetta
cazette
cazone
cazune
cazzimbocchio
cb
cbe
cbello
cbesta
cbi
cbillo
cbisto
cc
cca
ccaccia
ccafe
ccammere
ccampa
ccampagne
ccampane
ccancaro
ccancelle
ccane
ccannele
ccanoscere
ccanta
ccanzone
ccapace
ccape
ccapi
ccapisce
ccapisco
ccapitato
ccapo
ccarcere
ccarita
ccarmenella
ccarmeneua
ccarne
ccaro
ccarte
ccasa
ccase
ccaso
ccate
ccausa
ccavvo
ccbisto
ccbiu
cce
cceca
ccellenza
ccellenzia
ccera
ccerase
ccere
ccerevella
ccerto
cch
cche
cchella
cchelle
cchello
cchene
cchere
cchest
cchesta
ccheste
cchesto
cchete
cchi
cchia
cchiacchiere
cchiagnere
cchiamma
cchianche
cchiante
cchiave
cchie
cchiera
cchiere
cchiesa
cchiese
cchiesia
cchii
cchiii
cchill
cchille
cchilli
cchillo
cchio
cchiocche
cchiste
cchisto
cchiu
cchiuppart
cchu
cci
ccia
cciammiello
cciane
cciento
ccierte
cciglia
ccinche
ccinco
ccio
cciuccio
ccliiu
cco
ccola
ccole
ccomme
ccon
ccone
cconta
ccontenta
ccontento
ccontrario
ccoppa
ccorde
ccore
ccorna
ccorne
ccos
ccosa
ccose
ccossi
ccoste
ccote
ccrestiane
ccriature
ccride
ccu
ccugliandre
ccule
ccuntrario
ccuorpo
ccura
ccurzo
cd
ce
cea
cebi
cec
ceca
cecata
cecate
cecato
cecca
ceccia
cecco
ceccone
cecerene
cecilia
cecina
cecio
ceco
cecoslovacchia
cecrope
cede
cedere
cedo
cedro
ceduto
cee
cefaro
ceffone
cegliucc
cegliucce
cehiu
cela
celano
cele
celebra
celebre
celebri
celebrita
celes
celeste
celestina
celestino
celi
celibe
celie
cella
celle
cellevriello
celo
cemmenera
cena
cencio
cendrale
cene
cenere
cenerentola
ceniero
cennere
cenni
cenno
ceno
censimiento
censita
cent
cente
centenara
centenario
centenaro
center
centeseme
centesimi
centesimo
centimetre
cento
centola
centra
central
centrale
centre
centro
centrocampista
centrodestra
centura
century
cenza
cenzeniello
ceo
cepolla
cepolle
cera
cerameca
ceramica
cerasa
cerase
cerasiello
ceraso
cerca
cercaie
cercaje
cercale
cercammo
cercando
cercanno
cercannole
cercano
cercare
cercasse
cercata
cercate
cercato
cercava
cercavano
cerchi
cerchio
cerco
cercola
cere
cereale
cerere
cerevella
cereviello
ceri
ceriale
cerimonia
cerimonie
cerinaro
cerine
cerini
cerino
cernia
cerra
cerreto
cerriglio
cerro
cert
certa
certamente
certe
certezza
certi
certo
certosa
cerva
cervella
cervellatine
cervello
cervicati
cerviello
cervo
ces
cesa
cesana
cesare
cesareo
cesari
cesarino
cesario
cese
cesena
cessa
cesta
cestariello
cesterna
cestista
cestunia
ceta
cetara
cetarea
cetate
cetatina
ceto
cetra
cetrangolo
cetrulo
cetta
cettadine
ceue
ceuze
ceva
cevile
cf
cfr
cgd
ch
cha
champagne
champions
channel
chantant
character
characters
charadrius
charles
charlot
charts
chc
che
checchina
ched
chede
chef
cheffa
chefren
chela
chele
cheli
chelie
chelio
chell
chella
chelle
chelleta
chellete
chelli
chello
chellu
chelore
chelteva
cheltevate
cheltevazione
chelure
chembine
chembo
chembuos
cheme
chemenze
chemis
chemunale
chemune
chemuneta
chenesciute
chenopodium
cheope
chepe
cher
chera
chere
ches
chess
chessa
chesse
chesso
chest
chesta
cheste
chesti
chesto
chestu
chetta
chi
chia
chiacchiarare
chiacchiare
chiacchiarea
chiacchiareja
chiacchiareo
chiacchiaria
chiacchiarianno
chiacchiariate
chiacchiarone
chiacchiere
chiachiello
chiafeo
chiagne
chiagnenno
chiagneno
chiagnere
chiagnette
chiagneva
chiagnevano
chiagnite
chiagno
chiagnuto
chiaia
chiaiano
chiaita
chiaito
chiaja
chiajano
chiajeto
chiam
chiama
chiamami
chiamando
chiamano
chiamar
chiamare
chiamarmi
chiamasi
chiamat
chiamata
chiamate
chiamato
chiamava
chiame
chiami
chiamine
chiamino
chiamm
chiamma
chiammaie
chiammaje
chiammajeno
chiammammo
chiammanno
chiammano
chiammare
chiammaro
chiammat
chiammata
chiammate
chiammateme
chiammato
chiammava
chiammavano
chiammave
chiammaveno
chiammavo
chiamme
chiammeno
chiammo
chiamo
chian
chiana
chianca
chianchiere
chianchiero
chiand
chianda
chiande
chiane
chianese
chianeta
chianete
chianielle
chianiello
chianite
chiano
chianta
chiante
chianto
chiantuto
chianu
chianura
chianure
chiappa
chiappe
chiappo
chiara
chiaramente
chiaravalle
chiare
chiarezza
chiari
chiarina
chiarire
chiaro
chiarore
chias
chiasso
chiatamone
chiatre
chiatro
chiatt
chiatta
chiatte
chiatto
chiava
chiave
chiaveca
chiavetella
chiavettiero
chiavo
chiazza
chiazze
chicago
chickasaw
chie
chiede
chiedere
chiedo
chiena
chiene
chieno
chieri
chiesa
chiese
chiesia
chiesie
chieste
chiesto
chiete
chieti
chigl
chigle
chijte
chil
children
chile
chili
chilio
chill
chilla
chille
chilleto
chilli
chillo
chillu
chilo
chilometre
chimeca
chimico
chin
china
chine
chino
chio
chiocca
chiocche
chiodo
chioma
chioppa
chioppeta
chioppete
chiorma
chiove
chiovere
chirchio
chirico
chiricoccola
chirurgo
chisa
chislo
chiss
chisse
chisso
chist
chista
chiste
chisti
chisto
chistu
chitarra
chitarre
chitarrista
chiu
chiude
chiudendo
chiudere
chiudette
chiudi
chiudo
chiudono
chiummo
chiune
chiunque
chiuove
chiuovo
chiuppe
chiuppo
chiurazzi
chiure
chiusa
chiuse
chiusi
chiuso
chiusura
chiuttosto
chiuvenno
chiuveva
chjama
chjite
cho
chris
christian
chronicle
ci
cia
ciabattino
ciaggio
ciammiello
ciampa
cianciosa
cianna
cianne
ciannetella
ciano
ciantella
ciao
ciappa
ciappunese
ciaramella
ciaramelle
ciardeniello
ciardine
ciardino
ciarlatano
ciarle
ciascun
ciascuna
ciascuno
cibi
cibo
cic
cicala
cicc
cicci
cicciano
cicciariello
ciccilio
ciccillo
ciccio
cicco
ciccopaolo
ciccotonno
cicella
cicere
cicerone
ciclista
ciclo
cido
cie
cieca
ciechi
cieco
ciel
ciele
cieli
cielo
cielu
ciendr
cient
ciente
cientesemo
ciento
cientro
cienzo
ciera
cierro
ciert
cierta
cierte
cierti
cierto
cierve
ciervo
ciesso
cieste
ciesto
ciglia
cigliano
ciglio
cile
cilentano
cilento
ciliento
cilindro
cima
cimarosa
cime
cimenta
cimitero
cimitile
cimma
cimme
cin
cina
cinche
cinco
cincociento
cincuciente
cincuciento
cinella
cinema
cinematografe
cinematografeca
cinematografiche
cinematografico
cinematografo
cinese
cingh
cinghe
cinisi
cinquanta
cinquantase
cinquantina
cinque
cinquegrana
cinta
cinto
cinziella
cio
ciocca
ciocche
cioccolata
ciociara
ciocio
cioe
cioffi
ciommetella
ciommo
cionca
cipolla
cippo
cipriano
cipro
circa
circanno
cirche
circo
circolare
circolazione
circolo
circondano
circondario
circondato
circospezione
circostante
circostanza
circostanze
circuito
circulare
circumvesuviana
cire
cirella
cirillo
ciro
cirrus
cisterna
cit
cita
citadina
citate
citato
citazione
cite
citello
citeriore
citi
citra
citro
citta
cittadinanza
cittadine
cittadini
cittadino
city
ciu
ciucce
ciuccia
ciucciaria
ciucciarie
ciucciariello
ciuccio
ciuccione
ciucculata
ciuco
ciulla
ciullo
ciulo
ciunco
civetta
civetteria
civil
civile
civili
civilta
civita
civitas
civitella
civo
ck
cl
cla
clamore
clamori
clamorosa
clan
clara
clarino
class
classe
classeca
classefecazione
classica
classiche
classici
classico
classifeca
classifica
classificazzione
claude
claudia
claudio
cle
clema
clemente
clementina
clements
cleopatra
clic
clie
cliella
cliello
cliente
cliesta
cliesto
cliisto
clima
climacus
clorinda
clu
club
clube
cm
cn
cneche
co
coalizzione
coburg
cocc
cocca
coccagna
cocche
cocchia
cocchiara
cocchiere
cocco
coccosa
coccothraustes
coce
cocere
cocina
cocinare
cocito
coco
cocotte
cocozza
cocozziello
cod
coda
code
codece
codice
cofanetto
coffia
coffie
cogli
coglie
cogliere
cogliette
coglieva
coglio
cognata
cognato
cognome
coi
cojeta
cojeto
col
cola
coladomenico
colata
colazione
cole
colei
colezione
coli
coll
colla
collaborazione
collana
collare
collaro
colle
collecroce
collection
collega
collegio
collegium
collera
colletti
colletto
collezione
colli
collina
collo
colloca
colloquio
colma
colmo
colo
colomb
colombia
colombina
colombo
colonia
colonie
colonna
colonne
colonnello
colono
color
colorata
colorato
colore
colori
colorito
coloro
colp
colpa
colpe
colpetto
colpi
colpisce
colpita
colpito
colpo
colta
coltellata
coltello
colui
colure
com
coma
comanda
comandare
comandate
comandi
comando
comanno
combattere
combattimento
combattuto
combina
combinanno
combinate
combinato
combinazione
combine
come
comencini
cometa
comic
comica
comiche
comici
comicita
comico
comics
comin
comincia
cominciano
cominciato
comincio
comine
comino
comitato
comitiva
comm
comma
commanna
commannaie
commannaje
commannamiento
commannare
commannate
commannato
commannava
commanne
commanno
commara
commare
commarella
comme
commeddia
commedia
commediante
commedie
commediografo
commendatore
commene
commentaries
commento
commenzaie
commenzaje
commenzanno
commenzaro
commerciale
commercio
commertazione
commesso
commeto
commettere
commiserazione
commissario
commissione
commitate
commito
commo
commodo
commoglia
commons
commossa
commosso
commozione
communale
commune
communemente
communeta
communista
community
commuove
como
comodino
comodo
compa
compagna
compagne
compagni
compagnia
compagnie
compagno
compare
comparea
comparendo
comparere
compareva
compari
comparire
comparisce
compariscono
comparite
comparo
comparsa
comparse
comparze
compassione
compassionevole
compasso
compati
compenso
competere
competizione
compiacenza
compiacimento
compiaciuto
compiere
compito
complesso
completa
completamente
complete
completes
completo
complimenti
complimento
compone
comporre
compositore
composizione
composta
composto
compra
comprare
comprato
compremiente
compremiento
comprende
comprendere
comprenderete
comprendo
compreso
compri
compromettere
compton
computer
comu
comun
comunale
comune
comuni
comunicazione
comunione
comunista
comunita
comunque
con
conc
conca
conce
concentrato
concepcio
concept
concertato
concerto
concessione
concesso
concetta
concettella
concettina
concetto
conchiglie
concia
conciette
concitato
concluse
conclusione
concorde
concordia
concorrente
concorso
cond
conda
condanna
conde
condizione
condizioni
condotta
condotti
condotto
condr
conduce
conducendo
conducono
condurmi
condurre
condursi
conduttore
conference
conferma
confessa
confessare
confessato
confesso
confetti
confi
confidenza
confidenziale
confiette
confina
confine
confini
confonde
conforme
conforto
confuorto
confusa
confusamente
confuse
confusione
confuso
congedo
congiunge
congiunte
congiura
congo
congratulo
congrega
congresso
coni
coniglie
conio
conjugazione
connannato
connutto
cono
conocchia
conosce
conoscendo
conoscenza
conoscere
conoscete
conosceva
conosci
conosciuta
conosciuto
conosco
conoscono
conquista
conquistata
conquistato
consanguinea
consegna
consegnare
consegno
conseguenza
conseguenze
consenso
conserva
conservata
conservato
conservatorio
considera
considerate
considerazione
consigli
consiglie
consigliere
consiglio
consolazione
console
consonante
consonanti
consorte
consultato
conta
contact
contadina
contadini
contadino
contaie
contaje
contame
contanno
contannole
contano
contante
contare
contate
contato
contatto
contava
conte
conteggio
contegno
contempla
contemplando
contemporaneamente
contenendosi
contenente
contenere
contenta
contentare
contentate
contente
contentezza
contenti
contentissimo
contento
contentone
contenuto
contessa
contessina
contest
conti
contiene
contiente
continente
contino
continua
continuamente
continuando
continuano
continuare
continuato
continuava
continue
continuo
conto
contorce
contr
contra
contraffacendola
contraffacendolo
contraffatte
contranomme
contrapise
contraria
contrario
contrasta
contrastando
contrastato
contrasti
contrasto
contratto
contrazioni
contro
controscena
contuorno
conusce
convene
convenienza
convention
convento
conversazione
converte
conviene
convinto
convulsa
convulsione
convulso
conza
conzenzo
conzierto
conziglie
conzigliere
conziglio
conzigna
conzignato
conzola
conzolata
conzolate
conzolazione
cop
copenaghen
coperta
coperte
coperto
copia
copiddo
copie
copierchio
copierto
copione
copista
copisti
copp
coppa
coppe
coppella
coppia
coppie
coppo
coppola
copre
cor
cora
coraggio
coram
corame
corano
coratella
corbucci
corca
corcare
corcate
corcato
corda
cordata
corde
cordiale
core
corea
cori
corigliano
corna
cornacchia
corne
cornelio
cornice
cornili
cornine
cornino
corno
cornuta
cornute
cornuto
coro
coromoto
corona
corone
corpa
corpetto
corpo
corr
corrado
corre
correa
corredo
correndo
correnno
correno
corrente
correra
correre
corresse
correte
corrette
correva
correvano
correzione
corri
corridoio
corriere
corriero
corrimmo
corrisponde
corrispondente
corrispondenti
corrite
corrivo
corro
corrono
corruzione
corsa
corse
corseca
corsi
corsica
corso
cort
corta
corte
cortella
cortellata
cortellate
cortesciane
cortese
cortesemente
cortesia
cortielle
cortiello
cortiglio
cortile
cortina
corto
corvetto
corvo
corvus
corza
corze
corzero
corzo
cos
cosa
cosas
cosce
coscia
cosciali
coscienza
coscienzia
cose
cosenza
cosere
cosetore
cosi
cosicche
cosimo
cosmo
coso
cospetto
cossa
cossi
costa
costagliola
costano
costante
costantino
costantinopoli
costanza
costanzo
coste
costei
costetuzione
costiera
costituisce
costituita
costituito
costituzionale
costituzione
costo
costoro
costretta
costretto
costringe
costritto
costrui
costruita
costruite
costruito
costrutto
costruzione
costruzzione
costui
costume
costumi
coti
cotogna
cotta
cotte
cotto
country
countryball
couze
cova
cover
coverna
coverta
coverto
covre
cozzeche
cqua
cquacche
cquale
cquanno
cquanto
cquatto
cr
cra
cracovia
craie
craje
cranio
crapa
craparo
crape
crapecuorno
crapiccio
crasse
crassifeca
crassifecazzione
crastato
cratere
cratiere
cravatta
cravune
cre
crea
creanza
creato
creatore
creatura
creazione
creazzione
creda
crede
credea
credendo
credenno
credennose
credeno
credenza
credera
credere
credesse
credete
credetemi
credette
credeva
credevo
credi
crediamo
credite
crediteme
credito
creditori
credive
credo
credono
credulo
creduta
creduto
crema
cremano
cremasco
creme
cremona
creo
crepa
crepantiglia
crepare
crepate
crepo
crepuscoli
crere
crereva
crerite
crero
crerono
cres
cresc
cresce
crescendo
cresceno
crescente
crescenzo
crescere
crescette
cresciuta
cresciute
cresciuto
crespo
cresta
crestiana
crestiane
crestianesemo
crestiani
crestiano
creta
creusa
cri
cria
criaje
crianno
crianza
criarra
criat
criata
criate
criato
criatore
criatura
criature
criaturo
criazione
criazzione
cricca
cricket
cride
crideme
crie
crimea
criminale
criminalita
crimma
crire
cris
crisce
criscenno
criscette
criscienzo
criscito
crisciuta
crisciuto
crise
crisi
criso
crisostomo
crispano
crispi
cristalle
cristalliera
cristallo
criste
cristi
cristian
cristiana
cristiane
cristianesimo
cristiani
cristiano
cristina
cristinella
cristo
cristoforo
cristu
criteca
criteche
criteco
criterio
critica
critiche
critico
crivo
cro
croanto
croato
croazia
crocco
croce
crocefisso
crocetta
croci
crodele
crolla
cronaca
cronica
cronista
cronologica
crotone
crovattino
crucetta
cruda
crude
crudele
crudelta
crudo
crusca
cruscone
crust
cruz
cs
cska
ct
cu
cualizzione
cuanno
cuas
cuba
cucca
cuccagna
cuccato
cucchiaio
cucchiara
cucchie
cucchiere
cuccia
cucciarda
cuccopinto
cuce
cucena
cucenato
cucente
cucina
cucine
cucino
cucire
cucozza
cucu
cucuzzielle
cue
cufece
cuffia
cugina
cugino
cugliette
cugliuta
cugnato
cugnomme
cui
cuie
cuieta
cuiete
cuieto
cuje
cujeto
cula
cule
culera
culetta
culla
cullega
cullegamiento
cullegata
cullegate
cullegato
culleggio
cullezione
cullezzione
cullina
cullinare
culline
culo
culonia
culonie
culonna
culore
culpo
culta
cultivazzione
culto
cultura
culturale
culture
culumbi
culumbrina
culunnetta
culurate
culure
cum
cuma
cumanna
cumannante
cumannate
cumannato
cumanno
cumbatte
cumbattere
cumbina
cumbinato
cumbinazione
cumbine
cumbino
cume
cumeta
cuminese
cumino
cumitato
cumm
cumma
cummanna
cummannante
cummannate
cummannato
cummara
cummare
cummarella
cumme
cummedia
cummediografo
cummenione
cummerciale
cummercio
cummertazione
cummiglia
cummigliata
cummissario
cummissione
cummo
cummoglia
cummune
cummunecazzione
cummuneta
cumo
cumpa
cumpagna
cumpagne
cumpagnia
cumpagnie
cumpagno
cumpare
cumparette
cumparie
cumpariello
cumparza
cumpassione
cumpati
cumpatite
cumpetizzione
cumplesso
cumpleta
cumpletamente
cumpleto
cumpone
cumponeto
cumponetore
cumpositore
cumposizzione
cumposta
cumposte
cumposto
cumpra
cumprende
cumprenne
cumpresa
cumpreso
cumpressa
cumpresso
cumpretamente
cumpreto
cumunale
cumune
cumunita
cun
cunce
cuncerta
cuncetta
cuncettina
cuncetto
cunchiusione
cuncie
cuncierte
cuncierto
cunciette
cuncietto
cundanna
cundannaieno
cundannate
cundannato
cundanne
cunde
cundeziune
cuneo
cunferenza
cunfessa
cunfessato
cunfessore
cunfi
cunfidenza
cunfiette
cunfietto
cunfina
cunfinante
cunfine
cunflitte
cunflitto
cunforme
cungresso
cungues
cuno
cunosce
cunosco
cunquista
cunsequente
cunserva
cunservazzione
cunsideranno
cunsiderata
cunsiderato
cunsiglia
cunsiglio
cunsiste
cunsultato
cunta
cuntadine
cuntanne
cuntanno
cuntata
cuntate
cuntato
cuntatte
cuntatto
cuntava
cunte
cuntea
cuntene
cuntenta
cuntente
cuntentezza
cuntento
cuntenuto
cuntessa
cunti
cuntignosa
cuntinentale
cuntinente
cuntino
cuntinua
cuntinuaje
cuntinuo
cunto
cuntrada
cuntrarie
cuntrario
cuntratto
cuntro
cuntrollo
cuntrora
cuntrulla
cuntrullate
cuntrullato
cunusciuta
cunusciute
cunusciuto
cunvento
cunviento
cunze
cunzederata
cunzederate
cunzerva
cunzervatorio
cunzi
cunzidera
cunzideranno
cunziderata
cunziderate
cunziderato
cunzigli
cunziglie
cunziglio
cunzigna
cunziste
cunzola
cunzula
cunzuma
cunzumo
cunzurdato
cuo
cuoche
cuoco
cuocolo
cuofano
cuofene
cuofeno
cuoglie
cuoio
cuojero
cuoll
cuolle
cuollo
cuonce
cuoncio
cuoppe
cuoppo
cuor
cuore
cuori
cuorio
cuorno
cuorp
cuorpe
cuorpo
cuorve
cuorvo
cuosemo
cuotto
cup
cupa
cupe
cupellini
cuperta
cupi
cupido
cupiello
cupo
cupola
cura
curaggio
curano
curare
curata
curatella
curato
cure
curia
curiosa
curiose
curiosi
curiosita
curiosity
curioso
curitiba
curiuse
curiuso
curling
curnuto
curo
curona
curone
curpo
curradino
curre
currenno
currente
currespenne
currette
curreva
curriere
currimmo
currite
currivo
curruta
curruto
curso
curt
curte
curtellata
curtellate
curtese
curtielle
curtiello
curtigli
curtiglio
curtile
curtis
curto
curva
curvo
curze
curzo
cus
cusano
cuscenza
cuscienza
cuscienzia
cuscine
cuscino
cusenza
cuseva
cusio
cussi
custa
custantenobbule
custanza
custanzella
custata
custellazzione
custie
custiera
custione
custituisce
custituito
custituzzione
custode
custruette
custrui
custruita
custruite
custruito
custruzione
custruzzione
custume
cut
cutte
cuttone
cyclamen
cz
d
da
daccapo
dace
dacia
dagli
dai
daie
daje
dal
dali
dalia
dall
dalla
dalle
dalli
dallo
dama
dame
damiano
dammaggio
damme
dammecella
dammecelle
dammi
dammillo
dammo
dan
danare
danari
danaro
dance
dando
dandogli
dandole
dandosi
danemarca
danese
dangerous
dangquotidiani
daniel
daniele
danna
dannata
dannate
dannato
danne
danni
danno
dannole
danny
dante
danubbio
danza
danze
danzica
dapo
dappettutte
dar
dara
darai
dare
darei
darele
dareme
daremo
darete
dareto
dargli
dario
darla
darle
darme
darmi
daro
darra
darraggio
darraje
darria
darrimmo
darrite
darse
darsi
darti
darve
darvi
das
dat
data
database
date
datele
dateme
datemi
datevi
dati
dato
datole
datose
datte
dattolo
dava
davano
davanti
dave
david
davide
davis
davvero
day
days
db
dc
dd
dda
ddare
dde
ddenare
ddenocchie
ddereto
dderitto
ddeta
ddete
ddi
ddice
ddiceno
ddicere
ddiceva
ddich
ddicite
ddico
ddiece
ddijo
ddimane
ddint
ddinto
ddio
ddipartimente
ddire
ddisgrazia
dditto
ddiuno
ddo
ddoce
ddoi
ddoie
ddoje
ddoppo
ddovere
ddu
dduie
dduje
de
dea
dead
deaf
death
debba
debbeto
debbo
debbono
debeto
debiti
debito
debitore
debole
debolezza
debolmente
debora
debutto
deca
decaro
decate
dece
decema
decembre
decemo
decennio
decenno
decennole
decente
decentemente
decenza
decerette
decesse
decette
decettero
deceva
deche
dechiaraje
decide
decidere
decidette
decie
decima
decimo
decina
decisa
decise
decisione
deciso
decisse
decite
declamare
deco
decorazione
decoro
decreto
dedica
dedicata
dedicato
dedico
dedone
dee
deep
defauto
defenne
defennere
defesa
deffi
deffre
definita
definitivamente
definito
definizione
definizzione
deforme
defunta
defunto
degl
degli
degna
degne
degni
degnissimo
degno
deh
dei
deie
deimos
deir
del
dele
delegato
delegenzia
delfina
deli
delia
delicata
delicatamente
delicatezza
delicato
delie
delirio
delitti
delitto
delizia
dell
della
delle
delli
dello
delluvio
delo
delore
delta
delti
delure
deluso
dem
demannato
deme
demetrio
demi
deminie
demmonio
demo
democrateca
democrateco
democrazi
democrazia
demonio
den
dena
denare
denari
denaro
dend
dende
dene
denis
denocchie
denominazione
denominazzione
dente
denti
dentr
dentro
denucchio
denza
denzeta
denzita
depe
depenne
depone
deporre
depositi
deposito
deposto
deputate
deputato
der
dera
derata
dere
dereggiuto
dereto
derettura
derfino
derimpetto
deritt
deritta
deritte
deritto
deriva
derivante
derivazione
des
descrevette
descrezzione
descritta
descritto
descrive
descrizione
descurzo
desdetta
desederio
deserta
deserto
desgratia
desgrazia
desgrazie
desgusto
desidera
desideranno
desiderare
desiderate
desiderava
desidere
desiderio
desidero
desierte
desierto
design
designe
designer
designo
desinenza
desolato
despenza
desperare
desperata
desperato
desperazione
despiacere
despietto
desse
desso
desta
destenato
destinata
destinate
destinato
destine
destino
desto
destr
destra
destramente
destre
destrezza
destro
deta
dete
detective
detta
dettare
dette
detteno
dettero
detti
detto
dev
deva
devano
deve
devenette
devenne
deventa
deventaie
deventaje
deventare
deventato
deverse
deverza
deverze
devesi
deveva
devi
devie
devierze
devo
devono
devozione
devuzione
deze
dezero
dezziunario
df
dh
di
dia
diable
dial
diale
dialettale
dialettali
dialette
dialetti
dialetto
dialettu
dialo
dialogo
dialogs
diamante
diametro
diamine
diamo
diana
diano
dianzi
diaschece
diavole
diavoli
diavolo
dibattimento
dic
dica
dice
dicea
diceano
dicembre
dicendo
dicendogli
dicene
dicenno
dicennole
diceno
dicere
dicesi
dicesse
dicessette
diceste
dicette
dicetteno
dicettero
dicetto
diceva
dicevano
dicevo
dich
dichiara
dichiaraje
dichiarata
dichiarate
dichiarato
dichiarazione
dichiaro
dici
dicia
diciamo
diciannove
diciarra
diciarria
diciassette
dicimmo
diciotto
dicisse
diciste
dicisteve
dicite
dicitele
diciteme
dicitemmello
dicitencello
dicive
dico
dicono
dicta
dictionnaire
didattico
didentro
die
diebbete
diebete
diece
dieci
diede
diego
diente
dies
dieta
dietro
dif
difende
difendere
difendersi
difenne
difennere
difensore
difesa
difese
difetti
difetto
differente
differenza
differenze
differenzia
diffi
difficele
difficile
difficilmente
difficolta
diffonde
diffusa
diffuse
diffusione
diffuso
digestione
diggitale
digilander
digitized
digiuna
digiuno
digli
dignita
digno
digrignando
dii
dilazione
dilemma
dilettante
diletto
dille
dillo
dim
dimanda
dimane
dimanna
dime
dimenandosi
dimensione
dimenticare
dimenticati
dimenticato
dimme
dimmello
dimmi
dimora
dimostra
dimostrazzione
din
dinanzi
dinastia
dinastie
dincelle
dincello
dine
dini
diniego
dinlo
dinnanzi
dino
dinota
dins
dint
dinta
dinte
dinto
dintro
dio
diocese
diocesi
diocleziano
dioda
diodati
diodato
dioto
dipartime
dipende
dipingere
dipinto
diploma
dippiu
dir
dira
dirai
diramazione
dire
direbbe
director
direi
direle
diremo
direte
diretta
direttamente
dirette
diretto
direttore
direzionale
direzione
direzzione
dirgli
dirige
dirigendo
dirigendosi
dirigente
dirimpetto
diritte
diritti
diritto
dirle
dirlo
dirmi
diro
dirotto
dirra
dirraggio
dirria
dirsi
dirte
dirti
dirve
dirvi
disambiguazzione
disastro
disc
discende
discenzo
dische
dischi
disciplina
disco
discordia
discorre
discorrere
discorsi
discorso
discosto
discreto
discurzo
discussione
dise
disegna
disegnata
disegnatore
disegne
disegno
disfatta
disfatto
disgrazia
disgraziata
disgraziato
disgrazie
disgusto
disinvoltura
disney
disordine
dispare
disparte
dispensa
dispenza
dispera
disperandosi
disperata
disperatamente
disperate
disperato
disperatone
disperazione
dispero
dispetto
dispettosa
dispettoso
dispiace
dispiacere
dispiaciuto
dispiette
dispietto
displaystyle
dispone
disponibile
disporre
disposizione
disposta
disposti
dispregevole
disprezzate
disprezzo
disputa
disse
dissero
dissi
distacca
distante
distanza
diste
distesa
disteso
distingue
distinguere
distinguono
distinta
distinte
distinto
distogliere
distratta
distratto
distretto
distruggere
distruggette
distrutta
distrutto
distruzione
disturba
disturbo
dit
dita
dite
ditelo
ditemi
ditions
dito
ditt
ditta
dittatore
ditte
ditti
ditto
diu
diuna
diune
diuno
diure
diuto
divano
dive
divenette
divenne
diventa
diventanno
diventare
diventata
diventato
divento
divenuto
diversa
diversamente
diverse
diversi
diverso
diverte
diverti
divertimento
divertire
diverze
divide
dividere
dividono
divierze
divina
divincolarsi
divinita
divino
divisa
divise
division
divisione
diviso
divora
divorzio
dizionario
dj
djvu
dm
do
doana
dobbiamo
doc
docate
docato
doce
docezza
docezze
docile
documentario
documente
documenti
documento
documiente
documiento
dodici
doglia
doglie
doi
doie
doj
doje
dolce
dolcemente
dolcezza
dolci
dole
dolendosi
dolente
dollare
dolo
dolore
dolori
dolorosa
dolorosamente
doloroso
dolure
domanda
domandare
domandarvi
domandato
domandava
domande
domando
domani
domenica
domenico
domestico
domesticus
domina
dominandosi
dominazzione
domingo
domini
dominica
dominio
dominique
dommeneca
don
dona
donadoni
donaje
donald
donalo
donare
donata
donatello
donati
donatiello
donatino
donato
donazione
donca
donche
donco
donde
dondola
dondolando
done
donghe
dongo
donn
donna
donnarumma
donne
dono
dop
dopo
dopp
doppe
doppia
doppie
doppio
doppo
dor
dora
dorata
dorati
dorato
doria
doris
dorme
dormenno
dormeva
dormi
dormiente
dormire
dormo
dormono
doro
dorotea
dorso
dos
dosso
dot
dota
dote
dotta
dotte
dotti
dotto
dottor
dottore
dottoressa
dottrina
dov
dove
dovea
dover
dovere
dovesse
dovete
dovette
dovetti
doveva
doviello
dovizie
dovonca
dovra
dovrai
dovrebbe
dovrei
dovreste
dovro
dovuta
dovute
dovuto
down
downs
dr
drago
dragon
dragone
dram
dramma
drammatica
drammatiche
drammatici
drammatico
drammaturgo
drammi
drappi
dream
dresda
drinto
dritta
dritti
dritto
droga
dt
du
dubbie
dubbio
dubita
dubitare
dubitate
dubito
dubius
dubstep
duc
duca
ducale
ducate
ducati
ducato
duce
duchessa
duck
dudece
due
duecento
duellista
duello
duet
duetto
dui
duiciento
duie
duj
duje
dulore
dulure
duminio
dummeneca
duna
dunazione
dunche
dune
dunga
dunque
duo
duomo
duone
duono
duorme
duppio
dura
duraje
duranne
durante
durata
durato
durava
durazzo
durece
durium
durmenno
durmeva
durmi
durmite
durmuto
duro
dutto
duttore
duvere
duzzina
dvd
dynamic
dynit
dz
e
ea
early
earth
east
ebano
ebbe
ebbene
ebbero
ebbi
ebbiva
ebbravo
ebbreca
ebbroca
ebe
ebete
ebrei
ec
eca
ecc
eccelle
eccellenza
eccellenzia
eccessiva
eccessivamente
eccessivo
eccesso
eccetera
eccezione
ecci
eccia
eccitato
ecclesia
ecco
eccoce
eccoci
eccola
eccole
eccoli
eccolo
eccome
eccomi
eccote
eccoti
eccovi
eccucca
echi
echio
eco
ecomafia
ecomafie
economia
economica
economiche
economico
economie
economista
economo
ecuador
ecunumia
ed
edagricole
ede
edefice
eden
edicions
edifice
edit
edithistory
edition
editore
editori
editoriale
editrice
editto
ediz
edizione
edizioni
edizzione
edoardo
edua
eduardo
educac
educato
educazione
educazzione
edward
ee
eee
effetti
effettivamente
effetto
effigie
eggia
egidio
egitto
egli
egroca
eguale
egualmente
eh
ehe
ehesto
ehi
ei
eia
eie
eila
ein
einaudi
einstein
el
elba
ele
electa
elegante
elegantissimo
eleganza
elementare
elemente
elemento
elemiente
elemosina
elena
elenco
eleonora
elette
eletto
elettorale
elettore
elettrica
elettrico
eletturale
elezione
elezzione
elezziune
eli
elia
elicila
elicilo
elide
elie
elio
elis
elisa
elisabetta
ell
ella
elle
ello
elmo
elvira
elviru
em
emanuela
emanuele
embe
emberiza
emette
emi
emigrante
emigrazione
emilia
emiliano
emiliella
emilio
emisfero
emistocle
emma
emmanuele
emme
emo
emozionato
emozione
emozioni
en
enchante
enchie
enciclopedi
enciclopedia
encyclopedia
end
ene
enea
eneide
eneidevirgilio
energi
energia
energico
energie
english
enn
enna
enne
ennece
ennio
ennu
eno
enorme
enrichetta
enrico
ente
entita
ento
entra
entrambi
entrando
entrano
entrare
entrata
entrate
entrato
entrava
entri
entriamo
entro
entusiasmandosi
entusiasmo
enuto
envasione
enza
enzo
eo
eoa
eoe
eoi
eolo
eon
eoo
ep
epa
epidemia
epiro
episode
episodi
episodie
episodio
epoca
epomeo
eppo
eppure
epub
epuca
equa
equatore
equazione
equazzione
equense
equinozio
equivalente
equivoco
er
era
eraclea
eramo
eran
erano
erasmo
erat
eravamo
eravate
erba
erbe
erbetta
erco
ercolano
ercole
ercoli
ercolino
ere
erede
eredi
eredita
eremo
ereno
erg
ergastolo
erge
ergo
eri
eriatura
erica
eritrea
ermete
erminia
ern
erne
ernesta
ernestina
ernesto
ernst
ero
eroe
eroi
eroismo
eros
err
erri
errichetta
errico
erricu
erricuccio
erro
errore
errori
erta
eruzione
eruzzione
erva
erve
erzegovina
es
esa
esagerata
esagerato
esame
esatto
esattore
esazione
esca
esce
esceno
esci
esclama
esclamo
esclusiva
esco
escono
esculapio
ese
esecuzione
esecuzzione
esegue
eseguire
eseguita
eseguono
esempie
esempio
esemplare
esequie
eserceto
esercite
esercito
esercizio
esi
esige
esigere
esilio
esis
esiste
esistente
esistenti
esistenza
esisteva
esistono
esitante
esitazione
esito
esp
espan
espansione
esperienza
esperienze
esperimento
esploratore
esposito
esposizione
esposto
espressione
espressioni
espresso
esprime
esprimere
ess
essa
esse
essempio
essendo
essenno
essennole
essennose
essential
essenza
essenziale
esser
essere
esserle
essersi
esservi
essi
esso
est
esta
estate
estatico
este
estenne
estensione
estenzione
estera
estere
esterna
esterno
estero
estesa
esti
estinta
estinto
esto
estonia
estrae
estraneo
estratto
estrazione
estrece
estrema
estremi
estremo
et
eta
etalia
etate
etc
ete
eterna
eternamente
eterno
ethnologue
eti
etichetta
etimologgia
etiopia
etna
etrusca
etrusche
etrusco
ettare
ette
etto
ettore
eu
eucariute
eug
euge
eugenio
eurasia
euro
eurofestival
europ
europa
europe
europea
european
europee
europei
europeo
eurovision
eva
evangelion
evangelista
evangerion
evano
evemero
eveno
evente
eventi
evento
evera
evere
everything
evidente
evidentemente
evita
evitare
evoluzione
evoluzzione
evviva
ex
exomars
express
ezz
f
fa
fab
fabaceae
fabbrica
fabbricatore
fabiano
fabiella
fabio
fabrizi
fabrizio
fabro
fac
facc
facce
faccefronte
faccella
facchine
facchini
facchino
facci
faccia
facciamo
facciano
facciata
faccie
faccio
face
facea
faceano
facele
facendo
facendogli
facendosi
facenn
facenna
facenne
facenno
facennola
facennole
facennolo
facennome
facennose
facente
facesse
facessero
faceste
facett
facette
facetteno
facettero
facev
faceva
facevamo
facevano
faceveno
facevo
faci
faciarria
faciarrisseve
facile
facilita
facilmente
facimme
facimmece
facimmo
faciste
facisteve
facite
facitece
facitele
facitelo
faciteme
faciteve
facito
facive
faciveve
facolta
facto
facurta
faenza
faggio
fagotto
fai
faie
fair
faje
falco
falcone
falde
falegname
fall
falla
falle
fallimento
fallisce
fallo
falluta
falluto
falsa
false
falvo
fama
fame
famiglia
famiglie
familiare
family
famma
famme
fammi
fammosa
fammoso
fammuso
famosa
famose
famosi
famoso
famusa
famuse
famuso
fan
fanale
fanatico
fance
fanciulla
fanciulle
fanciulli
fanciullo
fanfarra
fango
fann
fanne
fanno
fano
fantasia
fantasie
fantasmi
fante
fanteria
fanzago
fao
faore
far
fara
faraglione
faragliune
farai
faranno
farao
faraone
farce
farci
farcone
fare
farebbe
farei
farela
farele
farelo
fareme
faremo
farence
farene
farenella
farese
farete
farfariello
fargli
fari
farina
farine
farla
farle
farli
farlo
farmacia
farmacista
farme
farmi
farne
farnese
faro
farra
farraggio
farraie
farraje
farranno
farri
farria
farriano
farrimmo
farrisse
farsa
farse
farsi
farte
farti
farve
farvi
farza
fas
fasano
fasce
fascia
fascino
fascio
fascismo
fascista
fasciuore
fase
fassone
fastidio
fasule
fasulillo
fasulo
fat
fata
fatale
fatalita
fatata
fatato
fatazione
fate
fateca
fatecaje
fatecava
fateche
fatela
fatelo
fateme
fatemi
fatevi
fati
fatica
faticaje
faticanno
faticano
faticare
faticate
faticato
faticatore
faticava
fatiche
fatico
fato
fatt
fatta
fattarielle
fatte
fatti
fatto
fattocchiaria
fattole
fattolo
fattone
fattore
fattose
fattucchiara
fattura
fatvar
fau
fauce
faustina
fausto
fauza
fauze
fauzo
fava
fave
favella
favetti
favola
favole
favore
favorevole
favori
favorire
favorirmi
favorisca
favorite
favure
favurite
fazzoletto
fazzulette
fazzuletto
fc
fe
feat
febbo
febbraio
febbrare
febbre
febo
feca
fecato
feccia
fece
fecero
feche
feci
feco
fecozze
fed
fede
fedele
fedeli
fedelissima
fedelta
federal
federale
federation
federazione
federazzione
federi
federico
federigo
fedriche
fegato
fegliola
fegliulo
fegnere
fel
fele
feli
felice
felicenotte
felici
felicie
feliciello
felicissima
felicita
felippo
felix
fella
felle
fellusse
feloseco
felosefo
felosofia
felosofo
fem
femina
femme
femmena
femmene
femmenella
femmenelle
femmenile
femmenona
femmina
femmine
femminile
femminino
fenale
fene
fenesce
fenesta
feneste
fenestella
fenestone
fenestra
fenestre
fenestriello
fenette
feni
fenice
fenicia
fenile
fenisce
feniscela
fennamendale
feno
fenomene
fenomeno
fenta
fenucchio
fenuta
fenute
fenuto
fenzione
fer
fera
ferd
ferdina
ferdinand
ferdinandino
ferdinando
fere
ferele
fergola
ferita
ferite
ferito
ferma
fermaie
fermaje
fermano
fermare
fermarsi
fermata
fermate
fermateve
fermatevi
fermati
fermato
ferme
fermi
fermo
fernando
fernenno
fernesce
fernesco
fernette
fernettero
ferneva
ferni
fernimmela
fernisce
ferniscela
fernitela
fernuta
fernute
fernuto
feroce
ferone
ferracavallo
ferraiuolo
ferrante
ferrara
ferrarese
ferraro
ferrata
ferrentino
ferreri
ferretti
ferri
ferro
ferrovia
ferruccio
ferruvia
ferruviaria
ferruvie
fertile
fertilita
feruta
ferute
feruto
fervore
fescale
fesse
festa
feste
festeggia
festine
festino
festival
fete
fetente
fetiente
feto
fetvu
feudale
feudo
feura
fevraro
ff
ffa
ffacce
ffaccia
ffaccio
ffacenno
ffacette
ffaceva
ffacite
ffaie
ffaje
ffamiglie
ffanno
ffare
ffarele
ffarlo
ffarme
ffarve
ffatica
ffatiche
ffatta
ffatte
ffatto
ffe
ffemmena
ffemmene
ffeneste
ffeni
ffeste
ffete
ffi
ffierro
ffiglia
ffiglie
ffigliema
ffiglio
ffigliole
ffino
ffiure
ffoggia
ffora
fforma
fforme
fforte
fforza
fforze
ffosse
ffrasche
ffrate
ffratemo
ffrateto
ffresca
ffrisco
ffronne
ffronte
ffu
ffuje
ffunno
ffuoco
ffuorze
fi
fia
fiaba
fiacco
fiamma
fiamme
fiammifero
fianchi
fianco
fiandre
fiano
fiaschetto
fiaschi
fiasco
fiat
fiato
fibbre
fibra
fica
ficca
ficche
ficco
fice
ficero
fiche
fichi
fico
ficosecche
fiction
fida
fidanzata
fidanzato
fidate
fidato
fide
fido
fiducia
fie
fieno
fiera
fierre
fierro
fieto
fifa
fifty
fighting
figl
figle
figli
figlia
figliaje
figliama
figliare
figliastra
figliastre
figliata
figliato
figlie
figliema
figlieme
figliemo
figlieta
figliete
figlieto
figlio
figliola
figliole
figliolo
figliu
figliule
figliulella
figliulo
figliuola
figliuole
figliuolo
figura
figurate
figurateve
figuratevi
figurative
figurazione
figure
figuro
fije
fil
fila
filaccio
filadoro
filangieri
filato
filatorio
filava
file
filetto
fili
filiberto
filinto
filio
filippetto
filippo
film
filmbook
films
filo
filomena
filone
filoseco
filosefo
filosofi
filosofia
filosofo
filtro
filume
filumena
fin
fina
final
finale
finali
finalista
finalmente
finanza
finanze
finarmente
finche
fine
finestra
finestre
finestrino
finestrone
finezza
finge
fingendo
fingere
fini
finiamola
fininvest
finira
finire
finirla
finisce
finiscila
finita
finite
finitela
finito
finizio
finlandia
fino
finora
finta
finte
finti
finto
finzione
fio
fioca
fioco
fior
fiora
fiorano
fiordelisi
fiore
fiorella
fiorentina
fiorentini
fiorentino
fiori
fiorillo
firenze
firma
firmaje
firmata
firmato
firme
firmo
first
fiscale
fischi
fischia
fischietto
fischio
fisco
fiseca
fiseco
fisica
fisico
fiso
fisonomia
fissa
fissando
fissandola
fissandolo
fissazione
fisse
fissi
fisso
fit
fitta
fittare
fitte
fitto
fiu
fiume
fiura
fiure
fk
fl
fla
flaiano
flauto
flaviano
flaviis
flavio
flcl
fle
flegrea
flegree
flegrei
flemma
flik
flor
flora
florida
florindo
flotta
flusso
fn
fo
fobos
foca
foce
foche
fochi
focile
foco
focolaro
fodero
fogge
foggia
fogli
foglia
foglie
foglio
foia
foire
foje
folk
folla
folle
follemente
fon
fona
fond
fonda
fondaco
fondato
fondatore
fondazione
fondi
fondo
fonimene
fonit
fonnamiento
fonseca
fontana
fontane
fontanella
fontanelle
fonte
fonti
fonzo
foo
food
foot
football
for
fora
forastiero
forbece
forbice
forbici
forca
forcella
forcina
fore
forerotta
forestiera
forfante
forgia
fori
foria
forio
forli
form
forma
formaggio
formano
formare
formato
formazzione
forme
formica
formiche
formicola
formula
fornace
forni
fornita
fornito
forno
fornuto
foro
forore
forse
forsennata
fort
forta
forte
fortemente
fortezza
forti
fortissimo
fortuna
fortunata
fortunatamente
fortunate
fortunatina
fortunatissimo
fortunato
fortune
forturella
forum
forza
forzato
forze
fosca
foscola
fose
foss
fossa
fossato
fosse
fossemo
fossero
fossi
fosso
foste
foster
fota
fote
foto
fotografia
fotografie
foundation
fove
fr
fra
frabutto
fracasse
fracasso
fraceta
fracete
fraceto
fragaglie
frammenti
franc
franca
francamente
francavilla
france
francesa
francesca
francescano
franceschella
francesco
francese
francesi
franche
franchezza
franchi
franci
francia
franciolini
francische
francischella
francisco
franciscu
francise
franco
francobollo
francombat
franfellicche
franfellicco
frange
frangesa
frangese
frangetta
frangia
frangisch
frangise
frank
frankfurt
franklin
franz
franza
franze
franzesa
franzese
frapponendosi
frasca
frasche
frase
frasi
frat
frate
fratellanza
fratelle
fratelli
fratello
frateme
fratemo
fraterne
fraterno
frateto
frati
fratie
fratielle
fratiello
frato
fratt
fratta
frattamaggiore
frattanto
fratte
frattempo
fraveca
fravecaje
fravecare
fravecata
fravecate
fravecato
fravecatore
fravecazzione
fraveche
frazione
frazzione
fre
freca
fredda
freddamente
fredde
freddezza
freddo
free
freme
fremendo
fremente
fremito
fremma
frena
frenesia
fresca
fresche
fresco
fresella
freselle
fresenone
fressora
fresulone
fretta
frettata
frettolosamente
frettoloso
freud
freva
frevaro
freve
frezza
frezze
fri
fricasse
fricceca
fridd
fridde
friddo
friedrich
friere
friggitore
frignano
frijarielle
frijute
frische
frisco
frisole
fritta
frittata
fritte
fritto
fritz
friulano
friule
friuli
from
fronn
fronna
fronne
front
fronte
frontespizio
frosinone
frotta
fru
fruga
frungillo
frunn
frunne
frunnell
fruntiera
frusce
fruscia
frusciamiento
frusciante
frusciato
fruscio
frusse
frusso
frusta
frutt
frutta
frutte
frutti
frutto
fs
ft
fu
fucarone
fucetole
fucile
fuculare
fuga
fugacemente
fugge
fuggendo
fuggire
fuggono
fugn
fui
fuie
fuieno
fuiette
fuieva
fuimmo
fuire
fuite
fuiuta
fuiuto
fuj
fuje
fujemo
fujene
fujenno
fujeno
fujerono
fuji
fujie
fujo
fujono
fujuto
full
fulmene
fulvio
fuma
fumando
fumava
fumetto
fummo
fumo
funa
fundata
fundatore
fune
funebre
funerale
funeteca
funge
fungetiello
funiculare
funnaje
funnajeno
funnamentale
funnata
funnato
funnatore
funnature
funnazione
funnazzione
funne
funneco
funno
funtana
funtane
funtanella
funte
funziona
funzione
fuo
fuoche
fuochi
fuoco
fuoglie
fuor
fuorche
fuorfece
fuori
fuorze
fuosse
fuosso
furastiere
furastiero
furbo
furcella
furente
furesta
furgolo
furia
furie
furiere
furio
furiuso
furma
furmaggio
furmaje
furmale
furmat
furmata
furmate
furmato
furmazione
furmazzione
furnace
furnaro
furne
furno
furo
furono
furore
furtezza
furtivamente
furto
furtuna
furtunata
furtunato
furturella
furzato
fus
fusa
fusco
fusione
fuso
fuss
fusse
fusseve
fuste
fusto
futa
futbolo
fute
futebol
futo
futura
future
futuro
g
ga
gabba
gabbare
gabbato
gabbia
gabbie
gabella
gabinetto
gabriele
gabriello
gaet
gaeta
gaetanino
gaetano
gaga
gagliardi
gaia
gaieta
gainax
gaio
gaiola
gaitanino
gaitano
gaje
gakken
gala
galante
galanteria
galanto
galantommo
galantomo
galantuomini
galantuommene
galantuomo
galatasaray
galateo
galdieri
galdo
galeno
galera
galere
galerio
galiani
galileo
galione
galiota
galla
gallaria
galle
galledinio
galleniare
galleria
gallery
galles
gallia
galliani
gallina
gallinaro
galline
gallipoli
gallo
gallura
gallurese
gallus
gamba
gambardella
gambe
gambrinus
game
gamma
gamme
gan
gandhi
gangemi
gangheri
ganna
gano
gar
gara
garbata
garbo
garci
garda
gare
gargano
gargiulo
garibaldi
garigliano
garofano
garrone
garum
gary
garzone
garzoni
gas
gasp
gaspare
gasparrone
gata
gato
gatta
gatte
gatti
gatto
gaude
gaudere
gay
gazzetta
gdan
ge
gege
gel
gela
gelate
gelati
gelato
gelo
gelosa
gelosia
geloso
gelsomina
geltrude
gelusia
geluso
gem
geme
gemelle
gemelli
gemello
gemendo
gemito
gemma
gen
gendo
gene
genera
general
generale
generalmente
generazione
genere
generi
genero
generosita
generoso
genesis
geniale
genie
genio
genitore
genitori
genitrice
genn
genna
gennaio
gennarelli
gennari
gennarino
gennaro
gennerale
gennere
genny
genoa
genoino
genova
genovese
genovesi
gens
genta
gentaglia
gente
gentelommo
genti
gentil
gentildonna
gentile
gentilezza
gentili
gentiluomo
genuino
genuvese
geo
geografia
georg
george
georgeca
georgia
ger
gera
gerais
gerardo
geretiello
gergo
gerione
germa
germain
germana
germane
germanese
germania
germano
gerome
ges
gesso
gesta
gesti
gesticola
gesticolando
gestione
gesto
gesu
gesualdo
gesuita
gesuite
gesummi
gesummina
get
getta
gg
ggamme
ggas
gge
ggeca
ggeche
ggelate
ggena
ggene
ggenerale
ggenere
ggenio
ggente
ggere
gghi
gghia
gghiammo
gghiangh
gghiate
gghie
gghiette
gghiuorno
gghiuta
gghiute
gghiuto
ggia
ggiall
ggiesu
ggio
ggiovane
ggira
ggiro
ggiun
ggrade
ggranfe
ggrano
ggravone
gguarda
gguardie
gh
ghana
ghe
gheve
ghi
ghiaccio
ghiammo
ghiammuncenne
ghianca
ghianco
ghianga
ghiangas
ghiangh
ghianghe
ghiasce
ghiastemma
ghiastemme
ghiate
ghie
ghiennariello
ghienno
ghiesce
ghiesse
ghiette
ghieva
ghil
ghire
ghitta
ghiuca
ghiuoco
ghiuorne
ghiuorno
ghiurnate
ghiuro
ghiusto
ghiuta
ghiute
ghiuto
gi
gia
giac
giacca
giacche
giacchetta
giacchi
giacchino
giache
giaci
giacinto
giacomi
giacomino
giacomo
giacubbine
giacumi
giacumino
giagante
gialante
giall
gialla
gialle
giallo
gialloteca
giambattista
giamberga
giammai
gian
giancarlo
giancola
gianfranco
giang
gianluca
giann
giannattasio
gianni
giannina
giannini
giano
gianturco
giappone
giapponese
giappunese
giardeniero
giardini
giardino
giarra
gica
gierusalemme
giesommi
giesommina
giesu
giesucristo
giesummina
giesummino
giffoni
gigante
giggino
gigi
gigli
giglie
giglio
giglje
gii
gile
gill
gin
ginestre
ginevra
gino
ginocchi
ginocchia
ginocchio
gio
gioacchino
gioca
giocano
giocare
giocatori
gioche
gioco
gioconda
gioia
gioie
gioielli
gioja
gioje
giojello
gione
gior
giordania
giordano
giorgetiello
giorgio
giorlanna
giornalaio
giornale
giornali
giornalismo
giornalista
giornata
giornate
giorni
giorno
giosue
giov
giova
giovan
giovane
giovani
giovaniello
giovanile
giovanna
giovanne
giovanni
giovannie
giovanniello
giovannina
giovannino
giovanotto
giovarmi
giove
giovedi
giovena
giovene
gioventu
gioveri
giovine
giovino
giovinotte
giovinotto
gir
gira
giraje
girando
giranno
girare
girata
girato
girava
giravote
gire
giri
girl
girlfriend
giro
girolamo
girone
girune
giti
gitta
giu
giuann
giuanne
giubba
giubilando
giubilo
giuda
giudice
giudici
giuditta
giudizio
giuffre
giugliano
giugn
giugne
giugno
giugrafeca
giugrafia
giul
giulia
giuliano
giulie
giulietta
giulio
giumento
giunge
giungere
giungono
giunone
giunse
giunta
giunte
giunti
giunto
giuoco
giur
giura
giuramente
giuramento
giurate
giurati
giurato
giurdania
giurieismo
giurista
giurnale
giurnalista
giurnaliste
giuro
gius
giuse
giuseppe
giuseppina
giusta
giusti
giustiniano
giustino
giustizia
giustizzia
giusto
giuva
giuvane
giuvanile
giuvanne
giuvannella
giuvanni
giuvanniello
giuvannina
giuvannino
giuvene
giuventu
giuvino
giuvinotte
giuvinotto
given
giza
gl
glasgow
gle
glemo
glene
glevie
gli
glia
gliannola
gliano
glie
gliel
gliela
gliele
glieli
glielo
gliema
gliemo
gliene
glieno
gliete
glio
gliotta
gliotte
gliottere
gliottette
gliuna
gliune
gliva
global
globo
gloria
glossario
gn
gna
gnane
gnazio
gne
gnene
gnenetate
gnenetato
gnere
gnerno
gnesa
gnese
gnesella
gnierno
gno
gnomi
gnor
gnora
gnorante
gnoranzia
gnore
gnorri
gnorsi
gnorsl
gnorzi
gnossi
gnosta
gnurante
go
goal
gobbo
goccia
gode
godere
godo
goffamente
goffo
gogh
goia
gol
gola
golfo
goli
golio
gomiti
gomito
gomme
gomorra
gonnella
google
gopp
gorizia
gote
goti
gov
governa
governatore
governo
goveta
govierno
gr
gra
grade
gradi
gradiata
gradini
grado
grafe
grafiche
gragnano
graham
grammateca
grammatica
gramme
gran
grana
granata
granatelle
granato
grance
grand
granda
grande
grandezza
grandi
grandissima
grandissimo
granduca
granfa
granfe
grann
granna
granne
grannene
grannezza
grannezze
grannissema
grannissemo
grannizia
grannonia
grano
granone
grappa
grassa
grasse
grasso
grata
gratia
gratie
gratione
gratis
gratitudine
grato
gratta
gratteri
grave
gravemente
gravina
gravita
grazia
grazie
graziella
grazio
graziosa
grazioso
grazzia
grazzie
grazzjie
gre
greatest
greca
greche
greci
grecia
greciglio
greco
green
greggio
grego
gregorio
greguriane
greguriano
grembiale
grembiule
grenoble
grey
grezzo
grida
gridaie
gridaje
gridando
gridanno
gridano
gridare
gridava
gridi
grido
grieca
griece
grieche
grieco
grifone
grigg
grigge
griggio
grigia
grigio
grille
grillo
grimaldi
gro
grolia
grolie
groliosa
groppa
grossa
grosse
grosseto
grossi
grosso
grotta
grottaferrata
grotte
grottesco
grottone
group
grumo
gruoss
gruossa
gruosse
gruosso
grupp
gruppa
gruppe
gruppo
grussiciello
gu
gua
guadagna
guadagnare
guadagnato
guadagno
guaglio
guagliona
guaglione
guagliu
guagliunciello
guagliune
guaguina
guai
guaie
guaio
guaje
guajo
gualiava
guallara
gualtiero
guancia
guanciali
guangxi
guante
guanti
guantiera
guanto
guappa
guapparia
guapparie
guappe
guappi
guappitello
guappo
guar
guarattelle
guard
guarda
guardaie
guardaje
guardame
guardando
guardandola
guardandolo
guardanno
guardano
guardaporta
guardaporte
guardar
guardare
guardarla
guardarlo
guardaroba
guardarsi
guardasse
guardata
guardate
guardato
guardava
guardavano
guardavo
guarde
guardeme
guardi
guardia
guardiano
guardie
guardinga
guardingo
guardio
guardo
guarigione
guarire
guarisce
guarito
guarracino
guarriere
guarzone
guasta
guastare
guastata
guastato
guaste
guasto
guatemala
guattarelle
guatto
gude
gue
guele
guerra
guerre
guglielmo
gugliemo
gugliermo
gui
guida
guidata
guidate
guidato
guide
guiderdone
guido
guilin
guinea
guisa
guiscardo
guitte
guitto
guittone
guli
gulio
gunbuster
gundam
gurfe
gurfo
gurren
gustav
gustavo
guste
gusto
guverna
guverno
guvie
guviernatore
guvierno
guyana
h
ha
hadda
hagge
haggia
haggio
hai
haie
haiti
haje
hall
hamilton
han
hann
hanna
hanne
hanno
hannu
hanoi
hans
happe
happero
hard
harold
haslem
hauptrolle
have
havea
haveano
havenno
havere
haverra
haverraje
haverria
havesse
havette
haveva
haviette
havimmo
havisse
havite
hawaii
hd
hdtv
he
heart
heavy
helgen
hellas
hello
hemingway
henri
henricus
henry
herbert
here
hermano
heroes
heva
hi
hia
hideaki
high
hill
himachal
hindi
hip
hiroki
histoire
historia
history
hitler
hits
hle
ho
hockey
hohenstaufen
hoie
hoje
hollywood
holmgren
home
hommo
homo
honduras
hong
honora
hop
hora
hore
horizonte
horn
hot
hotel
house
howard
hr
html
http
https
hu
huang
huds
hugo
human
hunt
huocchie
huocchio
huoglio
huommene
huorto
hussein
i
ia
iacinto
iacovo
iacovone
iamme
iammo
iammoncenne
iammuncenne
ianca
ianche
ianco
iarra
iastemma
iate
iatevenne
iato
ibn
ica
iccio
ice
ici
ico
id
ida
idarella
iddio
ide
idea
ideale
ideali
idee
idem
identifica
identita
idioma
idiota
idolo
ie
iea
iella
iena
iene
iennariello
iennaro
ienno
ieno
ieppone
iere
ieri
iero
iersera
iesce
iesse
ietta
iettaie
iettanno
iettare
iettate
iettato
iettatura
iettava
iette
iettero
ietto
ieva
ievo
ieze
if
iglesias
ign
igna
ignazio
ignora
ignorante
ignoranza
ignoto
ih
ii
iia
iie
iii
iiii
iio
ij
ikari
iktas
il
ila
ile
ili
ilio
ill
illegale
illinois
illo
illumina
illuminato
illuminazione
illustrata
illustrate
illustrazioni
illustre
illustri
illustrissima
illustrissimo
ilo
im
ima
images
imagine
imagini
imbarazzato
imbarazzo
imbatte
imbecille
imboccatura
imbroglio
imbroglione
imi
imita
imitando
imitandolo
imitazione
imma
immacolata
immacolatina
immaggine
immagina
immaginato
immagine
immagini
immagino
immancabilmente
immediatamente
immenso
imminente
immobile
immorale
immortale
immoto
imo
impacciato
impact
impallidisce
imparato
impassibile
impaurito
impaziente
impazienza
impedire
impedisce
impegnato
impegno
imperatore
imperia
imperiale
imperioso
impero
impeto
impetuosamente
impianto
impiedi
impiegati
impiegato
impiego
implacabile
implorando
impone
importa
importante
importanti
importanza
impossibile
imposte
impostore
impresa
impresario
imprese
impressionata
impressione
improvvisa
improvvisamente
improvviso
imprudenza
impulso
impurtante
imputato
in
ina
inai
inaspettata
inaspettato
inc
incalza
incalzando
incammina
incamminandosi
incantato
incanto
incarica
incaricato
incarico
incarrica
incarricate
incendio
incerti
inchiesta
inchina
inchinandosi
inchini
inchino
incidente
includiintestazione
incombenza
incomincia
incomodate
incomodo
incomprensibile
incomprensibili
inconscio
incontra
incontrano
incontrato
incontro
incoraggiamento
incredibile
incredula
incredulita
incredulo
incrociate
incubo
ind
indagine
indecisa
indeciso
indegno
index
indi
india
indiana
indiano
indica
indicando
indicandole
indicare
indications
indice
indie
indietreggia
indietreggiando
indietro
indifferente
indifferenza
indimenticabile
indipendente
indipendenza
indirizzo
indispettita
indispettito
indo
indole
indonesia
indonesiano
indossa
indotto
indovinato
indubitatamente
indugia
industria
industriale
ine
inebriandosi
inedite
inediti
inedito
inette
inetto
inevitabile
infame
infanta
infante
infantile
infanzia
infastidita
infastidito
infatte
infatti
infelice
infelici
inferiore
infermo
infernale
inferno
inferriata
infila
infine
infinita
infinite
infinito
inflessione
influenza
info
informato
informazioni
inganna
ingannate
ingannato
inganni
inganno
ingegnere
ingegno
ingenuita
ingenuo
inghilterra
inginocchia
inginocchiandosi
inginocchiano
ingiurie
inglese
inglesi
ingrese
ingresso
ini
inio
inizia
iniziale
iniziali
inizio
inizzia
inizziale
inizzio
inn
innamorata
innamorato
innanzi
innesto
innia
inniano
innipennente
innipennenza
inno
innocente
innocenza
innocenzo
innoeuropee
innustria
innustriale
innustrie
ino
inoltre
inorridita
inorridito
inosservato
insalata
insegna
inseguito
inserire
inserviente
insieme
insigne
insinuante
insiste
insistendo
insolente
insomma
insorgendo
institut
institute
instituto
insu
insulta
insulti
insulto
int
inta
intanto
intatto
inte
intellettuale
intelligente
intelligenza
intelvi
intende
intendere
intendo
intenerito
intenta
intenti
intento
intenzione
intenzioni
inter
intera
interamente
intercontinentale
interessa
interessante
interesse
interessi
interminabile
interna
international
internazionale
internazzionale
internazziunale
interne
internet
interni
interno
intero
interpret
interpreta
interpretata
interpretazione
interrogando
interrompe
interrompendo
interrompendola
interrompendolo
interrompere
interrompersi
interrotto
interruppe
intertoto
intervento
interview
intervista
intesa
intesi
inteso
intiera
intimo
intimorito
into
intona
intorno
intra
intro
introdotto
introduce
introduzione
inutele
inutile
inutili
invano
invasione
invaso
invece
inveire
inventore
invenzione
inverno
investe
invetriata
invettive
invita
invitandolo
invitate
invitati
invitato
invito
invoca
invocando
invocazione
involto
io
ioc
ioca
ioco
iodizio
iognere
ion
ione
ionio
ionze
iornata
iota
ip
ipa
ipocrisia
ipocrita
ipotesi
ippolito
iprage
ipri
ipsilon
iq
ir
ira
iran
iraq
ire
irede
irene
iri
irlanna
irlannese
ironia
ironica
ironicamente
ironico
irpina
irpinia
irpino
irregolare
irrequieto
irresistibile
irritata
irritato
irrompe
irt
is
isa
isabella
isbn
isce
iscena
ischia
isernia
isla
islam
islanna
iso
isola
isole
isonzo
ispettore
ispezione
ispingule
ispirata
israele
israeli
israeliano
iss
issa
isse
issi
issn
isso
istanbul
istante
istat
iste
istessa
istesso
istintivamente
istintivo
istinto
istituito
istituto
istituzione
istoria
istrada
istriana
istruito
istruzione
istruzioni
isula
isule
it
ita
italia
italian
italiana
italiane
italiani
italiano
italica
italics
italie
italo
italy
ite
itene
iti
ito
itra
its
itta
itto
iu
iudicio
iuoco
iuorne
iuorno
iurnata
iuro
iusso
iusto
iuta
iute
iuto
iv
iva
ivan
ive
ivi
ivo
ivrea
iw
ix
izzo
j
ja
jac
jaccio
jack
jackson
jacopo
jacovo
jacques
jajo
james
jamme
jammo
jammoncenne
jammuncenne
jan
janara
janaro
janca
janche
janco
janeiro
january
japan
japanese
jarra
jarraje
jarria
jastemma
jastemmanno
jate
jateve
jatevenne
jatta
javier
jazz
je
jea
jean
jeano
jeet
jen
jena
jenche
jene
jenn
jenna
jennare
jennarie
jennariello
jennaro
jenne
jennero
jennifer
jenno
jeno
jeppone
jera
jerano
jere
jeri
jerry
jersera
jersey
jes
jesce
jesceno
jesi
jesse
jessere
jessero
jetta
jettaje
jettanno
jettano
jettare
jettata
jettate
jettato
jettatura
jettava
jette
jettemo
jetteno
jettero
jeva
jevano
jeve
jeze
jezero
jf
ji
jia
jiesce
jihad
jim
jimmy
jinde
jire
jj
jl
jlfo
jn
jo
joachim
joan
joca
jocano
jocare
joco
jodece
jodice
jodizio
joe
joestar
jognere
johann
johannes
john
johnny
johnson
jojo
jonathan
jonio
jonta
jonte
jonze
jornata
jose
joseph
jostizia
jota
jotaro
journal
journe
jpg
jpl
jr
ju
juan
juca
jucaje
jucate
jucato
jucatore
jucature
jucava
jugno
jugoslavia
jules
julia
julio
junche
junco
juniors
junone
junto
juo
juoc
juoca
juoche
juoco
juorn
juorne
juorno
jura
jurato
jurnata
jurnate
juro
jus
just
justa
justizia
justo
juta
jute
juto
juve
juventus
jv
k
ka
kadokawa
katovice
katsuragi
kaworu
kazimierz
kazuya
ke
kelly
kenshin
kentaro
keys
kg
kh
khan
khara
ki
kick
kierkegaard
killer
kim
kind
king
kingdom
kiss
klaus
klubas
km
kmq
know
ko
koch
konarski
kong
ku
kulu
kune
kuratowski
kurt
kyo
l
la
labbra
labbro
laberinto
laccio
lacco
lacera
lacerante
lacerta
lacertone
lache
laco
laconte
lacrema
lacreme
lacrima
lacrime
ladesla
ladino
ladislao
ladri
ladro
lady
laganaturo
lagann
laggiu
lagna
lagnate
lagne
lagno
lago
lagreme
lagrima
lagrime
laguna
lai
lam
lama
lamantine
lamberto
lambro
lamenta
lamentevole
lamento
lamiaceae
lamiente
lamiento
lamine
lamino
lampa
lampada
lampante
lampe
lampedusa
lampi
lampiere
lampionaro
lampione
lampiuncielle
lampo
lana
lanca
lancella
lancia
lanciano
lanciata
land
lander
landi
landkreis
langella
langia
langley
language
languages
lanius
lanterna
lanterne
lanternella
lanternino
lanza
lanzaje
lanzata
lanzato
lanze
lanziere
lanzo
lanzuotte
laos
lape
lapis
lar
lara
lardo
lare
larga
larghe
larghetto
largo
laria
larie
larino
lario
lariu
lariula
larry
las
lasca
lasci
lascia
lasciamo
lasciando
lascianno
lasciar
lasciare
lasciarla
lasciasse
lasciata
lasciate
lasciatela
lasciatelo
lasciateme
lasciatemi
lasciato
lascio
lass
lassa
lassai
lassaie
lassaje
lassajeno
lassala
lassale
lassalo
lassame
lassammo
lassanno
lassano
lassare
lassarne
lassaro
lassasse
lassaste
lassata
lassate
lassatela
lassatelo
lassateme
lassato
lassava
lasse
lasseme
lasso
lassu
last
lastra
lastre
lat
late
laterale
laterali
laterza
lati
latin
latina
latine
latini
latino
lato
latro
latta
lattare
latte
latto
lattuca
lau
laudato
laude
laura
laurea
laurenti
lauretta
laurito
lauro
lava
lavagna
lavannara
lavare
lavata
lavato
lave
lavenaro
lavezzi
lavinaro
lavo
lavora
lavorano
lavorare
lavorato
lavore
lavori
lavoro
lavra
lavrienzo
lavurante
laz
laziale
lazie
lazio
lazzare
lazzarella
lazzari
lazzariello
lazzaro
lazzarona
lazzarone
lazzaroni
lazzi
lazziale
lazziette
lazzio
lazzo
lbe
lbere
lc
ld
lde
le
lea
leader
league
leandro
leben
leberta
lebre
leca
lecce
lecco
lece
leche
lecienzia
lecito
lee
lega
legacy
legale
legambiente
legame
legare
legate
legato
legge
leggenda
leggende
leggendo
leggenna
leggenno
leggera
leggere
leggermente
leggete
leggeture
leggi
leggia
leggista
leggite
leggo
leghe
legislatura
legislazione
legna
legname
legnate
legne
legno
legume
legumme
lei
leiere
lejere
lello
lem
lema
lembo
lemmosena
lena
lendane
lene
lenga
lenghe
lengua
lenguaggio
lengue
lengui
lenguiste
lenguisteca
leni
lenite
lens
lenta
lentamente
lente
lenti
lento
lenza
lenzola
lenzole
lenzulo
lenzuola
lenzuolo
leo
leon
leonardo
leone
leonese
leonilda
leontino
leopardi
leparo
leprecaie
leprecaje
leprecare
les
lesa
lese
lessico
lesta
leste
lesto
let
lete
letizia
leto
lett
letta
lette
lettera
letteralmente
letteraria
letterarie
letterario
letterati
letterato
letteratura
lettere
letti
letticciullo
lettino
letto
lettonia
lettore
lettuccio
lettura
leuca
leucio
leva
levaie
levaje
levammo
levande
levando
levandosi
levano
levante
levar
levare
levarele
levarese
levarsi
levata
levate
levateme
levateve
levato
levatose
levatrice
levava
leve
levello
leverentia
leverenzia
levete
leviello
levigg
levo
levuorno
lewis
lezione
lf
lfa
lg
li
lia
lib
libbano
libbera
libberale
libberato
libbero
libberta
libbia
libbre
libbri
libbro
libera
liberale
liberamente
liberandosi
liberare
liberata
liberato
liberi
libero
liberta
libia
libo
liborio
libraio
libre
libreria
libretto
libri
libro
liccarda
liccardo
liccese
liccomerda
lice
licenza
licenzia
licenziato
licenzio
liceo
licia
licola
lie
liechtenstein
liegge
lieggio
liento
lieto
liette
lietto
lieve
lievemente
life
liga
ligata
liggenna
liggenno
liggiera
liggite
liggiuto
light
lignamme
lignammo
ligno
liguori
ligure
liguria
like
lila
lilith
lilla
lima
limina
limitare
limitato
limite
limited
limiti
limma
limone
lin
lina
linardo
lincoln
line
linea
linee
lingua
linguaggi
linguaggio
lingue
linguistics
linia
linie
linimento
link
linnaeus
linne
linneo
lino
linosa
lio
lione
lioni
liopoldo
lipsia
liqueta
liqueto
liquida
liquide
liquido
liquore
lira
lire
liretta
liri
lirica
lirico
lis
lisa
lisbona
lisce
liscia
liscio
lise
lisetta
list
lista
liste
lit
lite
literno
liti
lito
litorale
litre
litro
litteralmente
litteraria
litteratura
little
lituana
lituania
liu
liune
liuto
live
livell
livello
liveri
liverpool
livida
livido
liviella
liviello
livio
livorno
livre
livrea
livrera
ll
lla
llacreme
llanza
llar
llardo
llario
llariula
llassa
llastre
llatino
llato
llatte
lle
lleca
llegge
lleggere
lleggia
lleggista
llengua
llengue
ller
llera
llere
llesto
lleta
llettere
lleva
llevante
lli
llire
llo
lloco
llore
lloro
llu
lluce
lluciella
llucrezia
lluige
lluongo
lm
lo
loc
loca
locale
locali
localita
locanda
locandiere
locanna
loche
loco
locri
lodato
lode
lodi
lodigiano
lodo
loggetta
loggia
logica
logo
logoro
loia
lolla
lombardi
lombardo
lomellina
lommardia
london
londra
long
longa
longhe
longhezza
longo
longobardi
lontana
lontananza
lontane
lontano
lop
lopa
lopez
lor
lora
lorde
lordi
lore
loren
lorena
lorenzo
loreto
loro
lorraine
los
losa
lota
lotta
lottando
lottare
lotte
lottera
lotteria
lotto
louis
louvre
love
lovin
lp
lpp
ls
lt
lta
lte
lto
lu
luat
lublino
luc
luca
lucale
lucalita
lucane
lucani
lucania
lucanna
lucano
lucanto
lucantonio
lucarie
lucariello
lucca
luce
lucedo
luceno
lucente
lucera
lucere
lucerna
lucerne
luceta
luceva
luci
lucia
lucianie
lucianiello
luciano
lucida
lucidi
lucido
lucie
luciella
lucinda
lucio
lucre
lucrezia
lucrine
lucro
ludovico
ludwig
lue
lugl
lugle
luglio
lugubre
lui
luig
luige
luigge
luigi
luigia
luigiello
luigino
luis
luisa
luise
luisella
lume
lumi
lumicino
luminoso
lummardi
lummardia
lummardo
lumme
lummo
luna
lune
lunedi
lunga
lungamente
lunghe
lunghezza
lunghi
lungi
lungo
lungomare
lunneri
luntana
luntananza
luntane
luntano
luo
luoche
luoco
luoghe
luoghi
luogo
luonga
luongh
luonghe
luongo
luotene
lupe
lupine
lupini
lupino
lupo
lupus
lurena
lurenzo
lusinga
lussemburgo
lusso
lustra
lustre
lustro
luther
lutta
lutti
lutto
luv
luva
luvammo
luvanno
luvata
luvateve
luvato
luvisella
lv
lva
lviv
lyga
m
ma
mac
maca
macalle
macanzese
macario
maccarone
maccarune
macche
maccheroni
macchia
macchie
macchina
macchinalmente
macchinetta
macedonia
macello
macerata
machena
machene
machete
machin
machina
machine
maciello
macmillan
mad
mada
madam
madama
madamma
maddalena
maddamma
made
mado
madonna
madre
madrid
madrigna
mae
maesta
maestra
maestre
maestri
maestria
maestrina
maestro
mafaro
mafia
mafiuse
maga
magagna
maganza
magazine
magazines
magazzeno
magazzino
magene
magge
maggie
maggio
maggior
maggioranza
maggiore
maggiori
maggiormente
maggiuranza
maggiure
maghe
magia
magic
magica
maglia
magliano
maglie
maglio
magna
magnaie
magnaje
magnammo
magnanno
magnano
magnare
magnata
magnate
magnato
magnava
magnavano
magne
magnetti
magnetude
magni
magnia
magnifeco
magnifica
magno
mago
magro
mah
mai
maiale
maie
maiella
mail
maio
maior
maiore
mais
maista
maj
majateco
maje
majella
majestra
majetta
majo
major
majore
majure
mal
mala
malafemmena
malame
malamente
malanconia
malandrine
malandrino
malanne
malanno
malata
malate
malati
malatia
malatie
malato
malattia
malattie
malau
malaurio
malavita
malavitaferdinando
malcolm
maldacea
male
maledetta
maledetto
maleditto
maledizione
malenconia
maleparole
maletrattate
maletrattava
malfitana
mali
malia
maligno
malina
malinconia
malinconica
malinconico
malincunia
malizia
maliziosa
maliziosamente
mall
mallorca
malo
malora
malta
maltratta
maltrattate
malu
malumore
malvaceae
malvestiti
mam
mametto
mamma
mammalucche
mammama
mammamia
mammana
mammarella
mammata
mamme
mammela
mammella
mammema
mammeta
mammi
mammifere
mammifero
mammola
mammone
mammoria
mammula
mammulisi
mamozio
man
mana
manc
manca
mancaie
mancano
mancante
mancanza
mancare
mancarria
mancate
mancato
mancava
manche
manchester
manchi
mancia
manciare
manciate
mancina
mancini
manco
manda
mandando
mandare
mandato
mande
mandela
mandene
mandero
mandi
mando
mandolini
mandolino
mandulinata
manduline
mane
maneca
maneche
maneco
manefes
manella
manelle
manera
manere
manetta
manfredi
manga
mangaka
mange
mangh
manghe
mangi
mangia
mangiammo
mangiando
mangianno
mangiano
mangianza
mangiare
mangiata
mangiate
mangiato
mangiava
mangio
mangione
mango
mani
mania
maniata
manica
maniche
manico
manicomio
manicotto
maniera
maniere
manifattura
manifestazione
manifestazioni
manifestazzione
manifesto
maniglia
manigoldo
manina
manine
maniscalco
mann
manna
mannaggia
mannaie
mannaje
mannare
mannasse
mannata
mannate
mannato
mannava
manne
manno
mannoia
mano
manotte
mante
mantece
mantella
mantello
mantene
mantenere
mantenette
manteneva
mantengo
mantenuta
mantenuto
mantesino
mantie
mantiello
mantiene
manto
mantova
mantrone
manuale
manuel
manzolle
manzoni
mao
mappa
mappamondo
mappata
mappatella
mappina
mar
mara
maradona
marame
marano
marasco
maraveglia
maraveglie
maraviglia
maravigliato
marc
marca
marcando
marcatamente
marcato
marcel
marcellino
marcello
march
marche
marchesa
marchese
marchesi
marchesino
marchetta
marchio
marcia
marcianise
marciappiede
marciello
marco
marconi
marcuccio
marcuso
mardetta
mardezzione
marditto
mare
marechiare
marechiaro
marena
marenare
marenariello
marenaro
marenna
maresca
maresciallo
maretata
maretiello
marfitana
margari
margarita
margellina
margherita
mari
maria
mariana
marianella
marianna
mariannella
marianni
mariannina
mariano
mariantonia
marie
mariella
marietta
mariglianella
marigliano
marina
marinaio
marinare
marinari
marinaro
marine
marini
marino
mario
mariola
marisa
marita
maritata
maritate
marite
mariteme
maritemo
mariteto
mariti
marito
marittima
marittimo
mariuccia
mariuncielle
mariunciello
mariuole
mariuolo
mark
marmaglia
marmo
marmola
marmolo
marmora
marmotta
marne
maro
marocco
marone
maronna
marotta
marra
marranchine
marranchino
marro
marrone
mars
marsala
marsecano
marseglia
marsi
marsicana
marsiglia
marte
martedi
martella
martello
marteri
marti
martian
martielle
martiello
martin
martina
martini
martino
martire
martiri
martirio
martone
martulella
marturano
marulli
maruzza
maruzzaro
maruzze
maruzzella
marvasa
mary
marz
marzala
marzano
marze
marziale
marziali
marziana
marziane
marziano
marziella
marzio
marzo
mas
masaniello
mascalzone
mascara
mascatura
mascella
mascelle
masche
maschera
maschere
maschile
maschilo
maschio
masco
mascole
mascolino
mascolo
mascolone
mascule
masculina
masculo
mase
masella
masillo
mass
massa
massara
massari
massaria
massarie
massaro
massema
masseria
masserie
massicc
massiccia
massiccio
massima
massime
massimiliano
massimo
mast
maste
masto
mastrillo
mastro
mastrocinque
mastu
mat
matale
matalena
matalune
matania
matarazze
matarazzo
matassa
matasse
mate
matemateca
matematece
matemateco
matematico
matenata
mater
matera
materia
materiale
materie
materna
materno
matese
mati
matii
matilde
matina
matine
matino
mato
matre
matrecale
matreia
matreja
matremmonio
matremmuonie
matremonio
matrigna
matrimmonio
matrimmuonie
matrimoniale
matrimonio
matt
matta
matte
mattei
matteo
mattha
matthew
matti
mattia
mattina
mattino
matto
mattoli
mature
matutino
mau
mauri
maurice
maurizio
mauro
mausoleo
max
may
maya
mazara
mazz
mazza
mazzarella
mazzariello
mazzarino
mazzata
mazzate
mazze
mazzeca
mazzecanno
mazzecare
mazzecato
mazzecatorio
mazzeco
mazzetto
mazzi
mazzia
mazziata
mazzo
mazzoccare
mazzocco
mb
mbacc
mbane
mbara
mbarcato
mbarco
mbe
mbera
mbere
mbertand
mbertande
mbie
mbiso
mblece
mbo
mbomma
mbomme
mbon
mbond
mbonda
mbr
mbraccia
mbraccio
mbre
mbrellino
mbrello
mbriaca
mbriacato
mbriache
mbriaco
mbriacone
mbriana
mbroglia
mbrogliato
mbroglie
mbroglione
mbrogliune
mbruglia
mbrugliato
mbruglione
mbrumma
mbruoglie
mbruoglio
mburtand
mbuttunate
mbuttunato
mc
me
mea
meca
mecca
meccanico
mece
mecenate
mecha
meche
meco
medaglia
medaglie
mede
medea
medecina
medecine
medela
medesema
medesemo
medesima
medesimo
media
mediante
mediaset
medica
medici
medicina
medico
medievale
medina
medio
mediocre
medioevale
medioevo
medita
meditazione
mediterranea
mediterranee
mediterraneo
megera
megli
meglia
meglie
meglio
megliure
megumi
meh
mehmet
meie
meje
mel
mela
melanconico
melane
mele
melenso
meletare
melfi
meliarde
melione
melise
melitare
melito
meliune
mella
mellone
mellune
melodia
membre
membri
membro
meme
memmoria
memoria
memorie
men
mena
menaie
menaje
menanno
menano
menare
menaro
menas
menata
menate
menato
menava
mendagn
mendagna
mendagne
mene
meneca
menechella
menechiello
menesta
meneste
menestra
mengo
meni
menica
menichiello
meniste
menisto
menistre
menniale
meno
menore
menotti
mensile
ment
menta
mentale
mente
menti
mentisce
mentita
mentito
mento
mentr
mentre
menu
menuosso
menute
menzione
meo
mer
mera
meraveglia
meraviglia
meravigliata
meravigliato
meraviglie
meraviglio
mercante
mercantessa
mercantile
mercanzia
mercanzie
mercate
mercatiello
mercato
merce
merci
mercu
mercurio
merda
mere
merecano
merediunale
mereta
meretevole
mereto
mergellina
meri
mericana
mericane
mericano
mericina
meriddiunale
meridionale
meridione
meridiunale
merita
meritano
meritate
meritava
meriti
merito
merlette
merletto
merola
mersi
merze
mes
mesale
mesata
mesate
mesca
mescatie
mesce
meschina
meschino
mese
meseno
meserecordia
mesero
mesesca
mesi
mess
messa
messe
messeco
messer
messere
messi
messicana
messicano
messico
messina
messione
messiune
messo
mesta
mesteriuse
mestiere
mestieri
mestizia
mesto
mesura
mesure
met
meta
metal
metallo
metano
mete
meteorite
metodo
metraglia
metre
metri
metro
metropolitana
metropulitana
metrupulitana
mett
metta
mettarra
mettarria
mette
mettea
mettendo
mettendogli
mettendosi
mettene
mettenno
metteno
metter
metterce
mettere
metterle
metterlo
mettermi
mettero
mettersi
mettesse
mettete
mettette
mettetteno
mettettero
metteva
mettevano
metti
mettiamo
mettie
mettile
mettimmo
mettimmoce
mettite
mettiteve
metto
mettono
mettuto
meu
meurt
meurthe
meuza
mez
meza
mezacanna
mezanotte
meze
mezz
mezza
mezzana
mezzane
mezzanino
mezzano
mezzanotte
mezzare
mezzato
mezze
mezzi
mezzo
mezzogiorno
mezzune
mf
mg
mi
mia
miai
miano
mic
mica
micalangelo
miccia
miccio
micco
michael
miche
michel
michela
michelangelo
michele
micheli
michelina
mici
mickiewicz
mico
microscope
midia
mie
miedece
miedeco
miedico
miei
mieie
mieje
miele
miembre
miercuri
mierete
miereto
mierolo
mietre
miette
miettece
miettele
miettere
miettete
miez
mieza
mieze
miezo
miezojuorno
miezz
miezzo
miglia
migliaccio
migliaia
migliara
migliare
migliaro
miglio
miglior
migliore
migliura
miguel
mijo
mike
mila
milan
milanese
milano
milia
miliarde
milie
milionaria
milione
milioni
milita
militare
militari
miliune
mill
milla
millanta
mille
millennio
miller
milluccio
milo
milord
mimi
mimica
mimmo
min
mina
minacce
minaccevole
minaccia
minacciando
minacciato
minacciosa
minaccioso
minale
minane
minano
minas
mindr
mindre
mine
minec
mineco
minerale
minerva
minh
mini
miniera
minima
miniserie
ministero
ministre
ministro
minneapolis
minnesota
mino
minor
minoranza
minore
minori
minsk
minure
minute
minuti
minuto
mio
mir
mira
mirabella
miracoli
miracolo
miracule
miranda
mirare
mire
mirna
mis
misa
misato
misce
mise
miseno
misera
miserabile
miseria
misericordia
miserie
misero
misfe
misi
miso
miss
mission
missionario
missione
mississippi
misso
mista
mister
misteri
misteriosamente
mistero
misto
mistura
misura
mita
mite
miti
mito
mitologgia
mitria
mitto
miu
miuccio
miullo
mixed
mixtape
mm
mma
mmaccarune
mmaculata
mmaculatella
mmaggene
mmagna
mmaje
mmala
mmale
mmaleparole
mmalo
mmalora
mmamma
mman
mmana
mmanco
mmane
mmanere
mmangia
mmani
mmano
mmardetta
mmarditto
mmare
mmareta
mmaretata
mmarita
mmarito
mmarzo
mmasciata
mmasciatore
mmatina
mmaurizio
mmazzate
mme
mmece
mmeco
mmede
mmeglio
mmeje
mmela
mmele
mmema
mmena
mmene
mmeno
mmente
mmentre
mmenzione
mmerda
mmere
mmerecana
mmerecane
mmerecano
mmereta
mmereto
mmericana
mmericane
mmericano
mmerz
mmerzo
mmesca
mmese
mmeta
mmete
mmeto
mmetre
mmettere
mmetto
mmeza
mmi
mmice
mmico
mmiczo
mmidia
mmie
mmiedeco
mmierete
mmies
mmiette
mmiez
mmieze
mmiezo
mmiezz
mmiezzo
mmigliara
mmille
mmio
mmira
mmiria
mmiscate
mmiscato
mmise
mmiso
mmita
mmitate
mmitato
mmito
mmo
mmocc
mmocca
mmoce
mmogliera
mmogliere
mmoglierema
mmole
mmolo
mmomente
mmorra
mmorta
mmorte
mmorze
mmosche
mmosta
mmunno
mmuntagne
mmuorto
mmura
mmure
mn
mo
mobele
mobi
mobile
mobili
mobilia
mobilio
mocca
moccaturo
moda
mode
model
modella
modello
modena
modenese
moderate
moderato
moderazione
modern
moderna
moderne
moderni
moderno
modesta
modestia
modi
modiello
modista
modo
modugno
mogano
mogle
mogli
moglia
moglie
mogliera
mogliere
moglierema
mogliereta
moi
moie
moine
moka
mola
moldavia
mole
molina
molino
molise
moll
molla
molle
mollica
mollison
mollo
molo
molta
molte
molti
moltissime
moltissimo
moltitudine
molto
momenti
momento
mommo
mon
monaca
monache
monaco
monarchia
monastero
moncevo
mond
mondadori
monde
mondecasine
mondiale
mondo
mondovi
mone
moneco
monelli
monello
moneta
monete
monferrato
monforte
monica
monicelli
monna
monnezza
monocolo
monologo
monotona
mons
monsie
monsieur
monsigno
monsignor
monsignore
monsiu
monster
mont
monta
montagna
montagne
montalbano
montaldo
montalto
montana
montanaro
monte
montebello
montecalvario
montecalvo
montecassino
montecorvino
monteforte
monteleone
montemitro
montenegro
montenero
monteoliveto
montesano
montevergine
monthly
monti
monticello
monto
montone
montorio
montoro
montpellier
monumentale
monumente
monumento
monumiente
monumiento
monza
monzu
moon
mor
mora
morale
morano
morde
mordendosi
mordere
mordo
more
morelli
morenno
moreno
morette
moreva
morfiente
morgue
mori
moria
morie
morir
morire
mormora
mormorando
mormori
mormorio
moro
morra
morro
morrone
morta
mortale
morte
mortella
morti
mortificato
morto
morza
morze
morzillo
mosa
mosca
moscati
mosche
moscia
moscione
mose
moselle
mossa
mosse
mossiu
mosso
most
mosta
mostaccio
mostarda
mostly
mosto
mostra
mostraie
mostraje
mostrando
mostrandosi
mostranno
mostrano
mostrare
mostrate
mostrato
mostrava
mostre
mostri
mostro
mote
mother
moti
motivo
moto
motta
motti
motto
mousavi
mousso
move
moved
moveno
movere
moveva
movie
movies
movimenti
movimento
movimiento
movite
movo
mozza
mozzeca
mozzo
mpa
mpaccio
mpace
mpalato
mpapocchia
mpara
mparaje
mparano
mparanza
mparare
mparata
mparate
mparateve
mparato
mparatore
mparaviso
mpare
mparo
mpasta
mpastato
mpatta
mpatto
mpazzia
mpazzuto
mpe
mpede
mpenna
mpenne
mperatore
mperature
mperiale
mpericolo
mpero
mperro
mpertinente
mperzo
mperzona
mpesa
mpezza
mpezzaje
mpezzata
mpezzato
mpi
mpietto
mpigna
mpignate
mpignato
mpignatora
mpilo
mpise
mpiso
mpizza
mpizzaje
mpizzata
mpizzate
mpizzato
mpizze
mpizzo
mpo
mpont
mponta
mpoppa
mporta
mportante
mporzi
mpossibele
mpossibile
mpresa
mprese
mpresone
mpressa
mpressione
mpresta
mpri
mprimma
mprimmese
mprimmo
mpunto
mpure
mpurre
mpurtante
mpurtanti
mpurtanza
mpurzi
mq
mr
ms
mt
mtv
mu
mua
muar
muare
muccatore
muccaturo
mucciaccia
mudalita
mudello
muderna
muderne
muderno
mue
muffa
muglie
mugliera
mugliere
muglierema
mugliereta
mugnano
muhammad
mula
mule
mulesane
mulignana
mulignane
mulino
mulisane
mulisano
mulise
mulo
mumente
mumento
mumiento
mummia
mun
munacella
munaciello
munarca
munarchia
munasterio
munastero
mundiale
mundu
mune
muneta
municipale
municipalita
municipio
munn
munne
munnezza
munnezze
munniale
munniali
munno
muntagna
muntagne
muntagnella
muntana
munte
muntecalvario
muntevergine
muntuoro
muntuoso
munzu
muo
muode
muodo
muoffe
muoio
muollo
muolo
muore
muort
muorte
muorti
muorto
muorze
muorzo
muove
muoversi
muovete
mura
muraglia
murakami
murale
murat
muratori
murde
mure
murenno
muresse
murette
muretteno
mureva
murevo
muri
murimmo
murire
muro
murolo
mursia
murtale
mus
musa
muscio
musco
muse
museca
musecale
musecata
musecate
museche
musecista
museciste
musee
musei
museo
museum
music
musica
musical
musicale
musicali
musiche
musicista
muso
musse
mussillo
musso
mussolini
mustacce
mustacciello
mustaccio
mustacciuoli
musulmane
muta
mutaje
mutando
mutare
mutato
mutazione
mute
muti
mutive
mutivo
muto
mutria
mutto
muvenno
muvimento
muvimiento
muvite
muzzarella
muzzo
mw
my
n
na
naca
naco
nacque
nadia
naggitto
nagisa
naia
naie
nam
name
nammorato
nammurata
nammurate
nammurato
nan
nanco
nancy
nando
nane
nanella
nann
nanna
nanni
nannina
nannine
nanninella
nanning
nano
nante
nanz
nanze
nap
napier
naples
napole
napoleone
napoletana
napoletane
napoletani
napoletano
napoletanoferdinando
napoletanomenotti
napoli
napoligrafia
napolitana
napolitane
napolitano
napule
napuletana
napuletane
napuletano
napulio
napulione
napulitan
napulitana
napulitane
napulitano
nar
narciso
nardella
nardiello
nardo
narduccio
nare
narmer
narrazione
nas
nasa
nasale
nasce
nasceno
nascente
nascere
nasceta
nascette
nascettero
nascita
nasciuta
nasciuto
nasconde
nascondendo
nascondere
nascondersi
nasconnere
nascosta
nascosto
nascuosto
nase
nasillo
naso
nastro
nat
nata
natale
natali
natalina
natanno
nate
naterale
nati
national
nations
nativa
native
nativo
nato
natorale
natura
naturale
naturalis
naturalmente
nature
nausea
nauta
navale
navarro
navata
nave
navecare
naviglio
naz
naza
nazario
nazienale
nazionale
nazionali
nazione
nazioni
nazista
naziunale
naziune
nazzaro
nazzi
nazzionale
nazzione
nazzista
nazziunale
nazziune
nba
nc
nca
ncagno
ncampagna
ncanna
ncanno
ncanta
ncantata
ncantate
ncantato
ncanto
ncap
ncapa
ncape
ncapo
ncappa
ncappaje
ncaro
ncarrica
ncarrozza
ncasa
ncaso
ncatena
ncatenata
ncatenato
ncc
nccp
nce
ncellevriello
ncera
nche
nchella
nchesta
nchesto
nchete
nchillo
nchire
nchisto
nchiude
nchiudere
nchiudo
nchiusa
nchiuse
nchiuso
nchiuva
nchiuvato
nci
ncia
nciaggio
nciave
nciavimmo
nciavite
nciegno
ncielo
ncienzo
ncnollo
nco
ncojeta
ncolla
ncompagnia
ncontr
ncontra
ncontrato
ncontro
ncop
ncopp
ncoppa
ncoppe
ncoppo
ncora
ncore
ncoronato
ncrastate
ncroce
ncuccia
ncuieta
ncuita
nculo
ncunia
ncuntra
ncuntraie
ncuntrato
ncuntro
ncuoll
ncuolle
ncuollo
ncuorpo
ncurunato
ncy
nd
nda
ndanderanda
ndanderandi
ndane
ndann
nde
ndene
ndere
ndi
ndiavolata
ndica
ndie
ndifferente
ndin
ndlin
ndo
ndon
ndozzana
ndr
ndra
ndrata
ndre
ndriana
ndriuccio
ndu
ndurata
ndurate
ndus
ndustria
ndustriale
ndutt
ndutte
ne
nea
neanche
neapolis
neapolitan
neca
nece
necessaria
necessarie
necessario
necesseta
necessita
necessitate
neche
neco
nee
nega
negare
negativa
negativo
negato
negli
neglia
nego
negotio
negoziante
negozio
negra
negre
negrecata
negrecato
neh
nei
neipperg
nel
nell
nella
nelle
nello
nelson
nelv
nema
neme
nemica
nemice
nemici
nemico
nemmanco
nemmenate
nemmeno
nemmi
nemmica
nemmice
nemmiche
nemmico
nen
nene
nenia
nenna
nenne
nennella
nennille
nennillo
neno
neo
neon
neoppa
nepal
nepo
nepota
nepote
nepotema
nepoteme
neppure
nepute
nera
nere
neri
nero
nerone
nerv
nerva
nervatura
nervi
nervosa
nervosamente
nervoso
nes
nescia
nesciuna
nesciune
nesciuno
nespola
nespole
nessun
nessuna
nessuno
net
nete
netta
nette
netti
nettunno
nettuno
network
neutrale
neutro
neva
nevano
neve
never
nevie
nevratura
new
news
newton
newtype
nf
nfa
nfacce
nfacci
nfaccia
nfaccio
nfama
nfamato
nfame
nfamita
nfamo
nfamone
nfanzia
nfatt
nfatte
nfatti
nfatto
nfe
nfelice
nfenta
nferiore
nfermetate
nfi
nfierno
nfin
nfine
nfino
nflue
nfluenza
nfoca
nfocato
nfonne
nfonnere
nforma
nformato
nfosa
nfr
nfra
nfrascata
nfrisco
nfromma
nfronte
nfru
nfruenza
nfrusso
nfu
nfucate
nfummo
nfunno
nfuriato
nfurmato
nfurmazione
nfurmazzione
nfurnate
nfusa
nfuso
ng
nga
ngalera
nganna
ngannaie
ngannata
ngannate
ngannato
ngannatore
nganne
nganno
ngarra
ngarraje
ngarrajeno
nge
ngeche
ngegnere
ngegneri
ngegneria
ngele
ngh
nghe
nghle
ngi
ngigna
ngigniere
ngim
ngima
ngiulella
ngiuria
ngnesella
ngnurante
ngo
ngopp
ngoppa
ngoppo
ngorfire
ngrassa
ngrata
ngrato
ngrazia
ngrediente
ngresa
ngrese
ngreterra
ngu
ngua
ngue
nguerra
ngule
nguollo
ngure
nguttuso
ngwy
nh
nha
ni
nia
niar
nic
nica
nicaragua
nicca
niccolo
nice
nicefaro
niceforo
nicessita
nicholas
nico
nicol
nicola
nicolardi
nicolas
nicole
nicoletta
nicoli
nicolino
nicolo
nido
nie
nieghe
niello
nient
niente
nientemeno
nienti
nierve
nietto
nievo
night
nigra
nigre
nigro
nii
nil
nilo
nimico
nin
nina
ninco
nine
ninetta
ninfa
ninfe
nini
ninna
ninno
nino
nintendo
ninu
ninuccio
nio
niozio
nipote
nire
niro
nisa
nisciun
nisciuna
nisciune
nisciuno
niseta
nisida
niso
nittis
niun
nix
nizza
nizze
nl
nm
nmano
nmidia
nmiezo
nmocca
nn
nna
nnammorata
nnammorate
nnammorato
nnammurata
nnammurate
nnammurato
nnamurate
nnamurato
nnant
nnante
nnanz
nnanza
nnanze
nnanzetutt
nnapole
nnapule
nnapulitana
nnapulitano
nnare
nnarella
nnata
nnate
nnato
nne
nneca
nnece
nneco
nnela
nnemmice
nnemmico
nnene
nneno
nnepotema
nnera
nnere
nnese
nneta
nnete
nni
nnico
nnie
nniente
nniro
nnisciuno
nnitto
nnn
nno
nnocente
nnoglia
nnoglie
nnome
nnomme
nnore
nnose
nnote
nnotte
nnova
nnove
nnovita
nnozente
nnu
nnucentamente
nnucente
nnuie
nnuje
nnustria
nnustriale
nnuvole
no
noa
noapole
nobbele
nobbile
nobel
nobele
nobile
nobili
nobilissima
nobilissimo
nobilta
noc
nocca
nocche
nocchie
nocchio
noce
nocella
nocelle
nocera
noci
nodo
noe
noemi
noi
noia
noirs
nola
nolano
nole
noli
nolo
nom
nome
nomi
nomina
nominare
nominato
nomine
nomm
nomme
nommena
nommenato
nommenclatura
nommo
nomo
non
nona
nonche
none
nonna
nonne
nonno
nono
nononna
nononno
nonostante
nonsignore
nonviolenta
nonviolenza
nonzignore
noo
nora
norata
norate
norato
nord
nordame
norde
nore
norma
normale
normanne
normanni
norme
north
norvegia
nos
nossignore
nosta
noste
noster
nostra
nostre
nostri
nostro
not
nota
notaio
notando
notare
notaro
note
noti
notice
notisi
notizia
notizie
noto
nott
notta
nottata
notte
notti
notturno
nou
nous
nov
nova
novanta
novara
novarese
nove
novecento
noveciento
novel
novella
novellamente
novelle
novello
novembre
novi
noviciento
noviembre
noviembro
noviewer
novita
novo
novoli
now
nozze
np
npara
npietto
npn
nq
nquatto
nr
ns
nse
nseggia
nsieme
nsiemme
nsino
nsomma
nsuonno
nt
nta
ntacca
ntanto
nte
nteme
ntenne
ntennere
ntenno
ntenzione
ntere
nteressante
nteresse
nteriore
nterna
nternaziunale
nternazzionale
nternazziunale
nterne
nterno
ntero
nterpreta
nterpretata
nterprete
nterra
ntervista
ntesa
ntese
nti
ntiempo
ntienne
ntise
ntiso
ntitulata
ntitulato
nto
ntoppa
ntorcia
ntorzato
ntosa
ntosta
ntr
ntra
ntramaria
ntramente
ntrasatta
ntrata
ntratanto
ntrate
ntreppecata
ntreppecato
ntrica
ntriche
ntrico
ntrinseco
ntro
ntruglio
ntun
ntune
ntunetta
ntunno
ntuonaco
ntuorno
ntuppo
ntusseca
ntutte
ntutto
nu
nua
nuca
nuccia
nuce
nucelle
nucera
nucerino
nucleare
nucleo
nuda
nude
nudeco
nudo
nue
nui
nuie
nuio
nuje
nuli
nulla
nullo
nume
numeri
numero
numerose
numerosi
numma
nummenata
nummenato
nummere
nummero
nummerose
nun
nunc
nunche
nunn
nunnarella
nunviule
nunviulenta
nunviulente
nunviulenza
nunzia
nunziata
nunziatina
nunziello
nunzio
nuo
nuocente
nuomme
nuoro
nuoste
nuosto
nuostre
nuostro
nuova
nuovamente
nuove
nuovi
nuovo
nupedia
nur
nure
nurmale
nurmanna
nurmanne
nurmannia
nurmanno
nusco
nuta
nutevole
nutile
nutizia
nutizie
nutizzia
nutizzie
nuto
nutre
nutriccia
nuttata
nuttate
nuu
nuvanta
nuveciento
nuvella
nuvembre
nuvena
nuvita
nuvola
nuvole
nvasione
nvece
nventata
nvidia
nz
nza
nzagnatore
nzaie
nzaio
nzalata
nzalate
nzallanuto
nzarvamiento
nze
nzediamiento
nzegna
nzegnamento
nzegnate
nzemmor
nzemmora
nzemmula
nzerra
nzerrata
nzerrate
nzerrato
nzerro
nzerta
nzertaje
nzertata
nzi
nzia
nzie
nziem
nzieme
nziemm
nziemme
nzigna
nzin
nzino
nziria
nzisto
nzo
nzogna
nzomma
nzora
nzorare
nzorato
nzorfo
nzoro
nzu
nzunchete
nzuonno
nzura
nzuraje
nzurato
nə
o
oa
oasi
ob
obbi
obbliga
obbligate
obbligato
obbligazione
obbligo
obi
obiettivo
oblio
obreco
obres
oc
oca
occasione
occasioni
occaso
occhi
occhiali
occhiata
occhio
occidentale
occidente
occitano
occorre
occorrente
occupa
occupaje
occupano
occupata
occupate
occupato
occupazione
occupazzione
oceania
oceano
oche
oco
od
oda
ode
odesi
odi
odia
odio
odo
odono
odonsi
odore
odyssey
oe
oen
oenanthe
of
off
offendere
offerse
offerta
offerto
offesa
offeso
official
officina
offre
offrendole
offrire
offrirvi
offro
og
ogata
ogg
ogge
oggette
oggetti
oggetto
oggi
oggie
oggiette
ogliastra
oglio
ogn
ogna
ogne
ogneduno
ogni
ognuna
ognune
ognuno
oh
ohe
ohi
ohime
ohimme
ohoooo
oi
oia
oibo
oie
oila
oili
oime
oimme
ois
oj
oje
ok
oklahoma
ol
ola
olanda
olannese
olbia
old
ole
oleografia
oleracea
oli
olii
olimpia
olimpiade
olimpiche
olimpico
olio
oliva
oliveto
olona
oltraggio
oltre
om
omaggio
ombra
ombre
ombrello
ome
omero
omicidio
omino
omm
ommacaro
omme
ommene
ommo
omnia
omo
omonima
omonimo
omore
on
ona
once
onda
onde
ondina
ondo
one
onesta
onestamente
oneste
onesti
onesto
oneta
online
onn
onna
onne
ono
onofrio
onomastico
onor
onora
onorarmi
onorata
onorate
onorato
onore
onorevole
onori
onorio
onta
ontario
ontato
onu
onza
onze
oo
oon
ooo
op
open
opera
operaio
operazione
operazioni
operazzione
opere
opi
opinione
oplontis
oppone
opportunita
opportunity
opportuno
opposta
opposte
opposto
oppressione
oppresso
oppure
opra
or
ora
orale
oramai
oramaie
oramaje
orario
oratorio
orazio
orbeta
orbita
orbiter
orca
orche
orchestra
orciuoli
orciuolo
ordenaje
ordene
ordina
ordinaje
ordinate
ordinato
ordine
ordini
ore
orecchie
orecchio
orf
orfeo
org
organisme
organismo
organization
organizza
organizzata
organizzate
organizzato
organizzazione
organizzaziune
organizzazzione
organo
orgoglio
orgogliosa
ori
oria
orientale
orientali
oriente
origanum
origena
origgene
origginale
origginaria
origginario
origgine
originale
originali
originariamente
origine
origini
oristano
orizzonte
orlando
orlanno
orlo
ormai
ornamenti
ornella
ornine
oro
orologio
oronzio
orrenna
orrenno
orribilmente
orrore
orsini
orsu
orta
ortensia
orto
ortografia
ortolano
ortona
orza
os
osa
osca
oscar
oscellenza
osci
osco
oscura
oscurita
oscuro
osi
oso
ospedale
ospita
ospite
ospizio
ossa
osse
osserva
osservando
osservandola
osservandolo
osservare
osservasi
osservate
osservato
osservazione
osservazioni
osservo
ossi
ossia
ossigeno
ossignuria
osso
ossola
ostacolo
oste
osteria
ostia
ostilita
ostinato
ostricaro
ostuni
ot
otaku
otan
otello
other
otonno
otra
otranto
otre
ott
otta
ottajano
ottanta
ottava
ottave
ottaviano
ottavio
ottavo
otte
ottene
ottenere
ottenuto
ottima
ottimo
otto
ottobbr
ottobbre
ottobre
ottociento
ottomano
ottone
ottovre
ottuciento
ou
oulx
out
ov
ova
ovale
ovcro
ove
over
overa
overamente
overe
overo
ovest
ovo
ovvero
ox
oxford
ozio
p
pa
paccare
paccaro
pacchere
pacchero
pacchetto
pacchiana
pacchianella
pacchiano
pacco
pace
pachino
pacienza
pacienzia
pacifeco
pacifico
pacino
pacione
padana
paderno
padova
padre
padri
padrino
padrona
padrone
padroni
padula
pae
paes
paesaggio
paese
paesi
paestum
pag
paga
pagando
pagani
pagano
pagare
pagarria
pagarvi
pagata
pagate
pagatemi
pagato
pagava
page
pagge
paggena
paggene
paggio
paghe
pagherete
paghero
pagina
pagine
paglia
pagliara
paglie
pagliericcio
paglietta
pagliette
pago
pagodinho
pai
paiese
paio
pais
paisa
paisaggio
paisane
paise
paisi
paisiello
paja
pajese
pajo
pakistan
pal
pala
palammeto
palata
palate
palatine
palatino
palazze
palazzetto
palazzi
palazziello
palazzina
palazzo
palazzolo
palco
palcoscenico
palcuscenico
pale
palenuro
palermi
palermo
palestina
palestinese
palgrave
pali
paliata
paliatone
palicco
paliermo
palillo
palinuro
palio
palizzi
palla
pallade
palle
pallida
pallido
palline
pallino
pallone
pallune
palma
palmas
palme
palmera
palmo
palo
palomba
palombo
palomma
palomme
palommella
palommielle
palpebre
palpete
palpita
palpitante
paltiel
palude
palumbo
palumme
palummella
palummo
pan
panama
panaro
panca
panchetta
pancia
panciotto
pancone
pancrazio
pand
pane
panecuocolo
panella
panelle
panesiglio
panettiere
pang
pangr
pangra
pangrazio
panico
paniello
paniere
panini
panne
panni
panno
pano
panorama
pant
pantalena
pantano
pantera
panto
pantola
panu
panunzio
panurama
panza
panzarotte
panzarotto
pao
paograzio
paola
paoli
paolino
paolo
paoluccio
papa
papagne
papale
papara
paparella
paparelle
papariello
pape
papele
papera
papo
papocchia
papone
paposcia
pappa
pappagallo
pappamosca
pappavallo
pappone
paputo
par
para
paradiso
paragona
paragone
paraguay
paragunaje
paralisi
parallelo
parano
paranza
parapatte
parapetto
parapiglia
parasacco
parata
parato
paraviso
parch
parche
parco
pare
parea
pareano
parecchi
parecchie
parede
pareglia
parene
pareno
parentato
parente
parentela
parenti
parer
parere
parete
pareti
parette
pareva
parevano
pari
paria
pariante
pariate
paricchie
paricchio
parie
parient
pariente
parige
parigge
parigi
parigina
parimente
paris
parisi
parite
park
parker
parla
parlai
parlaie
parlaje
parlale
parlamentare
parlamento
parlamiento
parlammo
parlando
parlanno
parlano
parlante
parlar
parlare
parlargli
parlarme
parlarmi
parlarne
parlarraggio
parlarti
parlarvi
parlasse
parlata
parlate
parlato
parlava
parlavano
parle
parleno
parlera
parleremo
parlero
parli
parliamo
parlo
parma
parme
parmetella
parmiero
parmo
parnaso
paro
parodia
parola
parole
parono
parrocchia
parrocchiale
parrocchie
parroco
parrucca
parrucchiere
pars
parso
part
parta
parte
partecepato
partecipa
partecipaje
partecipato
partecipazione
partecipazzione
parteculare
partenno
partenope
partenopea
partenopeo
partenza
partesse
partette
partettero
parteva
parti
particolar
particolare
particolarmente
particulare
particularita
particularmente
partimmo
partire
partita
partite
partiti
partito
partitura
parto
partoro
partuta
partute
partuto
paruto
parze
parziale
parzialmente
parzo
pas
pasc
pasca
pascal
pascale
pascali
pascalino
pascalotte
pascalotto
pascarella
pascarie
pascariello
pasce
pascere
pascone
pasgioli
pasolini
pasq
pasqua
pasquale
pass
passa
passaggiere
passaggio
passaguai
passai
passaie
passaje
passajeno
passammo
passando
passanno
passano
passar
passara
passare
passaro
passarra
passasse
passata
passate
passati
passato
passava
passavano
passavo
passe
passeggia
passeggiando
passeggiare
passeggiata
passeno
passera
passero
passi
passia
passiamo
passianno
passiata
passiona
passione
passo
past
pasta
pastacchie
pastacriscute
paste
pastenaca
pastenache
pasticceria
pasticcio
pastiera
pasto
pastore
pastori
pasture
pat
patacca
patacche
pataccune
patana
patane
patate
pataterno
patc
patcarella
pate
patemiente
patemo
patenno
patente
pater
paterna
paterne
paternita
paterno
patesce
patete
pateterno
pateto
pati
patierno
patire
patisce
patisco
pato
patrasso
patre
patremo
patreto
patri
patria
patrick
patrimmonio
patrimonio
patrio
patriota
patrizia
patrizio
patro
patrona
patrone
patrono
patrune
patta
patte
pattinaggio
patto
pattuglia
patty
patute
patuto
pau
paul
paulie
paulo
paura
paure
pauroso
pausa
pause
pausini
pava
pavammo
pavano
pavarotti
pavata
pavate
pavato
pave
pavese
pavia
pavimento
pavo
pavoneggiandosi
pax
pazienza
pazza
pazzaglia
pazzarella
pazzariello
pazze
pazzea
pazzeo
pazzi
pazzia
pazzianno
pazziate
pazziato
pazziava
pazzie
pazziella
pazzielle
pazzo
pc
pd
pdf
pdl
pe
pebbi
pebblecate
peca
pecca
peccate
peccati
peccato
peccatore
peccature
peccere
peccerella
peccerelle
peccerigl
peccerigle
peccerille
peccerillo
pecche
pecchesto
pecchi
peccho
peccio
pece
pecenische
peche
pechino
pecora
pecore
pecune
pecurare
pecurella
ped
pedale
pedata
pedate
pede
pedecchiu
pedo
pedono
pedota
pedoto
pedro
peggio
pegle
peglia
pegno
pei
peintre
pel
pelama
pelata
pelate
pele
peli
peligna
pell
pella
pelle
pellecchia
pellecchiu
pellegrinaggio
pellegrino
pellerine
pellerino
pelliccia
pellice
pellicula
pellicule
pelo
pelosa
pelose
peluso
pen
pena
penale
penate
pende
pendice
pendino
pendono
pene
peni
penisola
penisula
penitenza
penitenzia
penna
pennacchie
pennata
penne
pennello
penniello
pennine
pennino
penombra
penosamente
penoso
pensa
pensammo
pensando
pensanno
pensare
pensata
pensate
pensato
pensava
pensero
pensi
pensiamo
pensiere
pensieri
pensiero
pensieroso
penso
pensosa
pensoso
penta
pentata
pente
penti
pentimento
pentita
pentito
pento
pentuta
pentuto
penz
penza
penzaie
penzaje
penzammo
penzanno
penzano
penzare
penzarra
penzasse
penzata
penzate
penzato
penzava
penzave
penzavo
penziere
penziero
penzo
peo
people
pep
pepe
pepelare
pepelazione
pepelaziune
pepierno
pepp
peppare
pepparella
peppe
peppene
peppenella
peppenie
peppeniello
peppi
peppina
peppino
per
pera
percanto
percentuale
percepite
perch
perche
perchesto
perciato
percio
percorso
percuoco
percussione
perda
perde
perdenno
perdenza
perder
perdere
perdesse
perdette
perdeva
perdi
perdie
perdimmo
perdite
perdo
perdona
perdoname
perdonami
perdonanza
perdonare
perdonate
perdonatelo
perdonatemi
perdoneme
perdoni
perdono
perduna
perdunaie
perdunate
perdunateme
perdunato
perduone
perduono
perduta
perdutamente
perdute
perduto
pere
perehe
perepessa
pereta
perettiello
peretto
perfetta
perfettamente
perfetto
perfezione
perfezziunamiento
perfino
pergolato
pergolesi
peri
pericole
pericoli
pericolo
pericolosa
pericoloso
pericule
periedo
periferia
perillo
periode
periodiche
periodo
periudo
perla
perle
permacultura
permaculture
perme
permesso
permette
permettere
permettete
permettetemi
permetto
permone
pernacchio
perne
pernice
perno
pernucc
pernucce
pero
perosa
perplesso
perra
perrelli
perro
perrone
pers
persa
perse
perseguita
persico
persino
perso
persona
personaggi
personaggio
personale
persone
persuade
persuado
persuasa
persuase
persuasiva
persuaso
persunagge
persunaggio
persunale
pertanto
pertata
pertate
perteca
pertosa
pertose
pertualle
pertuso
peru
perucca
perucchiero
perugia
peruonto
pervaja
perza
perze
perzeca
perzechella
perzi
perzo
perzona
perzonaleta
perzone
perzunagge
perzunaggie
perzunaggio
perzunale
perzune
pesa
pesante
pesantemente
pesaro
pesca
pescara
pescare
pescasseroli
pescature
pesce
pescenisch
pescenische
pescina
pesco
pesielle
peso
pesole
pesone
pesse
pessebbeleta
pessi
pessoa
pesta
peste
pet
peta
pete
petena
peter
peterburg
peti
petit
petito
peto
petr
petra
petraio
petrarca
petrarchiste
petraro
petre
petriccione
petro
petrolio
petronio
petroselinum
petrosinella
petrosino
petru
petruccio
petrusino
pettegola
pettenare
pettene
pettinatura
pettine
pettini
petto
pettola
pettole
pettolella
pettore
pettramente
petture
peu
pez
pezza
pezze
pezzecato
pezzella
pezzelle
pezzenno
pezzentaria
pezzente
pezzentelle
pezzentone
pezzentune
pezzettella
pezzi
pezziente
pezzillo
pezzo
pezzullo
pezzulo
pezzuola
ph
phe
philosophy
phobos
phoenix
phong
phonotris
phonotype
phu
phylum
pi
pia
piacciono
piace
piacene
piaceno
piacentino
piacenza
piacer
piacere
piacesse
piaceva
piacevano
piacire
piacite
piaciuta
piaciuto
piacquette
piaga
piagnucolosa
pian
piana
piane
pianefforte
pianerottolo
pianeta
piange
piangendo
piangere
piango
piangono
piani
pianino
pianissimo
pianista
piano
pianoforte
pianta
piante
pianterreno
pianto
piantone
pianura
piastra
piastre
piata
piatanza
piatate
piatosa
piatte
piatti
piattiello
piatto
piatuso
piave
piazza
piazzetta
pica
picca
piccere
piccerella
piccerelle
picceri
piccerilla
piccerille
piccerillo
picche
picchia
picchiare
piccia
piccina
piccini
piccino
piccio
picciola
picciolo
picciotto
piccirella
piccirilla
piccirille
piccirilli
piccirillo
picciuotto
piccola
piccole
piccoli
piccolo
piceno
pico
pideto
pie
piecore
piecoro
pied
piede
piedegrotta
piedi
piedigrotta
piedimonte
pieds
piega
piegato
pieghe
piemme
piemonte
piemontese
piemunte
piemuntese
piena
piene
pieni
piennolo
pieno
piente
pienze
pier
pierde
piere
piererotta
piero
pierre
pierro
pieta
pietanza
pietate
pieto
pietosa
pietoso
pietra
pietre
pietro
pietroburgo
piette
piettene
pietto
pieve
piezz
piezze
piezzo
pigli
piglia
pigliai
pigliaie
pigliaje
pigliajeno
pigliale
pigliammo
pigliando
piglianno
pigliannose
pigliano
pigliare
pigliarme
pigliarne
pigliaro
pigliarria
pigliarse
pigliasse
pigliaste
pigliata
pigliate
pigliatella
pigliateve
pigliatevelle
pigliatillo
pigliato
pigliatolo
pigliatose
pigliava
pigliavano
piglie
pigliete
piglio
pigme
pigna
pignasecca
pignata
pignataro
pignate
pignatelli
pignato
pigne
pigno
pignola
pignole
pignuole
pii
pila
pilato
pile
pili
pilo
pilota
pine
pinerolo
pingitore
pino
pinolo
pinto
pio
pioggia
piove
piovere
pioveva
pipa
pipata
pipe
pipet
pipetiello
pippa
pippo
pir
pira
piramide
pircio
pire
piretto
piro
pironti
pirro
pis
pisa
pisano
pisca
piscanno
piscato
piscatore
piscature
pisce
pisciavi
pisciavinnolo
piscina
piscinola
pisciotta
piscopo
pise
pisemo
piso
pisso
pista
pistoia
pistoja
pistola
pistole
pitagora
pite
piti
pito
pitta
pittaje
pittata
pittate
pittato
pitto
pittore
pittori
pittura
pitture
piu
piuttosto
pivezo
pixell
pizza
pizzaiuolo
pizze
pizzeche
pizzeco
pizzeria
pizzi
pizzicato
pizzico
pizzicotto
pizzo
pizzofalcone
pizzoli
pizzone
pj
pl
pla
place
plane
planet
planetary
planitia
plata
platinum
platyphyllos
plauso
play
plebe
plebeo
plebiscito
plena
plenilunare
plinio
plurale
pm
pn
png
po
poc
poca
pocca
poch
poche
pochi
pochissimo
poco
pocorillo
pocu
poe
poema
poemetti
poemetto
poesia
poesie
poeta
poete
poeti
poggia
poggio
poggiomarino
poggioreale
pognale
pogne
poi
poiche
poje
pol
polacca
polacco
polandball
pole
polece
polenta
polesine
poli
polignano
polimmo
polisportiva
polite
politeca
politeco
politica
politici
politico
polito
polizia
polizza
polla
pollena
pollice
pollitro
pollo
polo
polonia
polpaccio
polsi
polska
polso
poltrona
poltrone
polvere
polydor
pomeriggio
pomigliano
pommece
pompei
pompeo
pon
pond
ponda
ponde
pone
ponendo
ponendosi
ponente
ponn
ponne
ponno
pont
ponta
ponte
pontella
ponti
ponticelli
pontiere
pontificio
pontone
ponza
ponzate
ponzo
pop
popa
popolana
popolani
popolano
popolare
popolari
popolazzione
popole
popoli
popolino
popolo
poppa
popular
populare
population
populazzione
popule
populo
populosa
por
porca
porco
pordenone
porge
porgendo
porgendole
porla
poro
porpetta
porra
porre
porria
porro
port
porta
portafogli
portafoglio
portai
portaie
portaje
portale
portalo
portame
portamento
portami
portando
portandosi
portanno
portano
portanova
portar
portare
portarne
portaro
portarra
portarraggio
portarria
portasse
portata
portate
portati
portato
portava
portavano
portavoce
porte
porteme
portera
portero
porti
portici
porticina
portiera
portiere
portinaia
portinaio
portineria
porto
portobuffole
portogallino
portogallo
portone
portulaca
porvere
porzi
porzia
porziella
porzione
pos
posa
posate
poscia
pose
posema
posillipo
posizione
posizzione
poso
possa
posse
possente
possessione
possesso
possessore
possiamo
possiate
possibbele
possibele
possibile
possibilita
possiede
posso
possono
post
posta
poste
posteggiatori
posti
postiere
postiglione
posto
potarria
pote
potea
poteca
potecaro
potendo
potenno
potente
potenza
poter
potere
potersi
potervi
potesse
potessero
potessi
potete
potette
poteva
potevano
potevate
potimmo
potite
potive
potra
potrai
potrebbe
potrebbero
potrei
potremo
potreste
potresti
potrete
potria
potro
potrone
potta
pottana
potte
potuta
potuto
pour
pover
povera
povere
poverella
poverelle
poveretta
poveretto
poveri
poverielle
poveriello
poverina
povero
poverommo
poverta
power
powiat
pozz
pozza
pozzano
pozzate
pozze
pozzo
pozzuoli
pp
ppa
ppadrone
ppalme
ppane
ppapa
ppapare
ppare
pparla
pparlare
pparlate
pparo
pparola
pparole
pparte
ppassa
ppassato
ppatemo
ppatre
ppatrone
ppaura
ppazza
ppazzie
ppazzo
ppe
ppecche
ppedate
ppede
ppeggio
ppene
ppenne
ppenza
pperche
ppere
pperne
pperzo
pperzone
ppeta
ppete
ppeto
ppi
ppiacere
ppiante
ppiezze
ppiglia
ppiglio
ppo
ppoco
pponte
pporta
pportato
pporte
pporto
pposta
ppoverella
ppozza
ppozzo
pprete
ppriesto
pprimma
pprimme
pprimmo
ppronto
pproposeto
pproposito
pproprio
pprove
ppruvince
ppu
ppulicenella
ppuo
ppuortice
ppuosto
ppuozze
ppure
pputeche
pr
pra
praga
praia
prane
pranzo
prat
prata
prate
prateca
pratica
praticamente
pratiche
prato
pratteca
prattica
pravo
pre
precauzione
precedente
precedentemente
preceduto
precipita
precipitato
precipitosamente
precipizio
precisa
precisamente
precise
precisione
preciso
preda
predezzione
predica
predott
predotte
predu
preduce
prefazione
preferisce
preferito
prefettura
prega
pregaie
pregaje
preganno
pregano
pregare
pregata
pregato
pregava
pregge
preggettazione
preghiera
preghiere
pregi
pregio
prego
preia
preiato
preiezza
preistoria
prejezza
preliminare
preme
premeno
premettete
premiata
premiato
premier
premio
premium
premmesso
premmettete
premmie
premmio
premmone
premura
premurosa
premurosamente
premuroso
prena
prencepale
prencepalmente
prencepato
prencepe
prencepessa
prencepio
prencipale
prencipe
prencipio
prende
prendendo
prender
prendere
prendete
prendi
prendo
prendono
prene
prengepale
prengepalme
prengipie
prenne
preoccupata
preoccupato
preoccupazione
prepara
preparare
preparata
preparate
preparativi
preparato
prepieta
prepo
prepotenza
pres
presa
prese
presebbie
presebbio
presenta
presentaje
presentando
presentandosi
presentano
presentare
presentarmi
presentarvi
presentata
presentate
presentato
presentazione
presentazzione
presente
presentemente
presenti
presentimento
presento
presentuso
presenza
presenze
presenzia
presepio
presi
preside
presidente
presidiente
presiente
presiento
presienza
presirente
presiriente
preso
presone
presonia
press
pressa
presse
pressi
pressione
presso
presta
prestate
prestato
presto
presumibile
presunzione
presutto
preta
prete
pretende
pretendete
pretenne
pretennere
pretensione
pretenta
pretesto
preti
pretienne
pretiosa
pretore
prevalentemente
preve
prevede
preventivo
prevete
preveto
previngia
previta
prezetella
preziosa
preziose
preziosi
prezza
prezzi
prezzo
pri
pria
priamo
priato
priatorio
priava
pricisamente
priciso
prie
prieghe
prieno
priesso
prieste
priesto
prievete
priezza
priggiuniere
prighiera
prim
prima
primate
primato
primave
primavera
prime
primera
primi
primieramente
primis
primm
primma
primmavera
primme
primmo
primnia
primo
primogenito
primula
princepa
princepale
princepe
princepessa
princeps
principa
principale
principali
principalmente
principato
principe
principessa
principi
principia
principiato
principino
principio
prio
priore
pripara
prisco
prisenza
priva
privata
private
privati
privativa
privato
prive
privilegio
privo
pro
problema
procariute
procede
procedere
processo
proceta
procida
procura
procurare
procuratore
prode
prodezza
prodi
prodotte
prodotti
prodotto
produce
production
produttore
produttori
produzione
produzioni
produzzione
prof
professione
professo
professor
professore
professori
profeta
profetessa
profferite
profitta
profittando
profittare
profitto
profonda
profondamente
profondo
profumo
progetti
progetto
program
programma
programme
progresso
proibisco
prole
promessa
promesso
prometto
prommessa
prommesse
prommiso
promontorio
prona
pronta
pronte
prontezza
pronti
pronto
pronuncia
pronunzia
pronunziare
pronunzio
propeta
propetamente
propete
propeto
propia
propie
propio
propizio
proposeto
proposito
proposizione
proposta
proposte
proposto
propri
propria
propriamente
proprie
proprieta
proprietaria
proprietario
proprio
prora
prore
prorompe
prorompendo
pros
prosa
proscenio
prosdo
prosdocima
prose
prosegue
proseguire
proseguite
proserpena
prospero
prospettiva
prossemo
prossima
prossimo
prota
protagonista
protegge
protende
protese
protesta
protestando
protestare
protesto
protettore
protettrice
protezione
prova
provare
provato
prove
proverbio
province
provincia
provinciale
provincie
provinge
provo
provola
provvidenza
provvisoriamente
pru
prubabilmente
prubbeca
prubbeco
prubbleme
prubreme
prucessione
prucesso
pruciesse
pruciesso
prucissione
pruclama
prudente
prudentemente
prudenza
prudotte
prudotto
prudutte
pruduzione
pruduzzione
prufessione
prufesso
prufessore
prufilo
prufonneta
prugetto
pruggette
pruggetto
pruggietto
prugiette
prugietto
prugramma
pruincia
prumessa
prumesse
prumetto
prummiso
pruno
prununcia
pruopia
pruova
pruove
pruposta
pruprieta
prussia
prutagonista
prutagunista
prutegge
pruteggere
prutesta
pruteste
prutetto
prutettore
prutezione
prutezzione
prutone
pruva
pruvaje
pruvammo
pruvato
pruve
pruvene
pruveniente
pruvenzale
pruveritore
pruvince
pruvincia
pruvinciale
pruvincie
pruvinge
pruvvisorio
psicologgi
psicologgia
psicologo
pss
psst
psychology
pt
pu
puae
pubbleca
pubblecata
pubbleche
pubbleco
pubblica
pubblicaje
pubblicare
pubblicata
pubblicate
pubblicato
pubblicazione
pubblici
pubblicita
pubblico
pubbreca
pubbrecaje
pubbrecata
pubbrecato
pubbreche
pubbreco
publica
publishing
puca
puccia
puceriale
pucurillo
pue
puerto
puesia
puesie
pueta
puete
puf
puggilato
pugilato
puglia
pugliano
puglie
pugliese
pugna
pugnale
pugni
pugno
puh
pui
puisia
pul
pulacca
pulacche
pulacco
pulc
pulci
pulcine
pulcinella
pule
pulece
pulecene
pulecenella
pulenta
pulezia
pulezza
pulezzia
puli
pulice
pulicene
pulicenella
pulisce
pulita
pulite
puliteca
puliteche
puliteco
pulitica
pulitiche
pulitico
pulito
pulitura
pulizzia
pullaste
pulle
pullo
pulonia
pulonnia
pultrona
pumbe
pummarola
pummarole
pumpei
pumpeje
pumpiere
pund
punde
pune
punente
punia
punio
punizione
punk
punta
puntata
puntate
punte
punti
punticielle
punto
puntone
puo
puoch
puoche
puoi
puoie
puoje
puonn
puonne
puopole
puopolo
puorc
puorce
puorche
puorco
puort
puorte
puortece
puortice
puorto
puorzi
puoste
puosto
puostole
puostose
puozz
puozze
pup
pupa
puparuole
puparuolo
pupata
pupatella
pupazzo
pupe
pupella
pupessa
pupi
pupilla
pupille
pupillo
pupo
pupulare
pupulazione
pupulazzione
pupulosa
pupulose
pur
pura
puramente
puranche
purche
pure
puro
purpe
purpetielle
purpetta
purpo
purqua
purta
purtaie
purtaje
purtajeno
purtale
purtammo
purtanno
purtante
purtarono
purtarra
purtasse
purtaste
purtat
purtata
purtate
purtato
purtava
purtella
purticesa
purticese
purtiere
purtone
purtroppo
purtualle
purtuallo
purtuese
purtuesi
puru
purzi
purzine
purzione
pus
pusa
pusata
pusilleco
pusizione
pusizzione
pussesso
pussibbele
pussibbelmente
pussibile
pustiere
put
putarri
putarria
putarrisse
pute
puteca
putecaro
puteche
putente
putenza
putenze
putere
putesse
putette
puteva
putevano
putevo
putimme
putimmo
putin
putisse
putite
putive
putiveve
pututo
puverella
puverielle
puveriello
puzo
puzza
puzzate
puzze
puzzo
puzzule
puzzuolo
pv
px
pz
q
qa
ql
qo
qon
qquatto
qu
qua
quacc
quacch
quacche
quaccheduna
quaccheduno
quaccheruno
quaccosa
quaccuno
quadrate
quadrato
quadre
quadretto
quadri
quadro
quagghie
quaglia
quaglie
quaglio
qual
qualche
qualcheduno
qualcosa
qualcuno
quale
qualeta
quali
qualiano
qualifica
qualificata
qualita
qualonca
qualora
qualunque
quan
quand
quanda
quande
quandeta
quando
quann
quanne
quanno
quant
quanta
quante
quanteta
quanti
quantita
quanto
quantu
quantunque
quarant
quaranta
quarantase
quarantina
quarantotto
quarch
quarche
quarcosa
quarcuno
quarera
quart
quarta
quarte
quartiere
quartieri
quartino
quarto
quasc
quasce
quase
quasi
quateno
quatra
quatre
quatro
quatt
quatte
quatto
quattr
quattre
quattro
quattuciento
quattuordece
que
queen
quegli
quei
quel
quell
quella
quelle
quelli
quello
quercus
quest
questa
queste
questi
questione
questo
questore
questura
qui
quiete
quieto
quigl
quigle
quillo
quind
quindi
quindici
quinne
quinnece
quinni
quinnice
quinta
quinto
quis
quisisana
quiss
quistione
quistioni
quisto
quistura
quondam
quotidiano
r
ra
raa
rabbia
rabbiele
rabbioso
rabbuiandosi
rac
racc
raccapriccio
racco
raccoglie
raccogliendo
raccogliere
raccolgono
raccolta
raccolte
raccolti
raccolto
raccomando
raccomanno
racconta
raccontare
racconti
racconto
raccumannato
raccumanno
raccunta
rache
rachela
rachele
radar
radeca
radeche
radiazzione
radice
radio
radiofonica
rae
raf
rafae
rafael
rafaele
rafaniello
rafe
rafele
raffaela
raffaele
raffaello
rag
raganella
raganelli
ragazza
ragazze
ragazzi
ragazzina
ragazzo
ragge
raggio
raggiona
raggione
raggiuna
raggiune
raggiunge
raggiungere
raggiungono
ragion
ragiona
ragione
ragionevole
ragioni
ragioniere
ragiono
ragiuna
ragno
ragosta
ragu
ragusa
rai
raie
raimond
raimondo
ral
ralf
ralph
ram
rama
rame
ramma
rammaggio
ramme
rammentate
rammere
rammo
ramo
rana
rancascia
rancesco
rancio
randinia
rane
rango
ranieri
ranking
ranno
rano
ranonchie
rantola
rantolo
ranucci
rao
rap
rapa
rapace
rape
rapesta
rapida
rapidamente
rapido
rapito
rapper
rappo
rapporte
rapporti
rapporto
rappresenta
rappresentano
rappresentante
rappresentata
rappresentate
rappresentato
rappresentazione
rappresentazzione
rapprisenta
rappuorte
rappuorto
rara
raramente
rare
rareca
raro
rarriva
ras
rasa
rasca
rascia
rase
raso
rasoio
rasse
rassegna
rassegnata
rassegnato
rassetta
rasso
rasulo
rat
rata
rate
ration
rato
ratzinger
rauca
rauco
ravel
ravenna
ravvia
ravviva
ray
razia
razie
raziella
razza
razze
razzo
razzullo
rc
rca
rcete
rd
rda
rde
rdemo
rdene
rdi
rdo
re
rea
real
reale
reality
realizza
realizzato
realta
reazione
rebecca
rebellione
rebirth
rebuild
reca
recando
recandosi
recato
recche
recchezza
recchezze
recchia
recchie
rece
recenale
recente
recerca
recetante
recetta
recette
receve
recevere
recevuta
recevuto
reche
rechenosc
rechepe
rechiammo
recietto
recisamente
recita
recitato
reco
record
recording
records
recotta
recuoncolo
red
reda
redenno
redentore
redeva
redicolo
redimmo
redite
redo
reduce
ree
refa
referemiente
references
referendum
refettorio
reforma
reforme
refresca
refrisco
reg
regalato
regalo
reggae
regge
reggenale
reggia
reggime
reggimento
reggina
reggio
reggionale
reggione
reggista
reggiunale
reggiune
regi
regia
regime
regina
reginella
regio
regionale
regione
regioni
regista
registro
regna
regne
regni
regno
regola
regolamento
regolare
regole
regula
regule
rei
reiale
rejale
relativa
relative
relativi
relazione
relazzione
releggione
releggiuse
religgiona
religgione
religgiosa
religgiose
religgioso
religgiune
religiosa
religioso
rema
remake
remane
remanette
remas
reme
remix
remmediare
remmedio
remmore
remo
remuntuarre
ren
rena
renare
renate
renato
rende
render
rendere
rendersi
rendesi
rendita
rene
reni
renne
rennere
renneva
reno
renta
rente
rentennere
renza
renzi
renzo
renzolla
renzullo
reo
reparo
reperte
repertorio
repierte
repigliaje
replay
replica
replicatamente
replico
repo
report
reporter
reposa
repressa
repressione
repu
repubbleca
repubblica
repubbreca
repuoso
repuosto
requie
rera
rere
res
resa
resata
resate
resce
rese
research
resella
reshe
residente
residenza
resina
resistenza
resistere
reso
resoluto
resoluzione
resoluzzione
resorvette
resources
respetto
respietto
respinge
respingendo
respingendola
respiro
responne
responnenno
responnere
responnette
responneva
responsabilita
respose
resposero
resposta
respunne
respuosto
ressa
resse
resta
restaie
restaje
restammo
restando
restanno
restano
restar
restare
restaro
restarra
restata
restate
restato
restauro
restava
reste
restera
resti
restiamo
restituisce
resto
resulta
resultate
resuscita
ret
reta
rete
reti
retira
retirata
retiro
reto
retomano
retratto
retro
retrocede
retta
rette
rettero
retto
rettore
retunno
retuorno
return
rev
reve
revere
reverendo
revierzo
review
revista
revoir
revoluzzione
revolver
revota
revula
revuta
rex
rey
rezza
rezze
rf
rgane
rgene
rgiamba
rhe
rho
ri
ria
riaccosta
rial
riala
rialato
riale
rialo
rialta
riapre
ribasso
ribatte
ribelle
ribellione
ribera
ribrezzo
ric
rica
ricade
ricanoscere
ricanusciuta
ricanusciute
ricanusciuto
ricava
ricavate
ricavato
ricca
riccardo
ricce
ricch
ricche
ricchezza
ricchezze
ricchissimo
ricci
riccia
ricciardi
riccio
ricciulille
ricco
rice
ricenno
ricerca
ricercato
ricerche
ricere
ricetta
ricette
riceva
riceve
ricevere
ricevette
ricevimento
ricevo
ricevuta
ricevuto
richard
richette
richettella
richiamo
richiesta
richiude
ricite
ricky
rico
ricomincia
ricomincio
ricomparisce
riconoscenza
riconoscere
riconoscimento
riconosciuto
riconosco
ricorda
ricordando
ricordano
ricordare
ricordate
ricordatevi
ricordati
ricordete
ricordi
ricordo
ricorrere
ricotta
ricoverati
ricoverato
ricuorde
ricurda
ricurdate
ride
ridendo
ridere
ridete
ridi
ridicolo
rido
ridono
ridotta
ridotte
ridotto
riduzione
rie
riece
riego
riempire
riempirlo
rientra
rientrando
rientrare
rienzo
riesca
riesce
riesco
riescono
rieste
riesto
rieti
rifa
rifaccia
riferimento
riferimiento
riferisce
riferito
rifiute
rifiuti
rifiuto
riflessione
riflessioni
riflesso
riflette
riflettere
riforma
riforme
riga
riggene
riggi
riggina
rigginale
rigginario
riggine
riggione
riggista
righe
righi
rigina
rignante
rigor
rigore
riguarda
riguardano
riguardi
riguardo
rihanna
rii
rileva
rilievo
rilora
rilorgio
rim
rima
rimane
rimanere
rimangono
rimarra
rimasta
rimaste
rimasti
rimasto
rime
rimedio
rimesso
rimette
rimettendosi
rimettere
rimini
rimme
rimmedio
rimmo
rimorso
rimpetto
rimpianto
rimprovera
rimprovero
rimuovere
rin
rina
rinaldi
rinaldino
rinaldo
rinascimiento
rinascita
rind
rine
rinforza
ring
ringrazia
ringraziate
ringrazio
rinnova
rinnovano
rinomato
rinserra
rint
rintana
rinto
rintocchi
rinvenendo
rinvenuta
rinverranno
rio
riogn
riogne
rione
rip
ripa
ripara
riparare
riparata
riparo
ripe
ripete
ripetendo
ripetere
ripeto
ripetutamente
ripetuto
ripieno
ripiglia
ripigliandosi
ripone
riposa
riposare
riposo
riposto
riprende
ripresa
riprese
rire
rirere
ris
risa
risale
risali
risalire
risanamento
risata
risate
risatina
risc
riscaldamento
rischiara
rischio
risciata
rise
riseco
risente
risentimento
risentita
risentito
riserva
riservata
riservati
risi
riso
risolino
risoluta
risolutamente
risoluto
risoluzione
risolve
rispetta
rispettabile
rispettabilissimo
rispettare
rispettata
rispettato
rispetti
rispettive
rispettivi
rispetto
rispiette
rispiro
risponde
rispondere
rispondervi
rispondete
rispondi
rispondono
risponne
risponnere
risponnette
risponno
rispose
risposta
risposte
risposto
rispunne
rispunneme
rispunnette
rispunneva
rispunnite
rispuosto
ristampa
ristoro
ristretto
risturante
risulta
risultate
risultato
risuonano
risurgimento
rita
ritardo
rite
riti
ritira
ritirata
ritirate
ritiratevi
ritirati
ritirato
ritiro
ritmo
rito
ritorna
ritornando
ritornano
ritornare
ritornato
ritornello
ritornero
ritorno
ritrae
ritratte
ritratti
ritratto
ritrovato
ritt
ritta
ritto
riune
riunione
riuscette
riusci
riuscire
riuscita
riuscito
riva
rivale
rive
rivederci
rivedremo
rivelazione
river
riverenza
riviera
rivincita
rivista
riviste
rivivendo
rivolge
rivolgendosi
rivolgersi
rivolta
rivolte
rivolto
rivoluzione
rivoluzzione
rivuluzzione
rizza
rizzoli
rk
rl
rlo
rm
rma
rmane
rmanes
rme
rmene
rn
rna
rne
rnia
rno
rnucc
rnugliera
rny
ro
rob
roba
robb
robba
robbe
robe
robert
roberta
roberto
robot
roc
roca
rocca
roccaforte
roccarainola
roccasecca
rocchetta
rocchia
roccia
rocco
roce
rock
rococo
rod
rodano
rodi
rodolfo
rodri
rodrigo
rofrano
roger
rogna
roie
roina
roine
roje
rom
roma
romagna
roman
romana
romance
romane
romani
romano
romanza
romanze
romanzo
rome
romeno
romeo
romma
rommagna
rommana
rommane
rommani
rommano
rommore
romor
romore
rompe
rompere
rompo
rompono
romualdo
ron
ronald
ronco
ronda
rondinella
ronna
rono
ropp
roppe
ros
rosa
rosalia
rosaria
rosario
rosariu
rose
roseca
rosecare
rosella
roseto
rosetta
rosi
rosina
rosolio
rossa
rossano
rosse
rossellini
rossi
rossiccio
rossini
rosso
rossore
rosta
rostro
rot
rota
rote
rotella
rotola
rotoli
rotolo
rotonda
rotondo
rotta
rotte
rotto
rouen
round
rovagno
rover
rovere
roveto
rovetta
rovigliano
rovigo
rovina
rovinata
rovinato
royal
rozzo
rpa
rpe
rqf
rr
rra
rragazze
rragione
rragiune
rrane
rranonchie
rrau
rre
rreca
rrecchie
rreche
rreco
rregola
rrej
rrentennere
rresce
rrevota
rrevutata
rri
rricco
rricorrere
rride
rridere
rriso
rrisponnere
rroba
rrobba
rrobbe
rrose
rrosina
rrote
rrovagno
rrummasa
rrusso
rs
rse
rt
rta
rtaro
rte
rteca
rtela
rtera
rtf
rth
rto
rtografija
ru
rua
rubare
rubato
ruber
ruberto
rubra
rucche
ruchesca
ruchessa
rude
ruffo
rugbysta
ruggero
ruggiero
ruggito
ruina
ruine
ruje
rum
rumagna
rumagnolo
rumana
rumane
rumania
rumano
rumanza
rumanze
rumanzo
rumba
rumena
rumeno
rumito
rummana
rummane
rummanette
rummano
rummasa
rummase
rummaso
rummo
rummore
rumore
rumpe
rumpete
runziava
ruo
ruollo
ruolo
ruommolo
ruoss
ruosse
ruosso
ruota
ruotolo
ruppe
rurale
rurece
rus
rusa
rusalia
rusario
rusc
rusce
ruse
ruseca
rusella
rusette
rusi
rusina
russ
russa
russe
russell
russia
russo
rustica
rustiche
rustico
ruta
rutella
rutte
rutto
rv
rva
rve
rvene
ryu
rz
rza
rze
rzeca
rzo
rǝ
rɛɲ
s
sa
sabatini
sabato
sabbato
sabbe
sabbine
sabina
sabino
sacc
sacca
sacce
saccente
sacche
sacchetto
sacchi
saccia
sacciate
saccio
sacco
saccocce
saccoccia
saccocciola
saccone
sacerdote
sacerdotessa
sacicce
sacra
sacramente
sacramento
sacre
sacrefitie
sacrefitio
sacrestia
sacrificio
sacrileggio
sacro
sadamoto
saecula
saeculorum
saetta
safari
sagan
saggese
saggi
saggia
saggio
sagl
sagli
saglie
saglienno
saglieno
sagliesse
sagliette
saglieva
saglio
saglioccola
saglire
saglite
sagliuta
sagliuto
sagra
sahara
sai
saia
saie
saint
saio
saje
sal
sala
salame
salassatore
salata
salate
salato
sale
salemme
salentino
salento
salernitana
salerno
saletta
salgono
sali
salierno
salire
salita
salite
salito
salle
sallio
salmo
salo
salone
salotto
salp
salpersal
salta
saltando
saltare
salto
saluta
salutammo
salutando
salutano
salutare
salutateme
salutato
salute
saluti
saluto
salva
salvador
salvare
salvata
salvato
salvator
salvatore
salve
salvi
salvo
salza
sam
samba
sammarinese
sampdoria
samuel
san
sana
sanare
sanata
sanco
sancti
sancto
sand
sanda
sande
sandro
sane
sanenari
sanetate
sanfedisti
sanfelice
sang
sanghe
sangiuvanne
sango
sangro
sangue
sanguetta
sanguette
sanguinaccio
sanita
sannazaro
sannazzaro
sanni
sannio
sannita
sannite
sanniteca
sanniti
sannitico
sanno
sano
sanremo
sanseverino
sansevero
sant
santa
santanotte
santarella
sante
santella
santi
santiago
santino
santissima
santita
santo
santoro
santu
santuario
sanza
sao
sape
sapea
sapendo
sapenno
saper
sapere
saperlo
sapesse
sapete
sapette
sapeva
sapevano
sapevo
sapi
sapia
sapiens
sapienza
sapimmo
sapio
sapisse
sapisseve
sapite
sapive
sapiveve
sapo
sapone
sapore
saporita
saporito
sappi
sappiamo
sappiate
sappiatelo
sapra
saprei
saprete
sapro
sapunaro
sapurito
saputa
sapute
saputo
sar
sara
sarace
saracinisco
sarai
sarajevo
saranno
sarausa
sarave
sarcastico
sarcena
sarcenella
sarchiapone
sarcinella
sarda
sarde
sardegna
sardella
sardo
sardonico
sarebbe
sarebbero
sarei
saremo
sareste
saresti
sarete
sargente
sargesio
saria
sarma
sarnelli
sarnese
sarno
saro
sarra
sarracino
sarraggio
sarrai
sarraie
sarraje
sarranno
sarri
sarria
sarriano
sarrimmo
sarrisse
sarrisseve
sarta
sarteano
sartine
sarto
sartore
sarva
sarvaje
sarvamiento
sarvare
sarvata
sarvate
sarvateche
sarvateco
sarvato
sarvatore
sarvo
sasicce
sassari
sasso
sassonia
satana
sate
satellite
satiellete
satrazione
saturnine
saturninus
saturno
sauda
saudita
saudo
sauta
sautare
saute
sauto
sauza
sauze
sav
sava
savastano
save
savelli
saveria
saverio
saviano
savino
savoia
savona
sazia
sazio
sba
sbafa
sbafante
sbaglia
sbagliate
sbagliato
sbaglie
sbaglio
sbagottuta
sbagottuto
sbalordito
sbaporaje
sbarbato
sbarca
sbarcaje
sbarcate
sbarcato
sbarco
sbaria
sbarianno
sbarrati
sbarre
sbatte
sbattenno
sbattere
sbatteva
sbatto
sbattuta
sbattute
sbattuto
sbentorata
sbentorato
sbentura
sberretta
sberrettano
sbertecellato
sbigottita
sbirre
sbirri
sbirro
sbotta
sbregognato
sbruffa
sbruffanno
sbruffone
sbuca
sbucco
sbuffa
sbuffando
sc
sca
scacciare
scaccino
scafaccio
scafati
scagliuozze
scagna
scagnate
scagno
scajenza
scala
scale
scaletta
scalinata
scalini
scalino
scalzo
scamazza
scamazzato
scambiano
scampanellata
scampi
scampia
scampo
scan
scanaglia
scandalo
scandendo
scanna
scannaje
scannare
scannate
scannato
scanne
scanniello
scanno
scanoscente
scanusciuta
scanza
scanzare
scanze
scanzione
scapece
scapizzacuollo
scappa
scappaie
scappaje
scappano
scappare
scappata
scappate
scappato
scappava
scappo
scarafone
scarco
scarda
scarde
scarfa
scarfalietto
scarlato
scarmigliata
scarola
scarole
scarpa
scarparo
scarpe
scarpetta
scarpina
scarpine
scarpini
scarpino
scarpune
scarrafone
scarrafune
scarreca
scarrupe
scarta
scartapelle
scartellata
scartellato
scartiello
scarze
scarzo
scasata
scasato
scassa
scassacancro
scassata
scassato
scasse
scasso
scassone
scatascio
scate
scatenato
scatola
scatole
scatta
scattando
scatti
scatto
scaudatiello
scauze
scauzone
scava
scavata
scavate
scave
sce
sceglie
scegliere
scegliette
scella
scellarata
scellarato
scelle
scellenza
scellerata
scellerato
scelta
scelte
scelto
scelzo
scema
sceme
scemita
scemo
scemone
scena
scenario
scenata
scenate
scende
scendere
scendi
scendo
scene
sceneggiata
sceneggiate
sceneggiatore
sceneggiatura
scengo
scenico
scenna
scenne
scennea
scennenno
scenneno
scennere
scennette
scenneva
scennimmo
scennite
scenno
sceno
sceppa
sceppata
sceppava
scere
sceri
scerisce
scerocco
scerpia
sceruppo
scesa
scese
scesse
sceta
scetaie
scetaje
scetare
scetasse
scetata
scetate
scetateve
scetato
scetatose
sceto
scette
scettero
scettro
sceva
sceveta
sch
sche
scheda
schefenzosa
scheggia
schena
schepie
schera
scherma
schermendosi
schermo
scherno
scherza
scherzando
scherzare
scherzate
scherzevole
scherzi
scherzo
scherzoso
schettini
scheve
schiacco
schiaffa
schiaffaie
schiaffaje
schiaffare
schiaffata
schiaffato
schiaffe
schiaffi
schiaffo
schiana
schianata
schiano
schianta
schiante
schianto
schiaparelli
schiara
schiatta
schiattamuorte
schiattare
schiattariello
schiatte
schiattiglia
schiatto
schiava
schiave
schiavi
schiavitu
schiavo
schiavone
schiavottella
schiecco
schiena
schienale
schiera
schifezza
schifo
schifosa
schillaci
schina
schio
schiocca
schioccar
schiocche
schioppa
schisa
schitto
schiude
schiuma
schiusa
schiuso
school
schwa
sci
scia
sciabacco
sciabola
sciacca
sciacco
sciacqua
sciaddeo
sciala
scialata
scialle
scialletto
sciallo
scialo
scialone
sciamarro
sciamma
sciamme
sciammeria
sciampagnone
scianche
scianco
sciantosa
sciantose
sciar
sciaraballe
sciascillo
sciasciona
sciassa
sciasse
sciata
sciato
sciaurato
sciaveca
scicca
scicco
scie
science
scienti
scientifeco
scientifiche
scientifico
scienza
scienze
scienzia
scienziato
scienzie
sciglite
scigna
scilla
sciniatore
scinne
scio
sciocca
sciocchezze
sciocco
scioccone
scioglie
sciogliere
sciolta
sciolto
sciopero
sciore
sciorenza
sciorta
sciorte
scioscia
sciosciammocca
scipione
scippa
scippaje
scippe
scippo
scire
sciro
scisciano
scisciole
scise
sciso
scisto
scita
scite
sciu
sciue
sciulia
sciuliare
sciume
sciumme
sciummo
sciuo
sciuor
sciuore
sciuoveto
sciupata
sciure
sciuri
sciurille
sciurillo
sciuscelle
sciuscio
sciut
sciuta
sciute
sciuto
sciveto
scivola
scivolando
scn
sco
scogliera
scoglio
scogna
scola
scolare
scolaro
scole
scolla
scombina
scommerzione
scommettere
scompare
scomparsa
scompetura
scompiglio
scompute
scomputo
sconciamente
sconfitta
sconforto
scongiuro
sconosciuto
sconquasse
sconquasso
sconta
sconto
scontra
scontraie
scontrato
scontro
sconvolta
scopa
scope
scoperta
scoperto
scopierto
scopo
scoppetta
scoppia
scoppiando
scoppiano
scoppio
scoppola
scoppole
scoppolune
scopre
scoprire
scorcio
scorda
scordare
scordata
scordate
scordato
scordo
scorfano
scorge
scorgendo
scorgere
scorno
scornosa
scorpione
scorre
scorrenno
scorrere
scorrezione
scorso
scorta
scortecare
scorza
scorze
scossa
scosso
scosta
scostano
scostumato
scotendo
scotendosi
scotolea
scott
scotta
scoverto
scozia
scozzese
scozzia
scr
scra
scranna
scrastamiento
screve
screvenno
screvette
scri
scrianzato
scrigno
scrisse
scrissero
scritt
scritta
scritte
scritti
scritto
scrittoio
scrittore
scrittori
scrittorio
scrittrice
scrittura
scritturata
scritture
scrivane
scrivania
scrivano
scrive
scrivendo
scriver
scrivere
scrivero
scrivete
scrivette
scriveva
scrivia
scriviu
scrivo
scrivono
scrofa
scrolla
scrollando
scroscio
scrupolo
scu
scuadra
scudette
scudetti
scudetto
scudi
scudo
scuffia
scugnizze
scugnizzi
scugnizzo
scuitato
scula
scule
scultore
scultura
sculture
scumbina
scumma
scumme
scummessa
scumparette
scumpari
scunfitta
scunfitte
scungiure
scunta
scuntento
scuntro
scunzulata
scuo
scuoglie
scuoglio
scuola
scuole
scuorde
scuorne
scuorno
scuote
scuotendo
scuotendolo
scupatore
scuperta
scuperte
scuppetta
scuppettate
scuppiaje
scuprette
scupri
scur
scura
scurcola
scurda
scurdata
scurdate
scurdato
scure
scuressa
scuri
scurisse
scurisso
scuro
scurreva
scusa
scusale
scusare
scusate
scusateme
scuse
scusi
scusuta
scute
scuto
sdegnato
sdegno
sdigno
sdramma
se
sea
season
seb
sebastiano
sebbene
sebbeto
sebburco
sebeto
sebetura
sebilla
sec
seca
secca
seccano
seccante
seccata
seccate
seccato
seccatura
secce
seccessione
secche
secchi
secchia
seccia
secco
seceta
seche
secheo
seciale
secilia
secilie
seco
secoli
secolo
second
seconda
seconde
secondini
secondino
secondo
seconna
seconne
seconno
secota
secotaie
secotaje
secotanno
secotare
secotata
secotava
secozzune
secretario
secrete
secreto
secu
secule
seculo
secunda
secundo
secunn
secunna
secunno
secura
secure
securo
secuta
secutano
secutata
secutate
secutato
sede
sedendo
sedere
sedete
sedette
sedia
sedie
sedile
sedna
seduta
sedute
seduti
seduto
see
seenne
segge
seggia
seggie
seggio
seggiola
seggono
segna
segnaje
segnale
segnata
segnate
segne
segneri
segni
segnifeca
segnifica
segno
segnora
segnore
segnure
segre
segreta
segretamente
segretario
segrete
segreti
segreto
segue
seguendo
seguente
seguenti
segui
seguita
seguitando
seguitano
seguitate
seguitemi
seguiti
seguito
seguono
seh
sei
seicento
seiciento
seie
seiki
seje
selare
sele
selezione
self
sella
sellari
selle
selva
selvaggia
selvaggio
sema
sembra
sembrano
sembri
seme
semedei
semedeo
semi
semifinale
seminario
semmana
semmane
semmena
semmenate
semmenato
semmenta
semmente
semo
semp
sempe
semper
semplice
semplicemente
semplici
semplicissima
semplicita
sempre
semprece
semprecemente
sempreppiu
semprice
sempricemente
sen
sena
senape
senato
senatore
senature
sene
senese
senga
seni
senigallia
senio
senna
senno
seno
sensi
sensibile
sensibilita
sensitiva
senso
senta
sentarrite
sente
sentea
sentemiente
sentemiento
sentendo
sentenno
sentennose
senteno
sentenza
sentenze
sentenzia
sentere
sentesse
sentette
sentettero
senteva
sentevo
senti
sentiamo
sentie
sentile
sentimentale
sentimente
sentimenti
sentimento
sentimmo
sentinella
sentir
sentira
sentire
sentirete
sentiste
sentite
sentito
sentiva
sentive
sento
sentono
sentore
sentuta
sentute
sentuto
senz
senza
senze
senzo
separa
separate
separazione
sepe
seperficie
seppe
sequel
sequela
sequente
sequestro
ser
sera
serafino
serao
serata
serba
serbe
serbia
serbo
sere
serena
serenata
serenatella
serenita
sereno
sergente
sergio
seri
seria
serial
seriamente
serie
serieta
serino
serio
serpa
serpe
serpente
serpentina
serra
serrafi
serrafina
serrafino
serraglio
serrano
serrara
serrare
serrato
serratura
serravalle
serre
serrecchia
serv
serva
serve
serveno
servetore
servette
serveture
serveva
servevano
servi
servillo
servir
servira
servire
serviro
servirve
servirvi
servita
servite
serviteve
servitevi
servitio
servito
servitore
servitu
serviture
serviva
servizie
servizio
servizzie
servizzio
servo
servono
servuta
servute
servuto
ses
sesca
sesia
sessa
sessanta
sessione
sesso
sesta
sestema
sestemma
sesto
set
seta
setaccio
sete
sett
setta
settanta
sette
setteciento
settefrate
settema
settembre
settemo
settentrionale
settentrione
settentriunale
settenza
settenzia
setticiento
settie
settiembre
settiembro
settima
settimana
settimo
settore
setture
seva
severa
severino
severita
severo
sezione
sezzione
sf
sfa
sfacciata
sfare
sfastio
sfatione
sfatte
sfazione
sfe
sfelenza
sfera
sferra
sferza
sferze
sfi
sfida
sfiducia
sfila
sfilaje
sfinge
sfinito
sfiolo
sfiora
sfizio
sfizzio
sfn
sfoca
sfoco
sfoglia
sfogo
sfondo
sfonnerio
sfortonata
sfortonato
sfortunata
sfortunato
sforza
sforzandosi
sforzato
sforzi
sforzo
sfrat
sfratta
sfratto
sfraveca
sfreggio
sfregio
sfrenato
sfrunnate
sfuca
sfugge
sfuggita
sfugliatella
sfugliatelle
sfumature
sfuorge
sfuorgio
sfurcato
sfurtunata
sfurtunate
sfurtunato
sgabelletto
sgabello
sgangheratamente
sgarra
sgarrata
sgarre
sgarro
sge
sgesui
sghembo
sgherri
sgherro
sghizze
sgombrate
sgomenta
sgomento
sgranati
sgratetudene
sgrato
sguaiata
sguaiato
sguardi
sguardo
sguattero
sgueglia
sguessa
sguezia
sgui
sguiglia
sguigliare
sguizzera
sguizzero
sh
shades
shalom
sharon
she
shiamma
shiamme
shianche
shianco
shiato
shield
shiflett
shin
shinbun
shinji
shiomara
shioravante
shiore
shiorenza
shioshiare
shiumme
shiummo
shiure
sho
short
shoten
show
showgirl
showitem
si
sia
siam
siamo
siani
siano
siate
sic
sica
sicario
sicarrette
sicch
sicche
sicco
siccome
siccomme
sicilia
siciliana
siciliane
siciliano
sicilie
sico
sicommo
sicond
siconda
sicondo
siconn
siconna
siconne
siconno
sicuente
siculo
sicundigliano
sicunn
sicunna
sicunno
sicura
sicuramente
sicure
sicurezza
sicuro
sicut
side
sidece
sidney
sie
siecolo
siecule
sieculo
siede
siedi
siedono
siegue
siempre
siena
sieno
sient
siente
sienteme
sierpe
sierra
sierve
siesi
siesto
siete
sig
sigaretta
sigarette
sigaro
sigillo
sigla
sigmund
sign
signaje
signala
signale
signato
signe
signifeca
significa
significare
significate
significato
signo
signor
signora
signore
signori
signoria
signorina
signorine
signorino
signura
signure
signuri
signurina
signurine
signurino
sigoo
siguo
sii
siilo
sila
silans
sile
silenzio
silenziosa
silenziosamente
silenzioso
silla
sillaba
sillabe
siloca
silvana
silvia
silvio
sim
simbe
simbolo
simbule
simbulo
simele
simil
simile
simili
similmente
simme
simmele
simmelo
simmo
simmulo
simo
simon
simone
simonelli
simpatia
simpatica
simpatico
simpaticona
simpaticone
simulando
simultaneamente
sin
sinai
sinatra
sinc
sincera
sinceramente
sincerita
sincero
sindaco
sine
sinfonia
sing
singalese
singapore
singhe
singhiozza
singhiozzando
singhiozzare
singhiozzi
singhiozzo
singolare
singole
singolo
singulo
singulti
sini
sinistra
sinistro
sinnaco
sinneco
sinno
sino
sinottico
sintassi
sio
sion
sipario
sir
siracusa
sire
sirece
sirena
siria
sirignano
siro
sisca
sische
sisco
sisi
sisina
sissanta
sissantase
sissignore
sistema
sistemateca
sisteme
sistima
sistimato
sisto
sita
site
siti
sitio
sito
sitta
sittanta
sittantase
sittore
situa
situata
situate
situato
situazione
situazzione
siviglia
sivo
sj
sk
ski
sky
sl
sla
slancia
slanciandosi
slancio
slato
slatte
slava
slave
slavo
sle
slesso
slo
slovachia
slovenia
sloveno
sm
sma
smafara
smaltimento
smania
smanie
smargiassa
smargiasse
smargiassi
smargiasso
smarrita
smarrito
smauto
smentire
smercio
smerza
smette
smiccia
smicciaje
smith
smorfia
smorfie
smorfiosa
smorza
smove
smovere
sn
so
soa
soave
sobbalza
soccavo
soccede
soccedere
soccer
soccesse
socchiude
socchiusa
soccia
socciesse
socciesso
soccorre
soccorrere
soccorso
soccurzo
soci
social
sociale
sociali
societa
society
socio
socrate
soddisfatta
soddisfatto
soddisfazione
sodisfazione
sodo
sodore
soe
sof
sofferente
sofferma
soffermandosi
soffermano
sofferto
soffia
soffio
soffitto
soffoca
soffocare
soffocata
soffre
soffri
soffrire
soffro
sofia
software
sogg
soggette
soggetti
soggetto
soggezione
sogghignando
soggiunge
soggiungeva
soggiunse
soglia
sognando
sogni
sogno
soi
soia
soie
soj
soja
soje
sojo
sol
sola
solachianiello
solamente
solanaceae
solare
soldati
soldato
solde
soldi
soldo
sole
solea
solenne
soleta
soletamente
solete
soleto
soleva
soli
solimena
solita
solitamente
solitario
solitarius
solite
soliti
solito
sollecita
sollecitamente
sollecitudine
solleva
sollevare
sollevato
sollievo
solo
solofra
soltanto
som
some
somiglianza
somma
sommaria
somme
sommessamente
sommesso
sommiero
sommissione
sommo
son
sona
sonagli
sonano
sonare
sonava
sonc
sonco
sonda
sonde
sondrio
sone
sonetti
sonetto
song
songh
songhe
songo
sonico
soniette
sonna
sonne
sonno
sono
sonora
sonoro
sony
soo
soperbia
sophia
sopierchio
sopite
soppigno
sopportare
soppressa
sopr
sopra
soprabitino
soprabito
sopraggiunge
sopraintendente
soprannome
soprannominato
soprannomme
soprano
soprassalto
soprattutto
sopratutto
soprintendente
sor
sora
sorbettaro
sorbetteria
sorca
sorchia
sorda
sordamente
sordate
sordato
sorde
sordi
sordo
sore
sorece
sorella
sorelle
sorema
soreme
soreta
sorge
soria
soriano
sorprende
sorprendente
sorprendere
sorpresa
sorprese
sorpresi
sorpreso
sorregge
sorrejere
sorrentino
sorrento
sorride
sorridendo
sorridente
sorridere
sorriento
sorriesseto
sorriso
sorta
sorte
sorti
sose
sosere
soso
sospesa
sospetta
sospettare
sospetto
sospettosa
sospettoso
sospira
sospirando
sospiranno
sospire
sospiri
sospiro
sossio
sosta
sostanza
sostanze
sostene
sostenendola
sostengo
sostenuta
sostiene
sott
sotta
sottana
sottaterra
sottavoce
sotte
sottile
sotto
sottospecie
sottostante
sottovoce
sottrarsi
sound
south
soverchio
sovieteca
sovietica
sovrano
sp
spa
spacca
spaccalegna
spaccata
spacco
space
spada
spade
spaghetti
spagliocca
spagna
spagnola
spagnoli
spagnolo
spagnuola
spagnuole
spagnuoli
spagnuolo
spalanca
spalancati
spalla
spalle
spallera
spalliera
spalline
spallucce
spallucciando
spamfio
spampanata
spanne
spannemie
spannere
spannette
spannuto
spantato
spanteca
spantecare
spantecato
spantecava
spanteco
spanto
spaparanza
spaparanzate
spara
sparafonna
sparagna
sparagno
sparaie
sparaje
sparano
sparata
sparate
sparato
sparatore
spare
sparette
spari
sparisce
spariscono
sparito
sparmata
sparo
sparone
sparpetuo
sparsa
sparse
sparsi
spartacus
spartata
sparte
sparteno
spartenza
spartere
spartette
sparteva
sparti
spartimmo
spartire
spartuta
spartute
spartuto
sparze
spasa
spase
spaseme
spasemo
spasiano
spasimante
spasimo
spasmodico
spassa
spassatiempo
spassava
spasse
spasso
spata
spate
spatella
spatone
spatriate
spaventa
spaventata
spaventate
spaventato
spaventevole
spavento
spaventuso
spaviento
spaziale
spazio
spazziale
spazzio
spazzola
spe
speaker
speccecata
specchio
speci
specia
special
speciale
specialita
specialme
specialmente
specie
specifeco
specifica
specifico
spectrometer
speculazione
spedale
spedizzione
spegne
spele
spencer
speniello
spenne
spennere
spenta
spento
spera
sperammo
speranno
speranza
speranze
speranzella
sperare
sperate
sperato
sperava
speravo
spercia
sperde
sperduta
sperdute
sperduto
speretillo
speriamo
sperienza
sperienzia
sperimentale
spero
sperone
sperta
spertosare
speruta
speruto
spes
spesa
spese
spesse
spesso
spessore
spetale
spetta
spettacolo
spettaculare
spettacule
spettaculo
spettano
spettatore
spettava
spez
spezia
speziale
spezie
spezza
spezzata
spezzate
spezzato
spezziale
spi
spia
spiaciuta
spiagge
spiaggia
spiando
spianno
spiantato
spiare
spiato
spicca
spicce
spiccecato
spiccia
spicciate
spiccicata
spiccicato
spiccio
spiche
spicialmente
spie
spieca
spieco
spiega
spiegammoce
spiegando
spiegare
spiegate
spiegateve
spiegatevi
spiegato
spiego
spienne
spierte
spierto
spierzo
spigna
spila
spin
spina
spine
spinello
spingardo
spinge
spingendolo
spingere
spingole
spingule
spinta
spinto
spintone
spio
spioncino
spione
spira
spirato
spirete
spireto
spiriti
spirito
spiritosa
spiritu
spirituale
spiritui
spise
spiso
spiss
spisse
spisso
spitale
spite
spito
splendore
sploratore
spo
spoglia
spogliata
spogliate
spoglie
spogna
sponna
sponne
sponta
spontaneamente
spontare
sporca
sporchia
sporco
sporge
sport
sporta
sportello
sporting
sportiva
sportive
sportivo
sposa
sposaje
sposalizio
sposano
sposar
sposare
sposarla
sposarmi
sposata
sposate
sposato
sposava
spose
sposella
sposera
sposi
sposina
sposo
spotestate
spotestato
spr
spremmuto
spressione
sprezzante
sproposeto
spropositi
sproposito
sproviero
sprubecato
spruoccolo
spuglia
spugliata
spugna
spunta
spuntaniamente
spuntatura
spunto
spuo
spurtiello
spurtivo
spus
spusa
spusaie
spusaje
spusarrisse
spusata
spusate
spusato
spusava
spuse
spusta
spustaje
spustato
sputa
sputato
sputazza
sputo
squadra
squadre
squaglia
squagliata
squagliate
squagliato
squarta
squase
squatra
squatre
squatrone
squilla
squisita
sr
sri
ss
ssa
ssabato
ssacche
ssaccio
ssaie
ssaje
ssale
ssalute
ssanno
ssano
ssape
ssapeva
ssapevo
ssapite
ssarde
ssarno
ssate
ssc
sse
sseca
sseche
sseje
ssele
ssema
sseme
ssemmente
ssemo
ssempe
ssene
sseno
ssente
ssenti
ssentire
ssento
ssenza
ssera
ssere
sserve
sservirve
ssete
ssette
sseve
ssi
ssia
ssiente
ssignifica
ssigno
ssignore
ssimmo
ssimpatico
ssion
ssite
sso
ssoleto
ssonco
ssora
ssore
ssorema
ssorta
ssotto
ssu
ssuccieso
ssucciesso
ssud
ssulo
ssuonno
st
sta
stab
stabbele
stabbelette
stabbia
stabia
stabiae
stabili
stabilimento
stabilire
stabilita
stabilito
stacca
staccano
staccato
stace
stadio
staff
staffa
staggiona
staggione
staggioni
staggiune
stagione
staglio
stagna
stagno
stai
staie
staio
staj
staje
stale
stalla
stalle
stalo
stamattina
stambugio
stamm
stammatina
stamme
stammo
stampa
stampata
stampate
stampato
stampatore
stampo
stan
stanca
stancamente
stanche
stanchezza
stanco
stand
standard
stanfelle
stanislao
stann
stanne
stanno
stanotte
stante
stanza
stanze
stanzetta
stanzia
stanzino
star
stara
starace
stare
starme
starnine
starnino
starra
starraggio
starraie
starranno
starria
start
stasera
stat
stata
statale
state
stateme
stateve
statevi
stati
statistiche
stato
statoa
statola
statt
statte
statua
statue
statuetta
statunitense
statura
status
statuto
stava
stavamo
stavano
stavate
stavo
stavolta
stavota
stazione
stazzione
stazziune
ste
stea
steamo
steano
steca
steco
steele
stefan
stefani
stefanino
stefano
steinhaus
stella
stelle
stemma
stende
stendendo
stenne
stennenno
stennere
stennette
stenno
steno
stenta
stentata
stentato
stente
stenti
stentine
stento
stephen
sternuto
stesa
stese
stess
stessa
stesse
stessero
stessi
stesso
stete
stette
stettero
stev
steva
stevamo
stevano
steve
steveme
stevemo
steven
stevene
steveno
stevo
sti
stia
stiamo
stiano
stienne
stiente
stiento
stile
stilo
stima
stimate
stimato
stimma
stimmolo
stimo
stipa
stipata
stipate
stipato
stipite
stipiti
stipo
stira
stirare
stirate
stiratrice
stise
stiso
stissa
stisse
stisso
stiste
stivale
stivali
stive
stiveve
stizza
stizzita
sto
stoccata
stocco
stoffa
stoffe
stoiavucco
stola
stole
stomaco
stommaco
stommeco
stona
stonato
stonco
stone
stong
stongh
stongo
stono
stop
stopore
stoppa
stoppafatto
stordire
stordito
storduto
storeca
storeco
storia
storica
storicamente
storice
storiche
storico
storie
stories
storiografia
storm
storta
storte
story
stoviglie
str
stra
stracce
straccia
stracciata
stracciate
stracciato
straccio
straccione
stracco
stracqua
stracquato
stracque
stracquo
strada
strade
stragge
strana
stranamente
strane
straniera
straniere
stranieri
straniero
stranio
strano
straordinario
strappa
strappare
strascicante
strascina
strascinare
strascino
strasecolare
strata
strate
strato
strausberg
stravagante
stravede
strazia
straziante
strazie
strazio
strazione
stre
street
strega
stregne
stregnere
stregneva
stregno
strellaje
strellanno
strenga
strenta
streppegna
streppegne
stretta
strettamente
strette
stretti
strettissimo
stretto
streverio
stri
striano
strida
striglia
strignette
strilla
strillanno
strillano
strillare
strillava
strille
strillo
stringe
stringendo
stringendogli
stringendola
stringono
strinto
strisce
striscia
stritto
strizzando
stro
stromiento
strommiento
stropiccia
stropicciandosi
strozza
strozzo
struffule
strumenti
strumento
strumie
strumiente
strumiento
strunzo
strutta
strutte
strutto
struttura
strutture
stu
stuart
stucco
stude
studente
studi
studia
studiaje
studiare
studiata
studiato
studie
studiente
studies
studio
studiuse
study
stufa
stufato
stunato
stuorte
stuorto
stupida
stupido
stupito
stupore
stura
sturente
sturia
sturiaje
sturiato
sturie
sturiente
sturio
sturiose
sturioso
sturzellato
stuta
stutare
stutata
stutato
style
su
sua
sub
subbeto
subbito
subeto
subette
subitamente
subitaneo
subite
subito
sublime
subsp
succe
succede
succedenno
succedera
succedere
succedesse
succedette
succedono
succeduto
succere
success
successe
successi
successione
successiva
successivamente
successive
successivo
successo
successore
succie
succiese
succieso
succiesse
succiesso
succita
suche
suciale
sucieta
sud
suda
sudafrica
sudan
sudato
sudd
suddame
sudde
suddetta
suddetti
suddetto
suddisfazione
sudore
sudori
sue
suez
sufferto
suffraganea
suffragio
suffrenno
suffri
sufi
sufia
suggerisce
suggeritore
suggetta
suggetto
sugghia
suggiale
suggita
suggitta
sugli
sui
suicida
suie
suio
suis
suja
suje
sujo
sul
sula
sulagna
sulame
sulament
sulamente
sulare
suldate
suldato
sule
sulitario
sull
sulla
sulle
sullo
sulo
sultano
sultanto
sum
summo
summonte
sun
suna
sunanno
sunata
sunate
sunato
sunatore
sunature
sunava
sunette
sunna
sunnaie
sunnanno
sunnata
sunnate
sunnato
sunnavo
sunnu
suo
suocce
suocera
suocero
suoi
suoie
suoio
suoja
suoje
suojo
suol
suola
suolo
suon
suona
suonano
suonare
suonatore
suonatori
suone
suoni
suonne
suonno
suono
suora
suore
suorvo
supe
super
supera
superba
superbia
superbo
supercoppa
supercoppe
superficie
superiore
superiori
superiorita
supervisione
supierchio
supina
suppl
supplemento
supplice
supplichevole
supplico
supporto
suppreche
suppurta
supra
supraffigia
suprafiggia
suprafiggie
suprema
supremo
sur
surco
surdate
surdato
surde
surdo
surece
surge
surgente
surice
surpresa
surrentina
surrientina
surriento
surriso
surtanto
surveyor
surviglianza
surzo
sus
susa
susan
susanna
susete
susite
suso
suspetta
suspetto
suspira
suspiranno
suspirata
suspirava
suspire
suspiro
sussiego
sussistenza
susso
sussulta
sussultando
sussulto
sustanza
sustegno
susuto
sutt
suttile
suvero
suvrane
suvrano
sv
svariate
sve
svedese
sveglia
svegliandosi
sveltamente
svelto
sventura
sventurata
sventurati
sventurato
svenuta
svenuto
svergognato
sverigetopplistan
svevia
svezia
svg
sviene
sviluppa
sviluppata
sviluppate
sviluppato
sviluppo
svincola
svincolandosi
svincolarsi
sviscerato
svizzera
svizzero
svolge
svolto
sylvia
system
t
ta
tabaccheria
tabacchiera
tabacco
tabbelite
tabernaria
tablet
tac
tacca
taccariello
taccia
taccio
tacciono
tacco
tace
tacere
tacete
taceva
taci
tacite
taddeo
tadeo
tafanario
taggione
taglia
tagliaferri
tagliaie
tagliaje
tagliamento
tagliamonte
tagliano
tagliare
tagliarelle
tagliata
tagliate
tagliato
tagliatura
tagliava
taglio
tagliola
takeda
tal
tala
tale
talento
tali
talia
talian
taliana
taliane
taliani
taliano
talk
tallune
talmente
taluno
taluorno
talvolta
tam
tamburo
tame
tammare
tammaro
tammuro
tammurriata
tammurro
tan
tana
tanaro
tand
tanda
tande
tane
tango
tanie
taniello
tann
tanne
tanno
tano
tant
tanta
tante
tanti
tantillo
tantino
tanto
tantu
tanucci
tanza
tao
tappa
tappe
tappeto
tar
tara
taralle
tarallucce
tarante
tarantella
taranto
tard
tarda
tarde
tardi
tardo
tare
targa
tari
tarie
tarn
taro
tarramute
tartaglia
tartaro
tasca
tasche
tassa
tasse
tasso
tassonomia
tasta
tastando
taste
tasto
tat
tata
tatangelo
tate
tatillo
tato
tatti
tatto
taule
tav
tavassi
tave
taverna
tavernaro
taverne
tavo
tavola
tavolato
tavole
tavoletta
tavolinetto
tavolino
tavolo
tavula
tavule
tavulino
tavuto
taylor
tazza
tazze
tazzulella
tc
te
tea
team
teano
teatr
teatrale
teatri
teatrino
teatro
teatroaniello
teatrosalvatore
tebe
teca
teccote
tece
teche
tecneca
tecneche
tecnica
tecniche
tecnolo
teco
tede
tedesca
tedesche
tedeschi
tedesco
teduccio
tee
tegame
teglia
tegne
tegnere
teh
tei
teide
tel
tela
telaro
tele
telef
telefilm
telefono
telegrafo
telegramma
telenovella
telenuvela
teletta
televesione
televisione
televisiva
televisivo
tell
tella
telo
telone
tema
tembrate
tembratura
teme
temerario
temere
temete
temi
temistocle
temmone
temmoniero
temo
temperate
temperato
temperatura
temperature
tempesta
tempeste
tempi
tempie
tempio
template
tempo
temporale
tempre
ten
tena
tenaglie
tenarra
tenco
tende
tendenza
tene
tenea
teneano
tenebre
tenendo
tenendola
tenene
tenenno
teneno
tenente
teneo
tener
tenera
teneramente
tenere
tenerezza
tenerife
tenerla
tenero
tenesse
tenete
tenette
teneva
tenevano
teneve
teneveno
tenevo
teng
tenga
tengo
tengono
teni
tenile
tenimme
tenimmo
tenisse
tenisseve
tenite
tenitelo
tenive
teniveve
tenna
tenne
tennera
tennere
tennessee
tennista
tenno
teno
tenono
tenore
tensore
tenta
tentaje
tentando
tentare
tentata
tentate
tentativo
tentato
tentava
tentazione
tentenna
tentennando
tentillo
tento
tentoni
tenue
tenuta
tenute
tenuto
teo
teoco
teodoro
teodosio
teoria
teorico
tequixquiac
ter
tera
teramo
teraturo
tere
teresa
teresella
teresi
teresina
termale
terme
termene
terminal
termine
termini
termino
terni
terno
tero
terr
terra
terracotta
terraferma
terragno
terramoto
terranova
terrazza
terrazzo
terre
terremoto
terrena
terreno
terrestre
terreteriale
terreto
terretuorio
terribbele
terribele
terribile
terriene
terrieno
terriestre
terrine
territoriale
territorie
territorio
territuorio
territuriale
terror
terrore
terz
terza
terze
terzi
terzigno
terzo
tes
tese
tesi
teso
tesore
tesori
tesoro
tess
tessa
tesse
tessenno
tessera
tessute
tessuto
test
testa
testamento
testamiento
teste
testemmonie
testemmonio
testi
testimone
testimoni
testimonianza
testimonianze
testimunianza
testo
tet
tete
tetella
teti
teto
tetraloggia
tetro
tetsu
tetta
tetto
teuria
teurie
teve
tevere
tezierate
tezzone
tf
tg
th
tha
thailandese
thailandia
thali
that
the
theatrical
theremin
they
this
thomas
three
thrice
ti
tia
tiana
tiane
tiano
tiatrale
tiatre
tiatro
tib
tiburzio
tic
tica
ticino
tico
tie
tiella
tieme
tiemp
tiempe
tiempo
tien
tiene
tienelo
tieneme
tienete
tieni
tienipo
tiennero
tiente
tiermene
tierra
tierza
tierze
tierzo
tieste
tiesto
tiev
tifose
tifuse
tigl
tiglio
tigra
tigre
til
tim
tima
time
times
timida
timidamente
timido
timor
timore
timoteo
tina
tine
tino
tintinnio
tintore
tintoria
tio
tip
tipe
tipi
tipica
tipicamente
tipice
tipiche
tipico
tipo
tipografia
tipografica
tipografico
tir
tira
tiraie
tiraje
tirando
tirandolo
tiranna
tiranno
tirano
tirare
tirata
tirate
tirato
tirava
tiravano
tire
tiretto
tiri
tiriti
tiritommola
tiro
tirolo
tirreni
tirreno
tit
tite
titel
titina
tititi
tito
titolato
titole
titoli
titolo
titta
tittariello
titte
tittone
titule
titulo
tiuria
tiva
tiziano
tizio
tl
tm
tn
to
toa
tocca
toccaje
toccandosi
toccanno
toccano
toccare
toccata
toccate
toccato
toccava
tocchi
tocco
today
todi
todisco
toe
toga
toglie
togliendo
togliendosi
togliere
toi
toia
toie
toja
toje
tokuma
tokyo
toledo
tolentino
toleto
toletta
tolgono
tolla
tolleranza
tolomeo
tolta
tolto
tom
tomba
tombe
tombola
tome
tomma
tommaso
tommola
tommy
tomo
tondo
toni
tonino
tonna
tonne
tonnina
tonno
tono
tony
too
top
toponimo
toppa
tor
tora
torce
torcia
tore
torelli
torinese
torino
torio
tormenta
tormentato
tormento
tormentosa
tormiente
tormiento
torn
torna
tornaie
tornaje
tornammo
tornando
tornanno
tornano
tornare
tornaro
tornarra
tornasse
tornata
tornate
tornatenne
tornato
tornava
torne
torneo
tornese
tornise
torno
toro
toroc
torquato
torr
torra
torre
torres
torri
torricella
torrione
torroncine
torroncino
torrone
torta
tortanielle
tortano
torte
torto
tortora
torvo
torza
torze
tos
tosa
toscana
toscane
toscani
toscano
tossa
tosse
tossire
tossisce
tosta
toste
tosti
tosto
tot
tota
totale
toto
totonno
totore
tou
tour
touring
tovaglia
tovagliolo
tovagliulo
tovagliuolo
tozza
tozzo
tp
tr
tra
traballa
traballando
trabzonspor
tracce
tracche
traccia
tracia
track
trad
trada
trademiente
trademiento
tradetora
tradetore
tradi
tradimento
tradisce
tradita
tradito
traditore
tradizionale
tradizione
tradizioni
tradiziunale
tradizziona
tradizzionale
tradizzione
tradizziunale
tradotto
traduce
traduta
traduto
traduttore
traduzione
traduzzione
trae
traffeco
traffico
trafoche
tragedia
tragica
tragico
traiano
tralia
tralle
tram
trama
trame
tramente
tramite
tramma
tramme
trammeto
trammo
tramonta
tramonto
tramortito
tramunte
trani
tranne
tranquilla
tranquillita
tranquillo
trapani
trapassate
trappole
trarimento
traritore
tras
trasc
trascina
trascrivere
trascurze
trascurzo
trase
trasenno
traseno
trasere
trasesse
trasetenne
trasette
trasettero
traseva
trasfurmato
trasi
trasimmo
trasire
trasite
trasitevenne
trasmette
trasmisa
trasmissione
traso
trasparente
trasporta
trasportata
trasporto
traspuorte
traspuorto
trastullo
trasuta
trasute
trasuto
tratanto
trate
trative
tratta
trattaje
trattamiento
trattandosi
trattannose
trattare
trattata
trattate
trattati
trattato
trattava
tratte
trattene
trattenemiente
trattenemiento
trattenendo
trattenendola
trattenendolo
trattenere
trattengo
trattengono
trattenuta
trattenuto
tratti
trattiene
tratto
trattore
trattoria
tratturia
travacca
travaglie
travaglio
travato
trave
traversi
traverso
travo
tre
trebisonda
treccalle
treccani
trecento
treciento
tredici
treglie
treie
treje
trema
tremando
tremante
tremenna
tremie
tremila
tremiti
tremito
tremma
tremmaje
tremmanno
tremmare
tremmava
tremmeno
tremmentina
tremmo
tremmoliccio
tremore
treno
trent
trenta
trentase
trentasette
trentina
trentino
trento
trentuno
trepecale
trepidante
tres
tresore
tresoro
treva
trevate
trevi
treviso
trezza
trezze
tri
tria
triale
triangolo
triate
triato
triatrale
triatro
tribbu
tribbunale
tribu
tribunale
tributo
trica
tricche
tridece
triemme
trien
trieno
trieste
trinita
trionfante
trionfo
trippa
trirece
trista
triste
tristezza
tristi
tristo
tritt
tritte
triunfo
triviale
trivolo
tro
trocchia
troccola
trofeo
troia
troisi
troja
trojane
trojano
tromba
trombetta
trombone
trommetta
trona
tronante
tronco
trono
tronto
tropeja
tropicale
tropp
troppa
troppe
troppo
trov
trova
trovai
trovaie
trovaje
trovammo
trovando
trovandosi
trovanno
trovannose
trovano
trovar
trovare
trovaro
trovarrai
trovarraje
trovarrite
trovasi
trovasse
trovata
trovate
trovati
trovato
trovatore
trovatose
trovava
trovavasi
trove
troverete
trovi
troviamo
trovo
tru
trua
truaje
truate
truato
trucco
truffa
trui
truita
trummetta
trunco
truo
truone
truono
truopp
truoppe
truova
truovano
truove
trupp
truppa
truppe
truva
truvaie
truvaje
truvajeno
truvammo
truvanne
truvanno
truvasse
truvata
truvate
truvato
truvava
tsurumaki
tt
tta
ttale
ttaliano
ttamijnd
ttanno
ttant
ttanta
ttante
ttanto
ttardo
ttare
ttate
ttavola
tte
ttece
tteche
ttele
tteme
ttemo
ttenco
ttene
tteneno
tteneva
ttengo
ttenite
ttenive
tteno
ttera
ttere
ttero
tterra
tterre
ttesta
ttete
tti
tticche
ttico
ttiempo
ttiene
tto
ttola
ttolo
ttorna
ttr
ttra
ttramente
ttrase
ttrasi
ttrasuto
ttre
ttreje
ttrezze
ttroppo
ttrova
ttu
tturreno
ttutt
ttutta
ttutte
ttutto
tu
tua
tubbo
tucca
tuccata
tuccate
tudie
tue
tufo
tui
tuia
tuie
tuio
tujo
tuledo
tuleto
tuletta
tulio
tulle
tulli
tullio
tulo
tum
tummariello
tumulto
tunisia
tunn
tunne
tunno
tuo
tuocche
tuocco
tuoi
tuoie
tuoje
tuona
tuonimene
tuono
tuorne
tuorno
tuorto
tuos
tuossece
tuosseco
tuoste
tuosto
tuozzo
tuppe
tuppo
tur
tura
turandole
turba
turbamento
turbata
turbato
turca
turche
turchi
turchia
turco
turdu
turdus
ture
turesca
turesco
turi
turillo
turino
turismo
turiste
turisteca
turisteco
turistica
turmenta
turmiente
turmiento
turna
turnaie
turnaje
turnammo
turnarra
turnasse
turnata
turnate
turnato
turnava
turne
turno
turreno
turretta
turriacale
turtaniello
turzo
tuscana
tuscane
tuscano
tut
tuta
tutale
tutela
tutore
tutt
tutta
tuttaquanta
tuttavia
tuttavo
tuttavota
tutte
tuttecosa
tuttecose
tuttequante
tutti
tutto
tuttora
tuttu
tuttuquante
tuttuquanto
tuzzo
tuzzulea
tuzzuliato
tv
two
txt
tə
u
ua
uaglione
uajona
uajone
uas
ub
ubbidirvi
ubbriaco
ubi
ubriaco
ucalue
uccelli
uccello
ucchiarone
uccidentale
uccisa
uccisi
ucciso
uce
ucraina
ucraino
ude
udendo
udienza
udine
udire
udite
udito
udo
ue
uefa
uerco
uerra
uerre
uertografije
uff
uffa
uffeciale
uffici
ufficiale
ufficiali
ufficialmente
ufficie
ufficio
ufi
uggetto
uggiette
uggite
ugo
uguaglianza
uguale
uguali
uh
uhi
ui
uia
uie
uje
uk
ul
ula
ulanna
ulannese
ule
uli
ulisse
ulive
ulivo
ulla
ulle
ullero
ulo
ulteriore
ultima
ultime
ultimi
ultimo
ultra
um
uma
umana
umane
umani
umanita
umano
umberto
umbria
umile
umilissimo
umilmente
umilta
ummedeta
umore
un
una
unale
und
under
une
uneca
uneco
unesco
uneta
uneverzeta
ungarese
ungaria
ungherese
ungheria
unghie
uni
unica
unicamente
unici
unico
uniforme
unione
unita
unite
united
uniti
unito
universal
universale
universe
universidade
universita
university
univerzita
unneca
unnece
unneco
uno
unto
unu
uo
uoccbie
uocchie
uocchio
uoco
uogl
uogle
uoglie
uoglio
uoje
uomene
uomini
uommene
uomo
uon
uopo
uorche
uorco
uorgio
uorie
uoro
uorte
uorto
uosso
uovo
up
upon
ur
ura
uraccio
uragano
urale
urano
urbana
urbane
urbano
urbino
urdema
urdeme
urdemo
urdenaje
urdene
urdeno
urdinato
urdine
ure
urganisme
urgenza
uri
urientale
uriente
urigginale
url
urla
urlando
urli
urlo
uro
urss
urta
urtema
urtemo
urto
urtuhrafie
uru
uruguay
urze
urzo
us
usa
usano
usanza
usare
usata
usate
usato
uscendo
usci
usciamo
uscie
usciere
uscieri
uscio
usciola
uscir
uscire
uscita
uscite
usciti
uscito
use
usi
uso
ut
uta
utc
ute
utele
utema
uteme
utemo
utensili
utente
utile
uto
utre
utta
uttajano
uttanta
uttantase
uttava
uttavo
uu
uva
uza
v
va
vabbe
vacante
vacanza
vacanze
vacca
vaccaro
vacche
vace
vacile
vacilla
vacino
vaco
vacule
vada
vado
vaga
vagabondo
vaglia
vaglio
vagno
vago
vai
vaiassa
vaiasse
vaiasseide
vaie
vajassa
vaje
vajuolo
val
valanza
vale
valea
valena
valencia
valente
valentia
valentina
valentino
valerio
valestra
valeva
valiente
valigia
vall
valla
vallata
valle
vallese
vallo
vallone
vallune
valor
valore
valure
valverde
valzer
vammace
vammana
vamo
vampa
van
vana
vane
vangelo
vann
vanne
vanno
vano
vanoni
vanta
vantaggio
vantaggioso
vanto
vanvitelli
vanzina
vao
vapore
var
vara
varca
varche
varchetella
varchetta
varda
vardiello
vare
varese
vari
varia
variande
variante
varianti
variazzione
varie
varieta
vario
varra
varriale
varriciello
varrile
varsavia
varva
varvajanne
varviere
varviero
vas
vasa
vasaie
vasaje
vasanno
vasare
vasata
vasate
vasato
vasca
vasce
vascia
vascie
vascielle
vasciello
vascio
vasco
vase
vasenicola
vasi
vasillo
vasinico
vaso
vassallo
vassoio
vasta
vastase
vasto
vastolla
vat
vate
vaticano
vatt
vatta
vattaglia
vattaglie
vatte
vattene
vattenne
vattere
vatteva
vatti
vatto
vattuta
vattuto
vava
vave
vavo
vavone
vavosa
vc
ve
vea
vecaria
vecchi
vecchia
vecchiarella
vecchie
vecchietto
vecchiezza
vecchio
vecco
vece
vecienzo
vecin
vecina
vecine
vecino
veco
ved
veda
vedarra
vedarraggio
vedarrai
vedarraie
vedarraje
vedarrimmo
vedarrite
vedde
veddemo
veddero
vede
vedea
vedeano
vedendo
vedendosi
vedenno
vedennola
vedennolo
vedennome
vedennose
vedeno
veder
vedere
vederela
vedereme
vederla
vederlo
vederme
vedermi
vederraje
vederte
vederti
vedervi
vedesi
vedesse
vedete
vedette
vedeva
vedevano
vedevo
vedi
vediamo
vedile
vedimme
vedimmo
vedisse
vediste
vedite
veditela
vedive
vedo
vedola
vedono
vedova
vedovo
vedra
vedrai
vedranno
vedremo
vedrete
vedro
veduta
vedute
veduto
veementemente
veemenza
vega
vegetale
vegetazzione
vegga
veggetale
veggetazione
veggo
veggono
veglia
veglio
vel
vela
velata
vele
velenda
veleno
velenoso
veletta
velia
vellicolo
velluto
velo
veloce
velocemente
velocita
velume
vemo
ven
vena
venarra
venarranno
venato
venca
vence
vencenno
vencere
vencette
venciuto
venco
vendemmia
vendere
vendetta
vendica
vendita
venditore
venditori
vene
venea
venendo
venene
venenno
veneno
veneranda
venerato
venerdi
venere
venesse
venessero
veneta
veneto
venette
venetteno
venettero
veneva
venevano
venezia
veneziano
venezuela
venga
vengano
venge
vengo
vengono
veni
venia
veniamo
venie
venimmo
venino
venir
venire
venisse
veniste
venite
venitevenne
veniva
venivano
venne
venneca
vennenno
venneno
vennere
vennero
venneta
vennetta
vennette
venneva
vennevano
venni
vennite
venno
vennono
vennuta
vennute
vennuto
veno
venosa
vent
venta
ventaglio
venti
ventina
ventiquattro
ventisette
vento
ventose
ventre
ventresca
ventura
venturo
venuta
venute
venuti
venuto
venze
veo
ver
vera
verace
veramente
veranda
verbano
verbi
verbo
verborazia
vercellese
vercelli
verd
verde
verdi
verdura
verdure
vere
verecondia
vereddio
verette
verga
vergene
vergilejo
vergileo
vergilio
vergine
vergini
vergogna
vergognosa
veri
verifica
veris
verissimo
verita
verite
verlag
verme
vermenara
verna
vernacchie
vernacchio
vernata
vero
verona
verone
veronese
verra
verranno
verremo
verrete
verro
versa
versailles
versato
versi
version
versione
verso
vertebrate
vertigini
vertoluse
vertoluso
vertu
vertute
veru
veruna
veruto
verziona
verzione
verzo
vescovi
vescovo
vescuvato
vescuvo
vese
vesione
vespa
vespero
vespro
vessica
vessiche
vesta
vestale
veste
vestenno
vestere
vestette
vesteva
vesti
vestire
vestita
vestite
vestiti
vestito
vesto
vestuta
vestute
vestuto
vesuviana
vesuviane
vesuviano
vesuvio
vet
veta
vete
vetere
vetiello
veto
vetrata
vetrate
vetri
vetrina
vetrine
vetro
vetta
vette
vetto
vettoria
vettura
vetturino
veve
veveraggio
vevere
vevite
vevo
vevuta
veziuso
vezzarria
vezzeggiandosi
vezzo
vezzosa
vh
vi
via
viagge
viaggia
viaggiato
viaggiatore
viaggio
viale
vian
viano
viare
viario
viata
viate
viato
vibo
vibra
vibrante
vibrare
vic
vicaria
vicce
vicchiare
vicchiarella
vicchiariello
vice
vicenato
vicenda
vicende
vicendevolmente
vicenne
vicentino
vicenza
vicenzella
vicenzino
vicere
vicerre
viche
vicie
vicienzo
vicin
vicina
vicinanza
vicinanze
vicinato
vicine
vicini
vicino
vico
vicoli
vicolo
victor
victoria
vicule
vida
vidde
vide
video
videoclip
videogames
vidi
vidovo
vie
viecchia
viecchie
viecchio
vien
viene
vienece
vienela
vieneme
vienetenne
vieni
vienna
vienne
viente
viento
vieppiu
vierbo
vierde
vierme
viernale
viernari
vierno
vierre
vierze
vierzo
vieste
vietnam
vietri
viev
viewed
vige
vigilanza
vigile
vigilia
viglietto
vigna
vigne
vignola
vih
vii
viii
viije
vija
vile
vili
villa
villafranca
villagge
villaggio
villana
villanella
villani
villano
villanova
villar
villaricca
ville
villeggiatura
villeru
vilnius
vin
vince
vincenno
vincent
vincenti
vincenzi
vincenzino
vincenzo
vincere
vincette
vinci
vincitore
vinciuta
vinciuto
vine
vineola
vingia
vini
vinne
vino
vinse
vint
vinta
vinte
vintesemo
vinticinche
vintiquatt
vintiquatto
vintise
vintisette
vintitre
vinto
vintuno
vinze
vinzette
vio
viola
viole
violenta
violente
violentemente
violento
violenza
violinista
violino
vipera
vippeto
vira
vire
virg
virgene
virgiliana
virgilio
virginia
virgola
virtu
virtuosa
virtus
virus
vis
viscere
vische
visconti
viscuvato
viseta
visibbele
visibile
visibili
visione
visioni
visita
visitato
visite
visitors
viso
visocchi
visse
vissuto
vista
viste
visti
visto
vistosa
vistose
vistoso
visual
vit
vita
vitale
vitaliano
vite
vitella
viterbo
vitiello
vito
vitrina
vittima
vittime
vitto
vittore
vittoria
vittorie
vittorio
viu
viulante
viulente
viulenza
viv
viva
vivace
vivacita
vivamente
vivara
vive
viveno
vivente
vivere
vivette
viveur
viveva
vivi
viviani
vivo
vivono
viye
viz
vizie
vizio
vizzini
vladimir
vm
vn
vnje
vno
vo
vobis
voblast
voca
vocabolario
vocabolariu
vocabolo
vocale
vocali
vocazione
vocca
vocche
voccola
voccolaro
voccone
voce
vocella
voci
vociferando
vocione
vogl
voglia
vogliamo
voglie
voglio
vogliono
voi
voice
voie
voila
voio
voivodato
voje
vol
vola
volanno
volano
volare
volarria
volato
volava
vole
volea
voleano
volendo
volenno
volentieri
voler
volere
volerne
volesse
volete
volette
voleva
volevano
volevate
volevo
volgar
volgare
volgarmente
volge
volgendosi
volgo
voli
volile
volimmo
volite
volito
volive
voliveve
voll
volla
volle
vollente
volli
volo
volonta
volpe
volse
volta
voltandosi
voltano
voltarsi
volte
volti
volto
volturara
volturno
volume
volumetto
volumi
voluta
volute
voluto
volutta
vomero
vommaro
vommeca
vommero
von
vongola
vongole
vonn
vonne
vonno
vorpa
vorpara
vorpe
vorra
vorrebbe
vorrei
vorreste
vorresti
vorri
vorria
vorriano
vorrisse
vorza
vorzillo
vos
voscaglia
vosche
vosco
vosgi
vosta
voste
vostr
vostra
vostre
vostri
vostro
vot
vota
votaie
votaje
votano
votare
votata
votate
votato
votatose
votava
vote
voti
votiva
voto
votta
votte
votto
vous
voze
vozero
vozza
vozzacchio
vr
vraccia
vraccio
vrache
vranca
vrasiere
vre
vreccia
vregogna
vrenna
vrennaiuolo
vreta
vretagna
vretanneco
vrito
vrociola
vrucculosa
vruo
vruoccole
vt
vu
vuca
vucale
vucchella
vuce
vucella
vue
vufera
vui
vuie
vuio
vuj
vuje
vul
vula
vularra
vularria
vularrisse
vulate
vulava
vulcanica
vule
vulenno
vulesse
vulette
vulev
vuleva
vulevano
vuleveno
vulevo
vulgare
vulgaris
vuli
vulimme
vulimmo
vulisse
vulisseve
vulite
vulive
vuliveve
vullente
vullo
vulo
vulunta
vuluta
vuluto
vunak
vunnella
vuo
vuocchie
vuoi
vuoie
vuoje
vuol
vuole
vuolo
vuommeche
vuosche
vuosco
vuoscoriale
vuoste
vuosto
vuostre
vuostro
vuota
vuoti
vuoto
vurcane
vurcaneca
vurcaneco
vurcano
vurpara
vurpariello
vurpino
vurra
vurri
vurria
vuta
vutata
vutato
vutava
vute
vuto
vutta
vuttanno
vuttata
vuttate
vutte
vv
vvarche
vvarie
vve
vvede
vvene
vvenuto
vverde
vvi
vvia
vvicine
vvide
vvie
vvija
vviole
vvo
vvoce
vvoglio
vvote
vvuie
vvuo
w
wa
wales
walter
want
war
was
washington
water
way
we
wea
web
website
weil
west
weta
what
when
white
who
why
wiki
wikimedia
wikipedia
wikisource
wikispecies
wiktionary
wilhelm
will
william
williams
wilson
wisconsin
with
without
wo
wolf
wolfgang
woman
women
work
works
world
wrestling
wright
wtc
wu
wwf
www
x
xe
xi
xii
xiii
xiv
xix
xv
xvi
xvii
xviii
xx
xxi
xxii
xxiii
xxiv
xxv
xxvi
xxviii
y
ya
yamashita
ye
year
years
yemen
yi
yo
yoi
york
yoshiyuki
you
young
your
yours
youtube
yu
yui
yuie
yuje
z
za
zaccaria
zagarelle
zampa
zampogna
zampogne
zampugnaro
zanne
zantraglia
zappa
zappatore
zar
zara
zardegna
ze
zeca
zecca
zeffunno
zelanda
zelanna
zella
zelo
zennariello
zenzella
zeppa
zeppole
zeppule
zeremonie
zerillo
zero
zerre
zetella
zetelle
zeus
zeza
zezolla
zh
zi
zia
zibetto
zicri
zie
ziemo
zieta
zieto
zimbabwe
zincara
zincaresca
zingara
zingarella
zingaro
zinno
zino
zio
zione
zippo
zirole
zirria
zita
zite
zitella
zitelle
zito
zitta
zitte
zitto
zittu
zizi
zizza
zizze
zo
zodiaco
zoe
zompa
zompanno
zompano
zompo
zona
zone
zongo
zoppa
zoza
zs
zsel
zu
zubba
zuca
zuccaro
zucchero
zuckermann
zuco
zufia
zufola
zum
zumpa
zumpata
zumpe
zumpo
zuoccole
zuoccolo
zuoppo
zuppa
zuppiera
zurfo
zz
zza
zze
zzera
zzi
zzia
zziemo
zzitto
zzo
zzoe
zzona
zzone
{
|
}
~
¡
£
¥
¦
§
©
ª
«
¬
®
°
²
³
´
µ
·
¹
º
»
¿
×
ß
ø
đo
ı
ł
ǝ
ɑ
ɒ
ɔ
ə
ɛ
ɜ
ʃ
ʃə
ʲ
ʿ
ˈ
ˌ
ː
̀
́
̂
̃
̄
̆
̇
̈
̉
̊
̋
̌
̓
̔
̛
̞
̣
̦
̧
̨
̸
͂
α
γ
δ
ε
η
ι
λ
ν
ο
ρ
ς
τ
υ
χ
ω
а
с
ְ
ַ
ָ
ּ
ר
ש
ת
ا
ة
م
و
َ
ُ
ِ
ّ
ٓ
ٔ
थ
द
न
प
म
श
स
ह
ा
ि
े
्
ක
ද
ම
ර
ස
්
ා
ි
ු
ෙ
῾
‎
–
—
―
‘
’
“
”
„
†
•
…
‰
′
″
⁂
⁛
⁠
⁴
⁵
€
™
→
↔
↷
∇
−
③
④
⑦
■
□
►
▼
◆
♀
♂
♦
✓
✴
ⴰ
⺀
⺄
⺆
⺈
⺊
⺌
⺕
⺝
⺸
⺼
⿰
⿱
⿲
⿳
⿴
⿵
⿶
⿷
⿸
⿹
⿺
⿻
、
〈
〉
「
」
『
』
【
】
〜
〢
ぁ
あ
い
う
え
か
き
く
け
さ
し
そ
た
ち
っ
つ
て
と
な
に
の
は
ふ
へ
ま
み
め
も
よ
ら
り
る
を
ん
゙
゚
ァ
ア
ィ
イ
ウ
エ
オ
カ
キ
ク
ケ
コ
サ
シ
ス
セ
ソ
タ
チ
ッ
テ
ト
ナ
ニ
ノ
ハ
ヒ
フ
ヘ
ホ
マ
ミ
ム
メ
モ
ャ
ュ
ユ
ョ
ラ
リ
ル
レ
ロ
ヱ
ヲ
ン
・
ー
㇁
㇂
㇄
㇇
㇈
㇉
㇓
㐁
㐄
㐅
㐌
㐫
㐬
㐭
㐮
㐱
㑒
㒵
㒸
㒼
㓁
㓞
㔾
㕛
㕣
㖾
㘝
㚅
㚇
㚔
㚘
㝉
㝡
㝴
㝵
㞋
㞢
㞷
㠩
㠭
㠯
㡀
㡭
㡿
㢲
㢴
㣇
㣺
㥯
㪅
㫄
㫐
㫒
㫺
㬅
㬎
㬥
㬰
㲋
㳄
㷠
㸒
㸚
㸦
㼌
㼲
㽞
㿟
䀠
䂞
䍃
䏍
䒑
䖍
䖒
䖝
䖵
䙴
䚻
䜌
䝿
䡛
䧹
䪞
一
丁
丂
七
丄
丅
丆
万
丈
三
上
下
丌
不
与
丏
丐
丑
专
且
丕
世
丘
丙
业
东
丞
丢
丣
两
严
並
丨
丩
个
丫
丬
中
丮
丰
丱
串
丵
丶
丷
丸
丹
为
主
丽
丿
乀
乂
乃
久
乆
乇
么
义
之
乌
乍
乎
乏
乐
乑
乔
乖
乗
乘
乙
乚
乛
乜
九
乞
也
习
乡
乳
乾
亀
亅
了
亇
予
争
事
二
亍
于
亏
亐
云
互
亓
五
井
亘
亚
亜
亞
亟
亠
亡
亢
交
亥
亦
产
亨
亩
享
京
亭
亮
亯
亰
亲
亳
亶
亷
人
亻
亼
亾
仁
今
介
仌
从
仐
仑
仒
仓
仕
他
付
仝
代
令
以
任
企
伊
伏
伐
休
会
伯
但
位
何
佘
余
作
佥
使
來
侈
侌
侖
侯
侵
便
保
俞
信
修
倉
倍
候
倠
備
僉
僕
優
儿
兀
允
兂
元
兄
充
兆
兇
先
光
兊
克
兌
免
兑
兒
兓
兔
党
兜
兟
入
全
兩
兪
八
公
六
兮
兰
共
关
兵
其
具
典
兹
兼
冀
冂
冃
冄
内
冈
冉
冊
冋
册
再
冎
冏
冐
冒
冓
冖
冗
冘
军
农
冝
冡
冥
冫
冬
冷
几
凡
凢
凵
凶
凷
凸
凹
出
函
凾
刀
刁
刂
刃
刄
刅
分
切
刍
刑
刕
刖
列
刘
则
初
別
利
别
到
制
刺
則
削
剌
前
剡
剣
剽
劇
劉
力
功
加
劦
助
劫
劳
劵
勃
勇
勉
勒
動
務
勞
勤
勹
勺
勻
勾
勿
匀
匂
包
匆
匈
匊
匋
匍
匕
化
北
匚
匝
匡
匪
匱
匸
匹
区
医
匽
匿
區
十
卂
千
卄
卅
卆
升
午
卉
半
卌
华
卑
卒
卓
单
卖
南
卜
卝
卞
占
卡
卢
卣
卤
卦
卩
卪
卬
卯
印
危
即
却
卵
卷
卸
卻
厂
厃
厄
历
厈
厉
厌
厓
厘
厚
原
厤
厥
厨
厭
厲
厶
厷
厸
去
厼
厽
叀
参
參
叅
又
叉
及
友
双
反
叐
发
叒
叔
叕
取
受
叚
叜
叟
口
古
句
另
叩
只
召
可
台
叱
史
右
叵
号
司
叹
吂
各
吅
合
吉
吊
吋
同
名
后
吏
向
吕
君
吝
吞
否
含
启
吳
吴
吹
吾
呂
呆
呈
告
员
呙
周
命
咅
和
咎
咠
咢
咨
咸
咼
哀
品
哉
員
哥
哲
唐
商
啇
問
啚
啬
啻
善
喜
喬
單
喿
嗇
噩
嚴
囊
囗
囘
囙
囚
四
回
囟
因
囧
囬
困
囱
囷
固
国
圂
圅
國
圍
園
圓
土
圡
圣
圥
在
圭
地
圶
圼
坐
坒
坚
坴
垂
垔
垚
埀
埋
域
埶
執
基
堂
堅
堆
堇
堯
場
塞
墨
壘
士
壬
壯
声
壳
壴
壹
壺
壽
夂
处
夅
夆
备
夊
夋
夌
复
夏
夒
夕
外
夗
夘
多
夜
夢
大
夨
天
太
夫
夬
夭
央
失
夲
头
夷
夸
夹
夻
夾
奂
奄
奇
奈
奉
奎
奏
奐
契
奓
奔
奚
奞
奠
奢
奥
奭
女
奴
奻
好
如
妄
妙
妟
妥
妻
妾
姑
委
姜
威
娄
婁
婴
嬰
嬴
子
孑
孔
孕
孖
字
存
孚
孛
孝
孟
季
孤
学
孫
孱
學
宀
宁
宂
它
宅
宇
守
安
宋
完
宏
宓
宗
官
定
宛
宜
宝
客
宣
室
宮
宰
害
家
容
宾
宿
寄
寅
密
富
寒
察
寧
審
寫
寬
寮
寸
对
寺
寻
寽
対
寿
封
尃
射
将
將
專
尉
尊
尋
尌
對
小
少
尒
尓
尔
尖
尗
尚
尞
尢
尣
尤
尧
尨
尭
就
尸
尹
尺
尻
尼
尽
尾
尿
局
居
屈
屋
屎
屏
屑
展
屖
屚
属
屠
屡
屬
屮
屯
屰
山
屵
屾
岁
岂
岑
岡
岩
岳
岸
峯
島
崇
崑
崔
崖
崙
崩
嵬
嶲
巂
巛
川
州
巟
巠
巢
巤
工
左
巧
巨
巩
巫
差
己
已
巳
巴
巷
巸
巻
巽
巾
巿
帀
市
布
希
帚
帛
帝
带
師
席
帶
常
干
平
年
幵
并
幷
幸
幺
幻
幼
幽
幾
广
広
庄
床
底
店
庚
府
度
庫
庭
庵
庶
康
庸
廉
廌
廛
廣
廩
廴
延
廷
建
廾
廿
开
弁
弃
弄
弇
弋
式
弓
弔
引
弗
弘
弜
弟
弥
弦
弱
張
強
强
彊
彌
彎
彐
彑
当
彔
录
彖
彗
彡
形
彥
彦
彧
彭
彳
役
彼
往
待
律
徒
得
徙
從
復
微
徳
徵
徹
心
忄
必
忌
忍
志
忝
忠
忩
快
念
忽
忿
思
怠
急
怱
恆
恒
恩
恭
息
恵
悉
患
悤
悲
悶
惠
惡
惢
愁
愈
意
愛
感
慈
慧
慮
憂
憲
應
戀
戈
戉
戊
戋
戌
戍
戎
成
我
戒
戔
或
戚
戠
戢
戦
截
戲
戶
户
戹
戼
戾
房
所
扁
扇
手
扌
才
打
托
执
承
折
拉
拜
拾
拿
振
掌
探
推
提
援
摩
擧
支
攴
攵
收
攸
改
放
政
敄
敏
敕
敖
敗
敝
敞
敢
散
敦
敫
敬
数
敷
數
斂
文
斉
斊
斗
斤
斥
斩
斬
斯
新
方
於
施
斿
旁
旋
族
无
旡
既
旣
日
旦
旧
旨
早
旬
旱
旲
时
旾
昆
昇
昌
昍
明
昏
易
昔
昗
昜
星
春
昬
是
昱
昴
昷
時
晃
晋
晏
普
景
晶
智
暑
暴
曇
曩
曰
曲
曳
更
曷
書
曹
曼
曾
替
最
朁
會
月
有
朋
服
朔
朕
朗
望
朝
期
木
朩
未
末
本
札
朮
术
朱
朵
朶
朿
杀
杏
杜
束
条
来
東
杲
杳
松
析
林
枚
果
枝
枲
枼
某
柔
查
柬
柰
柴
査
栗
桀
桑
桼
梁
條
梟
梨
棘
棠
棥
森
楚
業
楽
榮
樂
樊
欠
次
欣
欮
欲
欶
欽
款
歆
歇
歛
止
正
此
步
武
歨
歪
歮
歯
歰
歲
歴
歷
歸
歹
歺
死
残
殳
段
殷
殸
殹
殺
殻
殿
毋
毌
母
每
毒
比
毕
毚
毛
毳
氏
氐
民
气
気
氣
水
氵
氶
氷
永
氺
氾
求
汝
汞
江
沃
沓
沙
沝
泉
法
波
泣
泥
泰
洛
洪
活
派
流
浦
浪
浮
淡
淮
清
渚
渠
湯
滿
漫
漸
火
灬
灭
灰
灵
灷
炅
炎
炏
炗
炙
炭
為
烈
烏
烝
焉
無
焦
焱
然
煞
熊
熏
燕
營
燮
爪
爫
爭
爯
爰
爱
爲
爵
父
爻
爽
爾
爿
片
版
牙
牚
牛
牜
牟
牢
牧
牪
特
牽
犀
犬
犭
犮
狂
狄
狊
独
狺
猋
猒
猪
献
獻
玄
率
玉
王
玟
玨
珎
班
理
琴
瑟
瑩
璠
瓜
瓦
甘
甚
生
産
用
甫
甬
田
由
甲
申
电
甶
男
甸
甹
画
甾
畀
界
畏
畐
留
畜
畟
畢
畧
畨
番
畫
異
畱
當
畺
畾
疊
疋
疌
疑
疒
疾
病
癶
癸
癹
登
發
白
百
皀
皃
的
皆
皇
皋
皐
皕
皮
皷
皿
盃
盆
盇
盈
益
盍
盎
监
盒
盖
盛
盡
監
盤
盧
目
直
相
盾
省
眇
眉
看
眔
眞
真
眷
眼
眾
着
睘
督
睪
睿
瞏
瞢
瞿
矍
矛
矞
矢
矣
知
矦
短
石
研
破
碇
碎
磊
磨
示
礻
礼
社
神
祟
票
祭
禀
禁
福
禸
禹
禺
离
禽
禾
禿
秀
秃
秉
秋
科
秝
秦
移
稟
穀
穌
穴
究
穹
空
穿
突
窄
窒
立
竒
竜
竝
竟
章
童
竹
笑
笠
第
筆
等
答
箕
算
箴
節
篤
篭
米
粉
粛
粟
粤
粦
粲
精
糞
糸
糹
系
紀
約
納
素
索
紫
累
細
終
経
結
絜
絫
絲
絶
維
綿
緒
縣
繇
纍
纟
缶
网
罒
罔
罕
罗
罙
罡
罢
罪
署
罷
羅
羊
羌
羍
美
羔
羕
羗
羞
羡
羣
群
義
羲
羸
羽
翁
翏
習
翕
翟
翠
翼
老
耂
考
者
耆
而
耎
耑
耒
耳
耴
耶
耷
聂
聊
聖
聚
聶
聿
肀
肃
肅
肉
肖
肙
肥
肩
肯
育
肴
胃
背
胡
胥
能
脊
脩
膚
臣
臤
臧
自
臬
臭
臯
臱
至
致
臺
臼
臽
臾
臿
舀
舂
舄
與
興
舉
舌
舍
舛
舜
舞
舟
般
艮
良
色
艸
艹
艾
芒
芔
芬
芮
花
芳
芸
芺
芻
苔
苗
苟
若
苦
英
茶
茸
荅
草
荒
荣
荼
莆
莧
莫
莽
菆
菊
菐
華
萬
落
葉
著
葛
董
葵
蒙
蒦
蒼
蓋
蓬
蓺
蔑
蔡
蔵
蕉
蕭
薄
薛
薦
薰
藍
藏
藥
蘭
虍
虎
虐
虒
虔
處
虖
虗
虘
虚
虛
虜
虞
虫
虽
蚤
蚩
蜀
蜜
蟲
蠡
血
行
衍
衛
衣
衤
表
衮
衰
袁
袞
褭
褱
襄
襾
西
覀
要
覃
見
規
覓
覧
親
覽
见
角
解
言
訁
訇
計
記
話
詹
誇
語
誩
課
調
諸
讠
说
谷
豆
豈
豊
豐
豕
豖
豙
象
豦
豩
豪
豸
貇
貝
貞
貟
負
貢
貧
貪
貫
責
貳
貴
買
費
賁
資
賈
賏
賓
賔
賛
賞
賢
賣
質
賴
贊
贝
贡
责
贯
贲
贵
赖
赞
赤
赦
走
越
足
路
蹇
身
躬
車
軍
軎
軟
輦
车
辛
辜
辟
辥
辰
辱
農
辵
辶
边
达
过
近
连
迷
追
退
送
逆
逐
通
速
造
逢
連
逮
進
遀
遂
過
道
達
遣
適
遷
遺
邊
邑
邕
那
邦
邪
郎
部
郭
都
鄉
酉
酋
配
酓
酷
釆
采
里
重
野
量
金
釒
鉄
鋼
錢
録
钅
長
镸
长
門
閃
閉
開
閏
閑
閒
間
閔
閵
閻
闌
门
间
闷
阑
阜
阝
阿
降
院
陳
隆
隊
隋
障
隡
隨
隱
隶
隹
隺
隻
隼
隽
难
雀
雁
集
雈
雋
雍
雐
雑
雔
雙
雚
雜
雝
離
難
雨
雩
雪
雲
零
雷
需
霍
霜
霝
霞
霸
靈
靑
青
非
靡
面
靣
革
韋
韓
韦
韭
韯
韱
音
頁
頃
項
須
頗
頡
頻
題
顛
页
風
风
飛
飞
食
飠
養
饣
首
香
馬
馮
駦
马
骨
高
髟
鬥
鬯
鬲
鬼
魚
魯
鮮
鱼
鲁
鳥
鳳
鶴
鸟
鹵
鹿
麃
麗
麥
麦
麻
黃
黄
黍
黎
黑
黒
黨
黹
黽
黾
鼎
鼓
鼠
鼻
齊
齋
齐
齒
齿
龍
龙
龜
龟
龠
龰
龱
龴
龵
龶
龷
龸
龹
者
艹
ﬁ
﻿
！
（
）
，
．
０
１
２
：
？
［
］
ａ
ｅ
ｉ
ｌ
ｐ
ｓ
ｔ
ｖ
ﾝ
𐌀
𐌍
𐌓
𐌔
𠀁
𠀃
𠀆
𠀉
𠀎
𠀐
𠁁
𠁣
𠂆
𠂇
𠂈
𠂉
𠂊
𠂋
𠂎
𠂒
𠂔
𠂛
𠂡
𠂢
𠂤
𠂬
𠂭
𠂹
𠃊
𠃋
𠃌
𠃍
𠃎
𠃑
𠃓
𠃔
𠃜
𠄌
𠄎
𠄠
𠄢
𠆢
𠆥
𠇍
𠈌
𠌵
𠓜
𠔉
𠔥
𠔼
𠔽
[...]
