!
"
#
##0
##1
##10
##11
##12
##13
##14
##15
##16
##17
##18
##19
##2
##20
##21
##22
##23
##24
##25
##26
##27
##28
##29
##3
##30
##31
##32
##33
##34
##35
##36
##37
##38
##39
##4
##40
##41
##42
##43
##44
##45
##46
##47
##48
##49
##5
##50
##51
##52
##53
##54
##55
##56
##57
##58
##59
##6
##60
##61
##62
##63
##64
##65
##66
##67
##68
##69
##7
##70
##71
##72
##73
##74
##75
##76
##77
##78
##79
##8
##80
##81
##82
##83
##84
##85
##86
##87
##88
##89
##9
##90
##91
##92
##93
##94
##95
##96
##97
##98
##99
$
%
&
'
(
)
*
+
,
-
.
/
0
00
000
001
0010
0014
0015
0016
002
00214
003
0035
004
005
0052
006
007
008
009
01
010
011
012
013
014
015
016
017
018
019
02
020
021
022
0222
023
024
0240
025
026
027
028
029
03
030
031
032
033
034
035
036
037
038
039
04
040
041
042
043
044
045
0451
0454
046
047
048
049
05
050
052
053
054
056
058
059
06
060
061
062
063
064
065
067
068
069
07
070
071
072
074
075
078
079
08
080
081
082
083
084
088
09
090
091
092
093
096
097
098
099
1
10
100
1000
10000
1001
1002
1003
1004
1005
10051105
10051112
1006
1007
1008
1009
101
1010
1012
10156
1017
1018
102
1020
1022
1023
1024
10244
1025
1026
1027
1029
103
1030
1032
1034
1036
10394
104
1040
1041
1043
1045
1046
1047
1049
105
1050
1051
1054
10552
1057
10575
1058
106
1060
1061
10638
1064
1066
1067
1068
107
1073
1076
1078
1079
108
1080
1082
1085
1086
1088
109
1090
1091
1092
1095
1097
1099
11
110
1100
1101
1103
1104
1105
111
1110
111000
11121
11134
1115
1116
1118
1119
112
1120
1121
11220
1123
1124
1127
1128
1129
113
1130
11300
1132
1133
1134
1135
1137
1138
1139
114
1140
1143
1144
1145
1146
1147
115
1152
1153
1154
1155
1156
1157
1159
116
1160
1162
1163
11641
1166
1169
117
1170
1172
1174
1177
1178
118
1180
1182
1184
1185
1187
1188
119
1190
1191
1194
1195
1198
1199
12
120
1200
1201
1203
1204
1206
1207
1208
121
1210
1212
1216
1217
122
1220
1221
1223
1225
1226
1227
1229
123
1230
1231
1232
1234
1235
1236
1237
124
1240
1241
1243
1246
1247
125
1250
1254
1256
1258
126
1260
1261
1263
1264
1265
1266
1268
127
1270
1271
1272
1273
1274
1276
1277
1278
1279
128
1280
1281
1282
1283
1285
1286
1287
129
1290
1291
1294
1296
1297
12973
1298
1299
13
130
1300
1301
1302
1303
1304
1305
1306
1307
1308
1309
131
1310
1314
1316
1319
132
1321
1324
1326
133
1330
1331
1332
1334
1335
1336
134
1340
1342
1343
1347
1348
1349
135
1350
1352
1355
1358
136
1361
1362
13658
1368
1369
137
1370
1377
1378
13781
1379
138
1380
1381
1383
1384
1385
1386
1387
1389
139
1397
14
140
1400
1402
1403
1404
1405
1406
1407
1408
1409
14092
141
1410
1412
1413
1415
1417
1419
142
1420
1424
1426
143
1430
1431
1432
1433
1434
1435
1436
1437
1438
1439
144
1440
1441
1442
1443
1444
1445
1446
1447
1448
145
1452
1453
1454
1455
1456
1457
1458
1459
146
1460
1461
14626
1464
1465
1467
1468
1469
147
1470
1471
1472
1473
1475
1476
1477
1478
1479
148
1480
1481
1482
1483
1484
1485
1487
1488
149
1490
1491
1492
1493
1494
1495
1496
1497
1499
15
150
1500
15000
150000
1501
1502
1503
1504
1506
1507
1508
1509
151
1510
1511
1512
1513
1515
1516
1517
1519
152
1520
1521
1522
1523
1525
1526
1528
153
1530
1534
1535
1536
1538
154
1540
1541
1542
1544
1545
1546
1548
1549
155
1550
1553
1554
1555
1557
1559
156
1560
1561
1563
1564
1566
1568
1569
157
1570
1571
1572
1574
1575
1576
1577
1578
158
1580
1581
1582
1585
1586
1587
1588
1589
159
1590
1591
1592
1595
1596
1597
16
160
1600
1603
1604
1605
1606
1607
1608
1609
161
1610
1612
1613
1615
1616
1617
1619
162
1620
1621
1622
1623
1624
1625
1626
1628
1629
163
1630
1631
1632
1634
1635
16356
1636
1637
1638
1639
164
1640
1641
1642
1643
1644
1645
1647
1648
1649
165
1650
1652
1653
1654
1655
1656
1657
166
1660
1661
1662
1663
1665
1666
1667
1668
1669
167
1670
1671
1672
1673
1674
1675
1676
1677
1678
1679
168
1680
1682
1683
1684
1685
1687
1689
169
1690
1691
1693
1694
1696
1697
1698
1699
17
170
1700
1701
1702
1703
1704
1705
1707
1709
171
1710
1711
1712
1713
1714
1715
1716
1717
1718
1719
172
1720
1721
1724
1725
1728
1729
173
1730
1731
1732
1734
1735
1736
1737
1738
1739
174
1740
1741
1742
1743
1744
1745
1746
1747
1748
1749
175
1750
1751
1752
1753
1754
1755
1756
1757
1758
1759
176
1760
1761
1762
1763
1764
1765
1766
1767
1768
1769
177
1770
1771
1772
1773
1774
1775
1776
1777
1778
1779
178
1780
1781
1782
1783
1784
1785
1786
1787
1788
1789
179
1790
1791
1792
1793
1794
1795
1796
1797
1798
1799
18
180
1800
1801
1802
1803
1804
1805
1806
1807
1808
1809
181
1810
1811
1812
1813
1814
1815
1816
1817
1818
1819
182
1820
1821
1822
1823
1824
1825
1826
1827
1828
1829
183
1830
1831
1832
1833
1834
1835
1836
1837
1838
1839
184
1840
1841
1842
1843
1844
1845
1846
1847
1848
1849
185
1850
1851
1852
1853
1854
1855
1856
1857
1858
1859
186
1860
1861
1862
1863
1864
1865
1866
1867
1868
1869
187
1870
1871
1872
1873
1874
1875
1876
1877
1878
1879
188
1880
1881
1882
1883
1884
1885
1886
1887
1888
1889
189
1890
1891
1892
1893
1894
1895
1896
1897
1898
1899
19
190
1900
1901
1902
1903
1904
1905
1906
1907
1908
1909
191
1910
1911
1912
1913
1914
1915
19154
1916
1917
1918
1919
192
1920
1921
1922
1923
1924
1925
1926
1927
1928
1929
193
1930
1931
1932
1933
1934
1935
1936
1937
1938
1939
194
1940
19409
1941
1942
1943
1944
1945
1946
1947
1948
1949
195
1950
1951
1952
1953
1954
1955
1956
1957
1958
1959
196
1960
1961
1962
1963
1964
1965
1966
1967
1968
1969
197
1970
1971
1972
1973
1974
1975
1976
1977
1978
1979
198
1980
1981
1982
1983
1984
1985
1986
1987
1988
1989
199
1990
1991
1992
1993
1994
1995
1996
1997
1998
1999
2
20
200
2000
20000
2001
2002
2003
2004
2005
20050108
20051010
20051016
20051031
20051101
20051104
20051105
20051112
20051204
20051216
20054
2006
2007
2008
2009
201
2010
2011
2012
2013
2014
2015
2016
2017
2018
2019
202
2020
2021
2022
2023
2024
2025
2028
2029
203
2030
2033
2038
2039
204
2042
205
2055
206
2060
2062
207
2070
2072
2073
2074
2075
2077
2078
2079
208
2080
2081
2083
2084
2085
2089
209
2098
21
210
211
2112
2115
212
2122
2124
2127
2128
213
2130
2131
2132
214
2145
215
2150
2153
216
2160
217
218
2180
2183
2186
219
2193
2199
22
220
2200
2202
2209
221
2212
2214
2216
2218
222
2229
223
224
225
2254
226
2265
227
2279
228
2280
2282
2284
2287
2288
2289
229
2292
2293
2298
23
230
2302
2307
2308
231
2314
2315
2316
2318
2319
232
2323
2325
2326
233
2338
234
2341
2345
235
2350
2352
236
2365
2369
237
2373
2376
2379
238
239
2392
2394
2395
2399
24
240
2403
241
2412
2415
2419
242
2423
243
2431
2433
2437
2439
244
2441
2448
245
24542
2459
246
2461
2467
247
2471
2474
2477
248
2482
249
2491
2496
25
250
2500
25000
251
2510
2512
252
2524
253
2532
254
2545
2546
2547
2549
255
2555
2556
2559
256
2561
2565
257
2576
2577
258
2586
259
2595
26
260
261
2613
2614
2616
2617
262
2620
2623
263
2632
2633
264
2646
265
2655
266
2663
267
268
269
2699
27
270
2700
271
272
273
274
275
27527
2753
2757
2758
2759
276
2766
277
278
2781
279
2791
28
280
2806
281
2818
282
283
2835
284
2843
285
2855
286
2865
287
2870
288
2885
2889
289
29
290
2904
2907
291
2912
2914
2915
292
2927
293
2930
2933
294
295
296
297
298
299
2996
3
30
300
3000
30000
3001
3007
3009
301
3010
3011
3013
3015
3016
302
3021
3022
303
3038
304
3042
3046
305
306
3065
307
3072
308
3083
309
3090
3091
3093
3094
3098
31
310
3100
311
3116
312
3120
313
3130
3134
314
3146
315
3153
316
3166
3169
317
318
3181
3185
319
3195
3197
3199
32
320
3200
321
322
323
3235
324
325
326
327
328
329
33
330
3302
331
3310
3316
332
3323
333
3330
3337
334
335
3352
3356
3358
336
337
3376
338
3385
339
3393
34
340
3408
341
3413
342
343
3434
344
3441
345
3457
346
3464
347
348
3489
349
35
350
3500
35000
3509
351
352
353
35328
3534
354
3542
3545
3549
355
356
357
358
3587
3589
359
36
360
361
3611
3614
362
3623
363
364
365
366
3660
367
368
369
3691
37
370
371
3718
372
373
374
375
376
3767
377
378
379
38
380
3806
381
382
3829
383
3833
384
385
386
3861
387
388
3886
389
3890
39
390
391
3914
392
393
394
395
396
397
398
3987
399
4
40
400
4000
401
4016
4019
402
403
4038
404
405
406
4067
407
4075
408
4088
409
4093
41
410
4100
4104
4106
411
412
413
4136
414
415
4152
416
4167
417
418
4181
419
42
420
421
422
423
4231
424
425
426
4260
4269
427
4270
428
429
43
430
431
432
4320
433
434
435
436
437
438
439
4390
44
440
441
4412
4418
442
443
444
445
4454
4456
447
448
449
45
450
4500
4502
4509
451
452
453
4532
454
455
456
457
458
459
4598
46
460
461
462
463
4638
4645
465
466
467
468
469
4695
47
470
471
472
473
4736
474
475
476
477
478
479
4797
48
480
481
482
483
484
485
486
487
488
4881
489
49
490
491
492
493
494
495
496
497
4974
498
499
5
50
500
5000
5001
5002
5007
5008
5009
501
5010
5013
5019
502
5020
5023
50238
503
504
5040
505
50507
506
5061
507
508
509
5093
51
510
511
512
513
514
515
516
517
518
5189
519
5190
52
520
5205
521
522
523
5238
524
525
526
527
528
529
53
530
5300
5303
531
532
5321
5324
5326
533
5333
534
535
536
5361
537
5371
538
5385
5393
54
540
541
5410
542
543
544
545
546
547
548
549
55
550
552
553
554
55402
55404
55405
55410
55411
55413
55436
55441
55453
55460
55461
55466
55474
55477
555
556
5562
558
559
5593
56
560
5601
5606
561
562
563
564
565
566
567
568
569
57
570
571
572
573
5737
574
575
5757
576
577
578
579
58
580
581
582
583
584
585
5855
586
587
5878
5884
589
59
590
5901
591
5919
592
593
5936
594
595
596
597
5978
598
599
6
60
600
6000
6003
601
602
603
604
605
606
607
608
609
61
610
611
612
613
614
615
616
617
618
619
62
620
621
622
6225
623
624
625
626
6263
627
628
6286
629
63
630
6303
631
6317
632
633
634
635
636
6365
6366
6367
637
638
6386
639
64
640
641
6413
642
643
644
6445
645
647
648
649
65
650
6500
65000
652
653
654
657
658
659
66
660
661
662
663
664
6648
665
666
667
668
669
67
670
671
672
6721
673
674
675
676
677
678
679
68
680
681
682
683
684
6845
685
686
6864
687
688
689
69
690
691
692
693
694
695
6952
696
697
698
6984
699
7
70
700
7000
701
702
703
7040
705
7052
706
707
708
709
71
710
711
712
713
714
7142
715
716
717
718
7186
719
72
720
721
7214
722
7225
7226
7227
723
7236
724
725
726
7260
7264
7268
727
729
73
730
731
732
733
734
735
7351
736
737
738
739
74
740
741
742
743
744
7448
745
746
748
749
75
750
75000
7507
751
752
7528
753
754
7542
755
756
757
7574
758
76
760
761
762
763
764
765
766
767
768
769
77
770
77097
771
7710
772
7729
773
7736
774
775
776
777
778
779
78
780
781
782
784
785
786
788
789
79
790
791
793
7935
794
795
796
797
798
799
8
80
800
8000
801
802
803
804
805
806
807
808
809
8090
81
810
811
8111
812
814
815
816
8168
817
818
8183
819
8194
82
820
822
824
825
826
827
8274
828
829
83
830
831
832
833
835
836
837
838
839
8391
84
840
84001
842
843
844
845
846
847
848
849
85
850
8500
851
8511
852
8525
853
854
8541
855
856
857
858
859
8591
86
860
861
8612
862
863
864
865
866
867
868
869
87
870
871
873
874
875
876
87676
877
878
879
8793
88
880
881
882
883
884
885
886
887
888
889
89
890
891
892
893
894
895
896
897
898
899
9
90
900
901
9019
902
9020
9022
9023
9025
9027
903
9031
9034
904
9041
905
905007
9056
906
9069
9070
9079
908
9082
9085
909
91
9101
911
912
913
914
915
917
918
919
92
920
921
922
9229
923
924
925
92510
926
927
928
929
93
930
9302
931
932
933
934
935
936
938
939
94
940
941
942
943
944
945
9452
946
947
948
949
95
950
951
952
953
954
955
957
958
959
9597
96
960
961
962
963
964
965
966
967
9670
9674
968
969
97
970
9707
971
972
973
974
976
977
978
979
98
980
981
982
983
984
985
986
987
988
9889
989
99
990
991
992
993
994
995
996
997
998
999
:
;
<
=
>
?
@
\
^
_
`
a
aa
aana
ab
abano
abascio
abate
abba
abbada
abbadia
abbaglio
abbagnano
abball
abballa
abballano
abballava
abballe
abbandenate
abbandono
abbanduna
abbandunaje
abbandunata
abbandunate
abbandunato
abbannunata
abbannunato
abbasa
abbascio
abbastanza
abbate
abbazi
abbazia
abbazie
abbazzi
abbazzia
abbazziale
abbe
abbecen
abbecena
abbecene
abbeceno
abbecino
abbede
abbele
abbenche
abbenemie
abbenuta
abbesche
abbesognano
abbeta
abbetand
abbetande
abbetante
abbetata
abbetate
abbetato
abbetaziune
abbetu
abbi
abbia
abbiaje
abbiata
abbiate
abbiategrasso
abbieno
abbiento
abbigliamento
abbilita
abbita
abbitante
abbitanti
abbitata
abbitato
abbitazzione
abbo
abbolite
abbone
abbra
abbracciame
abbraccio
abbre
abbree
abbresciate
abbreviata
abbrezze
abbril
abbrile
abbrouzze
abbru
abbrucia
abbrucio
abbruzz
abbruzze
abbruzzese
abbruzzise
abbruzzo
abbuccaje
abbuccata
abbunnante
abbusca
abbuscaje
abbusivamente
abd
abe
abele
abellinum
abenobashi
abetante
abetanti
abetata
abetato
abette
abici
abido
abita
abitant
abitante
abitanti
abitata
abitate
abitato
abitazione
abitazzione
abito
abnormal
abolizzione
aboriginal
about
abr
abruzze
abruzzese
abruzzi
abruzzo
abu
ac
academia
academy
academycalcio
acala
acale
acampora
acanthis
acaulis
acca
accadde
accade
accademia
accademica
accademico
accademie
accadenza
accadia
accandena
accanusciuto
accanzaje
accanzanno
accapa
accapabball
accapada
accapaje
accare
accaremia
accaremmeco
accaremmia
accasaje
accasato
accasione
accasiune
accatt
accatta
accattaje
accattato
accatte
accatto
acce
accebbato
accendramie
accentata
accenti
accento
accepre
accetta
accettano
accettata
accettato
accetto
acchembagnata
acchembagnate
acchialare
acchiale
acchianata
acchiappa
acchiappaje
acchiappate
acchitto
acciaio
acciare
acciaro
acciaroli
accide
accidere
acciesso
accio
accipiter
accipitridae
accire
accirere
accirette
accisa
accise
acciso
acclesias
acco
accocchi
accocchia
accocchie
accogliere
accompagna
accorde
accordo
accorte
accossi
accosta
accrescere
accriscere
accruocche
accu
accucchia
accudia
accugliere
accumencia
accumenciaje
accumenciajeno
accumencianno
accumenciano
accumenciato
accumenza
accumenzaglia
accumenzaje
accumincia
accuminciaie
accuminciaje
accuminciajeno
accumincianno
accuminciato
accuminza
accummencia
accummenciaje
accummencianno
accummenciano
accummenciato
accummenza
accummenzaje
accummincia
accumminciaje
accumminciajene
accumminciajeno
accumminciate
accumminciato
accumminciette
accumpagna
accumpagnano
accumpagnata
accumpagnate
accumpagnato
accumparano
accumpare
accuncia
accunciamiento
accunciata
accunciate
accunciato
accunciature
accuo
accuoncia
accuoncio
accuort
accuorte
accuoveto
accupa
accupaje
accupata
accupato
accupazione
accuppatura
accuppiata
accurdava
accurde
accusa
accusato
accusci
accusi
accussi
accussidditta
accussiditto
ace
acedeta
acerno
acerra
acerrana
ache
achenbach
achill
achille
aci
acido
acierno
acite
acito
acqua
acquaformosa
acquare
acquarica
acquavella
acquaviva
acque
acquedotte
acquedotto
acquee
acqui
acquiata
acquisizzione
acquisto
acreide
acro
acronimo
acropoli
acruopule
action
activity
acton
acuafunnata
aculeatus
acussi
acuto
ad
ada
adagio
adam
adamo
adamorobe
adams
adatta
adattamento
adatte
adatto
add
adda
adde
addedecata
addedecato
addefecate
addefenne
addefizie
addefizio
addemane
addepra
addeprata
addeprate
addepre
addereto
adderettura
adderitta
addeve
addevenda
addevendata
addevendate
addevende
addevenette
addeventa
addeventaie
addeventaje
addeventajeno
addeventanno
addeventano
addeventarono
addeventarra
addeventata
addeventate
addeventato
addeventava
addevente
addeventette
addevide
addezzione
addicere
addichiarajeno
addichiarato
addicts
addificazzione
addimanna
addimannannose
addimustraje
addio
addirittura
addiruso
additt
additte
additto
addiune
addivenette
addivennuta
addiventa
addiventaie
addiventaje
addiventanno
addiventata
addiventato
addiventette
addivide
addivideno
addivienta
addivinta
addivintaje
addivintajeno
addivintanno
addivintata
addivintate
addivisa
addo
addona
addonca
addonche
addoppiaggio
addoppo
addora
addore
addove
addu
addumanna
addummaneva
adduna
addunaje
addunate
addunato
adduo
adduobb
addura
adduraje
addurmi
addurmuto
adduu
ade
adelaide
adesione
adesso
adettata
adette
adibita
adibito
adige
adim
adolf
adolfo
adopp
adoppo
adorano
adotta
adottato
adotto
adrenaline
adria
adriana
adriano
adriateco
adriatica
adriatiche
adriatico
aducazzione
adurava
aduttato
adv
advance
ae
aentusesmo
aerea
aerei
aereo
aerial
aeroe
aeronautica
aeronautico
aeroporto
aeropuorti
aeropuorto
aesempio
af
affa
affaccia
affacciano
affacciata
affacciate
affairs
affare
affari
affascenante
affe
affeciale
affeda
affedamie
afferma
affermazione
afferra
affette
affetto
affettua
affettuato
affi
affianca
affiangh
afficiale
affidata
affidato
affiette
affiliate
affin
affinale
affino
affirmaje
affiziale
afflue
affluente
affluenti
affresche
affriesche
affrisch
affrische
affronta
affrunta
affruntato
affrunto
affuca
affunna
afghane
afghanistan
afn
afragola
afragolese
afravola
afreca
afrecano
africa
africana
africane
afrikaans
afro
after
ag
again
against
agan
agapito
agata
agency
agenti
agenzia
ager
agerola
agg
agge
aggente
aggenzia
aggenzzia
aggettive
aggia
aggio
aggiu
aggiurnato
agglomerato
aggranni
aggrannite
agiente
agitto
agl
agle
aglemenazione
aglettute
agli
agliano
aglie
aglio
agliotte
agnano
agne
agneddhu
agnele
agnelli
agnello
agnelo
agnemale
agnone
agnuno
agogna
agora
agordino
agordo
agostini
agostino
agosto
agostu
agr
agraria
agrarie
agrario
agrecheltura
agri
agricantus
agricheltura
agricola
agricole
agricolo
agricoltora
agricoltori
agricoltura
agricula
agricule
agriculo
agricultura
agriculture
agrigento
agrippa
agrippino
agro
agropoli
agrume
agruopulo
aguado
aguila
aguste
ah
aha
ahimaaz
ahmadinejad
ai
aic
aida
aiello
ailanthus
air
aires
airola
ais
aise
aita
aitanic
aiuta
aiuto
aiza
aizaje
aizano
aizaron
aizata
aizato
aja
ajaccio
ajaveto
aje
ajere
ajesce
ajeta
ajete
ajjogne
ajotato
aju
ajuse
ajuta
ajutaje
ajutato
ajute
ajuto
ajutu
al
ala
alabama
alacant
alacoque
aladino
alagi
alagna
alan
alarba
alarbe
alarbia
alarbo
alaska
alata
alatre
alatri
alauda
alaudidae
alba
albanella
albanese
albanesi
albani
albania
albano
albanova
albaredo
albe
albedo
albergo
alberi
alberiche
albero
alberobello
albert
alberti
alberto
albeti
albetique
albiano
albino
albu
album
albums
alburne
alburni
alburno
alcamo
alcedo
alcide
alcool
alcun
alcune
alcuni
alda
aldiss
aldo
ale
alectoris
alege
alegre
alejandro
alema
aleme
alementare
alementazione
alenia
alento
ales
alessandr
alessandra
alessandri
alessandria
alessandrina
alessandrine
alessandro
alessano
alessio
aletta
aletto
alex
alexander
alexandra
alexandre
alezio
alezzione
alfa
alfabbeto
alfanese
alfano
alfaterna
alfedena
alfieri
alfio
alfons
alfonso
alfonzo
alfred
alfredo
alfunso
alge
algeria
alghe
alghero
algiris
alh
ali
alias
alicante
alicarnasso
alice
alicia
alien
alieno
alife
alighieri
alighiero
align
alignbars
alii
alimentare
alimentazzione
alimento
alisandro
aliscafe
alitalia
alive
all
alla
allacce
allagava
allah
allaie
allaio
allaje
allargaje
allargano
allarme
alle
alleanza
alleata
alleate
allecorda
allecuordano
allecurdannose
alleggeri
alleggestra
allegretto
allegri
allegro
allen
allena
allenaje
allenamento
allenamiente
allenatore
allenature
allepo
allero
allesci
alletame
alletterato
alleurda
allevame
allevamie
allevate
allevato
allevature
alli
allianza
alliata
alliate
alliato
allicuorda
allicurda
allicurdato
allie
allied
allievo
allineamiento
allippa
alliste
allium
allo
alloa
alloca
allofene
allonga
allora
allu
allucca
allucche
alludaje
alludajeno
alluminio
allunga
allungato
alluntana
allusione
allustrazzione
alluvione
alma
alman
almaza
alme
almeno
almenu
almese
almirante
alo
alois
alom
alone
alp
alpago
alpe
alpette
alpha
alphabet
alpi
alpine
alpino
alright
als
also
alt
alta
altamura
altare
altavilla
alte
alternativa
alternative
altezza
altieri
altissima
altitudine
alto
altra
altre
altremiente
altri
altrimenti
altro
altrove
altstadt
aluetane
aluite
aluitesantoro
alunni
aluth
alvano
alvignanese
alvino
alvitana
alvito
alyga
am
ama
amalfetano
amalfi
amalfitana
amalia
amami
amante
amanti
amara
amare
amaro
amasea
amata
amate
amati
amato
amatrice
amazonas
amazonis
amazzoneca
amazzoniano
amazzonica
amba
ambie
ambiendale
ambientale
ambientalista
ambientata
ambiente
ambito
ambra
ambresse
ambresso
ambrogio
ambroise
ambrosio
amburgo
ame
amedeo
amelia
amelio
amen
amendola
ameno
amenta
amereca
amerecana
amerecane
amerecano
amereche
america
american
americana
americane
americano
amerigo
amica
amice
amiche
amichevole
amici
amicizia
amicizzia
amico
amiens
amigoni
aminei
amirosa
amleto
amma
ammacare
amman
ammancano
ammanettato
ammanni
ammascione
ammasse
ammatt
ammazzato
ammazzucato
ammazzuccato
amme
ammende
ammendena
ammendenate
ammenes
ammenestrativa
ammenestrativo
ammenestrazione
ammenistrativa
ammenistrative
ammenistrativo
ammenistratore
ammenistrature
ammenistrazzione
ammennole
ammeno
ammeraglio
ammerecana
ammerica
ammeritaje
ammes
ammesca
ammescata
ammessa
ammesse
ammesso
ammesura
ammi
ammico
ammiezz
ammiezzo
amministrati
amministrativa
amministrative
amministrativo
amministrazione
amministrazzione
ammira
ammiraglio
ammis
ammiscate
ammiso
ammissa
ammo
ammore
ammuina
ammula
ammuola
amo
among
amor
amore
amori
amorosi
amoroso
amos
amour
ampelodesmos
ampezzo
ampia
ampliamiento
ampress
ampressa
ampresso
amsterdam
amuri
amy
an
ana
anabasi
anacapri
anacleto
anagni
analese
analisi
anarchia
anarchico
anastacia
anastasia
anastasio
anastatica
anato
anatolia
anatomia
anatroccolo
anatumia
ancelotti
anch
anche
anchieta
anchippo
anchise
ancien
ancient
anco
ancona
anconi
ancor
ancora
ancore
ancura
and
andali
andalli
andalusia
andamane
andann
ande
andersen
anderson
andi
andiamo
andica
andich
andiche
ando
andorra
andrade
andrano
andre
andrea
andreas
andreis
andreoli
andreotti
andretta
andreu
andrew
andrews
andria
andy
ane
anem
anema
anemale
anemata
anemate
anemato
anematore
anemazziona
anemazzione
anemazziune
aneme
anemo
anepeta
anfi
anfibe
anfiteatro
angarari
angariae
ange
angeine
angel
angela
angele
angeles
angeli
angelica
angelina
angellara
angelo
angels
anggun
anghe
anghle
angio
angioine
angioini
angioino
angiosperme
angiuine
angje
angleterra
anglo
angolana
angora
angore
angri
angulare
angulo
anidride
anielle
aniello
anima
animage
animale
animali
animalia
animaluccio
animate
animation
animato
animazione
animazzione
anime
animerica
animmale
ankara
ann
anna
annacquatura
annalisa
annammora
annanz
annanza
annanze
annanzo
annare
annarella
annarono
annasconnere
annascunne
annascuso
annata
annate
anne
annemunate
annese
annessione
anneta
annetaziune
annevierzo
anni
annibale
annie
anniversario
annivierzo
anno
annona
annone
annore
annu
annua
annuale
annuario
annumenaje
annumenata
annumenate
annumenato
annummena
annummenaje
annummenata
annummenate
annummenato
annunce
annuncia
annunciaje
annunciata
annunciato
annuncio
annunzia
annunziaje
annunziata
annunziato
annunzio
annuro
ano
anonimo
anore
another
anpi
ans
ansia
ansieme
antalya
antalyaspor
antanne
antartico
antartide
ante
anteco
anteriori
anthology
anthony
anthus
anti
antica
anticamente
anticamiente
anticamorra
antiche
antichi
antichita
anticipada
anticipate
anticipo
antico
anticu
antietam
antignano
antigua
antimafia
antimo
antinori
antiochia
antioco
antiquarium
antiterrorismo
anto
antoine
antologgie
antologia
anton
antonacci
antonello
antonellus
antoni
antonia
antoniadi
antoniello
antonietta
antonino
antonio
antonomasia
antropologgia
antropologia
antropologo
antu
antunietta
antuono
anversa
anzano
anze
anzeche
anzi
anzie
anziema
anzola
ao
aoki
aosta
aou
aparti
aparulo
aperta
apertium
aperto
apertura
aperture
apes
apg
apiaceae
apiaster
apice
apicella
apicio
apierta
apierto
apium
apollo
apollosa
apostole
apostoli
apostolica
apostolo
apostrofo
appalto
appara
apparaje
apparanno
apparate
apparato
apparature
appare
apparecchio
apparente
apparenza
apparicchie
apparire
apparizione
apparizzione
apparte
appartene
apparteneno
appartenente
apparteneva
apparteneveno
appartengono
apparteniente
appartiene
appassa
appassaje
appassato
appassiunata
appassiunate
appassiunato
appaura
appe
appeccecate
appeccia
appecciarie
appedu
appeja
appejava
appeje
appellativo
appello
appena
appenne
appennine
appennineco
appennino
apperzi
appettutte
appezzetate
appezzutalappse
appi
appia
appiano
appicceche
appicceco
appiccia
appicciano
appicciata
appicciate
appie
appignano
appise
appiso
apple
applecata
applica
applicata
applies
appo
appoggio
appoja
apposezzione
apposizzione
apposta
apprecate
apprefettarn
appremette
apprendia
apprepara
apprese
appresenta
appresentaje
appresentato
appresentava
appress
appresso
appretta
apprevata
apprevazione
apprezzata
apprezzate
apprezzato
apprie
appriess
appriessa
appriesse
appriesso
apprima
apprimm
apprimma
apprimme
appripara
appriparano
appriparata
appriparate
appriparato
apprisentaje
apprjesso
approvazzione
approvvigionarse
appruvato
appugge
appuja
appula
appund
appunde
appuntamente
appuntamento
appunti
appunto
appuoio
appurate
apre
apri
april
aprile
aprilia
aprimma
apron
apruzze
apulia
apuo
apus
aq
aquara
aquele
aqueous
aquila
aquile
aquilone
aquilonia
aquine
aquino
ar
ara
araba
arabbia
arabe
arabi
arabia
arabo
aradam
aradeo
arael
arago
aragona
aragones
aragonese
aragune
aragunese
araldica
araldicacivica
arancia
arancio
arantes
aranycsapat
arape
arapette
arapi
arapre
araputa
arata
arate
arba
arbanese
arbe
arbere
arbero
arbitro
arbo
arbore
arborea
arbutus
arc
arca
arcagnelo
arcaica
arcaico
arcangelo
arcari
arce
arcepelaco
arch
archaea
arche
archeme
archeolo
archeologgeca
archeologgece
archeologgeche
archeologgeco
archeologgia
archeologhe
archeologia
archeologico
archetetto
archetettura
archetetture
archeveo
archi
archielo
archite
architette
architetti
architetto
architettoneca
architettonica
architettura
architetture
archive
archiviato
archivio
arci
arcidiocese
arciduchessa
arcipelago
arcivescovi
arcivescovo
arco
arconte
arcopinto
arcune
ard
arda
ardea
ardente
ardeola
are
area
arece
arecheta
arechi
arede
aredeta
aredetaje
aredetarie
aree
arema
arena
arenaccia
arenaria
arene
arenella
areopuorto
ares
arese
aret
areta
arete
areto
arezzo
arfabeto
arfonzo
argentano
argentina
argentine
argentino
argento
argiento
argilla
argine
argomento
argon
argumente
argumiente
argumiento
ari
aria
ariale
ariana
arianna
ariano
arie
ariel
ariemo
arietinum
ariette
arillo
arinto
arioplano
ariopuorte
ariopuorto
aristide
aristotele
arl
arlecchino
arles
arma
armand
armando
armata
armate
armato
armatore
arme
armenia
armeno
armento
armi
armidoro
armistizzio
armo
arms
armstrong
army
arnaldo
arnesano
arniuro
arno
arnoldo
arnone
aro
aroe
arome
arommateca
arommateche
aropea
aropp
aroppa
aroppe
aroppo
arp
arpad
arpaia
arpaise
arpam
arpe
arpi
arpine
arpino
arpitan
arpitano
arquata
arra
arraddena
arraffatt
arraggio
arraggiunate
arragiona
arrajeta
arrajete
arrape
arrapprese
arrappresenda
arrappresendata
arrappresendate
arrappresendazione
arrappresenta
arrappresentano
arraro
arrasse
arrasseme
arrassunda
arravugliate
arre
arrebba
arrecchi
arrecchite
arreceve
arrechiaraje
arrechiraje
arrecocchio
arrecoglie
arrecorda
arrecuovete
arreducere
arreferito
arrefonne
arrepiglia
arrepigliaje
arrepijaje
arresagliere
arresagliono
arresolvere
arresta
arrestaje
arrestanno
arrestate
arrestato
arret
arreteca
arreteraje
arreto
arretrate
arreva
arrevaje
arrevajeno
arrevanno
arrevata
arrevate
arrevato
arrevenate
arrevennanno
arreventa
arreventaje
arreventanno
arreventata
arreventate
arrevo
arrevotannone
arrevuoto
arrevutaje
arrevutajeno
arrevutata
arrezzo
arri
arriano
arricurda
arricurdata
arricurdate
arricurdato
arrimanna
arripusava
arritiraje
arriv
arriva
arrivaie
arrivaje
arrivajene
arrivajeno
arrivanno
arrivano
arrivata
arrivate
arrivato
arrive
arrivette
arrivi
arrivo
arrizzi
arro
arropo
arropp
arroppo
arroscia
arru
arrubba
arrubbato
arrumeno
arruobbe
arruscate
arsenal
arsenio
arsizio
arsume
art
arta
arte
arteculazione
artefeciale
artefice
artemide
artemisia
arteria
arthur
arti
artichele
articles
artico
articolo
articulare
articulata
articule
articuli
articulo
artificiale
artiggianale
artigianale
artigianato
artigiane
artist
artista
artiste
artisteca
artisteche
artisteci
artisteco
artisti
artistica
artistiche
artistico
artists
artografia
artro
arts
arturo
aru
arundo
aruta
arvensis
arvere
arvero
arvuste
arvustive
arzachena
arzanese
arzano
as
asa
asahi
asburgo
asc
ascarelli
asce
ascea
ascelle
ascenno
ascensore
ascesa
ascette
ascettero
asceva
asci
ascia
ascianno
ascite
asciu
asciurtaje
asciut
asciuta
asciute
asciuto
asciutta
ascoli
ascolto
asculi
ascura
ascure
ase
asempio
asemprare
asercetaje
aserceto
asercito
asi
asia
asian
asiateco
asiatico
asie
asigliano
asilio
asilo
asio
asiste
asistente
asistenza
asistette
asistono
ask
askenazzite
asl
asola
asott
asotto
asparagaceae
aspetta
aspettanno
aspette
aspetti
aspetto
aspiette
aspietto
aspittanno
aspreno
aspromonte
ass
assa
assaggia
assaggista
assai
assaie
assaigs
assaje
assape
assassinato
assassine
assassinio
assassino
asse
asseca
assecate
asseciata
asseciate
assedia
assedio
assegnata
assegnate
assegnato
assegnazione
asseldate
asseluta
assemble
assemblea
asseme
assempio
assenza
assenziale
asserbemie
asservabbele
asservazzione
asservazziune
assestente
assetta
assi
assia
assicura
assicuta
assie
assiem
assieme
assignata
assignato
assisi
assist
assistente
assitta
assjeme
asso
associati
association
associations
associato
associaziona
associazione
associazzione
assolo
assolto
assoluta
assolutamente
assolutismo
assoluto
assuciano
assuciate
assuciato
assuciazione
assuciazzione
assuluta
assume
assumeglia
assumeglianze
assumegliava
assumeja
assummata
assunda
assunse
assunta
assurtimento
assutt
assutta
assutte
assuttu
ast
asta
astaldi
astarita
aste
asteco
asteme
asteraceae
asteroide
asti
astipa
astipate
astremo
astrignete
astronauta
astronome
astronomia
astronomicamente
astronomiche
astronomo
astronumia
astrunaute
asturiana
asturiano
asuka
asuncio
at
ata
atalanta
atatu
ate
atella
atellana
atemosfera
atemosfereca
atemosferece
atemosfereche
atena
atene
ateneum
ateno
aterno
aterra
athene
athletic
ati
atina
atinatis
atini
atitlan
ativita
atlante
atlanteco
atlantic
atlas
atle
atleta
atlete
atletico
atletik
atmesfe
atmosfera
ato
atomeca
atomo
atra
atrani
atre
atri
atro
atru
atta
attacante
attacca
attaccaje
attaccanno
attaccante
attaccat
attaccata
attaccate
attaccato
attaccatura
attacche
attacchi
attacco
attack
attanasio
atte
atteggiamente
atteggiamento
attene
attennate
attentate
attentati
attentato
attenti
attenzione
attercenate
atterra
atterraje
atterrata
atterrate
attestato
atteveta
atti
attie
attila
attilio
attimo
attintato
attiva
attivamente
attive
attiveta
attivi
attivista
attivita
attivo
atto
attocca
attore
attori
attorno
attrappa
attrave
attraversa
attraversata
attraverso
attraverza
attraverzata
attraverzato
attraverzava
attraverzo
attravie
attravierzo
attrazzione
attre
attrezze
attrezzo
attri
attribui
attribuito
attribuiva
attrice
attrizze
attrove
attrufo
attu
attua
attuala
attuale
attualment
attualmente
attuazzione
attucca
attuccano
attuccante
attuccate
attuorn
attuorno
atture
atu
au
aucelluzzo
aucie
aucielle
auciello
auckland
audax
audienza
audio
aue
auf
aufficiale
aufficialmente
auguri
august
augusta
auguste
augustea
augusteo
augustin
augusto
augustus
auliva
aulive
aulivo
aulus
aum
aume
aumenta
aumentare
aumento
aumie
aumiento
auna
aune
aunenno
aunette
aunettero
auni
aunificanno
aunificato
aunificazzione
aunione
aunirono
aunisce
aunita
aunite
aunito
auranella
aurea
aurelia
aurelio
aurepe
aurigine
auro
auropa
auropea
aurora
aurorae
aurore
aurunca
aus
ausa
ausaje
ausajeno
ausanno
ausano
ausanza
ausanze
ausata
ausate
ausato
ausava
ausaveno
ause
auso
ausonia
aussenzio
austerlitz
austin
austo
australia
australian
australiane
australiano
australis
austria
austriaca
austriace
austriache
austriaco
austro
ausuo
aut
auta
autavilla
autavillesi
aute
autechiane
autenemi
autezza
auti
autilizzata
autilizzate
autilizzato
auto
autobiografico
autobomba
autobus
autoctone
autogestito
automateca
automobile
automobili
autonoma
autonome
autonomia
autonomie
autonomo
autoprudotto
autore
autoreta
autori
autorita
autoritratto
autostrada
autostrade
autra
autre
autrice
autro
autru
autunn
autunne
autunno
auture
aux
auza
av
ava
avagliano
avallone
avampos
avanguardia
avant
avanti
avanza
avanzaje
avanzamento
avanzata
avanzate
avari
avariato
avaro
avarri
avarria
avas
avascia
avati
ave
avea
avella
avellana
avelline
avellinese
avellino
avenno
aveno
aventi
avenue
aver
avere
averno
aversa
aversano
averti
averza
averzano
avess
avessa
avesse
avessero
aveta
avetale
avete
aveto
avetrana
avett
avetta
avette
avettene
avetteno
avettero
avev
aveva
avevano
aveveno
avezzano
avi
aviaria
aviatore
aviazzione
avigliana
avigliano
avillino
avimma
avimmo
avisse
avit
avita
avite
aviv
aviva
avo
avorio
avota
avrabbe
avramitiche
avrebbe
avro
avrunzo
avta
avui
avulsa
avut
avuta
avute
avuto
avva
avve
avvelenamento
avvelenata
avvelenate
avvengono
avvenimento
avvenimiente
avvenimiento
avvento
avventura
avventure
avvenuta
avversario
avvertimento
avverze
avvia
avviaje
avviata
avvicina
avvicine
avvicino
avvio
avviso
avvocata
avvocato
avvoltoio
avvucato
avvultoio
avǝ
award
awards
axel
ayanami
ayglerio
az
aza
azeglio
azerbaijan
azienda
aziende
azienne
azio
azione
azoto
azuma
azzano
azzardo
azzecca
azzeccata
azzeccate
azzeccato
azzetta
azzicc
azzicca
azzicco
azzienda
azzienne
azzio
azzione
azzo
azzone
azzurr
azzurra
azzurre
azzurri
azzurro
b
ba
bab
baba
babbage
babbalo
babilonia
baby
bacca
baccaglio
baccala
baccara
bacche
bach
baci
baciami
baciati
bacino
bacio
back
backgroundcolors
bacoli
bacteria
bad
badessa
badia
baekje
bagaria
baggio
baghdad
baglioni
bagnara
bagnat
bagnate
bagni
bagno
bagnole
bagnoli
bagnolo
bagui
bahamas
bahia
bahn
baia
baiae
baianese
baiano
baila
baka
baker
baku
balcane
balcanica
balco
balcone
baldini
baldissero
ball
balla
ballad
ballads
ballata
balle
ballerina
ballerino
balletto
ballo
balluttaggio
balme
balneare
balotelli
balsamo
baltece
balteco
baltica
baltico
baltimore
bambe
bambina
bambini
bambino
bambola
ban
banach
banca
bancarelle
banco
band
banda
bandai
bande
bandecchi
bandera
bandiera
bandiere
banditi
bandmembers
bando
bang
banga
banja
banne
bannera
bannere
banno
banzano
baptiste
baquba
baquda
bar
bara
barack
barano
baratta
barba
barbados
barbaggianni
barbaja
barbara
barbarano
barbare
barbera
barbiere
barbieri
barbuda
barca
barcellona
barcelona
barche
barcino
barcone
bardata
bardi
bardiel
bardonecchia
bare
barese
bari
bariju
barile
barilli
barlecorn
barletta
barleycorn
barnes
barngarla
barnum
barocca
barocco
barone
baronessa
baroni
baronia
baronissi
barra
barras
barre
barrese
barrio
bars
barset
bart
bartolo
bartolomeo
barunisse
bas
basa
basalto
basata
basato
basca
bascio
basciu
base
baseball
baseleca
baselecata
baselice
basi
basile
basilea
basileca
basilecata
basilica
basilicata
basilicum
basilio
basket
basketball
bass
bassa
bassano
basse
basshunter
bassi
bassista
basso
bassupiano
basta
baste
basti
bastia
bastiano
bastida
bastiglia
bastone
bataille
batessa
batt
battaglia
battaglie
battaglini
batte
batteri
batteria
batterie
batterio
batterista
battette
battezzata
battipaglia
battipagliese
battista
battito
battle
battleship
battuta
battute
battuto
batwa
baudo
bauli
bava
bavarese
baviera
bazzano
bałtycka
bb
bba
bbacante
bbacca
bbacch
bballe
bbano
bbas
bbase
bbassa
bbate
bbato
bbattaglia
bbc
bbe
bbele
bbella
bbelle
bbellezze
bbello
bbene
bbera
bbere
bbestie
bbeta
bbete
bbi
bbia
bbiri
bbirra
bbita
bbleca
bbleche
bbleghe
bbo
bbona
bbonanema
bbone
bboreal
bbote
bbra
bbrar
bbre
bbreca
bbreco
bbrede
bbuo
bbuon
bbuone
bbuono
bbuott
be
beach
beast
beate
beatles
beato
beatrice
beautiful
beauty
bebbliete
bec
becchia
becenna
beceno
bedford
bedini
beduine
bee
been
beer
beethoven
befana
beferne
beghe
beijing
beirut
bel
belarus
belbo
belcastro
bele
belfast
belforte
belga
belge
belgio
belgrade
belize
bell
bella
bellavista
bellavita
belle
bellezza
bellezze
belli
belliche
bellini
bellissima
bellissimo
bellizzi
bello
bellosguardo
bellu
bellucci
belluno
belmonte
belo
belong
belsito
belvedere
bembardamie
bemmenuto
ben
benacus
benavendura
bene
benedettina
benedettine
benedettino
benedetto
benedhiti
benedica
benedicta
benedicti
beneditt
beneface
beneficie
beneficio
beneno
benettero
benetutti
beneve
benevento
benevie
beneviento
benevjento
benfica
bengalese
beni
beniamino
benigni
benin
benito
benjami
benjamin
bennard
bennato
bennute
bentivoglio
benute
benvenuto
benzina
beppe
beppino
ber
berardo
bere
berepe
berette
bereva
berg
bergamasco
bergamo
berger
bergoglio
beriale
berio
berkeley
berlenghie
berlin
berliner
berlinese
berlino
berlusconi
bermuda
berna
bernalda
bernard
bernardi
bernardino
bernardo
bernhard
berri
bersagliere
bersaglieri
bertarie
berte
bertolini
bertotti
berute
beruto
berzo
bes
besame
beso
best
bestia
besuogne
beta
betlemme
betterness
bettigle
bettiglia
betty
beve
bever
beverello
beverly
beyonce
beyond
bg
bi
bia
biagio
bianca
bianche
bianchi
bianchini
bianco
bianghe
biase
biava
bibbia
bibbliografia
bibblioteca
bibbriografi
bibliografi
bibliografia
bibliografiche
bibliographies
bibliography
biblioteca
bibliuteca
bic
biccari
bicchiere
bich
bicicletta
bicolor
biden
bideri
bie
biella
biellese
bielo
bielorussa
bielorussia
bielorusso
biennale
big
biglietto
bilancio
bilineata
bill
billboard
bimbi
bin
binari
binarie
binario
binh
binomio
binommiale
binte
bio
biodeverzeta
biografi
biografia
biografico
biografie
biography
bioleggi
biologgeca
biologgeco
biologgia
biologia
biomassa
bionda
bioreggiunale
bir
birbante
bird
birmania
birmano
birmingham
birra
birreria
bis
bisaccese
bisaccia
bisanzio
bisceglie
bise
bisestile
bishop
bisignano
bisogno
bistecca
bita
bite
bitinia
bitonto
biugrafia
bivere
bivio
bivona
bixio
bizantina
bizantino
bizzantino
bl
bla
black
blackwell
blair
blanc
blanca
blasetti
blatter
ble
bleu
blica
blimp
blocca
blocche
blocco
bloch
block
blog
blood
bloom
bloomberg
blu
bluas
blue
blues
blunt
bn
bo
boara
bob
bobbio
boca
bocca
boccaccio
boccia
boccoli
bocelli
boggs
bogota
bohe
bohr
bojana
bole
bolivia
bolla
bollate
bollati
bologna
bolognese
bolognini
bolsceviche
bolzano
bomba
bomber
bombo
bombycilla
bomma
bomme
bompiani
bon
bona
bonaccorti
bonagura
bonaneme
bonanotte
bonaparte
bonasera
boncompagni
bone
bonea
bongiorno
boni
bonifacio
bonifica
bonitese
bonito
bonn
bonnard
bonne
bonni
bono
bonocore
bonucci
bonus
boogie
book
books
boom
booth
boraginaceae
borbone
borboni
borbonia
borbonica
borbonico
bordeaux
border
bordo
borg
borghese
borghetto
borghi
borgia
borgo
borgoforte
borgofranco
borgone
borin
boringhieri
bormida
born
borra
borrelli
borroni
borsa
borsellino
borso
borussia
borza
bos
boschi
bosco
boscoreale
boscotrecase
boselli
bosnia
bosniaca
bosniace
bosniaco
boss
bossi
bot
bota
botanica
botanico
botaurus
bote
botrugno
botta
bottaccio
bottafascio
botte
bottega
botticelli
botto
bottom
bourg
bouxie
bova
bove
bovi
bovinus
bovio
box
boxe
boxing
boy
boys
br
bra
braccia
braccio
bracciolini
bracco
bracigliano
braciole
bradisismo
braes
bragaglia
bran
branco
brandeburgo
brando
brani
brano
bras
brasi
brasile
brasiliana
brasiliane
brasiliano
brassica
bratislava
bratte
brave
bravi
bravo
bravura
brc
bre
bregenz
brehm
brehme
brema
brenta
brescia
bresciano
bresse
brest
breta
bretagna
bretanneche
breve
brevi
bri
brian
briano
brianza
briciole
brics
bridge
brie
brienza
briga
brigadiere
brigantaggio
brigante
briganti
brigate
brigida
brigitta
brilla
brillante
brindisi
brinnese
brinneso
brinnisi
bristol
britanneca
britannece
britanneche
britannico
british
brividi
brixton
brizzi
broadcasting
broadway
brodo
broken
bronte
bronze
bronzo
brooklyn
broro
bros
brothers
brown
browning
bru
bruca
bruce
brumaio
bruna
brune
bruni
bruno
brunswick
brusciano
brusson
bruto
brutt
brutta
brutte
brutto
bruxelles
bruzolo
bs
bt
btt
bu
buatta
bubo
bucarest
bucci
buccino
buccirosso
buci
bud
budapest
buddhismo
buddismo
budduso
budoni
bue
buena
buenos
buffa
bugie
buje
bulenno
bulette
buleva
bulevo
bulgaria
bulgaro
bullets
bulogna
buluto
bum
bumbardamiente
bumbardamiento
bummardata
bune
bunea
bunifica
buo
buon
buona
buonabitacolo
buonalbergo
buonanotte
buonaparte
buonasera
buone
buongiorno
buongiovanni
buono
buonocore
buordo
buosch
burat
burbone
burboneca
burbonece
burboneci
burboneco
burbonica
burbonico
burdello
burghese
burgo
burhinus
burie
burlato
burlesque
burmese
burning
burns
burrine
burro
bursaspor
burton
burundi
bus
buscia
buselli
bush
business
busse
busso
bussoleno
busto
bute
buto
buttare
butteglia
buttigliera
butto
buttone
buttune
buvero
buzzati
buzzette
bw
by
byblos
bydgoszcz
bz
c
ca
cabaret
cabbala
cabberne
cabo
cac
caca
cacace
cacamaglia
cacao
cacatu
cacavo
cacc
caccavella
caccavelle
cacce
cacche
cacci
caccia
cacciaje
cacciano
cacciata
cacciate
cacciatore
cacciature
caccosa
cache
cachi
cacicco
cacio
cadde
cade
cadenze
cadette
cadetti
cadmio
cadore
caduta
cadute
caduti
caduto
cafe
cafettera
caffe
cafona
cafone
cafun
caggiano
cagl
cagle
cagliari
cagline
caglini
cagna
cagnaje
cagnajeno
cagname
cagnamento
cagnamie
cagnamiend
cagnamiente
cagnamienti
cagnamiento
cagnando
cagnane
cagnanno
cagnano
cagnarne
cagnata
cagnate
cagnato
cagne
cagneno
cagno
caianello
caiazzo
cainato
cairo
caiva
caivanese
caivano
cajola
cal
cala
calabbria
calabrese
calabria
calabrisella
calabrisi
calabro
calaio
calamare
calanca
calandra
calandrella
calangianus
calannarie
calannario
calasanzio
calascio
calascione
calasciunate
calata
calatafimi
calate
calatia
calav
calavrea
calavrese
calavria
calc
calcare
calcaree
calce
calci
calciatore
calcide
calcio
calcistich
calcule
caldera
cale
caleb
calemme
calendario
cales
calesse
calice
calidris
califano
califfo
california
caligaris
calimera
calimma
calise
call
calla
calle
calling
callisto
calma
calo
calogero
calore
calotte
calpazio
caltagirone
caltanissetta
calura
calvetti
calvi
calvizza
calvo
cama
camaldoli
camaldule
camargo
camastra
camb
camba
cambagn
cambagna
cambane
cambania
cambe
cambia
cambiare
cambiera
cambio
cambione
cambiuni
camboggia
cambra
cambrano
cambre
cambridge
cambrin
cambua
cambuasce
cambuasciane
came
camera
camerata
cameriera
cameriere
camerini
camerota
camerun
camillo
camino
camio
camisa
cammarano
cammarota
cammena
cammenanno
cammene
cammera
cammere
cammesella
cammina
cammine
cammini
cammino
cammisa
cammise
cammorza
camo
camorra
camozza
camozze
camp
campa
campagna
campagne
campagnola
campagnoli
campagnuole
campagnuolo
campaign
campana
campane
campanella
campani
campania
campanile
campanno
campano
campato
campava
campavano
campe
campeonato
campestris
campi
campidano
campiglia
campionat
campionate
campionati
campionato
campione
campioni
campitelli
campiu
campiuna
campiunate
campiunati
campiunato
campiune
campiuni
campo
campobasso
campoli
campolieto
campolongo
campomarino
camposano
campus
campusanto
camuno
camuosc
can
cana
canada
canadese
canal
canale
canali
canalone
canaria
canarie
canario
canasciuta
canasciute
canasciuto
canavese
cancellata
cancelle
cancelliera
cancelliere
cancello
cancielle
canciello
cancro
cand
canda
cande
candedate
candia
candida
candidato
candidatura
cane
canescione
canfanaro
cani
canidi
caniggia
canine
canis
canna
cannabaceae
cannarine
cannarsi
cannate
cannavaro
canne
cannelline
cannelotto
cannes
canneto
cannida
cannidato
cannio
cannit
cannite
cannole
cannon
cannune
cannuniere
cannuolo
cano
canone
canonica
canoro
canorus
canosa
canosce
canosceno
canoscenza
canoscere
canosciuta
canosciute
canosciuto
cant
canta
cantabro
cantaje
cantajeno
cantalamessa
cantalupo
cantando
cantanno
cantano
cantanta
cantante
cantanti
cantare
cantarono
cantastorie
cantata
cantate
cantato
cantatore
cantautore
cantautrice
cantava
cantavano
cante
cantelmi
cantera
cantero
canti
cantiere
cantieristica
cantilena
cantina
canto
cantoira
cantone
cantonese
cantune
canusce
canuscenza
canuscenze
canuscere
canuscette
canuscevano
canusci
canuscienze
canuscimmo
canusciu
canusciut
canusciuta
canusciute
canusciuto
canvas
canyon
canza
canzio
canzo
canzona
canzone
canzonetta
canzoni
canzoniere
canzuna
canzuncella
canzune
cap
capa
capac
capaccio
capace
capaceta
capaci
capacita
capaldi
capaldo
capanne
capasso
cape
capecciama
capece
capellareta
capelli
capeloche
capeluoco
capemonte
capemuort
capenno
capestrano
capetale
capetane
capetano
capette
capi
capigle
capille
capilli
capillo
capire
capisce
capisco
capita
capitaje
capital
capitala
capitale
capitali
capitan
capitana
capitane
capitano
capitava
capite
capitello
capitiniano
capito
capitolo
capitone
capitule
capitulo
capitune
capo
capocannonie
capocannoniere
capocci
capodacqua
capodanno
capodichino
capodimonte
capolavoro
capolinea
capolongo
capoluo
capoluoche
capoluoco
capoluogo
capone
caposaragnano
caposele
capozzi
capozzoli
cappa
cappabianca
cappadocia
cappe
cappella
cappelle
cappelli
cappello
cappie
cappiello
cappotto
cappuccini
caprarica
capre
capreolo
caprera
caprese
capri
capriccio
capricciusella
caprie
capriglia
caprile
caprimulgus
caprino
caprioli
capu
capua
capuana
capuano
capuluoco
capuluogo
capurro
caput
cara
carabiniere
carabinieri
caracciolo
caracuonchele
caracuoncolo
carafa
caraffa
caraibi
carano
carapelle
carate
caratte
carattere
caratteri
caratteristeca
caratteristeche
caratteristeco
caratteristica
caratteristiche
caratteristico
caratterizza
caratterizzata
caratterizzate
caratterizzato
caratterizzazione
caravaggio
caravan
caravita
carboidrate
carbonara
carbone
carboneca
carbonia
carbonio
carburante
carcare
carcerato
carcere
carceri
carcio
carcioffola
carcirate
cardano
cardasce
cardascio
cardena
cardenale
cardetiello
cardiff
cardillo
cardinale
cardito
cardona
carduelis
care
careca
carelli
carema
carena
careno
caretta
carette
carezze
carfizzi
cari
caria
carica
cariche
carife
carignano
carina
carinola
carinzia
carisma
carita
carizzi
carl
carla
carle
carlino
carlo
carloni
carlos
carlotta
carmagnola
carme
carmela
carmelo
carmen
carmiano
carmine
carn
carnacotta
carnale
carne
carnevale
carnico
carnivoro
carnosa
carnose
carnus
carnuse
caro
carocchie
carolina
caroline
carolino
carolus
carosello
carosino
carosone
carotenuto
carovigno
carp
carpe
carpenter
carpenters
carpi
carpiegl
carpignano
carpineto
carpino
carracci
carrara
carrare
carrascosa
carre
carreca
carrera
carreras
carretta
carretto
carria
carrie
carriera
carriere
carro
carroll
carrozza
carsana
carsoli
cart
carta
cartagene
carte
cartella
cartier
cartiere
cartografia
cartografo
cartography
cartone
cartoon
cartune
caru
caruli
carulina
carullo
caruofene
carusate
caruso
caruta
carute
caruvana
carvo
carvon
cas
casa
casablanca
casaglia
casagrande
casal
casalanza
casalbore
casalduni
casale
casalecchio
casalese
casaletto
casali
casalnuovo
casalpusterlengo
casaluie
casalvecchio
casalvieri
casamale
casamarciano
casamare
casamari
casamicciola
casandrino
casanova
casarano
casasco
casata
casatie
casavatore
cascata
casce
cascia
casciaforte
casciano
casciata
cascina
cascione
casciubo
casciulella
case
caseare
casei
casella
caselle
casenate
casene
caserma
caserme
caserta
casertana
casertano
casetta
casi
casilli
casimiro
casina
casine
casino
caso
casola
casoria
cassa
cassano
casserature
cassette
cassiano
cassina
cassinati
cassino
cassola
cast
casta
castagne
castagneto
castagnole
castaldo
caste
castel
castelfranci
castelfranco
castell
castella
castellammare
castellana
castellaneta
castellani
castellano
castelletto
castelli
castello
castelluccio
castellum
castelmorrone
castelnovo
castelnuovo
castelpoto
castelvenere
castelvernieri
castiell
castiellammare
castielle
castiello
castiglia
castigliano
castiglion
castiglione
castile
castoldi
castra
castri
castrignano
castro
castroregio
castrucci
castrum
cat
cata
catala
catalana
catalane
catalano
catalans
cataldo
catalo
catalogna
catalogo
catalunya
catane
catania
catanzaro
catari
catarina
catastrofe
catavero
cate
categoria
categorie
category
categuri
categuria
categurie
catena
catene
cateniello
caterina
caterinella
cathedral
catherine
cati
cato
catone
cattaneo
catteddrale
cattedra
cattedrale
cattive
cattivi
cattivita
cattivo
cattle
cattleya
catto
cattoleca
cattoleche
cattoleco
cattolica
cattolicesimo
cattolico
cattuolici
cattuolicissima
catturate
cau
caucaso
cauce
caudina
caudine
caudium
caulescens
caulisciore
cauro
causa
causaje
causanno
cause
cava
cavagl
cavagle
cavaglio
cavalcanti
cavalier
cavaliere
cavalieri
cavall
cavalle
cavalleria
cavalli
cavallino
cavallo
cavani
cavargna
cave
cavece
cavera
cavere
cavero
cavese
cavesune
cavetate
cavo
cavolfiori
cavoti
cavour
cavulo
cavuta
cavvo
cayman
cazetta
cazette
cazone
cazune
cazz
cazze
cazzimbocchio
cazzimma
cazzo
cazzuolino
cb
cc
cca
ccafe
ccafo
ccajorde
ccancelle
ccane
ccanzone
ccanzune
ccariche
ccarte
ccasa
ccase
ccatalano
ccavvo
ccd
cce
cceca
ccene
ccera
ccerase
ccercule
ccezzione
ccezziune
cch
cche
cchene
cchere
cchesta
ccheste
cchesto
cchi
cchia
cchiane
cchiante
cchie
cchiena
cchiera
cchiere
cchiesa
cchiese
cchiesia
cchille
cchio
cchiorma
cchiu
cchiuppart
cchiupparte
cchiussa
cchiuttosto
cchjiu
cchju
cchu
cci
ccia
cciane
ccidere
ccierte
ccinche
ccio
ccioe
ccita
ccitta
cciu
cclasse
cco
ccoglio
ccom
ccon
ccone
ccopie
ccoppa
ccosa
ccose
ccoste
ccrestiane
ccroato
ccu
ccugliandre
ccula
ccule
cculonie
cculure
ccummedie
ccunfezzione
ccuntrario
ccuorne
ccura
ccure
ccurone
ccustellazzione
cd
cdl
cdr
cdu
ce
cea
ceara
ceca
cecata
cecate
cecatella
cecchi
ceccia
cecerene
cecilia
cecina
cecioni
ceco
cecoslovacchia
cecrope
cede
cedette
cedimiento
cedro
cee
cefalopode
cefelua
ceglie
cegliucc
cegliucce
celadon
celano
cele
celebbre
celebra
celebrazzione
celebre
celebri
celebrita
celentano
celeste
celestino
celi
celicia
celine
cell
cella
cellae
cellarum
celle
cellino
cellole
cellucci
cellula
cellulare
cellule
celso
celtis
cema
cemento
cemmerza
cena
cendenare
cendi
cendrale
cene
cenere
cenerentola
cenerentula
cengeva
cennere
cenni
censimento
censimiento
censita
census
cent
centenario
center
centi
centimetre
centinara
cento
centola
central
centrale
centrali
centre
centri
centro
centrocampista
centrocampo
centrodestra
centrosinistra
centru
centurazzione
century
cenzura
ceo
cepelle
cepolla
cepolle
ceppaloni
ceppo
cera
cerameca
ceramica
cerano
cerasa
cerase
cerasiello
ceraso
cerberus
cerbone
cerbonio
cerca
cercaje
cercajeno
cercammo
cercanno
cerche
cerchi
cerchio
cerco
cercola
cere
cereale
cereali
cerebrale
cerere
ceres
ceresole
cereviello
ceriale
cerimonia
cernusco
cerreto
cerro
cert
certa
certamente
certe
certhia
certi
certo
certosa
cervati
cerve
cervella
cervellatine
cervicati
cerviello
cervinara
cervino
cervo
cerzeto
ces
cesa
cesana
cesare
cesarea
cesareo
cesario
ceschina
cese
cesena
cesinali
cesso
cestista
ceta
cetara
cete
ceto
cetra
cetta
cettadenanza
cettadine
ceue
ceuta
ceva
cevile
cfr
cgd
ch
cha
chainsaw
challand
chamberlain
champagne
champions
championship
chance
change
channel
chantant
chapel
chaplin
character
charadriidae
charadriiformes
charadrius
charles
charlie
charlot
charlotte
chartae
che
checozza
checozze
cheek
chefren
chefrene
chela
chele
chell
chella
chelle
chelli
chello
chelo
chelore
chelsea
chelteva
cheltevata
cheltevate
cheltevazione
cheltevaziune
chelture
chelure
chembare
chembene
chembettura
chembine
chemblo
chembo
chembreme
chembuos
cheme
chemenza
chemenze
chemmanna
chemmare
chemmatt
chemmattemie
chemme
chemmie
chemunale
chemune
chemuneta
chemunicazione
chen
chena
chendeneture
chendro
chene
chenesciuta
chenesciute
chenfe
chenfie
chenfonne
cheng
chengorre
chenopodium
chenu
chenzema
chenzu
chenzumu
cheope
chepe
chepertura
chepie
chepri
cher
chera
cherasco
chere
chernobyl
chernute
cherperazione
cherperaziune
cheru
cherua
ches
chess
chest
chesta
cheste
chesti
chesto
chestu
chete
chettone
cheyenne
chi
chia
chiacchiere
chiacchio
chiagne
chiagnere
chiagnimmo
chiaia
chiaiano
chiaita
chiaitanno
chiaja
chiajano
chialamberto
chiam
chiama
chiamarono
chiamarra
chiamat
chiamata
chiamate
chiamato
chiamava
chiame
chiamma
chiammaje
chiammajeno
chiammammo
chiammano
chiammarse
chiammat
chiammata
chiammate
chiammati
chiammato
chiammava
chiammavano
chiammave
chiammaveno
chiammavo
chiamme
chiammeno
chiammo
chiamo
chian
chiana
chianca
chianche
chianchiere
chiand
chianda
chiande
chiane
chianeggiante
chianese
chianeta
chianete
chianista
chianite
chiano
chianocco
chianta
chiante
chianti
chianto
chianu
chianura
chianure
chiappa
chiappare
chiappera
chiar
chiara
chiarame
chiaramente
chiaramonti
chiaravalle
chiare
chiari
chiaro
chiarolanza
chias
chiat
chiata
chiatamone
chiate
chiatre
chiatro
chiatt
chiatta
chiattaforma
chiatte
chiatto
chiave
chiazz
chiazza
chiazzatta
chiazze
chicago
chickasaw
chico
chie
chiedenno
chiedere
chiedette
chiegate
chieja
chiellini
chien
chiena
chiene
chieno
chierennose
chieri
chies
chiesa
chiesanuova
chiese
chiesia
chiesie
chiete
chieti
chieuti
chievo
chigl
chigle
chiina
chijte
chil
child
children
chile
chilena
chili
chill
chilla
chille
chilli
chillo
chillu
chilo
chilometre
chilometri
chilometro
chilomitri
chilommetre
chimeca
chimeco
chimera
chimica
chimico
chin
china
chinati
chine
chinese
chino
chio
chioggia
chiorma
chiova
chiove
chiovere
chiovi
chirchio
chire
chiri
chirico
chis
chisone
chiss
chisse
chist
chista
chiste
chisti
chisto
chistu
chitarra
chitarre
chitarrist
chitarrista
chitarriste
chitt
chiu
chiude
chiudere
chiudette
chiumme
chiunchiusone
chiunque
chiuovo
chiurale
chiurazzi
chiure
chiurette
chius
chiusa
chiuse
chiuso
chiusura
chiuttuosto
chjama
chjena
chjite
chju
chloris
cho
choctaw
choice
chris
christian
christine
christopher
chronicle
chrysalis
chryse
church
churchill
ci
cia
ciad
ciampa
ciampe
ciampi
ciamurr
ciao
ciapponese
ciappunese
ciardine
ciardino
ciarluottolo
ciascun
ciascuna
ciaurro
ciavula
cibbe
cibo
cicala
cicc
cicciano
ciccillo
ciccio
cice
cicenielle
cicer
cicerchie
cicere
cicerenella
cicerone
ciclista
ciclo
ciclope
ciconia
cicule
ciddi
cido
cie
cieca
cieli
cielo
cielu
ciendr
cient
ciente
ciento
cientre
cientro
cientumila
ciert
cierta
ciertamente
cierte
cierti
cierto
cierve
ciervo
cifra
cigl
cigliano
ciglio
cil
cile
cilentana
cilentano
cilento
ciliento
cilindro
cima
cimarosa
cime
cimitero
cimitile
cimma
cimme
cin
cina
cinche
cinco
cincu
cincuciento
cine
cinema
cinematografe
cinematografeca
cinematografeco
cinematografica
cinematografiche
cinematografico
cinematografo
cinematugrafeco
cinematugrafico
cinerea
cinese
cingh
cinghe
cini
cinise
cinisello
cinisi
cinqu
cinqua
cinquanta
cinquantaci
cinquantado
cinquantano
cinquantaqua
cinquantase
cinquantatre
cinquantina
cinquanto
cinquantu
cinque
cinquegrana
cinquetti
cinse
cinta
cintrale
cintura
cinzia
cio
ciociara
cioe
cioffi
ciotti
cipo
cippo
cipriano
cipriota
cipro
circa
circaje
circanno
circavano
cirche
circhie
circo
circolare
circolo
circondario
circoscriziune
circoscrizzione
circuito
circulare
circule
circulo
circumvesuviana
circunda
circundario
circunferenza
circus
circuscrizione
circuscrizzione
cirenaica
cirillo
ciro
cirr
cirrus
cis
cisalpina
cisalpine
cisano
cisterna
cisticola
cit
cita
citadina
citadino
citarella
citata
citate
citato
citazzione
citeriore
citra
citrus
citta
cittadella
cittadina
cittadinanza
cittadine
cittadini
cittadino
cittaducale
city
ciu
ciucce
ciucciariello
ciuccio
ciucculata
ciuciari
ciudad
ciuff
ciuffa
ciutat
civeca
civeco
civica
civico
cividate
civil
civile
civileta
civili
civilizzazzione
civilta
civisport
civita
civitas
civitella
civium
cjento
ck
cl
cla
claire
clan
clandestine
clara
clark
class
classe
classeca
classeco
classefecata
classefecate
classefecato
classefecazione
classic
classica
classiche
classici
classicista
classico
classifeca
classifica
classificaje
classificata
classificate
classificazione
classificazzione
classifiche
claude
claudia
claudio
claus
clausura
clausus
claviere
clayton
cle
clema
clematizzazione
cleme
clement
clemente
clementina
clementino
cleopatra
clermont
clia
clic
clicca
clifford
clima
climacus
climateca
climateche
climatica
climma
clinton
cln
clock
cloro
cloroformio
close
clu
club
clube
cm
cn
cneca
cneche
cnica
co
coalizzione
coassolo
coast
coazze
cobra
coburg
coca
cocc
cocca
cocceio
cocch
cocche
coccherune
coccheruno
cocchia
cocco
coccosa
coccothraustes
coce
cocene
cocere
coda
codanzi
code
codece
codice
codirosso
coefficiente
coelebs
coeli
cofanetto
cogitatur
coglie
cogliere
cognome
coi
coincide
coinvolto
coiro
col
cola
colantonio
cole
coletta
coli
coll
colla
collabora
collaboraje
collaborazione
collaborazzione
collana
colle
collecroce
collection
collega
collegame
collegamento
collegato
colleggiata
collegio
collegium
collegno
collepasso
collera
colleretto
colletta
collettiva
collezione
colli
colliano
collina
collins
collio
colloque
collurio
colmata
colo
cologno
colomba
colombano
colombia
colombiano
colombo
colonia
colonizzazione
colonna
colonne
colonnello
color
colore
colori
colors
colp
colpa
colpe
colpi
colpisce
colpita
colpo
coltiva
coltorti
columba
columbia
com
coma
comando
comaneci
comasco
combattere
combattimento
combattuto
comboni
come
comencini
comet
comic
comiche
comici
comico
comics
comin
comincia
comine
coming
comino
comitato
comite
comitis
comiziano
comm
comma
commanno
comme
commedia
commedie
commediografo
commenditi
commerciale
commercio
commissario
commissione
committee
commo
common
commons
commonwealth
communale
commune
communemente
communeta
communication
communis
communista
communita
community
communque
comneno
como
compagne
compagni
compagnia
compagno
company
comparatico
comparative
compare
compari
competizione
competizzione
compilato
compito
complesso
completa
completamente
complete
completes
completo
complotto
component
componeto
composition
compositore
composizione
composizioni
composta
compra
comprensorio
compton
computer
computing
comu
comun
comunale
comune
comunemente
comuneta
comungue
comuni
comunicazione
comunicazzione
comunione
comunista
comunisti
comunita
comunque
con
cona
conca
conce
concentriche
concepcio
concept
concert
concerto
concessione
concetta
concetto
conche
conchiglie
concia
conciare
concierges
concilio
conco
concorde
concorrente
concorrenza
cond
conda
condannata
conde
condizio
condizzione
condotta
condove
condr
condraspalle
conduce
conduttore
conduttrice
conegliano
confederate
conference
confi
confina
confine
confini
conflitti
confronte
confurmazzione
conga
congiura
congo
congrega
congregazione
congresso
conheci
coni
coniugazione
cono
conocchia
conoscenza
conoscere
conosciuta
conosciuto
conosco
conquista
conquistaje
conquistanno
conquistata
conquistato
conquiste
conseguente
conseguenza
consense
conservatorio
considerate
considerazzione
consiglia
consiglio
consilina
consolato
console
consorte
consorzio
constantin
constraints
consulare
consule
conta
contact
contadina
contadini
contaminazione
contano
contatto
conte
contee
contempora
contemporaneamente
conteneva
contenitore
contenuto
contessa
contest
conti
contiene
continentale
continente
continua
continuaje
continui
continuo
continuum
conto
contr
contra
contrada
contranomme
contrastato
contratto
contre
contribbui
contribbute
contributo
contro
controcorrente
control
controllata
controllo
contursi
convegno
conventio
convention
convento
conversano
conviento
convocato
conza
cool
cooperativa
coord
coordina
coorte
copa
copenaghen
copenhagen
coperche
coperchia
copertine
copertino
copia
copie
copp
coppa
coppe
coppia
coppie
coppola
copyright
cor
cora
coracias
coraggio
corano
corazon
corbara
corbin
corbucci
corbusier
corciano
corda
cordata
cordate
corde
cordiferro
cordova
core
corea
coreana
coreano
corelli
corfu
cori
corigliano
corinto
corio
corleone
corna
cornacchia
cornelia
cornelio
cornice
cornix
corno
coro
coromoto
corona
corone
corpa
corpo
corr
corrado
corre
correale
correggio
correlate
corrente
correra
corresponnono
corretta
corriere
corruzione
corsa
corsano
corse
corseca
corsi
corsica
corsini
corso
corsu
cort
corta
corte
corteo
cortese
cortile
cortina
cortine
corto
cortona
corvara
corvidae
corvo
corvus
corze
corzo
cos
cosa
cosas
cosce
coscia
cose
cosenza
cosere
cosi
cosiddetta
cosimo
cosmo
cosmuloge
cosmuloggia
coso
cospes
cossa
cossano
cossato
cossiga
cossovo
costa
costagliola
costante
costantino
costantinopoli
costanza
costanzo
coste
costiera
costitui
costituisce
costituiscono
costituita
costituito
costituzionale
costituzione
costituzzione
costo
costre
costretto
costruette
costrui
costruire
costruita
costruite
costruito
costrutture
costruzione
costruzzione
costruzziune
cotta
cotte
cotto
cottrau
cotugno
coturnix
country
countryball
countryballs
county
court
cover
cozie
cozza
cozzeche
cr
cra
cracovia
craie
crammo
crandol
cranio
crapa
crape
crapecuorno
crash
crasse
crasseco
crassefeca
crassefecate
crassefecato
crasseficate
crassifeca
crassifecata
crassifecato
crassifecazzione
cratere
craterie
craterio
cratiere
cravatta
crazy
cre
crea
creato
creatore
creazione
creazzione
crede
credera
credere
credette
credito
credo
credulo
crejano
crema
cremagliera
cremano
cremasco
crematum
creme
cremma
cremona
cremonese
creo
crere
crerenno
crereva
crero
crerono
cres
cresc
cresce
crescendo
cresceno
crescenzi
crescenzo
crescere
crescette
crescie
crescienzo
crescita
cresciute
cresciuto
crestiana
crestiane
crestianesemo
crestianesimo
crestiani
crestiano
creta
crete
crex
cri
cria
criaje
criajeno
crianno
crianza
criarse
criat
criata
criate
criato
criatore
criatur
criatura
criature
criaturiello
criaturo
criaturu
criazione
criazzione
cricket
cride
crie
crime
crimea
criminale
criminali
criminalita
crimma
crimminale
cripta
cris
crisa
criscenno
criscente
criscette
crisceva
criscito
crisciuta
crisciuto
crise
crisi
crispano
crispi
crispum
cristal
cristalle
cristian
cristiana
cristiane
cristianesimo
cristiani
cristiano
cristina
cristo
cristoforo
cristu
criteca
critecaje
critece
criteche
criteco
critere
critica
critical
criticato
critiche
critico
crkva
cro
croata
croate
croato
croazia
crocco
croce
crocelle
crociata
crocifisso
crodo
crolla
crollo
crona
cronaca
cronologgia
cronologia
cronologica
cross
crotone
crova
crown
cruata
cruate
cruato
crucia
crucifissione
crud
cruda
crude
crudele
cruijff
crure
crust
cruvare
cruz
cs
csa
cska
csoa
ct
ctp
cu
cua
cuafone
cualizione
cualizzione
cuane
cuanno
cuap
cuape
cuas
cuasctie
cuba
cubano
cubb
cucca
cucchiara
cucchiare
cucciarda
cucciarduo
cucciolo
cuccudrigghi
cuccumella
cuce
cucena
cucenate
cucenavano
cuci
cucina
cucinano
cucine
cucu
cuculus
cucurbitaceae
cucure
cucuruzz
cucuzzielle
cuddrurieddru
cudefeche
cudeficazione
cue
cugina
cugliuta
cugn
cugnato
cugnome
cugnomme
cui
cuiaba
cuiavia
cuie
cuje
cul
cula
culate
culatura
cule
culera
cull
cullabborazzione
cullabburazzione
cullaburazione
culleca
cullecamie
cullega
cullegamente
cullegamento
cullegamie
cullegamiente
cullegamiento
cullegano
cullegasse
cullegata
cullegate
cullegato
cullegava
culleggio
cullenare
cullezione
cullezzione
culliegamiente
cullin
cullina
cullinare
culline
culluriellu
culmata
culo
culombia
culone
culoni
culonia
culoniale
culonie
culonna
culonne
culore
culosso
culpette
culpevole
culpi
culpisce
culpita
culpito
culpo
culte
cultivata
cultivato
cultivazione
cultivazzione
culto
cultura
cultural
culturale
culturali
culture
cultures
culu
culura
culurate
culurato
culure
cum
cuma
cuman
cumandante
cumane
cumanna
cumannante
cumannata
cumannate
cumannato
cumanno
cumbacianne
cumbatte
cumbattere
cumbattette
cumbatteva
cumbatteveno
cumbattimento
cumbattuta
cumbeseziune
cumbina
cumbinazione
cumbine
cumbusezione
cumbustione
cume
cumeta
cumetato
cumfine
cumfronto
cumfusione
cumhuriyeti
cumicita
cumignano
cuminciato
cumine
cuminese
cumino
cumitato
cumm
cumma
cummanna
cummannaje
cummannante
cummannate
cummannato
cummannava
cummanno
cummatte
cummattere
cumme
cummedia
cummedie
cummediografo
cummegliate
cummegliato
cumment
cummerciale
cummerciali
cummercialista
cummerciante
cummercio
cummes
cummiglia
cummigliante
cummigliata
cummissione
cummo
cummoglia
cummoglie
cummuglia
cummune
cummuneca
cummunecaje
cummunecato
cummunecazzione
cummuneta
cummunista
cummunitate
cumpa
cumpagna
cumpagne
cumpagni
cumpagnia
cumpagnie
cumpagno
cumpaiono
cumpajeno
cumpajono
cumpare
cumparette
cumparve
cumparza
cumparze
cumpassione
cumpatto
cumpete
cumpetizzione
cumpisizzione
cumplessa
cumplessivamente
cumplesso
cumpleta
cumpletamente
cumpleto
cumpone
cumponente
cumponeto
cumponetore
cumpongono
cumporto
cumpositore
cumpositure
cumposizion
cumposizzione
cumposta
cumposte
cumposto
cumpre
cumprecata
cumprende
cumprendeva
cumprenne
cumprennente
cumprenneva
cumpresa
cumprese
cumpreso
cumpressa
cumpressivamente
cumpresso
cumpreta
cumpretamente
cumpreto
cumpunente
cumpuneva
cumpunuta
cumpuoste
cumpurta
cumpurtamento
cumpusezione
cumpusitore
cumpusizzione
cumun
cumunale
cumune
cumuni
cumunita
cun
cuncedette
cuncentra
cuncentraje
cuncentrano
cuncentrata
cuncentrazzione
cuncerne
cuncertino
cuncessione
cuncetto
cuncezione
cuncezzione
cunchiurette
cunchiusione
cunciate
cuncie
cuncierte
cuncierto
cunciesso
cunciette
cuncietto
cuncintrato
cuncurrente
cuncurrenze
cund
cundade
cundadine
cundanna
cundannate
cundannato
cundanne
cunde
cundene
cundenue
cundenuita
cundenza
cundenzata
cundeziune
cundi
cundimente
cundimento
cundinue
cundite
cundizione
cundizzione
cundizziune
cundotta
cundotto
cundrada
cundrarie
cundras
cundrata
cunduttore
cunemi
cunemicame
cuneo
cunfederazione
cunfederazzione
cunferenza
cunferette
cunferma
cunfermano
cunfermate
cunfermato
cunfessore
cunfezzione
cunfi
cunfina
cunfinante
cunfinata
cunfine
cunflitte
cunflitto
cunfro
cunfronto
cunfrunta
cunfurmazziune
cunfuso
cunge
cungendrazione
cungessione
cungessiune
cungratularse
cungresso
cungriesso
cungues
cunigli
cunnannato
cunnemie
cunningham
cunnizziune
cunnotta
cuno
cunosce
cunoscere
cunquestata
cunquista
cunquistaje
cunquistata
cunquistate
cunquistatore
cunquiste
cunsacrata
cunseguenza
cunseguita
cunsequente
cunsequenza
cunserva
cunservano
cunservata
cunservate
cunservato
cunservazzione
cunsideranno
cunsiderata
cunsiderate
cunsiderato
cunsiderava
cunsigghio
cunsiglia
cunsiglie
cunsiglio
cunsiste
cunsunante
cunt
cunta
cuntadine
cuntadino
cuntajeno
cuntaminate
cuntaminaziona
cuntaminazione
cuntanno
cuntate
cuntatte
cuntatto
cuntava
cuntavano
cunte
cuntea
cuntemporanee
cuntene
cuntenente
cunteneva
cuntengono
cuntenitore
cuntento
cuntenuaje
cuntenuta
cuntenute
cuntenuto
cuntessa
cunti
cuntiene
cuntinentale
cuntinente
cuntinento
cuntinua
cuntinuaje
cuntinuava
cuntinuo
cunto
cuntrada
cuntraddittorie
cuntrannomme
cuntranomme
cuntraria
cuntrarie
cuntrario
cuntrasta
cuntraste
cuntratte
cuntratto
cuntribbui
cuntribbute
cuntribbuto
cuntributo
cuntro
cuntrolla
cuntrollo
cuntrovera
cuntrulla
cuntrullata
cuntrullate
cuntrullato
cuntruollo
cuntu
cuntuorne
cunusciuta
cunusciute
cunusciuto
cunvento
cunvenzione
cunversibile
cunvertette
cunviente
cunviento
cunvivenza
cunzacrata
cunzacrate
cunze
cunzedera
cunzederata
cunzederate
cunzegue
cunzeguenza
cunzerva
cunzervate
cunzervatoce
cunzervatore
cunzervatorio
cunzervazione
cunzerve
cunzi
cunzidera
cunzideranno
cunziderarse
cunziderata
cunziderate
cunziderato
cunzigl
cunzigle
cunzigli
cunziglie
cunziglio
cunzignanno
cunzista
cunziste
cunzuma
cunzumata
cunzunande
cunzunante
cunzuninde
cuo
cuocc
cuocce
cuoche
cuoco
cuofano
cuofene
cuofeno
cuogl
cuoll
cuollo
cuomo
cuonce
cuoncio
cuore
cuori
cuorincoro
cuorno
cuoro
cuorp
cuorpe
cuorpo
cuorve
cuott
cuotto
cup
cupa
cupe
cupellini
cupenaghen
cuperta
cuperte
cupertina
cuperto
cupia
cupiello
cupierto
cupola
cupolo
cuprette
cupula
cura
curaggio
curaggiuso
curano
curata
curcio
curdata
cure
curi
curia
curial
curiazi
curiosita
curiosity
curitiba
curiusita
curling
curnacchia
curnuto
curona
curone
curpo
curradino
currado
curre
currelate
currente
currespenne
curresponn
curresponne
curretto
curriente
currilate
curry
curse
cursi
curso
curt
curta
curte
curtie
curtielle
curtiello
curtigli
curtiglio
curtile
curtis
curto
curv
curva
curvette
curvirostra
curz
curze
curzo
cus
cusano
cuscente
cuscenza
cuscie
cuscienza
cusenza
cusiddetta
cusio
cussi
cussidditte
cussidditto
custa
custaje
custantenobbule
custe
custellazzione
custere
custie
custiera
custiere
custituette
custituisce
custituita
custituite
custituito
custituzziona
custituzzione
custjera
custode
custregnenno
custrette
custrignette
custruette
custrui
custruita
custruite
custruito
custruttiva
custruzione
custruzzione
custume
cut
cutie
cutrofiano
cutron
cutrunis
cutte
cuttone
cuttura
cyanistes
cyclamen
cynthia
cz
cæsar
d
da
daccapo
dace
dacia
dagli
dai
daia
daicon
daily
daj
daje
daki
dakota
dal
dalai
dali
dall
dalla
dallabitato
dalle
dalmata
dalton
dama
damasco
damaso
dame
damiano
dammaje
damme
dammillo
dan
dance
dancehall
dancing
dane
danemarca
danese
dangerous
dangquotidiani
daniel
daniela
daniele
danieli
danielino
danilo
danimarca
danin
danish
dann
danne
danni
danno
dannuse
danny
danske
dantalian
dante
danubbio
danubio
danza
danze
danzica
danzig
dapo
dappettutt
dappettutte
dapu
dare
dari
dario
dark
darkgrey
darmstadt
darse
das
dase
data
database
date
dateformat
dati
dato
davante
dave
david
davide
davidovits
davis
day
days
dayton
dbm
dc
dd
dda
dde
ddeje
ddenare
ddend
dderitte
ddete
ddevierze
ddi
ddialette
ddicere
ddijo
ddimenziune
ddint
ddio
ddipartimente
ddirettive
ddo
ddoce
ddoje
ddolce
ddu
dduje
de
dea
dead
deaf
deafon
death
debbele
debbole
debbuttaje
debora
deborah
debutta
debuttaje
debutto
deca
decade
decaduto
decameron
decamerone
decaro
decate
dece
decebalo
decede
decedottesemo
decema
decembre
decemo
decenne
decennio
decerette
decette
deceva
deche
dechiara
dechiaraje
dechiarazione
decia
decianno
decide
decidette
decidetteno
decie
decima
decimmo
decimo
decisa
decise
decisero
decisione
deciso
declino
deco
decorata
decorazione
decorazioni
decorazzione
decre
decreto
decumane
decumano
decurate
decurazzione
dedeca
dedecaje
dedica
dedicaje
dedicanto
dedicata
dedicate
dedicato
deep
deeper
defatte
defauto
defe
defenezione
defenite
defennere
defesa
deffecelme
deffi
deffre
defie
defini
definire
definita
definite
definitiva
definitivamente
definito
definiva
definizione
definizzione
deformed
deftones
defunto
degli
degna
degno
dei
deimos
del
delegato
delegazione
delegazzione
delegenzia
delfina
delfino
delgado
deli
delicato
delichon
delitto
delizia
dell
della
delle
delli
dello
delore
delta
delure
deluso
deluxe
dem
demanie
demanio
deme
demenazione
demenetive
demenziune
demetrio
demi
deminie
demo
democra
democrateca
democrateco
democratica
democratiche
democratici
democrazi
democrazia
democrazzia
demofilo
demogra
demografeca
demografeco
demografi
demografia
demonio
demora
demucra
demucratico
demugrafeca
den
dena
denare
denaro
denastia
denate
denaziune
dend
dende
dendrocopos
dene
deneminazione
denengiate
denham
denis
deno
denominazione
denominazzione
denomminazione
densetsu
dentro
denunce
denuncia
denza
denzeta
denzita
departamiento
departono
depe
dependenze
depenne
deperibilita
depinte
deplo
deposeto
deppela
depressione
deputate
deputati
deputato
der
dera
derand
derande
derane
derata
derby
dere
dereggiuta
dereggiuto
deretta
derettame
derette
derevate
deritt
deritta
deritte
deritto
derittore
deriva
derivante
derivate
derivato
derivazione
derivazzione
derrepato
derrick
des
descennente
desceplenare
desceprina
descrevette
descrezzione
descritto
descrive
descrivere
descrivono
descrizione
descrizzione
descurzo
desede
desegne
deserteco
deserto
desfazio
desfiecele
desgrazie
desidera
desiderio
desie
desierto
design
designa
designat
designer
despie
destesa
destina
destinata
destinate
destini
destino
destiny
destra
destribbuzzione
destro
destrudo
destrutte
destrutto
dete
detective
detentore
detenzione
determenative
determinative
determinativo
determinato
detta
dettaglio
dette
detteno
detto
deutsche
deva
devano
deve
devenette
devenne
deventa
deventaje
deverse
deverza
deverze
deverzeta
deverzo
devi
devie
devierza
devierze
devierzo
devo
devono
devozione
devuta
devuzione
dezzione
dezziunario
dhuza
di
dia
diacono
diaframma
diagramma
diale
dialettale
dialettali
dialette
dialetti
dialetto
dialettu
dialiette
dialitte
dialogo
dialogs
diamante
diametro
diamond
diana
diano
diario
diary
diavolo
dibattito
dibuttato
dic
diccionari
dice
dicembre
dicene
dicenno
diceno
dicere
dicesse
dicette
dicetteno
diceva
dicevano
dich
dichiara
dichiaraje
dichiarata
dichiarato
dichiarazzione
dici
dicia
dicianu
dicimmo
dicio
dicisione
dicite
dicitencello
dick
dico
dicono
dicor
dicotiledone
dicotomia
dictionary
dictionnaire
dicu
didero
didier
die
diebbete
diebuster
diece
dieci
diede
diego
diente
dies
dieta
dietro
difennere
difensore
difenzore
difesa
differe
differente
differenti
differenza
differenze
differenzia
difficile
difficolta
diffusa
diffuse
diffusi
diffusione
diffuso
diga
digam
diggetale
diggitale
digilander
digital
digitale
dignita
dilemma
dilettante
dimane
dimanna
dimensione
dimensiune
dimenticati
dimenzione
dimenzioni
dimenziune
dimettette
dimme
dimmi
dimostrazzione
dimustranno
dimustrato
din
dinamite
dinamo
dinasteco
dinastia
dinastie
dincello
dine
dini
dino
dins
dint
dinta
dinte
dinto
dintorni
dio
diocesano
diocese
diocesi
diocleziano
diodati
diodato
dion
dionigi
dios
diossina
diossine
dipartime
dipartimento
dipende
dipendenze
dipenne
dipennente
dipennevano
dipinto
diploma
diplomatico
dipromazzia
diputacio
dir
diramazione
dire
director
diretta
direttamente
direttamiente
dirette
diretto
direttore
direttorio
direzionale
direzione
direzzione
dirgli
dirigente
diritte
diritti
diritto
disagio
disarmo
disastro
disc
discareca
discendente
discesa
disch
dische
dischetto
dischi
dischie
disciplina
discipline
disco
discografeca
discografi
discografia
discografica
discografie
discorse
discorsi
discorso
discorzo
discoteca
discrete
discreto
discugrafia
discussione
discute
disegna
disegnaje
disegnata
disegnate
disegnato
disegnatore
disegne
disegni
disegno
disgrazia
disgrazie
disigne
disiu
dismessa
disney
diso
disoccupazzione
disperata
dispettosa
dispiette
dispietto
disponibile
disposizione
disposizzione
dispotismo
dispunibbele
dispusitive
disputa
disputato
disse
dista
distante
distanza
distanzia
distingue
distinguere
distinta
distinte
distinzione
distrette
distretti
distretto
distribuzione
distribuzzione
distrito
distritti
distritto
distrugge
distruggere
distruggette
distruggiuta
distruggiute
distrutta
distrutte
distrutto
distruzzione
disturbo
dit
dite
ditegli
ditions
dito
ditt
ditta
dittatore
dittatura
ditte
ditto
diu
diure
diva
dive
divenette
divenne
diventa
diventaje
diventanno
diventato
divento
divers
diversa
diverse
diversi
divertimento
diverza
diverzamente
diverze
diverzo
divi
divide
dividono
divierse
divierze
divin
divina
divine
divinita
divino
divisa
divise
division
divisione
diviso
divo
divorzio
divulgatore
dizionario
dizziunario
dj
dje
djoser
djvu
dl
dler
dlla
dm
dna
do
doc
doce
dock
documentare
documentarie
documentario
documentary
documentazione
documente
documenti
documento
documiente
documiento
dodece
dodici
dodo
doganella
doge
dogma
dogs
doie
doje
dolce
dolceacqua
dolceaqua
dolci
dolcino
dole
dollare
dollaro
dolo
dolomia
dolore
dom
domain
domanda
domande
domani
dome
domenica
domenico
domestica
domestico
domesticus
domicella
domicellese
domina
dominazzione
domingo
domini
dominica
dominicana
dominio
dominique
domizia
domiziano
dommartin
dommesteco
don
donaci
donadoni
donald
donatello
donato
donazione
donazzione
donca
dong
dongo
donna
donne
dono
donovan
door
doors
dop
dope
dopo
dopoguerra
dopp
doppe
doppia
doppiamente
doppiatrice
doppie
doppietta
doppio
doppo
dopu
dor
dora
dorata
dorato
dorelli
doria
doris
dorme
dornan
dorothea
dortmund
dos
dossier
dostoevskij
dote
dottoressa
douard
dove
dover
doveva
dovuta
dovute
dovuto
down
downloads
downs
dr
draga
draghi
drago
dragon
dragonese
dragonzio
drama
dramma
drammatiche
drammatico
drammaturgia
drammaturgo
drammi
dream
dreche
drenagg
drennaggio
dresda
dritta
dro
droga
drupa
dryobates
dryocopus
ds
dsb
dtirol
du
dua
dub
dubbi
dubbie
dubius
dublin
dubstep
duc
duca
ducate
ducato
ducatus
duche
duchessa
ducis
duck
ducumiente
dudece
due
duello
duemilasei
duet
duetto
duge
dugenta
dugnano
dui
duie
duimila
duino
duj
duje
dule
dulore
dulure
dumanna
dumas
dumesteco
duminata
duminazzione
duminie
duminio
dummeneca
dummineco
dumminio
dummy
duna
dune
dunerfors
dunga
dunque
duo
duomo
duorme
duplice
duppiezza
duppio
dur
dura
duraje
duramente
duranne
durante
durata
durate
durato
durazzano
durazzeschi
durazzo
durce
durece
durici
durium
durmenno
durmi
durmite
duro
durscht
dutato
duttore
duttrina
duva
duvere
duvette
duvuto
dux
dv
dvd
dx
dxo
dynamic
dynit
dz
də
e
ea
eaar
ead
early
east
eav
ebbe
ebbero
ebbi
ebbraica
ebbreca
ebbreche
ebbree
ebbroca
ebichu
ebner
eboli
ebook
ebraica
ebraico
ebrei
ec
ecc
eccellenza
eccentreceta
eccetera
eccette
eccezione
eccezzione
eccezziunale
eccezziune
ecclesia
ecclesiae
ecclesiastice
ecco
eccomi
echioides
echoes
eclanese
eclano
eco
ecologgia
ecologia
ecomafia
ecomafie
ecomafiuse
economeca
economeche
economeco
economi
economia
economica
economicamente
economiche
economico
economista
econumia
ecopacifismo
ecoses
ecuador
ecuno
ecunomeco
ecunomia
ecunomica
ecunumi
ecunumia
ecunumista
ed
eda
edagricole
eddy
ede
edefice
eden
edet
edetrice
edf
edgar
edi
edibi
edicions
edificazzione
edifice
edifici
edificio
edifico
edilizia
edimburgo
edinson
edipo
edit
edita
edithistory
edition
editore
editori
editorial
editoriale
editrice
editto
ediz
edizione
edizioni
edizioniricciardi
edizzione
edoardo
edson
eduardo
educac
educativo
educazione
educazzione
edvige
edward
edwin
ee
effettivamente
effetto
effettuate
efficiente
efficienza
efterskole
egemonia
egidio
egitto
egiziaca
egizziano
egretta
eguaglianza
eguale
eh
ei
eiffel
eileen
ein
einaudi
eine
einstein
einwegtra
el
elatior
elba
elboeuf
eldo
ele
electa
elefante
eleme
elementare
elemente
elementi
elemento
elemie
elemiente
elemiento
elena
elenca
elencate
elenche
elenco
eleonora
elette
eletto
elettorale
elettore
elettrica
elettriche
elettrico
elettromagnetico
elettronic
eletturale
elevata
elezio
elezione
eleziune
elezzione
elezziune
elfman
elia
eliano
elicottero
eliminata
eliminatori
eliminature
eliminazzione
elio
eliopoli
elisa
elisabetta
elisavetta
elisir
elizabeth
ell
ellezjo
elli
ellisse
ellitteca
elmo
elo
elpidio
els
elsa
else
elvino
elvira
elvis
elyon
em
emancipazzione
emanuela
emanuele
embargo
embe
emberiza
emerge
emergenza
emi
emiglia
emigra
emigrante
emigrantes
emigrazione
emil
emilia
emiliana
emiliano
emilio
emirate
emirati
emisfero
eml
emma
emmanuel
emmanuele
emmer
emmy
emorrargia
emotivo
emozioni
emozzione
empire
empiri
empoli
emulazione
en
enbla
encicliche
enciclopedi
enciclopedia
enclave
encopp
encyclopedia
end
endangered
endless
endus
ene
enea
eneide
enel
enemy
energe
energi
energia
engegnere
engel
enghere
engheri
english
enigma
enn
enna
enne
ennece
ennio
ennu
eno
enorme
enrica
enrico
enrique
ensi
ente
enteche
entellina
enter
entertainment
entita
entra
entrambe
entrata
entre
entro
entroterra
envasione
enza
enzieme
enzo
eo
ep
eparchia
epe
epidemia
epifanio
epigrafe
epiro
episcopio
episode
episodi
episodie
episodio
epitaffio
epo
epoca
epomeo
eppe
epuca
equatore
equazione
equazioni
equazzione
equelibbrie
equense
equestre
equicola
equivalente
equo
er
era
eraclea
eran
erano
erasmo
eravamo
erba
erbe
erchie
ercolano
ercole
ercolo
ere
erede
eredeta
eredetate
eredita
eremita
eremo
ereno
eresione
erette
ergastolo
eri
eric
erica
ericaceae
erik
eris
erithacus
eritrea
ermafredite
ermanno
ermete
ermeteferraro
ern
erne
ernest
ernesto
ernst
ero
erodoto
eroe
eroica
eros
erreci
erri
ertelane
eruditi
eruttiva
eruzione
eruzzione
erva
ervacea
ervacee
ervacia
erve
erythraeum
erzegovina
es
esa
esame
esami
esamninate
esattezza
esaurito
esce
esceno
escucha
ese
esecutivo
esecuzione
esecuzzione
eseguito
esempie
esempio
esempiu
esemplare
esenzione
eserceto
esercita
esercite
esercito
esercizio
eses
esi
esibizzione
esilio
esimo
esis
esiste
esistene
esisteno
esistente
esistenza
esistenzialismo
esisteva
esistienza
esistono
eso
esordio
esotica
esotice
espaci
espan
espansione
espanzione
espera
esperandi
esperanto
esperiano
esperienza
esperienze
esperimento
esperte
esperto
esploratore
esplorazzione
esplosa
esponente
esposito
espressione
espresso
esprimere
espronceda
espusizione
ess
essa
essaje
essays
esse
essempio
essen
essenno
essential
essenza
essenziale
essenzialmente
essere
essey
essi
esso
est
esta
estadual
estate
este
estenne
estensione
estenzione
estera
estere
esteri
estern
esterna
esterne
esterni
esterno
estero
estesa
estese
esteso
esti
estinto
estinzzione
estiva
estive
estone
estonia
estrada
estraterrestre
estre
estrema
estreme
estremegno
estremo
et
eta
etalia
etc
eteferi
etemeleggi
eterna
eternamente
eterno
ethnologue
eti
etichetta
etimmologgi
etimologgi
etimologgia
etimologia
etimologico
etiope
etiopia
etna
etneo
etnia
etnica
etniche
etnico
etoile
etruria
etrusca
etrusche
etruschi
etrusco
ett
ettare
ettore
eu
eubea
eucaristia
eucariute
eufemia
eufo
euganeo
eugene
eugenio
eulogimenopoli
eurasia
euro
eurofestival
euromed
europ
europa
europaea
europe
europea
european
europee
europei
europeje
europeo
eurotunnel
eurovision
eusanio
eva
evandro
evangelion
evangelista
evangelo
evangerion
evano
evans
evarie
eve
eveluzione
evemero
eveno
evente
eventi
evento
eventuale
eventuali
ever
evera
evere
everest
everisteria
evero
every
everything
evic
evidence
evidente
evita
evoca
evolution
evoluzione
evoluzzione
ew
ex
excellenter
existence
exoleta
exomars
expectunusedcategory
experience
expired
express
exterio
exterior
extinction
extra
extracircondariali
extraurbane
eyepiece
eyes
ez
ezequiel
ezln
ezz
f
fa
fabaceae
fabbreca
fabbrecate
fabbrica
fabbricato
fabbriche
faber
fabian
fabiani
fabio
fabricatores
fabrizi
fabrizio
fabro
fac
facc
facce
facchinetti
faccia
facciamo
facciata
faccio
face
facebook
facele
faceletata
facendo
facenn
facenne
facenno
facennolo
facennose
facente
facesse
facessero
facett
facette
facettene
facetteno
facetter
facettere
facettero
facev
faceva
facevan
facevano
faceveno
faci
facile
facili
facilita
facilmente
facimmo
facirmente
facite
faciteve
faciute
faciuto
faciva
facolta
facorta
facto
factor
faculta
facurta
faenza
faeto
fagaceae
faggiano
fagnano
fai
faiano
faicchio
faida
faie
fair
faith
faito
faje
fala
falchetti
falciano
falco
falconara
falcone
falde
falegname
falerna
falkenberg
fall
fallemiento
fallette
fallimento
fallimiento
fallita
fallo
fallujah
falluta
false
falvo
fama
famagusta
fame
fameglia
famicom
famigl
famiglia
famiglie
famije
familiare
familiaris
family
famma
famme
fammi
fammiglia
fammosa
fammose
fammoso
fammuse
fammuso
famo
famosa
famose
famosi
famosissima
famoso
famusa
famuse
famusi
famuso
fan
fanateco
fanatico
fanciulli
fandango
fane
fango
fanipol
fann
fanne
fanno
fano
fanpage
fantascenza
fantascienza
fantascienze
fantasia
fantasma
fantasmi
fantastico
fantasy
fanteria
fany
fanzago
fao
far
fara
faraglione
faragliune
faraone
faraonico
faraune
farcone
fare
farewell
farica
farina
farine
farla
farnese
farneta
farnetum
faro
faroe
farr
farra
farse
fas
fasa
fasano
fasba
fasc
fascia
fascino
fascio
fascis
fascism
fascismo
fascista
fasciste
fasciuore
fase
fassa
fassone
fast
fasulare
fasule
fasulo
fata
fatalita
fate
fatebenefratelli
fateca
fatecaje
fatecajeno
fatecanno
fatecano
fatecato
fatecava
fatecavano
fateche
fati
fatia
fatiate
fatiature
fatica
faticaie
faticaje
faticajeno
faticanno
faticano
faticate
faticato
faticatore
faticatori
faticature
faticava
fatiche
fatie
fatt
fatta
fattarielle
fattariello
fatte
fatti
fatto
fattori
fattu
fatture
fauce
fauna
faustiniano
fausto
fauzo
fav
fava
fave
favesame
faveze
favezo
favola
favore
favorita
favule
favuri
fayard
fbc
fbi
fc
fcw
fe
feat
feature
febbraio
febbrare
febbraro
february
feca
fecatielle
fece
fecero
feche
fecie
feco
fede
fedele
fedelissima
federal
federale
federalismo
federate
federation
federazione
federazzione
federi
federico
federigo
fedriche
feducia
feel
fegliolanza
fegliuole
fegliuolo
fei
feine
feira
fela
felato
fele
feletto
felice
felici
felicita
felippo
felix
felle
fellino
feloseco
felosefo
felosofeca
felosofeche
felosofi
felosofia
felosofo
feltrinelli
female
femme
femmena
femmene
femmenielle
femmeniello
femmenile
femmine
femminile
fenale
fenanza
fendana
fendeuaria
fene
fenerbahc
fenesta
fenestella
fenestra
fenestrelle
feni
fenice
fenicia
fenisc
fenisce
fenite
fenito
fennamendale
fennamendalis
fennamentale
fennamie
fennata
fennazione
fenniarie
feno
fenomene
fenomeni
fenomeno
fenommeno
fenucchie
fenuta
fenziena
fenzione
fenziune
feo
feola
fera
ferdenand
ferdenande
ferdinand
ferdinando
fere
ferele
ferenc
ferenze
feres
fergola
feri
feriale
ferite
ferlaino
ferma
fermaje
fermanno
fermata
fermate
fermato
fermazione
ferme
fermentazione
fermo
fernace
fernando
ferne
fernenno
fernesce
fernescono
fernetta
fernette
fernettero
ferneva
ferni
fernie
fernisce
fernsehturm
fernuta
fernute
fernuto
fernweh
ferone
ferragosto
ferraiuolo
ferrand
ferrante
ferrara
ferrarese
ferrari
ferraro
ferrata
ferrer
ferreri
ferretti
ferri
ferriere
ferro
ferroni
ferrovia
ferroviaria
ferrovie
ferruccio
ferruvia
ferruviari
ferruviaria
ferruviarie
ferruviario
ferruvie
ferryboat
ferte
fertefeca
fertefecata
fertefecate
fertefecaziune
fertile
fertileta
fertilia
fertilita
ferune
ferute
feruto
ferzatura
fes
fescale
fess
fessa
fesse
fest
festa
feste
festeggia
festino
festiva
festival
festivalbar
festiwal
feta
fete
fetente
fetevelta
feua
feudale
feudalesimo
feudalita
feudatarie
feudo
fevraro
fevvraio
ff
ffa
ffamiglie
ffare
ffateche
ffatiche
ffavore
ffe
ffederazion
ffemmene
ffesta
ffeste
ffierro
ffiu
ffiure
fforde
fforma
fforme
fforte
fforza
fforze
ffrancese
ffrangise
ffruntiere
ffuje
ffuoco
ffurme
fg
fgl
fgs
fi
fiaba
fiamme
fiamminga
fiammingo
fianco
fiandre
fiangh
fianghe
fiano
fiat
fibbra
fibbre
fibra
fica
fiche
fiction
ficus
fida
fidani
fidato
fidelis
fiducia
fie
field
fiera
fiere
fierr
fierre
fierro
fiertile
fiesso
fiesta
fieto
fifa
fifth
fifty
figc
figghia
figghiu
fighters
fighting
figi
figl
figle
figli
figlia
figlianese
figliata
figlie
figlio
figliola
figliolo
figliulo
figliuolo
figueras
figueres
figura
figurative
figure
fije
fijo
fila
filadelfia
filago
filangieri
filastrocche
filata
file
filetta
filharmonia
filharmony
filho
filic
filippine
filippo
film
filmografi
filmografia
films
filo
filobus
filogamo
filologgia
filologo
filomena
filone
filoseco
filosefe
filosefo
filoso
filosofe
filosofi
filosofia
filosofici
filosofo
filtra
filtro
filume
filumena
fin
fina
final
finala
finale
finali
finalista
finaliste
finalita
finalmente
finals
finanza
finanze
finanziamento
finanziamiente
finanziaria
finanziario
finanziere
finarmente
finche
fine
finestra
fing
fini
finice
fininvest
finira
finiscono
finita
finite
finito
finizio
finlandese
finlandia
finlannese
finnuta
finnuto
fino
finora
fint
finta
fintaria
finzi
fiorano
fiordelisi
fiore
fiorella
fiorentina
fiorentini
fiorentino
fiorenzo
fiori
fiorisc
fira
firdinanno
fire
firenze
firma
firmaje
firmanno
firmata
firmato
firmatt
firme
firmo
firmoza
firmware
first
fisarmonica
fiscale
fischer
fischione
fiseca
fisece
fiseche
fiseco
fisica
fisice
fisiche
fisico
fissa
fisse
fisso
fist
fitta
fitto
fiu
fiudale
fium
fiume
fiumefreddo
fiumicino
fiura
fiure
fizzarotti
fk
flaccovio
flammarion
flatuso
flauto
flava
flavia
flavio
flcl
fle
flea
flecita
flegrea
flegree
flegrei
flegreo
flessi
fleurs
fleury
flo
flor
flora
florencia
flores
floriano
floricienta
florida
floridi
floridiana
flotta
flower
fluviale
fly
flyer
flying
fo
foa
fobos
focchiardo
foce
foche
foco
foemina
foeniculum
foggia
foglia
foglie
foiano
foje
folgore
foligno
folk
folkehøjskole
folklore
folla
follaca
fond
fonda
fondamentale
fondato
fondatore
fondazione
fonde
fondi
fondo
fonit
fonnono
fono
fonotil
fonovisa
fonseca
fontana
fontanarosa
fontane
fontanelle
fonte
fonti
fontsize
foo
food
foot
football
for
fora
forbece
forbici
forca
force
forchia
ford
fore
foreign
forerotta
forest
foresta
forever
forgia
fori
foria
forino
forio
forli
form
forma
formalmente
formano
format
formato
formazione
formazzione
forme
formia
formicola
formis
forms
formula
fornaciari
forni
forno
foro
forse
fort
forta
fortaleza
forte
fortemente
forti
fortis
fortore
fortuna
fortunata
fortunato
fortunella
fortunino
forty
forum
forza
forze
foscola
fosforo
foss
fossa
fossato
fosse
fossero
fossi
fossile
fota
fote
foto
fotogra
fotografi
fotografia
fotografica
fotografico
fotografie
fotografo
fotogramma
fott
fotte
fottere
foundation
four
fourier
fove
fox
fr
fra
frabbeche
frac
fracassa
frack
fragagnano
fragata
fragate
fragile
fragili
fragne
fragraria
fraioli
frameless
frammente
frammenti
frammiente
frana
franc
franca
francavilla
france
francegena
frances
francesa
francesca
francescani
francescano
francesco
francese
francesi
franchi
franchise
francia
francine
franciolini
francis
franciscane
francisci
francisco
franciscu
francise
franco
francoforte
francombat
francona
francoprovenc
francopruvenzale
franfellicco
frange
frangesa
frangese
frangh
franghe
frangia
frangisch
frangise
frank
frankfurt
franklin
franz
franza
franze
franzesa
franzese
franzesi
franzise
fras
frascatana
frasche
frascineto
frascune
frase
frasnita
frassinetto
frat
frate
fratelli
fratello
frati
fratiello
frato
fratt
fratta
frattamaggiore
frattaminore
frattaminorese
fratte
frattese
frau
frauenkirche
fraveca
fravecaje
fravecanno
fravecat
fravecata
fravecate
fravecato
fravecatore
fravecatura
fravecature
fravecazzione
fraveche
fravucata
frazio
frazion
frazione
frazzienamie
frazziona
frazzione
frazzioni
frazziune
fre
freca
freccia
fredd
fredda
freddo
frederick
free
freedom
freestyle
frei
frenda
frenesia
frennece
frennesia
frentane
frentani
frequenta
frequentata
frequentate
frequentato
frequente
frequentemente
fresca
fresche
fresenone
fressora
fresulone
frettate
frettiate
freud
freva
frevaro
freveca
frezza
fri
friarielle
friburgo
fridd
fridda
fridde
friddo
friedrich
friends
frigento
frignano
frijarielle
frije
frijenno
frijere
frijute
frimont
fringilla
frisch
frische
frisco
frisone
fritt
fritta
frittata
fritte
fritto
frittura
fritture
fritz
friulano
friule
friuli
fro
from
fronn
fronna
fronne
front
frontale
fronte
frosinone
frosolone
frotta
frr
fru
frungillide
frungillo
frunn
frunne
frunnell
fruntale
frunte
fruntiera
frusc
frusciante
frusse
frusso
frutt
frutta
frutte
frutto
frə
fs
fu
fucarone
fucilate
fucilato
fucilazzione
fucino
fuculare
fudi
fue
fuga
fugaro
fugn
fui
fuie
fuita
fuiuta
fuj
fuje
fujene
fujenno
fujeno
fujerono
fujette
fujetter
fuji
fujono
fujrono
fujute
fujuto
fuku
fukuoka
fukushima
full
fullkunara
fulvio
fulvo
fume
fumette
fumetti
fumettista
fumetto
fumiette
fummo
fumo
funa
funda
fundamentale
fundata
fundato
fundatore
fundatrice
funde
fune
funebre
funeno
funerale
funeraria
funerarie
funerario
funeteca
funge
funghe
fungi
fungie
fungo
funicolare
funicula
funiculare
funiculi
funivia
funk
funn
funna
funnaje
funnajeno
funnale
funnamentale
funnata
funnate
funnato
funnatore
funnatrice
funnature
funnazione
funnazzi
funnazzione
funne
funnera
funnette
funno
funtana
funtane
funtanella
funtanelle
funte
funziona
funzionale
funzionamento
funzione
funzioni
funziuna
funziune
funzzione
funzziunare
fuoche
fuochi
fuoco
fuocu
fuogl
fuoglie
fuorche
fuore
fuori
fuorilegge
fuorze
fuosse
fuossera
fur
furastiera
furastiere
furastiero
furba
furcella
furchi
fureno
furesta
furestale
furia
furio
furlan
furma
furmagge
furmaggio
furmaje
furmajeno
furmale
furmaliette
furmalmente
furmanno
furmano
furmare
furmat
furmata
furmate
furmato
furmava
furmazion
furmazione
furmazzione
furmazziune
furme
furne
furni
furno
furono
furore
furte
furtezza
furtezze
furti
furto
furtuna
furtunato
furza
furzate
furzato
fus
fusaro
fusco
fusi
fusione
fuso
fusse
fussere
fussero
fuste
futbolo
fute
futebol
futtete
futtetenne
futugrafia
futugrafie
futugramme
futura
future
futuro
fuzzy
fə
g
ga
gabon
gabriele
gabriella
gaeta
gaetano
gaga
gaghiel
gagliano
gagliardi
gaieta
gainax
gaio
gaiola
gaius
gaje
gakuin
gala
galante
galantuomo
galassie
galat
galatasaray
galateo
galatina
galatone
galaxy
galdieri
galdo
gale
galeazzo
galera
galeria
galerida
galerio
galiani
galibbarde
galilei
galileo
galizia
gallari
gallaria
galle
galledinio
galleggia
gallego
galleniare
galleri
galleria
gallery
galles
galli
gallia
gallie
galliformes
gallina
gallinago
gallinaro
galline
gallion
gallipoli
gallo
galluccio
gallura
gallurese
gallus
gama
gamba
gambardella
gambe
gambetta
gambino
gambrinus
game
gamma
gandhi
gandolfo
gangemi
ganz
gara
garafa
garage
garanzia
garanzie
garbagna
garci
garda
garden
gardone
gare
garegliane
garfagnana
garganico
gargano
gargiulo
garibaldi
garibaldino
garibbalde
garibbaldine
garibbaldini
garigliano
garinei
garofalo
garrese
garrone
garrulus
garry
garterbelt
garum
gary
garzanti
garzone
garzune
gas
gascon
gaspare
gasperi
gasse
gastaldi
gastone
gato
gatta
gatte
gatti
gatto
gattuso
gaudioso
gauguin
gaulle
gautama
gay
gaza
gaziantep
gaziantepspor
gazprom
gazzetta
gazzo
gb
gdan
ge
gege
gegra
gegrafi
gehirn
gein
gekijo
gela
gelati
gelato
gelbison
gelosia
gelsomina
gelusia
geluso
gemellagge
gemelle
gemiello
gemitaiz
gen
gende
gendo
gene
gener
general
generale
generalitat
generalmende
generalmente
generature
generazione
generazzione
genere
generi
generico
genesio
genesis
genetore
geneve
genga
geni
genio
genitore
genitori
geniture
gennaio
gennarelli
gennaro
gennerale
genneralmente
gennere
genny
genoa
genoino
genova
genovese
genovesi
gens
gent
genta
gente
gentes
genti
gentile
gentileschi
gentiluomo
genuese
genuva
genuvese
geo
geografeca
geografeche
geografia
geologgeca
geologgece
geologgeco
geologia
geological
geometria
geophysical
geopolimere
georg
george
georges
georgia
geoscience
ger
gera
gerais
gerarchi
gerardo
gerasimenko
geres
gerhard
germa
germagnano
germain
germane
germanese
germanesi
germania
germaniagermania
germanica
germano
germanotta
geroglifiche
gerolammo
gerusalemme
gervasio
ges
gessopalena
gestione
gestita
gesu
gesualdo
gesuita
gesuite
gesulf
get
gettate
gg
ggalassie
ggas
gge
ggeca
ggece
ggeche
ggele
ggena
ggene
ggenerale
ggenere
ggenio
ggente
ggere
gghi
gghia
gghianga
gghiangas
gghiangh
gghie
gghiuto
ggia
ggiall
ggiamienti
ggine
gginocchio
ggio
ggion
ggiovane
ggiugn
ggiun
ggiuvanile
ggrannizza
ggrano
ggre
ggrieco
gguardie
gguerre
gh
ghana
ghe
gheffre
ghetto
gheve
gheverna
ghevernatore
ghi
ghiaccio
ghianca
ghianga
ghiangas
ghiangh
ghianghe
ghiasce
ghie
ghienchere
ghiette
ghil
ghile
ghirardi
ghisa
ghiuca
ghiuoche
ghiuorno
ghiurnale
ghiuta
ghiute
ghiuto
ghjustificazione
ghost
gi
gia
giacca
giacchino
giacinto
giacobini
giacomo
giacubbine
giacumo
giada
giaglione
giall
gialla
giallas
gialle
giallo
giamaica
giambattista
giampaolo
gian
giancarlo
gianfranco
giang
gianluca
gianluigi
gianni
giannini
giano
gianturco
giappone
giapponese
giappunese
giappunise
giardine
giardini
giardino
giarrusso
giaveno
gibuti
gica
gierusalemme
gieste
giesu
giesummino
giffonese
giffoni
gigante
giggino
gigi
gigli
giglie
giglio
gigliola
giglje
gil
gilardino
gilbert
gilbo
giles
gilje
gill
gilles
gime
gimme
gina
gine
ginestra
ginevra
ginnasta
gino
gio
gioacchino
gioca
giocatore
giocatori
giochi
gioco
gioconda
gioia
gioiosa
gione
giordania
giordano
giorgi
giorgia
giorgio
giorio
giornale
giornalista
giornata
giornate
giorni
giorno
giova
giovan
giovanbattista
giovane
giovani
giovanile
giovanna
giovannese
giovanni
giovannini
giove
giovedi
giovene
gioventu
gioveri
giovi
giovinco
giovine
gipsy
gira
giraje
giranno
girasole
girata
girato
gire
giri
girl
girlfriend
giro
girolami
girolamo
gironda
girone
girune
gisulf
gisulfo
giu
giuann
giuanna
giuanne
giuanni
giucato
giucatore
giucature
giuda
giudaismo
giudea
giudeo
giudice
giuditta
giudizio
giudizzio
giudoco
giuffre
giuggianello
giugliano
giugn
giugne
giugno
giugrafeca
giugrafeche
giugrafi
giugrafia
giugrafica
giugraficamente
giulia
giuliana
giuliano
giulie
giulietta
giulio
giuloggia
giumento
giunio
giunone
giunte
giuoche
giura
giuramento
giurdania
giurdignano
giurideco
giuridico
giurieismo
giuris
giurisdizione
giurista
giuriste
giurn
giurnale
giurnaletto
giurnalista
giurnaliste
giuro
giurtelecu
giuse
giuseppe
giuseppina
giusta
giusti
giustificazzione
giustiniano
giustino
giustizia
giustizzia
giusto
giuvane
giuvani
giuvanile
giuvanne
giuvanni
giuvene
giuventu
giuveri
given
givone
giza
gizzeria
gj
gje
gl
gladiator
glandarius
glasgow
glassa
gle
gleba
glemo
glene
glette
glevacee
glevellare
glevie
gli
glia
gliane
gliann
glie
glio
gliotta
glira
gliride
gliu
gliua
gliuand
gliuna
gliune
gliunu
gliv
gliva
global
globe
globo
gloria
glossario
gm
gmelin
gn
gna
gnaeus
gnamiento
gnane
gnano
gne
gnefeca
gnefecato
gnene
gni
gnia
gno
gnocche
gnosta
gnoule
go
goal
god
gode
godzilla
goes
goethe
goffredo
gofio
gogh
goguryeo
goia
gol
gold
golden
golfista
golfo
golpe
gomel
gomera
gomito
gomma
gomorra
gone
gongola
gonzaga
good
google
gopp
gordon
gorgonium
gori
gorizia
gos
goschn
gospel
gote
goteca
goti
gottlieb
gov
gove
governatore
governi
government
governo
govierno
goycochea
gr
gra
grace
gracia
gracula
grade
grado
gradu
graduatoria
gradune
graeca
grafe
grafeca
grafeco
graffiti
grafi
grafia
grafica
grafiche
grafico
gragnaniello
gragnano
graham
gramm
grammateca
grammatica
gramme
grammy
grams
gramsci
gran
grana
granata
granato
grand
granda
grande
grandi
granduca
grann
granna
granne
grannezza
grannizza
grannizze
grano
granone
grant
grappa
graro
grasse
grassia
grasso
gratis
grattaciele
gratteri
grave
gravellona
graveolens
gravere
graves
gravi
gravina
gravita
gravitazionale
gravoine
gray
grazia
grazie
graziosa
grazzia
grazzie
grazzje
grazzjie
grc
grcd
gre
great
greater
greatest
greca
grecanico
grece
greche
greci
grecia
grecie
greco
green
greenfield
greggias
greggio
grego
gregori
gregoriana
gregoriano
gregorio
gregory
greguriane
greguriano
grenada
grenadine
grenoble
gressonei
gressoney
grey
gri
grid
gridas
gridcolor
grieca
griece
grieche
griecia
grieco
griffa
grigg
grigge
griggia
griggie
griggio
grigio
grignani
grillo
gro
grodno
groenlandia
groscavallo
gross
grossa
grosse
grosseto
grosso
grote
grotta
grottaferrata
grottaglie
grotte
grottolella
ground
group
gru
gruiformes
grumese
grumo
gruoss
gruossa
gruosse
gruossi
gruosso
grupp
gruppa
gruppe
gruppi
gruppo
grus
grusse
gsw
gu
gua
guadagno
guaglio
guagliona
guaglione
guagliunce
guagliunciello
guagliune
guagnano
guai
guaie
guaio
guajo
guajone
gualdo
gualtiero
guanare
guanda
guangxi
guante
guapparia
guappo
guaraquaglie
guarattelle
guard
guarda
guardanno
guardano
guardaporte
guardate
guardava
guarde
guardi
guardia
guardian
guardiarocca
guardie
guarneggione
guarneri
guarracino
guascogna
guastalla
guatemala
gud
gude
gue
guere
guerini
guerno
guerra
guerre
guerriglieri
guetta
guevara
guez
guglielmo
gugliemo
gugliermo
gui
guida
guidata
guidate
guidato
guide
guidi
guido
guila
guilin
guinea
guiscardo
guiscards
gula
guldbrandsen
gully
gumitole
gunbuster
gundam
guno
gurfe
gurfo
gurian
gurren
gus
guss
gustav
gustave
gustavo
gusto
guve
guverna
guvernaje
guvernatore
guvernature
guverne
guverno
guvie
guviernatore
guviernaturato
guvierne
guvierno
guvirnato
guyana
gyi
gymnasium
h
ha
habibi
habit
habitat
hachette
hadda
haematopus
hai
haisheng
haiti
haje
haldn
hale
half
hall
hamamoto
hamilton
hams
han
hanamaru
hann
hanna
hanne
hanno
hannover
hannu
hanoi
hans
hant
happy
hard
hardcore
hardware
harmony
harold
harry
hart
harvard
harvest
has
hasselblad
hastings
hat
hatta
hau
haunted
hauptbahnhof
hauptrolle
haus
hauta
have
havel
haven
haveta
havette
hawaii
hawk
hay
hayashibara
hayde
hayley
hd
hdtv
he
hea
head
heart
hearts
heather
heaven
heavy
hebe
hebrew
hector
hedgehog
hegelmann
hegermu
height
heinrich
heisei
helgen
hellas
hello
helmut
help
helsinki
hemingway
hen
henri
henricus
henry
hepatica
her
herajon
herbert
here
heritage
hermann
hermano
hermes
heroine
herschel
hertz
herz
heva
hi
hideaki
high
higuchi
hijos
hikari
hill
hills
himachal
himalaya
himantopus
hime
hindi
hindjan
hip
hiram
hiroki
hiroshi
hirundinidae
hirundo
his
hispanica
histo
histoire
historia
history
hitler
hits
hle
ho
hockey
hoffmanns
hohenbourg
hohenstaufen
hoi
hold
holder
holding
hole
holland
hollande
hollywood
holmgren
holstein
holzer
home
homme
homo
honduras
honey
hong
honneamise
honolulu
honor
honoris
honveed
hop
hopkins
hoppela
hora
horizontal
horizonte
horn
horo
hot
hotel
house
how
howard
hr
hradschin
htm
html
http
https
hu
huang
hubble
huds
hudson
hugo
human
humber
hunt
hunter
hussein
hy
hybridity
i
ia
iaccio
iacovone
ianca
ias
iate
iau
iauliai
iberica
ibero
ibid
ibidem
ibn
ica
icarus
icc
ice
ich
iche
iciue
icona
ictus
id
ida
iddio
ide
idea
ideale
idealme
idee
ideie
identifica
identificato
identita
ideoleggi
ideologgia
ideologo
ideon
idioma
ido
idolo
idrica
idrico
idris
idrocarbure
idroele
idrogeno
idv
ie
ieno
ieo
ieraconpoli
ieri
iernotte
iesu
ieva
ievulesi
if
ifti
iglesias
iglio
ign
ignazio
ignoto
igp
igro
ii
iii
ij
ije
ikari
iktas
ikuto
il
ila
ilaria
ilario
ildebrando
ilex
iliaco
iliacus
ill
illecito
illegale
illegali
illegalmente
illinois
illo
illu
illuminato
illuministe
illusioni
illustrata
illustre
illustri
im
image
images
imagesize
imaging
imagna
imbriani
imbuddau
imdb
ime
img
imita
imitatore
imleului
imma
immacolata
immaculata
immaggene
immaggine
immaginario
immagine
immagini
immediatamente
immigrazzione
immortale
imola
impact
impastato
impatto
impegna
impegno
imperato
imperatore
imperatrice
impere
imperia
imperiale
imperium
impero
impiante
impianto
impignaje
implications
importa
importante
importanti
importanza
impregilo
imprenditori
impresa
impresario
impruvviso
impurtante
impurtanza
in
ina
inaspettato
inaugura
inaugurazzione
inc
incarico
ince
incendio
inchi
inchiesta
incidente
inciso
incisore
inclinata
includiintestazione
incontra
incontro
increment
incrocio
incudine
ind
inda
indagacions
indene
independiente
indeterminato
index
india
indian
indiana
indiano
indica
indicare
indications
indice
indie
indietro
indifferentemente
indigene
indigenous
indiggeni
indimenticabile
indimenticabili
indios
indipendente
indipendentemente
indipendenza
indirizzo
indiscrezzione
indj
indo
indonesia
indonesiana
indonesiano
indura
industria
industriale
industrie
indymedia
ine
inedite
inediti
inedito
ineligible
inezzio
infa
infanta
infante
infanzia
infatte
infatti
inferiore
inferno
infine
infinite
infinito
influenza
influenzato
info
information
informazione
informazioni
informazzione
infrastrutture
infuocate
inganno
ingegnere
ingegneria
inghilterra
inglese
ingrediente
ingrese
ingresso
ingria
ini
inipr
inizi
inizia
iniziale
inizialment
inizialmente
iniziativa
iniziative
inizie
inizio
inizzia
inizziale
inizzialmente
inizziato
inizzio
inline
inn
innamorero
innaugurazione
inneca
innece
innepennenza
innesto
innia
inniane
inniano
innica
innicato
innipennenniste
innipennente
innipennenza
innipenniente
inno
innocenzo
innoeuropea
innoeuropee
innovazzione
innustria
innustriale
innustriali
innustrializzate
innustrie
ino
inoki
inoltre
inondazzione
inosanto
inox
inquilini
insediamento
inside
insieme
insigne
institut
institute
instituto
instr
instrument
instrumental
insubre
insula
int
inta
intanto
inte
integrale
intellettuale
intelvi
intendo
intenne
intenzione
inter
intera
intercampania
intercolline
intercontinentale
interessa
interessano
interesse
interesso
interim
interio
interior
interlacciata
interlingue
intermedio
internacional
international
internazionale
internazionali
internazzionale
internazziunale
interne
internet
internett
interno
intero
interpianurese
interporto
interpreta
interpretata
interpretazione
interpretazzione
interprete
interscope
intertoto
intervento
interviente
interview
intervista
interviste
intestazione
intimita
intitulata
intitulato
into
intorno
intra
intrasatte
introduction
introduzione
inunnazziune
inutile
invade
invasione
invaso
invece
inventi
inventore
inverno
investigatore
investimiente
invia
invisibili
invito
inzediamento
inzette
inzetto
io
iognenno
iognere
iognette
ion
ionica
ionico
ionio
ip
ipa
ipotese
ipotesi
ippocampo
ippodamo
ippolito
iprage
ipri
ipsilon
ira
irace
iran
iraq
ire
irene
irgendwann
iri
iride
irlanda
irlandese
irlandreise
irlanna
irlannese
irlannise
irno
irolli
iron
ironia
irpina
irpine
irpinia
irpino
irregolare
irregulare
irrisurde
irt
irte
irwin
is
isa
isaac
isabel
isabella
isbn
isca
ischia
iscritte
iscrizzione
iscrizziune
ise
iselate
isernia
isla
islam
islameca
islamica
island
islanna
isler
iso
isola
isole
isolotto
isonzo
ispettore
ispetture
ispingule
ispiraje
ispirata
ispirate
ispirato
ispirazione
israe
israel
israele
israeli
israeliano
iss
issa
isse
issi
issime
issn
isso
issue
issues
ist
istanbu
istanbul
istat
istituette
istitui
istituita
istituite
istituito
istituto
istituzionale
istituzione
istituzzione
istmo
istoriche
istriana
istrioto
istro
istruzione
isula
isulata
isulato
isule
isulella
it
ita
ital
italeca
italia
italiaitalia
italian
italiana
italiane
italiani
italiano
italianu
italica
italico
italics
italie
italo
italsider
italy
ite
item
ites
itinerari
itinerario
itre
its
itta
itʃ
iu
iucn
iudecato
iugas
iunto
iurnat
iurnate
ius
iusso
iute
iv
ivan
ive
ivi
ivrea
ix
ixobrychus
iz
izzo
j
ja
jaccarino
jacce
jaccio
jaceria
jaci
jack
jackson
jacopo
jacques
jadransko
jae
jallo
jam
jambon
james
jamie
jamm
jamma
jammere
jammo
jan
janca
janche
janco
jane
janeiro
jani
january
japan
japanese
japigia
jar
jarny
jat
jate
jatta
jaume
javier
jay
jazz
jazzista
je
jean
jeans
jecco
jeet
jene
jenere
jenn
jennare
jennaro
jenne
jennifer
jenno
jenny
jeno
jens
jera
jerano
jernata
jernate
jerry
jersey
jerusalem
jesce
jesceno
jesi
jesse
jessere
jeste
jesu
jesus
jetta
jettaje
jettano
jettate
jette
jetteno
jetto
jeva
jevano
jevule
jewish
jezik
ji
jie
jieitai
jifuni
jihad
jill
jim
jimmy
jinde
jing
jire
jiss
jitta
jiu
jiuquan
jje
jkd
jo
joa
joachim
joan
joanne
joca
jocano
jocatore
jockey
joco
joe
joestar
jognere
jognette
johan
johann
johannes
johansson
john
johnny
johnson
johr
joins
joint
jojo
joker
jonas
jonathan
jond
jones
jonico
jonio
jonta
jonte
jonto
joppolo
jorca
jordan
jorge
jornata
jorne
jose
josef
joseph
josuke
jotaro
jou
journal
journalist
journalista
journe
journo
joyce
jpg
jr
ju
juan
juca
jucaje
jucajeno
jucanno
jucata
jucate
jucato
jucator
jucatore
jucatori
jucatu
jucature
jucava
judith
jugno
jugoslavia
jules
julia
juliane
juliano
julio
july
jump
jun
juncu
june
junior
juniors
junizzat
junlong
junone
junto
juo
juoca
juoche
juoco
juorn
juornale
juornata
juorne
juorni
juorno
jurnale
jurnata
jurnate
jus
jusepe
juseppe
just
justa
juste
justice
justify
justo
jusu
juta
jute
juto
juve
juventus
jv
jə
k
ka
kabul
kadokawa
kago
kai
kaiser
kaji
kako
kaliningrad
kamikaze
kandrakar
kansas
karachi
karadeniz
karate
karchi
karekano
karfici
karl
karla
karol
kasparov
kassel
kaste
kate
katedrala
kategori
kathryn
katie
kato
katovice
katowice
katsuragi
katundi
kaunas
kauno
kaworu
kazakistan
kazallveqi
kaze
kazimierz
kazuya
ke
keep
keith
kelly
kelvin
kemal
ken
kenneth
kenshin
kensuke
kenya
kerbala
kerner
kerry
kevin
key
keys
kg
kh
khan
khara
khefren
kheper
khufu
ki
kick
kiel
kierkegaard
kikakusho
killer
kim
kind
king
kingdom
kiribati
kiss
kit
kitts
kitty
klass
klaus
klingebiel
klinsmann
klubas
km
kmq
kneipenhocker
know
knowles
knut
ko
kobe
koch
koi
kokis
kolli
konarski
kong
kono
kore
korea
korez
kostandini
kostrzyn
kotono
krasnodar
krauss
kroll
kros
kruc
kruh
krystian
ktarbild
ku
kujo
kulu
kundisa
kune
kung
kuratowski
kurt
kurzfilm
kuzzera
kyo
kyojin
kyrka
kə
l
la
laboratory
laccio
lacco
lacerta
lache
lachitt
laco
lacreme
lacrime
lacuna
lacus
ladesla
ladino
ladislao
ladri
lady
lagann
laghetto
laghi
lagno
lago
laguna
laica
laiche
lain
laing
laino
lam
lama
lamantine
lamantino
lamba
lambda
lambe
lamberto
lambro
lambune
lamenta
lamezia
lamiaceae
lamis
lampedusa
lampione
lana
lancaster
lancia
lanciano
lanciata
lanciate
lancio
land
lander
landi
landing
landkreis
lane
langella
langer
langhe
langia
langley
language
languages
laniere
laniidae
lanius
lanka
lanose
lanterna
lanza
lanzaje
lanzarote
lanzata
lanzate
lanzato
lanzatore
lanze
lanzo
laos
lape
lapiana
lapille
laporte
lar
lara
lard
larde
larene
larenis
larga
large
largo
lari
laria
larie
larine
larino
larinor
lario
lariu
lariula
larry
lars
larus
las
lascia
lasciaje
lascianno
lasciat
lasciata
lasciate
lasciatemi
lasciato
lasco
laserdisc
lassa
lassaje
lassajeno
lassammo
lassanno
lassano
lassata
lassate
lassato
lasse
last
lastra
lastricati
lat
late
laterale
laterza
latiano
latin
latina
latine
latino
latitudine
lato
lattare
lattari
latte
latticine
lattuada
laura
laurea
laureaje
laureana
laurenti
laurentiis
lauretani
lauri
lauria
lauriano
laurino
laurito
lauro
lava
lavagna
lavannara
lave
lavezzi
laviano
lavo
lavora
lavorate
lavorazione
lavore
lavori
lavoro
lavura
lavure
law
lawrence
laye
laz
laziale
lazie
lazio
lazzare
lazzarella
lazzari
lazzaro
lazziale
lazzio
lb
lbe
lbere
lc
ld
lda
lde
le
leade
leader
league
lealta
leandro
lebano
lebberiate
lebbra
lebbre
lebbreche
leben
lebre
leca
lecale
lecc
lecce
leccecand
leccese
lecci
lecco
lece
lech
leche
lee
leeds
left
lega
legale
legambiente
legame
legami
legate
legati
legge
leggenda
leggende
leggenna
leggenne
leggera
leggere
leggi
leggia
leggione
leggista
leghe
legislation
legislatura
legislazione
legn
legna
legname
legnano
legne
legno
legume
legumme
lei
leicester
leis
leje
lejeture
lelia
lello
lema
lemeta
lemetate
lemie
lemma
lemune
lena
lendana
lendane
lenga
lengh
lenghe
lengua
lenguaggie
lenguaggio
lengue
lengui
lenguista
lenguiste
lenguisteca
lenguistica
lenguisticamente
lenguistiche
leningrado
lennox
leno
lens
lenta
lente
lenticchie
lentini
lentiscella
lentiscosa
lento
lenza
lenziata
lenzo
leo
leon
leonard
leonardi
leonardo
leone
leonese
leoni
leonor
leopardi
lep
lepanto
lepitte
leporano
leptopilos
lequile
lequore
lera
lere
lerite
les
lesbo
lescaut
lesce
lese
lessico
let
lete
leteca
lethwei
letizia
leto
letra
letre
lett
letta
lette
lettera
letteralmente
letteraria
letterarie
letterario
letterato
letteratura
lettere
letto
lettone
lettonia
lettore
lettra
lettres
lettura
letture
leuca
leuciane
leucio
leva
levaje
levand
levande
levante
levato
levello
leverano
levielle
leviello
levigg
levuorno
lewis
lexical
lez
lezione
lf
lfa
lg
lgbt
li
lia
liambe
lib
libbano
libbera
libberale
libberame
libberati
libberato
libberazione
libberazzione
libbere
libbero
libberta
libbia
libbr
libbraie
libbraria
libbre
libbri
libbro
libbru
libera
liberale
liberazione
liberazzione
liberi
libero
liberta
libertadores
libertas
libertatis
liberty
librajo
library
libre
libreria
libri
libro
lica
licata
licciardi
liccomerda
licenza
licenzia
liceo
licienza
licinio
licola
lid
lida
lido
lie
liebe
liechtenstein
liegge
lieggere
lieggio
lies
lietto
lieve
life
lig
liga
ligam
ligata
ligate
ligato
liggenda
liggenna
liggera
light
lightgrey
ligname
lignamme
lignammo
lignano
lignati
ligne
ligno
lignola
ligue
liguori
liguoro
ligure
liguria
like
lila
liliaceae
liliana
lilith
lilla
lille
lima
limina
limita
limitano
limitate
limitato
limite
limited
limito
limmete
limone
limska
limune
lin
lina
linaria
lincoln
line
linea
lineavis
linee
lineker
lingua
lingue
linguetta
linguista
linguisteco
linguistica
linguistiche
linguistico
linguistics
linia
linie
link
links
linnaeus
linne
linneo
lino
linosa
liola
liona
lione
lionel
lionello
lioni
lions
liopoldo
lippa
lipsia
liqueta
liqueto
liquid
liquida
liquide
liquore
lira
lire
liri
lirica
liriche
lirico
lis
lisa
lisboa
lisbona
lisc
liscia
list
lista
liste
lister
litanii
lite
literatura
literno
liternum
litfiba
lithophaga
litorale
litre
litro
litta
litteralmente
litteraria
litterario
litteratura
little
littley
littoria
lituana
lituania
lituanie
lituano
liturale
liturgeco
liu
liune
liure
live
livell
livella
livelle
livello
livenza
liveri
liverpool
livia
livie
liviello
livio
livorno
livre
lix
lizzanello
lizzano
ll
lla
llacreme
llane
llano
llar
llargo
llario
llariula
llastre
llate
llatine
llatino
llato
llatru
llatte
llavannare
llazion
llazza
lle
llebbreche
lleca
lleche
lleco
llegenda
llegge
lleggia
lleggista
llegista
lleida
llengua
llengue
ller
llera
llettere
llevace
llevamme
llevante
lli
llibres
lligure
llimoncello
lliquete
llire
lliste
lln
llo
lloco
llore
lloro
llu
llucanne
llucata
llucato
lluce
lluoche
lluongo
llus
lm
lmene
lmo
lning
lo
loc
local
locale
locali
localita
localizazzione
locana
locanda
loche
loco
locomotiva
locri
lode
lodi
lodigiano
lodo
lodovico
logeca
loggetta
loggia
logo
logos
logudorese
loia
loira
loire
lokomotiv
lol
lombarda
lombardi
lombardia
lombardo
lomellina
london
londra
lonely
long
longa
longhe
longhezza
longinus
longo
longobarda
longobarde
longobardi
longobardo
longola
lontano
look
looking
lopez
lor
lora
lord
lorde
lordi
loredana
loren
lorena
lorenzello
lorenzet
lorenzo
loreto
loro
lorraine
los
losa
losanna
lost
lotario
lotta
lotte
lotteria
lotto
louis
louisiana
louvre
love
lovin
low
lowell
lower
loxia
loy
lp
lpi
lpp
lr
ls
lt
lta
lte
ltr
lu
luat
luato
lubiana
lublino
lubrense
lubusz
luc
luca
lucale
lucaleta
lucalita
lucalizzate
lucalizzazzione
lucana
lucane
lucani
lucania
lucano
lucariello
lucca
lucchesi
luce
lucente
lucera
luche
luci
lucia
luciano
lucido
lucie
lucio
lucius
lucive
lucky
lucrezia
lucrine
lucro
ludovico
ludwig
luft
lugano
lugl
lugle
luglio
lugo
lui
luigge
luigi
luigia
luis
luisa
luje
luka
lullula
lumbaart
lumbarda
lumbardia
lumbardo
lume
lummardi
lummardia
lummardo
lummera
luna
lunae
lunar
lunare
lune
lunedi
lunga
lunghe
lunghezza
lungo
lungobarde
lungomare
lungro
lunneri
luntana
luntananza
luntane
luntano
luo
luoche
luoco
luoghe
luoghi
luogo
luogosano
luonga
luonge
luongh
luonghe
luonghezza
luongo
luongobardo
lupara
lupe
lupine
lupo
lupus
lure
lurena
lurenzo
lurrienzo
luscinia
luserna
lusingame
lussemburgo
lusso
luterana
luterane
lutero
luther
lutta
luva
luvanno
luvato
luz
luzion
luzzano
lv
lva
lve
lvere
lviv
ly
lyga
lymnocryptes
lyon
lǝ
lə
m
ma
mac
macaluso
macar
maccarone
maccarune
maccastorna
macchi
macchia
macchiaiuole
macchie
macchina
macchine
macchinetta
mace
macedo
macedone
macedonia
macena
macenata
macerata
machena
machene
machete
machiavelli
machina
machine
machinetta
macielle
maciello
mack
macmillan
macra
macrat
madagascar
madama
maddalena
maddalonese
made
madia
madison
madman
mado
madonna
madre
madrelengua
madri
madrid
madrigal
mae
maesta
maestre
maestro
mafia
mafie
mafiosa
mafioso
mafiu
mafiuse
mag
magari
magazine
magazzini
magazzino
magdalene
magge
maggie
maggio
maggior
maggioranza
maggiore
maggistrato
maggiuranza
maggiure
maghreb
magia
magic
magica
magiche
magico
magistrato
magistratura
magistri
magistris
maglev
maglia
magliano
magliaro
maglie
maglietta
magn
magna
magnacat
magnaco
magnani
magnanimo
magnanno
magnano
magnapatane
magnat
magnate
magnato
magnatoja
magnava
magnavano
magne
magneteca
magneteco
magnetezzate
magnetismo
magnetosfera
magnetude
magni
magnia
magnitudine
magnitudo
magno
magnoliophyta
magnoliopsida
magonza
magorno
magra
magydos
mahe
maho
mahoromatic
mai
maiale
maiano
maida
maiden
maie
maiella
mail
main
mainard
mainarde
maine
mainichi
mainolfi
maio
maior
maioranza
maiore
maiori
maira
mais
maiu
maj
maja
majano
maje
majella
majo
major
majore
majure
making
mal
mala
malacrianza
malafemmena
malaffare
malala
malame
malamente
malasciorta
malasera
malaspina
malati
malatia
malatie
malato
malattia
malattie
malavicina
malavita
malaysia
malborghetto
malcolm
maldacea
maldini
male
malepatenza
malepenziero
malese
malesia
maleuajone
malfitana
malgioglio
mali
malincuni
malincunia
maliusa
mallorca
malo
malommo
malone
malta
maltese
malu
malufiglio
malvaceae
malvestiti
mametto
mamm
mamma
mammal
mamme
mammema
mammeta
mammi
mammifere
mammiferi
mammifero
mammola
mammolese
mammula
mammulisi
mamozio
man
mana
manager
manaus
manc
manca
mancano
mancante
mancato
mancavano
manchester
manchi
mancia
mancinelli
mancini
manco
mancuso
mandarine
mandato
mande
mandela
mandene
mandenemie
mandie
mandulinata
manduline
manduria
mane
maneca
maneco
manefes
manella
manera
manere
manfre
manfredi
manga
mangaka
mange
mangh
manghe
mangia
mangiamu
mangiare
mangione
mango
manhattan
mani
mania
maniera
manifestante
manifestato
manifestazione
manifestazioni
manifestazziona
manifestazzione
manifesto
manlio
mann
manna
mannaia
mannaje
mannajeno
mannata
mannate
mannato
manne
mannera
mannoia
mano
manocalzati
manodopera
manon
mansone
mantece
mantello
mantene
mantenette
mantenne
mantenuta
mantenuto
mantesino
mantova
mantovano
mantrone
manu
manuale
manuel
manufatte
manutenzione
manutenzzione
manzali
manzoni
mao
maometto
map
mapp
mappa
mappamiento
mappe
mappina
mar
mara
maracana
maradona
maraja
marani
marano
maratea
maratona
maraveglia
maraveglie
maraviglia
maravillas
marc
marca
marcando
marcani
marcantonio
marcato
marcedusa
marcel
marcellino
marcello
march
marche
marchesa
marchese
marchi
marchio
marcia
marciajeno
marciana
marcianise
marciava
marco
marconi
marcos
marcus
mare
marea
marechiare
marechiaro
marek
marena
marenare
marenari
marenariello
marenaro
marengo
marenna
mares
maresca
maresciallo
maretiello
marfitana
margarete
margari
margarita
margellina
margherita
mari
maria
mariana
marianella
marianna
marianni
mariano
marianum
mariarosa
marie
marietta
marietti
mariglianella
mariglianese
marigliano
marii
marika
marina
marinai
marinaio
marinara
marinare
marinaresca
marine
marinelli
mariner
marineris
marini
marino
mario
mariola
mariosa
marisa
marite
marito
maritteme
marittima
marittime
marittimo
mariu
mariuolo
mark
market
marketing
markt
marktl
markup
marlene
marmo
marne
maro
marocco
marone
maronna
maroso
marotta
marra
marrazza
marro
marrone
mars
marsala
marse
marseca
marsecano
marseglia
marsegliese
marseille
marshall
marsi
marsicana
marsiglia
marsilio
marsina
marsis
mart
marta
martano
marte
martelli
martello
marteri
marti
martian
martielle
martiello
martignano
martin
martina
martine
martinez
martini
martino
martire
martiri
martirio
martis
martone
martucci
marturano
marua
maruggio
marulli
maruzzella
marvizze
marvizzella
marvizzomontagna
marxista
mary
maryland
marz
marzane
marzano
marze
marziale
marziali
marziana
marziane
marziano
marzio
marzo
mas
masa
masaccio
masaniello
mascalzone
mascara
maschera
maschere
mascherina
maschie
maschile
maschio
maschito
masco
mascule
masculo
masera
masgaba
mashqiti
masons
mass
massa
massacre
massaia
massara
massari
massaria
masse
massema
massemo
masseria
masserie
massicc
massicce
massiccio
massima
massime
massimiano
massimiliano
massimino
massimo
mastaba
mastellone
master
masterascio
masteria
masto
mastriani
mastrilli
mastro
mastrocinque
mastroianni
mastu
matale
matalune
matania
matarazzo
matasse
mate
matelda
matema
matemateca
matematece
matemateco
matematico
mater
matera
materdei
materia
materiale
materie
materna
matese
matilde
matina
matino
matiriale
mato
matre
matremmonio
matrimmonio
matrimoni
matrimonio
matt
matta
matte
matteis
matteo
matteotti
mattha
matthew
matti
mattia
mattie
mattina
mattino
matto
mattoli
mattone
matune
mature
maued
maurer
mauri
maurice
mauritania
maurizio
mauro
mausoleo
maven
mavp
max
maximus
maxwell
may
maya
mayer
mayor
mayr
mays
mazara
mazinga
mazz
mazza
mazzarella
mazzarino
mazzat
mazzate
mazze
mazzecanno
mazzo
mazzocco
mazzola
mazzotta
mazzucato
mazzucchi
mazzune
mazzuocch
mb
mbacc
mbacce
mbacci
mbaccia
mbale
mbalsamazzione
mbane
mbara
mbarate
mbarca
mbart
mbarte
mbarzamata
mbas
mbe
mbece
mbele
mbellenazione
mbene
mbera
mberatore
mbere
mberiale
mbertand
mbertande
mbertanza
mbessessate
mbeveremie
mbie
mbin
mble
mblece
mbo
mbolla
mbond
mbonda
mbossa
mbr
mbra
mbracci
mbraccio
mbre
mbrefema
mbrefemate
mbrellino
mbrendetore
mbres
mbriache
mbriaco
mbriana
mbronda
mbruoglio
mbuddatu
mbund
mburtand
mburtante
mbusse
mbuttunate
mbuttunato
mbuttunatura
mbuzati
mc
mccartney
mccoy
mcne
me
mea
meacd
meana
mear
meca
mecca
meccanica
meccaniche
meccanico
meccecate
mece
mecha
meche
meckel
meco
med
medaglia
medaglie
medaka
mede
medea
medecina
medesimo
medeterrania
medi
media
mediane
mediante
mediaset
mediawiki
medici
medicina
medicine
medico
medie
medieval
medievale
medina
medio
medioevale
medioevo
medioriente
meditazione
mediterranea
mediterranee
mediterraneo
mediterranie
mediuevo
medley
meet
mefitis
megarhynchos
megaride
megl
megleno
meglia
meglie
meglio
megliure
megumi
mehmet
meja
meje
mejo
mejor
mekong
mel
mela
melane
melano
melanocorypha
melata
melchiorre
mele
meleagris
melendugno
meles
meletare
meleti
melfa
melfi
meliarde
meliardo
melione
melise
melissano
melitare
melito
meliune
melizia
melizzano
mella
mellarine
melle
melli
mellito
mellone
mellucci
mellunaro
mellune
melodia
melodie
melodramma
melody
meloni
melpignano
membre
membri
membro
meme
memoria
memorie
memories
memphis
men
mena
menaccia
menaje
menale
menas
mendagn
mendagna
mendagne
mendana
mendane
mendecasine
mendevate
mene
menemie
menes
menesta
meneste
menesto
menfi
meni
meniste
menistero
menisto
menistre
menna
menniale
mennola
meno
menore
menotti
menschenbu
mensile
ment
menta
mentale
mente
mentha
menti
mentore
mentre
menu
menute
menziunata
menziunate
mer
mera
merale
meraviglie
meravigliosa
meraviglioso
mercadante
mercante
mercantile
mercanzi
mercate
mercatiello
mercato
merce
mercedes
merchandising
merci
merciful
mercogliano
mercurio
merda
mere
mereca
merecano
merecina
merediunale
mergellina
meri
mericana
mericane
mericano
mericina
mericinale
meriddionale
meriddiunale
meridionale
meridionali
meridione
meridiunale
meridiunali
meridiune
merito
merkel
merluzze
merola
meropidae
merops
merricana
merricano
merrone
merrune
mertens
merula
merun
mes
mesagne
mesale
mesca
mescatie
mesculate
mese
mesera
meserazione
mesfe
mesi
mesnil
mesogea
mesopotamia
mesoreggione
messa
messaggio
messaneus
messapica
messe
messeco
messer
messi
messia
messiah
messicana
messicane
messicano
messico
messina
messione
messiune
messo
mesterie
mesteriuse
mestiere
mestieri
mesura
mesure
meta
metal
metallo
metano
mete
meteorite
metereologgeca
metetura
metive
metode
metodo
metologgece
metologgia
metre
metri
metro
metropoli
metropolitan
metropolitana
metropolitane
metropulitana
metrupulitana
metrupulitane
mett
metta
mette
mettene
mettenno
metteno
mettere
mettermi
mettete
mettett
mettette
mettetteno
mettetter
mettettero
metteva
mettie
mettimmo
mettite
metto
mettono
metz
meu
meurthe
mevemie
meyer
mez
meza
mezaluna
mezanotte
mezz
mezza
mezzacapo
mezzana
mezzano
mezzanotte
mezze
mezzenile
mezzi
mezzo
mezzogiorno
mg
mhnt
mi
mia
miami
miano
mica
micca
miccinelli
miccio
micerino
michael
miche
michel
michela
michelangelo
michele
micheli
mick
mickiewicz
microclima
microclime
microreggione
microscope
micruscopio
middle
miditerraneo
midlands
midnite
mie
miedece
miedeco
miei
miele
miembre
miend
mienzo
miercuri
miereca
miereche
miereco
mierolo
miesenzeria
mietre
miette
miettere
miez
mieza
mieze
miezo
miezojuorno
miezz
miezze
miezzo
miezzojuorno
miggiano
miglia
migliaccio
migliaia
migliara
migliare
migliaro
miglio
miglior
migliore
migliura
migliuri
migrante
migrazione
miguel
mihail
mijo
mijore
mijori
mike
mikhailovic
mil
mila
milan
milanese
milanesi
milani
milano
milazzo
mile
milena
miletare
miliarde
miliare
milionaria
milione
miliscola
milita
militante
militare
militari
military
militato
militello
milites
militum
miliune
miliuni
milkmaid
mill
milla
mille
millennio
miller
milliune
milo
milton
milurdino
milva
milvus
mimmo
mina
minaccia
minacciato
minaccie
minas
minaturi
mindr
mindre
minemo
minerale
minerva
minervini
minervino
ming
minh
mini
miniatura
miniera
minima
minime
minimo
miniserie
minister
ministero
ministre
ministri
ministro
minniti
mino
minor
minoranza
minoranze
minore
minori
minsk
minti
minuranza
minuranze
minure
minuta
minute
minuti
minuto
minutolo
mio
mir
mira
mirabella
mirabello
miracoli
miracolo
miracule
miraculo
miragoli
miranda
mirandese
mirbeau
mire
mirna
mirtill
mis
misa
misato
misc
miscano
misce
mischia
mise
miseno
miseria
misericordia
misfe
misijuorn
misijuorne
misilmeri
miskito
miso
miss
misse
mission
missionario
missione
mississippi
mista
mister
misteri
mistero
mistica
misura
misure
mit
mita
mite
mithraeum
mitice
mitico
mitilene
mito
mitologgi
mitologgia
mitri
mitria
mitsuishi
mitte
miu
miusicollo
mixed
mixtape
miyamura
miyazaki
mizobe
mizze
mk
mkad
ml
mm
mma
mmacena
mmache
mmaculata
mmaggena
mmaggene
mmagna
mmalati
mmalatie
mmale
mmaleme
mman
mmana
mmane
mmanere
mmangia
mmani
mmano
mmar
mmare
mmareta
mmari
mmarzo
mmasciata
mmasione
mmateriale
mmatina
mmatini
mmatte
mme
mmec
mmeca
mmece
mmeco
mmeda
mmede
mmedecenale
mmedecina
mmeglie
mmeglio
mmegrazione
mmele
mmeliarde
mmeliune
mmena
mmendate
mmene
mmeno
mmente
mmentore
mmenzione
mmenziune
mmere
mmereca
mmerecana
mmerecane
mmerecano
mmericana
mmericane
mmericani
mmericano
mmero
mmerz
mmerza
mmerze
mmerzo
mmesca
mmescano
mmescata
mmescate
mmesura
mmeta
mmetano
mmete
mmetre
mmez
mmezo
mmezzo
mmie
mmienzo
mmierzo
mmies
mmiez
mmieze
mmiezo
mmiezz
mmiezzo
mmigrazzione
mmio
mmiscate
mmise
mmiso
mmita
mmitato
mmo
mmocca
mmoce
mmogliato
mmole
mmonumento
mmorte
mmostra
mmura
mmure
mmusecata
mmusta
mmustassero
mn
mo
mobbele
mobbile
mobile
moda
moddra
mode
model
modella
modello
modena
modenese
moderato
modern
moderna
moderne
moderni
modernita
moderno
modi
modica
modiello
modifica
modificato
modifiche
modo
modugno
module
modulo
mogherini
mogile
mogl
mogle
mogliano
moglica
moglie
moguy
mohamed
moi
moiano
moio
mojo
moka
mola
moldavia
mole
molecole
molie
molina
molinara
molino
molise
moll
molla
mollare
molle
mollison
mollusche
molte
molti
molto
mombello
momento
mompantero
mon
monaca
monace
monacella
monache
monaci
monaco
monacone
monarchia
monaste
monastero
monasterolo
moncalieri
moncenisio
mond
mondadori
monde
mondecasine
mondi
mondiale
mondo
mondovi
mondragone
monello
moneta
monferrato
monforte
mongolia
mongolo
monica
monicelli
monitor
monitore
monna
monnassa
monografie
monoloco
monopoli
monopolio
monossido
monreale
mons
monse
monsieur
monsignor
monster
monsters
mont
monta
montagna
montagne
montalbano
montaldo
montalto
montana
montanaro
montano
montanus
monte
montebello
montecalcio
montecalvario
montecalvo
montecarlo
montecassino
montecchio
montechiaro
montecilfone
montecorvino
montefalcione
montefalcone
montefiore
monteforte
montefusco
montegranaro
montegrosso
monteiasi
monteleone
montella
montello
montemaggiore
montemarano
montemesola
montemitro
montenegro
montenero
monteparano
montereale
monteroni
monterosso
monterrey
montes
montesano
montesarchio
montesilvano
montestella
monteu
monteverde
montevergine
montevideo
monthly
monti
monticelli
monticello
monticola
montone
montorio
montoro
montpellier
montriale
montserrat
montsoreau
montuori
monumentale
monumentali
monumente
monumenti
monumento
monumientale
monumiente
monumiento
monza
monzese
monzo
moody
moon
moraceae
morale
morales
moralista
morano
morcelliana
morciano
morcone
more
moregine
morelli
moreno
morette
morfologgia
morfologica
morgantini
mori
morioh
morir
morire
moro
morono
morra
morricone
morro
morrone
morta
mortale
morte
morti
morto
mos
mosa
mosaic
mosca
moscati
mosce
moschea
moscia
mose
moselle
mossa
mosso
most
mosta
mostly
mosto
mostra
mostri
motacilla
mote
mother
moti
motive
motivo
moto
motore
motta
motto
mottoni
mousavi
mousso
move
moved
movemento
moveno
movere
movie
moviezine
movimento
movimiento
movin
moving
moxedano
mozambico
mozart
mozzarella
mpa
mpagliasegge
mpara
mparaje
mparanza
mparate
mparato
mpasta
mpastato
mpattanza
mpatte
mpatto
mpe
mpegnate
mpegno
mperatore
mperature
mperiale
mperialisteco
mpericolo
mperio
mpero
mperro
mperzo
mpezzaje
mpezzata
mpiante
mpianto
mpicca
mpietto
mpignate
mpiso
mpizza
mpizzaje
mpizzata
mpizzato
mpizze
mpizzo
mpo
mpopulare
mporta
mportante
mportanti
mporzi
mpossibbele
mprece
mpreciso
mprenau
mprendito
mprenditore
mprenditure
mpresa
mprese
mpressa
mpressione
mpresso
mprurenza
mpunente
mpure
mpurpate
mpurre
mpurta
mpurtaje
mpurtant
mpurtanta
mpurtante
mpurtanti
mpurtanza
mpurzi
mpurzine
mpussibbele
mr
mrcd
ms
mt
mtv
mu
mua
muar
muare
muat
muatese
muay
mucca
muccaturo
mudelle
mudello
muderato
muderna
muderne
mudernizzazzione
muderno
mudielle
mudiello
mudifica
mue
muglie
mugliera
mugliere
mugnano
muhammad
mujera
mule
mulecole
mulegnane
mulesana
mulesane
mulignana
mulignane
mulino
mulisane
mulisano
mulise
mulo
multe
multiflora
multimedia
multimediale
multimediali
multipheno
multiple
mume
mument
mumente
mumento
mumiente
mumiento
mun
munacella
munaciello
munacone
munal
munarca
munarche
munarchia
munasterio
munastero
mund
munda
mundagne
mundagnuole
munde
mundi
mundial
mundiale
mundimitar
mundo
mundu
mune
munecepale
muneta
munete
munezza
municipale
municipalita
municipio
municipium
munitionis
munn
munne
munnezza
munnezze
munniale
munniali
munno
munnu
muntaggio
muntagna
muntagne
muntana
munte
muntecalvario
muntrusciello
muntsarch
muntuoro
muntuosa
muntuoso
munumentale
munxhufuni
munzu
muo
muolo
muore
muort
muorta
muorte
muorti
muorto
muos
muostre
mupe
mur
mura
murakami
murale
murat
muratura
murcia
murde
mure
murenno
murette
muretteno
murettero
murge
muri
muro
murolo
murrone
mursia
murtale
murtarella
murtelle
mus
musa
muscicapa
muscicapidae
muscio
muse
museca
musecale
musecata
musecate
museche
musecista
museciste
museco
musee
musei
musejo
musella
museo
musetto
museum
music
musica
musical
musicale
musicali
musicanova
musicante
musicanti
musicata
musicate
musiche
musicista
musiciste
musicisti
musicus
musikant
musolino
musse
musso
mussolini
mussulmane
mussulmano
mustacce
mustacciuoli
mustafa
mustrare
musulmana
musulmane
mutamente
muti
mutive
mutivo
muto
mutore
mutriuso
mutte
muvemiente
muvemiento
muvimente
muvimento
muvimiente
muvimiento
muzzarella
mve
mw
my
mɑ
n
na
nabateie
nabla
naca
nach
nache
nacional
naco
nacque
nadal
nadia
naevia
nafta
nagai
nagg
naggitto
naggizzia
naggizziana
naggizziane
nagisa
nagitto
nahuatl
nairobi
nam
name
names
namespace
nami
nan
nanco
nancy
nand
nandi
nando
nane
nanni
nanninella
nanning
nano
nantes
nanz
nap
napeletana
napeletane
napier
naples
napole
napoleone
napoleonico
napoletana
napoletane
napoletani
napoletano
napoli
napoligrafia
napolitana
napolitane
napolitano
napule
napuletana
napuletane
napuletano
napulio
napulione
napulioneche
napulioneco
napulitan
napulitana
napulitanata
napulitane
napulitani
napulitano
nar
narada
nardella
nardo
narmer
narrante
narrativa
narsete
naruhito
nas
nasa
nasale
nasc
nasce
nasceno
nascente
nascere
nasceta
nascette
nascetteno
nascettero
nasceva
nasci
nascimento
nascinu
nascita
nasciuta
nasciute
nasciuto
nasconne
nascunne
nase
naso
nasser
nastro
nat
nata
natal
natale
natalizzie
nate
naterale
nati
national
nations
natisone
nativa
native
nativita
nativo
nato
natorale
natron
natumia
natura
naturala
naturale
naturalis
naturalista
naturalizzato
naturalme
naturalmente
nature
naturelle
nauf
naugurato
nauru
naus
nausea
nauteche
nava
navale
navarro
navata
navate
nave
navi
navicella
naviga
naviglio
navota
navy
naxos
nazareth
nazario
nazienale
nazional
nazionale
nazionali
nazione
nazista
naziunale
naziunali
naziune
nazzaro
nazzi
nazzion
nazziona
nazzionale
nazzionali
nazzione
nazzioni
nazzismo
nazzista
nazziuna
nazziunala
nazziunale
nazziunali
nazziune
nb
nba
nc
nca
ncampiunato
ncanna
ncap
ncapa
ncapo
ncarze
ncarzie
ncatena
nccp
nce
ncera
ncerano
ncere
nche
nchiantato
nchietta
nchiure
nchiusa
nchiuse
nchiuso
nchiusura
nci
ncia
nciclopedia
nciclopedie
ncielo
ncinta
ncio
nciuc
nciurie
ncluse
nclusione
nco
ncomntr
ncontr
ncontra
ncontro
ncop
ncopp
ncoppa
ncoppe
ncoppo
ncoppp
ncora
ncremiento
ncruse
nculo
ncumbenzato
ncumparabile
ncunia
ncuntr
ncuntra
ncuntraie
ncuoll
ncuolla
ncuolle
ncuollo
ncuorio
ncuorpo
ncurunato
ncy
nd
nda
ndacca
ndaccate
ndan
ndanderanda
ndanderandi
ndane
ndann
ndat
nde
ndeca
ndel
ndene
ndependenzia
ndepenne
nder
nderce
ndere
nderessa
nderessata
nderesse
nderpretazione
ndervie
ndeva
ndi
ndiane
ndica
ndici
ndie
ndo
ndr
ndra
ndral
ndrata
ndre
ndreche
ndrene
ndu
ndus
ndustriale
ndutt
ndutte
ne
nea
neapol
neapolis
neapolitan
nebbelta
neblina
nebo
nebrija
nebu
nec
neca
nece
necessaria
necessarie
necessario
necessita
neche
neco
necropole
necropoli
necropule
nefertiti
nega
negativamente
negative
negativo
negli
negozio
negra
negre
nei
neipperg
neith
nekhbet
nekhen
nel
nell
nella
nelle
nello
nelson
nema
neme
nemice
nemiche
nemici
nemico
nemmanco
nemmena
nemmenate
nemmi
nemmica
nemmice
nemo
nen
nene
nenna
nennello
nennillo
neno
neo
neoborbonici
neoburboneco
neolatina
neolatine
neoliteco
neomelodica
neon
neophron
neozelandese
nepal
nepalese
nepote
nepute
ner
nera
nerae
nere
neri
nerissa
nermann
nerme
nero
nerone
nerv
nerva
nervature
nerve
nervi
nervoso
nes
nesciune
nesciunu
nessuna
nessuno
nestle
nestore
net
nete
netretive
netro
nettezza
nettunno
netturn
network
neutrale
neutro
neutroni
neva
nevada
nevano
neve
never
neviano
nevie
nevis
new
newcastle
news
newsletter
newton
newtype
next
ney
neymar
nfacc
nfacci
nfaccia
nfame
nfamita
nfanzia
nfatt
nfatte
nfatti
nfatto
nfe
nfela
nfelate
nfeltraziune
nferiore
nfermaziune
nfete
nfi
nfie
nfierno
nfin
nfina
nfine
nfino
nfiure
nflue
nfluenza
nfluenzato
nfluenze
nfonne
nformazione
nfosa
nfr
nfra
nfrascata
nfrastrutture
nfromma
nfromme
nfronte
nfruente
nfruenza
nfrusso
nfunno
nfurmateca
nfurmato
nfurmaziune
nfurmazzione
nfurnate
nfusa
nfuse
nfuso
ng
nga
ngalera
nganala
ngandate
nganna
ngap
ngapa
ngarra
ngarraje
ngarrajeno
ngarranno
nge
ngeche
ngede
ngegnere
ngegneri
ngegneria
ngeima
ngele
ngenerale
ngepe
nger
ngh
nghe
nghele
nghene
ngherpera
ngheta
nghianata
nghianate
nghierchiate
nghle
nghles
ngi
ngia
ngie
ngigna
ngignaje
ngignato
ngignere
ngigniere
ngim
ngima
ngipie
ngle
nglese
ngo
ngondr
ngondra
ngop
ngopp
ngoppa
ngoppe
ngoppo
ngrass
ngrassa
ngrato
ngrazia
ngrediente
ngresa
ngrese
ngresi
ngreterra
ngretterra
ngrise
ngriterra
ngu
ngua
nguadiaje
nguadiato
nguartate
ngue
nguetate
ngule
ngundra
nguogl
nguoll
nguollo
ngura
ngure
nguru
nguttuso
nguyen
ngwy
nh
nha
nhat
nhay
ni
nia
niar
niat
nic
nica
nicandro
nicaragua
niccolo
nice
nichi
nicholas
nick
nico
nicodemo
nicola
nicolae
nicolardi
nicolas
nicolaus
nicole
nicolo
nicomedia
nicosia
nicotemu
nicotera
nide
nidifica
nidina
nie
niebuhr
niegl
niels
nien
nient
niente
nig
nigeria
nigghie
night
nigra
nihon
nik
nil
nile
nilo
nimmanco
nina
ninco
nine
ninfa
ninh
nini
nino
nintendo
nio
nipote
nipr
nira
nire
niri
niro
nis
nisa
nisciun
nisciuna
nisciuno
nisciunu
nisida
nisoria
nisus
nitro
nittis
nives
nivica
nixon
nizza
nizzardo
nizze
nizzialmente
nj
nke
nl
nn
nna
nnaco
nnaggene
nnammorata
nnammurata
nnammurate
nnammurato
nnamurate
nnamurato
nnante
nnanz
nnanze
nnanzetutt
nnanzetutte
nnanzetutto
nnapa
nnapule
nnapulitana
nnapulitane
nnapulitano
nnat
nnata
nnate
nnato
nnaugurato
nnazzione
nne
nneca
nnece
nneche
nneco
nnedito
nnegle
nnela
nnele
nneme
nnemice
nnene
nnepennente
nnepennenza
nnera
nnere
nnese
nnevierzo
nni
nnia
nnie
nniente
nnipennente
nnipennenza
nnividuale
nno
nnord
nnose
nnote
nnova
nnovativa
nnove
nnucente
nnucienzo
nnummenata
nnustria
nnustriale
nnustriali
nnuvia
nnuvie
no
noachian
noachiano
noasca
nobbele
nobbile
nobel
nobi
nobile
nobili
nobilissima
nobilta
nobis
noc
nocciola
noce
nocera
nocerina
nocerino
nociglia
noctua
nodo
noe
noemi
noi
noir
noirs
nola
nolana
nolane
nolano
nole
noli
nom
nome
nomenclatura
nomi
nomina
nomine
nomm
nommalto
nomme
nommena
nommenato
nommenclatura
nommi
nommo
nomo
nomos
non
nona
nonche
none
nonna
nonne
nonno
nono
nonostante
nonviolenta
nonviolento
nonviolenza
noravank
norbert
norberto
norcia
nord
nordame
norde
nordest
nordoccidentale
nore
norimberga
norma
normal
normale
normalmente
normanne
normanni
normanno
norme
norte
north
northern
northwind
norvegese
norvegia
nos
noschese
nosta
noste
noster
nostra
nostri
nostro
nostru
nostrum
nosuke
not
nota
notarelle
notari
note
notes
notevoli
notevule
nothing
notice
notizia
notizie
noto
notproof
notre
nott
notta
notte
notti
notturno
nov
nova
novalesa
novamente
novanta
novara
novarese
novartis
novazelandese
nove
novecento
noveciento
novel
novelle
novembre
noventa
novi
noviciento
noviembro
novita
novo
novoli
now
nozze
np
nparticulare
npiazza
nquadra
nquantita
ns
nsarvamiento
nsceresce
nse
nsieme
nsomma
nster
nstinto
nt
nta
ntanto
nte
ntellettuale
ntende
ntenne
ntennere
ntensa
ntenzione
nteramente
ntere
nteressa
nteressaje
nteressano
nteressante
nteressate
nteresse
nteriore
ntermedio
nterna
nternazionale
nternaziunale
nternazzionale
nternazziunale
nterne
nterno
ntero
nterpreta
nterpretata
nterpretate
nterpretato
nterpretazzione
nterprete
nterr
nterra
nterrato
nterveni
ntervista
nti
ntica
ntiento
ntimazziune
ntime
ntimie
ntise
ntiso
ntitulata
ntitulato
nto
ntosta
ntr
ntra
ntrale
ntramaria
ntramarija
ntramarja
ntramente
ntrasatta
ntrata
ntrattenimiente
ntrazatta
ntreppeca
ntreppecata
ntreppecato
ntreppecazzione
ntresse
ntrico
ntro
ntrodotto
ntrodutto
ntrojeta
ntroterra
ntru
ntsc
ntunnu
ntuonaco
ntuorno
ntuosto
ntutto
nu
nua
nuanta
nubi
nubia
nubiane
nuce
nucelle
nucera
nuceria
nucerino
nucirino
nucleare
nuclei
nucleo
nucleus
nude
nudo
nue
nuestros
nuevo
nugent
nui
nuie
nuje
nula
nule
nulla
nultre
nume
numenius
numerazione
numero
numerose
numerosi
numida
numinaje
numinata
numinato
numma
nummarose
nummaruse
nummena
nummenaje
nummenanno
nummenata
nummenato
nummere
nummero
nummerose
nummeruse
numminate
nun
nunche
nunn
nunnally
nunviule
nunviulenta
nunviulente
nunviulenza
nunzia
nunziaje
nunziata
nunziatella
nunzio
nuo
nuomme
nuoro
nuos
nuosta
nuoste
nuosto
nuotare
nuotatore
nuova
nuovamente
nuove
nuovi
nuovo
nupedia
nur
nura
nure
nurmale
nurmalmente
nurmann
nurmanna
nurmanne
nurmannia
nurmanno
nurmativa
nus
nusco
nust
nuta
nutanno
nutarella
nutarelle
nutarielle
nutevole
nutile
nutizia
nutizie
nutizzia
nutizzie
nutre
nutri
nuttata
nuva
nuvanta
nuveciento
nuvella
nuvelle
nuvembre
nuvena
nuvita
nuvole
nuzzulo
nvasione
nvazione
nvece
nventata
nventato
nventore
nvenzione
nvero
nvestette
nvestuto
nvitaje
nvrastrutture
nycticorax
nyj
nynorsk
nyon
nz
nza
nzaccate
nzacche
nzaie
nzaio
nzalata
nzalate
nzane
nzarcenara
nze
nzediamente
nzediamiente
nzediamiento
nzegna
nzegnamento
nzegnata
nzegnate
nzegnato
nzeme
nzemmola
nzemmor
nzemmora
nzemmula
nzenatura
nzene
nzeri
nzerite
nzerra
nzerrata
nzerrate
nzerrato
nzerta
nzertaje
nzertata
nzi
nzia
nzie
nziem
nzieme
nziemme
nzigna
nzignate
nzin
nzine
nzino
nzion
nziste
nzite
nzo
nzogna
nzomma
nzorare
nzsl
nzuonno
nzuraje
nzurato
nǝ
nə
o
oara
oasi
obama
obbiettivo
obbliga
obelisco
obiettivo
objectives
objektiv
oblast
obres
observer
oc
occasione
occasioni
occaso
occedentale
occhi
occhiaro
occhieppo
occhio
occhiobello
occidentala
occidentale
occidente
occitan
occitana
occitano
occitans
occupa
occupaje
occupajeno
occupano
occupata
occupate
occupato
occupazione
occupazzione
oceane
oceania
oceano
och
ocimum
ocracee
octave
octopus
od
odense
odeon
oder
odia
odilia
odinato
odio
odissea
odore
odyssey
oe
oenanthe
of
ofanto
off
offenbach
offerta
offesa
official
officina
officinalis
offre
offresi
og
ogata
oge
ogg
ogge
oggette
oggetti
oggetto
oggi
oggie
oggiette
oggietto
ogliarese
ogliastra
oglio
ogn
ogne
ogneduno
ogni
ognuna
ognune
ognuno
oh
ohe
ohio
oi
oila
oili
ois
oise
oj
oje
ok
okada
oklahoma
ol
olanda
olandese
olandesi
olannese
olbia
old
oldoini
ole
olea
olearia
oleracea
olevanese
olevano
olgiate
olimpeche
olimpia
olimpiade
olimpiadi
olimpica
olimpiche
olimpici
olimpico
olinguito
olio
oliva
oliver
oliveto
olivetti
olivina
olmo
oloferne
olona
oltre
oltretomba
olympic
olympique
olympus
om
omaggio
oman
omar
ombra
ombre
ome
omega
omero
omicidio
omini
omm
omme
ommene
ommo
ommofobia
ommosessualita
ommra
omo
omonema
omonemo
omonima
omonimo
omosessuale
omri
omu
on
ona
onda
onde
one
onesta
oneta
online
onn
onna
onne
ono
onoraria
onorata
onore
onorificenze
onorio
ontario
onu
oo
op
opac
ope
open
oper
opera
operaio
operaje
operazione
operaziune
operazzione
operazziune
opere
operetta
operette
ophrys
opi
opinione
opinionista
oplonti
oplontis
opportunita
opportunity
opposizione
opposizzi
opposizzione
opposta
opposto
oppur
oppure
opre
opus
or
ora
orale
orama
oramai
oramaje
orange
orario
oratorio
orazi
orba
orbeta
orbita
orbiter
orca
orchestra
ordene
ordinamento
ordinamiento
ordinato
ordine
ore
oreste
orf
orfeo
org
organe
organeca
organeche
organezzazzione
organi
organisation
organisme
organismo
organization
organizazzione
organizza
organizzaje
organizzata
organizzate
organizzato
organizzazion
organizzazione
organizzaziune
organizzazzione
organo
orgella
orgoglio
ori
oria
orie
oriendamie
orientale
orientali
orientamento
orientamiento
orientate
orientation
orientato
oriente
orig
origanum
origena
origgenale
origgene
origginale
origginaria
origginariamente
origginario
origgine
origgini
origi
origin
original
originale
originali
originariamente
origine
origini
orio
oriolo
oriolus
orion
oristano
orizzonte
orizzonti
orlando
orleans
ormai
ormaje
ornella
oro
orologe
orologio
orosei
orsara
orsini
orso
orta
ortelle
ortodossa
ortodosse
ortona
ortulanu
oruchuban
orvieto
orville
os
osaka
osasco
osc
osca
oscar
osce
osche
osci
osco
oscura
oscuro
osiride
oslo
ospedale
ospedaletto
ospita
ospitaje
ospitale
ospite
ospitera
ossa
osse
ossedo
osserva
osservatore
osservatorio
osservature
ossi
ossia
ossido
ossigeno
ossola
ostia
ostilita
ostuni
oswald
otaku
otan
otello
other
otis
otr
otra
otranto
otre
ottaiano
ottajano
ottanta
ottantavoglia
ottav
ottave
ottaviano
ottavio
ottavo
ottawa
otte
ottene
ottenne
ottenuta
ottenuto
ottima
ottimisteca
otto
ottobbr
ottobbre
ottobre
ottocento
ottociento
ottomane
ottomano
ottone
ottovre
ottu
ottuciento
otus
ou
oubocht
oudezijds
oulx
our
out
outram
ov
ova
ovale
ove
over
overamente
overo
oves
ovest
ovo
ovvero
ovviamente
oxa
oxford
p
pa
pablo
pabst
paca
pacamie
paccare
pacchero
pacco
pace
paci
pacienza
pacifeca
pacifeco
pacifico
pacifista
pacino
padana
paderno
padova
padovana
padovani
padre
padri
padrino
padrona
padrone
padula
paduli
pae
paes
paesagg
paesaggie
paesaggio
paesana
paesane
paese
paesi
paesiello
paestum
pag
pagane
paganese
pagani
pagano
pagato
page
paggella
paggena
paggene
paggina
pagina
pagine
pagli
paglia
pagliaccio
pagliara
pago
pagodinho
pai
paid
pais
paisa
paisagg
paisagge
paisaggio
paisane
paise
paisi
paisiello
paiso
paja
paje
pajeno
pajese
pajis
pajo
pakistan
pal
pala
palac
palace
paladino
palapartenope
palatina
palau
palazze
palazzi
palazzine
palazzo
palazzola
palazzolo
palcosceniche
palcuscenico
pale
paleja
palejanno
palejata
paleoliteca
paleoliteco
palerme
palermi
palermo
palestina
palestinese
palestra
paleuliteco
palgrave
pali
paliermo
palinuro
paliotti
palizzi
palla
pallacanestro
palladio
pallagorio
pallavolo
palle
palli
palline
pallon
pallone
palloni
palma
palmare
palmariggi
palmas
palmese
palmieri
palo
palomba
palombo
palomma
palommella
palomonte
paltiel
palu
palude
paludose
paludoso
palumme
palummella
palummo
palus
palustris
pan
panama
panaro
panchina
pancrazio
pandane
pandino
pando
pandrepecale
pane
panetta
panettone
paneve
panico
panine
panionios
pann
panna
panne
panni
pannoneco
pannonia
pannorama
panorama
panta
pantano
panty
panurama
panza
panzarotte
panzerotto
paola
paoli
paolina
paoline
paolinelli
paolino
paolisi
paolo
paolucci
papa
papale
pape
papera
papiello
papire
papiri
papiro
papo
papocchio
paposcia
pappacce
pappagalli
pappice
papua
par
para
parabita
parade
paradiso
paragone
paragrafo
paraguay
paragunaje
parallele
parallelo
parametro
parana
paranza
parassite
parata
parate
paratina
paravise
paraviso
parch
parche
parco
pare
parecchia
parecchie
pareggiaje
pareggio
parendate
pareno
parente
parentese
parentesi
parenti
paret
parete
pareva
pari
pariante
paricchi
paricchie
paricchio
parie
parient
pariente
parigg
parigge
pariggi
parigi
parigina
paris
parisi
park
parker
parl
parla
parlaje
parlajeno
parlamentare
parlamento
parlami
parlamiento
parlammene
parlammo
parlann
parlanno
parlano
parlante
parlanze
parlare
parlata
parlate
parlato
parlava
parle
parleno
parlesia
parlo
parma
parmense
parmiggiana
paro
parodia
parola
parole
paroliere
parono
parrari
parrilla
parrocchia
parrocchiale
parrocchie
parrochia
parrochiale
parroco
pars
part
parta
parte
partecelle
partecepano
partecepante
partecepato
partecepe
parteci
partecipa
partecipaje
partecipanno
partecipano
partecipante
partecipato
partecipazione
partecipazioni
partecipazzione
parteculare
partenio
partenne
partenno
parteno
partenone
partenope
partenopea
partenopeo
partenupea
partenza
partenze
partere
partette
parthenope
parti
participai
participaje
participato
particolar
particolare
particular
particulare
particularita
particularmente
partiggiane
partiggiani
partire
partita
partite
partiti
partito
parto
partono
partuto
party
parus
paruta
paruto
parzenale
parziale
parzialmente
pas
pasc
pasca
pascal
pascale
pasce
pascoli
pascu
pasolini
pasquale
pasqualino
pasquariello
pass
passa
passagge
passaggiere
passaggio
passaguai
passaie
passaje
passajeno
passanno
passano
passante
passanti
passaporto
passara
passare
passarefurme
passaro
passarra
passat
passata
passate
passato
passava
passe
passeggere
passeggeri
passeggiata
passer
passeridae
passero
passette
passi
passim
passiona
passione
passiria
passo
passoeclano
past
pasta
pastacriscute
paste
pastenaca
pastetta
pasticceria
pastiera
pastorale
pastore
pastori
pasture
pat
patana
patane
patanelle
patarino
patata
patatine
pate
patella
pater
paterno
paternopoli
pateterno
pati
patierno
patini
patio
patologgie
patrasso
patre
patremo
patreterno
patria
patriarca
patrick
patrimmone
patrimmonio
patrimonie
patrimonio
patriota
patrizia
patrizio
patrizzio
patro
patron
patrona
patrone
patroni
patrono
patta
patte
patti
pattinaggio
patto
patty
patu
patute
paul
paula
paulo
paura
pauru
paus
pausa
pausania
pausini
pava
pavannolo
pavarotti
pavato
pave
pavese
pavia
pavo
pavone
pays
paz
pazza
pazzaglia
pazzarella
pazzaria
pazze
pazzi
pazzia
pazzianno
pazzielle
pazzo
pb
pc
pcche
pd
pdf
pdl
pe
pea
peace
peacelink
pearce
pearl
peasants
pebbi
pebblecate
pebblecazione
pebbleche
peca
peccate
peccati
peccato
peccatore
peccere
peccerella
peccerelle
peccerigl
peccerigle
peccerille
peccerillo
pecche
pecchesto
peccio
pece
pecenische
pecetto
peche
pecheruare
pechino
pecora
peculiare
pecura
pecurale
pecurare
pecurella
pedagge
pedde
peddecchiu
pede
pedecchiu
pedecone
pedota
pedotato
pedoto
pedro
pee
pegaso
peggio
pegle
peglia
pegliaje
peglianno
pegliate
pegnata
pegnatare
peja
pejaje
pejanno
pelagie
pelagio
pelama
pelata
pelate
pele
peleja
pelezzi
peli
pelicheltura
peligna
pell
pella
pellas
pelle
pellecchiu
pellegai
pellegrinaggio
pellegrino
pellerine
pellerino
pelletier
pelli
pellice
pellicula
pellicule
pellitre
peloponneso
pelosa
pelose
peluse
peluso
pemmaro
pemmu
pen
pena
pendecuorv
pendefice
pendeficie
pendice
pendino
pene
peni
penione
penisola
penisula
penna
penne
pennenza
pennine
pennisula
pennsylvania
pensa
pensavo
pense
pensieri
pensiero
pensione
penso
penta
pentagono
pentecustale
penultima
penurdemo
penza
penzaje
penzanno
penzano
penzare
penzata
penzate
penzato
penzava
penzie
penziere
penziero
penzione
penzo
peo
people
peparuole
pepe
pepelare
pepelazione
pepelaziune
peperna
peppe
pepper
peppers
peppino
pequeno
per
pera
percacchia
percenduale
percentuale
perche
perciento
percio
percorso
percuoco
percurso
percussione
perde
perdenno
perdere
perdesine
perdette
perdetteno
perdettero
perdi
perdie
perdifumo
perdix
perdo
perdono
perduna
perdute
perduto
pere
peregrinus
perelli
pereta
perete
pereto
perfettamente
perfetto
perfezzione
perfezziunamento
perfezziunamiento
performance
pergola
pergolesi
peri
pericolosa
pericolose
pericoloso
pericule
periculo
periedo
periferi
periferia
periferiche
periferie
perimetro
perio
period
periode
periodiche
periodo
periude
periudo
perle
permacultura
permaculture
permanent
permanente
perme
permesso
permette
permettere
permettete
permisso
pernice
perno
pernucc
pernucce
pero
perosa
perpendiculare
perrelli
pers
persa
perse
persia
persico
perso
persona
personagge
personaggi
personaggio
personal
personale
persone
persuna
persunagge
persunaggio
persunale
perta
pertanto
pertata
pertate
perte
pertinentiae
pertu
pertualle
pertuse
pertuso
peru
perucchie
perugia
peruonto
pervaja
perze
perzeca
perzo
perzona
perzonagge
perzonaggio
perzonaleta
perzone
perzuna
perzunagge
perzunaggie
perzunaggio
perzunaggo
perzunale
perzunalita
perzune
perzuni
pes
pesa
pesante
pesaola
pesaro
pesca
pescara
pescare
pescasseroli
pescatore
pescature
pesce
pescenisch
pescenische
pescina
pesco
pescosolido
pesezione
pesielle
pesiello
peso
pesse
pessebbeleta
pessi
pessinetto
pessoa
pessott
pessotte
pesta
peste
peta
petassie
pete
peter
peterburg
peti
petie
petit
petito
petra
petraio
petrarca
petraro
petre
petreius
petrella
petri
petrocelli
petrol
petrolio
petronia
petrose
petroselinum
petrosino
petru
petrucci
petrus
petrusino
petto
pettola
pettore
pettramente
pettura
petture
peutingeriana
pew
pez
pezza
pezzano
pezze
pezzente
pezzigle
pezzo
pezzule
pezzulle
pezzulo
pezzute
pfs
pg
ph
phantom
phaseolus
phasianidae
phasianus
phil
philharmonie
philip
philippe
philomachus
philosophy
phineas
phobos
phoenicurus
phoenix
phong
phonotris
phonotype
photographer
photos
php
phu
phylum
physalis
pi
pia
piac
piace
piacentino
piacenza
piacere
piaceva
piamontini
pian
piana
piane
pianefforte
pianello
pianese
pianeta
pianezza
piange
piangere
piangi
pianista
piano
pianobar
pianoforte
pianoro
pianta
piantato
piante
pianura
pianurese
piatt
piatte
piatto
piave
piazza
piazzata
piazzese
piazzetta
piazzi
pibe
pica
picca
piccante
piccardia
piccere
piccerella
piccerelle
piccerello
piccerilla
piccerille
piccerilli
piccerillo
picch
picche
picchie
piccio
piccirella
piccirilla
piccirille
piccirilli
piccirillo
picco
piccola
piccole
piccolo
picena
piceno
picentine
picentino
picilia
pico
pictures
picus
pie
pieces
pied
piede
piedi
piedigrotta
piedimonte
piedimulera
piedone
pieds
piemme
piemonte
piemontese
piemunte
piemuntese
piemuntise
piena
piennolo
pieno
pienza
pienze
pier
piere
piererotta
pierluigi
piero
pierre
pierro
piert
pieta
pietanza
pieter
pietra
pietramelara
pietrarsa
pietrelcina
pietro
pietroburgo
pietto
pieve
piezz
piezze
piezzo
pigl
piglia
pigliaie
pigliaje
pigliajeno
pigliammo
piglianno
pigliannose
pigliano
pigliasse
pigliata
pigliate
pigliato
pigliava
pigliavano
piglie
piglio
pigme
pigna
pignata
pignataro
pignatelli
pignatti
pigno
pignola
pignole
pignolesi
pignuole
pigs
pijaje
pil
pila
pilaris
pilastre
pile
pilla
pilo
pilota
pimentel
pimonte
pinasca
pine
pinea
pinerolo
pineta
pingitore
pinisula
pino
pinocchio
pinochet
pinseri
pinter
pinto
pinyin
pio
piobesi
piombi
piombino
pioniere
piove
piovera
pipino
pippa
pippo
pir
pira
piramida
piramide
pirandello
pirata
pirate
pirateria
pircio
pire
pirenei
pireto
piro
pironti
pirro
pirsunaggi
pisa
pisani
pisano
pisarovic
pisca
piscatore
piscature
pisce
pisci
piscia
piscina
piscinola
pisciotta
piscopo
pise
pisemo
piso
pissalat
pisse
pisso
pista
pistilli
pisto
pistoia
pistoiese
pistole
pistune
pit
pitagora
pitloo
pitre
pitta
pittaje
pittata
pittate
pittato
pitto
pittore
pittura
pitture
piu
piuvana
pivezo
pixell
pizz
pizza
pizze
pizzeche
pizzelle
pizzeria
pizzi
pizzica
pizzicato
pizzighettone
pizzo
pizzofalcone
pizzofalcune
pizzolano
pizzoli
pizzone
pizzuti
pjezzo
pl
pla
placca
placche
place
placido
plancus
plane
planet
planetary
planets
plangh
planitia
plano
plants
planum
plasma
plastica
plastiche
plata
plataci
platalea
platani
platinum
platt
platyphyllos
play
playoff
plays
ple
please
plebiscito
plegadis
pleiades
pleniputenziario
plinie
plinio
pllate
plotarea
plotdata
plurale
pluricellulare
pluvialis
plymouth
pms
pneumatice
pneumatico
png
po
poaceae
poc
poca
pocca
poche
pochi
poco
pocu
poe
poema
poemetto
poems
poesi
poesia
poesie
poeta
poete
poeti
pogba
poggiardo
poggio
poggiomarino
poggioreale
pognana
poi
poiche
poie
poings
poir
poje
poker
pol
pola
polacca
polacco
polandball
pole
polesine
poli
policastro
police
policoro
policy
polignano
polimeno
polis
polisportiva
polite
politeama
politeca
politeco
politi
politica
politice
politiche
politici
politico
polla
pollena
pollese
polo
polonia
polska
polvere
polydor
pombia
pomerania
pomeriggio
pomigliano
pompei
pompeo
pon
pond
ponda
ponde
pone
ponendove
ponente
ponn
ponne
ponno
ponso
pont
ponta
ponte
pontecagnano
pontecorvo
pontelandolfo
ponteromito
ponti
ponticelli
ponticello
pontificato
pontificia
pontificio
ponza
ponzano
pool
pop
popcorn
popolare
popolari
popolarmente
popolazio
popolazione
popolazzione
popole
popoli
popolo
popolosa
poppa
poppea
popular
populare
popularmente
populata
population
populazione
populazzi
populazzione
populazziune
popule
populi
populo
populosa
populoso
populus
por
pordenone
porfirio
porrum
port
porta
portaje
portal
portale
portali
portami
portano
portanova
portata
portato
porte
portici
portico
portiere
portkanuni
portland
porto
portocannone
portofino
portogallo
portoghese
portone
portrait
portugal
portughese
portuguese
portulaca
portulacaceae
porzana
porzi
porzio
pos
posa
pose
poseidon
posema
posillipo
positano
positivo
posizione
posizzione
possa
posse
possebbele
possebbeleta
possi
possiamo
possibbele
possibbile
possibile
possibilita
possiede
posso
possono
post
posta
poste
posti
postiglione
postino
posto
pot
pota
potabbele
pote
potens
potenti
potenza
potere
poteva
potito
poue
pour
pove
povera
povere
poveri
povero
povvere
power
powiat
poznan
pozza
pozzilli
pozzo
pozzono
pozzuoli
pozzuolo
pp
ppa
ppaggene
ppan
ppane
pparche
pparola
pparole
ppart
pparte
pparti
pparticulare
ppartite
ppaste
ppe
ppecche
ppeccio
ppeche
ppecure
ppellicule
ppene
ppenne
ppere
pperzone
ppiante
ppina
ppo
ppoche
ppoco
ppoi
ppoje
pponte
ppopulazione
pprenzi
pprete
pprimma
pprimme
pprimmo
pprincipio
ppro
pprove
ppruvince
ppu
ppummarrole
ppunk
ppuntate
ppunte
ppure
pputeche
pr
pra
praedium
prag
praga
pragelato
pragmati
pragmatism
praia
praiano
prairie
prane
pranze
prat
prata
prate
prateca
pratecata
prateche
pratica
praticamente
praticata
pratiche
prato
pratteca
pravo
prc
pre
prebba
prebble
precedente
precedentemente
precediente
precepale
precepetaziune
preceriente
preci
precie
precisa
precisamente
precise
precisione
preciso
precriente
precursore
predespo
predettive
predezione
predezzione
predinastico
predo
predott
predotte
predu
preduce
prefazione
prefazzione
prefemate
preferisc
preferisce
preferita
preferito
prefessienis
prefessione
prefettura
prefisso
prefunn
prega
pregetta
pregge
preggessione
preggettazione
preggettuale
preggie
preggio
preghiera
preistoreco
preistoria
preliminare
prem
prematura
premave
premi
premia
premiata
premie
premier
premio
premium
premma
premme
premmiato
premmie
premmio
premmo
prena
prence
prencepale
prencepalmente
prencepalmiente
prencepato
prencepe
prencepessa
prencepiante
prencepio
prencipale
prencipato
prencipie
prencipio
prene
prengepale
prengepalme
prengepate
prengipie
prenne
preno
preoccupate
preoccupato
prepara
preparare
preparazione
preparazzione
prepare
prepezzanese
prepieta
prepietarie
prepo
preposizione
preposizioni
prepotenti
preprieta
presa
prese
presebbi
presebbie
presebbio
presenda
presenta
presentaje
presentata
presentate
presentato
presentatore
presentazzione
presente
presento
presenza
presenze
presepe
presepio
preserente
presezzo
presicce
preside
presidente
presidenza
presidenziale
presidiente
presieduta
presieduto
presiente
presienza
presila
presirente
presiriente
presley
preso
press
pressa
presse
pressi
pressione
pressiune
presso
prestiti
presto
presunto
presutt
presutte
presutto
preta
pretagunis
prete
preto
pretore
pretoria
pretose
preuingia
preva
prevale
prevalentemente
preve
prevede
prevedeva
prevele
prevengiale
preveni
preventiva
prevete
previngia
previsione
previsto
previti
prevute
prevve
prevvis
preziosa
preziuse
prezzo
pri
pria
priato
priatorio
pricisamente
priciso
prie
priesto
prievete
priggiune
priggiunia
priggiuniere
prignano
prim
prima
primate
primato
primave
primavera
prime
primera
primi
primiero
primis
primissimo
primm
primma
primmaria
primmato
primmavera
primme
primmi
primmo
primo
primula
primulaceae
prince
princepale
princepato
princepe
princepessa
princeps
princi
principa
principale
principalmente
principato
principe
principessa
principesse
principie
principio
principles
priora
priparano
priparata
priparazione
priparazzione
prisco
prisente
prisenza
prissione
privata
private
privati
privato
prive
privilegge
privileggio
privilegio
privisto
privo
prnunc
pro
probabilmente
probbabilmente
probie
probj
problema
probleme
problemi
proboviro
procariute
processo
proceta
procida
proclama
procopio
procuratore
procuravano
prodduttore
proddutture
prodi
prodotte
prodotti
prodotto
produce
production
produtte
produtto
produttore
produttori
produttrice
produzione
produzziona
produzzione
prof
profane
profazio
professionelles
professor
professore
profeta
profughe
progetti
progettista
progetto
program
programma
programme
programmi
progressiva
progressive
progresso
project
proletaria
proloco
promessa
promettente
promo
promontorio
promosse
promozione
promozzione
promozziunale
promulgata
promuovere
pron
pronti
pronto
pronuncia
proof
proofread
propeta
propete
propeto
propia
propie
propio
propo
proposta
proposte
propreto
propri
propria
proprie
proprieta
proprietario
proprij
proprio
proprjio
prora
prorpia
proruzzione
prosa
prosperita
prospero
prospettiva
prospettive
prossemo
prossimo
prota
protagonista
protagonisti
protagunista
protaguniste
protegge
proteine
protesta
protettore
protettrice
protezione
protezzione
protoculture
prototipo
prova
prove
proveniessero
provenzale
provi
province
provincia
provinciale
provincie
provinge
provo
provoca
provola
provve
provvisoria
provvisorio
pru
pruate
prubabilmente
prubbecaje
prubblema
prubbleme
prubblemi
prubblieme
prubbrema
prubbreme
prublema
prubleme
prubreme
prucedenno
prucesse
prucession
prucessione
prucesso
prucessore
pruciesse
pruciesso
pruciesss
prucissione
pruclama
pruclamajono
pruclamata
prucura
prucuratore
prudotte
prudotto
pruducere
prudutte
pruduttore
pruduttrice
pruduziona
pruduzione
pruduzzione
prue
prufessione
prufessore
pruffoneta
prufilo
prufonna
prufonne
prufonneta
prufunnita
prufunno
prugett
prugetta
prugette
prugetto
prugge
pruggetta
pruggettata
pruggettato
pruggette
pruggetto
pruggiette
pruggietto
prugiettato
prugiette
prugietto
prugramma
prugramme
prugresse
prugressivamente
prugresso
pruiezzione
pruincia
prumesse
prumuzzione
prunella
pruno
prunume
prununcia
prunus
pruopia
pruopria
pruova
pruove
prupieta
prupone
pruposeto
pruposta
pruposto
prupria
pruprie
pruprieta
prupunette
prusperita
pruspettiva
prussia
prutagonista
prutagunista
prutaguniste
pruteggere
prutesta
prutestante
pruteste
prutetta
prutette
prutetto
prutettore
prutezione
prutezzione
prutistante
prutiste
prutone
pruva
pruvaje
pruve
pruvene
pruveniente
pruvenivano
pruvenuto
pruvenza
pruvenzale
pruverbie
pruviene
pruvinc
pruvince
pruvincia
pruvinciale
pruvincie
pruvinge
pruvucaje
pruvvisorio
pseudoacacia
pseudonimo
psg
psi
psiche
psichiatra
psico
psicoana
psicologgi
psicologgia
psicologo
psychology
pt
ptilopachus
pu
puae
puare
puasse
puatre
puatrone
pubbleca
pubblecata
pubblecato
pubblece
pubbleceta
pubbleche
pubbleco
pubblica
pubblicaje
pubblicata
pubblicate
pubblicato
pubblicazzione
pubbliche
pubblici
pubblicita
pubblico
pubbreca
pubbrecaje
pubbrecata
pubbrecate
pubbrecato
pubbrecazione
pubbrecazzione
pubbreche
pubbreco
pubescens
public
publio
publique
publishing
puca
pucchiacchella
puce
puceriale
puchi
puciuriale
pucurillo
pue
puema
puerto
puesia
puesie
pueta
puete
puggele
puggilato
pugilato
pugile
pugl
puglia
puglianello
pugliano
puglie
pugliese
pugne
pugno
puhe
puisi
puisia
puisie
pulacca
pulacche
pulacco
pulare
pulcinella
pule
pulecenella
pulegium
puli
pulicenella
pulita
pulite
puliteca
pulitece
puliteche
puliteco
pulitica
puliticamente
pulitiche
pulitico
pulito
pulizzi
pulizzia
pulle
pullecenella
pullo
pulo
pulonia
pulonnia
pulpito
pulsano
pumbe
pumigliano
pummarola
pummarole
pummarulelle
pumpei
pumpeje
pumpiere
pumpilejo
pund
punde
pune
punente
punette
punk
punt
punta
puntata
puntate
punte
puntefice
punti
punticielle
puntificato
puntificio
punto
puo
puoch
puoche
puoco
puoi
puonn
puonne
puorc
puorch
puorche
puorchespino
puorco
puort
puorta
puorte
puortece
puorto
puorzi
puoste
puosto
puoti
puozze
puparuole
pupelazia
pupella
pupo
pupulane
pupulare
pupulari
pupulata
pupulato
pupulazione
pupulazzione
pupulosa
pupulose
pupuloso
pur
pura
purcellamma
purcellane
pure
purma
puro
purpe
purpessa
purpette
purpo
purpura
purpurea
purta
purtaje
purtajeno
purtale
purtanno
purtannose
purtante
purtarono
purtat
purtata
purtate
purtato
purtattero
purtava
purte
purticese
purtier
purtiere
purto
purtone
purtroppo
purtualle
purtuallo
purtuese
purtuesi
puru
purzi
purzine
purzione
pusa
pusata
puse
pusilleco
pusillepo
pusitano
pusizione
pusizzione
pusizziunata
puska
pusse
pussebbele
pussedimiente
pussesso
pussi
pussibbele
pussibbeleta
pussibbelmente
pussibbere
pussibbilita
pussibele
putarri
pute
puteca
putecaro
puteche
putente
putenz
putenza
putenze
putenzialita
puteolana
puteoli
putere
putesse
putessero
putette
putettero
puteva
putevano
puteveno
puti
putiente
putimme
putimmo
putin
putisse
putite
puttanesca
pututo
puverelle
puverielle
puveriello
puzza
puzze
puzzo
puzzule
puzzuole
puzzuolo
pv
px
pxstrada
pxsupercoppa
pyeongchang
pyongyang
pyrrhocorax
pyrrhula
pz
pǝ
pə
q
qa
qaeda
qaida
qana
qatar
qattru
qu
qua
quac
quacch
quacche
quacchecosa
quaccheduno
quadrata
quadrate
quadrato
quadre
quadrelle
quadrivio
quadro
quaglia
quagliarella
quagliolo
quagliuolo
qual
qualche
qualcosa
qualcuno
quale
qualeta
quali
qualiano
qualifica
qualificaje
qualificata
qualificate
qualificato
qualificazione
qualificazzione
qualita
qualonca
qualungue
quan
quand
quanda
quande
quandeta
quando
quandu
quang
quann
quanne
quanno
quannu
quant
quanta
quante
quanteta
quanti
quantita
quanto
quarandina
quarant
quaranta
quarantaci
quarantado
quarantano
quarantaqua
quarantase
quarantatre
quaranto
quarantotto
quarantu
quarche
quarna
quart
quarta
quarte
quarti
quartiari
quartiere
quartieri
quartino
quarto
quas
quasc
quasce
quase
quasi
quateno
quaterna
quatre
quatro
quatt
quatta
quatte
quatto
quattre
quattro
quattuciento
quattuo
quattuordec
quattuordece
quattuordecesemo
que
quebec
quebesezione
quede
queen
quei
quel
quela
quele
quell
quella
quelle
quelli
quello
quelore
quelure
quembeseziune
quercia
quercus
querula
ques
quess
quest
questa
queste
questi
questione
questo
queto
qui
quigl
quigle
quille
quincinetto
quind
quinde
quindi
quinne
quinnece
quinnecesemo
quinni
quinque
quinta
quintale
quinto
quirico
quirino
quirito
quis
quisisana
quiss
quisse
quistione
quo
quolli
quondam
quote
quotidiane
quotidiano
r
ra
raa
rabba
rabbia
rabe
raboe
racale
racchiude
racco
raccoglie
raccolta
raccolte
racconta
racconti
racconto
raccordo
raccoveta
raccovete
raccugle
raccunta
raccunte
raccunto
raccuote
raccuoveto
radar
radduce
radeca
radecale
radiazion
radiazzione
radicale
radicali
radice
radio
radiofonica
radiofonico
radogna
rae
rafael
rafanie
rafele
raffae
raffaele
raffaeli
raffaello
rafferzate
raffigurante
raffigurato
raffiorate
raffo
raffurza
ragas
ragazza
ragazze
ragazzi
ragazzina
ragazzo
ragge
raggia
raggio
raggiona
raggione
raggiuna
raggiunamento
raggiunamiente
raggiune
raggiunge
raggiungenno
raggiungere
raggiungono
raggiunta
raggiunto
ragione
ragno
ragtime
ragu
ragusa
rahman
rai
raie
railway
raimond
raimondo
rain
rainolfo
raio
raising
ral
rale
rallus
ralph
ram
ramadan
ramadi
ramallah
ramazzotti
ramba
rambecand
rame
ramefecate
ramegna
ramitt
ramitte
ramm
ramma
rammaro
ramme
rammera
rammere
rammo
ramo
ramsey
rancio
randinia
rane
rango
ranieri
ranking
ranno
rannole
rano
rap
rapa
rapace
rape
rapi
rapina
rapita
rapiti
rapito
rapitori
rapper
rappo
rapporte
rapporti
rapporto
rapprese
rappresendand
rappresenta
rappresentai
rappresentano
rappresentante
rappresentanza
rappresentasse
rappresentata
rappresentate
rappresentativa
rappresentato
rappresentazione
rappresentazzione
rapprisenta
rappuorte
rappuorto
rara
raramente
rard
rare
rareca
rarreva
rarrevie
rarriva
rasantoro
rascaciele
rascia
raso
rass
rassa
rasse
rassegna
rastiglione
rat
rata
rate
rathaus
ratio
ration
rato
raton
ratzinger
rau
rausa
rava
ravenna
ravio
ray
raymond
razi
razie
raziel
raziella
razza
razze
razzismo
razziste
razzo
rb
rbe
rbie
rc
rca
rce
rcete
rceto
rchb
rchie
rcua
rcule
rd
rda
rdane
rde
rdece
rdeme
rdemo
rdene
rdeta
rdeva
rdi
rdo
re
rea
reader
reagan
real
reale
realino
realismo
realista
realiste
reality
realizza
realizzata
realizzate
realizzato
realizzazione
realizzazzione
realmente
realta
reate
reaunite
rebbellione
rebecca
rebelle
rebellione
rebirth
rebuild
reca
recaccia
recanati
recano
recanoscemiente
recapa
recape
recava
recche
recchezza
recchie
recco
rece
recemo
recenale
recenalmente
recenno
recente
recentemente
recerca
recercatore
recerche
receta
recetante
recetta
recette
receve
recevette
reche
rechemenze
rechenescemie
recheno
rechenosc
rechepe
rechepie
reches
rechiama
rechichi
rechie
rechine
reciente
recife
recinto
recita
recital
recitanno
recitato
recitazzione
reclam
reclama
reclamation
reco
reconnaissance
recopilatorio
record
records
recuo
recuord
recuorde
recupero
recurdate
recurvirostra
red
reda
redduosso
redece
redemptoris
redentore
redirect
redo
redott
redu
reduce
ree
reel
reeve
refa
referemiente
referendum
referisce
refinisce
refle
reforma
reformazzione
reforme
refresca
refrescand
refresso
refrette
refrettene
refutata
regalarti
regalata
regalita
regg
reggae
regge
reggenale
reggene
reggente
reggenza
reggia
reggie
reggime
reggimiento
reggina
reggino
reggio
reggiona
reggionale
reggionali
reggione
reggioni
reggista
reggiste
reggistraje
reggistrato
reggiunale
reggiune
regi
regia
regime
regina
reginald
reginella
reginna
regio
regionale
regione
regioni
regista
registe
register
registra
registrata
registrato
registrazione
registrazzione
regnaje
regnante
regnata
regne
regni
regno
regnum
regnuta
regola
regolamento
regolatamente
regole
regolite
regula
regular
regulare
regule
regulus
rei
reichenhall
reichstag
reina
reise
reisenberg
reitano
rej
reja
reje
relati
relativa
relative
relativi
relazio
relazione
relaziune
relazzione
relazziune
rele
released
releggione
releggiosa
releggiose
releggiuse
relevajeno
relevanza
religgi
religgiona
religgione
religgiosa
religgiose
religgioso
religgiune
religion
religiosa
religiose
religioso
rema
remake
remane
remanette
remanettero
remanz
remas
rembe
reme
remeni
remix
remo
remostranno
rempatriate
remu
remutu
ren
rena
renate
renato
rende
rendenno
rendina
rendine
rene
renewal
rengheppatura
renne
rennenno
renneva
rennie
renno
rennuto
reno
rent
renuocchie
renza
renzi
renzo
reo
reola
repassate
repe
repegle
repeglia
repens
repepele
reperta
reperte
repertorio
repesa
repierte
replay
repo
report
reportage
reporter
repredezzione
repreduce
repressione
repu
repubbleca
repubblecane
repubblica
repubblicano
repubbreca
repubbrecano
repubbreche
republic
reque
requie
requiem
requisiti
rera
rere
res
resa
resagl
resale
resarie
rescalla
rescallamie
rescecatore
resciate
resco
rescrevette
rese
research
resedenza
resedenze
resella
resero
reses
reshe
resi
reside
residente
residenza
residenze
residenzziale
residiente
resina
resis
resistenza
resistenze
resistenzia
reso
resolozzione
resoluzzione
resorz
resorza
resources
respe
respetta
respietto
responsabbele
responsabbilita
responsabilita
resposte
respuesta
respunsabbile
resta
restajeno
restaurata
restaurato
restaurazzione
restaure
restauro
reste
resti
resto
resulta
resultate
resuscita
reta
rete
retecone
reti
retira
retirata
reto
retratte
retratto
retrevate
retro
retrocesse
retrucesse
retrucessione
retta
rettangolare
rettangulare
rette
rettero
rettile
retunne
retuorno
return
returno
rev
reva
reve
reveluzione
reverendo
revertera
reveta
revieccio
review
reviews
revis
revisione
revista
revival
revivalistics
revive
revo
revolution
revoluzione
revoluzzione
revolver
revota
revotazione
revotazzione
revote
revue
revuluzzione
revuote
rex
rey
reykjavi
rezza
rezze
rfc
rfi
rg
rgame
rgane
rgb
rgen
rgene
rgia
rgiamba
rhe
rhead
rho
ri
ria
rial
rialate
riale
rialetto
rialismo
rialite
rializza
rializzate
rializzato
rialta
rialto
riapertura
riavule
riazzione
riazziune
ribalta
ribaud
ribbentrop
ribbielle
ribelle
ribelli
ribellione
ribera
ribordone
ric
rica
ricanoscere
ricanuscibile
ricanuscimento
ricanuscimiente
ricanusciuta
ricanusciuto
ricava
ricavata
ricavate
ricavato
ricc
ricca
riccardi
riccardo
ricce
ricch
ricche
ricchezza
ricci
riccia
ricciardi
riccio
ricco
rice
ricenno
riceno
ricente
ricerca
ricerche
ricere
ricett
ricetta
ricette
riceva
riceve
ricevere
ricevette
ricevo
ricevuto
richard
riches
richie
richiede
richieste
richter
ricky
rico
ricomincio
ricompensa
ricorda
ricordano
ricordare
ricordati
ricordi
ricordo
ricorre
ricostruita
ricotta
ricoverato
ricssettenne
ricunuscimiente
ricurda
ricurrenze
ride
ridens
ridere
rido
ridotte
ridotto
riduce
riducendolo
ridutto
rie
riec
riece
riegne
riego
riemann
riepilego
ries
riesce
riesceno
rieste
riesti
riesto
rieti
riettore
rifa
rifatta
rifatto
riferi
riferimenti
riferimento
riferimiente
riferimiento
riferisce
riferiscene
riferita
riferito
rifiuta
rifiutaje
rifiute
rifiuti
rifiuto
riflessi
riflessione
riflettenno
rifo
riforma
riformatore
riforme
riformiste
rifornimento
rifurma
riga
riggene
riggenza
riggija
riggina
rigginale
rigginaria
rigginario
riggine
riggiola
riggionale
riggione
riggista
riggistrate
riggitorie
riggiu
riggiunale
righelli
righi
right
rigl
rignano
rignante
rigoletto
rigore
rigori
riguarda
riguardano
riguardanti
riguarde
riguardene
riguardo
rihanna
rilancio
rilasciata
rilasciato
rilativi
rilativo
rilievo
rilorgio
rima
rimane
rimanette
rimangono
rimarra
rimasta
rimaste
rimasto
rime
rimella
rimet
rimini
rimmane
rimpetto
rimpiazzato
rin
rina
rinaldo
rinascere
rinascimento
rinascimiento
rinascita
rind
rine
ring
ringrazzia
rinnova
rinomato
rint
rinta
rinte
rinto
rinuncia
rinvenute
rio
riogn
riogne
riomaggiore
rionale
rione
riordene
ripa
ripalta
riparia
ripo
riporta
riposo
ripresa
riprese
riproduzzione
riprovare
ripurtate
riquesto
rire
ris
risa
risale
risalenno
risalente
risali
risalire
risanamento
risata
risc
riscatto
risce
riscepline
rischia
rischiaje
rischio
rise
riserva
riservata
rises
risi
riso
risoluzzione
risorgimento
risorgimiento
risorsa
risorse
risotto
rispetta
rispettato
rispettivamiente
rispettive
rispetto
risposta
risposte
rispunnette
risso
rist
ristaurazzione
ristorante
ristrutturate
ristrutturato
ristrutturazzione
risturante
risulta
risultaje
risultanno
risultate
risultati
risultato
risulvette
risurdato
risurgimentale
risurgimento
risurtate
rit
rita
ritardo
riteriai
ritira
ritirata
ritirato
ritiro
ritm
ritmo
rito
ritornati
ritornelli
ritornello
ritorno
ritorto
ritratte
ritratto
ritrovamiente
ritrovato
ritruvamiento
ritruvate
ritt
ritta
ritte
ritto
rituali
rituorno
riturnaje
riu
riun
riund
riune
riuni
riunificazzione
riunione
riuscette
riusci
riuscito
riva
rivale
rivalta
rivara
rivarolo
rive
rivela
rivelazione
rivelli
river
rivera
riviera
rivisa
riviso
rivista
riviste
rivoli
rivolta
rivoluzionaria
rivoluzione
rivoluzzione
rivuluzzionario
rivuluzzione
rizza
rizzoli
rj
rk
rl
rlandese
rlane
rle
rlene
rlo
rm
rma
rmane
rmanes
rme
rmece
rmene
rn
rna
rne
rnexhi
rnia
rno
rnucc
rny
ro
road
roady
roasio
rob
roba
robba
robbins
robecco
robero
robert
roberta
robertas
robertino
roberto
roberts
robinia
robot
robothon
roca
rocca
roccabascerana
roccaforte
roccaforzata
roccafranca
roccamandolfe
roccamena
roccarainola
roccasecca
rocce
roccella
rocchese
rocchetta
rocchette
roccia
rocco
roccoco
rock
rocket
rockmore
rococo
rodach
rodano
rodengo
rodi
rodolfo
rodri
rodriguez
roero
rofrano
roger
rogers
rogliano
rohlfs
roie
rojas
roje
roll
rolling
rolo
rom
roma
romagna
romagnola
romagnolo
roman
romana
romance
romanda
romando
romane
romanesco
romani
romania
romano
romanze
romanzo
rombe
rome
romeno
romeo
romma
rommana
rommane
rommani
rommano
ron
ronald
ronaldinho
ronaldo
ronco
rondinella
rondinelle
rondinone
rono
roo
roosevelt
ropp
roppio
roppo
roppolo
rory
rosa
rosaceae
rosales
rosanero
rosario
rosariu
rosate
roscia
rosciano
roscigno
rose
rosebery
rosenberg
roseto
rosetta
rosi
rosmino
ross
rossa
rossano
rosse
rossella
rossellini
rossi
rossini
rosso
rossonoemi
rossum
rot
rota
rote
rotes
roth
rotonda
rotondella
rotondi
rotondo
rotta
rotte
rotten
rouen
round
rovagno
rovella
rover
rovere
roveto
rovigliano
rovigo
rowland
roy
royal
rozzano
rpa
rpe
rqua
rr
rra
rrafagno
rragazze
rrane
rranja
rranonchie
rrau
rre
rreca
rrecchie
rrecerca
rrecetante
rrecettata
rreforma
rreggenale
rreggione
rregole
rrej
rrendra
rrene
rrenne
rresce
rresci
rrescie
rrevista
rrevutata
rrevutate
rri
rrie
rriesto
rrin
rrive
rrobba
rrocce
rrose
rrote
rrovagno
rs
rse
rt
rta
rte
rteca
rtela
rtema
rtemo
rtene
rtera
rtere
rth
rtice
rtiri
rto
ru
rua
ruame
ruanda
ruane
rubato
rubba
rube
rubecula
ruben
ruber
ruberto
rubiana
rubra
rudolf
rue
ruffano
ruffo
rufino
rufoli
rufurendo
rufus
rugby
rugbysta
rugerio
ruggero
ruggiero
rui
ruje
rula
rulo
rum
rumagna
rumagno
rumagnolo
rumana
rumancio
rumane
rumanenno
rumanette
rumani
rumania
rumano
rumantsch
rumanza
rumanze
rumanzo
rumba
rumboidale
rumena
rumene
rumeni
rumeno
rumma
rummana
rummane
rummanette
rummanettero
rummano
rummasto
rummita
rummore
rumpenno
run
ruo
ruocco
ruole
ruollo
ruolo
ruommolo
ruoss
ruosse
ruosso
ruota
ruppo
rurale
rurece
rus
rusario
rusc
rusce
rusconi
ruscus
rusella
rush
russa
russe
russell
russia
russian
russo
rusteche
rustiche
rustico
ruta
rutaceae
rutacee
rutaia
ruteca
rutino
rutto
ruud
ruvigliano
ruvine
ruvo
rv
rva
rve
rvene
ryan
ryo
ryu
rz
rza
rzat
rze
rzeca
rzeche
rzeczpospolita
rzeto
rzo
rǝ
rə
rɛɲ
s
sa
saar
saba
sabatini
sabatino
sabato
sabbatini
sabbato
sabbe
sabbia
sabbine
sabbino
sabina
sabine
sabino
sabra
sacc
sacca
sacch
sacche
saccheggiate
sacchiarn
sacchiate
saccio
sacco
saccu
sacerdote
sacicce
sacra
sacramento
sacre
sacro
sadamoto
saddam
saerne
safa
safari
saga
sagan
sagge
saggezza
saggi
saggio
saggista
sagisu
sagl
sagle
sagli
saglie
saglienno
sagliere
sagliette
saglita
sagliuta
sagliuto
sagne
sagra
sahaquiel
sahara
sai
saia
saie
saigon
sailor
saint
saj
saje
sajere
sajette
sal
sala
salame
salamina
salat
salata
salate
salato
sale
salemme
salentina
salentino
salento
salerano
salernetano
salernitana
salernitano
salerno
salernum
sali
salicaceae
salice
salierno
saline
salinita
saljerno
salle
salmo
salo
salone
salonicco
salotto
salsa
salta
saltare
saltatore
salto
salumme
saluta
salutammela
salute
saluto
salva
salvador
salvati
salvator
salvatore
salvatorem
salve
salvetella
salvezza
salvi
salvini
salvo
salz
salza
salzano
sam
samba
samguk
sammarinese
sammena
sammichele
sammuca
sammuche
samo
samoa
samone
sampdoria
samperi
samuel
samurai
san
sana
sanarica
sanciprianese
sancti
sanctis
sand
sanda
sande
sando
sandro
sandron
sanduarie
sane
saneta
sanfediste
sanfedisti
sanfelice
sanfeliciana
sang
sangennarese
sanghe
sangiorgese
sango
sangro
sangue
sangunose
sanita
sankt
sanmartino
sannazaro
sannazzaro
sanni
sannicola
sannicolese
sannie
sannino
sannio
sannita
sannite
sanniteca
sanniti
sannito
sanno
sano
sanremo
sanscrito
sanseverinese
sanseverino
sansevero
sansone
sant
santa
santana
santarella
sante
santeramo
santi
santiago
santificammo
santillan
santissi
santissima
santita
santo
santoro
santos
santu
santuario
santuariu
sanu
sanza
sao
saona
sape
sapeno
sapere
sapesse
sapette
sapeva
sapi
sapiens
sapienza
sapimmo
sapone
sapore
sappimo
sapri
saprite
sapunaro
sapure
sapurite
sapurito
saputa
saputo
sar
sara
sarace
saracene
saraceni
sarache
saracine
saragozza
sarah
sarajevo
sarausa
sarave
sarcofaghe
sarda
sarde
sardegna
sardella
sardo
sardu
sarebbe
sarebbero
sarmizegetusa
sarnelli
sarnese
sarno
saro
sarpaje
sarra
sarracini
sarracino
sarraje
sarranno
sarri
sarria
sarte
sarteano
sarva
sarvato
sarvatore
sarvo
sasi
sasicce
sasmi
sassano
sassarese
sassari
sasse
sasso
sassofono
sassone
sassonia
sastri
sat
satana
satanismo
sataniste
sate
satellitare
satellite
satiellete
sativum
satrazione
satre
satriano
saturday
saturn
saturnine
saturninus
saturno
satyagraha
sau
saudita
sauro
sauze
sav
sava
savasctiane
savastano
savecicc
savelli
saveria
saverio
saviano
saviero
savignanese
savini
savino
savoia
savoja
savona
saxicola
say
says
sba
sbagle
sbaglia
sbagliaje
sbaglie
sbaglio
sbarca
sbarcaggio
sbarcaje
sbarcajeno
sbarcate
sbarcato
sbarco
sbaria
sbariate
sbarre
sbatt
sbatte
sbattute
sbe
sberla
sbirro
sbn
sbocco
sbornia
sbucco
sc
sca
scacche
scacchista
scacco
scaduto
scafate
scafatese
scafati
scafuta
scafutate
scagliuozze
scagn
scagna
scagnate
scagne
scagno
scala
scale
scalea
scalemajor
scaleminor
scalfaro
scalla
scalo
scalotta
scaluogno
scambe
scampi
scampia
scanagliata
scancella
scancellaje
scandalo
scandiano
scandinavia
scandone
scangellazione
scanno
scanusciuta
scanusciute
scanza
scanzano
scanzione
scapace
scape
scapece
scapizze
scappa
scappaje
scapricciatiello
scarapie
scarcerazzione
scarda
scarde
scare
scarface
scarfannose
scarfato
scarlatte
scarlatti
scarola
scarole
scarpa
scarpare
scarparo
scarpe
scarpetta
scarrafone
scarreca
scarreche
scarse
scarta
scartamienti
scartamiento
scarte
scarto
scarze
scassa
scassaje
scassato
scatascio
scaurata
scaurate
scauze
scav
scavanno
scavate
scave
scavi
scavo
sce
scec
scegle
sceglie
sceglienno
scegliere
scegliette
scegliuta
scegliute
scelle
scelta
scelte
scelto
scemo
scena
scenarie
scenario
scendi
scene
sceneggiata
sceneggiate
sceneggiatore
sceneggiatura
sceneggiature
sceniata
scenna
scenne
scennere
scennette
scenografie
scentifeche
scenziate
sceri
scerisc
scerisce
scerita
scerite
scerua
sceruppo
scesa
sceta
scetata
scetate
scetato
sceveta
sch
sche
scheda
schede
scheggia
schele
schema
schemmattute
schenfitta
schepe
schepie
scheppe
scherm
schermo
scherpi
scheve
schiacciate
schiaffe
schiaffo
schiaia
schiano
schiantuse
schiaparelli
schiatta
schiattamuorte
schiava
schiave
schiavi
schiavitu
schiavo
schiavona
schiavone
schiecco
schifani
schifezza
schillaci
schina
schiocche
schitte
schitto
schizzechea
schleicher
schleswig
schmitt
scho
school
schopenhauer
schumacher
schwa
schwarz
sci
scia
sciabecche
sciabecco
scialo
scialoja
sciamarro
sciambagnone
sciammeria
sciasciona
sciato
sciatore
sciatrice
sciauro
sciaveca
scie
sciecule
scieculo
science
scienti
scientifeco
scientifica
scientifiche
scientifico
scienza
scienze
scienzia
scienziate
scienziato
scienzie
scigliettero
sciglite
scigliute
scigliuto
scigna
sciita
scilla
scineggiatore
sciniata
sciniatore
scinne
scio
sciolse
scionna
sciopero
scior
sciore
sciorente
sciorentina
sciorenza
scioscia
sciosciaje
sciosciammocca
scipione
sciro
sciruppe
scisciano
sciso
scita
scite
sciuccata
sciue
sciugliette
sciule
sciume
sciumme
sciummo
sciuor
sciuore
sciuote
sciurara
sciure
sciurente
sciurentino
sciurille
sciuscia
sciut
sciuta
sciute
sciuve
scivoto
scn
sco
scogliere
scoglio
scola
scolastica
scole
scolopax
sconfitta
sconosciuta
sconosciuto
scontro
scontrone
scop
scopa
scope
scoperto
scopo
scopoli
scoppe
scoppio
scoppo
scopre
scops
scorcio
scorda
scordo
scoresa
scorie
scorpione
scorporo
scorr
scorrano
scorre
scorsa
scorta
scorza
scorze
scossa
scott
scotti
scotto
scozia
scozzese
scozzia
scrajo
scrastamiento
scre
screen
screttore
screve
screvette
scri
script
scritt
scritta
scritte
scritti
scritto
scrittore
scrittori
scrittrice
scrittura
scritture
scriv
scrivano
scrive
scrivenn
scrivenno
scrivere
scrivette
scrivi
scrivia
scriviu
scrizione
scta
sctanne
scuadra
scuatra
scude
scudette
scudetti
scudetto
scudo
scuffiara
scugnezziello
scugnizze
scugnizzi
scugnizzo
scuitato
scule
sculi
scultore
scultura
sculture
scumbinato
scumme
scummesse
scummiglia
scummigliaje
scummigliato
scumparenno
scumpareno
scumparettero
scumpari
scumparso
scumparute
scunfitta
scunfitte
scunfitto
scuntentanno
scuntraje
scuntre
scuntro
scuo
scuoglie
scuoglio
scuola
scuole
scuorfane
scuorno
scupatore
scuperta
scuperte
scupierta
scupierte
scupierto
scuppetta
scuppiaje
scupre
scuprette
scupretteno
scupri
scur
scura
scurcola
scurda
scurdate
scure
scuro
scurre
scurreri
scurteca
scusa
scusajeno
scusate
scusuta
scusute
scusuto
scuto
scutuliata
scuzze
scuzzese
se
sea
search
season
seattle
sebastian
sebastiano
sebbastiano
sebbene
sebbeto
sebburco
seborga
sec
seca
secale
secca
seccata
secce
seccessione
seccessore
secchia
seccie
sece
seceliane
secessione
seceta
seche
secheri
sechettate
seciale
secilia
secilie
secli
seco
secoli
secolo
second
seconda
seconde
secondigliano
secondo
seconds
seconna
seconne
seconno
secozzune
secret
secretario
secule
seculi
seculo
secunda
secundigliano
secundo
secunn
secunna
secunnaria
secunnarie
secunne
secunno
secure
secuta
secutaje
secuteia
secuteiaje
secuteiata
seda
sede
sederazione
sedere
sedna
see
seele
sega
segellanno
segellato
segge
seggellaje
seggia
seggio
segna
segnaje
segnale
segne
segnefeca
segnefecate
segneri
segni
segnifeca
segnifica
segno
segnora
segnore
segnure
segrate
segre
segretari
segretaria
segretario
segrete
segreti
segreto
segue
seguenno
seguente
seguenti
segui
seguirono
seguito
seguro
sei
seiano
seicento
seiciento
seie
seiki
seine
seinen
seiyu
seje
sekando
selare
seldate
sele
selecta
selezione
seleziune
selezzione
selezziunate
self
selle
seller
seluci
selva
selvaggi
selvaggia
selvaggio
sema
sembe
sembra
seme
semi
semifinal
semifinale
seminario
semiramide
semmana
semmane
semmena
semmente
semmola
semo
semp
sempa
sempe
semplice
semplicemente
semplificazzione
sempre
semprece
semprecemente
semprice
sempricemente
sen
senate
senato
senatore
senature
senatus
sendemie
sendi
sendute
sene
senegal
senese
sengulare
senigallia
senior
senna
senno
seno
sens
sense
sensi
sensibilita
senso
sente
sentemiente
sentemiento
sentenno
sentenza
sentere
sentette
senteva
sentevo
senti
sentieri
sentiero
sentimenti
sentimento
sentimiento
sentire
sentite
sentiva
sento
sentono
senuo
senz
senza
senzazione
senze
senzo
seoul
separa
separate
separato
separazzione
sepe
seperfice
seperficie
seperiore
sepolture
sepp
sepperta
seppure
september
sepulto
sepulture
sequals
seque
sequel
sequela
sequente
sequenze
sequesta
sequestrati
sequette
sequitanno
sera
seracusa
serale
serane
serao
serata
serate
serba
serbe
serbi
serbia
serbo
serdica
sere
serekht
serena
serenata
serenate
serenatella
sereno
sergio
seri
seria
serial
seriamente
serie
serino
serinus
serio
sernia
serpe
serpente
serpient
serra
serrano
serrara
serravalle
serricchie
serva
serve
serveno
server
servette
serveva
servi
service
servillo
servita
servitio
servito
servizie
servizio
servizze
servizzie
servizzio
servo
servono
servuto
ses
sesantoro
sesca
sesche
sesia
sessa
sessana
sessano
sessanta
sesso
sessuale
sesta
sestema
sestemma
sesto
sestriere
set
seta
sete
seth
setmana
seto
sett
setta
settanda
settanta
sette
settecento
setteciento
settefrate
settema
settembre
settemo
settendrienale
settentrionala
settentrionale
settentrione
settentriunale
setticiento
settie
settiembre
settiembro
settima
settimana
settimo
settore
setture
setuazione
seva
severina
severino
severo
sevie
sex
seychelles
sezione
sezzione
sezziune
sf
sfastriato
sfe
sfera
sferiche
sfi
sfida
sfidante
sfiducia
sfiduciato
sfilata
sfinge
sfiolo
sfivolo
sfizio
sfn
sfondo
sforza
sforzo
sfotte
sfracie
sfragliuca
sfraveca
sfregio
sfrunnata
sfrutta
sfruttamiento
sfsm
sfucia
sfugliatella
sfugliatelle
sfumature
sfunnaje
sfunno
sfuorzo
sfusato
sfuttevano
sg
sgarbi
sgarro
sgarrupa
sgarrupata
sghizze
sguedese
sguessera
sguezia
sgui
sguizze
sguizzera
sguizzere
sguizzero
sh
sha
shadehouse
shades
shaft
shake
shakespeare
shallow
shalom
shanghai
share
sharon
sharp
she
sheffield
shell
shenzhou
shenzou
shi
shiammeggiante
shield
shiflett
shift
shikabane
shin
shinbun
shinji
shinrikyo
shiro
sho
shock
shonen
short
shoten
show
showgirl
shows
shu
si
sia
siae
siam
siamo
siande
siani
siano
sianu
siberia
sibilia
sibilla
sibthorpii
sic
sica
sicane
sicano
sicari
sicch
sicche
sicco
siccome
siccomme
sicconno
sicignano
sicilia
siciliae
siciliana
siciliane
siciliano
sicilianu
sicilie
sico
sicommo
sicond
siconda
siconde
sicondo
siconn
siconna
siconne
siconno
siconolfi
sicuente
sicula
sicule
siculo
sicundigliano
sicunn
sicunna
sicunnarie
sicunne
sicunno
sicura
sicuramente
sicure
sicurezza
sicuro
sicut
side
siderurgico
sidicine
sidney
sie
siecolo
siecule
sieculo
sieme
siempre
siena
sient
siente
sierra
sierre
siesta
siesto
sieti
siette
sieye
sigillo
sigismondo
sigla
sigmund
sign
signa
signaje
signala
signalate
signale
signann
signanno
signarono
signate
signato
signe
signi
signifeca
signifecato
significa
significaje
significate
significato
signo
signor
signora
signore
signorelli
signori
signorina
signos
signura
signure
siguro
sii
sik
sila
silence
silentina
silenzi
silenzio
silesia
silicate
siliqua
silla
silva
silvana
silvano
silvati
silver
silvestro
silvia
silvio
simbe
simbole
simbolo
simbule
simbulo
simeoni
simile
simleului
simmane
simme
simmele
simmo
simmulo
simo
simon
simone
simonelli
simpatia
simple
simply
sin
sinai
sinatra
sindaco
sine
sinfonia
sinfuni
sing
singalese
singapore
singer
singhele
singnaje
singo
singolare
singole
singoli
singolo
singulare
singule
singuli
singulo
sinistra
sinistro
sinnacate
sinnace
sinnaco
sinneco
sino
sinonimo
sint
sintetizza
sinus
sio
sion
sipara
sir
siracusa
sirata
sirece
sirecesemo
sirena
sirene
sirente
sirenum
siria
sirignano
sirio
siro
sis
sisca
sisley
sisma
sismica
sismicita
sissa
sissanta
sissantaci
sissantado
sissantano
sissantaqua
sissantase
sissantatre
sissanto
sissantu
siste
sistema
sistemateca
sisteme
sistemi
sisti
sistima
sistimaje
sisto
sita
site
siti
sitio
sito
sitta
sittanta
sittantaci
sittantado
sittantano
sittantaqua
sittantase
sittantatre
sittanto
sittantu
sitti
sittore
situ
situa
situata
situate
situato
situazione
situazzione
siviglia
sjælland
sk
ska
skapar
skasico
skeleton
skellig
sketch
ski
skie
skref
skuld
sky
skylife
sl
sla
slam
slava
slave
slavisano
slavo
sleep
slesia
sliabh
slittino
slo
sloga
slogan
slovacca
slovacco
slovachia
slovan
slovena
slovenia
sloveno
sm
small
smaltimento
smangiatura
smargiassi
smerza
smeserata
smi
smith
smo
smorfia
smrl
smuggling
snefru
snow
so
soana
sobre
soc
soccavo
soccer
soccia
socciesso
soci
social
sociale
sociali
socialista
socie
societa
societario
society
socio
sociologia
sociologo
sociology
socrate
soe
sofferenze
sofferette
sofi
sofia
soft
software
soggetta
soggetto
soggiale
sogliano
sognato
sogni
sogno
soia
soie
soio
soire
soja
soje
sojo
sol
sola
solachianiello
solamente
solanaceae
solanum
solare
solarolo
solbiate
soldati
soldato
soldi
sole
soleggiato
soleta
soletamente
soleto
soli
solimena
solista
solitamente
solitario
solitarius
solito
solleggiat
solleggiate
sollima
solo
solofra
solopaca
solstizzio
soluzione
soluzzione
somalia
somari
some
somiglianze
somiglio
somma
somme
sommer
sommesi
son
sona
sonano
sonda
sondaggio
sonde
sondrio
sone
sonetti
song
songe
songh
songhe
songo
songono
songs
sonna
sonne
sonneberg
sonno
sono
sonora
sonore
sonoro
sony
soo
sop
sophia
soppresso
sopra
soprana
soprannominato
soprannomme
soprano
soprattutt
soprattutto
sopratutto
sopravvive
sopravvivenza
sor
sora
sorabo
sorae
sorde
sordi
sore
sorella
sorge
sorgente
soria
soriano
sorrentino
sorrento
sorriso
sorta
sorte
sorteggio
soryu
sosa
sospesa
sossio
sosta
sostanza
sostanze
sostanzialmente
sostegno
sott
sotta
sottacite
sottaposta
sottaterra
sotte
sottespe
sotto
sottolinea
sottomarine
sottomesso
sottomissione
sottosegretario
sottospecie
sottufficiale
soubrette
souch
souk
sound
soundtrack
source
south
southampton
sovera
sovetskij
sovieteca
sovieteche
sovietica
sovietici
sovrano
sovrapposte
sp
spa
spacca
spaccanapoli
spaccata
spaccio
space
spache
spada
spade
spaderchia
spagna
spagnaspagna
spagno
spagnola
spagnole
spagnoli
spagnolo
spagnulette
spagnuola
spagnuole
spagnuoli
spagnuolo
spalla
spalle
spandau
spann
spanne
spannemie
spanneno
spannere
spannerse
spannette
spannite
spannuta
spannuto
spanteca
spara
sparagn
sparagna
sparaje
sparanise
sparano
sparato
spare
spareggie
spareggio
sparone
sparse
spart
sparta
spartaco
sparte
spartenno
sparteno
spartenza
spartere
spartette
spartettero
sparteva
sparti
spartimiente
spartite
spartito
spartizzione
spartuta
spartute
spartuto
sparviere
spas
spasa
spase
spassa
spassatiempe
spassatiempo
spassiunatamente
spasso
spata
spate
spazi
spaziale
spazie
spazio
spazziale
spazzio
spe
speaker
speakers
speaks
specche
specchia
specchio
spece
speci
specia
special
speciala
speciale
specialita
specializzate
specialme
specialmente
specie
species
specifeco
specifica
specifico
spectrometer
speculum
spedale
spedezione
spedizzione
spedizziune
spegliande
spegliate
spele
spencer
spenzata
spenzato
spera
speranno
sperannose
speranza
sperata
sperdere
speremiente
speretillo
sperie
sperienza
sperimenta
sperimentale
spero
sperone
speruto
spes
spesa
spesalizie
spese
spess
spesse
spesso
spessore
spetta
spettacolo
spettaculare
spettacule
spettaculo
spettature
spettrometro
spezia
speziale
spezza
spezzano
spezzata
spezzate
spezzato
spezziale
spi
spia
spiagge
spiaggia
spicchie
spiccica
spiccicata
spiccicate
spiccicato
spiche
spiciale
spicialmente
spiderman
spie
spieca
spiega
spiegame
spiegate
spietato
spiezie
spigno
spigule
spin
spina
spine
spinelli
spingenno
spingettero
spingule
spinus
spionaggio
spiraje
spirata
spirate
spirato
spird
spirduale
spirit
spiriti
spirito
spiritu
spirituale
spirituali
spiss
spissa
spisse
spissi
spisso
spitale
spito
spixana
splendor
splendore
splennore
split
sploratore
spo
spogna
spoleto
spongano
sponna
sponne
sponta
sponzillo
spor
sport
sporta
sporting
sportiva
sportive
sportivo
sposa
sposaje
sposato
spose
sposi
sposo
spr
spre
sprea
spremmientale
spresce
spressione
spring
springfield
spruoccolo
spunta
spuntaniamente
spunto
spuo
spurtaje
spurtate
spurti
spurtiello
spurtiva
spurtive
spurtivo
spus
spusa
spusaje
spusate
spusato
spuso
spusta
spustaje
spustata
spustato
sqrt
squadra
squadre
squaglia
squalachiate
squamate
squarche
square
squartatore
squase
squat
squatra
squatre
squillante
squinzano
squitieri
sr
sri
srl
ss
ssa
ssaccio
ssaje
ssale
ssaodisce
ssape
ssc
sse
sseca
ssece
sseche
sseldorf
ssele
ssema
sseme
ssemmene
ssemmente
ssempe
ssen
ssene
ssera
ssere
ssi
ssiciliano
ssico
ssicond
ssiconda
ssime
ssion
sso
ssola
ssore
ssu
ssud
st
sta
stabbele
stabbelette
stabbelmente
stabbia
stabbile
stabbilette
stabbilimiente
stabbilite
stabbilito
stabia
stabiae
stabilito
stace
stade
stadi
stadio
stadt
staff
stage
staggiona
staggione
staggioni
staggiunale
staggiune
stagione
staglia
stagnaro
stagno
stai
staie
staje
stalin
stalla
stamenov
stamm
stammatina
stammo
stampa
stampata
stampate
stamperia
stampo
stan
stanca
stand
standard
standardizza
standardizzazione
stanford
stanislao
stanisław
stanley
stann
stanne
stanno
stanotte
stante
stanza
stanze
stanziamiento
stanzione
star
starace
stare
stars
start
stasera
stat
stata
statale
state
stateaunitense
states
stati
station
statista
statistiche
statistico
stato
statte
statu
statua
statue
statuetta
statuette
statule
statunitense
status
statuto
staubrand
stava
stavano
staveno
stavolta
stavota
stazione
stazioni
stazziona
stazzione
stazzioni
stazziune
stazzjona
ste
steca
stece
steche
steco
steel
steele
stefan
stefani
stefania
stefano
stefany
steffi
steinhaus
stele
stella
stellare
stelle
stelvio
stemma
stendardo
stenne
stennere
stennette
steno
stentine
step
stephen
stephenson
steps
stereo
steri
steriuso
sternatia
sterne
sterreich
stess
stessa
stesse
stessi
stesso
stessu
stette
stettero
stev
steva
stevano
steve
steven
stevene
steveno
stevie
stewart
stg
sti
stia
stiane
stica
stierre
stierro
stilata
stile
stilista
still
stilo
stina
stipa
stipo
stipone
stipulato
stiss
stissa
stisse
stisso
stituzione
stivale
sto
stoccarda
stoccolma
stoccu
stocking
stoeca
stoeco
stoite
stojkovic
stommaco
stones
stongo
stonne
stop
stoppa
storeca
storece
storeche
storeco
storia
storica
storicamente
storice
storiche
storici
storico
storie
stories
storiografia
storm
storta
story
stoviglie
str
stra
strabone
strada
stradale
strade
strage
strana
strane
strani
straniera
straniere
straniero
stranjere
strano
straordinaria
straordinario
strasburgo
strata
strate
strateggeca
strateggeco
strategia
stratiggia
strato
stratte
straurdinaria
strausberg
straussee
straviantu
strazione
stre
stream
streaming
streca
street
strega
stregnano
stregne
strengenomme
streptopelia
stresa
stretta
strettamente
strette
stretto
striano
strigidae
strigiformes
striha
strin
stringiamci
strisce
striscia
striscione
strisciune
stritto
strix
stro
stromboli
strona
strong
struffule
strumentale
strumento
strumie
strumiente
strumiento
strummento
struscio
struthio
strutta
struttura
strutturale
strutture
stu
stuart
stub
stucco
stude
studee
studente
studentessa
studenti
studi
studia
studiaje
studiato
studie
studiente
studies
studio
studios
studiose
studioso
studiuse
study
stuoreche
stuorto
stupido
stura
sturea
sturente
sturi
sturia
sturiaje
sturianno
sturiano
sturiate
sturiato
sturiche
sturico
sturie
sturiente
sturiette
sturio
sturiose
sturioso
sturiuse
sturno
sturnus
sturuiuse
sturzo
stuta
su
sua
suanu
sub
subba
subbe
subbete
subbeto
subbette
subbetto
subbito
subcultura
subeto
subette
subglacial
subiaco
subito
subsp
succa
succavo
succe
succede
succedere
succedette
succedute
succere
succerett
succerette
success
successe
successero
successi
successione
successiva
successivamente
successive
successivo
successo
successore
sucche
succie
succiese
succieso
succiesse
succiesso
succissione
succita
suche
suciale
sucialista
sucieta
suckow
suco
sud
sudafrica
sudafricano
sudamerica
sudamericana
sudamerreca
sudan
sudcoreani
sudd
suddame
sudde
suddisfazzione
suddivisa
suddivisione
suddiviso
suddivizione
sudovest
sue
suena
suessola
suez
suffraganea
suffragio
suffri
suffritte
suffritto
sufo
sugar
sugarco
suggeta
suggetto
sugghia
suggiale
suggieta
suggietto
suggita
suggitta
sughe
sugli
sui
suicida
suicide
suicidio
suio
suisse
suit
suite
suja
suje
sujo
suke
suku
sul
sula
sulame
sulament
sulamente
sulare
sularo
sulcis
suldate
sule
suletarie
suli
sulista
sulitamente
sulitarie
sull
sulla
sulle
sullo
sulmona
sulo
sultano
sultanto
sulu
sum
sumatra
sumeglianze
summa
summer
summit
summonte
sun
suna
sunaglie
sunann
sunate
sunava
sunavano
sunday
sune
sunette
sung
sunna
sunnah
sunnambula
sunnate
sunnu
suo
suocc
suocce
suoi
suoie
suoio
suoj
suoja
suojaanimerica
suoje
suojo
suolo
suon
suona
suone
suonn
suonne
suonno
suono
suora
supe
super
supera
superaje
superata
superato
supercoppa
supercoppe
superficia
superficiale
superficie
superfiggia
superfisie
superiora
superiore
supersano
supersantos
superso
superstrada
superstrade
supervisione
supino
supiriore
suppl
supplementare
supplementari
supplemento
supporta
supporto
suppressa
suppuorto
suppurtanno
supra
supraffigia
suprafiggia
suprafiggie
suprattutto
suprema
supreme
supressa
sur
sura
surano
surbo
surco
surdate
surdati
surdato
surde
sure
surece
surge
surgente
surgeva
surgiente
surice
suriname
surrentina
surrentino
surrientina
surriento
surtanto
surveyor
survival
sus
susa
susan
susanna
suscitaje
suspeso
suspetta
suspice
suspira
suspiranno
suspirano
suspirata
suspire
suspiro
suspiso
susso
sustandive
sustantive
sustantivo
sustanza
sustanze
sustanzialmente
sustanziuso
sustegno
sustenuta
sustenuto
susu
sutt
suttile
sutto
suttospecie
suttu
suvaro
suvero
suvie
suvieteca
suvieteche
suvrane
suvranita
suvrano
suvrasta
suzuhara
sv
sva
svariate
sve
svede
svedese
sveva
svevi
svevia
svevo
svezia
svezzia
svg
svi
sviluppa
sviluppaje
sviluppata
sviluppate
sviluppato
sviluppatte
sviluppo
svinculo
svisloc
svizzera
svizzero
svolge
svolta
sw
swale
swift
switzerland
sx
sydney
sylva
sylvester
sylvia
sylviidae
syrtis
system
systems
szlo
søren
sə
t
ta
tabbacche
tabbele
tabbelie
tabbelite
tabbella
tablet
tabris
tabula
taburno
tac
tacca
taccheria
tachymarptis
taddeo
taggione
taggiune
tagikistan
tagl
tagli
taglia
tagliaferri
tagliaje
tagliamento
tagliarella
tagliarelle
tagliate
tagliato
taglio
tagliulino
tailandese
taine
tainucc
taiwan
tajani
takahashi
take
takeda
tal
tale
talento
taler
talia
talian
taliana
taliane
taliani
taliano
talioine
talk
tall
talla
talmente
talsano
tamb
tamburi
tame
tamigge
tamil
tammaro
tammorre
tammuriata
tammuro
tammurriata
tan
tanaro
tand
tanda
tandart
tande
tane
tang
tangentopoli
tango
tanko
tann
tanne
tannine
tanno
tant
tanta
tante
tanteno
tanti
tantive
tanto
tantu
tanucci
tanz
tanza
tanzania
tanziame
tanziamie
taormina
tappa
tappeto
tar
tara
taralle
tarallo
tarante
tarantella
tarantine
tarantini
tarantino
taranto
taratufe
tard
tarda
tarde
tardi
tardo
targa
taria
tarie
tarnovo
tarquinio
tarramoto
tarramute
tarsia
tarski
tascabile
tassa
tasse
tasso
tassonomeco
tassonomia
tastiera
tastiere
tastierista
tat
tata
tatale
tatangelo
tatanka
tate
tato
tatonno
tatore
tatort
tatsunoko
tatte
tatteche
tatua
taule
tauleri
taumaturgo
taurasi
taurazione
taurisano
tav
tavassi
tave
taveline
taverna
tavernanova
taverne
taviano
tavo
tavola
tavolulezza
tavula
tavule
tavulelle
tavulezza
tavulezze
tavuto
taxi
taylor
taziun
tazju
tazza
tazzulella
tbol
te
teachers
team
teano
teate
teatina
teatine
teatr
teatrale
teatre
teatro
teau
tebe
teca
tecca
teccava
tece
teche
techniche
technologgia
technology
tecla
tecneca
tecnece
tecneche
tecneco
tecnica
tecnicamente
tecniche
tecnico
tecnolo
tecnologgia
teco
tecrazi
ted
teddy
tede
tedesca
tedesche
tedeschi
tedesco
tedino
tediuse
teduccio
tee
teen
tegle
teglia
teheran
teide
teine
tel
tela
tele
telecamera
telefilm
telefono
telegrafo
telenovela
telenovella
telenuvela
telese
telesino
televesione
televisione
televisiva
televisive
televisivo
televizione
tell
tella
tellane
tellini
telune
tem
tema
temate
temateca
temberale
tembrate
tembratura
tembrature
teme
temenianza
temeraria
temi
temm
temmeruso
temo
temp
tempalta
tempe
tempelhof
temperate
temperato
temperatura
temperature
tempesta
tempi
tempie
tempio
tempiu
template
temple
tempo
temporale
tempu
temuto
ten
tena
tenaglie
tenarra
tenco
tendenze
tene
tenene
tenenno
teneno
tenente
tenerife
tenerra
tenerva
tenette
tenettero
teneva
tenevano
teneve
teneveno
tengen
tengo
tengono
teni
tenimmo
tenite
tenna
tenne
tennessee
tennis
tennista
tenno
tenono
tenore
tenshi
tensore
tenta
tentaje
tentata
tentative
tentativo
tente
tenu
tenut
tenuta
tenute
tenuto
tenzione
teo
teodoro
teodosio
teologgia
teorema
teoria
teorico
teorie
tepegrafi
tequixquiac
ter
tera
terame
teramo
terapia
terate
tere
terelle
tereme
teresa
teresina
terine
termale
termali
terme
termeca
termena
termene
termi
termico
termin
terminaje
terminal
termine
termini
termoli
terne
terni
tero
terpigl
terpiglia
terpone
terr
terra
terracina
terracotta
terrae
terraferma
terragno
terramane
terramoto
terranova
terrasini
terravecchia
terrazzo
terre
terremoto
terreni
terreno
terres
terrestre
terrestrial
terreteriale
terreto
terretorio
terretuorie
terretuorio
terri
terribbele
terriene
terrieno
terriestre
terrine
territa
territore
territoria
territoriale
territorie
territorio
territtorjo
territuorio
territure
territuriale
territuriali
terrore
terrorismo
terrorist
terrorista
terroristeca
terruri
terry
teruite
terz
terza
terze
terzi
terziario
terzigno
terzino
terzo
tes
tescana
teschen
tese
tesi
tesino
tesoro
tess
tessa
tessera
tessile
tessute
tessuti
tessuto
test
testa
testamento
testamiento
testata
testate
teste
testi
testimonia
testimoniano
testimonianza
testimonianze
testimunianza
testimunianze
testo
tetale
tete
teti
tetraloggia
tetrastes
tetrax
tetsu
tetti
tetto
tettoneca
teudice
teuri
teuria
teurie
teve
tevere
teverina
teverola
texas
text
textcolor
textdata
tezierate
tg
th
tha
thai
thailandese
thailandia
thali
thalia
than
thanatos
that
the
theatrical
their
theobroma
theodor
theodore
theodosia
theoretical
theremin
thermal
theron
these
they
things
third
this
tho
thomas
thoro
thought
three
thrice
thumb
thumbnail
thumbtime
ti
tia
tiana
tiane
tiatrale
tiatre
tiatro
tiberio
tibet
tibia
tica
tiche
tichodroma
ticino
tico
tidone
tie
tiella
tielle
tiemb
tiembe
tieme
tiemp
tiempe
tiempo
tien
tiene
tiermene
tiermete
tierra
tierre
tierza
tierze
tierzo
tieste
tiesto
tiev
tifos
tifosa
tifose
tifosi
tifuse
tiggiano
tigl
tigma
tigre
tije
til
tilia
till
tim
tima
timballe
timbe
time
timeaxis
times
timis
timor
tin
tina
tinche
tine
tiodo
tiol
tiologgi
tione
tip
tipa
tipe
tipeche
tipeco
tipi
tipica
tipicamente
tipice
tipiche
tipico
tipo
tipografia
tipografica
tipologgia
tipologgie
tira
tiraje
tiramisu
tirano
tiri
tiro
tirolo
tirre
tirrena
tirreni
tirreno
tisane
tise
tiseco
tite
titina
tititi
tito
titole
titolo
titta
titte
titu
titui
tituita
titulate
titule
tituli
titulo
tiurema
tiuri
tiuria
tiva
tizia
tiziana
tiziano
tizie
tjempo
tjermene
tl
tm
tn
tneche
to
tobago
tocca
toccaje
tocco
tod
today
todi
todini
toedgein
tofano
togliene
toi
toia
toja
toji
tokyo
told
toledo
tolentino
tolls
tolomeo
tolosa
tolstoy
tom
tomacelli
tomb
tomba
tombe
tombola
tombolo
tomino
tommaso
tommo
tomo
toni
tonino
tonna
tonne
tonnellate
tony
too
top
toplane
topografia
toponimo
toppa
tor
tora
torchiarolo
torchio
tore
torella
torelli
torial
toriello
torinese
torino
torio
torn
torna
torneo
torno
toro
toroc
toronto
torquato
torquatus
torr
torrazza
torrazzo
torre
torredelgreco
torres
torrese
torretta
torri
torricella
torrocolo
torrone
torta
torte
tortelline
tortora
tortorella
torturata
torun
torze
tos
tosca
toscana
toscano
tosco
toshimichi
toshio
toss
tosse
tossici
tosta
tosti
total
totale
toto
totonno
tottenham
tou
touch
toul
tour
touring
tourne
tours
towards
tower
town
tozzi
tp
tr
tra
trabzonspor
tracce
traccia
tracciate
tracciati
tracciato
traccie
tracene
tracie
track
trad
trada
tradezione
tradeziunale
tradeziune
tradezziona
tradezzionale
tradezzione
tradi
tradimenti
tradimento
traditional
tradiziona
tradizionale
tradizione
tradizioni
tradiziunale
tradizzi
tradizzio
tradizziona
tradizzionale
tradizzione
tradizzioni
tradizziunale
tradotto
traduce
traducere
traduciuto
traduto
traduttore
traduzione
traduzzione
traetto
traffeco
traffice
traffiche
traffici
traffico
trafficone
traggedea
tragica
traiana
traiano
train
training
trajetto
tral
trale
tralia
tram
trama
tramandatace
trame
tramende
tramenduta
tramente
trameta
tramite
tramma
trammeto
tramonta
tramonti
tramonto
tramuntata
tramunte
tramunto
tramuta
trana
trance
trani
tranne
tranquillo
trans
transessuale
transfermarkt
transilvania
translation
transmission
transnistria
tranzeto
trapani
trarezzione
trarimiento
tras
trasatrazione
trascini
trascrive
trascrivere
trascurato
trascurzo
trase
trasenno
traseno
trasere
trasette
trasetteno
trasettero
trasferette
trasferi
trasferimiento
trasferite
trasformaje
trasformazioni
trasfurmaje
trasfurmata
trasfurmato
trasfurmazzione
trasi
trasmette
trasmetteno
trasmettere
trasmisa
trasmise
trasmissiona
trasmissione
trasmissioni
trasparente
trasporto
traspuorte
traspuorto
traspurtata
trastevere
trasuta
trasute
trasuto
trata
trate
trateggi
trative
tratta
trattaje
trattamento
trattate
trattato
trattava
tratte
tratti
trattino
tratto
trattore
tratture
trature
trauma
trave
traversata
traversella
traves
traviata
traze
trazione
trazuta
trazute
tre
trebbutario
trebisonda
treca
trecase
trecazione
treccani
treccase
treche
treciento
tredi
tredici
tredje
tree
trees
treglia
treglie
treje
trema
treme
tremie
tremila
tremiti
tremma
trendase
trendina
trene
trenitalia
treno
trenomanga
trent
trenta
trentaci
trentaduje
trentano
trentaqua
trentaro
trentase
trentatre
trentino
trento
trentu
trentuno
trepecale
trepuzzi
trerrote
tres
tressanti
treto
tretta
treva
trevame
trevate
trevava
treve
treves
trevi
trevignano
treviso
trezza
trezzione
tri
tria
triale
triangolo
triangulare
triangulo
trianon
triatale
triate
triato
triatrale
triatre
[...]
