!
"
#
##0
##1
##10
##11
##12
##13
##14
##15
##16
##17
##18
##19
##2
##20
##21
##22
##23
##24
##25
##26
##27
##28
##29
##3
##30
##31
##32
##33
##34
##35
##36
##37
##38
##39
##4
##40
##41
##42
##43
##44
##45
##46
##47
##48
##49
##5
##50
##51
##52
##53
##54
##55
##56
##57
##58
##59
##6
##60
##61
##62
##63
##64
##65
##66
##67
##68
##69
##7
##70
##71
##72
##73
##74
##75
##76
##77
##78
##79
##8
##80
##81
##82
##83
##84
##85
##86
##87
##88
##89
##9
##90
##91
##92
##93
##94
##95
##96
##97
##98
##99
$
%
&
'
(
)
*
+
,
-
.
/
0
00
000
0000
0001
00021
001
007
0076
009
01
010
013
0131
0140
02
024
0246
0261
029
03
0307
04
05
06
07
08
09
0900
09122008
0980
1
10
100
1000
10000
100878572955
100883419391
100898188898
1013105
1016
102
102229228
1023
1030
1034
104
105
106
108
109
1093
11
110
1100
1101
1101960178690
1106
1109395567575
1114154
1117784661
1117859068
1126
11339
1138
114
1149
115
116
1168
118
118576
12
120
1200
120102
1202774518
1202826780
1203
1203002404
123
1230
1235
1241
125
1250
1259
1264
127
1278
1279
128
1282
128666
1287
1288
1293
1294
1296
1299
13
130
1300
1301
1304
1306
1307
1309
1310
1311
1313
1314
1315
1316
1317
1318
1319
132
1320
1322
1323
1325
1326
1327
1328
1329
13293398
1330
1331
1332
1333
1335
1336
1337
1338
1339
134
1340
1341
1342
1343
1346
1347
1348
1349
135
1350
1351
1352
1353
1354
1355
1356
1357
1358
1359
136
1360
1361
1362
1363
1364
1365
1366
1367
1368
1369
137
1370
1371
1373
1374
1375
1376
1377
1378
1379
138
1380
1381
1382
1383
1384
1385
1386
1387
1388
1389
139
1390
1391
1392
1393
1394
1395
1396
1397
14
1401
141
142
143
144
1441
1450
1459
146
1489
1494
15
150
1500
1506
1515
1519
152
1520
1521
1522
1524
1526
15272211442
1528
153
1530
1531
1532
1533
1534
1536
1537
1538
1540
1541
1542
1544
1545
1546
1548
1550
1552
1560
1562
1567
1571
1572
1573
1574
1575
1576
1577
1578
1579
1580
1581
1582
1584
1585
159
1598
16
160
1600
16000
1603
161
1619
163
164
1644
167
169
17
170
1725
173
176
17765
18
180
1800
182
1821
1822
1828
1830
184
1846
1848
185
1851
1859898
1861
1862
1863
1864
1865
1866
1867
1868
1869
1870
1871
1872
1873
1874
1875
1877
1879
188
1881
1884
1885
189
1895
1897
19
190
1900
1905
191
1914
191459
1916
1917
1918
1923
1926
1930
1935
1939
194
1949
195
1950
1955
1956
1958
1959
1960
1962
1963
1964
1965
1967
1968
1971
19710819
1973
1974
1975
1976
1979
198
1980
1981
1982
1983
1984
1985
1987
1988
1989
199
1990
1991
1992
1993
1994
1995
1996
1997
19970418
19971017
1998
1999
2
20
200
2000
2001
2002
2003
2004
2005
2005100600679
2006
20060430154553
2007
2008
20080218155543
2009
20090306125703
20090714162431
201
2010
20100720053715
20100802163407
20100808004401
20100831042956
20100831123830
20101101165736
2011
20110216081606
20110221093542
20110408230411
20110506040417
20110924105920
2012
20120305141709
20120308074849
20120309125526
20120325022634
20120625111638
20121002040004
20121111180519
2013
20130101150433
20130311013341
20130511025028
2014
20140429225729
2015
20150922132528
2016
20160504050821
20160911155956
20161011041320
20161011083632
20161030075955
2017
20170212112726
2018
20180618103114
20181031051102
2019
20190218163649
20190322023139
20191110094810
20191122190816
202
2020
20200101060457
20200226153909
20200304122546
20200410175753
20200410175757
20200410175916
20200410183715
20200803172342
2021
20210422170909
2022
203
204
205
205814
206
207
208
21
210
2100
211
213
215
216
217
22
220
221
223
224
225
226
23
230
2322711
2331
234
236
237
238
239
24
240
241
243
244
247
248
249
25
250
2500
251
2535
256
25753
258
2586
26
260
262
264
2650
2650528
266
267
27
270
275
279
28
280
28230
286
29
292
293
294
2997416
3
30
300
3000
30183
303
30451254
30459821
3077
31
32
324840106
33
330
331
331540
336
337
338
34
3408
342
349
35
350
35029
3519
35656227
36
360
361
363218
37
375
376
38
380
383
39
390
3981129012
4
40
400
40326695
41
410
411252
4152266
42
43
4327
433
435
44
446
45
46
467
47
471
473898
48
480
481
49
493016
5
50
500
5000
507
51
51210756
51588145
51651854
517
518
52
520
521
53
538
54
55
550
553
56
560
561
57
570
57361
58
59
6
60
600
61
62
6291
63
639
64
65
650
6534
659
66
6626
667
67
6736
6844159
69
691775
69780
7
70
700
7000
705
708
71
710170302
7123
714832
714999
715933
717
72
7271
73
737
745
75
750
76
760
763
775044876
78
79
7975
8
80
800
81
82
82021017
822
828
83
83693059
84
85
850
851
8599
86
8601
8684
87
874237
8767
88
89
9
90
907
91
92
929
93
9318285
932
94
941
943
95
9513330
96062815916
964
967958260
97
977
978
98
98120402792
99
999
9999
:
;
<
=
>
?
@
\
^
_
`
a
aa
aaa
aanə
ab
abadi
abandon
abbreviation
abc
abdullah
ablon
about
above
abovebelow
abovecell
aboveclass
abovestyle
abraham
abs
abshar
absolute
abt
ac
academic
academy
accept
accepted
accepts
access
accessdate
accessed
accesses
accesso
according
account
accounts
ace
acer
achievement
ackerley
across
action
active
actively
actor
actors
actual
actually
ad
adam
adapted
adas
add
addcat
addclass
added
addeditintro
addition
additional
addkey
addnamed
addportletlink
addpositional
address
addresult
addrow
adds
addsuffix
adele
adeles
admin
administration
administrators
adsabs
adult
advocate
ae
af
aff
affairs
afi
afiawards
afra
africa
aft
after
afterword
again
agar
age
agency
agent
ages
agosto
ahmad
aid
air
airdate
ak
aka
akt
akten
al
alan
alaska
alba
albatə
alborz
album
alef
alert
alexis
algeria
ali
alias
aliases
aliaseslist
alice
align
alignment
all
allcat
allmusic
allnames
allow
allowblankparams
allowed
allowing
allows
allowsmall
allure
almond
alone
along
alpha
alphabet
already
also
alt
alternate
although
always
am
amar
amard
amazon
ambiguous
ambox
america
american
americanancestors
americanexperience
americas
ami
amini
amma
amol
among
amp
ampersand
amra
amre
amream
amrə
ams
an
ana
analysis
anan
ananas
anarchism
anate
anchor
anchorencode
anchors
ancient
and
anda
andersen
anderson
andreas
andrew
angeles
angers
angle
angry
anime
anjom
anna
annotation
annotations
announces
annual
another
anthony
anthropology
antə
antəi
any
anything
anzali
anə
apart
apostrophe
apostrophes
appear
appearance
appears
appended
apple
application
applied
applies
apply
applying
appomattox
approach
appropriate
apps
apr
april
aqa
ar
arabic
arc
architecture
archive
archived
archivedate
archives
archiveurl
arctic
are
area
areas
aren
arg
argentina
argentine
argerich
argkeys
args
argsi
argsk
argskey
argsparam
argsv
argtables
argtableval
argument
arguments
argumentsname
aria
arizona
arizonaarizona
arj
armi
army
around
arr
array
arsanja
arsum
art
article
articlepage
articles
artist
artistsae
arts
arxiv
arzes
as
asar
ascii
ashurpur
asia
asin
asintld
asp
aspe
aspx
asriran
assassination
assemble
assembled
assert
assessors
assign
assigned
associated
associations
assortment
assume
assumed
assuming
asterisk
asteroids
astronomy
at
atitle
atlantia
atmosphere
atranj
atranjə
atri
atribute
attack
attempt
attempts
attr
attribute
attributes
attrs
au
audio
aug
august
australia
australian
auth
authentication
author
authority
authorlink
authorlist
authormask
authorn
authors
auto
autocollapse
autoconfirmed
automated
automatic
automatically
autonomous
autor
autoreview
autoscaledimages
autumn
av
ava
available
avalə
avicenna
avn
avoid
avval
award
awards
axs
az
b
ba
baadi
babi
baby
bac
back
backdoor
background
backgroundcolor
backtranslate
backwards
bad
badaran
badass
baird
bakalsə
balut
balutə
bana
banan
bandar
bangla
banisin
banə
bar
barcelona
bare
barehsar
barra
barry
bars
bartolomeo
bas
base
based
basestyle
basic
battle
battles
baxi
bay
baz
bazin
bazr
bazron
bazronə
bazrə
baztab
bb
bbc
bd
bdi
be
beach
because
becomes
been
before
began
begin
beginning
begins
behaves
behavior
behaviour
behind
being
belize
belle
bellyache
belong
below
belowcell
belowclass
belowstyle
ben
bene
benefit
benen
bengali
bepute
ber
bernard
best
bets
better
between
beyn
beyond
bezr
bezron
bf
bg
bh
bhojpuri
bi
bibcode
big
bihari
billboard
billie
billion
biography
biology
biorxiv
bird
birds
birin
births
bis
bitrun
black
blacklist
blacklistentry
blacksabbath
blames
blank
blica
blob
block
blog
blogfa
bloody
bloom
blue
bluff
blurb
blurry
bn
bno
bnonews
bo
board
bobs
body
bodyclass
bodycontent
bodyrow
bodystyle
bodywidth
bold
bolivian
bon
bonekemper
book
bookchin
books
booktitle
boolean
boonə
booting
border
bordercolor
bordered
borderwidth
borderwidthnum
borgomal
born
bos
bosna
bosnia
bostanə
bot
both
bottom
boundless
box
boxes
boxmerge
boxofficemojo
boxtable
boxtext
boxtype
boy
boyfriend
br
bracket
brackets
bradshaw
brain
brands
brasco
bravo
brazil
break
breaks
bremen
brendangallagher
brian
bridge
brief
britannica
broadcast
broken
brokendate
bronson
brown
browse
browser
brujeri
bs
bu
bubo
budə
bug
build
builder
building
buja
bukud
buland
bulandə
bullet
buma
bump
bunan
bune
bunə
bus
business
but
button
buys
by
byte
bytes
bə
bəka
c
ca
cactions
calendar
call
callback
called
calling
calls
cambridge
cameo
camila
campaign
campestre
can
canada
canadaam
canadian
cannes
cannot
canonical
canonicalname
cap
capital
capitalization
caps
caption
captiondiv
captionstyle
capture
caravanserai
card
carell
caribou
carlitos
carnivore
carpinifolia
carriage
cartography
case
cases
casey
cash
caspian
cast
castan
castle
castro
cat
categories
categoriesns
categorisation
categorise
categorization
categorize
categorized
categorizing
category
categoryhandler
cathedral
cats
cattitle
cause
cay
cbk
cbr
cbs
cc
ccccff
cctld
cd
cdc
ce
cecil
celebrities
celebrity
celebs
cell
cells
census
center
centered
centering
central
centre
century
cerro
certain
cervantes
cff
cfg
cfgkey
cfgvalue
cfgvaluetype
chamkhaleh
change
changed
changer
changes
channel
chapter
chapterurl
char
character
characters
chargs
charity
charles
chars
charsi
charter
charts
chattanooga
chavacano
che
check
checkarg
checkdigit
checked
checking
checknum
checknumandaddsuffix
checks
checksum
checktype
chemistry
chernobyl
chi
chicago
child
childnodesj
children
chile
chilean
china
chinese
choose
chosen
chr
chris
christian
christmas
chron
church
ci
cia
cid
cimas
circumstances
citation
citationclass
citations
cite
cited
citeref
citerefharris
cites
citeseerx
cities
city
ciudad
civil
civilwar
class
classes
classicrock
classname
clean
cleanup
clear
climate
clizbeats
close
closing
cmbox
cn
cnet
cnn
cnr
co
coauthor
coauthors
code
coded
codes
coffee
coins
cold
collaboration
collapse
collapsebutton
collapsecaption
collapsed
collapses
collapsetable
collapsible
collapsibleclass
college
collision
cologne
colon
color
colors
colspan
columbia
column
columnists
columns
com
combination
combined
combo
coming
comma
command
commas
comment
comments
commentstr
commission
common
commonly
commons
communalism
communication
comp
compact
companion
company
compare
compared
comparedisplay
comparelink
compareurl
comparisons
compass
compatibility
compatible
complete
complex
compliance
components
composed
compresssparsearray
comptechdoc
compute
computer
computerhope
computing
con
concat
concatenate
concatenated
concatenates
concatenation
condition
conditions
confederalism
conference
conferenceurl
confidentiality
config
configuration
confirms
confused
congress
conjunction
conservation
consistency
constantcontact
constitution
construction
consultado
contain
container
containing
contains
content
contentargs
contentmodel
contents
contenttitle
contract
contribution
contributions
contributionurl
contributor
contributorlist
contributors
control
controlling
controls
conversion
convert
converted
converter
converts
conveys
convicted
coord
coordinates
coppola
copy
corbin
cordination
core
coronavirus
coronaviruses
corporate
correct
correctly
corresponding
cortemiglia
could
couldn
count
counter
counting
countries
countrownum
country
county
court
courthouse
cov
cover
covid
cpu
cr
create
created
createlink
credits
cropped
cross
crown
cs
css
csstext
ct
ctrl
ctvnews
ctx
ctype
cuba
cuban
cultural
culture
curitiba
current
currently
currentns
currenttitle
cursor
custom
czech
d
da
daanan
daanə
daily
dam
dama
dame
dan
danə
dar
dare
darestan
darkred
daron
darone
darsad
das
dash
dashes
daste
dat
data
dataarchivio
database
datacell
dataid
datapage
datastyle
datatype
date
dated
dates
dava
david
daxisonen
day
days
db
dbms
dc
dd
ddddff
ddə
de
dead
deadline
deadurl
death
deaths
debug
debut
dec
december
decimal
declared
decode
decolonization
dee
deenan
deenə
deep
deepcopy
default
defaultkey
defaults
define
defined
defines
defining
definition
degree
dehi
dehumanizer
dei
dejavu
del
delete
deletion
dem
demand
demille
demo
democratic
demographia
demonstration
demopage
demospace
den
dene
denial
denise
denofgeek
density
department
depend
dependencies
depending
dependvalue
deprecate
deprecated
der
des
desc
description
descriptions
desde
desirable
desired
desson
destructive
detail
details
detect
detected
detection
detects
determined
determines
deutschland
devanagari
devil
devilsadvocate
dexunka
deylaman
deylamites
df
di
dia
dialect
dialects
diary
dicaprio
dicembre
dick
dickens
dictionary
did
die
diff
different
differently
dig
digar
digit
digitletter
digits
dil
dilemon
dimli
dir
direct
direction
directly
dis
disambiguator
disco
discografi
discouraged
discuss
discussion
disease
disp
display
displayauthors
displayed
displayeditors
displaying
displays
dissertation
district
div
divdir
divisions
divs
djs
dl
dll
dma
dmy
dns
do
doc
docket
docname
docpage
docpagebase
docs
docspace
doctitle
document
documentary
documentation
documented
does
doesn
doi
doibroken
doing
domain
domains
don
done
donepairs
donnie
dont
donya
donza
doone
doonə
dormida
dos
dot
double
doubled
downloads
downtown
dr
drag
drive
drndth
droid
drop
drug
drugs
dsc
dt
du
dublin
duck
due
dummy
dunya
dup
duplicate
duplicates
duplication
dus
duttə
dv
dvd
dw
dwarf
dyn
dynamic
də
e
ea
each
eagles
earlier
early
earmilk
earth
east
eastern
eavesdropping
eb
ebar
ebchecked
ebert
ebrahim
ecfcf
ecology
economy
ed
eda
ede
edit
edited
editintro
edition
editlink
editor
editorgiven
editorial
editorlink
editorlist
editormask
editors
editorsurname
eds
edu
education
edward
ee
eed
eeddiittoorrss
eeddss
een
eenə
eer
eeron
ef
efd
effect
ehsan
ei
eiffel
eighth
eilish
eissn
either
eka
el
election
electronic
elegans
element
elements
elf
else
elseif
elx
em
email
embargo
embargoed
emdash
emit
emits
emitted
emmy
emmys
empire
empty
en
ena
enable
enaw
encarta
enclosed
encode
encoded
encyclopaedia
encyclopaediaislamica
encyclopedia
encyclopædia
end
endash
endashes
endaze
endbox
ended
ends
ene
enero
engineering
english
enigma
ensa
ensafnews
ensani
ensure
entel
enter
entertainment
entire
entities
entre
entries
entry
enumerated
enumerator
env
envfunc
envfuncs
environment
eo
ep
episode
episodelink
epnu
eprint
eqtesad
equal
equals
equation
equivalent
equivalents
er
era
erase
ernesto
err
error
errors
errs
es
escape
escapebrackets
escapepattern
escapes
esele
esfand
esfenaj
esoteric
espan
espeyli
esta
establish
estra
et
eta
etal
etc
etendu
eternal
ethnic
ethnologue
etri
euforgen
euphoria
europe
european
evaluates
evaluation
evans
evaxi
even
evenodd
evenstyle
event
events
eventurl
ever
every
everyday
everything
evil
evolution
ew
ex
example
examples
except
exclude
excluded
exclusive
exist
existing
exists
exonym
expanded
expandtemplate
expected
expecttype
experiment
expiry
explicitly
exploring
expo
expression
ext
extended
extendedconfirmed
extension
extensions
extensiontag
external
extinct
extra
extracss
extract
extracts
extrajs
extraneous
extraordinary
f
fa
face
facebook
fact
facts
factsheet
faculty
fade
fagig
fail
failed
failing
fala
falakan
fall
fallback
falocalization
false
falson
famed
family
famous
fandogh
fanduqe
fanduqei
fanduqə
fao
faostat
faqat
fara
fararu
fargs
farhangi
farid
farq
fars
farsnews
farther
fashion
fastest
fat
father
faza
fb
fbi
fc
fcff
fcommon
fcore
fdfdfd
fear
featured
features
feb
february
fecha
fechaacceso
federation
feed
fell
fellatio
female
feminism
fest
festival
fetch
fetches
fetchlanguagename
fetchlanguagenames
ff
fff
fffd
fg
fi
fic
field
fields
fifth
figure
figures
fika
file
fileexcell
files
fill
film
films
final
find
finds
finest
finisterra
finland
finnish
fired
firefox
first
firstchild
firstn
firstpage
firstpagetable
five
fix
fixed
flag
flags
flaubert
fleming
flex
float
floatstyle
floor
fmargs
fmbox
fmt
fo
fofweb
followed
following
follows
font
fontsize
fontstyle
foo
food
foot
footer
for
force
foreign
forest
foreword
form
format
formatdate
formatfile
formation
formats
formatted
formatting
forms
fort
fortschritte
forward
found
four
fourth
fr
fragment
frame
frameless
framework
franc
francisco
frank
free
freedom
friday
friedman
friedrich
from
front
frown
fs
ft
ftal
full
fulltext
fullurl
fully
fuman
funcname
function
functionality
functions
funeral
further
fury
future
fwww
fə
g
ga
gaabane
gadget
gaga
gaia
gal
galactorrhea
galaf
gallery
galə
game
games
gangster
gap
gariba
garmə
gary
gay
gb
gebruder
geek
gender
general
generally
generate
generated
generates
generation
generational
generic
genetic
genre
geographical
geography
george
georgy
german
germanica
gernot
get
getabovebelowcolspan
getargnums
getargs
getattr
getboolean
getcode
getcontentlanguage
getcurrentframe
getcurrenttitle
getelementbyid
getenvironment
getlangcode
getmetatable
getnamespaceparameters
getparameters
getparammappings
getparamvalue
getparent
gets
gettitle
gettitleobject
ghale
ghaleroudkhan
gi
giannina
gif
gigli
gil
gila
gilaki
gilan
gilannews
gilbert
gilemard
ginan
ginə
girl
girlfriend
git
given
gives
gje
glbt
glk
global
globals
globe
globes
glory
gmatch
gmr
go
godfather
going
gold
golden
goldenglobes
gonjes
good
goodman
google
gorgan
gostaresh
got
gov
governed
government
grammys
grand
grandchild
grandson
grant
gray
great
greater
greatest
green
greg
gregorian
gridiron
grimm
grobel
groundlings
group
groupcell
groupn
groups
groupstyle
groupwidth
gsfc
gstadiet
gsub
gta
gtld
gtlds
gu
guardian
guatemala
gucci
gud
gudan
gudanə
guden
guerra
guevara
guide
guidelines
guides
guilan
gul
guldehi
gulf
gulon
gulə
gunan
gunani
gunanə
gune
gunen
gunə
gurg
gus
gutan
guyes
h
ha
had
hadan
hadenan
haf
hafta
hair
hale
ham
hamdigarə
hamshahrionline
hanan
hand
handle
handled
handler
handlers
handlersk
handles
hanging
hanna
hannan
hans
hanə
happens
har
hara
harbor
hard
hardy
hardys
harja
harpersbazaar
harv
harvard
has
hascategories
hasclass
hash
hat
hatnote
hatta
havana
have
haven
having
haya
haystack
hbo
hcov
hdl
he
head
header
headerid
heading
headingfontsize
headings
headingstyle
headless
health
heat
heaven
hechizos
hedging
height
heiss
hell
hello
help
helper
helsinki
hemisphere
henry
here
heritage
herman
hermesauto
hero
herzegovina
heste
hi
hic
hidden
hide
high
highest
highly
hijab
hill
hin
his
hisa
hist
historical
history
historylink
historynet
hito
hlist
ho
hodudə
hold
holder
holding
holds
hole
holes
hollywood
home
honors
honorspressrelease
horizontal
host
hostname
hosts
hotpress
house
householdpopulationvillage
hover
how
howard
however
href
ht
htm
html
htmlbuilder
http
https
hu
hub
hubble
huffingtonpost
huge
human
hunarə
hunter
hunters
hus
hy
hyacinth
hybrid
hyphen
hyphenated
hyphens
hypothetical
i
ia
iana
ibc
ibid
ibn
ic
ice
icon
id
idbackgroundcolor
idcolor
ident
identical
identification
identified
identifier
identifiers
identifies
identify
identity
idfontsize
idheight
idi
idlineheight
idol
idotherparams
idpadding
ids
idtextalign
idwidth
ie
ietf
if
ifpi
iglesia
ign
ignacio
ignore
ignoreblank
ignored
ignoreisbn
ignoreisbnerror
ignoreissn
ignores
ignoreyear
ii
iii
ikco
ikl
iklə
illustrated
illustration
ilna
ilussia
image
imagecell
imagecelldiv
imagecheckblank
imageclass
imagecount
imagediv
imageemptycell
imageemptycellstyle
imagegap
imageleft
imageleftcell
imagenumbers
imageright
imagerightcell
imagerightnone
images
imagestyle
imam
imamzadeh
imbox
imdb
img
immediately
imna
impact
impeachment
implementation
implements
import
important
imported
impression
improve
in
ina
inactive
inactivedate
inappropriate
inarray
inc
incase
inception
include
included
includemetatable
includes
including
inconsistencies
incorporated
incorrect
increase
indent
indents
independence
independent
index
indexed
indexer
indexnavigationbar
indian
indic
indicate
indicated
indicating
indicator
indices
individual
industry
ine
infections
infinitum
infinity
influence
info
infobox
infoboxes
infocolor
infofontsize
infolineheight
infootherparams
infopadding
information
infotextalign
inherit
inhib
initial
initialization
initials
initiative
inks
inline
inner
input
inputs
insensitive
insert
inset
inside
insider
insomnia
inspired
instagram
instances
instead
institute
institution
int
integer
integrity
intended
intermediate
internal
international
internationalized
internet
internetarchivebot
interscope
interview
interviewer
interviewerlist
interviewers
interwiki
intials
intl
into
intro
introduces
introduction
invalid
invalidating
invalidtypeerror
invariant
invent
inventor
inventorlink
inverted
invisible
invocations
invoke
invoked
inə
ip
ipairs
ipin
ipm
iprage
ipsec
ipv
iqtəsa
ir
ira
iran
iranblog
iranian
iranianuk
iranica
iranicaonline
iranintl
iranjib
iranshahrpedia
iraq
irda
iribnews
irishman
irna
iron
irresistible
is
isan
isbn
isc
iscollapsed
islam
islamic
ismn
isn
isna
isnotempty
iso
isoglosses
isolate
isplural
isse
issmall
issn
issubpage
issubstituted
issue
issued
issues
istemplatepage
istəfa
isxn
isə
it
ita
italic
italics
italictitle
italy
ite
item
itemid
items
iterator
ito
its
itself
itunes
itə
iucn
iv
iveraaaaibaj
ix
izi
izə
j
ja
jack
jaha
jahrbuch
jamaspa
jamejamonline
james
jan
janet
jangalonə
january
japan
jargon
javascript
jay
je
jens
jensi
jewish
jfm
ji
jiga
jill
jioanui
jir
jkn
joe
john
johnson
join
joiner
joins
jonathan
joor
joseph
joshua
journal
jp
jpeg
jpg
jr
js
jstor
juda
jul
julian
july
juma
jun
june
junior
jupiter
jus
just
justify
justin
jə
k
ka
kados
kala
kalisa
kalnan
kam
kamtarə
kan
kana
kandə
kapsul
kapsulan
kareney
kas
kastari
katsiaficas
katə
kayhan
ke
keanu
keep
keeps
kellner
kennedy
kent
kern
kerned
kerning
kes
ketabnews
kev
key
keyboard
keys
keyword
keywords
kgo
khaama
khabaronline
khakshir
khan
khayati
khiar
khomam
khomamnews
khorasan
khorma
khrrboze
khurtav
ki
kia
kill
killed
kilu
kingdom
kingfisher
kis
kiss
kita
klau
know
known
knownflag
ko
kobane
koma
konecki
konin
koonan
koonə
krcjem
kroll
ku
kudan
kune
kuni
kuravi
kurdish
kurdistan
kurds
kurkonə
kus
kuta
kveller
kə
kəlisa
kəma
l
la
laa
label
labelid
labelledby
labeouf
lady
lahidjan
lahijan
lake
laki
lan
land
landscape
lang
langcode
langlc
language
languages
largest
last
lastauthoramp
lastfirst
lastfirsttable
lastn
lastnum
lat
later
latest
latimes
latin
lay
laydate
layout
laysource
laysummary
layurl
lazily
lccn
lcd
ld
lda
le
lead
leading
leads
leap
learn
least
leave
led
lee
left
legend
legi
legitimate
len
length
leo
leonardo
leopard
less
lesson
lessons
let
letter
letterdigit
letters
level
levels
lewis
lf
lh
lhaaaaibaj
li
library
libraryutil
license
life
lifestyle
lifetime
lifetimetv
light
like
lim
limit
limited
limoo
line
lineheight
lines
linguistic
link
linkbox
linked
linkn
links
linksdata
list
listcell
listclass
listed
listen
listing
listitem
listk
listn
listnum
listnums
listparam
lists
liststyle
listtext
little
live
liveweb
lkakə
lkə
ll
lo
load
loaddata
loaded
loader
loc
local
locally
located
location
locations
locator
lock
log
logo
lon
london
long
longer
longmonth
lonə
look
looked
looking
looklex
looks
loop
lorig
los
loses
lou
louis
louvre
love
loved
lover
lower
lowercase
lowestnil
lro
ltd
ltr
lua
luaargs
ludwig
lum
lumenick
luther
lv
lx
lynch
lə
ləgi
ləs
m
ma
machine
maclaren
mad
made
madelung
madkhal
madrid
magazine
magazines
magic
magiran
magnetic
mago
magodeoz
mahsa
mail
mailing
mailinglist
main
maincat
mainnsname
mainprintpage
maint
maintain
maintainers
maintenance
make
makecat
makecategorylink
makeinvokefunc
makeinvokefunction
makes
makestartboxdata
makestartboxlinksdata
maketoolbar
makeurllink
makewikilink
making
maklawan
maklawany
mal
malavan
male
malj
mamali
mamraz
mamrazə
mamulan
man
mana
manba
manga
manglehorn
manson
mantaqanə
mantu
manual
manually
many
map
maplandia
mapped
mapping
mappings
mappingskey
mappingsnsname
maps
mapurl
maqa
maqar
mar
march
margin
margot
marguments
mark
marker
marks
markup
mars
martha
martin
marxists
mary
mashhad
mask
maskn
mass
master
masuleh
match
matched
matches
matchesblacklist
matchestitle
matching
math
mathematical
mathematik
matrix
matthew
maurizio
mausoleum
mava
mavis
max
maxarg
maximum
maxine
maxrut
may
mayo
maza
mbox
mcfeely
mdy
me
mean
meaning
mechanism
media
mediawiki
medical
medicine
medium
meen
meeni
meet
meeva
meevan
meevanə
meeve
meevə
mehr
mehrnews
member
memoized
memory
men
mercury
meredith
merge
mergeargs
mergedrow
mergedtoprow
merkezi
mermaid
mesa
meshhed
mesolithic
mespilus
message
messagebox
messagename
messages
messageskey
messenger
meta
metaargs
metaargskey
metacritic
metadata
metatable
meteorites
methods
metro
metropolitan
mevə
mexican
mexico
mhatnote
mi
michael
middle
middot
might
miguel
mike
mila
milenio
milimetr
military
militaryhistory
millercenter
million
mime
min
minded
mine
mini
minimize
minor
minutes
miquelle
mirfetros
mirror
mirza
miscellaneous
missing
mission
missionary
mit
mitr
mive
miven
mixed
miyan
miye
miyen
miyən
mkelsey
mkfaaaaibaj
ml
mm
mmmm
mn
mnemonic
mo
mob
mobile
mode
modeling
modern
modified
modifier
modify
module
modules
mohamad
mojo
moment
money
montage
montenegrin
month
months
moon
moonan
moons
mor
more
moreargumentsexist
morrone
mosaic
moscow
mosque
most
mostly
motacilla
mother
motonin
mountain
mouse
move
moved
movement
movements
moveprot
movie
movies
moz
mozilla
mp
mprotectionbanner
mr
msg
mshared
msi
msn
mt
mtabletools
mtv
mtx
mu
much
muhandəsi
mult
multi
multipart
multiple
multiply
muna
murder
murqonei
murson
mus
museum
music
must
mustapha
muxtalef
muzes
mw
mx
my
myanmar
mylanguage
mytabs
mzn
mə
n
na
nam
namda
name
named
namelist
namelistformat
names
namesep
namesi
namespace
namespaces
nar
nargil
narm
narrow
narusinsight
nas
nasa
naskh
nation
national
nationalpost
nations
natural
naturalhistory
nature
nav
navad
navbar
navbox
navboxes
navchild
navcontent
navframe
navhead
navigation
navigationbarhide
navigationbarshow
navigationboxesi
navpic
navtoggle
navy
naxanan
nazara
nazi
nb
nbc
nbcnews
nbk
nc
ncbi
ncov
nd
ndash
ndebele
ne
nea
nearly
necessary
need
needed
needle
needs
negative
neighborhoodpreservationcenter
neither
neolithic
neptune
nes
nested
net
netflix
netscape
nettopology
network
networking
networks
never
nevertheless
new
newdiv
newindex
newline
newlines
news
newsalert
newsgroup
newsite
newsnum
newspaper
newspapers
newstext
newusers
next
nextsibling
ni
nicholas
nid
night
nih
nil
nilargs
nilargskey
nima
ninth
niro
niya
niye
nl
nlm
nn
nnnnnn
no
nocat
node
nodes
noflip
noirlab
noiseprn
nom
nomatch
nombre
nominees
non
nonautoscaledimages
none
nonrepudiation
noormags
nopp
norge
normal
normally
north
northern
northwest
not
note
notes
nothing
notice
notracking
novel
november
noviembre
now
nowiki
nowrap
nowrapitems
nowrapping
npr
nps
ns
nsa
nscategory
nsid
nsname
nssdc
nstable
ntimetr
nuevo
null
num
number
numbered
numbers
numconv
numeral
numerals
numeric
numerical
numparam
nums
nv
nymag
nypost
nytimes
nə
o
obj
object
objects
ocalan
occur
occurs
ocean
oceans
ocinsoutput
oclc
ocm
ocn
ocolc
oct
october
octubre
od
odd
oddeven
oddstyle
of
off
offbeat
office
officetally
official
ofi
often
oja
ok
okali
ol
old
olddiv
oldid
oldman
olivierawards
olvidar
omargs
ombox
omit
omitted
on
once
one
ones
oni
online
only
onə
oojs
op
open
opening
openlibrary
option
optional
options
or
oral
orbit
order
ordibehes
org
organization
orienteering
orig
origargs
origargsargname
origin
original
origink
origins
origyear
orphancat
os
osasco
oscar
oscars
osti
other
otherparams
others
otherwise
ou
ouja
our
out
outer
output
outside
outstr
outthere
ouzin
ouə
over
overall
overridden
override
overrides
overruled
overrules
overview
overwritten
owl
owls
own
oxford
oz
p
pa
pacino
pacinos
padding
page
pageid
pagename
pages
pagetype
pahna
pahnvalg
pai
pair
pairs
paiz
paizə
paleolithic
palmas
pan
panic
panja
panoramio
panthera
para
paragraph
param
parameter
parameternames
parameters
paramlink
params
parens
parent
parentheses
parenthetical
parentonly
pargs
paris
park
parse
part
particular
parts
party
pasi
pasiyam
pass
passed
passing
patent
patents
paterno
path
pathfinder
patrizia
pattern
patterns
paul
paxs
payn
pbcs
pbs
pc
pcall
pdf
penn
people
peoplemag
per
percent
performance
period
periodical
periodically
periodicals
periods
perrow
perrowr
persia
persian
person
personal
pertussis
pesci
pesi
peso
peter
petersburg
petski
pframe
pg
phabricator
phil
philip
philosopher
philosophy
photo
photocount
photomontage
photos
photosk
php
physical
physics
pi
pia
pica
pick
pics
picture
piemont
pii
pillə
pipe
pipes
pis
pitch
piya
pkk
pl
place
placeholder
placeholders
places
plain
plainlinks
plainlist
planet
planetarium
planetary
planets
plantilla
plants
play
please
plot
plus
pluto
pmc
pmcs
pmid
pmids
pmn
png
pntype
po
podcast
poet
point
pole
political
politics
ponza
pop
popcrush
popular
populates
population
por
port
portals
portion
portions
portrait
pos
position
positional
positive
possible
possibly
post
postscript
pp
pr
practice
pre
preceded
preceding
predloga
preface
preferred
prefix
prefixedtext
prefixtable
preload
premier
premiere
preprocess
preprocessargs
preprocesssinglearg
preps
present
presentation
presentationaccess
preserve
president
presidents
press
pressman
presume
pretitle
prevent
prevents
preview
previous
previously
prey
pride
primarily
primetime
print
printable
printblurb
printing
printtitle
private
probably
problem
proceeds
process
processed
processing
processitem
produces
producing
product
production
profile
program
programs
progressive
project
projects
prop
proper
properly
properties
protect
protected
protection
protectionlevels
protests
protocol
provide
provided
provides
province
provinces
ps
pseudo
pt
ptr
pub
public
publication
publicationdate
publicationplace
publications
published
publisher
publishername
publishers
publishing
pubmed
puc
puerto
pulakə
punctuation
pur
purge
purports
purposes
purreza
purtal
pus
put
putanə
putene
px
pyd
q
qa
qahvei
qalame
qarbə
qas
qaza
qazvin
qda
qinu
qiya
qorba
qoum
qovvə
quadrimester
quarter
que
quentin
quercus
query
quotation
quote
quoted
quotes
qutr
qux
qəs
r
ra
rabino
radio
radiofarda
radiotimes
radius
rainn
rajeb
ram
ramparts
rang
range
ranges
rank
ras
rasanan
rasanə
rasht
rate
rather
ratio
raves
raw
rawexpiry
rawset
razzie
razzies
rboles
rd
re
reactions
read
readability
ready
real
really
reason
reasons
reassemble
rebel
receive
recognized
recommended
reconstruction
reconstructionera
record
recordings
records
recordworldmagazine
recruit
red
redirect
reduce
redundant
reeves
ref
refanderson
refbegin
reference
references
referencing
reformat
regardless
regex
regexp
regexps
reggiani
region
regions
registered
registrant
registration
regular
reindeer
rekishi
related
relationship
relative
release
released
releases
relevant
religion
remap
remaplang
removalnotice
remove
removeblanks
removed
removes
render
renderaboverow
renderbelowrow
rendered
rendering
rendernavbar
renders
renderstartbox
renderstartboxlinks
rendertrackingcategories
renewed
reng
rep
repeat
repetitions
replace
replaced
replacement
replaces
report
reported
reporter
reports
representing
repu
republic
request
requested
require
required
requires
res
research
reset
resource
respectively
respiratory
rest
result
resulting
results
ret
retrieved
return
returned
returning
returns
reuse
reused
rev
review
reviews
revolucio
revolution
revolutionary
reza
rfc
rfi
rft
rg
rgb
ri
richard
ridder
ridge
ridley
riga
right
righteous
rights
ring
ris
river
rivera
riya
riz
rks
rl
ro
road
robbie
robert
roberto
robin
roger
rogerebert
rojava
role
rolling
rollingstone
roman
romanization
ron
roni
ronə
room
rooster
root
rootkit
ros
rosalia
rotbe
rotten
rottentomatoes
roudkhan
rous
route
router
routledge
row
rowargs
rowclass
rowcount
rowid
rownum
rownums
rows
rowspan
rowstyle
royal
rtl
ru
rudbar
rugby
ruj
rule
rules
run
rus
rvan
rə
s
sa
sabbath
safe
safhe
sale
sales
salome
samand
same
samurai
san
sana
sanati
sanchez
sandbox
sandboxlinks
sandboxpreload
sandboxtitle
sandison
sandler
sangə
sanremo
sans
santa
santiago
sar
sara
sard
sardə
sars
sarshomari
sativa
saturn
save
saved
savz
savzə
say
says
sbmu
sbox
sc
scale
scan
scandal
scarface
scars
scheme
school
schools
schuster
sci
science
sciences
scientific
scope
scorsese
scorseses
scott
screen
screencrush
screenshot
scribunto
script
scripta
scriptchapter
scripts
scripttitle
se
sea
search
searches
searchlight
season
seasons
sebata
sec
second
sect
section
sections
sectionurl
security
see
seem
seen
segment
segments
select
selected
self
selfclosing
selfref
semi
semicolon
sep
separate
separated
separator
separators
sepc
september
septuagenarian
sequence
sequences
sequential
ser
serial
series
serieslink
seriesno
seriesnumber
serif
server
service
services
set
setattribute
setmetatable
sets
settembre
setting
settings
seven
seventh
several
sexual
sha
shadow
shahrhaye
shall
share
shared
sharing
she
sheet
sheets
shen
shia
shift
short
shortcut
shorter
shortmonth
should
show
showautocollapse
showid
showinvalidtypeerror
shown
shownews
shows
shtml
si
sib
sid
side
sidebar
sign
signal
signed
signs
silver
similar
similarly
simon
simple
since
single
sinhala
sioni
siprage
sister
site
sitioweb
situation
siva
six
sixth
siya
siyahkal
siyun
size
sizing
sjid
skin
skins
skip
sko
sl
slash
small
smaller
smallparam
smalltext
smile
smith
smtp
snapshot
snippets
snub
so
social
socialflow
socialism
society
soft
software
solar
solid
solution
some
something
sometimes
sommer
son
song
sort
soundtrack
source
sources
south
southern
space
spaced
spaces
spacing
spain
span
spanish
sparingly
sparseconcat
special
specialevents
specials
species
specific
specified
specifies
specify
spector
speech
speedy
spellbound
spelling
spin
split
splitting
spoilers
sport
spring
springer
sputnikmusic
spy
sq
square
sr
src
ssi
sslid
ssrn
ssrns
st
stabilitysettings
stacked
stage
standalone
standard
staples
star
stars
start
startbox
starts
state
states
static
stating
station
statistics
status
ste
steady
step
steve
steven
still
stm
stockholm
stone
stonesentinels
stops
store
story
str
straits
straitstimes
strange
street
string
strings
stringtoformat
strip
striped
striping
stripmarker
stripmarkers
stripped
strong
structure
studies
studio
style
styled
styleratio
styles
styling
su
sub
subdomain
subgroup
subheader
subheaderrowclass
subheaderstyle
subject
subjectlink
subjectns
subjectspace
subpage
subpageno
subpageonly
subpages
subscription
subscriptionrequired
subst
substitute
substring
subversion
success
such
suffix
suffixes
suggest
suggested
suggestion
suggestions
summary
summer
sun
sunday
suntimes
suomen
suppl
supplementary
supplemented
supplied
support
supported
supports
suppose
suppress
suppressed
suppresses
suppression
surate
sure
surface
surname
surnames
surx
susan
susuei
suttə
sv
svenska
svg
sweden
swedish
sweeps
sweet
sydney
symptoms
syntax
syria
syrian
sysop
system
sə
t
ta
tab
tabid
table
tablei
tableindex
tableroot
tablerow
tables
tabletools
tabnak
tabor
tag
tagging
tagname
tags
tahoma
taibo
tail
take
taken
takes
taking
talesh
taleshen
talk
talkargistalkpage
talkpagetitle
talktext
talktitle
tamin
tan
tanə
taqriban
tar
tarantino
target
tarin
tarzan
tarə
tasnimnews
tatha
tati
tava
tax
taxon
tay
taylor
tbilisi
tbl
tcd
tcoins
tcommon
tcp
td
te
tea
team
teaser
tebyan
technical
technically
technology
techreport
teheran
tehran
telegram
telegraph
temp
templat
template
templatecat
templatecategory
templatecategoryrequirename
templateeditor
templateerrorcategory
templatelink
templatename
templatepage
templates
templatesort
templatestyles
templatetitle
temporary
terminal
terminate
terminated
terminator
terrestrial
test
testcases
testcaseslink
testcaseslinkdisplay
testcaseslinks
testcasespreload
testcasestitle
tested
testing
tests
tev
texas
text
textalign
textbook
textbooks
textcell
textcelldiv
textstyle
th
than
that
the
theactorsstudio
theatre
theguardian
their
them
themselves
then
there
these
thesis
they
thing
things
think
thinking
thinks
third
thirteen
this
thisrow
thomas
thomson
those
though
three
through
thumb
thumbcaption
thumbinner
thumbtime
thumbtimestr
ti
tica
tidiedval
tidyval
tif
tifda
tifika
tifə
tiger
tigers
tigris
tima
time
timecaption
timeline
times
timestamp
tinn
tinə
tire
titen
titi
title
titlearg
titlebar
titlecell
titleclass
titlecolspan
titlegroup
titlelink
titleobj
titleparts
titlerow
titles
titlestyle
titletype
titolo
tk
tl
tld
tlds
tleft
tlx
tmbox
tmulti
tnavbar
tnone
to
tobacco
today
todays
todo
together
tokyo
tolstoy
tom
tomato
tomatoes
tomb
ton
tonumber
too
tool
tools
top
topic
topics
topimage
topology
torig
torre
tostring
total
tour
tourist
tousanə
tower
town
tp
tr
trachemys
track
tracker
tracking
tracy
trailer
trailing
trans
transchapter
transcluded
transcludes
transcluding
transcript
transcripturl
translate
translated
translatenext
translation
translations
translator
translatorlist
translators
transmedia
transparent
transwiki
trappist
travel
travers
treat
treated
treatment
tree
trick
tricked
trim
trimandaddautomaticnewline
trimwhitespace
trinity
troll
trow
true
try
tt
ttep
tu
tucson
tul
tuli
tulo
tund
turn
turns
tus
tuska
tuxmon
tv
tvline
tweets
twelve
twitter
two
twsene
txus
type
typedata
types
typescite
typewriter
typically
typing
tə
u
ua
ub
ui
uk
ul
ulmus
ultracool
ulysses
uma
umale
umr
un
uncategorized
uncertainty
unclosed
uncommon
undefined
under
underrated
underscore
underscores
understand
une
unesco
unfit
unicode
uniform
union
uniq
unique
united
universal
university
unknown
unless
unlike
unmodified
unnamed
unnecessary
unrecognized
unset
unstripnowiki
unsupported
until
unz
unə
up
upcoming
update
updated
upload
uploadwizard
upon
upper
uppercase
upright
ur
uralic
urban
urdan
uri
url
urlarchivio
urlmorto
urls
us
usa
usage
usatoday
use
usecollapsibletextfields
used
useful
usenet
usenetid
user
userbox
userboxes
usercategory
usergroups
usernames
users
userskinpage
uses
usescurrenttitle
usgrant
usgs
using
ustring
usually
usurped
utc
utf
util
utilities
utility
utm
v
va
vaccine
vague
vaha
vahs
val
valarray
valgey
valgon
valgonə
vali
valid
validate
validates
validation
valley
valparai
valparaiso
vals
valsv
value
valuefunc
values
valuetofind
van
vanc
vancouver
vanityfair
var
varesh
variable
variables
variant
variations
variety
various
varjə
varka
vary
varzi
varə
vas
vasi
vauthors
vaxti
vcd
ve
veditors
vehare
vehrka
venice
venom
venus
venusfact
ver
verb
verk
veroci
verr
version
versions
vertical
vevo
vi
via
video
vie
view
viewedithistorypurge
viewing
views
vikitolish
village
villagevoice
vir
vira
virgule
virus
vis
visible
visited
visits
vista
visual
visualeditor
viye
voanews
vogue
voice
vol
volume
von
voz
vparam
vr
vrc
vrka
vulture
vurk
vxxxxors
vyras
vərzes
w
wa
wac
wair
wall
wallst
wanadoo
wang
want
war
warg
warner
warning
was
washington
washingtonpost
watch
water
waterfall
way
wayback
wd
we
web
webarchive
webcitation
webkit
website
webster
week
weekly
weight
well
wer
were
werg
wero
werwolf
west
western
wgbh
wgnamespacenumber
wgpagename
what
whatever
whats
when
where
whether
which
while
white
whitelist
whitespace
who
whoaisnotme
whole
whose
why
wick
wide
width
widthmax
widths
widthsk
wife
wiki
wikicode
wikidata
wikilink
wikilinked
wikilinks
wikimarkup
wikimedia
wikiminiatlas
wikinews
wikipedia
wikipedias
wikipedija
wikiquote
wikis
wikisource
wikitext
wikitionary
wiktionary
wild
wildcard
wilde
wildlife
will
william
williams
wilson
windfuhr
window
winner
winners
winning
wins
winter
wintype
wish
with
within
without
wl
wo
wolf
woman
women
womens
won
word
words
work
workaround
working
works
world
worldbook
worldcat
worldometer
worldometers
worlds
would
wp
wrap
wrapped
wrapper
wrappers
wrapping
wraps
write
written
wrong
wryk
wuhan
wulf
wustrow
wwikipedia
www
wyrk
x
xa
xi
xico
xid
xir
xix
xl
xlate
xls
xlsx
xml
xn
xojə
xpm
xref
xu
xujir
xurda
xurdani
xurs
xurum
xus
xx
xxx
xxxxor
xxxxors
xəyli
y
ya
yaani
yad
yahoo
yak
yam
yani
yate
ye
year
yearbook
years
yel
yellow
yes
yesno
yet
yi
yjc
ymd
york
you
your
youth
youtube
ypg
ypj
ysdaaaaibaj
yy
yyy
yyyy
yə
z
za
zaba
zam
zamat
zamatə
zamboanga
zard
zazaki
zazakiye
zbl
zbmath
ze
zeenə
zelkova
zemet
zentralblatt
zero
zevan
zh
zhang
zi
zindigi
ziya
zone
zu
zumsonə
zımey
zə
{
|
}
~
§
«
¬
­
°
±
´
·
»
×
÷
ø
ŋ
ƿ
ƿǆ
ǆ
ɏ
ə
ən
ʿ
ˇ
ˈ
˘
̀
́
̂
̃
̄
̆
̇
̈
̉
̊
̌
̓
̔
̣
̧
̨
̯
͂
α
ε
η
ι
ν
ς
вскии
дор
достое
ж
и
к
лович
миха
н
п
фе
х
ч
шаблон
я
ө
،
؛
؟
ء
ا
اا
اب
ابا
اباد
ابادكپورچال
اباذر
اباذری
ابان
ابتدا
ابتداي
ابتدايي
ابتدای
ابتدایی
ابتلا
ابتهاج
ابتکار
ابداع
ابدنگسر
ابر
ابراز
ابران
ابرانه
ابراهيم
ابراهیم
ابراهیمی
ابرو
ابرکوه
ابری
ابریشم
ابریشمه
ابریشمی
ابزار
ابزاران
ابزارو
ابزاری
ابعاد
ابمال
ابن
ابهام
ابهر
ابو
ابوالحسن
ابوالفتح
ابوالفضل
ابوالقاسم
ابوذر
ابوریحان
ابوسعید
ابوطالب
ابوموسی
ابونصر
ابي
ابچه
ابۊالعباس
ابۊعلي
ابۊمنصۊر
ابی
ات
اتا
اتاق
اتاقسرا
اتاقور
اتباع
اتحاد
اتحاده
اتحاديه
اتحادیه
اتر
اتران
اتره
اترک
اتش
اتشارات
اتصال
اتصالي
اتفاق
اتفاقات
اتفاقی
اتمام
اتمي
اتمی
اتنو
اته
اتهام
اتو
اتوماتیک
اتویی
اتي
اثار
اثر
اثره
اثرو
اثری
اثير
اثیر
اجاره
اجارود
اجازه
اجبار
اجباری
اجتماع
اجتماعي
اجتماعی
اجتمايی
اجحاف
اجداد
اجدادی
اجرا
اجرای
اجرایي
اجرایی
اجساد
اجماعگرا
اجناس
اجنبی
اجند
اجور
احترام
احتمال
احتمالا
احتمالن
احتياج
احتیاج
احداث
احرار
احراز
احزاب
احساس
احساسات
احسان
احسانبخش
احضار
احمد
احمدا
احمداباد
احمدبن
احمدخان
احمدخانه
احمدزاده
احمدسرگۊراب
احمده
احمدی
احوال
احيا
اخبار
اختراع
اختران
اختصار
اختصاص
اختصاصی
اختفا
اختلاف
اختلافات
اخته
اختيار
اختيلاف
اختیار
اختیارات
اختیاری
اخذ
اخر
اخراج
اخرین
اخلاق
اخلاقه
اخلاقی
اخم
اخوان
اخیر
اد
ادا
اداب
اداران
اداره
اداري
اداری
ادامه
ادب
ادبي
ادبيات
ادبی
ادبیات
ادبیاته
ادرار
ادريس
ادریسی
ادعا
ادعای
ادغام
ادم
ادو
ادوارد
ادویه
ادیان
ادیب
اذي
اذیت
ار
ارا
اراك
اراي
اراک
ارباب
اربابو
اربابی
ارباستان
اربه
اربوسرا
ارتباط
ارتباطات
ارتباطي
ارتباطی
ارتش
ارتشی
ارتفاع
ارتفاعات
ارتقا
ارتودوکس
ارث
ارجاع
ارجاعان
ارجمند
ارد
اردبیل
اردبیلی
اردستان
اردشير
اردشیر
اردشیری
اردل
اردلان
اردن
ارده
اردو
ارديبهشت
اردک
اردکان
اردیبهشت
ارزش
ارزوي
ارزىابي
ارس
ارسال
ارست
ارسطۊ
ارسلان
ارسنجان
ارسو
ارسی
ارشاد
ارشد
ارشق
ارطه
ارغوان
ارفع
ارقامي
ارم
ارمنستان
ارمنيي
ارمنی
ارميتاژ
ارنست
ارنستو
اره
اروت
ارومیه
اروپا
اروپایی
اريس
اريك
اريه
ارژنگ
ارکستر
ارکستری
ارکم
ارگ
اریه
از
ازا
ازاد
ازادی
ازازيل
ازای
ازدواج
ازدياد
ازديواج
ازشمال
ازنا
ازنو
ازنی
ازون
ازگله
اس
اساتید
اساس
اساسی
اسالم
اسامي
اسامی
اسب
اسباب
اسبق
اسبو
اسبوي
اسبوکلا
است
استاتيک
استاد
استادان
استادبوم
استار
استارا
استالين
استان
استانبول
استانتو
استانتون
استاندار
استاندارد
استانداردي
استانداری
استانی
استبداد
استثمار
استخدام
استخر
استخراج
استخرسر
استخرپشت
استدلال
استدلاله
استرا
استراتژي
استراتژی
استراتژیک
استراحت
استراسبرگ
استراسبۊرگ
استريت
استریش
استعداد
استعدادا
استعداده
استعفا
استعفانامه
استعمار
استعمال
استفاده
استقامت
استقبال
استقرار
استقلال
استقلالا
استقلاله
استل
استمراري
استناد
استه
استهبان
استو
استوا
استوانه
استور
استونی
استوکهولم
استيفاده
استيقبال
استيقلال
استيل
استيو
استيون
استیشن
اسحاق
اسحاقوند
اسحاقوندو
اسحاقوندی
اسحاقی
اسحاقیه
اسد
اسدا
اسدالله
اسداله
اسدی
اسرار
اسراي
اسرايل
اسسو
اسطلخ
اسطوره
اسفار
اسفاهي
اسفراين
اسفراین
اسفناج
اسفند
اسفندار
اسفندان
اسفنديار
اسفندیار
اسفندیاری
اسفیورد
اسكاتلند
اسكله
اسكندر
اسلام
اسلامشهر
اسلامي
اسلامی
اسلامیه
اسلاگس
اسلحه
اسم
اسما
اسماعيل
اسماعیل
اسماعیلی
اسمایيل
اسمه
اسميت
اسناد
اسنۊکر
اسه
اسهال
اسو
اسيابسر
اسيد
اسير
اسيرو
اسپانيا
اسپانیا
اسپانیایي
اسپانیایی
اسپانیایین
اسپانیاییي
اسپندار
اسپهبد
اسپهبدان
اسپهبديه
اسپو
اسپوتسیلوانیا
اسپي
اسپيراوا
اسپکتو
اسپی
اسپیسي
اسکابن
اسکات
اسکاتسدیل
اسکاتلند
اسکار
اسکان
اسکانديناوي
اسکاندیناوی
اسکای
اسکن
اسکناس
اسکندر
اسکندربیک
اسکندري
اسکو
اسکی
اسیابسر
اسیب
اسیر
اش
اشاره
اشان
اشانا
اشانه
اشت
اشتبا
اشتباه
اشتراک
اشتراکي
اشتراکی
اشتركان
اشتغال
اشتها
اشتهارد
اشتو
اشتی
اشخاص
اشراف
اشرافی
اشراق
اشرف
اشرفی
اشرفیه
اشعار
اشغال
اشلسویگ
اشمان
اشن
اشند
اشنه
اشنویه
اشىا
اشپل
اشپلا
اشک
اشکال
اشکاني
اشکانی
اشکانیان
اشکذر
اشکنان
اشکور
اشکورات
اشکوری
اشکيک
اشیا
اشیاء
اشیان
اشیای
اصالت
اصالتا
اصرار
اصطخر
اصطلاح
اصطلاحا
اصطلاحات
اصغر
اصفهان
اصفهاني
اصفهانی
اصل
اصلاح
اصلاحات
اصلاحي
اصلاندوز
اصله
اصلو
اصلي
اصلی
اصلیه
اصول
اصیل
اضاف
اضافا
اضافه
اضافی
اضطرار
اطاعت
اطاق
اطاقور
اطراف
اطرافیان
اطفال
اطلاع
اطلاعات
اطلاعاتا
اطلاعاته
اطلاعاتي
اطلاعاتی
اطلاق
اطلس
اطمينان
اطمینان
اظهار
اعتبار
اعتراض
اعتراضات
اعتراضان
اعتراضي
اعتراضی
اعتراف
اعتصاب
اعتقاد
اعتقادات
اعتقادی
اعتماد
اعداد
اعدام
اعداما
اعدامو
اعراب
اعزام
اعصاب
اعضا
اعضای
اعطا
اعظم
اعلا
اعلام
اعلاميه
اعمال
اعیان
اغا
اغلب
اغوز
اغوزبن
اغوزچال
اغوزگله
اف
افتتاح
افتخار
افتخارات
افتخاري
افتخاری
افتو
افخم
افرا
افراتخت
افراد
افرادی
افراشته
افراکتی
افروز
افزار
افزاران
افزایش
افزر
افسانه
افسر
افسران
افسرو
افسری
افسوس
افشا
افشار
افشان
افشین
افعال
افغانستان
افق
افلاتۊن
افي
افکار
اق
اقامت
اقامتی
اقایه
اقبال
اقتباس
اقتدار
اقتصاد
اقتصاددو
اقتصادسنجی
اقتصادي
اقتصادی
اقدام
اقدامات
اقدامي
اقدامی
اقدسیه
اقرار
اقسام
اقل
اقليم
اقلیت
اقلید
اقلیم
اقوام
اقیانوس
اكبر
ال
الا
الاخبار
الاسلام
الالان
الان
الانه
الانی
البته
البرز
البلاد
البورز
البۊرز
التجار
التحصيل
التحصيلان
التحصیل
التشريعي
التهاب
الثاي
الجاقیا
الجزاىر
الحاق
الحرمین
الحسن
الحسین
الحق
الحلفاء
الخط
الدو
الدوله
الدين
الدین
الزمان
الزهرا
السلطان
السلطنه
السیاسة
السیر
الشعرای
الشیعه
الصيدنه
الطافی
الطوایفی
العابدين
العابدین
العاده
العربيه
العلماء
العماره
العمل
الف
الفبا
الفلسطيني
الل
اللملی
الله
الماس
المان
المثل
المجلس
المدنیه
الملل
المللي
المللی
الملوک
الملک
الممالک
المهدی
الموت
المپیک
الن
الندان
النكهات
النهار
النهرىن
النهرین
الني
اله
الهام
الهامی
الهدا
الهدی
الهه
الهی
الهیات
الهیه
الو
الوند
الي
اليستو
اليو
الکبیر
الکترو
الکترونیک
الکترونیکا
الکترونیکی
الکتريکي
الکتریک
الکتریکی
الکتورال
الگو
الگوهای
الگوی
الی
الیبیلر
الیزابت
الیسوز
الیگودرز
ام
اما
امارات
اماردان
امارلو
امام
امامزاده
امامزادگان
امامعلی
امامه
امان
امانی
اماکن
امتحان
امتناع
امتياز
امتيازو
امتیاز
امجد
امر
امرا
امرار
امره
امروج
امروز
امروزه
امروزي
امروزی
امرۊ
امرۊز
امرۊزه
امریکا
امسال
امشب
امشه
امضا
امضابوده
امضای
امكانات
املاک
املش
املشی
امما
امن
امنيت
امنيتي
امنیت
امنیتي
امنیتی
امه
امو
امواج
اموال
امواله
امور
اموزش
امون
امونده
امویی
امویید
امي
امير
اميراسحاق
اميره
اميرکيا
اميری
امين
اميني
امپراتور
امپراتوران
امپراتوری
امپراتۊر
امپراتۊري
امپراليسم
امکان
امکانات
امۊر
امی
امید
امیدبخش
امیدوارم
امیدیه
امیر
امیرا
امیرحسین
امیرخسروی
امیرشهر
امیرما
امیرمنصور
امیره
امیرو
امیرکبیر
امیرکلا
امیری
امیریه
امین
امینی
امینیان
ان
انا
انار
انارستان
انبار
انبارو
انبوه
انتحار
انتحاري
انتخاب
انتخابات
انتخاباتی
انتخابي
انتخابی
انتشار
انتشارات
انتصاب
انتظار
انتظامی
انتفاعی
انتقاد
انتقادان
انتقادو
انتقادي
انتقادی
انتقال
انتقالي
انتقالی
انتقام
انتها
انتهای
انجام
انجمن
انجو
انجومن
انجيل
انجۊمن
انجیر
انجیل
انحراف
انحصار
انحصاري
انحصاری
انحطاط
اند
انداز
اندازه
اندازی
اندام
اندامی
اندر
اندرسون
اندرو
اندرونی
اندرۊس
اندونزي
انديشه
اندی
اندیشمند
اندیشه
انرژي
انرژی
انرژیه
انزان
انزل
انزلي
انزليه
انزلی
انزلیچی
انزوا
انسان
انسانشناسي
انساني
انسانگرا
انسانی
انسجامه
انشارات
انشایی
انصاری
انصاف
انفجار
انفرادی
انقراض
انقلاب
انقلابم
انقلابه
انقلابي
انقلابيۊن
انقلابی
انقلابیان
انم
انن
انني
انه
انوار
انواع
انوش
انوشیروان
اني
انکارتا
انکارناپذيري
انکی
انگاره
انگشتدان
انگشتی
انگلس
انگلستان
انگلیس
انگلیسی
انگوت
انگور
انگوشتو
انگيز
انگيزه
انگیز
انگیزه
انی
انیمیشن
انیژدون
اه
اهالی
اهتمام
اهدا
اهداف
اهر
اهل
اهلمرستاق
اهلی
اهميت
اهمیت
اهنگ
اهنگر
اهنگركلا
اهنگرکلا
اهو
اهواز
اهی
او
اواخر
اواری
اواز
اواسط
اوايل
اوایل
اوب
اوباش
اوت
اوتاق
اوتاقو
اوتویی
اوج
اوجا
اوجه
اوجور
اوخان
اوخری
اودا
اودلاجان
اورا
اوراقه
اورال
اوردوگاه
اوردک
اورزا
اورشین
اوره
اوروشواره
اوروپا
اوروپایی
اوروپپا
اوروپپایی
اوز
اوزرود
اوسا
اوساده
اوستا
اوستاد
اوستادان
اوستادانی
اوستادو
اوستادی
اوستان
اوستانان
اوستانداری
اوستانو
اوستایا
اوستایی
اوسه
اوسي
اوسی
اوشان
اوشانا
اوشانه
اوشانی
اوشت
اوشنه
اوشو
اوشون
اوشیان
اوضاع
اوطاق
اوطرف
اوقات
اول
اولا
اولان
اولجایتو
اولسر
اولمک
اوله
اولویت
اولي
اولين
اوليه
اولی
اولین
اولیه
اومد
اون
اونا
اونم
اونه
اونو
اوني
اونکه
اونی
اوول
اوولي
اوولين
اوولی
اوىندر
اوي
اويرا
اوين
اويه
اوپسالا
اوچ
اوکوف
اوی
اویا
اویتا
اویته
اویجه
اویرا
اویری
اوین
اویه
اىجين
اىنه
اي
اياسو
ايالات
ايالت
ايالتان
ايالتو
ايالتي
ايبتدايي
ايبتهاج
ايبري
ايبهام
ايبورد
ايبچه
ايت
ايتا
ايتاليا
ايتاليايي
ايتحاد
ايتفاق
ايته
ايتو
ايثار
ايجاد
ايجازه
ايجاناىي
ايجايي
ايجباري
ايجتماعي
ايجرا
ايجو
ايجور
ايجۊر
ايختلاف
ايخراج
ايداره
ايدامه
ايدفه
ايده
ايدي
ايراده
ايران
ايرانا
ايرانه
ايراني
ايرانيي
ايرانيکا
ايرانی
ايرج
ايرلند
ايرلندي
ايره
ايرو
ايزدواج
ايسا
ايسابيد
ايسابۊ
ايسابۊد
ايساده
ايسان
ايساي
ايستراديو
ايسترو
ايستفاده
ايستقبال
ايستقلال
ايستي
ايستيفاده
ايستيکان
ايستگا
ايستگاه
ايسد
ايسده
ايسسن
ايسسه
ايسقبال
ايسلام
ايسلامي
ايسم
ايسمار
ايسن
ايسنه
ايسنگه
ايسه
ايسيد
ايسپانيا
ايسپانيايي
ايسپانيایي
ايسپي
ايسکالی
ايسکانديناوي
ايسکناسو
ايسگا
ايشا
ايشاره
ايشان
ايشتاوستن
ايشتو
ايشماردن
ايشو
ايشکن
ايشکور
ايصالت
ايصطلاحن
ايصلاح
ايضافه
ايطلاعات
ايطو
ايفا
ايقتصاد
ايقتصادي
ايقدامات
ايلات
ايلجار
ايلخانان
ايلنا
ايله
ايليا
ايلينوی
ايليچ
ايما
ايمارت
ايمام
ايمامت
ايمامزاده
ايمامي
ايمان
ايماگاوا
ايمتحانو
ايمتداد
ايمتياز
ايمتيازي
ايمرۊ
ايمضا
ايمن
ايمه
ايمىل
ايمىلو
ايمي
ايمکو
اين
اينا
اينتا
اينتخاب
اينترنت
اينترنتي
اينتشار
اينتشارات
ايندر
اينسان
اينساني
اينستاگرام
اينسو
اينفجار
اينفو
اينقلاب
اينقلابي
اينكه
اينميوجی
اينه
اينو
اينکه
اينگاره
اينگسليسي
اينگليسي
اينگليسی
اينگه
اينگيلسي
اينگيليس
اينگيليسي
اينگيليسيا
اينگيليسيي
ايوار
ايواردي
ايوان
ايوانز
ايوانه
ايپچه
ايکس
اپرا
اپوستروف
اپيس
اپیزود
اچ
اچسیر
اژدها
اک
اکباتان
اکبر
اکبریه
اکتبر
اکتیو
اکثر
اکثرا
اکثرن
اکثریت
اکران
اکرم
اکستنشن
اکسپلوري
اکسیدان
اکسیر
اکنون
اکوادو
اگ
اگر
اگرم
اگرچه
اگزوز
اگه
اۊ
اۊبۊنتۊ
اۊت
اۊتاق
اۊتاقو
اۊتريش
اۊته
اۊتۊبۊسي
اۊتۊل
اۊتۊلان
اۊتۊلي
اۊجالان
اۊجه
اۊجۊر
اۊخو
اۊرا
اۊراسيا
اۊرانۊس
اۊرۊميه
اۊرۊپا
اۊرۊپاىي
اۊرۊپايي
اۊرۊپایي
اۊرۊپایی
اۊسا
اۊساده
اۊساني
اۊسانيد
اۊستا
اۊستاد
اۊستاسرا
اۊستان
اۊستانان
اۊستاکار
اۊستو
اۊسسان
اۊسه
اۊسي
اۊسکار
اۊشا
اۊشان
اۊشانه
اۊشاني
اۊشو
اۊقىانۊس
اۊقىانۊسي
اۊميد
اۊمید
اۊن
اۊنا
اۊنم
اۊنه
اۊني
اۊنگه
اۊىندر
اۊىه
اۊيته
اۊيه
اۊچين
اۊکتۊبر
اۊکراين
اۊکراین
اۊیه
ای
ایا
ایاسو
ایالات
ایالت
ایالتان
ایالتو
ایالتی
ایام
ایبار
ایبتدایی
ایبهام
ایبچه
ایبچی
ایت
ایتا
ایتالیا
ایتالیایی
ایتالیک
ایتفاق
ایتفاقان
ایته
ایتو
ایتیفاق
ایجاد
ایجازه
ایجانایی
ایجاناییه
ایجایی
ایجباری
ایجرا
ایجرود
ایجور
ایحتییوجی
ایختصاص
ایختلاف
ایختیور
اید
ایداره
ایداریه
ایدالگو
ایدامه
ایده
ایذه
ایرا
ایراد
ایران
ایرانا
ایرانخودرو
ایراندوست
ایرانشهر
ایرانن
ایرانه
ایراني
ایرانی
ایرانیا
ایرانیان
ایرج
ایرلند
ایرلندی
ایرنا
ایرو
ایرون
ایزدخواست
ایزدیي
ایس
ایسا
ایسابو
ایسابود
ایسابون
ایسابید
ایساده
ایساي
ایست
ایستراحت
ایستفاده
ایستقلال
ایسته
ایستگاه
ایستیضاح
ایستیفاده
ایسد
ایسده
ایسسن
ایسسه
ایسفند
ایسلام
ایسلامشهر
ایسلامی
ایسم
ایسمان
ایسمه
ایسمی
ایسن
ایسنا
ایسه
ایسي
ایسپانیا
ایسکناس
ایسکندر
ایسی
ایسید
ایسیده
ایسیدی
ایش
ایشاره
ایشاله
ایشان
ایشتاو
ایشتو
ایشو
ایشون
ایشونا
ایصفهان
ایض
ایضافا
ایضافه
ایطلاعات
ایطلاعاتان
ایطلاعاته
ایطیلوع
ایفا
ایفتتاح
ایفتخارات
ایقامت
ایقتصاد
ایقتصادی
ایقتیصاد
ایقدام
ایل
ایلات
ایلال
ایلام
ایلجار
ایلخچی
ایلسبوری
ایلنا
ایله
ایلیا
ایمام
ایمامزاده
ایماگاوا
ایمروزه
ایمروزی
ایمنا
ایمني
ایمکانات
این
اینتا
اینتخاب
اینترنت
اینترنتی
اینترنشنال
اینترکولر
اینتشار
اینجا
اینجه
اینجو
ایندر
اینسان
اینفر
اینقدر
اینقلاب
اینم
اینه
اینکا
اینکه
اینگلیسی
اینگه
اینگیلیس
اینگیلیسي
اینگیلیسی
اینگیلیسیان
ایه
ایوان
ایوانکی
ایواوغلی
ایپچه
ایپچی
ایکس
ایی
ب
با
باب
بابا
بابل
بابلسر
بابلسری
بابلکنار
بابلی
بابي
بابک
بابکو
باتر
باتلر
باتویل
باتيستا
باج
باخبر
باختر
باختری
باختن
باختند
باخرز
باخي
باخی
باد
بادا
بادام
بادان
بادانی
بادرنگ
بادشهرستان
بادمجان
بادنجان
باده
بادي
بادکوبه
بادگير
بادی
بادیها
بار
بارام
باران
باراک
بارتو
باردن
بارده
بارز
بارزه
بارسلو
بارسلونا
بارشا
بارفروش
باره
بارها
بارو
باروق
باروی
باري
بارينتو
بارکشی
باری
باریک
باز
بازا
بازار
بازاران
بازارده
بازارمج
بازارمجان
بازارچه
بازاری
بازاریابی
بازان
بازبینی
بازتاب
بازجویی
بازجۊیي
بازخو
بازخوانی
بازداشت
بازديد
بازدید
بازرسي
بازرسی
بازرگان
بازرگانان
بازرگاني
بازرگانی
بازسازي
بازسازی
بازقلا
بازقلعه
بازم
بازماندگان
بازمیگردند
بازنشست
بازنشسته
بازه
بازو
بازون
بازىابي
بازي
بازيان
بازين
بازيکن
بازيکو
بازيکۊن
بازيگر
بازيگران
بازيگرو
بازيگري
بازيگری
بازکیا
بازکیاگوراب
بازگشت
بازۊن
بازی
بازیا
بازیابی
بازیان
بازین
بازیه
بازیهای
بازیکن
بازیکنان
بازیگر
بازیگران
بازیگری
باس
باستان
باستانشناسان
باستاني
باستانی
باستو
باسكن
باسواد
باسي
باش
باشد
باشر
باشند
باشه
باشي
باشکۊه
باشگا
باشگاه
باشگاهو
باشی
باشید
باصری
باعث
باعيث
باعیث
باغ
باغا
باغان
باغبان
باغستان
باغه
باغهای
باغو
باغي
باغچه
باغی
بافت
بافق
بافي
بافی
باقالا
باقر
باقرخاله
باقرشهر
باقری
باقلا
باقي
باقی
بال
بالا
بالاتجن
بالاتر
بالاترین
بالاخره
بالاده
بالارۊچ
بالالام
بالامحله
بالان
بالای
بالایی
بالتيک
بالتیک
بالحق
بالزاک
بالش
بالغ
بالله
باله
بالو
بام
باما
بامب
بامبو
بامزه
بامفهۊم
بامو
باموته
باموخته
بامۊته
بامۊخته
بان
بانان
باند
بانك
بانه
بانو
بانوان
باني
بانک
بانکان
بانکو
بانکی
بانۊ
بانی
باهار
باو
باوارده
باوجود
باور
باوران
باورد
باوردده
باورده
باورديد
باوردید
باوره
باورو
باوريد
باورید
باىت
باي
بايد
بايه
باک
باکتری
باکس
باکنین
باکو
باکۊ
باکۊنين
باید
بایرن
بایست
بایه
بایگانی
بایی
بب
ببار
ببخات
ببخشه
ببد
ببر
ببرد
ببردن
ببرده
ببردید
ببره
ببريم
ببرید
ببریم
ببست
ببستده
ببسته
ببن
ببه
ببو
ببورده
ببوست
ببوستده
ببوسته
ببوستيد
ببوستیدی
ببوستیه
ببوم
ببون
ببي
ببۊ
ببۊردن
ببۊرده
ببۊن
ببی
ببید
ببین
بت
بتا
بتاشته
بتانست
بتانستده
بتانسته
بتانن
بتانه
بتانید
بترسه
بتلا
بتلاي
بتمن
بتنسته
بتنستید
بتنه
بتنید
بتو
بتون
بتوننی
بتونه
بتۊنن
بج
بجا
بجار
بجارکار
بجارکاري
بجای
بجدم
بجز
بجستان
بجنورد
بجنگسته
بجنگستيد
بجنگستید
بجنگسن
بجنگه
بجو
بجور
بجورترین
بجیر
بحث
بحثه
بحثو
بحر
بحرالعلوم
بحران
بحرىن
بحرین
بحساب
بخ
بخا
بخار
بخارا
بخاستن
بخاسته
بخاطر
بخانده
بخانه
بخانين
بخايه
بختر
بختره
بخترين
بخترین
بختیاری
بخسا
بخش
بخشان
بخشانی
بخشدار
بخشه
بخشي
بخشی
بخصوص
بخو
بخواسته
بخواند
بخوانده
بخوانید
بخواهد
بخور
بخورد
بخورده
بخوره
بخورید
بخی
بد
بدا
بداده
بدار
بدارن
بداره
بداريد
بداری
بدارید
بداشته
بدان
بدانید
بداي
بداييد
بدبخت
بدترين
بدجۊر
بدذات
بدر
بدره
بدس
بدست
بدل
بدلیل
بدن
بدنا
بدنام
بدنسازی
بدنه
بدنيا
بده
بدو
بدون
بدونیا
بدي
بديد
بديعی
بديم
بدين
بدگيل
بدۊزي
بدۊن
بدۊنيا
بدی
بدید
بدیع
بدیعی
بدیم
بدین
بدینید
بذر
بر
برا
برابر
برابره
برابري
برابری
برادر
برادران
برار
براران
برارده
برارزه
برارو
براری
براساس
براسکو
برامز
بران
براندازی
براندو
برانسو
براه
براهام
براي
براکستون
برای
بربری
برت
برتر
برتری
برتو
برج
برجسته
برجه
برخلاف
برخو
برخوار
برخورد
برخوردار
برخي
برخی
برد
برداري
برداری
برداشت
بردخون
بردسکن
بردشاو
بردم
بردن
برده
بردگان
بردید
بررسي
بررسی
برزخا
برزن
برزنگی
برزيل
برزکوه
برزکۊ
برزگرو
برزیگری
برسا
برسانه
برست
برسفت
برسمیت
برسن
برسه
برسو
برسي
برسی
برطرف
برعهده
برعکس
برغان
برغۊثي
برف
برفی
برق
برقرار
برقي
برقی
برلين
برم
برمس
برمسي
برمن
برمه
برمۊجو
برنام
برنامه
برنج
برنجس
برنجکوبی
برنجی
برند
برنده
برنرزلي
برنز
برنو
بره
برهنه
برو
بروان
بروتن
بروجرد
بروجن
برود
بروز
برون
بري
بريت
بريتانيا
بريتانيکا
بريتانیا
بريشم
برپا
برچسب
برکت
برگ
برگان
برگذار
برگرد
برگزار
برگزیده
برگشت
برگمن
برگه
برگو
برگوزار
برگوزاری
برگۊزار
برگۊزارا
برۊس
برۊنگرا
بری
بریتانیا
بریدی
بریندز
بز
بزا
بزارو
بزارۊج
بزاي
بزرگ
بزرگان
بزرگترین
بزرگراه
بزرگی
بزمان
بزن
بزند
بزنم
بزنن
بزنه
بزنيد
بزنين
بزنید
بزنیم
بزنین
بزه
بزونین
بزي
بزين
بزچفت
بزی
بزین
بس
بسا
بسات
بساتته
بساته
بساجي
بساخته
بست
بستان
بستده
بستر
بستري
بستن
بستنه
بسته
بستک
بستگان
بستگی
بستی
بستیدی
بسر
بسرا
بسرعت
بسطام
بسوس
بسي
بسيار
بسياري
بسپو
بسکتبال
بسۊجو
بسی
بسیار
بسیاری
بش
بشار
بشارها
بشاریات
بشای
بشتو
بشدت
بشر
بشرا
بشم
بشمار
بشمن
بشن
بشنا
بشناخته
بشناختید
بشناسید
بشه
بشو
بشومار
بشون
بشي
بشين
بشکست
بشکسته
بشکسه
بشکنه
بشکنی
بشی
بشیر
بشیم
بشین
بصلا
بصورت
بصيرت
بطرف
بطو
بطور
بطوریکه
بعاد
بعثت
بعد
بعدا
بعداز
بعدازظهر
بعدش
بعدن
بعدنان
بعده
بعدها
بعدي
بعدی
بعضي
بعضيان
بعضی
بعضیا
بعضیان
بعلت
بعله
بعلی
بعنوان
بغداد
بغداده
بغوره
بفا
بفروختید
بفروشن
بفروشه
بفرۊشي
بفهمسته
بفهمستید
بفۊرته
بقا
بقال
بقایا
بقایده
بقعه
بقيه
بقیه
بكار
بكشه
بكوشته
بل
بلا
بلارۊس
بلاغ
بلافاصله
بلاک
بلاگ
بلاگفا
بلاگي
بلبل
بلته
بلد
بلدنی
بلده
بلديه
بلدید
بلدیه
بلسبنه
بلسکله
بلسکه
بلشو
بلشویکو
بلعمی
بلفاست
بلقسم
بلك
بلند
بلندی
بله
بلو
بلوا
بلوار
بلورین
بلوز
بلوط
بلوچستان
بلوکات
بلژيک
بلژیک
بلک
بلکه
بلکي
بلۊک
بلۊکات
بلیز
بلیط
بم
بما
بمابو
بماند
بمانست
بمانسته
بمانسه
بمانه
بمانی
بمرد
بمردد
بمردده
بمردن
بمرده
بمردیم
بمه
بمو
بموردن
بمورده
بمۊجم
بمۊرد
بمۊرده
بن
بنا
بناب
بناببو
بنابر
بنابراین
بنابنا
بنابو
بنابۊ
بنابۊبو
بنابۊدن
بناتن
بناجوی
بناده
بنارویه
بنافت
بنالم
بنام
بنان
بنانا
بناهان
بناي
بنايي
بناکو
بناگودن
بناگوده
بناگۊدن
بنای
بنایان
بنایه
بنت
بند
بندان
بندانگشتی
بندبن
بندبون
بندر
بندرانزلی
بندرعباس
بندري
بنده
بندو
بندي
بندپی
بندی
بنزي
بنظر
بنفش
بنفشه
بنم
بنن
بنه
بنواخته
بنوشته
بنويسه
بنويسيد
بنويسين
بنويشت
بنويشتن
بنويشته
بنویس
بنویسن
بنویسید
بنویسین
بنویشت
بنویشته
بني
بنيد
بنيش
بنيشت
بنيشته
بنيم
بنين
بنيويشته
بنک
بنگ
بنگاه
بنگلادش
بنی
بنیاد
بنیان
بنیانگذار
بنیانگذاران
بنید
بنیشته
بنیشو
به
بهاءالسلطنه
بهاباد
بهادران
بهار
بهاران
بهارای
بهارستان
بهاره
بهاری
بهانه
بهبهان
بهبود
بهبۊد
بهتر
بهتره
بهترين
بهترین
بهجت
بهداشت
بهداشتی
بهر
بهرام
بهره
بهروز
بهرۊز
بهزاد
بهشت
بهشتي
بهشتی
بهشهر
بهشهری
بهم
بهمبر
بهمن
بهمنی
بهمي
بهنام
بهنمیر
بهو
بو
بوا
بوان
بوانات
بوب
بوبسته
بوبو
بوبوست
بوبوستن
بوبوسته
بوبوستيد
بوبوستید
بوتان
بوتن
بوته
بوتو
بوتون
بوتونی
بوث
بوجود
بوجور
بوجورتر
بوجورترین
بوجوره
بوجوری
بوخو
بوخور
بوخورده
بوخوردید
بوخوره
بوخونده
بود
بودجه
بودم
بودن
بودند
بوده
بودونیا
بورانی
بورد
بوردن
بورس
بورسوفته
بوروته
بورگ
بوز
بوزرگ
بوست
بوستان
بوستانان
بوستانچی
بوستده
بوستن
بوستندره
بوستنه
بوسته
بوستي
بوستيد
بوستی
بوستید
بوسعید
بوسوخته
بوسيله
بوسیله
بوسیلیه
بوشهر
بوشو
بوشوبو
بوشوي
بوشوييد
بوعلی
بوقا
بوقعه
بوكشه
بوكوشته
بوكوشتيد
بوكوشه
بوكونه
بوكونيد
بوكونين
بول
بولبول
بولتن
بولند
بولندا
بولنده
بولندي
بولندی
بولوار
بوم
بوما
بومه
بومو
بوموده
بوموم
بوموي
بوموييد
بوميان
بومی
بومیان
بون
بونا
بوناگا
بونمان
بونن
بونه
بونگه
بونی
بونیان
بونین
بوه
بوو
بوي
بويه
بوک
بوکان
بوکود
بوکودد
بوکوده
بوکودید
بوکودیدی
بوکوش
بوکوشت
بوکوشته
بوکون
بوکوند
بوکونن
بوکونه
بوکونی
بوکونید
بوکونیم
بوکونین
بوکۊنه
بوگذرانه
بوگذشته
بوگفته
بوگفتيد
بوگو
بوگوبشتو
بوگوبیشتاو
بوگوت
بوگود
بوگودده
بوگوده
بوگوديد
بوگودید
بوگودیه
بوگوذشت
بوگوفته
بوگوفتيد
بوگوفتید
بوگوید
بوی
بویر
بویراحمد
بویه
بویژه
بى
بىاري
بىان
بىتن
بىته
بىرن
بىره
بىن
بىنا
بىنن
بىنه
بىنين
بي
بيا
بيابو
بياتن
بياته
بياجه
بياجيد
بيافتد
بيافته
بيانيه
بيبسيت
بيبه
بيت
بيتز
بيتن
بيته
بيتو
بيتي
بيج
بيجار
بيجاران
بيجاربنه
بيجارسري
بيجاري
بيجه
بيجو
بيجير
بيجيرتر
بيجیر
بيخا
بيخابي
بيد
بيده
بيدوق
بيدي
بيدين
بيدينه
بيدۊق
بيدۊن
بيرجند
بيرمنگام
بيرون
بيريتانيا
بيرين
بيريني
بيرۊن
بيرۊنا
بيرۊني
بيس
بيسا
بيست
بيستم
بيستو
بيستۊن
بيسواد
بيسيت
بيسيست
بيش
بيشتاو
بيشتر
بيشرمانه
بيشنو
بيشه
بيضايي
بيعت
بيل
بيلا
بيلي
بيليارد
بيم
بيمار
بيماران
بيمارستان
بيمارستانان
بيماري
بيماری
بين
بينا
بينه
بينويشته
بيني
بينين
بينيويشته
بيه
بيو
بيوه
بيوگرافي
بيين
بيچه
بيچي
بيگ
بيگي
بيگيتد
بيگيتده
بيگيته
بيگيرد
بيگيره
بيگيفت
بيگيفتد
بيگيفته
بيگيفتيد
بيۊگرافي
بپا
بپخته
بپذيرفت
بپرداخته
بپيوس
بپيوسن
بپۊرسي
بپیوستن
بپیوسته
بچر
بچربا
بچه
بچي
بچين
بک
بکا
بکار
بکارشنه
بکاشته
بکت
بکته
بکر
بکره
بکش
بکشه
بکشي
بکفته
بکنار
بکناری
بکند
بکنده
بکنن
بکنه
بکنین
بکو
بکودن
بکوردی
بکوش
بکوشتن
بکوشته
بکوشه
بکونن
بکونه
بکونيد
بکونين
بکونی
بکونیم
بکۊشتن
بکۊشته
بکۊن
بکۊنم
بکۊنن
بکۊنه
بکۊني
بکۊنين
بگ
بگذارد
بگذرانه
بگرم
بگم
بگنس
بگنه
بگو
بگواس
بگوبشتو
بگوتا
بگوته
بگوده
بگوفته
بگيت
بگيته
بگيرن
بگيريم
بگيفته
بگۊ
بگۊبشتو
بگۊت
بگۊده
بگۊدي
بگیت
بگیته
بگیرم
بگیرن
بگیره
بگیری
بگیریم
بگیفته
بگیم
بۊ
بۊبه
بۊبو
بۊبکر
بۊبۊ
بۊبۊست
بۊبۊسته
بۊبۊن
بۊتابو
بۊته
بۊتو
بۊجنۊرد
بۊجو
بۊخار
بۊخو
بۊخۊرده
بۊد
بۊدايي
بۊدن
بۊده
بۊدو
بۊدۊزاني
بۊرج
بۊرد
بۊردن
بۊرده
بۊرس
بۊره
بۊرژوا
بۊرۊته
بۊریحان
بۊز
بۊستان
بۊستن
بۊسته
بۊشو
بۊشۊن
بۊعلي
بۊفرو
بۊفرۊختن
بۊفرۊخته
بۊقا
بۊل
بۊلحسن
بۊلغارستان
بۊلند
بۊلندي
بۊلوار
بۊليوي
بۊم
بۊما
بۊمحمد
بۊمنصۊر
بۊمو
بۊمي
بۊن
بۊنا
بۊنابۊني
بۊندسليگا
بۊنن
بۊنه
بۊني
بۊو
بۊىا
بۊىه
بۊي
بۊيه
بۊيي
بۊکچىن
بۊکچين
بۊکۊد
بۊکۊدد
بۊکۊدن
بۊکۊده
بۊکۊديد
بۊکۊدید
بۊکۊشت
بۊکۊشتد
بۊکۊشتن
بۊکۊشته
بۊکۊن
بۊکۊند
بۊکۊنم
بۊکۊنن
بۊکۊنه
بۊکۊنيد
بۊکۊنيم
بۊکۊنید
بۊکۊنین
بۊگذرانه
بۊگذشته
بۊگو
بۊگۊ
بۊگۊتد
بۊگۊته
بۊگۊد
بۊگۊدد
بۊگۊده
بۊگۊدي
بۊگۊديد
بۊگۊذشته
بۊگۊفت
بۊیه
بی
بیا
بیابان
بیابانک
بیابانی
بیابست
بیاتن
بیاته
بیارجمند
بیاری
بیافته
بیان
بیانی
بیب
بیبکد
بیبید
بیت
بیتن
بیته
بیتی
بیج
بیجار
بیجارا
بیجاران
بیجاربنه
بیجاری
بیجیر
بیجیری
بید
بیداد
بیده
بیدوق
بیدگل
بیدی
بیدید
بیدین
بیدیند
بیدینه
بیدینید
بیدینیم
بیر
بیربنه
بیرم
بیرمنگهام
بیروت
بیرون
بیرونا
بیرونی
بیرۊن
بیرین
بیرینی
بیزانس
بیس
بیسا
بیست
بیستم
بیستون
بیسه
بیش
بیشتاو
بیشتر
بیشترین
بیشه
بیشید
بیشیم
بیضا
بیضی
بیفزایید
بیل
بیلاخره
بیله
بیلي
بیلی
بیمار
بیماران
بیمارستان
بیمارستانان
بیمارستانه
بیماری
بیماریان
بیمه
بیمو
بین
بینا
بیندیشید
بینه
بینوشته
بینویسین
بینویشته
بینی
بینید
بینیش
بینیشت
بینیشته
بینیشتید
بینیم
بینیوشته
بینیویسه
بینیویسید
بینیویشتان
بینیویشته
بیه
بیهه
بیهینه
بیهینید
بیچاره
بیچه
بیژن
بیک
بیکار
بیکاری
بیگ
بیگانه
بیگفته
بیگلو
بیگم
بیگی
بیگیته
بیگید
بیگیرد
بیگیره
بیگیرید
بیگیفت
بیگیفتد
بیگیفتده
بیگیفته
بیگیفتید
بیگیفتیدی
بیگیفتیه
بیگیم
ة
ت
تا
تاايسه
تاب
تابستان
تابستانان
تابستو
تابش
تابع
تابلام
تابلو
تابلوان
تابلوهان
تابناک
تابه
تابوت
تابکيان
تات
تاتاكاي
تاتاىي
تاتاىيتاتاىي
تاتاي
تاتايي
تاتاييان
تاتايی
تاتایی
تاتي
تاتی
تاثير
تاثیر
تاج
تاجر
تاجران
تاجرو
تاجي
تاجیکستان
تاخیر
تاد
تار
تاراج
تارارا
تاران
تارانتينو
تارزان
تارم
تاره
تاري
تاريخ
تاريخه
تاريخي
تاريخپژۊهو
تاريخچه
تاريخی
تاريکي
تارکو
تاریخ
تاریخا
تاریخه
تاریخچه
تاریخی
تاریخیه
تاریک
تاریکا
تاز
تازه
تازگي
تازگی
تازگیان
تاسيان
تاسيس
تاسیس
تاشكوه
تاشکوه
تاق
تاكدا
تالاب
تالابی
تالار
تالاران
تالارپشت
تالارپی
تالان
تالبۊت
تالش
تالشا
تالشان
تالشه
تالشو
تالشون
تالشي
تالشی
تالك
تالیف
تام
تاما
تامارا
تامسو
تامپسن
تامپیکو
تامین
تان
تانزانيا
تانسته
تانستید
تانن
تانه
تاني
تانيد
تانک
تانگو
تانی
تانید
تانیدی
تانیم
تاهیسه
تاو
تاوادا
تاواده
تاواديد
تاوادید
تاودا
تاوده
تاوستان
تاوسسان
تاوسسو
تاوسو
تاي
تايرا
تايسه
تاکاما
تاکتيکو
تاکتيکي
تاکستان
تاکسی
تاکنون
تایباد
تایر
تایم
تایمز
تایه
تایید
تب
تبادل
تبار
تبال
تبت
تبحر
تبديل
تبديلا
تبدیل
تبر
تبرستان
تبري
تبريز
تبری
تبریز
تبریزی
تبعيت
تبعيد
تبعيدي
تبعيض
تبليغ
تبليغات
تبليغاتي
تبلیغ
تبلیغات
تبه
تتارستاق
تترج
تثبیت
تج
تجارت
تجارته
تجاري
تجاری
تجاسپی
تجاوز
تجديد
تجدید
تجربه
تجربی
تجرو
تجرۊبه
تجرید
تجریش
تجزيه
تجسمی
تجسۊمي
تجلیل
تجمع
تجن
تجهيزات
تجهیزات
تحت
تحريم
تحريک
تحرک
تحریم
تحریک
تحسين
تحصو
تحصيل
تحصيلات
تحصيلاته
تحصيله
تحصيلي
تحصیل
تحصیلات
تحصیلاتا
تحصیلاته
تحصیلی
تحفه
تحقق
تحقير
تحقيق
تحقيقات
تحقیق
تحقیقات
تحقیقی
تحليل
تحليلي
تحلیل
تحلیلی
تحمل
تحميل
تحول
تحولات
تحويل
تحویل
تحویلدارو
تحویلداری
تحکيم
تخت
تخته
تختی
تخريب
تخریب
تخسيم
تخسيمان
تخسیمان
تخصص
تخصصان
تخصصي
تخصصی
تخفيف
تخلص
تخليه
تخلیه
تخم
تخمين
تخمین
تخوس
تخيلي
تخیلی
تد
تدارکات
تدریس
تدوين
تدوین
تدی
تذکره
تر
ترا
تراب
ترار
تراز
تراش
تراشان
تران
ترانا
ترانسکي
ترانه
تراني
تراپيست
تراکتورسازی
تراکم
تربت
تربه
تربيت
تربیت
تربیتی
ترتيب
ترتيبي
ترتیب
ترجمه
ترجومه
ترجيح
ترجۊمه
ترجیح
تردید
ترس
ترسناك
ترسناک
ترش
ترشح
ترشه
ترشی
ترفيع
ترقي
ترقی
ترمز
ترمینال
ترند
ترنس
تره
ترو
ترور
ترویج
تري
تريسي
تريش
تريشي
ترين
ترينو
ترينيتي
ترپو
ترک
ترکا
ترکان
ترکمان
ترکمن
ترکمنستان
ترکيب
ترکيبات
ترکيبو
ترکيبي
ترکی
ترکیب
ترکیبی
ترکیه
تری
تریسي
ترین
تزار
تزاري
تزاری
تزي
تزیینی
تست
تسخير
تسخیر
تسكه
تسلط
تسليم
تسليمی
تسلیم
تسمیه
تسنن
تسه
تسو
تسوكه
تسکا
تسکه
تش
تشا
تشان
تشباز
تشتايي
تشخيص
تشخیص
تشديد
تشريفاتي
تشریفات
تشریفاتي
تشریفاتی
تشفشان
تشكيل
تشكيلات
تشكيلاته
تشنج
تشنه
تشنگی
تشويق
تشویق
تشييع
تشکده
تشکر
تشکل
تشکيل
تشکيلات
تشکيلاتم
تشکیل
تشکیلات
تشی
تشیع
تشییع
تصاحب
تصادف
تصادفي
تصاوير
تصاویر
تصحيح
تصحیح
تصرف
تصغیر
تصفیه
تصميم
تصمیم
تصمیمو
تصور
تصويب
تصوير
تصویب
تصویر
تصویری
تضاد
تضعيف
تضمين
تضمین
تظاهرات
تعادل
تعاملي
تعاونی
تعجب
تعداد
تعدادي
تعدادی
تعريف
تعریف
تعزيه
تعزیه
تعصب
تعطيلا
تعطیل
تعقيب
تعلق
تعليم
تعلیق
تعلیم
تعمير
تعمیر
تعهد
تعويض
تعيين
تعیین
تغذيه
تغذیه
تغىير
تغيير
تغييرات
تغییر
تغییرات
تــــــــــــــــوجـــــــــه
تفاق
تفاقان
تفاقو
تفاقي
تفاقی
تفاوت
تفاوتی
تفاوو
تفت
تفرش
تفرشی
تفريحي
تفریح
تفریحی
تفسير
تفسيرو
تفسیر
تفليس
تفنگ
تفنگدارو
تفکر
تفکرات
تفکور
تفکیک
تق
تقاضا
تقاطع
تقد
تقدير
تقديم
تقدیر
تقدیم
تقريبا
تقريبن
تقریبا
تقریبن
تقریبی
تقسيم
تقسيما
تقسيمان
تقسیم
تقسیما
تقسیمات
تقسیمان
تقلب
تقليد
تقلید
تقوایی
تقويت
تقويم
تقویت
تقویم
تقویمو
تقي
تقی
تك
تكان
تل
تلا
تلار
تلارسر
تلارم
تلاش
تلاشه
تلاف
تلان
تلانتا
تلانتیا
تلخ
تلخيص
تلسکو
تلف
تلفات
تلفظ
تلفن
تلفه
تلفو
تلفيق
تلقي
تلقين
تلمبار
تله
تلوزیون
تلويزيو
تلويزيون
تلویزیون
تلویزیونی
تلکان
تلگراف
تلگرام
تم
تماس
تماسو
تماشا
تماشاخانه
تماشاچیان
تماشاگه
تماشای
تمالا
تمام
تماما
تمامی
تمانا
تمایل
تمبر
تمدن
تمدنان
تمدنو
تمدو
تمديد
تمرين
تمرکز
تمرکو
تمرین
تمنا
تمه
تمهیدات
تمو
تميزکاري
تن
تنا
تناقض
تنامان
تناگيته
تنباکۊ
تنبل
تنبيه
تنبک
تنبۊر
تنبیه
تنخا
تندرو
تندیس
تنسته
تنستی
تنستید
تنظيم
تنظیم
تنفسی
تنفو
تنكابن
تننوزان
تنه
تنها
تنهايی
تنهایی
تنهن
تنوا
تنوع
تنوچیتلان
تني
تنکابن
تنکابني
تنکابنی
تنکمان
تنگ
تنگدره
تنگه
تنگوله
تنگی
تنگیه
تنید
تنیدی
ته
تهاجم
تهاجۊمي
تهديد
تهديدات
تهدید
تهران
تهرانچی
تهرانی
تهرو
تهو
تهىه
تهيه
تهیه
تو
توا
توابع
توافق
توان
توانا
توانایی
تواند
توانم
توبه
توت
توتون
توتکابنی
توتکی
توجه
توجهی
توجو
توحید
تودا
توده
تور
توران
تورتوری
تورم
تورنگ
توره
تورکیه
توریستان
توریستی
توریسم
توزیع
توس
توسان
توسط
توسعه
توسه
توسکا
توسکاچشمه
توسۊط
توسیع
توشکه
توشیبا
توصيف
توصیف
توصیه
توضیح
توضیحات
توطي
توفان
توفنگ
توفنگه
توفیر
توفیق
توقف
توك
توكوگاوا
تولد
تولدان
تولم
توليد
تولید
تولیدات
تولیدکننده
تولیش
تولیشی
تولیشیه
توماس
تومام
توماما
تومامه
تومان
تومانا
تومانه
تون
توند
توندنی
توندی
تونني
توننی
تونه
توني
تونين
تونکابون
تونگول
تونگوله
تونی
تونین
توهو
توو
تويوتومی
تويی
توپ
توپخانه
توک
توکا
توکای
توکلی
توکو
توکوگاوا
توکیو
توگوگاوا
توی
تویسرکان
تویم
تویوتومی
تویی
توییتر
تىت
تىمۊر
تي
تيا
تيان
تيتان
تيتر
تيتراژ
تيتي
تير
تيرما
تيرماسينزه
تيرماه
تيره
تيرو
تيروارو
تيز
تيشتر
تيكه
تيل
تيلمبار
تيلور
تيم
تيمه
تيمو
تيمور
تينار
تيندار
تينس
تينن
تينه
تينيم
تينين
تينگي
تيپ
تيپه
تيپو
تيک
تيۊفنگ
تپش
تپه
تک
تکاب
تکامل
تکثیر
تکذيب
تکرار
تکراري
تکل
تکلم
تکميل
تکمیلا
تکنو
تکنولوژی
تکنيک
تکنیک
تکه
تکي
تکين
تکی
تکیه
تگان
تگزاس
تگه
تۊ
تۊت
تۊتکابو
تۊتۊق
تۊخم
تۊده
تۊر
تۊربان
تۊربو
تۊربين
تۊربينان
تۊرش
تۊريستي
تۊرک
تۊرکان
تۊرکمنستان
تۊرکمني
تۊرکي
تۊرکيه
تۊرکیه
تۊسه
تۊشک
تۊشکه
تۊغا
تۊغامند
تۊقا
تۊل
تۊلا
تۊماس
تۊمام
تۊمامه
تۊمان
تۊمو
تۊمۊن
تۊن
تۊند
تۊنداتۊند
تۊنس
تۊنسن
تۊنسه
تۊنن
تۊنه
تۊنکابو
تۊنکابۊن
تۊنگ
تۊىم
تۊي
تۊپ
تۊک
تۊکه
تی
تیر
تیراژ
تیراژی
تیرباران
تیرتاش
تیرما
تیرماسینزه
تیرن
تیره
تیرپیري
تیرکن
تیز
تیغ
تیغه
تیل
تیله
تیلور
تیلویزیونی
تیلیفن
تیلیفون
تیلیویزیون
تیلیویزیونی
تیم
تیما
تیمان
تیمور
تیموریان
تین
تینن
تینه
تینید
تینیم
تینین
تیه
تیول
تیپ
تیک
تیکنولوژی
ث
ثابت
ثار
ثاری
ثانيا
ثانيه
ثانیه
ثبات
ثبت
ثر
ثران
ثرو
ثروت
ثروتمند
ثري
ثریا
ثماني
ثمانی
ثمر
ثواقب
ثور
ثير
ثيرگۊذار
ثیر
ج
جا
جابجا
جابجاىي
جابجايي
جابجایی
جابه
جاجرم
جاجيگا
جاجيگاه
جاجيگایه
جاجيگه
جاجیگاه
جاجیگه
جاده
جادو
جادوهان
جادويه
جادوگر
جادي
جادکته
جادی
جادیه
جاذبه
جار
جاران
جاره
جارو
جاری
جاز
جاستين
جاسر
جاسم
جاسک
جاسۊس
جاقلان
جالان
جالب
جالبه
جالق
جالیز
جام
جاماي
جامد
جامع
جامعا
جامعه
جامه
جامي
جامگان
جان
جانب
جانبازان
جانبی
جاندار
جانداران
جانسون
جانشين
جانشین
جانشینی
جانم
جانه
جانور
جانوران
جانورانی
جاني
جانی
جاه
جاهای
جاورسیان
جاويدراد
جاوید
جاى
جاىزه
جاىي
جاي
جايزه
جايي
جاپلق
جاکارتا
جاکش
جاکشان
جاکشانا
جای
جایزان
جایزه
جایه
جایي
جایگاه
جایگزین
جایی
جبار
جبال
جبلی
جبهه
جتهدی
جثه
جخترا
جخطرا
جد
جدا
جدال
جدایی
جددي
جدل
جدول
جدي
جديد
جديدترين
جديها
جدی
جدید
جدیدا
جدیدترین
جدیده
جدیدی
جذاب
جذامي
جذب
جر
جراحت
جراحی
جردقه
جرم
جرمان
جرمني
جره
جرىان
جريان
جرير
جرگه
جرگهه
جری
جریان
جریب
جریر
جریمه
جز
جزء
جزا
جزایر
جزنی
جزو
جزي
جزيره
جزیره
جستارهای
جستان
جستاني
جسد
جسم
جشن
جشنان
جشنه
جشنواره
جعبه
جعفر
جعفرا
جعفراباد
جعفربای
جعفرنژاد
جعفري
جعفری
جغرافيايي
جغرافیا
جغرافیای
جغرافیایی
جغرز
جغلگی
جفت
جفرسون
جفرودپاي
جفرودی
جلال
جلالیه
جلب
جلد
جلدها
جلسه
جلفا
جلفه
جلو
جلوه
جلوگيری
جلوگیری
جلوی
جلگه
جلۊ
جلی
جلیل
جم
جما
جمابو
جماران
جماعت
جماعيه
جمال
جماهير
جماهیر
جمشيد
جمشید
جمشیدخان
جمشیده
جمشیدیه
جمع
جمعا
جمعابو
جمعه
جمعي
جمعيت
جمعی
جمعیت
جمعیتی
جمله
جمه
جمهور
جمهوری
جمهۊري
جميي
جن
جناب
جناح
جنازه
جناىي
جنايت
جنايي
جنایات
جنایت
جنایتان
جنب
جنبش
جنبشان
جنبه
جنت
جنتی
جنجال
جند
جنرال
جنس
جنسي
جنسيتي
جنسیت
جنسیتی
جنوب
جنوبي
جنوبی
جنوبیه
جني
جنيفر
جنگ
جنگا
جنگان
جنگانی
جنگجو
جنگجویان
جنگستن
جنگسته
جنگستی
جنگستید
جنگسن
جنگسه
جنگل
جنگلان
جنگلو
جنگلي
جنگليا
جنگليي
جنگلی
جنگلیان
جنگه
جنگو
جنگي
جنگی
جه
جهاد
جهاديي
جهان
جهانبخش
جهانشاخان
جهانشاه
جهاني
جهانيا
جهانپور
جهانگردان
جهانگير
جهانگیر
جهانگیری
جهانی
جهت
جهتان
جهرم
جهري
جهل
جهندم
جهنم
جو
جواب
جوابه
جوابین
جواد
جوادا
جوادیه
جوار
جوامع
جوان
جوانان
جوانرود
جوانه
جواني
جوانی
جواهر
جواهرات
جواهردشت
جوایز
جوایزي
جوبن
جوت
جوجه
جوخوسی
جودا
جودانیه
جور
جورجیا
جوره
جورواجور
جوری
جوز
جوستان
جوش
جوغد
جوغرافی
جوغرافیا
جوغرافیایی
جوق
جوقین
جولای
جولو
جولوتر
جولوی
جولویه
جولگه
جولی
جولیا
جوما
جومله
جومهور
جومهوری
جومور
جوموری
جون
جونوب
جونوبی
جوو
جوکار
جوکندان
جوکول
جویبار
جویباری
جویم
جى
جىمز
جي
جيجاکي
جير
جيرا
جيرترين
جيرجرگه
جيرده
جيرسر
جيرمجمۊعه
جيرمحله
جيرنويس
جيرنيويس
جيرهنده
جيرينديه
جيلي
جيم
جيمز
جيمي
جين
جيني
جيه
جيواني
جيوانی
جيويزانه
جيويزه
جيويشته
جيويشتيد
جيک
جيڪي
جيگا
جيگان
جيگايي
جيگایان
جيگه
جک
جکتاجی
جکسون
جگر
جۊ
جۊب
جۊبران
جۊجه
جۊخه
جۊخۊفته
جۊد
جۊدا
جۊر
جۊرا
جۊرم
جۊرن
جۊرهعلی
جۊرو
جۊرواجۊر
جۊري
جۊری
جۊز
جۊش
جۊشاني
جۊغرافي
جۊغرافی
جۊغرافیايي
جۊلای
جۊلف
جۊلو
جۊما
جۊمابازار
جۊمبش
جۊمبشا
جۊمبشه
جۊمبشو
جۊمجۊمه
جۊمله
جۊمه
جۊمي
جۊمۊر
جۊمۊري
جۊن
جۊندار
جۊنۊبي
جۊواني
جۊوو
جی
جیب
جیت
جیتو
جیجا
جیحون
جید
جیر
جیرا
جیرترین
جیرخالو
جیرده
جیرسر
جیرفت
جیرنده
جیرنویس
جیره
جیرهنده
جیری
جیل
جیلانی
جیم
جیما
جیمز
جین
جینگی
جیهون
جیویزه
جیویشته
جیویشتید
جیگا
جیگان
جیگانه
جیگاه
جیگاهان
جیگایان
جیگایه
جیگایی
جیگفته
جیگه
جیگیفته
جیگیفتید
ح
حا
حاتمی
حاج
حاجي
حاجی
حادثه
حارثه
حاشيه
حاشیه
حاصره
حاصل
حاصلخیز
حاصيل
حاضر
حافظ
حافظه
حاكم
حال
حالا
حالت
حالی
حامد
حامل
حامي
حامی
حامیان
حاني
حاوی
حاي
حاکم
حاکمان
حاکمه
حاکمو
حاکميت
حاکمی
حبس
حبوبات
حبيب
حبيبی
حبیب
حبیبی
حت
حتا
حتما
حتمن
حتوا
حتى
حتي
حتی
حجاب
حجت
حجتی
حجره
حجم
حجمم
حجومی
حد
حدا
حداث
حداقل
حداکثر
حددي
حدس
حدود
حدودا
حدودای
حدي
حدۊد
حدۊدا
حدی
حدیث
حذف
حذفا
حذفي
حذفی
حر
حران
حرف
حرفان
حرفه
حرفو
حرفي
حرم
حرمت
حروف
حريف
حريفا
حريم
حرکات
حرکت
حرکته
حرۊف
حریری
حزب
حزبان
حزبو
حزبي
حزبی
حزین
حس
حساب
حسابی
حساس
حساسیت
حسام
حسب
حسن
حسنعلیده
حسنلو
حسنه
حسني
حسنی
حسه
حسي
حسين
حسيني
حسین
حسینی
حسینیه
حشر
حشرات
حشره
حشرو
حشروماىه
حشرومايه
حشرومایه
حشمت
حشمته
حشمتیه
حصار
حصارو
حصارک
حصبه
حصير
حصیر
حصیری
حضرت
حضرتی
حضور
حضۊر
حفاظت
حفر
حفظ
حفظا
حق
حقاىقي
حقسا
حقسای
حقق
حققه
حقه
حقو
حقوق
حقوقه
حقوقی
حقيقت
حقۊق
حقیقت
حكومت
حكيم
حل
حلا
حلاج
حلال
حلب
حلقه
حللي
حلوا
حلوان
حلوایی
حلي
حلی
حماسه
حماسي
حماسی
حمام
حماىت
حمايت
حمایت
حمد
حمدسرگۊراب
حمده
حمدي
حمزه
حمل
حملات
حمله
حملیه
حمو
حمید
حمیده
حمیدی
حمیل
حنا
حو
حوا
حوادث
حواری
حواس
حواسه
حواصیل
حوالی
حوریه
حوزه
حوزیه
حوسي
حوسینیه
حوض
حوقوقدان
حومه
حويق
حوکومت
حوکومته
حویق
حىاتي
حىوان
حىوانان
حي
حيات
حياط
حيزب
حيساب
حيفاظت
حيفظ
حيماسي
حيمايت
حيمایت
حيوان
حيوو
حکم
حکمت
حکومت
حکومتم
حکومته
حکومتو
حکومتی
حکيم
حکۊمت
حکیم
حکیمی
حۊدۊد
حۊضۊر
حۊقۊق
حۊمه
حۊکم
حۊکۊمت
حۊکۊمتي
حیات
حیاتي
حیاتی
حیاط
حیاطی
حیدر
حیدري
حیدرکلا
حیدری
حیدریه
حیران
حیساب
حیصار
حیمایت
حین
حیوان
حیوانات
حیوانان
حیوو
خ
خا
خاب
خاتم
خاتمه
خاتون
خاخور
خاخوره
خاخۊر
خاخۊران
خار
خارج
خارجا
خارجه
خارجي
خارجی
خارخون
خارزمني
خاروانا
خارچين
خاز
خازو
خاس
خاست
خاستن
خاسته
خاستي
خاستيد
خاستگاه
خاستی
خاستید
خاش
خاص
خاصه
خاصي
خاصيت
خاصی
خاصیت
خاصیتان
خاطر
خاطرات
خاطراته
خاطره
خاطيرات
خاك
خاكشير
خال
خالا
خالان
خالد
خالص
خالصه
خالف
خالفت
خالفو
خالقی
خاله
خالو
خالوقربان
خالي
خالی
خام
خاماخام
خامنشي
خامنه
خاموش
خاموشی
خامۊش
خان
خانان
خاند
خاندان
خاندانو
خاندن
خاندنکس
خاندنکسان
خاندي
خاندی
خانشگر
خانشگري
خانقاه
خانم
خانمان
خاننده
خانندگی
خانه
خانهان
خانواده
خانوادهان
خانوادگی
خانوادیه
خانوار
خانوانه
خاني
خانگي
خانگی
خانی
خانیه
خاهان
خاهو
خاو
خاور
خاوران
خاورمیانه
خاوری
خاوه
خاویار
خاویر
خاي
خاييد
خاچکين
خاک
خاکا
خاکستر
خاکستري
خاکستری
خاکسپاری
خاکشیر
خاکه
خاکو
خاکپور
خاکی
خایلی
خایه
خایی
خایید
خب
خبار
خبر
خبرا
خبرنگار
خبرنگاران
خبره
خبرچيني
خبرچینان
خبرگزاری
خبری
خت
خترشيناس
ختم
خته
ختی
خدا
خدابنده
خداحافظ
خدمات
خدماتی
خدمت
خدمتا
خدمتو
خر
خرا
خراب
خرابا
خرابه
خرابکاری
خرابی
خراج
خرارود
خرارۊد
خراسان
خراسانی
خراطی
خربزه
خربسر
خربۊزه
خرج
خرجگيل
خرجگیل
خرد
خرداد
خرده
خرس
خرسر
خرسند
خرش
خرف
خرقان
خرم
خرما
خرمدره
خرمدشت
خرمشهر
خرمن
خرمکوه
خره
خروج
خروجی
خروس
خري
خرين
خرپسي
خرگوش
خرۊج
خرۊجي
خری
خرید
خریداری
خریزه
خرین
خزان
خزانه
خزر
خزل
خزنده
خزه
خسارت
خسته
خسرو
خسرواباد
خسروشهر
خسروی
خسه
خش
خشایارشا
خشت
خشتي
خشتی
خشك
خشكه
خشم
خشن
خشه
خشونت
خشک
خشکار
خشکبیجار
خشکی
خشی
خصو
خصوص
خصوصا
خصوصی
خصوصیات
خصۊص
خصۊصا
خصۊصي
خصۊصيات
خضرلو
خط
خطا
خطاب
خطاط
خطاهای
خطای
خطبه
خطر
خطردکته
خطه
خطوط
خطي
خطيبان
خطی
خطیب
خفه
خل
خلابر
خلابران
خلابرانه
خلاصه
خلاف
خلافت
خلافکار
خلاق
خلاقي
خلاقیت
خلج
خلخال
خلدون
خلرد
خلع
خلفا
خلفای
خلق
خلقو
خلقي
خلقی
خله
خلوت
خلي
خليج
خليفه
خليل
خلک
خلی
خلیج
خلیفه
خلیل
خلیله
خلیلی
خم
خما
خمام
خمامی
خمده
خمس
خمسه
خمي
خميران
خميرمحله
خمين
خمينی
خمیر
خمیران
خمیرمحله
خمین
خمینی
خن
خنج
خنجر
خنداب
خندان
خندق
خنده
خندید
خنراني
خنک
خه
خو
خواب
خوابگاه
خواجه
خواجوی
خواخور
خوار
خواست
خواستار
خواسته
خواستي
خواستيد
خواستگار
خواستگاری
خواستی
خواستید
خواص
خوان
خواندن
خوانده
خواندی
خوانسار
خوانما
خواننده
خوانندگان
خوانندگانی
خوانندگی
خوانه
خوانی
خوانید
خواه
خواهان
خواهد
خواهر
خواهند
خواهی
خواهید
خوايه
خوایه
خوایی
خوب
خوبان
خوبه
خوبی
خوتکا
خوج
خوجير
خوجیر
خود
خودا
خودابنده
خودایان
خودایانه
خودتو
خودرو
خودروها
خودروهای
خودروهایی
خودروي
خودروی
خودش
خودشان
خودشه
خودشو
خودم
خودکار
خودکشی
خودکفایی
خور
خورا
خوراسان
خوراسانی
خوران
خوراک
خوراکان
خوراکی
خورتاب
خورتابسرا
خورتاو
خورخو
خورد
خورداد
خوردن
خوردنی
خورده
خوردی
خوردید
خورش
خورشت
خورشيد
خورشيدی
خورشید
خورشیدی
خورما
خورمالو
خورموج
خوره
خورهه
خوروم
خورومه
خوريد
خورگام
خوری
خورید
خوریدی
خوزستان
خوزه
خوس
خوسه
خوش
خوشا
خوشابر
خوشان
خوشانه
خوشبخت
خوشته
خوشحال
خوشل
خوشنویسی
خوشنیویس
خوشه
خوشو
خوشون
خوشي
خوشک
خوشکا
خوشگذرانی
خوشی
خوص
خوف
خوفرماني
خولک
خولی
خومام
خومه
خون
خونا
خوند
خونه
خونين
خونگرم
خونی
خونین
خووننده
خويش
خوک
خوکه
خوی
خویش
خىاطي
خىر
خىلي
خىلی
خي
خيابان
خيابو
خيار
خياط
خيال
خيانت
خياوو
خيدمت
خير
خيزش
خيل
خيلي
خيلی
خکاره
خۊ
خۊا
خۊب
خۊت
خۊتن
خۊتنه
خۊته
خۊجير
خۊجيرترين
خۊجیر
خۊجیرتر
خۊد
خۊدا
خۊداحافظي
خۊدداري
خۊدش
خۊدي
خۊدۊش
خۊر
خۊراسان
خۊراسو
خۊراک
خۊرتا
خۊرتاو
خۊرتاوي
خۊرتو
خۊرخو
خۊرخۊس
خۊرخۊسي
خۊردن
خۊرده
خۊرديد
خۊرشید
خۊرم
خۊره
خۊرو
خۊري
خۊرگام
خۊرۊش
خۊرۊم
خۊزستان
خۊس
خۊسرو
خۊسيمي
خۊش
خۊشابر
خۊشال
خۊشان
خۊشحال
خۊشه
خۊشو
خۊشي
خۊشک
خۊشکبجار
خۊشکرۊد
خۊشکي
خۊشگيل
خۊصۊصي
خۊفتي
خۊفرماني
خۊفرمو
خۊلا
خۊلاصه
خۊلدانه
خۊله
خۊليشا
خۊمام
خۊن
خۊنا
خۊندش
خۊندشگر
خۊندو
خۊنريزي
خۊني
خۊکو
خۊگرداني
خی
خیابان
خیابانان
خیابانی
خیابو
خیار
خیاطی
خیال
خیالی
خیام
خیانت
خیر
خیرا
خیرخواه
خیرودکنار
خیریه
خیزش
خیل
خیلي
خیلی
خیمه
د
دا
داب
دابان
دابدستۊر
دابدستۊره
دابنده
دابه
دابو
دابوی
دابي
داخل
داخلي
داخلی
داد
دادم
دادن
دادند
داده
دادور
دادگا
دادگاه
دادگاهی
دادگستری
دادگه
دادگو
دادی
دار
دارا
داراب
دارالاماره
دارالسلام
دارالفنون
دارالمرز
داران
دارانه
داراىي
داراي
دارايی
دارای
دارایي
دارایی
دارد
دارده
دارستان
دارسرا
دارفانی
دارم
دارن
دارند
دارنه
دارني
داره
دارو
داروخانه
داروسازان
داروسازی
داروهان
داروين
دارویی
داري
داريد
داريوش
دارک
دارکوب
دارۊ
دارۊيي
داری
دارید
داریدی
داریم
دارین
داریه
داریوش
داس
داستان
داستانان
داستانو
داستاني
داستانی
داستايو
داستايوفسکي
داستایفسکي
داستو
داش
داشبو
داشت
داشتم
داشتن
داشته
داشتي
داشتيد
داشتی
داشتید
داشتیدی
داعش
داعشه
داعي
داعی
داغ
دال
دالان
دالتي
دالخاني
دام
داماد
داماش
دامان
دامداري
دامداری
دامز
دامغان
دامن
دامنه
دامو
دامون
داميشک
دامپروری
دامپزشکی
دامیشک
دان
دانا
دانان
دانای
دانستن
دانستی
دانش
دانشا
دانشجو
دانشجوی
دانشجویان
دانشجویی
دانشجۊ
دانشجۊىي
دانشسرای
دانشكده
دانشمند
دانشمندان
دانشمندو
دانشنامه
دانشنومه
دانشه
دانشو
دانشور
دانشکده
دانشکله
دانشگا
دانشگاه
دانشگاهان
دانشگاهی
دانشگای
دانشگایان
دانشگایه
دانشگه
دانل
دانلود
دانم
دانمارک
دانمارکي
دانمارکی
دانمارکیان
دانه
دانوشنامه
داني
دانگشان
دانگشاهو
دانی
دانیدی
دانیش
دانین
دانیه
داو
داود
داودزاده
داور
داوران
داوري
داوطلب
داوطلبو
داوود
داوينچي
داوۊد
داىناميک
داي
دايره
دايم
داگلاس
دایر
دایرةالمعارف
دایره
دایمی
دایی
دباج
دباخته
دباخي
دباغی
دبدنه
دبستان
دبستانه
دبستانی
دبستن
دبسته
دبسنن
دبسکه
دبو
دبون
دبي
دبيات
دبير
دبيرستان
دبيرستو
دبۊ
دبۊسته
دبۊن
دبیات
دبیر
دبیرانین
دبیرستان
دبیرستانان
دبیرستانه
دبیره
دت
دتر
دتره
دتۊر
دجله
دخالت
دخان
دخاندن
دخانده
دخاندیدی
دخانن
دخانیات
دختر
دختران
دخترانه
دخو
دخوته
دخونکا
دخۊته
ددار
ددلاین
دذکو
در
درا
درار
دراز
درازا
درازلات
درازه
درازي
درازی
درازیه
درافتاده
دراليسم
درالیسم
درام
دراما
درامد
درامر
دران
دراوايل
درایت
دراین
درایو
درب
دربار
دربارت
درباره
درباریه
دربامو
دربرگ
دربشون
دربند
درت
درتماس
درجزین
درجه
درحال
درحالي
درحالی
درخاس
درخاستي
درخانه
درخت
درختان
درختی
درخشان
درخشد
درخواست
درخواستو
درد
دردان
دردسر
دردن
درده
درره
درزی
درس
درسا
درسال
درسانا
درست
درسه
درسی
درشو
درصد
درصده
درصورتی
درعوض
درفش
درم
درمان
درمانگا
درمانی
درمو
درمیان
درن
درنظر
درنهایت
درنگ
دره
درو
دروار
دروازه
درواقع
دروس
درون
درويش
درویش
درویشعلی
درىا
درىافت
درىاچه
دري
دريا
درياي
دريايي
دريايی
درياچه
دريای
درين
دريک
دريگز
درک
درکه
درگاه
درگذشت
درگذشتگان
درگز
درگي
درگير
درگيري
درگیری
درۊني
دری
دریا
دریاسر
دریافت
دریانورد
دریايي
دریاچه
دریاکنار
دریای
دریایی
درید
دریدی
درین
دزا
دزد
دزدك
دزدک
دزفول
دزلی
دزگا
دس
دسا
دسامبر
دسان
دسبراران
دسبرس
دست
دستا
دستان
دستاورد
دستت
دستجرد
دسترس
دسترسی
دستمزد
دسته
دستور
دستىار
دستي
دستگاه
دستگير
دستگيرت
دستگیر
دستۊر
دستی
دسر
دسرس
دسرسي
دسرکۊتن
دسسه
دسسو
دسسۊر
دسفا
دسمال
دسماله
دسنو
دسه
دسهونر
دسهۊنر
دسىار
دسيار
دسيسه
دسکاري
دسکلا
دسگا
دسگير
دسگيرا
دسگيري
دسگیر
دسگیری
دشت
دشتابی
دشته
دشتویل
دشتي
دشتيد
دشتيدي
دشتک
دشتی
دشتید
دشكن
دشكنه
دشمن
دشمنی
دشکسته
دشکسن
دشکسه
دشکن
دشکنه
دشکني
دعا
دعاي
دعایی
دعوت
دغدغه
دفا
دفاع
دفاعي
دفاعی
دفتر
دفتري
دفع
دفعا
دفعه
دفن
دفنا
دفه
دقت
دقيق
دقيقه
دقیق
دقیقا
دقیقه
دكتر
دل
دلار
دلال
دلاوي
دلایل
دلخواه
دلفان
دلفک
دلقک
دلم
دله
دلو
دلوار
دليجان
دليل
دليلان
دليلو
دلکش
دلیجان
دلیجه
دلیر
دلیل
دم
دما
دمان
دماوند
دماوندی
دمای
دمرده
دمشق
دمه
دمو
دموكرات
دموكراتان
دموکرات
دموکراتان
دموکراتیک
دموکراسی
دمي
دميل
دمپايي
دمک
دمی
دن
دنا
دنبال
دنبو
دنت
دندان
دندانه
دنده
دنستی
دنستید
دنسه
دنن
دننه
دنني
دنه
دنوا
دني
دنيا
دنيرو
دنيل
دنکت
دنکفته
دنکه
دنگ
دنیا
دنیای
ده
دهات
دهاتو
دهاتی
دهاقان
دهان
دهانه
دهبنه
دهج
دهخدا
دهد
دهداری
دهدز
دهدشت
دهده
دهري
دهستان
دهستانان
دهسر
دهشال
دهقان
دهقانان
دهقانو
دهقاني
دهقو
دهلران
دهم
دهن
دهند
دهنده
دهندگان
دهندیه
دهنه
دهني
دهنی
دهه
دهکا
دهکده
دهگا
دهگان
دهگاه
دهی
دهیاری
دهید
دهیدی
دهیم
دهیه
دو
دوا
دواب
دوار
دوارستن
دوارسته
دوارستيد
دوارستی
دوارستید
دواره
دوارید
دوازده
دوازدهم
دوام
دوانی
دوایت
دوباج
دوبار
دوبارده
دوباره
دوبرابر
دوبو
دوبيتی
دوبیتی
دوتا
دوتته
دوته
دوجين
دوجین
دوخاده
دوخاديد
دوخادید
دوخاله
دوخانده
دوخانه
دوخانيد
دوخانید
دوختر
دوختران
دوخو
دود
دودانگه
دودمان
دودمانی
دوده
دودی
دور
دورا
دوراسته
دوران
دوراهی
دوراکونن
دوربين
دورسانه
دورسانید
دورشین
دورن
دورنمایی
دوره
دورو
دورود
دوروس
دوروست
دوروستا
دوروسته
دوروسه
دورون
دورونید
دوری
دوریا
دوریه
دوزد
دوزدی
دوزی
دوس
دوسال
دوست
دوستان
دوستدار
دوستداران
دوستن
دوسته
دوستی
دوستید
دوش
دوشاب
دوشم
دوشمبه
دوشمن
دوشمنان
دوشمنانا
دوشمنو
دوشمنی
دوشنبه
دوطبقه
دوكتور
دولاب
دولار
دولت
دولتي
دولتی
دولف
دولوکس
دوم
دومبال
دومباله
دومل
دومي
دوميك
دومين
دومی
دومین
دومینگوي
دومینیکن
دون
دونای
دونبال
دونبالا
دونباله
دونشنوم
دونشی
دونشین
دونن
دونه
دونيا
دونی
دونیا
دوهزار
دوهیزار
دوواره
دوومين
دويست
دوين
دوچار
دوک
دوکاره
دوکان
دوکتر
دوکتور
دوکتورای
دوکونید
دوگل
دوی
دویست
دى
دىتا
دىتابىس
دىتابىسان
دىتابىسه
دىتاني
دىتاىي
دىته
دىلمي
دىمو
دىويد
دي
ديا
دياما
ديب
ديت
ديجيتال
ديجيتالي
ديد
ديدار
ديدن
ديدنی
ديده
ديدگا
دير
ديران
ديرو
ديروج
ديريت
ديرين
ديريني
ديز
ديزل
ديزني
ديس
ديسر
ديسم
ديسمبر
ديسک
ديسکان
ديسکت
ديشکن
ديشکنه
ديشکني
ديفندرز
ديل
ديلبري
ديلخا
ديلسۊجي
ديلم
ديلمان
ديلمستان
ديلمو
ديلمي
ديلميي
ديلمی
ديلى
ديلي
ديم
ديملي
ديمن
ديمه
دين
دينار
ديناميک
ديناچال
دينه
ديني
ديهات
ديو
ديوار
ديوارو
ديواروز
ديوان
ديورود
ديوشل
ديوشلي
ديويد
ديي
ديپ
ديپلمات
ديپلو
ديک
ديکتاتو
ديکته
ديکنز
ديکو
ديگر
ديگران
ديگره
ديگرو
ديگري
ديگری
ديگه
ديۊرا
دپيت
دپيته
دپیته
دچار
دچي
دچين
دچينواچين
دچکي
دچین
دژ
دکا
دکال
دکالسن
دکالسه
دکالو
دکان
دکت
دکتر
دکترای
دکتن
دکته
دکشه
دکشي
دکف
دکفت
دکفته
دکفتی
دکفتید
دکفه
دکمه
دکنه
دکه
دکو
دکوشه
دکي
دکينز
دککي
دکۊشي
دگا
دگر
دگردا
دگردنه
دگردو
دگردوگرد
دگرسن
دگرش
دگزا
دگیته
دۊ
دۊباج
دۊبار
دۊبۊ
دۊبۊد
دۊتته
دۊته
دۊخا
دۊخاده
دۊخاديد
دۊخانده
دۊخانديد
دۊخاني
دۊختر
دۊخو
دۊد
دۊر
دۊرا
دۊران
دۊره
دۊري
دۊرگ
دۊرگان
دۊرۊس
دۊرۊن
دۊرۊني
دۊرۊنگرا
دۊزادۊزي
دۊزد
دۊزوانه
دۊس
دۊست
دۊستان
دۊستو
دۊشمبه
دۊشمن
دۊشمند
دۊل
دۊلاب
دۊلادار
دۊلار
دۊلايي
دۊمال
دۊمبال
دۊمباله
دۊمرته
دۊنىا
دۊنىابما
دۊنيا
دۊنياى
دۊنیا
دۊو
دۊوارده
دۊواردي
دۊواره
دۊوو
دۊچرخه
دۊک
دۊکان
دۊکتۊر
دۊکمه
دۊکو
دی
دیا
دیار
دیاز
دیاس
دیان
دیبا
دیجیتال
دیجیتالی
دید
دیدار
دیدن
دیدنی
دیده
دیدگاه
دیر
دیرید
دیرین
دیزا
دیزج
دیزل
دیزلی
دیزمار
دیسك
دیسک
دیشتی
دیشتیدی
دیل
دیلا
دیلم
دیلمان
دیلمانی
دیلمستان
دیلمو
دیلمي
دیلمی
دیلمیان
دیله
دیم
دیمه
دین
دیناچال
دینه
دینگ
دینی
دیهات
دیهاتو
دیهاتی
دیهستو
دیهه
دیهوک
دیهید
دیو
دیوار
دیواران
دیواره
دیواری
دیوازده
دیوان
دیواندره
دیوانسالارو
دیوانه
دیوانی
دیوشل
دیوید
دیویس
دیویست
دیي
دیپ
دیپلم
دیپلما
دیپلمه
دیپلو
دیکتاتوری
دیکو
دیگ
دیگر
دیگرا
دیگران
دیگره
دیگرو
دیگرون
دیگری
دیگه
دیی
دییه
ذ
ذات
ذال
ذبیح
ذبیحی
ذخایره
ذخيره
ذخیره
ذر
ذرباىجان
ذرباىجاني
ذربايجان
ذربايجاني
ذربایجان
ذربایجانی
ذرشهر
ذرما
ذره
ذری
ذلقی
ذهاب
ذهن
ذو
ذوالفنون
ذوالپيران
ذوب
ذوق
ذي
ذين
ذکر
ذیلت
ذین
ر
را
راب
رابر
رابرت
رابرو
رابري
رابشکن
رابطه
رابي
رابينسو
رابينو
رابینو
رات
راتن
راتو
راجر
راجع
راجه
راحت
راحتی
راحلو
راد
رادمنش
رادوار
رادي
راديو
راديکال
رادکته
رادکفن
رادکي
رادی
رادیاتور
رادیو
رادیواکتیو
رادیکال
راز
رازي
رازی
راس
راساراس
راست
راستا
راسته
راستوپی
راستی
راسل
راسه
راسی
راش
راشه
راشي
راشيه
راشی
راضي
راضی
راغ
رافا
رافاي
راك
رال
رالیا
رام
راما
رامته
رامجرد
رامسر
رامسری
رامش
رامشیر
رامند
رامهرمز
رامي
رامگا
رامگاه
رامی
رامیان
رامین
ران
رانا
رانت
رانس
رانما
رانماىي
راننده
راني
رانکۊ
رانی
راه
راهب
راهدارخانه
راهنما
راهنمايی
راهنمای
راهنمایی
راهه
راهي
راهی
راو
راور
راولینس
راوي
راوی
راىلي
راىي
راي
رايت
رايج
رايه
رايي
راک
راکتور
راکفلر
راگبي
راگودن
رای
رایانه
رایت
رایج
رایدر
رایش
راین
رایه
رایگان
رایی
رب
رباب
رباط
ربافو
ربایی
ربت
ربط
ربع
ربنز
ربوده
ربي
ربیع
رةالمعارف
رت
رتا
رتبه
رتر
رتره
رترين
رتسۊک
رتش
رته
رتو
رتيست
رج
رجايی
رجایی
رجب
رجبعلی
رجبی
رجستان
رجعت
رجه
رجو
رجي
رجیا
رحم
رحمت
رحيم
رحیم
رحیمیه
رخ
رخابو
رخت
رختكن
رخشان
رخشنا
رخص
رخنه
رخو
رد
ردا
رداد
ردار
رداري
ردان
ردبيل
ردد
رددا
ردشت
ردشته
ردشير
ردفو
ردن
ردني
ردنياز
رده
ردو
ردون
ردي
رديبهشت
رديد
رديف
ردکان
ردگي
ردۊ
ردۊم
ردۊگا
ردۊگاه
ردیان
ردیف
ردیفان
ردین
رر
رز
رزش
رزشو
رزم
رزمي
رزن
رزه
رزو
رزوندي
رزين
رس
رسا
رساله
رسانا
رساند
رسانش
رسانه
رساني
رسانی
رسایل
رسبرم
رست
رستاخیز
رستاق
رستان
رستانان
رستر
رستران
رستم
رستمدار
رستمی
رستگاري
رستۊران
رسطۊ
رسكت
رسلا
رسم
رسما
رسمن
رسمي
رسميت
رسمی
رسن
رسنن
رسنه
رسه
رسو
رسوایی
رسول
رسوم
رسي
رسيد
رسيزي
رسيکلت
رسپولیس
رسکت
رسید
رسیدن
رسیدند
رسیدگی
رسیدی
رش
رشا
رشت
رشتا
رشتخوار
رشته
رشتو
رشتي
رشتی
رشتیه
رشد
رشوه
رشيد
رشکان
رشید
رشیدی
رشیو
رصد
رصدخو
رضا
رضاخان
رضازاده
رضاشاه
رضامحله
رضاي
رضايت
رضای
رضایی
رضوان
رضوانشهر
رضوي
رضوی
رضي
رضی
رطوبت
رطۊبت
رعاىت
رعایت
رعنا
رعیت
رعیتو
رعیتی
رغوان
رف
رفاق
رفاقت
رفاه
رفاهی
رفت
رفتار
رفتم
رفتن
رفتند
رفته
رفسنجان
رفع
رفق
رفقا
رفقون
رفي
رفيق
رفيقو
رفیع
رفیق
رفیقان
رقابت
رقابتان
رقص
رقصد
رقيب
رقيبان
رقيبانه
رقیب
رقیبان
ركان
رلند
رلي
رم
رما
رماس
رمالی
رمان
رماند
رمت
رمحله
رمدان
رمز
رمزنگاري
رمزه
رمزو
رمسترانگ
رمضان
رمضانا
رمضانعلی
رمضانی
رمنت
رمنستان
رمني
رمه
رمو
رمي
رميلان
رمیتا
رن
رنا
رنازنی
رنتو
رنج
رنجبر
رند
رنه
رنو
رنيا
رنگ
رنگا
رنگان
رنگه
رنگي
رنگی
ره
رها
رهاىي
رهايي
رهايی
رهایي
رهایی
رهبر
رهبران
رهبرو
رهبري
رهبری
رو
روا
روابط
رواج
روان
روانسر
روانشناسي
روانشناسی
روانه
رواىت
روايت
روایات
روایت
روبار
روباران
روباري
روبرو
روبروی
روبنز
روبه
روت
روتختی
روج
روجا
روح
روحانی
روحیه
روخان
روخانه
روخانیه
روخو
روخي
رود
روداب
رودان
رودبار
رودبارسرا
رودباری
رودبنه
رودخان
رودخانان
رودخانه
رودریگز
رودسر
روده
رودوت
رودپشت
رودپی
رودپیش
رودکی
روز
روزا
روزان
روزانه
روزانیه
روزبل
روزمره
روزنامه
روزنامیه
روزه
روزهای
روزو
روزگار
روزی
روس
روسان
روستا
روستان
روستاها
روستاهان
روستاهاي
روستاهای
روستاي
روستايي
روستای
روستایان
روستایی
روسری
روسو
روسيه
روسی
روسیه
روش
روشان
روشد
روشن
روشنا
روشناي
روشنایی
روشنده
روشنگری
روشه
روشو
روغن
روغنه
روغنی
روم
رومشکان
رومو
رومی
رومیان
رومیزی
رون
روند
رونق
رونمایی
رونیز
رونین
روو
روىدادو
روي
روژ
روژا
روژي
روگا
روی
رویا
رویان
رویش
رى
رىچل
ري
رياست
رياضي
رياضيات
رياضی
ريتم
ريتمو
ريد
ريدا
ريدلي
ريز
ريزي
ريس
ريستي
ريسه
ريسک
ريش
ريشه
ريفي
ريك
ريكه
ريم
رين
رينا
رينبو
رينه
ريني
رينگ
ريه
ريو
ريور
ريوز
ريي
رييس
ريچارد
ريکه
ريکو
رپ
رچ
رچا
رچان
رچو
رچي
رچگیه
رژانتين
رژانتین
رژه
رژيم
رژیم
رک
رکاب
رکابزن
رکات
رکان
رکانزاس
رکایو
رکستری
رکن
رکو
رکود
رکورد
رکي
رکيان
رگ
رگان
رگن
رگه
رگو
رگي
رۊ
رۊبار
رۊباري
رۊبلي
رۊتبه
رۊتس
رۊتکيت
رۊج
رۊجا
رۊجان
رۊجاىي
رۊح
رۊحي
رۊحيه
رۊخان
رۊخانان
رۊخو
رۊد
رۊدبار
رۊدبنه
رۊدخو
رۊدسر
رۊدي
رۊز
رۊزان
رۊزانه
رۊزبل
رۊزما
رۊزمره
رۊزنامه
رۊزنو
رۊزه
رۊزو
رۊزي
رۊس
رۊسان
رۊستا
رۊستاهان
رۊستاو
رۊستاىان
رۊستايان
رۊستايي
رۊستایان
رۊستایي
رۊستم
رۊسو
رۊسي
رۊسيه
رۊسیه
رۊش
رۊغو
رۊف
رۊفا
رۊم
رۊمان
رۊمي
رۊن
رۊيان
رۊپا
رۊی
ری
ریا
ریاست
ریاضی
ریاضیات
ریاپاد
ریایی
ریاییان
ریتم
ریج
ریحان
ریحانه
ریحانی
رید
ریدی
ریز
ریزه
ریزونا
ریزي
ریزی
ریس
ریسک
ریش
ریشه
ریم
ریمبادی
رین
ریه
ریو
ریواس
ریوز
ریوگرانده
ریچل
ریچموند
ریچمونده
ریک
ریکسداگ
ریکه
ریگ
ریگان
ریۊبرزن
رییس
ز
زا
زابل
زابلی
زات
زاتی
زاتیخواهان
زاد
زادا
زاداو
زادشهر
زاده
زادي
زادگا
زادگان
زادگاه
زادی
زادیه
زار
زارش
زارع
زارم
زاره
زاری
زاز
زازاکي
زازاکی
زازيل
زاغ
زاغه
زاق
زاكان
زال
زانتیا
زانوس
زانۊىا
زاهد
زاهدان
زاهدي
زاهدی
زاويه
زاي
زايي
زاپاتا
زاک
زاکان
زاکانه
زاکه
زاکون
زاکونو
زاکي
زاکۊن
زاکۊنو
زاکی
زاگرس
زاگرو
زای
زاینده
زب
زباله
زبان
زبانان
زبانه
زبانی
زبه
زبو
زبورن
زبون
زبيل
زبکو
زتا
زتک
زتکان
زجر
زحمات
زحمت
زخم
زخمي
زخمی
زد
زدن
زده
زر
زرا
زرتشتیان
زرتی
زرجوب
زرخ
زرخا
زرد
زرده
زردچوبه
زردی
زرشکي
زرق
زرقان
زرمي
زرمیخ
زرند
زرندین
زرنگ
زرنگیس
زره
زرو
زرين
زری
زرین
زرینه
زریوند
زز
زغال
زف
زكريا
زلزله
زلم
زما
زمات
زماته
زماتي
زماتين
زماتيکه
زماتی
زمان
زمانان
زمانه
زمانی
زمایش
زمایشان
زمایشی
زمت
زمته
زمتو
زمتي
زمرد
زمزمه
زمستان
زمستو
زمسسان
زمو
زمون
زمي
زميدان
زمين
زمينان
زمينانه
زميندار
زميندارو
زمينه
زمينو
زميني
زمينی
زمیدان
زمین
زمینان
زمیندارو
زمینداری
زمینه
زمینو
زمینی
زمینیه
زن
زنا
زنان
زنانه
زناک
زناکا
زناکان
زنای
زنبور
زنبورک
زنبیل
زنجان
زنجانرود
زنجيله
زنجیر
زند
زندان
زنداني
زندانی
زنده
زندو
زندگي
زندگی
زندگینامه
زندگیه
زنش
زنشوجی
زنم
زنن
زنه
زنو
زني
زنيدي
زنين
زنکه
زنگ
زنگی
زنی
زنید
زنیدی
زنین
زه
زهان
زهر
زهرا
زهرابی
زهره
زهک
زو
زوار
زوال
زواله
زوان
زوانان
زوانشناسي
زوانه
زوانو
زواني
زوانی
زوبین
زود
زودتر
زودی
زور
زورخانه
زورزمه
زورنا
زوره
زومات
زوموسو
زونه
زوو
زووان
زوون
زي
زياد
زيادا
زياده
زيادي
زيادی
زيار
زيارت
زياري
زيبا
زيباي
زيبايي
زيبايی
زيباکنار
زيبای
زيبيل
زيتۊن
زيد
زيدي
زير
زيراب
زيست
زيع
زيعه
زيعي
زيمي
زيمين
زين
زيندان
زينده
زيندو
زينديگي
زيندگو
زيندگي
زيندگيي
زيوده
زيوش
زيوشنامه
زيوه
زيويد
زيويش
زيويشتشناسي
زيويشتن
زيويشر
زيۊ
زکريا
زکريای
زکریا
زکریای
زکی
زۊان
زۊبين
زۊبین
زۊد
زۊدايي
زۊدتر
زۊر
زۊرا
زۊرازۊري
زۊرم
زۊزن
زۊمو
زۊمۊسو
زۊن
زۊنو
زی
زیاد
زیادا
زیادابو
زیادتر
زیاده
زیادي
زیادی
زیادیه
زیار
زیارت
زیارتی
زیاري
زیاری
زیبا
زیباترین
زیبادو
زیباکنار
زیباکناری
زیبای
زیبایی
زیتون
زید
زیده
زیدی
زیر
زیرا
زیرانداز
زیررده
زیرزمینی
زیرنظر
زیزانداز
زیست
زیستان
زیستی
زیمین
زین
زینا
زینب
زینبیه
زینت
زینتی
زیندگی
زیندیگی
زیوش
زیویش
زیویشر
س
سا
سابق
سابقا
سابقه
سابقیه
ساتتن
ساتراپی
ساج
ساجه
ساجي
ساجی
ساحل
ساحلي
ساحلی
ساحيل
ساخت
ساختار
ساختارو
ساختاری
ساختمان
ساختمانان
ساختمانی
ساختمو
ساخته
سادا
سادات
ساده
سار
سارا
سارتر
سارس
سارم
ساروخان
ساروق
ساروی
سارى
ساري
ساری
ساز
سازان
سازد
سازش
سازمان
سازمانا
سازمانان
سازماندهي
سازمانه
سازمانو
سازمند
سازمو
سازنده
سازندیه
سازنه
سازه
سازو
سازي
سازگار
سازگاری
سازی
ساس
ساسا
ساسان
ساسانن
ساساني
ساسانيان
ساسانی
ساسانیان
ساسي
ساطير
ساعت
ساعته
ساعتچی
ساعد
ساعی
ساغریسازان
ساق
ساقه
ساقي
ساكنان
ساكورا
سال
سالا
سالاد
سالار
سالاري
سالان
سالانه
سالدات
سالداتو
سالروز
سالم
سالمرگ
سالمندان
سالن
سالنامه
ساله
سالها
سالهای
سالو
سالوا
سالون
سالونان
سالونی
سالي
ساليان
سالک
سالگرد
سالگي
سالگی
سالی
سالیان
سام
سامان
سامانان
سامانسر
سامانه
ساماني
سامانيي
سامانی
سامانیان
سامتي
سامن
سامنر
سامو
سامورايی
سامورایی
سامورایین
سامي
سامی
سان
سانان
سانتا
سانتي
سانتياگو
سانتيمتر
سانتی
سانتیمتر
سانسور
سانسکریت
سانسکیریت
سانه
سانيتیمتر
سانی
ساو
ساواک
ساوجبلاغ
ساوجی
ساوه
ساىت
ساىر
ساىمن
ساىه
ساي
سايت
سايتو
سايمن
ساييد
سايی
ساکت
ساکن
ساکنان
ساکنده
ساکنین
ساکی
سای
سایت
سایتی
سایر
سایشگاه
سایه
سایپا
سایید
سب
سبا
سبان
سبب
سبث
سبز
سبزه
سبزوار
سبزي
سبزی
سبزیجات
سبك
سبک
سبکان
سبکو
ست
ستا
ستاتيک
ستاد
ستار
ستارا
ستارایی
ستارخان
ستاره
ستان
ستانه
ستانو
ستد
ستده
ستر
ستراليايي
ستري
ستقلال
ستقيم
ستم
ستن
ستند
ستني
سته
ستو
ستوان
ستوده
ستون
ستونی
ستي
ستياگ
ستيد
ستيز
ستيزي
ستين
ستۊده
ستی
ستید
ستین
سجاد
سجادی
سجاس
سجيران
سجيل
سحر
سخت
سختا
سختترابو
سختسر
سخته
سختي
سختگیری
سختی
سخن
سخنران
سخنراني
سخنرانی
سخه
سد
سدان
سده
سديم
سر
سرا
سراء
سراب
سراجوی
سراختيلاف
سراخر
سراخره
سرادي
سرازیر
سرازیرا
سراسر
سراسري
سراسری
سران
سرانجام
سراوان
سراورسو
سرايشماردن
سراگيتن
سراگيته
سراگيفته
سراگينه
سراگیتنه
سراگیته
سراگیفت
سرای
سرایان
سرایت
سرایتن
سرایی
سرب
سرباز
سربازان
سربازو
سربازی
سربس
سربسان
سربسه
سربسو
سربسوا
سربند
سربه
سربیته
سربیشه
سرتا
سرتاسر
سرتيپ
سرتیپ
سرجمع
سرحدی
سرخ
سرخبنده
سرخرود
سرخه
سرخومام
سرخپوستان
سرخپوستی
سرخک
سرخکلا
سرخیو
سرد
سرداب
سردار
سرداران
سردارجنگل
سردارو
سردبير
سردبیر
سردر
سردرود
سردشت
سرده
سردي
سردی
سررود
سرري
سرزمين
سرزمین
سرزمینا
سرزنش
سرس
سرسبز
سرسبزی
سرسر
سرشت
سرشماری
سرشناس
سرشناسان
سرشناسو
سرشوماری
سرشۊماري
سرشیو
سرطان
سرعت
سرعین
سرلشکري
سرلک
سرما
سرماىه
سرمايه
سرمایه
سرمربی
سرمشق
سرمقاله
سرمورب
سرموربی
سرنا
سرنشين
سرنشینان
سرنوشت
سرنويشت
سره
سرهم
سرهنگ
سرو
سروا
سروان
سروانتس
سرود
سرودان
سروده
سرور
سرورو
سروستان
سروش
سروصدا
سرولات
سروند
سرويس
سرويسو
سرویس
سرىال
سري
سريال
سرير
سريع
سرپا
سرپرست
سرپرستی
سرپل
سرپناه
سرپيکو
سرپۊشيده
سرچشمه
سرک
سرکار
سرکرده
سرکردگي
سرکردگی
سرکش
سرکو
سرکوب
سرکوبی
سرکوميسر
سرکۊب
سرکۊتۊن
سرگالش
سرگذشت
سرگرد
سرگرم
سرگرمي
سرگرمی
سرگو
سری
سریال
سریالي
سریر
سریع
سریعتر
سزار
سس
سسا
سسان
سسانه
سسه
سسو
سطح
سطحو
سطحي
سطر
سطۊره
سعادت
سعادتمند
سعت
سعد
سعدا
سعدي
سعدی
سعه
سعيد
سعی
سعید
سعیدا
سعیدی
سفارت
سفارش
سفال
سفالت
سفالگری
سفالی
سفانه
سفت
سفته
سفر
سفرنامه
سفره
سفرو
سفري
سفلی
سفيد
سفيدا
سفير
سفید
سفیدرود
سفیدي
سقاخانه
سقز
سقف
سقوط
سك
سكنه
سكه
سكونت
سل
سلاح
سلاحان
سلاطین
سلام
سلامت
سلامی
سلان
سلتیک
سلجه
سلجوقی
سلجوقیان
سلحانه
سلحه
سلسلمراتب
سلسله
سلسيۊس
سلش
سلطان
سلطانه
سلطانی
سلطانیه
سلطنت
سلطنته
سلطنتي
سلطنتی
سلطه
سلفژ
سللحانه
سللۊلو
سلماس
سلمان
سلمو
سله
سلو
سلول
سلوکبن
سلوکوس
سلوکی
سلوکیان
سليا
سليم
سليمان
سلیقه
سلیم
سلیمان
سلیمی
سم
سما
سمام
سماموس
سمان
سماني
سمانی
سماور
سمت
سمفونی
سمفۊني
سمفۊنی
سملقان
سمنان
سمناني
سمند
سمنڊ
سمو
سمي
سمک
سمی
سمیرم
سمیع
سمیعی
سن
سنا
سناتور
سناريو
سنام
سنت
سنتاب
سنتان
سنتر
سنتور
سنتي
سنتی
سنجار
سنجبد
سنجد
سنجر
سنجی
سنخواست
سند
سندان
سندانه
سندرو
سندرک
سنده
سندو
سندي
سندی
سنسو
سنقر
سنن
سنندج
سنه
سني
سنکا
سنکس
سنگ
سنگان
سنگاچين
سنگده
سنگر
سنگسری
سنگلج
سنگه
سنگوكو
سنگي
سنگين
سنگينه
سنگی
سنگین
سنی
سه
سهام
سهامی
سهراب
سهره
سهم
سهمه
سهمیه
سهند
سهیلی
سهیم
سو
سوء
سوا
سوابق
سواحل
سواد
سوادکوه
سوادکوهشهرستان
سوار
سوارا
سواره
سواري
سواری
سواسره
سوال
سوالی
سوباتان
سوبوک
سوتال
سوته
سوخت
سوخته
سود
سوده
سور
سوراخ
سوران
سورخ
سورنا
سوره
سورک
سوری
سوریه
سوز
سوزن
سوزی
سوستان
سوسن
سوسیال
سوسیالیست
سوسیالیستی
سوغات
سوغاتي
سوف
سوفال
سوفالی
سوق
سولطان
سولو
سوم
سومار
سوماسراشهرستان
سوماموس
سومي
سومی
سومین
سون
سونا
سونات
سونتی
سونی
سوو
سوي
سويا
سوگوابر
سوی
سویا
سىاره
سىد
سىو
سي
سيا
سياحن
سيارستاق
سياره
سياست
سياستمدار
سياستمدارو
سياستو
سياسي
سياسی
سياشنبه
سياليستي
سيامك
سياه
سياهان
سياهانا
سياپۊس
سياپۊسو
سياکل
سياکو
سيب
سيبري
سيتار
سيتي
سيتۊاسيۊنيست
سيتۊاسيۊنيستو
سيتۊاسيۊنيسم
سيد
سيدعلی
سيدني
سيده
سيدي
سير
سيرا
سيرۊس
سيزده
سيزدهو
سيس
سيسات
سيستان
سيستم
سيستمان
سيستمه
سيستمهای
سيستمو
سيستمي
سيسيل
سيصد
سيفا
سيفایي
سيفتال
سيفيت
سيفيد
سيفيدو
سيم
سيمبا
سيمجۊر
سيمو
سيمين
سيمپسون
سين
سينا
سيناو
سينزه
سينما
سينمايي
سينه
سينگاپۊر
سيوا
سيواىي
سيوايي
سيودرۊ
سيىرا
سيپا
سيپاهي
سيکا
سيکارۊد
سپ
سپا
سپار
سپانيا
سپانیا
سپانیاي
سپانیایي
سپانیایی
سپاه
سپاهان
سپاهي
سپاهيان
سپاهی
سپاهیان
سپتا
سپتامبر
سپر
سپرده
سپری
سپس
سپه
سپهبد
سپهدار
سپهداری
سپهسالار
سپوكو
سپید
سپیدان
سپیدرود
سپیده
سڀ
سڀني
سک
سکار
سکاىي
سکته
سکنه
سکه
سکو
سکوت
سکولاریسم
سکونت
سکي
سککه
سکۊنت
سگ
سگو
سۊ
سۊبراز
سۊبۊک
سۊتال
سۊتالي
سۊتاي
سۊتته
سۊته
سۊر
سۊراغ
سۊراني
سۊرتمه
سۊرخ
سۊرعت
سۊرمه
سۊرنا
سۊري
سۊريه
سۊریه
سۊسه
سۊسو
سۊسياليست
سۊسياليستو
سۊسياليستي
سۊسياليسم
سۊسۊ
سۊشمبه
سۊفيا
سۊم
سۊماسرا
سۊماسرايي
سۊمالي
سۊمام
سۊمامۊس
سۊنتي
سۊننتي
سۊوتو
سۊوو
سۊىا
سۊي
سۊپر
سۊژه
سۊکارنو
سۊکۊت
سی
سیا
سیاب
سیارستاق
سیاره
سیاست
سیاستان
سیاستمدار
سیاسته
سیاستو
سیاسي
سیاسی
سیالات
سیامک
سیاه
سیاهان
سیاهانه
سیاهو
سیاهپوش
سیاهکل
سیاوش
سیاکل
سیاکلرود
سیای
سیایی
سیب
سیبری
سیبلی
سیتو
سیتی
سیحون
سید
سیدان
سیدحسن
سیر
سیرا
سیرجان
سیردان
سیرقلیه
سیروس
سیری
سیزده
سیزدهم
سیس
سیستان
سیستم
سیستمه
سیسنروس
سیصد
سیف
سیفتال
سیفید
سیفیده
سیل
سیلاخور
سیم
سیما
سیمان
سیمای
سیمبر
سیمرغ
سیمو
سیمور
سیمین
سین
سینا
سینما
سینماانقلاب
سینمان
سینمای
سینمایی
سینه
سینی
سیه
سیوا
سیپيدرۊد
سیگار
سیگارچی
ش
شا
شابک
شاتهماسپ
شاخ
شاخص
شاخه
شاد
شادخال
شادراج
شادروان
شادمهر
شادگان
شادی
شار
شاران
شارلو
شارليز
شارم
شارو
شارژ
شازده
شازند
شاطهماسپ
شاعباس
شاعر
شاعران
شاعرانه
شاعره
شاعرو
شاعري
شاعری
شاعير
شاعيراني
شاق
شاقی
شال
شالدرکا
شالده
شالما
شالکه
شالی
شالیزاران
شالینگچال
شام
شامل
شامله
شامو
شان
شانته
شاندار
شاندرمن
شانزده
شانزدهم
شانزدهمين
شانزدهمی
شانه
شانگهای
شاه
شاهان
شاهد
شاهدشت
شاهدشهر
شاهر
شاهرخ
شاهرخی
شاهرود
شاهرودی
شاهرۊد
شاهزاده
شاهمراد
شاهنامه
شاهنشاهی
شاهنو
شاهه
شاهو
شاهين
شاهی
شاهین
شاى
شاىد
شاىعا
شاي
شايد
شاپا
شاپور
شاپۊر
شاکرمي
شاکرمی
شاکري
شاکری
شاگرد
شاگردان
شاگردانه
شاگردی
شاید
شایسته
شایعه
شایلاک
شایه
شب
شبان
شبانه
شباهت
شبخوس
شبستان
شبستر
شبنم
شبه
شبهه
شبو
شبيخۊن
شبيه
شبکه
شبیه
شت
شتاب
شتالو
شتد
شتري
شترک
شتم
شتن
شتنه
شته
شتو
شتي
شتيان
شتيانی
شتيد
شتيم
شتينا
شتی
شتیان
شتید
شجاع
شجاعی
شخ
شخص
شخصا
شخصه
شخصي
شخصيت
شخصيتو
شخصيتي
شخصی
شخصیت
شخصیتان
شخصیته
شد
شدت
شدم
شدن
شدند
شده
شديد
شديدا
شدگان
شدید
شدیدا
شر
شراب
شرارت
شرايطم
شرایط
شرایطه
شرایطي
شربت
شربیان
شرح
شرط
شرع
شرف
شرفشاده
شرق
شرقى
شرقي
شرقی
شركت
شرمدشت
شرمن
شره
شرو
شروان
شروع
شروين
شرير
شريف
شريفک
شرکت
شرکتارن
شرکتان
شرکتو
شرۊع
شریدان
شریر
شریعت
شریعتمدار
شریف
شریفي
شریک
شریکان
شست
شش
ششده
ششصد
ششم
ششمین
شصت
شطرنج
شعار
شعبان
شعبانی
شعبه
شعر
شعرا
شعران
شعرانا
شعرانه
شعراني
شعربافو
شعرم
شعره
شعرهای
شعرو
شعرون
شعري
شعیبیه
شغال
شغل
شغلان
شغلی
شفا
شفارود
شفارۊد
شفت
شفته
شفتی
شفق
شفیع
شق
شكار
شكاری
شكال
شكركش
شكست
شكسته
شكل
شكله
شكن
شكنان
شل
شلخت
شلفین
شلليک
شلمان
شلماني
شلمزار
شله
شلوار
شليک
شلیته
شلیک
شم
شما
شمار
شماره
شماری
شماریه
شمال
شمالي
شمالی
شمام
شمبه
شمخال
شمرا
شمردمحله
شمره
شمس
شمسای
شمسي
شمسی
شمشير
شمشيربند
شمشیر
شمشیرانه
شمشیری
شمع
شمه
شمو
شميران
شمی
شمیرانات
شن
شنا
شناخت
شناختن
شناخته
شناختي
شناختید
شناس
شناسان
شناسايي
شناسایی
شناسده
شناسنامه
شناسنن
شناسنه
شناسه
شناسهفرهنگ
شناسو
شناسي
شناسيدي
شناسی
شناسید
شناسیدی
شناسیه
شناق
شنايي
شنایی
شنبه
شندره
شنفکرو
شنم
شنن
شنه
شني
شنگ
شنگري
شه
شهاب
شهادت
شهبا
شهدا
شهدای
شهدي
شهدی
شهر
شهرا
شهراب
شهرام
شهران
شهرباني
شهربانی
شهرت
شهردار
شهرداران
شهرداري
شهرداری
شهرداریان
شهرداریه
شهرری
شهرسازی
شهرستان
شهرستانا
شهرستانان
شهرستانی
شهرستو
شهرضا
شهرك
شهره
شهرها
شهرهان
شهرهای
شهرو
شهروند
شهروندان
شهروندو
شهروندی
شهرىار
شهري
شهريار
شهريور
شهرک
شهرکرد
شهری
شهریار
شهریاران
شهریور
شهسوار
شهلا
شهمیرزاد
شهوند
شهيد
شهید
شهیدا
شهیدان
شو
شوال
شواليه
شواهد
شوب
شوتور
شوخی
شود
شودريک
شور
شورا
شوراب
شورای
شورش
شورشه
شورشي
شورشيان
شورشيانه
شورشی
شورشیان
شورشیانه
شورمست
شورمیج
شورو
شوروع
شوروم
شوروی
شورپور
شوری
شوریده
شوسف
شوش
شوشتر
شوعار
شوغل
شوق
شوقان
شوم
شوما
شومار
شوماره
شوماری
شومال
شومالی
شومام
شومن
شون
شونان
شونت
شوند
شونده
شونه
شوو
شوي
شوگون
شوی
شوید
شویی
شى
شىخ
شىون
شي
شيان
شيبا
شيباتا
شيته
شيخ
شير
شيراز
شيرج
شيرجۊپۊشت
شيروان
شيرين
شيريني
شيش
شيشمين
شيشه
شيشو
شيطان
شيطو
شيعه
شيعيان
شيكاگا
شيلر
شيله
شيلي
شيم
شيما
شيمازو
شيمه
شيمي
شيميايي
شيمی
شين
شينا
شيناسان
شيناسم
شيناسو
شيناسي
شينه
شينگن
شيون
شيوه
شيپۊر
شيپۊره
شيپۊري
شيکار
شيکست
شيکي
شپجی
شپزی
شک
شکار
شکارا
شکاري
شکارچي
شکارچيان
شکارچی
شکاری
شکاف
شکایت
شکر
شکراب
شکرکش
شکست
شکسته
شکسپير
شکفته
شکل
شکلات
شکله
شکلي
شکم
شکن
شکنجه
شکنه
شکو
شکور
شکي
شکيبايي
شکی
شکیبی
شگون
شۊ
شۊخي
شۊر
شۊرش
شۊرشو
شۊرشي
شۊري
شۊرۊع
شۊستن
شۊعار
شۊما
شۊمار
شۊماره
شۊمال
شۊمالغربي
شۊمگير
شۊن
شۊنت
شۊنه
شۊهرتي
شۊي
شی
شیء
شیاده
شیار
شیان
شیجان
شیخ
شیخان
شیدا
شیدی
شیر
شیراباد
شیراز
شیرازی
شیرج
شیرجوپشت
شیرزاد
شیرنی
شیروان
شیروانی
شیرود
شیرودی
شیرکده
شیرکلا
شیرکوه
شیرگاه
شیرگاهی
شیری
شیرین
شیرینی
شیش
شیشه
شیشومی
شیطان
شیطانی
شیعه
شیلات
شیلنگان
شیله
شیلی
شیم
شیمه
شیمی
شیمیایی
شین
شیناسی
شینه
شیوع
شیون
شیوه
شیکارچی
شیکاگو
شیکل
ص
صاب
صابر
صابری
صابون
صابي
صاحاب
صاحب
صاحبقرانیه
صاحبو
صادر
صادرات
صادق
صادقانه
صادقي
صادقی
صارا
صارای
صارایان
صاف
صالح
صالحان
صالحی
صامت
صاي
صبا
صباباتری
صباح
صبح
صبحانه
صبر
صبۊري
صحاب
صحبت
صحرا
صحرایی
صحن
صحنه
صخره
صد
صدا
صداقت
صداىي
صدای
صدایه
صدایی
صدتا
صدته
صدر
صدسال
صدف
صدها
صدو
صدوق
صدی
صدیقی
صرع
صرف
صرفان
صص
صعلۊک
صعود
صغر
صغری
صغیر
صف
صفا
صفاری
صفاریان
صفاي
صفای
صفت
صفح
صفحات
صفحه
صفدري
صفر
صفراباد
صفرابسته
صفره
صفه
صفوي
صفويان
صفويه
صفوی
صفویان
صفویه
صفي
صفی
صل
صلاح
صلح
صلي
صلیبی
صمد
صمدزاده
صمدی
صميمي
صناىع
صنايع
صنایع
صندلي
صندلی
صندو
صندوق
صنعت
صنعتي
صنعتگران
صنعتی
صنم
صنیع
صه
صو
صوب
صوبه
صوتی
صورت
صورته
صورتی
صوفی
صوفیان
صولح
صوماسرایی
صومای
صومعه
صىقل
صيات
صيحاني
صيف
صيل
صيه
صۊب
صۊرت
صۊرتي
صۊفي
صۊفيه
صۊل
صۊندو
صیاد
صیادلر
صیادیه
صیحانی
صید
صیدون
صیقل
صیقلان
ض
ضا
ضاع
ضبط
ضحاک
ضد
ضدانحصار
ضدسرمایه
ضرب
ضربات
ضربه
ضررو
ضروری
ضرۊري
ضع
ضعف
ضعيف
ضعيفا
ضلع
ضلعی
ضمن
ضمنا
ضمير
ضميرو
ضمیمه
ضو
ضي
ضيابر
ضيايي
ضيح
ضۊ
ضۊر
ضۊع
ضۊعات
ضی
ضیاء
ضیابر
ضیابری
ضیاظریفی
ط
طا
طارم
طاعتی
طاعون
طاق
طاقت
طالب
طالبی
طالش
طالشان
طالع
طالقان
طالقانی
طالوقانی
طاهباز
طاهر
طاهری
طاهریان
طاووس
طاىفه
طایفه
طب
طباطبایی
طبان
طبرستان
طبري
طبرک
طبری
طبس
طبع
طبق
طبقات
طبقاتي
طبقاتی
طبقه
طبقیه
طبل
طبي
طبيعت
طبيعي
طبيعی
طبیعت
طبیعی
طر
طراح
طراحان
طراحي
طراحی
طراز
طراف
طرح
طرحان
طرحه
طرراحی
طرز
طرشت
طرف
طرفا
طرفدار
طرفداران
طرفدارو
طرفداري
طرفه
طرفي
طرفی
طرهان
طرود
طريق
طرۊوش
طریق
طسوج
طعم
طغان
طغرل
طغیان
طفل
طفلان
طلا
طلاق
طلايي
طلايی
طلای
طلایانه
طلایی
طلب
طلبان
طلبه
طلبو
طلبي
طلبی
طلس
طلسم
طلوع
طنابداران
طنز
طهماسب
طهماسبی
طهماسپ
طو
طور
طوری
طوس
طوسی
طوطی
طوفان
طوق
طول
طولارود
طولانی
طولای
طویله
طى
طي
طياره
طۊس
طۊل
طۊلاني
طی
طیبی
طیور
ظ
ظاهر
ظاهرا
ظاهرن
ظاهري
ظاهری
ظرف
ظرفان
ظرفو
ظرفیت
ظروف
ظرۊف
ظفر
ظلم
ظهر
ظهور
ظهيرالدين
ظهیرالدین
ظو
ع
عا
عابدینی
عادت
عادل
عادلانه
عادلشا
عادلی
عادي
عادی
عار
عارضه
عارف
عارناموس
عارۊس
عازم
عاشق
عاشقانه
عاشقم
عاشور
عاشورا
عاشورپور
عاشۊرپۊر
عاشیقا
عاع
عاقبت
عالم
عالمه
عالمیان
عالي
عالی
عام
عامل
عاملان
عاملو
عامه
عامۊپسر
عامیانه
عان
عایق
عبادت
عبارت
عبارتده
عبارتند
عبارتي
عباس
عباسعلي
عباسعلی
عباسي
عباسی
عبد
عبدالباقي
عبدالحسین
عبدالرحمن
عبدالرزاق
عبدالرضايی
عبدالعظیم
عبدالعلي
عبدالفتاح
عبدالقادر
عبدالله
عبدالملک
عبدالناصر
عبداله
عبدالوهاب
عبدالکريمي
عبدالکریم
عبدل
عبدلی
عبده
عبدور
عبدی
عبرت
عبور
عتبات
عثمان
عثمانی
عج
عجایب
عجب
عجم
عجیب
عدالت
عدالتی
عدد
عددو
عددي
عدس
عدل
عدم
عده
عذر
عذرخواه
عراق
عراقي
عراقی
عرب
عربان
عربستان
عربو
عربي
عربی
عرصه
عرض
عرضه
عرف
عرفان
عرفي
عروس
عروسک
عروسی
عرۊسي
عزا
عزاداري
عزالدین
عزای
عزت
عزل
عزيز
عزيزه
عزيمت
عزیز
عسل
عسلویه
عسگر
عسگرا
عشاق
عشایر
عشرت
عشق
عشقنامه
عشقه
عشقی
عشوه
عصا
عصباني
عصبي
عصر
عضا
عضدالاسلام
عضدالدو
عضدالدوله
عضدی
عضو
عضوا
عضويت
عضویت
عطا
عطاءالله
عطارو
عطر
عطره
عطش
عظمت
عظيمي
عظیم
عظیمی
عفرين
عفو
عقاب
عقاید
عقب
عقبي
عقد
عقدا
عقل
عقه
عقيده
عقیده
عقیلی
عكس
علاء
علاءالدین
علاقمند
علاقه
علامت
علامرودشت
علامه
علاوه
علاي
علایی
علت
علف
علفی
علل
علم
علما
علمای
علمده
علمي
علميه
علمی
علمیه
علني
علوم
علوي
علويي
علوی
علویان
على
علي
عليا
عليخاني
عليرضا
عليشاه
عليه
علۊم
علی
علیا
علیرضا
علیزاده
علیقلی
علیه
عمارت
عمارلو
عمان
عمدا
عمده
عمر
عمران
عمرانی
عمری
عمق
عمل
عملا
عملي
عمليات
عملياته
عملياتي
عملکرد
عملیات
عمو
عموم
عمومي
عمومی
عمۊجو
عمۊم
عمۊمي
عناصر
عنایت
عنبر
عنبرا
عنبران
عنصر
عنوان
عه
عهد
عهدنامه
عهده
عو
عوارض
عواقب
عوامل
عواملي
عواید
عود
عودلاجان
عوض
عوضا
عوضابو
عوضه
عوضو
عولوم
عومر
عونوان
عونوانه
عوهده
عىن
عي
عيد
عيدالت
عيسی
عيللت
عيلمي
عين
عکاسی
عکس
عکسان
عکسخانه
عکسو
عککاس
عۊثماني
عۊد
عۊرفي
عۊصيانبزا
عۊضو
عۊمر
عۊمۊمي
عۊنوان
عۊنوو
عیاری
عیال
عیب
عیبارت
عید
عیسی
عیمارت
عیمارتان
عین
عینک
غ
غات
غاج
غار
غاران
غارت
غارته
غارتگر
غاز
غازا
غازسانان
غازيان
غازیان
غافل
غالب
غان
غبرايي
غدازنم
غداشلو
غدي
غذا
غذاخوری
غذان
غذايی
غذای
غذایان
غذایی
غرافي
غرافياىي
غرافی
غرامت
غرب
غربت
غربي
غربی
غرق
غرور
غروی
غريب
غریب
غریبه
غزال
غزاله
غزل
غزلان
غزنوي
غزنوی
غزنویان
غش
غصب
غضب
غفور
غل
غلات
غلاف
غلام
غلامحسين
غلامحسین
غلامرضا
غلامی
غلب
غلبه
غلتک
غلط
غلطه
غلطو
غله
غم
غمزه
غنا
غني
غنی
غو
غورصه
غوره
غوز
غوصه
غوغا
غول
غىر
غىرمجاز
غىره
غيار
غيبت
غير
غيرمجاز
غيرمنظم
غۊب
غۊبار
غۊز
غۊل
غۊلامو
غیبت
غیر
غیرانتفاعی
غیردولتی
غیررایگان
غیرشخصی
غیرقانوني
غیرقانونی
غیرنظامی
غیره
ـ
ـن
ـه
ف
فا
فاتح
فاجعه
فاخته
فادا
فادادی
فاده
فار
فاراب
فارابي
فارابی
فارس
فارسان
فارست
فارسه
فارسو
فارسي
فارسی
فارغ
فارغان
فارق
فارل
فارنهاىت
فارنهایت
فاروج
فاریاب
فاز
فاسد
فاشيزم
فاصل
فاصله
فاصلیه
فاضل
فاضلاب
فاضله
فاضلی
فاطمه
فاطمی
فاعل
فال
فالکو
فاميل
فاميلي
فامیل
فامیلی
فامیلیا
فاندرست
فاندرستن
فاندرسته
فاندريد
فاندری
فانرسیدن
فانوس
فانی
فاىرفاکس
فاىروال
فاىل
فاىلان
فاىلو
فايل
فاکسترا
فاکشه
فایرفاکس
فایق
فایل
فبريه
فت
فتاب
فتابگردان
فتابی
فتاجو
فتارستن
فتاونشست
فتح
فتحعلي
فتحعلی
فتحه
فتحی
فترک
فترکستد
فترکسن
فترکسه
فترکن
فترکه
فتمه
فتنه
فته
فتو
فتوحی
فتورکسته
فتورکستید
فتورکسن
فتوزردی
فتومات
فتونشست
فتي
فجر
فح
فخب
فخرا
فخرالدو
فخرالدوله
فخرالدین
فخرالدینی
فخرایي
فخرایی
فخری
فدا
فداىي
فداي
فدايي
فداکار
فدایی
فدراسيو
فدرال
فدرالي
فده
فدي
فدک
فدید
فر
فرا
فرات
فراتی
فراد
فرادي
فرار
فراری
فراز
فراشبند
فراشته
فراق
فرامرز
فراموش
فرانت
فرانس
فرانسه
فرانسوي
فرانسوی
فرانسویان
فرانسيس
فرانسيسکو
فرانسیسکو
فرانو
فرانک
فرانکفورت
فرانکو
فرانکي
فراهان
فراهم
فراوان
فراوانی
فراکسیون
فرتن
فرج
فرجام
فرح
فرحزاد
فرخ
فرخان
فرخزاد
فرخی
فرد
فردا
فردایش
فردريش
فردریک
فرده
فردو
فردوس
فردوسي
فردوسی
فردوسیه
فردي
فردۊسي
فرزاد
فرزانه
فرزند
فرزندان
فرس
فرسا
فرستاده
فرسنه
فرسه
فرسي
فرش
فرشاد
فرشته
فرشتگان
فرصت
فرصته
فرض
فرضي
فرضيه
فرق
فرقی
فرم
فرمان
فرماندار
فرمانداری
فرمانده
فرماندهي
فرماندهی
فرمانرو
فرمانروا
فرمانروايان
فرمانروايي
فرمانروایان
فرمانروایی
فرمانیه
فرمایید
فرمت
فرمن
فرمو
فرمی
فرناندو
فرنگی
فرهاد
فرهادخان
فرهادي
فرهنگ
فرهنگان
فرهنگستان
فرهنگسرا
فرهنگسرای
فرهنگنومه
فرهنگه
فرهنگو
فرهنگي
فرهنگيان
فرهنگی
فرو
فروحی
فرودگاه
فروردين
فروردین
فروزان
فروزانفر
فروش
فروشان
فروشای
فروشگاه
فروشی
فروغ
فرون
فرىدۊن
فرياد
فريد
فريدريش
فريدمن
فريدون
فريدۊن
فريقا
فرۊت
فرۊراسيا
فرۊش
فرۊشي
فری
فریاد
فریب
فریبرز
فرید
فریدن
فریده
فریدون
فریدونکنار
فریدونی
فریدۊن
فریضه
فریقا
فریقایی
فریم
فریمان
فرین
فزا
فزار
فزارو
فزاري
فسا
فساد
فسانه
فستيوال
فستیوال
فسر
فسرو
فسري
فسفر
فسه
فسو
فسکي
فسکيه
فشار
فشارو
فشاري
فشالم
فشتم
فشم
فشين
فشک
فصل
فصلان
فصلنامه
فصول
فضا
فضايي
فضای
فضایه
فضل
فضۊل
فعال
فعالان
فعالو
فعالىتو
فعاليت
فعاليتان
فعاليته
فعاليتو
فعالیت
فعالیتا
فعالیتان
فعالیتهای
فعالیتو
فعل
فعلا
فعلو
فعلي
فعلی
فغانستان
فق
فقا
فقر
فقرا
فقري
فقط
فقي
فقيت
فقير
فقيرو
فقیت
فقیران
فكر
فلات
فلاتو
فلاح
فلاطۊن
فلاطۊني
فلان
فلانی
فلاورجان
فلاپی
فلاکت
فلج
فلذا
فلز
فلزات
فلزی
فلسطين
فلسطينه
فلسطيني
فلسطین
فلسفه
فلسفي
فلسفی
فلش
فلفل
فلم
فلو
فلوت
فلک
فلکه
فلکي
فمنيستي
فمنيسم
فن
فنا
فناوری
فنترکه
فنجان
فند
فندا
فندرستید
فندرسک
فندرسکی
فندری
فندرید
فندق
فندي
فنلادیان
فنلاند
فنلاندي
فنلاندی
فنلاندیان
فنوج
فني
فنگيته
فنی
فه
فهرج
فهرست
فهمسن
فهنریش
فهيمه
فهیمه
فو
فوت
فوتبال
فوتبالا
فوتبالیست
فوتورك
فوتوركسته
فوتوركستيد
فوتوركه
فوتورک
فوتورکسته
فوتورکستید
فوتورکسن
فوتورکسه
فوتورکه
فوتورکید
فورانه
فوراني
فورت
فورد
فورم
فوريه
فوری
فوریه
فوسینه
فوسینید
فوق
فولات
فولاد
فولکلور
فومن
فومنه
فومنی
فونته
فونس
فوگودن
فوگوده
فوگوردانه
فوگوردستن
فوگوردسته
فوگورده
فىس
في
فيد
فيدل
فير
فيرشته
فيرو
فيرۊزان
فيزيک
فيزيکي
فيزۊزان
فيس
فيشر
فيشينگ
فيل
فيلتر
فيلد
فيلدو
فيلسوف
فيلسۊف
فيلسۊفو
فيلم
فيلمان
فيلمانه
فيلمز
فيلمساز
فيلمسازو
فيلمنامه
فيلمه
فيلمو
فيليپ
فيليپين
فيليکس
فينياس
فيوي
فيپري
فيچينه
فيکر
فيگيته
فٽبال
فک
فکته
فکر
فکري
فکری
فکشه
فکه
فگردو
فگرسن
فگرسه
فگن
فگنس
فگنه
فگوردانه
فگيته
فگيره
فگيفته
فگۊردستن
فگۊردسته
فگیره
فگیفته
فۊت
فۊتبال
فۊتبالي
فۊتباليست
فۊد
فۊداشته
فۊدن
فۊذي
فۊرتن
فۊرتنکس
فۊرشکي
فۊرصت
فۊرۊز
فۊرۊش
فۊسا
فۊشازده
فۊل
فۊلخنسيو
فۊلکس
فۊندو
فۊکۊنين
فۊکۊنین
فی
فیات
فیاض
فیته
فیر
فیرورق
فیروز
فیروزا
فیروزبهرام
فیروزه
فیروزکوه
فیز
فیزیولوژیک
فیزیک
فیس
فیسک
فیش
فیض
فیضیه
فیلبند
فیلده
فیلسوف
فیلسوفان
فیلسوفو
فیلفیل
فیلم
فیلمان
فیلمانی
فیلمسازی
فیلمنامه
فیلیپ
فین
فینال
فینیسترا
فینیکس
فیودالی
فیکر
فیکوس
فیگیته
فیگیره
فیگیفت
فیگیفتن
فیگیفته
ق
قا
قاب
قابل
قابله
قابليت
قابۊس
قاتل
قاتلان
قاتلو
قاتوق
قاجار
قاجاري
قاجاريه
قاجاری
قاجاریه
قاخان
قادر
قادري
قادسيه
قادیکلا
قار
قارماق
قارن
قاره
قارچ
قاسم
قاسماباد
قاسمابادي
قاسمباد
قاسمی
قاسید
قاشق
قاصد
قاصدان
قاضي
قاضی
قاضیان
قاطر
قاطع
قاطی
قاعده
قاقازان
قالب
قالبان
قالبو
قالي
قاليچه
قالی
قامت
قان
قانع
قانون
قانونان
قانونه
قانونی
قانۊن
قانۊنشيکن
قانۊني
قاومت
قاى
قاىان
قاي
قايق
قاچاقچیان
قای
قایق
قایقران
قایقرانی
قایم
قایي
قایی
قبادي
قبال
قبايل
قبر
قبرا
قبران
قبرستان
قبض
قبل
قبلا
قبلش
قبلن
قبلنان
قبله
قبلي
قبلی
قبول
قبولا
قبولی
قبيله
قبۊل
قبۊلا
قبیل
قبیله
قتل
قتلغشاه
قته
قحطی
قد
قدامات
قدر
قدرت
قدرتمندی
قدرته
قدرداني
قدردو
قدس
قدسي
قدسی
قدم
قدمت
قدمتی
قدمگاه
قديم
قديمان
قديمو
قديمي
قديمی
قدیم
قدیمان
قدیمه
قدیمون
قدیمي
قدیمی
قدیمیان
قدیمیه
قرا
قراتکين
قراتکین
قرار
قرارداد
قراردادو
قراردارد
قراره
قرامانلو
قران
قراي
قربان
قرباني
قربانی
قرداد
قرص
قرض
قرضه
قرق
قرقاول
قرمز
قرمزی
قرن
قرنطينه
قرنطینه
قرنو
قره
قروق
قرون
قروه
قريب
قرچک
قرۊن
قریب
قریشی
قریه
قزاق
قزاقان
قزاقستان
قزاقو
قزل
قزلباش
قزلباشو
قزوين
قزوین
قزوینی
قسم
قسمت
قسمتان
قسمتانی
قسمته
قسمتی
قشر
قشلاق
قشم
قشنگ
قشنگتر
قشنگه
قشنگی
قشون
قصاب
قصابي
قصبه
قصد
قصر
قصصه
قصه
قصیده
قضایی
قضاییه
قضيه
قضیه
قطار
قطب
قطبان
قطبی
قطر
قطره
قطع
قطعات
قطعاتی
قطعان
قطعه
قطعي
قطعی
قطه
قطور
قع
قعيت
قعيتي
قفس
قفسه
قفقاز
قفقازي
قفل
ققنوس
قل
قلا
قلاده
قلال
قلاي
قلايه
قلایان
قلب
قلبي
قلبی
قلعه
قلعهان
قلم
قلمداد
قلمرو
قلمرۊ
قله
قلي
قليت
قلی
قم
قمر
قمران
قمري
قمری
قمی
قنات
قناری
قنبرخان
قند
قنديل
قندی
قه
قهاب
قهرمان
قهرماني
قهرمانی
قهستان
قهقهه
قهوه
قو
قوا
قوام
قوامی
قوانلو
قوانين
قوانین
قوای
قوت
قودرت
قودرته
قوران
قوربان
قوربانی
قوردتا
قورص
قوری
قوق
قوقو
قوقي
قول
قولدوني
قولدونی
قوم
قومان
قومی
قونسولگری
قوه
قوي
قويتر
قوچ
قوچان
قوچانی
قوی
قىد
قىدو
قي
قيام
قيامو
قيد
قيمت
قچه
قۊبيل
قۊدرت
قۊرص
قۊشۊن
قۊق
قۊوا
قۊواي
قۊوت
قۊوتگا
قی
قیام
قیامه
قیامو
قیانوس
قیانوسیه
قیر
قیطریه
قیمت
ك
كاتسويی
كاخ
كار
كارا
كاران
كارخانان
كارخانه
كارو
كاروانسرا
كارگردان
كارگردانی
كاری
كازی
كاس
كاسپيا
كاسپيان
كاسپين
كاسپيو
كاشف
كاظم
كامل
كاملا
كانال
كانديد
كايي
كتاب
كتی
كجور
كرا
كربلايی
كرد
كردمحله
كرف
كره
كريم
كرگان
كس
كسان
كسانی
كسب
كسي
كسی
كش
كشاورز
كشاورزي
كشاورزی
كشت
كشل
كشه
كشور
كشيده
كفته
كفه
كل
كلا
كلاردشت
كلاسفلی
كلاشم
كلاك
كلان
كلاه
كلايه
كلده
كلسترول
كلسيا
كلسيم
كلشتر
كلمه
كله
كليد
كليك
كلی
كم
كماچال
كمتر
كمر
كمره
كمسو
كمك
كميجانی
كنار
كنتاكی
كنترل
كنجد
كندسر
كنشين
كننده
كنه
كنگريان
كنین
كه
كهدم
كهنه
كو
كوتاه
كودتا
كورا
كورتي
كورقوقو
كورقوقویان
كوره
كوروساوا
كوشان
كوشته
كوشه
كوشيد
كوكلاس
كومك
كوموك
كونسرت
كونه
كونوس
كونيد
كوه
كوهان
كوچترين
كوچسفهان
كوچك
كوچي
كوچيكی
كوچی
كوچیك
كوگا
كوگاه
كي
كيا
كياسر
كياشهر
كياييان
كيتاب
كيرا
كيسم
كيش
كيلان
كيله
كيلومتر
كيلومتري
كيلوواتی
كيوتو
كيوسو
كيوی
كيپوشی
كيچی
كپورچال
كپي
كچل
كچلك
كۊرو
كۊنه
كی
كیا
كیاشهر
كیتاب
كیتابخانه
كیشاورزی
كیشور
كیلو
ل
لا
لاء
لاب
لاباما
لابدو
لات
لاتون
لاتين
لاتيني
لاتین
لاجان
لاجانه
لاجانی
لاجو
لاجون
لاخو
لار
لارستان
لاري
لاريجان
لاريس
لاریجان
لازم
لازمه
لاس
لاسرنا
لاسکا
لاشار
لاشایی
لاشت
لاشه
لاغ
لاغر
لافند
لافندبازی
لاق
لاك
لال
لالا
لاله
لاليگا
لالی
لام
لامانچا
لامرد
لان
لانه
لانکا
لانگستریت
لاهوتی
لاهيجان
لاهيجي
لاهۊتي
لاهیجان
لاهیجانی
لاهیجی
لاودن
لاویج
لاىحه
لاىه
لاي
لايحه
لاين
لايه
لايو
لاپاز
لاک
لاکان
لاکــو
لاکو
لاکوتا
لاکوی
لاکۊ
لاگين
لای
لایجو
لایحه
لایه
لایپزیگ
لایی
لب
لبا
لباس
لباسان
لباني
لبت
لبته
لبخند
لبرتو
لبله
لبنان
لبنیات
لبه
لبو
لبوم
لبومان
لبومی
لبک
لبۊرز
لبۊم
لبۊمه
لبۊمو
لت
لتایی
لتر
لترناتیو
لته
لتو
لتي
لتی
لجاىتو
لجزایر
لح
لحاظ
لحسن
لحظه
لحق
لحن
لخي
لد
لدمن
لدن
لدو
لدوانی
لذت
لر
لرد
لرده
لردگان
لرز
لرزه
لرستان
لرۊد
لس
لسبو
لستو
لسه
لسينکي
لش
لشت
لشه
لشکر
لشکري
لشکرکشي
لشکری
لطان
لطانپۊر
لطف
لطفا
لطفی
لطه
لعیا
لغت
لغتنامه
لغو
لـله
لف
لفرد
لفردو
لفظ
لفمجان
لفو
لفوت
لفور
لفورک
لفين
لقاي
لقب
لقد
لل
للا
للاحسن
للحق
للرد
لله
لم
لمان
لماني
لمانی
لملل
لمه
لمو
لمي
لمپیک
لمۊت
لمۊتي
لمیر
لن
لنجان
لند
لندن
لنده
لنه
لنين
لنکران
لنگ
لنگر
لنگرود
لنگرودی
لنگرۊد
لنگرۊدي
لنگه
لنگو
له
لهجه
لهجیه
لهستان
لهستاني
لهستو
لهه
لو
لوا
لوازم
لواسان
لوان
لوبيا
لوبیا
لوتری
لوتکا
لوح
لوده
لودگی
لوسیا
لوشان
لوطی
لوغت
لولمان
لوله
لومینیوم
لوندويل
لوندویل
لونسو
لوي
لويت
لويی
لوچه
لوکا
لوکوموتیو
لوی
لویزان
لویی
لىلا
لي
ليال
ليالستان
ليان
ليبرال
ليجاركی
ليجارکي
ليد
ليدا
ليدي
ليزا
ليس
ليسار
ليسانس
ليست
ليسن
ليشاوندان
ليشتي
ليشيا
ليف
ليفبي
ليفکۊ
ليلا
ليله
ليلي
ليم
ليمو
لين
لينا
لينكو
لينكولن
لينچ
لينکه
لينکو
لينگ
لينۊکس
ليه
ليو
ليواس
ليک
ليگ
لپ
لپه
لچ
لک
لکامل
لکساندر
لکساندي
لکلو
لکه
لککه
لکۊل
لگ
لگا
لگرانت
لگۊ
لۊ
لۊتکا
لۊده
لۊر
لۊلمان
لۊم
لۊمت
لۊور
لۊي
لۊکزامبو
لۊکس
لی
لیالستان
لیان
لیباس
لیبرال
لیتوانی
لید
لیراوی
لیسار
لیسانس
لیسانسا
لیسانسه
لیست
لیش
لیف
لیفت
لیل
لیلا
لیلان
لیلکی
لیلی
لیم
لیما
لیمانداراب
لیمو
لین
لینچ
لینک
لینکان
لینکو
لینکون
لیه
لیواس
لیواسه
لیوان
لیچارگی
لیک
لیگ
م
ما
مابين
مابین
مات
ماتريکس
ماتسودايرا
ماتم
ماتو
ماتور
ماتوران
ماتۊر
ماتۊران
ماتۊشکه
ماجرا
ماجرای
ماد
مادا
مادام
مادان
مادر
مادرم
مادره
مادريد
مادری
مادرید
ماده
مادورو
مادون
مادي
مادگی
مادی
مادیان
مار
ماران
ماربین
مارتين
مارتیروسیان
مارد
ماردان
ماردیون
مارس
مارشال
مارلو
مارلیک
مارلیکه
ماره
مارو
مارىو
ماري
ماريا
ماريو
مارچ
مارکتینگ
مارکز
مارکس
مارکسيست
مارکسيستي
مارکسيسم
مارگو
مارگون
ماری
ماریا
مارین
ماریو
ماریکوپا
مازارستاق
مازرون
مازرونی
مازرۊن
مازندران
مازندراني
مازندرانی
مازو
مازودره
مازيار
مازگاه
مازی
مازیار
ماسال
ماسالی
ماساهيده
ماست
ماسترا
ماسوله
ماسک
ماسۊله
ماشالله
ماشين
ماشينان
ماشک
ماشین
ماشینو
ماشینی
ماضي
مافیا
مافیایی
ماقبل
مال
مالا
مالارد
مالان
مالايي
مالخاني
مالده
مالفجان
مالمو
ماله
مالي
ماليات
مالياتو
ماليه
مالک
مالکو
مالکيت
مالکیت
مالی
مالیات
مالیاتی
مام
مامان
مامطیري
مامور
مامورو
ماموریت
ماموریتا
مان
مانان
مانتو
مانتيک
مانتیک
مانده
ماندگار
مانستان
مانستن
مانسته
مانع
مانلي
مانليان
مانند
مانه
مانو
مانوي
ماني
مانيفسته
مانگ
مانگتو
مانگيل
مانی
مانیتور
ماه
ماهان
ماهدشت
ماهر
ماهرو
ماهروزه
ماهشهر
ماهفروز
ماهنامه
ماهه
ماهو
ماهواره
ماهي
ماهيان
ماهيته
ماهيده
ماهی
ماهیان
ماهیت
ماهیگیر
ماهیگیری
ماوس
ماىل
ماىه
ماي
مايا
مايع
مايل
مايه
مايي
ماچيان
ماژور
ماک
ماکان
ماکس
ماکلان
ماکلوان
ماکو
ماکی
ماکیان
ماگو
مایا
مایر
مایل
مایه
مایکل
مایی
مب
مبادلات
مبارزات
مبارزه
مبارک
مبارکه
مبانی
مبتلا
مبتلایان
مبتني
مبدا
مبدل
مبر
مبش
مبشو
مبلغ
مبلغان
مبلغی
مبني
مبيا
مبۊلانس
مت
متا
متاسفانه
متافيزيک
متال
متان
متحد
متحده
متحرک
متحولا
متخصص
متخلص
متر
مترادف
متراکم
مترجم
مترجمان
مترقي
مترمربع
متره
مترو
متري
متری
متشنج
متشکل
متصل
متعدد
متعصب
متعلق
متعلقات
متعهد
متغیر
متغییر
متفاوت
متفاوته
متفاوتی
متقارن
متمایز
متمرکز
متمم
متن
متنه
متنوع
مته
متهم
متهمان
متوجه
متوسط
متوسطه
متوسل
متوقف
متولد
متيو
مث
مثال
مثبت
مثل
مثلا
مثلان
مثلن
مثله
مثنی
مجارستان
مجارستو
مجاز
مجازات
مجازي
مجازی
مجانی
مجاهد
مجاور
مجاورت
مجبور
مجبۊر
مجبۊرا
مجتبی
مجتمع
مجتمعی
مجتهد
مجتهدي
مجتهدی
مجد
مجدا
مجدالدو
مجدالدین
مجددا
مجدی
مجذۊب
مجرۊح
مجری
مجزا
مجسمه
مجلات
مجلس
مجلسه
مجلسو
مجلسی
مجلله
مجله
مجليس
مجلیه
مجمع
مجموع
مجموعه
مجموعیه
مجمۊعا
مجمۊعه
مجمۊعي
مجنه
مجهز
مجو
مجوز
مجيد
مجيک
مجی
مجید
مجیدی
مجیدیه
محاسبات
محاصره
محافظ
محافظت
محافظه
محافل
محاله
محاکمه
محبت
محبوب
محبوبیت
محبۊب
محبۊبيت
محبۊبیت
محترم
محتشم
محتوا
محجوبی
محدود
محدودا
محدوده
محدودیت
محدودیه
محدۊد
محدۊده
محراب
محرابي
محرم
محرمانه
محرمانگي
محروم
محرومان
محرک
محرۊم
محسن
محسنی
محسوب
محسۊب
محصص
محصول
محصولات
محصولان
محصوله
محصۊل
محصۊلات
محصۊلان
محصۊله
محصۊلو
محصۊلي
محضر
محفظه
محقق
محققان
محققين
محققی
محل
محلات
محلان
محلشناسي
محلله
محللي
محللی
محله
محلي
محلی
محلیه
محم
محمد
محمدا
محمداباد
محمدباقر
محمدبن
محمدبیک
محمدتقی
محمدجعفر
محمدجواد
محمدحسن
محمدحسین
محمدخان
محمدرضا
محمدشاه
محمدصادق
محمدعلي
محمدعلی
محمدقاسم
محمدمهدی
محمدنژاد
محمدولی
محمدی
محمدیه
محمود
محمودا
محمودی
محمۊد
محور
محوري
محوطه
محوطیه
محيط
محکم
محکوم
محکۊم
محیط
محیطی
محیی
مخ
مخابرات
مخابراتی
مخابره
مخارج
مخاطب
مخالفان
مخالفت
مختار
مختاري
مختص
مختصات
مختلف
مختلفی
مخدر
مخصوص
مخصوصا
مخصوصن
مخصۊص
مخصۊصا
مخصۊصن
مخفف
مخفي
مخفی
مخمصه
مخمل
مخوف
مد
مدار
مداران
مدارس
مداري
مدارک
مدافع
مدال
مداوا
مدت
مدتي
مدتی
مدح
مدخل
مددپور
مدرس
مدرسان
مدرسه
مدرسیه
مدرن
مدرنیته
مدرنیسم
مدرک
مدرکی
مدعلي
مدعلی
مدعي
مدعی
مدل
مدلان
مدني
مدنی
مده
مدي
مديترانه
مديتیشن
مدير
مديران
مديريت
مدينه
مدی
مدیر
مدیران
مدیره
مدیری
مدیریت
مذاکره
مذهب
مذهبي
مذهبی
مذکوره
مذکۊر
مر
مرا
مراتب
مراتبي
مراجعه
مراحل
مراد
مرادیان
مراسم
مراسمان
مراسمو
مراغه
مراقبتو
مراكز
مراوه
مراکز
مراکش
مربا
مربع
مربوط
مربوطه
مربۊط
مربی
مربیگری
مرت
مرتاضي
مرتب
مرتبط
مرتبطن
مرتبه
مرتضوی
مرتضی
مرتع
مرته
مرتي
مرتکب
مرثیه
مرج
مرجان
مرجع
مرجعه
مرجغل
مرجونه
مرحله
مرحمت
مرحوم
مرد
مردا
مرداب
مرداد
مرداك
مرداكان
مردان
مردانه
مرداويج
مرداويچ
مرداویج
مرداک
مرداکان
مرداکانه
مرداۊيج
مرداۊيچ
مردای
مردخه
مردم
مردمان
مردمانی
مردمه
مردمون
مردمی
مردن
مرده
مردو
مردوم
مردومان
مردومه
مردومی
مردي
مردکان
مردۊم
مردۊما
مردۊمان
مردۊمه
مردۊمي
مردۊچين
مردی
مرز
مرزان
مرزبان
مرزه
مرزو
مرزی
مرس
مرسدس
مرسم
مرسه
مرطوب
مرطۊب
مرعشي
مرعشی
مرغ
مرغابی
مرغانه
مرغو
مرقد
مركز
مركزي
مركزی
مرمت
مرمر
مرموزانه
مرند
مره
مرو
مروارید
مروان
مرودشت
مرور
مروست
مروستی
مرىم
مريخ
مريدان
مريكا
مريلند
مريکا
مريکاىي
مريکاىيي
مريکايي
مريکایه
مريکایي
مرکب
مرکبات
مرکز
مرکزه
مرکزي
مرکزگرا
مرکزگرایی
مرکزی
مرکزیت
مرکلا
مرکيه
مرکیه
مرگ
مرگان
مرگش
مری
مریان
مریدان
مریلند
مریم
مریوان
مریکا
مریکای
مریکایي
مریکایی
مریکاییي
مز
مزار
مزارع
مزاقيته
مزاىا
مزت
مزد
مزده
مزدي
مزدیسنا
مزرعه
مزقان
مزقانان
مزقو
مزه
مزگي
مس
مسا
مسابقات
مسابقه
مساجد
مساحت
مساحتی
مسافر
مسافران
مسافرت
مسافري
مسالمت
مساوات
مساي
مسایل
مست
مستردام
مستضعفان
مستعمره
مستقر
مستقل
مستقيم
مستقیم
مستمر
مستند
مسته
مستوفی
مسجد
مسجید
مسعود
مسعودي
مسعودی
مسعۊدي
مسكونی
مسلح
مسلحانه
مسلخ
مسلط
مسلم
مسلمانان
مسموم
مسمومیت
مسمک
مسن
مسه
مسود
مسي
مسيح
مسيحي
مسيحيت
مسير
مسيره
مسيرو
مسيرىاج
مسيرىاجو
مسيرىاجي
مسکن
مسکو
مسکونی
مسکۊني
مسۊلين
مسیح
مسیحی
مسیحیت
مسیر
مش
مشابه
مشارکت
مشاغل
مشاهده
مشاهیر
مشاور
مشاوره
مشاىخي
مشایخ
مشت
مشتري
مشترک
مشتق
مشخص
مشخصا
مشخصات
مشخصه
مشرق
مشروطه
مشروطیت
مشرۊطه
مشغول
مشغولا
مشغۊل
مشفقی
مشق
مشهد
مشهدی
مشهر
مشهور
مشهورترین
مشهوره
مشهۊد
مشهۊر
مشهۊرا
مشهۊرن
مشورت
مشورتي
مشوقه
مشي
مشکل
مشکلات
مشکلان
مشکوک
مشکۊک
مشکین
مشگین
مشۊ
مشیر
مصاحبه
مصادره
مصادف
مصاف
مصالح
مصالحه
مصدر
مصدق
مصر
مصردشت
مصرف
مصطفى
مصطفی
مصلا
مصلحت
مصلی
مصنوعی
مصنۊعي
مصوبه
مصوت
مصیبت
مطابق
مطالب
مطالبي
مطالبی
مطالعات
مطالعه
مطبوعات
مطبوعاتی
مطبۊعات
مطربو
مطرح
مطل
مطلب
مطلبه
مطلق
مطمي
مطن
مطهر
مطهری
مطيع
مطیع
مطیعی
مظفر
مظفرزاده
مظفري
مظفری
معادل
معارف
معاش
معاصر
معاف
معافیتو
معالجه
معاني
معانی
معاون
معاونت
معاىب
معاۊن
معبد
معبود
معبۊد
معتبر
معتدل
معترض
معترضان
معتقد
معتقدن
معتمد
معتمدو
معتمدی
معدن
معدنی
معده
معرب
معرض
معرف
معرفت
معرفه
معرفي
معرفی
معرق
معروف
معروفا
معروفترین
معروفه
معرکه
معرۊف
معرۊفه
معشوری
معشۊقه
معصوم
معصومه
معصومی
معصۊم
معضل
معطر
معلق
معللم
معلم
معلمي
معلمی
معلوم
معلومه
معلومی
معلۊم
معمار
معماران
معماري
معماری
معماریه
معمول
معمولا
معمولن
معمولی
معمۊلا
معمۊلن
معمۊلي
معنا
معنادار
معناى
معنای
معنوی
معني
معنيه
معنی
معنیه
معىار
معين
معین
مغان
مغرب
مغز
مغزی
مغناطيسي
مغول
مغولان
مـرزا
مــو
مفاحل
مفاخر
مفاهيم
مفاهیم
مفتح
مفتی
مفخرالدوله
مفرح
مفرد
مفرغی
مفعول
مفعۊل
مفعۊله
مفعۊلي
مفهوم
مفهومه
مفهۊم
مفهۊمه
مفهۊمو
مفهۊمي
مفيد
مفی
مفید
مفیده
مقابل
مقابله
مقال
مقالات
مقالاتی
مقالان
مقاله
مقام
مقامات
مقاماته
مقاوم
مقاومت
مقایسه
مقبره
مقتدر
مقدار
مقداری
مقدس
مقدم
مقدماتي
مقدماتی
مقدمه
مقدونيان
مقدونی
مقر
مقراض
مقرر
مقریکلا
مقصد
مقصده
مقصود
مقطع
مقطعی
مقننه
مقوی
مقياس
مقیاس
مقیم
مك
مكان
مكزيک
مل
ملا
ملاحسن
ملاسرا
ملاشکر
ملاط
ملاعلی
ملاقات
ملاقاتان
ملاكلا
ملال
ملامحله
ملاکان
ملاکلا
ملایر
ملایم
ملت
ملتو
ملحق
ملزم
ملش
ملقب
ملك
ملل
مللي
مللی
مله
ملوان
ملودی
ملوک
ملي
مليتي
ملک
ملکان
ملکه
ملکو
ملکيان
ملکۊت
ملی
ملیحه
مما
ممالک
ممتاز
ممد
ممدلی
ممسنی
ممشي
ممقان
مملکت
ممنوع
ممنۊع
ممکن
ممکنه
من
منا
منابع
منات
منار
مناره
منازعه
مناسب
مناسبات
مناسبت
مناسبتان
مناسبی
مناصب
مناطق
مناظر
مناظره
منافع
مناقشه
منبا
منبت
منبع
منتخب
منتشر
منتشرا
منتشري
منتظر
منتظم
منتقد
منتقدان
منتقل
منتهي
منتهی
منج
منجر
منجم
منجیل
منحصر
منحل
مند
مندان
مندلا
منزل
منستن
منسه
منسوب
منشا
منشاء
منشی
منصب
منصوب
منصور
منصورا
منصوری
منصۊب
منصۊر
منطق
منطقه
منطقي
منطقیه
منظر
منظره
منظریه
منظم
منظور
منظومه
منظۊر
منظۊمه
منفي
منفی
منقار
منقرض
منم
منن
مننس
مننسن
مننسه
مننه
منني
مننيس
مننيسن
مننيم
منه
منهتن
منوجان
منوچهر
مني
منيت
منيتي
منيسن
منۊچهر
منی
منیس
منین
مه
مهاباد
مهاجر
مهاجران
مهاجرت
مهارت
مهتاب
مهد
مهدوی
مهدي
مهديان
مهدی
مهر
مهرا
مهران
مهربان
مهرباني
مهرجویی
مهرداد
مهرشاد
مهرنوش
مهره
مهروان
مهرگان
مهری
مهریز
مهسا
مهلب
مهم
مهمات
مهمان
مهمترين
مهندس
مهندسان
مهندسي
مهندسی
مهکامه
مو
مواجه
مواد
موارد
مواردي
مواردی
موازی
مواضع
موافق
موال
موانع
موبارزه
موبایل
موت
موتحد
موتحده
موتصل
موتعددی
موتعل
موتعلق
موتلا
موتمایز
موتن
موتنه
موتور
موتورولا
موتوری
موثر
موج
موجب
موجتهدی
موجسمه
موجود
موجوده
موحاصره
موحتشم
موحد
موحمد
موحمدعلی
موحیط
موخالف
موخالفان
موخالفت
موختلف
موختلفه
موختلفی
موختلیف
موخته
مود
مودت
مودرن
مودل
مودلان
مودیر
مودیریت
مودیل
مودیلان
مور
موران
موربع
مورخ
مورخان
مورخو
مورد
مورداب
مورداد
موردال
موردن
موردوم
مورسو
مورغ
مورغان
مورغانه
مورغه
موروثی
موری
موز
موزان
موزش
موزشگاه
موزشی
موزه
موزهان
موزيك
موزيلا
موزی
موزیلا
موزیه
موزیک
موس
موسابقه
موسافرت
موساوی
موساویه
موستقل
موستند
موسسه
موسلمانان
موسم
موسو
موسوی
موسي
موسيقي
موسيقی
موسی
موسیقی
موسیقیا
موسیو
موش
موشا
موشارکت
موشت
موشترک
موشه
موشک
موشکل
موشکلات
موشکلی
موصاحبه
موضوع
موضوعات
موضوعه
موطالعات
موطالعه
موظف
موعتبر
موعتقد
موعرفی
موغول
موغولان
موغولانه
موفق
موفقیت
موقایسه
موقت
موقتي
موقدس
موقع
موقعيت
موقعی
موقعیت
موقعیته
موقوفات
مولا
مولانا
مولحق
موللا
موللاصدرا
مولن
مولوی
مومن
مون
موناسب
مونتری
مونتشر
مونتشرا
مونتقل
مونتقلا
مونده
مونقرضا
مونه
موهاجر
موهاجران
موهاجرت
موهاوی
موهم
موهمترین
موهمه
موهمی
موهندس
موهندسی
موگوي
موید
مویی
مى
مىدان
مىدو
مي
ميا
ميازاکي
ميان
ميانرود
ميانمار
ميانه
ميانگين
ميت
ميتر
ميترا
ميترين
ميتسوهيده
ميته
ميج
ميجام
ميجی
ميخايلو
ميد
ميدان
ميدو
مير
ميراث
ميرزا
ميرصالح
ميرفطرۊس
ميرمحله
ميرمحمد
ميرميراني
ميره
ميرهنده
ميري
ميرکبير
ميز
ميزان
ميزقو
ميزه
ميزو
ميسن
ميشل
ميفونه
ميل
ميلاد
ميلادي
ميلادی
ميلر
ميللتان
ميللي
ميله
ميلىۊن
ميلي
ميليارد
ميليو
ميليون
ميليۊن
ميلی
ميلیۊن
مين
ميناموتو
مينه
مينو
ميني
مينياتور
مينيان
مينيۊمي
مينۊ
ميوه
ميي
ميک
ميکانيکي
ميکرو
ميگل
ميگليا
مپ
مپان
مپانی
مپراليستي
مچ
مچد
مچيد
مژده
مژگان
مک
مکاتبه
مکان
مکانيزم
مکانیکی
مکتب
مکتبو
مکتۊب
مکریان
مکزيک
مکزيکو
مکزيکي
مکزيکيیي
مکزیک
مکزیکه
مکزیکو
مکزیکیان
مکس
مکمل
مکو
مکينتاش
مگاموتور
مگاوات
مگذاري
مگر
مگس
مۊ
مۊبارزه
مۊت
مۊتا
مۊتن
مۊته
مۊتوسط
مۊج
مۊجازات
مۊجسمه
مۊجش
مۊجشي
مۊجن
مۊجه
مۊجو
مۊجي
مۊجگرو
مۊخالف
مۊخالفت
مۊخاليف
مۊختلف
مۊدير
مۊذاکرات
مۊر
مۊرا
مۊران
مۊربع
مۊرد
مۊردال
مۊردن
مۊرده
مۊرسو
مۊرغانه
مۊرو
مۊري
مۊريت
مۊری
مۊزد
مۊزش
مۊزه
مۊزيلا
مۊزيک
مۊزيکدو
مۊزیک
مۊس
مۊسابقه
مۊسان
مۊستقل
مۊستند
مۊسقی
مۊسلمان
مۊسلمانو
مۊسلمو
مۊسو
مۊسي
مۊسيقي
مۊسی
مۊشت
مۊشتري
مۊشترک
مۊشخص
مۊشخصات
مۊشکل
مۊشکلات
مۊشکلاتي
مۊشکو
مۊشکي
مۊشکيل
مۊضۊع
مۊطالعات
مۊظفرزاده
مۊعرفي
مۊغۊب
مۊقابل
مۊقاومت
مۊقو
مۊقۊب
مۊقۊفا
مۊل
مۊللا
مۊللاحسن
مۊلن
مۊمي
مۊمکن
مۊناسب
مۊناسبتو
مۊنتاژ
مۊنتشر
مۊنتشرا
مۊنحني
مۊنه
مۊنيخ
مۊنيستو
مۊهاجر
مۊهاجرت
مۊهم
مۊهندس
مۊهندسي
مۊوارز
مۊوارزه
مۊىي
می
میا
میامد
میامی
میان
میاندشت
میانده
میاندوا
میاندورود
میانرود
میانم
میانه
میانکوه
میانگین
میانی
میاورد
میباشد
میباشند
میبد
میتانین
میته
میتو
میتواند
میتوانید
میثل
میثله
میثم
میجی
میخوانید
میخواهید
میخچی
مید
میدان
میدن
میدو
میر
میرا
میراث
میراحمد
میرباقری
میرتیمور
میرجعفری
میرداماد
میرده
میرزا
میرزانژاد
میرزایی
میرعباس
میرعماد
میرغیاث
میرفطروس
میرمیرانی
میره
میری
میز
میزان
میزقا
میزقو
میزقون
میستیزو
میسیسیپی
میسیونری
میش
میشه
میشود
میغ
میقان
میل
میلاد
میلادي
میلادی
میلجه
میله
میلو
میلي
میلی
میلیارد
میلیون
میلیۊن
میم
میمند
میمه
میمو
مین
مینا
میناب
میناموتو
میناگر
مینودشت
مینکیلی
مینی
مینیاتور
میه
میهمانی
میهن
میو
میون
میوه
میي
میک
میکال
میکالزن
میکالزنه
میکالزنو
میکالزنی
میکاوا
میکنید
میکه
میکو
میکۊفت
میگل
میگو
میگوي
میگویید
میگیرن
میی
میین
ن
نا
ناا
نابرابری
نابو
نابود
نابودا
نابودی
نابۊدي
ناتالي
ناتل
ناتمام
ناتني
ناتو
ناتوانی
ناجه
ناحيه
ناحیه
ناخالص
ناخو
ناخوش
ناخوشی
ناخۊش
ناخۊشخانه
ناخۊشي
ناخۊشيان
نادر
نادرست
نادرشاه
نادري
نادری
نادیده
نار
ناراحت
ناراحتا
ناراضي
ناراضی
ناردو
نارسايي
نارشيست
نارشيستو
نارشيستي
نارشيسم
نارضایتی
نارمک
نارنج
نارنجلو
نارنجی
نارنه
ناره
نارون
نارکو
نارگیل
نارۊسل
ناز
نازخاتون
نازك
نازنين
نازنین
نازي
نازک
نازی
ناسب
ناسبتي
ناسۊناليستو
ناسیونال
ناسیونالیسم
ناشتی
ناشخصي
ناشر
ناشناخته
ناشناس
ناشي
ناشی
ناصحی
ناصر
ناصراباد
ناصرالاسلام
ناصرالدين
ناصرالدین
ناصرخسرو
ناصري
ناصرکيا
ناصرکیاده
ناصری
ناصریه
ناطق
ناظم
ناغان
ناقاره
ناقص
ناقلن
ناقلین
نال
ناله
نالي
ناليزا
نالکیاشر
نام
ناما
نامان
نامانی
نامتا
نامجو
نامجۊ
نامدار
نامداران
نامزد
نامزدان
نامزده
نامزدی
نامش
نامشخص
نامطمي
نامعتبر
نامعلۊم
ناملفوظ
نامم
نامناسب
نامه
نامهای
نامو
ناموجود
نامور
ناموس
ناموفق
نامي
نامی
نامیده
نامیه
نان
ناناس
نانستی
نانسی
نانم
نانوایی
ناني
نانی
ناها
ناهابو
ناهار
ناهشیار
ناهواتل
ناهید
ناو
ناوبری
ناوه
ناويرۊس
ناىي
ناي
نايب
ناپدید
ناپذير
ناپذیر
ناپلي
ناپیدا
ناچار
ناکام
ناکامي
ناگاماسا
ناگاه
ناگهان
ناگهانی
ناگويا
نایب
نایي
نباید
نبد
نبرد
نبردهای
نبنابو
نبنه
نبه
نبو
نبود
نبوده
نبوسته
نبوناگا
نبوهيده
نبويوكی
نبوی
نبي
نبيره
نبۊ
نبۊن
نبی
نبیل
نت
نتا
نتاج
نتانا
نتانسته
نتانستید
نتانه
نتاىجه
نتاي
نتايج
نتاژ
نتایج
نترو
نتریک
نتشر
نتشرا
نتقدان
نتن
نتنسته
نتنه
نته
نتو
نتي
نتيجتا
نتيجتن
نتيجه
نتين
نتيپاس
نتی
نتیجه
نج
نجا
نجات
نجام
نجان
نجدی
نجرب
نجف
نجفي
نجفی
نجلس
نجم
نجو
نجۊمن
نجۊمي
نجی
نجیب
نحو
نحوه
نحوي
نخ
نخا
نخجیر
نخست
نخستین
نخش
نخشان
نخشه
نخل
نخلستان
نخودی
نخور
ند
ندا
ندار
ندارد
نداره
نداری
نداریم
ندازه
ندازي
نداشت
نداشتن
نداف
ندامانی
ندامو
ندانه
نداک
ندر
ندرسو
ندرم
ندره
ندري
ندرۊ
ندریا
ندرید
ندس
ندش
ندشه
ندشو
ندشگر
ندن
ندنن
ندنه
ندنکس
ندنکسو
نده
ندهي
ندو
ندي
ندگي
ندگيه
ندگی
ندی
ندیم
ندیمی
ندین
نر
نرا
نران
نرخ
نرسه
نرسید
نركه
نرم
نرما
نرمبزار
نرمبزاري
نرمندان
نره
نروا
نروژ
نروژي
نروژی
نروژیان
نري
نرکه
نرگس
نری
نرید
نز
نزد
نزده
نزديك
نزديكان
نزديک
نزديکا
نزديکان
نزديکي
نزدیک
نزدیکان
نزدیکه
نزدیکی
نزلي
نزن
نزنن
نزنه
نزه
نزهت
نزهو
نزي
نزيمان
نزيک
نزيکو
نزيکي
نزیکی
نس
نسا
نساء
نساجي
نساجی
نسام
نساىت
نسايي
نسايی
نسايیي
نسایي
نسایی
نساییي
نسب
نسبت
نسبتا
نسبه
نسبی
نست
نستان
نستانتين
نسترن
نستن
نسته
نستي
نستيد
نستی
نستید
نسخه
نسر
نسري
نسرين
نسرین
نسشت
نسق
نسل
نسن
نسه
نسو
نسي
نسۊل
نسۊلگري
نسۊم
نسی
نسیم
نش
نشا
نشاء
نشات
نشاسته
نشاط
نشان
نشانده
نشانه
نشانگر
نشانی
نشایی
نشته
نشتی
نشتید
نشده
نشدید
نشر
نشريات
نشريه
نشریات
نشریان
نشریه
نشست
نشسته
نشمبه
نشمند
نشمندو
نشنا
نشناختی
نشناسي
نشه
نشو
نشون
نشي
نشيمن
نشين
نشيني
نشگا
نشگه
نشین
نشینه
نشینی
نص
نصب
نصر
نصرا
نصرالله
نصراله
نصرت
نصرتیان
نصف
نصفه
نصفی
نصو
نصیب
نصیحت
نصیر
نصیرا
نصیرالدین
نطنز
نظارت
نظام
نظامه
نظامو
نظامي
نظامی
نظر
نظرا
نظراباد
نظرات
نظراته
نظران
نظرسنجي
نظرو
نظرىه
نظري
نظريات
نظريه
نظری
نظریات
نظریه
نظم
نظمیه
نظو
نظير
نظیر
نعمت
نعمتی
نعناع
نعیمی
نغمه
نفت
نفدراسيو
نفر
نفرا
نفرات
نفرانس
نفرن
نفره
نفري
نفری
نفرین
نفس
نفسي
نفع
نفوذ
نفوس
نفي
نفۊذ
نفی
نفیس
نق
نقاره
نقازن
نقاش
نقاشي
نقاشی
نقاشیان
نقاط
نقد
نقدان
نقده
نقرض
نقره
نقش
نقشا
نقشان
نقشه
نقشي
نقشیه
نقض
نقطه
نقطیه
نققاشی
نقل
نقله
نقلو
نقي
نقی
نل
نلاین
نم
نما
نماد
نمادان
نماده
نماز
نمانسته
نمانه
نماىش
نماىشنامه
نماىنده
نمايش
نمايشنامه
نمايشي
نماينده
نمايندگي
نمای
نمایان
نماید
نمایش
نمایشنامه
نمایشگاه
نمایشگر
نمایشی
نمایندان
نماینده
نمایندگان
نمایندگی
نمایی
نمایید
نمت
نمتان
نمد
نمك
نمنش
نمه
نمو
نمود
نموده
نمونه
نمک
نمۊنه
نمی
نمین
نن
ننا
ننتو
ننن
ننه
ننى
نني
ننی
نه
نها
نهابو
نهاد
نهاده
نهادو
نهار
نهان
نهاوند
نهاىي
نهايتن
نهايي
نهایت
نهایتا
نهبندان
نهزو
نهضت
نهم
نهمی
نهن
نهه
نهي
نهکارگير
نهی
نهیدی
نو
نوا
نواب
نواحی
نواحیه
نواختن
نواخته
نوادا
نواده
نوادگان
نوار
نواز
نوازندان
نوازنده
نوازندگان
نوازندگی
نوازی
نوازیا
نواع
نوامبر
نوان
نوانسیو
نوایی
نوبت
نوبر
نوبل
نوبندگان
نوبه
نوبو
نوبوسته
نوبوناگا
نوبوناگايه
نوبويوكی
نوجوان
نوجوانان
نوجوانی
نوحه
نوخوستین
نود
نودن
نوده
نودو
نوذر
نور
نورا
نورالدین
نورد
نوردفرایسلند
نورس
نورشهرستان
نوره
نورو
نوروز
نوروزی
نوری
نوزاد
نوزدهم
نوسخه
نوسنگی
نوش
نوشت
نوشتار
نوشتاری
نوشتن
نوشته
نوشر
نوشهر
نوشهرشهرستان
نوشهری
نوشو
نوشون
نوشیروانی
نوع
نوعی
نوغان
نوغو
نوقاط
نوك
نوكيا
نوم
نومه
نومهای
نومو
نون
نوه
نوىلا
نويري
نويس
نويسا
نويسان
نويسنده
نويسنن
نويسنه
نويسی
نويشتن
نويشتنکس
نويشتنکسو
نويشتنکسي
نويشته
نوين
نوک
نوکر
نوکند
نوکنده
نوکندکلا
نوکود
نوکون
نوکونه
نوکونید
نوکیا
نوگذشته
نوگوده
نوگودی
نوگۊده
نوی
نوید
نویس
نویسان
نویسنده
نویسندگان
نویسنه
نویسه
نویسی
نویشتنکسو
نى
ني
نيا
نياد
نياز
نيازمند
نيازه
نيازو
نيامين
نيان
نيبه
نيترو
نيد
نيدل
نيدي
نيرو
نيروگاه
نيروی
نيرۊ
نيرۊو
نيرۊی
نيز
نيزيک
نيس
نيست
نيستو
نيستي
نيسم
نيشابۊر
نيشان
نيشانه
نيشت
نيشتن
نيشتنگا
نيشته
نيشتي
نيشتگا
نيشين
نيشينه
نيظامي
نيكولا
نيل
نيم
نيما
نيمفاصله
نيمه
نيمىشن
نيميشن
نيمکره
نين
نينيسم
نينيويسين
نيه
نيو
نيويس
نيويسنن
نيويسنه
نيويسنيم
نيويسه
نيويسو
نيويسي
نيويشت
نيويشتن
نيويشتنکس
نيويشتنکسان
نيويشتنکسه
نيويشتنکسو
نيويشته
نيىن
نيي
نيپتۊن
نيچه
نيک
نيکا
نيکلسو
نيکو
نيکي
نيگا
نيۊز
نيۊىو
نپال
نپريش
نچه
نچي
نژاد
نژادان
نژادپرستی
نژادی
نژند
نک
نکا
نکابو
نکات
نکاتی
نکارگير
نکاشهرستان
نکاوي
نکایی
نکته
نکس
نکسو
نکند
نکه
نکو
نکونا
نکونن
نکونه
نکي
نکی
نگ
نگار
نگارستان
نگارش
نگاره
نگاري
نگاری
نگاه
نگاهی
نگاکو
نگذره
نگر
نگراىي
نگره
نگرو
نگستن
نگه
نگهبان
نگهداری
نگو
نگوکو
نگي
نگيت
نگيته
نگيزه
نگۊتا
نگۊشت
نگۊشتي
نگین
نۊبو
نۊبۊ
نۊتو
نۊح
نۊخو
نۊدن
نۊده
نۊدو
نۊر
نۊرا
نۊري
نۊزدهو
نۊسخه
نۊشو
نۊشيدني
نۊشۊ
نۊغان
نۊفۊذ
نۊقطه
نۊمو
نۊمۊنه
نۊکۊد
نۊکۊدد
نۊکۊده
نۊکۊدي
نۊکۊنم
نۊکۊنه
نۊگذارنه
نۊگو
نۊگۊدي
نی
نیا
نیابت
نیاز
نیازمند
نیازی
نیاسر
نیاوران
نیبه
نیبی
نیبید
نیت
نید
نیده
نیدی
نیر
نیرو
نیروهان
نیروهای
نیروو
نیروگاه
نیروی
نیز
نیست
نیستی
نیشا
نیشابور
نیشان
نیشانه
نیشت
نیشتن
نیشتنگا
نیشته
نیل
نیلوفر
نیم
نیما
نیمبلوک
نیمه
نیمکت
نین
نیه
نیو
نیوز
نیویس
نیویسنده
نیویسنه
نیویسه
نیویسي
نیویسیدی
نیویشت
نیویشتان
نیویشتن
نیویشتنکسو
نیویشته
نیویشتی
نیویورک
نیي
نیک
نیکا
نیکان
نیکفر
نیکوروان
نیکویه
نیکی
نیگا
نیگارخانه
نیگیفته
نیۊزلند
ه
ها
هاب
هابرماس
هابل
هابي
هاتو
هاتویی
هادجنويل
هادن
هاده
هادي
هادی
هادین
هار
هاربور
هارد
هاردي
هاردينگ
هارلي
هارمونی
هارو
هارون
هارونوبو
هازاما
هاست
هاستو
هاشم
هاشمي
هاشمی
هافبک
هافمن
هاكنين
هال
هالي
هاليوۊد
هالی
هامايانک
هان
هانا
هانتر
هانس
هانه
هانک
هانی
هاو
هاوارد
هاوانا
هاواىي
هاوايي
هاى
هاىنريش
هاي
هاياشی
هايو
هايی
هاک
هاکردن
هاکرین
هاکنن
هاکنی
هاکنین
های
هایی
هتل
هتو
هتويي
هتويی
هتویی
هجده
هجدهم
هجري
هجری
هجوم
هجی
هخامنشي
هخامنشيان
هخامنشی
هخامنشیان
هد
هدا
هداف
هداىت
هداي
هدايت
هدایت
هدف
هدفم
هدفه
هده
هدي
هديه
هدی
هدیه
هر
هراب
هرات
هراز
هرازپی
هرباريوم
هرباریوم
هربرت
هرت
هرتا
هرته
هرج
هرجا
هرجۊر
هردفا
هردوته
هردورود
هردۊ
هرساله
هرسین
هرلحظه
هرمز
هرمزد
هرمزگان
هرنان
هرندی
هره
هرو
هرودوت
هرچن
هرچند
هرچه
هرچي
هرچی
هرکا
هرکدام
هرکس
هرکسی
هرکي
هرکی
هرگز
هرگي
هرگيز
هریس
هزار
هزاران
هزارته
هزاره
هزينه
هزینه
هسا
هساشعر
هست
هستانان
هستم
هستند
هستنه
هستنی
هسته
هستی
هستید
هستیم
هسسه
هسه
هش
هشت
هشتاد
هشتبر
هشترود
هشتم
هشتو
هشتپر
هشتگ
هشتگرد
هشتی
هشداري
هشو
هضم
هطو
هطویی
هـ
هف
هفت
هفتا
هفتاد
هفتصد
هفتم
هفتمی
هفتمین
هفته
هفتو
هفتومی
هفتگانه
هفتگل
هفتۊمي
هفدهم
هل
هلا
هلال
هلاچين
هلبت
هلجرد
هلستان
هله
هلوبن
هلي
هليو
هلیکوپتر
هم
هما
همان
همانطور
همانگونه
هماهنگ
همايش
همای
همایش
همایون
همبازي
همبازيان
همبازی
همبستگي
همت
همتا
همترين
همته
همجنس
همجوار
همخو
همخوان
همدان
همدمي
همدو
همديگر
همديگره
همدیگر
همدیگره
همر
همرا
همراه
همراهی
همرایه
همره
همزاد
همزمات
همزمان
همزمت
همسادان
همساده
همسايه
همسایه
همسایگی
همسر
همسفر
همش
همشهری
همفکرو
همكاري
هممه
همه
همون
هميت
هميشک
همين
همچنان
همچنين
همچنین
همچو
همچون
همچین
همک
همکار
همکاران
همکاري
همکاری
همکاریا
همکاریه
همگي
همگی
همیشه
همیشک
همیلتون
همین
همیه
هن
هنا
هناویسی
هند
هندا
هندان
هندخاله
هندر
هندسه
هندسي
هندسی
هندلینگ
هنده
هندو
هندوانه
هندواۊرۊپاىي
هندودر
هندوستان
هندي
هندۊ
هندی
هندیجان
هنر
هنران
هنرستان
هنرمند
هنرمندان
هنرمندانی
هنرهای
هنري
هنری
هنریه
هنشر
هنشره
هنشرو
هنن
هننا
هننه
هنه
هنو
هنوز
هنوزم
هني
هنگ
هنگام
هنگامه
هنگان
هنگانی
هنگساج
هنگساز
هنگسازان
هنگسازو
هنگسازي
هنگسازی
هنگه
هنگو
هنگون
هنگی
هنۊز
هنۊزم
هنی
هه
هو
هوا
هواخواه
هواخواهی
هواخۊشی
هوادار
هواداران
هوادارو
هواشناسی
هوامۊج
هواپىما
هواپىمادۊزي
هواپىماىي
هواپیما
هوای
هوایي
هوایی
هوتو
هوتویی
هوجو
هوجور
هودول
هوراند
هوردن
هوره
هوریشیو
هوزاره
هوسبی
هوش
هوشنگ
هوشی
هولار
هولشتاین
هوله
هومن
هون
هونر
هونران
هونرمند
هونرمندان
هونره
هونرهای
هونری
هويت
هويته
هويه
هوی
هویا
هویت
هىا
هي
هيا
هيتا
هيتلر
هيتن
هيته
هيتو
هيدرو
هيده
هيديوشی
هيراته
هيرارشي
هيرام
هيران
هيرو
هيزار
هيزارته
هيسا
هيسن
هيسه
هيل
هيلدا
هين
هيند
هيندو
هيندۊايراني
هيندۊاۊرۊپايي
هيندۊستان
هيني
هيوز
هيوی
هيي
هيچ
هيچي
هيچچي
هيکل
هچين
هچی
هچین
هک
هکتار
هکش
هکشواکش
هکشي
هکنین
هڪ
هگمتانه
هگيت
هگيته
هگیته
هگیرن
هۊ
هۊته
هۊتو
هۊجه
هۊجۊر
هۊر
هۊسم
هۊسۊم
هۊش
هۊشنگ
هۊشي
هۊلند
هۊلندي
هۊمر
هۊن
هۊنر
هۊنرمند
هۊنرمندو
هۊنره
هۊنرو
هۊنري
هۊني
هۊیه
هی
هیا
هیات
هیتن
هیته
هیتو
هیجان
هیجانه
هیجده
هیجدهم
هیجدهو
هیدرو
هیده
هیدوچ
هیر
هیروگلیف
هیزار
هیزارتا
هیزارو
هیزاریه
هیس
هیسا
هیسته
هیسن
هیسه
هیطو
هیل
هیلتون
هیلمن
هیلی
هیمه
هین
هیند
هیندو
هیندونه
هینگام
هینگامی
هینی
هیي
هیپو
هیچ
هیچی
هیژده
هیکتار
هیکس
هیۊز
و
وا
وابدا
وابسته
وابستگي
وابه
وابو
وابودن
وابين
وابينو
وابۊدن
وابۊن
وابین
وات
واتخشستن
واترز
واتن
واتي
واتين
واتينا
واتينه
واج
واجار
واجارگاه
واجامو
واجه
واجیق
واحد
واخبرا
واخر
واخو
واخۊردن
وادا
وادار
واداشته
وادي
وادی
وار
واران
وارث
وارثو
وارد
واردات
وارسته
وارسي
وارش
وارنر
وارنگیان
واره
وارو
واري
واريد
وارگدو
واری
وارید
واز
وازا
وازده
وازه
وازهای
وازو
وازی
واسا
واستان
واستي
واستی
واسطه
واسه
واسي
واسيلي
واسۊخو
واسی
واسیه
واش
واشان
واشك
واشم
واشنگتو
واشو
واشينگتن
واشينگتو
واشک
واشینگتن
واشینگتون
واصل
واضح
وافکراشو
واق
واقع
واقعا
واقعن
واقعه
واقعي
واقعيت
واقعيتان
واقعی
واقعیت
واقعیته
وال
والت
والتر
والتي
والدين
والس
والملوک
واله
والي
واليسي
والپارايسو
والی
والیبال
وام
وامبر
وامتن
وامجده
وامختن
واموج
واموجسته
واموجستید
واموجه
واموجي
واموجید
واموختن
واموخته
وامۊتن
وان
واناشته
وانت
وانن
وانه
وانويس
وانويسو
وانيويس
وانيويسو
وانگاره
وانی
وانیویس
وانیویسه
وانیویسو
واوسر
واوه
واوي
واوين
واوينان
واوينو
واوین
واوینه
واي
وايل
واپخشا
واپسين
واپۊرسي
واچين
واچین
واژه
واژگان
واژگۊن
واک
واکا
واکاوی
واکسين
واکش
واکنش
واکو
واکون
واکي
واکۊنم
واگذار
واگرد
واگردان
واگردانه
واگردانيد
واگردست
واگردستن
واگردسته
واگرده
واگردو
واگردید
واگن
واگوذار
واگۊته
واگۊدن
واگۊده
واگۊىه
وای
وایراس
وایران
وایل
وایلد
وایلدرنس
وایکینگ
وایکینگان
وایی
وب
وبا
وبجيگه
وبجیگه
وبساىت
وبسايت
وبسایت
وبلاگ
وبلاگو
وبمج
وبمجه
وبمجو
وبمۊج
وبمۊجان
وبمۊجو
وبه
وبوسته
وبگاه
وت
وتا
وتو
وتولابو
وثوقی
وج
وجه
وجود
وجۊد
وحدت
وحدتی
وحش
وحشت
وحشتناک
وحشي
وحشيانه
وحشی
وحیدزاده
وحیدیه
وخت
وختان
وختي
وختی
وداع
ودالی
ودر
ودرال
ودن
وده
ودیگ
ور
وراثت
ورامين
ورامین
وران
وراوی
وراکروز
ورجا
ورجه
ورد
وردانشا
وردن
وردنجان
ورده
وردکته
وردی
وردین
ورزا
ورزش
ورزشه
ورزشي
ورزشکار
ورزشگاه
ورزشی
ورزقان
ورزل
ورزنه
ورزه
ورزگاه
ورس
ورسا
ورشکست
ورف
ورفنه
ورفي
ورق
ورلند
ورم
ورميا
ورن
ورنا
ورنام
ورنده
وره
ورو
ورود
ورودی
وروره
ورورى
وروو
وري
وريل
وريه
ورژن
ورگ
ورگارد
ورگر
ورگسن
ورگه
ورگو
ورگي
ورۊد
ورۊدي
وری
وریل
وز
وزارت
وزان
وزراتخو
وزن
وزنه
وزه
وزي
وزير
وزيري
وزیر
وزیران
وزیری
وس
وساطت
وسايل
وسایل
وسایلی
وستاىي
وسته
وستي
وستی
وستید
وسسه
وسط
وسطا
وسطان
وسطى
وسطي
وسطی
وسعت
وسن
وسنه
وسه
وسي
وسيع
وسيله
وسيلیه
وسی
وسیع
وسیله
وسیلیه
وشت
وشمه
وشمگير
وشمگیر
وشنا
وشون
وصف
وصل
وصلا
وصله
وصيت
وصیت
وضع
وضعي
وضعيت
وضعيتي
وضعیت
وضعیته
وطن
وظاىف
وظایف
وظيفه
وظیفه
وعده
وفا
وفادار
وفاز
وقایع
وقت
وقته
وقتي
وقتی
وقفه
ول
ولا
ولاديمير
ولان
ولايت
ولاکۊ
ولایت
ولایته
ولتاژ
ولد
ولز
ولسر
ولش
ولشت
ولم
وله
ولو
ولويه
ولوپی
ولویه
ولي
وليك
ولين
وليه
ولکي
ولگ
ولگا
ولگام
ولگان
ولگانه
ولگرد
ولگه
ولگو
ولی
ولیت
ولیزاده
ولیسه
ولیعصر
ولیعهد
ولین
ولیک
وم
ومبر
ومهندس
ومي
ومکزیکو
ون
ونا
وناجم
ونت
ونجر
وند
ونداد
ونزو
وننی
ونه
ونو
وني
ونيز
ونيزي
ونک
ونکت
ونکته
ونکوور
ونگ
ونگرسه
ونی
ونیز
وه
وهار
وهري
وهمچنین
وهن
وهوا
وهوای
وو
وول
وولف
وولي
وىت
وي
ويا
وياس
ويالو
ويت
ويتامين
ويتن
ويتنام
ويتنامي
ويته
ويتو
ويج
ويد
ويدي
ويديو
وير
ويراست
ويرانا
ويرايش
ويرجينيا
ويرمۊني
ويره
ويرو
ويريزه
ويريسا
ويرۊت
ويرۊتن
ويرۊجا
ويرۊس
ويرۊسان
ويسين
ويسکي
ويشتا
ويشتايي
ويشتر
ويشترا
ويشترن
ويشتره
ويشترى
ويشتري
ويشترين
ويشته
ويشک
ويكسبورگ
ويكي
ويكيپديا
ويكی
ويل
ويلا
ويلخرجي
ويلىام
ويلي
ويليام
ويمارجيگي
وين
ويندو
وينش
وينو
ويني
وينی
ويولون
ويولونه
ويچ
ويژه
ويژگي
ويژگی
ويک
ويکتو
ويکي
ويکيديا
ويکيپدىا
ويکيپديا
ويکی
ويگيرين
وپرورش
وچا
وچه
وڌيڪ
وڏو
وک
وکالت
وکالتا
وکت
وکتا
وکتن
وکته
وکش
وکن
وکنن
وکنه
وکه
وکي
وکيل
وکیل
وگا
وگردا
وگردس
وگردسن
وگردسه
وگردنن
وگردنه
وگرده
وگردو
وگردي
وگردیم
وگرس
وگرسن
وگرسه
وگو
وگيت
وۊجۊد
وۊد
وۊدکا
وۊرۊد
وۊرۊدي
وۊش
وۊم
وۊهان
وی
ویا
ویالون
ویبلاگ
ویبلاگان
ویتامین
ویتن
ویتنام
ویتنو
ویته
ویج
ویجا
ویدي
ویدیو
ویدیویی
ویر
ویرا
ویراست
ویراستار
ویراستاران
ویرانا
ویرانه
ویرایش
ویرجینیا
ویرمونی
ویروس
ویریس
ویریسین
ویستا
ویسکی
ویسی
ویشتاو
ویشتر
ویشترا
ویشترابو
ویشتراگود
ویشتراگودن
ویشتره
ویشتری
ویشترین
ویشته
ویشگاهی
ویل
ویلا
ویلن
ویلهلم
ویلکس
ویلکیج
ویلیام
ویوا
ویوج
ویولن
ویژه
ویژگی
ویژگیان
ویژگیهای
ویکتوریا
ویکی
ویکیپدیا
ویکیپدیای
ویگینن
ویی
ى
ىا
ىاته
ىاد
ىادش
ىازن
ىاور
ىاوري
ىتا
ىتن
ىته
ىتیم
ىرا
ىزدگرد
ىعني
ىليش
ىم
ىن
ىند
ىنده
ىنه
ىنک
ىه
ىهۊدي
ىو
ىي
ىپاره
ىچي
ىک
ىکته
ىکجا
ىکسان
ىکشمبه
ىکهو
ىکو
ىکي
ىکپارچه
ىکپارچگي
ىکچي
ىکی
ىۊ
ىۊسف
ىۊشيج
ىۊنان
ىۊناني
ىۊنسکو
ي
يا
ياته
ياد
يادگار
يادگارنامه
يار
يارو
ياري
يازده
ياسمی
ياسنايا
يافت
يامازاكی
يان
ياهو
ياور
يب
يبوست
يت
يتا
يتر
يتن
يتنو
يته
يخ
يد
يدي
يراحي
يرن
يره
يز
يزد
يزدگرد
يزدگردی
يزه
يس
يسا
يسال
يسه
يعني
يعنی
يقه
يك
يكساله
يكي
يل
يله
يم
ين
ينت
ينده
ينه
يني
يه
يو
يوسف
يوسوگي
يوسوگی
يوشيموتو
يوشی
يوليسيس
يومی
يونانی
يي
ييخانه
ييد
ييلاقی
ييم
يين
يپاره
يک
يکا
يکته
يکجۊر
يکو
يکي
يکی
يۊ
يۊن
يۊنان
يۊناني
يی
ً
ٌ
َ
ُ
ِ
ّ
ْ
ٓ
ٔ
ٕ
ٚ
٠
١
١٢٩٩
١٦
١٧
١٩١٢
٢
٢٢
٣
٤
٥
٦
٧
٨
٩
٪
٫
٬
ٰ
پ
پا
پاب
پابرا
پابرنده
پابزار
پابلو
پابلۊس
پاتان
پاتخت
پاتریسیا
پاجا
پاخن
پادانا
پادرميانی
پادشا
پادشاه
پادشاهان
پادشاهي
پادشاهی
پادنا
پادکست
پادگان
پادگو
پاراخۊت
پارامتر
پارامترها
پارامترهای
پارامترو
پاراگراف
پارس
پارسي
پارسی
پارسیان
پارك
پارلمان
پاره
پاريس
پارچ
پارچه
پارک
پارکان
پارکر
پاریز
پاریس
پاز
پازدهم
پازواری
پازوکی
پاس
پاسارگاد
پاساژ
پاسخ
پاسداران
پاسور
پاسکیاب
پاسگاه
پاشا
پاشاكلا
پاشاکلا
پاك
پالازو
پالتوی
پالما
پالو
پاليانا
پامادو
پامادور
پامنار
پامچال
پان
پاناما
پانزده
پانزدهم
پانزدهمی
پانزدهو
پانزدهی
پانزوان
پانصد
پانل
پانویس
پاو
پاوزار
پاول
پاوه
پاىتخت
پاىنده
پاىه
پاي
پايان
پاياني
پايتخت
پاينده
پايه
پايين
پاپ
پاپروس
پاپکیاده
پاچ
پاچراغی
پاچنار
پاچه
پاچينو
پاچيينو
پاچی
پاچینو
پاک
پاکا
پاکت
پاکتو
پاکدشت
پاکستان
پاگانیسم
پاگه
پای
پایا
پایان
پایانه
پایانی
پایتخت
پایتخته
پایداری
پاینده
پایه
پایگاه
پاییز
پایین
پتاسيم
پتاسیم
پتانسیل
پترزبو
پترزبۊرگ
پترنو
پتروشیمی
پتشخارگر
پتشخوارگر
پجشک
پجشکي
پخش
پخشا
پخشي
پدر
پدرش
پدرو
پدىت
پديا
پدیا
پدیای
پدیدا
پدیدپور
پذير
پذيرفتن
پذیرای
پذیرایی
پذیرش
پذیرفته
پذیري
پر
پرا
پران
پراکنده
پراکندگي
پراکندگی
پراگ
پراید
پرایم
پرت
پرتقال
پرتو
پرتوی
پرجمعیت
پرداخت
پرداز
پردازش
پردازشگر
پردازنده
پردازندهان
پردسر
پرده
پردچين
پردیس
پردیسان
پرزنان
پرزه
پرس
پرست
پرستان
پرستش
پرستشگاه
پرستو
پرستوی
پرستي
پرسش
پرسشی
پرسنل
پرسپو
پرسپولیس
پرشو
پرشکوه
پرشکوهی
پرفسور
پرك
پركه
پرندان
پرنده
پرندگان
پره
پرو
پرواز
پروانه
پروتستان
پروتستانیان
پروتستانیسم
پروتي
پرورش
پروش
پروفسور
پرونده
پرويز
پروژه
پرویز
پروین
پري
پريل
پرپري
پرچم
پرچمه
پرچین
پرکاپشت
پرۊ
پری
پریتو
پریزاد
پریشان
پز
پزخانه
پزشک
پزشکي
پزشکی
پس
پسا
پست
پستان
پستاندار
پستانداران
پسته
پستی
پسر
پسران
پسرانه
پسره
پسند
پسه
پسورد
پسوند
پسونده
پسي
پسيخان
پسيخانيان
پسکلا
پسی
پسیخان
پش
پشت
پشتام
پشتكوه
پشتلو
پشته
پشتيبان
پشتيباني
پشتکوه
پشتیبانی
پشرت
پشم
پشنان
پشي
پل
پلا
پلاستيک
پلاسم
پلام
پلاژ
پلت
پلنگ
پله
پلو
پلکان
پلۊتو
پلی
پلیس
پن
پنا
پناه
پناهنده
پنبه
پنج
پنجا
پنجاه
پنجته
پنجره
پنجشنبه
پنجم
پنجه
پنجو
پنجيک
پنجک
پنجۊمي
پنجیک
پندام
پنسيلوانیا
پنهان
پنگ
پنیر
په
پهلو
پهلوان
پهلوانان
پهلوي
پهلوی
پهلۊ
پهن
پهنا
پهنای
پهنه
پو
پوتومک
پودمان
پور
پورا
پوراحمد
پورتر
پورجمعیت
پورد
پوردان
پورداوود
پوردی
پوررضا
پوررنگ
پورزور
پورسینا
پوره
پورهادی
پورپ
پورکاربرد
پوری
پوریا
پوس
پوست
پوسته
پوستی
پوشاک
پوشت
پوشته
پوشش
پوشه
پوشی
پوشیده
پول
پولدارو
پولكا
پولی
پولیس
پوماتوكس
پوماتوکس
پونسه
پونصد
پونل
پى
پىام
پىامه
پىامو
پىدا
پىداوانه
پىغو
پىکان
پي
پياده
پياز
پيام
پيانو
پيت
پيتر
پيتو
پيج
پيجشکي
پيدا
پيداو
پيدايش
پيدو
پير
پيرا
پيرتر
پيرده
پيرشرفشا
پيرشرفشاه
پيرنيا
پيرو
پيروز
پيروزي
پيروزی
پيري
پيرۊزه
پيرۊزي
پيش
پيشا
پيشاشۊ
پيشانی
پيشایين
پيشبنا
پيشبيني
پيشتر
پيشترو
پيشخان
پيشدار
پيشرفت
پيشروي
پيشروی
پيشفرضي
پيشنهاد
پيشه
پيشوا
پيشوند
پيشي
پيغمبر
پيغمبرو
پيغو
پيل
پيلا
پيلاتر
پيلاترين
پيلاوابو
پيلاپي
پيلتر
پيلترين
پيلله
پيله
پيلي
پيلگي
پيمو
پينک
پيو
پيوند
پيي
پييز
پيچا
پژو
پژواک
پژوهش
پژوهشگر
پژوهشگران
پژوهشی
پژوي
پکن
پکنی
پگاه
پۊر
پۊرا
پۊراکۊنه
پۊرد
پۊرداوۊد
پۊردو
پۊررضا
پۊررنگ
پۊرفرۊش
پۊره
پۊرگۊتنکسترين
پۊس
پۊشانه
پۊشت
پۊشته
پۊشتي
پۊشتيباني
پۊشش
پۊشکين
پۊل
پۊلدار
پۊلو
پۊليتزر
پۊليس
پی
پیاده
پیاز
پیام
پیامبر
پیامد
پیامی
پیانو
پیت
پیدا
پیر
پیرا
پیران
پیرانشهر
پیربازار
پیرسرا
پیرشرفشا
پیرشمس
پیرنیا
پیرهن
پیرو
پیروان
پیروز
پیروزا
پیروزی
پیروزین
پیرون
پیرونه
پیروي
پیرکوه
پیزشکی
پیزیشکی
پیست
پیش
پیشاشو
پیشبیني
پیشتر
پیشتران
پیشدار
پیشرفت
پیشرفته
پیشرو
پیشروی
پیشمرگو
پیشنهاد
پیشنویس
پیشه
پیشوا
پیشواز
پیشکسوت
پیشکوه
پیشگام
پیشگیری
پیشی
پیشینه
پیشینیه
پیغام
پیل
پیلا
پیلته
پیلله
پیله
پیلگی
پیما
پیمان
پینال
پینج
پینجاه
پینگ
پیو
پیوست
پیوسته
پیوند
پیوندان
پیوندو
پیچ
پیچا
پیچه
پیچی
پیچیده
پیک
پیکا
پیکان
پیکر
پیکسل
پیگیری
ٿا
ٿو
چ
چا
چاار
چابهار
چابۊک
چابۊکسر
چاتانوگا
چادر
چادری
چادگان
چار
چاراویماق
چارت
چارتا
چارته
چارده
چاردهم
چاردو
چارشمبه
چارصد
چارلز
چارلي
چارم
چارمحال
چارمی
چاره
چارو
چارپادشا
چارچۊب
چاشنی
چاشو
چاف
چاق
چاقو
چاك
چاكوده
چاكونه
چال
چالا
چالدران
چالش
چاله
چالوس
چالوسي
چالکش
چالۊس
چامسکي
چان
چانچو
چانچۊ
چانکش
چانکشان
چانکشید
چاه
چاو
چاىجان
چاىخو
چاي
چاپ
چاپا
چاپابو
چاپارخانه
چاپلين
چاپی
چاک
چاکو
چاکودن
چاکوده
چاکودید
چاکونن
چاکونه
چاکونيم
چاکونی
چاکۊدن
چاکۊدنحق
چاکۊدنکس
چاکۊدنکسو
چاکۊده
چاکۊن
چاکۊنن
چاکۊنه
چاکۊني
چاکۊنکس
چاگود
چاگودده
چاگودن
چاگودنه
چاگوده
چاگودید
چاگودیدی
چاگۊد
چاگۊدار
چاگۊدارشکن
چاگۊدارو
چاگۊدن
چاگۊده
چای
چایجان
چایپاره
چایچی
چایی
چت
چتر
چتن
چتين
چتین
چخماخی
چخو
چرا
چراغ
چراغان
چرام
چرب
چربه
چربو
چربی
چرخ
چرخش
چرخه
چرسن
چرش
چرم
چرمی
چرنو
چره
چريک
چريکو
چريکي
چریک
چریکو
چریکي
چسب
چسلي
چشان
چشم
چشمه
چشمهان
چطوری
چغاني
چغانی
چفت
چقدر
چكنه
چكودن
چكوده
چكوديد
چكونه
چكونيد
چل
چلابي
چلابی
چلاوی
چلمانرود
چلنگر
چله
چلو
چلوند
چلچله
چم
چما
چمارسرا
چمبری
چمخاله
چمران
چمستان
چمن
چموش
چن
چنار
چناران
چناربن
چناره
چنارود
چنان
چنته
چند
چندار
چندان
چندانی
چندتا
چندته
چندرسانه
چندي
چندين
چندينته
چندچي
چندی
چندین
چنفرهنگي
چنين
چنگ
چنی
چنین
چه
چهار
چهارباغ
چهارتا
چهارخانه
چهاردانگه
چهارده
چهاردهم
چهاردهمی
چهاردولی
چهارراه
چهارشنبه
چهارصد
چهارم
چهارمحال
چهارمی
چهارمین
چهارچوب
چهره
چهل
چو
چوب
چوبر
چوبی
چوتو
چوخ
چورت
چورزق
چوشم
چول
چولا
چولاب
چوله
چوم
چوما
چومان
چون
چوواش
چوپان
چوپانان
چوکا
چوکام
چوکوش
چوکوشان
چي
چيدا
چيره
چيزو
چيزي
چيسه
چيكازانه
چين
چينن
چينه
چيني
چينی
چيو
چيچير
چيچيني
چيک
چيکا
چپ
چپر
چپلا
چپه
چپول
چپگرا
چپی
چک
چکاوک
چکنه
چکو
چکودن
چکوده
چکودید
چکونه
چکونید
چکي
چککۊش
چگالي
چگودن
چگوده
چگودید
چگونه
چگۊدید
چۊ
چۊب
چۊبر
چۊبه
چۊبي
چۊته
چۊتو
چۊجۊر
چۊر
چۊشم
چۊله
چۊم
چۊمان
چۊمفا
چۊمۊش
چۊن
چۊنگه
چۊيي
چی
چیان
چیتو
چیتگر
چیز
چیزان
چیزایی
چیزهایی
چیزو
چیزی
چیست
چیشم
چیطو
چین
چینا
چینی
چیهار
چیهل
چیي
چیچی
چیک
چیکامووگا
چیی
ژ
ژان
ژانت
ژاندارم
ژاندارمري
ژانر
ژانس
ژانويه
ژانویه
ژاوا
ژاورود
ژاپن
ژاپو
ژاپون
ژاپونی
ژاپۊني
ژاک
ژرار
ژرمانی
ژرمني
ژرمنی
ژن
ژنتيک
ژنرال
ژنرالان
ژنو
ژني
ژه
ژو
ژورنال
ژوي
ژوين
ژوین
ژوییه
ژي
ژيوير
ژژر
ژۊا
ژۊي
ژۊيه
ک
کا
کابانيا
کابل
کابلي
کابين
کابينه
کابین
کابینه
کاترين
کاترينا
کاتو
کاتولیک
کاج
کاخ
کاخا
کادر
کادره
کادمي
کادمی
کادو
کادوس
کادوسی
کادوسیون
کار
کارا
کارامازو
کاران
کاراىته
کاراىي
کاراي
کاراکتر
کاراکترهای
کاراکشي
کاراگاه
کاراگينيم
کاراییب
کاربر
کاربران
کاربرد
کاربرده
کاربردي
کاربردی
کاربرمحور
کاربره
کاربرو
کاربری
کاربۊردو
کارت
کارتلان
کارتۊن
کارجوي
کارخانان
کارخانه
کارخو
کارد
کاردانشو
کاردانی
کارزین
کارسر
کارسنه
کارشناس
کارشناسی
کارفرما
کارفرماي
کارل
کارلو
کارلوس
کارليتو
کارلۊکس
کارم
کارمند
کارمندان
کارمندو
کارن
کارنامه
کارنينا
کارنيوو
کاره
کارهای
کارو
کاروان
کاروانان
کاروانسرا
کارولینا
کارون
کاري
کاريزماتيک
کارکرد
کارکنان
کارکنو
کارکيا
کارکيايي
کارکياگري
کارکۊنان
کارکیا
کارکیان
کارکیاگري
کارکیاگری
کارگا
کارگاه
کارگر
کارگران
کارگردان
کارگردانه
کارگردانو
کارگرداني
کارگردانی
کارگردو
کارگرو
کارگري
کارگير
کارگيران
کارگيره
کارگيرو
کارگيري
کارۊسو
کاری
کاریز
کاریکاتور
کاریکاتوریست
کازرون
کازينو
کاس
کاست
کاستاريکا
کاستر
کاسترو
کاسه
کاسيني
کاسپي
کاسپين
کاسپيي
کاسپی
کاسپیان
کاسپین
کاسپیي
کاسی
کاسیان
کاش
کاشان
کاشت
کاشف
کاشمر
کاشی
کاظم
کاظمی
کاغذ
کاغذي
کاغذی
کاف
کافه
کافي
کافيه
کافکا
کافی
کال
کالا
کالاو
کالاکاي
کالج
کالری
کالمار
کالنجار
کالنجارو
کالوالا
کاليجار
کاليفو
کالين
کالينز
کالیفرنیا
کام
کامران
کامرو
کامفیروز
کامل
کاملا
کاملن
کامله
کامنت
کامو
کاميل
کاميلا
کامپوتره
کامپوتری
کامپيوترى
کامپيۊتر
کامپيۊتران
کامپيۊترو
کامپيۊتري
کامپۊتري
کامپۊتن
کامپیوتر
کامپیوتران
کامپیوتری
کامکار
کامی
کامیاران
کان
کانادا
کانادایی
کانال
کاناوله
کانبی
کانت
کانتو
کاندنه
کانديد
کاندید
کانسپت
کانل
کانهي
کانون
کانۊنو
کانی
کاه
کاهش
کاور
کاوش
کاوه
کاووس
کاووسی
کاووشانه
کاوۊس
کاپريو
کاپریو
کاپو
کاپيتاليستي
کاپيتاليسم
کاپیتان
کاژانف
کاکاوند
کاکایی
کاکي
کاکۊ
کاکی
کباب
کبر
کبری
کبوتر
کبودرا
کبير
کبک
کبیر
کبیسه
کت
کتا
کتاب
کتابان
کتابخانه
کتابخو
کتابه
کتابو
کتابی
کتبر
کترز
کترو
کتمجان
کتن
کته
کتو
کتگي
کتی
کتیبه
کثر
کثرا
کثرن
کثريت
کثیری
کج
کجا
کجایی
کجور
کجید
کد
کدام
کدخدا
کده
کدهای
کدو
کدۊرت
کدی
کر
کرا
کرات
کراتيک
کراتیک
کراسي
کرامتی
کراوات
کراىسلر
کرباس
کربلا
کربلایی
کربو
کربوهیدرات
کرج
کرجی
کرد
کردار
کردخیل
کردستان
کردم
کردن
کردند
کرده
کردوکار
کردکوی
کردی
کردیت
کرسی
کرف
کرم
کرمان
کرماناوستان
کرمانشاه
کرنا
کرند
کرنسکي
کرني
کره
کرو
کرون
کرونا
کرونای
کريس
کريستو
کريستين
کريمي
کرچک
کرک
کرکان
کرکس
کرگان
کرگانرۊد
کرۊک
کری
کریستین
کریسمس
کریم
کریمخان
کریمخانی
کریمر
کریمی
کس
کسا
کسان
کساندر
کساني
کسانی
کسب
کسروی
کسری
کسل
کسلیان
کسما
کسماىي
کسمایي
کسمایی
کسن
کسنه
کسه
کسو
کسوت
کسي
کسيد
کسيس
کسيژن
کسکسو
کسی
کش
کشا
کشاورز
کشاورزان
کشاورزو
کشاورزي
کشاورزی
کشت
کشتا
کشتار
کشته
کشتی
کشف
کشفو
کشفی
کشل
کشمش
کشن
کشنن
کشنه
کشه
کشور
کشورا
کشوران
کشورانا
کشورانی
کشوره
کشورهای
کشورو
کشوري
کشوری
کشي
کشيش
کشک
کشکرت
کشکش
کشکوي
کشکۊلی
کشی
کشید
کشیده
کشیش
کشیشان
کف
کفت
کفترودی
کفتن
کفته
کفتید
کفش
کفن
کفه
کل
کلا
کلات
کلاته
کلاج
کلارا
کلاردشت
کلاس
کلاسان
کلاسه
کلاسو
کلاسيک
کلاسی
کلاسیک
کلاشم
کلاغ
کلاله
کلام
کلان
کلانتر
کلانتری
کلانشهر
کلاه
کلاو
کلاىه
کلاچ
کلاچای
کلاچه
کلاچي
کلاک
کلای
کلایه
کلایی
کلباد
کلد
کلر
کلسا
کلسترول
کلسيا
کلسيايي
کلسیا
کلسیایی
کلسیم
کلشتر
کلله
کلمات
کلمبیا
کلمه
کله
کلو
کلوين
کلوچه
کلي
کليد
کليسا
کليسایي
کليشو
کليمه
کليه
کليک
کلک
کلی
کلیبر
کلیجان
کلید
کلیسا
کلیساهان
کلیسای
کلیشم
کلینیک
کلیپ
کلیک
کم
کما
کمازان
کمال
کمانچه
کماچال
کمبریج
کمبود
کمبۊد
کمبیوتر
کمتر
کمترا
کمتره
کمترين
کمر
کمربند
کمربندی
کمرنگ
کمره
کمرپشت
کمن
کمه
کمو
کمونیست
کمونیستان
کمى
کمي
کمين
کمپانی
کمپبل
کمپین
کمپیوتران
کمک
کمی
کمیته
کمیتیه
کمیجان
کمیسر
کمیسیون
کن
کنا
کنار
کناران
کنارسر
کناره
کنارک
کناری
کنان
کنت
کنتاکی
کنترل
کنترپوان
کنجد
کند
کندان
کندن
کنده
کندوان
کندي
کندۊ
کنس
کنسرت
کنسرتو
کنسۊلگري
کنش
کنعان
کنف
کنفدراسیون
کنفرانس
کنم
کنن
کنند
کننده
کنندگان
کنندیه
کنه
کنکور
کنگان
کنگاور
کنگره
کنی
کنید
کنیم
کنیو
که
کهدم
کهريزک
کهریزک
کهن
کهنه
کهنوج
کهو
کهکیلویه
کهگیلویه
کو
کوار
کوب
کوبا
کوبایی
کوتا
کوتاخوس
کوتاه
کوتاهی
کوتنی
کوته
کوتی
کوثر
کوجی
کود
کودتا
کودن
کوده
کودک
کودکان
کودکی
کودی
کودید
کودیدی
کور
کورا
کوربین
کورتس
کورتیز
کورد
کوردستان
کوردن
کوردنشین
کوردو
کوردي
کوره
کوروش
کورچ
کوری
کوزه
کوشالی
کوشتار
کوشتن
کوشته
کوشتی
کوشش
کوشه
کوشک
کوفته
کول
کولا
کولاي
کولاک
کولفاکس
کولفکس
کوللی
کوله
کولوب
کولورادو
کولوش
کولوفت
کولی
کومار
کومت
کومتی
کومله
کومه
کومونيستو
کوميته
کوميسر
کومک
کومیته
کون
کونانی
کونترل
کوند
کونده
کونسرت
کونم
کونن
کونه
کونوس
کونوش
کونوشگرو
کونين
کونکور
کونی
کونید
کونیدی
کونیم
کوه
کوهان
کوهبنان
کوهدشت
کوهرنگ
کوهسار
کوهستان
کوهستانی
کوهسنگی
کوهو
کوهپایه
کوهی
کوهین
کوو
کوي
کوين
کوپی
کوچ
کوچسفانی
کوچسفهان
کوچصفهان
کوچمال
کوچه
کوچي
کوچک
کوچکی
کوچی
کوچیک
کوچیکی
کوک
کوکلاس
کوکو
کوکونینو
کوکوی
کوگا
کوگاهانه
کوگایه
کوی
کویت
کویتی
کویر
کویرات
کویری
کویه
کویی
کي
کيا
کياده
کيارش
کياشا
کيان
کيانۋ
کيايي
کيبريت
کيبو
کيت
کيتاب
کيتابان
کيتابخانه
کيتابه
کيتابو
کيخسرو
کيد
کيسه
کيسو
کيش
کيشاورزو
کيشاورزي
کيشور
کيشوران
کيشوره
کيشورو
کيشوري
کيفيت
کيلو
کيليد
کيليدتا
کيليده
کيليک
کيليکو
کيلۊ
کيلۊمتر
کيلۊمتره
کيلۊمتري
کيلۊگرم
کين
کينر
کيوي
کيۊبال
کيۊن
کپی
کچل
کچلام
کچه
کۊ
کۊبا
کۊبایي
کۊتا
کۊتاه
کۊته
کۊتو
کۊتيار
کۊتکو
کۊجسبان
کۊجي
کۊدتا
کۊدد
کۊدن
کۊدنکس
کۊده
کۊدي
کۊديد
کۊدک
کۊدید
کۊر
کۊرد
کۊردان
کۊردستان
کۊردنيشين
کۊردو
کۊردي
کۊره
کۊرو
کۊرچ
کۊس
کۊشت
کۊشتا
کۊشتن
کۊشته
کۊشتي
کۊشن
کۊشنر
کۊشنن
کۊشه
کۊشيار
کۊشی
کۊل
کۊلا
کۊلوان
کۊلي
کۊمت
کۊمسار
کۊمله
کۊمه
کۊمک
کۊمکي
کۊن
کۊنان
کۊند
کۊندا
کۊنده
کۊنش
کۊنشو
کۊنم
کۊنن
کۊنه
کۊني
کۊنيد
کۊنيدي
کۊنيم
کۊنۊش
کۊنۊشان
کۊنۊشه
کۊنۊشو
کۊنۊشگر
کۊنین
کۊه
کۊهان
کۊهستاني
کۊهسساني
کۊهو
کۊىه
کۊي
کۊپنهاگ
کۊپه
کۊچ
کۊچان
کۊچمال
کۊچه
کۊچي
کۊچیکي
کۊک
کی
کیا
کیاده
کیار
کیاسر
کیاشهر
کیان
کیانوش
کیانۋ
کیانی
کیاکلا
کیایی
کیاییان
کیبورد
کیت
کیتاب
کیتابان
کیتابخانه
کیتابخانیه
کیتابه
کیتابهای
کیتابو
کیخوته
کیس
کیسم
کیسه
کیسومی
کیسکیا
کیش
کیشاورز
کیشاورزی
کیشور
کیشوری
کیف
کیفیت
کیلان
کیله
کیلو
کیلومتر
کیلومتری
کیلومتریه
کیلوگرم
کیلۊمتر
کیلیک
کیمون
کینار
کیه
کیهان
کیوان
کیوتو
کیومرث
کیوی
کیک
ڪجهه
ڪري
ڪرڻ
ڪلب
ڪن
گ
گا
گاب
گابريل
گابنه
گادا
گادفادر
گار
گاردين
گارسو
گارسيا
گارسیا
گارفیلد
گاره
گاز
گازه
گازي
گازۊي
گاشيما
گالد
گالري
گالريان
گالری
گالش
گالشان
گالشو
گالشي
گالشی
گاله
گاليکش
گالۊش
گام
گاميش
گان
گانه
گانگستر
گانگستران
گاه
گاهانه
گاهگلف
گاهی
گاو
گاوا
گاودول
گاوزبان
گاویه
گاچه
گاگلف
گاگلفا
گاگلفی
گایا
گایی
گب
گبا
گبان
گبانه
گبری
گبزي
گبه
گبو
گت
گتاب
گته
گتوند
گتي
گدا
گدار
گده
گذار
گذاران
گذاري
گذاری
گذر
گذشت
گذشته
گر
گرا
گراد
گرافي
گرافيک
گرافیست
گرافیک
گرافیکی
گرامر
گران
گرانادو
گرانت
گرانته
گرانده
گراکو
گرایش
گرایشو
گربه
گرته
گرجستان
گرجستانی
گرجی
گرد
گردا
گردان
گردايته
گردد
گردسن
گردش
گردشگران
گردشگري
گردشگری
گردن
گردنه
گرده
گردو
گردي
گردی
گردید
گردیزی
گرزه
گرسنه
گرش
گرفت
گرفتار
گرفته
گرم
گرما
گرماب
گرمابدشت
گرمالت
گرمایشی
گرمدره
گرمسار
گرمسیری
گرمش
گرمه
گرمي
گرمی
گره
گرو
گروسی
گروه
گروهی
گري
گرچه
گرگ
گرگان
گرگانی
گرگین
گرۊندريسه
گرۊه
گرۊگان
گرۊگاني
گری
گریلی
گریم
گریه
گز
گزارش
گزارشی
گزاری
گزمه
گزينه
گزیده
گزینه
گست
گسترده
گسترش
گسيل
گسکر
گسکره
گشت
گشتاور
گشته
گشه
گفت
گفتار
گفتاورد
گفتم
گفتن
گفته
گفتگو
گفتگوی
گفتی
گفتید
گفتیه
گفشه
گل
گلا
گلاب
گلابی
گلان
گلای
گلدسته
گلدشت
گلرودبار
گلسار
گلستان
گلسرخی
گلشن
گلشهر
گلف
گلكي
گلله
گلمن
گلن
گله
گلهای
گلو
گلورد
گلوله
گلوگاه
گلوگاهشهرستان
گلوگاهی
گلي
گليم
گلين
گلپايگان
گلپایگان
گلچین
گلکي
گلی
گلیان
گلیم
گم
گمج
گمرک
گمل
گمنام
گناه
گنبد
گنج
گنجایش
گنجشک
گنجه
گنجی
گنداب
گندم
گندمان
گنش
گنو
گنوس
گنگره
گنگستري
گه
گهی
گو
گوابر
گواتمالا
گوادالو
گوار
گوارا
گواسرا
گواهي
گوت
گوتن
گوتنبرگ
گوته
گوجه
گود
گودده
گودن
گودندره
گودنه
گوده
گودي
گوديد
گودی
گودید
گودیدی
گوذاری
گوذر
گوذرنه
گوذره
گوذشت
گوذشته
گور
گورا
گوراب
گورخانه
گورستان
گورو
گوروه
گورکا
گورکانی
گوز
گوزارش
گوزن
گوزنان
گوزه
گوزگا
گوست
گوستاو
گوسترش
گوسفند
گوسند
گوسندو
گوش
گوشت
گوشتی
گوشه
گوشی
گوشیان
گوفتن
گوفته
گوفتيد
گوفتی
گوفتیدی
گول
گولاز
گولازی
گولخانه
گولدسته
گولناز
گوله
گولک
گولی
گومار
گومرک
گوناه
گوناگون
گوناگونی
گونش
گونن
گونه
گونی
گوهر
گوهررود
گوکه
گوگان
گوگاه
گویا
گوید
گویش
گویشان
گویند
گویه
گویی
گىته
گي
گيا
گياه
گياهان
گياهی
گيت
گيتار
گيتاريست
گيتزی
گيتن
گيتنه
گيتنکس
گيته
گيتي
گيج
گيد
گيدي
گيديد
گيدی
گير
گيرا
گيرباکس
گيرده
گيرم
گيرن
گيرنده
گيرنن
گيرنه
گيره
گيرو
گيري
گيريد
گيری
گيزر
گيسو
گيشه
گيفتن
گيفته
گيفتی
گيل
گيلان
گيلانه
گيلاني
گيلانی
گيلده
گيلسفيد
گيلك
گيلكي
گيلكی
گيلمردي
گيلمو
گيله
گيلو
گيلوا
گيليکي
گيلک
گيلکان
گيلکو
گيلکي
گيلکی
گينن
گينه
گينيم
گيۊمه
گپ
گچ
گچساران
گچي
گڏيل
گۊ
گۊا
گۊادالاخارا
گۊبيشتو
گۊت
گۊتن
گۊتنرهاىي
گۊتنکس
گۊتنکسان
گۊتنکسو
گۊته
گۊتي
گۊد
گۊدد
گۊدن
گۊدنه
گۊدني
گۊدنکس
گۊده
گۊدي
گۊديد
گۊدی
گۊدید
گۊذارنه
گۊذراني
گۊذره
گۊذشته
گۊر
گۊراب
گۊراز
گۊرگان
گۊرۊم
گۊزارش
گۊست
گۊستاو
گۊسترش
گۊسۊند
گۊش
گۊشت
گۊشنه
گۊل
گۊلازان
گۊلازي
گۊلستان
گۊلشن
گۊلل
گۊلله
گۊلي
گۊلپر
گۊلۊله
گۊم
گۊنم
گۊنن
گۊنه
گۊني
گۊنيم
گۊىش
گۊي
گۊيا
گۊچي
گۊگل
گۊیش
گۊیشو
گی
گیان
گیاه
گیاهان
گیاهی
گیت
گیتار
گیتاشناسی
گیتن
گیته
گید
گیدي
گیدی
گیر
گیربکس
گیرده
گیرن
گیرنه
گیره
گیری
گیرید
گیریدی
گیشبر
گیشه
گیفتان
گیفتن
گیفتنه
گیفته
گیفتی
گیفتید
گیفتیدی
گیل
گیلا
گیلان
گیلانا
گیلانشاه
گیلانشناسي
گیلانم
گیلانن
گیلانه
گیلانی
گیلانیان
گیلاه
گیلاکجان
گیلبرت
گیلده
گیله
گیلو
گیلوایی
گیلون
گیلک
گیلکان
گیلکو
گیلکي
گیلکی
گیلی
گیلیکی
گیم
گینن
گینه
گیوی
گیک
گیکو
ڻ
ۊ
ۊرال
ۊرالي
ۊراليک
ۊشو
ۊل
ۊلان
ۊلي
ۊن
ۊنه
ۊنو
ۊنوو
ۊني
ی
یا
یاب
یابه
یات
یاتتن
یاتن
یاخشى
یاد
یادا
یادبود
یادبۊد
یادداشت
یادداشتو
یادنامه
یادکرد
یادکردهای
یادگار
یادگیری
یادگیفتن
یار
یاران
یارانه
یاراي
یارو
یاري
یاری
یازده
یازدهم
یاس
یاسور
یاغي
یافت
یافته
یالانچی
یامچی
یان
یانه
یانگ
یانی
یاور
یاوران
یاوری
یای
یب
یت
یتا
یتر
یترين
یتن
یته
یتی
یجو
یحیی
یخ
یخبندان
یخچال
یخچالان
ید
یدالله
یده
یدی
یدین
یر
یرس
یرن
یره
یروان
یروزی
یرون
یز
یزد
یزدان
یزدگرد
یزدی
یزنهاور
یزیانا
یزید
یس
یسبوک
یسم
یسه
یسي
یعقوب
یعقوبي
یعقوبی
یعني
یعنی
یك
یل
یلدا
یله
یلي
یلی
یم
یملکس
یمین
ین
ینات
ینده
ینن
ینه
ینی
ینین
یه
یهودی
یهودیان
یو
یواش
یوتا
یوحنا
یوردی
یورو
یوریتومو
یوزر
یوسف
یوسفدهی
یوسفی
یوسیا
یوشی
یوشیج
یوشیموتو
یولقلی
یولیسیس
یوما
یومی
یون
یونان
یونانی
یونانیان
یونسکو
یونسی
یووا
یوکاتان
یي
یپاره
یک
یکته
یکجانشین
یکجانشینی
یکجور
یکساله
یکسان
یکشنبه
یکم
یکو
یکي
یکچی
یکی
یگانه
یۊرو
یۊنان
یۊناني
یۊنایتد
یی
یید
ییدیش
ییلاق
ییلاقی
یین
یینه
۰
۰۰۰
۰۱
۰۲
۰۳
۰۴
۰۵
۰۵۰
۰۶
۰۷
۰۸
۰۹
۱
۱۰
۱۰۰
۱۰۰۰
۱۰۰۳
۱۰۰۵
۱۰۲
۱۰۳
۱۰۳۸
۱۰۴
۱۰۵
۱۰۶
۱۰۷۵
۱۰۸
۱۰۹
۱۱
۱۱۰
۱۱۰۰
۱۱۱
۱۱۲
۱۱۳
۱۱۴
۱۱۵
۱۱۶
۱۱۷
۱۱۸
۱۱۹
۱۲
۱۲۰
۱۲۰۰۰
۱۲۰۹
۱۲۱
۱۲۲
۱۲۳
۱۲۴
۱۲۵
۱۲۶
۱۲۶۷
۱۲۸
۱۲۸۰
۱۲۸۶
۱۲۸۸
۱۲۹
۱۲۹۰
۱۲۹۲
۱۲۹۳
۱۲۹۴
۱۲۹۵
۱۲۹۶
۱۲۹۷
۱۲۹۸
۱۲۹۹
۱۳
۱۳۰
۱۳۰۰
۱۳۰۴
۱۳۰۶
۱۳۰۷
۱۳۱۰
۱۳۱۳
۱۳۱۴
۱۳۱۵
۱۳۱۶
۱۳۱۷
۱۳۱۸
۱۳۱۹
۱۳۲۰
۱۳۲۱
۱۳۲۲
۱۳۲۳
۱۳۲۴
۱۳۲۵
۱۳۲۶
۱۳۲۷
۱۳۲۸
۱۳۲۹
۱۳۳
۱۳۳۰
۱۳۳۱
۱۳۳۲
۱۳۳۳
۱۳۳۴
۱۳۳۵
۱۳۳۶
۱۳۳۷
۱۳۳۸
۱۳۳۹
۱۳۴
۱۳۴۰
۱۳۴۱
۱۳۴۲
۱۳۴۳
۱۳۴۴
۱۳۴۵
۱۳۴۶
۱۳۴۷
۱۳۴۸
۱۳۴۹
۱۳۵
۱۳۵۰
۱۳۵۱
۱۳۵۲
۱۳۵۳
۱۳۵۴
۱۳۵۵
۱۳۵۶
۱۳۵۷
۱۳۵۸
۱۳۵۹
۱۳۶۰
۱۳۶۱
۱۳۶۲
۱۳۶۳
۱۳۶۴
۱۳۶۵
۱۳۶۶
۱۳۶۷
۱۳۶۸
۱۳۶۹
۱۳۷
۱۳۷۰
۱۳۷۱
۱۳۷۲
۱۳۷۳
۱۳۷۴
۱۳۷۵
۱۳۷۶
۱۳۷۷
۱۳۷۸
۱۳۷۹
۱۳۸
۱۳۸۰
۱۳۸۱
۱۳۸۲
۱۳۸۳
۱۳۸۴
۱۳۸۵
۱۳۸۶
۱۳۸۷
۱۳۸۸
۱۳۸۹
۱۳۹
۱۳۹۰
۱۳۹۱
۱۳۹۲
۱۳۹۳
۱۳۹۴
۱۳۹۵
۱۳۹۶
۱۳۹۷
۱۳۹۸
۱۳۹۹
۱۴
۱۴۰
۱۴۰۰
۱۴۰۱
۱۴۱
۱۴۲
۱۴۳
۱۴۳۹
۱۴۵
۱۴۶
۱۴۶۷
۱۴۶۹
۱۴۷
۱۴۸
۱۴۸۲
۱۴۹۲
۱۴۹۹
۱۵
۱۵۰
۱۵۰۰
۱۵۰۳
۱۵۰۵
۱۵۰۶
۱۵۰۹
۱۵۱
۱۵۱۲
۱۵۱۳
۱۵۱۵
۱۵۱۶
۱۵۱۷
۱۵۱۹
۱۵۲۰
۱۵۲۱
۱۵۲۳
۱۵۲۴
۱۵۲۵
۱۵۲۹
۱۵۳۲
۱۵۳۳
۱۵۳۴
۱۵۳۵
۱۵۳۶
۱۵۴
۱۵۴۰
۱۵۴۱
۱۵۴۲
۱۵۴۳
۱۵۴۴
۱۵۴۶
۱۵۴۷
۱۵۵۱
۱۵۵۲
۱۵۵۵
۱۵۵۶
۱۵۵۹
۱۵۶
۱۵۶۰
۱۵۶۶
۱۵۶۸
۱۵۷
۱۵۷۱
۱۵۷۲
۱۵۷۳
۱۵۷۷
۱۵۸۰
۱۵۸۱
۱۵۸۲
۱۵۸۳
۱۵۸۴
۱۵۸۵
۱۵۸۶
۱۵۸۷
۱۵۸۸
۱۵۸۹
۱۵۹۰
۱۶
۱۶۰
۱۶۰۰
۱۶۲
۱۶۳
۱۶۳۰
۱۶۵
۱۶۷
۱۶۹
۱۷
۱۷۰۰
۱۷۱
۱۷۲
۱۷۳
۱۷۴
۱۷۵
۱۷۶
۱۷۸
۱۸
۱۸۰
۱۸۰۰
۱۸۰۹
۱۸۱۰
۱۸۱۲
۱۸۱۴
۱۸۲
۱۸۲۱
۱۸۲۷
۱۸۳
۱۸۳۴
۱۸۳۵
۱۸۳۶
۱۸۳۸
۱۸۳۹
۱۸۴
۱۸۴۳
۱۸۴۴
۱۸۴۵
۱۸۴۶
۱۸۴۷
۱۸۴۸
۱۸۴۹
۱۸۵
۱۸۵۴
۱۸۵۷
۱۸۵۸
۱۸۵۹
۱۸۶۱
۱۸۶۲
۱۸۶۳
۱۸۶۴
۱۸۶۵
۱۸۶۶
۱۸۶۷
۱۸۶۸
۱۸۶۹
۱۸۷
۱۸۷۱
۱۸۷۳
۱۸۷۵
۱۸۷۶
۱۸۷۷
۱۸۸
۱۸۸۰
۱۸۸۱
۱۸۸۸
۱۸۹
۱۹
۱۹۰
۱۹۰۵
۱۹۰۷
۱۹۰۸
۱۹۱
۱۹۱۰
۱۹۱۴
۱۹۱۵
۱۹۱۶
۱۹۱۷
۱۹۱۸
۱۹۱۹
۱۹۲۰
۱۹۲۱
۱۹۲۲
۱۹۲۸
۱۹۳
۱۹۳۰
۱۹۳۵
۱۹۳۶
۱۹۴
۱۹۴۰
۱۹۴۳
۱۹۴۴
۱۹۴۵
۱۹۴۸
۱۹۴۹
۱۹۵
۱۹۵۰
۱۹۵۱
۱۹۵۲
۱۹۵۳
۱۹۵۴
۱۹۵۵
۱۹۵۶
۱۹۵۷
۱۹۵۸
۱۹۵۹
۱۹۶۰
۱۹۶۱
۱۹۶۲
۱۹۶۳
۱۹۶۴
۱۹۶۵
۱۹۶۶
۱۹۶۷
۱۹۶۸
۱۹۶۹
۱۹۷۰
۱۹۷۱
۱۹۷۲
۱۹۷۳
۱۹۷۴
۱۹۷۵
۱۹۷۷
۱۹۷۸
۱۹۷۹
۱۹۸۰
۱۹۸۱
۱۹۸۲
۱۹۸۳
۱۹۸۴
۱۹۸۵
۱۹۸۶
۱۹۸۷
۱۹۸۸
۱۹۸۹
۱۹۹۰
۱۹۹۱
۱۹۹۲
۱۹۹۳
۱۹۹۴
۱۹۹۵
۱۹۹۶
۱۹۹۷
۱۹۹۸
۱۹۹۹
۲
۲۰
۲۰۰
۲۰۰۰
۲۰۰۱
۲۰۰۲
۲۰۰۳
۲۰۰۴
۲۰۰۵
۲۰۰۶
۲۰۰۷
۲۰۰۸
۲۰۰۹
۲۰۱
۲۰۱۰
۲۰۱۱
۲۰۱۲
۲۰۱۳
۲۰۱۴
۲۰۱۵
۲۰۱۶
۲۰۱۷
۲۰۱۸
۲۰۱۹
۲۰۲
۲۰۲۰
۲۰۲۱
۲۰۲۲
۲۰۴
۲۰۶
۲۰۸
۲۰۹
۲۱
۲۱۰
۲۱۱
۲۱۳
۲۱۴
۲۱۵
۲۱۸
۲۱۹
۲۲
۲۲۰
۲۲۱
۲۲۴
۲۲۵
۲۲۶
۲۲۷
۲۳
۲۳۰
۲۳۲
۲۳۴
۲۴
۲۴۰
۲۴۱
۲۴۲
۲۴۳
۲۴۴
۲۴۶۳
۲۴۹
۲۵
۲۵۰
۲۵۰۰
۲۵۱
۲۵۷
۲۵۹
۲۶
۲۶۰
۲۶۱
۲۶۲
۲۶۵
۲۶۶
۲۶۸
۲۶۹
۲۷
۲۷۰
۲۷۵
۲۷۷
۲۷۸
۲۸
۲۸۰
۲۸۲
۲۸۶
۲۸۷
۲۸۸
۲۹
۲۹۰
۲۹۱
۲۹۳
۲۹۵
۲۹۷
۳
۳۰
۳۰۰
۳۰۰۰
۳۰۱
۳۰۴
۳۰۷
۳۰۸
۳۰۹
۳۱
۳۱۱
۳۱۲
۳۱۳
۳۱۵
۳۱۶
۳۱۸
۳۲
۳۲۰
۳۲۰۰
۳۲۳
۳۲۸
۳۲۹
۳۳
۳۳۰
۳۳۱
۳۳۲
۳۳۳
۳۳۵
۳۳۶
۳۳۷
۳۳۸
۳۴
۳۴۰
۳۴۲
۳۴۳
۳۴۴
۳۴۵
۳۴۷
۳۴۹
۳۵
۳۵۰
۳۵۱
۳۵۴
۳۵۵
۳۵۶
۳۵۷
۳۶
۳۶۵
۳۶۶
۳۷
۳۷۰
۳۷۲
۳۷۴
۳۷۷
۳۸
۳۸۰
۳۸۸
۳۸۹
۳۹
۳۹۰
۳۹۲
۳۹۳
۴
۴۰
۴۰۰
۴۰۳
۴۰۵
۴۱
۴۱۶
۴۲
۴۲۱
۴۲۶
۴۲۹
۴۳
۴۳۴
۴۳۵
۴۴
۴۴۰
۴۴۱
۴۴۳
۴۴۶
۴۵
۴۵۰
۴۵۱
۴۶
۴۷
۴۷۰
۴۷۱
۴۷۴
۴۷۸
۴۸
۴۸۱
۴۸۶
۴۹
۴۹۵
۵
۵۰
۵۰۰
۵۰۰۰
۵۰۴
۵۱
۵۱۲
۵۲
۵۲۲
۵۲۴
۵۲۸
۵۳
۵۳۹
۵۴
۵۴۱
۵۵
۵۵۰
۵۵۵
۵۵۶۶
۵۵۹
۵۶
۵۷
۵۷۱
۵۸
۵۸۱
۵۹
۵۹۳
۵۹۶
۶
۶۰
۶۰۰
۶۰۰۰
۶۰۷
۶۱
۶۱۷
۶۲
۶۲۸
۶۳
۶۳۳
۶۳۹
۶۴
۶۴۰
۶۵
۶۵۰
۶۵۰۰
۶۵۲
۶۵۳
۶۶
۶۶۴
۶۷
۶۷۵
۶۸
۶۸۴
۶۸۷
۶۹
۶۹۰
۶۹۳
۶۹۵
۷
۷۰
۷۰۰
۷۰۲۵
۷۰۷
۷۱
۷۲
۷۲۱
۷۳
۷۴
۷۴۸
۷۴۹
۷۵۳
۷۶
۷۷
۷۷۲
۷۸
۷۸۳
۷۸۵
۷۹
۷۹۵
۸
۸۰
۸۰۰
۸۰۰۰
۸۱
۸۱۰
۸۲
۸۲۶
۸۳
۸۴
۸۵
۸۵۸
۸۶
۸۶۵
۸۶۹
۸۷
۸۷۹
۸۸
۸۹
۹
۹۰
۹۰۳
۹۰۶
۹۰۷
۹۱
۹۱۳
۹۱۹
۹۲
۹۲۰
۹۲۴
۹۲۹
۹۳
۹۳۰
۹۳۸
۹۴
۹۴۳
۹۵
۹۵۰
۹۵۲
۹۶
۹۶۱
۹۶۴
۹۶۵
۹۷
۹۷۰
۹۷۵
۹۷۸
۹۸
۹۸۵
۹۹
۹۹۶
۹۹۹
۽
۾
ট
ল
ে
্
თარგი
​
‌
‍
‎
‏
‐
–
—
‘
’
“
”
•
…
‪
‬
′
″
›
←
→
↔
↷
−
③
④
⑦
▪
☉
☽
☿
♀
♂
♃
♄
♆
⛢
✓
⯓
⺀
⺄
⺆
⺈
⺊
⺌
⺕
⺝
⺸
⺼
⿰
⿱
⿲
⿳
⿴
⿵
⿶
⿷
⿸
⿹
⿺
⿻
《
》
〢
い
う
け
つ
な
の
゙
゚
ア
イ
ウ
カ
ク
コ
サ
シ
ッ
テ
ト
ニ
フ
メ
ユ
ョ
ル
レ
ワ
ン
ー
㇁
㇂
㇄
㇇
㇈
㇉
㇓
㐁
㐄
㐅
㐌
㐫
㐬
㐭
㐮
㐱
㑒
㒵
㒸
㒼
㓁
㓞
㔾
㕛
㕣
㖾
㘝
㚅
㚇
㚔
㚘
㝉
㝡
㝴
㝵
㞋
㞢
㞷
㠩
㠭
㠯
㡀
㡭
㡿
㢲
㢴
㣇
㣺
㥯
㪅
㫄
㫐
㫒
㫺
㬅
㬎
㬥
㬰
㲋
㳄
㷠
㸒
㸚
㸦
㼌
㼲
㽞
㿟
䀠
䂞
䍃
䏍
䒑
䖍
䖒
䖝
䖵
䙴
䚻
䜌
䝿
䡛
䧹
䪞
一
丁
丂
七
丄
丅
丆
万
丈
三
上
下
丌
不
与
丏
丐
丑
专
且
丕
世
丘
丙
业
东
丞
丢
丣
两
严
並
丨
丩
个
丫
丬
中
丮
丰
丱
串
丵
丶
丷
丸
丹
为
主
丽
丿
乀
乂
乃
久
乆
乇
么
义
之
乌
乍
乎
乏
乐
乑
乔
乖
乗
乘
乙
乚
乛
乜
九
乞
也
习
乡
乳
乾
亀
亅
了
亇
予
争
事
二
亍
于
亏
亐
云
互
亓
五
井
亘
亚
亜
亞
亟
亠
亡
亢
交
亥
亦
产
亨
亩
享
京
亭
亮
亯
亰
亲
亳
亶
亷
人
亻
亼
亾
仁
今
介
仌
从
仐
仑
仒
仓
仕
他
付
仝
代
令
以
任
企
伊
伏
伐
休
会
伯
但
位
何
佘
余
作
佥
使
來
侈
侌
侍
侖
依
侯
侵
便
保
俞
信
修
倉
倍
候
倠
備
僉
僕
儿
兀
允
兂
元
兄
充
兆
兇
先
光
兊
克
兌
免
兑
兒
兓
兔
党
兜
兟
入
全
兩
兪
八
公
六
兮
兰
共
关
兵
其
具
典
兹
兼
冀
冂
冃
冄
内
冈
冉
冊
冋
册
再
冎
冏
冐
冒
冓
冖
冗
冘
军
农
冝
冡
冥
冫
冬
冷
几
凡
凢
凵
凶
凷
凸
凹
出
函
凾
刀
刁
刂
刃
刄
刅
分
切
刍
刑
刕
刖
列
刘
则
初
別
利
别
到
制
刺
則
削
剌
前
剡
剽
劉
力
功
加
劦
助
劫
劳
劵
勃
勇
勉
勒
動
務
勞
勤
勹
勺
勻
勾
勿
匀
匂
包
匆
匈
匊
匋
匍
匕
化
北
匚
匝
匡
匪
匱
匸
匹
区
医
匽
匿
區
十
卂
千
卄
卅
卆
升
午
卉
半
卌
华
卑
卒
卓
单
卖
南
卜
卝
卞
占
卡
卢
卣
卤
卦
卩
卪
卬
卯
印
危
即
却
卵
卷
卸
卻
厂
厃
厄
历
厈
厉
厌
厓
厘
厚
原
厤
厥
厨
厭
厲
厶
厷
厸
去
厼
厽
叀
参
參
叅
又
叉
及
友
双
反
叐
发
叒
叔
叕
取
受
叚
叜
叟
口
古
句
另
叩
只
召
可
台
叱
史
右
叵
号
司
叹
吂
各
吅
合
吉
吊
吋
同
名
后
吏
向
吕
君
吝
吞
否
含
启
吳
吴
吹
吾
呂
呆
呈
告
员
呙
周
命
咅
和
咎
咠
咢
咨
咸
咼
哀
品
哉
員
哥
哲
唐
商
啇
問
啚
啬
啻
善
喜
喬
單
喿
嗇
噩
嚴
囊
囗
囘
囙
囚
四
回
囟
因
団
囧
囬
困
囱
囷
固
国
圂
圅
國
圍
圓
土
圡
圣
圥
在
圭
地
圶
圼
坐
坒
坚
坴
垂
垔
垚
埀
埋
城
埶
執
基
堂
堅
堆
堇
堯
塞
墨
壘
士
壬
壯
声
壳
壴
壹
壺
壽
夂
处
夅
夆
备
夊
夋
夌
复
夏
夒
夕
外
夗
夘
多
夜
夢
大
夨
天
太
夫
夬
夭
央
失
夲
头
夷
夸
夹
夻
夾
奂
奄
奇
奈
奉
奎
奏
奐
契
奓
奔
奚
奞
奠
奢
奥
奭
女
奴
奻
好
如
妄
妙
妟
妥
妻
妾
姑
委
姜
威
娄
婁
婴
嬰
嬴
子
孑
孔
孕
孖
字
存
孚
孛
孝
孟
季
孤
学
孫
孱
學
宀
宁
宂
它
宅
宇
守
安
宋
完
宏
宓
宗
官
定
宛
宜
宝
客
宣
室
宮
宰
害
家
容
宾
宿
寄
寅
密
富
寒
察
寧
審
寫
寬
寮
寸
对
寺
寻
寽
対
寿
封
尃
射
将
將
專
尉
尊
尋
尌
對
小
少
尒
尓
尔
尖
尗
尚
尞
尢
尣
尤
尧
尨
尭
就
尸
尹
尺
尻
尼
尽
尾
尿
局
居
屈
屋
屎
屏
屑
展
屖
屚
属
屠
屡
屬
屮
屯
屰
山
屵
屾
岁
岂
岑
岡
岩
岳
岸
峯
島
崇
崎
崑
崔
崖
崙
崩
嵬
嶲
巂
巛
川
州
巟
巠
巢
巣
巤
工
左
巧
巨
巩
巫
差
己
已
巳
巴
巷
巸
巽
巾
巿
帀
市
布
希
帚
帛
帝
带
師
席
帶
常
干
平
年
幵
并
幷
幸
幺
幻
幼
幽
幾
广
広
庄
床
底
店
庚
府
度
庫
庭
庶
康
庸
廉
廌
廛
廢
廣
廩
廴
延
廷
建
廾
廿
开
弁
弃
弄
弇
弋
式
弓
弔
引
弗
弘
弜
弟
弥
弦
弱
張
強
强
彊
彌
彎
彐
彑
当
彔
录
彖
彗
彡
形
彥
彦
彧
彭
彳
役
彼
往
待
律
徒
得
徙
從
復
微
徵
心
忄
必
忌
忍
志
忝
忠
忩
快
念
忽
忿
思
怠
急
怱
恆
恒
恩
恭
息
悉
患
悤
悲
悶
惠
惡
惢
愁
愈
意
愛
感
慈
慧
慮
憂
憲
應
戀
戈
戉
戊
戋
戌
戍
戎
成
我
戒
戔
或
戚
戠
戢
戦
截
戲
戶
户
戹
戼
戾
房
所
扁
扇
手
扌
才
打
托
执
承
折
拉
拜
拿
掌
推
提
摩
支
攴
攵
收
攸
改
放
政
敄
敏
敕
敖
敗
敝
敞
敢
散
敦
敫
敬
数
敷
數
斂
文
斉
斊
斗
斤
斥
斩
斬
斯
新
方
於
施
斿
旁
旋
族
无
旡
既
旣
日
旦
旧
旨
早
旬
旱
旲
时
旾
昆
昇
昌
昍
明
昏
易
昔
昗
昜
星
春
昬
是
昱
昴
昷
時
晃
晋
晏
普
景
晶
智
暑
暴
曇
曩
曰
曲
曳
更
曷
書
曹
曼
曾
替
最
朁
會
月
有
朋
服
朔
朕
朗
望
朝
木
朩
未
末
本
札
朮
术
朱
朵
朶
朿
杀
杏
杜
束
条
来
東
杲
杳
松
析
林
枚
果
枝
枲
枼
某
柔
查
柬
柰
柴
栗
桀
桑
桼
梁
條
梟
梨
棘
棠
棥
森
楚
業
楽
榮
樂
樊
欠
次
欣
欮
欲
欶
欽
款
歆
歇
歛
止
正
此
步
武
歨
歪
歮
歯
歰
歲
歴
歷
歸
歹
歺
死
殳
段
殷
殸
殹
殺
殻
殿
毋
毌
母
每
毒
比
毕
毚
毛
毳
氏
氐
民
气
氣
水
氵
氶
氷
永
氺
氾
求
汉
汝
汞
江
沃
沓
沙
沝
泉
法
波
泣
泥
泰
洛
洪
活
派
流
浦
浪
浮
淡
淮
清
渚
渠
湯
滿
漢
漸
澤
火
灬
灭
灰
灵
灷
炅
炎
炏
炗
炙
炭
為
烈
烏
烝
焉
無
焦
焱
然
煞
熊
熏
燕
營
燮
爪
爫
爭
爯
爰
爱
爲
爵
父
爻
爽
爾
爿
片
牙
牚
牛
牜
牟
牢
牧
牪
牽
犀
犬
犭
犮
狂
狄
狊
独
狺
猋
猒
猪
献
獻
玄
率
玉
王
玟
玨
珎
班
琴
瑟
瑩
瓜
瓦
甘
甚
生
産
用
甫
甬
田
由
甲
申
电
甶
男
甸
甹
画
甾
畀
界
畏
畐
留
畜
畟
畢
畧
畨
番
畫
異
畱
當
畺
畾
疊
疋
疌
疑
疒
疾
癶
癸
癹
登
發
白
百
皀
皃
的
皆
皇
皋
皐
皕
皮
皷
皿
盃
盆
盇
盈
益
盍
盎
监
盒
盖
盛
盡
監
盤
盧
目
直
相
盾
省
眇
眉
看
眔
眞
真
眷
眼
眾
着
睘
睪
睿
瞏
瞢
瞿
矍
矛
矞
矢
矣
知
矦
短
石
破
碎
磊
磨
示
礻
礼
祟
票
祭
禀
禁
禸
禹
禺
离
禽
禾
禿
秀
秃
秉
秋
科
秝
秦
移
稟
穀
穌
穴
究
穹
空
穿
突
窄
窒
立
竒
竜
竝
竟
章
童
竹
笑
笠
筆
等
答
箕
算
箴
節
篤
篭
米
粉
粛
粟
粤
粦
粲
糞
糸
糹
系
約
納
素
索
紫
累
細
絜
絫
絲
維
綿
縣
繇
織
纍
纟
缶
网
罒
罔
罕
罗
罙
罡
罢
罪
署
罷
羅
羊
羌
羍
美
羔
羕
羗
羞
羡
羣
群
義
羲
羸
羽
翁
翏
習
翕
翟
翠
翼
老
耂
考
者
耆
而
耎
耑
耒
耳
耴
耶
耷
聂
聊
聖
聚
聶
聿
肀
肃
肅
肉
肖
肙
肥
肩
肯
育
肴
胃
背
胡
胥
能
脊
脩
膚
臣
臤
臧
自
臬
臭
臯
臱
至
致
臺
臼
臽
臾
臿
舀
舂
舄
與
興
舉
舌
舍
舛
舜
舞
舟
般
艮
良
色
艸
艹
艾
芒
芔
芬
芮
花
芳
芺
芻
苔
苗
苟
若
苦
英
茶
茸
荅
草
荒
荣
荼
莆
莧
莫
莽
菆
菊
菐
華
萬
落
葉
著
葛
董
葵
蒙
蒦
蒼
蓋
蓬
蓺
蔑
蔡
蕉
蕭
薄
薛
薦
薰
藍
藏
藥
蘭
虍
虎
虐
虒
虔
處
虖
虗
虘
虚
虛
虜
虞
虫
虽
蚤
蚩
蛛
蜀
蜘
蜜
蟲
蠡
血
行
衍
衛
衣
衤
表
衮
衰
袁
袞
複
褭
褱
襄
襾
西
覀
要
覃
見
規
覓
覧
親
覽
见
角
解
言
訁
訇
計
討
詹
語
誩
論
諸
讠
语
谷
豆
豈
豊
豐
豕
豖
豙
象
豦
豩
豪
豸
貇
貝
貞
貟
負
貢
貧
貪
貫
責
貳
貴
買
費
賁
資
賈
賏
賓
賔
賛
賞
賢
賣
質
賴
贊
贝
贡
责
贯
贲
贵
赖
赞
赤
赦
走
越
足
路
蹇
身
躬
車
軍
軎
軟
輦
车
辛
辜
辞
辟
辥
辰
辱
農
辵
辶
边
达
过
近
连
迷
追
退
送
逆
逐
通
速
造
逢
連
逮
進
遀
遂
過
道
達
遣
適
遷
遺
邊
邑
邕
那
邦
邪
郎
部
郭
都
鄉
酉
酋
配
酓
釆
采
里
重
野
量
金
釒
錢
鎮
钅
長
镸
长
門
閃
閉
開
閏
閑
閒
間
閔
閵
閻
闌
门
间
闷
阑
阜
阝
阿
降
除
陳
隆
隊
隋
隡
隨
隱
隶
隹
隺
隻
隼
隽
难
雀
雁
集
雈
雋
雍
雐
雑
雔
雙
雚
雜
雝
離
難
雨
雩
雪
雲
零
雷
需
霍
霜
霝
霞
霸
靈
靑
青
非
靡
面
靣
革
韋
韦
韭
韯
韱
音
頁
頃
項
須
頗
頡
頻
頼
顛
页
風
风
飛
飞
食
飠
養
饣
首
香
馬
馮
駦
騎
马
骨
高
髟
鬥
鬯
鬲
鬼
魚
魯
鮮
鱼
鲁
鳥
鳳
鸟
鹵
鹿
麃
麗
麥
麦
麻
黃
黄
黍
黎
黑
黒
黨
黹
黽
黾
鼎
鼓
鼠
鼻
齊
齋
齐
齒
齿
龍
龙
龜
龟
龠
龰
龱
龴
龵
龶
龷
龸
龹
ꞌ
者
艹
ﬂ
ﭘ
ﮏ
ﮐ
ﮔ
ﯿ
︎
ﺁ
ﺎ
ﺑ
ﺟ
ﺠ
ﺤ
ﺧ
ﺩ
ﺭ
ﺮ
ﺯ
ﺲ
ﺳ
ﺴ
ﺶ
ﻏ
ﻓ
ﻗ
ﻟ
ﻠ
ﻢ
ﻣ
ﻥ
ﻧ
ﻪ
ﻭ
ﻮ
ﻼ
﻿
？
￼
😅
😏
🜨
𠀁
𠀃
𠀆
𠀉
𠀎
𠀐
𠁁
𠁣
𠂆
𠂇
𠂈
𠂉
𠂊
𠂋
𠂎
𠂒
𠂔
𠂛
𠂡
𠂢
𠂤
𠂬
𠂭
𠂹
𠃊
𠃋
𠃌
𠃍
𠃎
𠃑
𠃓
𠃔
𠃜
𠄌
𠄎
𠄠
𠄢
𠆢
𠆥
𠇍
𠈌
𠌵
𠓜
𠔉
𠔥
𠔼
𠔽
𠔿
𠕀
𠕁
𠕋
𠘧
𠘨
𠙻
𠙼
𠚏
𠚒
𠚤
𠚪
𠣏
𠤎
𠤕
𠥓
𠦄
𠦑
𠦝
𠧒
𠧗
𠧪
𠩺
𠪚
𠫓
𠫔
𠫤
𠬛
𠬝
𠬞
𠬢
𠬤
𠬶
𠮛
𠮦
𠮷
𠯑
𠱠
𠳮
𠷎
𡈼
𡉀
𡉵
𡌥
𡍮
𡏳
𡕒
𡕩
𡕰
𡖅
𡗗
𡗜
𡘆
𡘤
𡧱
𡨄
𡩧
𡬠
𡭽
𡰣
𡰥
𡰪
𡰯
𡰱
𡷈
𡸁
𡿨
𡿩
𡿪
𡿺
𢀖
𢀛
𢀩
𢁙
𢆉
𢆰
𢆶
𢇁
𢇇
𢉖
𢌬
𢌿
𢏚
𢑑
𢑚
𢖻
𢙣
𢛳
𢦏
𢦒
𢧵
𢼄
𢾕
𣁋
𣄼
𣅀
𣅽
𣍘
𣎳
𣎵
𣏋
𣏼
𣗥
𣥂
𣥖
𣦵
𣦼
𣧄
𣪊
𣪠
𣬉
𣳾
𣶒
𤇾
𤊽
𤐫
𤓰
𤔔
𤕨
𤣩
𤰇
𤰔
𤰞
𤴓
𤴔
𤽄
𥁑
𥁕
𥃦
𥃩
𥃭
𥇡
𥑟
𥘅
𥘈
𥝢
𥫗
𥱡
𦈢
𦉪
𦉬
𦉼
𦍌
𦍒
𦎧
𦐇
𦓔
𦔮
𦘒
𦙃
𦚏
𦣝
𦣞
𦣻
𦥑
𦥔
𦥯
𦨉
𦭝
𦰩
𧆞
𧈧
𧘇
𧰨
𧴪
𧴮
𧵩
𧾷
𨸏
𨾴
𩙿
𩠐
𩫏
𩵋
𪉷
𪜀
𪟽
𪠲
𪩲
𫇦
𫔭
𫜸
𫝀
𫠣
𫠩
𫢉
𫥞
𫩏
𫩠
𫪡
𫲽
𫶧
𬀷
𬐘
𬗌
𬙙
𬛸
𬜯
𬟩
𬯁
𬴘
𬺻
𬼉
𬼖
𭀰
𭁈
𭁨
𭅰
𭑈
𭕄
𭗼
𭤨
𭥫
𭻾
𮅕
𮊿
𮍌
𮍏
𮓗
𮥼
𮧮
廾
𰀁
𰀄
𰀈
𰀉
𰀕
𰀠
𰀡
𰀢
𰀪
𰁜
𰃮
𰆊
𰆘
𰋙
𰕎
𰢴
𰧭
𰯲
00--
01--
02--
0211--
03--
04--
05--
06--
07--
08--
09--
10--
11--
12--
13--
14--
15--
1558--
16--
17--
18--
19--
200802--
2020--
21--
22--
23--
25--
2572--
26--
27--
28--
29--
30--
31--
32--
33--
34--
37--
39--
40--
41--
42--
44--
45--
46--
47--
48--
50--
51--
52--
53--
54--
55--
57--
58--
59--
6--
61--
62--
63--
65--
66--
67--
681--
69--
7--
70--
72--
73--
75--
76--
78--
79--
80--
81--
82--
83--
84--
85--
87--
88--
92--
93--
95--
97--
98--
a--
aa--
ab--
ac--
acti--
ad--
ae--
af--
agre--
agri--
ah--
ai--
ak--
al--
alam--
alex--
all--
am--
ambi--
an--
ang--
ani--
app--
aq--
ar--
arg--
args--
as--
astr--
astrop--
at--
au--
az--
b--
ba--
bal--
bar--
barja--
bas--
base--
bb--
be--
bi--
biog--
biograp--
bis--
bo--
boo--
bor--
boun--
br--
bri--
bs--
bu--
bur--
by--
bə--
c--
ca--
calcul--
cap--
car--
cat--
ce--
cel--
ceng--
cengel--
cere--
cfg--
char--
ci--
cien--
cla--
cli--
co--
colle--
con--
cor--
cr--
crea--
create--
cus--
d--
da--
dan--
dark--
de--
decla--
del--
den--
des--
deter--
di--
dict--
dis--
disam--
distri--
do--
doc--
dor--
dr--
du--
dum--
də--
e--
ea--
ec--
edit--
ef--
eh--
el--
eli--
em--
en--
eng--
er--
es--
eur--
ex--
execu--
f--
fa--
far--
fe--
fer--
fi--
fig--
fil--
file--
fire--
flo--
foc--
foot--
fr--
fs--
fun--
g--
ga--
gar--
gen--
geo--
get--
gi--
gla--
go--
gra--
gu--
guad--
guar--
h--
ha--
han--
har--
has--
hat--
haw--
hay--
he--
hen--
hh--
hi--
history--
ho--
home--
hor--
hu--
hy--
i--
ic--
id--
ie--
im--
imp--
in--
info--
inst--
int--
inter--
ir--
iran--
is--
j--
ja--
jan--
je--
ji--
jo--
jon--
js--
k--
ka--
kal--
kam--
kan--
kar--
ke--
kha--
ki--
kk--
kkk--
ko--
kong--
ku--
l--
la--
lay--
le--
li--
lin--
list--
lo--
local--
ly--
m--
ma--
mag--
mah--
maj--
make--
mal--
man--
map--
mar--
me--
meh--
mer--
mew--
mi--
mid--
mili--
mirror--
mis--
missi--
mo--
mor--
mu--
my--
mə--
n--
na--
naci--
nav--
nb--
ne--
new--
ni--
nn--
no--
non--
nor--
nutr--
o--
ol--
op--
or--
ori--
orien--
os--
ou--
outer--
over--
p--
pa--
pac--
par--
pass--
pay--
pea--
pen--
per--
pho--
phy--
pi--
pl--
plat--
po--
pp--
pr--
pre--
pri--
pro--
ps--
psycho--
pt--
pub--
pun--
q--
qa--
qeh--
qu--
quali--
qui--
r--
ra--
re--
recog--
ref--
render--
rep--
represen--
res--
rft--
ri--
ro--
rod--
ru--
rə--
s--
sa--
sab--
sabze--
sandbox--
sc--
scho--
se--
sea--
sen--
seno--
set--
sha--
sho--
si--
sin--
site--
sl--
small--
smo--
so--
social--
son--
sp--
spo--
sq--
sr--
st--
stat--
su--
sub--
suma--
sun--
sv--
sə--
t--
ta--
tab--
tah--
talk--
tas--
te--
teh--
tele--
ter--
text--
th--
the--
thumb--
ti--
tidyval--
to--
togg--
top--
tr--
tra--
trad--
trans--
trigg--
tt--
tu--
tur--
tw--
type--
u--
ub--
un--
ur--
url--
us--
use--
v--
va--
ve--
vi--
view--
vo--
vul--
w--
wa--
we--
wi--
wiki--
wo--
x--
xa--
xar--
xaz--
xi--
xod--
xu--
y--
ya--
yak--
ye--
yə--
z--
za--
zar--
ze--
zi--
zo--
ə--
ا--
اب--
اباد--
ابر--
ابن--
ابو--
ابوال--
ابۊ--
ات--
اتو--
اثر--
اح--
احت--
اخت--
اد--
ادا--
ادم--
ار--
ارد--
ارس--
ارم--
ارو--
اروند--
از--
ازا--
اس--
اسا--
اسب--
است--
استاد--
استام--
اسك--
اش--
اشت--
اشك--
اشک--
اص--
اع--
اف--
اق--
اقا--
اك--
ال--
الا--
الت--
الر--
الع--
الغ--
الك--
الم--
الو--
ام--
امر--
امي--
امير--
امپرا--
امیر--
ان--
انت--
اه--
او--
اوز--
اون--
اي--
ايج--
ايز--
ايسل--
ايسک--
ايفت--
اين--
ايگل--
اچ--
اک--
اگ--
اۊ--
ای--
اید--
ایران--
ایزد--
ایس--
ایست--
ایش--
ایل--
این--
ب--
با--
بابا--
باجي--
باد--
بار--
بارکو--
باز--
بازکيا--
باس--
باش--
باغ--
بال--
بالا--
بام--
بان--
بانک--
باو--
باي--
باک--
بب--
ببو--
بت--
بتا--
بج--
بخ--
بخا--
بخش--
بخو--
بد--
بدا--
بده--
بر--
برا--
برج--
برز--
برو--
بري--
برگ--
بری--
بز--
بزا--
بزرگ--
بس--
بسا--
بش--
بشو--
بص--
بع--
بـ--
بــ--
بفه--
بك--
بكو--
بل--
بلا--
بلند--
بلۊ--
بم--
بما--
بمع--
بمو--
بن--
بنا--
بناب--
بند--
بندر--
بني--
بنگ--
بنی--
به--
بهار--
بو--
بوا--
بود--
بوز--
بوكو--
بول--
بون--
بوک--
بى--
بي--
بيا--
بيد--
بيش--
بين--
بينا--
بينوي--
بيني--
بيو--
بيگ--
بپ--
بپو--
بپور--
بچا--
بچل--
بک--
بکو--
بکۊ--
بگ--
بگذ--
بگو--
بگي--
بۊ--
بۊل--
بۊن--
بۊگۊ--
بی--
بیا--
بیج--
بید--
بیر--
بیش--
بیگ--
ت--
تا--
تاب--
تات--
تاج--
تاد--
تار--
تاز--
تاك--
تان--
تاو--
تاى--
تب--
تج--
تح--
تخ--
تد--
تذ--
تر--
ترا--
ترس--
ترش--
ترك--
تش--
تص--
تصنی--
تع--
تعا--
تـ--
تق--
تك--
تل--
تلوي--
تم--
تما--
تمي--
تمی--
تن--
تنگ--
ته--
تو--
توا--
تور--
تون--
تي--
تير--
تيۊ--
تک--
تۊ--
تۊمب--
تۊند--
تۋ--
تی--
تیر--
تیم--
ث--
ج--
جا--
جاسو--
جام--
جان--
جاه--
جاو--
جدا--
جر--
جرا--
جز--
جست--
جغ--
جغل--
جـ--
جك--
جلی--
جم--
جما--
جن--
جنگ--
جه--
جهان--
جو--
جور--
جوش--
جي--
جير--
جيوي--
جک--
جۊ--
جی--
جیر--
جیوی--
ح--
حا--
حت--
حر--
حس--
حسن--
حصير--
حصیر--
حق--
حل--
حمد--
حميد--
حو--
حي--
حکا--
حکم--
حی--
خ--
خا--
خاب--
خار--
خان--
خاک--
خب--
خبر--
خت--
خدا--
خدمت--
خر--
خراط--
خرد--
خرم--
خري--
خست--
خش--
خشك--
خشک--
خض--
خطر--
خـ--
خــ--
خل--
خم--
خن--
خو--
خوار--
خود--
خور--
خوش--
خوف--
خون--
خىا--
خي--
خۊ--
خۊد--
خۊدا--
خۊر--
خۊش--
خی--
د--
دا--
داب--
داد--
دار--
دارال--
داش--
دال--
دام--
دان--
دانش--
دای--
در--
درا--
درب--
درت--
درد--
درز--
درزي--
درم--
درو--
دزي--
دس--
دست--
دشت--
دعو--
دل--
دم--
دمي--
دمی--
دن--
دنگ--
ده--
دهك--
دو--
دوا--
دور--
دون--
دوک--
دى--
دي--
ديل--
ديم--
ديک--
دپر--
دژ--
دکو--
دۊ--
دۊر--
دۊك--
دۊک--
دی--
دیا--
دیر--
دیم--
دین--
دیو--
ذ--
ذر--
ذغ--
ذو--
ذوال--
ر--
را--
راد--
راز--
راس--
راش--
رام--
ران--
راه--
رب--
رت--
رج--
رخ--
رخت--
رد--
رز--
رس--
رست--
رش--
رضا--
رق--
رقا--
رم--
رن--
ره--
رو--
روا--
روح--
رود--
روز--
روس--
روم--
رون--
روی--
ري--
رگ--
رۊ--
رۊد--
رۊزنام--
رۊن--
ری--
ریا--
ریس--
ریک--
ز--
زا--
زاد--
زادا--
زادی--
زار--
زاز--
زال--
زب--
زر--
زرد--
زع--
زن--
زنج--
زنگ--
زه--
زو--
زوان--
زى--
زي--
زير--
زۊ--
زۊر--
زی--
زیبا--
زیر--
س--
سا--
ساد--
سار--
سال--
سام--
سان--
سب--
سبز--
ست--
ستا--
ستر--
سد--
سر--
سرا--
سرب--
سرخ--
سرد--
سری--
سس--
سف--
سفر--
سفيد--
سك--
سل--
سلو--
سم--
سمي--
سن--
سند--
سنگ--
سه--
سو--
سوا--
سوار--
سوت--
سود--
سور--
سوم--
سون--
سىا--
سىد--
سي--
سيا--
سياه--
سيد--
سين--
سيوا--
سپ--
سک--
سگ--
سۊ--
سۊر--
سی--
سیا--
سیاه--
سید--
سیر--
سیس--
سیل--
ش--
شا--
شاخ--
شاد--
شال--
شان--
شاه--
شای--
شب--
شت--
شد--
شر--
شرف--
شرق--
شريع--
شش--
شصتان--
شعر--
شق--
شك--
شل--
شم--
شمشاد--
شمع--
شمی--
شن--
شنا--
شه--
شهر--
شو--
شور--
شي--
شير--
شيم--
شک--
شکر--
شۊ--
شی--
شیر--
شیم--
شین--
ص--
صد--
صدا--
صدر--
صدو--
صف--
صفا--
صل--
صو--
صوما--
صۊ--
صی--
صید--
ض--
ضد--
ضرو--
ضو--
ضيح--
ط--
طا--
طاهر--
طب--
طبا--
طغ--
طو--
طور--
طي--
ظ--
ظهیر--
ع--
عا--
عام--
عبد--
عبدال--
عج--
عزا--
عزيز--
عسک--
عص--
عطا--
عظ--
عق--
عقل--
عقی--
علم--
علي--
علی--
عمر--
عو--
عي--
عۊ--
عیل--
غ--
غار--
غر--
غزل--
غض--
غف--
غل--
غم--
غو--
غوز--
غير--
غۊ--
غیر--
ـ--
ف--
فا--
فت--
فتورک--
فر--
فرا--
فرد--
فرم--
فرو--
فرۊ--
فشا--
فشت--
فضا--
فق--
فن--
فنا--
فنگ--
فه--
فو--
في--
فيزي--
فک--
فۊ--
فۊتۊرک--
فۊد--
فی--
ق--
قا--
قانون--
قبا--
قبر--
قد--
قرا--
قرار--
قزو--
قشق--
قص--
قصاب--
قصر--
قضا--
قل--
قلم--
قم--
قن--
قه--
قو--
قىم--
قي--
قۊ--
قۊمار--
قی--
قیص--
ك--
كا--
كار--
كاس--
كام--
كرد--
كس--
كش--
كل--
كلا--
كم--
كمر--
كنن--
كه--
كو--
كوه--
كي--
كيا--
كۊ--
ل--
لا--
لاب--
لات--
لار--
لاس--
لاک--
لای--
لب--
لت--
لح--
لر--
لس--
لش--
لطی--
لف--
لقم--
لل--
لم--
لن--
له--
لو--
لوا--
لى--
لي--
لياشورس--
ليۊ--
لپ--
لپۊ--
لک--
لۊ--
لی--
لیاشورس--
لیل--
م--
ما--
مار--
مازند--
ماسا--
ماشا--
مال--
مان--
ماه--
ماى--
مب--
مت--
مث--
مجا--
مح--
محا--
محت--
محمد--
مخ--
مد--
مدا--
مدی--
مذ--
مر--
مرا--
مرز--
مري--
مرگاو--
مز--
مس--
مست--
مسجد--
مش--
مشت--
مص--
مض--
مظ--
مظفر--
مع--
معا--
معج--
معي--
مف--
مقد--
مك--
مل--
ملا--
ملک--
من--
منق--
منور--
مه--
مهد--
مهر--
مهم--
مو--
موت--
موج--
مود--
مور--
موز--
موس--
موش--
موعا--
مون--
مى--
مي--
مير--
ميز--
ميك--
ميک--
مپ--
مچ--
مک--
مۊ--
مۊت--
مۊس--
مۊو--
می--
میر--
میز--
میش--
میل--
میه--
ن--
نا--
نابسا--
نار--
ناز--
ناصر--
ناظ--
ناف--
ناق--
ناك--
نام--
نان--
ناهم--
ناهن--
ناو--
نبو--
نت--
نتا--
نتن--
نتو--
نج--
نجا--
نجي--
نخ--
نخجير--
ند--
ندا--
ندر--
نر--
نز--
نس--
نش--
نشر--
نص--
نصي--
نصیر--
نظ--
نظر--
نع--
نـ--
نف--
نق--
نل--
نم--
نما--
نمت--
نمو--
نمي--
نمی--
نن--
نه--
نها--
نو--
نوا--
نوبو--
نور--
نوك--
نوک--
نوی--
نویس--
نى--
ني--
نيا--
نيل--
نيم--
نيو--
نيۊ--
نيۊي--
نژاد--
نک--
نکو--
نگ--
نگار--
نگذ--
نگر--
نۊ--
نی--
نیا--
نیو--
نیويس--
ه--
ها--
هار--
هاك--
هان--
های--
هر--
هري--
هزار--
هش--
هف--
هك--
هل--
هلو--
هم--
همک--
هن--
هندۊ--
هنر--
هنگ--
هو--
هوا--
هونر--
هي--
هين--
هيندۊ--
هيژ--
هک--
هۊ--
هی--
هیچ--
و--
وا--
وات--
واج--
وار--
وارد--
واز--
واش--
وال--
وام--
وان--
وای--
وب--
وت--
وث--
وج--
ودر--
ور--
وز--
وس--
وضو--
ول--
ولا--
وم--
ون--
ونو--
وه--
وو--
وي--
ويت--
وير--
وين--
وک--
وگل--
وی--
ویر--
ویری--
ویل--
ى--
ىا--
ىاد--
ىک--
ىۊ--
ي--
يا--
ياد--
يك--
يل--
يم--
ين--
يو--
يوشي--
يي--
يک--
يۊ--
١--
١٣--
١٨--
١٩--
٢--
٢٠--
٤--
٥--
٦--
٧--
٨--
پ--
پا--
پاب--
پارت--
پاس--
پالس--
پاي--
پاک--
پاکا--
پای--
پذ--
پر--
پرو--
پری--
پز--
پزش--
پس--
پسا--
پست--
پش--
پشت--
پل--
پلا--
پلط--
پن--
پنا--
پناه--
پنج--
په--
پو--
پور--
پول--
پى--
پىغ--
پي--
پير--
پيش--
پيل--
پۊ--
پۊر--
پی--
پیر--
پیش--
پیل--
چ--
چا--
چار--
چال--
چاه--
چاي--
چاپ--
چاکۊ--
چای--
چرا--
چشم--
چغ--
چل--
چم--
چماز--
چن--
چند--
چه--
چهار--
چو--
چي--
چپ--
چک--
چکۊ--
چگو--
چۊ--
چی--
ڏ--
ژ--
ژرم--
ژن--
ژو--
ک--
کا--
کار--
کارا--
کاس--
کال--
کام--
کان--
کاى--
کبگ--
کبۊ--
کت--
کتاب--
کج--
کد--
کدو--
کذ--
کر--
کرا--
کرد--
کرف--
کرک--
کری--
کس--
کش--
کشت--
کف--
کل--
کلا--
کلد--
کلک--
کلی--
کم--
کما--
کمر--
کن--
که--
کو--
کود--
کور--
کوشال--
کول--
کوه--
کوچ--
کي--
کيا--
کۊ--
کۊتا--
کۊل--
کۊن--
کۊه--
کۊچ--
کۊک--
کی--
کیا--
کیش--
ڪ--
ڪن--
گ--
گا--
گاه--
گاو--
گت--
گجر--
گذر--
گر--
گرا--
گرد--
گرم--
گرما--
گرو--
گری--
گز--
گشن--
گل--
گلا--
گلو--
گم--
گن--
گنا--
گند--
گنگ--
گه--
گو--
گوش--
گول--
گي--
گيل--
گچ--
گژ--
گۊ--
گۊد--
گۊذ--
گۊر--
گۊل--
گی--
گیر--
گیل--
گیلک--
ۊ--
ی--
یا--
یاد--
یان--
یب--
یخ--
ید--
یر--
یس--
یع--
یقی--
یل--
یم--
ین--
یو--
یک--
یۊ--
۰--
۱۰--
۱۲--
۱۴--
۱۵--
۱۶--
۱۷--
۱۸--
۱۹--
۴۶--
۵۶--
۶۸--
۷--
--0
--00
--06
--1
--12
--17
--18
--2
--20
--21
--22
--25
--27
--28
--29
--3
--32
--33
--35
--381
--39
--4
--42
--45
--5
--53
--57
--58
--6
--62
--65
--66
--68
--7
--71
--72
--73
--74
--75
--77
--78
--79
--8
--84
--87
--89
--9
--93
--96
--97
--98
--a
--ab
--able
--ably
--ad
--ada
--ae
--af
--ah
--ak
--al
--ald
--ally
--als
--am
--ama
--an
--ana
--ane
--ant
--ao
--ar
--are
--argname
--ari
--aries
--ary
--as
--at
--ate
--ates
--ati
--ation
--ations
--ator
--ay
--az
--b
--ba
--bar
--be
--ble
--blue
--blurb
--box
--bə
--c
--ca
--cal
--cat
--ce
--ception
--ces
--cet
--ch
--cio
--ck
--class
--cle
--createurl
--cs
--cts
--cy
--d
--da
--data
--dddd
--de
--di
--ding
--display
--ds
--dy
--də
--e
--east
--ebə
--ec
--ed
--editurl
--egi
--eh
--ei
--ek
--el
--en
--ence
--ent
--ents
--enə
--er
--error
--ers
--erved
--ery
--es
--ese
--est
--et
--ey
--f
--format
--ful
--fə
--g
--ge
--ged
--gh
--gi
--gin
--go
--green
--gs
--h
--hammer
--he
--hed
--hn
--ht
--hy
--i
--ia
--ial
--ian
--ib
--ible
--ic
--ical
--ick
--ics
--id
--ide
--ido
--ie
--ier
--ies
--iet
--ification
--ified
--ify
--ige
--ign
--ii
--il
--ily
--in
--ing
--ings
--ins
--io
--ion
--ions
--ious
--ir
--is
--ise
--ised
--ision
--isplay
--ist
--it
--ity
--ive
--ix
--iye
--ization
--ize
--ized
--j
--k
--ka
--ke
--key
--kf
--ki
--king
--ks
--kə
--l
--la
--le
--ler
--less
--ley
--li
--ling
--lining
--link
--list
--ll
--lla
--llah
--lle
--lls
--lly
--ls
--lt
--ly
--m
--ma
--man
--map
--me
--med
--mi
--mo
--ms
--my
--n
--na
--nal
--name
--nce
--ncy
--nda
--ndo
--ne
--nel
--ner
--news
--ng
--ni
--nies
--ning
--nk
--no
--nos
--ns
--nt
--number
--nums
--nus
--nə
--o
--od
--ology
--om
--on
--one
--only
--ono
--ons
--onə
--oo
--or
--oring
--ory
--os
--ot
--ous
--ow
--p
--pad
--page
--pe
--ped
--ping
--ple
--port
--q
--r
--ra
--ral
--rc
--rchy
--re
--ri
--rich
--rie
--rk
--rly
--rm
--rms
--rn
--rna
--ro
--rr
--rry
--rs
--rt
--ry
--rə
--s
--sa
--sal
--se
--self
--ses
--sh
--shi
--sia
--sions
--sis
--sk
--ss
--st
--style
--sus
--sy
--sə
--t
--ta
--te
--ted
--ten
--ter
--teria
--tes
--text
--th
--ti
--tic
--ting
--tion
--tions
--title
--tive
--tly
--tmp
--ton
--tor
--tr
--ts
--tte
--ty
--type
--tə
--u
--uated
--uck
--ud
--ue
--um
--un
--up
--ur
--ure
--url
--us
--ut
--ute
--v
--va
--ve
--ved
--vi
--ving
--w
--ways
--word
--ws
--x
--xt
--y
--ya
--ye
--ying
--yn
--z
--za
--ə
--əmon
--əs
--а
--е
--о
--ء
--ا
--اء
--اب
--اباد
--ابقات
--ابه
--ابو
--ابی
--ات
--اته
--اتور
--اتي
--اتی
--اج
--اجرد
--اجی
--اح
--اخو
--اد
--اده
--ادي
--ادی
--ار
--اربن
--ارود
--ارى
--اري
--اری
--از
--اس
--اسرا
--اسي
--اش
--اص
--اصر
--اصي
--اط
--اف
--اق
--اكی
--ال
--الد
--ام
--ان
--انا
--انبر
--انت
--اند
--انده
--انس
--انه
--انو
--اني
--انک
--انی
--اه
--او
--اود
--اى
--اىل
--اي
--اين
--ايي
--ايی
--اژ
--اک
--اکش
--اگل
--ای
--ایي
--ایی
--ب
--با
--باد
--باغ
--باف
--بان
--بت
--بث
--بخت
--بخش
--بد
--بر
--بع
--بق
--بل
--بن
--به
--بو
--بود
--بور
--بوس
--بي
--بک
--بۊ
--بی
--بیج
--ة
--ت
--تا
--تاش
--تال
--تان
--تاژ
--تای
--تر
--ترا
--تره
--ترين
--تری
--ترین
--تز
--تس
--تقال
--تم
--تن
--ته
--تو
--تون
--تي
--تين
--تيک
--تی
--تید
--تیسم
--تیک
--ث
--ثر
--ثه
--ثی
--ج
--جا
--جار
--جان
--جر
--جرد
--جن
--جه
--جو
--جور
--جي
--جی
--ح
--حات
--حان
--حله
--حم
--حه
--خ
--خا
--خان
--خانه
--خانی
--خت
--ختن
--خته
--ختي
--خر
--خصي
--خه
--خو
--خيل
--د
--دا
--دار
--داري
--دان
--دانو
--دة
--دج
--دد
--دده
--در
--دره
--دز
--دشت
--دل
--دم
--دن
--دنی
--ده
--دو
--دوز
--دي
--دگي
--دگی
--دی
--دین
--دیه
--ذ
--ذشت
--ر
--را
--راس
--ران
--ربس
--ربن
--رت
--رث
--رج
--رجان
--رد
--ردم
--رده
--ردی
--رز
--رزان
--رس
--رسرا
--رسی
--رش
--رضا
--رف
--رك
--رم
--رن
--ره
--رو
--رود
--ري
--رچین
--رک
--رکلا
--ری
--ریت
--ریخ
--ریل
--رین
--ز
--زا
--زاده
--زاس
--زان
--زد
--زل
--زم
--زن
--زه
--زي
--زک
--زی
--زیه
--س
--سا
--ساز
--سال
--سب
--ست
--ستان
--ستن
--ستنه
--سته
--ستی
--سر
--سرا
--سم
--سن
--سه
--سو
--سي
--سيو
--سپ
--سی
--سیا
--سیس
--ش
--شا
--شات
--شاطر
--شان
--شاه
--شت
--شته
--شد
--شك
--شم
--شمن
--شن
--شناس
--شه
--شهر
--شو
--شي
--شيد
--شک
--شکا
--شۊيي
--شی
--شین
--ص
--صد
--صر
--ض
--ضه
--ضی
--ط
--طن
--طه
--طی
--ظ
--ع
--عات
--عاتي
--عب
--عت
--عد
--علی
--علیا
--عی
--غ
--غا
--غي
--غی
--ـ
--ــم
--ــه
--ــی
--ـل
--ـم
--ـه
--ف
--فا
--فات
--فاع
--فان
--فت
--فته
--فر
--فع
--فل
--فلی
--فه
--فو
--فون
--في
--فکار
--فی
--فیل
--ق
--قبت
--قت
--قه
--قي
--قی
--ك
--كا
--كان
--كب
--كت
--كتی
--كده
--كر
--كش
--كل
--كلا
--كن
--كنده
--كه
--كو
--كوه
--كی
--ل
--لا
--لات
--لان
--لبرگ
--لت
--لد
--لدوله
--لدين
--لدین
--لر
--لز
--لس
--لسل
--لسلطنه
--لش
--لك
--لم
--لمومنین
--لن
--لند
--له
--لو
--لوم
--لوژی
--لى
--لي
--لی
--لیا
--م
--ما
--مان
--مت
--متر
--مج
--مجان
--محله
--مد
--مر
--مرز
--مز
--مس
--مش
--من
--مند
--مه
--مهر
--مو
--مون
--مي
--مين
--مک
--می
--ن
--نا
--نامه
--نان
--نانه
--نت
--نتس
--ند
--ندان
--نده
--ندو
--ندي
--ندگان
--ندیه
--نس
--نــم
--نم
--نن
--نه
--نو
--نون
--ني
--نيد
--نک
--نگ
--نگان
--نگی
--نی
--نید
--ه
--ها
--هان
--هاى
--های
--هایی
--هت
--هر
--هل
--هم
--هو
--هي
--هی
--و
--وا
--وار
--وب
--وبو
--وت
--وج
--ود
--ور
--ورز
--وز
--وس
--وش
--وشی
--وص
--وع
--وف
--وق
--وك
--ول
--ولی
--وم
--ومو
--ومی
--ون
--ونا
--وندان
--ونه
--وه
--وو
--وي
--وک
--وی
--ویش
--ویشت
--وین
--ویه
--ى
--ىا
--ىان
--ىت
--ىج
--ىر
--ىل
--ىن
--ىه
--ىي
--ي
--يا
--يات
--يان
--يت
--يتو
--يج
--يح
--يد
--يده
--ير
--يز
--يس
--يست
--يسم
--يسي
--يش
--يضه
--يك
--يكه
--يل
--يلو
--يم
--ين
--ينگ
--يه
--يو
--يي
--يچ
--يک
--يکس
--يگه
--يۊنا
--يی
--٠
--١
--٣
--٤
--٧
--٨
--٩
--ٽ
--پ
--پا
--پاي
--پس
--پشت
--پل
--پو
--پور
--پي
--پژۊه
--پۊر
--پی
--چ
--چا
--چال
--چاه
--چر
--چك
--چه
--چي
--چی
--ژ
--ژی
--ک
--کا
--کابن
--کار
--کاله
--کان
--کت
--کس
--کسو
--کش
--کشی
--کل
--کلا
--کم
--کن
--کنده
--که
--کو
--کوه
--کي
--کۊ
--کی
--ڪ
--گ
--گا
--گار
--گان
--گاه
--گایه
--گذار
--گر
--گرا
--گراد
--گران
--گرد
--گرو
--گري
--گری
--گل
--گن
--گه
--گو
--گون
--گوی
--گي
--گير
--گی
--گیر
--ڻ
--ڻي
--ۊ
--ۊب
--ۊت
--ۊج
--ۊجه
--ۊجي
--ۊد
--ۊده
--ۊدي
--ۊر
--ۊرو
--ۊري
--ۊرگ
--ۊری
--ۊز
--ۊس
--ۊش
--ۊغ
--ۊف
--ۊق
--ۊل
--ۊله
--ۊم
--ۊمي
--ۊن
--ۊند
--ۊي
--ۊک
--ی
--یا
--یان
--یت
--یته
--یتو
--یج
--یح
--ید
--یده
--یدی
--یر
--یز
--یزه
--یزی
--یس
--یست
--یستي
--یستی
--یش
--یشه
--یع
--یف
--یق
--یل
--یم
--ین
--یند
--ینگ
--یه
--یو
--یوس
--یوم
--یون
--یي
--یک
--یکه
--یی
--یید
--ە
--۰
--۰۰
--۱
--۲
--۳
--۴
--۵
--۶
--۷
--۸
--۹
