!
"
#
##0
##1
##10
##11
##12
##13
##14
##15
##16
##17
##18
##19
##2
##20
##21
##22
##23
##24
##25
##26
##27
##28
##29
##3
##30
##31
##32
##33
##34
##35
##36
##37
##38
##39
##4
##40
##41
##42
##43
##44
##45
##46
##47
##48
##49
##5
##50
##51
##52
##53
##54
##55
##56
##57
##58
##59
##6
##60
##61
##62
##63
##64
##65
##66
##67
##68
##69
##7
##70
##71
##72
##73
##74
##75
##76
##77
##78
##79
##8
##80
##81
##82
##83
##84
##85
##86
##87
##88
##89
##9
##90
##91
##92
##93
##94
##95
##96
##97
##98
##99
$
%
&
'
(
)
*
+
,
-
.
/
0
00
000
0000
000000
0004
001
003
006
007
01
010316
016
017
018
019
02
020
029
03
030
033
034
035
036
04
05
050
06
066
07
071000000
0714
074
0759
08
080
084
0894
09
090327423
1
10
100
1000
10000
100000
1000094
101
1011194
10150208384704078
102
10229579
10249
103
104
105
105545
106
108
1080
109
10953
11
110
11095
111
11163
112
113
1136
1139189
114
1141246
115
115247
1158794
116
11601101
11670
117
1170806
1177
118
119
12
120
1200
12059158
120746516
121
122
123
12334542674
12341803
124
12431180
125
1250
125934
126
126556
127
128
1289000
129
13
130
131
1314
1317219
132
13255025
133018954
1337567
1345443
135
1356
136
1365
137
1370466
138
1381835
139
14
140
1404
14048209
141
141137
14159
142
1424869
143
144
146
1466186
147
1475562
15
150
1500
1506936
151
152
154
156
157
159
159531
16
160
1600
160218044525608
1610471
161322
1617
16262
1634
164
1643
1646
165
1660332
167
1680
16844
169
17
170
1700
1704591
171
1724
173
1733774
1740
1745654
1748
1750
176
177
178
1780
1789
1797
18
180
1800
181
1814
183
1832
1835
184
1840
1840340
1840360
185
1856
186
1872
18765
1879
188
1883
1884
1886
1888
1889
1890
1892
1894
1895
1896
1897
1898
1899
19
190
1900
1901
1902
1903
1904
1907
1908
1909
191
1910
1911
1912
1913
1914
1915
1916
1917
1918
192
1920
1921
1922
1924
1925
1926
1927
1928
1929
193
1930
1931
1932
1933
1934
1934982
1935
1937
1938
1939
194
1940
1941
1942
1943
1944
1945
1946
1947
1948
1949
195
1950
1951
1952
1953
1954
1955
1956
1957
1958
1959
196
1960
1961
1962
1963
1964
1965
1966
1967
1968
1969
197
1970
1971
1972
1973
1974
1975
1976
1977
1978
1979
1980
1981
1982
1983
1984
1985
1986
1987
1988
1989
1990
1991
1992
1993
1994
1995
1996
1997
19971010
1998
1999
2
20
200
2000
20000529093127
2001
2002
2003
2004
20040302070738
2005
20050204005728
20050317144306
200505260253
200508170299
20051219
2006
20060209001940
20060515123130
20061002125625
20061113084534
2007
200701020196
20070622024032
20070702053829
20071107113401
2008
2009
201
2010
201005240504
2011
201102220178
20110223174235
20110521041054
20111023201747
201112
2012
20121204190055
2013
2014
20140211135431
20140221132350
20140221213556
20140222144719
20140404042808
20140929033408
20141116193125
20141116195159
20141116195921
20141129075538
20141211112501
20141211124001
20141218163446
2015
20150207055238
20150213214754
20150626104220
20150809022259
20150924043302
20150924064612
201511
2016
20160130101808
20160527141255
201606140086
201608
2017
201705010007
20170501073305
20170711202642
20170727171520
20170730212403
2018
2019
20190525112225
201910
202
2020
202016
202021
2021
20210817025112
2022
20225952
2023
2024
2025
2026
2028
203
2030
204
205
206
207
208
2084439083
209
21
210
211
212
215
216
217
217854
218
219
22
220
221
222
223
2238728
224
225
226667
2268
227
228
23
230
23004736
231
232
233
23591
236
237
23737036
238
239
2396
23998
24
240
241
2411018
2413428
242
246
2466686
249
25
250
2500
251
252
2527
253
254
255
2558
256
256782996126
25751
258
259
26
260
262
263
2639388
264
2649860
265
267
268
27
27080030
274
275
276
2765900
2787154
279
28
280
281
282
285500
287
288
289
29
290
2920
293
294
295
299
3
30
300
3000
301
303
304
305
306
3064882
3085638
30916
31
310
310901
3110
313
3144
314964607
315
3162104
318
31826157
31858622
3194444
32
320
321
322
3228310
3235304
3237208
324
32435212
3244760
3249812
325
32578058
327
329
3295332
33
332
333
336
337
338
3380637
339
34
340
34060123
341
34115519
34224471
3430616
344
345
34629076
348
349
35
350
351
356
35653
35690
357
36
360
36183405
362
36236667
365
367
36727692
37
373
374864
37797772
378
38
380
381
383
385
386
3888
39
390
393
394
396
397
39767048
3989
4
40
400
4000
4010194
40170351
404
404246
405
406
40829930
40855579
41
410
411
411702638
412
4140446
415
4165344
41810466
42
420
42056522
42059
4208304
421321
422000
426
428
42842
4287910
43
430
434746
435022
436944
437
4371265
44
440
44091573
441
442
445
446
44674
447219
45
450
451
452
453
4552908
459
46
46337733
47
471552
4726419
473833
475
4750040
476
48
480
48000
481
487
49
4920185
49283667
494
495
49780536
498
49823156
4986128
49874359
499
5
50
500
5000
501
50113576
501695
503
506
507
509
51
51509
5158760
517
52
520
524
525
529
5297270
53
532
5334992
534
535
5386130
54
540
55
550
551
553
55450393
555
557
56
561
56185885
56455
56518
5679404
57
5761312
58
581
586
59
590011999
6
60
600
6000
602
606
60714
61
610
6143
615
62
620
622
625
629339
63
63400
64
646
65
650
6500
653
655
658
66
662767
664
668
67
671730
672
6774
679
68
687
688322
688334
688336
688342
688616
689364
689842
689844
689856
69
690266
691230
691232
691260
69238
698
7
70
700
709
71
71828
72
720
724
73
730
733
735
74
744
744987
748
75
750
751
755941
756
759
76
761
762
768
77
78
78407
78408
785
79
790
792
798
8
80
800
803
805430
81
8108
812796
82
821
83
84
8437
85
850
85065
851112
8548
859108
86
861074
866
87
874
875
88
89
895
9
90
900
903274
904
908
909
91
92
921
93
935
94
95
956667
958
96
961958260
96666
97
971
978
9789970447008
98
982
988
989
99
994
9944
997
:
;
<
=
>
?
@
\
^
_
`
a
aa
aab
aafrika
aalborg
aamito
aana
aanya
aaoz
aarhus
aaron
aawulire
ab
aba
abaabanga
abaadiventi
abaafa
abaafuna
abaagala
abaagalana
abaagalwa
abaagazi
abaagenda
abaagobwa
abaagwa
abaako
abaakola
abaakulemberamu
abaakwetabamu
abaali
abaaliko
abaalina
abaaliwo
abaalondebwa
abaamawulire
abaami
abaamu
abaamuli
abaana
abaasalawo
abaasigala
abaasinga
abaasoka
abaasooka
abaatandika
abaatandikawo
abaatekebwa
abaatiikirivu
abaava
abaavu
abaaye
abaayimba
abaazalibwa
ababa
ababadde
ababaka
ababalanguzi
ababbi
ababeera
ababi
ababinywera
ababiri
ababisi
ababundabunda
abachina
abacholi
abacus
abadanish
abaddamu
abadde
abaddeirirwa
abaddeko
abaddemu
abaddewo
abaddu
abaddugavu
abaddukanya
abaddusi
abadugavu
abadukanya
abadusi
abaduumizi
abafa
abafere
abaffe
abafirika
abafirosoofa
abafu
abafudde
abafuga
abafulumya
abafumbi
abafumbo
abafuna
abafuzi
abagabi
abagabirizi
abagagga
abagalwa
abagamba
abaganda
abagemeddwa
abagenda
abagenyi
abagereefu
abagereeki
abagezi
abagezigezi
abaggyibwa
abagidukanya
abagirimu
abagisu
abagoberezi
abagole
abagula
abagunjufu
abaguzi
abagwere
abagwira
abajaasi
abajapadhola
abajeemu
abajja
abajulizi
abaka
abakadde
abakakwa
abakalamajongo
abakapitoola
abakatoliki
abakatuliki
abakazi
abakenkufu
abakidukanya
abakiikirira
abakiise
abakima
abakirimu
abakiriza
abakkiririza
abakkiriza
abakkugu
abako
abakola
abakolera
abakontanyi
abakosebwa
abakoze
abakozesa
abakozi
abakristaayo
abakristayo
abakuba
abakugu
abakukunavu
abakula
abakulembera
abakulembeze
abakulembezze
abakulira
abakuliridde
abakulmebezze
abakulu
abakunganyirizi
abakungu
abakunukkiriza
abakuumi
abakuza
abakwatibwa
abakwatibwako
abakwatiddwa
abakyaala
abakyala
abakyali
abala
abalabe
abalabi
abalabirizi
abalaga
abalaguzi
abalal
abalala
abalambuzi
abalamu
abalamuzi
abalangira
abalangirizi
abalasangeye
abalema
abalembawaza
abalembewaza
abalembewazi
abalenzi
abali
abalibwa
abaliko
abalimi
abalimu
abalina
abalindiridde
abalirimu
abalirwa
abaliwo
abalokole
abalondebwa
abalondesa
abalongo
abalonzi
abaloodi
abalooma
abalowooza
abalugubala
abalukawo
abalumbiddwa
abalungi
abalunzi
abalwadde
abalwanirira
abalwanirizi
abalwanyi
abamaanyi
abamaasita
abamakisi
abamanyi
abamanyiddwa
abamanyidwa
abamanyikiddwa
abamataka
abamawulire
abambejja
abambowa
abamerekanti
abaminsane
abaminsani
abamu
abamusaayi
abamuvuganya
abamuwagira
abamuyambako
abamyuka
abana
abanaazetabamu
abanayuganda
abandi
abaneetaba
abanene
abanganda
abange
abangereza
abangi
abanji
abankuumire
abannamateeka
abannayuganda
abannyonnyofu
abano
abanonooza
abanoonya
abanoonyereza
abanoonyi
abanoonyiboobubudamu
abantu
abanyankole
abanyoli
abanyolo
abanyoro
abanywa
abanywi
abapya
abarooma
abaruumi
abasaabaze
abasabin
abasajja
abasala
abasambi
abasambu
abasamize
abasamya
abasangibwa
abasatu
abasawo
abasazi
abasegeevu
abasendasenda
abaserafu
abaserikale
abasibe
abasing
abasinga
abasinze
abasiraamu
abasirikale
abasiyazi
abasoba
abasobola
abasoga
abasoma
abasomesa
abasomi
abasomsa
abasomyeko
abasonde
abasooka
abasossodooti
abasubuzi
abasukka
abasukkulumye
abasumba
abasuubuzi
abataali
abataalina
abataano
abatabadde
abatabuukira
abatagiriiko
abataka
abatali
abataliiko
abatalina
abatambuza
abatambuze
abatandisi
abatasobola
abatawaanya
abateeberezebwa
abateebi
abateeka
abateesa
abateesiteesi
abateeso
abatemu
abatendeke
abatendekebwa
abatendesi
abati
abatibwa
abatiini
abato
abatonde
abatondesi
abatono
abatujju
abatumbula
abatunda
abatunuulira
abatunuulizi
abatutumufu
abatuuka
abatuukirivu
abatuula
abatuutsi
abatuuze
abatwala
abatwalidwa
abatya
abava
abavu
abavubi
abavubuka
abavuddeko
abavuganya
abavuma
abavunaanyizibwa
abawa
abawaabi
abawabuzi
abawagira
abawagizi
abawagizibe
abawakanya
abawala
abawalabu
abawandiisi
abawangaalira
abawanguzi
abaweereza
abaweesa
abaweesi
abawelera
abawera
abawerako
abawerera
abawererako
abawi
abawozi
abawuliriza
abayala
abayambyeko
abayeekea
abayeekera
abayekera
abayi
abayigiriza
abayiiya
abayimba
abayimbi
abayimbira
abayindi
abayinza
abayise
abayita
abayitibwa
abayitibwanga
abayivu
abayivuwavu
abayizi
abayizzi
abayonaani
abazaala
abazaalibwa
abazaalisa
abazadde
abazannyi
abazanyi
abazi
abaziba
abazibizi
abazimbi
abazinnyi
abazinyi
abazukulu
abazungu
abazze
abazzi
abazzukulu
abba
abbey
abbreviate
abbreviated
abbreviation
abbreviations
abc
abdallah
abdu
abdul
abe
abebitiibwa
abebyokwerinda
abed
abedda
abeebuuzibwako
abeebyokwerinda
abeefumiitirza
abeegatta
abeekalakaasi
abeela
abeenyigira
abeera
abeerako
abeeramu
abeerawo
abeerera
abeesa
abeesimbawo
abeetaaga
abeetaba
abemikwano
abenjawulo
abenju
abensangi
aber
aberdeen
aberi
abidjan
abili
ability
abim
abino
abiotic
abiri
abirina
abisegedde
abisoboka
abitwala
abiyigira
able
abntu
abo
aboluganda
abonaabona
abonna
aboogera
aboogezi
abooluda
about
above
abraham
abramz
abryanz
absa
absence
absent
absolute
absorbed
abstract
abstraction
abu
abubaker
abuli
abulijjo
abulina
abuntu
abuse
abuuza
abuyita
abwe
abweru
abyo
ac
acacias
academic
academics
academy
acarology
accelerate
acceleration
access
accessed
accident
accolades
accord
according
account
accountability
accountants
accounting
accounts
accra
accused
accuser
acelamectin
acen
aceng
aces
achan
ache
achieng
achieved
achievement
achievements
achiever
achiro
acholi
achon
achy
acibu
acid
acidity
acids
acl
acne
acquired
acquires
acre
acronym
acronyms
across
act
acteal
acted
acting
actinibilology
actinology
action
activation
active
activism
activist
activists
activities
activity
actress
acts
actual
actually
acute
ad
ada
adam
adamu
adapted
add
adda
addako
addala
addamu
addayo
adding
addira
addirira
addis
addition
additive
address
addugala
adduka
addukanya
addukidde
addukiddewo
adduse
adeke
adequate
adf
adjacent
adjective
adjumani
administration
administrative
administrators
admitted
adoa
adolescent
adolf
adome
adong
adopt
adopted
adrian
adrisi
aduka
adukanya
adukidde
aduku
adult
adungu
aduse
aduumira
advanced
advancement
adventist
adverb
adverbial
advisory
advocacy
advocate
advocates
adyebo
adzido
aer
aerobiology
aerodynamics
aerology
aeronautics
aethan
aetiology
af
afa
afaanana
afaayo
afc
afcon
afe
affairs
affix
affixes
afirika
afr
afri
afric
africa
africabigmen
africaext
africain
african
africana
africanews
africans
africas
africathle
afrigo
afrika
afrima
afro
afrobeat
afrobeats
afroman
after
aftonbladet
afuba
afubutuka
afudde
afuga
afugibwa
afulibwa
afuluma
afulumiza
afulumizibwa
afulumizza
afulumya
afuna
afune
afunira
afunye
afuuka
afuukamu
afuula
afuulibwa
afuuse
ag
aga
agaakolebwa
agaakula
agaali
agaaliko
agaalina
agaana
agaanye
agaasaanuusibwanga
agaatandikira
agaateekebwawo
agaba
agabala
agabeera
agabugaana
agaffe
agafuga
agafulumizibwa
agagenda
agago
again
against
agajjirawo
agakirimu
agakisobozesa
agakola
agakozesa
agakozesebwa
agakugira
agakulaakulanye
agakulukuta
agakutte
agakutuse
agakuumira
agakwata
agakwekuddwa
agakyakula
agakyusa
agala
agalabika
agalaga
agaleeta
agali
agalimu
agalina
agaliraaniganye
agalu
agamala
agamba
agambibwa
agambye
agamu
agamuyamba
agannyonnyola
aganywebwa
agasangibwa
agasanidde
agasemba
agasembayo
agasengekeddwa
agasinga
agasitula
agasoba
agasobola
agasoboza
agasobozesa
agasooka
agassi
agasukka
agasukkulumye
agasukuma
agataggwawo
agatali
agatambula
agatambulira
agatambuza
agatandika
agatateekawo
agatawona
agategeerekeka
agatta
agatuumibwa
agatuyambako
agava
agavaamu
agavuddemu
agavuganya
agawaggulu
agawera
agawerako
agayamba
agayinza
agayita
agayitibwa
age
agebitundu
aged
ageetagibwa
agegasse
agegonyola
agemebwa
agency
agenda
agende
agenderedde
agenderera
agenjawulo
agenze
agereesa
agereesebwa
agetaagibwa
agetaagisa
ageyolekera
agezaako
aggrey
aggulawo
aggulwako
aggya
aggyako
aggyawo
aggye
aggyibwemu
agidukanya
agikozesa
agikwasa
aginnyonnyoka
agirikakya
agirina
agissa
agiwa
agnes
ago
agoba
agobeddwa
agoberera
agobye
agokuyiisamu
agokya
agoni
agookubiri
agookya
agree
agreement
agri
agribusiness
agricultural
agriculture
agro
agrobiology
agrology
agronomists
agrostology
agua
agudde
aguila
aguzannyira
agwa
agya
agyenda
ahan
ahead
aheebwa
ahmad
ahmed
ai
aid
aidoh
aids
aik
aim
aimed
aims
aine
air
aircraft
aires
airlines
airport
airtel
airwaves
airways
aisha
aizawl
ajaguza
ajambo
ajax
ajee
ajja
ajjawo
ajjidde
ajjukirwa
ajuliza
ak
aka
akaaba
akaabaga
akaaki
akaakubibwa
akaakubwa
akaali
akaaliwo
akaalo
akaana
akaasinga
akaasooka
akaba
akabaga
akabala
akabalanguzo
akabanga
akabango
akabasa
akabbiro
akabenja
akabenje
akabi
akabiga
akabina
akabinja
akabondo
akabonero
akaboozi
akabubi
akabuga
akabuuza
akadde
akaddinga
akaddingana
akademe
akademi
akadomola
akadongo
akafuba
akafubo
akafubutuko
akafumito
akafunza
akafuzi
akagaali
akagambo
akagenderere
akagendo
akagere
akagoba
akagobadogo
akagwa
akajiiko
akajjuluzi
akakaasa
akakadde
akakalaayi
akakalu
akakasa
akakiiko
akakisa
akakkiko
akakodyo
akakola
akakolebwa
akakono
akakontanyo
akakoomo
akakubibwa
akakulu
akakumirizi
akakunizo
akakuubagano
akakwaate
akakwaki
akakwakkulizo
akakwasaganya
akakwasisa
akakwate
akakyo
akalaga
akalakiikro
akalala
akalamu
akalandira
akalandirwako
akalazi
akaleeta
akalenzi
akali
akaliba
akalimba
akalimu
akalina
akaliwo
akalombolombo
akalondola
akalondoola
akaluba
akalulu
akalulwe
akaluubililwa
akalwaliro
akamaliriza
akamalirizo
akamanyiddwa
akamaze
akambe
akamu
akamwa
akanaabaawo
akanene
akantu
akanyama
akanyego
akanyigirizi
akanyukuta
akapakkyo
akapapula
akapiira
akapya
akaramu
akasaana
akasaawe
akasaayi
akasambattuko
akasana
akasangibwa
akasanikira
akasannyalazo
akaseela
akaseera
akasekese
akasengejja
akasente
akaserengeto
akaserengezziro
akasingayo
akasirikitu
akasizoni
akaso
akasoboka
akasobozesa
akasolya
akasooka
akasookeso
akasozi
akasunsula
akatabo
akataffaali
akatale
akatalina
akatambi
akatasattululwa
akategeeza
akatemba
akati
akatiko
akatimba
akatini
akatinniinya
akato
akatoffaali
akatoffaalikazimbakintu
akatoffaalo
akatoffali
akatogo
akatonniinya
akatonnyeze
akatono
akatonotono
akatundu
akatungulu
akatunniinya
akatuufu
akatyabaga
akavannyuma
akavulula
akavuluzi
akavunaanyizibwa
akavunanizibwa
akawa
akawaayiro
akawabuzi
akawago
akawakatirwa
akawala
akawanga
akawango
akawompo
akawoowo
akawuka
akawumbi
akawunga
akawungeezi
akawunta
akayala
akayiika
akayimba
akayingo
akayinja
akayinza
akayiringitiro
akayiso
akayitibwa
akayumba
akayungibwako
akazannyo
akaziba
akazibu
akaziizi
akazimba
akazinga
akazito
akazitoya
akeberebwa
akeebuzibwako
akeekolako
akeeyeeyo
akello
akena
akendeeza
akendo
akenkanyanjuyi
aketaaga
aketaagisa
akeyeeyo
aki
akigenderera
akii
akiiki
akiikiridde
akiikirira
akikola
akikoze
akikulira
akimanyi
akimeddezi
akimuwangulako
akinywa
akirabye
akisigyeni
akisizza
akissa
akitegeererawo
akitondeka
akituuma
akiyita
akizudde
akizuula
akkikirira
akkiririza
akkiriza
akkirizibwa
akkirizibwe
ako
akol
akola
akolagana
akolako
akolamu
akolayo
akole
akolebwa
akoledde
akolera
akolokota
akolola
akoma
akomawo
akomekkereza
akomyewo
akootakoota
akosedwa
akoze
akozeeko
akozesa
akozesebwa
akozesezza
akozi
aktuelt
aku
akuba
akubiddwa
akubiri
akubiriza
akubuuza
akubye
akugamba
akula
akulaakulanya
akulabyeko
akulaga
akulembedde
akulembera
akulemberamu
akulembeze
akulengeza
akuli
akulira
akuliridde
akumakuma
akumanyi
akuna
akusatu
akusinga
akusomooza
akusosootoledde
akutaano
akutegeeza
akutemyako
akutte
akuuma
akuwa
akuyambe
akuyigiriza
akuza
akuze
akuzibwa
akwasaganya
akwasibwa
akwata
akwatagana
akwataganya
akwatako
akwatayo
akwatibwa
akwatiddwa
akwatira
aky
akyaaka
akyaddeko
akyaka
akyakivumirira
akyakola
akyali
akyalina
akyaliwo
akyasigazza
akyasinze
akyasomera
akyatwalibwa
akyawulira
akyazizza
akyekenneenya
akyo
akyuka
akyusa
akyusibwa
akyusizza
al
alaba
alabako
alabama
alabe
alabibwa
alabika
alabikidde
alabikira
alabirira
alabirirwa
alabise
alabye
alaga
alagibwa
alagira
alagye
alambika
alambula
alambulula
alangirira
alangirirwa
alaso
alayira
alaze
albania
albanian
albert
albertine
alberto
albicans
albion
albright
album
albums
alebtong
aleeseewo
aleeta
aleetebwa
aleetera
alegako
aleka
alekawo
alekera
alekulira
aleme
alemereddwa
alemererwa
alemu
alemwa
aleper
alert
alese
alex
alexander
alexandre
alfonse
alfred
algebra
algeria
algology
ali
alice
alidde
alifa
aligebbula
aligebula
align
alignbars
alike
alikiba
aliko
alikozesa
alima
alimira
alimu
alina
alinako
alinamu
alinda
alindiriddwa
alinga
alinnya
alintuma
alinyisibwa
alipoota
alisiiti
aliteeka
aliteeke
alive
aliwa
aliwo
alizaati
aljazeera
all
allafrica
allan
allen
allergologi
allergy
alliance
allied
allimadi
allstars
allsvenskan
allwin
alma
almost
almunia
aloisea
alondawo
alondebwa
alondeddwa
alondeko
alone
alongoosa
alongside
alonze
alowooza
alowozaako
aloysius
alozius
alpha
already
also
alt
alternating
alternative
although
altitude
alubaamu
alufa
alumba
alumen
aluminiyaamu
aluminiyamu
aluminum
alumizibwa
alumni
alumwa
alumya
alunda
alupo
alusa
aluubirira
alvin
alwadde
alwaki
alwana
alwanira
alwanirira
alwanyisa
alwawo
always
alya
alyoka
alyoke
alyooka
am
ama
amaanyi
amaanyikasoboza
amaanyimusikira
amaanyo
amaaso
amaasoboza
amaato
amaavu
amaayi
amaazi
amabaati
amabala
amabaluwa
amabanga
amabbali
amabeere
amabibiro
amabidde
amabisi
amabwa
amacaafu
amadaala
amaddu
amaddugavu
amadiini
amadinda
amadirisa
amaduudu
amaduuka
amafumbe
amafumu
amafuna
amafuta
amaganda
amagate
amagatte
amageege
amager
amagero
amagez
amagezi
amaggi
amaggunju
amaggwa
amaggye
amagi
amagiini
amagiraasi
amagoba
amagombe
amagombolola
amagoolo
amagugubiro
amagulu
amagumba
amagumu
amagunjufu
amaguzi
amagye
amajaani
amaka
amakadde
amakajja
amakakafu
amakampuni
amakanda
amakanisa
amakata
amakerenda
amakhosi
amakkati
amakolero
amakomera
amakonkome
amakoola
amakovu
amakubo
amakudde
amakula
amakulu
amakumi
amakungula
amakusike
amakuumiro
amakyamu
amakyusabuziba
amakyusabuziizi
amala
amalagala
amalako
amalal
amalala
amalamba
amalamu
amaleego
amaliba
amalidde
amalimiro
amalira
amaliri
amaliriza
amalobo
amaloboozi
amaluma
amalundiro
amalungi
amalungu
amalusu
amalwadde
amalwaliro
amama
amambuka
amambulugga
amamera
amanda
amanene
amangi
amangu
amani
amaniga
amanji
amannya
amannyage
amannyi
amannyiddwa
amannyikiddwa
amannyo
amannyowavu
amanya
amanye
amanyi
amanyidde
amanyiddwa
amanyidwa
amanyikiddwa
amanywefu
amapeera
amapeesa
amapya
amarari
amari
amasa
amasanda
amasang
amasannyalaze
amasannyalazo
amasannyalze
amasanyalaze
amasasi
amasavu
amasaza
amase
amasekati
amasekkati
amaserengeta
amasiga
amasimu
amasinzizo
amasira
amasiro
amasitukiro
amasitula
amaso
amasoboza
amasobozeso
amasomero
amasomo
amasowaani
amasukkulumu
amasukuma
amata
amataala
amataba
amatabi
amataffaali
amataka
amatale
amatama
amateeka
amatendekero
amatenkane
amatereke
amaterekero
amatereko
amateur
amati
amatikkira
amatiniwavu
amatondo
amatono
amatooke
amatteeka
amatu
amatuufu
amatwale
amavuunike
amawanga
amaweto
amawuggwe
amawulire
amawulize
amayanzi
amayembe
amayengo
amayingo
amayinja
amayisa
amayitirivu
amayonjo
amayumba
amayuni
amayuuni
amazaale
amazaalibwa
amazalibwa
amaze
amazi
amaziga
amazike
amazima
amazina
amazing
amazon
amazze
amazzi
ambasada
ambassador
ambassadors
ambition
ambitious
ambrose
ameebafu
ameefuga
amefuga
ameka
amekusifu
amelia
amendment
amereka
america
american
amerika
amesimbu
amid
amiina
amin
aminasidi
amini
amino
amizannyo
ammannyo
ammonia
amnesty
amo
amoebas
amoko
amolatar
among
amongi
amooki
amooti
amos
amount
amp
ampaire
ampaya
amphotericin
ampiire
amplification
amsoboza
amu
amubbira
amubuna
amubunabyalo
amubuuza
amudat
amuddamu
amufuula
amufuule
amugamba
amugyako
amukuba
amukyalireko
amulagira
amuleetera
amulemesa
amulire
amumyuka
amunaana
amunnyonnyola
amuria
amuriat
amuru
amusikira
amutuuma
amuvuganya
amuwa
amuwadde
amuwerekeddeko
amuyigiriza
amuyimiriza
amuyita
amvca
amwagala
amwanga
amwongerako
amya
amyaka
amyuka
an
ana
anaaba
anaakiikirira
anaalya
anaasobola
anaemia
anaka
anakwatira
analyse
analysis
anastacia
ancestry
ancient
and
anda
andersen
andras
andre
andrea
andrew
andrews
andrology
anenya
anesthesiology
anfield
anga
ange
angela
angeles
angelina
angella
angelline
angels
anger
angle
angled
angles
anglican
anglicannews
angola
angume
anguse
ani
animal
animals
animate
anion
anita
anite
aniya
anjagala
ankara
ankole
ann
anna
anne
annet
anniversary
announced
announces
annual
annyimba
annyonnyola
annyonyola
ano
anokoolayo
anonooza
anoonya
anoonyereza
anorexia
another
ansa
anselm
ansi
ansimira
answer
answers
ant
antagonistic
antakitiika
antenatal
anthem
anthems
anthology
anthony
anthrax
anthropogenic
anthropology
anti
antibiotics
antibodies
antimoniya
antimony
antiretroviral
anto
antonio
anukani
anwa
any
anya
anyi
anyira
anyiza
anyo
anything
anyumirwa
anyumya
anywa
anywe
anywedde
aol
apac
apalis
apangisa
apart
apc
apea
apictures
apiology
apollo
apolo
apologizes
apolot
apostolic
appeal
appeals
appearance
appearances
apple
apply
appointed
appointment
appointments
appoints
apprenticeship
approach
appropriate
approves
approximate
approximation
apr
april
aptech
apuli
apuri
apuuli
apwoyo
ar
ara
arab
arabia
arabic
arachnology
arap
arbil
arc
arch
archaeology
archaeozoology
archaic
archbishop
archdeacon
archdiocese
archer
archimedes
archive
archived
archives
archmedes
are
area
areas
arena
areology
argentina
argon
argus
argyle
arhhvj
ariga
arina
aristotle
arithmetic
armando
armed
army
arnold
aronda
around
arrange
arranged
arrangement
arranging
arrest
arrested
arrests
arse
arsenal
art
arthritis
arthur
article
articledetails
articles
artificial
artikel
artisan
artisans
artist
artiste
artistes
artists
artmatters
arts
artsculture
arua
arusha
aruu
arv
arvs
as
asaana
asaanidde
asaanye
asaba
asajjuka
asala
asalawo
asamba
asambidde
asambira
asanga
asangibwa
asangiddwa
asante
asanyusa
asanze
asatu
asazeewo
ascending
asegedde
asegeera
aseka
asem
asembayo
asembyayo
asengejja
asengeka
asexual
ash
ashaba
ashdod
asia
asian
asians
asiba
asibuka
asibukamu
asidi
asigadde
asigala
asigale
asigaza
asigazizza
asiimibwa
asiimwe
asika
asikira
asikiriza
asikizibwa
asima
asimba
asimbibwa
asimudde
asimula
asindika
asinga
asingahttp
asingahttps
asingayo
asinza
asinze
asinziira
asisinkana
asisiti
ask
asking
asks
asma
asobodde
asobola
asobole
asobozesa
asoma
asomayo
asome
asomera
asomesa
asomesebwa
asooka
asookerako
asookerwaako
asoose
asp
aspen
aspirant
aspx
assa
asse
assemble
assemblies
assembly
assents
assets
assistance
assistant
associate
associated
association
associations
assosiation
asteroid
asthma
astrobiology
astrogeology
astronauts
astronomy
asukka
asukkulumye
asuman
asuna
asunguwadde
asusse
asuubidde
asuubira
asuubirwa
asuulako
at
ataali
ataano
atabikamu
atabikiddwa
atabula
atadde
ataddewo
atafuna
atakaluubililwa
atakyefumiitirizaako
atalabika
atalayira
atalemererwa
atali
atalina
atamanyi
atambula
atambulira
atambuza
atamiira
atandiika
atandika
atandikawo
atandikibwa
atandikibwawo
atandikira
atandise
atandiseewo
ataremererwa
atasalako
atasobola
atawaanyizibwa
atawanyizibwa
atayagala
atayinza
ate
atebuka
ateeba
ateebedde
ateebera
ateebereza
ateeberezebwa
ateebwa
ateebwe
ateebye
ateeka
ateekateeka
ateekawo
ateekebwa
ateekeddwa
ateekwa
ateesa
ateeseteese
ategeera
ategeeza
ategeka
ategekebwa
ategese
atekawo
atema
atemeddwa
atemye
atendeka
atendekebwa
atendese
atera
atereka
aterezeza
ateyongerayo
athe
athens
athlete
athletes
athletic
athletics
ati
atiisatiisa
atikirwa
atikkirwa
atim
atisi
atlanta
atlantic
atm
atmosphere
atmospheres
atmospheric
atom
atomic
atoms
atomu
atondeka
atondekawo
atongoza
atopo
atta
attached
attack
attacks
attaka
atte
attempt
attorney
attract
attraction
attractions
atubo
atudde
atukwasa
atulugunyizibwa
atuma
atumatiza
atunda
atunula
atunuulira
atunuulirwa
atuseeko
atuuka
atuukiridde
atuula
atuumibwa
atuuse
atuuseeko
atuuzibwa
atuwa
atwala
atwalibwa
atwiine
atwikiire
atwine
atwoma
atya
atyo
au
aubameyang
aucho
auco
audio
audiology
aug
august
augustine
auma
aumas
aunthttps
aurthur
aurum
austin
australia
australian
austria
austrian
autecology
author
authorised
authority
authorized
authors
autism
auto
automatic
automation
autotrophic
av
ava
avaamu
avaayo
available
ave
avenue
average
aviation
aviira
aviirako
aviv
avudde
avuga
avuganya
avuganyiza
avujjirirwa
avumbudde
avumbuddwa
avumbula
avumirira
avunaanibwa
avunaanyizibwa
avunanyizibwa
avunda
avuunika
avva
aw
awa
awaadi
awaali
awaba
awabadde
awabeera
awaddako
awadde
awafunda
awagenda
awaggulu
awagira
awagirwa
awagulu
awaka
awakanya
awakka
awakuumirwa
awakyalirwa
awalala
awali
awamu
awandiika
awandiikibwa
awandiise
awanga
awangudde
awanguddwa
awangula
awangulwa
awannyogoga
awansi
awantu
awany
award
awarded
awardhttps
awards
awardshttp
awardshttps
awasa
awasangibwa
awasindikibwa
awataali
awatali
awatuufu
awava
awavudde
awawulibwa
away
awazannyirwa
awe
awebwa
aweebwa
aweereddwa
aweerera
aweereza
aweerezza
aweerezzaako
aweesa
awereddwa
awereza
aweza
awezezza
awo
awonya
awori
aws
awubiddwa
awubwa
awulira
awuliriza
awummudde
awummula
awumudde
awumula
awunzika
ax
axis
axle
ay
aya
ayaayaanira
ayabas
ayagadde
ayagala
ayali
ayalika
ayamba
ayambadde
ayambako
ayambala
ayambibwako
ayambye
ayani
ayatiikirira
ayawula
ayayaanira
ayayaanirwa
ayesa
ayi
ayidi
ayidilogyeni
ayidolo
ayidologiya
ayidologyeni
ayidolokaboni
ayiekoh
ayiga
ayige
ayigiriza
ayigirizibwa
ayiiya
ayimba
ayimbamu
ayimbibwa
ayimbidde
ayimbira
ayimbye
ayimbyeko
ayina
ayingira
ayinza
ayisa
ayise
ayisi
ayita
ayitamu
ayiti
ayitibwa
ayitira
ayitiridde
ayize
aykur
ayo
ayodiini
ayodologyeni
ayogera
ayogerako
ayogerera
ayogerwako
ayogeza
ayokyayokya
ayokyebwa
ayolekedde
ayolesa
ayongedde
ayongera
ayongerako
ayongezaayo
ayoo
ayoola
ayota
az
aza
azaala
azaalibwa
azaaliddwa
azadde
azam
azannya
azannyamu
azannye
azannyidde
azannyiddeko
azannyiddemu
azannyira
azannyireyo
azannyirwa
azanyira
azawi
azeesa
azia
azibikidde
aziggye
aziikibwa
azimalamu
azimba
azimbibwa
azimbye
azion
azira
azisinga
azisse
azisuula
azitta
aziya
aziyise
aziz
azizza
azov
azuukuka
azuula
azzaako
azze
azzira
b
ba
baabanga
baabeerera
baabwe
baacaaka
baafa
baafufuggazibwa
baafulumya
baafuna
baafunanga
baafuuka
baagaana
baagadde
baagala
baagamba
baagambanga
baagatta
baagenda
baagikulembera
baagobererwa
baagusalira
baagwa
baakajja
baakakasa
baakateesa
baakazibwako
baakikolanga
baakisimba
baakizuula
baako
baakola
baakolanga
baakolera
baakoleranga
baakomawo
baakomyawo
baakosebwa
baakozesanga
baakuba
baakubanga
baakubwa
baakwata
baakwatibwa
baakyo
baala
baalaba
baalaga
baalambululanga
baaleeta
baaleka
baali
baaliko
baalimanga
baalina
baalinga
baalonda
baalondebwa
baalowoozanga
baalowozanga
baalugera
baalukuba
baalwana
baamalako
baamalira
baami
baamulumiriza
baamusindika
baamuteeka
baana
baanabakintu
baani
baanka
baasaba
baasala
baasalawo
baasibuka
baasigala
baasima
baasinga
baasisinkana
baasobola
baasobolanga
baasooka
baasubwa
baatambula
baatandika
baatandikawo
baatandikirwako
baateeka
baateekateeka
baategeeza
baategeka
baatuuka
baatwala
baatwalibwa
baatya
baava
baavaayo
baavu
baawa
baawagira
baawakanya
baawangula
baawangulira
baawangulwa
baawe
baaweebwa
baawerezanga
baawula
baayamba
baayambibwako
baayawukana
baayimba
baayita
baayitanga
baayo
baayogera
baayongera
baazaala
baazaalibwa
baazannya
baaziyiiyangamu
baazo
baazuula
baazuulibwa
baba
babaako
bababakuba
babadde
babaddeko
babaga
babagulako
babaka
babakaka
babala
babalanguzi
babaluku
babantu
babategeera
babayita
babe
babeera
babeeramu
babeeranga
babiiha
babikola
babinywera
babiri
babirooni
babirye
babiweesaamu
baboon
babulijjo
babungi
babwe
baby
bachelor
bachelors
back
backdrop
backeys
background
backgroundcolors
bacteria
bacterial
bacteriology
bacterium
bad
badda
baddamu
baddayo
badde
baddira
baddirirwa
baddu
baddugavu
baddukanya
baddukira
baddusi
badilisha
bado
badokita
badru
badukanya
bafa
bafaanana
baffa
baffe
bafu
bafudde
bafuga
bafugibwa
bafulumya
bafumba
bafumbo
bafuna
bafunye
bafuuka
bafuukuuka
bafuuse
bafuuyisa
bag
baga
bagabana
bagagga
bagala
bagamba
bagambe
bagambibwa
baganda
bagandabe
baganibwa
baganzi
bagemebwa
bagenda
bagende
bagenderera
bagenyi
bagenze
bagereeki
bageya
bagezaako
bagezi
bagirwanisa
bagiyita
bagoberera
bagoberezi
bagobye
bags
bagukuba
baguma
bagunjufu
bagusimba
baguyita
bagwa
bagwi
bagyettanira
bahati
bail
bajajja
bajeti
bajja
bajjajja
bajjajjaabe
bajjajjaffe
bajjira
bajo
bajope
bajukira
bajulizi
bakabaka
bakabalamu
bakadde
bakagezimunyo
bakagezimunyu
bakakensa
bakalimagezi
bakamaabe
bakansa
bakapitoola
bakasambako
bakasitoma
bakasuka
bakatandika
bakatoliki
bakayimbira
bakazannyirizi
bakazi
bakebera
bakeberebwa
baker
bakesseeko
bakigero
bakikola
bakimanyi
bakiriza
bakisimba
bakitiilia
bakitiiria
bakitiiriya
bakitilia
bakitiria
bakitiriya
bakitunzi
bakiwagi
bakiyita
bakizibwe
bakizudde
bakizuula
bakkaanya
bakkabulindi
bakkiririza
bakkiriza
bakkirizanga
bakkirizibwa
bakkiriziganya
bakola
bakolamu
bakolanga
bakole
bakolera
bakoma
bakoppa
bakoppye
bakosebwa
bakoze
bakozesa
bakozesezza
bakozi
bakozibe
bakuba
bakubaganya
bakubanja
bakubirizibwa
bakubuuza
bakubwa
bakubye
bakugamba
bakugu
bakukebera
bakula
bakulekere
bakulembeddwamu
bakulembera
bakulemberwa
bakulemberwamu
bakulembeze
bakulira
bakulu
bakungu
bakusekerera
bakuwa
bakuwe
bakwata
bakwatibwa
bakwatibwako
bakwatiddwa
bakyaali
bakyala
bakyali
bakyalidde
bakyalina
bakyayimbira
bakyerupe
bakyongeramu
bakyusemu
bala
balaba
balabika
balaga
balagira
balakisi
balala
balambiika
balambululirwa
balamu
balamuzi
balance
balanced
balancing
balandiroodi
balangirirwa
balanguza
balasangeye
baleeta
balemagana
baleme
balemererwa
balemwa
balenzi
bali
balibu
balikoowa
balikozesa
balima
balimba
balimi
balimu
balina
balinda
balinga
balinya
baliraanwa
baliranwa
balirwana
baliteeka
baliteeke
ball
ballon
balokole
balonda
balondebwa
balondeddwa
balongo
balongoosa
balonzi
balowooza
balowoozako
baltic
balubaale
balujuuju
balukake
balukoni
balumbiddwa
balumizibwa
balunda
balungi
balunzi
baluuni
baluwa
baluyita
balwadde
balwala
balwanagana
balwanira
balwaniridde
balwanyi
balya
balyoka
balyoke
bamaama
bamala
bamalaaya
bamalayika
bamalira
bamanyi
bamatwale
bamaze
bamazze
bambala
bambi
bameba
bameka
bamemba
bamening
bamerika
bamidomo
baminisita
bammemba
bamu
bamufuna
bamugamba
bamugobye
bamuguza
bamuleete
bamulekwa
bamulonda
bamunanika
bamuntunsolo
bamusoya
bamutwala
bamuvuganya
bamuwa
bamuyita
bamuzaala
bamuzalira
bamwanukula
bamwogerako
ban
bana
banaatera
banabwe
banabyabufuzi
banafu
banakyewa
banamateeka
banamawulire
banana
bananas
banange
banantameggwa
banantamegwa
banayuganda
band
banda
bandi
bands
bane
banenya
bang
banga
bange
bangereza
bangi
banguyirwa
banji
bank
banka
banna
bannaabwe
bannaawulire
bannabikira
bannabwe
bannabwengula
bannabyabufuzi
bannabyanfuna
bannaddiini
bannaffe
bannagirikakya
bannakalowooleza
bannakatemba
bannakibiina
bannakyemalira
bannakyerongooserezo
bannakyewa
bannamagye
bannamakolero
bannamataka
bannamateeka
bannamatteeka
bannamawulire
bannamikago
bannamwandu
bannange
bannannyini
bannansi
bannantameggwa
bannanyini
bannasaayansi
bannasayansi
bannassaayansi
bannassayansi
bannassomabutonde
bannassomabuzimbe
bannayuganda
banne
banno
bannyina
bannyonnyola
bano
banonooza
banoonya
banoonyereza
banovci
bantebya
banton
bantu
bantuma
banyamulenge
banyiivu
banyina
banyukufu
banyumirwa
banywa
baptism
baptist
bapulolitaaliya
bar
barbara
barbed
barcelona
barclays
barcloths
bardata
bare
barega
baroka
barometer
barra
barracks
barrow
bart
baryomunsi
basaana
basaannuusa
basaanye
basaaya
basaba
basabukuludde
basajja
basajjassubi
basalaganira
basalawo
basale
basalirwa
basamba
basambi
basanga
basangibwa
basanyufu
basanze
basatu
basawo
base
based
basekabaka
basekalowooleza
basekererwa
basemberedde
basena
basengeka
bases
basetendekero
bashir
basibe
basibuka
basic
basiga
basigala
basiima
basikirize
basikirizibwa
basil
basindika
basinga
basinza
basinziira
basirikale
basis
basitakange
basiyazi
basketball
basketry
baskin
basobodde
basobola
basobole
basobolera
basoma
basome
basomere
basomesa
basomesebwa
basomyeko
basonjola
basooka
bass
bassa
bassaako
basseeko
bassekabaka
bassekalowooleza
bassenga
bassitakange
basudde
basukka
basula
basumba
basuulibwa
bat
bata
bataagala
bataano
bataata
batabani
bataka
batali
batambula
batambuze
batandiika
batandika
batandikawo
batandise
bataringaya
batawagira
batawagirwa
bateeberezebwa
bateeka
bateekamu
bateesa
bateesanti
bategeela
bategeera
bategeeza
batemye
batendekebwa
batendesi
batera
bato
batonde
batondesi
batono
batony
batta
batte
battery
battibwa
battle
battles
battunka
batudde
batugamba
batume
batumi
batunda
batunka
batunuulidde
batusaako
batuuka
batuula
batuuma
batuuse
batuuza
batuuze
batuwe
batwa
batwala
batwalibwa
batya
batyo
batyobola
batyoboola
bava
bavaayo
baviirako
bavubuka
bavuganya
bavumbula
bawa
bawagira
bawagizi
bawakanya
bawala
bawamba
bawambye
bawandiika
bawandiisi
bawandiisiddwamu
bawangudde
bawangula
bawangulira
bawangulwa
bawe
baweebwa
baweereza
baweesa
baweesi
bawera
baweza
bawolereza
bawona
bawulira
bawuliriza
bay
bayamba
bayambe
bayambibwa
bayambibwako
bayeekera
bayekera
bayern
bayibuli
bayiga
bayiganga
bayigga
bayigirize
bayigirizibwanga
bayiiya
bayimba
bayimbafestival
bayimbi
bayimbira
bayingira
bayinza
bayise
bayita
bayitamu
bayitawo
bayite
bayitibwa
bayivu
bayiwa
bayize
bayizi
bayo
bayogera
bayreuth
bayuda
baza
bazaala
bazaalibwa
bazadde
bazannya
bazannyi
bazannyira
bazanya
baziba
bazijjawo
bazilio
bazimba
bazira
baziraba
bazisseeko
bazizinireko
bazonoona
bazudde
bazukulu
bazungu
bazze
bazzebulala
bazzukulu
bb
bba
bbaafu
bbaala
bbaasa
bbaasi
bbaatule
bbaawe
bbago
bbakitiiriya
bbakitiirya
bbakitiria
bbakitiriya
bbali
bbalibbu
bbalibu
bbaluuni
bbandi
bbanga
bbango
bbanguliro
bbanja
bbanka
bbata
bbc
bbe
bbebi
bbeesi
bbeeyi
bbi
bbili
bbiri
bbirokisayidi
bbizinensi
bbo
bbogoya
bbomu
bbongo
bboodi
bbosa
bbosono
bbowa
bbowolola
bbuba
bbugumu
bbujjenyi
bbula
bbulangiti
bbulooka
bbulu
bbululu
bbumba
bbwa
bbwo
bbyo
bc
bcc
bd
bdp
be
beach
beam
bean
beans
bear
bearer
bearers
bearing
bearings
beast
beat
beaten
beatrice
beats
beauty
bebaali
bebakolanga
bebalina
bebayita
bebe
bebona
became
becamex
because
become
becomes
becoming
becquerel
bed
bee
beebo
beebuuza
beedi
beegasse
beegata
beegatta
beekalakaasa
beekalakaasiza
beekoleranga
beekuusa
been
beene
beenie
beenyigira
beera
beerabira
beesa
beeseza
beesezza
beesigama
beesimbyewo
beesogga
beetaaga
beetaba
beetegekera
beetonda
beeyambisa
beeyisa
beeyongedde
beeyongera
beeyongerayo
before
bega
began
beginning
begins
begumisa
behavior
behaviour
behind
beijing
being
bekebejja
belarus
belgium
belgrade
believe
believers
bell
bella
bellagambi
bellamy
bellanaija
belong
belongs
below
belt
belts
bemawoma
bemba
ben
bend
benda
bendera
bendikito
beneath
benedict
benedicto
benefit
benefits
benenego
benfica
bengal
benin
beninwebtv
benjamin
bennyini
benon
benyigira
beograd
bergkamp
beringei
berkane
berlin
bernard
berrechid
bert
bertolt
besigye
besimbyewo
best
bet
beta
betaaga
betekera
bethlehem
beti
betis
better
betty
between
beyambisa
beyond
beyongera
beyongerayo
beyunira
beyunye
bfm
bg
bi
biba
bibaamu
bibaawo
bibadde
bibaddemu
bibajje
bibala
bibalibwamu
bibalo
bibbiri
bibcode
bibe
bibeera
bibeeramu
bibeerawo
bibiina
bibili
bibinja
bibira
bibiri
bibisi
bible
bibuga
bibulungulo
bibumbe
bibuuka
bibuuzo
bicycle
bidandi
biddamu
bidding
bidduka
bide
bidvest
bifa
bifaanagana
bifaanagavu
bifaanana
bifaananyamakulu
bifaananyi
bifanaana
bifanagana
bifanannyi
bifananyi
biffo
bifo
bifulumizibwa
bifulumya
bifuna
bifuta
bifuuka
bifuula
bifuulibwa
big
bigambibwa
bigambo
bigambululo
bigattiddwa
bigazi
bigbang
bigenda
bigendana
bigende
bigendera
bigendereera
bigenderera
bigendererwa
bigenze
bigeraageranye
bigere
bigerekeddwa
bigerekere
bigeye
bigezo
bigger
biggest
biggwa
bigimusa
bigirwa
bigoberero
bigombe
bigonza
bigtril
bigudde
bigugubizi
bigula
bigwa
bigwawo
biibira
biira
bijaguzo
bijanja
bijja
bijjawo
bijjibwa
bijjibwawo
bijjukira
bika
bikalaamufu
bikalimagezi
bikendedde
bikendeera
biki
bikira
bikka
bikkako
biko
bikola
bikolagana
bikolamu
bikole
bikolebwa
bikolebwamu
bikoleddwa
bikolera
bikolrwa
bikolwa
bikontana
bikoola
bikopo
bikosa
bikosebwa
bikoze
bikozesa
bikozesebwa
bikozeseddwa
bikujjuko
bikujuko
bikula
bikulaakulana
bikulakulanyiziddwako
bikulira
bikulirwa
bikulu
bikulukusi
bikumi
bikunizo
bikutte
bikutuusiddwako
bikuvuddemu
bikuze
bikwata
bikwatagana
bikyaliwo
bikyamu
bikyuka
bikyusabuziba
bilabika
bilala
bilamu
bile
bili
bilina
biliyooni
bill
billboard
billion
billy
bimala
bimaze
bimeka
bimera
bimu
bimwogerwako
bin
bina
binaabiro
binaisa
binance
binary
binding
binene
binge
bingi
bingu
binh
binji
binnalinnya
binnamakulu
binno
binnyonnyola
binnyonnyozo
bino
binojo
binomial
binoonya
bintu
binuubule
binyonyi
binyukuto
binywa
bio
biodiversity
bioecology
biofuels
biographical
biographies
biography
biological
biology
biomass
biome
biomes
biosphere
biotechnology
bipango
bipimifu
bipimo
bipooli
birabika
birabikira
biraga
biragalalagala
biragiro
birala
birambulukufu
biramu
birandizo
birara
biraze
bird
birds
bire
bireeta
bireetamaanyi
bireetawo
bireetera
bireme
biri
biribabitya
biriiriddwa
biriisa
biriko
birilubin
birimba
birime
birimu
birina
birinnya
biriwo
birmingham
biro
birowooza
birowoozo
birth
birthday
births
birungi
birungo
biruubirirwa
birwadde
birya
bisaakaate
bisaaniiko
bisaanye
bisaawe
bisaayo
bisale
bisambirwa
bisanga
bisangibwa
bisanja
bisatu
biseela
biseera
bisemba
bisenge
bisengekebwa
bisengekeddwa
bishop
bishops
bisibuka
bisigala
bisigalira
bisikira
bisikiramu
bisinga
bisinziira
bismarck
bisobola
bisobole
bisobozesa
bisolo
bisomesebwa
bisonjozo
bissa
bissau
bisset
bisula
bisuubirwa
bitaano
bitaba
bitabo
bitakiikiriddwa
bitalaze
bitali
bitaliwo
bitambula
bitambulira
bitanda
bitandiikira
bitandika
bitandise
biteeka
biteekawo
biteekebwa
bitegeeza
bitemeddwatemeddwa
bitendekeddwa
bitengejjeso
bitera
biti
bitiibwa
bitomeggero
bitonde
bitondeka
bitondekamaanyi
bitondeko
bitongole
bitono
bitonotono
bitoogo
bitooke
bits
bitti
bituliso
bitumastic
bitundibwa
bitundu
bitungotungo
bituteerekera
bituufu
bituuka
bituukawo
bituukibwako
bituuse
bituyamba
bitwala
bitwalibwa
bitya
bityo
biva
bivaako
bivaamu
biviirako
biviiriddeko
bivudde
bivuddeyo
bivuga
bivulu
bivumbulwa
bivumirira
bivunda
bivvulu
biwa
biwambiddwa
biwandiikibwa
biwandiikiddwa
biwandiiko
biwangaalira
biwangaaliro
biwanvuko
biwayi
biwedde
biweddewo
biwole
biwonvu
biwonya
biwoze
biwuka
biwulikika
biyamba
biyimiriddewo
biyina
biyingiza
biyinza
biyiriro
biyita
biyitamu
biyite
biyitibwa
biyiting
biyitirivu
biyumba
biz
bizaala
bizadde
bizcommunity
biziba
bizibu
bizigo
bizimbamubiri
bizimbe
bizimbibwa
bizimbibwamu
bizimbiddwa
bizineensi
bizineesi
bizinensi
bizinga
bizingiramu
bizuuliddwa
bizze
bk
black
blackburn
blackstarnews
bladder
blafrican
blanc
blank
blankets
blantyre
blaq
blasts
blend
blended
blending
blends
blendword
blessed
blessings
blew
bli
blight
blizz
blob
block
blocks
bloemfontein
blog
blogs
blogspot
blood
blooded
bloomberg
blow
blu
blue
bluzman
bn
bo
board
boarding
bob
boban
bobby
bobi
bobiwine
bobubudamu
boda
bodaboda
bodies
body
boer
bogere
bogolako
bogota
bois
bokisi
bokka
bold
bolt
bomb
bombi
bombo
bond
bonded
bonding
bonds
bongera
bongo
bongole
boniface
bonn
bonna
bonnabasome
bono
bonoona
booda
boodi
boogera
boogerwako
boogezi
book
books
booksources
bookya
boona
boost
booster
boot
borac
borassus
born
boroboro
borough
borrow
borrowed
borrowing
borussia
bosco
bose
boss
bossing
boston
botanical
botany
both
botola
botswana
bottlebrush
bottom
bounces
bow
bowel
bowls
box
boxing
boy
boyiro
boys
bq
br
brace
brackets
brain
branch
brand
brands
brasil
brasilia
brazier
brazil
brazzaville
bread
break
breakers
breakfast
breaking
breakout
breaks
breakthrough
breathe
breathing
brecht
breeding
bregas
breitinger
brenda
brett
breweries
brian
bribes
bride
bridge
brief
brig
bright
brighton
bring
brings
brisbane
bristol
britannica
british
bro
broad
broadcast
broadcasting
broja
broke
broken
bromatology
bromine
bromo
bromwich
bronze
brother
brothers
brown
browser
brussels
bryan
bs
bsc
bu
bua
buba
bubaamu
bubaawo
bubadde
bubade
bubaka
bubakutte
bubazi
bubba
bubbanga
bubeera
bubenje
bubi
bubiri
bubiriburi
bubirigi
bubondo
bubonero
bubuga
bubugaanye
bubulo
bubumbulukufu
bubuusibwabuusibwa
bubwe
bubwo
bucures
budaaki
budadiri
budaka
budalasini
budda
budde
buddinganyi
buddo
buddu
budeeni
budget
budinda
budo
budongo
budonian
budonians
bududa
budyebo
buenos
bufalansa
bufaransa
buffalo
bufukunya
bufuluma
bufulumya
bufumbekevu
bufumbo
bufuna
bufunye
bufunze
bufuuka
bufuula
bufuzi
bugagga
bugala
bugalamivu
bugambibwa
buganda
bugandas
bugattibwa
bugazi
bugema
bugembe
bugenda
bugendana
bugenderevu
bugenyi
bugereefu
bugeza
buggumivu
buggwanjuba
buggya
bugimbi
bugimu
bugingo
bugiri
bugirimaani
bugisu
bugolobi
bugoloobi
bugumu
bugunjufu
bugwa
bugwanjuba
bugwanjubwa
bugweri
bugwi
bugyelimani
buhweju
buikwe
build
buildcon
building
built
bujama
bujanjabi
bujja
bujjanjabi
bujje
bujjingo
bujjuvu
buju
bujugumira
bujulizi
bujwazzi
bukaawa
bukadde
bukakafu
bukake
bukalaayi
bukambwe
bukatoliki
bukatonda
bukatuliki
bukedde
bukedea
bukedi
bukendeera
bukendeeza
bukenya
bukibuga
bukiika
bukiikaddyo
bukiikakkono
bukiiko
bukiikokkono
bukka
bukkakkamu
bukodyo
bukola
bukolebwa
bukoloboze
bukoma
bukomansimbi
bukomera
bukono
bukontanyo
bukosa
bukosebwa
bukoto
bukozesa
bukozesebwa
bukuba
bukugu
bukujuko
bukula
bukulaga
bukulemberwa
bukulembeze
bukulu
bukunizo
bukunya
bukusu
bukutte
bukuubagano
bukuumi
bukuumibwa
bukwakku
bukwakkulizo
bukwata
bukwatagana
bukwataganye
bukwatane
bukwo
bukya
bukyaalina
bukyala
bukyali
bukyamu
bukyayina
bukyuka
bukyukakyuka
bukyusa
bul
bula
bulaaya
bulabe
bulabika
bulabikira
bulabirizi
bulaga
bulagibwa
bulagira
bulago
bulala
bulambalamba
bulambuli
bulambulukufu
bulamu
bulangiti
bulaya
bulbs
buleeseewo
buleeta
buleetebwa
buleetera
bulema
bulemeezi
bulemezi
bulemu
buli
buliisa
bulijjo
buliko
bulimba
bulimi
bulimia
bulimu
bulina
bulinga
buliri
buliwo
bull
bulletin
bulls
buloba
buloda
bulojje
bulombolombo
bulowooza
bulu
buluda
bululu
bulumbaganyi
bulumbiddwa
bulumi
bulungi
bulungibwansi
bulungu
bulunji
bulunzi
bulwadde
bulyoka
bulyomu
bumala
bumalewo
bumanya
bumanyirivu
bumaze
bumeka
bumeruka
bumeze
bumper
bumpi
bumpimpi
bumu
bumyufu
buna
bunaafa
bunafu
bunagana
bunamwaya
bundesliga
bundibugyo
bunene
bungereza
bungi
bungiko
bunji
bunkenke
bunnambiro
bunno
bunnyogoga
bunnyogovu
bunnyonnyolwa
buno
bunobwonna
buntu
buntubulamu
bunyangabu
bunyogovu
bunyolo
bunyomero
bunyoro
bunyunyunsi
buoyancy
buoyant
bupaketi
buperusi
bupoolo
buramu
burdens
bureau
burial
buried
burkina
burning
burns
burrn
burroughs
bursaspor
burundi
bus
busa
busaanyizibwawo
busajja
busalawo
busangibwa
busangiro
busannyalaza
busannyalazo
busasaana
busatu
busawo
buse
busedde
buseere
busegeevu
busekkati
busengeke
busengekebwa
busengekeddwa
busesa
bush
bushenyi
busia
busigala
busiigibwa
busiiro
busimba
busimu
busindika
business
businga
busingayo
businge
busingye
businziira
businziirako
busiriivu
busirikitu
busiro
busituzi
busobola
busobole
busobozesa
busobozi
busoga
busomesa
busosoze
busowa
busozi
busujju
busumba
busungu
bususu
busuubuzi
busuulwa
busuurwa
buswavu
buswedi
but
butaagala
butaambi
butaano
butaba
butabalika
butabo
butaffaali
butaffaalibungi
butagendayo
butagira
butaka
butala
butale
butaleja
butali
butamanya
butambala
butambi
butambula
butambulira
butambuza
butandika
butandikira
butangizi
butanwa
butapuse
butcher
buteba
butebenkevu
butebenta
buteekwa
buteera
buteesa
butegeevu
butegeeza
butera
butereddwa
butereevu
buti
butida
butiki
butini
butinniinya
butiribiri
buto
butoffaali
butonde
butondeka
butongole
butonniinya
butonnyeze
butono
butoo
butter
butto
buttonde
buttoned
butufu
butula
butuluuki
butundu
butundutundu
butunudde
butunuze
buturo
buturuki
butuufu
butuuka
butuukidde
butuukilivu
butuuse
butwala
butwalibwa
butya
butyo
buufu
buusa
buva
buvaamu
buvanjuba
buvanjuva
buviirako
buvuddeko
buvuma
buvunaanyizibwa
buvunanyizibwa
buvune
buwa
buwaayiro
buwama
buwandiike
buwang
buwanga
buwangaaliro
buwangaanguse
buwanganguse
buwango
buwanguzi
buwangwa
buwanirira
buwanvo
buwanvu
buwarabu
buwaze
buwaŋŋanguse
buweddeko
buweerero
buweereza
buwejjere
buwemu
buwenge
buwewufu
buwuka
buwule
buwumbi
buyamba
buyambi
buyambibwa
buyende
buyiiya
buyimiridde
buyindi
buyinza
buyise
buyita
buyite
buyitibwa
buyitiro
buyonaani
buyonjo
buyungo
buzaale
buzaalibwa
buziba
buzibu
buzibye
buziga
buziizi
buzimba
buzimbe
buzimbibwa
buzingiramu
buzito
buzz
buzze
buzzi
bw
bwa
bwaabwe
bwaali
bwaba
bwabantu
bwabo
bwabuluziddwamu
bwabwe
bwabwo
bwabyo
bwaffe
bwafuuka
bwagaagavu
bwagazi
bwago
bwaguuga
bwagwo
bwajja
bwakabaka
bwakabakabwa
bwakabi
bwakalimagezi
bwakatikkiro
bwakatonda
bwakiwotoka
bwako
bwakola
bwakolebwa
bwakutulwa
bwakyo
bwalemala
bwali
bwalimu
bwaliwo
bwalwo
bwalyo
bwamala
bwaminisita
bwammwe
bwamulemesa
bwamuntu
bwanamunigina
bwanda
bwange
bwangu
bwangulira
bwanika
bwanja
bwannamunigina
bwannannyini
bwannanyini
bwansi
bwaongo
bwapulezidenti
bwasanga
bwasiisi
bwasooka
bwatandika
bwatandikira
bwategeeza
bwati
bwatuukira
bwatyo
bwava
bwaviirako
bwavu
bwavvu
bwaweebwa
bwayo
bwayongera
bwazike
bwazo
bwazuulibwa
bwe
bweba
bwebaali
bwebakoze
bwebamulinnya
bwebamuyingiza
bwebawangula
bwebazannya
bwebulungulule
bwebungulule
bwebunizo
bwebuwuumbi
bweeru
bwegaali
bwegaddukanyizibwa
bwegasse
bwegatta
bweggala
bwegwali
bwekiba
bwekiri
bwekirina
bwekityo
bwekuba
bwekutte
bwekwali
bwekwasawaza
bwekwata
bwekyali
bwenabadde
bwenda
bwengula
bwenkana
bwenkanya
bwenkaya
bwennyini
bwensi
bwensigo
bwenyi
bwenyibungi
bwenyigira
bwera
bweranyangi
bwereere
bwerende
bweri
bweru
bwesigwa
bwesonjodde
bwetaaga
bwetaagisa
bwetaavu
bwetengerevu
bweti
bwetoloola
bwetoloole
bwetoloovu
bwettujukira
bwetutuuka
bwetwaze
bweweereza
bweweetaaga
bwewetamu
bwewozi
bwewunzifu
bweyadda
bweyafa
bweyafuna
bweyagenda
bweyagwaako
bweyakola
bweyakomawo
bweyakuba
bweyakula
bweyaletebwa
bweyali
bweyalina
bweyalondebwa
bweyamaliriza
bweyambisa
bweyamenyeka
bweyasumusibwa
bweyatandika
bweyateeba
bweyateebera
bweyategeeza
bweyatekebwa
bweyatomera
bweyatuuka
bweyava
bweyawangula
bweyaweza
bweyawumula
bweyazannya
bweyazanyira
bweyazike
bweyogerere
bweyolekera
bweyongera
bweyongezi
bweyoresezanga
bwiino
bwindi
bwino
bwo
bwoba
bwobuggwanjuba
bwogutemako
bwoki
bwokka
bwolaba
bwolekedde
bwolekero
bwomala
bwomaliriza
bwombi
bwomuntu
bwongo
bwonna
bwonsatule
bwoti
bwoyagala
bx
by
bya
byaali
byaalo
byaba
byabufuna
byabufuzi
byabugagga
byabulimi
byabwe
byabwo
byabyabufuzi
byabyo
byafaayo
byaffe
byagala
byagenda
byaggyibwawo
byago
byagwo
byagyo
byako
byakola
byakolebwa
byakolebwanga
byakolwa
byakoze
byakozze
byakulabirako
byakulya
byakwerinda
byakyo
byalaga
byaleeta
byaleetawo
byali
byalimu
byalina
byalinga
byalo
byalwana
byalwo
byalyo
byamalimiro
byamateeka
byamugaso
byamukama
byandibadde
byanfuna
byange
byangu
byanjigiriza
byanyima
byarugaba
byasa
byasobola
byatandika
byatandikibwawo
byateekebwawo
byava
byawakanyizibwa
byawukana
byayo
byayogera
byazi
byazo
bye
byebaali
byebakoze
byebamulonzeemu
byebawangudde
byebimera
byebimu
byebino
byebulungula
byebulungulo
byebyeyambisibwa
byegatta
byegattisa
byekebejja
byekuusiza
byekwaso
byemizannyo
byempimo
byenda
byenfuna
byenganga
byenjigiliza
byenjigiriza
byenkanankana
byenkulaakulana
byennyanja
byennyini
byensi
byentambula
byesigamye
byeso
byesonjovu
byetaaga
byetaagisa
byetaago
byetengeredde
byetulunda
byeyali
byeyambisa
byeyambisibwa
byeyawudde
byeyolekera
byeyongedde
byeyongera
bymawanga
byo
byobufuna
byobufuzi
byobugagga
byobulamu
byobulimi
byobusuubuzi
byobuwangwa
byogerwa
byokka
byokya
byoleka
byombi
byona
byongedde
byongera
byonna
byonsatule
byuma
c
ca
caayi
cabinet
cabondioxide
cadmium
cadmus
caesar
caesium
caf
cafe
cairo
cake
calamine
calarts
calcium
calculate
calculating
calculation
calculations
caledonian
calendar
cali
california
call
called
calliandra
calls
calories
calothysus
calum
camaucity
cambodia
cambrian
cambridge
came
cameroon
camp
campaccio
campaign
campaigns
campus
campusbee
campustimesug
cams
can
canaan
canada
canary
cancer
candida
candidate
candidates
cannot
canon
canvas
capacity
cape
capital
capitalism
capitalist
capitalradio
capitals
capsid
captain
captained
captains
car
carbo
carbohydrate
carbohydrates
carbon
carbondioxide
card
cardiff
cardinal
cardiology
care
career
carey
caribbean
caring
cariology
carlow
carnival
carol
caroline
carolyn
carpenter
carson
casa
case
cases
cash
caspofungin
cast
cat
catalan
catalyst
catchphrase
categories
category
categoryid
cathedral
catherine
catholic
cathy
catid
cation
caucus
cause
causing
cavendish
cayina
cb
cbc
cbs
cc
ccedu
ccontentmdk
ccr
cctv
ccupa
ccwa
cd
cdc
ce
cec
cecafa
cecilia
cehurd
celeb
celebpatrol
celebrate
celebrates
celebrations
celebrities
celebrity
celestial
cell
celled
cells
celsius
celtic
census
centenary
center
centered
centers
central
centre
centrefugal
centrepetal
centrifugal
centripetal
century
ceo
ceramics
cercopithecus
cerebellum
cerebrospinal
cerebrum
ceremony
ceres
cerestial
cerium
cerls
certain
certificate
certification
certified
cesc
cf
cfm
cgi
ch
cha
chagga
chain
chair
chairman
chairperson
chaka
chales
challenge
challenges
chamber
chameleon
chameleone
champion
champions
championship
championships
chan
chance
chancellor
chandiru
changachirere
change
changed
changes
changing
changu
channel
channelo
chano
chapter
chapters
character
characteristic
characteristics
characterized
characters
charcoal
charge
charged
charges
charity
charles
charleston
charlton
charm
chart
chartered
charts
charz
chats
cheese
cheesi
chelain
chelangat
chelsea
chemelil
chemical
chemically
chemicals
chemistry
chemists
chemonges
chepkirwok
cheptegei
cheptoris
chepyegon
chesang
chess
chest
chewa
chicago
chicken
chickenpox
chickens
chief
chiefs
child
childhood
children
chile
chimes
chimpreports
china
chinese
chippa
chips
chlorhexidine
chlorine
chlorophyll
chloroplast
chogm
choice
choir
cholera
cholesterol
chong
chord
chorus
chris
christ
christian
christianity
christiano
christine
christmas
christopher
chromosome
chromosomes
chronic
chtm
chua
church
churches
churchill
churchofuganda
chwa
ci
cia
cid
cidy
cij
cilia
cinderella
cindy
cinnamon
circa
circle
circles
circuit
circular
circulatory
circumblending
circumcision
circumference
cissy
citations
cite
cities
citifmonline
citizen
city
citys
ciutat
civil
civilian
civo
ciyitibwa
cj
cl
claim
claims
clan
clans
clarke
class
classes
classical
claude
clause
clear
cleft
cleopatra
cletic
clever
clifford
climate
climatology
clinic
clinical
clinton
clipped
clipping
cliques
clive
close
closed
closely
closing
clotting
cloud
clouds
club
clubbing
clubs
cluster
clusters
cm
cmis
cms
cn
cnn
co
coach
coadjutor
coal
coalition
coast
coasts
coating
cobar
coca
cocaine
coccus
cocoon
code
codes
coe
coefficient
coefficients
coffee
cohen
coin
coke
col
cola
cold
coli
colifixe
colitis
collabo
collaboration
collared
collection
collective
college
colleges
colombia
colonel
colonial
colonialism
color
colorado
colors
colour
colours
columbia
columbus
column
columns
colurs
com
combcode
combination
combined
combining
combustion
come
comedian
comedy
comes
comets
coming
commander
commentary
comments
commerce
commercial
commission
commissioner
commissions
committee
committees
commodities
common
commons
commonwealth
communication
communications
communion
communism
communities
community
comoros
companies
company
comparative
compare
comparison
comparisons
compass
compatible
competition
competitiondocuments
competitions
competitive
complete
completes
complex
complicated
compliment
component
composit
composite
compound
compounded
compounding
compounds
compressed
compression
compunds
compute
computer
con
conc
concentrate
concentration
concepcio
concept
concepts
concerned
concert
concerts
conchology
concluded
concrete
condensation
condense
condenses
condition
conditional
conditioning
conditions
conduct
conduction
conductors
cone
confederation
conference
conferences
confident
confidential
configuration
confirmed
confirms
conflict
confuse
confused
congas
congo
congratulates
congress
coniology
connaitre
connect
connecticut
connecting
connections
connotes
consciousness
conservation
conservative
considered
consolidated
const
constable
constant
constantly
constants
constipation
constituencies
constituency
constituent
constitution
constitutional
construction
consult
consultative
consumption
contact
container
contemporary
contenidos
content
contenttranslation
contest
context
continent
continental
continued
continuous
contract
contraction
contractors
contradict
contradiction
contradictions
contrary
contrast
contribution
contributionsmenu
control
controlling
controversial
convection
convention
conversion
converted
convulsion
cook
cooking
cool
cooperation
cooperative
coordinate
coordinates
coordination
cop
copa
copehagen
copenhagen
copernicus
coppa
copper
copy
copyright
coral
cord
core
cornelia
corner
corona
coronation
coronavirus
corporate
corporation
corps
corpus
correctional
correspond
corresponding
corrosion
corruption
corun
cosase
cosign
cosine
cosmas
cosmic
cosmos
cote
cotfone
cotton
cough
could
coulomb
council
counsel
counseling
count
counting
countries
country
county
coup
course
courses
court
courts
covalent
cover
covid
cow
cows
cp
craft
craig
crane
cranes
craniology
crankshaft
crashing
craving
crazy
cream
create
created
creating
creation
creative
creator
credit
credited
crested
crew
cricket
cricketarchive
crime
crimes
criminal
criminology
crisis
crisisgroup
critical
criticism
critics
croatia
crocodile
crooze
crop
cropped
cropping
crops
cross
crossing
crown
crude
crust
cry
cryology
crystal
crystals
cs
csmonitor
ctcn
cu
cube
cubic
cubing
cule
cultural
culture
cultures
cup
cure
current
currently
currents
curtis
curvature
curve
curved
customs
cut
cutlery
cuts
cutting
cv
cwa
cxcr
cycle
cyclones
cylinder
cynology
cyper
cypher
cyprian
cyprus
cyril
cytology
cytomorphology
cytopathology
cytoplasm
czech
d
da
daakiika
daala
daamita
dacb
daddy
dagala
daily
dailyexpress
dailymedia
dailyrecord
dailytimes
dakiika
dala
dalton
dam
damali
damar
dame
damilola
damn
dan
dance
dancehall
dancer
dances
dancing
dani
daniel
daniella
danish
dar
dardanelspor
dark
darkgrey
darwin
dash
dat
data
database
date
dated
dateformat
dates
daudi
daughter
david
davido
davis
davos
dawn
dawson
daxx
day
dayate
dayati
dayi
dayilekita
dayirekita
dayisiini
days
daziini
db
dbb
dbc
dc
dd
dda
ddaala
ddaaza
ddagala
ddakiiika
ddakiika
ddala
ddalu
ddamu
ddamula
ddamulira
dddaf
dddene
ddembe
ddene
ddesemba
ddi
ddiba
ddiguli
ddiini
ddiiro
ddimo
ddipulooma
ddira
ddisitulikiti
ddizero
ddoboozi
ddogo
ddole
ddoola
ddu
dduka
ddunda
ddundiro
ddungi
ddungu
dduuka
dduyiro
ddwaliro
ddyo
de
dead
deadline
deal
deals
death
deaths
debate
deborah
debut
dec
decade
decagon
decay
deceased
deceleration
decemba
december
decimal
decimals
declaration
declared
decomposition
decorate
decrease
deductive
dee
deed
deejay
deejays
deejayz
default
defeated
defence
defender
defenders
defense
define
defined
definition
definitions
deflected
deforestation
defy
degree
degrees
dejan
del
delegate
delegations
delhi
dely
dem
demand
demarco
dembe
democracy
democratic
demography
demokratiki
demokulasiya
demonstration
demonstrations
den
dendrochronology
dendrology
denimaaka
denis
denmark
dennis
denominator
denotes
dense
density
dental
dentist
departed
department
dependent
depending
depends
depletion
deportivo
deposed
depression
deputy
der
derby
derick
derivation
derivations
derive
derived
dermatology
derrick
des
desaati
desabre
description
desecration
desemba
desert
deserts
design
designing
desire
desmology
det
detail
details
detained
detect
detention
determined
develop
developed
developing
development
developmental
device
df
di
diabettes
diagnosis
diagonal
diagram
dialectic
dialectical
dialectician
dialectics
dialogues
diamater
diameter
diamond
diana
diaspora
dice
dick
dictator
dictatorship
dictionary
did
didier
didn
didnt
die
died
diego
dies
diesel
diet
dieting
difference
different
difficult
diffusion
difiiri
digestion
digestive
digger
digging
digi
digiri
digit
digital
digito
digits
diguli
digulli
diini
diiru
dijk
dilekita
dilution
dimension
dimensional
dimensions
dimiti
din
dining
diocese
dioceses
dionizia
dioxide
dipatimenti
diploma
diplomacy
dippo
dipterology
dipuloma
dipulooma
dir
direct
direction
directions
directly
director
directorate
directors
directory
diri
dirty
disambig
disaster
disccode
discipline
disciplines
discography
discount
discourse
discover
discovered
discovery
discussion
disease
diseases
disiki
disimoolo
disitansi
disituliki
disitulikit
disitulikita
disitulikiti
disitulikti
dismissal
disney
disorder
disorders
dispatch
displacement
display
displayfulltext
disrupted
dist
distance
distancecalculator
distant
distinction
distinguished
distname
distortions
distribution
district
districts
distulikiti
diva
diverse
divide
dividend
divine
divinity
division
divisor
divizionz
divizoni
divock
divorce
dizero
diziizi
dj
djordjic
djs
djvu
dk
dlfi
dmitri
dna
do
doadoa
doc
docs
doctor
doctors
document
documents
docus
does
doesn
dog
doha
doi
doing
dokita
dokolo
dolla
dollar
dollo
domain
domanovic
domestic
dominant
dominate
domino
don
done
dont
doodo
doola
dorcus
doreen
dorothy
dorotia
double
doubles
douglas
dove
dovela
down
download
downtown
dozens
dp
dpaper
dpp
dq
dr
draft
drag
drama
dramactors
drasimaku
draw
drawing
drc
dream
dreamachine
dreams
drive
driver
driving
drogba
drop
droplets
drops
drought
drug
drugs
drum
drusilla
ds
dstv
dt
du
duality
dubai
dubbed
dublin
ducks
duct
ductile
dudu
due
duet
dumba
duncan
dundee
dunia
dunstan
duo
duodecimal
duong
durban
during
dust
dw
dwarf
dy
dye
dynamics
dynamos
dyo
dysentery
dz
e
ea
eac
eacccp
each
eachamps
eacop
eagle
eagles
eagt
eala
early
earns
earth
earthquake
ease
east
eastafrica
eastern
easy
eat
eating
eb
eba
ebaako
ebaala
ebaali
ebaamu
ebaawo
ebadde
ebaddemu
ebaddewo
ebafulumya
ebafunnyemu
ebaju
ebakuba
ebakyalidde
ebala
ebali
ebalibwa
ebanga
ebasobozesa
ebawangula
ebazimbamu
ebbaala
ebbaggo
ebbago
ebbala
ebbali
ebbaluwa
ebbanga
ebbango
ebbanguliro
ebbanja
ebbanjo
ebbanyi
ebbeeyi
ebbere
ebbibbo
ebbiiri
ebbinika
ebbiri
ebbombo
ebbugga
ebbuggezi
ebbugumu
ebbujje
ebbujjebi
ebbujjenyi
ebbujjeze
ebbula
ebbulwa
ebbumba
ebbuyaga
ebbwa
ebe
ebeera
ebeeramu
ebeerawo
ebeerera
ebiba
ebibaamu
ebibaawo
ebibadde
ebibaddewo
ebibagiddwa
ebibajje
ebibajjo
ebibala
ebibalibwamu
ebibalo
ebibanja
ebibbo
ebibeera
ebibeerawo
ebibi
ebibiina
ebibikka
ebibila
ebibinja
ebibira
ebibiri
ebibisi
ebibowabowa
ebibuga
ebibulungulo
ebibumbe
ebibuuka
ebibuuzo
ebibuzo
ebibya
ebibye
ebibyo
ebicaafu
ebiddako
ebidduka
ebidibba
ebidomola
ebidukanya
ebifa
ebifaana
ebifaanagana
ebifaanagavu
ebifaanana
ebifaananyi
ebifanannyi
ebifananyi
ebiffa
ebifo
ebifu
ebifudde
ebifuga
ebifulumiro
ebifulumiziddwa
ebifumita
ebifundiwazo
ebifuta
ebifuyirwako
ebigalagamba
ebigamba
ebigambibwa
ebigambo
ebigambululo
ebigana
ebiganyula
ebigasa
ebigazi
ebigele
ebigenda
ebigendana
ebigendererwa
ebigenge
ebigerageranyo
ebigere
ebigereese
ebigereeso
ebigereke
ebigerekere
ebigero
ebigezo
ebiggwa
ebigikwatako
ebigimusa
ebigiriko
ebigirimu
ebigoberero
ebigobererwa
ebigootaanya
ebigootanya
ebigotaanya
ebigumira
ebigwa
ebigwawo
ebiibira
ebijanjaalo
ebijanjalo
ebijiiko
ebijimusa
ebijja
ebijjudde
ebijjuliziddwamu
ebijjulo
ebijuliziddwa
ebijuliziddwamu
ebijulizo
ebika
ebikadde
ebikaddiye
ebikajjo
ebikalu
ebikamulo
ebikata
ebikazi
ebikekkereza
ebikemuluzi
ebikikwatako
ebikko
ebikoba
ebikoco
ebikoggo
ebikokyo
ebikola
ebikolagana
ebikolaganira
ebikole
ebikolebwa
ebikolebwamu
ebikoleddwa
ebikoleka
ebikolo
ebikolobero
ebikolwa
ebikometo
ebikonde
ebikondo
ebikono
ebikontana
ebikoola
ebikopo
ebikosa
ebikozesa
ebikozesebwa
ebikozeseddwa
ebikozsebwa
ebikuba
ebikujjuko
ebikula
ebikulu
ebikulukusi
ebikulungirivu
ebikumi
ebikumito
ebikunizo
ebikusiike
ebikusike
ebikuta
ebikuumaddembe
ebikwaatagana
ebikwaso
ebikwata
ebikwatagana
ebikwataganyo
ebikwate
ebikwatibwako
ebikyamu
ebikyankalanye
ebikyusabuziba
ebikyusaganyo
ebilagilo
ebilala
ebilamu
ebilara
ebili
ebiliisa
ebilime
ebilowoozo
ebilungi
ebiluubililwa
ebimala
ebimanyiddwa
ebimaze
ebimenyeddwa
ebimera
ebimeruko
ebimu
ebimukwatako
ebimuli
ebimulisa
ebimuweebwa
ebimuwereddwa
ebimwetoolodde
ebimyanso
ebina
ebinaabiro
ebinaddako
ebinafu
ebinafunafu
ebinene
ebingi
ebinnalinnya
ebinnya
ebinnyebwa
ebinnyonnyozo
ebinogeddwako
ebintu
ebinukuto
ebinya
ebinyebwa
ebinyeebwa
ebinyinyi
ebinyira
ebinyonyi
ebinyukuto
ebinyumizibwa
ebinyuvu
ebinywa
ebinywerwamu
ebipaapi
ebipango
ebipapajjo
ebipapula
ebipimo
ebipooli
ebipuluko
ebipya
ebirabika
ebirabo
ebiraga
ebiragala
ebiragalalagala
ebiragibwa
ebiragiro
ebirala
ebiralala
ebiralalala
ebirambulukufu
ebiramu
ebirara
ebirawuli
ebirayiro
ebire
ebireeta
ebireetamaanyi
ebireetawo
ebireetebwawo
ebireetendwadde
ebireetera
ebiri
ebiribwa
ebiriira
ebiriisa
ebiriko
ebirikwatako
ebirimba
ebirime
ebirimu
ebirina
ebiringa
ebiriraanye
ebiriraanyeewo
ebiririmu
ebiriwo
ebiriyiriro
ebiro
ebirogologo
ebirondeddwa
ebirooto
ebirowooza
ebirowoozebwa
ebirowoozo
ebirubirirwa
ebiruka
ebiruma
ebirumira
ebirumiriwa
ebirundibwa
ebirungi
ebirungo
ebiruubiriro
ebiruubirirwa
ebirwadde
ebirwaza
ebirya
ebisa
ebisaakate
ebisaanidde
ebisaaniiko
ebisaanyi
ebisaanyizo
ebisaawe
ebisagazi
ebisago
ebisajja
ebisalagana
ebisale
ebisalibwawo
ebisangibwa
ebisangibwamu
ebisanja
ebisanjahttp
ebisannyalazo
ebisanyizo
ebisanyukirwamu
ebisanyusa
ebisatu
ebisawo
ebisaziddwako
ebise
ebiseela
ebiseeneekerevu
ebiseera
ebisegeere
ebisembayo
ebisembyeyo
ebisenge
ebisengeke
ebisera
ebisero
ebisesemye
ebisigadde
ebisigaddewo
ebisigala
ebisigalamu
ebisigalira
ebisige
ebisigo
ebisiike
ebisiisi
ebisinde
ebisindikibwa
ebisinga
ebisingako
ebisingawo
ebisingayo
ebisinziiro
ebisittalo
ebisitukiro
ebisiya
ebisiyaga
ebiso
ebisoba
ebisoboka
ebisoboko
ebisobola
ebisobozesa
ebisobyo
ebisoko
ebisolo
ebisonjozo
ebisoobola
ebisooka
ebisookerwako
ebisoosowazibwa
ebisoro
ebisosonkole
ebissi
ebisubi
ebisukaali
ebisukka
ebisukkulumiso
ebisulo
ebisumuluzo
ebisuubirwa
ebiswa
ebita
ebitaala
ebitaano
ebitaba
ebitabo
ebitafaanagana
ebitakkirizibwa
ebitakwatagana
ebitalabika
ebitali
ebitaliiko
ebitaliimu
ebitalina
ebitambula
ebitambuza
ebitanda
ebitandika
ebitangattiso
ebitasobola
ebitawaanya
ebitebe
ebiteeka
ebiteeketeeke
ebiteekwa
ebiteemala
ebiteesebwako
ebiteeso
ebitendero
ebitengejjeso
ebitera
ebitereke
ebiti
ebitiibwa
ebitiisa
ebito
ebitole
ebitomeggero
ebitonde
ebitondekamaanyi
ebitondekero
ebitondekeso
ebitondekewo
ebitondeko
ebitone
ebitongole
ebitono
ebitonole
ebitonotono
ebitontome
ebitoogo
ebitooke
ebitooli
ebitukuvu
ebitulazi
ebituli
ebitundibwa
ebitundu
ebitundutundu
ebitunuuliddwa
ebituufu
ebituukiddwako
ebituukiriro
ebituuko
ebituundu
ebituyamba
ebitwalibwa
ebitwetoolodde
ebiva
ebivaako
ebivaamu
ebiviirako
ebivu
ebivudde
ebivuddemu
ebivuga
ebivuganya
ebivulu
ebivvulu
ebiwandiike
ebiwandiiko
ebiwangaaliro
ebiwangagano
ebiwanvu
ebiwata
ebiwawaatiro
ebiwayi
ebiwedde
ebiweebwa
ebiweerezebwa
ebiwempe
ebiwera
ebiwerako
ebiwewuka
ebiwoggana
ebiwojjolo
ebiwonvu
ebiwooma
ebiwoomerera
ebiwujjo
ebiwuka
ebiwundu
ebiwuzi
ebiyamba
ebiyambi
ebiyenje
ebiyigiriza
ebiyiiye
ebiyingo
ebiyinza
ebiyiriro
ebiyita
ebiyitibwa
ebiyitiro
ebiyonka
ebiyonsa
ebiyumba
ebizaala
ebizadde
ebizannyisibwa
ebizibu
ebizibuwavu
ebizigo
ebiziiza
ebiziizina
ebiziizite
ebizimba
ebizimbamubili
ebizimbamubiri
ebizimbe
ebizimbibwa
ebizinga
ebizito
ebizivaamu
ebiziziina
ebiziziite
ebizungirizi
ebizungu
ebizuuliddwa
ebizze
ebola
ebonies
ebugaana
ebuguma
ebugumu
ebugwanjuba
ebujje
ebukiikaddyo
ebukuumi
ebula
ebulaaya
ebulayo
ebunaayira
ebungereza
ebutonda
ebuuka
ebuvanjuba
ebuvuma
ebuziba
ebw
ebwa
ebwatuka
ebweeru
ebweru
eby
ebya
ebyaali
ebyabwe
ebyaddirira
ebyafa
ebyafaayo
ebyafayo
ebyaffuta
ebyafulumizibwa
ebyagi
ebyakikugu
ebyakiragala
ebyakolebwa
ebyakozesebwanga
ebyakuvaamu
ebyalagirwa
ebyali
ebyalimu
ebyalina
ebyaliwo
ebyalo
ebyalondebwamu
ebyama
ebyamaanyi
ebyamagezi
ebyamaguzi
ebyamakolero
ebyamalimiro
ebyamanyi
ebyamasannyalaze
ebyamasanyu
ebyamateeka
ebyamawulire
ebyambalo
ebyamutuusibwako
ebyanda
ebyanfuna
ebyangu
ebyanzi
ebyaondebwamu
ebyasa
ebyasooka
ebyassava
ebyatugerekerwa
ebyava
ebyavaamu
ebyawaka
ebyawamu
ebyawandiikibwa
ebyawukana
ebyawukanu
ebyayamba
ebyayi
ebyayita
ebyayitta
ebyayogerwa
ebyazuulibwa
ebye
ebyebibira
ebyebibuuka
ebyebulungulo
ebyedda
ebyefuna
ebyegattira
ebyekibalo
ebyekusifu
ebyekutte
ebyekuusa
ebyekuusiza
ebyemala
ebyembi
ebyemikolo
ebyemikono
ebyemirimu
ebyemizannyo
ebyempimo
ebyempuliziganya
ebyenda
ebyenfuna
ebyengigiriza
ebyenjawulo
ebyenjigiriza
ebyenkanankana
ebyenkulaakulana
ebyenkulakulana
ebyennaku
ebyennyanja
ebyensi
ebyensimbi
ebyensoma
ebyentambula
ebyenyanja
ebyenzikiriza
ebyeru
ebyesigamye
ebyeso
ebyetaaga
ebyetaagibwa
ebyetaagisa
ebyetaago
ebyetagisa
ebyetago
ebyetoloola
ebyetoolodde
ebyettaka
ebyettunzi
ebyevugo
ebyewalula
ebyewole
ebyewunyisa
ebyewunzifu
ebyeyambisibwa
ebyeyolekera
ebyo
ebyobufuna
ebyobufuzi
ebyobugagga
ebyobujjanjabi
ebyobulambuzi
ebyobulamu
ebyobulenzi
ebyobulimi
ebyobunyukufu
ebyobusuubuzi
ebyobutonde
ebyobuvubi
ebyobuwangwa
ebyobuyigirize
ebyobuyonjo
ebyobuziba
ebyobuziizi
ebyobuzimbe
ebyogeddwako
ebyogerwa
ebyokubeera
ebyokubumba
ebyokukola
ebyokulabirako
ebyokulonda
ebyokulwanisa
ebyokulwanyisa
ebyokulya
ebyokunywa
ebyokurabirako
ebyokusoma
ebyokuyimba
ebyokwambala
ebyokwerinda
ebyokya
ebyolekedde
ebyolesezo
ebyolubogwe
ebyolungereza
ebyomunda
ebyongera
ebyonoona
ebyoto
ebyoya
ebyuma
ebyuuma
ec
eca
eccupa
echoes
ecikulu
eckhard
eco
ecohydrology
ecological
ecology
economic
economical
economics
economist
economy
ecoplastile
ecosystem
ecosystems
ecresults
ecweru
ed
edagala
edakiika
edda
eddaala
eddagala
eddagalaeliyitibwa
eddakiika
eddakika
eddako
eddala
eddalu
eddamu
eddamuzi
eddembe
eddene
eddiba
eddiini
eddiiro
eddimiro
edding
eddini
eddirira
eddiza
eddobo
eddoboozi
eddogo
eddongooserezo
edduka
eddukanyizibwa
eddukanyzibwa
edduma
eddundiro
eddungi
eddungu
edduuka
eddwaliro
eddy
edeku
edembe
eden
edene
edeni
edgar
edge
edges
ediini
ediofe
edirne
edited
edith
edition
editor
editorial
edoboozi
edouard
edris
eds
edu
education
educational
edward
edwin
ee
eeas
eec
eed
eese
eesz
eeti
eezia
ef
efaanana
efaananako
efaananyirizaako
efe
effect
effective
effects
effort
efforts
effujjo
effumbe
effumbiro
effutwa
efl
efudde
efuga
efugibwa
efugwa
efujjo
efulumizibwa
efulumya
efumiitiriza
efuna
efunye
efuuka
efuuke
efuula
efuulibwa
efuuse
eg
egaana
egabira
egabizibwamu
egamaamira
egamba
egambibwa
egatta
egattibwako
egattiddwa
egbu
egenda
egendana
egenderera
egenze
egezaako
eggaali
eggabo
eggali
eggama
egganda
eggandaalo
eggazi
eggenyi
eggere
eggereeso
eggi
eggimu
eggiraasi
eggobansonga
eggolokofu
eggombolola
eggonjebwa
eggulire
eggulu
eggumba
eggumira
eggwanga
eggwanvu
eggye
egiba
egibeera
egifulumira
egigenda
egigendagana
egigendana
egigoberera
egijja
egikola
egikolebwa
egikozesebwa
egikulukuta
egikwata
egikwatibwako
egimala
egimu
egimuwangulako
eginnyonnyola
egiragibwa
egiri
egirijja
egirimu
egirina
egisangibwa
egisembyeyo
egisinga
egisoba
egisooka
egisookerwako
egisukka
egisukkulumye
egitali
egitambuza
egitangira
egitasanyawo
egiva
egivaamu
egiwaniridde
egiwera
egiwerako
egiyinza
egiyise
egiyitibwa
egizaala
egizannyibwa
egizimba
egizze
egoberera
egobererea
egolooba
egonza
egula
egulawo
eguzannyira
egwa
egwanga
egwawo
egy
egya
egyaddako
egyaddirira
egyakayita
egyakolebwanga
egyali
egyamasanyalaze
egyasembayo
egyasooka
egyateesebwako
egye
egyekikyala
egyekuusiza
egyenjawulo
egyenkana
egyenkanankana
egyetaagisa
egyo
egyokwegezaamu
egypt
egyptian
eh
ehi
eibirala
eight
eighteen
einstein
either
eiz
ej
ejateekebwawo
ejawulo
ejazzug
ejja
ejjambiya
ejjanjabiddwa
ejjawo
ejjayo
ejje
ejjembe
ejjengerero
ejjengo
ejjiiko
ejjimu
ejjinja
ejjirikiti
ejjobyo
ejjudde
ejjude
ejjula
ejulirwamu
ek
eka
ekalaayi
ekampala
ekamwa
ekasookera
ekasozi
ekawungeezi
ekendeeza
ekenya
ekfuba
eki
ekiba
ekibaawo
ekibabiro
ekibadde
ekibaddewo
ekibala
ekibalangalo
ekibalangulo
ekibalanguzo
ekibalirizo
ekibalo
ekibanduso
ekibangiriza
ekibangirizi
ekibangirizo
ekibanja
ekibaririzo
ekibasobozesa
ekibazabuufu
ekibazamukisa
ekibazisambira
ekibazo
ekibbina
ekibbulwa
ekibeera
ekibeeramu
ekibeerawo
ekibeezaawo
ekibegabega
ekibi
ekibiina
ekibiinja
ekibina
ekibinja
ekibira
ekibiriiti
ekibogwe
ekibonerezo
ekibuga
ekibugaano
ekibuleeta
ekibulimu
ekibulukusi
ekibulungulo
ekibumba
ekibumbe
ekibumbulukuko
ekibuno
ekibunyisa
ekibuuka
ekibuulizi
ekibuuzo
ekibwatukira
ekidaandali
ekidandali
ekidda
ekiddako
ekiddamaaso
ekiddamunda
ekiddannyuma
ekiddawansi
ekiddirira
ekiddugavu
ekidduka
ekiddukano
ekiddukanya
ekiddusa
ekide
ekidomola
ekidongo
ekidukanya
ekifa
ekifaanaganyo
ekifaanana
ekifaananyi
ekifaananyo
ekifananyi
ekiffo
ekifi
ekifirosoofa
ekifo
ekifu
ekifuba
ekifudde
ekifuga
ekifukuuko
ekifulumya
ekifulumyakazambi
ekifulumyalubugumu
ekifumba
ekifumbekerayidologyeni
ekifumbekero
ekifumufumu
ekifuna
ekifundikwa
ekifundiwazo
ekifunza
ekifuuka
ekifuula
ekifuulannenge
ekifuzi
ekigaali
ekigaaniro
ekigabanyo
ekigabibwa
ekigaji
ekigamba
ekigambo
ekigambululo
ekigana
ekiganda
ekigata
ekigatta
ekigazi
ekigelo
ekigenda
ekigendarerwa
ekigenderera
ekigendererwa
ekigendo
ekigennge
ekigerageranya
ekigerageranyo
ekigeranyo
ekigere
ekigereese
ekigereeso
ekigerekere
ekigerere
ekigero
ekigewukano
ekiggumu
ekiggwa
ekiggwayo
ekiggya
ekigiiko
ekigimusa
ekigireetera
ekigivaamu
ekigo
ekigoba
ekigobansonga
ekigobe
ekigobensonga
ekigoberero
ekiguddewo
ekigugubiro
ekigulumiro
ekigulumivu
ekigumu
ekiguyisa
ekigwo
ekiibina
ekiibuga
ekiikirira
ekiiswa
ekijamaica
ekijanjaalo
ekijiggumiza
ekijiiko
ekijimusa
ekijja
ekijjukizo
ekijjulo
ekijjulungayidologyeni
ekijjulungo
ekijjuvu
ekika
ekikaawa
ekikaayi
ekikaba
ekikadde
ekikafuula
ekikalu
ekikamula
ekikamulabiriisa
ekikatuliki
ekikazi
ekikeerezi
ekikeeto
ekikemiko
ekikengo
ekikessi
ekiketto
ekikira
ekikireetera
ekikisikiriza
ekikisitimula
ekikkatiro
ekikkiriibwa
ekikko
ekikoffiira
ekikola
ekikolagana
ekikolako
ekikolebwa
ekikolebwako
ekikoleddwa
ekikoleezo
ekikolera
ekikolimo
ekikolo
ekikoloboze
ekikolwa
ekikomo
ekikondo
ekikono
ekikontana
ekikoola
ekikopo
ekikozesabwongo
ekikozesebwa
ekikuba
ekikube
ekikugiro
ekikugu
ekikula
ekikulabula
ekikulembera
ekikulembero
ekikulemberwa
ekikuli
ekikulira
ekikulu
ekikuluggusattaka
ekikulugguso
ekikulukusakazambi
ekikulukusi
ekikulukuto
ekikulungirivu
ekikulungo
ekikumala
ekikumi
ekikung
ekikungo
ekikungu
ekikunizo
ekikuta
ekikutuko
ekikutuseeko
ekikuubagano
ekikuuma
ekikuumibwa
ekikuumira
ekikuvve
ekikwafu
ekikwakkulizo
ekikwanaganya
ekikwasaganya
ekikwata
ekikwataganya
ekikwataganyo
ekikwatibwako
ekikwekiise
ekikyaamu
ekikyala
ekikyamu
ekikyasinze
ekikye
ekikyusa
ekikyusabuziba
ekikyusabuzibaa
ekikyusabuziizi
ekikyusaganyampewo
ekikyusaganyo
ekikyusatomu
ekilala
ekilamu
ekilime
ekilina
ekilungi
ekiluubirirwa
ekiluyi
ekilwadde
ekimala
ekimannyikiddwa
ekimanyiddwa
ekimanyidwa
ekimanyikiddwa
ekimaze
ekimbeewo
ekimeeza
ekimela
ekimera
ekimerukiro
ekimette
ekimpi
ekimpowooze
ekimu
ekimuli
ekimuliate
ekimyansuko
ekimyufu
ekinaana
ekinaava
ekinafu
ekinaigeria
ekinajja
ekinambirizo
ekinene
ekinenene
ekingereza
ekingi
ekinnamagye
ekinnansi
ekinnassaayansi
ekinnawansi
ekinnya
ekinnyonnyola
ekinnyonnyolo
ekinnyonnyozo
ekino
ekinonoozo
ekinoonyereza
ekintabuli
ekintu
ekinu
ekinusu
ekinwa
ekinya
ekinyaalika
ekinyaga
ekinyigirizo
ekinyonyi
ekinyukuto
ekinywa
ekipangiso
ekipango
ekipapajjo
ekipima
ekipimabwoki
ekipimakanyigirizi
ekipimampeto
ekipimankuba
ekipimiso
ekipimo
ekipomo
ekipooli
ekipuluko
ekipya
ekira
ekirabampewo
ekirabi
ekirabika
ekirabo
ekiraga
ekiragibwa
ekiragiro
ekirala
ekiralala
ekiralankuba
ekirambulula
ekiramu
ekirandiro
ekirawuli
ekire
ekireekana
ekireeta
ekireetawo
ekireetebwa
ekireetera
ekirembewazi
ekirembewazo
ekiremesandwadde
ekiretedde
ekirevu
ekiri
ekiriisa
ekirijja
ekiriko
ekirimba
ekirime
ekirimu
ekirina
ekirindi
ekiringa
ekiripuso
ekirisa
ekiriwo
ekiriza
ekiro
ekiroobe
ekirooma
ekirooto
ekirowoozo
ekirubirirwa
ekirumbiddwa
ekirungi
ekirungo
ekiruubiriro
ekiruubirirwa
ekirwadde
ekirwanirira
ekirwanyi
ekirwaza
ekirwo
ekisa
ekisaaganda
ekisaanidde
ekisaawe
ekisajja
ekisakiddwa
ekisalaganya
ekisalaganyo
ekisambi
ekisangibwa
ekisanja
ekisannyalazo
ekisasulo
ekisawo
ekiseela
ekiseera
ekiseetuko
ekiseetulo
ekisegeddwa
ekisembayo
ekisenge
ekisengeka
ekisengekakalonda
ekisengekansonga
ekisengeko
ekisensera
ekisensero
ekisera
ekiserengeto
ekisibe
ekisigaddewo
ekisiikirize
ekisiisi
ekisiki
ekisikiriza
ekisikirize
ekisinde
ekisinga
ekisingaanibwa
ekisinganibwa
ekisingayo
ekisinze
ekisinziira
ekisinziiro
ekisitimula
ekisittale
ekisittalo
ekisobola
ekisobozesa
ekisobyo
ekisoko
ekisolo
ekisonde
ekisongovu
ekisonjolwa
ekisonjozo
ekisooka
ekisookerwako
ekisooko
ekisosonkole
ekissi
ekisukkulumo
ekisukkulumu
ekisukkulumye
ekisukuma
ekisukumiso
ekisula
ekisulo
ekisumuluzo
ekisusse
ekisuubo
ekiswa
ekitaalaga
ekitaba
ekitabo
ekitabuligano
ekitafaanana
ekitakabanira
ekitalabika
ekitali
ekitaliimu
ekitaliiwo
ekitalina
ekitalo
ekitambaala
ekitambula
ekitambulira
ekitambuza
ekitambuzamusaayi
ekitambuzo
ekitandika
ekitangaala
ekitangala
ekitangalijjo
ekitangattisa
ekitasobola
ekitayimbwa
ekitebe
ekiteeberezo
ekiteeka
ekiteekeddwako
ekiteeso
ekitegabbugumu
ekitegeevu
ekitegeeza
ekitegeeze
ekitegekebwa
ekitegeza
ekitembe
ekitendeka
ekitendero
ekitengejjeso
ekitengejjo
ekitera
ekitereka
ekitereke
ekiterekero
ekiteroyiro
ekiti
ekitibwa
ekitiibwa
ekitiini
ekitiisatiisa
ekitimba
ekito
ekitodenkamaanyi
ekitojji
ekitole
ekitoloovu
ekitomeggero
ekitonde
ekitondeka
ekitondekabirungi
ekitondekamaanyi
ekitondekamazzi
ekitondeke
ekitondekebwawo
ekitondekeso
ekitondeko
ekitondowalo
ekitone
ekitongole
ekitono
ekitonotono
ekitonto
ekitontome
ekitooke
ekitooli
ekittabantu
ekitukuvu
ekituli
ekitundu
ekitundutundu
ekitungotungo
ekituufu
ekituuka
ekituukiriro
ekituukirizo
ekituuti
ekituuza
ekitwala
ekitwalibwa
ekiva
ekivaako
ekivaamu
ekivaatiso
ekivera
ekiviirako
ekiviiriddeko
ekivubuka
ekivuga
ekivuganya
ekivugo
ekivulu
ekivululo
ekivunaanyizibwa
ekivunanyizibwa
ekivve
ekivvulu
ekivvuunula
ekivvuunulwa
ekiwagirwa
ekiwakanirwa
ekiwakanya
ekiwalaata
ekiwaliriza
ekiwandiiko
ekiwanga
ekiwangaaliro
ekiwanvu
ekiwayi
ekiwedde
ekiweereza
ekiweza
ekiwonvu
ekiwoomerera
ekiwoovu
ekiwuggwe
ekiwugirwamu
ekiwujjo
ekiwuka
ekiwummulo
ekiwundu
ekiyamba
ekiyambi
ekiyayaano
ekiyeekera
ekiyingiza
ekiyingo
ekiyinza
ekiyita
ekiyitibwa
ekiyitiridde
ekiyondo
ekiyumba
ekiyungu
ekizaala
ekizaalaggumba
ekizaalibwo
ekizaazi
ekizadde
ekizibu
ekizibuwavu
ekiziiyiza
ekizikiza
ekizimba
ekizimbamubiri
ekizimbe
ekizimbibwa
ekizimbulukuka
ekizimbulukusa
ekizinga
ekizisobozesa
ekizito
ekiziyisa
ekizungirizi
ekizungu
ekizzaŋŋanda
ekizze
ekka
ekkaaki
ekkakkanya
ekkalakalira
ekkalu
ekkamiso
ekkamuso
ekkanisa
ekkanzu
ekkegendo
ekkekwa
ekkibina
ekkirizibwa
ekkobe
ekkolero
ekkomera
ekkomo
ekkoona
ekkooti
ekkubo
ekkula
ekkulu
ekkumi
ekkumineemu
ekkuminoogumu
ekkuminoolumu
ekkuminoomunaana
ekkuumiro
ekkuvve
ekkyeeya
ekkyo
eklezia
ekm
ekola
ekolagana
ekolamu
ekole
ekolebwa
ekoleddwa
ekoleeza
ekolera
ekolero
ekolokotebwa
ekoma
ekomekkereza
ekomo
ekonome
ekontana
ekooko
ekooti
ekosebbwa
ekoze
ekozesa
ekozesebwa
ekteya
ekuba
ekubibwa
ekubiddwa
ekubirizza
ekubisaamu
ekubisibwamu
ekubisiddwamu
ekubwa
ekugamba
ekugira
ekujje
ekula
ekulaakulana
ekulaakulanya
ekuleetera
ekulembedde
ekulemberwa
ekulirwa
ekuluma
ekumi
ekumin
ekuminagumu
ekuminebiri
ekumineebiri
ekuminoogumu
ekunuukiriza
ekusiba
ekusifu
ekusobozesa
ekutegekedwa
ekutte
ekutukamu
ekuuma
ekuumira
ekuusa
ekuusiza
ekuyamba
ekwaata
ekwasaganya
ekwasawaza
ekwata
ekwatagana
ekwataganya
ekwataganye
ekwetaagisa
ekwetoolodde
eky
ekya
ekyaali
ekyaama
ekyaapa
ekyabafuula
ekyabakankanya
ekyabuluzabuziizi
ekyabwe
ekyaddako
ekyaddirira
ekyaddirirra
ekyafulumizibwa
ekyafuuka
ekyagaanya
ekyagala
ekyagenda
ekyagigerekerwa
ekyakamalirizo
ekyakayita
ekyakendeeza
ekyakolebwa
ekyakulemberwamu
ekyaleeta
ekyaleetawo
ekyaleetera
ekyaleka
ekyaletera
ekyali
ekyaliko
ekyalimu
ekyalina
ekyaliwo
ekyalo
ekyama
ekyambalo
ekyamufuula
ekyamuleetera
ekyamuletera
ekyamuviirako
ekyamuvirako
ekyamuwa
ekyamuyamba
ekyanational
ekyangu
ekyanguwa
ekyanguyirizi
ekyanirizi
ekyasa
ekyasalibwawo
ekyasazibwamu
ekyasembayo
ekyasembyeyo
ekyasinga
ekyasinze
ekyasooka
ekyatandikibwawo
ekyateekebwa
ekyateekebwawo
ekyategeereeka
ekyatendekebwa
ekyatugerekerwa
ekyatulugunyanga
ekyatulwa
ekyatuumibwa
ekyava
ekyavaamu
ekyaviirako
ekyaviiramu
ekyavirako
ekyawaggulu
ekyawamu
ekyaweebwako
ekyawukana
ekyawula
ekyayamba
ekyayimba
ekyayise
ekyayita
ekyayitibwa
ekyayiwa
ekyazinnamabeere
ekye
ekyebongolo
ekyebongozo
ekyebulungudde
ekyebulungulo
ekyebulunguludde
ekyeelu
ekyeeru
ekyefaananyirizaako
ekyefaananyirizibwako
ekyefananyirizaako
ekyegattisabuziizi
ekyekebejjebwa
ekyekebejjo
ekyekikoomo
ekyekitema
ekyekusifu
ekyekuusiza
ekyemisana
ekyemmanga
ekyenda
ekyengulu
ekyenkana
ekyenkanankana
ekyenkanyampuyi
ekyenkanyi
ekyennyanja
ekyenyanja
ekyerongooserezo
ekyeru
ekyeso
ekyesudde
ekyetaagibwa
ekyetaagisa
ekyetabwamu
ekyetoloola
ekyetoloolo
ekyetoloovu
ekyetoloozo
ekyetongodde
ekyettunzi
ekyewamala
ekyewolo
ekyewunyisa
ekyewunzifu
ekyewuunyisa
ekyewuunyo
ekyeya
ekyeyonoonero
ekyeyorekera
ekyo
ekyobugagga
ekyobulabe
ekyobuwangwa
ekyogerwako
ekyok
ekyoki
ekyokubiri
ekyokukozesa
ekyokulabilako
ekyokulabirako
ekyokulya
ekyokuna
ekyokusatu
ekyokutaano
ekyokuzaalibwa
ekyomukaaga
ekyomusanvu
ekyongera
ekyongezamasoboza
ekyoto
ekyuka
ekyukakyuka
ekyuma
ekyusa
ekyuse
ekyusibwa
ekyuuma
el
ela
elaga
elakitomagineeti
elastic
elche
eldorado
eleanor
elect
elected
election
elections
electomotiv
electoral
electric
electrical
electricity
electrifying
electromagnetic
electron
electronic
electrons
electrophysiology
electrostatic
element
elementary
elements
elephant
elevate
elevation
eleventh
elgon
eli
elias
eliba
elifuga
elikozesebwa
elikuumibwa
elimination
elina
elinnya
elirina
elisangibwa
eliud
eliyitibwa
elizabeth
elle
ellen
ellipse
elly
elugogo
elusukkawo
elvis
elwelu
ely
elya
elyo
em
emabega
emabegako
emagombe
emaka
emakindye
emala
emalira
emalirira
emannyiddwa
emannyikiddwa
emanyiddwa
emanyikiddwa
emaplirizo
emasaka
ematiza
emaze
emazze
embaata
embaawo
embaga
embagirawo
embala
embalaasi
embalabala
embalabe
embalama
embalanguza
embaliga
embalirira
embalu
embaranguza
embarara
embase
embassy
embavu
embawo
embaza
embazamapeesa
embazisambira
embaziso
embazuulu
embazzi
embeela
embeera
embeerabantu
embellish
embera
embi
embidde
embira
embirabye
embiranye
embiri
embiriizi
embiro
embisi
embizi
embizzi
emboga
embogo
emboleera
embonero
emboozi
embrace
embraced
embryo
embryology
embu
embubi
embuga
embugaano
embugo
embulakalevu
embuto
embuyaga
embuzi
embuzzi
embwa
emeeme
emeeza
emegga
emeka
emenya
emere
emerge
emerges
emerging
emerick
emi
emibalanguzo
emibi
emibiri
emicungwa
emidaali
emiddo
emifaanagavu
emifaliso
emifumbi
emifunza
emifunze
emifunzo
emigaati
emigabo
emigalamiro
emigandawaze
emiganyulo
emigaramiro
emigaso
emigattabantu
emigattiko
emigendaganyo
emigendano
emigendanyo
emigendo
emigerageranyo
emigeranya
emigeranyakikumi
emigereke
emigereko
emigga
emiggo
emiggya
emigigi
emigogo
emigumu
emiipi
emijja
emijoozi
emikadde
emikeeka
emikisa
emikka
emiko
emikolo
emikono
emiksa
emikulu
emikululo
emikumito
emikutu
emikutule
emikwanaganyo
emikwano
emikwataganyo
emikyungwa
emilandila
emilandira
emilembe
emilimu
emilio
emilundi
emily
emimiro
emimpi
emimuli
emimwa
eminafu
eminene
emingi
eminwe
eminya
eminyira
eminyolo
emipango
emipiira
emipya
emiraatira
emirala
emiramnwa
emiramnwal
emiramwa
emirandila
emirandira
emirates
emirembe
emirere
emiri
emirimo
emirimu
emiriraano
emiruka
emirundi
emirungi
emisaala
emisambwa
emisana
emisango
emisangu
emisangwa
emisanvu
emisengeke
emisengeko
emisiimba
emisimba
emisimbalaala
emisinde
emisinga
emisingi
emisittale
emisolo
emisomo
emisono
emisoso
emisota
emission
emisu
emisumaali
emisuwa
emit
emitala
emitendera
emiti
emitima
emitindo
emito
emitongole
emitonnyeze
emitono
emitonotono
emitonyeze
emitti
emituba
emituufu
emitwalo
emitwe
emiundi
emivuyo
emiwanvu
emiwendo
emiwuula
emiyembe
emiyingizo
emiyitiro
emizannyo
emizanyo
emize
emizigo
emizimu
emizingo
emiziziko
emizizo
emma
emmale
emmamba
emmanduso
emmanuel
emmeeme
emmeeri
emmeeza
emmele
emmere
emmese
emminnyo
emmmere
emmotoka
emmuli
emmundu
emmunyeenye
emmunyenye
emmwaanyi
emmwanyi
emmyufu
emmyukirivu
emmyuufu
emorimori
emotion
emotional
emotions
emotoka
emp
empaanyi
empagi
empaka
empakiso
empale
empaliririzo
empalirirzo
empaliriza
empalirizo
empalirzo
empande
empandiika
empanga
empangaazi
empangi
empanguzi
empanguzu
empanvu
empanyisabifo
empapula
empapulaze
emparirizo
empathy
empawa
empeekera
empeera
empeerere
empeerezi
empeewo
empeke
empenda
empeo
emperor
empetero
empeto
empewo
empiiga
empiira
empiisa
empiki
empima
empimo
empindi
empire
empirical
empisa
empisi
empiso
empitambi
empitirivu
emplogoma
employment
empola
empolampola
empologoma
empowerment
empty
empugiso
empujjo
empulira
empuliziganya
empumbu
empumumpu
empunda
emputtu
emputu
empuyi
empuyikumi
empuyinnya
empya
emtricitabine
emu
emufumbi
emukono
emukyankalanyizza
emulate
emundu
emunyeenye
emunyenye
emunyigiriza
emwanyi
emwenkutule
emwetaaze
emya
emyaaka
emyaka
emyala
emyaliiro
emyaliriro
emyangu
emyeezi
emyekebejjo
emyeso
emyeyoreko
emyezi
emyoyo
emyufu
emyuufu
en
ena
enables
enajwulo
enakku
enaku
enamba
enambulukufu
enambuluzo
encounter
encrypts
encyclopaedia
encyclopedia
end
enda
endaba
endabika
endabiko
endabilira
endabirila
endabirira
endabirwamu
endaga
endagaano
endagabigambo
endagabiragiro
endagabungi
endagabusangiro
endagabutonde
endagabuzaale
endagabuzimbe
endagabwolekero
endagakifo
endagakintu
endagala
endagaludda
endagamuntu
endagamutindo
endagamuwendo
endaggu
endagiriro
endala
endali
endazi
enddwadde
endegeya
endeku
enderema
endergonic
endiga
endigyito
endiirwa
endiisa
endingidi
endira
endirwa
endo
endocrine
endocrinology
endogoyi
endokwa
endongo
endoongo
endopulaazi
endowment
endowooza
ends
endu
enduli
enduulu
endwaade
endwadde
endya
endyambi
endyennungi
eneetaba
enemy
enene
energy
eneyisa
enfaanana
enfikkizo
enfikko
enfissi
enforcement
enfudu
enfuga
enfulumya
enfumba
enfumbe
enfuna
enfunda
enfundiwazo
enfunzo
enfuufu
enfuumo
enfuvirtide
enfuzi
eng
engaambo
engaano
engabi
engabiso
engabo
engabula
engafr
engage
engagement
engagga
engalabi
engalamivu
engalo
engambo
enganda
engato
engatoye
engattiso
engatto
engaziko
enge
engege
engeli
engenda
engendo
engere
engerekera
engerekere
engeri
engerikuva
engero
engeye
engezeso
engine
engineer
engineered
engineering
engineers
engines
engiri
engl
england
english
engo
engoberezi
engogo
engola
engolo
engolokofu
engoma
engonge
engoye
engozo
engraving
engudo
engugubila
engule
engulehttps
engulu
engumu
enguudo
enguzi
engwiira
engwira
enhancing
eniimu
enika
enimiro
enjaga
enjala
enjatika
enjatula
enjatuza
enjavu
enjawukana
enjawul
enjawulo
enjawuzo
enjazi
enjeru
enjigiriza
enjiri
enjobe
enjogera
enjogerezeganya
enjogeza
enjogezamubiri
enjoka
enjola
enjovu
enjoy
enju
enjuba
enjuki
enjulu
enjuyi
enjuyinnya
enjuziso
enkaaga
enkaalamufu
enkaayana
enkadde
enkaka
enkakaso
enkalakkalira
enkalala
enkalu
enkalubo
enkambi
enkanankana
enkanankanana
enkanya
enkayana
enkazi
enkeera
enkejje
enketteso
enki
enkiiko
enkiise
enkima
enkintu
enkinu
enkizi
enkizo
enkokko
enkoko
enkokoto
enkola
enkolagana
enkolo
enkoloboze
enkoloddoli
enkomage
enkomera
enkomeredde
enkomerero
enkondo
enkoolimbo
enkoona
enkota
enkovu
enkozea
enkozesa
enkozeso
enkozi
enku
enkuba
enkubisa
enkubise
enkubiso
enkukakyuka
enkula
enkulaakulana
enkulaakulanya
enkulakula
enkulakulaakulana
enkulakulana
enkulakulna
enkulu
enkulukuku
enkulukusi
enkulungo
enkuluze
enkumbi
enkumi
enkumu
enkung
enkungaana
enkunu
enkusiko
enkuso
enkusu
enkutule
enkutulemu
enkuuli
enkuuma
enkuumakifo
enkuumi
enkuyanja
enkuyege
enkuyo
enkuza
enkwa
enkwaaso
enkwafu
enkwajjirira
enkwanaganya
enkwanso
enkwasi
enkwaso
enkwasowazo
enkwata
enkwatagana
enkwe
enkya
enkyaamu
enkyamu
enkyankalamu
enkyuka
enkyukakyuk
enkyukakyuka
enkyukakyuuka
enkyukwe
enkyukyuka
enkyusa
enkyusabuziba
enkyusibwo
enkyuso
enkyuukakyuuka
enkyuuso
enna
ennabuzaale
ennabuzimbe
ennafu
ennakkati
ennaku
ennamba
ennambiso
ennambulukufu
ennambuluzo
ennamu
ennanansi
ennanda
ennandiko
ennanga
ennansi
enneeyisa
ennekulungirivu
ennema
ennemu
ennene
ennengeza
ennesimbu
ennetoloola
ennetoloovu
enneyisa
enniimu
ennima
ennimi
ennimilo
ennimiro
ennkulakulana
ennkulakulanna
enno
ennogoosereza
ennongoosereza
ennono
ennonyezebwa
ennukuta
ennume
ennunda
ennungamu
ennungi
enny
ennya
ennyaanya
ennyama
ennyambala
ennyana
ennyangu
ennyanguyirizi
ennyanja
ennyanjula
ennyanya
ennyiba
ennyiike
ennyima
ennyimba
ennyimbe
ennyimpawazo
ennyimpi
ennyindo
ennyingi
ennyingiza
ennyingizo
ennyingo
ennyini
ennyinnyonnyola
ennyinyonnyola
ennyiriri
ennyo
ennyogoga
ennyondo
ennyongereza
ennyonnyi
ennyonnyola
ennyonnyolwa
ennyonta
ennyonyi
ennyonyolwa
ennyukuta
ennyuma
ennyumba
ennyunyunsi
ennyweevu
ennywevu
eno
enock
enonderere
enongosereza
enono
enough
enrolls
ens
ensa
ensaalu
ensaalwa
ensaano
ensaasaana
ensaasaanya
ensajja
ensala
ensalo
ensalosalo
ensambaggere
ensangi
ensanjabavu
ensansa
ensansi
ensanve
ensanvu
ensasaana
ensasanya
ensasi
ensasula
ensawo
ensaziso
enseenene
enseera
ensega
ensegekera
enseke
ensekkati
ensemble
ensenekerevu
ensengeka
ensengeke
ensengekela
ensengekera
ensenke
ensenserwo
ensero
ensi
ensibiriro
ensibo
ensibuko
ensibukula
ensibukuva
ensigo
ensiimba
ensiimbi
ensiisira
ensika
ensikirano
ensikiriziso
ensikirizo
ensikiso
ensikizo
ensiko
ensikrizo
ensilifu
ensimba
ensimbi
ensimbu
ensindiikirizo
ensindikagano
ensindikano
ensindikirizo
ensinga
ensingi
ensingo
ensinza
ensiri
ensirifu
ensiringanyi
ensirisowazo
ensisi
ensittalo
ensittavu
ensitula
ensobi
ensoboza
ensobozeso
ensoga
ensogasoga
ensoggo
ensolo
ensoma
ensomesa
ensonda
ensonga
ensonjola
ensonzi
ensooko
ensozi
ensugga
ensujju
ensukkulumu
ensuku
ensukulumu
ensukuma
ensulike
ensulo
ensumbi
ensure
ensusso
ensusu
ensusuuba
ensuubo
ensuusuuba
ensuwa
enswa
enswera
ent
enta
entaambi
entaana
entaanya
entaba
entababibinja
entababimera
entababiramu
entababulamu
entababutonde
entababuvo
entababuvobwawamu
entababuvobwawamumubantu
entabaganya
entabaganyabantu
entabaganyabuwangwa
entabaganyi
entabaganyo
entabamawanga
entabamazinga
entabamazzi
entabampewo
entabamuliro
entabiro
entabwe
entagenda
entakoma
entakyuka
entakyuuka
entalaganya
entalaggo
entalo
entamanyika
entambi
entambula
entambuza
entamu
entanda
entandikwa
entangawuzi
entaseesa
entataaganya
ente
entebbe
entebbepost
entebe
entebenta
entebentuka
enteekateeka
enteeketeeke
enteeseganya
entegeera
entegeka
entegere
entekateeka
entekateka
entema
entengejjeso
entengo
entereka
enterprise
enterprises
entertainment
entesaganya
enteseganya
entiisa
entikko
entiko
entiniko
entire
entirety
entity
ento
entobazi
entobazzi
entobo
entodeka
entogooli
entolonta
entolontoka
entoloovu
entomeggana
entomeggano
entomology
entondeka
entondo
entongole
entongooli
entono
entonotono
entooketooke
entrepreneurs
entrepreneurship
entry
entuga
entula
entulege
entunduwavu
entunduwaze
entungo
entunnunsi
entuntunu
entuufu
entuukirivu
entuuko
entuula
entuumo
entuuyo
enungi
enungu
enuuni
enva
envannyuma
envelope
enviiri
enviri
environment
environmental
envubu
envuga
envumbo
envunza
enyaanya
enyana
enyanirizi
enyanja
enyanjula
enyigiriza
enyimba
enyimpi
enyindo
enyingi
enyingo
enyirili
enyo
enyongereza
enyonyi
enyukuta
enyumba
enz
enzaalilanwa
enzaaliranwa
enzaalwa
enzaazi
enzalwa
enzannya
enzayimu
enzibu
enzibuwavu
enziga
enzigi
enzigumivu
enzijanjaba
enziji
enzijjanjaba
enzijuvu
enzikiriza
enzikiza
enziku
enzilingana
enzimba
enzimbulukusa
enzinjajaba
enziring
enziringana
enziringanya
enziro
enzirugavu
enzirukanya
enzisaamu
enzito
enzitoya
enzitoyo
enzizi
enzizzi
enzungu
enzyme
enzymes
enzymology
eoitaqaaiaaj
ep
epeto
ephraim
epidemiology
epimibwa
epistemology
epl
eponyms
eppaapaali
eppetero
eppeto
eppya
epynom
equal
equality
equalizer
equals
equation
equations
equator
equatoria
equatorial
equity
equivalent
equus
er
era
erabibwako
erabika
erabikira
eraga
eragibwa
erakitomagineeti
erakitooni
erambululwa
eranga
eratekinologiya
erbil
ere
erectronics
eredivisie
ereeta
ereetawo
ereetebwa
ereetebwawo
ereetedde
ereetera
erementi
eremereddwa
erera
eri
erias
eriba
eribalirirwamu
eribuuza
eric
eriddirira
eriddugavu
erifuga
erigamba
erigema
erigenda
erigereesa
erigoba
eriibwa
eriinya
eriiriddwa
eriiso
erijjanjaba
erijjuvu
eriko
erikola
erikolebwako
erikozesebwa
erikuuma
erikwata
erilwanyisa
erimanyiddwa
erimu
erimyufu
erina
erinayo
eringa
erinnya
erinoonyereza
erinya
eripuso
eriraanye
erireeta
eriri
eririko
eririmu
eririna
eririwo
eriruubirira
erirwanyisa
erisaanidde
erisangibwa
erisembayo
erisengeka
erisinga
erisingaanibwa
erisingayo
erisobola
erisoma
erisooka
erisukkulumye
eritali
eritaliimu
eritamanyiddwa
eritangira
eritasukka
eritera
eritonnyezebwa
eritrea
eritta
eritunda
eriva
erivumula
eriwagala
eriwangaala
eriwedde
eriweebwa
eriwera
eriweweeza
eriweweza
eriweza
eriwo
eriyamba
eriyingira
eriyinza
eriyitibwa
eriyo
ernest
eron
eroopera
erosion
errors
errupt
eru
erudda
erumba
eruubirira
erwanda
erwanyisa
ery
erya
eryagyawo
eryali
eryalikulukuse
eryanyi
eryasooka
eryato
eryawaggulu
eryayitiddwamu
erycom
eryesimbu
eryetaagibwa
eryetaagisa
eryetoloovu
eryetongodde
eryetongola
eryetongovu
eryetoolodde
eryewole
eryeyambisibwa
eryeyongera
eryo
eryoke
eryokubiri
es
esaana
esaanawo
esaanidde
esaanye
esaati
esaawa
esaba
esajjakule
esala
esamba
esanga
esangibwa
esanidde
esanjabavu
esatu
esaza
esd
ese
esefuliya
esemba
esembayo
esengeka
eseza
esi
esibuka
esiga
esigaddewo
esigala
esigaza
esika
esikira
esikiriza
esimba
esimbawo
esimbibwa
esimbiddwa
esimbira
esimbwe
esimibwa
esinagyo
esindika
esindikibwa
esinga
esingaanibwa
esingako
esingamu
esingayo
esinze
esinziira
esinzira
esira
esisinkana
esitula
esoboka
esobola
esobole
esobozesa
esomabyana
esomanjazi
esombi
esomero
esomesa
esomwa
esonga
esonjola
esonjolwa
esooka
esookerwako
esowaani
esowani
espanyol
especially
espn
espnfc
esportiva
essa
essaabiro
essaala
essaawa
essabo
essamaliga
essamba
essande
essanja
essanyu
essasi
essatu
essay
essaza
essefuliya
essengekakalonda
essente
essential
essiga
essiita
essikirizo
essikrizo
essimu
essinzizo
essira
essoamkalondaw
essobbakitiriya
essoma
essomabamuntunsolo
essomabedda
essomabeerazeddeeenyo
essomabibala
essomabibuuka
essomabibuuzo
essomabidduka
essomabigemiso
essomabigoberero
essomabikankanyanjuba
essomabikemuluzi
essomabikolebwabusimu
essomabiku
essomabikuubagano
essomabikuyege
essomabimera
essomabinnwa
essomabinnyo
essomabinyonyi
essomabinyunyunsi
essomabinyunyunynsi
essomabipimo
essomabipuluko
essomabiragala
essomabiramazzi
essomabiramu
essomabire
essomabirime
essomabirowoozo
essomabirungi
essomabirwadde
essomabisanjabavu
essomabiseera
essomabisigalira
essomabisigaliramunbyazi
essomabisigalirebyeddennyo
essomabisolo
essomabisonjozo
essomabisonko
essomabisorebyeddennyo
essomabiswera
essomabitendero
essomabiti
essomabitundubya
essomabiwojjolo
essomabiwuka
essomabiwundu
essomabiyanzi
essomabubonero
essomabudde
essomabufungi
essomabujjanjabi
essomabujjanjabikazi
essomabukadde
essomabukwataganu
essomabulamu
essomabulamubugwira
essomabulamubwaddannyo
essomabulimiro
essomabulwadde
essomabumereddennyo
essomabupempewo
essomabusangiro
essomabusango
essomabusannyalavu
essomabusawo
essomabusimu
essomabusirikitu
essomabusirikituo
essomabusomesa
essomabutaffaali
essomabutima
essomabutonde
essomabutonzi
essomabutwa
essomabuufubwadda
essomabuwanga
essomabuwangaaliro
essomabuyambi
essomabuyinja
essomabuzaale
essomabuziba
essomabuziffaali
essomabuziizi
essomabuzimba
essomabuzimbe
essomabwansolo
essomabwengula
essomabyabbuto
essomabyabufuzi
essomabyankatika
essomabyazibyasenge
essomabyazira
essomabyeddennyo
essomabyengula
essomabyennyanja
essomaddagala
essomaddagalalyandwaddezabwongo
essomaddozi
essomagayany
essomagazira
essomakalonda
essomakapa
essomakibumba
essomakifulumyakazambi
essomakifuukuuko
essomakijjanjabisabimera
essomakikirwanyisandwadde
essomakikulukusakazambi
essomakikuubareza
essomakisajjalaato
essomakisiriso
essomakitambuzatuntu
essomakitamuuluzo
essomakitangamiko
essomakitondekabikole
essomakitondekabirungi
essomakiwakufu
essomakizaalibwo
essomakizaalisa
essomakkulukuta
essomakookolo
essomakubaawo
essomakubala
essomakulongoosa
essomakumanya
essomakwoki
essomakyekebejjampuku
essomaliga
essomalira
essomalubbira
essomalubugumu
essomalufumpewo
essomalunyunyunsi
essomaluyengo
essomaluyonsa
essomamaaso
essomamabujjenyi
essomamagi
essomamagombegansi
essomamagumba
essomamakulu
essomamalagala
essomamaloboozi
essomamatu
essomamatumiro
essomamatunnyiro
essomamawanga
essomamazzi
essomamazzimumagombe
essomambeera
essomambwa
essomamiddo
essomamifumbi
essomamigendogyakitangaala
essomaminero
essomamisango
essomamitenderagyandwadde
essomampandiika
essomampetosatu
essomampetossatu
essomampima
essomampimo
essomampisa
essomampuyisatu
essomampuyissatu
essomamusaayi
essomamusisiwazansi
essomamwezi
essomamyakagyansi
essomanabbubi
essomanampewo
essomandogoyi
essomandwadde
essomandwaddezabinwa
essomandwali
essomandya
essomanjatula
essomanjazi
essomanjuba
essomanjuki
essomankatoni
essomankula
essomankulazanzi
essomankulunjuba
essomankusa
essomankwataganyabusirikitu
essomannampewo
essomannimi
essomannyanguyirizi
essomansengeka
essomansi
essomansibikondwa
essomansibukobira
essomansibukoyandwadde
essomansiggo
essomansolo
essomansolomuntu
essomansonamuntu
essomansonga
essomansozi
essomansu
essomanswa
essomantabaganyi
essomanyindo
essomapuyisatu
essomasekaloopera
essomasitukamunviiri
essomatempuwa
essomattakalikuza
essomatti
essomatulo
essomavayiraasi
essomazzimalungi
essomenzayimu
essomero
essomesezo
essomeso
essomo
essomyamiti
essongovu
essowaani
esssomangeri
essubi
essukkiridde
essununa
essuubi
essuula
est
establish
esteem
esther
esthetics
estimate
estimation
estonia
esukkulumye
esukuma
esula
esuliridde
esuubi
esuubiza
et
etaaga
etaagisa
etaaka
etaali
etaano
etaba
etaddewo
etagisa
etalabika
etali
etaliiko
etaliimu
etalina
etambula
etambulira
etambuza
etambuzibwa
etandiika
etandika
etandise
etani
etano
etaputa
etasobola
etasuubirwa
etategeerekeka
etc
eteddirira
eteeba
eteeberezebwa
eteeka
eteekawo
eteekebwa
eteekebwawo
eteekeddwa
eteekeddwako
eteekwa
eteereddwawo
etega
etegeerekeka
etegeeza
etegekebwa
etegekeddwa
etelekero
etema
etendekero
etengejja
etera
eterambulula
etereka
eteri
eternal
ethics
ethiopia
ethiopian
ethnic
ethology
eti
etidde
etiisa
etolodde
etondekawo
etondekebwawo
etondowala
etongodde
etonnya
etonnye
etooke
ettaala
ettaano
ettabi
ettaka
ettakka
ettala
ettale
ettalo
ettamiiro
ettamiro
ettano
ettb
etteeka
etteka
ettendekero
etterekero
ettima
ettoffaali
ettoloovu
ettondo
ettono
ettonotono
ettooke
ettu
ettuluba
ettundutundu
ettunka
ettunzi
ettuttumu
ettutumu
ettwaatwa
ettwale
etudde
etulaga
etulika
etunda
etundubaali
etunudde
etutumu
etuuka
etuukibwako
etuuse
etuuza
etuwa
etwala
etwalibwa
etwalibweyo
etwaliramu
etya
etymological
etymologically
etymologies
etymologisation
etymology
etyo
eu
eugene
eukaryotes
eulogized
eunice
eur
euro
europa
europe
european
eva
evaako
evaamu
evalina
evaluate
evaluation
evans
evaporate
evaporation
evelyn
even
event
eventcode
eventid
events
ever
evergreen
everton
every
everyone
everything
everywhere
eviction
eviira
eviirako
eviivi
evolution
evudde
evuddeko
evuddewo
evuganya
evunanyizibwa
evunanyizjbwa
evviivi
evvu
ew
ewa
ewaabwe
ewabwe
ewaffe
ewagirwa
ewaka
ewakuumirwa
ewala
ewalala
ewali
ewaliririza
ewaliriza
ewamu
ewandiika
ewandiikibwa
ewandiikiddwa
ewanga
ewangula
ewangulwa
ewaniridde
ewanirira
ewankubadde
ewantu
ewatali
ewedde
eweererwa
eweereza
eweniyi
ewerako
ewereza
eweza
ewulirizibwa
ewumudwaamu
ewuttula
ewuwe
ex
examination
examinations
example
examples
exams
excelsior
exchange
excited
exclusive
excretion
executed
executive
exercise
exhibiting
exhibition
exile
existence
existing
exobiology
exodus
exogeology
exoskeleton
expands
expansion
expected
experience
experiences
experimental
experimentation
expert
expertise
experts
explain
explained
explains
exploitation
explosions
expo
exponent
exponentiation
exponents
exporting
exposed
exposes
exposure
express
expression
expro
extend
extended
extension
external
extra
extraction
ey
eya
eyaa
eyaabwe
eyababinywera
eyabanga
eyabawa
eyabigerekera
eyabulijjo
eyacaaka
eyadda
eyaddako
eyadde
eyaddirira
eyadira
eyafa
eyaffe
eyafuga
eyafulumizibwa
eyafulumya
eyafumbirwa
eyafuna
eyafunira
eyafuuka
eyafuulibwa
eyagaana
eyagala
eyagamba
eyagenda
eyaggulawo
eyaggyibwa
eyagibwayo
eyajja
eyaka
eyakazibwako
eyakiwangula
eyakola
eyakolako
eyakolebwa
eyakozesebwa
eyakuba
eyakulemberamu
eyakulira
eyakwata
eyakwatibwa
eyakyazizza
eyakyusa
eyalaga
eyalagibwanga
eyaleeta
eyaleetebwa
eyali
eyaliko
eyalimu
eyalina
eyaliwo
eyalondebwa
eyamala
eyamalira
eyamalongo
eyamanyikibwa
eyamatenkane
eyamba
eyambako
eyambisibwa
eyambuka
eyamu
eyamukuumira
eyamuli
eyamutwala
eyamuweebwa
eyannamaddala
eyasattulukuka
eyasembayo
eyasinga
eyasomolwa
eyasooka
eyasookera
eyatandika
eyatandikawo
eyatandikibwawo
eyateebwa
eyateekebwawo
eyategekebwa
eyatonda
eyattibwa
eyatulwa
eyatuuka
eyatuumibwa
eyava
eyavaako
eyaviirako
eyavuganya
eyavumbula
eyawaggulu
eyawagulu
eyawakanya
eyawakati
eyawamba
eyawamu
eyawangula
eyaweebwa
eyaweereza
eyaweerezaako
eyawukana
eyawulwamu
eyawummula
eyawumula
eyayimba
eyayitibwa
eyayogerwako
eyazaalibwa
eyazalibwa
eyazannya
eyazannyibwa
eyazannyira
eye
eyebulungudde
eyebuuzibwako
eyedda
eyeddira
eyeebuuzibwako
eyeekuusa
eyeekyama
eyeemulugunya
eyeetaba
eyeewuunyisa
eyefumiitiriza
eyefumiitririza
eyegatta
eyekkumi
eyekyenkanyi
eyemalirira
eyembagirawo
eyenkana
eyenkanankana
eyennyise
eyes
eyesebwa
eyesigamye
eyesuuba
eyetaaga
eyetaagibwa
eyetaagisa
eyetabamu
eyetolooza
eyetongodde
eyewaggula
eyeweseemu
eyeyolekera
eyeyongerayo
eyimiridde
eyimiriddewo
eyimirizzaawo
eyingira
eyingiriddwa
eyingiza
eyinza
eyisa
eyita
eyitamu
eyitibwa
eyitibwamu
eyitiridde
eyiye
eyiyo
eyo
eyogeddwako
eyogera
eyogerwako
eyokubiri
eyokulegako
eyokuluka
eyokusatu
eyokutaano
eyokuwunyiriza
eyokya
eyomugerageranyo
eyomulembe
eyomwezi
eyongera
eyonooneddwa
eyookubiri
eyookuna
eyookusatu
eyoolukale
eyoomukaaga
eyoomunaana
eyoomwenda
eyptian
ez
eza
ezaafulumizibwa
ezaakamalirizo
ezaakolebwa
ezaakula
ezaakulaakulana
ezaakulungula
ezaakwatayo
ezaala
ezaali
ezaaliko
ezaaliwo
ezaaliyo
ezaasinga
ezaasooka
ezaasookawo
ezaategekebwa
ezaava
ezabulijjo
ezaddirira
ezakiragala
ezaleetawo
ezali
ezamagi
ezamata
ezanguwa
ezannya
ezannye
ezannyira
ezasinga
ezasooka
ezawulayawula
ezeekuusa
ezeemala
ezeemirembe
ezeesebwa
ezeetaaga
ezeetabwamu
ezeeyongerayo
ezeka
ezekeeri
ezekiel
ezekigero
ezenjawulo
ezenkanankana
ezennyama
ezenyongeza
ezerambulula
ezetaaga
ezetaagisa
ezetabwamu
ezetoloola
ezetoloolera
ezeyambisibwa
ezeyawudde
eziba
ezibaddewo
ezibala
ezibalibwa
ezibbulwa
ezibeera
ezibeerawo
ezibika
ezibulimu
ezibusaasaanya
ezibuuza
ezicaase
eziddako
eziddiringana
eziddirira
ezidiringana
ezifa
ezifaanagana
ezifudde
ezifuga
ezifulumya
ezigambibwa
ezigenda
ezigendagana
ezigendaggana
ezigendana
ezigendera
eziggumiza
ezigwa
eziiyiza
ezijja
ezijjawo
ezijjuza
ezikakasiddwa
ezikamibwa
ezikekkereza
ezikiikirira
ezikkiririza
ezikola
ezikolebwa
ezikomekereza
ezikozesebwa
ezikubwa
ezikulaakulanye
ezikulembeddwamu
ezikutte
ezikuumira
ezikwasiwaziddwa
ezikwata
ezikwatagana
ezikwataganye
ezikwatibwako
ezikyakula
ezikyasinze
ezikyetaaga
ezikyukana
ezileeta
ezili
ezimala
ezimanyiddwa
ezimanyikiddwa
ezimaze
ezimba
ezimbulukusa
ezimerenguka
ezimerengukira
ezimu
ezinaasinga
ezingako
ezingiramu
ezinnyonnyola
ezirabika
eziraga
eziragibwa
ezireetebwa
ezireetera
ezirekayo
eziri
eziriko
ezirimu
ezirina
eziriwo
eziruka
eziruma
ezirundibwa
ezirwanyisa
ezirya
ezisaana
ezisalagana
ezisangibwa
ezisembayo
ezisibuka
ezisigadde
ezisikira
ezisinga
ezisingawo
ezisingayo
ezisinza
ezisinze
ezisoba
ezisobola
ezisobozesa
ezisooka
ezisookerwako
ezissukka
ezisukka
ezitafaanagana
ezitakwatagana
ezitalabika
ezitali
ezitaliiko
ezitalina
ezitamanyiddwa
ezitambula
ezitambulira
ezitambuza
ezitangira
ezitasobola
ezitasukka
ezitazzibwawo
eziteemala
eziteetaagibwamu
ezitega
ezitegekebwa
ezitemebwa
ezitera
eziterambulula
ezitondekebwawo
ezitoneddwa
ezitowa
ezitoya
ezitta
ezittibwa
ezitunuuliganye
ezityoboola
eziva
ezivaamu
eziviira
eziviirako
eziwaliriza
eziwangaalira
eziwera
eziwerako
eziyimbibwa
eziyingiza
eziyinza
eziyitibwa
ezizaala
ezizannyibwa
ezizannyira
ezize
ezizimba
ezizo
ezizze
ezo
ezookukolebwako
ezra
ezza
ezzadde
ezze
ezzingulukufu
ezzooba
ezzungu
eŋŋanda
eŋŋendo
eŋŋoma
f
fa
faamu
faber
face
facebook
faced
faces
facilitation
facilities
facing
fact
factbook
factor
factoring
factorization
factors
factory
facts
faculties
faculty
fahad
fahrenheit
failed
failing
failure
fair
faith
fakalita
fakikya
falenayiti
fall
fallen
falling
falls
false
fame
fameica
famers
famile
familiar
families
family
famire
famous
fan
fans
fantastic
fantasy
fanya
fao
far
farah
farenayiti
faridah
farm
farmer
farmers
farming
farms
farouk
farthest
fashion
faso
fast
fat
father
fathers
fats
fattest
faults
fauna
faut
favorite
fayinolo
fc
fd
fdc
fe
fear
fearless
feat
feature
featured
features
featuring
feb
febi
february
febwali
febwoki
federal
federation
fee
feed
feeds
feel
feeling
feels
feer
feesi
feesinnyingi
feet
feeza
feezah
felinology
felix
fell
fellow
fellows
fellowship
felsic
female
feminist
femrite
femriteug
fence
ferdinand
fermentation
fermented
fernando
ferri
ferrum
fertilization
festival
festo
fetology
feud
fever
few
feyenoord
ff
ffaamu
ffamire
ffayinolo
ffe
ffeeza
ffena
ffene
ffenna
ffirimu
ffumbiro
ffuna
ffuuti
fgm
fi
fiancee
fibre
fibres
fiction
ficus
fid
fide
field
fields
fifa
fifpro
fight
fighters
fighting
figure
figures
fik
file
fileid
files
filimu
filings
fill
fille
film
filmmaker
filmography
films
final
finalists
finally
finals
finance
financial
financing
find
finds
fine
finger
finilandi
finish
finished
finite
finland
finlandi
finnish
fiona
fire
firewood
firimu
firosofa
firosoofa
first
firsts
fish
fishing
fission
fit
fitbastats
five
fives
fixation
fixed
fixing
fiya
fiyeta
fizikisi
fk
flabellifer
flag
flagellates
flamengo
flash
flashback
flashugnews
flat
flatulence
flavia
flaviatumusiime
fleeing
flees
flesh
flex
flexdpaper
flexible
flickr
flight
floods
floor
floored
flora
florence
florida
flow
flower
flowering
fluconazole
flue
fluid
fluids
fluorescent
fluorine
fly
flying
fm
fo
focus
foe
fold
folic
folk
follow
followed
following
follows
fomyula
fonte
fontsize
food
foods
foomu
foot
football
footballafrica
footballer
for
forbes
forc
force
forces
forcetoc
fore
foreign
forest
forestry
forests
forever
forgiveness
form
format
formation
formed
former
formicology
forming
forms
formula
fort
forth
fortunate
forum
forward
fosiferaasi
fossil
fotboll
fotbollsbladet
found
foundation
founder
fountain
four
fourth
fr
fraction
fractional
fractions
fragments
framework
franc
france
frances
francis
francisca
francistown
franco
frank
frankfurt
fraser
fray
fred
freddie
frederick
frederikssund
fredrick
free
freedom
french
frequency
fresh
freshwater
freund
fri
friction
frida
friday
fridays
friendly
friends
friendship
frisky
from
fromplace
front
fruit
ft
fu
fuba
fubitizi
fudbal
fuel
fuels
fufa
fuga
fujjo
fukirira
fulakitosi
fulcram
fulcrum
fulham
full
fullpage
fuloliini
fumba
fumbira
fumbiramu
fumbiro
fumbo
fumigator
fun
funa
function
functions
fund
fundamental
fundamentalism
fundamentalist
funds
funeral
fungalcil
fungi
fungus
furniture
further
furthermore
fury
fuse
fusion
futaa
futi
future
fuuka
fuuti
fw
fwa
fyens
fælled
g
ga
gaabwe
gaabyo
gaagamba
gaagenda
gaagusalira
gaagwo
gaagyo
gaakolanga
gaakyo
gaali
gaalubindi
gaalumba
gaalwanagana
gaana
gaasi
gaasoliini
gaateekebwa
gaaya
gaayingira
gaayingrawo
gaayo
gaazo
gaba
gabaamu
gabadde
gabaddewo
gabaga
gabagibwa
gabeera
gabiza
gabizaamu
gabon
gaborone
gabriel
gabuguma
gabugumye
gabula
gabuwa
gabuzaabuza
gabwe
gabwo
gabyo
gadda
gaddafi
gaddamu
gaetano
gaffa
gaffe
gafuga
gafulumizibwa
gafuna
gafuuka
gafuulibwa
gafuuse
gag
gagamel
gagenda
gagenderela
gagendererwa
gaggadde
gaggo
gagwa
gagya
gaia
gained
gaining
gais
gajja
gajjira
gakekkereza
gakola
gakolebwa
gakoma
gakoppa
gakosebwa
gakozesa
gakozesebwa
gakulukuta
gakungaanidde
gakuuma
gakuwebwa
gakuweebwa
gakyo
gakyuka
gakyusa
gakyusibwa
gal
galabika
galaga
galagi
galagira
galaxies
galaxy
galaxyfm
galeetera
gali
galilee
galileo
galimu
galina
gallery
galschiot
galschiøt
galuwoko
galya
gama
gamala
gamaze
gamba
game
games
gamma
gamu
gamutui
gamuwa
gana
ganda
gange
ganja
gannaago
gano
gap
gapimibwa
garang
garden
gardens
gas
gasalawo
gasanga
gasangibwa
gaseous
gases
gasibuka
gasigala
gasigalira
gasinga
gasinziira
gasobola
gasobozesa
gasoliini
gasomesebwanga
gastrology
gasumbibwa
gatambula
gatambulira
gatambuza
gatandika
gatandise
gateekebwa
gatera
gaterekebwa
gatimo
gatonnya
gatonya
gatta
gattako
gattamu
gatuuka
gatuuse
gatuwa
gatya
gauge
gava
gavaamu
gavana
gave
gavi
gavumeenti
gavumenti
gawa
gaweebwa
gawukana
gay
gayamba
gayambibwako
gayaza
gayingira
gayingiza
gayingizibwa
gayinza
gayita
gayitibwa
gayo
gays
gazaala
gazette
gazettes
gazo
gb
gbv
gcf
gdan
gdynia
ge
gears
geego
geelimbika
geeon
geesera
geetaagisa
gegamu
gekwatira
geldof
gemology
gen
genda
gender
genderera
gene
general
generally
generate
generation
genero
genes
genetic
genetically
genetics
geneva
genital
genius
geniuses
genkana
genkanankana
gennan
gennyini
genocide
genre
genres
genus
geochronology
geoffrey
geofrey
geographic
geographical
geography
geogurafiya
geology
geometry
geomorphology
george
georgetown
georgia
geosphere
geosteady
geothermal
gerald
gereka
german
germania
germany
germination
gerontology
gerrald
gertrude
get
getaagisa
getafe
gets
getting
geweetaaga
geyambisibwa
geyolekera
geyongera
gezaako
gezi
gg
ggaali
ggaasi
ggaba
ggalagi
ggalawo
ggama
ggana
ggasi
gge
ggereeso
ggeyeena
ggi
ggiraasi
ggobansonga
ggomba
ggombolola
ggoolo
ggulaafu
ggulaamu
ggulu
ggulukoosi
ggulukosi
ggumala
ggumba
ggw
ggwa
ggwanga
ggwanjuba
ggwanvu
ggwe
ggwo
ggya
ggye
ggyo
ghafla
ghana
ghanaian
ghetto
ghost
gi
giant
giants
giba
gibeera
gifaanagana
gift
gifted
gifuna
gifuuka
gigenda
gigendana
giggwaako
giggwako
gikiikirira
gikola
gikolebwa
gikozesebwa
gikuze
gilbert
giles
gimme
gimna
gimu
gimukwanira
ginkeese
ginnaayo
gino
giorgio
giosue
giovanni
giraasi
giraga
giri
girimaani
girimane
girimu
girina
giringa
girl
girls
giro
girona
gisangibwa
gisinziira
gisobola
gisobozesa
gita
gitambulira
gitandika
giteekebwa
gitera
gitya
gityo
giva
give
given
gives
giving
giwola
giyamba
giyingiza
giyinza
giyita
giyite
giyitibwa
gizze
gje
gjos
glaciology
glad
gladys
gland
glands
glanis
glasgow
glasgwo
glass
global
globalcitizen
globe
globefeed
gloria
glory
glowing
glucose
gn
gnl
go
goal
goalkeeper
goals
goats
goberera
god
godfrey
gods
goes
goethe
going
goj
gokka
gokyebwa
gold
golden
golola
golomola
gom
gomba
gombe
gombi
gombolola
gombya
gombyas
gomesi
gone
gonja
gonna
gonorrhea
gonza
good
goodlfye
goodlyfe
goods
goodwill
googera
google
goola
goolo
goonya
gor
gordon
goretti
gorgeous
gorilla
gormahia
gospel
gossage
gossip
got
gothenburg
goule
gouna
gov
govern
governance
governing
government
governor
govt
govumenti
gp
gpdz
gps
gq
grabs
grace
grade
gradient
graduate
graduates
graduating
graeme
grain
grammar
grammy
grand
grang
granite
grant
graph
graphite
grasp
grasping
grass
grasslands
grassroots
gravitational
gravity
gray
great
greater
greatest
greek
green
greenhill
greenhouse
greenland
greenlight
grenade
greta
grevillea
grey
gridcolor
griffin
griffith
groningen
groomed
groove
ground
grounds
group
groupings
groups
grow
growing
growth
gs
gst
gu
guardian
guba
gubaako
gubaamu
gubadde
gubalibwa
gube
gubeera
gudda
guddako
guess
gufuga
gufuuka
gugabanyizibwamu
gugamba
gugatta
gugenda
gugenze
gugerageranye
guggwaako
guggwako
guggwayo
gugwa
gugwata
guide
guild
guinea
guinness
guitar
gujabagira
gujja
gujwa
gukeberebwa
gukendeera
gukka
gukola
gukolebwa
gukolera
gukozesebwa
gukuba
gukula
gukutte
gukuuma
gukwataganya
gukyali
gukyuka
gulaamu
gulabika
gulaga
gulagibwa
gulagiddwa
gulamu
guld
guleeta
guleetebwa
guleetera
gulf
guli
guliko
gulimu
gulina
gulinga
gulinnya
guliveliya
gulu
gulukoosi
gulukosi
guma
gumala
gumanyiddwa
gumaze
gumu
gunaaba
gunaatuukira
gunafuwa
gundi
gunno
guno
gunsinze
gunsmith
gunter
gunters
gupimibwa
gurina
gurly
gus
gusalawo
gusangibwa
gusembayo
gusibuka
gusigala
gusimbira
gusimbra
gusinga
gusingayo
gusinziira
gusobola
gusobozesa
gusonjolwa
gusooka
gusookera
gusse
gutandika
gutandikira
gutandise
gutegeeza
gutera
guti
gutunudde
gutunudee
gutuuka
gutuukidde
gutuwa
gutya
gutyo
guva
guvaamu
guvudde
guvumula
guwa
guwedde
guweza
guyamba
guyingira
guyingirira
guyinza
guyise
guyita
guyite
guyitibwa
guyiwa
guzannyibwa
guzimbirwa
gw
gwa
gwabanga
gwabwe
gwabwo
gwabyo
gwaddako
gwaffe
gwafuuka
gwagamba
gwagenda
gwaggweera
gwagwa
gwagweera
gwaka
gwakaasa
gwakatandika
gwakkumi
gwakolwa
gwakubiri
gwakufuuka
gwakyo
gwali
gwaliwo
gwamukaaga
gwamunaana
gwamusanvu
gwana
gwandibadde
gwanga
gwasooka
gwatandika
gwategekebwa
gwatekebwawo
gwatuukira
gwatuumibwa
gwayo
gwazo
gwe
gwebaali
gwebaayita
gwebagulawo
gwebamannyi
gwebamanyi
gwebasinga
gwebatera
gwebayita
gwefubitizi
gwegatta
gwegumu
gwegwali
gwekkumi
gwekkuminebiri
gwekkumineebiri
gwekkuminogumu
gwekkuminoogumu
gwekuusiza
gwemupiira
gwenkana
gwennyini
gwenyini
gwetaaga
gweyali
gweyalina
gweyambisa
gweyambisibwa
gweyasooka
gweyawangula
gweyayolesa
gweyongedde
gweyongera
gwo
gwokka
gwokubiri
gwokuna
gwokusatu
gwokutaano
gwolubereberye
gwoluberyeberye
gwomukaaga
gwomunaana
gwomusanvu
gwomwenda
gwona
gwongera
gwongerra
gwongerwako
gwonna
gwookusatu
gxkw
gy
gya
gyabangamu
gyabawe
gyabwe
gyabwo
gyabyo
gyaffe
gyako
gyakyo
gyali
gyalidde
gyalimu
gyamuyamba
gyange
gyangu
gyawukana
gyayo
gyazo
gybayita
gye
gyebaakuba
gyebaali
gyebalinako
gyebayinza
gyebayita
gyebuvuddeko
gyebuyinza
gyebyavumbulwamu
gyekiridde
gyekuusiza
gyekweese
gyendaze
gyendi
gyenkanankana
gyennyini
gyenvudde
gyenvuddewe
gyenvude
gyetaagisa
gyetagibwa
gyetulya
gyeya
gyeyafuna
gyeyafunira
gyeyakolera
gyeyakwataganira
gyeyali
gyeyamala
gyeyamalira
gyeyasomera
gyeyasooka
gyeyatandikira
gyeyateera
gyeyatikirwa
gyeyatuulira
gyeyava
gyeyawangulira
gyeyayita
gyeyazannya
gyeyongera
gyiyiseewo
gym
gynaecologists
gynecology
gyo
gyogenda
gyokka
gyoleka
gyolina
gyombi
gyona
gyonna
gyoowa
gyptian
h
ha
haart
haaya
habib
habiris
habitat
habitats
had
hadija
hafnium
haggai
hajj
hajji
haka
haking
half
halid
halima
halimah
hall
hallelujah
hallucination
ham
hamburg
hamid
hammer
hammerheads
hampden
hamza
hand
handbook
handle
hands
hanifa
hanneorla
hannington
hannz
hans
hansen
happened
happening
happenings
happens
happy
harare
harassment
hard
harf
harper
harriet
harsha
haruna
harvard
harvester
harvesting
has
hash
hassan
hassim
hasule
haturudi
haute
have
haven
having
hawa
hawthorns
hb
hcards
hcf
he
head
headache
headlines
headquarters
heads
health
healthcare
healthy
hear
hearing
heart
hearts
heat
heaven
heavenly
heavily
heavy
hedex
hei
height
heinemann
heirs
hekita
held
helen
helicopter
heliology
helioseismology
helium
helix
hellen
hellena
helminthology
help
helped
helping
helsingborgs
helsinki
hematology
hemisphere
hemorrhagic
hence
hengelo
henley
henri
henrik
henry
hens
hepatitis
hepatology
heptagon
her
herald
herbal
herbert
herbivorous
herbology
herculis
here
heritage
herman
hernia
herning
hero
heroes
herpetology
hertha
hertz
hetero
heterogeneous
heteroptology
heterotrophic
hexadecimal
hexagon
hey
hft
hg
hi
hibernian
hierarchy
high
higher
highest
highfield
highlighted
highlights
highly
highway
hilary
hilda
hilderman
hill
hills
him
hima
himself
hindu
hip
hipc
hiphop
hipipo
hippology
hippos
his
histology
histopathology
historical
history
hit
hitaji
hitler
hits
hiv
hl
hma
hn
hnlizot
ho
hoima
hold
holder
holding
holds
hole
holizontal
hollywood
holy
home
homeostasis
homepage
hommies
homo
homogeneous
homosexuality
hon
hondo
honey
hong
honorable
honorary
honored
honors
honour
honourable
honourableshttps
honours
hood
hop
hope
hopes
horizon
horizontal
horizontally
hormones
horse
hospital
hospitalet
hospitals
host
hostel
hosts
hot
hotel
hotels
hotspur
hottest
hour
house
housing
houston
how
however
howwe
howwebiz
hp
hpmi
hpt
hrw
hsm
htafc
htm
html
htmlamp
htmlhttp
htmlhttps
htmltanzania
http
https
huddersfield
hugh
hullo
human
humanitarian
humanities
humanity
humility
hundred
hungary
hunger
hunter
husband
husbandry
hussein
hustler
hutu
hyde
hydro
hydrocarbons
hydrogen
hydrogeology
hydrology
hydropower
hydrosphere
hygiene
hyperbola
hyphae
hypotenuse
hypothesis
hz
i
iaaf
iali
ian
ibanda
ibibio
ibingira
ibraheem
ibrahim
ibubaka
ibwa
ic
icardi
icc
ice
ichnology
ichthyology
icj
icjwww
icon
icosahedron
ict
id
ida
ide
idea
ideas
identification
identifying
identity
ideology
idi
if
ifk
ifo
ig
iganga
igara
igf
igg
igga
igm
ignition
ignored
igwa
ii
iii
ika
ikumbania
ikuzuula
il
ilga
ill
illinois
illusion
ilves
im
image
images
imagesize
imaginaery
imaginary
imagination
imani
imdb
imf
immaculate
immanuel
immaq
immigration
immune
immunoglobulin
immunological
immunology
impact
impenetrable
imperial
implies
importance
important
impress
improper
improved
imu
imulembe
in
inanimate
inauguracion
incandenscent
inches
inchi
incident
inclination
inclined
include
included
includes
including
inclusive
income
incourt
increase
increasing
increment
incumbents
indebted
independence
independent
independents
index
india
indian
indiana
indianapolis
indicated
indicates
indigenous
indigo
individual
indoor
inductive
industrial
industries
industry
inequalities
inequality
inertia
infection
infections
infectious
infights
infinite
infinity
influence
influential
influenza
info
infobox
information
infrared
ingebrigtsen
ingenious
ingenuity
ingredients
ingrid
inherently
inheritance
inhibitor
inhibitors
inihibitors
initial
initialized
initials
initiative
initiatives
injured
injury
inn
inner
innermost
innocent
innovation
innovations
innovative
innovator
input
inputs
insects
inside
insignia
insomnia
inspector
inspectorate
inspiration
inspirational
inspires
inspiring
instagram
install
installation
installed
instance
instant
instead
instict
instinct
instinctive
instincts
institute
institutes
institutions
instruction
instructions
insulators
insurance
int
intact
integers
integumentary
intellectual
intellectualism
intellectualization
intellectualized
intellectuals
intelligence
intelligent
inter
interaction
interactions
interactive
interclub
intercontinental
interest
interligence
internal
international
internationalhttps
internet
interplay
interpretation
interrogatives
intersecting
intersection
interview
intl
intnernet
into
intravenous
intrigue
introducing
introduction
intuition
invasion
inverness
inverse
inversely
invertebrates
investigate
investigator
investment
investments
invoice
involuntary
involved
involving
inward
inyumba
inzikuru
io
iodine
ion
ionic
ionization
ions
iowa
ipa
ipress
ipresscom
iq
ir
ira
iran
iraq
iraqi
ireland
irene
iriama
irira
iron
irony
irrational
iryn
is
isa
isaac
isaiah
isbn
ishaka
ishasha
isingiro
islamic
island
islands
isle
ismail
ismaily
iso
isodo
isosceles
isotope
isotopes
israel
israeli
issa
issn
issue
issueid
issues
ist
istanbul
it
ita
italian
italie
italy
ite
item
itemid
items
its
itself
itunes
ituri
iv
ivan
ivoire
ivory
iwa
iwebaali
iwmf
iwpr
ix
ixworld
iywd
iz
izaguirre
izika
j
ja
jacinta
jackie
jackson
jacob
jacobs
jacqueline
jae
jag
jahlive
jajjawe
jakob
jamaica
jamaican
jamaicas
jamal
james
jamil
jamila
jan
jane
janeiro
janet
jangu
january
janwali
janzi
japan
japanese
jarque
jaundice
javier
jay
jazeera
jazmine
jazz
jean
jebulijja
jeema
jeff
jegede
jeje
jemimah
jemo
jennifer
jens
jeremy
jersey
jessica
jesus
jet
jhtml
jica
jid
jidenna
jik
jim
jimmy
jinja
jj
jja
jjajja
jjajjaawe
jjajjaffe
jjajjange
jjako
jjengo
jjiiko
jjinja
jjita
jjoole
jjukira
jjunju
jjuuzi
jkc
jkdbaaaqbaj
jkg
jkljr
jlos
jo
joan
joana
joanita
joankivanda
job
jobs
joe
joel
jogoos
johannes
johannesburg
johansen
john
johnbosco
johnnie
johnson
johnstone
join
joined
joining
joins
joint
joints
jolly
jolow
jonathan
jonava
jonavos
jones
jordan
jose
joseph
josephine
joshua
joule
joules
journal
journalism
journalist
journalists
journals
journey
jovanice
jowylanda
joy
joyce
jpg
jr
jstor
ju
juba
jubilee
jude
judge
judges
judicature
judicial
judiciary
judith
juice
juicy
jukira
jul
julayi
juliana
julie
juliet
julius
july
juma
jump
jun
junction
june
juni
junior
jupitor
jurisprudence
just
justice
justices
justify
justine
juuko
juventus
jvu
jydske
jyllandsposten
k
ka
kaabong
kaabuyonjo
kaadi
kaads
kaagala
kaakano
kaakati
kaakyo
kaakyusa
kaalangirira
kaali
kaalo
kaama
kaamulali
kaamunguluze
kaasa
kaawa
kaaya
kaayo
kaba
kabaale
kabaamu
kabadde
kabaga
kabaka
kabakumba
kabala
kabalagala
kabale
kabalira
kabamba
kabanda
kabanga
kabareebe
kabarole
kabasanda
kabasti
kabeera
kabengwa
kabenje
kaberamaido
kabi
kabila
kabineeti
kabinenti
kabineti
kabinja
kabira
kabisi
kabojja
kabokisaidi
kabondo
kabonera
kabonero
kaboni
kabonibbiri
kaboona
kabootongo
kabotongo
kaboyo
kabuga
kabugho
kabugo
kabuladda
kabulojje
kabutobuto
kabuyonjo
kabwokisaidi
kachapizo
kacheche
kadaga
kadanke
kadde
kaddo
kaddu
kaddugala
kadiri
kadogo
kadoma
kadongo
kadongokamu
kads
kadugala
kafeero
kafubo
kafukunya
kafulu
kafumbe
kafuna
kafuuka
kafuumuulampawu
kagaali
kagaba
kagabanya
kagame
kagera
kagere
kagezimunyu
kagga
kaggo
kaggumivu
kaggwa
kagimu
kagina
kagolo
kagulumu
kagumire
kaguta
kagwa
kagyigyi
kahinda
kahinde
kahindo
kahlo
kahn
kaija
kaijuka
kainembabazi
kainerugaba
kairisiyaamu
kaizer
kajik
kajja
kajjansi
kajubi
kajumba
kaka
kakaaga
kakadde
kakaire
kakalu
kakano
kakasa
kakati
kakeeto
kakembo
kakensa
kaki
kakiiko
kakira
kakkana
kakkiko
kako
kakobe
kakodyo
kakoko
kakola
kakoma
kakomo
kakonge
kakongovule
kakongovvule
kakooto
kakooza
kakozesebwa
kakuba
kakubo
kakulaga
kakulu
kakulukusi
kakumiro
kakungulu
kakunizo
kakutu
kakuubagano
kakuyege
kakuzzi
kakwaate
kakwata
kakwate
kakyebezi
kakyeka
kakyo
kakyungwa
kalaayi
kalabaalaba
kalabalaba
kalaga
kalagaane
kalagala
kalagi
kalagibwa
kalala
kalalankoma
kalanda
kalangala
kalanzi
kale
kaleeta
kalema
kalenda
kali
kalian
kalibbala
kalid
kalidinaali
kalifuwa
kaliisoliiso
kalima
kalimagezi
kalimbwe
kalimpitawa
kalimu
kalina
kalinjola
kaliro
kalisiyaamu
kalisiyamu
kalitunsi
kalium
kalmar
kalombolombo
kalonda
kalondomusengeke
kaloti
kalu
kalule
kalulu
kalungi
kalungu
kalusiyaamu
kalusiyamu
kaluuna
kaluviini
kalwenda
kamala
kamalirizo
kamapala
kamaze
kamera
kaminsona
kamisona
kammunguluze
kamoga
kampala
kampalamukadde
kampalapost
kampalasun
kampeyini
kampuni
kamu
kamugo
kamugyisha
kamulali
kamuli
kamunguluze
kamuntu
kamunye
kamuzu
kamwa
kamwaka
kamwenge
kamwokya
kamya
kamyu
kamyufu
kanaaluzaala
kanaana
kanada
kandanke
kandida
kandie
kandle
kandongo
kandtiaria
kanene
kanengo
kangole
kani
kanisa
kanjogere
kann
kano
kanoni
kansa
kansala
kansas
kansiime
kantinti
kantu
kantuntunu
kanungu
kanyama
kanyeebwa
kanyigirizi
kanyike
kanyomozi
kanywa
kapale
kapapaala
kapchorwa
kapendikyula
kapimibwa
kapiteeni
kaposi
kaputeeni
karamoja
karen
karenga
kari
karibu
kariisa
karisimbi
karitas
karma
karokora
karooro
kartel
karugire
karuma
karungi
kasaasaanyizibwa
kasaayi
kasadha
kasagga
kasaija
kasajja
kasambula
kasana
kasangibwa
kasanje
kasasiro
kasaze
kaseera
kasekese
kasepiki
kaserengeto
kasese
kasibante
kasigala
kasinga
kasirikitu
kasirye
kasita
kasiwukira
kasobi
kasobola
kasoggo
kasoli
kasoobo
kasooli
kasozi
kassanda
kasswa
kasubi
kasujja
kasule
kasulike
kasumba
kaswa
kaswiga
kataaha
kataasa
kataba
katabo
kataffaali
kataffaalikamu
katakwi
katala
katale
kataleya
katamba
katambi
katandika
katasobola
katatumba
kate
katebe
kateeranduulu
kategeeza
katemba
katera
kateregga
kati
katikamu
katikiro
katikitiki
katikkiro
katini
katinniinya
kato
katoffaali
katoffooli
katolika
katonda
katonga
katongole
katonnyeze
katono
katopulaazi
katowice
kats
katugambe
katugeze
katumba
katumwa
katundu
katunguluccumu
katunguru
katunkuma
katuntu
katureebe
katusiime
katutunuulire
katuuti
katwe
katwesigye
katyabaga
katyoboolwa
kaudha
kauma
kava
kavc
kaveera
kavubuka
kavuluzi
kavuma
kawa
kawaali
kawaayiro
kawago
kawakatirwa
kawalya
kawanga
kawanvu
kaweefube
kaweesa
kaweesi
kawefube
kaweke
kawemba
kawempe
kawenja
kawereege
kawo
kawompo
kawonawo
kawoomera
kawooya
kawowo
kawuka
kawuma
kawumbi
kawumpuli
kawungeezi
kawunyira
kay
kayanja
kaye
kayifa
kayihura
kayiira
kayiki
kayikuuzi
kayima
kayinga
kayingo
kayinza
kayipabola
kayiso
kayita
kayitibwa
kayiwe
kayizzi
kayo
kayondo
kayongo
kayunga
kazaalabulwa
kazaalibwa
kazakhstan
kazambi
kazannyirizi
kazannyo
kaziba
kazibwe
kaziimba
kaziizi
kazimba
kazimbamubiri
kazinga
kazini
kazito
kazo
kbe
kcc
kcca
kccfootballclub
kdfl
kds
ke
keane
kebayita
kebera
kebirungi
keekamu
keeki
keep
keeps
kekamu
kekiddomola
keko
kelly
kemi
kemiko
kemirembe
kemisifiiya
ken
kenda
kennedy
kenneth
kennyini
kent
kenya
kenyan
kenyans
kenyas
kenyatta
kenyini
kenzo
kenzos
kepatayiti
kepetayiti
kepler
kept
kereziya
keri
keriyaamu
keriyamu
kerofiiru
keropulaasi
kerunen
ketaagisa
kevin
key
keyongera
kfa
kfm
kg
khalid
khaligraph
khan
ki
kiba
kibaako
kibaale
kibaamu
kibaawo
kibabuko
kibadde
kibaddemu
kibaddewo
kibala
kibalama
kibalangalo
kibalangulo
kibale
kibalirampuyibbiri
kibalirizo
kibalo
kibalwa
kibangirize
kibangirizi
kibanja
kibasobozese
kibayambe
kibaza
kibazo
kibbina
kibbo
kibe
kibedi
kibeera
kibeerawo
kibeere
kibegabega
kibi
kibiina
kibiinja
kibiisa
kibimba
kibina
kibingo
kibinja
kibira
kibirige
kibiwott
kiboga
kibogwe
kiboijana
kiboko
kibuga
kibugumya
kibuku
kibulala
kibuli
kibumba
kibumbe
kibunomu
kibuuga
kibuuka
kibuuzo
kibuyaga
kibuye
kibwankulata
kibya
kic
kick
kickboxing
kicked
kickoff
kicks
kid
kidandali
kidda
kiddabirize
kiddamaaso
kiddannyuma
kiddanyuma
kiddawaggulu
kiddirirwa
kiddugala
kidduka
kiddukanyizibwa
kiddukira
kidega
kidepo
kidney
kidneys
kidogo
kidomola
kids
kieran
kifa
kifaanana
kifaananyi
kifaanayi
kifabakazi
kifananyi
kiffo
kifo
kifuba
kifuga
kifulumya
kifulumyakazambi
kifumbekeddemu
kifumbekero
kifuna
kifundiwazo
kifunye
kifuuka
kifuula
kifuulanenge
kifuulannenge
kifuulannnege
kigaali
kigaana
kigaanira
kigaaniremu
kigabanya
kigali
kigamba
kigambibwa
kigambo
kigambululo
kiganda
kigasa
kigatta
kigattibwa
kigattibwako
kigazi
kigaziwa
kigaziye
kigegeegenya
kigenda
kigendamu
kigendana
kigendereddwamu
kigenderera
kigenderere
kigendererwa
kigendo
kigerageranya
kigerageranye
kigerageranyizibwa
kigerageranyo
kigeranyo
kigere
kigereeso
kigerekere
kigero
kigezaako
kigezi
kiggala
kiggundu
kiggwa
kiggwayo
kigo
kigoberero
kigozi
kigulu
kigwa
kigya
kiibina
kiiizi
kiika
kiira
kiiza
kijaguzo
kijja
kijjawo
kijjulo
kijjulungo
kika
kikaawa
kikaayi
kikajjo
kikakasa
kikakasibwa
kikalu
kikamula
kikanja
kikata
kikaze
kikazi
kikeendeeza
kikekkereza
kikendeeza
kiki
kikiikirira
kikirinyira
kikka
kikkirizibwa
kikkumi
kikola
kikolagana
kikolamu
kikolebwa
kikolebwamu
kikoleddwa
kikolera
kikolerwa
kikolimo
kikolo
kikoloboze
kikolwa
kikoma
kikomo
kikono
kikontana
kikoola
kikoomo
kikopo
kikoredwa
kikosa
kikozesa
kikozesebwa
kikuba
kikubiriza
kikugu
kikula
kikulaga
kikulakulanyiziddwa
kikuleetera
kikulema
kikulemberwa
kikulu
kikulukusi
kikulunyo
kikumi
kikung
kikungunta
kikunizo
kikunsi
kikusobozesa
kikusobozese
kikuubagano
kikuuma
kikuumira
kikuwa
kikuyamba
kikuyambe
kikwata
kikwatagana
kikwataganyizibwa
kikwatako
kikwetaagisa
kikyali
kikyamu
kikyuka
kikyusa
kikyusabuziba
kikyuse
kikyusibwa
kilaabu
kilabika
kilaga
kilagala
kilala
kileetawo
kilembe
kili
kiliko
kilimanjaro
kilitimetz
kill
killed
killer
killing
killings
kills
kilmarnock
kilo
kilogram
kilomita
kilungi
kilwadde
kim
kimala
kimani
kimanya
kimanye
kimanyiddwa
kimanyikiddwa
kimativu
kimaze
kimenya
kimera
kimpanze
kimpi
kimpowooze
kimu
kimujja
kimukakatako
kimukyakubiri
kimuleetera
kimuli
kimusobozesa
kimuviirako
kimuwa
kimuyamba
kimwetaagisa
kimyufu
kin
kinaabiro
kinaana
kind
kindergarten
kindo
kinematics
kinene
kinesiology
kinetic
king
kingdom
kingfut
kingi
kings
kingston
kini
kinnakimu
kinnamakulu
kinnansi
kinnawaggulu
kinnawansi
kinneemu
kinno
kinnomu
kinnoomu
kinnya
kinnyonnyola
kinnyonnyolo
kinnyonnyolwa
kino
kinobe
kinonoozo
kinontana
kinshaba
kintabuli
kintu
kintundu
kinyonyi
kipande
kipapaali
kipchoge
kipepeo
kipima
kipimo
kiplagat
kiplimo
kipoi
kipooli
kiprop
kiprotich
kipruto
kipsang
kipsiro
kipya
kira
kiraabi
kiraabu
kiraasi
kirabe
kirabika
kirabikira
kirabire
kirabo
kirabu
kirabwa
kiraga
kiragala
kiragga
kiragibwa
kiragiddwa
kirala
kirambikibwa
kirambikiddwa
kiramu
kirawuli
kire
kireeta
kireetawo
kireetebwa
kireetebwawo
kireetera
kireka
kireme
kiremesa
kiremya
kiri
kiriisa
kiriko
kirime
kirimu
kirina
kiringa
kirinya
kiripuso
kiriwo
kirmu
kiro
kirobera
kiroggulaamu
kirogulaamu
kiromiita
kiromita
kirooto
kirowoozebwa
kirowoozo
kiruhura
kirumbiddwa
kirumirampuyibbiri
kirunda
kirungi
kirungo
kiruubiriro
kiruubirirwa
kirwadde
kirwana
kirya
kiryabuli
kiryandongo
kiryowa
kisa
kisaaganda
kisaakye
kisaana
kisaanawo
kisaanidde
kisaanye
kisaawe
kisaba
kisangani
kisangibwa
kisanidde
kisanja
kisannyalazo
kisanyusa
kiseeera
kiseela
kiseera
kiseetula
kisekka
kisemba
kisembayo
kisembebwa
kisenge
kisenyi
kisero
kiseyeeya
kisibo
kisigala
kisiisi
kisikiriza
kisima
kisimibwa
kisinde
kisindika
kisinga
kisingaanibwa
kisingako
kisingayo
kisingira
kisinziira
kisinzira
kisitu
kisoboka
kisobola
kisobole
kisobozesa
kisobozese
kisobyo
kisoga
kisolo
kisoma
kisomwa
kisonjolwa
kisonjozo
kisooka
kisoro
kisosonkole
kisozi
kissa
kisubi
kisula
kisulo
kisumu
kisuubirwa
kisuule
kiswaza
kitaabwe
kitaawe
kitaawo
kitaba
kitabo
kitagata
kitagwenda
kitaka
kitali
kitalya
kitambudde
kitambula
kitambulira
kitambuzo
kitanda
kitandika
kitandikawo
kitandikira
kitangaala
kitangattisa
kitante
kitara
kitasuubirwa
kitayaaya
kitebe
kiteebereza
kiteeberezebwa
kiteeka
kiteekawo
kiteekebwa
kiteekwa
kitega
kitegabbugumu
kitegeeza
kitegekebwa
kitegekeddwa
kitegeza
kitegombwa
kitema
kitende
kitendeka
kitendero
kitengejja
kitengejjeso
kitera
kiterekero
kiteroyiro
kitgum
kiti
kitiibwa
kitiisa
kitinda
kitomela
kitomera
kitonde
kitondekabirungi
kitondekamaanyi
kitondekamazzi
kitondekawo
kitondekebwawo
kitondeko
kitone
kitongole
kitono
kitonsa
kitonto
kitoogo
kitooke
kitooli
kitovu
kitta
kittabantu
kitu
kituli
kitundu
kitundubutundu
kitunga
kitunula
kitunzi
kitureteddwa
kitusobozesa
kituufu
kituuka
kituumibwa
kituunzi
kituuse
kituuza
kituwa
kituyamba
kitwala
kitwalibwa
kitwaliramu
kitwetaagisa
kitya
kityo
kiu
kiv
kiva
kivaako
kivaamu
kivako
kivejinja
kiviira
kiviirako
kiviramu
kivu
kivudde
kivulu
kivvulu
kivvuubula
kivvuunula
kivvuunulwa
kiwa
kiwagira
kiwakiso
kiwalabye
kiwale
kiwamirembe
kiwandiikibwa
kiwandiikiddwa
kiwandiiko
kiwangaalira
kiwani
kiwanuka
kiwanuuzibwa
kiwanvu
kiwarabu
kiwayi
kiwebwa
kiwedde
kiweddemu
kiweebwa
kiweewa
kiweza
kiwonvu
kiwonya
kiwulikika
kiwummulo
kiyamba
kiyambako
kiyambe
kiyambi
kiyambye
kiyambyeko
kiyayaano
kiyimba
kiyinda
kiyindi
kiyingi
kiyingira
kiyingirira
kiyini
kiyinza
kiyira
kiyita
kiyite
kiyitibwa
kiyitibwe
kiyitiridde
kiyitirira
kiyonga
kiyumba
kizaala
kizadde
kiziba
kizibu
kizibwe
kiziiyiza
kizikiza
kizimba
kizimbe
kizimbibwa
kizimbiddwa
kizinga
kizingiramu
kizito
kiziyiza
kizungirizi
kizungu
kizz
kizza
kizze
kk
kka
kkaada
kkaadi
kkala
kkaloli
kkalu
kkalwe
kkampeyini
kkampuni
kkanisa
kkansa
kkansala
kkekwa
kkipa
kkiraabu
kkiririzaamu
kkiriza
kkiro
kkiromita
kko
kkobaane
kkola
kkolera
kkomera
kkomo
kkon
kkondo
kkono
kkookola
kkookolo
kkoolo
kkoona
kkoosi
kkooti
kkopa
kkoti
kkovid
kkovidi
kkowe
kkubo
kkulu
kkumi
kkuminomu
kkutukkutu
kkuumiro
kkwaaya
kkwaya
kkyo
klabu
klear
klezia
km
kmte
knight
knights
kno
knocking
knockout
know
knowing
knowledge
known
knows
knvb
ko
koboko
kobs
kodinentisi
koeman
kojja
kokka
kokolo
kokoolo
kola
kolding
kole
kolegi
kolera
kolesito
kololiini
kololo
kolopulaasi
koma
komagenda
komawo
komedi
komenkujukujju
komowedda
kompyuta
kondakita
kondomu
kong
kongo
konna
kono
konsitituwense
konsitituwensi
konsitityusoni
konsitityuwensi
konsituwensi
konsityuwensi
konta
kontulakiti
kony
konyaspor
kooki
kookola
kookolo
koona
koonadance
koongo
kooti
kopa
kopi
kopolo
kora
koraawards
korea
kosiina
kosovo
kotido
kowe
koye
koyekyenga
koyi
kozesa
kr
kracht
krako
kranium
kris
krisito
kristo
kristu
kronno
ks
ktundu
ku
kuba
kubaako
kubaali
kubaamu
kubaawo
kubadde
kubaga
kubajja
kubaka
kubako
kubala
kubalangula
kubalanguza
kubalibwa
kubalirira
kubanga
kubano
kubantu
kubatandikawo
kubayamba
kubayimbi
kubaza
kubazannyi
kubba
kubbirira
kube
kubeera
kubeerako
kubeeramu
kubeerawo
kubibumbe
kubikkulirwa
kubikongoliro
kubintu
kubir
kubira
kubiri
kubisa
kubisaamu
kubiteeka
kubo
kuboggola
kubonereza
kubonerezebwa
kubuguma
kubukodyobwe
kubulaba
kubulamu
kubumbulukuka
kubungi
kubunkenke
kubuuka
kubuulirirwa
kubuusa
kubuusabuusa
kubuuza
kubuwanvu
kubuzaabuzibwa
kubwa
kubwapulezidenti
kubwatuka
kubwatuukiriza
kubyekebejja
kubyekenneenya
kubyo
kubyoyinza
kudda
kuddako
kuddamu
kuddayo
kuddibwamu
kuddingana
kuddira
kuddirira
kudduka
kuddukanya
kuddukira
kuduka
kudukanya
kufa
kufaayo
kufiirwa
kufuba
kufuga
kufugibwa
kufuluma
kufulumizibwa
kufulumya
kufuma
kufumba
kufumuuka
kufuna
kufunyisa
kufuuka
kufuula
kufuuyisa
kugaana
kugaba
kugabanyizibwamu
kugabiza
kugabizaamu
kugajambula
kugamba
kugambwako
kugandawaza
kuganyulwa
kugatta
kugattibwako
kugattika
kugaziya
kugema
kugenda
kugendana
kugendayo
kugenze
kugerageranya
kugerageranyo
kugereesa
kugezaako
kugezesebwa
kuggweera
kuggya
kuggyamu
kuggyawo
kuggywa
kugiwa
kugoba
kugoberera
kugobwa
kuguddwawo
kugula
kugulaba
kugulu
kugunjula
kugwa
kugwanguya
kugya
kugyefumiitirizaako
kujja
kujjanjaba
kujjawo
kujjirawo
kujugumira
kuka
kukaddiwa
kukakasibwa
kukalaba
kukankana
kukatebe
kukebera
kukeberebwa
kukekkereza
kukendeera
kukendeeza
kukettebwa
kuki
kukibabuko
kukilime
kukimanyaako
kukinoonyerezaako
kukirowoozaako
kukirowoozako
kukirowozaako
kukisaawe
kukiteekako
kukituti
kukiwakanya
kukiyita
kukizuula
kukka
kukkaanya
kukkaatiriza
kukkiriza
kukkiriziganya
kukola
kukolagana
kukolamu
kukolebwa
kukolebwako
kukoleddwa
kukolera
kukolokota
kukoma
kukomya
kukontana
kukoppa
kukosa
kukozesa
kukozesebwa
kukuba
kukubaganya
kukubeera
kukubisa
kukubisaamu
kukubwa
kukudaala
kukugira
kukuguka
kukula
kukulaakulana
kukulaakulanya
kukulembera
kukulugguka
kukunga
kukunonyereza
kukutegeeza
kukutulakutula
kukuuma
kukuumira
kukuyamba
kukuza
kukuŋŋaanya
kukwasaganya
kukwata
kukwatagana
kukwataganya
kukwataganyizibwa
kukwatibwa
kukyagenda
kukyala
kukyankalana
kukyankalanyizibwa
kukyasinze
kukyefumiitirizaako
kukyefumiitirizako
kukyekebejja
kukyuka
kukyusa
kukyusakyusa
kukyusibwa
kula
kulaakulanya
kulaba
kulabibwa
kulabika
kulabikira
kulabirako
kulabirira
kulaga
kulagibwa
kulambika
kulambulula
kulany
kulaze
kuleeta
kuleetawo
kuleetebwa
kuleetebwawo
kuleetera
kuleeterwako
kulega
kuleka
kulemererwa
kuli
kuliisa
kuliketi
kuliko
kulima
kulimu
kulina
kulinda
kulinga
kulinnya
kulinya
kulissa
kuliteeka
kuliyirira
kulonda
kulondebwa
kulongoosa
kulongoosebwa
kulowooleza
kulowooza
kulubya
kuludda
kuluggala
kulugguka
kuluka
kulukalala
kulukalo
kulumbibwa
kulumizibwa
kulunaku
kulunda
kuluno
kulw
kulwa
kulwala
kulwana
kulwanirira
kulwanyisa
kulya
kumaamulako
kumakya
kumala
kumalako
kumalawo
kumaliriza
kumannyikwa
kumanya
kumanyika
kumanyisa
kumawulireberlingske
kumbiranye
kumenya
kumerenguka
kumi
kumikolo
kumira
kumpi
kumu
kumuboggolera
kumuddo
kumugamba
kumugulira
kumukolo
kumulaga
kumulamwa
kumuleka
kumupiira
kumusobyako
kumutendera
kumutindo
kumuwa
kun
kuna
kunana
kundagaano
kungeri
kungi
kungu
kungule
kungulu
kungulungulu
kunguudo
kunjuba
kunkomerero
kunnyaanya
kunnyonnyoka
kunnyonnyola
kunnyonyola
kuno
kunoonya
kunoonyereza
kunsi
kunsonga
kuntandikwa
kunteseganya
kunya
kunyaga
kunyigirizibwa
kunyiza
kunyumisa
kunyumya
kunywa
kupima
kupya
kurisito
kusa
kusaanyaawo
kusaanyawo
kusaanyizibwawo
kusaasaanya
kusaawa
kusaba
kusalawo
kusalira
kusamba
kusamira
kusamirira
kusanga
kusangibwa
kusanyuka
kusasira
kusasula
kusatu
kusazibwemu
kuseetuka
kusegeera
kusengeka
kusenserwa
kusiba
kusigala
kusiiga
kusiima
kusika
kusikira
kusikiriza
kusikiza
kusimba
kusimula
kusimulagana
kusindika
kusinga
kusingako
kusinza
kusinziira
kusirika
kusisinkana
kusiwa
kusoboka
kusobola
kusobozesa
kusogola
kusoma
kusomero
kusomesa
kusomooza
kusooka
kusookera
kusosola
kussa
kusubwa
kusukka
kusumululako
kusuna
kusunsula
kusuro
kusuubirwa
kusuubula
kut
kutaano
kutaasa
kutaataganya
kutabagana
kutabula
kutambula
kutambuza
kutandika
kutandikawo
kutandikira
kutangira
kutaputa
kutataaganya
kutawaanya
kutebenta
kutebuka
kuteeba
kuteebereza
kuteeka
kuteekateeka
kuteekawo
kuteekebwa
kuteekesa
kuteesa
kutegeela
kutegeera
kutegeka
kutema
kutendeka
kutendekebwa
kutendekero
kutera
kutereeza
kutereka
kutesa
kutesas
kutimba
kutiya
kutomeggana
kutomeragana
kutonda
kutondawo
kutondeka
kutondekawo
kutondekebwawo
kutongoza
kutonnya
kutono
kutonya
kutta
kuttibwa
kuttunka
kutu
kutukuuma
kutulugunya
kutulugunyizibwa
kutumbula
kutunda
kutunula
kutunurira
kutunuulira
kutusa
kutuuka
kutuukibwako
kutuukiriza
kutuula
kutuusa
kutuuza
kutuwa
kutuyamba
kutwala
kutwalibwa
kutya
kutyobooa
kutyoboola
kuuma
kuva
kuvaako
kuvaamu
kuvaawo
kuviibwako
kuviira
kuviirako
kuvuga
kuvuganya
kuvuganyizibwa
kuvumbula
kuvumbulwa
kuvunda
kuwa
kuwaanyisa
kuwaayo
kuwagala
kuwagira
kuwait
kuwakanya
kuwaliriza
kuwamba
kuwandiika
kuwandiikibwa
kuwangula
kuwawula
kuwayaamu
kuwedde
kuweebwa
kuweereza
kuweesa
kuwera
kuweta
kuweweenyuka
kuwola
kuwona
kuwoza
kuwozesebwa
kuwuga
kuwulira
kuwuliriza
kuwulirwa
kuwunda
kuwunya
kuyamba
kuyambako
kuyambibwa
kuyiga
kuyigila
kuyigiriza
kuyiiya
kuyimba
kuyimbibwa
kuyingira
kuyingiza
kuyinza
kuyita
kuyitamu
kuyitibwa
kuyitirira
kuyonsa
kuyungibwako
kuzaala
kuzannya
kuzannyira
kuzibalirira
kuzibira
kuziika
kuziiyiza
kuzimba
kuzimbibwa
kuzimbulukusa
kuzingiramu
kuziyiza
kuziyizibwa
kuzizi
kuzizza
kuzuula
kuzuulibwa
kuzza
kuzzaawo
kuzze
kuzzibwa
kw
kwa
kwaali
kwaata
kwaaya
kwaba
kwabo
kwabuluza
kwabuluzibwamu
kwabwe
kwabyo
kwaffe
kwagala
kwagalibwa
kwaggwa
kwago
kwagwa
kwajjawo
kwaka
kwakolebwa
kwakolebwanga
kwakomekerezebwa
kwakyo
kwalabibwa
kwalaga
kwaleetawo
kwali
kwaliko
kwalimu
kwalina
kwalinga
kwaliwo
kwalulekamu
kwalwo
kwamuleetera
kwamusana
kwania
kwanjula
kwasaganya
kwata
kwatandika
kwava
kwavaamu
kwaviirako
kwawukana
kwawula
kwawulibwamu
kwawuza
kwaya
kwayamba
kwayo
kwayongezebwayo
kwazingiramu
kwazo
kwe
kwebaka
kwebalira
kwebaza
kwebuuza
kween
kwefumiitiriza
kwefumiitririza
kwefumitiriza
kwegadanga
kwegata
kwegatta
kwegattisa
kwegendereza
kwegomba
kwegugunga
kwegulumiza
kwejjusa
kwekalakaasa
kwekebejja
kwekenneenya
kwekennenya
kwekolera
kwekubagiza
kwekugamba
kwekuli
kwekuuma
kwekuusiza
kwekuusuza
kwekwali
kwekwasa
kwekwasawaza
kwekyo
kwennyika
kwennyini
kwenyigira
kwenyumirizaamu
kwerwanako
kwesa
kwesiga
kwesigama
kwesigamizibwa
kwesigamye
kwesimbawo
kwetaaga
kwetaagibwa
kwetaagisa
kwetaaya
kwetaba
kwetambuliza
kweteekerateekera
kwetegereza
kwetegerezebwa
kwetemera
kwetoloola
kwetta
kwettanira
kwetya
kwevumbulira
kwevumbululira
kwewaayo
kwewala
kwewola
kwewunya
kweyakola
kweyali
kweyamba
kweyambisa
kweyambisibwa
kweyateeka
kweyisa
kweyolekera
kweyongedde
kweyongera
kweyongerayo
kweyunira
kweyunirwa
kwezuulira
kwiniini
kwo
kwoba
kwogera
kwokka
kwokya
kwokyebwa
kwola
kwolesebwa
kwolwo
kwongera
kwongerako
kwongeza
kwongezaayo
kwonna
kwossa
kwota
kwotadde
kwozebwako
ky
kya
kyaagi
kyaali
kyaalo
kyaava
kyaayi
kyaayo
kyababinywera
kyabakugu
kyabakyala
kyabanga
kyabazinga
kyabbulwa
kyabwe
kyabwo
kyabyo
kyaddala
kyaddondo
kyadondo
kyaffe
kyafulumizibwa
kyafulumya
kyafuna
kyafuuka
kyafuulibwa
kyagaana
kyagaanya
kyagabanyizibwamu
kyagala
kyagenda
kyagendera
kyaggwe
kyagi
kyagikerekerwa
kyagulanyi
kyagwo
kyajja
kyaka
kyakakasibwa
kyakala
kyakamala
kyakatondebwawo
kyakendeeza
kyakiragala
kyako
kyakola
kyakolebwa
kyakolebwamu
kyakolokotebwa
kyakolwa
kyakomawo
kyakubiri
kyakulabirako
kyakuna
kyakusaalirwa
kyakusatu
kyakyo
kyakyu
kyakyusa
kyakyusibwa
kyalaba
kyalabibwa
kyalabika
kyalabye
kyalangirirwa
kyaleetawo
kyaleetera
kyalemwa
kyaletawo
kyali
kyaligonza
kyalimu
kyalina
kyalinga
kyaliwo
kyalo
kyalonda
kyalondebwa
kyalyo
kyama
kyambadde
kyambalo
kyambogo
kyamiiru
kyamufuula
kyamugerekerwa
kyamuleetera
kyamusubya
kyamutawaanya
kyamuviirako
kyamuwa
kyamuweebwa
kyamuweesa
kyana
kyanamukaaka
kyandiba
kyandibadde
kyanenya
kyangaala
kyange
kyangu
kyanguyiza
kyanirizi
kyankwanzi
kyanyiiza
kyapa
kyarenga
kyasa
kyasalawo
kyasegedde
kyasinga
kyasobola
kyasobozesa
kyasoma
kyasooka
kyatandika
kyatandikibwa
kyatandikibwawo
kyatandikira
kyateekebwa
kyateekebwawo
kyategerekeka
kyatondebwawo
kyatulwa
kyatuuka
kyatuumibwa
kyatwala
kyava
kyavaako
kyavaamu
kyaviirako
kyavirako
kyawa
kyawagulu
kyawaliriza
kyawandiika
kyawangula
kyawerebwa
kyawukana
kyayagala
kyayamba
kyayi
kyayingirawo
kyayo
kyayongera
kyazimbibwa
kyazo
kyazuulibwa
kye
kyebaali
kyebamba
kyebava
kyebayita
kyebayitta
kyebiriga
kyebiriggula
kyebongolo
kyebulungudde
kyebulungulo
kyeby
kyeelu
kyegabanya
kyegegwa
kyegendaganya
kyejje
kyekibiina
kyekibumbe
kyekimu
kyekisinga
kyekubiira
kyekubira
kyekubisa
kyekubisamufunza
kyekuusiza
kyekuza
kyekyali
kyekyo
kyemmanga
kyenda
kyenjojo
kyenkana
kyenkanankana
kyenkanyampuyi
kyenkanyi
kyenkulaze
kyennyini
kyenvu
kyenyi
kyenyini
kyenyumiririza
kyeraga
kyeraliikiriza
kyeru
kyesatuza
kyesimba
kyesirikidde
kyeso
kyesonjovu
kyetaaga
kyetaagisa
kyetagisa
kyetoloola
kyetoloozo
kyetutumula
kyewandiyise
kyewetaaga
kyewunyisa
kyewuunyo
kyeya
kyeyagalire
kyeyagamba
kyeyakola
kyeyali
kyeyambisa
kyeyambisibwa
kyeyasimula
kyeyava
kyeyawangula
kyeyisa
kyeyoleka
kyeyolekera
kyeyongera
kyeyongerayo
kyeyonoonero
kyeyorekera
kyeyune
kyezaalamu
kyinyamatama
kymatology
kyo
kyobe
kyogera
kyogero
kyogerwako
kyogeza
kyoka
kyokk
kyokka
kyokola
kyokuhairwa
kyokyesa
kyoleka
kyoli
kyolina
kyomuhendo
kyona
kyongera
kyongezza
kyonna
kyonoona
kyonoonyerezaako
kyosegedde
kyotera
kyoto
kyotya
kyoyoya
kyuka
kyuma
kyupa
kyusa
kyuuma
l
la
laaba
laabu
laadiyo
lab
laba
labalatore
labba
labbabbandi
labe
label
labels
labikira
laboratory
labour
lacazette
lack
laddu
ladies
ladiiyo
ladiya
ladiyo
ladoni
lady
lag
laga
lagat
lagos
lagum
laid
lake
lakes
lala
lalu
lamwo
lancaster
land
landmark
lands
lane
lang
langi
lango
language
languages
large
largest
larry
larsson
las
laser
last
lasted
late
later
latest
latestnews
latin
latitude
latter
latvia
launch
launched
launches
lausanne
law
lawmaker
lawrence
laws
lawsof
lawundi
lawuundi
lawyer
lawyers
lax
layibulale
layimu
layini
layisi
layisinsi
lc
lcm
lcv
ldc
le
lead
leader
leaders
leadership
leading
leads
leaf
league
leaguevan
learn
learned
learners
learning
leather
leave
leaves
leaving
lebanon
lecture
lediyo
lee
leedio
leediyo
leeds
leero
leeuwenhoek
left
legacy
legal
legend
legislation
legislative
legumes
lei
leicester
leila
leka
lekera
lekikyala
lematia
lemon
lengera
lengs
length
lentivirus
lenza
leo
leonard
leone
leopard
lepidopterology
les
leslie
lesotho
less
lesson
lessons
let
letikyula
letsrun
letter
letters
levein
level
levels
lever
levers
levixone
levy
lez
lg
lgbtq
li
liba
libaamu
libadde
libeera
liberal
liberation
liberia
liberty
libor
libosomu
library
libuuza
libya
libyan
licensing
lidda
liddayo
lie
lies
lieutenant
life
lifestyle
lifestyleug
lifestyleuganda
lifetime
lift
lifted
lifulumira
lifuna
lifuti
lifuuka
liga
ligamba
ligema
ligenda
liggwa
light
lightgrey
lightning
lights
ligyonolo
liigi
liigiya
liiso
liita
liizi
lijja
lijjanjaba
like
likely
likoda
likodi
likola
likolagana
likolebwa
likoma
likoze
likozesa
likozesebwa
likula
likulemberwa
likuumibwa
likwata
likyafunye
likyayinza
lilian
liliana
lillian
lilongwe
lima
limala
limanyiddwa
limanyikiddwa
limbo
lime
limit
limited
limnology
limu
lincoln
linda
lindirira
line
lineage
linear
linegrey
lines
lingi
linguistics
lingustics
link
linkedin
linki
linko
links
linnya
lino
linya
linyiikaavu
lion
lions
lipoota
liquid
liquids
lira
liraga
lireme
liremesa
liri
lirimu
lirina
lirirmu
lisanga
lisangibwa
lisbon
lisikira
lisinga
lisobola
lisoma
lisomesa
list
listed
listeners
listening
lisuulibwa
lisuza
lita
litandika
litandikira
litangira
liteekebwa
liteereddwa
litegeeza
litemwa
liter
litera
literacy
literary
literate
literature
lithan
lithium
lithology
lithuania
lithueenia
liti
litiyamu
little
litudde
litulica
lituumibwa
litwala
litwalibwa
litya
lityo
lityoboola
liva
live
liver
liverpool
liverpoolfc
liverpoolokuwangula
lives
livet
livevideo
living
livingstone
livumula
liwa
liweza
liwonnya
liwonya
liwoze
liyamba
liyina
liyingizibwa
liyinza
liyisibwa
liyita
liyitawo
liyitibwa
liz
lizingiramu
lizzaawo
lizzibwaayo
ll
lla
llb
ller
llw
lo
load
loan
lobbies
lobe
local
locally
location
lockdown
loco
locus
logarithms
logia
logic
logical
logiya
logo
logy
lokoka
londa
londebwa
london
lonelyplanet
long
longer
longest
longitude
lonza
loodimmeeya
loogi
look
looks
loole
looni
looya
lopsided
lord
los
lose
losers
loses
losing
loss
lost
loteenaanti
loteenanti
loughborough
louis
louise
lourdel
love
loved
lover
loveworld
lovren
low
lower
lowest
lowooza
lra
lt
ltd
lu
luba
lubaale
lubaamu
lubadde
lubaga
lubala
lubalama
lubalirira
lubbira
lubeerera
lubega
lubiri
lublin
lubombwe
lubu
lububi
lubugo
lubugumu
lubuto
lubwama
lubyamira
lucas
lucky
lucy
ludda
luddako
lufuna
lufungi
lufuutifuuti
lugaflow
lugaggawala
lugalamiro
lugamba
luganda
lugard
lugazi
lugbara
lugenda
lugendo
lugereeki
lugero
lugezaako
luggi
luggya
lugirigimba
lugoba
lugobeddwa
lugogo
lugoye
lugudo
luguudo
lugwa
lugwayo
lugya
lugyega
lujegere
lujja
lujji
lujjudde
lujjude
lujuuju
luka
lukaaga
lukalaka
lukalala
lukale
lukalu
lukidi
lukiiko
lukka
lukkirizibwa
lukoba
lukoloboze
lukoma
lukooya
lukozesa
lukozesebwa
lukubiddwa
lukulwe
lukumi
lukung
lukungaana
lukungana
lukusa
lukuŋŋaana
lukwago
lukwata
lukwe
lukya
lukyala
lukyamuzi
lula
lulaba
lulaga
lulala
lulango
lulattini
lule
luli
luliko
lulimi
lulimu
lulina
lulume
lulwana
lulwawo
lulwe
lulwo
lulyabimera
lulyansolo
lulyansolobi
lulyo
lumala
lumalinho
lumaze
lumbadzi
lumbasi
lumbe
lumiima
lumolo
lumonde
lumu
lumumba
lunaana
lunaku
lunar
luncheon
lungereza
lungi
lungs
lungujja
lunno
lunnyo
luno
lunye
lunyiriri
luo
lupapula
lupita
lusa
lusaalu
lusaka
lusala
lusalosalo
lusangibwa
lusanvu
luse
luseetulaseetula
lusegere
lusekkati
lusenyi
lusifa
lusiisira
lusimba
lusinga
lusittalo
lusitula
lusobola
lusobole
lusooka
lusozi
lusuku
lususu
lusuulabikoola
luswata
luswayiri
lutaambi
lutaaya
lutalo
lutambi
lutandika
lutaya
luteekwa
lutenanti
lutera
lutikko
lutimbe
lutobazi
lutono
lutta
lutuula
lutwa
lutwalibwa
lutya
luuka
luuyi
luva
luvannyuma
luwaga
luwalira
luwalo
luwangula
luweero
luwero
luwuliza
luwummula
luwuzi
luyengo
luyiika
luyimba
luyinza
luyita
luyite
luyitibwa
luyonsa
luzannya
luzinda
luzira
luzon
luzungu
luzzi
lvceep
lvt
lw
lwa
lwaaki
lwaba
lwabatwalira
lwabuna
lwabwe
lwabyo
lwaffe
lwafuluma
lwafulumizibwa
lwafulumya
lwafuuka
lwagenda
lwagwa
lwaki
lwakola
lwakozesebwa
lwakuba
lwakwata
lwali
lwaliiro
lwaliko
lwalimu
lwaliwa
lwalondebwa
lwanda
lwanga
lwange
lwantale
lwanyiinyiitirira
lwatandika
lwatandikibwawo
lwategeeza
lwatu
lwatutumu
lwatuula
lwawandiika
lwayo
lwayogera
lwayongera
lwazi
lwe
lwebaali
lwebayita
lwebuga
lwegaba
lweggula
lwekyo
lwelumu
lwenda
lwengo
lwennyimba
lwennyini
lwera
lweru
lwerumu
lwerwali
lwesa
lwese
lweyali
lweyasooka
lweyatuuma
lweyawumuzibwa
lweyayimba
lweyongerayo
lweza
lwo
lwokaano
lwokka
lwokusatu
lwokutaano
lwomukaaga
lwonna
ly
lya
lyabagibwa
lyabika
lyabwe
lyaddamu
lyaffe
lyafuna
lyafuuka
lyagenda
lyagendererwamu
lyaggya
lyakkiriziganya
lyako
lyakozesa
lyakyo
lyakyusibwa
lyaleetebwa
lyali
lyalina
lyalyo
lyandibadde
lyange
lyantonde
lyasooka
lyatandika
lyatandikibwawo
lyateekawo
lyateekebwako
lyateekebwawo
lyato
lyava
lyayisibwa
lyayo
lyazimbibwa
lyazo
lydia
lye
lyegatta
lyekuusiza
lyemalirira
lyennyini
lyerimu
lyetaaga
lyeyambisa
lyeyisaamu
lymph
lymphatic
lymphology
lymphoma
lyo
lyobuntu
lyogerwako
lyogeza
lyoka
lyokka
lyona
lyonna
lyrical
lyrics
lz
m
ma
maaif
maalako
maama
maamawe
maanyi
maanyigandogoyi
maanyikasoboza
maapu
maaso
mabali
mabanga
mabbali
mabeere
mabega
mabior
mabira
mabujje
mac
machine
machinery
machines
macromolecules
macufe
mad
madaala
madagascar
maddow
made
madeleine
madox
madoxx
madrid
maduuka
mafabi
mafic
mafikizolo
mafumu
mafuta
magala
magazine
magazines
magezi
maggie
maggye
magi
magic
magid
magineeti
maginesiyaamu
magineziyamu
magma
magnet
magnetic
magnetism
magnitude
magoba
magogo
magola
magombe
magongolo
magoola
magulu
magumba
magumu
magunda
magye
magyezi
mahia
mahmoud
mahogany
maiden
mailo
main
mainly
mainstream
maint
maintenance
mairo
maisha
maize
maj
majid
majje
major
majoring
mak
maka
makakati
makanika
makansi
makati
make
maker
makerere
makes
maki
makindye
making
makka
makkasa
makkati
mako
makolelo
makolero
makomera
makubo
makubuya
makula
makulu
makumbi
makumi
makungula
makya
makyule
malaika
malala
malamu
malaria
malawi
malayika
malaysia
male
malende
mali
maliba
malimiro
malinga
maliri
mall
malleable
malmo
maloboozi
malundiro
malungi
malusu
malwaliro
malwariro
mama
mamba
mambo
mambuka
mamelodi
mammalogy
mammals
man
manafwa
management
manager
managerial
managers
managing
manchester
mancozeb
manda
mandeevu
mandela
mane
manegya
maneja
manezo
manganese
mangeni
mangi
mangira
mangu
manhood
manifesto
manizo
manji
mannya
mannyo
mannyowavu
mansa
mansion
mantle
manuel
manufacture
manufacturing
manure
many
manya
manyi
manyiddwa
manzi
mao
map
mapeera
mapeesa
mapenzi
mapping
maps
maputo
mar
maracha
marathon
maraviroc
marc
march
marek
margaret
maria
mariah
mariam
marianna
mariantonia
marie
marine
mario
marjorie
mark
market
marketing
markets
marks
markssali
maro
maroons
marriage
married
mars
martha
martin
martinelli
martinez
martyrs
marwijk
mary
marys
masa
masagazi
masaka
masamba
masannyalaze
masanyalaze
masanza
masavu
masaza
masekati
masekkati
masengere
masereka
maserengeta
masiini
masiko
masimu
masindi
masiro
maso
masoboza
masomero
masomo
mason
mass
massa
massachusetts
massacre
massekkati
massive
masso
massomero
master
masters
masukuma
mat
mata
matabi
mataka
matale
matayo
match
matches
matching
mateeka
matembe
matendekero
matenkane
mater
matereke
material
materialism
materialist
materials
maternal
maternity
math
mathematical
mathematically
mathematician
mathematicians
mathematics
mathias
maths
mathword
mathwords
matia
matigga
matiiriryo
matiiriyo
matono
matonoko
matooke
matookerepublic
matovu
matrices
matrix
mats
matt
matter
matters
matthew
matu
matuluba
mature
matwaale
matwale
mau
maureen
maurice
mauro
mavious
mavoko
mawanga
mawejje
mawetasatu
maweto
mawogola
mawokota
mawuggwe
mawugwe
mawujjo
mawulire
maximal
maximum
may
mayambala
mayanja
mayengo
mayi
mayiga
mayilo
mayinja
mayiro
mayitirivu
mayonjo
mayor
mayoral
mayuge
mayumba
mazike
mazima
mazina
mazongoto
mazrui
mazzi
mba
mbaawo
mbabazi
mbadde
mbaga
mbagamba
mbagirawo
mbakubiriza
mbakwekule
mbalama
mbale
mbalire
mbalirira
mbalu
mbarara
mbavu
mbawe
mbawo
mbayo
mbaziso
mbazzi
mbchb
mbeeera
mbeela
mbeera
mbeerabantu
mbeire
mbera
mbi
mbidde
mbikooye
mbilo
mbiranye
mbire
mbiro
mbirye
mbishei
mbogo
mboozi
mbowa
mbu
mbuga
mbugaano
mbugo
mburo
mbuto
mbuya
mbuyaga
mbuzi
mbuzzi
mbwa
mbwaketamwa
mc
mckenzie
mcmaster
mcz
mdundo
me
mean
meaning
meanings
means
measles
measurable
measure
measured
measurement
measurements
measures
measuring
meat
mechanical
mechanics
mechanism
med
medal
meddie
medelli
media
mediacentre
median
mediate
medic
medical
medicine
medioambiente
mediterranean
medium
medula
medulla
meefuga
meeme
meet
meeting
meets
meeya
meeyi
meeza
mega
megadi
mehta
meka
melbourne
melia
melody
melting
melvern
memba
member
members
membra
membrane
membranes
memorial
memory
men
mengo
meningitis
mens
mental
menton
menupk
mercury
mercy
mere
mermaid
merry
merseyside
mesach
mess
messe
messenger
messi
messiah
met
metabolic
metabolism
metal
metallic
metals
metani
metaphor
metaphysics
metatarsal
meteolology
meteorologists
meteorology
meter
meters
methane
method
methodology
methods
meto
metres
metric
metro
metrology
mexico
meyiro
mf
mfca
mfnp
mg
mga
mgahinga
mhz
mi
mia
mibalanguzo
mibi
mibiri
mic
michael
michaud
micheal
michelle
micho
micro
microbe
microbes
microbiologist
microbiology
microfinance
micrology
microorganisms
microscope
microscopic
mid
middelfart
middle
midfielder
midlothian
midomo
midpoint
midwifery
mifaanagavu
mifumbi
migadde
migaramiro
migaso
migattiko
migendo
migerageranyo
migereko
migga
migogo
miikka
miita
mikayiri
mike
mikisa
mikka
mikloth
mikolo
mikono
mikutu
mikutule
mikwano
mikyungwa
milan
milandila
milano
mildred
mile
milege
milembe
miles
military
miliyooni
milky
millennium
miller
million
mills
milton
milutin
mimic
mimiro
mimwa
min
mind
minds
minene
mineral
mineralogy
minerals
minero
minerva
mingi
mingiko
mini
mining
minisita
minisiter
minisitule
minista
minister
ministerial
ministers
ministries
ministry
minneapolis
minsk
minute
minutes
minzaani
minzani
mipango
mipiira
miracle
mirala
miramu
miramwa
mirandira
mirembe
mirengo
miri
miria
miriam
miriliita
mirimiita
mirimu
miriraano
mirundi
mirungi
misaeri
misambwa
misango
miscellaneous
miseetwe
misengeko
misiimba
misinde
misingi
misiri
misolo
misomo
misono
misoso
miss
missed
missing
missingperspectives
mission
missionaries
missionary
missouri
misterdeejay
misuse
misuwa
mita
mitazi
mitchell
mitendera
mitenderera
mith
miti
mitima
mitimbagano
mitimbaganon
mitochondria
mitochondrion
mitokyandira
mitokyonduliya
mitonnyeze
mitono
mitooma
mitta
mitundu
mitwalo
mitwe
mityana
mityanadiocese
mivule
mivuyo
miwendo
miwuula
mix
mixed
mixtape
mixture
mixtures
miya
miyembe
miyingo
miyitiro
mizannyo
mizigo
mizimu
miziziko
mizoram
ml
mls
mlssoccer
mm
mmaapu
mmale
mmande
mmandwa
mmeeya
mmeeza
mmegi
mmele
mmelezo
mmemba
mmere
mmeza
mmhg
mminisita
mmiritale
mmisa
mmita
mmongoota
mmotoka
mmu
mmunnamawulire
mmunyeenye
mmunyenye
mmwe
mmyufu
mmyuufu
mn
mnkyhsloc
mnwaka
mo
moa
moama
mobile
mobo
mobutu
mode
model
modeled
models
modern
modernghana
modified
moe
mogadishu
mohamed
moi
moisture
mok
mokawloon
mol
molds
mole
molecular
molecule
molecules
molekyo
molekyu
molinga
molly
molɔ
mombasa
moment
momentum
mon
monaco
monash
monday
monera
monetary
money
mongoota
monica
monitor
monkey
monoclonal
monolithic
monomial
monoxide
monsoon
monster
mont
montane
monte
month
months
montreal
mood
moody
moon
moons
moosko
more
morehouse
morehttps
morel
morgan
morning
morocco
moroto
morpheme
mortar
mortis
mosaic
moscow
moses
mosh
mosque
mosquito
most
mota
mother
motherhood
motherwell
motion
motoka
motokayo
motor
motorcar
motorcycle
mount
mountain
mountains
move
moved
movedemocracy
movement
movementhttps
movements
moves
movie
moving
mowzey
moyo
mozambique
mozart
moze
mp
mpa
mpaandiika
mpagi
mpaka
mpalanyi
mpalirizo
mpalo
mpamire
mpandiika
mpanga
mpangaazi
mpanvu
mpapula
mparo
mpataanya
mpaza
mpdata
mpeera
mpeke
mpenda
mpeto
mpetonnya
mpetosatu
mpewo
mpigi
mpiki
mpima
mpimo
mpingu
mpisa
mpise
mpiso
mpitewo
mpola
mpolampola
mpologoma
mpozi
mpozzi
mps
mpscanug
mpulira
mpuliziganya
mpumalanga
mpuyi
mpuyibbiri
mpuyikkumi
mpuyikumi
mpuyimukaaga
mpuyimunaana
mpuyimusanvu
mpuyimwenda
mpuyinnya
mpuyinnyingi
mpuyisatu
mpuyissatu
mpuyittaano
mpya
mr
mrcog
mrs
ms
msc
msnbc
mtibwa
mtn
mtnfootball
mtv
mtvbase
mu
muammar
muba
mubaamu
mubaka
mubalanguzi
mubambazanga
mubantu
mubeera
mubeeramu
mubende
mubi
mubibuuga
mubiffo
mubigambo
mubigere
mubiite
mubikoola
mubili
mubiri
mubiru
mubiseera
mubitundu
mubs
mubudde
mubukiika
mubulamu
mubulaya
mubuli
mubumbi
mubuna
mubunabyalo
mubunene
mubutufu
mubutuufu
mubuulizi
mubuuze
mubuvanjuba
mubuyinza
mubwangu
mubyenfuna
mubyobuwangwa
mubyuma
much
mudakiika
mudda
muddo
muddu
muddugavu
muddugavukwefaako
muddusi
mudigidde
mudisitulikiti
muduuma
muduumizi
mufaanagavu
mufirosoofa
mufu
mufulumya
mufumbo
mufunda
mufunye
mufunza
mufuukansigo
mufuzi
mugaati
mugabe
mugabi
mugagga
mugalamiro
mugambe
muganda
mugandawe
muganzi
muganzirwazza
mugaso
mugate
mugatte
mugattiko
mugejjo
mugena
mugenda
mugendaganyo
mugendanyo
mugendo
mugenyi
mugenzi
mugerageranyo
mugereeki
mugereeso
mugereko
mugerwa
mugezi
mugga
muggalo
mugisha
mugobansonga
mugogo
mugongo
mugula
mugulansigo
muguluma
mugumbya
mugume
mugumira
mugumu
mugunjufu
mugwa
mugwanya
muhabura
muhame
muhammad
muhanga
muhoozi
muhumuza
muhwezi
mui
mujaaja
mujja
mujjukilenga
mujjuulirizo
mujjuzo
mujoozi
mujulizi
muka
mukaabya
mukaaga
mukadde
mukaga
mukago
mukama
mukamaawe
mukasa
mukaseera
mukatoliki
mukatuliki
mukazi
mukebe
mukeenenya
mukene
mukenenya
mukennenya
mukidi
mukifo
mukiga
mukiibi
mukiise
mukikopo
mukinnya
mukinya
mukisa
mukisaawe
mukiseera
mukitundu
mukka
mukkakkamu
mukkiliza
muko
mukoddomi
mukodo
mukoka
mukola
mukolo
mukono
mukoowu
mukozi
mukristaayo
mukubala
mukubi
mukubirize
mukufuyiira
mukugezza
mukugu
mukukola
mukulembeze
mukulonda
mukulu
mukulukusa
mukulukusabitungotungo
mukulwanyisa
mukungirize
mukungu
mukunyu
mukusamira
mukusooka
mukutendeka
mukutu
mukutulansanja
mukutule
mukutulo
mukuumansigo
mukuumi
mukuzannume
mukuzannya
mukwafu
mukwanaganya
mukwanaganyo
mukwano
mukwasi
mukwataganyo
mukwaya
mukwenda
muky
mukyala
mukyalawe
mukyalo
mukyamu
mukyamufu
mukyungwa
mulaasi
mulabe
mulabirizi
mulabirizihttps
mulage
mulago
mulala
mulalama
mulalu
mulamba
mulamu
mulamuzi
mulamuzihttps
mulamwa
mulandira
mulangi
mulangira
mulching
muleetere
mulegera
mulekere
mulema
mulembe
muleme
mulenga
mulengera
mulengeranews
mulengo
mulenzi
muli
mulimi
mulimo
mulimu
mulina
mulinde
mulindwa
mulinnya
muliraano
muliraanwa
muliranwa
muliro
mulo
mulokole
mulondo
mulongo
muloni
mulowooza
multi
multicellular
multiple
multiples
multiplication
multiplicative
multiply
multiplying
mulubuto
muluka
mululu
mulumba
mulundi
mulungamya
mulungereza
mulungi
mulungusi
mulunzi
muluyimba
mulwadde
mulwanirizi
mulyagonja
mulyango
mumaaso
mumabanga
mumaka
mumakati
mumaliriri
mumasekati
mumaso
mumasso
mumazzi
mumbasa
mumbeera
mumbere
mumerika
mumiro
mumisinde
mumizannyo
mummy
mumpi
mumps
mumugongo
mumulimu
mumuno
mumwa
mumwaka
mumweezi
mumwezi
mumyuka
mun
muna
munaana
munabyabufuzi
munabyamizannyo
munabyamizanyo
munaku
munakuwavu
munamateeka
munamawulire
munana
munange
munayuganda
munda
mundagaano
mundongo
mundu
mune
munene
mung
mungalo
mungereza
mungeri
mungi
mungu
munguci
muni
munich
municipal
municipality
munimi
munimiro
munisipaali
munisipalite
munjiko
munkambi
munkokoto
munkola
munkomerero
munkulakulana
munna
munnabizinensi
munnabyabufuna
munnabyabufuzi
munnabyamizannyo
munnabyanfuna
munnabyanjigiriza
munnaethiopia
munnakatemba
munnakenya
munnakibiina
munnamagye
munnamateeka
munnamawulire
munnansi
munnasayansi
munnassomabutonde
munnassomabuziba
munnassomabuzimbe
munnauganda
munnaugandan
munnayuganda
munnayugandan
munne
munnimiro
munno
munnyo
muno
munoonyereza
munoonyerezi
muns
munsengeka
munsi
munsonga
muntandikwa
muntebe
muntu
muntuyera
munyale
munyeenye
munyenye
munyerere
munyingo
munyonyo
munyukufu
munywanyi
mupiiira
mupiira
mupya
murchison
murder
muruli
murushid
musa
musaala
musaale
musaasizi
musaawa
musaayi
musagala
musajja
musambi
musambwa
musana
musangibwa
musangibwamu
musango
musanvu
musanyufu
musanyusa
musasi
musasizi
musasulire
musawo
muscle
muscles
muscular
museenene
museetwe
museke
musenene
musenero
musengeko
musenyu
museum
museveni
musevenis
mushrooms
musibuka
music
musical
musically
musicawards
musician
musicians
musicinafrica
musicuganda
musiime
musikira
musikirize
musikiza
musimba
musimbalaala
musinde
musinga
musingi
musinguzi
musiraamu
musirikale
musisi
musisis
musisiwazansi
musittale
musizoni
muslim
musoke
musomeeko
musomero
musomesa
musomo
musota
mussajja
must
mustafa
mustang
musujja
musulo
musumba
musunguwavu
musuubuzi
musuuza
mutabaganyi
mutabani
mutagamba
mutaka
mutandisi
mutated
mutawaana
mutawana
mutebi
muteebi
muteeka
muteesa
muteesasira
mutegeevu
mutegeeze
mutemwa
mutendeera
mutendeke
mutendekero
mutendera
mutendesi
mutereezabulamu
mutesa
mutesasira
mutesasiras
mutesi
muti
mutilation
mutima
mutimbagano
mutindo
mutiso
muto
mutonde
mutondeko
mutoni
mutonnyeze
mutono
mutontomi
muttaka
mutually
mutuba
mutuluba
mutumba
mutunda
mutunduwazo
mutunsi
mutunzi
mutuufu
mutuuka
mutuukirivu
mutuuze
mutuuzo
mutwaalo
mutwalo
mutwe
mutya
muu
muva
muvaamu
muvanjuba
muvubuka
muwabuzi
muwagizi
muwakanya
muwala
muwandiisi
muwanga
muwanguzi
muwanvu
muwawa
muwe
muweereza
muwenda
muwendo
muwere
muwi
muwiya
muwogo
muwonge
muwugulavu
muwumbo
muwuulu
muyala
muyambe
muyambi
muyenga
muyigirize
muyigisa
muyima
muyimbi
muyindi
muyingizo
muyingo
muyinza
muyita
muyite
muyitirivu
muyitiro
muyivu
muyivuwavu
muyizi
muyonaani
muzadde
muzannyi
muzannyo
muzanyi
muze
muzibizi
muzibu
muzigo
muziki
muzila
muzimbi
muzimu
muzinyi
muzira
muzizo
muzukulu
muzungu
muzz
muzzadde
muzzang
muzzukulu
mvara
mvp
mw
mwa
mwaaka
mwaana
mwabangamu
mwagala
mwak
mwaka
mwakwa
mwakyo
mwalabikiramu
mwali
mwalimu
mwalingamu
mwalo
mwamba
mwambala
mwami
mwamyakooye
mwana
mwananchi
mwanga
mwangu
mwanje
mwanjo
mwannyina
mwanyina
mwasirizi
mwatiikirivu
mwattu
mwatu
mwavu
mwayo
mwe
mwebassa
mwebatunkira
mwebawagulira
mwebaza
mwebaze
mwebyo
mweddeko
mweezi
mweeziogusooka
mwefumiitiriza
mweiz
mwemuli
mwemwali
mwenda
mwendas
mwenge
mwenkanonkano
mwenna
mwennyini
mwenyamivu
mwenzi
mweri
mwesigwa
mweso
mweteefuteefu
mwetegefu
mwetikka
mwetoloolo
mwetooloolo
mwettanilenga
mweyakubira
mweyalabikira
mweyali
mweyawangulira
mweyazanyira
mweyoleko
mweyoreko
mwezi
mwiri
mwitanzige
mwogezi
mwokka
mwoleso
mwonna
mwooyo
mwotwalidde
mwoyo
mwoyogwaggwanga
my
mya
myaaka
myaka
myala
myco
mycobacterium
mycology
myereere
myeyoleko
myezi
myology
myoyo
myrica
myrmecology
myself
mysterious
myth
myufu
mywedding
mzee
mzuzu
n
na
naa
naaba
naabakyala
naabayimbi
naabo
naalya
naamala
naamayingo
naana
naapukini
naasalawo
naatikkirwa
naava
naawe
naba
nabadde
nabagabe
nabagereka
nabajjuzi
nabakka
nabakooba
nabakooza
nabakozibe
nabakyala
nabalala
nabasumba
nabatanzi
nabbanja
nabbingo
nabbirye
nabbubi
nabbuguma
nabbugumya
nabikoowa
nabilah
nabino
nabire
nabiryo
nabisunsa
nabo
nabongo
nabudde
nabukeera
nabulagala
nabular
nabumali
nabutono
nabuuma
nabuzaana
nabuzimbe
nabuzinbe
nabuzitoya
nabwekityo
nabwiso
nabwisoeleanor
nabwo
nabwoki
nabyo
nacional
nacl
nada
nadala
nadda
naddaala
naddagala
naddala
naddamu
nadduli
nadiope
naffe
nafuka
nafukka
nafuna
nafunye
nafuuka
nafuulibwa
nag
naga
nagaddya
nagadya
nagamba
nagana
nagenda
naggalama
naggamba
naggayi
naggendo
nagginda
naggugubiro
naggwanga
nago
naguru
nagwano
nagwo
nagyo
naigaga
nail
naira
nairobi
nairobinews
naitilojeni
naitogyeni
naitwokisaidi
najjolo
najjuka
najjuma
nakaayi
nakabuye
nakalanga
nakalowooleza
nakalyakani
nakamu
nakana
nakanda
nakapiripirit
nakaseke
nakasero
nakasiba
nakasigirwa
nakasongola
nakate
nakati
nakato
nakatudde
nakavundiira
nakavundila
nakavundira
nakawa
nakayijja
nakayima
nakazaala
nakazadde
nakazzi
naked
nakibinge
nakimera
nakimu
nakimuli
nakimwero
nakinku
nakinnyindwa
nakintije
nakiteekamunkola
nakitondekabirungi
nakivubo
nakiwala
nakiyingi
nakkoola
nakku
nako
nakola
nakomawo
nakongezabwangu
nakongezakikolwa
nakongezalinnya
nakskov
naku
nakudata
nakupenda
nakuru
nakwang
nakwo
nakyanzi
nakyekubira
nakyemalira
nakyenkana
nakyenkanya
nakyenkanyampuyi
nakyenkanyanjuyi
nakyewa
nakyo
nakyusibwa
nalagira
nali
nalondebwa
nalongo
nalu
nalubaale
nalubega
nalufenya
nalukalu
nalule
nalulungi
nalumansi
nalumu
naluswa
naluyima
nalwo
nalwoga
nalwooga
nalyo
namaanyi
namaba
namaddala
namaganda
namagoye
namagunga
namakula
namala
namanda
namanve
namara
namasagali
namasole
namasuba
namatovu
namayanja
namayingo
namba
nambi
nambiso
namboole
nambooze
nambulukufu
nambuluzo
name
named
names
namibia
namibian
namikka
namilyango
namirembe
namirimu
namisango
nammwe
nampa
nampala
nampalirizo
nampawengwa
nampeto
nampewo
nampijja
nampo
namu
namubiru
namufuula
namuganza
namugenyi
namugereka
namugongo
namujju
namukasa
namukuta
namulema
namulimu
namulondo
namungi
namunigina
namunkanga
namunye
namusanvu
namusisi
namusoke
namutale
namutebi
namutumba
namuunigina
namuyimba
namuziga
namwandu
namwo
nana
nancy
nandagire
nandala
nandujja
nandutu
nanfumbekera
nang
nange
nangendo
nani
nanjobe
nankabirwa
nankasa
nankoma
nannyigirizi
nannyini
nanotechnology
nanotribology
nansa
nansana
nansangwawo
nansannyalaze
nansikombi
nansoboza
nansubuga
nantaba
nantale
nantameggwa
nanteza
nantongo
nantume
nanyondo
nanyonga
nanziri
nanziring
nanzitoya
napak
napooleon
napster
napukiini
narrative
narrow
narus
nasaasaanya
nasale
nash
nasigala
nasiyo
nassannyalazo
nasso
nassolo
natandika
natasha
nate
nathan
nathaniel
natikkirwa
nation
national
nationalleague
nationmedia
nations
native
natrium
natte
natukunda
natural
nature
natwalibwa
nausea
navcorprecords
navio
nawangula
nawano
nawe
naweereza
nawereza
nay
naya
naye
nayebale
nayingira
nayitogyeni
nayitologyeni
nayitrogyeni
nayitulogyeni
nayo
nazareth
nazigala
nazino
nazo
nazzikuno
nb
nbcnews
nbs
ncaa
ncc
nchengladbach
nd
ndaba
ndabika
ndabirira
ndaga
ndagaano
ndagabungi
ndagabutonde
ndagabuzaale
ndagakifo
ndagakintu
ndagala
ndagalinnya
ndagamuntu
ndagamuwendo
ndagire
ndagu
ndala
ndalu
ndamira
ndawula
ndaze
nddwadde
ndeeba
ndegeya
ndejje
ndi
ndiema
ndigida
ndiirwa
ndiizi
ndikwambalanga
ndiri
ndiwalana
ndiwulira
ndowooza
ndugwa
nduhukire
nduli
ndwadde
ndya
ne
nearest
neb
nebafulumya
nebafuna
nebagenda
nebagutwala
nebagyawo
nebakola
nebaluddamu
nebamugaba
nebamugoba
nebamunyenya
nebamutwala
nebanda
nebasasula
nebatandika
nebayingira
nebbi
nebbiiri
nebbugumu
nebilala
nebino
nebirala
nebisobola
nebula
nebular
neby
nebyo
necessary
necessity
ned
nedbank
nedda
nee
neebiri
need
needs
neegukulembera
neekolerayange
neera
neewangula
neewankubadde
neeyisa
negatiivu
negation
negative
negatives
neginaayo
negotiating
neguleeta
neh
nehandaradio
neithan
nekesa
nekibasobozesa
nekiiko
nekimera
nekimufuula
nekirala
nekitundu
neku
nekwataako
nelly
nelson
nemu
nendala
nende
nene
nenkulakulana
nenkumbi
nensonga
neodymium
neologisms
neonatology
nepal
nephology
nephrology
neptune
neptunium
nerufuuka
nerve
nerves
nervose
nervous
nerwankubadde
nesalana
nesi
nesta
net
netalisile
netball
netherlands
netoloovu
netoni
network
networking
networks
neurology
neuron
neurons
neuropathology
neurophysiology
neutral
neutron
neutrons
never
new
newangula
newankubadde
newcastle
newer
newly
newport
newqitcxsirkvojwi
news
newsid
newslexpoint
newspaper
newspapers
newsweek
newtimes
newton
newtons
newvision
newvisionaapi
newyorker
next
nextradio
ney
neyagalire
neyeegata
neyeeyunga
neyegatta
neyesimbawo
neyeyunga
neyisa
nezekwasawaza
nfa
nfaanana
nfeete
nfikko
nfuga
nfulumya
nfuna
nfundiwazo
nfuufu
nfuumo
ng
nga
ngabanya
ngabo
ngabu
ngabuno
ngabwaka
ngakino
ngakiwerako
ngako
ngali
ngalibi
ngalino
ngalo
ngamba
ngambo
ngamu
nganda
ngasizoni
ngawayisewo
ngay
ngayakagwa
ngayali
ngayo
ngazi
ngazino
nge
ngeli
ngenda
ngeno
ngera
ngerekera
ngeri
ngero
ngo
ngoma
ngora
ngoye
ngule
ngulu
nguudo
nguzi
ngvlz
ngwa
ngwabuzito
ngwira
ngwomoya
ngɔ
nha
ni
niamey
nic
nicaragua
nice
nicholas
nick
nickelodeon
nicky
nico
nietzsche
nigeemu
niger
nigeria
nigerian
night
nigi
nigina
nike
nile
nilepost
nilotic
nilotics
nimi
nimiro
nina
nine
ninkukunda
nio
nira
niringiye
nitra
nitrogen
nitrous
niyoni
nja
njaga
njagal
njagala
njala
njatula
njawukana
njawulo
njawulomu
njazi
njegoyego
njeru
njigiriza
njise
njo
njogeddeko
njogera
njogerezeganya
nju
njuba
njuki
njuyi
nk
nkaaga
nkakasa
nkakaso
nkalala
nkalubo
nkambi
nkambwe
nkangi
nkemba
nketteso
nkiiko
nkingizzi
nkinu
nkizi
nkizo
nkizudde
nkoko
nkokonjeru
nkokoto
nkola
nkolagana
nkole
nkoloboze
nkomekerero
nkomerero
nkoni
nkooko
nkoona
nkoyoyo
nkoze
nkozesa
nkozi
nku
nkuba
nkubira
nkubisa
nkubise
nkugamba
nkula
nkulaakulana
nkulabira
nkulakulana
nkulimbye
nkulu
nkulukuku
nkulungo
nkuluze
nkumba
nkumbi
nkumi
nkumila
nkumu
nkunda
nkunu
nkusaba
nkutu
nkutulemu
nkuuli
nkuuma
nkuumakifo
nkuumira
nkuwa
nkuyanja
nkuza
nkwafu
nkwagala
nkwaso
nkwasowazo
nkwata
nkwatagana
nkwatako
nkwesize
nkya
nkyukakyuka
nkyukakyuuka
nkyusabuziba
nkyusibwo
nkyuukakyuuka
nlea
nm
nmba
nmg
nmingi
nn
nna
nnaabagereka
nnaabakyala
nnaalongo
nnaana
nnabaana
nnabagereka
nnabansasaana
nnabire
nnabuzaale
nnabuzimbe
nnafu
nnaggamba
nnakamwantette
nnakasigirwa
nnakati
nnakavundila
nnakavundira
nnakawombe
nnakimu
nnakinku
nnakongezakikolwa
nnaku
nnakyemalira
nnakyewa
nnali
nnalubaale
nnalulungi
nnamaddala
nnamba
nnambulukufu
nnampala
nnampewo
nnamu
nnamuguzi
nnamulondo
nnamusuna
nnamutta
nnamuzisa
nnamwandu
nnanga
nnannyigirizi
nnannyingo
nnannyini
nnannyinimu
nnantameggwa
nnanyini
nnasswi
nnawolovu
nnawookeera
nnazzikuno
nneesulifu
nneeyisa
nnema
nnende
nnene
nnetoloovu
nng
nnga
nnima
nnimi
nnimiro
nnkulakulana
nnkulakulanna
nno
nnongoosereza
nnono
nnrt
nnrtis
nnukuta
nnungi
nnya
nnyaabwe
nnyama
nnyanga
nnyangu
nnyanguyirizi
nnyanja
nnyanza
nnyenda
nnyi
nnyigi
nnyimba
nnyina
nnyindo
nnyingemu
nnyingi
nnyingiko
nnyingo
nnyingobbiri
nnyingosatu
nnyini
nnyinji
nnyinyonnyola
nnyiriri
nnyo
nnyoloni
nnyongerako
nnyonjo
nnyonnjo
nnyonyi
nnyukirayiki
nnyukiriya
nnyukiriyaasi
nnyukiriyasi
nnyukuta
nnyumba
nnywa
nnywanto
no
noah
nobiriya
nobuganzi
nobuwanvu
node
nodes
nods
nokoolayo
nokuleeta
nokuvunuka
nokweyongerayo
nokwongera
nola
nollywood
nolwe
nolwekyo
nomial
nomials
nominal
nominated
nomination
nominations
nominator
nominee
nominees
non
nonagon
nonary
nonoosereza
nonrenewable
nonywa
noogumu
noolwekyo
noonya
noovemba
noowe
norah
norbert
normal
norman
norms
north
northern
northernbuzz
northwest
norway
nosima
nosimbamu
nosology
not
nota
notable
notation
note
notebook
notes
nothing
notre
nottingham
noun
nouns
nov
novel
novemba
november
novo
now
nowy
np
npk
npr
nr
nra
nrc
nrm
nrmhttps
nrms
nrtis
ns
nsaalwa
nsaano
nsaba
nsajja
nsalo
nsalosalo
nsambu
nsambya
nsangi
nsanve
nsanvu
nsatwe
nsawo
nseke
nsenga
nsengeka
nsengeke
nsengekera
nsereko
nsi
nsibambi
nsibo
nsibuka
nsibuko
nsigadde
nsigo
nsiike
nsiimye
nsika
nsikatila
nsikirano
nsikirizo
nsiko
nsimbi
nsindika
nsindikano
nsiri
nsiringanyi
nsobi
nsobozeso
nsolo
nsonda
nsonga
nsonjola
nsonyi
nsozi
nssf
nsubuga
nsujju
nsulo
nsusuuba
nsuubira
nsuubo
nsuusuuba
nsuwa
nt
ntaanwe
ntababutonde
ntabagana
ntabaganya
ntabaganyabantu
ntabaganyi
ntabaganyo
ntabazi
ntabiro
ntaja
ntakambi
ntakoma
ntakyuka
ntale
ntalo
ntambi
ntambula
ntandiikwa
ntandika
ntandikwa
ntare
ntataaganya
ntaulira
nte
ntebe
nteekateeka
nteeko
nteesaganya
ntege
ntegeera
ntegeeza
ntegeka
ntegere
ntencu
ntenvu
ntevu
nti
ntiisa
ntikko
ntimbe
ntinda
ntini
nto
ntobazi
ntobo
ntoko
ntoloovu
ntonda
ntondeka
ntondwa
ntongole
ntono
ntonoko
ntonotono
ntu
ntulege
ntumbwe
ntundako
ntunduwavu
ntunduwaze
ntunga
ntungamo
ntunnunsi
ntuufu
ntuula
ntuumo
ntuuyo
ntv
ntvs
ntya
nu
nuclear
nuclei
nucleoside
nucleotide
nucleous
nucleus
nueva
numba
number
numbers
numeral
numerals
numerator
nungi
nup
nurp
nurse
nursery
nursing
nusu
nutrients
nutty
nuveylive
nv
nva
nvawo
nviiri
nvl
nvppcl
nvuba
nvudde
nvuga
nvumetta
nwagi
nwc
nwoya
nwsc
nxspz
ny
nya
nyaga
nyakato
nyambura
nyamityobora
nyangu
nyanja
nyanza
nyanzi
nyayo
nyc
nyege
nyeko
nyenga
nyerere
nyimba
nyina
nyingi
nyinyogovu
nyo
nyong
nyonyi
nystatin
nytimes
nyukiliasi
nyukiriasi
nyukiriya
nyukiriyaasi
nyukiriyasi
nyukuta
nyuloni
nyuma
nyumba
nyumirwa
nywa
nywerera
nzaalwa
nze
nzibu
nzibuwavu
nzigumivu
nzijanjaba
nzijjanjaba
nzijuvu
nzikiriza
nzikiriziganya
nzikiza
nzimba
nzingu
nziring
nzirukanya
nzito
nzitoya
nzitoyo
nzivuunulo
o
oau
ob
oba
obadde
obagamba
obagerageranyizza
obala
obalanguza
obama
obanga
obangaina
obasinga
obayigiriza
obaza
obe
obeera
obeeramu
obekengedde
oberyeberye
obigatte
obigerageranyizza
obikeko
obikkeko
obikuleko
obikwataganya
obisambira
obituaries
obitunde
obiziba
object
objective
objectives
objects
obo
oboi
obongi
oboolyawo
obote
observation
observer
obsessions
obstacle
obstetricians
obu
obua
obuba
obubaata
obubaawo
obubadde
obubadi
obubaga
obubajjo
obubaka
obubala
obubalanguzo
obubangirivu
obubbi
obubeera
obubeerawo
obubenje
obubi
obubinja
obubiri
obubisi
obubondo
obubonero
obubudamo
obubudamu
obubuga
obubugume
obubugumyo
obubuguumirivu
obubulimu
obubumbulukufu
obubunero
obubuuza
obucaafu
obuddako
obudde
obuddu
obudongo
obufaanagana
obufaanana
obufaananyi
obufere
obuffumbo
obufumbekevu
obufumbo
obufumito
obufuna
obufunda
obufundikiro
obufungi
obufunza
obufuzi
obugaali
obugaga
obugagga
obugalamivu
obugambi
obugambo
obuganda
obuganzi
obugatta
obugazi
obugendera
obugendo
obugere
obugero
obugezi
obuggumivu
obuggwanjuba
obuggya
obugimu
obugoba
obugobansonga
obugoberera
obugonvu
obugoye
obugulumbo
obugulumivu
obugulumu
obugumiikiriza
obugumu
obugunjufu
obugwa
obugwanjuba
obugwenyufu
obugya
obugyagalaro
obujagujagu
obujajja
obujama
obujanjabi
obujeemu
obujimu
obujja
obujjanjabi
obujjanjabia
obujji
obujjira
obujjuvu
obujulizi
obuka
obukaalamufu
obukaba
obukadde
obukakafu
obukakasa
obukakkamu
obukalaayi
obukalakato
obukalu
obukambivu
obukambwe
obukatoliki
obukebe
obukenuzi
obukessi
obukiika
obukiikaddyo
obukiikakkono
obukiikakkonovvanjuba
obukiikirira
obukiiko
obukiimi
obukika
obukirimu
obukkakkamu
obukoddyo
obukodyo
obukoko
obukola
obukolebwa
obukolera
obukolero
obukomera
obukonta
obukontanyo
obukoola
obukooli
obukoowu
obukosa
obukosefu
obukozese
obukozesebwa
obukozi
obukubo
obukugiro
obukugu
obukujjukujja
obukujjukujju
obukulemberwa
obukulembeze
obukulembezze
obukulu
obukulungo
obukunizo
obukunya
obukusu
obukuubagano
obukuumi
obukuusa
obukwaaki
obukwafu
obukwafuwavu
obukwaki
obukwakkulizo
obukwata
obukwatagana
obukwatane
obukwatufu
obukyaayi
obukyafu
obukyala
obukyamu
obukyamuukirivu
obukyayi
obukyukakyuka
obukyupa
obulaamu
obulaba
obulabe
obulabika
obulabikira
obulabirizi
obulabufu
obulaga
obulagibwa
obulala
obulambuze
obulambuzi
obulamu
obulandira
obulango
obulangula
obuleeta
obuleetebwa
obuleetera
obulema
obulemawavu
obulemu
obulemuwavu
obulenzi
obuli
obuliisa
obulimba
obulimi
obulimu
obulina
obulinga
obuliwo
obulo
obulombolombo
obulowooza
obululu
obuluma
obulumbaganyi
obulumi
obulungi
obulunzi
obulwadde
obulwanirizi
obulwanyisa
obulyake
obumala
obumalirirvu
obumalirivu
obumannyifu
obumannyirivu
obumanya
obumanyiddwa
obumanyirivu
obumativu
obumbula
obumenyi
obumera
obumpi
obumu
obumuli
obumulumulu
obumyansa
obumyu
obumyufu
obumyuka
obuna
obunafu
obunakuwavu
obunene
obunenen
obunenene
obungi
obunji
obunkeke
obunkenke
obunnabantu
obunnawamu
obunnyogovu
obunnyowavu
obunto
obuntu
obuntubulamu
obunukufu
obunyiivu
obunyukufu
obunyunyunsi
obupaketi
obupiira
obupoto
obupya
obura
obusa
obusaale
obusaamu
obusaanyi
obusaasira
obusaasizi
obusajja
obusambattuko
obusamize
obusange
obusangibwa
obusangiro
obusannyalavu
obusannyalaza
obusannyalazo
obusannyalzo
obusanyalazo
obusatu
obusawo
obuse
obuseegu
obusekese
obusekkati
obusembayo
obusenge
obuserengefu
obuserengeto
obusero
obusigo
obusilikitu
obusimba
obusimu
obusinga
obusingawo
obusingayo
obusinziiro
obusiraamu
obusirifaali
obusirigiinya
obusirigini
obusirikito
obusirikitu
obusitukiro
obusiyazi
obusobola
obusobozesa
obusobozi
obusolo
obusomesa
obusonko
obusooka
obusookerwako
obusookeso
obusosoze
obusozi
obusukka
obusukkulumu
obusukkulumye
obusumba
obusungu
obusunguwavu
obususse
obusuubu
obusuubuzi
obuswaavu
obuswavu
obutaagala
obutaambi
obutaba
obutabaamu
obutabaawo
obutabaganyi
obutabala
obutabalika
obutabanguko
obutabawa
obutabeera
obutabi
obutabo
obutaddamu
obutadibuuda
obutafa
obutafaali
obutafaanagana
obutafaanana
obutafaayo
obutafanana
obutaffaali
obutaffaalikazimbabwongo
obutafiibwaako
obutafiibwako
obutafuga
obutafuna
obutagambwako
obutagoberera
obutagondera
obutaka
obutakaanya
obutakirya
obutakkaanya
obutakola
obutakosa
obutakozesa
obutakulukuta
obutakwatagana
obutakwatibwa
obutala
obutalaba
obutalabika
obutale
obutaleka
obutali
obutaliibwa
obutaliiko
obutalina
obutalwa
obutalwala
obutalya
obutamanya
obutambi
obutambulira
obutambuza
obutamera
obutandise
obutangaavu
obutasaanawo
obutasaasira
obutasalako
obutasalwako
obutasasika
obutasasula
obutaseeseleza
obutasiikiriza
obutasoboka
obutasobola
obutasobozesa
obutasonyiwa
obutassa
obutateeka
obutategeeragana
obutatera
obutatereera
obutatuuka
obutatwalibwa
obutawanya
obutayaaya
obutayagala
obutayinza
obutayoonona
obutazaala
obutebe
obutebenkevu
obuteefu
obuteesa
obuteesiba
obutegeezi
obutego
obutemu
obutendeke
obutendesi
obutera
obutereevu
obuterefu
obutereka
obutereke
obuterekero
obuteyabya
obutffaali
obuti
obutikitiki
obutiko
obutimba
obutini
obutiniinya
obutinniinya
obutinniiya
obutirbiri
obutiti
obuto
obutoffaali
obutoffaalikazimbatomu
obutoffaalo
obutoffali
obutole
obutonde
obutondo
obutonetone
obutoniinya
obutonniinya
obutonniiya
obutonnyeze
obutono
obutonotono
obutonzi
obutujju
obutukuvu
obutuli
obutulututtu
obutunda
obutundu
obutundutundu
obutungulu
obutunniinya
obutuufu
obutuuka
obutuuliro
obutuuze
obutwa
obutyabaga
obuufu
obuuka
obuuma
obuuza
obuuzibwa
obuva
obuvanjuba
obuvannyuma
obuveera
obuvo
obuvubi
obuvubuka
obuvuluzi
obuvumu
obuvunaanyizibwa
obuvunanyizibwa
obuvune
obuvunnanyizibwa
obuvunne
obuwaali
obuwaaliyo
obuwagizi
obuwakisa
obuwakiso
obuwala
obuwambe
obuwangaaliro
obuwangaazi
obuwango
obuwanguzi
obuwangwa
obuwaniriro
obuwanvo
obuwanvu
obuwayiro
obuwaze
obuweebwa
obuweereza
obuweerezaabwe
obuweke
obuwera
obuwerako
obuwereza
obuwewufu
obuwoomi
obuwufu
obuwuka
obuwulize
obuwumbi
obuwundo
obuwunga
obuwungo
obuwuumbi
obuwuuwo
obuwuzi
obuyala
obuyamba
obuyambi
obuyana
obuyeekera
obuyekera
obuyigilize
obuyigiriza
obuyigirize
obuyiiya
obuyimba
obuyimbi
obuyimirizikawo
obuyindiyindi
obuyingiza
obuyingizibwa
obuyingo
obuyinja
obuyinza
obuyitibwa
obuyitiridde
obuyitirivu
obuyitiro
obuyivu
obuyivuwavu
obuyiza
obuyizi
obuyonjo
obuyumba
obuyunzi
obuyute
obuz
obuzaala
obuzaale
obuzaaliranwa
obuzaazi
obuzadde
obuzannyo
obuzi
obuziba
obuzibu
obuzibuwavu
obuziizi
obuziizii
obuziizna
obuzila
obuzimba
obuzimbe
obuzinga
obuzito
obuzitoya
obuzzi
obuzzibu
obvious
obw
obwa
obwaali
obwaavu
obwabulijjo
obwaddako
obwagaagavu
obwagagavu
obwagazi
obwaguuga
obwakaba
obwakabaka
obwakalabalaba
obwakalimagezi
obwakatonda
obwakolebwa
obwali
obwalina
obwaliwo
obwalo
obwamaanyi
obwamagineeti
obwamanyi
obwambe
obwami
obwaminisita
obwamutunda
obwamutwala
obwanakalyakoani
obwanakyemalira
obwanamunigina
obwanannyini
obwananyini
obwanga
obwangu
obwannakyemalira
obwannakyemalizi
obwannakyewa
obwannalukalala
obwannalulungi
obwannamaddala
obwannanfuusi
obwannannyini
obwannanyini
obwapulezidenti
obwasitakange
obwasooka
obwatandikibwawo
obwavanga
obwavu
obwavvu
obwe
obwebange
obwebiseera
obwebulungirivu
obwebulungulule
obwebungulule
obwebunizo
obwegasi
obwegassi
obwegendereza
obwegugungo
obwekulungirivu
obwekusifu
obwekuusa
obwengula
obwenjawulo
obwenkana
obwenkanya
obwenkanyi
obwenkira
obwennyanja
obwenyi
obwenzi
obwereere
obwerere
obweru
obwesige
obwesigwa
obwesimbu
obwetaagisa
obwetaavu
obwetoloola
obwetoloovu
obwetooloddwa
obwetoowaze
obwetwaze
obwewunzifu
obweyagaza
obweyalula
obweyazike
obweyoleka
obwo
obwogerwako
obwogezi
obwogi
obwoki
obwokubiri
obwolekero
obwomuntu
obwongo
obwoya
obwoyaya
oby
occipital
ocean
oceanology
oceans
ochaya
ochola
ochom
oclc
oct
octagon
octal
octoba
october
octopizzo
odd
odda
oddamu
oddira
odduka
odeke
odense
oder
odmah
odoi
odoki
odongo
odontology
odufuwa
odunayo
odur
odyssey
oeg
oeghist
of
ofaayo
off
offence
office
officer
officers
official
officially
officio
offiisi
offisi
ofiisa
ofiisi
ofj
ofk
often
ofuba
ofukirireko
ofuluma
ofulumya
ofumba
ofumbe
ofumbi
ofuna
ofunamu
ofune
ofunemu
ofunye
ofuuye
og
ogabiza
ogamba
ogambibwa
ogase
ogasse
ogatta
ogattako
ogattika
ogenda
ogende
ogenderera
ogenze
ogera
ogeraageranya
ogezaako
ogezeeko
oggyeeko
oggyeko
ogifunye
ogikutulamu
ogitwalidde
ogoberera
ogochukwu
ogopa
oguba
ogubaawo
oguddako
oguddirira
ogufuluma
ogugamba
oguganyula
ogugatta
ogugerageranya
oguggumiza
ogujja
ogujjudde
ogukaze
ogukolebwa
ogukontana
ogukoona
ogukozesebwa
ogukulengeza
ogukwatagana
ogukwatta
ogula
ogulaga
ogulagibwa
oguli
ogulimu
oguluma
ogulumira
ogumala
ogumanyiddwa
ogumu
ogunyooka
ogusembayo
ogusibuka
ogusigala
ogusinga
ogusingayo
ogusobola
ogusoka
ogusooka
ogusookerwako
ogussibwa
ogutaba
ogutakoma
ogutakyuka
ogutalabika
ogutali
ogutalina
ogutasobola
ogutayogerwa
ogutegeeza
oguttu
ogutuuka
ogutwalibwa
ogutwalidde
oguva
oguvaamu
oguwedde
oguyamba
oguyingira
oguyitibwa
oguyiwa
ogw
ogwa
ogwaali
ogwaasoka
ogwaddako
ogwaddirira
ogwaggweera
ogwagwa
ogwagweera
ogwakulemberwamu
ogwal
ogwali
ogwamugulwa
ogwasembayo
ogwasooka
ogwategekebwa
ogwavaamu
ogwavanga
ogwawandiikibwa
ogwayita
ogwazannyibwa
ogwe
ogwefubitizi
ogwekkumi
ogwekkumin
ogwekkuminebiri
ogwekkumineebiri
ogwekkuminogumu
ogwekkuminoogumu
ogwekumi
ogwekuminagumu
ogwekuminebiri
ogwekuusiza
ogwenkanankana
ogwetaagisa
ogwetoloola
ogwo
ogwokubiri
ogwokuna
ogwokusatu
ogwokutaano
ogwokya
ogwolubereberye
ogwoluberyeberye
ogwolutentenzi
ogwomukaaga
ogwomunaana
ogwomusanvu
ogwomwenda
ogya
ogyeeko
ogyeko
oh
ohio
ohm
oil
oils
oirs
oj
ojanjaba
ojara
ojijjayo
ojja
ojjeeko
ojjeko
ojok
ok
okaano
okakase
okalany
okayafrica
okebere
okello
okendeeza
okeny
okhuti
okibaza
okifuna
okigeraageranya
okigerageranyizza
okikanyuga
okikola
okikutteko
okikwatako
okilaba
okimanya
okimanye
okimanyi
okiraba
okirabira
okirabye
okiraga
okiregako
okiremezzaako
okirowoozaako
okisadi
okisayidi
okisegyeni
okisereka
okisigeni
okisigyeni
okisijeni
okisomye
okitegedde
okitobba
okitunulako
okivvuunula
okiwandiika
okiwulidde
okiwunyirizaako
okka
okkakkana
okkakkane
okkiriza
okkirize
okkozesa
okola
okole
okoma
okomawo
okori
okoth
okoze
okozeeko
okozesa
okozesebwa
okozesezza
oktobba
oktuuka
oku
okuba
okubaako
okubaamu
okubaawo
okubabuukirirwa
okubafuula
okubaga
okubagamba
okubaganya
okubagonza
okubagumya
okubajja
okubajjawo
okubaka
okubakuba
okubakwata
okubala
okubalaga
okubalangula
okubalanguza
okubaleetera
okubalemesa
okubalibwa
okubalilira
okubalira
okubalirira
okubalirirwamu
okubaluka
okubalukawo
okubanga
okubangula
okubangulwa
okubasala
okubasobozesa
okubasomesa
okubasunsula
okubateebera
okubatta
okubatunuza
okubatuuza
okubatwala
okubawa
okubayamba
okubayigirako
okubayigiriza
okubayisa
okubaza
okubazaalisa
okubazibwa
okubazza
okubba
okubbinkana
okubbira
okubeela
okubeera
okubeerako
okubeeramu
okubeerawo
okubeererawo
okubeezaawo
okubera
okuberawo
okubezaawo
okubifuula
okubiika
okubijja
okubikka
okubikkirira
okubikkula
okubikkulirwa
okubikoola
okubikozesa
okubili
okubire
okubiri
okubiriga
okubirya
okubisa
okubisaamu
okubisalako
okubisanga
okubiseemu
okubisizzaamu
okubisobozesa
okubissa
okubiteeka
okubituusa
okubitwalira
okubiyonja
okuboggoka
okuboggola
okubonaabona
okubonereza
okubonerezebwa
okubonerezza
okubongoota
okubooga
okubudaabuda
okubudaabudibwa
okubufuna
okubufuula
okubugaana
okubuguma
okubugumya
okubuguumirira
okubujjamu
okubula
okubulawo
okubulwa
okubumba
okubumbulukuka
okubuna
okubunya
okubunyisa
okubutta
okubutuka
okubutukabutuka
okubuuka
okubuulililwa
okubuulira
okubuulirira
okubuusa
okubuusabuusa
okubuutikira
okubuuza
okubuuzibwa
okubuzaabuza
okubuzaabuzibwa
okubuzabuza
okubuzabuzibwa
okubuzibwabuzibwa
okubwatuka
okubwewala
okubwongo
okubyalo
okucaafuwaza
okucaaka
okucanga
okudda
okuddaabiriza
okuddaabirizibwa
okuddaabulula
okuddako
okuddamu
okuddayo
okudding
okuddira
okuddirira
okuddiŋŋana
okuddugaza
okudduka
okuddukana
okuddukanya
okuddukanyizibwa
okuddukira
okudduukiria
okudduukirira
okudi
okudibaga
okudibuuda
okudiibuuda
okudobonkanya
okuduka
okudukanya
okudukira
okuduula
okufa
okufaako
okufaakwe
okufaana
okufaanagana
okufaanaganamu
okufaanana
okufaananako
okufaananamu
okufaayo
okufanana
okufananamu
okufeekeera
okuffa
okufiibwaako
okufiibwako
okufiira
okufiirwa
okufirikawaza
okufirwa
okufuba
okufufuggaza
okufuga
okufugibwa
okufuka
okufukirira
okufukuuka
okufuluma
okufulumizibwa
okufulumya
okufuluuta
okufuma
okufumba
okufumbira
okufumbirwa
okufumbisa
okufumiitiriza
okufumita
okufumuuka
okufuna
okufunako
okufunamu
okufundiwaza
okufunibwa
okufunira
okufunna
okufunvubira
okufunyisa
okufunza
okufuuka
okufuukamu
okufuukuuka
okufuula
okufuulibwa
okufuuwa
okufuuweeta
okufuuyira
okufuuyisa
okufuyiirako
okufuyisa
okugaalula
okugaana
okugaanagana
okugaanibwa
okugaaya
okugaba
okugabana
okugabanya
okugabanyaamu
okugabanyizibwamu
okugabira
okugabiza
okugabizibwamu
okugabula
okugabulwa
okugafuula
okugaggawaza
okugakozesa
okugalamira
okugamba
okugambibwa
okugandawaza
okuganja
okuganyula
okuganyulwa
okuganza
okugatta
okugattaganya
okugattamu
okugattibwa
okugattika
okugayita
okugaziwa
okugaziya
okugaziyizibwa
okugazza
okugeeza
okugejja
okugema
okugemebwa
okugemesa
okugemesebwa
okugenda
okugendagana
okugendaggana
okugendako
okugendana
okugendereera
okugenderera
okugenze
okugera
okugeraageranya
okugerageranya
okugerageranyizibwa
okugereefu
okugereesa
okugereka
okugeya
okugeza
okugezaako
okugezesa
okugezesebwa
okuggalawo
okuggula
okuggulaafula
okuggulawo
okuggulwawo
okuggumiza
okuggwa
okuggwaako
okuggwaamu
okuggwamu
okuggwebwamu
okuggya
okuggyako
okuggyamu
okuggyawo
okuggyibwa
okuggyibwako
okugifuula
okugikozesa
okugikubagannyako
okugikuuma
okugimusa
okugisoma
okugiwa
okugiwandiika
okugiyita
okugoba
okugobebwa
okugoberera
okugobererwa
okugobwa
okugogola
okugolola
okugondera
okugonjoola
okugonza
okugugubira
okugula
okugulanga
okugulibwa
okugulira
okugulu
okugulumba
okugulwa
okugumba
okugumira
okugumya
okugunjaawo
okugunjula
okuguwandiika
okugwa
okugwamu
okugya
okugyako
okugyawo
okugyawula
okugyemera
okugyereegerera
okugyewala
okujaganya
okujaguza
okujanjaba
okujibalira
okujiyita
okujja
okujjako
okujjaku
okujjamu
okujjanjaba
okujjanjabibwa
okujjanjabwa
okujjawo
okujjayo
okujjibwa
okujjukira
okujjukiza
okujjula
okujjumbira
okujjuza
okujugumira
okujukira
okujukiza
okujulira
okujuliza
okuka
okukaaba
okukaayanira
okukabala
okukabasanya
okukaka
okukakaatika
okukakanya
okukakanyala
okukakasa
okukakasibwa
okukala
okukalaba
okukalambira
okukaliiririra
okukalirira
okukaluba
okukaluubirirwa
okukaluubirizibwa
okukambuwala
okukamula
okukanika
okukankana
okukawago
okukayita
okukaza
okukebera
okukeberebwa
okukeberwa
okukefumiitirizaako
okukekkereza
okukendeera
okukendeeza
okukendeezebwa
okukendeza
okukenenula
okukenga
okuketta
okukifuna
okukifunamu
okukifuula
okukigoba
okukiika
okukiikirira
okukijja
okukikola
okukikozesa
okukikwatako
okukikwatira
okukilabirira
okukimanya
okukinoonyerezaako
okukira
okukiraba
okukiraga
okukiriza
okukirya
okukiseetula
okukisonjola
okukiteeka
okukiteekako
okukitegeera
okukitondekawo
okukituukako
okukitwala
okukiwandiika
okukiyita
okukizuula
okukizza
okukka
okukkaanya
okukkaatiriza
okukkakkana
okukkakkanya
okukkatira
okukkiririza
okukkiriza
okukkirizibwa
okukkiriziganya
okukkusa
okukogga
okukokola
okukola
okukolagana
okukolako
okukolamu
okukolawo
okukolebwa
okukolebwako
okukolebwamu
okukoleddwa
okukoleeza
okukolera
okukolokota
okukolola
okukoma
okukomawo
okukomekerezebwa
okukomekkereza
okukomola
okukomolebwa
okukomya
okukomyawo
okukondera
okukonga
okukongola
okukontana
okukoola
okukoona
okukoowa
okukoppa
okukoppulula
okukosa
okukosebwa
okukozesa
okukozesebwa
okukozesesa
okukuba
okukubaganya
okukubanganya
okukubibwa
okukubira
okukubiriza
okukubisa
okukubisaaamu
okukubisaamu
okukubisibwamu
okukubuulira
okukubuuza
okukubwa
okukufuga
okukufuula
okukugasa
okukugira
okukugirwa
okukujja
okukukola
okukukuuma
okukukwata
okukula
okukulaakulana
okukulaakulanya
okukulaakulanyizibwa
okukulaga
okukulakulana
okukulakulanya
okukulanya
okukuleetera
okukulembera
okukulemberamu
okukulira
okukuliramu
okukuliza
okukulugguka
okukulukuta
okukulungutana
okukuma
okukumanyisa
okukung
okukunga
okukungaana
okukungaanya
okukunganya
okukungubaga
okukungula
okukunuukiriza
okukusobozesa
okukutamira
okukutegeeza
okukutuka
okukutula
okukutulakutula
okukutusaako
okukutuusa
okukuubagana
okukuuma
okukuumamu
okukuumibwa
okukuumila
okukuumira
okukuunyuuka
okukuviirako
okukuwa
okukuwasizaako
okukuyamba
okukuza
okukuzibwa
okukuŋŋaanya
okukwana
okukwanagana
okukwanaganya
okukwasa
okukwasaganya
okukwasisa
okukwata
okukwatagana
okukwataganya
okukwataganyizibwa
okukwatako
okukwatayo
okukwatibwa
okukwatibwamu
okukwatira
okukwawulira
okukweka
okukwekula
okukyabuluzaamu
okukyakankalana
okukyakyankya
okukyala
okukyalako
okukyalira
okukyalo
okukyamuka
okukyamuukirira
okukyanga
okukyankalana
okukyankalanyizibwa
okukyawa
okukyawula
okukyayibwa
okukyaza
okukyebulungula
okukyekebejja
okukyekenneenya
okukyetoloola
okukyojjanya
okukyuka
okukyukakyuka
okukyukana
okukyusa
okukyusaamu
okukyusaganya
okukyusakyusa
okukyusibwa
okukyuusa
okula
okulaba
okulabibwa
okulabibwako
okulabika
okulabikira
okulabikirako
okulabilako
okulabira
okulabirako
okulabirira
okulabirwa
okulabisa
okulabula
okuladiyo
okulaga
okulagibwa
okulagira
okulagula
okulakkulanna
okulakulanya
okulala
okulambika
okulambula
okulambulula
okulambululwa
okulambuluza
okulamula
okulamusa
okulamuza
okulandiza
okulanga
okulangirira
okulangirirwa
okulangulula
okulawuna
okulayira
okuleeguulwa
okuleeta
okuleetawo
okuleetebwa
okuleetebwawo
okuleetera
okulega
okulegako
okuleka
okulekawo
okulekayo
okulekebwa
okulekera
okulekulira
okulemagana
okulembewaza
okulemera
okulemererwa
okulemesa
okulemwa
okulengera
okuli
okuliibwa
okuliisa
okulikoodiinga
okulima
okulimawo
okulimba
okulindirira
okulinnya
okulinnyirira
okulinnyisa
okulinya
okulinyisa
okulinyisibwa
okuliraana
okulisa
okulisuulamu
okuliwo
okulobera
okulonda
okulondako
okulondamu
okulondawo
okulondebwa
okulondoola
okulongoosa
okulongoosebwa
okulongoosereza
okulongosebwa
okuloota
okulowooleza
okulowooza
okulowoozaako
okuluka
okulukalo
okulukalu
okuluma
okulumba
okulumbagana
okulumbibwa
okulumibwa
okulumizibwa
okulumwa
okulumya
okulunda
okulundibwa
okulundira
okulungamya
okulungi
okulusegere
okuluubirira
okuluvirako
okulwa
okulwaawo
okulwala
okulwana
okulwanagana
okulwanirira
okulwanisa
okulwanyisa
okulwawo
okulya
okulyowa
okumaamira
okumaamulako
okumaanyuuka
okumakya
okumala
okumalako
okumalawo
okumalayo
okumalibwa
okumalira
okumalirawo
okumaliriza
okumalirizibwa
okumalwo
okumannya
okumannyikwa
okumanya
okumanyagana
okumanyibwa
okumanyiira
okumanyiiza
okumanyika
okumanyikibwa
okumanyisa
okumanyisibwa
okumariza
okumasamasa
okumatira
okumatiza
okumazzi
okumeggana
okumeketebwa
okumenya
okumenyeka
okumera
okumerenguka
okumeruka
okumerusa
okumineebiri
okuminoogumu
okuminoomu
okumira
okumpi
okumu
okumuboggolera
okumufanaganya
okumufuula
okumugamba
okumugasa
okumugoba
okumugulira
okumugya
okumujja
okumujjamu
okumukaansa
okumukangavvula
okumukolera
okumukuba
okumukumu
okumukuuma
okumukwata
okumukyusa
okumulaba
okumulaga
okumulemesa
okumulisa
okumulumba
okumulungula
okumumanyisa
okumunenya
okumusobozesa
okumusubya
okumusunsula
okumuteeka
okumutemula
okumutendeka
okumutendera
okumutendereza
okumutimbagano
okumutuusa
okumutwala
okumuwa
okumuwuliriza
okumuyamba
okumuyambako
okumuyigiriza
okumuyimbira
okumuyita
okumuzaala
okumwegwanyiza
okumwogerera
okumyuka
okumyukirira
okuna
okunaaba
okunaabanga
okunafuwa
okunafuya
okunakuwala
okunambulula
okunene
okungi
okungula
okungulu
okunnyogoga
okunnyonnyoka
okunnyonnyola
okunnyonnyolwa
okunnyonyoka
okunnyonyola
okunokoolayo
okunonnyereza
okunonooza
okunonyereza
okunoonya
okunoonyereza
okuntikko
okununula
okunyaga
okunyiga
okunyigiriza
okunyigirizibwa
okunyiiga
okunyiiganyiiga
okunyiza
okunyolwa
okunyooleza
okunyuma
okunyumirwa
okunyumunguza
okunyumya
okunyunyunta
okunywa
okunyweezza
okunyweza
okupanga
okupangisa
okuperuka
okupima
okupimibwa
okupita
okupuluka
okupya
okurilana
okurut
okusaaga
okusaako
okusaanawo
okusaanirawo
okusaanuuka
okusaanuusa
okusaanyaawo
okusaanyawo
okusaanyizibwawo
okusaasaana
okusaasaanira
okusaasaanya
okusaasaanyizibwa
okusaasana
okusaasanya
okusaasira
okusaawa
okusaba
okusabira
okusaddaaka
okusaka
okusala
okusalako
okusalamu
okusalawo
okusalibwako
okusalira
okusalirawo
okusamba
okusambula
okusamira
okusamirira
okusanawo
okusanga
okusangibwa
okusannyalala
okusannyalaza
okusanyaawo
okusanyalala
okusanyuka
okusanyusa
okusanyusibwa
okusasaanya
okusasannya
okusasula
okusasulira
okusasulwa
okusatu
okusazaamu
okusazibwamu
okusebengerera
okuseebengerera
okuseesaamu
okuseetuka
okuseetula
okusegeera
okusegeerakifuulannenge
okusegeevu
okuseka
okusekerera
okusemazinga
okusembayo
okusemberera
okusembeza
okusenga
okusengeka
okusengekebwa
okusenguka
okusengula
okusenserwa
okusereba
okusereka
okusesebbuka
okusesema
okuseyeeya
okusiba
okusibibwa
okusibukula
okusibwa
okusiga
okusigala
okusigalawo
okusigaza
okusiibula
okusiiga
okusiigibwa
okusiima
okusiimibwa
okusiimuula
okusiimwa
okusiiyibwa
okusika
okusikibwa
okusikira
okusikiriza
okusikirizibwa
okusikiza
okusikizibwa
okusima
okusimba
okusimbawo
okusimbibwa
okusimbiibwa
okusimbuliza
okusimbwa
okusimibwa
okusimulagana
okusindiika
okusindiikiriza
okusindika
okusinduukirirwa
okusinga
okusingako
okusingawo
okusingayo
okusingira
okusinza
okusinziila
okusinziira
okusinzira
okusirika
okusirisizaawo
okusisinkana
okusiteegi
okusitimuka
okusitimula
okusitula
okusnga
okusoberwa
okusobola
okusoboola
okusobozesa
okusogola
okusolooza
okusoma
okusomako
okusomera
okusomesa
okusomesebwa
okusomooza
okusonda
okusonjola
okusonjolwa
okusonyiwa
okusoobola
okusooka
okusookera
okusooma
okusoomoozebwa
okusoomozebwa
okusoosowaza
okusosola
okusosolebwa
okusosolwa
okussa
okussaako
okussaamu
okussaawo
okussibwa
okussibwako
okussibwamu
okussiza
okusubwa
okusukka
okusukkawo
okusukkuluma
okusula
okusulika
okusumagira
okusumulula
okusumululwa
okusumusibwa
okusuna
okusunguwala
okusunguwalamu
okusunsula
okusunsulamu
okusunsulibwa
okusunsulwamu
okususse
okusuubira
okusuubirwa
okusuubula
okusuubulagana
okusuula
okusuulibwa
okusuulirira
okusuulirirwa
okusuumusibwa
okusuumuusibwa
okuswala
okuswazibwa
okuta
okutaano
okutaasa
okutaataaganya
okutaatagana
okutaataganya
okutaataganyizibwa
okutaba
okutabaala
okutabagana
okutabaganya
okutabuka
okutabula
okutabulatabula
okutabulwa
okutaggulula
okutakoma
okutalaaga
okutalagga
okutali
okutaliiko
okutambula
okutambulako
okutambulira
okutambuliza
okutambuza
okutambuzibwa
okutana
okutandiika
okutandiikawo
okutandika
okutandikawo
okutandikibwawo
okutandikira
okutangaaza
okutangira
okutangirwa
okutano
okutanza
okutaputa
okutaragga
okutataaganya
okutawaanya
okutawaanyizibwa
okutebenta
okutebentesa
okutebentuka
okutebereza
okutebuka
okuteeba
okuteebe
okuteebeera
okuteebera
okuteebereza
okuteebwa
okuteeka
okuteekako
okuteekamu
okuteekateeka
okuteekawo
okuteekayo
okuteekebwa
okuteekebwamu
okuteekebwawo
okuteekesa
okuteesa
okutega
okutegeela
okutegeera
okutegeeragana
okutegeeza
okutegeka
okutegekebwa
okutegwa
okuteka
okutekawo
okutema
okutemya
okutendeka
okutendekebwa
okutendereza
okutenderezebwa
okutengejja
okutereeza
okutereka
okuterekebwa
okutetenkanya
okutibwa
okutiisatiisa
okutikirwa
okutikka
okutikkirwa
okutojjera
okutoloka
okutolonta
okutolontoka
okutomeggana
okutomera
okutomeragana
okutona
okutonda
okutondawo
okutondebwa
okutondebwawo
okutondeka
okutondekawo
okutondekebwawo
okutondowala
okutongoza
okutonnya
okutonnyeza
okutono
okutonotono
okutontoma
okutoola
okutta
okuttaka
okuttattana
okutte
okutteko
okuttibwa
okuttivvi
okutugga
okutugumbulwa
okutuka
okutukirira
okutulugunya
okutulugunyizibwa
okutumbira
okutumbula
okutunda
okutundibwa
okutunga
okutunula
okutunuulira
okutusa
okututumuka
okutuufu
okutuuka
okutuukako
okutuukayo
okutuukibwako
okutuukira
okutuukiriza
okutuukirizibwa
okutuula
okutuuma
okutuusa
okutuusiza
okutuuuka
okutuuyana
okutuuza
okutuwa
okutuzamu
okutwala
okutwalayo
okutwalibwa
okutwalira
okutwaliramu
okutwaliza
okutya
okutyobola
okutyoboola
okutyobora
okuusa
okuv
okuva
okuvaako
okuvaamu
okuvaawo
okuvaayo
okuvamu
okuviibwako
okuviira
okuviirako
okuvuba
okuvuga
okuvuganya
okuvulula
okuvuma
okuvumbula
okuvumirira
okuvumula
okuvunaanibwa
okuvunda
okuvunikibwa
okuvunza
okuvuuba
okuvuunika
okuvuunula
okuvuvuba
okuvvuunula
okuvvuunulwa
okuwa
okuwaaba
okuwaanyisiganya
okuwaata
okuwaayiriza
okuwaayo
okuwabula
okuwabulwa
okuwagamira
okuwagira
okuwaka
okuwakanya
okuwakanyizibwa
okuwakisa
okuwaliriza
okuwalirizibwa
okuwamba
okuwambibwa
okuwandiika
okuwandiikibwa
okuwandiisa
okuwandika
okuwandikibwa
okuwandulwa
okuwanga
okuwangaala
okuwangaalira
okuwangula
okuwangulira
okuwangulwa
okuwanika
okuwanirira
okuwanvu
okuwanyisiganya
okuweebwa
okuweereza
okuweesa
okuwemula
okuwera
okuwerebwa
okuwereza
okuwesimbawo
okuweta
okuweweenyuka
okuwewuka
okuwewula
okuweza
okuwola
okuwona
okuwongera
okuwonya
okuwonyezebwa
okuwoola
okuwoolera
okuwoomerwa
okuwooza
okuwoza
okuwubira
okuwuga
okuwujjaala
okuwulikika
okuwulira
okuwuliriza
okuwulirizibwa
okuwulirwa
okuwuliziganya
okuwummula
okuwummulako
okuwummulamu
okuwumula
okuwunda
okuwunya
okuwunyiriza
okuwunyirza
okuwunzika
okuyaayana
okuyamba
okuyambagana
okuyambako
okuyambamu
okuyambibwa
okuyambibwako
okuyenga
okuyiga
okuyigga
okuyigganyizibwa
okuyigila
okuyigira
okuyigirako
okuyigiriza
okuyigirizibwa
okuyiikuula
okuyiiya
okuyiiyiriza
okuyimba
okuyimbibwa
okuyimbira
okuyimbulukuka
okuyimirira
okuyimirirawo
okuyimiriza
okuyimusa
okuyingira
okuyingiramu
okuyingirira
okuyingiza
okuyingizibwa
okuyisa
okuyisaawo
okuyisibwa
okuyita
okuyitamu
okuyitawo
okuyitibwa
okuyitibwamu
okuyitimuka
okuyitira
okuyitiridde
okuyitirira
okuyivuwaza
okuyiwa
okuyomba
okuyombayomba
okuyonja
okuyonka
okuyonsa
okuyulika
okuyuza
okuzaala
okuzaalibwa
okuzaalisa
okuzaamu
okuzannya
okuzannyako
okuzannyibwa
okuzannyira
okuzannyisa
okuzanya
okuzanyira
okuziba
okuzibikira
okuzibira
okuzibuwalirwa
okuzibuwavu
okuzifulumya
okuzifuna
okuzifuula
okuziika
okuziikibwa
okuziiyiza
okuzikozesa
okuzilaba
okuzimba
okuzimbako
okuzimbamu
okuzimbibwa
okuzimbira
okuzimbulukuka
okuzimbulula
okuzina
okuzinga
okuzingako
okuzingirako
okuzinibwa
okuzinoga
okuzirika
okuzirya
okuzisanga
okuzitowa
okuzitoya
okuzitta
okuzitwala
okuziyamba
okuziyira
okuziyita
okuziyiza
okuziyizaamu
okuziyizibwa
okuzizza
okuzuukira
okuzuukuka
okuzuula
okuzuulibwa
okuzza
okuzzaamu
okuzzaawo
okuzzawo
okuzze
okuzzibwa
okuzzibwaawo
okuzzibwawo
okuzzibwayo
okw
okwa
okwaaka
okwabika
okwabulira
okwabuluza
okwabuluzibwamu
okwabya
okwagala
okwagalana
okwagalibwa
okwagalwa
okwagazisa
okwajjawo
okwaka
okwakayakana
okwakolebwa
okwakomywawo
okwali
okwaliika
okwalika
okwalikamu
okwalimu
okwaliwo
okwaliyo
okwalula
okwamaanyi
okwambala
okwambuka
okwang
okwanganga
okwangu
okwanguya
okwanguyiriza
okwanika
okwaniriza
okwanja
okwanjala
okwanjula
okwasisa
okwasooka
okwata
okwataganyaamu
okwatako
okwatandika
okwategekebwa
okwatibwa
okwatika
okwatula
okwawakanyizibwa
okwawamu
okwawukana
okwawukanako
okwawula
okwawulamu
okwawulayawula
okwawulibwa
okwawulibwamu
okwawulwamu
okwawuza
okwebaka
okwebaza
okwebeezaawo
okwebezaawo
okwebiriga
okwebonga
okwebulungula
okwebuuza
okwebuuzizza
okwebuza
okweddiza
okwefaako
okwefaananyiriza
okwefaananyirizaako
okwefuga
okwefumiitiriza
okwefumita
okwefumitiriza
okwefunira
okwefunza
okwegadanda
okwegadanga
okwegata
okwegatta
okwegattisa
okwegendereza
okwegezaaamu
okwegezaamu
okweggyamu
okwegolorera
okwegomba
okwegoomba
okwegugunga
okwegulumiza
okwegwanyiza
okwejalabya
okwejja
okwejjako
okwekakasa
okwekalakaasa
okwekalakasa
okwekanama
okwekandula
okwekanga
okwekatankira
okwekebejja
okwekebejje
okwekebeza
okwekeneenya
okwekenenya
okwekengera
okwekenneenya
okwekenneeya
okwekennenya
okwekiririzaamu
okwekkanya
okwekkenennya
okwekkililizaamu
okwekkiririzaamu
okwekolera
okwekoona
okwekoppa
okwekuba
okwekubagiza
okwekubira
okwekulaakulanya
okwekulakulanya
okwekutula
okwekutulamu
okwekuuma
okwekuumira
okwekuusa
okwekwasa
okwekwasawaza
okwekwata
okwekweka
okwekyaawa
okwekyama
okwekyanga
okwekyawa
okwekyusa
okwekyusiza
okwelwanako
okwemalira
okwemanya
okwemanyamanya
okwemanyiiza
okwematira
okwematiza
okwembagilawo
okwembagirawo
okwemotyamotya
okwemulugunya
okwemulula
okwengereza
okwenjawulo
okwenkana
okwenkanankana
okwenkanyankanya
okwennyika
okwenoonyeza
okwenyeenya
okwenyigila
okwenyigira
okwenyigiramu
okwenyika
okwenyumiriza
okwerabira
okweraga
okweraliikirira
okwerinda
okwerippa
okwerowozaako
okwerumika
okwerwanako
okwesa
okwesaasira
okwesambaggana
okwesanga
okwesanyusaamu
okwesatuza
okwesengeka
okwesera
okwesiba
okwesibirako
okwesiga
okwesigama
okwesigamwa
okwesiima
okwesika
okwesikira
okwesimbawo
okwesimbira
okwesimbirawo
okwesindiikiriza
okwesisiwala
okwesogga
okwesukulumya
okwesuulirayo
okwetaaga
okwetaagisa
okwetaasa
okwetaba
okwetabamu
okwetabulira
okwetabya
okwetakulatakula
okwetamwa
okwetangira
okwetegeera
okwetegekera
okwetegereza
okwetegerezebwa
okwetengerera
okwetengerevu
okwetikka
okwetolola
okwetoloola
okwetoloolera
okwetolooza
okwetoolatoola
okwetoolola
okwetooloola
okwetoowoloza
okwetorola
okwetta
okwettanira
okwettanirwa
okwetukuta
okwetusaako
okwetuukira
okwetuusaako
okwetya
okwevumbulira
okwewa
okwewaayo
okwewaggula
okwewala
okwewalamu
okwewalibwa
okwewandiisa
okweweta
okwewetamu
okwewola
okwewulira
okwewummuzaamu
okwewunzikako
okwewuunya
okweyabuluzaamu
okweyagala
okweyagaliza
okweyalula
okweyaluza
okweyamba
okweyambisa
okweyambisibwa
okweyawula
okweyawulamu
okweyimirirwa
okweyisa
okweyisaamu
okweyita
okweyogerera
okweyoleka
okweyolekera
okweyongera
okweyongerayo
okweyongeryo
okweyoreka
okweyorekera
okweyubula
okweyunga
okweyunira
okwezaalamu
okwezuulira
okwezza
okwi
okwo
okwobutonde
okwogera
okwogerako
okwogerezeganya
okwogerwa
okwogerwako
okwogeza
okwokebwa
okwokya
okwokyebwa
okwokyerera
okwolekera
okwolesa
okwolesebwa
okwomutendera
okwongela
okwongera
okwongerako
okwongeramu
okwongereza
okwongeza
okwongezaayo
okwononeka
okwonoona
okwonooneka
okwookya
okworesa
okwoza
oky
okyali
okyalina
okyayagala
okyekebejja
okyusa
okyusaamu
ol
olaba
olabako
olabe
olabika
olabira
olabirira
olabye
olaga
olage
olambawo
olambika
olambikawo
olambulula
olara
old
oldest
oleeta
olegako
oleka
olekedde
oleme
olemererwa
oli
oligaanile
oliisa
oliko
olima
olimu
olina
olinda
olinga
olinnya
olinya
olirina
olitadde
olive
oliver
olivier
olobo
olonzeewo
olowooza
olowooze
olowozaako
oloya
olu
oluannyuma
oluba
olubaale
olubaaso
olubaawo
olubalabebalabe
olubalama
olubalanguzi
olubatu
olubeera
olubeerera
olubege
olubembe
olubereberye
oluberera
oluberyeberye
olubi
olubiri
olubu
olububi
olubugo
olubugumu
olubuguumiriro
olubumba
olubumbulukuko
olubuto
olubutukabutuka
oludaala
oludda
oluddako
oluddirira
oluddukanya
oludirira
olufaanaganyo
olufaananyamuntu
olufalansa
olufuba
olufuluma
olufulumira
olufungi
olufuufu
olufuzi
olugaanire
olugalamiro
olugalamivu
olugalo
olugamba
olugambo
oluganda
olugave
olugeleeki
olugendo
olugerageranyo
olugereeki
olugereeso
olugero
olugewukano
oluggi
oluggya
olugolokofu
olugoye
olugumu
oluguudo
olugwa
olugwila
olugyegere
oluidirira
olujegere
olujja
olujji
olujjuvu
olukala
olukalala
olukale
olukalu
olukandwa
olukangaga
olukedde
olukiiko
olukoba
olukoloboze
olukomera
olukonge
olukontana
olukontano
olukonvuba
olukoona
olukoono
olukozesebwa
olukulembera
olukulu
olukumba
olukumi
olukung
olukungaana
olukungana
olukusa
olukusense
olukusiko
olukuuma
olukwata
olukwe
olukya
olulaba
olulaga
olulala
olulangira
olulattini
oluli
oluliba
oluliko
olulimi
olulimu
olulina
olulinga
oluluma
olulumba
olulungi
olulyo
olumala
olumanyiddwa
olumbe
olumbiddwa
olumbugu
olume
olumu
olunaawuzo
olunakkati
olunaku
olunene
olungereza
olungerza
olunnabantu
olunnyo
olunnyonnyolo
olunyankole
olunyiranyira
olunyiriri
olupapula
olupiira
oluppya
olupya
olusa
olusaalu
olusaayisaayi
olusala
olusasuliro
oluseke
olusekese
olusekkati
olusemberayo
olusenke
olusenyu
olusi
olusimba
olusinga
olusinze
olusirika
olusittalo
olusittavu
olusoga
olusoggo
olusoma
olusooka
olusoose
olusozi
olusu
olusujjasujja
olusuku
olususu
olusuubo
olusuula
oluswayiri
oluta
olutaambi
olutaba
olutabaalo
olutabu
olutalo
olutambi
olutangalijjo
olutatadde
olutayimbwa
oluteebi
oluteekwa
olutema
olutentezi
olutiko
olutimba
olutindo
olutobazi
olutoloovu
olutone
olutongole
olutulututtu
olutuula
olutwalidde
oluuma
oluusi
oluuyi
oluva
oluvannyuma
oluvanyuma
oluvuganya
oluwalo
oluwanvu
oluwoko
oluwunziko
oluwuzi
oluyengo
oluyigilwamu
oluyimba
oluyisiti
oluyitibwa
oluyivuwavu
oluyonaani
oluzaalibwa
oluzaalilanwa
oluzaaliranwa
oluzannya
oluzira
oluzungu
oluzze
oluzzi
olw
olwa
olwaali
olwabaga
olwacaaka
olwaddako
olwadde
olwaddirira
olwafulumizibwa
olwafulumya
olwai
olwakolebwa
olwakwata
olwaleero
olwalero
olwali
olwaliiro
olwaliko
olwalimu
olwaliwo
olwareero
olwasinga
olwasooka
olwasoosa
olwateesa
olwategekebwa
olwatuuka
olwatuula
olwayatiikirira
olwayimbibwa
olwayitibwa
olwazi
olwe
olweekyo
olwekusifu
olwekyo
olwensonga
olweru
olwesa
olwesimbu
olwetoloovu
olwewunzifu
olwewunziko
olweyambisibwa
olweza
olwo
olwobutamanya
olwokuba
olwokubanga
olwokubiri
olwokusatu
olwokusobozesa
olwokya
oly
olya
olyawo
olympedia
olympiad
olympians
olympic
olympics
olyoka
olyoke
om
omala
omale
omaliriza
omalirizza
omanya
omanye
omanyi
omar
omara
omaze
ombe
ombi
omnivorous
omondi
omoro
omu
omuba
omubaaka
omubabiri
omubabiro
omubaka
omubalanguzi
omubalanguzo
omubalirizi
omubazi
omubbi
[...]
