!
"
#
##0
##1
##10
##11
##12
##13
##14
##15
##16
##17
##18
##19
##2
##20
##21
##22
##23
##24
##25
##26
##27
##28
##29
##3
##30
##31
##32
##33
##34
##35
##36
##37
##38
##39
##4
##40
##41
##42
##43
##44
##45
##46
##47
##48
##49
##5
##50
##51
##52
##53
##54
##55
##56
##57
##58
##59
##6
##60
##61
##62
##63
##64
##65
##66
##67
##68
##69
##7
##70
##71
##72
##73
##74
##75
##76
##77
##78
##79
##8
##80
##81
##82
##83
##84
##85
##86
##87
##88
##89
##9
##90
##91
##92
##93
##94
##95
##96
##97
##98
##99
$
%
&
'
(
)
*
+
,
-
.
/
0
00
000
00000
0002
001
01
02
03
04
05
06
07
08
09
1
10
100
1000
10000
101
102
103
104
105
106
107
108
109
11
110
111
112
113
114
115
116
117
118
119
12
120
1200
121
122
123
124
125
126
127
128
129
13
130
131
132
133
134
135
136
137
138
139
14
140
1400
141
142
143
144
145
146
147
148
149
15
150
1500
151
152
153
154
155
156
157
158
159
16
160
1600
161
162
163
164
165
166
167
168
169
17
170
1700
171
172
173
174
175
176
177
178
1789
179
18
180
1800
1806
181
1816
182
183
1830
184
1840
1841
1845
1846
1848
1849
185
1850
1851
1854
1855
1856
1857
1858
1859
186
1860
1861
1863
1864
1865
1866
1867
1868
1869
187
1870
1871
1872
1876
1877
1878
1879
188
1880
1881
1882
1884
1885
1887
1888
1889
189
1890
1891
1892
1893
1894
1895
1896
1897
1898
1899
19
190
1900
1901
1902
1903
1904
1905
1906
1907
1908
1909
191
1910
1911
1912
1913
1914
1915
1916
1917
1918
1919
192
1920
1921
1922
1923
1924
1925
1926
1927
1928
1929
193
1930
1931
1932
1933
1934
1935
1936
1937
1938
1939
194
1940
1941
1942
1943
1944
1945
1946
1947
1948
1949
195
1950
1951
1952
1953
1954
1955
1956
1957
1958
1959
196
1960
1961
1962
1963
1964
1965
1966
1967
1968
1969
197
1970
1971
1972
1973
1974
1975
1976
1977
1978
1979
198
1980
1981
1982
1983
1984
1985
1986
1987
1988
1989
199
1990
1991
1992
1993
1994
1995
1996
1997
1998
1999
2
20
200
2000
2001
2002
2003
2004
2005
2006
2007
2008
2009
201
2010
2011
2012
2013
2014
2015
2016
2017
2018
2019
202
2020
2021
2022
203
2030
204
205
206
207
208
209
21
210
211
212
213
214
215
216
217
218
219
22
220
221
222
223
224
225
226
227
228
229
23
230
231
232
233
234
235
236
237
238
239
24
240
241
242
243
244
245
246
247
248
249
25
250
2500
251
252
253
254
255
256
257
258
259
26
260
261
262
263
264
265
266
267
268
269
27
270
271
272
273
274
275
276
277
278
279
28
280
281
282
283
284
285
286
287
288
289
29
290
291
292
293
294
295
296
297
298
3
30
300
3000
301
302
303
304
305
306
307
308
309
31
310
311
312
313
314
315
316
3166
317
318
319
32
320
321
322
323
324
325
326
327
328
329
33
330
331
332
333
334
335
336
337
338
339
34
340
341
342
343
344
345
347
348
349
35
350
352
353
354
355
356
358
36
360
361
362
363
364
365
366
367
368
369
37
370
371
372
373
374
375
377
379
38
380
383
385
386
39
390
391
392
393
394
395
4
40
400
4000
402
404
405
406
41
410
411
417
42
420
421
425
427
43
430
431
433
44
440
444
447
45
450
46
460
47
48
480
49
5
50
500
5000
51
512
52
53
54
55
550
555
56
57
58
59
6
60
600
61
612
62
625
63
64
65
66
67
68
69
7
70
700
71
72
73
74
75
750
76
77
78
79
8
80
800
802
81
82
83
84
85
86
87
88
89
9
90
900
91
911
92
93
94
95
96
97
978
98
99
999
:
;
<
=
>
?
@
\
^
_
`
a
aa
aaa
aaaaaah
aab
aad
aaf
aah
aap
ab
abad
abbott
abc
abd
abdul
ability
able
about
above
abraham
absolute
abstract
abu
ac
acacia
academic
academy
accept
accepted
access
accessed
according
account
accounts
acid
acids
aclu
across
act
acting
action
actions
active
activities
activity
acts
actual
actually
acute
ad
adam
adams
adaptation
add
added
addeventlistener
adding
addition
additional
addlink
address
adds
admin
administration
administrative
adopted
advance
advanced
ae
aesbdwblaxcaswf
aesthetics
af
affairs
affect
afghan
afghanistan
afghans
africa
african
after
ag
again
against
age
agency
agenda
agent
agents
ages
ago
agreement
agricultural
agriculture
agro
ah
ahh
ahmad
ahmed
ahp
ai
aid
aids
air
ais
aise
aj
ajax
ak
akr
al
alan
alba
albert
album
alcohol
alert
alex
alexander
alfred
ali
aliases
alice
align
all
allah
allan
allen
alliance
allow
allowed
allows
almost
alone
along
alongside
alp
alpha
already
also
alt
alternate
alternative
although
always
am
ambox
ambulance
ame
amendment
america
american
americans
among
amount
amsterdam
an
analysis
anarchism
anarchist
anarchists
anarcho
anarchy
anatomy
anc
anchor
ancient
and
anderson
andre
andrew
android
andyal
angeles
anglo
animal
animals
ankgtadzbrqa
ann
anna
anne
annotated
announcement
annual
another
answer
anthony
anthropology
anti
antiquity
antisemitism
antivirus
antonio
any
anyone
anything
ap
api
apollo
apparent
appear
appearance
appears
append
appendchild
appendix
apple
applicable
application
applications
applied
apply
approach
appropriate
apr
april
aq
ar
arab
arabia
arabic
archaeological
archaeology
architecture
archive
archived
archives
are
area
areas
areu
args
argument
arguments
aristotle
armed
armenian
arms
army
arnold
around
array
art
arthur
article
articles
artificial
artist
artistic
arts
artwork
as
asean
asia
asian
ask
asked
asp
aspects
aspx
assange
assembly
assess
assessment
assets
assistance
associated
association
astronomy
asz
at
atatu
atlantic
atlas
atm
atom
atp
attack
attacks
attempt
attention
attr
attribution
au
audi
audio
aug
august
aus
austin
australia
australian
austrian
author
authority
authorlink
authors
auto
autobiography
autoedit
autofillprop
automatically
av
available
average
avoid
avrich
aw
award
awards
away
ax
ay
ayf
az
b
ba
back
background
bad
baker
bakunin
baltimore
ban
band
bank
banner
bar
barbara
barnes
baron
barry
base
based
basic
basin
basis
bates
battle
bawolff
bay
bb
bbc
bc
bce
bd
be
bear
became
because
become
becomes
been
before
began
begin
beginning
begins
behalf
behavior
behind
being
belief
beliefs
believe
bell
below
belt
ben
benefits
benjamin
bennett
bentley
ber
berkeley
berlin
bernard
best
beta
better
between
beyond
bf
bg
bh
bi
bible
big
bill
bin
bingen
bio
biodiversity
biographical
biography
biological
biology
birth
bit
bj
bk
black
blackwell
blake
blank
blica
block
blog
blood
bloomsbury
blp
blue
bmkwn
bmw
bn
bo
board
bob
body
bodycontent
bold
bomb
bond
bone
book
books
boolean
border
borders
born
boston
bosworth
bot
both
bottom
boulder
box
boxes
bp
br
brackets
brain
branch
branches
break
breaking
brian
bridge
brief
brill
bring
britain
britannica
british
broad
broken
bronze
brother
brothers
brought
brown
browser
browsers
bruce
bruno
bs
bt
bu
buddha
buddhism
buddhist
budget
bug
build
building
buildings
built
bulletin
bureau
burke
burnet
bury
bush
business
but
button
buttons
bv
bw
by
byzantine
bz
c
ca
caaa
cable
cactions
caesar
calendar
california
call
callback
called
calls
cambridge
came
campaign
campbell
can
canada
canadian
cancer
candidates
cannot
canon
cao
capacity
cape
capita
capital
capitalism
capitalist
caption
carbon
card
cardiac
cardiomyopathy
care
carl
carol
carolina
carter
cartwright
case
cases
castle
cat
catalogue
catch
categories
category
catherine
catholic
cause
caused
causes
cb
cc
ccp
cctv
cd
cdots
ce
cell
cells
census
center
central
centre
centuries
century
ceo
certain
cf
cgi
ch
chain
chandler
change
changed
changes
changing
channel
chapter
character
characters
charge
charles
chart
charter
che
check
checkbox
checked
chemical
chemistry
chicago
chief
child
children
china
chinese
choice
choose
chris
christ
christian
christianity
christians
christopher
chronicle
chronology
chrysanthemum
church
ci
cia
cicero
circle
cis
cit
citation
cite
cited
cites
cities
citing
citizens
citizenship
city
civil
civilization
civilizations
cker
cl
claim
claims
clark
class
classes
classic
classical
classics
classification
classlist
classname
claude
clay
clean
cleaning
cleanup
clear
click
climate
climax
clinical
clinton
clio
close
club
cm
cn
cnn
co
coa
coast
coat
code
codes
cognitive
cohen
cold
cole
coli
colin
collaboration
collapse
collapsed
collapsible
collected
collection
collections
collective
college
collins
colonial
colonialism
colony
color
colors
columbia
columbus
column
columns
com
come
comes
coming
command
comment
commentary
comments
commercial
commission
committee
common
commons
commonwealth
communication
communications
communism
communist
communities
community
compact
companies
companion
company
comparative
compare
competition
complete
completely
complex
composer
comprehensive
computer
concept
concepts
conceptual
concerning
concerns
concise
condition
conditions
conduct
conf
conference
config
configuration
conflict
congo
congress
congressional
connect
connecticut
connection
conquest
consciousness
consensus
consequences
conservation
conservative
consider
considered
conspiracy
constant
constantine
constitution
constitutional
construction
consultation
consumption
contact
contain
container
containing
contains
contemporary
content
contents
contest
context
continental
continue
continued
continuum
contract
contribs
contribute
contribution
contributions
contributors
control
controls
convention
conversation
conversations
conversion
convert
cook
cookie
cooper
cooperation
coord
coordinate
coordinates
coppice
copy
copyright
copyrighted
core
cornell
coronary
corporation
corpus
correct
correspondence
corresponding
cos
cost
could
council
count
counter
countries
country
county
course
court
cov
cover
covid
cox
cp
cpu
cr
craig
create
created
createelement
creates
createtextnode
creating
creation
creative
creator
credit
crime
crimes
criminal
crisis
criteria
critical
criticism
critique
crop
crops
cross
crow
crown
cs
css
ct
ctrl
ctx
ctype
cu
cultural
culture
cultures
cup
cur
currency
current
currently
cursor
curtis
custom
customs
cut
cutting
cv
cy
cycle
cyrillic
cz
d
da
daily
damage
dan
daniel
dans
dark
darwin
das
data
database
date
dated
dates
david
davidson
davies
davis
dawn
day
days
db
dc
dd
ddt
de
dead
deal
death
debate
dec
december
decimal
decision
declaration
decline
deep
default
defaults
defence
defense
defined
defines
definition
definitions
degree
degrees
del
delete
deleted
deletion
delhi
delivered
delivery
della
delta
demand
democracy
democratic
den
denial
denis
density
department
depending
deployment
deprecated
depression
deputy
der
derived
des
desc
descartes
describe
described
describes
description
descriptions
desert
design
designation
desktop
despite
destruction
detail
detailed
details
deutsche
develop
developed
developer
developing
development
devices
df
dh
di
dia
dialog
diana
dictionary
did
die
died
diff
difference
differences
different
digg
digital
dim
dimensions
din
diogenes
diplomacy
diplomatic
dir
direct
direction
directly
director
disable
disabled
disambig
disambiguation
discourse
discovered
discovery
discrete
discuss
discussion
discussions
disease
diseases
disk
display
displayed
displays
disputed
distance
distribute
distributed
distribution
district
districts
div
divdir
diversity
divided
divine
division
dk
dl
dm
dms
dna
do
doc
doctrine
document
documentation
documents
does
doesn
doi
doing
dom
domain
domestic
don
donald
donbas
done
dos
dotted
double
doubleday
doubt
douglas
douglass
dover
down
download
downloader
dp
dq
dr
draft
drafting
drive
drop
dropdown
dropped
ds
dt
du
dublin
duchy
due
duke
duration
during
dutch
dv
dw
dx
dynamics
dynasty
dz
e
ea
each
eapc
earl
earlier
earliest
early
earth
earthquake
easier
easily
east
eastern
eb
ec
ecb
ecological
ecology
economic
economics
economist
economy
ecosystem
ed
edge
edinburgh
edit
edited
editform
editing
edition
editions
editor
editorial
editors
edits
editsection
edittools
edmund
edna
edr
eds
edu
education
educational
edward
edwards
edwin
ee
eea
eec
ef
effect
effects
efta
eg
egypt
ei
eight
eighteenth
einstein
either
ej
el
elder
election
elections
electric
electrical
electronic
elem
element
elements
elevation
eliot
elizabeth
ellen
else
elsevier
em
email
embassy
embedded
emergence
emergency
emma
emperor
empire
empiricus
employment
empty
en
enable
enabled
encapsulate
encodeuricomponent
encourage
encyclopaedia
encyclopedia
encyclopedic
encyclopædia
end
ended
ending
ends
enemy
energy
enforcement
engels
engine
engineering
engineers
england
english
enlightenment
enough
enter
entered
entete
entire
entities
entries
entry
environment
environmental
eo
ep
epl
equal
equality
equity
er
era
erectus
eric
ernest
ernst
erosion
error
errors
es
especially
esposito
essay
essays
essential
est
established
establishment
estimate
et
etc
ethics
ethnic
ethnologue
etymology
eu
eucalyptus
eugene
europe
european
eusebius
ev
evans
even
event
events
eventually
ever
every
everyone
everything
evidence
evil
evolution
evolutionary
evt
ex
example
examples
except
exchange
executive
exercise
exist
existence
existing
exists
expand
expanded
expansion
expedition
experience
experiment
experimental
explained
explanation
explicitly
explorer
express
expression
ext
extended
extension
extent
external
extra
extract
extreme
eye
f
fa
faber
face
facebook
fact
factbook
factor
factors
facts
faculty
failed
failure
fair
faire
faith
fall
false
families
family
famous
fancy
fao
faq
far
farm
farming
father
fb
fbi
fc
fd
fda
fe
feature
featured
features
feb
february
federal
federation
feedback
feel
feet
felling
fellow
female
feminism
feminist
fever
few
ff
fh
fi
fiber
fiction
field
fields
fifth
fight
fighting
figure
figures
file
files
film
films
filter
final
finance
financial
find
fine
fir
fire
first
firstchild
fischer
fish
fisher
five
fix
fixed
fixme
fl
flag
flaggedrevs
flags
flat
flex
flight
float
floor
florida
flow
flower
fluid
fm
fn
fo
focus
folk
folklore
follow
followed
following
follows
font
fontsize
food
foot
footer
footnote
footnotes
for
force
forced
forces
ford
foreign
forest
forestry
forests
form
formal
format
formation
formats
formed
former
formerly
forms
fort
forum
forward
fossil
found
foundation
foundations
founded
founder
four
fourth
fox
fp
fq
fr
frac
frame
frameless
framework
franc
france
frances
francis
francisco
franco
frank
franklin
franz
fred
frederick
free
freedom
french
frequently
friedman
friedrich
friend
friends
frm
from
front
frontier
fruit
fs
ft
fu
fuel
full
function
functions
fund
fundamental
further
future
fv
fx
g
ga
gadget
gadgets
galaxy
gale
galileo
game
gamma
gandhi
garden
gardner
gary
gas
gay
gazette
gb
gd
gdp
ge
gender
gene
general
generally
generate
generation
genesis
genetic
genetics
geneva
genocide
genus
geo
geoffrey
geographic
geographical
geography
geological
geology
georg
george
georges
georgia
gerald
german
germany
geschichte
get
getelementbyid
getelementsbytagname
getparamvalue
getpref
gets
getting
geturl
getvalueof
gf
gfdl
gg
gh
ghazni
gi
gif
gilbert
gim
gini
gis
give
given
gives
giving
gje
gl
global
globe
glossary
gm
gn
gnu
go
goal
goals
god
gods
goes
going
gold
golden
goldman
good
google
gordon
got
gould
gov
governance
government
governor
gp
gps
gr
gradient
grafting
graham
grammar
grand
grant
granted
grants
gray
great
greater
greatest
greece
greek
green
greene
greenwood
gregg
gregory
grey
gross
ground
group
groups
grow
growing
growth
gsm
gt
gu
guardian
guc
guide
guidelines
guinea
gulf
h
ha
had
hadith
hague
half
hall
hamilton
hand
handbook
handle
hans
happen
hard
harold
harper
harris
harry
harvard
has
hasclass
hash
hastings
have
haven
having
hayek
hb
hcl
hd
hdedit
hdi
he
head
header
heading
health
heart
heat
hebrew
heidelberg
height
heinrich
held
hello
help
hence
henri
henry
her
herald
herat
herbert
here
heritage
hermann
herodotus
hf
hg
hh
hi
hidden
hide
hierarchy
high
higher
highly
highway
hildegard
hill
hills
him
himself
hindu
hinduism
hint
his
histoire
historia
historian
historians
historic
historical
histories
history
hiv
hl
hlist
hms
hn
hno
ho
holland
holocaust
holt
holy
home
homo
hong
honor
hook
hope
hopkins
horse
host
hot
hotcat
houghton
hour
hours
house
hover
how
howard
howe
however
hp
hr
href
hs
ht
htm
html
http
https
hu
hubble
hugh
hughes
human
humanity
humans
hume
hundred
hunt
husserl
hv
hyde
i
ia
ian
ib
ibm
ibn
ibrahim
ic
ice
icon
id
idea
ideas
identified
identifier
identify
identity
ideologies
ideology
idnumber
idx
ie
iea
ieee
if
ig
ii
iii
ij
ik
il
illinois
illustrated
ilo
im
image
imageannotator
images
imf
img
impact
imperial
imperialism
implications
importance
important
impossible
improve
improved
improvements
in
inarray
inc
include
included
includes
including
income
increase
increment
independence
independent
index
indexof
india
indian
indiana
indica
indicate
indigenous
individual
individualism
individualist
individuals
indo
indus
industrial
industry
inequality
infection
influence
influences
info
infobox
infoboxes
information
inherit
init
initial
initiative
inline
inner
innerhtml
input
insects
insert
insertbefore
inside
instance
instead
institute
institution
institutions
insurgency
int
integer
integrated
integration
intellectual
intelligence
intelligent
intended
inter
interest
interested
interests
interface
internal
international
internet
interpretation
interview
into
introduced
introduction
invalid
invasion
invention
investment
invited
involved
io
ion
ios
ip
ipa
ipaq
ipcc
iq
ir
iran
iranian
iranica
iraq
ireland
irish
iron
is
isaac
isbn
isi
islam
islamic
island
islands
iso
israel
iss
issn
issue
issues
istanbul
it
italian
italy
item
items
its
itself
iu
iucn
iv
iw
iww
ix
iz
j
ja
jack
jackson
jacob
jacques
james
jan
jane
january
japan
japanese
javascript
jay
jb
jean
jefferson
jeffrey
jennifer
jeremy
jerry
jerusalem
jesus
jewish
jews
ji
jihad
jim
jo
joan
joe
johann
johannes
john
johns
johnson
join
joint
jonathan
jones
jordan
jose
joseph
journal
journals
journey
jp
jpeg
jpg
jquery
jqueryslidemenu
jr
js
json
jstor
ju
juan
judaism
judgment
julia
julian
julius
july
jump
jun
june
just
justice
justify
justin
k
ka
kabul
kandahar
kant
karl
kategori
kb
ke
keep
keith
kelly
kennedy
kenneth
kentucky
kephir
kept
kern
kevin
key
keycode
kf
kg
kh
khan
khangul
ki
killed
kind
king
kingdom
kings
kiste
kj
klein
km
kmt
kn
knight
know
knowledge
known
ko
koh
korea
korean
kp
kr
kt
ku
kv
kw
ky
l
la
label
labels
labor
laboratory
labour
lack
lady
lae
lahore
laissez
lake
lan
land
landscape
lang
langquery
language
languages
lapi
lapidus
larawbar
large
largely
larger
largest
larry
last
late
later
latest
latin
latitude
latter
law
lawrence
laws
layer
layout
lb
ld
ldl
le
lead
leader
leaders
leadership
leading
leaf
league
learn
learning
least
leave
leaves
lecture
lectures
led
lee
left
legacy
legal
legend
leibniz
leiden
length
leo
leon
leonard
les
less
let
letter
letters
level
levels
lewis
lexicon
lexington
lf
lgbt
lh
li
liberal
liberalism
liberation
libertaire
libertarian
libertarianism
liberty
library
license
licensor
lieutenant
life
lift
light
like
likely
limit
limited
lincoln
line
linear
lines
linguistics
link
linked
linkedarticle
linking
links
lion
list
listed
listing
lists
lit
literally
literary
literature
little
littlefield
live
lived
lives
living
lix
ll
lloyd
ln
lo
load
loader
local
located
location
lock
locke
log
logged
logic
logical
logo
logos
london
long
longer
longitude
look
looking
lord
los
loss
lost
lot
louis
love
loves
low
lower
lp
lt
ltd
ltr
lu
ludwig
lv
ly
m
ma
machine
macmillan
mad
made
madison
magazine
magic
mahatma
mail
main
maine
mainly
maintain
maintenance
major
majority
make
makes
making
mal
male
malta
man
management
manager
manchester
manual
manuel
many
map
maps
mar
marc
march
marcus
margaret
margin
maria
marie
marine
mark
marker
market
markets
marks
markup
marriage
mars
marshall
martin
marx
marxist
mary
maryland
mass
massachusetts
master
match
material
materialism
materials
math
mathbb
mathbf
mathematical
mathematics
matter
matters
matthew
maurice
max
maximum
may
mb
mbox
mc
mcgraw
md
me
mean
meaning
means
measure
measurement
measures
measuring
mecca
mechanics
medal
media
mediawiki
medical
medicine
medieval
medina
mediterranean
medium
meeting
member
members
membership
memoirs
memorial
memory
men
mentioned
menu
menus
merge
merriam
message
messages
met
meta
metaphysics
method
methods
mexican
mexico
mf
mg
mi
michael
michel
michigan
micro
microeconomics
microformat
microsoft
mid
middle
mifflin
might
migration
mikhail
miles
military
mill
millennium
miller
million
mills
milton
min
mind
minister
ministry
minor
minority
minutes
misc
mises
mispy
missing
mission
mit
mitchell
mixed
mj
mk
ml
mm
mn
mo
mobile
mode
model
modern
modified
module
modules
mohammad
mohammed
mol
molecular
moment
monarchy
money
monitor
monobook
montgomery
month
monthly
months
montreal
moon
moore
moral
more
morebits
morgan
morning
morris
moscow
mosque
most
mostly
mother
motion
mount
mountain
mountains
mouse
move
movement
movements
movie
moving
moz
mp
mpla
mqd
mr
mri
mrna
mrrd
ms
msg
mt
mu
much
muhammad
multi
multiple
muq
murray
muscle
museum
music
muslim
muslims
must
mv
mw
mwd
mx
my
myth
mythology
mz
mzi
n
na
naaap
naacp
nabdp
nabi
nad
nafta
name
named
names
namespace
nancy
naoh
narcissus
narrow
nasa
nation
national
nationalism
nationality
nations
native
nato
natura
natural
nature
naval
navbox
navchild
navframe
navigation
navpop
navpopup
nazi
nb
nc
nd
ndc
ne
near
nearly
necessary
need
needed
needs
negative
negro
nelson
neo
neolithic
net
netherlands
network
networks
neutral
never
new
newman
newoption
news
newsletter
newspaper
newton
newwin
next
nf
ng
ngc
ngd
nh
ni
nicholas
nick
nietzsche
night
nineteenth
nj
njc
nju
nl
nm
nn
no
nobel
noble
node
noeditsection
noflip
noise
nominal
non
none
noodle
nor
normal
normally
norman
north
northern
norton
norwich
not
notable
note
noted
notes
nothing
notice
notices
notify
notoc
nov
nova
november
now
nowrap
np
npt
nq
nqd
nr
ns
nt
nts
nu
nuclear
null
number
numbered
numbers
numerous
nursery
nv
nw
ny
nz
nzy
o
oa
oad
ob
obituary
obj
object
objects
oc
occupation
occur
occurs
ocean
oct
october
od
oecd
of
off
offer
office
officers
official
often
og
oh
ohio
oi
oil
ois
ok
ol
old
older
oldest
oldid
oliver
om
on
once
one
ones
onfailure
online
only
onsuccess
oo
op
open
opening
opera
operating
operation
operations
opinion
opportunity
opposed
opposite
opposition
opt
option
optional
options
oqd
or
oral
order
ordered
ordinary
org
organic
organisation
organization
organizations
organized
oriental
origin
original
originally
origins
ortiz
os
osce
ospina
ot
other
others
otherwise
otto
ottoman
ou
our
out
outline
outlines
outlook
output
outside
over
overflow
overview
owen
own
owner
ownership
owq
oxford
oxygen
oz
ozu
p
pa
pacific
pact
padding
page
pagename
pageobj
pages
pagetext
pain
pajhwok
pakistan
pakistani
palgrave
pan
panel
paper
papers
par
para
paragraph
param
parameter
parameters
params
parent
parentnode
paris
park
parker
parliament
parliamentary
parse
parser
parsons
part
partial
participate
particular
particularly
parties
parts
party
pashto
pass
passed
password
past
patent
path
patients
patricia
patrick
pattern
patterns
paul
pay
pb
pc
pcr
pd
pdf
pdp
pdw
pe
peace
pearson
peel
peer
pen
penguin
peninsula
penis
pennsylvania
people
peoples
per
percent
perception
perform
performance
performed
perhaps
period
permanent
permission
permitted
perry
persian
person
personal
persons
perspective
perspectives
persuasion
pertaining
pet
peter
pf
pg
ph
phase
phd
phi
philadelphia
philip
philippines
philosopher
philosophers
philosophical
philosophy
phosphate
photo
photos
photosmart
php
physical
physics
physiology
pi
picto
picture
pictures
pierre
pine
pinter
pinus
pk
pl
place
placed
places
plain
plan
planet
planned
planning
plans
plant
plants
platform
plato
play
please
plus
pm
pmatrix
pmdi
pmdq
png
po
poetry
point
points
poland
pole
police
policies
policy
polish
political
politics
pollution
poly
poor
pop
pope
popper
popular
population
populations
popup
popups
popupstring
popuptoplinks
port
portal
portlet
portrait
pos
position
positive
possible
post
posted
poster
posts
potential
poverty
power
powerful
powers
pp
ppm
ppp
pq
pr
practical
practice
practices
prayer
pre
preceded
precision
pref
preface
preferences
preferred
prefix
prefixindex
prehistory
prentice
presence
present
presented
preservation
president
presidential
press
pressure
prev
prevent
prevention
preview
previews
previous
previously
price
primarily
primary
prime
prince
princeton
principal
principia
principle
principles
print
printed
printing
prior
privacy
private
prize
pro
probably
problem
problems
proceedings
process
processes
produce
produced
producer
producing
product
production
professional
professor
profile
profiles
program
programme
progress
progressive
project
projects
prompt
prop
propaganda
proper
properly
properties
property
prophet
proposal
proposals
proposed
prose
protect
protected
protection
protein
protestant
proto
protocol
prototype
provide
provided
provides
province
provincial
proxy
pruning
ps
psychological
psychology
pt
pu
pub
public
publication
publications
publicly
publique
published
publisher
publishers
publishing
puerto
pulmonary
pump
punishment
pure
purge
purpose
push
put
putin
pv
pw
px
pyrrhonism
pz
q
qa
qaa
qb
qc
qd
qf
qgd
qh
qquad
qr
qs
qu
quality
quantum
quarter
quarterly
que
queen
query
quest
question
questions
quickform
quotation
quote
quoted
quotes
qur
quran
qv
qwd
r
ra
race
racism
rad
radiation
radical
radio
radius
raf
rahman
rain
ralph
ram
rand
random
range
rank
ranked
rate
rater
rather
ratio
raw
ray
raymond
rb
rcid
rd
re
reach
reaction
read
reader
readers
reading
ready
reagan
real
reality
really
reason
reasons
rebellion
received
recent
recentchanges
recently
recognized
reconstruction
record
recorded
records
rect
red
redirect
redirects
reduction
ref
refer
reference
references
referred
refers
reflections
reflist
reform
reg
regard
regarding
regeneration
regexp
regia
regime
region
regional
regions
register
registration
regulation
reich
related
relation
relations
relationship
relative
release
released
relevant
relief
religion
religions
religious
remain
remains
removal
remove
removed
renaissance
rene
rep
repeat
replace
replaced
replaces
report
reported
reports
representative
representatives
reprint
reprinted
repu
republic
request
requests
require
required
requirements
requires
res
research
reserve
reset
resistance
resolution
resource
resources
respect
response
responsible
rest
result
results
ret
retrieved
return
returns
reuters
rev
revealed
revert
review
reviews
revised
revision
revisions
revolt
revolution
revolutionary
reyes
rez
rf
rgd
rh
rhetoric
rho
rhodes
ri
rich
richard
richardson
right
rights
ring
rise
rising
risk
ritchie
river
rk
rm
rn
rna
ro
road
roads
robert
roberts
robertson
robin
robinson
rock
roger
role
rom
roma
roman
rome
ronald
roosevelt
root
roots
rosa
rose
roser
ross
rothbard
round
rounded
route
router
routledge
row
rowman
rows
roy
royal
rp
rr
rrna
rs
rt
rtius
ru
rudolf
rule
rules
run
running
ruolo
rural
rus
russell
russia
russian
ruth
rutherford
rv
rx
rz
s
sa
sacred
safe
safety
sage
sahara
saharan
said
saint
sal
salt
sam
same
samuel
san
sandbox
sandy
sans
santa
sapiens
sarah
sars
satellite
saudi
saunders
save
saw
say
says
sb
sc
scale
scan
schedule
scholar
scholars
school
schools
schuster
science
sciences
scientific
scientist
scientists
scope
scotland
scott
scottish
screen
screenplay
screenshot
script
scripts
sd
sdg
sdgs
se
sea
sean
search
season
sec
second
secondary
seconds
secret
secretary
section
sections
secular
security
see
seed
seedling
seeds
seems
seen
segment
seismic
select
selected
selection
self
semi
semitism
senate
send
sense
sent
sep
separate
separated
sept
september
serial
series
serif
serve
server
service
services
session
set
setattribute
sets
setting
settings
settlement
setup
seven
several
sex
sextus
sexual
sf
sh
shadow
shah
shall
shape
share
shared
shaw
she
shed
shi
shield
shift
shifted
short
shortcut
shortcuts
should
show
showing
shown
shows
shrubs
shtml
si
side
sign
signature
significance
significant
silk
silver
similar
simon
simple
simply
sin
since
singapore
singer
singh
single
sinus
sinuses
sio
sir
sister
site
sites
situation
six
sixth
size
sk
ski
skin
sky
sl
slave
slavery
slaves
sm
small
smaller
smith
sn
snacks
snow
so
social
socialism
socialist
societies
society
sociology
software
soil
solar
solid
solution
some
someone
somerset
something
sometimes
son
sons
soon
sort
sound
source
sources
south
southeast
southern
sovereignty
soviet
soyuz
sp
space
spaces
spain
span
spanish
speak
speaking
special
speciallink
specialpage
species
specific
specified
specify
spectrum
speech
speed
speedy
spencer
spirit
spiritual
split
sport
sports
spp
spread
spring
springer
sq
square
sr
src
sry
ss
ssr
st
stable
staff
stage
stalin
stand
standard
standards
stanford
stanley
star
start
started
starting
stat
state
stated
statement
statements
states
station
statistical
statistics
status
statuselement
stay
steel
stem
step
stephen
steve
steven
still
stock
stone
stop
store
stories
story
str
strategic
strategy
strauss
street
stress
strict
string
strong
structural
structure
structures
struggle
sts
stuart
stub
student
students
studies
studio
study
stuff
style
styles
su
sub
subgroup
subject
subjects
submit
subscription
subset
substr
substring
success
succession
successor
such
suetonius
suffrage
suggest
suggested
sullivan
sum
summary
summer
summit
sun
sunni
sup
super
superior
supply
support
supported
supreme
sur
sure
surface
surname
survey
susan
sustainability
sustainable
sv
svg
sw
switch
sx
sydney
symbol
symbols
symposium
syndrome
syntax
synthesis
syria
sysop
system
systems
t
ta
taand
tab
tabisfresh
table
tables
tabs
tafsir
tag
taggerdefaultconfig
tags
take
taken
takes
taking
taliban
talk
target
task
tauris
tax
taylor
tb
tbody
tc
td
te
teacher
teaching
teak
team
tech
technical
techniques
technology
tehran
telegraph
television
tell
telugu
temperature
template
templatedata
templates
temple
ten
term
terms
territories
territory
terror
terrorism
test
testament
testing
texas
text
textarea
texts
tf
tfr
tg
th
than
thank
thanks
that
the
theatrical
their
them
theme
themselves
then
theology
theoretical
theories
theory
there
therefore
these
thesis
they
thing
things
think
thinking
thinning
third
this
thomas
thompson
thomson
thoreau
those
though
thought
thousand
threat
three
through
throughout
thumb
thumbnail
thus
ti
ticker
till
timber
time
timeline
times
timestamp
timothy
tissue
title
titles
tk
tl
tls
tm
to
toc
today
todd
together
token
tolafghan
tolowercase
tom
tomb
too
took
tool
toolbar
tools
tooltip
top
topic
topics
toronto
total
toward
towards
town
tp
tpinfo
tprintf
tr
tra
track
tracker
tracking
trade
tradition
traditional
traditions
training
trans
transactions
transformation
transition
translate
translated
translation
translations
translator
translators
transparent
travel
tre
treatment
treaty
tree
trees
trial
tribes
troops
tropical
true
trump
trust
trustees
truth
try
ts
tsh
tt
ttta
tu
tube
tucker
tudor
turkey
turkic
turkish
turn
turner
tutorial
tv
tw
twelve
twentieth
twenty
twinkle
twinkleconfig
two
tx
txt
type
typeof
types
typically
tz
tzwrpdhvuata
u
ua
uae
uap
ub
uc
ucoc
ud
uf
uh
uhelp
ui
uk
ukraine
ukrainian
ul
un
unabridged
und
undefined
under
understand
understanding
undp
une
unep
unesco
unicef
union
unique
unit
united
units
unity
univ
universal
universe
university
unix
unknown
unless
unreviewed
until
up
update
updated
updates
upload
uploads
upon
upper
upright
ur
urban
urdu
url
us
usa
usage
usda
use
used
useful
user
username
users
uses
using
ussr
usual
usually
ut
utc
utemplate
utext
utfzz
util
uv
uw
ux
uz
v
va
val
valley
value
values
van
vandalism
var
variety
various
vb
vd
vdots
ve
vec
vector
vegetation
vein
veins
venezuela
verlag
version
versions
vertebrate
vertical
very
vevo
vf
vh
vi
via
victor
victoria
video
vienna
vietnam
view
viewed
viewer
views
vii
viii
viking
vila
village
violence
virginia
virtual
virus
visible
vision
visual
visualeditor
vit
vita
vitamin
vj
vl
vladimir
vn
vo
voice
voices
void
vol
vols
volume
volumes
volunteer
volunteers
von
vote
voting
vp
vpn
vr
vs
vuata
vuate
vuati
vv
vz
w
wa
waad
wales
walker
wall
wallace
walter
want
wanted
wap
war
ward
warfare
warming
warn
warning
warren
wars
was
washington
watch
watchlist
water
watson
wave
way
ways
wb
wbx
wc
wd
we
wealth
weapons
weather
web
weber
webkit
website
webster
week
weekly
weeks
weight
weizsa
welcome
welcomeen
welfare
well
wells
went
were
wes
west
western
westminster
westport
wf
wgaction
wgnamespacenumber
wgpagename
wguserlanguage
wh
what
wheeler
when
where
whether
which
while
white
who
whole
whom
whose
why
wi
wide
widely
widget
width
wiki
wikidata
wikieditor
wikileaks
wikilink
wikimedia
wikimedians
wikipage
wikipe
wikipedia
wikipedians
wikipedias
wikiproject
wikis
wikisource
wikitext
wiktlookup
wild
wildlife
wiley
wilhelm
will
william
williams
wilson
win
wind
window
windows
windsor
wing
winter
wireless
wisconsin
wish
wishes
wishlist
with
within
without
wj
wl
wm
wmf
wmflabs
wo
woman
women
won
wood
word
words
work
worked
workers
working
works
world
worldwide
would
wp
wptextbox
wr
wrap
wright
write
writer
writers
writing
writings
written
wrong
wrote
ws
wt
wu
wv
ww
www
wy
x
xi
xii
xiii
xiv
xj
xml
xp
xr
xv
xvi
xx
xy
y
ya
yale
year
years
yellow
yes
yet
yf
yi
york
you
young
your
yourself
youtube
yp
yu
yv
yyy
z
za
zalta
ze
zealand
zero
zh
zi
zn
zone
zoom
zu
zur
zz
{
|
}
~



¡
¢
£
§
¨
©
ª
«
¬
­
®
¯
°
±
²
³
´
µ
¶
·
¸
º
»
½
¿
×
ß
æ
ð
÷
ø
þ
ı
ŀ
ł
ŋ
œ
ƣ
ƶ
ɐ
ɑ
ɓ
ɔ
ɕ
ɗ
ə
ɛ
ɨ
ɪ
ʉ
ʊ
ʑ
ʰ
ʲ
ʷ
ʹ
ʻ
ʼ
ʾ
ʿ
ˈ
ˌ
ː
̀
́
̂
̃
̄
̅
̆
̇
̈
̉
̊
̋
̌
̍
̏
̑
̓
̔
̛
̣
̥
̦
̧
̨
̩
̪
̭
̮
̯
̰
̱
̲
̸
͂
ͅ
͡
α
β
γ
δ
ε
η
θ
ι
κ
λ
μ
ν
ξ
ο
π
ρ
ς
σ
τ
υ
φ
χ
ψ
ω
а
б
в
г
д
е
ж
и
к
л
м
н
о
с
т
у
ф
ч
шаблон
ъ
ь
я
і
ј
ћ
ѵ
ҥ
ӏ
ә
ө
ԍ
ְ
ִ
ֵ
ֶ
ַ
ָ
ֹ
ּ
ׁ
א
ב
ד
ה
ו
ח
י
כ
ל
ם
מ
ע
ק
ר
ש
ת
״
،
ؒ
؛
؟
ء
ا
اء
اءك
اءن
اب
ابا
اباد
اباده
ابادي
ابادۍ
اباسين
اباسین
ابتدا
ابتداي
ابتدايي
ابتدایه
ابتدایي
ابتدایی
ابتر
ابتلا
ابتکار
ابجد
ابخازیا
ابداع
ابدال
ابدالي
ابدي
ابر
ابراهام
ابراهم
ابراهيم
ابراهيمي
ابراهیم
ابراهیمي
ابرهه
ابزار
ابلاغ
ابن
ابنا
ابهام
ابو
ابواب
ابوالحسن
ابوالفضل
ابوالقاسم
ابوبكر
ابوبکر
ابوجاذبه
ابوجهل
ابوحنيفه
ابوداود
ابوداوود
ابوذر
ابوذره
ابوسعيد
ابوسفيان
ابوشاکر
ابوطالب
ابوظبي
ابوظبۍ
ابوعبدالله
ابولهب
ابونعيم
ابوهريره
ابويعلي
ابى
ابي
ابيطالب
ابی
ابې
ابېڅو
اة
ات
اتاترک
اتباع
اتباعو
اتحاد
اتحادي
اتحاديه
اتحاديو
اتحاديې
اتحادیه
اتحادیو
اتحادیې
اتر
اترو
اتريش
اتريشي
اتریش
اتریشي
اترې
اتسيز
اتش
اتشفشاني
اتصال
اتفاق
اتفاقا
اتفاقي
اتفاقۍ
اتل
اتلان
اتلانتا
اتلانتيک
اتلانتیک
اتلانو
اتلس
اتلسم
اتلسمه
اتلسمې
اتلسو
اتلولي
اتلولۍ
اتم
اتمر
اتمه
اتموسفير
اتموسفيري
اتموسفیر
اتمي
اتمې
اتن
اته
اتو
اتوم
اتومات
اتوماتيک
اتوماتیک
اتومسفیر
اتومسفیري
اتومه
اتوموسفیر
اتومونه
اتومونو
اتومي
اتيا
اتکا
اتڼ
اتیا
اثار
اثارو
اثبات
اثر
اثرات
اثره
اثرونه
اثرونو
اثنا
اثير
اج
اجاره
اجارې
اجازت
اجازه
اجازې
اجبار
اجباري
اجتماع
اجتماعي
اجتماعی
اجتهاد
اجداد
اجدادو
اجر
اجرا
اجراء
اجرالدین
اجرام
اجرامو
اجراي
اجرايي
اجرایوي
اجراییه
اجزا
اجزاء
اجزاو
اجزاوو
اجزاوې
اجسام
اجسامو
اجل
اجماع
اجمعين
اجمل
اجناس
اجناسو
اجنډا
اح
احاديث
احاديثو
احادیث
احادیثو
احاطه
احتجاج
احتراق
احترام
احترامي
احتمال
احتمالا
احتمالاتو
احتمالي
احتياط
احتياطي
احتکار
احتیاط
احد
احداث
احرام
احزاب
احزابو
احساس
احساسات
احساساتو
احساساتي
احساسوي
احساسي
احسان
احسن
احصاي
احصايوي
احصايې
احصایه
احصایوي
احصایې
احضار
احقاق
احكام
احكامو
احمد
احمدبن
احمدزي
احمدزی
احمدشاه
احمدي
احنافو
احوال
احوالو
احيا
احياء
احيانا
احکام
احکامو
احیا
احیاء
اخ
اخبار
اخبارونو
اختر
اختراع
اختراعات
اختراعاتو
اختصار
اختصاصي
اختصاصی
اختلاس
اختلاط
اختلاف
اختلافات
اختلافاتو
اختلافونه
اختلافونو
اختلافي
اختلال
اختلالات
اختلالاتو
اخته
اختيار
اختيارات
اختياروي
اختياري
اختیار
اختیاره
اختیاري
اخذ
اخر
اخراج
اخرت
اخره
اخروي
اخري
اخست
اخستل
اخستلو
اخستنه
اخستنې
اخسته
اخستو
اخستونکي
اخستى
اخستي
اخستی
اخستې
اخطب
اخلاص
اخلاق
اخلاقو
اخلاقي
اخلاقياتو
اخلاقی
اخلاقیاتو
اخلم
اخلو
اخلي
اخلی
اخلې
اخند
اخندزاده
اخوا
اخوان
اخوند
اخوندزاده
اخيست
اخيستل
اخيستلو
اخيستنه
اخيستني
اخيستنې
اخيسته
اخيستو
اخيستونکي
اخيستونکی
اخيستى
اخيستي
اخيستی
اخيستې
اخځليک
اخځليکونه
اخځونه
اخیست
اخیستل
اخیستلای
اخیستلو
اخیستنه
اخیستنې
اخیسته
اخیستو
اخیستونکو
اخیستونکي
اخیستونکی
اخیستي
اخیستی
اخیستې
اخېستل
اخېستلو
اخېستنه
اخېستنې
اخېستې
اد
ادا
اداء
اداب
ادابو
اداره
ادارو
ادارى
اداري
اداری
ادارې
ادامه
اداينې
اداکار
اداکارانو
اداکاره
اداکاري
اداکارۍ
اداکارې
ادب
ادبي
ادبيات
ادبياتو
ادبی
ادبیات
ادبیاتو
ادرار
ادرارو
ادراک
ادراکي
ادرس
ادريس
ادریس
ادعا
ادعاوو
ادعاوې
ادعاګانې
ادغام
ادلون
ادم
ادوارد
اديان
اديانو
اديب
اديبان
اديبانو
ادیان
ادیانو
ادیب
ادې
اذ
اذا
اذان
اذربايجان
اذربایجان
ار
اراده
ارادو
ارادي
ارادې
اراسموس
اراضي
ارام
ارامه
ارامي
ارامیک
ارامۍ
اراکوزيا
ارباب
ارباز
ارتباط
ارتباطات
ارتباطاتو
ارتباطي
ارتجاعي
ارتداد
ارتر
ارتفاع
ارتفاعاتو
ارتقا
ارتقاء
ارتودوکس
ارتودوکسي
ارتور
ارتکاب
ارث
ارثي
ارجاع
ارجن
ارجنټاين
ارجنټاین
اردبيل
اردن
اردو
اردوغان
ارزان
ارزانه
ارزو
ارزول
ارزولو
ارزونه
ارزونو
ارزونې
ارزوي
ارزي
ارزيابي
ارزښت
ارزښتمن
ارزښتمند
ارزښتمنه
ارزښتمنو
ارزښتناک
ارزښتناکه
ارزښتناکو
ارزښته
ارزښتونه
ارزښتونو
ارزګان
ارزگان
ارزیابي
ارسال
ارستو
ارسطو
ارسلا
ارسلان
ارشاد
ارشد
ارشميدس
ارشيف
ارشیف
ارغستان
ارغنداب
ارغواني
ارقام
ارقامو
ارقم
ارل
ارمان
ارمانونه
ارمانونو
ارماني
ارمغان
ارمنستان
ارمني
ارمنیانو
ارمينيا
ارمينيايي
ارمینیا
ارنست
ارنسټ
ارنولډ
اره
اروا
ارواح
ارواحو
ارواه
اروايي
ارواپوه
ارواپوهنه
ارواپوهنې
ارواښاد
اروایي
اروزګان
اروپا
اروپايان
اروپايانو
اروپايي
اروپايی
اروپایان
اروپایانو
اروپایي
اروپایی
اروپایې
اريا
اريانا
اريايي
ارين
ارچي
ارکان
ارکانو
ارګ
ارګان
ارګانونو
ارګانیزم
ارګانیزمونه
ارګانیزمونو
ارګانېزم
ارګانېزمونه
ارګانېزمونو
ارګون
ارگ
ارگان
ارگانيزمونه
اریانا
اریتریا
اریک
ارې
از
ازاد
ازادانه
ازاده
ازادو
ازادولو
ازادوي
ازادي
ازاديږي
ازادی
ازادیو
ازادۍ
ازادې
ازادېږي
ازار
ازبک
ازبکستان
ازبکي
ازلي
ازمايل
ازمايي
ازمايښت
ازمايښتونه
ازمايښتونو
ازمايښتي
ازمایښت
ازمایښتونه
ازمایښتونو
ازمایښتي
ازموينه
ازموينو
ازمويني
ازموينې
ازمویل
ازموینه
ازموینو
ازموینې
ازمېښت
ازمېښتونه
ازمېښتونو
ازمېښتي
ازهر
ازیرگل
اس
اسارت
اساس
اساسا
اساسات
اساساتو
اساسنامه
اساسنامې
اساسى
اساسي
اساسی
اساطیر
اسامبلی
اسامبلۍ
اسامبلې
اسامه
اسان
اسانتيا
اسانتياوو
اسانتياوې
اسانتیا
اسانتیاوو
اسانتیاوې
اسانه
اساني
اسانی
اسانۍ
اسانې
اسباب
اسبابو
است
استاد
استادان
استادانو
استاده
استادي
استادۍ
استاذ
استاذانو
استازو
استازولي
استازوليو
استازولۍ
استازى
استازي
استازيتوب
استازيه
استازيو
استازی
استازیتوب
استازې
استان
استانبول
استبداد
استبدادي
استتار
استثمار
استثنا
استثناء
استثنايي
استحصال
استحقاق
استحکام
استخبارات
استخباراتو
استخباراتي
استخدام
استخراج
استدلال
استدلالونه
استدلالونو
استدلالي
استراحت
استراليا
استراليايي
استرالیا
استعاره
استعارې
استعداد
استعدادونه
استعدادونو
استعفا
استعفاء
استعمار
استعماري
استعمال
استعمالول
استعمالولو
استعمالوي
استعماليږي
استعمالیږي
استعمالیږی
استعمالېږي
استغفار
استفاده
استفادي
استفادی
استفادې
استقامت
استقبال
استقرار
استقلاب
استقلال
استملاک
استناد
استنباط
استنتاج
استهلاک
استو
استوا
استوانه
استوايي
استوایي
استوایی
استول
استولو
استونیا
استوي
استوګن
استوګنه
استوګنو
استوګنځايونه
استوګنځايونو
استوګنځای
استوګنځایونه
استوګنځایونو
استوګنځي
استوګنځی
استوګنې
استوگن
استوگنه
استيعاب
استينوسفير
استیضاح
استیناف
اسحاق
اسحق
اسد
اسدالغابه
اسدالله
اسراء
اسرار
اسرارو
اسراف
اسراي
اسرايل
اسرايلو
اسراييلو
اسراییل
اسراییلو
اسعار
اسعارو
اسعد
اسفالت
اسقف
اسقفي
اسلافو
اسلام
اسلامه
اسلامى
اسلامي
اسلاميه
اسلامی
اسلامیه
اسلم
اسلوب
اسم
اسما
اسماء
اسمار
اسماعيل
اسماعيليه
اسماعیل
اسمان
اسمانه
اسمانو
اسمانونه
اسمانونو
اسماني
اسمبلۍ
اسمي
اسناد
اسنادو
اسهال
اسهامو
اسود
اسونه
اسونو
اسي
اسيا
اسيان
اسيايي
اسيد
اسيدونه
اسيدونو
اسير
اسيران
اسټراليا
اسټرالیا
اسپ
اسپانوي
اسپانيا
اسپانيې
اسپانیا
اسپانیایي
اسپرانتو
اسپرانټو
اسپرین
اسپيزيا
اسکندر
اسکندریه
اسیا
اسیايي
اسیایي
اسید
اسیدونه
اسیدونو
اسیر
اسیران
اسیرانو
اسیډ
اسیډونو
اش
اشاره
اشارو
اشاروي
اشاري
اشارې
اشاعره
اشباع
اشتاین
اشتباه
اشتر
اشتراکي
اشتقاق
اشتها
اشخاص
اشخاصو
اشراف
اشرافانو
اشرافو
اشرافي
اشرافيت
اشرافیت
اشرف
اشعار
اشعارو
اشعث
اشعري
اشغال
اشلي
اشنا
اشنايي
اشهد
اشوب
اشور
اشوري
اشوریانو
اشوکا
اشکالو
اص
اصابه
اصالت
اصحاب
اصحابانو
اصحابو
اصطلاح
اصطلاحا
اصطلاحات
اصطلاحاتو
اصطلاحي
اصطلاحګانې
اصغر
اصف
اصفهان
اصفهاني
اصل
اصلا
اصلاح
اصلاحات
اصلاحاتو
اصلاحي
اصله
اصلي
اصليت
اصلی
اصلیت
اصول
اصولا
اصولو
اصولي
اصيل
اصیل
اضافت
اضافه
اضافي
اضطراب
اضطراري
اط
اطاعت
اطراح
اطراف
اطرافو
اطرافي
اطريش
اطریش
اطریشي
اطفالو
اطلاع
اطلاعات
اطلاعاتو
اطلاعاتي
اطلاق
اطلس
اطمنان
اظهار
اع
اعاده
اعتبار
اعتباره
اعتباري
اعتدال
اعتراض
اعتراضونه
اعتراضونو
اعتراف
اعتصاب
اعتقاد
اعتقادي
اعتماد
اعتمادي
اعتکاف
اعثم
اعجاز
اعداد
اعدادو
اعدام
اعدامولو
اعدامونو
اعراض
اعراف
اعزاز
اعشاريه
اعصاب
اعصابو
اعصابي
اعظم
اعظمي
اعلام
اعلاميه
اعلاميې
اعلامیه
اعلامیې
اعلان
اعلاناتو
اعلانول
اعلانولو
اعلانونه
اعلانونو
اعلانوي
اعلم
اعلى
اعليحضرت
اعلی
اعلیحضرت
اعمال
اعمالو
اغ
اغا
اغذباغ
اغزن
اغزي
اغلب
اغلې
اغوستل
اغوستلو
اغوستي
اغوستې
اغوندي
اغيز
اغيزمن
اغيزه
اغيزو
اغيزي
اغيزې
اغیز
اغیزمن
اغیزمنتوب
اغیزمنه
اغیزه
اغیزو
اغیزی
اغیزې
اغېز
اغېزمن
اغېزمنتوب
اغېزمنتيا
اغېزمنتیا
اغېزمنه
اغېزمنو
اغېزمنوي
اغېزمنې
اغېزمنېږي
اغېزناک
اغېزناکتیا
اغېزناکه
اغېزناکو
اغېزناکې
اغېزه
اغېزو
اغېزې
اف
افاده
افت
افتاب
افتتاح
افتخار
افتخاري
افتونه
افتونو
افراد
افرادو
افراز
افرازوي
افراط
افراطي
افراطيان
افراطیت
افريقا
افريقايي
افریقا
افریقايي
افریقایان
افریقایانو
افریقایي
افریقایی
افریل
افسانه
افسانو
افسانوي
افسانې
افسر
افسران
افسرانو
افسردګي
افسوس
افشا
افشار
افشاني
افشانۍ
افضل
افعالو
افغا
افغان
افغانان
افغانانو
افغانستان
افغانستانه
افغانه
افغاني
افغانيو
افغانی
افغانۍ
افق
افقي
افكارو
افلاس
افلاطون
افلاطوني
افکار
افکارو
اق
اقامت
اقامه
اقبال
اقتباس
اقتدار
اقتصاد
اقتصادونه
اقتصادونو
اقتصادي
اقتصادپوه
اقتصادپوهان
اقتصادپوهانو
اقتصادی
اقدام
اقدامات
اقداماتو
اقرار
اقسام
اقل
اقليم
اقليمي
اقلیت
اقلیتونو
اقلیم
اقلیمي
اقوام
اقیانوس
اقیانوسیه
اك
اكاډمۍ
اكبر
اكثريت
اكرم
ال
الا
الاباما
الات
الاتو
الاثار
الاحکام
الاخبار
الاربعه
الارض
الازهر
الاستيعاب
الاسد
الاسرار
الاسلام
الاسلامي
الاسود
الاسکا
الاشراف
الاصابة
الاصابه
الاصل
الاصله
الاصول
الاعتدال
الاعيان
الامام
الامامة
الامر
الان
الانبياء
الانوار
الاهياتو
الاول
الاولياء
الاي
الايمان
الباري
الباني
البانيا
البانيايي
البانیا
البته
البحر
البخاري
البدايه
البرت
البرټ
البلاغه
البلاغې
البلد
البلدونو
البم
البنا
البوم
البيان
البيت
البکر
البېروني
البېډو
الت
التاریخ
التذكره
الترمذي
التنزيل
التهاب
التهابي
التهذيب
التواريخ
التوحيد
الث
الثاني
الجامع
الجبر
الجراح
الجزاير
الجزایر
الجزیره
الجزیرې
الجنة
الجنه
الجهاد
الجواهر
الجوشن
الجي
الجيان
الجيانو
الحاج
الحاد
الحارث
الحاق
الحجروي
الحجې
الحديث
الحديد
الحدیث
الحرام
الحسن
الحسين
الحق
الحمایه
الحمد
الحمدلله
الحکمه
الحکومه
الخط
الخطاب
الخلفاء
الخلق
الخميس
الخواص
الد
الدرالمنثور
الدررالسنيه
الدنيا
الدوله
الدين
الديهايد
الديهايدونه
الدین
الذ
الذهب
الذي
الذين
الر
الرحمان
الرحمن
الرحيم
الرحیم
الرسول
الرشيد
الرشید
الرضا
الز
الزام
الزامي
الزایمر
الزمان
الزهرا
الزوايد
الس
السراج
السلام
السلطنت
السلطنه
السمطين
السنة
السنه
السيوطي
الش
الشان
الشبهات
الشريعة
الشمس
الشيخ
الشيعه
الشیخ
الص
الصحابه
الصحه
الصحيحين
الصحې
الصلاة
الصواعق
الط
الطارق
الطالب
الطفيل
الظ
العابدين
العابدین
العاده
العاص
العالم
العالمين
العدل
العرب
العربي
العربية
العقبى
العقول
العلم
العلماء
العلوم
العمال
العمل
الغابه
الغدير
الغزالي
الغمه
الف
الفا
الفاظ
الفاظو
الفبا
الفباء
الفت
الفتح
الفرد
الفریډ
الفرېډ
الفظي
الفقه
القا
القاب
القاح
القاعده
القاعدې
القدر
القدس
القدير
القرا
القران
القرى
القضات
القلي
الكبير
الل
اللغة
الله
اللهم
اللہ
الم
الما
الماس
المال
المان
الماني
المانيانو
المانی
المانیانو
المثل
المحرقه
المذاهب
المستدرك
المسلمون
المسلمين
المسلمین
المعارف
المعاني
المغرب
المغني
المقدس
المللي
المللی
الملک
المنافع
المناقب
المنثور
المهمه
المو
المودة
الموده
المومنين
المونيم
المونیم
الميزان
المپیک
المیلاد
الن
النار
الناس
النبى
النبي
النبيين
النبی
النزول
النسا
النساء
النضره
النضير
النهار
النهر
النهرين
النهرین
النور
النوع
اله
الهام
الهامي
الهند
الهه
الهو
الهى
الهي
الهياتو
الهی
الهیات
الهیاتو
الهیاتي
الهې
الو
الواک
الوت
الوتنه
الوتنو
الوتنې
الوتونکو
الوتونکي
الوتونکی
الوتکه
الوتکو
الوتکې
الوجود
الوداع
الوزي
الوهيت
الى
الي
الياس
اليزابت
اليزابيت
اليقين
الين
اليه
اليوم
اليکترون
الټرا
الپ
الډریج
الکان
الکانونه
الکانونو
الکايل
الکبير
الکترو
الکتروليت
الکترومقناطیسي
الکترون
الکترونونه
الکترونونو
الکتروني
الکترونیکي
الکتریکي
الکحل
الکساندر
الکساندرا
الکسیوس
الکلام
الکوزي
الکوزی
الکول
الکولو
الکولي
الکوټ
الګو
الګورېتم
الی
الیاس
الیاژ
الیزابت
الیزابیت
الیزابېت
الیس
الین
الینور
الینیشن
الیه
الې
الېزابېت
ام
اما
اماتور
اماده
امارات
اماراتو
امارت
امازون
امالي
امام
امامان
امامانو
امامت
امامه
امامي
اماميان
اماميانو
اماميه
امان
امانت
امانتونه
امانوي
اماني
امبولانس
امبېدکار
امبېکي
امت
امتحان
امتداد
امته
امتونو
امتياز
امتيازات
امتيازاتو
امتیاز
امتیازات
امتیازاتو
امجد
امداد
امر
امراض
امراضو
امرتسر
امروز
امرونه
امريكا
امريکا
امريکايان
امريکايانو
امريکايي
امريکاګانو
امريکې
امریکا
امریکايي
امریکايۍ
امریکایان
امریکایانو
امریکایي
امریکایی
امریکایۍ
امریکن
امریکې
امسا
امستردام
امسټرډام
امضا
امكان
املا
املاک
املاکو
امله
امن
امنيت
امنيتي
امنيه
امنیت
امنیتي
امنیه
امه
امو
اموال
اموالو
امور
امورو
اموس
امونيا
امونيم
امونیا
اموي
امويانو
امویانو
اميد
امير
اميرالمو
اميرالمومنين
اميرانو
امين
امينو
اميه
امپراتور
امپراتورانو
امپراتوري
امپراتوریو
امپراتورۍ
امپراطور
امپراطوري
امپراطوری
امپراطورۍ
امپرياليزم
امپریالیزم
امپریالېزم
امکان
امکانات
امکاناتو
امید
امیر
امیرالمو
امیل
امین
امیندوارۍ
امینو
امیه
امېندوارۍ
ان
انا
اناتولي
اناتوليا
اناتولیا
اناتومي
اناتوميکي
انار
انارشي
انارشيزم
انارشیزم
انارشیست
انارشیستانو
انارشیستي
انارشېزم
انارشېست
انارو
انارکلي
انارکو
انالوګ
اناټولیا
انبار
انبساط
انبياء
انبياوو
انبیاوو
انت
انتان
انتانات
انتاناتو
انتاني
انتخاب
انتخابات
انتخاباتو
انتخاباتي
انتخابونه
انتخابونو
انتخابي
انتروپولوژي
انترکتيکا
انترکتیکا
انترکس
انتشار
انتشارات
انتصاب
انتصابي
انتظار
انتظام
انتفاعي
انتقاد
انتقادي
انتقال
انتقالوي
انتقالي
انتقاليږي
انتقالېږي
انتقام
انتن
انتنونه
انتها
انتوني
انتونیو
انتى
انتي
انتيجن
انتی
انجام
انجلس
انجلۍ
انجمن
انجن
انجنونه
انجنونو
انجنير
انجنيران
انجنيري
انجنيرۍ
انجنیر
انجنیران
انجنیرانو
انجنیري
انجنیرۍ
انجونو
انجونې
انجيل
انجينر
انجينري
انجينير
انجیل
انجیلي
انجینر
انجینران
انجینرانو
انجینري
انجینرۍ
انحراف
انحصار
انحصاري
انحضرت
انحطاط
انحلال
اند
انداز
اندازه
اندازو
اندازي
اندازی
اندازې
اندام
اندامونو
اندر
اندرا
اندرو
اندرونیکوس
اندریو
اندلس
اندنه
اندنې
انده
اندو
اندونه
اندونو
اندونيزيا
اندونیزیا
اندي
اندړ
اندړو
اندی
اندیال
اندیالانو
اندیز
اندیښمن
اندیښنه
اندیښنې
اندۍ
اندې
اندېښمن
اندېښنه
اندېښنو
اندېښنې
انرژي
انرژی
انرژۍ
انزال
انزايم
انزايمونه
انزایم
انزایمونه
انزایمونو
انزوا
انس
انساب
انساج
انساجو
انسان
انسانان
انسانانو
انسانه
انسانها
انسانو
انساني
انسانيت
انسانی
انسانیت
انستيتوت
انستيتيوت
انستیتوت
انستیتیوت
انستېتیوت
انسجام
انسولين
انسولین
انسټاګرام
انسټيټيوټ
انسټیټیوټ
انشا
انشاء
انشعاب
انشټاین
انشټین
انصار
انصارو
انصاري
انصاف
انصافه
انضباط
انطاکيه
انطباق
انعام
انعامونه
انعطاف
انعکاس
انفاق
انفال
انفجار
انفرادي
انفراديت
انفرادیت
انفلاسيون
انفلاسیون
انفلونزا
انفلوينزا
انقباض
انقراض
انقره
انقرې
انقلاب
انقلابونه
انقلابونو
انقلابي
انقلابیانو
انقلابیونو
انكار
انكشاف
انلاین
انما
انه
انو
انوار
انواع
انواعو
انور
انوش
انوشکا
انى
اني
انيس
انٹرفیس
انټر
انټرنيټ
انټرنيټي
انټرنټ
انټرنټي
انټرنیټ
انټرنیټی
انټرنېټ
انټرنېټي
انټروپي
انټوني
انټي
انټيجین
انځر
انځور
انځورتون
انځورونه
انځورونو
انځوروي
انځورګر
انځورګري
انځورګرۍ
انځورگر
انځوریز
انچ
انچه
انچو
انډرايد
انډرسن
انډروميډا
انډریو
انډول
انډي
انډيا
انډيانا
انډيوال
انډیا
انډیانا
انډیز
انک
انکار
انکشاف
انکشافي
انګارليځ
انګاري
انګازې
انګريزانو
انګريزي
انګریز
انګریزان
انګریزانو
انګریزي
انګریزې
انګرېز
انګرېزانو
انګرېزي
انګرېزۍ
انګستان
انګلز
انګلس
انګلستان
انګلنډ
انګلو
انګلوساکسون
انګليس
انګليستان
انګليسي
انګلينډ
انګلیس
انګلیسانو
انګلیستان
انګلیسي
انګلیسی
انګلیکان
انګلېنډ
انګور
انګورو
انګولا
انګړ
انګیرل
انګیزه
انګېرل
انګېرله
انګېرنه
انګېرنو
انګېرنې
انګېري
انګېزه
انګېزو
انګېزې
انگريزانو
انگريزي
انگریز
انگریزانو
انگریزي
انگریزی
انگرېز
انگرېزان
انگرېزانو
انگرېزي
انگرېزۍ
انگلستان
انگليس
انگليسي
انگلیسي
انگلیسی
انگور
انگورو
انیس
انیمیشن
انینګ
انیګما
انۍ
اه
اهتزاز
اهتمام
اهداف
اهدافو
اهرام
اهرامونو
اهل
اهلبيت
اهلبيتو
اهلبیتو
اهلسنت
اهلسنتو
اهلي
اهليت
اهم
اهمه
اهميت
اهمیت
اهنګ
اهو
اهورا
اهورامزدا
او
اوا
اواره
اواز
اوازه
اوازونه
اوازونو
اوازې
اوامر
اوامرو
اوب
اوباسي
اوباما
اوبتل
اوبتلونو
اوبدل
اوبدلو
اوبل
اوبلن
اوبله
اوبه
اوبو
اوبوته
اوبوکې
اوبي
اوبيا
اوبړیو
اوبړۍ
اوبیا
اوبې
اوتار
اوتر
اوتو
اوتومات
اوج
اوخوا
اوخپل
اود
اودا
اوداسه
اوداسي
اوداسی
اوداسې
اوددې
اودس
اودغه
اوده
اودهغه
اودهغې
اودوه
اور
اورا
اوراسیا
اورال
اورانوس
اوربشې
اوربل
اوربند
اورتودوکس
اورتوژنیسېز
اورتېګا
اوردو
اورشيندي
اورشېندي
اورغورځونې
اورم
اورنج
اوره
اورو
اوروزنې
اورونه
اورونو
اوري
اوريدل
اوريدلو
اوريدلي
اورپکو
اورښت
اورګاسم
اورګان
اورګانیزم
اورګانیزمونه
اورګانیزمونو
اورګاډي
اورگاډي
اوریدل
اوریدلو
اورېدل
اورېدلو
اورېدلى
اورېدلي
اورېدلی
اورېدلې
اورېدو
اورېدونكى
اورېدونکو
اورېدونکي
اوز
اوزار
اوزارو
اوزاعي
اوزبکستان
اوزبیکستان
اوزون
اوزيات
اوس
اوستا
اوسط
اوسم
اوسمهال
اوسنى
اوسني
اوسنيو
اوسنی
اوسنیو
اوسنۍ
اوسنې
اوسه
اوسو
اوسي
اوسيدل
اوسيدو
اوسيدونکو
اوسيدونکي
اوسيږي
اوسپنه
اوسپني
اوسپنې
اوسکار
اوسیدل
اوسیدو
اوسیدونکو
اوسیدونکي
اوسیدونکی
اوسیدونکې
اوسیږي
اوسې
اوسېدل
اوسېدلو
اوسېدلي
اوسېدلی
اوسېدنې
اوسېده
اوسېدو
اوسېدونكى
اوسېدونکو
اوسېدونکي
اوسېدونکيو
اوسېدونکی
اوسېدونکې
اوسېږي
اوصاف
اوصولو
اوضاع
اوقاف
اوكه
اول
اولاد
اولاده
اولادونه
اولادونو
اولادې
اولس
اولسمه
اولسمې
اولسي
اوله
اولو
اولى
اولي
اولياء
اولياوو
اولين
اولی
اولیاء
اولیه
اولیور
اوم
اومبرتو
اومه
اومیګا
اومې
اون
اونباتات
اونتاریو
اوندن
اونه
اونور
اونورو
اونيزه
اونيزې
اونيو
اونیزه
اونیزې
اونیو
اونۍ
اوه
اوهايو
اوهایو
اوهر
اوهغه
اوهلته
اوهم
اوهمدارنګه
اوهمدارنگه
اوو
اوور
اووروسته
اوولس
اوولسمه
اوولسمې
اووم
اوومه
اوومې
اوون
اوونيزه
اوونۍ
اووه
اويا
اوياهم
اوين
اويو
اويوه
اوټ
اوټو
اوټول
اوپر
اوپرا
اوپه
اوځينې
اوڅار
اوچت
اوچته
اوچتو
اوچتې
اوچې
اوډل
اوډون
اوډي
اوړه
اوړو
اوړون
اوړي
اوړی
اوږد
اوږدمهال
اوږدمهاله
اوږدمهالو
اوږدمهالي
اوږدمهالې
اوږده
اوږدو
اوږدوالى
اوږدوالي
اوږدوالی
اوږدوي
اوږدوکې
اوږدي
اوږدې
اوږه
اوږو
اوږې
اوښ
اوښان
اوښانو
اوښتل
اوښتلو
اوښتنې
اوښتو
اوښتون
اوښتي
اوښتی
اوښتې
اوښكو
اوښكې
اوښه
اوښکو
اوښکې
اوښې
اوک
اوکام
اوکراين
اوکرايني
اوکراین
اوکرایني
اوکسي
اوکله
اوکه
اوکونل
اوکيشوټ
اوکړو
اویا
اویاهم
اویستا
اویلر
اى
اي
ايا
ايالات
ايالاتو
ايالت
ايالتونه
ايالتونو
ايالتي
ايت
ايتايل
ايتر
ايترونه
ايتلاف
ايتلافي
ايثار
ايجابوي
ايجاد
ايجنسۍ
ايديولوژي
ايديولوژۍ
ايران
ايراني
ايرانيانو
ايرلينډ
ايرلينډي
ايرلېنډ
ايره
ايرو
ايرې
ايز
ايزم
ايزه
ايزو
ايزې
ايس
ايسار
ايستل
ايستلو
ايسته
ايسي
ايشان
ايف
ايل
ايلام
ايله
ايم
ايمان
ايمانه
ايماني
ايمن
اين
ايها
ايوا
ايوان
ايوب
ايوبي
ايودايد
ايودين
ايون
ايونونه
ايونونو
ايوني
ايټالوي
ايټاليا
ايټاليې
ايټالیا
ايپ
ايچ
ايډوارډ
ايډيال
ايډيټر
ايښودل
ايښودلو
ايښودنه
ايښودنې
ايښودونکی
ايښوول
ايښى
ايښي
ايښی
ايښې
ايکو
ايکوسيستم
ايکوسيستمونو
ايکولوژي
ايکولوژيکي
ايکويانو
ايکي
اټ
اټموسفیر
اټوم
اټومونه
اټومونو
اټومي
اټک
اټکل
اټکلونه
اټکلونو
اټکلي
اپ
اپارتاید
اپارتمان
اپريدي
اپريدی
اپريل
اپریدي
اپریل
اپرېل
اپل
اپلاتون
اپلاتوني
اپلیکیشن
اپوزیسیون
اپولو
اپوټه
اپي
اپيتيل
اپیکوروس
اڅکزي
اڅکزی
اچ
اچاریا
اچاوه
اچول
اچولو
اچولى
اچولي
اچولی
اچولې
اچونه
اچونې
اچوو
اچوونکي
اچوي
اډانه
اډمز
اډمونډ
اډه
اډو
اډوارډ
اډوارډز
اډولف
اډوین
اډي
اډیسون
اډینبورګ
اډې
اړ
اړباسي
اړتيا
اړتيالري
اړتياو
اړتياوو
اړتياوي
اړتياوې
اړتیا
اړتیاو
اړتیاوو
اړتیاوې
اړخ
اړخه
اړخو
اړخونه
اړخونو
اړخي
اړخيز
اړخيزه
اړخيزو
اړخيزې
اړخی
اړخیز
اړخیزه
اړخیزو
اړخیزې
اړخې
اړمن
اړنګ
اړه
اړو
اړودوړ
اړول
اړولو
اړولى
اړولي
اړولی
اړولې
اړوند
اړوندتیا
اړونده
اړوندو
اړوندې
اړوندېږي
اړونه
اړونې
اړوي
اړيكو
اړيكې
اړين
اړينه
اړينو
اړينې
اړيکه
اړيکو
اړيکي
اړيکې
اړپېچ
اړین
اړینه
اړینو
اړینې
اړیکه
اړیکو
اړیکي
اړیکی
اړیکې
اژانس
اژه
اکا
اکادمۍ
اکاډمي
اکاډمیک
اکاډمیکو
اکاډمۍ
اکبر
اکبرشاه
اکتسابي
اکتشاف
اکتشافاتو
اکتشافي
اکتوبر
اکتيف
اکثر
اکثرا
اکثره
اکثرو
اکثريت
اکثریت
اکدي
اکر
اکرام
اکرم
اکرمه
اکس
اکسايد
اکسايدونه
اکسايدونو
اکسايډ
اکساید
اکسایدونه
اکسایډ
اکسفرډ
اکسفورډ
اکسيجن
اکسيديشن
اکسیجن
اکسیدیشن
اکسېجن
اکمالات
اکمالاتو
اکو
اکوادور
اکيډمي
اکټوبر
اکټیو
اکین
اګر
اګروفارستري
اګست
اګستيا
اګسټ
اګوست
اګوستوس
اګوون
اگر
اگست
اگسټ
ای
ایا
ایالات
ایالاتو
ایالت
ایالتونه
ایالتونو
ایالتي
ایان
ایبري
ایبریا
ایبټ
ایت
ایتالیا
ایتلاف
ایتلافي
ایتمولوژي
ایتون
ایتوپیا
ایجاد
ایداري
ایران
ایراني
ایرانی
ایرانیان
ایرانیانو
ایرل
ایرلنډ
ایرلنډي
ایرلینډ
ایریک
ایرې
ایز
ایزنهاور
ایزه
ایزو
ایس
ایسار
ایساره
ایساف
ایستر
ایستل
ایستلو
ایسته
ایسي
ایف
ایل
ایلام
ایلامي
ایله
ایلیل
ایم
ایمان
ایمانویل
ایمرسن
ایمیل
این
اینډیانا
ایو
ایوا
ایوان
ایوب
ایوبي
ایون
ایونونه
ایوني
ایووا
ایوکاډو
ایټالوي
ایټالوی
ایټالویانو
ایټالیا
ایټالیایي
ایپ
ایپل
ایچ
ایډز
ایډنبورګ
ایډیا
ایډیال
ایډیالوژي
ایډیالوژیکي
ایډیالوژۍ
ایډیالیزم
ایډیټ
ایښودل
ایښودنه
ایښودونکو
ایښودونکي
ایښودونکی
ایښی
ایښې
ایک
ایکس
ایکو
ایکوسیستم
ایکوسیستمونه
ایکوسیستمونو
ایکولوژي
ایکولوژيکي
ایکولوژیکي
ایکولوژۍ
اې
اېبلا
اېتوپیا
اېجین
اېران
اېرل
اېس
اېستل
اېستلو
اېسپرانتو
اېف
اېل
اېلېدنې
اېم
اېن
اېوارډ
اېټالوي
اېټالیا
اېچ
اېډز
اېډوارډ
اېډېټ
اېښودل
اېښودلو
اېښودنه
اېښودنې
اېښودو
اېښودونکو
اېښودونکي
اېښودونکی
اېښی
اېښې
اېکس
اېکوسېستم
اے
ب
با
باب
بابا
بابر
بابل
بابلي
بابليانو
بابلیانو
بابه
بابو
بابي
بابړ
بابړې
بابېج
باثباته
باج
باجوړ
باخ
باخبر
باخبره
باختر
باختري
باختین
باد
بادار
بادارانو
بادام
بادامو
بادشاه
بادغيس
بادغیس
بادماتوونکې
باده
بادونه
بادونو
بادي
بار
باران
بارانونه
بارانونو
باراني
بارت
بارسلونا
باره
بارو
باروت
باروتو
بارورۍ
باروز
بارون
بارونه
بارونو
باروک
باري
بارټن
بارک
بارکت
بارکزي
بارکزی
بارکوډ
بارگام
باریټ
باز
بازار
بازارموندنې
بازارونه
بازارونو
بازانو
بازل
بازي
بازۍ
باس
باسو
باسواده
باسي
باشد
باشند
باطل
باطله
باطلو
باطلې
باطن
باطني
باطنيه
باعث
باغ
باغونه
باغونو
باغي
باغيانو
باقاعده
باقر
باقي
بال
بالا
بالاحصار
بالاخره
بالارډ
بالتيک
بالتیمور
بالتیک
بالذات
بالشویک
بالغ
بالغانو
بالغو
بالغې
بالفعل
بالفور
بالقوه
بالله
باله
بالون
بالي
باليووډ
بالډوین
بالښت
بالکان
بالکل
بالیووډ
بام
باميان
باميانو
بامیان
بامیانو
بان
بانتو
بانجان
باند
باندني
باندنيو
باندنی
باندنۍ
باندى
باندي
بانديني
باندينيو
باندی
باندې
بانفوذه
بانك
بانو
بانټو
بانډ
بانډه
بانډو
بانک
بانکداري
بانکدارۍ
بانکس
بانکونه
بانکونو
بانکي
باو
باوجود
باور
باوره
باورونه
باورونو
باوري
باورۍ
باوم
باي
بايبل
بايد
بايدد
بايدپه
بايزيد
بايډن
باپتیست
باچا
باچاخان
باډي
باډېل
باړه
باک
باکتريا
باکترياوو
باکتریا
باکتریاوو
باکتریاوې
باکتریايي
باکس
باکو
باکونین
باکټريا
باکټریا
باکچه
باکیفیته
باڼه
بای
بایبل
باید
بایزید
بایسکل
باین
بایو
بایوسفیر
بایوګاز
بایډن
باېد
ببر
ببرک
بت
بتانو
بتول
بجو
بجې
بحار
بحارالانوار
بحث
بحثونه
بحثونو
بحر
بحران
بحرانونو
بحراني
بحرونو
بحري
بحرين
بحرین
بحیرې
بخار
بخارا
بخارى
بخاري
بخاری
بخارۍ
بخت
بختور
بختيار
بختياري
بخش
بخښنه
بخښنې
بد
بدا
بدتر
بدخشان
بدر
بدرګه
بدعت
بدعتونه
بدعتونو
بدعتي
بدل
بدله
بدلو
بدلول
بدلولو
بدلون
بدلونه
بدلونو
بدلونونه
بدلونونو
بدلوي
بدليدو
بدليږي
بدلیږي
بدلې
بدلېدای
بدلېدل
بدلېدو
بدلېدونکو
بدلېدونکي
بدلېدونکی
بدلېدونکې
بدلېږي
بدمرغه
بدمرغي
بدمرغۍ
بدن
بدنام
بدنامه
بدنامي
بدنامۍ
بدنه
بدنونو
بدني
بده
بدو
بدون
بدوي
بدي
بديع
بديل
بديو
بدیع
بدیل
بدیلو
بدیلونو
بدیلې
بدیو
بدۍ
بدې
بر
برا
براء
برابر
برابره
برابرو
برابرول
برابروله
برابرولو
برابروي
برابري
برابريږي
برابرښت
برابرۍ
برابرې
برابرېږي
برادر
برازيل
برازیل
برازیلي
براعظم
براعظمي
برانډ
براون
براى
براي
برای
براین
بربر
بربري
بربنډ
برتا
برتانوي
برتانويانو
برتانویانو
برتانيا
برتانيه
برتانيې
برتانیا
برتانیې
برتري
برترۍ
برج
برجسته
برجونه
برجونو
برحاله
برخلاف
برخليك
برخليک
برخلیک
برخمن
برخمنه
برخمنې
برخه
برخو
برخوال
برخورد
برخوکې
برخى
برخي
برخی
برخې
برداشت
بررسي
برزخ
برسلز
برسيره
برسیره
برسېره
برصغیر
برعکس
برق
برقي
برقی
بركت
برلاس
برلاسى
برلاسي
برلاسی
برلاسۍ
برلاسې
برلين
برلین
برلېن
برم
برما
برمه
برمودا
برن
برنارډ
برنامه
برنامو
برنامې
برنز
برنس
برنولي
برني
بره
برهان
برهما
برهمن
برو
بروس
برونای
بروندي
برونز
برونزو
برونو
بروني
بروک
بروکسل
بروکلین
برى
بري
بريا
بريالى
بريالي
برياليتوب
برياليو
بريالی
بريالۍ
برياوو
برياوې
بريتانوي
بريتانيا
بريد
بريده
بريدونه
بريدونو
برير
بريليک
بريښنا
بريښي
برژنف
برښنا
برک
برکت
برکته
برکلي
برکمن
برکونړ
برکي
برکې
برګ
برګسون
بری
بریا
بریالي
بریالی
بریالیتوب
بریالیتوبونو
بریالیو
بریالۍ
بریاوو
بریاوې
بریتانوي
بریتانوی
بریتانویان
بریتانویانو
بریتانوۍ
بریتانيا
بریتانيې
بریتانیا
بریتانیې
برید
بریدمن
بریده
بریدونه
بریدونو
بریدګر
بریدګرو
بریسوټ
برینکلي
بریټانوي
بریټانیا
بریښنا
بریښنالیک
بریښنایي
بریښنایی
بریښي
بریکوټ
برې
برېتانوي
برېتانیا
برېتانیې
برېن
برېښنا
برېښنايي
برېښناکوټ
برېښنایي
برېښنایی
برېښي
برېښېده
بزار
بزرگ
بزګر
بزګران
بزګرانو
بزگر
بزگران
بس
بست
بستر
بستره
بستري
بسته
بستونو
بسم
بسمارک
بسنه
بسونو
بسيا
بسيار
بسپنه
بسپنې
بسیا
بسیاینې
بشار
بشر
بشردوستانه
بشري
بشريت
بشرپال
بشرپالنې
بشری
بشریت
بشير
بشپ
بشپړ
بشپړتيا
بشپړتیا
بشپړه
بشپړو
بشپړولو
بشپړوونکي
بشپړوي
بشپړي
بشپړې
بشپړېدو
بشپړېږي
بشیر
بصره
بصري
بصرې
بصيرت
بصیرت
بطرۍ
بطلیموس
بطن
بطني
بطي
بعث
بعثت
بعد
بعدي
بعض
بعضو
بعضى
بعضي
بعضی
بعضې
بغاوت
بغاوتونه
بغاوتونو
بغداد
بغدادي
بغل
بغلان
بغير
بغیر
بــ
بقا
بقره
بقرې
بقيع
بكر
بل
بلا
بلاخره
بلاد
بلاذري
بلاروس
بلاغت
بلال
بلاواټسکي
بلاک
بلاکونه
بلاکونو
بلاکي
بلبل
بلجيم
بلجیم
بلخ
بلخوا
بلخي
بلد
بلشویک
بلشویکانو
بلشویکي
بلغارستان
بلغاري
بلغاريا
بلغاريايي
بلغاریا
بلغم
بلقيس
بلكه
بلكي
بلكې
بلل
بلله
بللو
بللى
بللي
بللی
بللې
بلند
بلنه
بلنې
بله
بلو
بلوا
بلواګرو
بلوتوت
بلوتوث
بلوتوټ
بلوط
بلوغ
بلوم
بلوڅ
بلوڅان
بلوڅانو
بلوڅو
بلوڅي
بلوچستان
بلوک
بلى
بلي
بليک
بلک
بلکل
بلکه
بلکي
بلکی
بلکې
بلګراد
بلی
بلیک
بلې
بلېن
بلېک
بم
بمب
بمبار
بمبارد
بمباري
بمباریو
بمبارۍ
بمبي
بمبۍ
بمونه
بمونو
بمي
بن
بنا
بناء
بناپارت
بنت
بنجامين
بنجامین
بند
بندر
بندرونه
بندرونو
بندري
بنده
بندو
بندول
بندولو
بندونه
بندونو
بندوي
بندي
بنديان
بنديانو
بنديز
بنديزونه
بنديزونو
بندښت
بندګان
بندګانو
بندګۍ
بندی
بندیان
بندیانو
بندیز
بندیزونه
بندیزونو
بندۍ
بندې
بندېدو
بندېږي
بنزین
بنست
بنسټ
بنسټه
بنسټونه
بنسټونو
بنسټيز
بنسټيزه
بنسټيزو
بنسټيزې
بنسټپال
بنسټپاله
بنسټپالو
بنسټګر
بنسټګرو
بنسټگر
بنسټیز
بنسټیزه
بنسټیزو
بنسټیزې
بنفش
بنن
بنو
بنوري
بنى
بني
بنياد
بنيادي
بنټون
بنګ
بنګال
بنګالي
بنګله
بنګو
بنگال
بنگلادېش
بنگله
بنگښ
بنی
بنیاد
بنیادي
بنیامین
به
بها
بهاءالله
بهادر
بهار
بهارت
بهارک
بهاند
بهانه
بهاو
بهاي
بهايي
بهبود
بهتر
بهتره
بهترين
بهترينه
بهر
بهرام
بهرنى
بهرني
بهرنيانو
بهرنيو
بهرنی
بهرنیان
بهرنیانو
بهرنیو
بهرنۍ
بهرنې
بهره
بهسودو
بهلول
بهنګ
بهوپال
بهير
بهيرونه
بهيرونو
بهيږي
بهیر
بهیرونه
بهیرونو
بهیږي
بهېدل
بهېدو
بهېږي
بو
بوبر
بوت
بوتان
بوتانو
بوتسوانا
بوتل
بوتلل
بوتله
بوتلونه
بوتپالي
بوث
بوج
بوخت
بوخته
بوخوم
بود
بودا
بودايي
بوداپست
بودایانو
بودایي
بودجه
بودجې
بودند
بوده
بودي
بوديجه
بوديجې
بوديزم
بودیجه
بودیجې
بودیزم
بور
بوران
بوربن
بوربون
بورس
بورن
بورني
بوره
بورون
بوري
بورډ
بورژوا
بورژوازي
بورک
بورګېس
بوریس
بورې
بوس
بوستان
بوستون
بوسحاقي
بوسنیا
بوسټن
بوسټون
بوش
بوشهر
بول
بولدک
بولم
بولندوى
بولندوی
بولو
بولي
بولټزمان
بولی
بولیویا
بولې
بوم
بومي
بون
بوهره
بوهيموند
بوى
بوي
بويه
بوټ
بوټان
بوټانو
بوټسوانا
بوټو
بوټى
بوټي
بوټی
بوټې
بوځي
بوډا
بوډۍ
بوک
بوی
بویر
بویل
بوېنس
بى
بي
بيا
بياد
بيارغونه
بيارغونې
بيالوژي
بيالوژيکي
بيان
بيانول
بيانولو
بيانوي
بياهم
بيايي
بيايې
بيت
بيته
بيتو
بيتونه
بيتونو
بيتي
بيخ
بيخي
بيدون
بيديا
بير
بيرته
بيرغ
بيره
بيروت
بيرون
بيزانس
بيزو
بيضاوي
بيضوي
بيع
بيعت
بيل
بيلا
بيلابيل
بيلابيلو
بيلاويچ
بيلتون
بيله
بيلو
بيلي
بيليون
بيلګه
بيلګې
بيلگه
بيلگي
بيمې
بين
بينا
بينه
بينوا
بيني
بيه
بيهقي
بيو
بيوتيک
بيوتيکونه
بيوتيکونو
بيوروکراټ
بيولوژي
بيولوژيکي
بيوګرافي
بيټ
بيټومين
بيچر
بيړه
بيړۍ
بيکاره
بيې
بټ
بټرۍ
بټلر
بټن
بټنوک
بټۍ
بڅرکي
بچ
بچن
بچه
بچو
بچي
بچيان
بچيانو
بچی
بچیان
بچیانو
بډ
بډايه
بډای
بډایه
بډې
بړ
بړاس
بړبوکۍ
بښل
بښلي
بښنه
بښنې
بښونكى
بښونکي
بښي
بک
بکارت
بکتريا
بکترياو
بکتریا
بکر
بکس
بکلي
بکو
بګرام
بگرام
بڼ
بڼه
بڼو
بڼي
بڼکې
بڼی
بڼې
بھی
بی
بیا
بیاترکیب
بیارغونه
بیارغونې
بیان
بیانولو
بیانونه
بیانونو
بیانوي
بیانیه
بیانېږي
بیاهم
بیاځلي
بیاځلې
بیاژواکي
بیاژواکۍ
بیاکتنه
بیاکتنې
بیایي
بیبي
بیت
بیتانسس
بیتو
بیتونه
بیخي
بیدار
بیدارۍ
بیر
بیرته
بیرغ
بیروت
بیرون
بیزانس
بیزانسي
بیزو
بیزوګانو
بیزوګیان
بیس
بیساو
بیسمارک
بیشاپ
بیضوي
بیعت
بیل
بیلا
بیلابیل
بیلابیلو
بیلاروس
بیلانس
بیلتون
بیله
بیلو
بیلي
بیلګه
بیلګې
بیلیونه
بیمه
بیمې
بین
بینوا
بیه
بیو
بیولوجي
بیولوجیکي
بیولوژي
بیولوژيکي
بیولوژیکي
بیولوژۍ
بیوټیک
بیوټیکونه
بیوګرافي
بیټ
بیټا
بیټرۍ
بیړني
بیړنۍ
بیړه
بیړۍ
بیک
بیکارۍ
بیکر
بیکن
بیګ
بیګم
بیې
بې
بېا
بېخ
بېخه
بېخي
بېديا
بېدیا
بېرته
بېرغ
بېره
بېروت
بېرون
بېروني
بېرونۍ
بېزاره
بېشكه
بېشکه
بېعت
بېكن
بېل
بېلا
بېلابیلو
بېلابېل
بېلابېلو
بېلابېلوالي
بېلابېلوالی
بېلابېلې
بېلاروس
بېلتون
بېلر
بېله
بېلو
بېلوالي
بېلوالی
بېلولو
بېلوي
بېلګه
بېلګو
بېلګې
بېلگه
بېلگې
بېلې
بېلېدونکې
بېلېږي
بېنوا
بېورېج
بېوزله
بېوزلو
بېوزلي
بېوزليو
بېوزلۍ
بېوسي
بېول
بېټ
بېځايه
بېځایه
بېړني
بېړنی
بېړنۍ
بېړه
بېړيو
بېړیو
بېړۍ
بېک
بېکاره
بېکاري
بېکارۍ
بېکر
بېګ
بېګا
بېګانه
بېګم
بېگم
بە
ة
ت
تا
تاب
تابع
تابعيت
تابعينو
تابعیت
تابوت
تاتار
تاته
تاثر
تاثير
تاثيرات
تاثيراتو
تاثیر
تاثیرات
تاج
تاجونه
تاجيکستان
تاجک
تاجکان
تاجکستان
تاجیکستان
تادياتو
تاديه
تادیاتو
تادیه
تار
تارونه
تارونو
تاريخ
تاريخه
تاريخونه
تاريخونو
تاريخى
تاريخي
تاريخپوه
تاريخپوهان
تاريخپوهانو
تاريخچه
تاريخچې
تاریخ
تاریخونه
تاریخونو
تاریخي
تاریخپوه
تاریخپوهان
تاریخپوهانو
تاریخچه
تاریخچې
تاریخی
تاریخې
تازه
تاسره
تاسو
تاسى
تاسي
تاسيس
تاسی
تاسیس
تاسیسات
تاسیساتو
تاسې
تاشکند
تال
تالا
تالار
تالان
تالس
تاليف
تالیف
تام
تاماس
تامسن
تامل
تاميل
تامين
تامیل
تامین
تان
تانبه
تانبې
تاند
تانزانیا
تانګ
تاو
تاوان
تاوانونه
تاوتريخوالي
تاوتريخوالی
تاوتریخوالو
تاوتریخوالي
تاوتریخوالی
تاوده
تاويل
تاوېږي
تاي
تايلينډ
تايوان
تاييد
تاييدوي
تايید
تاچر
تاکتیک
تاکتیکونو
تاکید
تای
تایلنډ
تایلینډ
تایوان
تایپي
تایید
تاییدوي
تبادله
تبادلې
تباه
تباهۍ
تبت
تبتي
تبتی
تبخير
تبخیر
تبديل
تبدیل
تبر
تبرک
تبشير
تبصره
تبصرو
تبصرې
تبعه
تبعيد
تبعيض
تبعید
تبعیض
تبعیضي
تبليغ
تبليغات
تبليغاتو
تبليغي
تبلیغ
تبلیغات
تبلیغاتو
تبلیغاتي
تبلیغي
تبه
تبوك
تبوک
تبيع
تبې
تت
تتراسکلين
تثبيت
تثبیت
تثلیث
تجار
تجارت
تجارتي
تجارتی
تجاوز
تجديد
تجدید
تجرباتي
تجربه
تجربو
تجربوي
تجربي
تجربې
تجزيه
تجزيې
تجزیه
تجزیې
تجنيس
تجهيزاتو
تجهیزات
تجهیزاتو
تجويز
تجوید
تجویز
تحت
تحريف
تحريم
تحريک
تحرک
تحریف
تحریم
تحریک
تحصيل
تحصیل
تحصیلي
تحفه
تحقق
تحقيق
تحقيقات
تحقيقي
تحقیر
تحقیق
تحقیقات
تحقیقاتو
تحليل
تحليلي
تحلیل
تحلیلونو
تحلیلي
تحمل
تحميل
تحمیل
تحول
تحولات
تحولاتو
تخار
تخارستان
تخت
تخته
تختو
تختې
تخريب
تخريبوي
تخريبي
تخریب
تخصص
تخصصي
تخصیص
تخلص
تخلفاتو
تخليق
تخليقي
تخلیق
تخلیقي
تخلیه
تخلیې
تخم
تخمدان
تخمر
تخمونه
تخمونو
تخمين
تخمین
تخمې
تخنيک
تخنيکونه
تخنيکونو
تخنيکي
تخنيکې
تخنیک
تخنیکونه
تخنیکونو
تخنیکي
تخيل
تخیل
تخیلي
تدابير
تدابیر
تداخل
تداوم
تداوي
تدبر
تدبير
تدبيرونه
تدبیر
تدريج
تدريجي
تدريس
تدريسي
تدریج
تدریجي
تدریجی
تدریس
تدریسي
تدوين
تدوین
تذكره
تذکرة
تذکره
تذکرو
تر
ترا
تراب
تراسونه
تراسونو
ترافیک
ترانس
ترانسپورت
ترانسپورتي
ترانه
ترانې
تراوسه
تراکم
تربور
تربيت
تربيه
تربیه
ترتيب
ترتیب
ترجمان
ترجمه
ترجمې
ترجيح
ترجیح
ترخه
ترخو
ترخې
تردي
ترديد
تردی
تردې
ترسترګو
ترسره
ترشا
ترشح
ترفیع
ترقي
ترقۍ
ترلاس
ترلاسه
ترلږه
ترمخه
ترمذى
ترمذي
ترمنځ
ترموډيناميک
ترموډینامیک
ترموډینامیکي
ترميم
ترمينځ
ترمیم
ترمینځ
ترمېنځ
تره
ترهغه
ترهغې
ترهګر
ترهګرو
ترهګري
ترهګرۍ
تروتسکي
ترور
تروريزم
تروریزم
تروریستي
ترومن
ترونو
ترویج
تري
تريخ
تريليون
ترين
ترينه
تريو
ترټولو
ترځ
ترځمکې
ترڅ
ترڅنګ
ترڅنگ
ترڅو
ترڅوپه
ترډیره
ترډېره
ترک
ترکان
ترکانو
ترکاڼ
ترکستان
ترکمن
ترکمنستان
ترکمني
ترکي
ترکيب
ترکيبونه
ترکيبي
ترکيه
ترکيې
ترکی
ترکیب
ترکیبات
ترکیبونه
ترکیبونو
ترکیبي
ترکیه
ترکیې
ترکې
ترکېب
تری
تریاکو
تریخ
تریشا
تریلیونه
ترین
ترینګلې
ترې
ترېنه
تزار
تزاري
تزي
تزکيه
تسبيح
تسبېح
تستسترون
تسل
تسلا
تسلسل
تسلط
تسليم
تسلیم
تسلیمۍ
تسلیمېدو
تسمم
تش
تشبث
تشبه
تشبيه
تشبیه
تشخيص
تشخیص
تشخیصي
تشدد
تشريح
تشريحي
تشريع
تشريعي
تشریح
تشریحي
تشریفاتو
تشریفاتي
تشرېح
تشرېحات
تشرېحاتو
تشرېحي
تشعشع
تشكيل
تشناب
تشنابونو
تشنج
تشه
تشو
تشويش
تشويق
تشویش
تشویق
تشيال
تشيع
تشکيل
تشکيلوي
تشکیل
تشکیلات
تشکیلاتو
تشکیلوي
تشکېل
تشیال
تشې
تصادف
تصادفي
تصحيح
تصحیح
تصديق
تصدیق
تصدۍ
تصرف
تصريح
تصفيه
تصفيې
تصفیه
تصفیې
تصميم
تصمیم
تصنيف
تصنیف
تصور
تصورات
تصوراتو
تصوف
تصوفي
تصويب
تصوير
تصويرونه
تصویب
تصویر
تصویرونه
تضاد
تضعیف
تضمين
تضمین
تضمینوي
تطابق
تطبيق
تطبيقي
تطبيقېږي
تطبیق
تطبیقي
تطهير
تعادل
تعادلي
تعارض
تعالى
تعالي
تعالی
تعامل
تعاملات
تعاملاتو
تعاملونه
تعاملونو
تعبير
تعبیر
تعجب
تعداد
تعديل
تعدیل
تعدیلات
تعدیلاتو
تعرفو
تعرفې
تعريف
تعريفونه
تعريفونو
تعريفوي
تعریف
تعریفونه
تعریفونو
تعریفوي
تعریفېږي
تعصب
تعصبونو
تعظيم
تعقل
تعقيب
تعقيبوي
تعقيم
تعقیب
تعقیبوي
تعلق
تعليم
تعليمي
تعلیلي
تعلیم
تعلیمات
تعلیماتو
تعلیمي
تعلیمی
تعميد
تعمير
تعمید
تعمیر
تعهد
تعويضي
تعویض
تعين
تعین
تعیین
تغذي
تغذيه
تغذيې
تغذیه
تغذیوي
تغذیې
تغزل
تغير
تغيرات
تغيير
تغیر
تغیرات
تغییر
تــ
تفاضلي
تفاهم
تفاوت
تفاوتونه
تفتیش
تفرقه
تفرقې
تفريح
تفريحي
تفريق
تفریح
تفریحي
تفرېح
تفسير
تفسيرونو
تفسیر
تفسیرونه
تفسیرونو
تفصيل
تفصيلي
تفصیل
تفصیلي
تفکر
تفکیک
تقابل
تقاضا
تقاطع
تقاعد
تقدير
تقدیر
تقريب
تقريبا
تقرير
تقریب
تقریبا
تقریبي
تقسيم
تقسیم
تقسیمېږي
تقصير
تقطير
تقليد
تقلید
تقنيني
تقنیني
تقوا
تقوى
تقويه
تقوی
تقویه
تقي
تقيه
تكبير
تكړه
تل
تلاش
تلاف
تلافي
تلاوت
تلای
تلسکوپ
تلف
تلفات
تلفاتو
تلفظ
تلل
تللو
تللى
تللي
تللی
تللې
تلمود
تلنې
تله
تلو
تلوسه
تلونکو
تلونکي
تلونکې
تلويزون
تلويزوني
تلويزيون
تلويزيوني
تلویزون
تلویزیون
تلویزیونونه
تلویزیوني
تلوېزيون
تلي
تليفون
تلپاتې
تلګراف
تلی
تلیفون
تلیفونونه
تلیفونونو
تلې
تم
تماس
تمام
تمامه
تماميږي
تمامېږي
تمايل
تمايلات
تمایل
تمایلاتو
تمباکو
تمتع
تمثيل
تمثیل
تمدن
تمدنونه
تمدنونو
تمدید
تمرين
تمرکز
تمرین
تمنا
تمه
تمويل
تمویل
تميم
تمځای
تمځي
تمې
تن
تنا
تناسب
تناسلي
تناظر
تناقص
تناقض
تناوب
تناوبي
تنباکو
تنبه
تنبیه
تنخوا
تندر
تنده
تندى
تندي
تندې
تنر
تنزيل
تنظيم
تنظيمونو
تنظيموي
تنظيمي
تنظيمېږي
تنظیم
تنظیمات
تنظیمول
تنظیمولو
تنظیموي
تنظیمي
تنفس
تنفسي
تنقيد
تنقيدي
تنقید
تنه
تنها
تنو
تنور
تنوع
تني
تنکي
تنکۍ
تنګ
تنګسه
تنګه
تنګي
تنګی
تنگ
تنگي
تنې
ته
تهاجمي
تهانوي
تهديد
تهدید
تهذيب
تهران
تهمت
تهيه
تهیه
تو
تواتر
توازن
تواضع
توافق
توافقي
توان
توانايي
توانېدلي
توب
توبرکلوز
توبه
توبې
توت
توتسي
توتو
توجه
توجو
توجيه
توجیه
توحيد
توحيدي
توحید
توحیدي
توخي
تود
توده
تودو
تودوخه
تودوخي
تودوخې
تودولو
تودې
تور
تورات
توربین
توربینونو
تورخم
تورم
تورن
تورنر
تورنه
تورنو
تورنول
تورنوي
توره
تورو
تورونه
تورونو
تورى
توري
تورپوستو
تورپوستي
تورپوستی
تورکي
توری
تورې
توزيع
توزیع
توزېع
توسط
توسعه
توسل
توصيف
توصيه
توصیف
توصیفي
توصیه
توضيح
توضیح
توضیحات
توضیحاتو
توضیحي
توضېح
توطي
توطیې
توغندي
توغنديو
توغندی
توغندیو
توغندۍ
توغول
توغولو
توفيق
توفیق
توقع
توقف
توقيف
توقیف
توكل
تول
تولد
تولنه
تولو
توليد
توليدات
توليداتو
توليدولو
توليدونکو
توليدونکي
توليدونکی
توليدونکې
توليدوي
توليدي
توليديږي
توليدېږي
تولید
تولیدات
تولیداتو
تولیدول
تولیدولو
تولیدونکي
تولیدونکی
تولیدوونکي
تولیدوونکی
تولیدوي
تولیدوی
تولیدي
تولیدی
تولیدیږي
تولیدیږی
تولیدېږي
توماس
تومنه
تومور
تومورونو
تون
توند
تونس
تونل
توهم
توهین
توى
توي
تويه
تويې
توپ
توپان
توپانونه
توپانونو
توپاني
توپخانې
توپولوژي
توپونه
توپونو
توپوګرافي
توپير
توپيرلري
توپيرونه
توپيرونو
توپيري
توپچي
توپک
توپیر
توپیرونه
توپیرونو
توپیري
توږل
توږنې
توښه
توک
توکل
توکم
توکمه
توکمو
توکمونه
توکمونو
توکمي
توکميز
توکميزه
توکميزو
توکميزې
توکمپالنه
توکمپالنې
توکمیز
توکمیزه
توکمیزو
توکمیزې
توکه
توکو
توکونه
توکونو
توکي
توکيز
توکيو
توکی
توکیز
توکیو
توکې
توګه
توګو
توگه
توی
تى
تي
تيا
تياتر
تيار
تياره
تيارو
تيارول
تيارى
تيارې
تيت
تير
تيره
تيرو
تيرولو
تيروي
تيرى
تيري
تيريدو
تيريږي
تيرې
تيز
تيزاب
تيزابو
تيزابي
تيزس
تيزه
تيغ
تيل
تيلفون
تيلو
تيمم
تيمور
تيموري
تيميه
تيوب
تيودور
تيوري
تيورۍ
تيږه
تيږو
تيږي
تيږې
تپل
تپه
تپو
تپې
تړانګه
تړاو
تړاولري
تړل
تړلو
تړلى
تړلي
تړلی
تړلې
تړن
تړنه
تړنې
تړون
تړونونه
تړونونو
تړي
تږى
تږي
تږی
تښتول
تښتي
تښتېدلو
تښتېدلي
تک
تکامل
تکاملي
تکبير
تکثر
تکثري
تکثير
تکثیر
تکذيب
تکرار
تکراروي
تکراري
تکرارېږي
تکزاس
تکفير
تکفيره
تکفيرول
تکفيرولو
تکفيري
تکفیر
تکفېروي
تکل
تکلم
تکليف
تکلیف
تکميل
تکمیل
تکنالوژي
تکنالوژی
تکنالوژیکي
تکنالوژۍ
تکوين
تکويني
تکيه
تکړه
تکیه
تګ
تګاب
تګزاس
تګلاره
تګلارو
تګلارې
تگ
تگلاره
تگلارې
تڼيوال
تڼۍ
تی
تیاتر
تیار
تیاره
تیارو
تیاری
تیارې
تیبریوس
تیت
تیر
تیره
تیرو
تیري
تیری
تیریدو
تیریږي
تیرې
تیز
تیزاب
تیزابي
تیزس
تیغ
تیل
تیلفون
تیلو
تیلګو
تیمور
تیمورشاه
تیوري
تیوری
تیوریو
تیوریکي
تیورۍ
تیونو
تیوډور
تیږو
تیښته
تیښتې
تې
تېر
تېراوه
تېرمهال
تېره
تېرو
تېروتنه
تېروتنو
تېروتنې
تېروتى
تېروتي
تېرول
تېرولو
تېروي
تېروځي
تېرى
تېري
تېريږي
تېری
تېرۍ
تېرې
تېرېدل
تېرېدلو
تېرېدنه
تېرېدنې
تېرېده
تېرېدو
تېرېږي
تېز
تېزاب
تېزابو
تېزابي
تېزس
تېزۍ
تېزې
تېغ
تېل
تېلو
تېلوګو
تېمور
تېښته
تېښتې
تېکنالوژي
تېکنالوژۍ
تە
ث
ثابت
ثابته
ثابتو
ثابتولو
ثابتوي
ثابتې
ثابتېږي
ثار
ثارو
ثانوي
ثاني
ثانيه
ثانيو
ثانيې
ثانیه
ثانیو
ثانیې
ثبات
ثباته
ثباتي
ثباتۍ
ثبت
ثبتول
ثبتولو
ثبتوي
ثبوت
ثبوتونه
ثر
ثره
ثروت
ثریت
ثعلبي
ثقافت
ثقفي
ثقلينو
ثقه
ثم
ثمره
ثنا
ثواب
ثور
ثوري
ج
جا
جاء
جابر
جابز
جات
جاتو
جاج
جادو
جادويي
جاذبه
جاذبوي
جاذبي
جاذبې
جار
جارج
جارو
جاري
جاسوس
جاسوسان
جاسوسانو
جاسوسي
جاسوسۍ
جال
جالونو
جام
جامد
جامده
جامدو
جامدې
جامع
جامعة
جامعه
جامه
جامو
جامي
جامې
جان
جانان
جانبي
جانز
جانسن
جانسون
جانه
جاني
جاه
جاهل
جاهلي
جاهليت
جاهلیت
جاوا
جاوېد
جاي
جايداد
جايز
جايزه
جايزې
جاپان
جاپاني
جاپانيانو
جاپانیانو
جاپانۍ
جاکارټا
جاکسون
جای
جایداد
جایز
جایزه
جایزو
جایزې
جبار
جبر
جبران
جبراي
جبراييل
جبري
جبل
جبه
جبهه
جبهې
جبير
جحش
جد
جدا
جده
جدول
جدولونه
جدولونو
جدي
جديد
جدی
جدید
جذب
جذباتو
جذبه
جذبولو
جذبوي
جذبيږي
جذبې
جذبېږي
جر
جرات
جراح
جراحي
جراحۍ
جرايم
جرايمو
جرایمو
جرزي
جرسي
جرم
جرماني
جرمن
جرمنانو
جرمني
جرمنيانو
جرمنی
جرمنیانو
جرمنۍ
جرمنې
جرمونه
جرمونو
جرمي
جري
جريان
جرياناتو
جريانونه
جريانونو
جريب
جريبه
جريده
جريدې
جرير
جرړه
جرړې
جرګه
جرګو
جرګې
جرگه
جرگو
جرگې
جریان
جریانونه
جریانونو
جریبه
جریده
جریمه
جریمې
جز
جزء
جزا
جزاي
جزايي
جزایرو
جزایي
جزر
جزوي
جزي
جزيرة
جزيره
جزيرې
جزيي
جزیات
جزیاتو
جزیره
جزیرو
جزیرې
جس
جسامت
جست
جسد
جسدونه
جسم
جسماني
جسمونه
جسمونو
جسمي
جشن
جشنونه
جشنونو
جعفر
جعفرصادق
جعفري
جعل
جعلي
جغتو
جغرافيايي
جغرافيه
جغرافيوي
جغرافيې
جغرافیا
جغرافیايي
جغرافیایي
جغرافیایی
جغرافیه
جغرافیوي
جغرافیې
جغل
جــ
جفا
جفت
جفرسن
جفرسون
جل
جلا
جلاتوب
جلال
جلاله
جلالي
جلالکوټ
جلاوالي
جلاوالی
جلاوطنۍ
جلب
جلبولو
جلد
جلدونو
جلدي
جلسه
جليل
جلیل
جمادي
جماع
جماعت
جمال
جمرو
جمرې
جمشید
جمع
جمعه
جمعي
جمعيت
جمعیت
جمعې
جمل
جمله
جملو
جملي
جملی
جملې
جمهور
جمهوري
جمهوريت
جمهوريتونو
جمهوری
جمهوریت
جمهوریتونه
جمهوریتونو
جمو
جمود
جميل
جمیز
جمیعت
جمیل
جمیکا
جن
جناب
جنابت
جناح
جنازه
جنازې
جنايت
جنايي
جنایت
جنایتونه
جنایي
جنب
جنبش
جنبه
جنت
جنتري
جنتي
جنتیک
جنتیکي
جنجال
جنجالونه
جنجالونو
جنجالي
جندر
جنراتور
جنراتورونه
جنرال
جنرالان
جنرالانو
جنرل
جنس
جنسه
جنسو
جنسونه
جنسونو
جنسي
جنسيت
جنسيتي
جنسی
جنسیت
جنسیتي
جنو
جنوب
جنوبي
جنوبی
جنوري
جنوری
جنورۍ
جنون
جنيتيکي
جنين
جنيټيکي
جنډر
جنګ
جنګونه
جنګونو
جنګي
جنګيالي
جنګياليو
جنګیالي
جنګیالیو
جنګېدل
جنګېدلي
جنګېږي
جنگ
جنگسالاران
جنگونو
جنگي
جنگی
جنیتیکي
جنین
جنینګز
جنیوا
جنیټيکي
جنیټیک
جنیټیکي
جه
جهاد
جهادي
جهاز
جهالت
جهان
جهاني
جهانګیر
جهانگير
جهانی
جهت
جهل
جهلم
جهنم
جهيل
جهيلونه
جهيلونو
جهیل
جهیلونه
جهېز
جو
جواب
جواد
جوار
جوارو
جواز
جوان
جوانا
جواهر
جوبایډن
جوت
جوته
جوتوي
جوتېږي
جوخت
جود
جوراسیک
جورج
جورجيا
جورجیا
جورنال
جوزا
جوزجان
جوزجاني
جوزف
جوزوف
جوزي
جوزیف
جوس
جوش
جولاى
جولاي
جولای
جولیا
جولیان
جولیوس
جومات
جوماته
جوماتونه
جوماتونو
جون
جونز
جونګ
جونگ
جونیر
جونیور
جوهان
جوهر
جويبر
جوټه
جوچه
جوړ
جوړاوه
جوړجاړي
جوړجاړی
جوړشو
جوړشوي
جوړشوی
جوړشي
جوړل
جوړلو
جوړه
جوړو
جوړول
جوړولای
جوړوله
جوړولو
جوړولوکې
جوړولی
جوړولې
جوړونه
جوړوني
جوړونکو
جوړونکي
جوړونکی
جوړونکې
جوړونې
جوړوو
جوړوونکو
جوړوونکي
جوړوونکی
جوړوونکې
جوړوي
جوړوی
جوړي
جوړيدل
جوړيدو
جوړيږي
جوړښت
جوړښتونه
جوړښتونو
جوړښتي
جوړکړي
جوړی
جوړیدل
جوړیدو
جوړیږي
جوړیږی
جوړې
جوړېدای
جوړېدل
جوړېدلو
جوړېدنه
جوړېدنې
جوړېده
جوړېدو
جوړېږي
جوړېږی
جوګه
جوگه
جوی
جي
جيب
جيل
جيمز
جين
جينوم
جينونه
جينونو
جيو
جيولوژي
جيولوژيکي
جټ
جک
جکسن
جکسون
جکړې
جګ
جګړن
جګړه
جګړو
جګړي
جګړی
جګړې
جگړه
جگړو
جگړې
جی
جیب
جیفرسن
جیل
جیم
جیمز
جیمي
جین
جینوا
جینوم
جینومیک
جینونه
جینونو
جینوټایپ
جیني
جینیوا
جینیټيکي
جینیټیک
جینیټیکي
جیو
جیولوژي
جیولوژيکي
جیولوژیکي
جیټ
جیک
جیکسن
جې
جېل
جېمز
جېن
جېنوم
جېنونه
جېنونو
ح
حا
حاتم
حاجت
حاجي
حاجيان
حاجيانو
حاجی
حاد
حادثه
حارث
حارثه
حازم
حاشيه
حاشیه
حاصل
حاصلات
حاصلاتو
حاصلخيزي
حاصله
حاصلولو
حاصلوي
حاصليږي
حاضر
حاضری
حافظ
حافظه
حافظې
حاكم
حال
حالات
حالاتو
حالاتوکې
حالت
حالته
حالتونه
حالتونو
حاله
حامد
حامله
حاکم
حاکمان
حاکمانو
حاکمه
حاکميت
حاکمیت
حب
حباب
حبان
حبس
حبشه
حبشي
حبشې
حبوبات
حبوباتو
حبيب
حبيبي
حبیب
حبیبي
حتا
حتما
حتمي
حتى
حتي
حتی
حج
حجاب
حجاج
حجاز
حجازي
حجة
حجت
حجر
حجرات
حجراتو
حجرالاسود
حجره
حجرو
حجروي
حجري
حجريي
حجری
حجرې
حجم
حجمي
حد
حداد
حداقل
حدث
حدس
حده
حدود
حدودو
حديث
حديثه
حديثو
حديثونه
حديثونو
حديثي
حديد
حدیث
حدیثو
حدیثونه
حذف
حذيفه
حر
حرا
حرارت
حرارتي
حرام
حرامه
حرامو
حرامې
حرب
حربي
حرص
حرف
حرفه
حرفوي
حركت
حرم
حرمت
حروف
حروفو
حرکات
حرکاتو
حرکت
حرکته
حرکتونه
حرکتونو
حرکتي
حرکي
حریم
حزب
حزم
حس
حساب
حسابه
حسابونه
حسابونو
حسابي
حسابيږي
حساس
حساسه
حساسو
حساسيت
حساسیت
حساسې
حسان
حسد
حسرت
حسكاني
حسن
حسنات
حسنه
حسني
حسنين
حسنينو
حسنین
حسنینو
حسه
حسي
حسين
حسينه
حسيني
حسین
حسېن
حشر
حشرات
حشراتو
حشره
حشرو
حشرې
حشمت
حصار
حصاره
حصه
حصين
حضر
حضرت
حضور
حفاظت
حفاظتي
حفصه
حفظ
حفيظ
حفیظ
حق
حقاني
حقانيت
حقايق
حقايقو
حقایق
حقایقو
حقدار
حقله
حقه
حقوق
حقوقو
حقوقي
حقوقی
حقونه
حقونو
حقيقت
حقيقتونه
حقيقتونو
حقيقي
حقیقت
حقیقتونه
حقیقتونو
حقیقي
حكم
حكمت
حكمونو
حكومت
حكيم
حل
حلال
حلاله
حلالو
حلب
حلبى
حلبي
حلزون
حلقه
حلقو
حلقوي
حلقي
حلقې
حلولو
حلوي
حلية
حليم
حليمه
حليمې
حليږي
حماد
حماسه
حماسي
حماسې
حماقت
حمام
حمايت
حمايه
حمایت
حمد
حمزه
حمل
حمله
حملو
حملي
حملې
حموي
حميد
حميدي
حمید
حنابله
حنبل
حنبلي
حنبليان
حنبليانو
حنظله
حنفي
حنفيان
حنفيانو
حنفيه
حنيف
حنيفه
حنين
حوا
حواس
حواسو
حواله
حوالې
حوزه
حوزو
حوزې
حوصله
حوصلې
حوض
حوضه
حوضونو
حيا
حيات
حياتي
حيث
حيثه
حيثيت
حيدر
حيران
حيرانتيا
حيض
حيوان
حيوانات
حيواناتو
حيواني
حکاکي
حکم
حکمت
حکمتيار
حکمتیار
حکمران
حکمرانان
حکمرانانو
حکمه
حکمونه
حکمونو
حکومت
حکومتولي
حکومتولۍ
حکومتونه
حکومتونو
حکومتي
حکيم
حکیم
حیات
حیاتي
حیث
حیثیت
حیدر
حیران
حیرانتیا
حیوان
حیوانات
حیواناتو
حیواني
خ
خا
خاتم
خاتمه
خاتميت
خاته
خاتون
خاد
خادم
خارج
خارجوي
خارجي
خارجيږي
خارجی
خارق
خارښت
خاشرودی
خاص
خاصه
خاصو
خاصي
خاصيت
خاصيتونه
خاصی
خاصیت
خاصې
خاطر
خاطرات
خاطراتو
خاطره
خاطرې
خال
خالد
خالص
خالصه
خالصې
خالق
خاله
خالي
خاليګاه
خام
خامخا
خامه
خامو
خاموش
خاموشه
خان
خانات
خانان
خانانو
خاندان
خاندي
خانقاه
خانم
خانه
خانو
خانوار
خاني
خانې
خاور
خاوره
خاورو
خاوروته
خاورى
خاوري
خاورين
خاوری
خاورینو
خاورې
خاوند
خاوندان
خاوندانو
خاونده
خاين
خاپوړن
خاک
خاکه
خای
خبار
خبر
خبرتيا
خبرتیا
خبرداري
خبرداری
خبره
خبرو
خبرواترو
خبرول
خبرونه
خبرونو
خبروي
خبرى
خبري
خبريال
خبريالان
خبريالانو
خبريالي
خبريالۍ
خبری
خبریال
خبریالان
خبریالانو
خبرې
خبرېږي
خت
ختل
ختلو
ختم
ختمه
ختمول
ختمولو
ختمېدو
ختنه
ختيز
ختيځ
ختيځه
ختيځو
ختيځي
ختيځې
ختیځ
ختیځه
ختیځو
ختیځې
خج
خجالت
خدا
خداوند
خداى
خداي
خدايان
خدايانو
خدايه
خدايي
خدای
خدایان
خدایانو
خدایه
خدایي
خدري
خدمات
خدماتو
خدماتي
خدمت
خدمتونه
خدمتونو
خدمتګار
خدمتگار
خدمه
خدمې
خديجه
خديجې
خر
خراب
خرابه
خرابو
خرابوالي
خرابوالی
خرابوي
خرابي
خرابيږي
خرابیدو
خرابۍ
خرابې
خرابېدو
خراج
خراسان
خراساني
خرافات
خرافاتو
خرت
خرس
خرقه
خرقې
خرم
خرما
خره
خرو
خروار
خروج
خروجي
خروشتهي
خري
خرڅ
خرڅلاو
خرڅولو
خزاعه
خزان
خزانه
خزانو
خزانې
خزرج
خزنده
خزندګانو
خس
خسارې
خسر
خسرو
خسوف
خصايص
خصلت
خصوصا
خصوصي
خصوصيات
خصوصياتو
خصوصيت
خصوصی
خصوصیات
خضر
خط
خطا
خطاب
خطبه
خطبو
خطبې
خطر
خطرناک
خطرناکه
خطرناکو
خطرناکې
خطره
خطرونه
خطرونو
خطونه
خطونو
خطي
خطيب
خطیب
خفه
خفو
خفيف
خفګان
خلا
خلاص
خلاصه
خلاصو
خلاصولو
خلاصون
خلاصوي
خلاصي
خلاصيږي
خلاصې
خلاصېږي
خلاف
خلافت
خلاق
خلاقیت
خلجي
خلجیانو
خلدون
خلع
خلف
خلفا
خلفاء
خلفاوو
خلفاى
خلق
خلقت
خلقو
خلك
خلكو
خلوت
خلي
خليج
خليفه
خليل
خلک
خلکو
خلکوته
خلګ
خلګو
خلگ
خلگو
خلیج
خلیفه
خلیل
خلیلزاد
خلیلي
خم
خمر
خمس
خمير
خميره
خميني
خمیر
خمیني
خنثی
خنجر
خندا
خندق
خندل
خنډ
خنډونه
خنډونو
خه
خو
خوا
خواب
خوات
خواته
خواجه
خواخوږي
خواخوږی
خواخوږۍ
خوار
خوارج
خوارجو
خوارزم
خوارزمي
خواره
خواري
خوارځواکۍ
خوارۍ
خواشيني
خواشينۍ
خواشیني
خواشینی
خواشینۍ
خواص
خواصو
خواله
خوان
خواه
خواهد
خواو
خواوو
خواوې
خواړه
خواړو
خواږه
خواکې
خوب
خوبه
خوبونه
خوبونو
خوبياهم
خوجه
خود
خودمختاره
خور
خورا
خوراك
خوراک
خوراکونو
خوراکي
خورد
خورم
خوره
خورو
خوري
خوری
خورې
خوزستان
خوزه
خوزښت
خوسا
خوست
خوش
خوشال
خوشاله
خوشالي
خوشالۍ
خوشحال
خوشحاله
خوشحالي
خوشحالۍ
خوشي
خوشی
خوشې
خوله
خولو
خولي
خولۍ
خولې
خون
خوند
خونده
خوندور
خوندونه
خوندونو
خوندي
خونديتابه
خونديتوب
خوندی
خوندیتوب
خوندې
خونه
خونو
خوني
خونړي
خونړۍ
خونې
خوى
خوي
خويندو
خويندې
خويونه
خويونو
خويي
خوټېدنې
خوپه
خوځنده
خوځندکو
خوځندکې
خوځښت
خوځښتونه
خوځښتونو
خوړ
خوړل
خوړلو
خوړلى
خوړلي
خوړلی
خوړلې
خوړه
خوړو
خوړولو
خوړونو
خوړونکو
خوړونکي
خوړونکی
خوړونکې
خوږ
خوږه
خوږو
خوږي
خوږې
خوښ
خوښه
خوښول
خوښولو
خوښوونکي
خوښوي
خوښي
خوښی
خوښۍ
خوښې
خوښېده
خوښېږي
خوکله
خوکه
خوګ
خوګانو
خوی
خویندو
خویندې
خوېندو
خوېندې
خي
خيال
خيالونه
خيالونو
خيالي
خيانت
خيبر
خيبري
خير
خيرات
خيريه
خيشاوه
خيل
خيلو
خټه
خټو
خټين
خټک
خټکو
خټکي
خټینو
خټې
خپاره
خپراوي
خپرندويه
خپرندوی
خپرندویه
خپره
خپرو
خپرول
خپرولو
خپرولې
خپرونه
خپرونو
خپروني
خپرونکي
خپرونکی
خپرونې
خپروونکي
خپروونکی
خپروي
خپريدل
خپريدو
خپريږي
خپرښت
خپریدل
خپریدو
خپریږي
خپرې
خپرېدل
خپرېدلو
خپرېدنه
خپرېدنې
خپرېده
خپرېدو
خپرېدونکی
خپرېدونکې
خپرېږي
خپل
خپلسري
خپلمنځي
خپله
خپلو
خپلواكۍ
خپلوان
خپلوانو
خپلواک
خپلواکه
خپلواکو
خپلواکي
خپلواکی
خپلواکۍ
خپلواکې
خپلولو
خپلوي
خپلوۍ
خپلي
خپلی
خپلې
خپه
خپور
خپګان
خپگان
خځلو
خځلې
خځنده
خړ
خړه
خړو
خړوب
خړوبه
خړوبولو
خړوبوي
خړې
خښ
خښته
خښتو
خښتې
خښولو
خیال
خیالي
خیانت
خیبر
خیر
خیرات
خیریه
خیل
خیلو
خېبر
خېر
خېل
خېلو
خېمې
خېټه
خېټې
د
دا
داب
دابن
دابه
دابو
داتوم
داخبره
داخل
داخله
داخلي
داخليږي
داخلی
داخلیږی
داخلې
داخلېدل
داخلېدو
داخلېږي
داد
دادارى
داداری
دادالله
دادن
داده
دادى
دادي
دادی
دادې
دار
دارالعلوم
دارالمعلمين
داران
دارانو
دارای
دارتفاع
دارد
دارقطني
دارند
دارنګه
دارنگه
داره
دارو
داروين
داروین
داري
داريوش
داری
داریوش
دارۍ
دارې
داس
داستان
داستانونه
داستانونو
داستاني
داستراحت
داستعمال
داستفادې
داستلین
داسد
داسلام
داسلامي
داسهال
داسى
داسي
داسی
داسې
داشان
داشت
داشتند
داشته
داصلي
داعش
داعي
داغ
داغونه
دافغان
دافغانستان
داقتصادي
داقليم
دال
دالاس
دالان
دالقاح
دالقلي
دالله
دالکترون
دالکولو
دام
دامام
دامان
دامريکا
دامریکا
دامز
دامو
دامیر
دان
دانتقال
داندازه
داندلس
دانسان
دانسانانو
دانساني
دانش
دانشنامه
دانه
دانو
داني
دانیال
دانیل
دانې
داهغه
داهل
داهم
داو
داوبو
داود
داور
داوروژنې
داورښت
داوزون
داوس
داوسني
داوطلب
داوطلبانه
داوه
داوود
داوي
داوړي
داي
دايرة
دايره
دايروي
دايرې
دايمي
دايو
دايودين
دايې
داټول
داپه
داپيتيل
داځل
داځکه
داچي
داچی
داچې
داډول
داکار
داکتر
داکسيجن
داکسيديشن
داکسیدیشن
داګلاس
دای
دایر
دایران
دایرة
دایره
دایروي
دایرې
دایمي
دایمی
دب
دباد
دبادونو
دباران
دباغ
دباندي
دباندې
دبدبه
دبدلون
دبدن
دبديع
دبرخې
دبرق
دبريښنا
دبل
دبوټو
دبي
دبيلګي
دبيلګې
دبې
دت
دتا
دتاج
دتاريخ
دتايرايدغدي
دتجارت
دتخريب
دتخم
دتخمونو
دتطبيق
دتعامل
دتل
دتنظيم
دتنفس
دتنې
دتودوخي
دتودوخې
دتوليد
دتولید
دجذب
دجسم
دجلې
دجنازې
دجنت
دجنوبي
دجهاد
دجوړولو
دجوړښت
دحاصل
دحج
دحرارت
دحرکت
دحشراتو
دحضرت
دحق
دحقوقو
دحل
دحلان
دحمل
دحميد
دحيوان
دحيواناتو
دحکومت
دخارجي
دخالت
دخان
دخاوري
دخاوری
دخاورې
دخداى
دخدای
دخل
دخلافت
دخلکو
دخوراک
دخولى
دخولي
دخولې
دخوړو
دخپل
دخپلو
دخپلي
دخپلې
دخیل
دد
دداخلي
دداسې
ددرجې
ددغه
ددغو
ددغي
ددغی
ددغې
ددنيا
دده
ددواړو
ددولت
ددولتي
ددوه
ددوهم
ددوو
ددوى
ددوي
ددوی
ددوې
ددى
ددي
ددين
دديني
ددښمن
ددی
ددې
در
درا
دراز
درالمنثور
درانده
درانه
دراني
درانی
دربار
درباره
درباري
درباندې
درته
درج
درجه
درجو
درجي
درجی
درجې
درخانۍ
درخواست
درد
درده
دردونه
دردونو
درز
درزا
درزونه
درزونو
درس
درست
درستیز
درسره
درسول
درسونه
درسونو
درسي
درشل
درطوبت
درغلي
درغلیو
درغلۍ
دركړي
درلود
درلوداى
درلودای
درلودل
درلودلای
درلودله
درلودلو
درلودلی
درلودلې
درلوده
درلودو
درلودونكي
درلودونکو
درلودونکي
درلودونکی
درلودونکې
درلودي
درلودی
درلودې
درمل
درملتون
درملنه
درملنو
درملنې
درملو
درملونه
درملي
درناوى
درناوي
درناوی
درنده
درندو
درنه
درنو
درنښت
درنګ
درنګړي
درنې
دره
درهم
درهمه
درهمو
درو
دروازه
دروازو
دروازې
درواغ
درواغجن
درواغو
درود
دروغ
دروغجن
دروغجنو
دروغو
درول
درولو
دروم
درومي
دروند
دروي
دروښيم
دروېش
درى
دري
دريا
درياب
درياد
دريم
دريمه
دريو
دريځ
دريځو
دريځونه
درپسې
درځار
درڅخه
درک
درکه
درکوم
درکوي
درکړ
درکړل
درکړم
درکړي
درګاه
درڼا
دری
دریا
دریاب
دریافت
دریس
دریم
دریمه
دریمې
دریو
دریوو
دریځ
دریځه
دریځونه
دریځونو
درۍ
درې
درېدل
درېدو
درېم
درېمه
درېمې
درېو
درېيم
درېيمه
درېيمې
درېيو
درېځ
درېږي
درېیم
درېیمه
درېیمې
درېیو
دزده
دزراعت
دزيات
دزياتو
دزياتوالي
دزړه
دساتل
دساتني
دساتنې
دساحې
دسانتي
دست
دستار
دستر
دسترخوان
دسترګو
دسته
دستور
دستګاه
دستګاوو
دستګاوې
دستگاه
دسر
دسرطان
دسطحي
دسطحې
دسلطان
دسمال
دسمبر
دسند
دسوخت
دسوديم
دسون
دسوځيدنې
دسوځيدو
دسيسه
دسيسو
دسيسې
دسيمي
دسيمين
دسيمې
دسيند
دسيندونو
دسړي
دسیسه
دسیسې
دسیمې
دشاتو
دشاخبري
دشاه
دشت
دشخصي
دشرابو
دشريد
دشعر
دشمال
دشمالي
دشمن
دشهادت
دشيدو
دشيعه
دشين
دشپې
دشکل
دصابون
دصنعت
دصنعتي
دضرورت
دطالبانو
دطبعي
دطبقې
دطبيعي
دعا
دعادي
دعالي
دعامه
دعاوې
دعاګانې
دعثمان
دعثماني
دعراق
دعربو
دعربي
دعضوي
دعلامه
دعلم
دعلمي
دعلي
دعمر
دعمل
دعملي
دعمومي
دعمومی
دعوا
دعوت
دعوه
دعوو
دعوی
دعوې
دغذا
دغذايي
دغره
دغرونو
دغزني
دغسي
دغسې
دغلته
دغنمو
دغه
دغو
دغور
دغي
دغړو
دغی
دغې
دفاع
دفاعي
دفتر
دفترونه
دفترونو
دفشار
دفع
دفعاليت
دفن
دقانون
دقبيلې
دقت
دقرا
دقوم
دقوي
دقيق
دقيقه
دقيقو
دقيقې
دقیق
دقیقا
دقیقه
دقیقو
دقیقې
دل
دلا
دلارى
دلاري
دلارې
دلاس
دلاسته
دلاستيک
دلاسه
دلال
دلالت
دلاندي
دلاندی
دلاندې
دلاور
دلاي
دلايل
دلايلو
دلایل
دلایلو
دلتا
دلته
دلرګي
دلرګيو
دلغمان
دلمانځه
دلمر
دلمون
دله
دلو
دلومړي
دلوي
دلوړ
دلوړو
دلوړوالي
دلوگر
دلوی
دليل
دليله
دليلونه
دليلونو
دلچسپي
دلیل
دلیلونه
دلیلونو
دلې
دم
دماشوم
دماشومانو
دماغ
دماغو
دماغي
دمايع
دمثال
دمحلول
دمحلي
دمحمد
دمخ
دمختلفو
دمخنيوي
دمخه
دمدیره
دمرکزي
دمرګ
دمسلمانانو
دمشق
دمشقي
دمصر
دمصنوعي
دمعلوماتو
دملا
دملنگ
دملي
دملی
دمنځه
دمه
دمهمو
دمو
دموادو
دموجوده
دمور
دموضوع
دمولوي
دموکراتيک
دموکراتیک
دموکراسي
دموکراسۍ
دمينې
دمړينې
دمې
دناروغ
دناروغۍ
دنايتروجن
دنبات
دنباتاتو
دنجارۍ
دنده
دندو
دندي
دندی
دندې
دنرسرۍ
دنغا
دنفوسو
دننني
دنننۍ
دننه
دنني
دننګرهار
دننۍ
دنه
دنور
دنورو
دنوم
دنوموړي
دنوي
دنيا
دنيالګيو
دنيايي
دنيله
دنيوي
دنړي
دنړۍ
دنګو
دنیا
دنیوي
ده
دهارټيكلچر
دهايدروجن
دهایدروجن
دهجرت
دهد
دهر
دهرات
دهرزه
دهرې
دهستې
دهغه
دهغو
دهغوى
دهغوي
دهغوی
دهغوۍ
دهغوې
دهغى
دهغي
دهغی
دهغې
دهقان
دهلمند
دهلوي
دهلي
دهلېز
دهم
دهمدي
دهمدې
دهند
دهندوستان
دهوا
دهيواد
دهیواد
دهېواد
دو
دوا
دواده
دوام
دوامدار
دوامداره
دوامدارې
دواړه
دواړو
دواړې
دواکمنۍ
دوباره
دوبي
دوبی
دوبۍ
دوتنه
دوحشي
دوحه
دوخت
دود
دوده
دودول
دودولو
دودونه
دودونو
دودي
دوديز
دوديزه
دوديزو
دوديزې
دودپيسه
دودیز
دودیزه
دودیزو
دودیزې
دودې
دور
دوران
دورانونه
دورانونو
دوراني
دورخيم
دوره
دورو
دوري
دورځې
دوری
دورې
دوز
دوزخ
دوزن
دوست
دوستان
دوستانه
دوستانو
دوستم
دوستي
دوستۍ
دوسيه
دوسیه
دوشس
دوشنبه
دوشنبې
دوطن
دول
دولت
دولته
دولتونه
دولتونو
دولتي
دولتی
دولس
دولسم
دولسمه
دولسمې
دولسو
دوم
دومره
دومینیکن
دون
دونباس
دونه
دونو
دوني
دونيا
دونډو
دونې
دوه
دوهم
دوهمه
دوهمي
دوهمې
دوو
دوولس
دوولسم
دوولسمه
دوولسو
دوى
دوي
دويم
دويمه
دويمي
دويمې
دويني
دوينې
دويټامين
دوچي
دوړ
دوړو
دوړې
دوښمن
دوک
دوکاس
دوکان
دوکانونو
دوکتور
دوکتورا
دوکتورین
دوکتورینو
دوکه
دوی
دویم
دویمه
دویمي
دویمې
دوۍ
دوې
دوېم
دوېمه
دى
دي
ديا
ديارلس
ديارلسم
ديارلسمه
ديارلسمې
ديته
ديخ
ديد
ديدن
دير
ديرش
ديرشمه
ديسمبر
ديش
ديلمي
ديموکرات
ديموکراتانو
ديموکراتيک
ديموکراسي
ديموکراسۍ
دين
دينار
ديناره
دينه
دينونه
دينونو
دينى
ديني
دينې
ديو
ديوال
ديوالونه
ديوالونو
ديوان
ديوبل
ديوبند
ديوبندي
ديوبنديان
ديوه
ديوى
ديوي
ديوې
ديپارتمنت
ديپلوم
ديپلومات
ديپلوماسۍ
ديږي
ديکتاتوري
ديگر
دټول
دټولنيزې
دټولنې
دټولو
دټيټ
دپاتې
دپاره
دپاسه
دپاليسي
دپاليسۍ
دپام
دپاکستان
دپاڼو
دپرمختګ
دپلار
دپلاستيک
دپلان
دپنسلين
دپوتاشيم
دپورتني
دپورته
دپوره
دپوستکي
دپوځ
دپيسو
دپيوند
دپښتنو
دپښتني
دپښتو
دځان
دځمکي
دځمکی
دځمکې
دځنګل
دځنګلونو
دځنګلي
دځينو
دڅاه
دڅه
دڅو
دڅښاک
دڅښلو
دچا
دچاپيريال
دچاپیریال
دچاپېريال
دډير
دډيرو
دړو
دړې
دژمي
دژوند
دژونديو
دښار
دښاري
دښت
دښته
دښتو
دښتي
دښتې
دښمن
دښمنان
دښمنانو
دښمنه
دښمني
دښمنيو
دښمنۍ
دښه
دښوونې
دښځو
دښځې
دکابل
دکار
دکاربن
دکارت
دکارکوونکو
دکال
دکتاب
دکتور
دکتورا
دکرلو
دکرني
دکرنې
دکلسيم
دکلي
دکم
دکموالي
دکمپيوټر
دکمښت
دکن
دکنترول
دکندهار
دکور
دکورني
دکورنۍ
دکوريوليز
دکوم
دکونړ
دکوپراتیف
دکوپرې
دکوچني
دکيمياوي
دککړتيا
دککړتیا
دګاز
دگلانو
دہ
دی
دیارلس
دیارلسم
دیارلسمه
دیارلسمې
دیارلسو
دیدرو
دیر
دیرش
دیره
دیش
دیموکرات
دیموکراتانو
دیموکراتیک
دیموکراتیکو
دیموکراسي
دیموکراسۍ
دین
دینار
دینداره
دینه
دینونه
دینونو
دیني
دینی
دینې
دیو
دیوا
دیوال
دیوالونه
دیوالونو
دیوالي
دیوان
دیوبند
دیوبندي
دیوجانس
دیوه
دیوي
دیوی
دیوې
دیپلماتیک
دیپلماتیکو
دیپلوم
دیپلوماتیک
دیکارت
دیکتاتور
دیکتاتوري
دیکتاتورۍ
دیگر
دۍ
دې
دېته
دېخوا
دېر
دېرش
دېرشم
دېرشمه
دېرشو
دېره
دېش
دېموکراتیک
دېموکریتوس
دېوال
دېوالونه
دېوالونو
دېوالي
دېوان
دے
دە
ذ
ذا
ذات
ذاته
ذاتي
ذبح
ذبيح
ذبیح
ذخاي
ذخاير
ذخيره
ذخیره
ذخیرې
ذر
ذرات
ذراتو
ذربايجان
ذربایجان
ذره
ذرو
ذروي
ذري
ذريعه
ذریعه
ذرې
ذكر
ذلت
ذليل
ذمه
ذهبي
ذهن
ذهنونه
ذهنونو
ذهني
ذهنيت
ذهنیت
ذوالفقار
ذوالقرنين
ذوالقرنین
ذوب
ذوق
ذى
ذي
ذکاوت
ذکر
ذکرشوي
ذکي
ذی
ر
را
راباسي
راباندې
رابرت
رابرسېره
رابرټ
رابطه
رابطو
رابطې
رابلل
رابللو
رابللي
رابلي
رابولي
رابي
رابین
راتاو
راتلاى
راتلای
راتلل
راتللو
راتله
راتلو
راتلونكي
راتلونكې
راتلونکو
راتلونکى
راتلونکي
راتلونکيو
راتلونکی
راتلونکې
راتلې
راته
راتګ
راتگ
راثبارډ
راج
راجا
راجاگان
راجر
راجستان
راجستر
راجع
راجعون
راجلب
راجلبولو
راجمع
راجیه
راحت
راخستى
راخستې
راخېستى
رادار
رادبره
راديو
رادیو
رادیويي
رادیکال
رادیکالي
رارسي
رارسېدلى
رارسېدلي
رارسېدو
راروان
راروسته
راز
رازده
رازق
رازونه
رازونو
رازي
راس
راستانه
راستنه
راستنیدو
راستنېدل
راستنېده
راستنېدو
راستنېږي
راسته
راستون
راسره
راسل
راسي
راسپړل
راسپړي
راشد
راشدينو
راشدینو
راشنه
راشه
راشو
راشي
راشی
راشې
راضي
راغلاست
راغلل
راغلم
راغله
راغلو
راغلى
راغلي
راغليو
راغلی
راغلې
راغونډ
راغونډولو
راغونډې
راغونډېږي
راغوښتل
راغى
راغي
راغی
راغې
رافع
راكوز
راكړه
راكړي
رالز
رالف
رالوی
رالي
رالېږد
رالېږل
رالېږلى
رالېږلي
رام
رامات
رامافوسا
رامخکې
رامخې
رامنځ
رامنځته
رامه
رامي
رامينځ
رامينځته
رامینځ
رامینځته
رامۍ
رامېنځ
ران
رانا
رانازل
رانجه
رانشي
رانغاړل
رانغاړلو
رانغاړي
رانغښتي
رانقل
رانقلوي
راننوتل
راننووت
راننوځي
رانه
راني
رانيسي
رانيولو
رانډولف
رانږدې
رانژدې
راه
راهب
راهبان
راهبانو
راهبه
راهيسي
راهيسې
راهیسي
راهیسی
راهیسې
راو
راواړاوه
راواړوي
راوباسي
راوباله
راوبلل
راوبلي
راوبولي
راوتل
راوتلو
راوتلى
راوتلي
راوتلی
راوتلې
راوتو
راورسي
راورسيد
راورسېد
راورسېدل
راورسېده
راوروسته
راورټي
راوست
راوستل
راوستله
راوستلو
راوستلې
راوسته
راوستو
راوستي
راوستی
راوستې
راوغوښت
راوغوښتل
راول
راولاړ
راولاړه
راولاړې
راولاړېږي
راوله
راولو
راولوېد
راولي
راولپنډۍ
راولی
راولې
راولېږه
راونغاړل
راونغاړي
راونه
راووت
راووتل
راووته
راووست
راووځي
راووړ
راوي
راويان
راويانو
راويستل
راويښ
راوپارول
راوپاروله
راوځي
راوړ
راوړاندې
راوړل
راوړلو
راوړم
راوړنه
راوړنو
راوړني
راوړنې
راوړه
راوړو
راوړونکي
راوړى
راوړي
راوړی
راوړې
راوګرځي
راوګرځېد
راوګرځېدل
راوګرځېده
راى
راي
راياد
رايه
رايو
رايټ
رايې
راټول
راټوله
راټولو
راټولول
راټولولو
راټولونه
راټولوونکی
راټولوي
راټوليدو
راټوليږي
راټولیږي
راټولې
راټولېدل
راټولېدنې
راټولېدو
راټولېږي
راټيټ
راټيټه
راټیټ
راټیټه
راپاتې
راپاروي
راپاڅي
راپاڅېد
راپاڅېدل
راپاڅېږي
راپدېخوا
راپرځولو
راپرځېدو
راپسې
راپه
راپور
راپورتاژ
راپورته
راپورونه
راپورونو
راپيدا
راپیدا
راپیل
راپېژندل
راپېژني
راځه
راځو
راځى
راځي
راځی
راځې
راڅخه
راڅرخي
راڅرګند
راڅرګنده
راڅرګندې
راڅرګندېدل
راڅرګندېدو
راڅرګندېږي
راڅرگند
راچاپېر
راډيو
راډيواکتيف
راډيوي
راډيويي
راډیو
راډیويي
راډیوګانې
راډیویي
راډیکال
راډیکالي
راژوندي
راژوندی
راژوندۍ
راښكاره
راښيي
راښکاره
راښکته
راښکون
راښکونکي
راښیي
راک
راکاږي
راکش
راکم
راکمه
راکمولو
راکموي
راکمې
راکوز
راکوي
راکټ
راکټي
راکډه
راکړ
راکړل
راکړه
راکړو
راکړى
راکړي
راکړی
راکړې
راکښته
راکې
راګرځول
راګرځي
راګرځېدو
راګېر
رای
رایج
رایش
راین
رایه
رایو
رایټ
رایې
رب
ربا
رباب
رباط
رباعي
رباني
ربذې
ربع
ربعه
ربنز
ربه
ربي
ربيع
ربيعه
ربړ
ربیع
رت
رتبه
رتبو
رتبې
رتن
رتور
رتي
رجال
رجالو
رجب
رجس
رجل
رجوع
رح
رحلت
رحم
رحمان
رحمانه
رحماني
رحمة
رحمت
رحمن
رحمه
رحمۍ
رحيم
رحیم
رخ
رخت
رخصت
رخصتي
رخصتيانې
رخصتیو
رخصتۍ
رد
رده
ردول
ردولو
ردوي
رديف
ردیف
رزاقيت
رزق
رزښت
رس
رسا
رسالة
رسالت
رساله
رسالو
رسالې
رسامي
رسامۍ
رساوه
رساي
رستم
رسل
رسم
رسما
رسمونه
رسمي
رسميت
رسمی
رسمیت
رسنيو
رسنیز
رسنیو
رسنۍ
رسو
رسوا
رسوايي
رسوايۍ
رسوب
رسوبات
رسوباتو
رسوبي
رسول
رسولانو
رسولاى
رسولای
رسوله
رسولو
رسولى
رسولي
رسولی
رسولې
رسونکي
رسونکې
رسونې
رسوونکو
رسوونکي
رسوونکی
رسوونکې
رسوي
رسوی
رسى
رسي
رسيدل
رسيدلى
رسيدلي
رسيدلې
رسيدند
رسيده
رسيدو
رسيږي
رسټین
رسی
رسیدل
رسیدلي
رسیدلی
رسیده
رسیدو
رسیږي
رسیږی
رسۍ
رسېد
رسېدای
رسېدل
رسېدلای
رسېدلو
رسېدلى
رسېدلي
رسېدلی
رسېدلې
رسېدنه
رسېدنې
رسېده
رسېدو
رسېږي
رش
رشاد
رشته
رشتو
رشتې
رشد
رشوت
رشيد
رشيف
رشید
رشیف
رض
رضا
رضايت
رضاکارانه
رضاکارانو
رضایت
رضوان
رضوي
رضى
رضي
رضی
رطوبت
رعايت
رعایت
رعد
رعیت
رغاونې
رغنده
رغول
رغولو
رغونه
رغونې
رغېدو
رفتار
رفع
رفيع
رفیع
رقابت
رقابتي
رقم
رقمي
رقمی
رقيق
رقیق
رقیه
ركعته
ركن
ركوع
رم
رمان
رمز
رمزونو
رمزي
رمضان
رمه
رمو
رمټ
رمې
رن
رنان
رنجيت
رنجیت
رنسانس
رنځ
رنځور
رنځونو
رنځپوهنه
رنځپوهنې
رنډ
رنګ
رنګارنګ
رنګه
رنګونه
رنګونو
رنګي
رنګين
رنګړي
رنګین
رنگ
رنگه
رنگونه
رنگونو
رنۍ
ره
رهبانيت
رهبر
رهبران
رهبرانو
رهبري
رهبری
رهبرۍ
رهي
رو
روا
روابط
روابطو
رواج
رواجونه
رواجونو
روان
روانه
روانو
رواني
روانپوهنه
روانپوهنې
روانډا
روانې
رواه
روايات
رواياتو
روايت
روايتونه
روايتونو
روايتوي
روايتي
روایات
روایاتو
روایت
روایتونه
روایتونو
روباټ
روباټونه
روباټیک
روبرت
روت
روج
روح
روحاني
روحانيت
روحانيونو
روحانی
روحانیت
روحانیونو
روحونه
روحونو
روحي
روحيه
روحيې
روحیه
روحیې
رود
روداتو
رودن
رودونه
روديشيا
روز
روزا
روزل
روزلو
روزلي
روزنه
روزني
روزنیز
روزنیزو
روزنې
روزولت
روزولټ
روزونکي
روزونکی
روزووډ
روزي
روزګار
روزګارۍ
روزگان
روزۍ
روس
روسان
روسانو
روسته
روسو
روسي
روسيه
روسيې
روسی
روسیه
روسیي
روسیې
روسۍ
روسې
روش
روشن
روشنګري
روشنګرۍ
روغ
روغبړ
روغتون
روغتونونه
روغتونونو
روغتيا
روغتيايي
روغتیا
روغتیايي
روغتیایي
روغه
روغو
روغې
روفس
رول
رولونه
رولونو
روم
رومان
رومانتيک
رومانتیک
رومانس
روماني
رومانيا
رومانیا
رومانیایي
رومن
رومي
روميان
روميانو
رومی
رومیان
رومیانو
رون
رونالډ
رونالډو
رونو
روه
روهي
روهینګیا
روي
رويه
رويې
روټر
روپیو
روپۍ
روډ
روډولف
روږد
روږدي
روژه
روژې
روښان
روښانتيا
روښانتیا
روښانفکرانو
روښانفکرۍ
روښانه
روښانولو
روښانوي
روښاني
روښنايي
روښنايۍ
روڼ
روڼتیا
روی
رویال
رویه
ري
ريا
رياست
رياض
رياضت
رياضي
رياضيات
رياضياتو
رياضياتي
رياضيکي
رياليزم
ريانا
ريايي
ريحان
ريخ
ريزين
ريس
ريل
رييس
ريچارډ
ريښتيا
ريښتيني
ريښتينې
ريښه
ريښو
ريښي
ريښې
ريکارډ
ريګن
رټ
رټل
رپ
رپوټ
رپوټونو
رژيم
رژیم
رژیمونو
رښتوني
رښتونی
رښتيا
رښتين
رښتينو
رښتينولۍ
رښتينى
رښتيني
رښتينی
رښتينې
رښتیا
رښتیني
رښتینی
رښتینې
رک
رکاي
رکاین
رکعته
رکن
رکود
رکوع
رګ
رګه
رګونه
رګونو
رگونو
رڼا
رڼايي
رڼه
رڼو
رڼې
ری
ریا
ریاست
ریاض
ریاضت
ریاضي
ریاضيکي
ریاضی
ریاضیات
ریاضیاتو
ریاضیکي
ریالیزم
ریان
ریانا
ریایي
ریز
ریس
ریل
ریمونډ
رین
ریو
ریچارد
ریچارډ
ریډ
ریښتیا
ریښتیني
ریښتینی
ریښتینې
ریښه
ریښو
ریښې
ریک
ریکا
ریکارډ
ریکارډونه
ریکارډونو
ریکو
ریګ
ریګان
ریګن
ریگ
رییس
رییسي
رې
رېل
رېونده
رېږدلې
رېښه
رېښو
رېښې
رېګ
رېګان
ز
زابل
زابلي
زاد
زاده
زادو
زادولو
زادي
زادی
زادیو
زادۍ
زادې
زار
زاره
زارۍ
زامبیا
زامن
زامنو
زانګو
زاهد
زاهدان
زاويه
زاويې
زاویه
زاویې
زاړه
زبات
زباد
زبان
زبرځواک
زبور
زبير
زبیر
زبېښاک
زحل
زحمت
زخم
زخمونه
زخمونو
زخمي
زخه
زخو
زخي
زخې
زده
زدکړه
زدکړو
زدکړي
زدکړې
زر
زراره
زراعت
زراعتي
زراعتی
زرتشت
زرتشترا
زردالو
زردستر
زردشت
زردشتي
زرغون
زرغونه
زرغونې
زرق
زرمت
زرملوال
زرنج
زره
زرو
زريزه
زريزې
زرين
زرګونه
زرګونو
زرگران
زرگونه
زرگونو
زریزه
زریزې
زرین
زرې
زعفران
زغره
زغرې
زغم
زغمل
زغملو
زغمناک
زغمي
زكات
زلزله
زلزلو
زلزلې
زلفو
زلفې
زلمى
زلمي
زلميانو
زلمی
زم
زما
زمان
زمانه
زمانو
زماني
زمانې
زمخشري
زمر
زمرى
زمري
زمرک
زمری
زمزم
زمزمه
زمه
زمونږ
زمونږه
زموږ
زموینې
زمين
زمينه
زمکه
زمکې
زمین
زمینه
زمینې
زمېښت
زن
زنا
زنان
زنجپيل
زند
زندان
زندانه
زندانونو
زنداني
زندانیانو
زنده
زندگى
زنځير
زنځیر
زنک
زنګ
زنګون
زنګي
زنې
زه
زهد
زهر
زهرا
زهرجن
زهرجنو
زهرلرونکي
زهره
زهرو
زهري
زهريت
زهری
زهرې
زهير
زهکشي
زو
زوال
زوجي
زور
زوره
زورور
زورورو
زوریخ
زوزات
زوكړې
زولو
زوم
زوما
زون
زونونه
زونونو
زوهیب
زوى
زوي
زويه
زوړ
زوږ
زوکړه
زوکړې
زوی
زویه
زوې
زي
زيا
زيات
زياتره
زياترو
زياته
زياتو
زياتوالى
زياتوالي
زياتوالی
زياتوالې
زياتول
زياتولو
زياتوي
زياتى
زياتي
زياتيدو
زياتيږي
زياتی
زياتې
زياتېدل
زياتېدو
زياتېدونکي
زياتېږي
زياد
زيار
زيارت
زيارتونه
زيان
زيانمن
زيانمنوي
زيانونه
زيانونو
زيتون
زيتونو
زيد
زيديه
زير
زيرمه
زيرمې
زيرى
زيري
زيمبابوی
زين
زينب
زينت
زينتي
زيو
زيړ
زيږد
زيږدي
زيږديز
زيږون
زيږيدلى
زيږيدلي
زيږيدلی
زيږيدنې
زړه
زړو
زړور
زړورتيا
زړورتیا
زړونه
زړونو
زړى
زړي
زړښت
زړی
زړې
زړە
زښته
زکات
زکال
زکام
زکريا
زکریا
زکلونو
زکې
زڼي
زی
زیات
زیاتره
زیاترو
زیاته
زیاتو
زیاتوالي
زیاتوالی
زیاتول
زیاتولو
زیاتوي
زیاتي
زیاتی
زیاتیدو
زیاتیدونکي
زیاتیدونکې
زیاتیږي
زیاتې
زیاتېدو
زیاتېدوني
زیاتېدونکي
زیاتېدونکې
زیاتېږي
زیاد
زیار
زیارت
زیارتونه
زیان
زیانمن
زیانمنه
زیانمنو
زیانمنې
زیانونه
زیانونو
زیتون
زید
زیر
زیربنا
زیربناوو
زیرمه
زیرمو
زیرمې
زیلاند
زیلانډ
زیمبابوې
زین
زینب
زینوویف
زینې
زیړوک
زیږدي
زیږدیز
زیږدیزکال
زیږون
زیږیدلي
زیږیدلی
زیږیدلې
زیږېدلي
زیږېدلی
زیږېدلې
زیږېدو
زېات
زېب
زېربنا
زېربناوو
زېربناوې
زېرمه
زېرمو
زېرمې
زېرى
زېري
زېری
زېړ
زېږد
زېږدلی
زېږدي
زېږديز
زېږدیز
زېږدیزه
زېږدیزې
زېږنده
زېږولو
زېږون
زېږوي
زېږيز
زېږېدل
زېږېدلو
زېږېدلى
زېږېدلي
زېږېدلی
زېږېدلې
زېږېدنه
زېږېدنې
زېږېدو
زە
س
سا
سابقه
سابه
سابو
ساتل
ساتله
ساتلو
ساتلى
ساتلي
ساتلی
ساتلې
ساتندويه
ساتندوی
ساتنه
ساتني
ساتنی
ساتنې
ساته
ساتو
ساتونکو
ساتونکي
ساتونکی
ساتونکې
ساتي
ساتی
ساحل
ساحلونو
ساحلى
ساحلي
ساحه
ساحو
ساحوي
ساحوکې
ساحي
ساحی
ساحې
ساختمان
ساختمانونه
ساختمانونو
ساختماني
ساد
سادات
ساداتو
ساده
سارا
سارتر
سارسور
ساره
سارى
ساري
سارک
سارګون
ساری
سارې
ساز
سازش
سازمان
سازمانونه
سازمانونو
سازماني
سازي
سازښت
سازۍ
ساس
ساساني
ساسانيانو
ساسانیانو
ساعت
ساعته
ساعتو
ساعتونه
ساعتونو
سافټ
سافټویر
ساقه
ساقو
ساقي
ساقې
سال
سالار
سالارۍ
سالازار
سالم
سالمه
سالمې
ساله
سالون
سالگى
سام
سامان
ساماني
سامانيانو
سامرا
سامسنګ
سامسونګ
سامنر
ساموا
ساموي
سامويل
سامویل
ساموېل
سامي
سان
سانتا
سانتي
سانتيګراد
سانتی
ساند
سانسور
سانفرانسیسکو
سانه
سانۍ
ساه
ساو
ساواک
ساوت
ساوخوړ
ساي
سايبريا
سايز
ساينس
ساينسي
ساينسپوه
ساينسپوهان
ساينسپوهانو
سايټ
ساپوهنه
ساپوهنې
ساپي
ساپی
ساپینز
ساړه
ساکس
ساکسون
ساکسوني
ساکن
سایبریا
سایتوپلازم
سایمون
ساینس
ساینسي
ساینپسي
سایټ
سایټونه
سایټونو
سایکل
سب
سبا
سباوون
سبب
سببه
سببونه
سببونو
سببي
سبحان
سبز
سبزيجات
سبزيجاتو
سبزیجاتو
سبسایډي
سبط
سبق
سبو
سبيل
سبک
سبکونو
سبھا
ست
ستا
ستاد
ستاره
ستاسو
ستاسي
ستاسې
ستالین
ستان
ستانه
ستانکزی
ستايل
ستاينه
ستاينې
ستايي
ستایل
ستاینه
ستاینوم
ستاینې
ستاېنه
ستاېنې
ستر
ستراتوسفير
ستراتيژي
ستراتيژيک
ستراتيژۍ
ستراتیژي
ستراتیژیک
ستراتیژیکو
ستراتیژیکې
ستراتیژۍ
ستره
سترو
سترواک
سترواکانو
سترواکي
سترواکيو
سترواکیو
سترواکۍ
سترواکې
ستري
سترګه
سترګو
سترګي
سترګې
سترگه
سترگو
سترگي
سترگی
سترگې
سترې
ستم
ستمبر
ستن
ستندرد
ستنه
ستنو
ستنې
ستنېدل
ستنېدو
سته
ستوارت
ستور
ستورات
ستورمزلو
ستورمزلي
ستورمزلی
ستورو
ستورى
ستوري
ستوريو
ستورپوه
ستورپوهان
ستورپوهانو
ستورپوهنه
ستورپوهنې
ستورپېژندنه
ستورپېژندنې
ستوری
ستورې
ستومانه
ستون
ستونزمن
ستونزمنه
ستونزمنو
ستونزمنې
ستونزه
ستونزو
ستونزي
ستونزی
ستونزې
ستوني
ستونی
ستړى
ستړي
ستړيا
ستړی
ستړیا
ستړې
سجاد
سجده
سجدې
سجل
سحر
سخا
سخاوت
سخت
سخته
سختو
سختوالي
سختي
سختيو
سختیو
سختۍ
سختې
سخن
سخي
سد
سدوزي
سر
سراج
سراسر
سراسري
سرايت
سرای
سرایت
سرب
سرباز
سربستان
سربيا
سربيره
سربیا
سربیره
سربېره
سرته
سرتيري
سرتیرو
سرتیري
سرتیری
سرتېرو
سرتېري
سرتېری
سرحد
سرحدونه
سرحدونو
سرحدي
سرخ
سردار
سرداران
سردارانو
سردرد
سرسري
سرشمیرنې
سرشمېرنه
سرشمېرنې
سرطان
سرطاني
سرعت
سرغړونه
سرغړونو
سرغړونې
سرليک
سرليکونه
سرليکونو
سرلیک
سرمايه
سرمایه
سرمایې
سرمحقق
سرمشریزې
سرمنشي
سرنوشت
سره
سرو
سروال
سروبي
سرود
سرودونو
سرور
سروزرو
سرونه
سرونو
سروي
سروکار
سروی
سرویس
سروې
سري
سريزه
سريزې
سريع
سريلانکا
سرپ
سرپرست
سرپرستي
سرپرستۍ
سرپل
سرپناه
سرپو
سرچينه
سرچينو
سرچيني
سرچينې
سرچپه
سرچینه
سرچینو
سرچینی
سرچینۍ
سرچینې
سرښندنه
سرښندنې
سرک
سرکار
سرکاري
سرکاڼو
سرکس
سرکوزي
سرکونه
سرکونو
سرکښه
سرکښي
سرکښۍ
سرکې
سرګردانه
سرګي
سری
سریال
سریاني
سریاک
سریزه
سریزې
سریلانکا
سرې
سزا
سزار
سزاګانې
سس
سست
سستم
سستي
سسه
سسو
سسې
سطح
سطحه
سطحو
سطحي
سطحی
سطحې
سطه
سعادت
سعد
سعدي
سعود
سعودي
سعودی
سعى
سعيد
سعید
ســ
سف
سفارت
سفارتونو
سفالوسپورينونه
سفر
سفرنامه
سفره
سفرونه
سفرونو
سفيان
سفير
سفيران
سفیان
سفیر
سفیرانو
سقاو
سقراط
سقراطي
سقط
سقوط
سل
سلا
سلاح
سلاسي
سلام
سلامتيا
سلامشوره
سلامونه
سلامي
سلامية
سلاوي
سلاویک
سلاکار
سلاکاران
سلاکارانو
سلایډ
سلایډونو
سلب
سلجوقي
سلجوقيانو
سلسله
سلسلو
سلسلې
سلطان
سلطانانو
سلطانه
سلطاني
سلطنت
سلطنتونه
سلطنتونو
سلطنتي
سلطه
سلطې
سلف
سلفايد
سلفر
سلفي
سلفيان
سلفيانو
سلفيه
سلم
سلما
سلمان
سلمانه
سلمة
سلمه
سلمى
سلمې
سلنه
سلنې
سله
سلو
سلواغې
سلوانیا
سلواکيا
سلواکیا
سلوب
سلول
سلولوز
سلولونه
سلولونو
سلولي
سلوک
سلوکي
سلوکې
سليم
سليمان
سليکا
سليکان
سلګونه
سلګونو
سلګۍ
سلگونو
سلیزې
سلیم
سلیمان
سلیماني
سلېمان
سم
سماجي
سمارټ
سمان
سماني
سمبال
سمبالولو
سمبالوي
سمبالښت
سمبول
سمبولونه
سمبولونو
سمبولیک
سمت
سمدستي
سمدلاسه
سمر
سمرقند
سمستر
سمسور
سملاسي
سمندر
سمندرونه
سمندرونو
سمندري
سمندرګي
سمندرګی
سمندری
سمندریز
سمندریزو
سمنټ
سمنټو
سمنګان
سمنگان
سمه
سمو
سموالي
سموالی
سمول
سمولو
سمون
سمونه
سمونو
سمونونه
سمونونو
سمونپال
سمونپالو
سمونپالي
سمونې
سموي
سمويل
سمویل
سمي
سميت
سميع
سمیت
سمیع
سمیټ
سمې
سمېت
سمېټ
سن
سنا
سناتور
سناتورانو
سناریو
سناریوګانو
سنان
سنة
سنت
سنتسېز
سنتو
سنتول
سنتولو
سنتونو
سنتي
سنتیز
سنتېز
سنج
سنجر
سنجش
سنجول
سند
سندارا
سندر
سندرغاړو
سندرغاړي
سندرغاړی
سندرغاړې
سندره
سندرو
سندري
سندرې
سندونه
سندونو
سندي
سنسکرت
سنن
سننو
سنه
سني
سنيان
سنټ
سنډروم
سنګ
سنګاپور
سنګر
سنګرونو
سنګسار
سنگ
سنگر
سنی
سنیل
سه
سهار
سهارا
سهارنپور
سهارنپوري
سهاره
سهام
سهروردي
سهل
سهم
سهمیه
سهولت
سهوه
سهيل
سهيلي
سهیل
سهېل
سهېلي
سو
سوابق
سوابقو
سوات
سواحلو
سواد
سواده
سوار
سواره
سوازي
سوال
سوالبرد
سوالونه
سوالګر
سوانح
سوای
سوبه
سوبې
سوتره
سوخت
سوخوی
سود
سودا
سوداګر
سوداګرو
سوداګري
سوداګريز
سوداګريزه
سوداګريزو
سوداګريزې
سوداګريو
سوداګریز
سوداګریزه
سوداګریزو
سوداګریزې
سوداګریو
سوداګرۍ
سوداگر
سوداگري
سوداگريز
سوداگریز
سوداگرۍ
سوده
سوديم
سودیم
سور
سورة
سورت
سورتونه
سورتونو
سوره
سورى
سوري
سوريا
سوريه
سوريو
سوريې
سورپوستو
سوری
سورینام
سوریه
سوریو
سوریې
سورې
سوز
سوزان
سوسن
سوسيال
سوسياليزم
سوسياليست
سوسياليستي
سوسیال
سوسیالیزم
سوسیالیست
سوسیالیستان
سوسیالیستانو
سوسیالیستي
سوسیالېزم
سوسیالېست
سوشان
سوفي
سوفیا
سوق
سوقرات
سول
سوله
سولو
سولي
سولگر
سولی
سولې
سوم
سوما
سومالي
سومالیا
سومر
سومري
سومریانو
سون
سونامي
سونامې
سوند
سونه
سونو
سوني
سونګ
سوه
سوو
سوى
سوي
سويدي
سويس
سويسي
سويل
سويلي
سويه
سويډن
سويډني
سوپر
سوځنده
سوځول
سوځولو
سوځوي
سوځي
سوځيدنه
سوځېدنې
سوځېدو
سوچ
سوچه
سوچي
سوډان
سوډيم
سوډیم
سوړ
سوړبازارۍ
سوک
سوکاله
سوکالي
سوکالۍ
سوکه
سوګند
سوی
سویز
سویس
سویسي
سویل
سویلي
سویوز
سویډن
سویډني
سوې
سوېل
سوېلي
سي
سيا
سياحت
سياره
سيارو
سياروي
سيارې
سياست
سياستوال
سياستوالو
سياستونه
سياستونو
سياستپوه
سياسى
سياسي
سياسی
سيال
سيالانو
سيالو
سيالي
سياليو
سيالۍ
سياه
سيخ
سيد
سيدال
سيدان
سيدجمال
سيدنا
سيده
سير
سيرة
سيرت
سيره
سيروم
سيس
سيستان
سيستاني
سيستم
سيستماتيک
سيستمونه
سيستمونو
سيسلي
سيسټم
سيف
سيل
سيلاب
سيلابونه
سيلابونو
سيلابي
سيلانيانو
سيلومي
سيم
سيماب
سيمه
سيمو
سيموکې
سيمي
سيمين
سيمينار
سيمينارونو
سيمې
سين
سينا
سيند
سيندونه
سيندونو
سينما
سينه
سينو
سينوسايټس
سينيګال
سينټ
سينګار
سينګاپور
سينې
سيورى
سيوري
سيوری
سيورې
سيوطي
سيټ
سيږي
سيکانو
سيکسو
سيکولر
سټ
سټار
سټالين
سټالین
سټانټون
سټاک
سټاکهولم
سټایل
سټراليا
سټرالیا
سټرانګ
سټریټ
سټلايټ
سټنډرډ
سټه
سټو
سټوارت
سټوارټ
سټون
سټوپا
سټوډیو
سټيفن
سټکپول
سټیج
سټیشن
سټیشنونه
سټیشنونو
سټیفن
سټینلي
سټیو
سټیون
سټېج
سټېشن
سپارل
سپارلو
سپارلي
سپاره
سپاري
سپارښت
سپارښتنه
سپارښتنو
سپارښتنې
سپاه
سپتمبر
سپر
سپرلي
سپرلۍ
سپرم
سپرمونه
سپرمونو
سپرو
سپري
سپك
سپما
سپنسر
سپه
سپور
سپورت
سپورتي
سپورو
سپورټ
سپورې
سپونر
سپوږميز
سپوږمکیو
سپوږمکۍ
سپوږمیز
سپوږمیو
سپوږمۍ
سپى
سپي
سپيده
سپين
سپيناوي
سپينه
سپينو
سپينوزا
سپينې
سپيڅلي
سپټ
سپټمبر
سپړل
سپړلو
سپړنه
سپړنو
سپړنې
سپږې
سپک
سپکاوى
سپکاوي
سپکاوی
سپکه
سپکو
سپکې
سپی
سپین
سپینه
سپینو
سپینوزا
سپینې
سپیو
سپیڅلي
سپیڅلی
سپېره
سپېس
سپېڅلتوب
سپېڅلتيا
سپېڅلتیا
سپېڅلو
سپېڅلى
سپېڅلي
سپېڅليو
سپېڅلی
سپېڅلې
سړبن
سړه
سړو
سړولو
سړى
سړي
سړيتوب
سړيو
سړښت
سړک
سړکونه
سړکونو
سړی
سړیو
سړې
سږ
سږو
سږي
سږی
سکاتلند
سکاتلنډ
سکاره
سکارو
سکالو
سکانو
سکاټ
سکاټلنډ
سکاټلنډي
سکاټلينډ
سکاټلینډ
سکته
سکتور
سکتورونه
سکتورونو
سکتې
سکرتر
سکرتریت
سکرو
سکرین
سکن
سکندر
سکه
سکو
سکورسیزي
سکول
سکولین
سکون
سکي
سکين
سکټور
سکین
سکې
سکېن
سګرټ
سګنال
سګنالونه
سی
سیا
سیاحت
سیاحتي
سیاره
سیارو
سیاروي
سیارې
سیاست
سیاستوال
سیاستوالو
سیاستونه
سیاستونو
سیاسي
سیاسی
سیال
سیالانو
سیالو
سیالي
سیالیو
سیالۍ
سیالې
سیايي
سیایي
سید
سیده
سیر
سیرالیون
سیرت
سیریلیک
سیس
سیستان
سیستم
سیستماتیک
سیستمونه
سیستمونو
سیسلي
سیسټم
سیسټمونه
سیسټمونو
سیسیل
سیسیلیا
سیف
سیل
سیلاب
سیلابونو
سیلانیان
سیلانیانو
سیلیکان
سیم
سیمه
سیمو
سیمون
سیمي
سیمی
سیمینارونو
سیمې
سین
سینا
سینت
سیند
سیندونه
سیندونو
سینما
سینماګر
سینه
سینټ
سینګ
سینګار
سینګاپور
سینیګال
سینې
سیوري
سیوری
سیوطي
سیول
سیټ
سیټي
سیډني
سیک
سیکانو
سیکو
سیکولار
سیکولاریزم
سیکولر
سیکولریزم
سیکې
سیګنال
سې
سېد
سېستم
سېسټم
سېل
سېلاب
سېلابونو
سېمه
سېمې
سېن
سېند
سېنټ
سېنګ
سېټ
سېپتمبر
سېپټمبر
سېګنال
سېګنالونه
سے
ش
شا
شاء
شات
شاته
شاتو
شاتګ
شاخ
شاخبري
شاخص
شاخصونه
شاخصونو
شاخه
شاخونه
شاخونو
شاخېلو
شادي
شار
شارل
شارلوټ
شارون
شارپ
شارک
شاعر
شاعران
شاعرانه
شاعرانو
شاعرانې
شاعره
شاعري
شاعرۍ
شافعي
شافعيان
شافعيانو
شافعيه
شال
شالي
شاليد
شالید
شالۍ
شام
شامل
شامله
شاملول
شاملولو
شاملوي
شاملي
شامليږي
شاملیږي
شاملې
شاملېدل
شاملېدو
شاملېږي
شامي
شاميانو
شان
شانته
شانه
شانګ
شانګهای
شاه
شاهان
شاهانو
شاهد
شاهدان
شاهدانو
شاهده
شاهدي
شاهدۍ
شاهرخ
شاهزاده
شاهزادګۍ
شاهي
شاهين
شاهی
شاهین
شاو
شاوخوا
شاوخواکې
شايد
شاپور
شاړو
شاړې
شاک
شاکر
شاګرد
شاګردان
شاګردانو
شاگرد
شاگردان
شاید
شایر
شایفینکم
شبرغان
شبلنجي
شبلي
شبنم
شبه
شبهې
شبکه
شبکو
شبکی
شبکې
شتمن
شتمنه
شتمنو
شتمني
شتمنيو
شتمنی
شتمنیو
شتمنۍ
شتمنې
شته
شتو
شتوالى
شتوالي
شتون
شجاع
شجاعت
شجره
شجرې
شحم
شحمي
شخص
شخصا
شخصي
شخصيت
شخصيتونه
شخصيتونو
شخصی
شخصیت
شخصیتونه
شخصیتونو
شخړه
شخړو
شخړې
شد
شدت
شدن
شدند
شده
شديد
شديده
شديدو
شدہ
شدید
شدیده
شدیدو
شدیدې
شر
شراب
شرابو
شرافت
شراي
شرايط
شرايطو
شراکت
شرایط
شرایطو
شربت
شرح
شرحه
شرحې
شرط
شرطه
شرطونه
شرطونو
شرطي
شرع
شرعي
شرعياتو
شرعې
شرف
شرق
شرقي
شرقی
شرك
شرم
شرما
شرمن
شرمه
شره
شروط
شروع
شري
شريد
شريعت
شريف
شريفه
شريفي
شريفې
شريك
شريک
شريکه
شريکوي
شريکې
شرک
شرکت
شرکتونه
شرکتونو
شرکتي
شریان
شریانونو
شریعت
شریعتي
شریف
شریک
شریکان
شریکانو
شریکه
شریکول
شریکولو
شریکوي
شریکې
شطرنج
شعار
شعارونه
شعارونو
شعاع
شعب
شعبان
شعبه
شعبي
شعر
شعراء
شعرونه
شعرونو
شعري
شعور
شعوري
شعيب
شعيه
شغل
شــ
شفا
شفاء
شفاعت
شفاف
شفاهي
شفتالو
شفر
شفعه
شفعي
شفق
شفقت
شفيع
شفيق
شفیع
شفیق
شك
شكر
شكل
شل
شلتن
شلتوت
شلم
شلمه
شلمې
شلو
شم
شما
شمار
شماره
شماري
شماريږي
شمارۍ
شمال
شمالي
شمالی
شمر
شمزۍ
شمس
شمسي
شمشاد
شمع
شمله
شمول
شموله
شمولیت
شمير
شميرل
شميره
شمیر
شمیرل
شمیره
شمیټ
شمېر
شمېران
شمېرل
شمېرلو
شمېرلي
شمېرلې
شمېرلېږي
شمېرنه
شمېرنې
شمېره
شمېرو
شمېروں
شمېري
شمېرپوهنه
شمېرې
شنا
شناخت
شنبه
شنبې
شننه
شننو
شننې
شنه
شنو
شنونکي
شني
شنډ
شنگړۍ
شنې
شه
شهاب
شهادت
شهادته
شهادتينو
شهباز
شهر
شهرت
شهرستان
شهرستاني
شهزاد
شهزاده
شهزادګۍ
شهوت
شهيد
شهيدان
شهيدانو
شهید
شهیدان
شهیدانو
شو
شوال
شوالیه
شواهد
شواهدو
شواو
شوای
شوب
شوخ
شود
شور
شورا
شوراګانو
شورای
شورش
شوروي
شورويانو
شوروی
شورویانو
شورى
شوري
شوری
شوق
شوقي
شول
شولتن
شوله
شولو
شولې
شوم
شونتيا
شونتیا
شوند
شونو
شونى
شوني
شونډو
شونډې
شونکړۍ
شونی
شونې
شوه
شوو
شوى
شوي
شويده
شويدى
شويدي
شويدی
شويدۍ
شويو
شوپن
شوچې
شوړتن
شوک
شوکت
شوی
شویده
شویدي
شویدی
شویو
شوۍ
شوې
شوېده
شوے
شى
شي
شيان
شيانو
شيبه
شيخ
شيدا
شيدو
شيدي
شيدې
شير
شيرازي
شيره
شيرين
شيشه
شيطان
شيطاني
شيعه
شيعيان
شين
شيندل
شينوارو
شينواري
شينواری
شيوا
شيي
شيکاګو
شيگل
شټل
شپاړس
شپاړسم
شپاړسمه
شپاړسمې
شپاړسو
شپني
شپه
شپو
شپون
شپيته
شپږ
شپږم
شپږمه
شپږمې
شپږو
شپې
شپېته
شپېتو
شپېلۍ
شړل
شړلو
شړي
شک
شکايت
شکاکیت
شکایت
شکایتونو
شکر
شکری
شکرې
شکست
شکسپیر
شکل
شکله
شکلونه
شکلونو
شکلي
شکمن
شکمنو
شکنجه
شکنجې
شکه
شکونه
شګلنو
شګلنې
شګه
شګو
شګې
شی
شیان
شیانو
شیبه
شیخ
شیدو
شیدې
شیر
شیراز
شیراني
شیرین
شیشه
شیشې
شیطان
شیطاني
شیعه
شیل
شیمپانزي
شین
شیندل
شینواري
شینواری
شینګین
شیوه
شیټي
شیکاګو
شۍ
شې
شېبه
شېبو
شېبې
شېخ
شېر
شېرشاه
ص
صابر
صابون
صاحب
صاحبزاده
صادر
صادرات
صادراتو
صادراتي
صادره
صادرول
صادرولو
صادرونکی
صادروي
صادق
صادقانه
صاع
صاف
صافات
صافي
صافی
صالح
صالحان
صالحانو
صالحو
صامت
صبا
صباح
صبح
صبر
صبغت
صحابه
صحابي
صحاح
صحاحو
صحبت
صحت
صحرا
صحرايي
صحنه
صحنو
صحنې
صحي
صحيح
صحيفه
صحی
صحیح
صد
صدارت
صداقت
صدام
صدر
صدراعظم
صدف
صدق
صدقه
صدقې
صدمه
صدور
صدوق
صديق
صديقه
صديقي
صدیق
صراحت
صراط
صربستان
صرف
صغير
صف
صفا
صفات
صفاتو
صفت
صفتونه
صفتونو
صفحه
صفحہ
صفحې
صفر
صفرا
صفراوي
صفوي
صفويانو
صفویانو
صفين
صفيه
صل
صلاح
صلاحيت
صلاحیت
صلاحیتونه
صلح
صلحی
صلوات
صلى
صلي
صليب
صليبي
صليبيانو
صليت
صلی
صلیب
صلیبي
صلیبی
صلیبیانو
صمد
صميم
صنايع
صنايعو
صنایع
صنایعو
صندوق
صنعاني
صنعت
صنعتونه
صنعتونو
صنعتي
صنعتګر
صنعتی
صنف
صنوبر
صهیونیزم
صواعق
صوبه
صوبې
صوت
صوتي
صورت
صورتونه
صورتونو
صوري
صوفي
صوفيه
صوفیان
صوفیانه
صوفیانو
صومعه
صومعو
صومعې
صيب
صيغه
صیب
صېب
ض
ضامن
ضايع
ضايعات
ضايعاتو
ضایع
ضایعات
ضایعاتو
ضبط
ضحاک
ضخامت
ضد
ضديت
ضرب
ضربان
ضربه
ضربې
ضرر
ضرره
ضرور
ضرورت
ضرورتونه
ضرورتونو
ضروري
ضروری
ضريب
ضریب
ضعف
ضعيف
ضعيفه
ضعیف
ضعیفه
ضلالت
ضلع
ضلعي
ضلعې
ضمان
ضمانت
ضمایر
ضمن
ضمني
ضمير
ضميمه
ضمیر
ضمیرونه
ضمیرونو
ضمیمه
ضمیمې
ضوابط
ضيا
ضياء
ضيايي
ضیا
ط
طار
طارق
طاعون
طاغوت
طاق
طاقت
طالب
طالبان
طالبانو
طاهر
طاهره
طاووس
طاي
طايف
طب
طبابت
طباق
طبراني
طبرى
طبري
طبع
طبعا
طبعي
طبعيت
طبعی
طبعیت
طبقات
طبقاتو
طبقاتي
طبقه
طبقو
طبقي
طبقې
طبي
طبيب
طبيعت
طبيعي
طبيعيت
طبی
طبیب
طبیبان
طبیبانو
طبیعت
طبیعي
طبیعی
طحاوي
طرابلس
طراح
طراحي
طراحۍ
طرح
طرحه
طرحو
طرحې
طرز
طرزالعمل
طرزي
طرف
طرفه
طرفي
طرفۍ
طريق
طريقه
طريقو
طريقي
طريقې
طریقه
طریقو
طریقی
طریقې
طفل
طلا
طلاق
طلاقه
طلايي
طلایي
طلایی
طلب
طلحة
طلحه
طلوع
طنز
طنزونو
طنزي
طه
طهارت
طو
طواف
طور
طوسي
طوفان
طول
طولي
طيالسي
طيب
طيف
طی
طیب
طیف
ظ
ظالم
ظالمان
ظالمانه
ظالمانو
ظاهر
ظاهرا
ظاهرشاه
ظاهره
ظاهري
ظرافت
ظرف
ظرفيت
ظرفیت
ظفر
ظلم
ظلمه
ظلمونه
ظلمونو
ظهور
ع
عا
عابد
عاج
عاجز
عاجزي
عاجزۍ
عاداتو
عادت
عادتونه
عادتونو
عادل
عادلانه
عادي
عادی
عارف
عارفان
عارفانو
عازب
عاشق
عاشقان
عاشقانه
عاشورا
عاص
عاصم
عاطفي
عاطفې
عاقبت
عاقل
عالـم
عالم
عالمان
عالمانو
عالمه
عالي
عالی
عالیقدر
عام
عامر
عامل
عاملين
عامه
عامو
عامي
عاميانه
عامیانه
عامې
عاي
عايد
عايدات
عايداتو
عايشه
عايشې
عاکف
عاید
عایداتو
عایشه
عبا
عباد
عباداتو
عبادت
عبادته
عبادتونه
عبادتونو
عبادتځايونه
عبادتځايونو
عبادتځای
عباده
عبادي
عباراتو
عبارت
عبارتونه
عبارتونو
عباس
عباسي
عباسيانو
عباسیانو
عبث
عبد
عبدالاحد
عبدالباري
عبدالبر
عبدالبهاء
عبدالجبار
عبدالحق
عبدالحميد
عبدالحمید
عبدالحنان
عبدالحى
عبدالحکیم
عبدالحی
عبدالخالق
عبدالرازق
عبدالرب
عبدالرحمان
عبدالرحمن
عبدالرحيم
عبدالرحیم
عبدالرزاق
عبدالرشيد
عبدالرشید
عبدالرو
عبدالروف
عبدالستار
عبدالسلام
عبدالشکور
عبدالصمد
عبدالطيف
عبدالعزيز
عبدالعزیز
عبدالعلي
عبدالغفار
عبدالغفور
عبدالغني
عبدالفتاح
عبدالقادر
عبدالقدوس
عبدالقيوم
عبدالقیوم
عبداللطيف
عبدالله
عبدالمالک
عبدالمجيد
عبدالمجید
عبدالمطلب
عبدالملک
عبدالمنان
عبدالناصر
عبدالهادي
عبدالواجد
عبدالواحد
عبدالولي
عبدالوهاب
عبدالکريم
عبدالکریم
عبده
عبراني
عبرت
عبري
عبيد
عبيدالله
عبيده
عبید
عبیدالله
عتبه
عترت
عثمان
عثماني
عثمانيانو
عثمانی
عثمانیانو
عجب
عجم
عجيبه
عجیب
عجیبه
عدالت
عدالته
عدالتي
عدالتۍ
عدد
عدده
عددونه
عددونو
عددوں
عددي
عدل
عدله
عدلي
عدليه
عدليې
عدلیې
عدم
عدن
عدنان
عدى
عدي
عذاب
عذابه
عذر
عراق
عراقي
عراقی
عرب
عربان
عربانو
عربستان
عربو
عربي
عربی
عربۍ
عربې
عرش
عرض
عرضه
عرضي
عرضې
عرف
عرفات
عرفان
عرفاني
عرفي
عروج
عروض
عروضي
عروه
عزت
عزتمن
عزل
عزم
عزوجل
عزيز
عزیز
عساكر
عساکر
عسقلاني
عسكري
عسکر
عسکران
عسکرو
عسکري
عسکرۍ
عشر
عشري
عشق
عشقي
عصب
عصبي
عصر
عصري
عصری
عصمت
عضد
عضلات
عضلاتو
عضلاتي
عضله
عضلې
عضوي
عضويت
عضوی
عطا
عطاء
عطاءالله
عطارد
عطر
عطرو
عطف
عظمت
عظيم
عظیم
عظیمي
عــ
عفان
عفت
عفونت
عفوني
عفونيت
عقاب
عقايد
عقايدو
عقاید
عقایدو
عقبه
عقد
عقل
عقلاني
عقلانیت
عقلمن
عقله
عقلونه
عقلي
عقيدتي
عقيده
عقيدو
عقيدې
عقيل
عقیدتي
عقیده
عقیدو
عقیدوي
عقیدې
عقیل
علا
علاء
علاج
علاقه
علاقې
علام
علامه
علامې
علاو
علاوالدين
علاوه
علايم
علايمو
علایم
علایمو
علت
علتونه
علتونو
علل
علم
علما
علماء
علماو
علماوو
علمه
علمى
علمي
علمی
علني
علوفه
علوم
علومو
علوي
على
علي
عليا
عليكم
عليه
عليها
عليهم
عليک
عليکم
علی
علیا
علیت
علیه
علیها
علیهم
علیہ
عمار
عمان
عمدتا
عمده
عمدي
عمر
عمران
عمربن
عمرسعد
عمره
عمرو
عمروبن
عمروعاص
عمرونه
عمرونو
عمري
عمرې
عمق
عمل
عملا
عمله
عملونه
عملونو
عملي
عمليات
عملياتو
عملياتي
عمليه
عمليو
عمليې
عملکرد
عملی
عملیات
عملیاتو
عملیاتي
عملیه
عملیې
عملې
عمه
عمودي
عموم
عموما
عمومي
عموميت
عمومی
عمومیت
عمومې
عمير
عميس
عن
عناصر
عناصرو
عنايت
عنایت
عند
عنصر
عنصرونه
عنصري
عنعنوي
عنه
عنها
عنهم
عنهما
عنوان
عنکبوت
عهد
عوارض
عوارضو
عواطف
عواطفو
عواقب
عواقبو
عوالم
عوام
عوامل
عواملو
عوامو
عوامي
عوايد
عوايدو
عواید
عوایدو
عورت
عوض
عوف
عون
عي
عيب
عيبونه
عيبونو
عيسوي
عيسويان
عيسويانو
عيسويت
عيسى
عيسي
عيسی
عين
عيني
عکاسي
عکاسۍ
عکس
عکسونه
عکسونو
عیب
عیسوي
عیسوی
عیسویان
عیسویانو
عیسویت
عیسي
عیسی
عین
عیني
عینک
عینیت
غ
غا
غار
غارونه
غارونو
غاز
غازاتو
غازونه
غازونو
غازي
غازيان
غازيانو
غازی
غازیانو
غافل
غالب
غالبا
غالبه
غالبې
غالي
غاليان
غالۍ
غايب
غاړه
غاړو
غاړي
غاړی
غاړې
غاښ
غاښو
غاښونه
غاښونو
غاښي
غایب
غبار
غبرګ
غبرګون
غبرګونونه
غبرګونونو
غبرګوني
غبرگولي
غبرگون
غده
غدو
غدودو
غدير
غدې
غذا
غذاي
غذايي
غذايې
غذایي
غذایی
غر
غرامت
غرب
غربت
غربي
غربی
غرض
غرغښت
غرق
غرمه
غرمې
غرني
غرنيو
غرنی
غرنیو
غرنۍ
غره
غرو
غروال
غرور
غرونه
غرونو
غريب
غريبو
غريزه
غريزي
غريزې
غرګي
غریب
غریبو
غزا
غزاله
غزالي
غزل
غزلو
غزلې
غزنوي
غزنويانو
غزنویانو
غزني
غزنی
غزه
غزې
غسل
غشا
غشاء
غشو
غشى
غشي
غشيو
غشی
غصب
غصه
غضب
غفار
غفاري
غفلت
غل
غلا
غلات
غلاتو
غلام
غلامان
غلامانو
غلامي
غلامۍ
غلبه
غلجي
غلجیو
غلط
غلطه
غلطو
غلطي
غلطۍ
غلطې
غلظت
غله
غلو
غلى
غلي
غليظ
غليم
غلی
غلیم
غلې
غم
غمجن
غمجنه
غمه
غمونه
غمونو
غنا
غندل
غندنه
غندنې
غندي
غنم
غنمو
غني
غنيمت
غنی
غنیمت
غه
غو
غوا
غوايانو
غوايي
غواړم
غواړو
غواړى
غواړي
غواړی
غواړۍ
غواړې
غواګانو
غواګانې
غواگانو
غوث
غور
غوراوى
غوراوي
غوراوی
غوربند
غوره
غوري
غوريانو
غورځنګ
غورځنګونو
غورځنگ
غورځول
غورځولو
غورځونکو
غورځوي
غورځي
غورځېدو
غورځېږي
غورچاڼ
غوریانو
غوزه
غوسه
غوسې
غوصه
غوغا
غولونې
غولي
غوندي
غوندې
غونډ
غونډال
غونډالونه
غونډالونو
غونډله
غونډلې
غونډه
غونډو
غونډي
غونډيو
غونډی
غونډیو
غونډۍ
غونډې
غويي
غوټه
غوټو
غوټي
غوټيو
غوټۍ
غوټې
غوڅ
غوڅه
غوڅول
غوڅولو
غوڅې
غوړ
غوړه
غوړو
غوړي
غوړيو
غوړیو
غوړېدو
غوږ
غوږو
غوږونه
غوږونو
غوښت
غوښتل
غوښتلو
غوښتنليک
غوښتنلیک
غوښتنلیکونه
غوښتنلیکونو
غوښتنه
غوښتنو
غوښتني
غوښتنې
غوښته
غوښتو
غوښتونکو
غوښتونکي
غوښتونکی
غوښتونکې
غوښتي
غوښتې
غوښه
غوښو
غوښي
غوښې
غيب
غيبت
غيبو
غيبي
غير
غيرت
غيري
غيرې
غيږ
غټ
غټه
غټو
غټوالي
غټي
غټې
غځول
غځولو
غځوي
غځېدلی
غځېدلې
غځېږي
غچ
غړو
غړولې
غړى
غړي
غړيتوب
غړيو
غړی
غړیتوب
غړیو
غړۍ
غړې
غږ
غږه
غږول
غږولو
غږونه
غږونو
غږوونکی
غږيز
غږيزه
غږيزې
غږیز
غږیزه
غږیزو
غږېږي
غښتلى
غښتلي
غښتلی
غښتلې
غڼه
غڼو
غڼې
غیاث
غیب
غیبت
غیر
غیرارادي
غیرت
غیررسمي
غیرعادي
غیرقانوني
غیرمستقیم
غېر
غېزه
غېږ
غېږه
ـ
ــ
ــر
ــره
ــس
ـــ
ــــ
ـــــ
ــل
ــند
ــه
ــو
ــوي
ــکه
ــی
ـو
ف
فا
فابريکه
فابريکو
فابريکي
فابريکې
فابریکه
فابریکو
فابریکې
فاتح
فاتحه
فاتو
فاجعه
فاحشه
فاذا
فارابي
فارس
فارسي
فارسی
فارسیانو
فارغ
فارغانو
فارغه
فارغېدو
فارم
فارمر
فارمول
فارمونه
فارمونو
فارنهايت
فارنهایت
فارنهایټ
فاروق
فارياب
فاریاب
فاز
فاسد
فاسدو
فاسفورس
فاسفيټ
فاسق
فاسو
فاشيزم
فاشیزم
فاشیست
فاشیستي
فاصله
فاصلو
فاصلي
فاصلې
فاضل
فاضلابو
فاضله
فاطمة
فاطمه
فاطمي
فاطميانو
فاطمې
فاعل
فال
فان
فاني
فاي
فايده
فايل
فايلونو
فاکس
فای
فایبر
فایل
فایلونه
فایلونو
فبروري
فبروری
فبرورۍ
فت
فتح
فتحه
فتحې
فتنه
فتنو
فتنې
فتوا
فتواوو
فتواوې
فتوح
فتوحات
فتوحاتو
فتونه
فتونو
فتوى
فتوی
فحش
فحشا
فخر
فدا
فدراسيون
فدراسیون
فدرال
فدرالي
فدراليزم
فدک
فر
فرا
فرات
فرار
فراری
فراغت
فراق
فرانز
فرانس
فرانسس
فرانسسکو
فرانسه
فرانسوا
فرانسوي
فرانسويانو
فرانسوی
فرانسویان
فرانسویانو
فرانسوۍ
فرانسي
فرانسيس
فرانسی
فرانسیس
فرانسیسکو
فرانسې
فرانسېس
فرانک
فرانکفورت
فرانکلين
فرانکلین
فرانکو
فراه
فراي
فرايد
فرج
فرخ
فرد
فردوس
فردوسي
فردي
فردیت
فردیناند
فرزند
فرسايش
فرش
فرشته
فرصت
فرصتونه
فرصتونو
فرض
فرضا
فرضي
فرضيه
فرضيې
فرضیه
فرضیو
فرضیې
فرعون
فرعي
فرعی
فرق
فرقان
فرقه
فرقو
فرقې
فرمان
فرمانونه
فرمانونو
فرماي
فرمايل
فرمايلي
فرمايي
فرمایل
فرمایلي
فرمایي
فرمایی
فرمول
فرهاد
فرهنګ
فرهنګونو
فرهنګي
فرهنگ
فرهنگي
فروش
فروع
فروعو
فروډیټ
فري
فرياد
فريج
فريد
فريدريک
فرين
فريډريک
فريکوينسي
فرید
فریدریش
فریدریک
فریضه
فریقا
فریډریک
فریډمن
فریکونسي
فریکونسۍ
فزيالوژي
فزيالوژيکي
فزيک
فزيکي
فزيکپوه
فزيکې
فزیک
فزیکي
فزیکی
فس
فساد
فستیوال
فسخ
فسطاط
فسق
فشار
فشارونه
فشارونو
فشاري
فصاحت
فصل
فصلونه
فصلونو
فصول
فضا
فضاء
فضاي
فضايل
فضايلو
فضايي
فضایي
فضل
فضله
فضوله
فضيلت
فضیلت
فطر
فطرت
فطري
فعال
فعالان
فعالانو
فعاله
فعالو
فعالولو
فعالوي
فعاليت
فعاليتونه
فعاليتونو
فعالیت
فعالیتونه
فعالیتونو
فعالینو
فعالې
فعل
فعلا
فعلونه
فعلونو
فعلي
فغان
فقاري
فقاریه
فقال
فقد
فقر
فقرات
فقره
فقرې
فقط
فقه
فقها
فقهاء
فقهاوو
فقهي
فقهې
فقير
فقيرانو
فقيه
فقیر
فقیه
فقې
فكر
فكري
فلا
فلاسفه
فلتر
فلترات
فلج
فلز
فلزات
فلزاتو
فلزي
فلسطين
فلسطین
فلسطیني
فلسفه
فلسفو
فلسفي
فلسفيانو
فلسفی
فلسفې
فلش
فلم
فلمفير
فلمونه
فلمونو
فلمي
فلمینګ
فلورا
فلورانس
فلورنس
فلورنسکي
فلوریدا
فلوریډا
فلورېنس
فليپ
فلپين
فلک
فلیمش
فلیپ
فلیپین
فلیپیني
فمن
فن
فنا
فنجي
فنلند
فنلنډ
فنلنډي
فنلينډ
فنلینډ
فنون
فنونو
فني
فنډ
فنګس
فنگس
فنی
فهد
فهرست
فهم
فهیم
فو
فوربس
فوربېز
فورم
فورمول
فورمولونه
فورمونو
فوري
فورټ
فورډ
فوسيلي
فوسیل
فوسیلونه
فوسیلونو
فوسیلي
فوق
فولاد
فولادو
فولاني
فولر
فولک
فولکلور
فولکلوري
فون
فونونو
فونګي
فونیټیک
فوټ
فوټبال
فوټه
فوټو
فوټوسنټېز
فوټون
فوځ
فوځي
فوکس
فوکلور
فى
في
فيته
فيتي
فيثاغورث
فيروز
فيزيک
فيزيکي
فيصده
فيصدي
فيصل
فيصله
فيض
فيل
فيلسوف
فيلسوفان
فيلسوفانو
فيليپ
فيمينيزم
فيمينيسټ
فيه
فيوډالي
فيچر
فيچنر
فټ
فټه
فډرال
فډرالي
فکتور
فکتورونه
فکتورونو
فکر
فکره
فکرونه
فکرونو
فکري
فکټور
فکټورونو
فی
فیثاغورث
فیجي
فیر
فیروز
فیزیک
فیس
فیسبوک
فیشر
فیشن
فیصده
فیصدي
فیصل
فیصله
فیض
فیل
فیلسوف
فیلسوفان
فیلسوفانو
فیلم
فیلپین
فیلډ
فیلیپ
فیلیپس
فیلیپین
فیمینیزم
فیمینېزم
فین
فینوټایپ
فیوډالي
فیي
فیچر
فیډل
فېدرال
فېسبوک
فېشن
فېلسوفانو
فېلم
فېمینیزم
فېنوټایپ
فېکشن
ق
قا
قاب
قابل
قابليت
قابلیت
قاتل
قاجار
قادر
قادري
قاره
قاري
قارچونو
قاریان
قاریانو
قاسم
قاسمي
قاضي
قاضيان
قاضيانو
قاضی
قاضیان
قاضیانو
قاطع
قاعده
قاعدي
قاعدې
قافله
قافلې
قافيه
قافيې
قافیه
قال
قالب
قام
قامت
قاموس
قاموسونو
قامي
قانع
قانون
قانونه
قانوني
قانونی
قاهره
قاهرې
قاي
قايل
قايم
قاچاق
قایل
قایم
قبا
قباي
قبايل
قبايلو
قبايلي
قبایل
قبایلو
قبایلي
قبر
قبرس
قبره
قبرونه
قبرونو
قبض
قبضه
قبطي
قبل
قبله
قبلوي
قبلې
قبلېږي
قبول
قبوله
قبيله
قبيلو
قبيلوي
قبيلي
قبيلې
قبیله
قبیلو
قبیلوي
قبیلې
قتل
قتیبه
قحطي
قحطۍ
قد
قدامت
قدامه
قدر
قدرت
قدرتونه
قدرتونو
قدرمند
قدرمندې
قدس
قدم
قديم
قدیم
قذافي
قر
قرا
قرار
قرارداد
قراردادونه
قراردادونو
قراردادي
قرارلري
قرارګاه
قراقل
قران
قراني
قرانکريم
قرانکریم
قراي
قرباغ
قربان
قرباني
قربانيانو
قربانیان
قربانیانو
قربانۍ
قرض
قرضاوي
قرطبي
قرغزستان
قرن
قره
قريب
قريش
قريشو
قريشي
قريظه
قرينه
قریشو
قرېشو
قزاق
قزاقستان
قزاقي
قسط
قسطنطنيې
قسطنطنیه
قسطنطنیې
قسطنطین
قسم
قسمت
قسمه
قسمونه
قسمونو
قسمي
قشر
قشرونه
قشرونو
قصاص
قصد
قصدي
قصر
قصص
قصه
قصيده
قصيدې
قصیده
قصې
قضا
قضاء
قضاوت
قضاي
قضايي
قضایاوو
قضایه
قضایي
قضایی
قضيه
قضيو
قضيې
قضیب
قضیه
قضیو
قضیې
قطار
قطارونه
قطارونو
قطام
قطب
قطبونو
قطبي
قطر
قطع
قطعاتو
قطعه
قطعي
قطعې
قفس
قفقاز
قل
قلا
قلات
قلب
قلبه
قلبي
قلت
قلعه
قلعي
قلم
قلمرو
قلمرونه
قلمرونو
قلمه
قلمي
قلندر
قلوي
قلي
قم
قمار
قمر
قمري
قناعت
قنبر
قند
قندهار
قندوزي
قندونه
قندونو
قهر
قهرمان
قهوه
قهوې
قو
قواعد
قواعدو
قوالی
قوانين
قوانينو
قوانین
قوانینو
قواو
قواوو
قوت
قوتونو
قوريه
قوس
قول
قوله
قوم
قوماندان
قوماندانان
قوماندانانو
قومانداني
قوماندانۍ
قومانده
قوماندې
قومندان
قومندانانو
قومندانۍ
قومونه
قومونو
قومي
قوميت
قومی
قومیت
قوه
قوو
قوي
قوی
قوې
قياس
قيام
قيامت
قيامته
قيد
قيس
قيصر
قيصه
قيف
قيم
قيمت
قيمتونه
قيمتونو
قيمتي
قيموميت
قیاس
قیاسي
قیام
قیامت
قید
قیس
قیصر
قیصه
قیمت
قیمتي
قیمومیت
قېمت
ك
كا
كابل
كار
كاره
كاروان
كارول
كارونه
كارونو
كافر
كافران
كافرانو
كافي
كال
كاله
كالو
كامل
كان
كاوه
كاڼي
كبله
كبير
كتاب
كتابتون
كتابو
كتابونه
كتابونو
كتل
كتنې
كثير
كر
كرامو
كربلا
كرل
كرم
كرنه
كره
كريم
كرښه
كس
كسان
كسانو
كشاف
كشف
كعب
كعبه
كعبې
كفاره
كفارو
كفاية
كفايت
كفر
كفن
كل
كلا
كلام
كلتور
كلتوري
كلثوم
كلك
كلمه
كلمې
كلن
كلنۍ
كله
كلو
كلونه
كلونو
كلي
كليسا
كم
كمال
كمه
كمپيوټر
كنده
كندهار
كنزالعمال
كنفرانس
كه
كوثر
كور
كورني
كورنيو
كورنۍ
كوره
كورونو
كوفي
كول
كولاى
كولاي
كولای
كوله
كولو
كولى
كولې
كوم
كومه
كومو
كومې
كوه
كوو
كوونكو
كوونكى
كوونكي
كوونكيو
كوى
كوي
كوټې
كوچنى
كوچني
كوښښ
كوې
كى
كي
كياني
كيداى
كيدل
كيدو
كيسه
كيسې
كيفيت
كيلو
كيمياوي
كينه
كينې
كيږي
كيڼ
كټ
كټواز
كچه
كچې
كړ
كړاى
كړل
كړم
كړمه
كړنو
كړنې
كړه
كړو
كړى
كړي
كړيدي
كړی
كړۍ
كړې
كړېده
كښت
كښل
كښى
كښي
كښې
كې
كېداى
كېدل
كېده
كېدو
كېناست
كېږدي
كېږي
كېښود
كېښوول
كە
ل
لا
لاا
لابراتوار
لابراتوارونو
لابراتواري
لابي
لات
لاتو
لاتين
لاتيني
لاتین
لاتینه
لاتیني
لاتینې
لاحق
لادن
لار
لارنس
لاره
لارو
لاروا
لاروى
لاروي
لارويان
لارويانو
لاروی
لارویان
لارویانو
لاروۍ
لارى
لاري
لاريون
لاريونونه
لاريونونو
لارډ
لارښود
لارښونه
لارښونې
لارښوونه
لارښوونو
لارښوونکي
لارښوونې
لاری
لاریون
لاریونونه
لاریونونو
لارۍ
لارې
لارېنس
لازم
لازمه
لازمو
لازمي
لازمې
لاس
لاسبري
لاسبری
لاسته
لاستيک
لاسرسي
لاسرسی
لاسرسۍ
لاسليك
لاسليک
لاسلیک
لاسنيوى
لاسه
لاسو
لاسوند
لاسوندونه
لاسوندونو
لاسونه
لاسونو
لاسوهنه
لاسوهنو
لاسوهنې
لاسي
لاسی
لال
لالا
لاله
لام
لامارک
لامبو
لامل
لامله
لاملونه
لاملونو
لاملېږي
لان
لانجمن
لانجه
لانجو
لانجې
لاند
لاندني
لاندنيو
لاندنۍ
لاندى
لاندي
لانديني
لاندينۍ
لاندی
لاندینۍ
لاندې
لانين
لانګ
لانګفیلو
لاهم
لاهو
لاهور
لاهوري
لاو
لاوا
لاواګانې
لاورنس
لاوس
لاي
لايحه
لايق
لاين
لاپسې
لاړ
لاړشي
لاړل
لاړم
لاړه
لاړو
لاړې
لاک
لاکان
لاکن
لایبنېتس
لایتناهي
لایحه
لایحې
لایق
لاین
لایه
لایو
لایکن
لایې
لب
لبابه
لبابې
لباس
لبانیا
لبنان
لبناني
لبيك
لت
لتا
لته
لحاظ
لحاظه
لحج
لخوا
لدي
لدی
لدې
لذت
لر
لرستان
لرغون
لرغونتوب
لرغونتيا
لرغونتیا
لرغونو
لرغونوالی
لرغوني
لرغونپوه
لرغونپوهان
لرغونپوهانو
لرغونپوهنه
لرغونپوهنې
لرغونی
لرغونۍ
لرغونې
لرل
لرلای
لرله
لرلو
لرلي
لرليد
لرلی
لرلید
لرلې
لرم
لره
لرو
لرونكى
لرونكي
لرونكې
لرونکو
لرونکى
لرونکي
لرونکی
لرونکې
لرى
لري
لريجمعیت
لرګي
لرګين
لرګينو
لرګيو
لرګی
لرګیو
لرګې
لرگي
لری
لرۍ
لرې
لزوم
لس
لسان
لسانس
لست
لستوڼي
لسم
لسمه
لسمې
لسو
لسيزه
لسيزو
لسيزې
لسګونه
لسګونو
لسگونو
لسیزه
لسیزو
لسیزې
لشکر
لطف
لطفا
لطيف
لطیف
لعاب
لعل
لعنت
لغات
لغاتو
لغاتونه
لغت
لغتنامه
لغتونه
لغتونو
لغمان
لغو
لغوه
لغوي
لــ
لـه
لف
لفظ
لفظونو
لفظي
لفکرفت
لقب
لقبونه
لقبونو
لقمان
لك
لكه
للمي
لله
لم
لمان
لماني
لمانځل
لمانځلو
لمانځنه
لمانځنې
لمانځه
لمانځي
لمانی
لمانیانو
لمبه
لمبو
لمبې
لمخې
لمده
لمر
لمريز
لمريزه
لمريزو
لمريزکال
لمريزې
لمریز
لمریزه
لمریزو
لمریزې
لمس
لمسون
لمسى
لمسي
لمسی
لمسیانو
لمسۍ
لمفاوي
لمن
لمنه
لمنو
لمنځه
لمنې
لمونځ
لمونځونه
لمونځونو
لمړني
لمړنی
لمړنۍ
لمړى
لمړي
لمړی
لمړۍ
لن
لنا
لندبل
لندن
لنده
لنسي
لنډ
لنډمهال
لنډمهاله
لنډمهالي
لنډمهالی
لنډمهالې
لنډه
لنډو
لنډون
لنډي
لنډيز
لنډيو
لنډیز
لنډۍ
لنډې
لنګ
لنګر
له
لها
لهجه
لهجو
لهجې
لو
لوا
لوازم
لوازمو
لواطت
لوبغالي
لوبغالی
لوبغاړو
لوبغاړي
لوبغاړی
لوبغاړې
لوبه
لوبو
لوبول
لوبولو
لوبولي
لوبولی
لوبولې
لوبوي
لوبي
لوبيا
لوبډله
لوبډلې
لوبگر
لوبگران
لوبگرانې
لوبگره
لوبگري
لوبیا
لوبې
لوتر
لوتري
لوح
لوحه
لوحو
لوحې
لوده
لودویګ
لودي
لودين
لوديځ
لودی
لودیځ
لور
لورا
لوراند
لورته
لورنه
لورنې
لورو
لورى
لوري
لورين
لوريو
لورګانې
لوری
لورین
لوریو
لورې
لوست
لوستل
لوستلو
لوستلی
لوستنه
لوستنې
لوسته
لوستو
لوستونكي
لوستونکو
لوستونکي
لوستونکيو
لوستونکی
لوستى
لوستي
لوستی
لوستې
لوسي
لوط
لوله
لولو
لولي
لوم
لومه
لومړنى
لومړني
لومړنيو
لومړنی
لومړنیو
لومړنۍ
لومړنې
لومړى
لومړي
لومړيت
لومړيتوب
لومړيو
لومړی
لومړیتوب
لومړیتوبونو
لومړیو
لومړۍ
لومړې
لوند
لونګ
لونګۍ
لونگ
لوهان
لوهانسک
لوول
لوى
لوي
لويانو
لويدو
لويديځ
لويديځه
لويديځو
لويديځې
لويس
لويه
لويو
لويي
لوييس
لويې
لوټ
لوټان
لوڅ
لوڅو
لوڅې
لوړ
لوړتيا
لوړتیا
لوړه
لوړو
لوړوالى
لوړوالي
لوړوالی
لوړوالې
لوړول
لوړولو
لوړوي
لوړي
لوړيږي
لوړپوړو
لوړپوړي
لوړپوړی
لوړیږي
لوړې
لوړېدل
لوړېدو
لوړېږي
لوږه
لوږې
لوښو
لوښى
لوښي
لوښی
لوک
لوکاس
لوکاشینکو
لوکاچ
لوکزامبورګ
لوګر
لوګزامبورګ
لوګو
لوګي
لوګی
لوگر
لوڼو
لوڼي
لوڼې
لوی
لویانو
لویديځ
لویدیز
لویدیځ
لویدیځه
لویدیځو
لویدیځې
لویز
لویس
لویه
لویو
لویوالي
لویي
لویډ
لویی
لویې
لوې
لوېدلې
لوېدو
لوېديځ
لوېديځه
لوېديځو
لوېديځې
لوېدیځ
لوېدیځه
لوېدیځو
لوېدیځې
لوېږي
لى
لي
ليارې
لياقت
ليبرال
ليبراليزم
ليبيا
ليت
ليتر
ليتره
ليتوانيا
ليتوسفير
ليد
ليدل
ليدلاى
ليدلو
ليدلوري
ليدلوريو
ليدلوری
ليدلى
ليدلي
ليدلی
ليدلې
ليدنه
ليدنو
ليدنې
ليده
ليدو
ليدونکو
ليدونکي
ليري
ليرې
ليس
ليسانس
ليست
ليسه
ليسې
ليك
ليكل
ليكلو
ليكلى
ليكلي
ليكنه
ليكنو
ليكنې
ليكه
ليكوال
ليكوالو
ليكي
ليكې
ليلا
ليليه
ليندۍ
لينن
لينډ
ليه
ليو
ليوالتيا
ليون
ليوني
ليږد
ليږدول
ليږديز
ليږي
ليک
ليکدود
ليکل
ليکلو
ليکلى
ليکلي
ليکلی
ليکلې
ليکن
ليکنه
ليکنو
ليکني
ليکنې
ليکه
ليکو
ليکوال
ليکوالان
ليکوالانو
ليکواله
ليکوالو
ليکوالي
ليکوالۍ
ليکوالې
ليکونه
ليکونو
ليکونکو
ليکونکى
ليکونکي
ليکونکی
ليکونکې
ليکي
ليکې
ليګ
لټه
لټول
لټولو
لټون
لټوي
لپ
لپا
لپار
لپاره
لچې
لړ
لړزه
لړليک
لړليکونه
لړلیک
لړم
لړمان
لړي
لړيال
لړيو
لړی
لړیو
لړۍ
لږ
لږترلږه
لږشمېر
لږه
لږو
لږوالي
لږکي
لږکيو
لږکیو
لږې
لښتليک
لښتي
لښكر
لښكرو
لښکر
لښکرلېږد
لښکره
لښکرو
لښکرګاه
لښکرې
لک
لکشمي
لکه
لکو
لکي
لکچر
لکی
لکۍ
لګاوه
لګن
لګول
لګولو
لګولى
لګولي
لګولې
لګوي
لګي
لګيا
لګښت
لګښتونه
لګښتونو
لګیا
لګېدلی
لګېدنې
لګېدو
لګېږي
لگول
لگولو
لگوي
لگښت
لہ
لی
لیاقت
لیبرال
لیبرالانو
لیبرالي
لیبرالیزم
لیبل
لیبیا
لیت
لیتوانیا
لیتویا
لیختن
لید
لیدل
لیدلو
لیدلورو
لیدلوري
لیدلوری
لیدلي
لیدلی
لیدلې
لیدنه
لیدنو
لیدنې
لیده
لیدو
لیدونکو
لیدونکي
لیري
لیری
لیرې
لیزر
لیس
لیسانس
لیست
لیسه
لیسې
لیف
لیل
لیلیه
لیمو
لین
لیندۍ
لینن
لینک
لینکس
لینکلن
لینکن
لینکولن
لینکونه
لینین
لینینیزم
لیو
لیوالتیا
لیوس
لیون
لیونز
لیوني
لیوه
لیوي
لیوپولډ
لیویسکي
لیږد
لیږدول
لیږدولو
لیږدیز
لیږل
لیک
لیکدود
لیکل
لیکلو
لیکلي
لیکلی
لیکلې
لیکن
لیکنه
لیکنو
لیکني
لیکنۍ
لیکنې
لیکه
لیکو
لیکوال
لیکوالان
لیکوالانو
لیکواله
لیکوالو
لیکوالۍ
لیکوالې
لیکونه
لیکونو
لیکونکو
لیکونکي
لیکونکی
لیکونکې
لیکي
لیکچرونو
لیکی
لیکې
لیګ
لې
لېبرال
لېبراله
لېبرالیزم
لېتوانیا
لېدل
لېدلو
لېري
لېرې
لېسانس
لېست
لېسه
لېسې
لېنکولن
لېوا
لېوال
لېوالتيا
لېوالتياوې
لېوالتیا
لېوالتیاوو
لېواله
لېوانو
لېونتوب
لېونى
لېوني
لېونی
لېوه
لېږد
لېږدول
لېږدولو
لېږدولی
لېږدونه
لېږدونکو
لېږدونکي
لېږدونې
لېږدوونکو
لېږدوونکي
لېږدوونکې
لېږدوي
لېږدي
لېږديز
لېږل
لېږلو
لېږلى
لېږلي
لېږه
لېږي
لېک
لە
م
ما
مابين
مات
ماتم
ماته
ماتو
ماتول
ماتولو
ماتونکي
ماتونې
ماتوونکو
ماتوونکې
ماتوي
ماتي
ماتيږي
ماتې
ماتېدل
ماتېدنې
ماتېدو
ماتېږي
ماجه
ماحول
ماخذ
ماخذونه
ماد
ماداګاسکر
مادر
مادربورډ
مادرید
مادل
ماده
مادو
مادى
مادي
مادياتو
مادی
مادیت
مادې
مار
ماران
مارانو
مارتا
مارتن
مارتي
مارتين
مارتین
مارتینو
مارجوري
مارخور
مارش
مارشال
مارشل
مارغان
مارغانو
مارغه
مارلو
مارو
ماري
ماريا
مارټن
مارټين
مارټین
مارټینسون
مارپېچ
مارچ
مارک
مارکس
مارکسي
مارکسيزم
مارکسیزم
مارکسیست
مارکسیستي
مارکسېزم
مارکسېست
مارکه
مارکوس
مارکوني
مارکي
مارکيټ
مارکیت
مارکیتنګ
مارکیټ
مارکېټ
مارګاریت
مارګريټ
مارګریټ
مارګرېټ
ماری
ماریا
مارینو
مازندران
مازيګر
مازې
ماساچوست
ماساچوستس
ماساچوسټ
ماساچوسټس
ماساچوسېټ
ماستري
ماسترۍ
ماسخوتن
ماسره
ماسټر
ماسټري
ماسټرۍ
ماسپښين
ماسپښین
ماسک
ماسکو
ماشوم
ماشومان
ماشومانو
ماشومتوب
ماشومتوبه
ماشومه
ماشومې
ماشين
ماشينونه
ماشينونو
ماشيني
ماشین
ماشیندار
ماشینونه
ماشینونو
ماشیني
ماضي
ماغزه
ماغزو
مافوق
ماقبل
مال
مالايي
مالایا
مالتا
مالداري
مالدارۍ
مالدیف
مالك
مالكيانو
مالكيه
مالنکوف
ماله
مالوم
مالومات
مالوماتو
مالوماتي
مالومه
مالونه
مالونو
مالوچ
مالوچو
مالي
ماليات
مالياتو
مالياتي
ماليزيا
ماليزيايي
ماليه
ماليکول
ماليکولونه
ماليکولونو
ماليکولي
ماليې
مالټا
مالک
مالکان
مالکانو
مالکوم
مالکي
مالکيت
مالکیت
مالکینو
مالګه
مالګو
مالګي
مالګې
مالی
مالیات
مالیاتو
مالیاتي
مالیزیا
مالیه
مالیکول
مالیکولونه
مالیکولونو
مالیکولي
مالیې
مام
ماما
مامور
ماموريت
مامورين
مامورينو
ماموریت
ماموریتونه
ماموریتونو
مامورین
مامورینو
مامون
ماموند
مان
مانا
ماناوو
ماناوې
ماندينه
مانع
مانند
مانه
مانوي
مانویل
ماني
مانيز
مانچستر
مانچسټر
مانګرو
مانیز
مانیلا
مانۍ
ماه
ماهر
ماهرو
ماهي
ماهيان
ماهيت
ماهیت
ماو
ماورا
ماوراء
ماوراي
ماورای
ماوري
ماونټ
ماي
مايا
مايع
مايعات
مايعاتو
مايل
مايوسيس
مايکرو
مايکروسکوپ
مايکروسکوپي
مايکرون
مايکل
ماټ
ماډرن
ماډل
ماډلونه
ماډلونو
ماډيسن
ماړه
ماښام
ماکس
ماکو
ماګما
ماګماګانې
ماڼو
ماڼيو
ماڼیو
ماڼۍ
ماڼې
مایا
مایتوکاندري
مایتوکاندریا
مایر
مایع
مایعات
مایعاتو
مایل
مایله
مایلو
مایلي
ماین
مایو
مایک
مایکرو
مایکروسافټ
مایکروسکوپ
مایکروسکوپي
مایکل
مباح
مباحثو
مباحثې
مبادي
مبارز
مبارزاتو
مبارزه
مبارزو
مبارزې
مبارك
مبارک
مبارکه
مبارکو
مبارکي
مبارکې
مبالغه
مبالغې
مباهله
مباهلې
مبتلا
مبحث
مبدا
مبداء
مبعوث
مبلغ
مبلغینو
مبنا
مبهم
مبهمه
مة
مت
متا
متابعت
متاثره
متاسفانه
متبادل
متجانسو
متحد
متحده
متحدو
متحدينو
متحدین
متحدینو
متحدې
متحرک
متخصص
متخصصين
متخصصينو
متخصصین
متخصصینو
متر
مترادف
مترادفه
متراکم
مترقي
مترمکعب
متره
مترو
متري
مترۍ
متشابه
متشبث
متشکله
متصل
متضاد
متضادو
متضادې
متضرر
متعارف
متعال
متعصب
متعه
متعهد
متغير
متغیر
متفاوت
متفاوته
متفق
متفقینو
متفکر
متقابل
متقابله
متقابلو
متقابلې
متقاطع
متقاعد
متقي
متل
متلونه
متلونو
متمدن
متمرکز
متمرکزه
متمرکزې
متن
متنازع
متناسب
متناسبه
متناوب
متنوع
متنونه
متنونو
متني
متهم
متو
متواتر
متوازن
متواضع
متوجه
متوسط
متوسطه
متوسطې
متوقع
متون
متونو
متوکل
متي
متيازو
متيازې
متکلم
متکلمانو
متکي
مثال
مثاله
مثالونه
مثالونو
مثانه
مثانې
مثبت
مثبته
مثبتو
مثبتې
مثل
مثلا
مثلث
مثله
مثنوي
مجادله
مجارستان
مجاز
مجازات
مجازاتو
مجازي
مجازی
مجاهد
مجاهدين
مجاهدينو
مجاهدین
مجاهدینو
مجاور
مجبور
مجبوره
مجبوروي
مجتهد
مجتهدينو
مجدد
مجددي
مجرا
مجرد
مجرم
مجرمینو
مجروح
مجسمه
مجسمو
مجسمې
مجلة
مجلس
مجلسونو
مجلسي
مجله
مجلو
مجلې
مجمع
مجمو
مجموع
مجموعه
مجموعو
مجموعي
مجموعې
مجنون
مجهز
مجهول
مجوز
مجيد
مجیب
مجید
محاذ
محاسباتو
محاسباتي
محاسبه
محاسبوي
محاسبې
محاصره
محاصرې
محافظت
محافظتي
محافظه
محافظوي
محال
محاکم
محاکمه
محاکمو
محاکمې
محب
محبت
محبس
محبوب
محبوبیت
محتاط
محترم
محتوا
محتوی
محدث
محدثينو
محدود
محدوده
محدودو
محدودول
محدودولو
محدودوي
محدوديت
محدوديتونه
محدوديتونو
محدودیت
محدودیتونه
محدودیتونو
محدودې
محدودېږي
محراب
محرقه
محرم
محرميت
محرمیت
محروم
محروميت
محرومیت
محرک
محرکه
محسن
محسني
محسوس
محشر
محصل
محصلانو
محصلين
محصلينو
محصلین
محصلینو
محصول
محصولات
محصولاتو
محض
محضر
محفل
محفوظ
محقق
محكمه
محكمې
محل
محلول
محلولونه
محلولونو
محلي
محلی
محم
محمد
محمدا
محمدبن
محمدخان
محمدكاظم
محمده
محمدي
محمود
محور
محوره
محوري
محوه
محي
محيط
محيطي
محکم
محکمه
محکمو
محکمی
محکمې
محکوم
محکومیت
محی
محیط
محیطي
مخ
مخابرات
مخابراتو
مخابراتي
مخاطب
مخالف
مخالفان
مخالفانو
مخالفت
مخالفته
مخالفتونه
مخالفتونو
مخالفه
مخالفو
مخالفين
مخالفينو
مخالفین
مخالفینو
مخالفې
مخامخ
مختار
مخترع
مختصر
مختلط
مختلف
مختلفه
مختلفو
مختلفي
مختلفې
مخته
مختګ
مخدره
مخروط
مخروطي
مخزن
مخزنونو
مخزېږد
مخزېږدي
مخزېږديز
مخزېږديزه
مخزېږديزې
مخزېږدې
مخصوص
مخصوصه
مخفف
مخفي
مخكې
مخلص
مخلوط
مخلوق
مخلوقات
مخلوقاتو
مخنيوى
مخنيوي
مخنيوی
مخنیوي
مخنیوی
مخه
مخور
مخورو
مخونه
مخونو
مخونې
مخى
مخي
مخينه
مخينې
مخکني
مخکنیو
مخکنۍ
مخکي
مخکيني
مخکينيو
مخکينۍ
مخکښ
مخکښان
مخکښانو
مخکښه
مخکښو
مخکښې
مخکی
مخکیني
مخکینی
مخکینیو
مخکینۍ
مخکې
مخکېني
مخکېنيو
مخکېنی
مخکېنیو
مخکېنۍ
مخی
مخینه
مخینې
مخې
مد
مداخله
مداخلې
مدار
مدارسو
مدارونه
مدارونو
مداري
مدافع
مدافعتي
مدافعین
مدافعینو
مدبر
مدت
مدد
مدراس
مدرس
مدرسه
مدرسو
مدرسې
مدرن
مدرنه
مدرنو
مدرنې
مدعا
مدعي
مدعی
مدغم
مدني
مدنيت
مدنيتونه
مدنيتونو
مدنی
مدنیت
مده
مدهوبالا
مديترانه
مديترانې
مدير
مديران
مديريت
مديريتي
مدينه
مدينې
مدیترانه
مدیترانې
مدیر
مدیران
مدیرانو
مدیره
مدیریت
مدینه
مدینې
مذاهب
مذاهبو
مذاکرات
مذاکراتو
مذاکره
مذاکرې
مذهب
مذهبه
مذهبو
مذهبونه
مذهبونو
مذهبي
مذهبی
مذکر
مر
مرا
مراتب
مراتبو
مراجع
مراجعه
مراجعو
مراجعې
مراحل
مراحلو
مراد
مراسم
مراسمو
مراعات
مراعت
مراقبت
مراقبې
مرام
مراټي
مراکزو
مراکش
مربع
مربوط
مربوطه
مرتب
مرتبه
مرتبې
مرتد
مرتضى
مرتضی
مرتکب
مرجان
مرجانونه
مرجانونو
مرجاني
مرجع
مرجعيت
مرحله
مرحلو
مرحلي
مرحلې
مرحو
مرحوم
مرد
مردان
مردم
مردود
مردويه
مرزا
مرستندوى
مرستندويان
مرستندويه
مرستندوی
مرستندویه
مرسته
مرستو
مرستي
مرستيال
مرستيالان
مرستيالانو
مرستی
مرستیال
مرستیالان
مرستیالانو
مرستیالې
مرستې
مرسل
مرسي
مرشد
مرصع
مرض
مرطوب
مرطوبه
مرغاب
مرغان
مرغانو
مرغلرې
مرغه
مرغومي
مرغۍ
مركز
مركزي
مركه
مرمر
مرمرو
مرمی
مرمۍ
مره
مرهټيانو
مرهټیانو
مرو
مروان
مروت
مروج
مروجه
مرور
مروره
مروه
مري
مريان
مريانو
مريتوب
مريخ
مريد
مريض
مريم
مريى
مريي
مرچ
مرکب
مرکبات
مرکباتو
مرکبونه
مرکبونو
مرکبې
مرکز
مرکزه
مرکزونه
مرکزونو
مرکزي
مرکزيت
مرکزی
مرکزیت
مرکه
مرکو
مرکې
مرګ
مرګه
مرگ
مرگه
مری
مریانو
مریتوب
مریخ
مریض
مریلنډ
مریم
مریيتوب
مریکا
مریی
مرییتوب
مرۍ
مزاج
مزاحمت
مزار
مزارشریف
مزاري
مزایا
مزد
مزدا
مزده
مزدور
مزدورانو
مزدوري
مزدورۍ
مزل
مزلو
مزلي
مزمن
مزه
مزي
مزيل
مس
مسا
مساحت
مساعد
مساعده
مسافر
مسافرت
مسافرو
مساله
مسالو
مسالې
مساوات
مساواتو
مساوي
مساي
مسايل
مسايلو
مسایل
مسایلو
مست
مستبد
مستحب
مستحبه
مستحق
مستدرك
مستدرک
مستطيل
مستطیل
مستعار
مستعلیه
مستعمراتو
مستعمره
مستعمرو
مستعمرې
مستقل
مستقله
مستقيم
مستقيما
مستقيمه
مستقيمو
مستقيمې
مستقیم
مستقیما
مستقیمه
مستقیمو
مستقیمې
مستند
مستنده
مستندو
مستندې
مستنصر
مستهلک
مستو
مستي
مستۍ
مستې
مسجد
مسجدالحرام
مسجع
مسح
مسخره
مسره
مسطح
مسطحه
مسعود
مسعودي
مسكين
مسكينانو
مسلح
مسلسل
مسلط
مسلكي
مسلم
مسلمان
مسلمانان
مسلمانانو
مسلمانه
مسلمانو
مسلماني
مسلمانۍ
مسلمانې
مسلمه
مسلمينو
مسلمینو
مسله
مسلو
مسلک
مسلکونو
مسلکي
مسلکی
مسلې
مسموم
مسموميت
مسند
مسو
مسواک
مسوده
مسودې
مسول
مسوليت
مسولیت
مسوول
مسووليت
مسوولیت
مسي
مسيب
مسيح
مسيحي
مسيحيان
مسيحيانو
مسيحيت
مسير
مسکو
مسکين
مسیح
مسیحي
مسیحیان
مسیحیانو
مسیحیت
مسیر
مسیرونو
مشابه
مشابهت
مشارکت
مشارکتي
مشاعرې
مشال
مشاهدات
مشاهداتو
مشاهداتي
مشاهده
مشاهدو
مشاهدې
مشاور
مشبه
مشبوع
مشتري
مشتريانو
مشترک
مشترکه
مشترکو
مشترکې
مشتریانو
مشتق
مشتقات
مشتمل
مشخص
مشخصات
مشخصاتو
مشخصه
مشخصو
مشخصوي
مشخصې
مشخصېږي
مشر
مشران
مشرانو
مشرتابه
مشرتوب
مشرف
مشرق
مشرقي
مشركان
مشركانو
مشره
مشروباتو
مشروط
مشروطه
مشروطیت
مشروع
مشروعيت
مشروعیت
مشري
مشرک
مشرکان
مشرکانو
مشرکينو
مشری
مشرۍ
مشرې
مشعر
مشغول
مشق
مشكل
مشكوة
مشهد
مشهور
مشهوره
مشهورو
مشهورې
مشورتي
مشوره
مشورو
مشورې
مشيت
مشک
مشکل
مشکلات
مشکلاتو
مشیګان
مصادره
مصارف
مصارفو
مصالحو
مصباح
مصداق
مصدر
مصر
مصرف
مصرفوونکو
مصرفوي
مصرفي
مصرفېږي
مصروف
مصري
مصريانو
مصریانو
مصطفى
مصطفی
مصعب
مصلح
مصلحت
مصنف
مصنوعي
مصنوعی
مصونیت
مصيبت
مصیبت
مضارع
مضاف
مضامين
مضامينو
مضامین
مضامینو
مضبوط
مضر
مضره
مضرو
مضمون
مطابق
مطابقت
مطالب
مطالبو
مطالعات
مطالعاتو
مطالعه
مطالعو
مطالعي
مطالعې
مطبعه
مطبعې
مطبوعات
مطبوعاتو
مطبوعاتي
مطبوعه
مطرح
مطرف
مطعم
مطلب
مطلع
مطلق
مطلقه
مطلقې
مطلوب
مطلوبه
مطلوبو
مطلوبې
مطمي
مطهري
مطيع
مطیع
مظاهر
مظاهره
مظاهرو
مظاهرې
مظفر
مظلوم
مظلومانو
مظهر
مع
معا
معاد
معادل
معادلاتو
معادله
معادلو
معادلې
معاذ
معارف
معارفو
معاش
معاشرت
معاشونه
معاشونو
معاصر
معاصره
معاصرو
معاصرې
معاف
معافيت
معافیت
معافیتي
معالجه
معاملاتو
معامله
معاملو
معاملې
معاني
معاهده
معاهدې
معاون
معاويه
معاویه
معاينه
معاینه
معاینې
معبد
معبدونه
معبدونو
معبود
معتبر
معتبره
معتبرو
معتبرې
معتدل
معتدله
معتدلو
معتدلې
معتزله
معتزلي
معتصم
معتقد
معتمد
معجزه
معجزو
معجزې
معجم
معدن
معدني
معده
معدي
معدې
معراج
معرف
معرفة
معرفت
معرفي
معرفی
معروف
معز
معزالدین
معشوق
معشوقه
معشوقې
معصوم
معصومو
معظمه
معظمې
معقل
معقول
معقوله
معلق
معلم
معلول
معلولیت
معلوم
معلومات
معلوماتو
معلوماتي
معلومه
معلومو
معلومول
معلومولو
معلوموي
معلوميږي
معلومیږي
معلومې
معلومېږي
معما
معمار
معمارانو
معماري
معمارۍ
معمر
معمول
معمولا
معموله
معمولو
معمولي
معمولې
معنا
معناوو
معناوې
معناګانې
معنوي
معنويت
معنوی
معنویت
معنى
معني
معنی
معنې
معه
معيار
معيارونه
معيارونو
معياري
معين
معينه
معکوس
معکوسه
معیار
معیارونه
معیارونو
معیاري
معیشت
معین
معې
مغازلي
مغازى
مغذي
مغرب
مغربي
مغرور
مغز
مغزو
مغزي
مغل
مغلق
مغلو
مغلوب
مغلي
مغول
مغولستان
مغولو
مغولي
مغولیانو
مغيره
مــ
مفاد
مفاهمه
مفاهمې
مفاهيم
مفاهيمو
مفاهیم
مفاهیمو
مفتون
مفتي
مفتی
مفرد
مفرده
مفسر
مفسرانو
مفسرينو
مفصل
مفصله
مفعول
مفهوم
مفهومونه
مفهومونو
مفهومي
مفيد
مفکر
مفکرينو
مفکرین
مفکرینو
مفکوره
مفکورو
مفکورې
مفید
مقابل
مقابله
مقابلې
مقاصد
مقاصدو
مقالات
مقالاتو
مقاله
مقالو
مقالې
مقام
مقامات
مقاماتو
مقامه
مقامونه
مقامونو
مقاوم
مقاومت
مقايسه
مقایسه
مقبره
مقبرې
مقبوليت
مقتل
مقداد
مقدار
مقداري
مقدس
مقدساتو
مقدسو
مقدم
مقدمات
مقدماتي
مقدمه
مقدوني
مقدونيه
مقدونيې
مقدونیایي
مقدونیه
مقدونیې
مقر
مقرر
مقررات
مقرراتو
مقرره
مقصد
مقصود
مقطع
مقعد
مقناطيسي
مقناطیس
مقناطیسي
مقننه
مقننې
مقولو
مقولې
مقياس
مقیاس
مكروه
مكلف
مكمل
مكه
مكې
مل
ملا
ملاتړ
ملاتړه
ملاتړو
ملاتړي
ملاتړی
ملاتړې
ملاحظاتو
ملاحظه
ملاريا
ملاریا
ملاقات
ملاله
ملالۍ
ملامت
ملامحمد
ملامشک
ملاي
ملايالم
ملايان
ملايانو
ملایانو
ملبورن
ملت
ملتان
ملتو
ملتونه
ملتونو
ملتي
ملتيا
ملتپال
ملتپالنه
ملتپالنې
ملتپاله
ملتپالو
ملتیا
ملجم
ملحد
ملخ
ملخان
ملقب
ملك
ملكيت
ملكې
ملل
ملنډو
ملنډې
ملنګ
ملنگ
مله
ملهم
ملوث
ملوک
ملى
ملي
مليارده
مليونه
ملټي
ملک
ملکه
ملکونو
ملکي
ملکيت
ملکيتونو
ملکی
ملکیت
ملکیتونه
ملکیتونو
ملکې
ملګرتوب
ملګرتيا
ملګرتیا
ملګرو
ملګروملتونو
ملګرى
ملګري
ملګری
ملګرې
ملگرتيا
ملگرو
ملگرى
ملگري
ملگری
ملگرې
ملی
ملیارد
ملیارده
ملیالم
ملیت
ملیتي
ملیشه
ملیشو
ملیشې
ملیون
ملیونه
ملې
ملېشو
ملېشې
ممانعت
ممبر
ممبۍ
ممتاز
ممكن
مملوک
مملکت
ممنوع
ممنوعیت
ممکن
ممکنه
ممکنې
من
منا
منابع
منابعو
منات
منار
مناسب
مناسبت
مناسبه
مناسبو
مناسبې
مناظر
مناظره
مناظرو
مناظرې
منافات
منافق
منافقان
منافقانو
منافقين
منافقينو
مناقب
منان
منانو
مناوي
منبر
منبع
منت
منتخب
منتظر
منتقد
منتقدین
منتقدینو
منثور
منجمد
منجمنټ
منحرف
منحصر
منحل
منحني
مند
مندل
مندو
مندي
مندۍ
منذر
منرال
منرالونه
منرالونو
منرالي
منزل
منزلت
منزلونه
منزوي
منزیس
منسجم
منسوب
منسوبه
منسوبوي
منسوخ
منسټر
منشا
منشاء
منشور
منشویکانو
منشي
منشی
منصب
منصفانه
منصفه
منصوب
منصور
منطق
منطقه
منطقو
منطقي
منطقې
منظر
منظره
منظرو
منظرې
منظم
منظمه
منظمو
منظمې
منظور
منظوم
منظومه
منظومې
منع
منعه
منعکس
منعکسوي
منعې
منفرد
منفى
منفي
منفی
منقرض
منكر
منل
منله
منلو
منلى
منلي
منلی
منلې
منلے
منم
مننه
مننې
منه
منهاتن
منهاج
منو
منور
منوره
منورې
منون
منونکو
منونکي
منونکی
منونکې
منى
مني
منين
منينه
منټل
منځ
منځا
منځته
منځلاري
منځنى
منځني
منځنيو
منځنی
منځنیو
منځنۍ
منځنې
منځه
منځي
منځپانګه
منځپانګې
منځګړتوب
منځګړي
منځګړيتوب
منځګړی
منځګړیتوب
منځی
منځۍ
منچو
منډه
منډو
منډي
منډيلا
منډيگک
منډې
منښت
منښتليک
منښته
منکر
منګل
منګولو
منګوليا
منګولیا
منګولې
منگل
منگوال
منی
منین
منې
مه
مها
مهاتما
مهاجر
مهاجرت
مهاجرتونو
مهاجرو
مهاجرينو
مهاجرینو
مهار
مهاراجا
مهاراشترا
مهارت
مهارتونه
مهارتونو
مهال
مهالنۍ
مهاله
مهالونو
مهالوېش
مهالي
مهالی
مهالې
مهبل
مهترلام
مهتمم
مهدى
مهدي
مهر
مهربان
مهربانه
مهرباني
مهربانۍ
مهرو
مهلت
مهم
مهمات
مهماتو
مهمه
مهمو
مهمي
مهمې
مهندس
مهندسۍ
مهيا
مو
مواد
موادو
موارد
مواردو
موازي
موافق
موافقت
موافقه
موافقو
موافقې
موانع
موانعو
موباي
موبايل
موبایل
موتور
موتورونه
موثر
موثره
موثریت
موج
موجب
موجود
موجودات
موجوداتو
موجوددي
موجوده
موجودو
موجودوي
موجودي
موجوديت
موجودی
موجودیت
موجودې
موجونه
موحد
موخه
موخو
موخې
مود
مودت
مودل
موده
مودو
مودودي
مودي
مودی
مودې
موذن
مور
موراس
مورال
مورالس
موراکو
مورخ
مورخينو
مورد
مورس
مورفولوژي
مورفولوژیکي
مورفولوژۍ
مورني
مورنی
مورنیو
مورنۍ
موره
موروثي
موروپلار
موري
موريس
مورچل
مورګان
مورګن
موریا
موریتانیا
موریس
مورې
موزمبيق
موزيم
موزیم
موزیمونه
موزیک
موس
موساد
موسس
موسساتو
موسسه
موسسو
موسسې
موسم
موسمونو
موسمي
موسولیني
موسى
موسي
موسيقي
موسيقۍ
موسکا
موسی
موسیقي
موسیقۍ
موصل
موضع
موضعي
موضوع
موضوعات
موضوعاتو
موضوعي
موضوعګانو
موضوعګانې
موظف
موعظه
موعود
موفق
موقت
موقته
موقتي
موقتې
موقع
موقعيت
موقعیت
موقعیتونه
موقعیتونو
موقف
موقيعت
موقیعت
مول
مولا
مولانا
مولاه
مولد
مولدیت
مولر
مولروني
مولف
مولوتف
مولوى
مولوي
مولوی
مولى
موم
مومن
مومنان
مومنانو
مومند
مومندو
مومو
مومي
مومی
مون
موناکو
مونت
مونث
موند
موندل
موندلاى
موندلای
موندله
موندلو
موندلى
موندلي
موندلی
موندلې
موندنه
موندنو
موندنې
مونده
موندونکي
موندونکی
مونرو
مونس
مونو
مونوګراف
مونټ
مونږ
مونږتاو
مونږه
مونیخ
موو
موټ
موټر
موټرو
موټرونه
موټرونو
موټى
موټي
موټی
موچي
موډ
موډرن
موډل
موډلونه
موډلونو
موړ
موړي
موړی
موړې
موږ
موږه
موږک
موږکان
موږکانو
موکه
موکو
موکې
موګابه
مى
مي
ميا
مياشت
مياشتني
مياشتنۍ
مياشتو
مياشتي
مياشتينۍ
مياشتې
مياگانو
ميتابوليزم
ميتان
ميتود
ميتودونه
ميتودونو
ميخانيک
ميخانيکي
ميخانيکې
ميدان
ميدانونه
ميده
مير
ميراث
ميراثي
ميرزا
ميرمن
ميرمنو
ميرمنې
ميرويس
ميري
ميری
ميز
ميزان
ميشت
ميشته
ميشتو
ميشتي
ميقات
ميقاته
ميل
ميلاد
ميلادي
ميلان
ميلاوس
ميلمه
ميله
ميلو
ميلونه
ميلي
ميليارد
ميليارده
ميليون
ميليونه
ميليونو
ميليونونو
ميلیون
ميلیونه
ميلې
ميمون
مين
ميندو
ميندې
مينه
مينوال
ميني
مينځ
مينځته
مينځل
مينځه
مينې
ميو
ميوند
ميوه
ميوو
ميوي
ميوې
ميټر
ميډيا
ميړانه
ميړه
ميږي
ميکانيزم
ميکروب
مټ
مټره
مټرو
مټو
مټې
مځکه
مځکي
مځکې
مچ
مچان
مچانو
مچيو
مچیو
مچۍ
مډال
مډالونه
مډرن
مډرنیزم
مډیسون
مړ
مړانه
مړانې
مړشو
مړه
مړو
مړى
مړي
مړينه
مړيني
مړينې
مړيو
مړی
مړینه
مړینو
مړینې
مړۍ
مړې
مښوکه
مک
مکان
مکاني
مکاو
مکتب
مکتبونه
مکتبونو
مکتوب
مکرر
مکرمه
مکرمې
مکروب
مکروبونو
مکرون
مکروه
مکس
مکسيکو
مکسیکو
مکعب
مکعبه
مکلف
مکلفيت
مکلفیت
مکلفیتونه
مکمل
مکمله
مکه
مکي
مکياوېلې
مکډونالډ
مکیبا
مکې
مګر
مګرپه
مګما
مګنا
مګنيزيم
مګنیزیم
مگر
مڼه
مڼو
مڼې
می
میا
میاشت
میاشتني
میاشتنی
میاشتنۍ
میاشتو
میاشتي
میاشتی
میاشتې
میان
میانمار
میتافزیک
میتان
میترا
میتود
میتودونه
میتودونو
میثاق
میجر
میخانیک
میخانیکي
میخایل
میدان
میدانونو
میده
میر
میراث
میراثونو
میراثي
میرزا
میرمن
میرمنو
میرمنې
میرویس
میز
میزان
میزس
میساچوسټس
میسن
میسوري
میسی
میشت
میشته
میشتو
میشل
میشیګان
میل
میلاد
میلاده
میلادي
میلادی
میلان
میلبورن
میلر
میلمه
میله
میلو
میلونه
میلي
میلټ
میلی
میلیارد
میلیارده
میلیون
میلیونه
میلیونو
میلیونونه
میلیونونو
میلې
مین
مینا
میندو
میندې
مینسک
مینه
مینو
میني
مینځ
مینځلو
مینځه
مینځپانګې
مینګ
مینې
میوزیم
میوزیک
میوند
میوه
میوو
میوی
میوې
میټامورفیک
میټرو
میډویډیف
میډیا
میډیسن
میړه
میکانیزم
میکانیزمونه
میکانیزمونو
میکانېزم
میکاي
میکروب
میکروبونه
میکروبونو
میکروبي
میں
مۍ
مې
مېتا
مېتافزیک
مېتافزیکي
مېتود
مېتودونه
مېتودونو
مېجر
مېدان
مېرمن
مېرمنه
مېرمنو
مېرمني
مېرمنې
مېرویس
مېز
مېزس
مېسن
مېشت
مېشته
مېشتو
مېشتې
مېشتېدو
مېل
مېلاد
مېلادي
مېلبورن
مېلر
مېلمانه
مېلمستيا
مېلمستیا
مېلمنو
مېلمه
مېلټن
مېلیونه
مېلې
مېن
مېنه
مېنځ
مېنځه
مېنې
مېوند
مېوه
مېوو
مېوې
مېچ
مېړانه
مېړانې
مېړنى
مېړني
مېړه
مېړونو
مېږو
مېږي
مېږې
مېگ
مە
ن
نا
ناا
نااشنا
ناببره
نابرابر
نابرابره
نابرابري
نابرابرۍ
نابغه
نابوکوف
نات
ناتو
ناتوانه
ناتواني
ناتوانۍ
ناتولي
ناحقه
ناحيه
ناحیه
ناحیې
ناخالص
ناخالصه
ناخالصو
ناخبره
ناخوالو
ناخوښ
ناخوښه
ناخوښي
ناخوښۍ
نادر
نادرخان
نادرشاه
نادره
نادرو
نادري
نادولتي
نارا
ناراضه
نارسمي
نارمل
نارنج
نارنجي
ناره
نارو
ناروا
ناروغ
ناروغان
ناروغانو
ناروغه
ناروغى
ناروغي
ناروغيو
ناروغی
ناروغیو
ناروغۍ
ناروغې
ناروی
ناروې
ناروېژي
نارينه
نارینه
نارې
ناز
نازل
نازله
نازلېدو
نازو
نازي
نازيانو
نازړه
نازک
نازکه
نازکو
نازکې
نازیانو
نازیزم
نازیه
ناسا
ناست
ناسته
ناستو
ناستوب
ناستي
ناستی
ناستې
ناسم
ناسمه
ناسمو
ناسمې
ناسکه
ناشر
ناشناس
ناشونى
ناشوني
ناشونی
ناشونې
ناصر
ناصري
ناظر
ناظم
ناعادلانه
ناغوښته
ناغېړي
نافذ
نافذه
نافرمانۍ
نافع
ناقانونه
ناقص
نالوستي
ناليدلي
نالۍ
نام
نامات
نامتو
نامحدود
نامحدوده
نامسلمان
نامشروع
نامطلوب
نامطلوبه
نامعلوم
نامعلومه
نامعلومو
نامعلومې
ناممکن
نامناسب
نامناسبه
نامنظم
نامه
نامو
ناموس
نامي
نامیبیا
نامې
نان
نانجینګ
نانسي
نانو
نانوتوي
ناهيلي
ناهیلي
ناهیلی
ناو
ناوخته
ناور
ناورين
ناورین
ناورینونو
ناول
ناولتيا
ناولونه
ناولونو
ناولې
ناوه
ناوړه
ناوړو
ناوړې
ناوې
ناي
نايب
نايتروجن
نايجيريا
نايمن
نايټريک
ناټو
ناپاكه
ناپاکه
ناپل
ناپلیون
ناپوه
ناپوهانو
ناپوهه
ناپوهي
ناپوهيو
ناپوهۍ
ناپيليون
ناپیلیون
ناپېژندل
ناڅاپه
ناڅاپي
ناڅرګند
ناڅرګنده
ناڅرګندو
ناڅرګندې
ناڅه
ناڅيزه
ناچار
ناچارۍ
ناچاپ
ناچاپه
ناډو
ناړي
ناړۍ
ناک
ناکافي
ناکام
ناکامه
ناکامو
ناکامي
ناکامۍ
ناکامې
ناکراریو
ناکرارۍ
ناکس
ناکله
ناګاساکي
نایب
نایتروجن
نایجر
نایجریا
نایجیریا
نایټریک
نایټرېټ
نب
نبات
نباتات
نباتاتو
نباتاتوکې
نباتي
نباتی
نبايد
نباید
نبراسکا
نبض
نبوت
نبوغ
نبوي
نبى
نبي
نبی
نت
نتجه
نتن
نتيجه
نتيجې
نتیجه
نتیجې
نث
نثار
نثر
نثرم
نثرونه
نثرونو
نثري
نجات
نجار
نجاشي
نجد
نجران
نجف
نجلۍ
نجم
نجوم
نجومي
نجونو
نجونې
نجيب
نجيل
نجیب
نحضرت
نحل
نحن
نحو
نحوه
نحوي
نخاع
نخبه
نخشه
نخوا
نخود
نخودو
نخښه
نخښې
ند
ندارد
ندرت
نده
ندو
ندوي
ندى
ندي
ندی
ندۍ
ندې
نذ
نذر
نر
نرانو
نرخ
نرخونه
نرخونو
نرسري
نرسنګ
نرسې
نرم
نرمه
نرمو
نرمي
نرمښت
نرمۍ
نرمې
نرنگ
نرودا
نري
نرينه
نرګس
نرگس
نری
نرینه
نرۍ
نز
نزار
نزد
نزدې
نزل
نزول
نس
نساء
نساجي
نسان
نساي
نسايي
نسب
نسبت
نسبتا
نسبتونه
نسبتونو
نسبتي
نسبي
نسبيت
نسبیت
نستان
نسته
نسج
نسجونه
نسجونو
نسخ
نسخه
نسخو
نسخې
نسل
نسله
نسلونه
نسلونو
نسلي
نسواري
نسي
نسيم
نسکور
نسکورولو
نسکورېدو
نسیم
نشان
نشایسته
نشت
نشتمن
نشتمنو
نشته
نشتوالى
نشتوالي
نشتوالی
نشتون
نشر
نشرات
نشراتو
نشراتي
نشم
نشنل
نشنلیزم
نشه
نشو
نشوای
نشول
نشوه
نشى
نشي
نشی
نشین
نشې
نص
نصاب
نصاراوو
نصب
نصر
نصرالله
نصراني
نصرانيت
نصرت
نصف
نصواري
نصوص
نصوصو
نصيب
نصيحت
نصير
نصیب
نصیحت
نصیر
نطفې
نظار
نظارت
نظام
نظامونه
نظامونو
نظامي
نظامی
نظر
نظره
نظرونه
نظرونو
نظري
نظريات
نظرياتو
نظرياتي
نظريه
نظريو
نظريې
نظرپوښتنې
نظرکې
نظریات
نظریاتو
نظریاتي
نظریه
نظریو
نظریې
نظم
نظمه
نظمونه
نظمونو
نظمي
نظمۍ
نظير
نظیر
نعم
نعمان
نعماني
نعمت
نعمتونه
نعمتونو
نعوظ
نعيم
نغدو
نغدي
نغمه
نغمې
نغوته
نغښتي
نغښتی
نغښتې
نــ
نف
نفاس
نفاق
نفت
نفتو
نفتي
نفر
نفرت
نفره
نفرو
نفس
نفساني
نفسه
نفسي
نفقه
نفوذ
نفوذي
نفوس
نفوسه
نفوسو
نفي
نفې
نقاب
نقاد
نقاش
نقاشي
نقاشیو
نقاشۍ
نقد
نقدي
نقره
نقش
نقشه
نقشو
نقشې
نقص
نقصان
نقض
نقطه
نقطو
نقطي
نقطی
نقطې
نقل
نقلولو
نقلونه
نقلوي
نقليه
نقلیه
نك
نكاح
نل
نلاین
نلري
نلری
نلونو
نم
نما
نماز
نمانځل
نمانځنه
نمانځنې
نمانځه
نمانځي
نماي
نماينده
نمایشي
نماینده
نمبر
نمر
نمره
نمرو
نمرود
نمرې
نمرېوں
نمل
نمو
نمود
نموده
نمونه
نمونو
نمونځ
نمونې
نمى
نمي
نن
ننباسي
نند
نندارتون
نندارتونونه
ننداره
نندارو
نندارې
ننني
نننی
نننۍ
ننه
ننوت
ننوتل
ننوتلو
ننوتلی
ننوتو
ننوتې
ننوزي
ننووت
ننوځي
نني
ننګ
ننګرهار
ننګه
ننګول
ننګولو
ننګونه
ننګونو
ننګونې
ننګيالي
ننگ
ننگرهار
ننۍ
نه
نها
نهاد
نهايت
نهايي
نهایت
نهایي
نهایی
نهج
نهر
نهرو
نهضت
نهم
نهمه
نهمې
نهنګ
نهه
نهو
نهيلى
نهيلي
نهې
نو
نوا
نواب
نواز
نوامبر
نوبت
نوبتي
نوبل
نوبيا
نوح
نود
نوددې
نودې
نور
نورالابصار
نورالدين
نورالدین
نوراني
نورجهان
نورد
نورزي
نورزی
نورستان
نورستاني
نورفولک
نورمال
نورماله
نورمان
نورماندي
نورمحمد
نورمن
نورمونو
نوره
نورهم
نورو
نوروز
نورویچ
نوري
نورگل
نوری
نورې
نوزاد
نوزېږي
نوشته
نوع
نوعه
نوعو
نوعي
نوعيت
نوعی
نوعې
نوفل
نولس
نولسم
نولسمه
نولسمې
نوله
نوم
نوماند
نوماندان
نوماندانو
نومانده
نوماندي
نوماندۍ
نومبر
نومر
نوملړ
نومه
نومهال
نومهالې
نومو
نوموتو
نوموتي
نوموتی
نوموتې
نومول
نومولو
نومولی
نومولې
نومونه
نومونو
نومونې
نوموي
نوموړو
نوموړى
نوموړي
نوموړی
نوموړۍ
نوموړې
نومي
نوميالي
نومياليو
نوميالی
نوميده
نوميږي
نومځري
نومځری
نومړی
نومی
نومیالی
نومیده
نومینالېزم
نومیږي
نومیږی
نومې
نومېدل
نومېده
نومېږي
نون
نوهغه
نوو
نوولسمې
نووي
نوى
نوي
نويو
نوټ
نوټونو
نوپدې
نوپه
نوځکه
نوښار
نوښت
نوښتونه
نوښتونو
نوښتي
نوښتګر
نوک
نوکان
نوکر
نوکرانو
نوکلوزوم
نوکلیک
نوکه
نوکیا
نوی
نوینسون
نویو
نوې
ني
نيا
نياز
نيالګي
نيالګيو
نيبولا
نيت
نيز
نيست
نيسه
نيسو
نيسى
نيسي
نيسې
نيشاپور
نيشاپوري
نيغ
نيغه
نيكه
نيكونو
نيل
نيله
نيلي
نيم
نيماي
نيمايي
نيمروز
نيمه
نيمو
نيمګړتيا
نيمګړتياوو
نيمګړتياوې
نيمګړى
نيمګړي
نيمګړې
نيمې
نيو
نيواک
نيوترون
نيوز
نيوكه
نيوكې
نيول
نيولو
نيولوسره
نيولى
نيولي
نيولی
نيولې
نيونه
نيونې
نيوه
نيوو
نيويارک
نيوټن
نيوکه
نيوکو
نيوکې
نيټه
نيټې
نيپال
نيچه
نيک
نيکاراګوا
نيکه
نيکولاس
نيکونه
نيکونو
نټ
نټه
نڅا
نچوړ
نړ
نړي
نړيو
نړيوال
نړيوالتوب
نړيواله
نړيوالو
نړيوالې
نړی
نړیو
نړیوال
نړیوالتوب
نړیواله
نړیوالو
نړیوالی
نړیوالې
نړۍ
نړې
نړېوال
نړېواله
نړېوالو
نړېوالې
نږدي
نږدی
نږدې
نږدېوالي
نږدېوالی
نږه
نژاد
نژادونو
نژادي
نژدي
نژدی
نژدې
نښان
نښانه
نښانو
نښانونه
نښانونو
نښانې
نښتر
نښته
نښتو
نښتي
نښتی
نښتې
نښلول
نښلولو
نښلون
نښلوي
نښلي
نښه
نښو
نښي
نښير
نښيرونه
نښی
نښې
نکاح
نکته
نکرومه
نکریم
نکل
نکلونه
نکلونو
نکوي
نکړ
نکړي
نګ
نگام
نگاه
نگه
نہ
نی
نیا
نیابتي
نیاز
نیازی
نیاندرتال
نیت
نیروهای
نیز
نیست
نیسي
نیسی
نیغ
نیل
نیلسون
نیلي
نیم
نیمايي
نیمایي
نیمایی
نیمروز
نیمه
نیمو
نیمګړتیا
نیمګړتیاوو
نیمګړتیاوې
نیمګړي
نیمګړی
نیمګړې
نیمگړی
نیمې
نیندرتال
نیو
نیوانګلنډ
نیواک
نیوجرسي
نیوز
نیوزلنډ
نیوزیلنډ
نیوزیلینډ
نیول
نیوله
نیولو
نیولي
نیولی
نیولې
نیونه
نیونکي
نیونې
نیوه
نیوونکو
نیوټرون
نیوټن
نیوکه
نیوکو
نیوکې
نیویارک
نیټه
نیټې
نیپال
نیپالي
نیپتون
نیچه
نیک
نیکاراګوا
نیکسون
نیکفوروس
نیکه
نیکولاس
نیکولای
نیکونه
نیکونو
نیکي
نیکیا
نۍ
نې
نېته
نېزه
نېزو
نېزې
نېسي
نېش
نېشنل
نېغ
نېغه
نېغې
نېك
نېكۍ
نېلسون
نېواک
نېولې
نېټه
نېټو
نېټې
نېږدې
نېک
نېکانو
نېکمرغه
نېکمرغي
نېکمرغۍ
نېکه
نېکي
نېکيو
نېکیو
نېکۍ
نے
نە
ه
ها
هابر
هابز
هابسبورګ
هاخوا
هادي
هار
هاربر
هاروارډ
هارورډ
هارولډ
هارون
هارپر
هارډ
هارډویر
هارډي
هارډینګ
هاریس
هاریسون
هاشم
هاشمو
هاشمي
هاضمي
هاضمې
هاغسې
هاغه
هال
هالند
هالنډ
هالنډي
هالنډیانو
هالوکاسټ
هالي
هامبورګ
هامر
هامون
هان
هانا
هاند
هانري
هانس
هانوفر
هاني
هانګ
هانگ
هاو
هاوارډ
هاوانا
هاوايي
هاوایي
هاوایی
هاورډ
هاوس
هاوسا
هاوک
هاى
هاي
هايدرا
هايدرو
هايدرواکسايد
هايدروجن
هايدروجني
هايزنبرګ
هايس
هايډروجن
هايک
هاټ
هاپکينز
هاپکینز
هاکسلي
هاکي
هاګ
های
هایدرو
هایدروجن
هاینلاین
هایټي
هایډروجن
هایک
هبتات
هبل
هجران
هجرت
هجرى
هجري
هجری
هجوم
هخامنشي
هخامنشیانو
هدايت
هدایت
هدف
هدفونه
هدفونو
هدفي
هديره
هديرې
هدیره
هدیرې
هذ
هذا
هذه
هر
هرات
هراړخیز
هراکلیوس
هربرت
هربرټ
هرتز
هرحال
هرزه
هرشل
هرصورت
هرم
هرمزگان
هرمن
هره
هرهغه
هرو
هروخت
هرومرو
هروي
هري
هريره
هريرود
هريو
هرڅه
هرڅومره
هرڅوک
هرچا
هرډول
هرکال
هرکله
هرکلي
هرکلی
هری
هریس
هریسون
هریو
هرې
هزار
هزاره
هستند
هسته
هستو
هستوي
هستوګن
هستوګنه
هستوګنځي
هستوګنې
هستوی
هستي
هستۍ
هستې
هسل
هسي
هسپانوي
هسپانویانو
هسپانوۍ
هسپانيه
هسپانيې
هسپانیا
هسپانیه
هسپانیوي
هسپانیې
هسک
هسکه
هسکې
هسې
هشام
هضم
هضمي
هغسي
هغسې
هغه
هغو
هغومره
هغوى
هغوي
هغوی
هغوۍ
هغوې
هغى
هغي
هغی
هغې
هغە
هـ
هــ
هفت
هفته
هفتو
هكله
هل
هلاك
هلال
هلاک
هلاکت
هلاکو
هلته
هلك
هلمند
هله
هلو
هلوځلو
هلي
هلک
هلکان
هلکانو
هلکه
هلی
هلیکوپتر
هلې
هم
هما
هماغسې
هماغلته
هماغه
هماغو
هماغومره
هماغې
همالته
هماليا
همالیا
همان
همايون
همایون
همت
همجنس
همجنسبازانو
همجنسبازۍ
همجنسګرایانو
همد
همدا
همداراز
همدارنګه
همدارنگه
همداسي
همداسې
همداشان
همدان
همداني
همداچې
همداډول
همدرانګه
همدردي
همدغسې
همدغه
همدغو
همدغې
همدلته
همده
همدومره
همدوى
همدوی
همدى
همدي
همدی
همدې
همزمان
همزه
همزولو
همسا
همعصرو
همعصري
همغسې
همغه
همغږي
همغږی
همغږۍ
همغږې
همغې
همفري
هملته
هممهاله
همه
همهغه
همواره
هميشه
همپشایر
همکار
همکاران
همکارانو
همکاري
همکاری
همکاریو
همکارۍ
همګټو
همیشه
همیلټون
همېش
همېشني
همېشه
هن
هنتون
هند
هنداره
هندسه
هندسي
هندسې
هنده
هندو
هندوان
هندوانو
هندوراس
هندوستان
هندوستاني
هندويزم
هندوچین
هندوکش
هندویزم
هندي
هنديانو
هندکو
هندکې
هندی
هندیانو
هندۍ
هندې
هنر
هنرمند
هنرمندان
هنرمندانو
هنرمنده
هنرونه
هنرونو
هنري
هنری
هنګ
هنګري
هنگ
هه
هو
هوا
هوار
هواره
هوارو
هوارولو
هواروي
هواري
هوارې
هوازي
هواي
هوايي
هواکې
هوایي
هوایی
هوتک
هوتکي
هود
هورمون
هورمونونه
هورمونونو
هورموني
هورې
هوس
هوسا
هوساينه
هوساينې
هوساینه
هوساینې
هوسۍ
هوش
هولوسين
هولوکاسټ
هولي
هولټ
هوم
هومر
هومره
هومو
هومینین
هومیوپاتي
هونولولو
هوور
هويت
هوټل
هوټلونو
هوپ
هوډ
هوډه
هوږه
هوښ
هوښه
هوښيار
هوښيارۍ
هوښیار
هوښیارتیا
هوښیارۍ
هوک
هوکر
هوکړه
هوکړو
هوکړې
هوګو
هویت
هي
هيبت
هيثمي
هير
هيل
هيلمن
هيله
هيلو
هيلي
هيلې
هيموګلوبين
هينري
هيواد
هيواده
هيوادو
هيوادونه
هيوادونو
هيوادکې
هيوم
هيي
هيڅ
هيڅوک
هيڅکله
هيچ
هيچا
هيګل
هټ
هټلر
هټۍ
هپبورن
هڅاند
هڅاوه
هڅه
هڅو
هڅوب
هڅوبي
هڅول
هڅولو
هڅولي
هڅونه
هڅونې
هڅوي
هڅي
هڅې
هډه
هډو
هډوکو
هډوکي
هډوکی
هډوکې
هډې
هړپه
هک
هکتار
هکتاره
هکله
هکټاره
هګيو
هګی
هګیو
هګۍ
هگۍ
هی
هیات
هیت
هیر
هیروشیما
هیروډوټس
هیل
هیلمن
هیله
هیلو
هیلډګارډ
هیلیوم
هیلې
هیمو
هیموګلوبین
هینري
هیو
هیواد
هیوادونه
هیوادونو
هیوادونوکی
هیوز
هیوم
هیي
هیټلر
هیپاتیا
هیڅ
هیڅوک
هیڅکله
هیچ
هیچا
هیګل
هیګنسن
هې
هېتیانو
هېر
هېره
هېروي
هېز
هېستون
هېل
هېنداره
هېنري
هېواد
هېوادمشر
هېوادمل
هېوادنو
هېوادنۍ
هېواده
هېوادو
هېوادوال
هېوادوالو
هېوادونه
هېوادونو
هېوادپالنې
هېڅ
هېڅكله
هېڅوك
هېڅوک
هېڅکله
هېچا
هېښنده
و
وا
واتسلاف
واتیکان
واثله
واجب
واجبات
واجبه
واجبېږي
واحد
واحده
واحدونه
واحدونو
واحدي
واحدې
واخان
واخست
واخستل
واخسته
واخستې
واخلم
واخله
واخلو
واخلي
واخلی
واخلې
واخيست
واخيستل
واخيستله
واخيسته
واخیست
واخیستل
واخیسته
واخیستې
واخېست
واخېستل
واخېسته
واده
وادي
وار
وارث
وارثان
وارثانو
وارخطا
وارد
واردات
وارداتو
وارداتي
وارده
واردول
واردولو
واردوي
وارزول
وارزوي
وارسا
وارن
وارنر
واره
وارو
واري
وارډ
وارې
واز
وازه
واستاوه
واستول
واستوي
واسط
واسطه
واسطې
واشنګتن
واشنګټن
واشنگټن
واصحابه
واصل
واضح
واضحه
واعظ
واغوستې
واغوندي
واقدى
واقدي
واقع
واقعا
واقعات
واقعاتو
واقعه
واقعي
واقعيت
واقعيتونو
واقعیت
واقعیتونه
واقعیتونو
واقعې
واك
واكمن
واكمني
واكمنۍ
وال
والا
والد
والدينو
والدین
والدینو
والس
والسلام
والله
والنهايه
واله
والو
والى
والي
واليان
واليانو
واليس
والټر
والپول
والډو
والی
والیان
والیانو
والیس
والۍ
والې
وان
وانا
وانخلي
وانه
وانګېرل
وانېګټ
واهه
واو
واوره
واورو
واوري
واورين
واورې
واورېد
واورېدل
واورېده
واورېدې
واوسي
واول
واوړي
واوښت
واوښتل
واوښته
واوښتې
واى
واي
وايرس
وايرسونه
وايرسونو
وايروسونه
وايستل
وايم
وايه
وايو
وايى
وايي
وايټ
وايټير
وايی
وايې
واټ
واټر
واټرس
واټرشيډ
واټسن
واټن
واټنونه
واټنونو
واټه
واټونو
واپس
واچ
واچاوه
واچو
واچول
واچوله
واچولې
واچوم
واچوه
واچوو
واچوي
واډینګټون
واړاوه
واړه
واړو
واړول
واړوله
واړوه
واړوي
واژن
واژه
واښه
واښو
واک
واکر
واکسين
واکسينو
واکسین
واکسیناسیون
واکسینونه
واکسینونو
واکمن
واکمنان
واکمنانو
واکمنه
واکمنو
واکمني
واکمنيو
واکمنی
واکمنیو
واکمنۍ
واکمنې
واکه
واکونه
واکونو
واګې
وای
وایت
وایرس
وایرسونه
وایز
وایستل
وایم
وایمار
وایه
وایو
وایي
وایټ
وایی
وایې
واېستل
وب
وبا
وباسو
وباسي
وباله
وباښه
وبلل
وبلله
وبللې
وبه
وبولو
وبولي
وبښل
وبښه
وبښي
وت
وتاړه
وترنري
وتل
وتلو
وتلى
وتلي
وتلی
وتلې
وتمبول
وتنۍ
وته
وتو
وتوانېد
وتوانېدل
وتوغول
وتړل
وتړله
وتړي
وتښتول
وتښتي
وتښتیدل
وتښتېد
وتښتېدل
وتښتېده
وجدان
وجداني
وجنګېد
وجنګېدل
وجنګېږي
وجه
وجهه
وجهي
وجهې
وجوب
وجود
وجودلري
وجودي
وجي
وجې
وح
وحدانيت
وحدت
وحشت
وحشي
وحشی
وحشیانه
وحيد
وحی
وحید
وحې
وخت
وخته
وختو
وختونه
وختونو
وختونوکې
وختي
وخندل
وخوت
وخوري
وخوځېد
وخوړ
وخوړل
وخوړله
وخوړه
ود
ودان
ودانه
ودانو
ودانولو
ودانيو
ودانیز
ودانیزو
ودانیو
ودانۍ
ودانې
ودراوه
ودرول
ودروي
ودريږي
ودریږي
ودرېد
ودرېدل
ودرېده
ودرېږي
وده
ودونه
ودونو
ودي
ودی
ودې
ور
وراثت
وراثتي
وراره
وران
ورانه
ورانولو
ورانۍ
ورايه
ورايټي
ورایه
ورباندي
ورباندې
وربخښي
وربشو
وربشې
وربښي
ورتلل
ورتله
ورتلو
ورته
ورتګ
ورد
وردننه
وردګ
وردګو
وردگ
وردگو
وررسي
ورزده
ورزش
ورزشي
ورزيات
ورساوه
ورسای
ورستانه
ورسته
ورستون
ورستي
ورستيدنه
ورستيو
ورستیو
ورسره
ورسو
ورسول
ورسوله
ورسولې
ورسوه
ورسوو
ورسوي
ورسي
ورسيد
ورسيدل
ورسيده
ورسيږي
ورسپارل
ورسید
ورسیدل
ورسیده
ورسیږي
ورسېد
ورسېدل
ورسېدله
ورسېدم
ورسېده
ورسېدو
ورسېدی
ورسېدې
ورسېږي
ورشا
ورشه
ورشو
ورشي
ورغلل
ورغلم
ورغله
ورغلو
ورغلى
ورغلي
ورغلی
ورغلې
ورغول
ورغوي
ورغى
ورغی
ورقه
ورك
وركول
وركوله
وركولو
وركوم
وركوي
وركړ
وركړل
وركړه
وركړو
وركړى
وركړي
وركړې
ورله
ورلډ
ورمات
ورمخه
ورمخکې
ورمندون
ورمنسوب
ورمونټ
ورمېږ
ورننوتل
ورننووت
ورننوځي
ورنه
ورنږدې
ورنژدې
ورنکړه
ورنکړي
وره
ورهاخوا
ورو
ورودي
ورور
وروره
ورورولي
ورورولۍ
ورورۍ
وروزل
وروزي
وروستاړي
وروستني
وروستنی
وروستنۍ
وروسته
وروستو
وروستى
وروستي
وروستيو
وروستی
وروستیو
وروستۍ
وروستې
وروسپارل
ورولېږه
ورونه
ورونو
وروښيي
وروڼه
وروڼو
وري
ورياد
وريجو
وريجې
ورين
وريځ
وريځو
وريځې
ورپام
ورپسې
ورپه
ورپورې
ورپېژندل
ورپېښې
ورځ
ورځني
ورځنيو
ورځنی
ورځنیو
ورځنۍ
ورځنې
ورځه
ورځو
ورځي
ورځپاڼه
ورځپاڼو
ورځپاڼي
ورځپاڼې
ورځی
ورځې
ورڅخه
ورډ
ورښت
ورښتي
ورښيي
ورک
ورکاوه
ورکشاپ
ورکه
ورکو
ورکول
ورکولاى
ورکولای
ورکوله
ورکولو
ورکولی
ورکولې
ورکوم
ورکونه
ورکونکو
ورکونکي
ورکونکی
ورکونې
ورکوه
ورکوو
ورکوونکو
ورکوونکى
ورکوونکي
ورکوونکی
ورکوونکې
ورکوونې
ورکوي
ورکوی
ورکوې
ورکي
ورکړ
ورکړای
ورکړل
ورکړم
ورکړه
ورکړو
ورکړى
ورکړي
ورکړی
ورکړې
ورکې
ورکېدل
ورکېدنې
ورکېدو
ورکېږي
ورګ
ورګرځي
ورګډ
ورگډ
وری
وریجو
وریځو
ورې
ورېدل
ورېځ
ورېځو
ورېځې
ورېږي
ورېښمو
ورېښمین
وزارت
وزارتونه
وزارتونو
وزر
وزرو
وزرونه
وزرونو
وزرې
وزغمي
وزله
وزلو
وزلي
وزلۍ
وزلې
وزمه
وزمې
وزن
وزنونو
وزه
وزو
وزي
وزير
وزيران
وزيرانو
وزيرستان
وزګار
وزګارتيا
وزګارتیا
وزیر
وزیران
وزیرانو
وزیرستان
وزیره
وزیرې
وزیږېد
وزې
وزېږېد
وزېږېدل
وزېږېده
وس
وساتل
وساتله
وساتلې
وساته
وساتو
وساتي
وساتې
وساي
وسايل
وسايلو
وسایط
وسایطو
وسایل
وسایلو
وستايل
وستایل
وسط
وسطي
وسعت
وسلم
وسله
وسلو
وسلوال
وسلوالو
وسلې
وسمن
وسه
وسو
وسوسو
وسوه
وسوځول
وسي
وسيله
وسيلو
وسيلې
وسپارل
وسپارله
وسپارلې
وسپاره
وسپاري
وسپنه
وسپنې
وسیله
وسیلو
وسیلې
وسۍ
وسې
وشمېرل
وشنو
وشو
وشول
وشوه
وشوې
وشي
وشړل
وشړي
وشی
وصال
وصل
وصي
وصيان
وصيت
وصیت
وضاحت
وضع
وضعه
وضعي
وضعيت
وضعیت
وضیعت
وطن
وطنه
وطني
وظايف
وظايفو
وظایف
وظيفه
وظيفوي
وظيفې
وظیفه
وظیفوي
وعده
وعدې
وعظ
وغانده
وغندل
وغندله
وغواړم
وغواړه
وغواړو
وغواړي
وغورځاوه
وغورځول
وغورځوله
وغورځوي
وغوړېد
وغوښت
وغوښتل
وغوښته
وغيره
وغځاوه
وغځول
وغځوي
وغځېد
وغځېده
وغړولې
وف
وفا
وفات
وفادار
وفاداره
وفاداري
وفادارۍ
وفاقي
وفرمايل
وفرمایل
وفيات
وق
وقار
وقاص
وقت
وقف
وقفه
وقفې
وك
وكتل
وكيل
وكړ
وكړل
وكړم
وكړه
وكړو
وكړى
وكړي
وكړې
ول
ولا
ولادت
ولادمیر
ولاديمير
ولادیمیر
ولاندیګهام
ولاياتو
ولايت
ولايتونه
ولايتونو
ولايتي
ولاړ
ولاړشي
ولاړل
ولاړم
ولاړه
ولاړو
ولاړي
ولاړی
ولاړې
ولایاتو
ولایت
ولایتونه
ولایتونو
ولایتي
ولد
ولرم
ولره
ولرو
ولري
ولری
ولرې
ولز
ولزي
ولس
ولسمشر
ولسمشران
ولسمشرانو
ولسمشري
ولسمشريزو
ولسمشریز
ولسمشریزه
ولسمشریزو
ولسمشریزې
ولسمشرۍ
ولسوال
ولسوالى
ولسوالي
ولسواليو
ولسوالی
ولسوالیو
ولسوالۍ
ولسواک
ولسواکي
ولسواکۍ
ولسونه
ولسونو
ولسي
ولسټونکرافټ
ولسی
وله
ولو
ولوباوه
ولوبوله
ولوبوي
ولور
ولورېږي
ولوست
ولوستل
ولوستله
ولوسته
ولوله
ولولو
ولولي
ولولې
ولوېد
ولوېده
ولوېږي
ولى
ولي
وليام
وليت
وليتونه
وليد
وليدل
وليده
وليدې
وليكل
وليكه
ولينو
وليږل
وليکل
وليکله
وليکلې
وليکه
وليکو
وليکي
ولټ
ولټوي
ولټېج
ولکه
ولکې
ولګاوه
ولګول
ولګوي
ولګي
ولګېد
ولګېده
ولګېدې
ولی
ولیت
ولیتونه
ولیتونو
ولید
ولیدل
ولیدله
ولیده
ولیعهد
ولیم
ولیږدول
ولیږل
ولیکل
ولیکله
ولیکلې
ولیکه
ولیکي
ولۍ
ولې
ولېدل
ولېږدول
ولېږدوله
ولېږدوي
ولېږل
ولېږله
ولېږلې
ولېږه
ولېږي
وم
ومانه
ومري
ومن
ومنل
ومنله
ومنلې
ومنه
ومنو
ومني
ومو
ومومو
ومومي
وموند
وموندل
وموندله
وموندلې
ومونده
ومړ
ومړه
ومې
ون
وند
ونزویلا
ونشو
ونشي
ونلري
ونه
ونو
ونوماوه
ونومول
ونوموله
ونوکې
وني
ونيسه
ونيسو
ونيسي
ونيو
ونيول
ونيوله
ونيولې
ونيوه
ونډه
ونډو
ونډې
ونښته
ونښلول
ونښلوي
ونښلي
ونکړ
ونکړه
ونکړي
ونی
ونیسو
ونیسي
ونیسی
ونیو
ونیول
ونیوله
ونیولې
ونیوه
ونې
ونېول
ونە
وه
وهابي
وهابيان
وهابيانو
وهابيت
وهب
وهل
وهله
وهلو
وهلى
وهلي
وهلی
وهلې
وهم
وهنه
وهنې
وهه
وهو
وهونکو
وهونکي
وهونکی
وهي
وهڅاوه
وهڅول
وهڅوله
وهڅوي
وو
وواهه
وواي
ووايم
ووايه
ووايو
ووايي
ووايې
وواژه
ووایم
ووایه
ووایو
ووایي
ووایی
ووبونو
ووت
ووتل
ووته
وورسته
ووزنیاک
وولسي
وولي
وون
ووهل
ووهله
ووهلې
ووهه
ووهي
ووياست
وويستل
وويشل
وويل
وويله
وويلې
ووينم
ووينو
وويني
ووځي
ووچې
ووډ
ووډرو
ووړ
ووژل
ووژنم
ووژني
وویستل
وویشتل
وویشل
وویل
وویله
ووینو
وویني
ووېروي
ووېرېږي
ووېشل
ووېشله
ووېشلې
ووېشه
ووېشو
ووېشي
ووېل
وى
وي
ويا
وياست
وياله
ويالو
ويالي
ويالې
ويانا
وياند
وياړ
وياړنه
وياړنې
وياړونه
وياړي
ويب
ويبپاڼه
ويتنام
ويجاړ
ويجاړه
ويجاړي
ويجاړۍ
ويدا
ويده
ويدي
وير
ويرجينيا
ويره
ويروس
ويروسونه
ويروسونو
ويروسي
ويرې
ويسا
ويستل
ويستلو
ويسټ
ويش
ويشت
ويشتل
ويشتلو
ويشتم
ويشتمه
ويشتو
ويشل
ويشي
ويل
ويلاى
ويلاي
ويلای
ويلز
ويلزي
ويله
ويلو
ويلى
ويلي
ويليام
ويليم
ويلی
ويلې
وينا
ويناوال
ويناوو
ويناوې
وينزو
وينم
وينه
وينو
ويني
وينځل
وينځه
وينځې
وينې
ويونکو
ويونکي
ويونکی
ويوکي
ويي
وييل
ويينه
ويينې
وييونه
ويټامن
ويټامين
ويټامينونه
ويډيو
ويښ
ويښتان
ويښتانو
ويښته
ويکي
ويکيسفر
ويکيمېډيا
ويکيپيډيا
ويکيپېډيا
ويکيډاټا
ويی
ويې
وټاكل
وټاكه
وټاکل
وټاکله
وټاکلې
وټاکه
وټاکو
وټاکي
وټه
وټې
وپاشل
وپلورل
وپلوره
وپلوري
وپلټي
وپنځول
وپوهېږي
وپوښت
وپوښتل
وپوښتله
وپوښته
وپوښتي
وپيژندل
وپيژني
وپیژندل
وپېرل
وپېري
وپېژانده
وپېژندل
وپېژنده
وپېژنو
وپېژني
وځنډول
وځنډوي
وځي
وځپل
وځپي
وځړول
وڅارل
وڅاره
وڅاري
وڅښلې
وڅښي
وڅېړل
وڅېړو
وڅېړي
وچ
وچلوي
وچه
وچو
وچوالي
وچول
وچولو
وچوي
وچي
وچيږي
وچکالي
وچکالۍ
وچې
وچېدو
وډار
وډې
وړ
وړاند
وړاندوينه
وړاندوينې
وړاندوینه
وړاندوینو
وړاندوینې
وړاندوېینه
وړاندوېینې
وړاندى
وړاندي
وړانديز
وړانديزونه
وړانديزونو
وړاندی
وړاندیز
وړاندیزونه
وړاندیزونو
وړاندې
وړانګ
وړانګشون
وړانګه
وړانګو
وړانګي
وړانګې
وړانگه
وړانگو
وړانگې
وړتيا
وړتياوو
وړتياوې
وړتیا
وړتیاو
وړتیاوو
وړتیاوې
وړده
وړدي
وړل
وړله
وړلو
وړلې
وړم
وړنه
وړنې
وړه
وړو
وړوالي
وړولو
وړومبى
وړونکو
وړونکي
وړونکی
وړونکې
وړوکى
وړوکي
وړوکی
وړوکې
وړى
وړي
وړيا
وړکتوب
وړی
وړیا
وړیو
وړۍ
وړې
وږمه
وږى
وږي
وږی
وږې
وژباړل
وژباړه
وژغورل
وژغوره
وژغوري
وژل
وژلو
وژلى
وژلي
وژلی
وژنم
وژنه
وژنو
وژني
وژنې
وژونکو
وژونکى
وژونکي
وژونکی
وژونکې
وژړل
وښو
وښود
وښودل
وښودله
وښوده
وښوول
وښووله
وښووه
وښيي
وښیي
وکاراوه
وکارول
وکاروله
وکارولې
وکاروه
وکاروو
وکاروي
وکالت
وکتل
وکرل
وکري
وکولاي
وکولای
وکولی
وکوچېد
وکوچېدل
وکوچېده
وکي
وکيل
وکيلانو
وکړ
وکړاو
وکړاى
وکړای
وکړل
وکړم
وکړه
وکړو
وکړى
وکړي
وکړچې
وکړی
وکړۍ
وکړې
وکښل
وکیل
وکیلان
وکیلانو
وګ
وګاټه
وګاڼه
وګرځاوه
وګرځول
وګرځوله
وګرځوي
وګرځي
وګرځید
وګرځېد
وګرځېدل
وګرځېده
وګرځېدې
وګمارل
وګماره
وګور
وګوره
وګورو
وګوري
وګوریء
وګورۍ
وګومارل
وګوماره
وګټله
وګټلې
وګټي
وګړه
وګړو
وګړى
وګړي
وګړيز
وګړيو
وګړی
وګړیز
وګړیزو
وګړیو
وګړې
وګڼل
وګڼله
وګڼه
وګڼو
وګڼي
وگرځي
وگرځېد
وگمارل
وگوره
وگورو
وگوري
وگورۍ
وگومارل
وگړ
وگړو
وگړي
وگړی
وگڼل
وی
ویالو
ویانا
ویاند
ویاړ
ویاړونه
ویب
ویت
ویتنام
ویتنامي
ویج
ویجاړ
ویجاړه
ویجاړولو
ویجاړۍ
ویجاړې
ویده
ویر
ویرجنیا
ویرجینیا
ویره
ویروس
ویروسونه
ویروسونو
ویروسي
ویرې
ویزې
ویس
ویسا
ویستل
ویسلي
ویسټ
ویسکانسین
ویش
ویشت
ویشتل
ویشتونکي
ویشل
ویشي
ویل
ویلا
ویلارډ
ویلای
ویلر
ویلز
ویلسن
ویلسون
ویله
ویلهلم
ویلو
ویلي
ویلی
ویلیام
ویلیامز
ویلیم
ویلې
وین
وینا
ویناوال
ویناوالو
ویناوالي
ویناوالۍ
ویناوو
ویناوې
وینزویلا
وینس
وینسنټ
وینم
وینه
وینو
ویني
وینځل
وینځلو
وینډوز
وینی
وینې
ویونکو
ویونکي
ویونکی
ویونکې
ویي
ویټامین
ویټو
ویډیو
ویډیويي
ویډیوګانو
ویډیوګانې
ویژه
ویښ
ویښتان
ویکا
ویکتور
ویکتوریا
ویکي
ویکټور
ویکټوریا
ویکی
ویکیپیډیا
ویکیپېډیا
ویګ
ویی
ویینه
ویینې
وییپانگه
وییکي
وییکی
ویې
وې
وېب
وېبر
وېبپاڼه
وېبپاڼې
وېره
وېروس
وېرې
وېرېدل
وېرېده
وېرېږم
وېرېږي
وېسلي
وېسټ
وېش
وېشت
وېشتمه
وېشل
وېشلو
وېشلي
وېشلی
وېشلې
وېشنيزه
وېشنيزې
وېشنیزه
وېشي
وېل
وېلز
وېلسن
وېلهلم
وېلي
وېليم
وېلیم
وېلې
وېنا
وېنزویلا
وېو
وېوو
وېټ
وېښتان
وېښتانو
وېښته
وېکتور
وېکتوریا
وېګ
وە
ى
ي
يا
يات
ياد
ياداوه
ياداښتونه
يادداښتونه
ياده
يادو
يادول
يادولای
يادولو
يادولی
يادونه
يادوني
يادونې
يادوي
ياديږي
يادښت
يادښتونه
يادښتونو
يادګار
يادگارونه
يادې
يادېده
يادېږي
يار
ياران
يارانو
ياري
ياست
ياسر
ياسين
ياغي
يافته
يال
يان
يانو
ياني
يانې
ياهم
ياپه
يب
يبر
يت
يته
يتوب
يتونه
يتونو
يتيم
يتيمانو
يثرب
يحيى
يخ
يخنۍ
يخه
يخو
يخي
يخې
يد
يدي
ير
يرا
يرغل
يرغلګرو
يرغمل
يز
يزيد
يس
يش
يع
يعقوب
يعقوبي
يعنى
يعني
يعنی
يعنې
يـې
يف
يفتلي
يفون
يق
يقول
يقين
يقيني
يك
يل
يلا
يلو
يلي
يم
يما
يمن
يمه
ين
ينابيع
ينه
يه
يهود
يهودان
يهودانو
يهودو
يهودي
يهوديان
يهوديانو
يهوديت
يو
يوازي
يوازيني
يوازينی
يوازينۍ
يوازی
يوازې
يوازېنى
يوازېنۍ
يواځي
يواځينی
يواځينۍ
يواځی
يواځې
يوبل
يودبل
يورانيم
يوراګوای
يورو
يوروزون
يوري
يوريا
يوسف
يوسفزي
يوسفزی
يوسلو
يوسي
يوشان
يوشمير
يوشمېر
يوله
يوم
يون
يونان
يوناني
يونانيان
يونانيانو
يونس
يونسکو
يونليک
يوه
يوو
يووالى
يووالي
يووالی
يوولس
يوولسم
يوولسمه
يوولسمې
يوولسو
يوون
يووړ
يووړل
يووړه
يوي
يوځاى
يوځاي
يوځای
يوځاې
يوځل
يوڅه
يوډول
يوړل
يوړه
يوګوسلاويا
يوی
يوې
يوە
يى
يي
ييز
ييزه
ييزو
ييزې
يږ
يږي
يک
يکــ
يی
يیز
يیزو
يې
ً
ٌ
ٍ
َ
ُ
ِ
ّ
ْ
ٓ
ٔ
ٕ
٠
٠٠٠
١
١٠
١٠٠
١٠٠٠
١٠١
١٠٢
١٠٣
١٠٤
١٠٥
١٠٦
١٠٧
١٠٨
١٠٩
١١
١١٠
١١١
١١٢
١١٤
١١٥
١١٧
١١٩
١٢
١٢٠
١٢٠٠
١٢١
١٢٢
١٢٤
١٢٥
١٢٦
١٢٨
١٣
١٣٠
١٣١
١٣٥
١٣٥٧
١٣٥٨
١٣٦
١٣٦٣
١٣٦٤
١٣٦٥
١٣٦٧
١٣٦٨
١٣٧١
١٣٧٩
١٣٨١
١٣٨٢
١٣٨٣
١٣٨٤
١٣٨٥
١٣٨٦
١٣٨٧
١٣٨٨
١٣٨٩
١٣٩٠
١٤
١٤٣
١٤٤
١٤٧
١٤٨
١٥
١٥٠
١٥٢
١٥٣
١٥٤
١٥٥
١٥٦
١٥٧
١٥٨
١٥٩
١٦
١٦٠
١٦٥
١٦٦
١٦٩
١٧
١٧٠
١٧٢
١٧٤
١٧٧
١٨
١٨٠
١٨٥
١٨٨
١٩
١٩٧٩
١٩٨٠
١٩٨٢
١٩٨٣
١٩٨٨
١٩٩
١٩٩٠
١٩٩٢
١٩٩٦
١٩٩٧
١٩٩٨
١٩٩٩
٢
٢٠
٢٠٠
٢٠٠٠
٢٠٠١
٢٠٠٢
٢٠٠٣
٢٠٠٤
٢٠٠٥
٢٠٠٧
٢٠٠٨
٢٠٠٩
٢٠١
٢٠١٢
٢٠١٣
٢٠١٨
٢٠٢
٢٠٤
٢١
٢١٤
٢١٦
٢١٧
٢٢
٢٢٠
٢٣
٢٤
٢٥
٢٥٠
٢٦
٢٦٠
٢٧
٢٨
٢٩
٣
٣٠
٣٠٠
٣٠٠٠
٣١
٣٢
٣٣
٣٤
٣٥
٣٦
٣٧
٣٨
٣٩
٤
٤٠
٤٠٠
٤١
٤٢
٤٣
٤٤
٤٥
٤٦
٤٧
٤٨
٤٩
٥
٥٠
٥٠٠
٥١
٥٢
٥٣
٥٤
٥٥
٥٦
٥٧
٥٨
٥٩
٦
٦٠
٦٠٠
٦١
٦٢
٦٣
٦٤
٦٥
٦٦
٦٧
٦٨
٦٩
٧
٧٠
٧١
٧٢
٧٣
٧٤
٧٥
٧٦
٧٧
٧٨
٧٩
٨
٨٠
٨١
٨٢
٨٣
٨٤
٨٥
٨٦
٨٨
٨٩
٩
٩٠
٩١
٩٢
٩٣
٩٤
٩٥
٩٦
٩٧
٩٩
٪
٫
٬
٭
ٰ
ٹ
ټ
ټا
ټابمن
ټافت
ټاكل
ټاكلى
ټاكلي
ټاكلې
ټاكي
ټال
ټام
ټامسون
ټامېل
ټانک
ټانکو
ټانکونه
ټانکونو
ټاور
ټاون
ټاي
ټايم
ټايمز
ټايټس
ټايپ
ټاټرا
ټاټوبى
ټاټوبي
ټاټوبی
ټاپ
ټاپه
ټاپو
ټاپووزمه
ټاپووزمې
ټاپوګان
ټاپوګانو
ټاپوګانې
ټاچر
ټاکل
ټاکلو
ټاکلى
ټاکلي
ټاکلی
ټاکلې
ټاکنه
ټاکنو
ټاکنيزو
ټاکنيزې
ټاکنیز
ټاکنیزه
ټاکنیزو
ټاکنیزې
ټاکنې
ټاکه
ټاکونکو
ټاکونکي
ټاکونکی
ټاکونکې
ټاکي
ټایلر
ټایلنډ
ټایم
ټایمز
ټایوان
ټایپ
ټبر
ټبره
ټبرونه
ټبرونو
ټرامپ
ټرانس
ټرانسپورټ
ټرانسپورټي
ټرای
ټرسټ
ټرمپ
ټرومن
ټروډو
ټریاسیک
ټریلیون
ټغر
ټكى
ټكي
ټل
ټلواله
ټلوالې
ټلويزيون
ټلویزیون
ټلویزیوني
ټلګراف
ټن
ټنه
ټنو
ټو
ټوخي
ټوخی
ټورنټو
ټورینګ
ټوك
ټوكه
ټول
ټولن
ټولنه
ټولنو
ټولني
ټولنيز
ټولنيزه
ټولنيزو
ټولنيزې
ټولنپال
ټولنپوه
ټولنپوهنه
ټولنپوهنې
ټولنی
ټولنیز
ټولنیزه
ټولنیزو
ټولنیزې
ټولنې
ټوله
ټولو
ټولواک
ټولواکمنۍ
ټولواکه
ټولواکۍ
ټولول
ټولولو
ټولونه
ټولوژنې
ټولى
ټولي
ټوليز
ټوليزه
ټوليزو
ټوليزې
ټولټال
ټولټاکنو
ټولټاکنې
ټولپوښتنه
ټولپوښتنې
ټولکین
ټولګه
ټولګو
ټولګي
ټولګيو
ټولګټو
ټولګی
ټولګیو
ټولګې
ټولگه
ټولگي
ټولگی
ټولگې
ټولی
ټولیز
ټولیزه
ټولیزو
ټولیزې
ټولۍ
ټولې
ټوماس
ټومبل
ټون
ټوني
ټوټه
ټوټو
ټوټې
ټوپ
ټوپک
ټوپکو
ټوک
ټوکر
ټوکه
ټوکو
ټوکونو
ټوکې
ټوکېدنه
ټوګه
ټویټر
ټي
ټيم
ټينګ
ټينګار
ټينګه
ټينګوالي
ټينګوالی
ټينګښت
ټينګې
ټينگ
ټينگار
ټينگه
ټيټ
ټيټه
ټيټو
ټيټې
ټيکنالوجي
ټيکنالوژي
ټيکنالوژيو
ټيکنالوژۍ
ټټر
ټپ
ټپه
ټپونه
ټپونو
ټپي
ټپيان
ټپیان
ټپیانو
ټک
ټکان
ټکر
ټکرونه
ټکرونو
ټکس
ټکنالوجۍ
ټکنالوژي
ټکنالوژیکي
ټکنالوژۍ
ټکنی
ټکنۍ
ټکو
ټکور
ټکول
ټکولو
ټکى
ټکي
ټکيو
ټکټ
ټکی
ټکیو
ټکې
ټی
ټیلیفون
ټیم
ټینګ
ټینګار
ټینګه
ټینګولو
ټینګښت
ټینګې
ټینگار
ټیوب
ټیټ
ټیټه
ټیټو
ټیټې
ټیک
ټیکاو
ټیکنالوژي
ټیکنالوژیو
ټیکنالوژۍ
ټېل
ټېلوگو
ټېلیفون
ټېکنالوژۍ
پ
پا
پابند
پابندي
پاته
پاتى
پاتي
پاتی
پاتې
پاتېږي
پاخه
پادري
پادری
پادریانو
پادشاه
پادشاهي
پادشاهۍ
پار
پاراګوای
پارس
پارسونز
پارسي
پارسيانو
پارسی
پارسیانو
پارلمان
پارلمانونو
پارلماني
پاره
پاروونکو
پاروونکي
پاروونکی
پاريس
پارټۍ
پارک
پارکر
پارکس
پارکونه
پارکونو
پاریس
پازوال
پازوالان
پازوالانو
پازوالۍ
پاس
پاسته
پاسفیک
پاسني
پاسنۍ
پاسه
پاسوال
پاسورډ
پاسپورټ
پاسکال
پاشا
پاشل
پاك
پاكستان
پاكه
پاكوالى
پاكوالي
پاكۍ
پاكې
پاكېږي
پال
پالان
پالانو
پالایولوګوس
پالش
پالل
پاللو
پالنه
پالنې
پاله
پالو
پالونكى
پالونكي
پالونكيه
پالونکو
پالونکى
پالونکي
پالونکيه
پالونکی
پالونکې
پالي
پاليسي
پاليسۍ
پالک
پالیسي
پالیسیو
پالیسۍ
پالۍ
پالې
پام
پاملرنه
پاملرنو
پاملرني
پاملرنې
پامنيوي
پامه
پاموړ
پامير
پامیر
پان
پاناما
پانقراص
پانه
پاني
پانګه
پانګو
پانګوال
پانګوالو
پانګوالي
پانګوالۍ
پانګونه
پانګونو
پانګونې
پانګې
پانگه
پانگې
پاور
پاول
پاونډه
پاى
پاي
پايتخت
پايله
پايلو
پايلوچ
پايلوچان
پايليک
پايلې
پاينده
پايه
پايپ
پايښت
پاپ
پاپانو
پاپر
پاپي
پاڅه
پاڅون
پاڅونونه
پاڅونونو
پاڅي
پاڅېد
پاڅېدل
پاڅېږي
پاچا
پاچاهان
پاچاهانو
پاچاهي
پاچاهيو
پاچاهیو
پاچاهۍ
پاچايان
پاچايانو
پاچايي
پاچايۍ
پاچایان
پاچایانو
پاچایی
پاچهي
پاچهۍ
پاړسي
پاک
پاکستان
پاکستاني
پاکستانی
پاکستانۍ
پاکه
پاکو
پاکوالي
پاکوالی
پاکول
پاکولو
پاکوي
پاکي
پاکۍ
پاکې
پاڼه
پاڼو
پاڼي
پاڼی
پاڼې
پای
پایتخت
پایدار
پایداره
پایدارې
پایله
پایلو
پایلې
پایه
پایپ
پایښت
پاې
پت
پتمن
پتنګ
پتنگ
پته
پتي
پتې
پخاطر
پخلا
پخلاينې
پخلاینې
پخلنځي
پخلي
پخلی
پخه
پخو
پخوا
پخوانى
پخواني
پخوانيو
پخوانی
پخوانیو
پخوانۍ
پخوانې
پخول
پخولو
پخپل
پخپله
پخپلو
پخې
پداسي
پداسې
پدر
پدرو
پدغه
پدى
پدي
پديده
پدی
پدیا
پدیای
پدیده
پدیدو
پدیدې
پدې
پر
پراباس
پراته
پراخ
پراختيا
پراختيايي
پراختیا
پراختیايي
پراختیایي
پراخه
پراخو
پراخوالى
پراخوالي
پراخوالی
پراخول
پراخولو
پراخوي
پراخي
پراخې
پراخېدنې
پراخېدو
پراخېږي
پرازيت
پرازيتونه
پرازيتي
پرازیت
پراساس
پراسسر
پرانست
پرانستل
پرانستي
پرانستې
پرانيزي
پرانيست
پرانيستل
پرانيستي
پرانيستې
پرانځي
پرانیزي
پرانیست
پرانیستل
پرانیستلو
پرانیسته
پرانیستو
پرانیستي
پرانیستی
پرانیستې
پرانېستل
پرانېستې
پراي
پرايميټ
پراکسايد
پراکساید
پراګ
پراګراف
پراگ
پرایس
پربنسټ
پرت
پرتا
پرتلنه
پرتلنې
پرتله
پرتليز
پرتلې
پرته
پرتو
پرتي
پرتګال
پرتګالي
پرتګاليانو
پرتګالیانو
پرتې
پرخداى
پرخلاف
پرخپل
پرده
پردو
پردى
پردي
پرديش
پرديو
پردی
پردیتوب
پردیش
پردیو
پردۍ
پردې
پردېس
پردېش
پرزو
پرست
پرستانو
پرسته
پرستي
پرستۍ
پرسر
پرسونل
پرضد
پرغاړه
پرل
پرله
پرلپسې
پرمخ
پرمختللو
پرمختللي
پرمختللی
پرمختللې
پرمختيا
پرمختيايي
پرمختک
پرمختګ
پرمختګونه
پرمختګونو
پرمختگ
پرمختیا
پرمختیايي
پرمختیایي
پرمهال
پرمټ
پرنټر
پرنټرونه
پرهغه
پرهېزګارانو
پرهېزګارۍ
پرو
پروا
پرواز
پروان
پروانه
پروايۍ
پروت
پروتستان
پروتستانت
پروتو
پروتوزوا
پروتون
پروتوکول
پروتوکولونه
پروتين
پروتین
پروتینونه
پروتینونو
پروخت
پرودون
پروس
پروستات
پروسس
پروسه
پروسو
پروسي
پروسیجر
پروسې
پروشنکو
پروشيا
پروشیا
پروفایل
پروفيسر
پروفيسور
پروفیسر
پروفیسور
پرولتاریا
پرون
پرونده
پروټو
پروټين
پروټينو
پروټينونه
پروټينونو
پروټین
پروټینونه
پروټینونو
پروپاګند
پروډيوسر
پروډکشن
پروړاندې
پروژه
پروژو
پروژي
پروژې
پروګرام
پروګرامونه
پروګرامونو
پروگرام
پروگرامونه
پروگرامونو
پرویز
پرى
پري
پريس
پريږدي
پريښودل
پريکړه
پرځان
پرځاى
پرځاي
پرځای
پرچم
پرچون
پرښته
پرښتو
پرښتې
پرک
پری
پریس
پریسټلي
پریمانه
پریږدي
پریښود
پریښودل
پریکړه
پریکړو
پریکړې
پرې
پرېباسي
پرېشانه
پرېكړه
پرېمانه
پرېوت
پرېوته
پرېوتو
پرېوځي
پرېږدم
پرېږده
پرېږدو
پرېږدي
پرېږدې
پرېښتو
پرېښتې
پرېښود
پرېښودل
پرېښودلو
پرېښوده
پرېښودو
پرېښودې
پرېښوول
پرېښووه
پرېښى
پرېښي
پرېښی
پرېښې
پرېکندتوب
پرېکنده
پرېکون
پرېکړه
پرېکړو
پرېکړې
پزه
پزې
پس
پست
پسته
پستي
پستې
پسرلني
پسرلى
پسرلي
پسرلی
پسه
پسونه
پسونو
پسى
پسي
پسی
پسې
پشان
پشاور
پشت
پشتو
پشتین
پشد
پشمول
پشه
پغمان
پــ
پــه
پـه
پكار
پكتيا
پكې
پل
پلا
پلار
پلاره
پلاز
پلازما
پلازمينه
پلازمینه
پلازمینې
پلازمېنه
پلازمېنو
پلازمېنې
پلاس
پلاستيک
پلاستيکونه
پلاستيکي
پلاستيکې
پلاستیک
پلاستیکي
پلان
پلانونه
پلانونو
پلانى
پلاني
پلانک
پلانی
پلانۍ
پلاوى
پلاوي
پلاوی
پلاټ
پلرني
پلرنی
پلرنۍ
پلرونه
پلرونو
پلس
پلمه
پلمې
پلن
پلنوالی
پلنې
پله
پلو
پلوتارک
پلور
پلورل
پلورلو
پلورلې
پلورنځي
پلورنځی
پلورنځیو
پلورونکو
پلورونکي
پلورونکی
پلوري
پلوشې
پلونه
پلونو
پلوه
پلوو
پلوى
پلوي
پلويان
پلويانو
پلويتوب
پلويو
پلوی
پلویان
پلویانو
پلویتوب
پلوۍ
پلوې
پلى
پلي
پلټل
پلټلو
پلټنه
پلټنو
پلټنې
پلټونکو
پلټونکي
پلی
پلیټ
پلې
پلېټ
پمپ
پمپونه
پنا
پناه
پنبه
پنبي
پنبې
پنج
پنجاب
پنجابي
پنجرې
پنجشنبې
پنجشير
پنجشیر
پنجشېر
پنجه
پنجوايي
پند
پنس
پنسلوانيا
پنسلوانیا
پنسلين
پنهان
پنوم
پنځلس
پنځلسم
پنځلسمه
پنځلسمې
پنځلسو
پنځم
پنځمه
پنځمې
پنځه
پنځو
پنځوس
پنځوسمه
پنځوسو
پنځول
پنځولي
پنځونه
پنځونې
پنځوي
پنځګر
پنډ
پنډوالي
په
پهلوان
پهلوي
پو
پواسطه
پوتاشيم
پوتاشیم
پوتين
پوتین
پوجا
پوخ
پور
پورتنى
پورتني
پورتنيو
پورتنی
پورتنیو
پورتنۍ
پورتنې
پورته
پورتو
پورتګال
پوره
پورونه
پورونو
پوروړي
پوروړی
پورى
پوري
پورټ
پورټو
پوری
پورې
پوزه
پوزې
پوست
پوستانو
پوسته
پوستو
پوستونه
پوستونو
پوستي
پوستکو
پوستکي
پوستکی
پوستکې
پوستی
پوستې
پوسيله
پوسټ
پوسټونه
پوسټونو
پوش
پول
پولاد
پولادو
پولادي
پولس
پولند
پولنډ
پولنډي
پوله
پولو
پولي
پوليس
پوليسو
پولينډ
پولينډي
پولی
پولیبیوس
پولیس
پولیسو
پولیمیر
پولیمیرایزیشن
پولیمیرونه
پولیمیرونو
پولیو
پولې
پولېنډ
پونډ
پونډه
پونډو
پوه
پوهان
پوهاند
پوهانو
پوهاوي
پوهاوی
پوهنتون
پوهنتونه
پوهنتونو
پوهنتونونه
پوهنتونونو
پوهنتوني
پوهندوی
پوهنغونډ
پوهنمل
پوهنه
پوهنو
پوهنوال
پوهني
پوهنيز
پوهنيزه
پوهنيزو
پوهنيزې
پوهنځى
پوهنځي
پوهنځيو
پوهنځی
پوهنځیو
پوهنځۍ
پوهنیز
پوهنې
پوهه
پوهو
پوهول
پوهولو
پوهي
پوهيدل
پوهيدو
پوهيږو
پوهيږي
پوهیدل
پوهیدو
پوهیږي
پوهې
پوهېداى
پوهېدای
پوهېدل
پوهېدلو
پوهېدلی
پوهېدم
پوهېدنه
پوهېدنو
پوهېدنې
پوهېده
پوهېدو
پوهېږم
پوهېږو
پوهېږي
پوهېږې
پوي
پوټاشیم
پوټکي
پوټکی
پوپ
پوپل
پوپلزی
پوپنا
پوځ
پوځونه
پوځونو
پوځي
پوځيان
پوځيانو
پوځی
پوځیان
پوځیانو
پوڅکۍ
پوډر
پوړ
پوړو
پوړونه
پوړونو
پوړي
پوړيو
پوړی
پوړۍ
پوړې
پوښ
پوښاک
پوښت
پوښتل
پوښتنه
پوښتنو
پوښتني
پوښتنې
پوښته
پوښتي
پوښل
پوښلو
پوښلي
پوښلی
پوښلې
پوښه
پوښونه
پوښونو
پوښي
پوښښ
پي
پياده
پياز
پيامبر
پيامبران
پياوړتيا
پياوړو
پياوړى
پياوړي
پياوړی
پياوړې
پيدا
پيداشي
پيداوار
پيدايښت
پيدايښتي
پيداکولو
پيداکوي
پيداکيږي
پيداکړي
پيداکېږي
پير
پيرمحمد
پيرو
پيروان
پيروانو
پيروي
پيروۍ
پيري
پيسو
پيسي
پيسې
پيش
پيشنهاد
پيشو
پيغام
پيغامونه
پيغامونو
پيغمبر
پيغمبران
پيغمبرانو
پيل
پيلامه
پيله
پيلولو
پيلوي
پيلوټ
پيليږي
پيلېږي
پيمانه
پينځم
پينځمه
پينځه
پينځو
پيوست
پيوستون
پيوند
پيټر
پيپين
پيچ
پيچلي
پيړي
پيړيو
پيړۍ
پيژندل
پيژندلو
پيژندنه
پيژندنې
پيژني
پيښ
پيښه
پيښو
پيښور
پيښي
پيښيږي
پيښې
پټ
پټان
پټرولو
پټرولیم
پټلۍ
پټه
پټو
پټول
پټولو
پټوي
پټي
پټيو
پټی
پټۍ
پټې
پټېږي
پچه
پچې
پړ
پړانګ
پړانګان
پړانګانو
پړانگ
پړاو
پړاونه
پړاونو
پړاوه
پړاوونه
پړاوونو
پړسوب
پړه
پړي
پړې
پژواک
پژۍ
پښت
پښتا
پښتانه
پښتنه
پښتنو
پښتني
پښتنې
پښتو
پښتورګو
پښتورگو
پښتون
پښتونخوا
پښتونستان
پښتونواله
پښتونولي
پښتونولۍ
پښتۍ
پښه
پښو
پښين
پښې
پښېمانه
پک
پکار
پکتيا
پکتيکا
پکتیا
پکتیکا
پکي
پکښي
پکښی
پکښې
پکی
پکې
پګړۍ
پڼي
پڼې
پہ
پی
پیاده
پیاز
پیام
پیانو
پیاوړتیا
پیاوړو
پیاوړي
پیاوړی
پیاوړې
پیتر
پیدا
پیدایښت
پیر
پیرس
پیرو
پیروان
پیروانو
پیرود
پیرودلو
پیرودونکو
پیرودونکي
پیروي
پیري
پیس
پیسو
پیسې
پیش
پیشو
پیغام
پیغامونه
پیغامونو
پیغمبر
پیغمبران
پیغمبرانو
پیل
پیلامه
پیله
پیلولو
پیلوي
پیلوټ
پیلوټانو
پیلوټه
پیلیدو
پیلېدو
پیلېږي
پیمانه
پین
پینځم
پینځمه
پینځه
پینځو
پیوستون
پیوند
پیټ
پیټر
پیټرزبورګ
پیچلو
پیچلي
پیچلې
پیړی
پیړیو
پیړۍ
پیژندل
پیژندلو
پیژندنه
پیژندنې
پیژني
پیښ
پیښه
پیښو
پیښور
پیښیږي
پیښې
پییر
پییرس
پې
پېج
پېدا
پېر
پېرزو
پېرل
پېرلو
پېرودونکو
پېرودونکي
پېرونو
پېري
پېريان
پېريانو
پېسې
پېغام
پېغله
پېغلو
پېغلې
پېغمبر
پېغمبراكرم
پېغمبران
پېغمبرانو
پېغمبراکرم
پېغمبره
پېغمبرۍ
پېغور
پېـړۍ
پېل
پېن
پېنځه
پېټى
پېټي
پېټی
پېچ
پېچلتيا
پېچلتیا
پېچلو
پېچلي
پېچلی
پېچلې
پېړي
پېړيو
پېړی
پېړیو
پېړۍ
پېړې
پېژانده
پېژند
پېژندل
پېژندلو
پېژندلى
پېژندلي
پېژندلی
پېژندلې
پېژندنه
پېژندنو
پېژندنې
پېژنده
پېژندو
پېژندونکو
پېژندونکي
پېژندونکی
پېژندونکې
پېژندګلو
پېژندګلوي
پېژنم
پېژنو
پېژني
پېژنې
پېښ
پېښليک
پېښلیک
پېښه
پېښو
پېښور
پېښوي
پېښي
پېښې
پېښېدل
پېښېدلو
پېښېدو
پېښېږي
پە
ځ
ځا
ځار
ځاله
ځالې
ځامن
ځان
ځانته
ځانله
ځانمرګي
ځانه
ځانو
ځانونه
ځانونو
ځاني
ځانګړتيا
ځانګړتياوو
ځانګړتياوې
ځانګړتیا
ځانګړتیاو
ځانګړتیاوو
ځانګړتیاوې
ځانګړنه
ځانګړنو
ځانګړنې
ځانګړو
ځانګړى
ځانګړي
ځانګړيو
ځانګړی
ځانګړې
ځانگړتيا
ځانگړتياوې
ځانگړنه
ځانگړنو
ځانگړنې
ځانگړو
ځانگړى
ځانگړي
ځانگړی
ځانگړې
ځانې
ځاى
ځاي
ځايناستى
ځايناستي
ځايناستی
ځايناستې
ځايه
ځايو
ځايونه
ځايونو
ځايونوکې
ځايي
ځای
ځایناستي
ځایناستی
ځایناستۍ
ځایه
ځایو
ځایونه
ځایونو
ځایي
ځایګي
ځایګی
ځایی
ځاې
ځاے
ځخه
ځدراڼ
ځغاسته
ځغاستې
ځكه
ځل
ځلا
ځلاند
ځلانده
ځله
ځلو
ځلونو
ځلي
ځلی
ځلې
ځلېده
ځلېږي
ځم
ځمكنی
ځمكه
ځمكو
ځمكې
ځمک
ځمکني
ځمکنيو
ځمکنی
ځمکنیو
ځمکنۍ
ځمکه
ځمکو
ځمکوکې
ځمکي
ځمکپوهنه
ځمکپېژندنه
ځمکی
ځمکې
ځناور
ځناورو
ځنو
ځني
ځنځير
ځنځيرونه
ځنځيري
ځنځیر
ځنځیري
ځنډ
ځنډه
ځنډول
ځنډولو
ځنګل
ځنګلاتو
ځنګلداري
ځنګلدارۍ
ځنګله
ځنګلونه
ځنګلونو
ځنګلونوڅانګه
ځنګلونوکې
ځنګلي
ځنگلونه
ځنگلونو
ځنگلي
ځنی
ځنې
ځه
ځو
ځواب
ځوابونه
ځوابونو
ځوابي
ځواك
ځواكونو
ځوان
ځوانان
ځوانانو
ځوانه
ځوانو
ځواني
ځوانکو
ځوانکې
ځوانۍ
ځوانې
ځواک
ځواکمن
ځواکمنه
ځواکمنو
ځواکمنې
ځواکه
ځواکونه
ځواکونو
ځور
ځورمنتيا
ځورول
ځورولو
ځورونه
ځورونو
ځورونې
ځوروي
ځولۍ
ځوي
ځوځات
ځوځاته
ځوړ
ځوړتیا
ځوړند
ځوی
ځي
ځير
ځيرنه
ځيرک
ځيرکتيا
ځينو
ځينى
ځيني
ځينی
ځينې
ځيګر
ځيگر
ځپل
ځپلو
ځپلي
ځپلې
ځپنې
ځړول
ځکه
ځگر
ځی
ځیر
ځیرک
ځیرکتیا
ځیرکو
ځینو
ځیني
ځینی
ځینې
ځیګر
ځې
ځېل
ځېنو
ځېنې
څ
څا
څادر
څار
څارل
څارلو
څارنه
څارنوال
څارنوالۍ
څارنې
څارونکو
څارونکي
څارونکی
څاروى
څاروي
څارويو
څاروی
څارویو
څاري
څارگرې
څانګه
څانګو
څانګي
څانګې
څانگه
څانگو
څانگي
څانگې
څاه
څاڅي
څاڅکو
څاڅکي
څاګانو
څخه
څر
څراغ
څراغونه
څراغونو
څرخ
څرخه
څرخونو
څرخي
څرخې
څرخېږي
څرمنې
څرنګه
څرنګوالى
څرنګوالي
څرنګوالی
څرنگه
څرنگوالي
څرک
څرګند
څرګندنه
څرګنده
څرګندو
څرګندول
څرګندوله
څرګندولو
څرګندونه
څرګندونو
څرګندونې
څرګندوي
څرګندويي
څرګنديږي
څرګندیږي
څرګندې
څرګندېدل
څرګندېدو
څرګندېږي
څرگند
څرگنده
څرگندولو
څرگندونه
څرگندونې
څرگندوي
څرگندي
څرگنديږي
څرگندېږي
څــ
څلور
څلورم
څلورمه
څلورمې
څلورو
څلورګونو
څلورګوني
څلويښت
څلويښتو
څلویښت
څلوېښت
څلوېښتم
څلوېښتمه
څلوېښتو
څلي
څلی
څنډه
څنډو
څنډې
څنګ
څنګه
څنگ
څنگه
څه
څو
څوارلس
څوارلسم
څوارلسمه
څوارلسمې
څوارلسو
څوك
څومره
څوپلا
څوک
څوکلن
څوکه
څوکو
څوکي
څوکیو
څوکۍ
څوکې
څوګونو
څوګوني
څير
څيره
څيرې
څيز
څيزه
څيزونه
څيزونو
څيړل
څيړنه
څيړنو
څيړني
څيړنيز
څيړنې
څيړونکو
څيړونکي
څټ
څپرکى
څپرکي
څپرکيو
څپرکی
څپه
څپو
څپې
څځه
څڅه
څړ
څړځاي
څړځايونه
څړځايونو
څړځای
څړځایونو
څښاک
څښاکو
څښتن
څښتنان
څښتنانو
څښتنه
څښل
څښلو
څښلې
څښي
څکالي
څکول
څکولو
څیر
څیرمه
څیره
څیز
څیزونه
څیزونو
څیړنه
څیړنو
څیړنیز
څیړنې
څیړونکو
څیړونکي
څې
څېر
څېرمه
څېره
څېرو
څېرې
څېزونه
څېزونو
څېړل
څېړلو
څېړلي
څېړلې
څېړنه
څېړنو
څېړني
څېړنيز
څېړنيزه
څېړنيزو
څېړنيزې
څېړنیز
څېړنیزه
څېړنیزو
څېړنیزې
څېړنې
څېړو
څېړونو
څېړونکو
څېړونکى
څېړونکي
څېړونکيو
څېړونکی
څېړونکې
څېړي
څە
چ
چا
چاته
چاد
چار
چارتراش
چارج
چارجونو
چارسده
چارسدې
چارلز
چارلس
چارلي
چارلېز
چارلېس
چاره
چارو
چارواکو
چارواکي
چارواکيو
چارواکی
چاري
چارچ
چارچاپيره
چارچوکاټ
چاری
چارې
چاقو
چال
چامسکي
چاندلر
چانس
چانسلر
چانګ
چاود
چاودنه
چاودنو
چاودنې
چاودونکي
چاوديدنه
چاودېدونکو
چاودېدونکي
چاټيواوبراينډ
چاپ
چاپه
چاپولو
چاپي
چاپير
چاپيره
چاپيريال
چاپيريالي
چاپيریال
چاپکال
چاپیریال
چاپېر
چاپېره
چاپېريال
چاپېريالي
چاپېريالپوهنه
چاپېريالپوهنې
چاپېریال
چاپېریالونو
چاپېریالي
چاپېږي
چاچې
چاړه
چاڼ
چای
چت
چتر
چترال
چترۍ
چرا
چراغ
چرته
چرس
چرسو
چرم
چرچ
چرچل
چرچیل
چرګ
چرګان
چرګانو
چریکي
چشم
چغه
چغو
چغې
چـې
چل
چلاوه
چلن
چلند
چلندونه
چلندونو
چلندي
چلول
چلولو
چلونه
چلونکي
چلونکی
چلونې
چلوونکو
چلوونکي
چلوونکی
چلوي
چلي
چليز
چلېدل
چلېده
چلېدونکي
چلېږي
چم
چمبرلین
چمتو
چمتوالي
چمتوالی
چمتووالي
چمتووالی
چمن
چمنونه
چمنونو
چمپانزي
چنار
چنجي
چند
چندان
چندر
چنده
چنګاښ
چنګیز
چنگاښ
چه
چهار
چهر
چو
چور
چورلي
چورلکو
چورلکې
چون
چونه
چونګښې
چونگښې
چونې
چوي
چوپ
چوپتيا
چوپتیا
چوپه
چوپړ
چوپړا
چوپړتیاوو
چوپېن
چوک
چوکاټ
چوکاټونو
چوکیو
چوکۍ
چى
چي
چيرته
چيري
چيرې
چيست
چيسترتون
چين
چينايانو
چينايي
چينجي
چينل
چينه
چينو
چيني
چينې
چيچنيا
چيک
چټل
چټلو
چټلي
چټلۍ
چټي
چټک
چټکتيا
چټکتیا
چټکه
چټکو
چټکۍ
چټکې
چپ
چپرهار
چپنه
چپنې
چپه
چپې
چک
چکر
چکسلواکیا
چکوسلواکيا
چکوسلواکیا
چکي
چڼاس
چڼچړ
چی
چیانګ
چیرته
چیري
چیری
چیرې
چیس
چیلي
چین
چینايي
چینای
چینایانو
چینایي
چینایی
چینجي
چینل
چینلونه
چینلونو
چینه
چینو
چیني
چینګ
چینی
چینې
چیچنیا
چیچک
چیک
چیکی
چې
چېرته
چېري
چېرې
چېن
چېپ
چېک
چېکي
چېکی
ډ
ډا
ډار
ډاره
ډاروين
ډاروین
ډاروینیزم
ډارېږي
ډاكتر
ډاكټر
ډال
ډالر
ډالره
ډالرو
ډالري
ډالۍ
ډان
ډانیل
ډاو
ډاى
ډاي
ډايبېتېز
ډاټ
ډاټا
ډاډ
ډاډلي
ډاډمن
ډاډمنه
ډاډه
ډاکتر
ډاکتران
ډاکترانو
ډاکه
ډاکټر
ډاکټران
ډاکټرانو
ډاکټره
ډاګلاس
ډاګه
ډاگ
ډاگه
ډای
ډایرکټر
ډایل
ډب
ډبر
ډبرليک
ډبرلیک
ډبره
ډبرو
ډبري
ډبرين
ډبرينو
ډبریز
ډبرین
ډبرینو
ډبرینې
ډبرې
ډبل
ډبله
ډبلوالي
ډبلوالی
ډبليو
ډبلیو
ډراماتیک
ډرامه
ډرامو
ډرامې
ډرایو
ډزو
ډزې
ډسمبر
ډك
ډكه
ډكې
ډل
ډلبندي
ډلبنديو
ډلبندۍ
ډله
ډلو
ډلي
ډلګۍ
ډلی
ډلې
ډمبرو
ډنمارک
ډنمارکي
ډنډ
ډنډر
ډنډونه
ډنډونو
ډنډوکي
ډه
ډهلي
ډو
ډوب
ډوبلین
ډوبه
ډوبې
ډوبېدو
ډوبېږي
ډوز
ډول
ډوله
ډولو
ډولونه
ډولونو
ډولي
ډونالډ
ډويژن
ډوډۍ
ډوک
ډوکتورا
ډوکينز
ډي
ډيانا
ډير
ډيرزيات
ډيره
ډيرو
ډيرى
ډيري
ډيريږي
ډيری
ډيرۍ
ډيرې
ډيزاين
ډيزل
ډيزلو
ډيسمبر
ډيلي
ډيموکراټيک
ډيموکريټس
ډينيټ
ډيورنډ
ډيوه
ډيويډ
ډيوې
ډپټي
ډډ
ډډه
ډډې
ډک
ډکه
ډکو
ډکولو
ډکوي
ډکې
ډکېږي
ډګر
ډګرمن
ډګروال
ډګرونه
ډګرونو
ډگر
ډگروال
ډگرونه
ډگرونو
ډی
ډیالوګ
ډیانا
ډیاګرام
ډیجیټل
ډیر
ډیره
ډیرو
ډیري
ډیری
ډیریو
ډیرې
ډیزاین
ډیزل
ډیزلي
ډیسمبر
ډیسک
ډیل
ډیلي
ډیلی
ډیموکرات
ډیموکراتیک
ډیموکراسي
ډیموکراسۍ
ډیموکراټ
ډیموکراټانو
ډیموکراټیک
ډینامیک
ډینیل
ډیو
ډیورنډ
ډیویډ
ډیوې
ډیټا
ډیپلوماتیک
ډیپلوماسۍ
ډیپلوماټیک
ډیکین
ډې
ډېبس
ډېر
ډېرتر
ډېرشمېر
ډېره
ډېرو
ډېروالي
ډېروالی
ډېرولو
ډېروي
ډېرى
ډېري
ډېريو
ډېرښت
ډېری
ډېریو
ډېرۍ
ډېرې
ډېرېدل
ډېرېدو
ډېرېږي
ډېسمبر
ډېسک
ډېموکراسي
ډېموکراسۍ
ډېوي
ډېویس
ډېوېډ
ډېټا
ډېټابېس
ړ
ړانده
ړنګ
ړنګه
ړنګولو
ړنګیدو
ړنګېدو
ړنگ
ړنگولو
ړه
ړومبى
ړومبي
ړومبی
ړومبۍ
ړوند
ږ
ږدو
ږدي
ږغ
ږوب
ږيره
ږيري
ږیره
ژ
ژامې
ژان
ژانر
ژانرونه
ژانرونو
ژانس
ژاړم
ژاړي
ژاړې
ژاک
ژب
ژباړل
ژباړلي
ژباړلی
ژباړلې
ژباړن
ژباړه
ژباړو
ژباړونکو
ژباړونکي
ژباړونکی
ژباړي
ژباړې
ژبني
ژبنيو
ژبنی
ژبنیو
ژبنۍ
ژبه
ژبو
ژبي
ژبپوه
ژبپوهان
ژبپوهانو
ژبپوهنه
ژبپوهنې
ژبژغورنې
ژبی
ژبې
ژر
ژرنده
ژرندې
ژره
ژغورل
ژغورلو
ژغورلی
ژغورنه
ژغورنې
ژغورونکي
ژغوري
ژمن
ژمنتيا
ژمنتیا
ژمنه
ژمنو
ژمني
ژمنۍ
ژمنې
ژمي
ژمی
ژمې
ژنټیک
ژنټیکي
ژو
ژواک
ژواکي
ژوب
ژوبل
ژوبله
ژوبلې
ژوبڼ
ژور
ژورتيا
ژورنال
ژورنالست
ژورنالستانو
ژورنالونو
ژورناليزم
ژورناليست
ژورنالیزم
ژورنالیست
ژورنالېزم
ژورنالېست
ژورنالېستانو
ژوره
ژورو
ژوروالي
ژوروالی
ژورې
ژوزف
ژول
ژولین
ژوند
ژوندانه
ژوندليک
ژوندلیک
ژونده
ژوندون
ژوندوني
ژوندى
ژوندي
ژونديو
ژوندکوي
ژوندکې
ژوندی
ژوندیو
ژوندۍ
ژوندې
ژونپوهنه
ژونکه
ژونکو
ژونکې
ژوو
ژوي
ژويو
ژوی
ژویو
ژوې
ژي
ژيړ
ژړا
ژړل
ژړۍ
ژیړ
ژېړ
ژېړو
ښ
ښا
ښاخ
ښاخبري
ښاخه
ښاخونه
ښاخونو
ښاد
ښاده
ښادي
ښادۍ
ښار
ښاره
ښارو
ښاروال
ښاروالي
ښاروالیو
ښاروالۍ
ښارونه
ښارونو
ښاري
ښاريانو
ښارکي
ښارکې
ښارګوټو
ښارګوټي
ښارګوټی
ښارگوټي
ښارگي
ښاریانو
ښاغلو
ښاغلى
ښاغلي
ښاغلی
ښاغلې
ښامار
ښاي
ښايست
ښايسته
ښايي
ښايې
ښاپېرۍ
ښایست
ښایسته
ښایي
ښایی
ښایې
ښخ
ښخه
ښخول
ښخولو
ښخې
ښكار
ښكاره
ښكاري
ښكته
ښكلا
ښكلي
ښكلې
ښندي
ښه
ښو
ښود
ښودل
ښودله
ښودلو
ښودلي
ښودلی
ښودلې
ښودنه
ښودنې
ښوده
ښودونکي
ښورښ
ښون
ښونځي
ښوول
ښووله
ښوولو
ښوولى
ښوولي
ښوولې
ښوون
ښووند
ښوونكي
ښوونه
ښوونو
ښووني
ښوونځى
ښوونځي
ښوونځيو
ښوونځی
ښوونځیو
ښوونځۍ
ښوونکو
ښوونکى
ښوونکي
ښوونکی
ښوونکې
ښوونیز
ښوونیزه
ښوونیزو
ښوونیزې
ښوونې
ښوی
ښوېدو
ښى
ښي
ښيون
ښيي
ښيښه
ښيښې
ښيې
ښځمنو
ښځمنپالنې
ښځه
ښځو
ښځى
ښځي
ښځينه
ښځی
ښځینه
ښځې
ښکار
ښکارنده
ښکارندو
ښکارندويي
ښکارندوی
ښکارندویي
ښکارندې
ښکاره
ښکاروي
ښکاري
ښکاری
ښکاریان
ښکاریانو
ښکارېدل
ښکارېده
ښکتني
ښکتنۍ
ښکته
ښکر
ښکرونه
ښکل
ښکلا
ښکلاوو
ښکلاوې
ښکلو
ښکلى
ښکلي
ښکلی
ښکلې
ښکیل
ښکیلتیا
ښکېل
ښکېلاک
ښکېلاکي
ښکېلتيا
ښکېلتیا
ښکېله
ښکېلو
ښکېلې
ښی
ښیون
ښیي
ښیښه
ښیښو
ښیښې
ښیې
ښۍ
ښې
ښېرازه
ښېګڼه
ښېګڼو
ښېګڼې
ښە
ک
کا
کابل
کابله
کابلي
کابو
کابينه
کابينې
کابینه
کابینې
کاتالونیا
کاتب
کاترين
کاترین
کاته
کاتوليک
کاتولیک
کاتولیکان
کاتولیکانو
کاتولیکه
کاتولیکو
کاتولیکي
کاتولیکې
کاج
کاذب
کار
کارابین
کاراخستل
کاراخيستل
کاران
کارانه
کارانو
کاراوه
کاراچول
کارایب
کاربن
کاربنه
کاربني
کاربون
کاربونيټ
کاربونېټ
کارت
کارتاج
کارتاژ
کارتر
کارته
کارتون
کارتونه
کارتونو
کارخانه
کارخانو
کارخانې
کارخونه
کارخونو
کارخونې
کارسن
کارل
کارلایل
کارلو
کارلوس
کارمل
کارمند
کارمندان
کارمندانو
کارموندنې
کارن
کارنامې
کارنان
کارنانو
کارناپ
کارنده
کاره
کارو
کاروان
کاروانونو
کاروبار
کاروباري
کارول
کارولای
کاروله
کارولو
کارولي
کارولينا
کارولی
کارولین
کارولینا
کارولې
کارونه
کارونو
کارونکو
کارونکي
کارونې
کاروه
کاروو
کاروونکو
کاروونکي
کاروي
کاروړل
کاري
کاريږي
کارټر
کارټي
کارپوریشن
کارپوه
کارپوهان
کارپوهانو
کارځای
کارچوکاټ
کارډ
کارکولو
کارکونکو
کارکونکي
کارکونکی
کارکوونکو
کارکوونکي
کارکوونکی
کارکوونکې
کارکوي
کارکړنه
کارکړنو
کارکړنې
کارګر
کارګران
کارګرانو
کارګرو
کارګري
کارګرې
کاری
کاریز
کاریږي
کاریګر
کاریګرانو
کاریګرو
کاریګري
کارۍ
کارې
کارېدای
کارېدل
کارېدلي
کارېدلی
کارېدلې
کارېدنه
کارېده
کارېدو
کارېدونکو
کارېدونکي
کارېدونکی
کارېدونکې
کارېږي
کارېږی
کاسه
کاسي
کاسټ
کاسټرو
کاش
کاشغر
کاشف
کاشي
کاشکې
کاظم
کاغذ
کاغذي
کافر
کافران
کافرانو
کافى
کافي
کافی
کال
کالا
کالاش
کالج
کالجونو
کالم
کالنۍ
کاله
کالهون
کالو
کالوري
کالونه
کالونو
کالوني
کالونۍ
کالوين
کالوین
کالي
کاليفورنيا
کالیزه
کالیزې
کالیفورنیا
کالیګولا
کام
کامران
کامرون
کامل
کاملا
کامله
کامن
کامه
کامو
کامياب
کاميابه
کاميابي
کاميابۍ
کامیاب
کامیډي
کامې
کان
کانادا
کانال
کانالونه
کانالونو
کاناډا
کاناډايي
کاناډایان
کاناډایانو
کاناډایي
کانت
کانتون
کاندهلوي
کاندي
کانديد
کاندید
کانزاس
کانسټنټ
کانفرانس
کانو
کانونه
کانونو
کانوې
کاني
کانټ
کانټربري
کانټینینټل
کانکور
کانګ
کانګرس
کانګريس
کانګریس
کانګرېس
کانګو
کانګې
کانگ
کانیرز
کاهن
کاو
کاونټي
کاونټۍ
کاونډيش
کاوه
کاوو
کاوون
کاي
کاينات
کايناتو
کاټن
کاپرا
کاپي
کاپيسا
کاپیسا
کاږه
کاږي
کاکا
کاکاخېل
کاکس
کاکړ
کاڼه
کاڼو
کاڼي
کاڼی
کای
کاینات
کایناتو
کب
کبان
کبانو
کبر
کبرى
کبله
کبير
کبيره
کبیر
کتاب
کتابت
کتابتون
کتابتونونه
کتابتونونو
کتابه
کتابو
کتابونه
کتابونو
کتابي
کتابچه
کتار
کتب
کتل
کتلست
کتله
کتلو
کتلوي
کتلي
کتلی
کتلې
کتنه
کتنو
کتنې
کته
کتو
کتونکو
کتونکي
کتونکی
کتيونونه
کتيونونو
کتیتر
کثافات
کثافاتو
کثافت
کثرت
کثير
کثیر
کجورو
کجورې
کده
کدو
کر
کرار
کراره
کراس
کرام
کرامت
کرامو
کرايه
کراچي
کراچی
کراچۍ
کرایه
کرایې
کربلا
کربي
کرت
کرد
کردار
کردانو
کردستان
کردن
کردند
کرده
کردي
کرزي
کرزی
کرسټال
کرسټالونه
کرشنا
کرل
کرلو
کرم
کرمان
کرمانشاه
کرن
کرنل
کرنه
کرني
کرنيز
کرنيزه
کرنيزو
کرنيزې
کرنیز
کرنیزه
کرنیزو
کرنیزې
کرنې
کره
کرهاله
کرهڼه
کرهڼې
کرو
کرواسیا
کروز
کروشيا
کروشیا
کروم
کروموزوم
کروموزومونه
کروموزومونو
کروموزومي
کرونا
کرونده
کروندو
کروندګر
کروندګرو
کروندګرۍ
کروندې
کرونولوژي
کروي
کروچه
کروړ
کرویاتو
کري
کريم
کريميا
کريټ
کريکټ
کرښه
کرښو
کرښي
کرښې
کرک
کرکجن
کرکه
کرکټ
کرکټر
کرکټرونه
کرکټرونو
کرکې
کریس
کریسټوفر
کریسټین
کریم
کریمه
کریمیا
کریمیه
کریمیې
کریډیټ
کریک
کرې
کرېټیسوس
کرېک
کرېکټ
کز
کس
کسات
کسان
کسانو
کسب
کسبي
کسر
کسرونه
کسري
کسفورډ
کسه
کسو
کسوف
کسى
کسيجن
کسيز
کسيزه
کسپین
کسیز
کسیزه
کسیزې
کش
کشاف
کشته
کشتۍ
کشر
کشران
کشره
کشری
کشش
کشف
کشفولو
کشمير
کشمیر
کشمیري
کشور
کشي
کشيش
کشیش
کشیشانو
کعب
کعبه
کعبې
کــ
کـې
کفار
کفارو
کفايت
کفایت
کفر
کفره
کفري
کفن
کل
کلا
کلابند
کلابندي
کلابندۍ
کلات
کلارا
کلارک
کلاس
کلاسيک
کلاسيکو
کلاسيکي
کلاسيکې
کلاسیک
کلاسیکه
کلاسیکو
کلاسیکې
کلالي
کلالۍ
کلام
کلامي
کلان
کلاه
کلاوډ
کلاډ
کلاګانو
کلاګانې
کلب
کلبي
کلتور
کلتورونه
کلتورونو
کلتوري
کلتوری
کلثوم
کلسيم
کلسیم
کلفورنيا
کلفورنیا
کلمات
کلماتو
کلماني
کلمبیا
کلمه
کلمو
کلموکې
کلمې
کلن
کلنه
کلنو
کلني
کلنټن
کلنی
کلنۍ
کلنې
کله
کلو
کلودیوس
کلورايد
کلورایډ
کلورو
کلوروفيل
کلورين
کلورین
کلون
کلونه
کلونو
کلونوکې
کلونېنګ
کلوي
کلى
کلي
کليات
کليدي
کليرک
کليز
کليزه
کليزې
کليسا
کليشه
کليفورنيا
کليماکس
کليمه
کليمې
کلينيکي
کليو
کليوال
کليوالو
کليوالي
کلپ
کلچر
کلک
کلکاني
کلکته
کلکتې
کلکه
کلکو
کلکوالي
کلکې
کلی
کلیات
کلیاتو
کلیدي
کلیز
کلیزه
کلیزې
کلیسا
کلیساوو
کلیساوې
کلیسايي
کلیساګانو
کلیساګانې
کلیسایي
کلیشه
کلیفورنیا
کلیمه
کلیمو
کلیمې
کلینټن
کلینټون
کلینډر
کلینیکي
کلیو
کلیوال
کلیوالو
کلیوالي
کلیوالې
کلیولینډ
کلیک
کلې
کلېک
کم
کما
کمار
کمال
کمالاتو
کمان
کمبريج
کمبریج
کمبرېج
کمبود
کمبوديا
کمبودیا
کمبوډیا
کمتر
کمر
کمربند
کمربندونه
کمره
کمرو
کمرې
کمزورتیا
کمزورو
کمزورى
کمزوري
کمزوريو
کمزوری
کمزورۍ
کمزورې
کمشنر
کمه
کمو
کموالى
کموالي
کموالی
کمول
کمولو
کمون
کمونست
کمونستانو
کمونستي
کمونيزم
کمونيست
کمونيستان
کمونيستي
کمونیزم
کمونیست
کمونیستانو
کمونیستي
کمونیسټ
کمونېزم
کمونېست
کموي
کمي
کميت
کميس
کميسون
کميسيون
کميټه
کميټی
کميټې
کميږي
کمپ
کمپاین
کمپاینونه
کمپاینونو
کمپبل
کمپلکس
کمپلیکس
کمپني
کمپنيو
کمپنیو
کمپنۍ
کمپوز
کمپوزر
کمپوسټ
کمپونو
کمپوټر
کمپيوټر
کمپيوټرونه
کمپيوټرونو
کمپيوټري
کمپیوتر
کمپیوټر
کمپیوټرونه
کمپیوټرونو
کمپیوټري
کمښت
کمک
کمی
کمیت
کمیس
کمیسیون
کمیشنر
کمین
کمیټه
کمیټې
کمیږي
کمې
کمېدل
کمېدو
کمېسیون
کمېشنر
کمېټه
کمېټو
کمېټې
کمېږي
کن
کناډا
کنت
کنترول
کنترولوي
کند
کندز
کنده
کندهار
کندهاره
کندهارو
کندهاري
کندهاری
کندهاریان
کندو
کندوز
کندي
کندې
کنز
کنزالعمال
کنستانتین
کنسرت
کنشکا
کنعان
کنفدراسیون
کنفدریشن
کنفرانس
کنفرانسونه
کنفرانسونو
کنفوسیوس
کنند
کنندگان
کنه
کنوانسيون
کنوانسیون
کنوانسیونونه
کنوانسیونونو
کنوزالحقايق
کنيم
کنيه
کنټ
کنټرول
کنټرولوي
کنځل
کنډ
کنډوالو
کنډي
کنډک
کنډکونه
کنړ
کنګره
کنګرې
کنګل
کنګلونه
کنګلونو
کنیکټیکټ
که
کهزاد
کهف
کهنه
کهول
کهکشان
کهکشانونه
کهکشانونو
کهکشاني
کو
کوارټز
کوانټم
کوانټمي
کوانټوم
کوانټومي
کواکر
کواین
کوتره
کوترې
کوتل
کوثر
کود
کودتا
کودتاه
کور
کوربه
کورتس
کورته
کورس
کورسونه
کورسونو
کورنو
کورنى
کورني
کورنيو
کورنی
کورنیو
کورنۍ
کورنې
کوره
کورو
کوروالى
کوروش
کورونه
کورونو
کوري
کوريا
کوريايي
کوریا
کوریايي
کوریایي
کوز
کوزه
کوزوو
کوزې
کوسوو
کوسټا
کوشان
کوشاني
کوشانیانو
کوشش
کوشني
کوشنی
کوشنۍ
کوفه
کوفي
کوفيانو
کوفیانو
کوفین
کوفې
کول
کولا
کولاى
کولاي
کولای
کولاې
کولتور
کولتوري
کولرا
کولس
کولمب
کولمبس
کولمبو
کولمبيا
کولمبیا
کولمو
کولمې
کولن
کوله
کولو
کولوسره
کولولپاره
کولون
کولوپه
کولوکې
کولى
کولي
کوليگرام
کولی
کولیج
کولې
کولېنګووډ
کوم
کوما
کومار
کومندان
کومه
کومو
کومي
کومک
کومی
کومې
کومېټې
کون
کونج
کونجونو
کونجي
کونراد
کونسل
کونه
کوني
کونډه
کونډو
کونډې
کونړ
کونکو
کونکي
کونکی
کونکې
کونګ
کونې
کوه
کوهاټ
کوهستان
کوهل
کوهن
کوهي
کوو
کوونه
کوونکو
کوونکى
کوونکي
کوونکيو
کوونکی
کوونکې
کوونې
کوويډ
کوویډ
کووېډ
کوى
کوي
کويټه
کوټ
کوټه
کوټو
کوټي
کوټکي
کوټکې
کوټې
کوپر
کوپراتیف
کوپراتیفونه
کوپره
کوپرې
کوپلنډ
کوپن
کوپنهاګن
کوپړۍ
کوڅه
کوڅو
کوڅې
کوچ
کوچنى
کوچني
کوچنيان
کوچنيانو
کوچنيو
کوچنيوالي
کوچنی
کوچنیانو
کوچنیو
کوچنیوالي
کوچنۍ
کوچنې
کوچي
کوچيان
کوچيانو
کوچیان
کوچیانو
کوچیاني
کوچینی
کوچینیو
کوچینۍ
کوډ
کوډو
کوډونه
کوډونو
کوړک
کوړې
کوږ
کوږوالي
کوژده
کوښښ
کوک
کوکا
کوکران
کوکنارو
کوڼ
کوی
کویت
کوین
کویټ
کوۍ
کوې
کى
کي
کيداى
کيداي
کيدای
کيدل
کيدلو
کيدنه
کيده
کيدو
کيدونکي
کيدونکې
کيدى
کيسه
کيسو
کيسې
کيف
کيفيت
کيفيته
کيلو
کيلومتر
کيلومتره
کيلوميټر
کيموتراپي
کيميا
کيمياوي
کيميايي
کيمپ
کين
کيندل
کيندنه
کيندنې
کينز
کينه
کينول
کيني
کينيا
کينډۍ
کينې
کيو
کيوبا
کيږ
کيږدي
کيږى
کيږي
کيږی
کيږې
کيښود
کيښودل
کيڼ
کيڼې
کټ
کټه
کټواز
کټګوري
کټګوریو
کټګورۍ
کپ
کپتان
کپسول
کپور
کپیټلېزم
کڅوړه
کڅوړو
کڅوړي
کڅوړې
کچ
کچالو
کچه
کچو
کچي
کچيري
کچې
کډه
کډوال
کډوالو
کډوالي
کډوالۍ
کړ
کړاو
کړاوونه
کړاوونو
کړاى
کړاي
کړای
کړل
کړلار
کړله
کړلې
کړم
کړمه
کړن
کړنلار
کړنلاره
کړنلارو
کړنلارې
کړنه
کړنو
کړني
کړنې
کړه
کړو
کړوسی
کړى
کړي
کړيال
کړيالانو
کړيده
کړيدي
کړيو
کړکیچ
کړکۍ
کړکېچ
کړکېچن
کړکېچونه
کړکېچونو
کړی
کړیال
کړیالان
کړیالانو
کړیده
کړیدی
کړیو
کړۍ
کړې
کړېده
کړېږي
کړے
کږه
کږې
کښ
کښت
کښته
کښتونو
کښتيو
کښتیو
کښتۍ
کښل
کښلو
کښلي
کښلی
کښلې
کښنې
کښو
کښى
کښي
کښی
کښې
کښېناست
کښېني
ککړ
ککړتيا
ککړتیا
ککړه
ککړو
ککړونکو
ککړونکي
ککړونکی
ککړوونکو
ککړوونکي
ککړوي
ککړې
کی
کیا
کیبل
کیبورډ
کیدای
کیدل
کیدلو
کیدلی
کیده
کیدو
کیدونکی
کیدی
کیرشنر
کیریر
کیسه
کیسو
کیسې
کیف
کیفي
کیفیت
کیلو
کیلومتر
کیلومترمربع
کیلومتره
کیلومترو
کیلومترۍ
کیلومټره
کیلوگرامه
کیلي
کیم
کیمبرج
کیمرې
کیمیا
کیمیاوي
کیمیاوی
کیمیايي
کیمیاپوه
کین
کیندل
کیندنو
کیندنې
کینز
کینلي
کینه
کینوک
کینډۍ
کینګ
کینیا
کینې
کیهان
کیهاني
کیو
کیوبا
کیوبیک
کیپ
کیږي
کیږی
کیږې
کیښود
کیښودل
کیگی
کیڼ
کۍ
کې
کېد
کېدا
کېداى
کېداي
کېدای
کېدل
کېدلای
کېدله
کېدلو
کېدلی
کېدلې
کېدنه
کېدنې
کېده
کېدو
کېدونو
کېدوني
کېدونکو
کېدونکي
کېدونکی
کېدونکې
کېدونی
کېدونې
کېدي
کېدی
کېدې
کېدے
کېـږي
کېفيت
کېلر
کېلو
کېلومتر
کېلومتره
کېموپلاژ
کېمياوي
کېمیا
کېمیاوي
کېناست
کېناستل
کېناسته
کېناستو
کېناوه
کېندنې
کېنه
کېنول
کېني
کېنګ
کېټ
کېپ
کېږ
کېږده
کېږدي
کېږدۍ
کېږم
کېږه
کېږو
کېږي
کېږی
کېږې
کېښود
کېښودل
کېښوده
کېښوول
کېښووه
کے
کە
ګ
ګابن
ګاتا
ګارد
ګارزا
ګارفیلډ
ګارنر
ګارو
ګارډ
ګارډنر
ګارې
ګاز
ګازاتو
ګازو
ګازونه
ګازونو
ګازي
ګافمن
ګالي
ګاليله
ګالیله
ګام
ګاما
ګامبيا
ګامونه
ګامونو
ګان
ګانا
ګاندي
ګانو
ګاني
ګانی
ګانې
ګاه
ګاونډ
ګاونډي
ګاونډيانو
ګاونډيو
ګاونډی
ګاونډیانو
ګاونډیو
ګاونډۍ
ګاي
ګاډو
ګاډوین
ګاډي
ګاډی
ګاډۍ
ګاڼه
ګته
ګجرات
ګدۍ
ګذشت
ګر
ګراد
ګراف
ګرافيټي
ګرافیک
ګرام
ګرامر
ګرامري
ګرامشي
ګرامه
ګرامو
ګران
ګرانایټ
ګرانه
ګرانو
ګرانټ
ګرانې
ګراهام
ګرايه
ګرايي
ګرایۍ
ګرجستان
ګرد
ګرده
ګردو
ګردي
ګردې
ګرم
ګرمه
ګرمو
ګرمولو
ګرمي
ګرمۍ
ګرمې
ګرمېدو
ګرنټ
ګرو
ګروهمن
ګروهن
ګروهه
ګروهو
ګروهې
ګروپ
ګروپونه
ګروپونو
ګروپي
ګري
ګريد
ګرين
ګرينلينډ
ګرينلېنډ
ګرځنده
ګرځندوی
ګرځول
ګرځولو
ګرځولي
ګرځولی
ګرځولې
ګرځوي
ګرځي
ګرځی
ګرځیدلی
ګرځې
ګرځېدای
ګرځېدل
ګرځېدلي
ګرځېدلی
ګرځېدلې
ګرځېده
ګرځېدو
ګریسون
ګرین
ګرینلنډ
ګریګوري
ګرې
ګرېد
ګرېوان
ګرېډ
ګزمې
ګسټ
ګل
ګلاب
ګلابو
ګلابي
ګلاسکو
ګلان
ګلانو
ګلبدین
ګلخانه
ګلستان
ګلن
ګله
ګلو
ګلونه
ګلونو
ګلوکوز
ګلي
ګلپي
ګمارل
ګمارنې
ګمان
ګماني
ګمراه
ګمرکي
ګن
ګناه
ګناهونه
ګناهونو
ګنج
ګنجي
ګندهارا
ګنل
ګنه
ګني
ګنډل
ګنډلو
ګنګا
ګنګوهي
ګنې
ګه
ګهيځ
ګو
ګوا
ګواتیمالا
ګوادلوپ
ګوام
ګواه
ګواهي
ګواښ
ګواښل
ګواښونه
ګواښونو
ګواښي
ګواکي
ګواکې
ګوبينيو
ګوتم
ګوتنبرګ
ګوته
ګوتو
ګوتیک
ګوتې
ګوجر
ګور
ګورباچوف
ګورم
ګورنر
ګوره
ګورو
ګوري
ګورډن
ګوریلا
ګورې
ګوزار
ګوزاره
ګوزارونه
ګوستاو
ګول
ګولډ
ګولډمن
ګولۍ
ګولې
ګومارل
ګومارلو
ګومارنه
ګومارنې
ګومان
ګون
ګوند
ګوندونه
ګوندونو
ګوندي
ګوندې
ګونه
ګونو
ګوني
ګونډو
ګونګ
ګونګټې
ګونی
ګونې
ګوهر
ګويا
ګوټ
ګوډ
ګوډمن
ګوژ
ګوښه
ګوګل
ګوڼه
ګوڼې
ګویا
ګي
ګياه
ګياوې
ګيري
ګيرۍ
ګيله
ګينه
ګيټس
ګټ
ګټل
ګټلو
ګټلي
ګټلی
ګټلې
ګټمن
ګټنه
ګټنې
ګټه
ګټو
ګټور
ګټورتوب
ګټورتیا
ګټوره
ګټورو
ګټورې
ګټونکو
ګټونکي
ګټونکی
ګټونکې
ګټي
ګټی
ګټې
ګچ
ګډ
ګډه
ګډو
ګډوله
ګډولو
ګډون
ګډونه
ګډونوال
ګډونوالو
ګډوي
ګډوډ
ګډوډي
ګډوډیو
ګډوډۍ
ګډې
ګډېږي
ګړ
ګړدود
ګړندي
ګړندی
ګړندۍ
ګړنه
ګړنې
ګړي
ګړۍ
ګڼ
ګڼل
ګڼلای
ګڼله
ګڼلو
ګڼلى
ګڼلي
ګڼلی
ګڼلې
ګڼم
ګڼه
ګڼو
ګڼوالي
ګڼي
ګڼی
ګڼې
ګی
ګیانا
ګیبس
ګیج
ګیدړ
ګیر
ګیري
ګیرۍ
ګیل
ګیلاني
ګیلیکسي
ګینه
ګیني
ګیټس
ګۍ
ګې
ګېري
ګېنزبرګ
ګېډه
ګېډې
گ
گا
گاز
گام
گامونه
گان
گاندهي
گانو
گانې
گاه
گاونډي
گاونډيو
گاډي
گاگارين
گاگرې
گاڼه
گر
گراد
گراف
گرام
گرامر
گرامه
گران
گرانه
گرد
گردد
گرده
گردېز
گرفت
گرم
گرمه
گرمو
گرو
گروه
گروهه
گروهو
گروهې
گروپ
گروپونو
گرځنده
گرځي
گرگین
گز
گفت
گفته
گل
گلاب
گلان
گلانو
گلستان
گلونه
گلوکوز
گلوکوزو
گمارل
گمان
گناه
گنبد
گنجگل
گندهارا
گنل
گنه
گنې
گه
گهيځ
گو
گواښ
گواکې
گوته
گوتو
گوتې
گودر
گوره
گورو
گوري
گورې
گولۍ
گومارل
گومان
گوند
گوندونه
گوندونو
گوندي
گونه
گونو
گوهر
گويند
گوټ
گوښه
گوڼې
گي
گيلان
گټلو
گټلې
گټه
گټو
گټور
گټوره
گټورې
گټي
گټې
گډ
گډه
گډو
گډون
گډې
گړدود
گڼ
گڼل
گڼله
گڼه
گڼو
گڼي
گڼې
گی
گۍ
گې
ں
ڼ
ڼي
ھ
ہ
ہیں
ہے
ۃ
ۇ
ی
یا
یات
یاتو
یاد
یاددښت
یاده
یادو
یادول
یادولو
یادولی
یادونه
یادونې
یادوي
یاديږي
یادښت
یادښتونه
یادښتونو
یادګار
یادګاري
یادگار
یادیدل
یادیده
یادیږي
یادیږی
یادې
یادېدل
یادېده
یادېږي
یادېږی
یار
یارانو
یارک
یارگل
یاست
یاغي
یاغیانو
یافته
یاقوت
یالات
یالاتونه
یالاتونو
یان
یانو
یانګ
یانې
یاهم
یت
یتونه
یتونو
یتي
یتیم
یحی
یحیی
یخ
یخنۍ
یخچالونو
ید
یر
یرس
یرغل
یرغلونه
یرغلونو
یرغلګرو
یرغلیز
یرغمل
یرلنډ
یرلنډي
یرلینډ
یز
یزو
یزید
یس
یسلنډ
یعقوب
یعني
یعنی
یعنې
یقین
یقینا
یقیني
یل
یلتسین
یلو
یلي
یم
یمن
یمه
یمو
یمې
ین
ینه
یه
یهود
یهودا
یهودان
یهودانو
یهودو
یهودي
یهودی
یهودیان
یهودیانو
یهودیت
یو
یوازني
یوازنی
یوازنۍ
یوازي
یوازی
یوازیتوب
یوازیني
یوازینی
یوازینۍ
یوازې
یوازېنی
یوازېنۍ
یوان
یواځی
یواځینی
یواځې
یوبل
یوتا
یوجین
یورانیم
یورو
یوري
یورک
یوریشیا
یوسف
یوسفزي
یوسي
یوشان
یوشمیر
یوشمېر
یوله
یون
یونان
یوناني
یونانی
یونانیان
یونانیانو
یونس
یونسکو
یونلیک
یونیسف
یونیسکو
یونیفورم
یونین
یونیکس
یوه
یوهان
یوهانس
یووالي
یووالی
یوولس
یوولسم
یوولسمه
یوولسمې
یوولسو
یووړ
یووړل
یووړه
یوویشتمې
یوي
یوټیوب
یوځای
یوځل
یوڅه
یوډول
یوړل
یوړه
یوګا
یوګاندا
یوګسلاویا
یوګوسلاویا
یوګون
یوی
یوې
یي
یيز
یيزو
یک
یکشنبه
یکشنبې
یکن
یکی
یہ
یی
ییز
ییزه
ییزو
ییزې
ییل
یې
ۍ
ې
ېي
ېې
ے
۔
ە
ۖ
ۙ
۝
۞
ۡ
ۤ
۰
۰۰
۰۰۰
۰۳
۰۴
۰۵
۱
۱۰
۱۰۰
۱۰۰۰
۱۰۰۰۰
۱۰۰۰۰۰
۱۰۱
۱۰۲
۱۰۳
۱۰۴
۱۰۵
۱۰۶
۱۰۶۶
۱۰۷
۱۰۸
۱۰۹
۱۱
۱۱۰
۱۱۰۰
۱۱۱
۱۱۲
۱۱۳
۱۱۴
۱۱۵
۱۱۶
۱۱۷
۱۱۸
۱۱۹
۱۲
۱۲۰
۱۲۰۰
۱۲۰۰۰
۱۲۰۴
۱۲۱
۱۲۱۵
۱۲۲
۱۲۳
۱۲۴
۱۲۵
۱۲۵۰
۱۲۵۸
۱۲۶
۱۲۷
۱۲۸
۱۳
۱۳۰
۱۳۰۰
۱۳۰۰۰
۱۳۰۸
۱۳۱
۱۳۱۰
۱۳۱۲
۱۳۱۵
۱۳۱۶
۱۳۱۸
۱۳۲
۱۳۲۰
۱۳۲۳
۱۳۲۴
۱۳۲۵
۱۳۲۶
۱۳۲۷
۱۳۲۸
۱۳۲۹
۱۳۳
۱۳۳۰
۱۳۳۱
۱۳۳۲
۱۳۳۳
۱۳۳۴
۱۳۳۵
۱۳۳۶
۱۳۳۷
۱۳۳۸
۱۳۳۹
۱۳۴
۱۳۴۰
۱۳۴۱
۱۳۴۲
۱۳۴۳
۱۳۴۴
۱۳۴۵
۱۳۴۶
۱۳۴۷
۱۳۴۸
۱۳۴۹
۱۳۵
۱۳۵۰
۱۳۵۱
۱۳۵۲
۱۳۵۳
۱۳۵۴
۱۳۵۵
۱۳۵۶
۱۳۵۷
۱۳۵۸
۱۳۵۹
۱۳۶
۱۳۶۰
۱۳۶۱
۱۳۶۲
۱۳۶۳
۱۳۶۴
۱۳۶۵
۱۳۶۶
۱۳۶۷
۱۳۶۸
۱۳۶۹
۱۳۷
۱۳۷۰
۱۳۷۱
۱۳۷۲
۱۳۷۳
۱۳۷۴
۱۳۷۵
۱۳۷۶
۱۳۷۷
۱۳۷۸
۱۳۷۹
۱۳۸
۱۳۸۰
۱۳۸۱
۱۳۸۲
۱۳۸۳
۱۳۸۴
۱۳۸۵
۱۳۸۶
۱۳۸۷
۱۳۸۸
۱۳۸۹
۱۳۹
۱۳۹۰
۱۳۹۱
۱۳۹۲
۱۳۹۳
۱۳۹۴
۱۳۹۵
۱۳۹۶
۱۳۹۷
۱۳۹۸
۱۳۹۹
۱۴
۱۴۰
۱۴۰۰
۱۴۰۰۰
۱۴۱
۱۴۲
۱۴۲۵
۱۴۳
۱۴۴
۱۴۵
۱۴۵۳
۱۴۶
۱۴۷
۱۴۸
۱۴۹
۱۴۹۲
۱۵
۱۵۰
۱۵۰۰
۱۵۰۰۰
۱۵۱
۱۵۱۶
۱۵۱۷
۱۵۲
۱۵۲۰
۱۵۲۶
۱۵۳
۱۵۳۰
۱۵۴
۱۵۵
۱۵۵۰
۱۵۶
۱۵۷
۱۵۸
۱۵۹
۱۶
۱۶۰
۱۶۰۰
۱۶۰۳
۱۶۰۸
۱۶۱۰
۱۶۱۸
۱۶۲
۱۶۲۰
۱۶۲۸
۱۶۲۹
۱۶۳
۱۶۳۰
۱۶۳۱
۱۶۳۸
۱۶۴
۱۶۴۰
۱۶۴۲
۱۶۴۳
۱۶۴۴
۱۶۴۸
۱۶۴۹
۱۶۵
۱۶۵۰
۱۶۵۱
۱۶۶
۱۶۶۰
۱۶۶۱
۱۶۶۴
۱۶۷
۱۶۷۰
۱۶۷۲
۱۶۷۴
۱۶۷۹
۱۶۸
۱۶۸۰
۱۶۸۵
۱۶۸۷
۱۶۸۸
۱۶۸۹
۱۶۹
۱۶۹۰
۱۷
۱۷۰
۱۷۰۰
۱۷۰۰۰
۱۷۰۱
۱۷۰۲
۱۷۰۴
۱۷۰۷
۱۷۰۹
۱۷۱
۱۷۱۰
۱۷۱۲
۱۷۱۴
۱۷۱۵
۱۷۱۶
۱۷۲
۱۷۲۰
۱۷۲۱
۱۷۲۲
۱۷۲۳
۱۷۲۵
۱۷۲۶
۱۷۲۷
۱۷۲۹
۱۷۳
۱۷۳۰
۱۷۳۸
۱۷۴
۱۷۴۰
۱۷۴۴
۱۷۴۵
۱۷۴۶
۱۷۴۷
۱۷۴۸
۱۷۴۹
۱۷۵
۱۷۵۰
۱۷۵۱
۱۷۵۲
۱۷۵۴
۱۷۵۵
۱۷۵۶
۱۷۵۷
۱۷۵۸
۱۷۵۹
۱۷۶
۱۷۶۰
۱۷۶۱
۱۷۶۲
۱۷۶۳
۱۷۶۴
۱۷۶۵
۱۷۶۶
۱۷۶۷
۱۷۶۸
۱۷۶۹
۱۷۷
۱۷۷۰
۱۷۷۱
۱۷۷۲
۱۷۷۳
۱۷۷۴
۱۷۷۵
۱۷۷۶
۱۷۷۷
۱۷۷۸
۱۷۷۹
۱۷۸
۱۷۸۰
۱۷۸۱
۱۷۸۲
۱۷۸۳
۱۷۸۴
۱۷۸۵
۱۷۸۶
۱۷۸۷
۱۷۸۸
۱۷۸۹
۱۷۹
۱۷۹۰
۱۷۹۱
۱۷۹۲
۱۷۹۳
۱۷۹۴
۱۷۹۵
۱۷۹۶
۱۷۹۷
۱۷۹۸
۱۷۹۹
۱۸
۱۸۰
۱۸۰۰
۱۸۰۱
۱۸۰۲
۱۸۰۳
۱۸۰۴
۱۸۰۵
۱۸۰۶
۱۸۰۷
۱۸۰۸
۱۸۰۹
۱۸۱
۱۸۱۰
۱۸۱۱
۱۸۱۲
۱۸۱۳
۱۸۱۴
۱۸۱۵
۱۸۱۶
۱۸۱۷
۱۸۱۸
۱۸۱۹
۱۸۲
۱۸۲۰
۱۸۲۱
۱۸۲۲
۱۸۲۳
۱۸۲۴
۱۸۲۵
۱۸۲۶
۱۸۲۷
۱۸۲۸
۱۸۲۹
۱۸۳
۱۸۳۰
۱۸۳۱
۱۸۳۲
۱۸۳۳
۱۸۳۴
۱۸۳۵
۱۸۳۶
۱۸۳۷
۱۸۳۸
۱۸۳۹
۱۸۴۰
۱۸۴۱
۱۸۴۲
۱۸۴۳
۱۸۴۴
۱۸۴۵
۱۸۴۶
۱۸۴۷
۱۸۴۸
۱۸۴۹
۱۸۵
۱۸۵۰
۱۸۵۱
۱۸۵۲
۱۸۵۳
۱۸۵۴
۱۸۵۵
۱۸۵۶
۱۸۵۷
۱۸۵۸
۱۸۵۹
۱۸۶
۱۸۶۰
۱۸۶۱
۱۸۶۲
۱۸۶۳
۱۸۶۴
۱۸۶۵
۱۸۶۶
۱۸۶۷
۱۸۶۸
۱۸۶۹
۱۸۷
۱۸۷۰
۱۸۷۱
۱۸۷۲
۱۸۷۳
۱۸۷۴
۱۸۷۵
۱۸۷۶
۱۸۷۷
۱۸۷۸
۱۸۷۹
۱۸۸۰
۱۸۸۱
۱۸۸۲
۱۸۸۳
۱۸۸۴
۱۸۸۵
۱۸۸۶
۱۸۸۷
۱۸۸۸
۱۸۸۹
۱۸۹
۱۸۹۰
۱۸۹۱
۱۸۹۲
۱۸۹۳
۱۸۹۴
۱۸۹۵
۱۸۹۶
۱۸۹۷
۱۸۹۸
۱۸۹۹
۱۹
۱۹۰
۱۹۰۰
۱۹۰۱
۱۹۰۲
۱۹۰۳
۱۹۰۴
۱۹۰۵
۱۹۰۶
۱۹۰۷
۱۹۰۸
۱۹۰۹
۱۹۱
۱۹۱۰
۱۹۱۱
۱۹۱۲
۱۹۱۳
۱۹۱۴
۱۹۱۵
۱۹۱۶
۱۹۱۷
۱۹۱۸
۱۹۱۹
۱۹۲
۱۹۲۰
۱۹۲۱
۱۹۲۲
۱۹۲۳
۱۹۲۴
۱۹۲۵
۱۹۲۶
۱۹۲۷
۱۹۲۸
۱۹۲۹
۱۹۳
۱۹۳۰
۱۹۳۱
۱۹۳۲
۱۹۳۳
۱۹۳۴
۱۹۳۵
۱۹۳۶
۱۹۳۷
۱۹۳۸
۱۹۳۹
۱۹۴
۱۹۴۰
۱۹۴۱
۱۹۴۲
۱۹۴۳
۱۹۴۴
۱۹۴۵
۱۹۴۶
۱۹۴۷
۱۹۴۸
۱۹۴۹
۱۹۵
۱۹۵۰
۱۹۵۱
۱۹۵۲
۱۹۵۳
۱۹۵۴
۱۹۵۵
۱۹۵۶
۱۹۵۷
۱۹۵۸
۱۹۵۹
۱۹۶
۱۹۶۰
۱۹۶۱
۱۹۶۲
۱۹۶۳
۱۹۶۴
۱۹۶۵
۱۹۶۶
۱۹۶۷
۱۹۶۸
۱۹۶۹
۱۹۷
۱۹۷۰
۱۹۷۱
۱۹۷۲
۱۹۷۳
۱۹۷۴
۱۹۷۵
۱۹۷۶
۱۹۷۷
۱۹۷۸
۱۹۷۹
۱۹۸
۱۹۸۰
۱۹۸۱
۱۹۸۲
۱۹۸۳
۱۹۸۴
۱۹۸۵
۱۹۸۶
۱۹۸۷
۱۹۸۸
۱۹۸۹
۱۹۹
۱۹۹۰
۱۹۹۱
۱۹۹۲
۱۹۹۳
۱۹۹۴
۱۹۹۵
۱۹۹۶
۱۹۹۷
۱۹۹۸
۱۹۹۹
۲
۲۰
۲۰۰
۲۰۰۰
۲۰۰۰۰
۲۰۰۰۰۰
۲۰۰۱
۲۰۰۲
۲۰۰۳
۲۰۰۴
۲۰۰۵
۲۰۰۶
۲۰۰۷
۲۰۰۸
۲۰۰۹
۲۰۱
۲۰۱۰
۲۰۱۱
۲۰۱۲
۲۰۱۳
۲۰۱۴
۲۰۱۵
۲۰۱۶
۲۰۱۷
۲۰۱۸
۲۰۱۹
۲۰۲
۲۰۲۰
۲۰۲۱
۲۰۲۲
۲۰۲۵
۲۰۳
۲۰۳۰
۲۰۴
۲۰۵
۲۰۵۰
۲۰۶
۲۰۷
۲۱
۲۱۰
۲۱۰۰
۲۱۲
۲۱۴
۲۲
۲۲۰
۲۲۰۰
۲۲۱
۲۲۲
۲۲۴
۲۲۷
۲۳
۲۳۰
۲۳۱
۲۳۵
۲۳۹
۲۴
۲۴۰
۲۴۰۰
۲۴۳
۲۴۷
۲۴۸
۲۵
۲۵۰
۲۵۰۰
۲۵۰۰۰
۲۵۰۰۰۰
۲۵۱
۲۵۲
۲۵۶
۲۶
۲۶۰
۲۶۰۰
۲۷
۲۷۰
۲۷۰۰
۲۷۳
۲۸
۲۸۰
۲۸۴
۲۸۶
۲۹
۲۹۰
۳
۳۰
۳۰۰
۳۰۰۰
۳۰۰۰۰
۳۰۰۰۰۰
۳۰۵
۳۱
۳۱۳
۳۲
۳۲۰
۳۲۰۰
۳۲۲
۳۲۳
۳۲۵
۳۳
۳۳۰
۳۴
۳۴۷
۳۵
۳۵۰
۳۵۰۰
۳۶
۳۶۰
۳۶۵
۳۷
۳۷۰
۳۸
۳۸۰
۳۸۴
۳۹
۴
۴۰
۴۰۰
۴۰۰۰
۴۰۰۰۰
۴۰۰۰۰۰
۴۱
۴۱۰
۴۲
۴۲۰
۴۳
۴۳۰
۴۴
۴۴۰
۴۵
۴۵۰
۴۵۰۰
۴۶
۴۷
۴۷۰
۴۷۶
۴۸
۴۸۰
۴۹
۴۹۰
۵
۵۰
۵۰۰
۵۰۰۰
۵۰۰۰۰
۵۰۰۰۰۰
۵۱
۵۲
۵۳
۵۳۹
۵۴
۵۵
۵۵۰
۵۵۰۰
۵۶
۵۷
۵۷۰
۵۸
۵۹
۶
۶۰
۶۰۰
۶۰۰۰
۶۰۰۰۰
۶۱
۶۱۰
۶۲
۶۲۲
۶۳
۶۳۲
۶۴
۶۵
۶۵۰
۶۶
۶۶۱
۶۷
۶۸
۶۹
۷
۷۰
۷۰۰
۷۰۰۰
۷۰۰۰۰
۷۱
۷۲
۷۲۰
۷۳
۷۴
۷۵
۷۵۰
۷۶
۷۷
۷۸
۷۹
۸
۸۰
۸۰۰
۸۰۰۰
۸۰۰۰۰
۸۱
۸۲
۸۳
۸۴
۸۵
۸۶
۸۷
۸۸
۸۹
۹
۹۰
۹۰۰
۹۰۰۰
۹۰۰۰۰
۹۱
۹۲
۹۳
۹۴
۹۵
۹۵۰
۹۶
۹۷
۹۸
۹۹
ަ
ް
ं
अ
क
ख
ग
च
ज
ट
ड
त
द
ध
न
प
फ
ब
म
य
र
ल
व
श
ष
स
ह
़
ा
ि
ी
ु
ू
े
ो
्
ক
ট
ন
প
ব
য
র
ল
স
়
া
ি
ী
ু
ে
্
ਕ
ਚ
ਜ
ਮ
ਰ
ਲ
ਸ
਼
ਾ
ਿ
ੀ
ੰ
ੱ
ં
ક
ા
િ
ી
ો
્
ப
ா
ி
ு
்
ం
క
ఖ
ప
ా
ి
ీ
ు
ె
్
ಿ
್
ೕ
ം
ක
ල
ස
්
ා
ි
ก
พ
ย
ว
อ
ิ
ี
่
้
์
་
ე
ា
ី
​
‌
‍
‎
‏
‐
–
—
‘
’
“
”
„
†
•
․
…
‫
‬
′
″
‹
›
⁄
⁺
₂
₤
₦
₩
€
₹
№
←
↑
→
↔
↷
∆
−
∙
√
∝
∞
≈
≡
≥
⋅
①
②
③
④
⑤
⑥
⑦
⑧
⑨
⑩
⑪
⑫
─
═
▪
▷
◈
○
●
★
☉
♡
♥
♦
✓
✡
✿
❤
ⲁ
ⲓ
ⲣ
ⴰ
ⵜ
⺀
⺄
⺆
⺈
⺊
⺌
⺕
⺝
⺸
⺼
⿰
⿱
⿲
⿳
⿴
⿵
⿶
⿷
⿸
⿹
⿺
⿻
、
。
《
》
「
」
〖
〗
〢
い
か
こ
す
て
と
の
は
る
゙
゚
ア
ィ
イ
ウ
カ
コ
シ
ス
テ
ト
ヘ
ユ
ラ
ル
ン
・
ー
ㅋ
㇁
㇂
㇄
㇇
㇈
㇉
㇓
㐁
㐄
㐅
㐌
㐫
㐬
㐭
㐮
㐱
㑒
㒵
㒸
㒼
㓁
㓞
㔾
㕛
㕣
㖾
㘝
㚅
㚇
㚔
㚘
㝉
㝡
㝴
㝵
㞋
㞢
㞷
㠩
㠭
㠯
㡀
㡭
㡿
㢲
㢴
㣇
㣺
㥯
㪅
㫄
㫐
㫒
㫺
㬅
㬎
㬥
㬰
㲋
㳄
㷠
㸒
㸚
㸦
㼌
㼲
㽞
㿟
䀠
䂞
䍃
䏍
䒑
䖍
䖒
䖝
䖵
䙴
䚻
䜌
䝿
䡛
䧹
䪞
一
丁
丂
七
丄
丅
丆
万
丈
三
上
下
丌
不
与
丏
丐
丑
专
且
丕
世
丘
丙
业
东
丞
丢
丣
两
严
並
丨
丩
个
丫
丬
中
丮
丰
丱
串
丵
丶
丷
丸
丹
为
主
丽
丿
乀
乂
乃
久
乆
乇
么
义
之
乌
乍
乎
乏
乐
乑
乔
乖
乗
乘
乙
乚
乛
乜
九
乞
也
习
乡
乳
乾
亀
亅
了
亇
予
争
事
二
亍
于
亏
亐
云
互
亓
五
井
亘
亚
亜
亞
亟
亠
亡
亢
交
亥
亦
产
亨
亩
享
京
亭
亮
亯
亰
亲
亳
亶
亷
人
亻
亼
亾
仁
今
介
仌
从
仐
仑
仒
仓
仕
他
付
仝
代
令
以
任
企
伊
伏
伐
休
会
伯
但
位
何
佘
余
作
佥
使
來
侈
侌
侖
侯
侵
便
保
俞
信
修
倉
倍
候
倠
備
僉
僕
儿
兀
允
兂
元
兄
充
兆
兇
先
光
兊
克
兌
免
兑
兒
兓
兔
党
兜
兟
入
全
兩
兪
八
公
六
兮
兰
共
关
兵
其
具
典
兹
兼
冀
冂
冃
冄
内
冈
冉
冊
冋
册
再
冎
冏
冐
冒
冓
冖
冗
冘
军
农
冝
冡
冥
冫
冬
冷
几
凡
凢
凵
凶
凷
凸
凹
出
函
凾
刀
刁
刂
刃
刄
刅
分
切
刍
刑
刕
刖
列
刘
则
初
別
利
别
到
制
刺
則
削
剌
前
剡
剽
劉
力
功
加
劦
助
劫
劳
劵
勃
勇
勉
勒
動
務
勞
勤
勹
勺
勻
勾
勿
匀
匂
包
匆
匈
匊
匋
匍
匕
化
北
匚
匝
匡
匪
匱
匸
匹
区
医
匽
匿
區
十
卂
千
卄
卅
卆
升
午
卉
半
卌
华
卑
卒
卓
单
卖
南
卜
卝
卞
占
卡
卢
卣
卤
卦
卩
卪
卬
卯
印
危
即
却
卵
卷
卸
卻
厂
厃
厄
历
厈
厉
厌
厓
厘
厚
原
厤
厥
厨
厭
厲
厶
厷
厸
去
厼
厽
叀
参
參
叅
又
叉
及
友
双
反
叐
发
叒
叔
叕
取
受
叚
叜
叟
口
古
句
另
叩
只
召
可
台
叱
史
右
叵
号
司
叹
吂
各
吅
合
吉
吊
吋
同
名
后
吏
向
吕
君
吝
吞
否
含
启
吳
吴
吹
吾
呂
呆
呈
告
员
呙
周
命
咅
和
咎
咠
咢
咨
咸
咼
哀
品
哉
員
哥
哲
唐
商
啇
問
啚
啬
啻
善
喜
喬
單
喿
嗇
噩
嚴
囊
囗
囘
囙
囚
四
回
囟
因
囧
囬
困
囱
囷
固
国
圂
圅
國
圍
圓
土
圡
圣
圥
在
圭
地
圶
圼
坐
坒
坚
坴
垂
垔
垚
埀
埋
城
埶
執
基
堂
堅
堆
堇
堯
塞
填
墨
壘
士
壬
壯
声
壳
壴
壹
壺
壽
夂
处
夅
夆
备
夊
夋
夌
复
夏
夒
夕
外
夗
夘
多
夜
夢
大
夨
天
太
夫
夬
夭
央
失
夲
头
夷
夸
夹
夻
夾
奂
奄
奇
奈
奉
奎
奏
奐
契
奓
奔
奚
奞
奠
奢
奥
奭
女
奴
奻
好
如
妄
妙
妟
妥
妻
妾
姑
委
姜
威
娄
婁
婴
嬰
嬴
子
孑
孔
孕
孖
字
存
孚
孛
孝
孟
季
孤
学
孫
孱
學
宀
宁
宂
它
宅
宇
守
安
宋
完
宏
宓
宗
官
定
宛
宜
宝
客
宣
室
宮
宰
害
家
容
宾
宿
寄
寅
密
富
寒
察
寧
審
寫
寬
寮
寸
对
寺
寻
寽
対
寿
封
尃
射
将
將
專
尉
尊
尋
尌
對
小
少
尒
尓
尔
尖
尗
尚
尞
尢
尣
尤
尧
尨
尭
就
尸
尹
尺
尻
尼
尽
尾
尿
局
居
屈
屋
屎
屏
屑
展
屖
屚
属
屠
屡
屬
屮
屯
屰
山
屵
屾
岁
岂
岑
岡
岩
岳
岸
峯
島
崇
崑
崔
崖
崙
崩
嵬
嶲
巂
巛
川
州
巟
巠
巢
巤
工
左
巧
巨
巩
巫
差
己
已
巳
巴
巷
巸
巽
巾
巿
帀
市
布
希
帚
帛
帝
带
師
席
帶
常
干
平
年
幵
并
幷
幸
幺
幻
幼
幽
幾
广
広
庄
床
底
店
庚
府
度
庫
庭
庶
康
庸
廉
廌
廛
廣
廩
廴
延
廷
建
廾
廿
开
弁
弃
弄
弇
弋
式
弓
弔
引
弗
弘
弜
弟
弥
弦
弱
張
強
强
彊
彌
彎
彐
彑
当
彔
录
彖
彗
彡
形
彥
彦
彧
彭
彳
役
彼
往
待
律
徒
得
徙
從
復
微
徵
德
心
忄
必
忌
忍
志
忝
忠
忩
快
念
忽
忿
思
怠
急
怱
恆
恒
恩
恭
息
悉
患
悤
悲
悶
惠
惡
惢
愁
愈
意
愛
感
慈
慧
慮
憂
憲
應
戀
戈
戉
戊
戋
戌
戍
戎
成
我
戒
戔
或
戚
戠
戢
截
戲
戶
户
戹
戼
戾
房
所
扁
扇
手
扌
才
打
托
执
承
折
拉
拜
拿
掌
推
提
摩
支
攴
攵
收
攸
改
放
政
敄
敏
敕
敖
敗
敝
敞
敢
散
敦
敫
敬
数
敷
數
斂
文
斉
斊
斗
斤
斥
斩
斬
斯
新
方
於
施
斿
旁
旋
族
无
旡
既
旣
日
旦
旧
旨
早
旬
旱
旲
时
旾
昆
昇
昌
昍
明
昏
易
昔
昗
昜
星
春
昬
是
昱
昴
昷
显
時
晃
晋
晏
普
景
晶
智
暑
暴
曇
曩
曰
曲
曳
更
曷
書
曹
曼
曾
替
最
朁
會
月
有
朋
服
朔
朕
朗
望
朝
木
朩
未
末
本
札
朮
术
朱
朵
朶
朿
杀
杏
杜
束
条
来
東
杲
杳
松
板
析
林
枚
果
枝
枲
枼
某
柔
查
柬
柰
柴
栗
格
桀
桑
桼
梁
條
梟
梨
棘
棠
棥
森
楚
業
楽
榮
樂
樊
模
欠
次
欣
欮
欲
欶
欽
款
歆
歇
歛
止
正
此
步
武
歨
歪
歮
歯
歰
歲
歴
歷
歸
歹
歺
死
殳
段
殷
殸
殹
殺
殻
殿
毋
毌
母
每
毒
比
毕
毚
毛
毳
氏
氐
民
气
氣
水
氵
氶
氷
永
氺
氾
求
汉
汝
汞
江
沃
沓
沙
沝
河
泉
法
波
泣
泥
泰
洛
洪
活
派
流
测
浦
浪
浮
淡
淮
清
渚
渠
湯
滿
漸
火
灬
灭
灰
灵
灷
炅
炎
炏
炗
炙
炭
為
烈
烏
烝
焉
無
焦
焱
然
煞
熊
熏
燕
營
燮
爪
爫
爭
爯
爰
爱
爲
爵
父
爻
爽
爾
爿
片
版
牙
牚
牛
牜
牟
牢
牧
牪
牽
犀
犬
犭
犮
狂
狄
狊
独
狺
猋
猒
猪
献
獻
玄
率
玉
王
玟
玨
珎
班
理
琴
瑟
瑩
瓜
瓦
甘
甚
生
産
用
甫
甬
田
由
甲
申
电
甶
男
甸
甹
画
甾
畀
界
畏
畐
留
畜
畟
畢
畧
畨
番
畫
異
畱
當
畺
畾
疊
疋
疌
疑
疒
疾
癶
癸
癹
登
發
白
百
皀
皃
的
皆
皇
皋
皐
皕
皮
皷
皿
盃
盆
盇
盈
益
盍
盎
监
盒
盖
盛
盡
監
盤
盧
目
直
相
盾
省
眇
眉
看
眔
眞
真
眷
眼
眾
着
睘
睪
睿
瞏
瞢
瞿
矍
矛
矞
矢
矣
知
矦
短
石
破
碎
磊
磨
示
礻
礼
祟
票
祭
禀
禁
禸
禹
禺
离
禽
禾
禿
秀
秃
秉
秋
科
秝
秦
移
稟
穀
穌
穴
究
穹
空
穿
突
窄
窒
立
竒
竜
竝
竟
章
童
竹
笑
笠
筆
等
答
箕
算
管
箴
節
篤
篭
米
粉
粛
粟
粤
粦
粲
糞
糸
糹
系
約
納
素
索
紫
累
細
絜
絫
絲
維
綿
縣
繇
纍
纟
缶
网
罒
罔
罕
罗
罙
罡
罢
罪
署
罷
羅
羊
羌
羍
美
羔
羕
羗
羞
羡
羣
群
義
羲
羸
羽
翁
翏
習
翕
翟
翠
翼
老
耂
考
者
耆
而
耎
耑
耒
耳
耴
耶
耷
聂
聊
聖
聚
聶
聿
肀
肃
肅
肉
肖
肙
肥
肩
肯
育
肴
胃
背
胡
胥
能
脊
脩
膚
臣
臤
臧
自
臬
臭
臯
臱
至
致
臺
臼
臽
臾
臿
舀
舂
舄
與
興
舉
舌
舍
舛
舜
舞
舟
般
艮
良
色
艸
艹
艾
芒
芔
芬
芮
花
芳
芺
芻
苔
苗
苟
若
苦
英
茶
茸
荅
草
荒
荣
荼
莆
莧
莫
莽
菆
菊
菐
華
萬
落
葉
著
葛
董
葵
蒙
蒦
蒼
蓋
蓬
蓺
蔑
蔡
蕉
蕭
薄
薛
薦
薰
藍
藏
藥
蘭
虍
虎
虐
虒
虔
處
虖
虗
虘
虚
虛
虜
虞
虫
虽
蚤
蚩
蜀
蜜
蟲
蠡
血
行
衍
衛
衣
衤
表
衮
衰
袁
袞
褭
褱
襄
襾
西
覀
要
覃
見
規
覓
覧
親
覽
见
角
解
言
訁
訇
計
詹
語
誩
諸
讠
试
语
谷
豆
豈
豊
豐
豕
豖
豙
象
豦
豩
豪
豸
貇
貝
貞
貟
負
貢
貧
貪
貫
責
貳
貴
買
費
賁
資
賈
賏
賓
賔
賛
賞
賢
賣
質
賴
贊
贝
贡
责
贯
贲
贵
赖
赞
赤
赦
走
越
足
路
蹇
身
躬
車
軍
軎
軟
輦
车
辛
辜
辟
辥
辰
辱
農
辵
辶
边
达
过
近
连
迷
追
退
送
逆
逐
通
速
造
逢
連
逮
進
遀
遂
過
道
達
遣
適
遷
遺
邊
邑
邕
那
邦
邪
郎
部
郭
都
鄉
酉
酋
配
酓
釆
采
里
重
野
量
金
釒
錢
钅
長
镸
长
門
閃
閉
開
閏
閑
閒
間
閔
閵
閻
闌
门
间
闷
阑
阜
阝
阿
降
陳
隆
隊
隋
隡
隨
隱
隶
隹
隺
隻
隼
隽
难
雀
雁
集
雈
雋
雍
雐
雔
雙
雚
雜
雝
離
難
雨
雩
雪
雲
零
雷
需
霍
霜
霝
霞
霸
靈
靑
青
非
靡
面
靣
革
韋
韦
韭
韯
韱
音
頁
頃
項
須
頗
頡
頻
顛
页
風
风
飛
飞
食
飠
養
饣
首
香
馬
馮
駦
马
骨
高
髟
鬥
鬯
鬲
鬼
魚
魯
鮮
鱼
鲁
鳥
鳳
鸟
鹵
鹿
麃
麗
麥
麦
麻
黃
黄
黍
黎
黑
黒
黨
黹
黽
黾
鼎
鼓
鼠
鼻
齊
齋
齐
齒
齿
龍
龙
龜
龟
龠
龰
龱
龴
龵
龶
龷
龸
龹












































































































者
艹
ﭖ
ﭘ
ﭙ
ﭼ
ﭽ
ﮊ
ﮋ
ﮎ
ﮏ
ﮐ
ﮑ
ﮔ
ﮕ
ﮞ
ﯤ
ﯥ
ﯦ
ﯧ
ﯼ
ﯽ
ﯾ
ﯿ
﴾
﴿
ﷲ
ﷺ
ﷻ
ﺀ
ﺁ
ﺂ
ﺃ
ﺄ
ﺅ
ﺆ
ﺇ
ﺉ
ﺊ
ﺋ
ﺌ
ﺍ
ﺎ
ﺏ
ﺐ
ﺑ
ﺒ
ﺓ
ﺔ
ﺕ
ﺖ
ﺗ
ﺘ
ﺙ
ﺚ
ﺛ
ﺜ
ﺝ
ﺟ
ﺠ
ﺡ
ﺢ
ﺣ
ﺤ
ﺥ
ﺦ
ﺧ
ﺨ
ﺩ
ﺪ
ﺫ
ﺬ
ﺭ
ﺮ
ﺯ
ﺰ
ﺱ
ﺲ
ﺳ
ﺴ
ﺵ
ﺶ
ﺷ
ﺸ
ﺹ
ﺺ
ﺻ
ﺼ
ﺽ
ﺿ
ﻀ
ﻁ
ﻂ
ﻃ
ﻄ
ﻆ
ﻇ
ﻈ
ﻉ
ﻊ
ﻋ
ﻌ
ﻍ
ﻏ
ﻐ
ﻑ
ﻒ
ﻓ
ﻔ
ﻕ
ﻖ
ﻗ
ﻘ
ﻙ
ﻚ
ﻛ
ﻜ
ﻝ
ﻞ
ﻟ
ﻠ
ﻡ
ﻢ
ﻣ
ﻤ
ﻥ
ﻦ
ﻧ
ﻨ
ﻩ
ﻪ
ﻫ
ﻬ
ﻭ
ﻮ
ﻯ
ﻰ
ﻱ
ﻲ
ﻳ
ﻴ
ﻻ
ﻼ
（
）
，
１
２
３
４
５
６
８
：
？
￼
�
𐬀
𒌋
👇
💖
💙
💚
💛
💜
𠀁
𠀃
𠀆
𠀉
𠀎
𠀐
𠁁
𠁣
𠂆
𠂇
𠂈
𠂉
𠂊
𠂋
𠂎
𠂒
𠂔
𠂛
𠂡
𠂢
𠂤
𠂬
𠂭
𠂹
𠃊
𠃋
𠃌
𠃍
𠃎
𠃑
𠃓
𠃔
𠃜
𠄌
𠄎
𠄠
𠄢
𠆢
𠆥
𠇍
𠈌
𠌵
𠓜
𠔉
𠔥
𠔼
𠔽
𠔿
𠕀
𠕁
𠕋
𠘧
𠘨
𠙻
𠙼
𠚏
𠚒
𠚤
𠚪
𠣏
𠤎
𠤕
𠥓
𠦄
𠦑
𠦝
𠧒
𠧗
𠧪
𠩺
𠪚
𠫓
𠫔
𠫤
𠬛
𠬝
𠬞
𠬢
𠬤
𠬶
𠮛
𠮦
𠮷
𠯑
𠱠
𠳮
𠷎
𡈼
𡉀
𡉵
𡌥
𡍮
𡏳
𡕒
𡕩
𡕰
𡖅
𡗗
𡗜
𡘆
𡘤
𡧱
𡨄
𡩧
𡬠
𡭽
𡰣
𡰥
𡰪
𡰯
𡰱
𡷈
𡸁
𡿨
𡿩
𡿪
𡿺
𢀖
𢀛
𢀩
𢁙
𢆉
𢆰
𢆶
𢇁
𢇇
𢉖
𢌬
𢌿
𢏚
𢑑
𢑚
𢖻
𢙣
𢛳
𢦏
𢦒
𢧵
𢼄
𢾕
𣁋
𣄼
𣅀
𣅽
𣍘
𣎳
𣎵
𣏋
𣏼
𣗥
𣥂
𣥖
𣦵
𣦼
𣧄
𣪊
𣪠
𣬉
𣳾
𣶒
𤇾
𤊽
𤐫
𤓰
𤔔
𤕨
𤣩
𤰇
𤰔
𤰞
𤴓
𤴔
𤽄
𥁑
𥁕
𥃦
𥃩
𥃭
𥇡
𥑟
𥘅
𥘈
𥝢
𥫗
𥱡
𦈢
𦉪
𦉬
𦉼
𦍌
𦍒
𦎧
𦐇
𦓔
𦔮
𦘒
𦙃
𦚏
𦣝
𦣞
𦣻
𦥑
𦥔
𦥯
𦨉
𦭝
𦰩
𧆞
𧈧
𧘇
𧰨
𧴪
𧴮
𧵩
𧾷
𨸏
𨾴
𩙿
𩠐
𩫏
𩵋
𪉷
𪜀
𪟽
𪠲
𪩲
𫇦
𫔭
𫜸
𫝀
𫠣
𫠩
𫢉
𫥞
𫩏
𫩠
𫪡
𫲽
𫶧
𬀷
𬐘
𬗌
𬙙
𬛸
𬜯
𬟩
𬯁
𬴘
𬺻
𬼉
𬼖
𭀰
𭁈
𭁨
𭅰
𭑈
𭕄
𭗼
𭤨
𭥫
𭻾
𮅕
𮊿
𮍌
𮍏
𮓗
𮥼
𮧮
廾
𰀁
𰀄
𰀈
𰀉
𰀕
𰀠
𰀡
𰀢
𰀪
𰁜
𰃮
𰆊
𰆘
𰋙
𰕎
𰢴
𰧭
𰯲
00--
01--
07--
09--
47--
57--
65--
70--
73--
76--
80--
81--
85--
86--
98--
a--
aa--
aaa--
ab--
abbrev--
abhs--
abolit--
abor--
ac--
achi--
acqu--
ad--
add--
advan--
adve--
advo--
ae--
aero--
af--
affi--
ag--
agro--
ah--
ai--
air--
aj--
ak--
al--
ali--
all--
alu--
am--
amba--
amka--
an--
analy--
anc--
anim--
annotat--
anony--
anth--
anthropo--
anti--
anto--
any--
ap--
api--
apol--
appre--
aq--
ar--
arch--
arge--
as--
asso--
aste--
astr--
astron--
at--
atta--
au--
aus--
auto--
av--
aw--
ax--
ay--
az--
azad--
b--
ba--
back--
bact--
bal--
bar--
bb--
bc--
bd--
be--
beau--
bel--
bela--
ben--
ber--
bf--
bg--
bh--
bi--
bibli--
bio--
bir--
biyi--
bj--
bk--
bla--
bli--
blo--
blu--
bmk--
bmkwm--
bmkx--
bmkxr--
bmky--
bml--
bn--
bo--
bol--
bot--
boy--
bp--
br--
brad--
brit--
bro--
bs--
bt--
bu--
buck--
bul--
bur--
bv--
bw--
by--
bz--
c--
ca--
cal--
calcu--
cali--
can--
capt--
cari--
carn--
carp--
carr--
cart--
cat--
cauc--
cave--
cb--
cc--
cd--
ce--
cele--
cent--
ceph--
cere--
cert--
cf--
ch--
cham--
chap--
char--
che--
chlo--
ci--
cir--
circu--
cl--
clim--
cm--
cn--
co--
coa--
coll--
collab--
colo--
com--
communi--
conc--
concen--
conclu--
cond--
cons--
consis--
constr--
cont--
contri--
contro--
conv--
copy--
corn--
corr--
cos--
cp--
cr--
create--
cs--
ct--
cu--
cur--
cv--
cy--
cycl--
cz--
d--
da--
data--
dau--
db--
dc--
dd--
de--
defe--
defi--
del--
demo--
demons--
den--
depen--
df--
dh--
di--
dia--
dict--
diff--
dimen--
dio--
dipl--
disa--
disc--
discip--
diso--
disp--
diss--
dist--
div--
dl--
dm--
do--
down--
dp--
dq--
dr--
ds--
dt--
du--
dw--
dx--
dy--
dyna--
dz--
e--
ea--
eb--
ec--
ed--
edit--
ee--
ef--
effi--
eg--
ehr--
ei--
ej--
el--
elec--
elim--
em--
emer--
emir--
emot--
emph--
en--
end--
enha--
eo--
ep--
epid--
epis--
episte--
epit--
equ--
equat--
equiv--
er--
es--
et--
ethi--
ety--
eu--
euro--
ev--
eval--
ex--
exam--
exce--
excl--
exec--
expe--
expl--
explorat--
ext--
extra--
ey--
f--
fa--
faci--
fal--
fb--
fc--
fd--
fe--
fest--
ff--
fh--
fi--
file--
fire--
first--
fl--
flor--
fm--
fn--
fo--
for--
fq--
fr--
frag--
fs--
fu--
full--
g--
ga--
gall--
gar--
gb--
gd--
ge--
geo--
get--
gf--
gg--
gh--
gi--
gill--
gio--
gl--
global--
gly--
gm--
gn--
go--
god--
gp--
gr--
grad--
green--
gro--
gt--
gu--
guar--
guil--
gwa--
h--
ha--
har--
has--
haw--
hay--
hb--
hd--
he--
head--
hel--
hell--
hemo--
her--
hete--
hg--
hh--
hi--
hide--
high--
hipp--
his--
hl--
hn--
ho--
hol--
home--
homo--
hp--
hr--
ht--
hu--
hv--
hy--
hybr--
hydr--
hyp--
hyper--
hypot--
i--
ia--
ib--
ic--
id--
ie--
if--
ig--
ii--
ij--
ik--
il--
illu--
im--
impl--
implem--
in--
incor--
incorpo--
infe--
infl--
influ--
inha--
inhi--
insp--
inst--
instru--
int--
inter--
inve--
investigat--
io--
ip--
iq--
ir--
irri--
is--
iso--
it--
iu--
iv--
iw--
iz--
j--
ja--
jb--
je--
jen--
jer--
jes--
ji--
jo--
js--
ju--
jud--
jurisd--
k--
ka--
kal--
kath--
kauf--
kb--
ke--
key--
kg--
kh--
khy--
ki--
kla--
km--
kn--
ko--
kp--
kr--
kt--
ku--
kv--
kw--
ky--
l--
la--
land--
last--
laun--
laur--
lb--
ld--
le--
let--
leuk--
lf--
lh--
li--
libr--
lind--
ling--
list--
lit--
ll--
ln--
lo--
load--
long--
lt--
lu--
lv--
ly--
m--
ma--
mac--
maca--
mace--
maci--
mad--
magn--
mah--
main--
mal--
man--
manif--
manuf--
mar--
max--
mb--
mc--
md--
me--
mech--
medi--
men--
mer--
meso--
mess--
meta--
metro--
mey--
mf--
mg--
mi--
micro--
mid--
mil--
min--
miss--
mj--
ml--
mm--
mn--
mo--
modificat--
mona--
mono--
mont--
more--
morpho--
mort--
mp--
mr--
ms--
mt--
mu--
multi--
muta--
mutu--
mw--
mx--
my--
myst--
mz--
n--
na--
narr--
navi--
nb--
nc--
nd--
ne--
nece--
neo--
neur--
new--
nf--
ng--
nh--
ni--
nj--
nl--
nn--
no--
node--
non--
nor--
north--
not--
notificat--
np--
nr--
ns--
nt--
nu--
nv--
nw--
ny--
nz--
o--
oa--
ob--
obli--
obse--
observat--
obta--
oc--
occa--
od--
ody--
of--
off--
og--
oh--
oi--
oj--
ok--
ol--
old--
om--
on--
oo--
op--
or--
os--
ot--
ou--
out--
over--
ox--
oxi--
oz--
p--
pa--
pac--
page--
pal--
paleo--
pan--
par--
param--
patr--
pay--
pb--
pc--
pd--
pe--
pen--
per--
pet--
pf--
pg--
ph--
pharma--
phen--
phi--
phy--
physi--
pi--
pix--
pl--
play--
plea--
plut--
pm--
pmj--
po--
pol--
politic--
poll--
pop--
popup--
post--
pp--
pq--
pr--
pre--
prim--
priv--
pro--
ps--
pseu--
psych--
pt--
pu--
pv--
pw--
px--
py--
pz--
q--
qa--
qb--
qc--
qd--
qf--
qh--
qjxq--
qu--
query--
r--
ra--
rail--
ram--
ranf--
rb--
rd--
re--
rece--
reci--
reco--
recom--
red--
redir--
ref--
rein--
rej--
rele--
reli--
rend--
rep--
repli--
rev--
rf--
rh--
ri--
rk--
rm--
rn--
ro--
roll--
rou--
rp--
rs--
rt--
ru--
run--
rv--
ry--
s--
sa--
sal--
san--
sar--
satu--
sax--
sb--
sc--
sch--
scha--
scho--
scri--
scroll--
sd--
se--
ser--
serv--
set--
sf--
sh--
show--
si--
simp--
simple--
sk--
skep--
sl--
slo--
sm--
sn--
so--
some--
sp--
spec--
spel--
sprach--
sq--
sr--
ss--
st--
ste--
ster--
str--
strep--
sty--
su--
sub--
subse--
subst--
succ--
suff--
sum--
sun--
sup--
super--
sur--
sv--
sw--
sy--
sylv--
symb--
symp--
t--
ta--
tab--
tag--
talk--
tb--
tc--
te--
tele--
temp--
ten--
terr--
text--
tf--
tg--
th--
the--
thor--
thumb--
thur--
thy--
ti--
tl--
tm--
to--
toc--
tole--
tom--
top--
tort--
touc--
tp--
tr--
tra--
trans--
trib--
trot--
ts--
tt--
tu--
tv--
tw--
ty--
typ--
tz--
u--
ua--
ub--
uc--
ud--
uf--
uga--
uh--
ui--
uk--
ul--
un--
under--
up--
ur--
us--
user--
ut--
uv--
uw--
ux--
uz--
v--
va--
van--
var--
vd--
ve--
vent--
vers--
vf--
vi--
view--
violat--
vir--
vl--
vo--
vol--
vr--
vs--
vua--
vuatf--
vuauz--
vul--
vz--
w--
wa--
wag--
wah--
waj--
wal--
war--
waw--
wax--
wb--
wblagqbanfbab--
wc--
wd--
we--
weig--
wel--
west--
wf--
wg--
wgcanonical--
wh--
what--
whit--
wi--
wiki--
wikt--
wil--
wind--
wl--
wm--
wo--
won--
wood--
wp--
wr--
ws--
wt--
wu--
ww--
wy--
x--
xi--
xp--
xx--
y--
ya--
yel--
yi--
yp--
yu--
z--
za--
ze--
zh--
zi--
zoo--
zu--
zy--
α--
γ--
δ--
θ--
κ--
λ--
μ--
ν--
ο--
π--
ρ--
σ--
τ--
д--
к--
м--
н--
с--
ا--
اب--
ابا--
ابال--
ابر--
ابهی--
ابو--
ابوال--
ابی--
ات--
اتر--
اتشف--
اتمان--
اتو--
اث--
اثر--
اج--
اجر--
اجرا--
اح--
احت--
احص--
احم--
احمد--
اخ--
اختص--
اخې--
اد--
ادا--
ادب--
اذ--
ار--
ارا--
ارب--
ارت--
ارد--
ارز--
ارغ--
ارو--
اروم--
از--
ازاد--
اس--
اسام--
است--
اسلام--
اسم--
اسي--
اسټ--
اسپ--
اسیت--
اسې--
اش--
اص--
اصط--
اض--
اط--
اع--
اعض--
اغ--
اغا--
اف--
اق--
اك--
ال--
الا--
الب--
الت--
الث--
الج--
الح--
الخ--
الد--
الر--
الز--
الس--
السب--
الش--
الص--
الض--
الط--
الع--
الغ--
الف--
الفا--
الق--
الك--
الل--
الم--
المست--
الن--
اله--
الو--
الي--
اليکټ--
الپ--
الک--
الکترو--
الکټ--
الی--
الې--
ام--
اما--
امر--
امفی--
امو--
امير--
امپ--
امپری--
امیر--
امې--
ان--
انا--
انت--
انترو--
انتروپو--
اند--
اندو--
اندي--
انس--
انش--
انطا--
انف--
انو--
انټر--
انډ--
انډو--
انک--
انګ--
اه--
او--
اوا--
اوب--
اوبر--
اوبو--
اوتر--
اوج--
اود--
اودا--
اور--
اورا--
اورشې--
اورې--
اوز--
اوس--
اوسپ--
اوص--
اوق--
اول--
اولس--
اوم--
اون--
اونور--
اونورو--
اوه--
اوهم--
اوو--
اويا--
اوټ--
اوډ--
اوړ--
اوړې--
اوږد--
اوښ--
اوک--
اوګ--
اوې--
اي--
ايا--
ايت--
اير--
ايز--
ايزو--
ايس--
ايل--
ايم--
اين--
اينز--
ايډ--
اټ--
اپ--
اپار--
اپن--
اپي--
اچ--
اډ--
اډی--
اړ--
اړيك--
اړې--
اژ--
اک--
اکا--
اکت--
اکر--
اکس--
اکسید--
اکو--
اکټ--
اکېډ--
اګ--
اګر--
اګن--
اګو--
ای--
ایا--
ایت--
ایدی--
ایرو--
ایز--
ایس--
ایسټ--
ایل--
ایم--
این--
ایو--
ایپ--
ایک--
ایکو--
اې--
اېس--
اېل--
اېم--
اېن--
اېنز--
اېډی--
ب--
با--
باب--
بابکر--
باد--
بار--
باز--
باس--
باغ--
بال--
بام--
بانک--
باو--
باي--
بايد--
بايدد--
باک--
بای--
بایو--
بت--
بح--
بحر--
بخت--
بخښ--
بد--
بدا--
بدر--
بدل--
بدن--
بدو--
بر--
برا--
برخو--
برط--
برن--
برو--
بري--
برټ--
برژ--
برک--
برګ--
بری--
برې--
برېټا--
برېښ--
بز--
بزر--
بس--
بش--
بشر--
بص--
بط--
بطلي--
بــ--
بل--
بلا--
بلد--
بلو--
بلک--
بم--
بن--
بنا--
بند--
بنګ--
بنګلا--
به--
بها--
بهاو--
بهر--
بهې--
بو--
بوت--
بور--
بوز--
بوس--
بول--
بوم--
بون--
بوهی--
بوي--
بوټ--
بوټو--
بوږ--
بوک--
بوګ--
بي--
بيا--
بياد--
بيل--
بين--
بيو--
بيړ--
بټ--
بډ--
بډو--
بړ--
بک--
بکس--
بگ--
بڼ--
بھ--
بی--
بیا--
بیت--
بیر--
بیز--
بیس--
بیش--
بیل--
بین--
بیو--
بیورو--
بیړ--
بې--
بېخ--
بېل--
بېن--
بېوز--
ت--
تا--
تاب--
تاج--
تار--
تال--
تان--
تاو--
تاوې--
تاي--
تای--
تب--
تبر--
تت--
تث--
تجر--
تجه--
تح--
تحر--
تخ--
تد--
تذ--
تر--
ترا--
ترن--
تره--
ترو--
تروم--
تري--
ترڅو--
تری--
ترې--
تز--
تس--
تش--
تشري--
تص--
تض--
تع--
تعا--
تغ--
تغير--
تــ--
تف--
تفا--
تق--
تقر--
تك--
تكر--
تل--
تلق--
تلو--
تم--
تن--
تنو--
تنګ--
ته--
تو--
توب--
توت--
تور--
توغ--
تول--
توليد--
توي--
توپ--
توک--
توکم--
توی--
تي--
تيت--
تير--
تيز--
تيل--
تيکن--
تړ--
تښ--
تښتی--
تښتې--
تک--
تکفې--
تګ--
تگ--
تڼ--
تڼا--
تی--
تیت--
تیر--
تې--
تېر--
ث--
ثبت--
ثر--
ثم--
ج--
جا--
جال--
جان--
جبر--
جد--
جدا--
جذا--
جذب--
جر--
جراث--
جرم--
جز--
جس--
جع--
جغر--
جغراف--
جل--
جلا--
جم--
جمج--
جن--
جنت--
جنس--
جني--
جنګ--
جنگ--
جنی--
جنې--
جه--
جو--
جون--
جوړ--
جي--
جيل--
جيو--
جک--
جګ--
جگ--
جگو--
جی--
جین--
جیو--
جې--
جېنې--
ح--
حا--
حال--
حب--
حج--
حد--
حر--
حز--
حس--
حص--
حق--
حكم--
حل--
حما--
حمد--
حمور--
حن--
حو--
حوا--
حکا--
حې--
حېران--
خ--
خا--
خاطر--
خال--
خان--
خاک--
خبر--
خت--
ختم--
خدمت--
خدی--
خذ--
خر--
خري--
خرڅ--
خز--
خس--
خص--
خض--
خط--
خطر--
خل--
خلکو--
خم--
خن--
خنز--
خو--
خوا--
خوار--
خوب--
خود--
خوش--
خوټې--
خوځ--
خوځې--
خوږ--
خوښ--
خوی--
خي--
خير--
خپر--
خپل--
خپلو--
خړ--
خښ--
خی--
خیر--
خې--
د--
دا--
داب--
داد--
دار--
دارال--
داس--
داست--
داص--
داض--
داع--
داغ--
داف--
داقتص--
دال--
دالديهاي--
دالکتر--
دام--
دان--
داو--
داوبو--
داور--
داي--
داړ--
دای--
داې--
دب--
دباد--
دبهر--
دبي--
دت--
دتا--
دتايرايد--
دتر--
دح--
دخ--
دخپلو--
دد--
ددي--
در--
درا--
درد--
درس--
درمل--
درو--
دري--
درک--
دز--
دس--
دست--
دسر--
دش--
دع--
دعا--
دعض--
دغ--
دغو--
دف--
دفا--
دفع--
دق--
دل--
دلا--
دلر--
دلمر--
دلن--
دلو--
دلوړ--
دم--
دمار--
دمالي--
دمجاه--
دمح--
دمخ--
دمر--
دمرک--
دمشر--
دمشه--
دمط--
دمع--
دمل--
دملګرو--
دمن--
دمو--
دمړ--
دن--
دنا--
دند--
دنن--
دنور--
دنورو--
ده--
دهاي--
دهر--
دهغو--
دهم--
دهوا--
دو--
دوا--
دود--
دور--
دول--
دوم--
دونو--
دوو--
دوي--
دوړ--
دوی--
دي--
ديا--
دين--
ديو--
ديکتا--
دټولو--
دپ--
دڅو--
دچا--
دډبرو--
دژوند--
دښو--
دک--
دکار--
دکر--
دکلي--
دکم--
دکور--
دګو--
دگ--
دی--
دیاد--
دیمو--
دین--
دیو--
دیپل--
دې--
دېمو--
ذ--
ذا--
ذر--
ذوال--
ذي--
ذکر--
ر--
را--
رابرسې--
راج--
راخ--
راخې--
راز--
راس--
رام--
ران--
راه--
راو--
راوس--
راون--
راي--
راپار--
راپر--
راډي--
راډیو--
راښ--
راک--
رای--
رب--
ربړ--
رت--
رج--
رح--
رخ--
رد--
رس--
رستور--
رسم--
رش--
رضا--
رغ--
رغا--
رغو--
رغې--
رف--
رفا--
رق--
رم--
رمز--
رن--
رنځ--
رنګ--
ره--
رو--
روا--
روان--
روبا--
روت--
رود--
روز--
روزن--
روس--
روش--
روغ--
روم--
رون--
روډ--
روښ--
روڼ--
ري--
ريا--
ريښ--
رټ--
رپ--
رښ--
رښتی--
رک--
رګ--
رڼا--
ری--
ریا--
ریبو--
ریز--
ریس--
رین--
ریو--
ریښ--
ریک--
رې--
رېښ--
ز--
زا--
زاخ--
زاخې--
زاد--
زار--
زاو--
زاي--
زاپ--
زبي--
زد--
زر--
زرو--
زلز--
زم--
زما--
زمين--
زن--
زنا--
زنګ--
زه--
زو--
زور--
زوړ--
زي--
زير--
زيږ--
زيږې--
زړ--
زی--
زیر--
زیږ--
زیږې--
زې--
زېږ--
زېږيد--
زېږید--
س--
سا--
ساتن--
ساز--
ساق--
سال--
[...]
