!
"
#
##0
##1
##10
##11
##12
##13
##14
##15
##16
##17
##18
##19
##2
##20
##21
##22
##23
##24
##25
##26
##27
##28
##29
##3
##30
##31
##32
##33
##34
##35
##36
##37
##38
##39
##4
##40
##41
##42
##43
##44
##45
##46
##47
##48
##49
##5
##50
##51
##52
##53
##54
##55
##56
##57
##58
##59
##6
##60
##61
##62
##63
##64
##65
##66
##67
##68
##69
##7
##70
##71
##72
##73
##74
##75
##76
##77
##78
##79
##8
##80
##81
##82
##83
##84
##85
##86
##87
##88
##89
##9
##90
##91
##92
##93
##94
##95
##96
##97
##98
##99
$
%
&
'
(
)
*
+
,
-
.
/
0
00
000
00000
0001
0002
0003
0004
0006
001
0010
0012
002
0021
0022
0027
0028
003
0031
0033
0036
004
005
006
007
008
009
0091
01
010
011
012
013
014
0140
015
016
0169
017
018
019
02
020
021
03
030
0305
04
0464
0486
05
06
060
07
08
0836
09
1
10
100
1000
1001
1002
1006
1007
1007600702
101
1016
1017
102
1021
1023
1024
1029
103
1037
1038
1039
104
1046
105
1051
1056
1057
106
1063
107
1073
1079
108
1080
1086
1088
1089
109
1093
1094
1095
1097
1098
11
110
1100
1101
1103
1108
1109
111
1111
112
1126
1128
113
1130
1136
114
1146
115
1159
116
1162
1163
117
1175
1177
118
1186
119
12
120
1200
121
12148
1215
122
123
124
125
1257
126
127
128
129
13
130
1300
131
132
133
134
135
1350
1353
1356
136
1365
137
1371
138
1380
139
1395
14
140
1400
141
142
143
144
145
1450
146
1467
1468
1469
147
1476
148
149
1492
15
150
1500
151
1515
152
1525
1526
153
1534
1538
154
155
156
157
1573
158
159
16
160
1600
161
162
163
164
165
16553580
166
1660
167
168
169
17
170
1700
1707
171
172
1723
173
174
1745
1748
1749
175
1750
1752
1757
1758
176
1760
177
1776
178
1780
1783
1787
1788
1789
179
1792
1793
18
180
1800
1801
1803
1806
1808
181
1810
1812
1813
1814
1815
1818
182
1820
1821
1824
1825
1826
1827
183
1830
1832
1833
1834
1835
1837
1839
184
1840
1841
1843
1845
1846
1847
1848
1849
185
1850
1851
1852
1853
1854
1855
1856
1857
1858
1859
186
1860
1861
1862
1863
1864
1865
1866
1867
1868
1869
187
1870
1871
1872
1873
1874
1875
1876
1877
1878
1879
188
1880
1881
1882
1884
1885
1886
1887
1888
1889
189
1890
1891
1892
1893
1894
1895
1896
1897
1898
1899
19
190
1900
1901
1902
1903
1904
1905
1906
1907
1908
1909
191
1910
1911
1912
1913
1914
1915
1916
1917
1918
1919
192
1920
1921
1922
1923
1924
1925
1926
1927
1928
1929
193
1930
1931
1932
1933
1934
1935
1936
1937
1938
1939
194
1940
1941
1942
1943
1944
1945
1946
1947
1948
1949
195
1950
1951
1952
1953
1954
1955
1956
1957
1958
1959
196
1960
1961
1962
1963
1964
1965
1966
1967
1968
1969
197
1970
1971
1972
1973
1974
1975
1976
1977
1978
1979
198
1980
1981
1982
1983
1984
1985
1986
1987
1988
1989
199
1990
1991
1992
1993
1994
1995
1996
1997
1998
1999
2
20
200
2000
2001
2002
2003
2004
2005
2006
2007
2008
2009
201
2010
2011
2012
2013
2014
2015
2016
2017
2018
2019
202
2020
2021
2022
2025
203
2030
204
2041
205
2050
206
207
208
209
21
210
211
212
213
214
215
216
217
218
219
22
220
221
222
223
224
225
226
227
228
229
23
230
2307
231
232
233
234
235
236
237
238
239
24
240
241
242
243
244
245
246
247
248
249
25
250
2500
251
252
253
254
255
256
257
258
259
26
260
261
262
263
264
265
266
267
268
269
27
270
271
272
273
274
275
276
277
278
279
28
280
281
282
283
284
285
286
287
288
289
29
290
291
292
293
294
295
296
297
298
299
3
30
300
3000
301
302
303
304
305
306
307
308
309
31
310
311
312
313
314
315
316
317
318
319
32
320
321
322
323
324
325
326
327
328
329
33
330
331
332
333
334
335
336
337
338
3389
339
3390
34
340
341
342
343
344
345
346
347
348
349
35
350
3500
351
352
353
354
355
356
357
358
359
36
360
361
362
363
364
365
366
367
368
369
37
370
371
372
373
374
375
376
377
378
379
38
380
381
382
383
384
385
386
387
388
389
39
390
391
392
393
394
395
396
397
398
399
4
40
400
4000
401
402
4020
403
404
405
4051
406
407
408
409
41
410
411
412
413
414
415
41586
41598
416
417
418
419
42
420
421
422
423
424
425
426
427
429
43
430
431
432
4324
433
434
4342
435
436
437
438
439
44
440
441
4419
442
443
444
445
446
447
448
449
45
450
451
452
453
454
455
456
457
458
459
46
460
461
462
463
4638
464
465
466
467
468
4687
469
47
470
471
472
473
474
475
476
477
479
48
480
481
482
483
484
486
487
488
489
49
490
491
492
493
494
495
497
498
499
5
50
500
5000
501
502
503
504
505
506
507
508
509
51
510
511
512
513
514
515
516
517
518
519
52
520
521
522
523
524
525
526
527
528
529
53
530
531
532
533
534
535
536
537
538
539
54
540
541
542
543
544
545
546
547
549
55
550
551
553
554
555
557
559
56
561
563
565
567
569
57
570
571
575
577
579
58
581
582
584
585
587
588
59
591
593
594
595
597
598
6
60
600
6036
607
608
61
610
612
613
617
618
62
620
621
624
625
627
629
63
630
631
635
637
64
640
641
642
643
645
65
650
651
652
66
661
664
665
67
670
671
6736
674
677
679
68
684
69
691
7
70
700
7000
709
71
710
7167
72
720
721
73
74
75
750
76
765
77
78
79
7929
8
80
800
8018
802
8028
8047
805
8075
81
8153
8160
82
820
83
84
8424
8493
85
853
855
86
87
88
89
9
90
900
91
911
92
920
93
94
95
953
96
97
978
9780198606697
9780521862516
9781884446054
98
981
99
99166
:
;
<
=
>
?
@
[
\
]
^
_
`
a
aa
aaas
aaron
ab
abad
abbasi
abbott
abc
abd
abdominal
abduh
abdul
abdullah
abe
abernathy
aberta
abierta
ability
abingdon
able
abolition
abortion
about
aboutus
above
abraham
abrams
abroad
abs
absence
absolute
abstract
abu
abundance
abuse
ac
acacia
acad
acade
academia
academic
academies
academy
accademia
accademiadellescienze
accept
acceptance
accepted
access
accessdate
accessed
accession
accident
according
account
accounting
accounts
accumulation
accurate
accused
achieve
achievement
acid
acidification
acids
aclu
acm
acp
acquisition
acref
across
acs
act
acta
acting
action
actions
active
activism
activist
activists
activities
activity
actor
actors
actress
acts
actual
actually
acute
ad
ada
adam
adams
adaptation
adaptive
adatok
add
addams
added
addison
addition
additional
address
adenauer
adherents
adj
adjective
adler
administration
administrative
adolescent
adolphe
adopted
adoption
adrian
adult
adults
adv
advance
advanced
advancement
advances
advantage
advantages
adventures
adverb
advice
advisory
advocate
ae
aesthetics
af
affairs
affect
afghan
afghanistan
afghans
afp
africa
african
africans
after
ag
again
against
agatha
age
aged
agence
agencies
agency
agenda
agent
agents
ages
aggression
aging
agnes
agnosticism
ago
agree
agreed
agreement
agreements
agricultural
agriculture
agro
ags
ague
ah
ahead
ahmad
ahmed
ai
aid
aids
aim
aims
air
aircraft
airport
ais
aise
aj
ak
akbar
akin
akl
al
ala
alabama
alan
alaska
alba
albania
albany
albert
alberto
alcohol
alcott
aldridge
aleph
alessandro
alex
alexander
alexanderstreet
alexandra
alexandria
alexis
alfonso
alfred
algae
algeria
ali
alice
alien
aligned
alison
aljazeera
all
alla
allah
allan
allen
alliance
allied
allies
allison
allow
allowed
ally
almanac
almost
alone
along
alongside
alp
alpha
alphabet
already
als
also
alt
alter
alternative
although
alumni
always
am
amanda
amartya
amazon
ambassador
ambedkar
ambrose
ambulance
ame
amendment
amendments
america
american
americana
americans
americas
amherst
amid
amin
amino
amir
ammad
amnesty
among
amount
amp
amsterdam
amy
an
ana
analyses
analysis
analytical
anarchism
anarchist
anarchists
anarcho
anarchy
anatolia
anatomy
anb
anc
ancestor
ancestors
ancestry
ancient
and
anders
anderson
andmete
andre
andrea
andreas
andrei
andrew
andrews
android
andy
andyal
angela
angeles
anger
anglo
angola
angry
angus
animal
animals
animation
ankara
ann
anna
annales
annals
anne
annex
annie
anniversary
annotated
annotation
announces
annuaire
annual
annurev
another
anscombe
answer
answers
ant
antarctica
anthology
anthony
anthropocene
anthropogenic
anthropological
anthropology
anti
antibiotic
antibiotics
antibody
antimicrobial
antiquity
antisemitism
anton
antonio
antony
anu
anxiety
any
anyone
anything
aol
ap
apa
apart
apartheid
aperti
api
apj
apollo
app
apparent
appeal
appeals
appear
appearance
appears
appendix
appl
apple
appleton
application
applications
applied
apply
appointed
approach
approaches
appropriate
approval
approved
approves
approximately
apps
apr
april
aps
aq
aquatic
ar
ara
arab
arabia
arabian
arabic
arabs
archaeological
archaeology
archaic
archimedes
archinform
architecture
archive
archived
archivedate
archives
archivio
arctic
are
area
areas
arena
areu
argentina
argue
argued
argument
arguments
arid
ariel
aristotle
arizona
ark
arm
armed
armenia
armenian
armenians
arms
armstrong
army
arnold
aron
around
arrest
arrested
ars
art
arthur
article
articles
artificial
artist
artists
arts
arxiv
aryan
as
asa
asean
ash
asher
ashgate
ashley
asia
asian
asiatic
aside
asimov
asin
ask
asked
asp
aspect
aspects
aspx
asquith
assange
assassination
assault
assembly
assessing
assessment
asset
assets
assimilation
assistance
assistant
associated
associates
association
assured
assyrian
ast
asteroid
astrobiology
astronomical
astronomy
astrophysical
astrophysics
asylum
at
atatu
atheism
atheist
athens
atkinson
atkla
atlantic
atlas
atm
atmosphere
atmospheric
atom
atomic
atp
attack
attacks
attempt
attempted
attempts
attention
attitude
attitudes
attorney
attribution
atvira
au
audi
audio
audrey
auf
aug
august
auguste
augustine
augustus
aung
aus
austerity
austin
australia
australian
australopithecus
austria
austrian
aut
auteur
author
authoritarian
authorities
authority
authors
auto
autobiography
automobile
autonomous
autonomy
autumn
av
available
avatud
average
aviation
avoid
avoimen
avrich
award
awards
awareness
away
axis
ay
ayn
az
azerbaijan
aziz
b
ba
babbage
babel
babelio
babur
baby
babylon
babylonian
back
background
bacon
bacteria
bacterial
bad
bag
baghdad
baha
bahrain
bailey
baker
bal
balance
baldwin
balfour
balkan
balkans
balkh
ball
ballard
baltimore
bams
ban
band
bang
bangkok
bangladesh
bank
banking
banks
bankı
bannon
baptist
bar
barack
barbara
bare
barker
barnes
barnum
baron
barrett
barrier
barry
barth
bartik
bartleby
bartlett
barton
baruch
bas
base
based
bases
basic
basics
basin
basis
bassi
bat
bates
bateson
battle
bauer
baum
bay
bazaar
bb
bbc
bc
bce
bd
be
beach
beacon
bear
bearing
beat
beatrice
beautiful
beauty
beauvoir
became
because
beck
becker
become
becomes
becoming
bed
bedford
beecher
been
before
began
begin
beginning
beginnings
begins
begun
behalf
behavior
behavioral
behaviorism
behaviour
behind
bei
beijing
being
beings
beirut
bel
belarus
belgium
belief
beliefs
believe
believed
bell
belloc
belmont
belong
belonging
below
belt
ben
bench
beneath
benedict
benefit
benefits
benezit
bengal
benjamin
bennett
benson
bentley
benton
benz
ber
berg
berger
bergson
berkeley
berlin
bernard
bernstein
berry
bertrand
best
beta
better
betty
between
beweb
beyer
beyond
bezos
bf
bg
bi
bias
bibcode
bible
bibleverse
biblical
bibliographique
bibliographisches
bibliography
bibliothe
bid
biden
big
biggest
bill
billion
billionaire
billionaires
bin
binary
binding
bing
bingen
bio
biochemical
biochemistry
biodiversity
biogeography
biographical
biographie
biographies
biography
bioinformatics
biol
biological
biology
biomass
biomedical
bios
bioscience
biotechnology
biotic
bipm
bird
birds
birth
birthday
birthplace
bis
bishop
bissau
bit
bitcoin
bitstream
biu
biusante
bjp
black
blackwell
blair
blake
blame
blast
bleaching
blica
blight
blind
bloc
bloch
block
blockchain
blocks
blog
blogs
blogspot
blood
bloom
bloomberg
bloomington
bloomsbury
blow
blue
bluetooth
blunt
bly
bmj
bmw
bn
bnf
bo
board
boas
boat
bob
boca
bodies
body
bold
bolivia
bollywood
boltzmann
bomb
bombay
bombing
bond
bone
bones
book
bookchin
books
boost
booth
border
borders
borges
boris
born
boss
boston
bosworth
bot
botany
both
bottom
boulder
bound
boundaries
boundary
bowler
box
boy
boycott
boyd
boyle
boys
bp
br
brace
brackets
bradford
bradley
brain
branch
branches
brand
braun
brave
brazil
brazilian
bread
break
breaking
breaks
breast
breeding
brent
brett
brexit
brian
bride
bridge
brief
brien
bright
brill
bring
bringing
bristol
britain
britannica
british
broad
broadcast
broadcasting
broadway
brockhaus
broken
bronze
brookings
brooks
brother
brothers
brought
brown
browne
browning
brozovic
bruce
brunei
bruno
brunswick
bryan
bryce
bs
bu
buber
buchanan
buckley
buckminster
budapest
buddha
buddhism
buddhist
budding
budget
buffett
build
building
buildings
built
bulgaria
bulgarian
bull
bulletin
bunsen
burden
bureau
burial
burke
burkina
burma
burnet
burning
burns
burton
bury
bus
bush
business
but
butler
buy
by
byzantine
byzantium
c
ca
cabinet
cable
caco
caesar
cairo
calculation
calculus
caldwell
calendar
calhoun
calif
california
call
called
calling
calls
caltech
calvin
cam
cambodia
cambridge
came
camel
cameron
camouflage
camp
campaign
campaigns
campbell
camps
can
canada
canadian
canal
cancer
candidate
candidates
cannabis
cannon
cannot
canon
cantor
cao
cap
capacity
cape
capita
capital
capitalism
capitalist
capitalists
capitol
capra
captain
capture
captured
car
carbon
card
cardiac
cardiomyopathy
cardiovascular
cards
care
career
careless
carey
caribbean
carl
carlos
carlson
carlyle
carnap
carnegie
carney
carol
carolina
caroline
carpenter
carr
carrie
carried
carrier
carroll
carry
cars
carter
carver
cas
case
cases
cash
cast
castle
castro
casualties
cat
catalana
catalog
catalogo
catalogue
catastrophe
categories
category
catharine
catherine
catholic
catholicism
cato
catt
caucasus
causal
cause
caused
causes
causing
cave
cavendish
caves
cb
cbc
cbignore
cbo
cbs
cc
ccl
ccp
cctv
cd
cdc
cdots
ce
celebrate
celebration
cell
cells
cellular
cengage
censorship
census
cent
center
centers
central
centre
centuries
century
ceo
certain
certificate
cf
cfc
cfm
cgi
ch
cha
chain
chair
chairman
challenge
challenges
challenging
cham
chamber
chamberlain
chambers
champion
chan
chance
chandler
chandra
chang
change
changed
changes
changing
channel
chaos
chap
chapel
chapin
chapman
chapter
chapters
character
characteristics
characters
charge
charity
charles
charlotte
chart
charter
chase
che
chechen
chechnya
check
chelsea
chem
chemical
chemistry
chen
cheney
cheng
chest
chesterton
chi
chicago
chief
chiesacattolica
child
childhood
children
chile
chimpanzee
china
chinese
chip
chisholm
choice
choices
chomsky
choose
chopin
chosen
chre
chris
christ
christian
christianity
christians
christie
christine
christoph
christopher
chromosome
chromosomes
chronic
chronicle
chronological
chronology
chrysanthemum
chu
church
churches
churchill
ci
cia
cicero
cid
cinema
circle
circuit
circular
circulation
circumcision
circumstances
cis
cit
citation
citationclass
cite
cited
cites
cities
citing
citizen
citizens
citizenship
city
civil
civilian
civilians
civilisation
civilization
civilizations
cixous
cker
cl
claim
claimed
claims
claire
clamp
clarendon
clark
clarke
clarkson
clash
class
classes
classic
classical
classics
classification
claude
claudia
clause
clay
cle
clean
cleaning
clear
clearly
clement
clements
cleveland
clifford
climate
climatic
climax
clin
clinical
clinton
clio
clive
clock
close
closed
closely
closer
cloth
clothes
cloud
club
cluster
cm
cn
cnbc
cnet
cnn
co
coal
coalition
coast
coastal
coat
cobiss
coccus
cochrane
code
codes
cognition
cognitive
cohen
cohort
coined
coins
col
cold
cole
coleridge
coli
colin
collaboration
collapse
collected
collection
collections
collective
college
collingwood
collins
colombia
colonial
colonialism
colonies
colonization
colony
color
colorado
colored
columbia
columbus
column
com
combat
combination
combined
combustion
come
comes
coming
command
commander
comment
commentary
comments
commerce
commercial
commission
commissioner
commitment
committed
committee
common
commonly
commons
commonwealth
communal
commune
communication
communications
communism
communist
communists
communities
community
compact
companies
companion
company
comparative
compare
compared
comparing
comparison
compass
compendium
compensation
competition
competitiveness
complementary
complete
completely
complex
complexity
component
components
composed
composition
compound
compounds
comprehensive
computer
computers
computing
con
concept
conception
concepts
conceptual
concern
concerned
concerning
concerns
concise
conclusion
condition
conditions
confederation
conference
confidence
config
confirmed
confirms
conflict
conflicts
confucianism
confused
confusion
congo
congress
congressional
conn
connect
connected
connecticut
connection
connections
connell
connor
conor
conquest
conrad
conscience
conscious
consciousness
consensus
consequences
conservation
conservatism
conservative
conservatives
consider
considerations
considered
consortium
conspiracy
constant
constantine
constantinople
constitution
constitutional
constitutionalism
constraints
construction
consumer
consumption
contact
container
containing
contains
contemporary
content
contents
contested
context
contexts
continent
continental
continue
continued
continuing
continuity
continuum
contract
contrary
contrast
contribution
contributions
control
controlled
controls
controversial
controversies
controversy
convention
conventional
conversation
conversion
conway
cook
cooking
cooper
cooperation
cooperative
copenhagen
coplen
copper
coppice
copy
copyright
cor
coral
corbusier
cord
core
corn
cornell
corner
coronary
coronavirus
corporate
corporation
corps
corpus
correct
correctness
correspondence
corruption
cors
cortez
cos
cosmic
cosmological
cosmology
cosmos
cost
costa
costs
cotton
could
council
count
counter
countries
country
counts
county
coup
courier
course
courses
court
courts
cov
covenant
cover
coverage
covering
covid
cow
cox
cp
cpu
cr
cradle
craig
crane
crash
crawford
crc
create
created
creating
creation
creationism
creative
creator
credit
cretaceous
crick
crime
crimea
crimes
criminal
crisis
criteria
critical
criticism
critics
critique
croatia
croatian
crop
crops
crosby
cross
crossroads
crow
crowd
crown
crucial
crude
cruel
crust
cruz
cry
crystal
cs
cso
ct
cths
ctrl
cu
cub
cuba
cuban
cult
cultural
culture
cultures
cup
currency
current
currents
curriculum
curtis
curve
custom
customs
cut
cutting
cv
cycle
cycles
cynthia
cyprus
cyril
cyrus
cz
czech
d
da
dados
daily
dajov
dale
dalibor
dallas
dam
damage
dame
dan
dana
dance
danger
dangerous
daniel
danish
dans
danych
dar
dari
dark
darkness
darryl
darwin
darwinism
das
data
database
datan
dataplattform
date
dated
dates
dati
dating
datos
datu
datumoj
daughter
daughters
dave
david
davidson
davies
davis
dawes
dawkins
dawn
dawson
day
days
db
dc
dd
ddt
de
dead
deadly
deal
dean
death
deaths
debate
debates
deborah
debt
dec
decade
decades
deccan
december
deception
decision
decisions
declaration
declared
declares
decline
deep
default
defeat
defeated
defence
defends
defense
deficiency
defined
defines
defining
definition
definitions
deforestation
degradation
degree
degrees
degruyter
del
delarge
delhi
delivered
dell
della
delle
delta
dem
demand
demanding
demarcation
democracy
democratic
democrats
demographic
demography
den
denial
denis
denmark
dennis
density
department
dependent
deposits
depression
dept
depth
der
derek
derived
derrida
des
descartes
descendants
descent
deschise
describe
described
describes
description
desert
desertification
design
designation
designjet
desire
deskjet
desmond
despite
destiny
destroyed
destruction
detail
detailed
details
detection
determination
determined
detroit
deutsche
deutschen
deutscher
deutschland
deva
develop
developed
developing
development
developmental
developments
device
devices
dewey
df
dh
di
dia
diagnosis
dialect
dialectical
dialogue
diamond
diana
diane
diaspora
dickinson
dictatorship
dictionaries
dictionary
dictionnaire
did
diderot
didn
die
died
diego
dies
diet
differ
difference
differences
different
differentiation
difficult
diffusion
digg
digital
dignity
dillon
dimensions
din
dio
diogenes
dioxide
diplomacy
diplomat
diplomatic
dir
direct
directed
direction
directions
directly
director
directorate
directory
dirty
dis
disaster
discharge
discipline
discogs
discourse
discover
discovered
discoveries
discovery
discrete
discrimination
discussion
disease
diseases
dish
disinformation
disk
disorder
disorders
dispersal
display
displaystyle
dispute
disraeli
dissent
dissertation
distance
distinct
distinction
distinguish
distinguished
distress
distribution
district
districts
div
divergence
diverse
diversity
divide
divided
divine
division
divorce
dixon
dk
dl
dm
dna
do
doc
docs
doctor
doctrine
document
documentary
documentation
documents
does
doesn
dog
doi
doing
dollar
domain
domestic
domestication
dominant
domination
domingo
don
donald
donbas
done
donetsk
donna
donne
door
dordrecht
dorothy
dos
double
doubleday
doubt
doug
douglas
douglass
dover
down
download
downloadpdf
dp
dr
draft
drake
drama
draw
drawing
dream
dreams
dress
drew
drink
drinking
drive
driven
driver
driving
drop
drosophila
drought
drug
drugs
drum
dry
ds
dt
du
dual
dualism
dublin
duchess
duchy
dudley
due
duke
dumb
duncan
dung
dunn
duomenu
dupree
durham
during
durkheim
dust
dutch
duties
duty
dv
dw
dwight
dworkin
dx
dynamic
dynamics
dynasty
dyson
e
ea
each
earl
earlier
earliest
early
earth
earthen
earthquake
east
eastern
easy
eat
eating
eb
ebert
ec
ecb
eclipse
eco
ecological
ecology
economic
economics
economies
economist
economists
economy
ecosystem
ecosystems
ecs
ecuador
ed
eddy
eden
edgar
edge
edinburgh
edison
edited
edith
editing
edition
editions
editor
editorial
editors
edmund
edna
eds
edu
eduard
eduardo
education
educational
edward
edwards
edwin
ee
eec
eerdmans
ef
effect
effective
effectiveness
effects
efficacy
efficiency
efficient
effort
efforts
efron
efta
egg
egypt
egyptian
ehrlich
ei
eia
eight
eighteenth
eighty
ein
eine
einstein
eisenhower
either
ej
ek
el
elahi
elaine
elder
eleanor
elected
election
elections
electoral
electric
electrical
electricity
electromagnetic
electron
electronic
electronics
element
elements
elena
eleventh
elgar
elias
elimination
eliot
elisabeth
elite
elizabeth
ella
ellen
elliott
ellis
elon
elsevier
em
emancipation
embassy
emerged
emergence
emergency
emerging
emerson
emily
emirates
emission
emissions
emma
emmanuel
emotion
emotional
emotions
emperor
emphasis
empire
empires
empirical
empiricism
employed
employment
empty
en
ena
encarta
enciclope
enciclopedia
enciklopedija
encounter
encyclopaedia
encyclopedia
encyclopedic
encyclopædia
encyklopedi
end
endangered
ended
ending
endless
endowment
ends
enemies
enemy
energy
eng
engaged
engelbart
engels
engine
engineer
engineered
engineering
engineers
england
english
enhanced
eniac
enigma
enlargement
enlightenment
enough
enseignement
enter
entered
enterprise
entertainment
entire
entirely
entity
entre
entrepreneurship
entries
entry
environment
environmental
environments
enzy
enzyklopa
enzyme
epa
epic
epidemic
epidemiology
epigenetics
episode
epistemology
epoch
eprint
eprints
equal
equality
equally
equation
equilibrium
equipment
equity
er
era
erectus
eric
ericsson
erik
erikson
ernest
ernst
erosion
error
es
esa
escape
espan
especially
esposito
essay
essays
essence
essential
essentials
est
establish
established
establishment
estado
estaing
estate
estimate
estimated
estimates
et
etal
etc
eternal
ethical
ethics
ethiopia
ethnic
ethnicity
ethnologue
etymological
etymology
eu
eucalyptus
eugene
eugenics
eurasia
eurasian
euro
europa
europe
european
europeans
eurostat
ev
eva
evaluation
evan
evans
eve
even
evening
event
events
eventually
ever
everett
every
everyday
everyone
everything
evidence
evil
evo
evolution
evolutionary
evolved
evolving
ex
exact
examination
example
examples
except
excerpt
exchange
exclusive
executive
exercise
exhibition
exile
exist
existence
existential
existentialism
existing
exists
exit
expand
expanded
expanding
expansion
expected
expedition
experience
experiences
experiment
experimental
experiments
expert
experts
explain
explained
explaining
explains
explanation
exploitation
exploration
explore
exploring
explosion
export
exports
exposure
express
expression
extended
extension
extensive
extent
external
externalid
extinct
extinction
extinctions
extra
extract
extraordinary
extraterrestrial
extreme
eye
eyes
ez
f
fa
faber
face
facebook
faces
facing
fact
factbook
facto
factor
factors
factory
facts
faculty
fail
failed
failure
fair
faire
faith
fake
falcon
fall
fallacies
fallacy
falling
falls
false
fame
families
family
famine
famous
fan
fannie
fantascienza
fantastic
fao
faq
far
faraday
farm
farmer
farmers
farming
fascism
fashion
faso
fast
faster
fat
fate
father
fathers
fatty
fault
favor
fb
fbi
fc
fd
fda
fe
fear
fears
feature
features
feb
february
fechner
federal
federalist
federation
feed
feeding
feel
feeling
feet
feldman
felix
fell
felling
fellow
fellows
felt
fem
female
fembio
feminine
feminism
feminist
ferdinand
ferguson
fernando
ferry
fertility
festival
fever
few
feynman
ff
fi
fiber
fiction
fidel
field
fields
fifteenth
fifth
fifty
fig
fight
fighters
fighting
figure
figures
file
files
film
filmportal
films
final
finally
finance
financial
find
findagrave
finding
findings
finds
fine
finger
finland
finnish
fire
fires
firm
firms
first
fiscal
fischer
fish
fisher
fit
five
fixed
fl
flag
flash
flat
fleming
flight
flood
floor
flora
florence
florida
flow
flower
flows
flu
fluid
fly
flying
fm
fo
focus
folk
folklore
follow
followed
followers
following
follows
foner
font
fontana
food
foods
foolish
foorumi
foot
footnote
for
forbes
force
forced
forces
ford
fordham
forecast
foreign
forensic
forest
forestry
forests
foreword
forgotten
forkel
form
formal
format
formation
formed
former
formerly
forming
forms
fort
forth
fortune
forty
forum
forward
fossil
fossils
foster
fought
found
foundation
foundations
founded
founder
founders
founding
four
fourteenth
fourth
fowler
fox
fr
frac
fragment
frame
framework
franc
france
frances
francesco
francis
francisco
franco
francois
frank
frankfurt
franklin
franz
fraser
frau
fraud
frauendatenbank
fre
fred
frederic
frederick
free
freedman
freedom
freeman
frege
french
frequency
frequently
fresh
freud
fried
friedan
friedman
friedrich
friend
friendly
friends
friendship
fritz
from
front
frontier
frontiers
frost
fruit
fruits
fs
ft
fu
fuel
fuels
full
fuller
fully
fun
func
function
functional
functions
fund
fundamental
fundamentals
funding
funds
funeral
fungi
further
fusion
future
futures
g
ga
gabriel
gage
gain
galaxies
galaxy
galbraith
gale
galilei
galileo
gallery
gallup
galton
gambia
game
games
gamma
gandhi
gao
gap
garci
garcia
garden
gardner
garland
garrison
garry
gary
gas
gases
gate
gates
gateway
gathering
gaulle
gave
gavin
gawc
gay
gazette
gazetteer
gb
gboard
gc
gdp
ge
gec
gen
gender
gene
genealogical
genealogics
genealogie
genealogy
geneastar
general
generally
generation
genes
genesis
genetic
genetically
genetics
geneva
genius
genocide
genome
genomes
genomic
genomics
genus
geo
geochemistry
geoffrey
geographic
geographical
geography
geological
geology
geonames
geophysical
geophysics
georg
george
georges
georgetown
georgia
geoscience
geothermal
gerald
gerard
gerhard
germ
german
germany
geschichte
gest
get
gets
getting
getty
ghana
ghazni
ghost
gi
giant
gibbs
gift
gilbert
gill
gilles
gillespie
gilman
ginsberg
giordano
giovanni
girl
girls
gis
giscard
giuseppe
give
given
gives
giving
gl
gladstone
glance
gland
glasgow
glass
glenn
global
globalization
globe
gloria
glory
glossary
glottolog
gm
gn
gnd
gns
gnu
go
goal
goals
goat
god
gods
godwin
goes
going
gokhale
gold
golden
goldman
goldstein
goldwater
gone
gonza
good
goodman
goods
goodwin
google
gopal
gorbachev
gordon
got
gottfried
gould
gov
governance
government
governments
governor
govt
gp
gps
gr
grace
graduate
graham
grain
grammar
gran
grand
grande
grant
granville
graphic
grass
grave
graves
gravity
gray
great
greater
greatest
greece
greek
greeks
green
greene
greenhouse
greenland
greenpeace
greenwood
greg
gregg
gregor
gregory
grew
griffin
griffiths
gross
ground
groundwater
group
groups
grove
grow
growing
grown
grows
growth
gru
grup
gruyter
gsdlmod
gsm
gu
guadeloupe
guard
guardian
guglielmo
guidance
guide
guidelines
guides
guillaume
guinea
gulf
gun
guns
gupta
gurdjieff
guru
gustav
gutenberg
guthrie
guy
h
ha
habitat
had
hadith
hague
haile
hair
hajj
hal
hale
half
hall
halt
hamburg
hamer
hamid
hamilton
hammarstro
hampshire
han
hand
handbook
handle
hands
handsome
hanifa
hannah
hans
hansard
hansen
happen
happened
happiness
happy
haqqında
harald
harbor
harcourt
hard
harding
hardy
harm
harmony
harold
harper
harpercollins
harriet
harris
harrison
harry
hart
harv
harvard
harvey
harvp
harvtxt
has
hasan
hash
haspelmath
hassan
hastings
hate
hathitrust
hatred
have
haven
having
hawaii
hawke
hawking
hay
hayek
hayes
haynes
hcl
hdi
hdl
he
head
headed
health
healthcare
healthy
hearing
hearst
heart
heat
heath
heather
heaven
heavy
hebrew
hegel
heidelberg
height
heiligenlexikon
heinemann
heinlein
heinrich
held
helen
helena
hell
hellenistic
heller
helmand
helmut
heloise
help
helped
helping
helps
hence
henderson
henri
henrik
henry
her
herald
herat
herbert
here
heredity
heritage
herman
hermann
hero
herodotus
heroic
herschel
het
hf
hg
hi
hicks
hidden
hide
hierarchy
high
higham
higher
highest
highlights
highly
hilaire
hildegard
hill
hillary
hills
him
himself
hindi
hindu
hinduism
hindustan
hippolyte
his
histoire
historia
historian
historians
historic
historical
historically
histories
historiography
history
hit
hitler
hits
hiv
hl
hler
hms
hno
ho
hobbes
hoboken
hodges
hoffman
hold
holding
holds
hole
holes
holland
hollande
hollywood
holmes
holocaust
holocene
holt
holy
home
homeland
homeopathy
homer
hominid
hominin
homo
homosexuality
hon
hong
honor
honorary
honour
hood
hooke
hooker
hoover
hope
hopkins
horace
horizon
horizontal
hormone
horn
horne
horse
horses
horst
hospital
host
hot
hotel
houghton
hour
hours
house
household
housing
houston
how
howard
howe
however
hp
hr
hrc
hrvatska
hrw
htm
html
http
https
hu
huang
hub
hubble
hudson
huffington
huge
hugh
hughes
hugo
human
humanism
humanist
humanitarian
humanities
humanity
humans
hume
hundred
hundreds
hungarian
hungary
hunger
hunt
hunter
hunting
hurst
husband
husserl
hutchinson
huxley
hybrid
hyde
hydrogen
hygiene
hypothesis
i
ia
iaea
iain
ian
iau
ibdb
ibm
ibn
ibrahim
ic
ica
icar
icarus
ice
ich
icon
id
idea
ideal
idealism
ideals
ideas
identifiants
identification
identified
identify
identities
identity
ideological
ideologies
ideology
idle
ie
iea
ieee
if
ii
iii
il
ill
illegal
illinois
illness
illustrated
ilo
ils
im
image
images
imagination
imaging
imdb
imf
img
immanuel
immediate
immediately
immigrant
immigrants
immigration
immune
immunity
immunology
impact
impacts
impeachment
imperial
imperialism
implementation
implications
import
importance
important
impossible
improve
improvement
imslp
in
inaugural
inauguration
inc
include
included
includes
including
inclusive
income
incorporated
increase
increased
increasing
increasingly
indeed
independence
independent
index
india
indian
indiana
indianapolis
indians
indiatimes
indica
indicate
indicators
indies
indigenous
indira
individual
individualism
individualist
individuals
indo
indonesia
indonesian
induced
induction
indus
industrial
industries
industry
ine
inequality
inf
infection
infections
infectious
inference
inflation
influence
influenced
influences
influential
influenza
info
infobase
infobox
informal
information
infrared
infrastructure
inge
inherit
inheritance
initial
initiative
injured
inner
innovation
inorganic
inpho
inphoproject
inquirer
inquiry
insect
insects
inside
insider
insight
insights
instagram
instance
instead
institut
institute
institutes
institution
institutional
institutions
instruction
instrument
instruments
insurance
insurgency
insurgents
int
integrated
integration
integrative
intel
intellect
intellectual
intellectuals
intelligence
intelligent
intention
inter
interaction
interactions
interactive
interdisciplinary
interest
interesting
interests
interface
interference
intergovernmental
interim
interior
internal
international
internationale
internet
interpretation
intersex
intervention
interview
intimate
into
intransitive
intrinsic
introduced
introducing
introduction
introductory
invasion
invasive
invented
invention
inventions
inventor
invest
investigation
investigations
investment
investopedia
invisible
involved
involvement
io
ion
ios
iowa
ip
ipa
ipcc
iq
ir
ira
iran
iranian
iranica
iraq
iraqi
ireland
iris
irish
iron
irrigation
irving
irwin
is
isaac
isabart
isaiah
isbn
isfdb
isi
isis
islam
islamabad
islamic
island
islands
isn
iso
israel
israeli
iss
issn
issue
issued
issues
ist
istanbul
it
italia
italian
italy
itau
item
ithaca
its
itself
iu
iucn
iupac
iv
ivan
iww
ix
j
ja
jack
jackson
jacob
jacobs
jacques
jain
jama
jamaica
james
jan
jane
janet
january
japan
japanese
jason
jay
jazeera
jb
je
jean
jeff
jefferson
jeffrey
jenkins
jennifer
jennings
jenny
jensen
jeremy
jerome
jerry
jersey
jerusalem
jesse
jessica
jessie
jesus
jew
jewish
jews
jha
jhevol
jhu
ji
jihad
jill
jim
jimmy
jin
jl
jm
jn
jo
joachim
joan
job
jobs
joe
joel
johan
johann
johannes
john
johns
johnson
johnston
join
joins
joint
jon
jonathan
jones
jordan
jorge
jose
josef
joseph
joshua
josiah
journal
journalism
journalist
journalists
journals
journey
joy
joyce
jp
jpg
jpl
jr
js
jsp
jstor
ju
juan
judaism
judge
judgment
judith
julai
jules
julex
julia
julian
julie
julius
july
jump
jun
june
jupiter
jurassic
just
justice
justin
k
ka
kabul
kaiser
kamala
kandahar
kansas
kant
kapil
kaplan
kapoor
karachi
karen
karl
karzai
kashmir
kasparov
katalogisering
kate
katherine
kathleen
kathryn
katz
kaufman
kaufmann
kay
kazakhstan
kb
ke
keep
keeping
kegan
keith
keller
kelly
kelvin
kemal
ken
kennedy
kenneth
kent
kentucky
kenya
kept
kerala
kern
kerry
kevin
key
keynes
kg
kh
khan
khaqan
ki
kids
kilani
kill
killed
killing
kills
kim
kin
kind
kindle
kindred
kinds
king
kingdom
kingdoms
kings
kipling
kirby
kirchner
kirk
kissinger
kiste
kitchen
kj
klaus
klein
kluwer
km
kmt
knaw
knew
knight
knopf
know
knowing
knowledge
known
knox
ko
koch
koh
kohl
kong
konrad
korea
korean
kosovo
kr
kramer
krishna
krlez
ku
kumar
kurdish
kurt
kuwait
kwame
kyi
kyiv
kyoto
l
la
lab
label
labor
laboratory
labour
lacan
lack
ladan
laden
ladies
lady
lae
lahore
laid
laissez
lake
lamb
lambert
lan
lancet
land
landmark
lands
landscape
lane
lang
lange
langer
language
languages
lanham
lanius
lanka
laos
lapidus
larawbar
large
largely
larger
largest
larry
larson
las
laser
laserjet
last
late
later
latest
latin
latter
launch
launched
launches
laura
laurence
laurent
laurie
law
lawrence
laws
lawson
lay
layer
lb
lccn
ldl
le
lead
leader
leaders
leadership
leading
leads
leaf
league
leap
learn
learned
learning
leary
least
leather
leave
leaves
leaving
lebanon
lecture
lectures
led
lee
left
leg
legacy
legal
legend
legislation
legislative
legitimate
lehmann
lehmer
leibniz
leiden
leigh
leipzig
leksikon
length
lenin
lennon
leo
leon
leonard
leonardo
leone
leonid
lerner
les
lesbian
leslie
less
lesser
lessons
lester
let
letter
letters
levant
level
levels
levi
levin
levine
levy
lewis
lex
lexicographical
lexicon
lexington
lez
lgbt
lgbtq
lh
li
lib
liberal
liberalism
liberals
liberation
libertaire
libertarian
libertarianism
libertarians
liberties
liberty
libraries
library
libris
libya
license
liddell
lide
lie
lies
lieutenant
life
lift
light
like
likely
limit
limited
limits
lin
lincoln
linda
lindberg
linden
lindsay
line
lineage
linear
lines
linguistic
linguistics
link
linked
links
linus
lion
lionel
lippincott
liquid
lisa
list
lists
lit
literacy
literally
literary
literature
little
littlefield
liu
live
lived
liver
liverpool
lives
livestock
living
lix
ll
llc
ller
lloyd
lo
load
loc
local
location
lock
locke
log
logic
logical
logo
logos
lois
london
lonely
long
longer
longest
longman
look
looking
looks
loose
lord
los
lose
loss
lost
lot
lou
louis
louisa
louise
louisiana
love
lovejoy
lovelock
low
lowe
lowell
lower
lse
lsj
lt
ltd
ltr
lu
lua
luca
lucas
luck
lucy
ludwig
luis
luka
luke
lumotlar
lunar
lundy
luther
luxembourg
lydia
lynch
lyndon
lynn
lyon
lyons
lyotard
lzmk
m
ma
mac
macaulay
macdonald
macedonia
machine
machines
mack
mackenzie
macmillan
macron
mad
madagascar
made
madison
madrid
magazine
magic
magna
magnetic
magnus
mahatma
mail
main
maine
mainly
mainstream
maint
maintain
maistre
majesty
major
majority
make
makers
makes
making
malala
malaysia
malcolm
malden
male
malferma
mali
malik
malu
mammal
mammals
man
managed
management
manager
managing
manchester
mandela
manfred
manifest
manifesto
manila
mankind
mann
manner
mantle
manual
manuel
manuscript
many
mao
map
mapping
maps
mapserver
mar
marc
marcel
march
marco
marconi
marcus
margaret
margin
margot
mari
maria
marie
marilyn
marine
mario
maritime
mark
marked
market
marketing
markets
marks
markus
marlowe
marquis
marriage
marriages
married
mars
marshall
martha
marti
martial
martian
martin
martinus
marvin
marx
marxism
marxist
marxists
mary
maryland
masculine
mashaalradio
mason
mass
massachusetts
massacre
massive
master
masters
mat
material
materialism
materials
maternal
math
mathbb
mathbf
mathematical
mathematicians
mathematics
matt
matter
matters
matthew
matthews
matthias
maurice
max
maximum
maxwell
may
maya
maynard
mayo
mayor
mayr
mb
mc
mccarthy
mcdonald
mcfarland
mcgill
mcgraw
mckay
mclaughlin
mcluhan
md
me
mean
meaning
meanings
means
meant
measure
measured
measurement
measures
measuring
meat
mecca
mechanical
mechanics
mechanism
mechanisms
med
medal
media
medical
medicine
medieval
medina
meditation
mediterranean
medium
meet
meeting
meetings
meets
meija
melbourne
melissa
member
members
membership
membrane
memoir
memoirs
memorial
memories
memory
men
mendel
mental
mentioned
meps
mer
mercer
mercury
merely
merit
merriam
merrill
mesopotamia
message
messenger
met
meta
metabolism
metabrainz
metal
metals
metaphysics
meteorological
meteorology
methane
method
methodist
methodology
methods
methuen
methyl
metro
metrology
metropolitan
mexican
mexico
meyer
mg
mi
mice
michael
michel
michelle
michigan
micro
microbes
microbial
microbiology
microeconomics
microsoft
mid
middle
mie
mifflin
might
migration
migrations
miguel
mike
mikhail
mil
mile
miles
milestones
militant
militants
military
milk
milky
mill
millennium
miller
million
millions
mills
milton
min
mind
minds
mine
mineral
minerals
ming
minh
minimal
minimum
mining
minister
ministers
ministry
minneapolis
minnesota
minor
minorities
minority
minute
minutes
miriam
miroslav
mirror
mises
misinformation
mispy
miss
missile
missing
mission
missions
mississippi
missouri
mit
mitchell
mitigation
mitochondrial
mitterrand
mix
mixed
ml
mm
mmhg
mn
mnras
mo
mobile
mode
model
modeling
models
modern
modernism
modernity
modified
module
mohamed
mohammad
mohammed
mol
moldova
molecular
molecules
molotov
moment
monarchy
monde
monetary
money
mongolia
monica
monitor
monitoring
monotheism
monroe
montgomery
month
monthly
months
montreal
monuments
moon
moonis
moore
moral
morality
more
moreover
morgan
morning
morocco
morphology
morris
morrison
mortality
mortimer
morton
mos
mosaic
moscow
moses
mosque
most
mostly
mother
motion
motivation
motor
motors
mott
mount
mountain
mountains
mouse
mouth
move
movement
movements
moves
movie
movies
moving
mp
mr
mri
mrna
mrrd
mrs
ms
msn
mt
mu
much
mughal
muh
muhammad
mullah
multi
multiple
mumbai
munich
munzinger
murder
murdoch
murphy
murray
muscle
muse
museum
music
musical
musicbrainz
musk
muslim
muslims
must
mutation
mutual
mw
mx
my
myanmar
mystery
myth
mythology
myths
məlumat
n
na
naacp
nabdp
nabi
nabokov
nach
nacional
nacionalna
nafta
name
named
names
naming
nancy
nangarhar
nansen
naoh
naomi
napoleon
narcissus
narrative
narrow
nasa
nat
natco
nathan
nation
national
nationale
nationalencyklopedin
nationalism
nationalist
nationality
nations
native
natl
nato
natsr
natuknica
natur
natura
natural
naturalism
naturalist
nature
naturopathy
naval
navy
nazi
nazia
nazism
nb
nbc
nc
ncbi
nd
ndez
ne
neal
neanderthal
neanderthals
near
nearly
nebraska
necessary
need
needed
needham
needs
negative
neglect
negro
neil
neill
neither
nellie
nelson
neo
neoliberalism
neolithic
neptune
nerve
nervous
ness
net
netherlands
network
networking
networks
neumann
neural
neurology
neuroscience
neutral
neutron
never
neville
new
newly
newman
news
newsletter
newspaper
newspapers
newsweek
newton
next
ng
nga
ngo
nh
ni
nic
nica
nicaragua
niche
nicholas
nick
nicl
nicolas
nicole
nielsen
nietzsche
nigel
nigeria
night
nightingale
nih
nihilism
nijhoff
nikola
nikolai
nil
nile
nilf
nina
nine
nineteenth
ninth
nitrogen
nixon
nj
nkcr
nkp
nkrumah
nl
nlm
nm
nndb
no
noaa
noah
noam
nobel
nobelprize
noble
node
noel
noise
nokia
nomenclature
nomination
non
none
nonsense
noosfere
nor
nordhoff
nordic
norge
normal
norman
norms
norske
north
northern
northwest
northwestern
norton
norway
norwegian
norwich
nos
nose
not
notable
note
noted
notes
nothing
notice
notices
notion
noun
nov
nova
novel
november
now
np
npr
nps
npt
nr
nrg
ns
nu
nuclear
nucleic
num
number
numbers
numeric
numerical
numerous
nunn
nursery
nursing
nussbaum
nutrient
nutrition
ny
nyi
nytimes
nyu
nz
nzdl
o
oakland
oaks
oas
oath
obama
obituary
object
objective
objectives
objects
observation
observations
observatory
observed
observer
obtained
oc
ocasio
occasion
occupation
occupational
occupied
occur
occurred
occurs
ocean
oceanic
oceanography
oceans
och
ochiq
oclc
oct
october
odnb
odprte
odyssey
oecd
oed
of
off
offensive
offer
offering
offers
office
officejet
officer
officers
official
officially
officials
often
og
oh
ohchr
ohio
oil
ois
oklahoma
ol
ola
old
older
oldest
oldid
oliver
olivier
olson
om
oman
omar
omicron
on
once
one
ones
online
onlinelibrary
only
ontario
ontology
op
opac
opc
opec
open
opendata
opening
opens
openstreetmap
opera
operating
operation
operations
opinion
opportunities
opportunity
opposed
opposite
opposition
oppression
optic
optical
optics
option
options
or
oral
orange
orbit
order
orders
ordinary
oregon
org
organic
organisation
organism
organisms
organization
organizational
organizations
organized
orient
oriental
orientation
origin
original
originally
originated
origins
ornament
ort
ortega
orthodox
ortiz
orwell
os
oscar
osce
osman
ospina
otevr
other
others
ottawa
otto
ottoman
otvorenih
otvorenog
otvoreny
otwartych
ou
oup
our
out
outbreak
outer
outfields
outline
outlines
outlook
output
outside
ouvertes
over
overseas
overview
owen
own
owned
owner
owners
ownership
ox
oxford
oxfordhb
oxfordjournals
oxidation
oxide
oxygen
ozone
p
pa
pac
pace
pacific
package
pact
padding
page
pages
pai
paid
pain
paine
painter
pair
pajhwok
pakistan
pakistani
paktika
palace
paleobiology
paleolithic
palestine
palestinian
palgrave
palmer
pamela
pan
pandemic
panel
paper
paperback
papers
papyrus
par
para
paradigm
paradise
paradox
paragraph
parallel
parasite
parent
parents
paris
parisdescartes
park
parker
parks
parliament
parliamentary
parser
parsons
part
partial
participation
particle
particles
particular
particularly
parties
partition
partner
partners
partnership
partnerships
parts
party
pas
pascal
pashto
pashtun
pashtuns
pass
passage
passed
passes
passing
passion
passive
password
past
pasteur
pat
patent
paternal
path
pathans
pathology
patient
patients
patrice
patricia
patrick
patron
pattern
patterns
paul
paula
pauling
pavel
pay
payment
payne
pays
pb
pbs
pc
pcr
pd
pdf
pdfs
pdp
pe
peace
peak
pearl
pearson
pedagogy
pediatrics
pedro
peel
peer
peerage
peirce
pen
penalty
pence
pencillin
penguin
peninsula
penn
pennsylvania
pentagon
people
peoples
per
percent
perception
perceptions
perennial
perez
perfect
performance
performed
perhaps
period
periodic
periods
perkins
permanent
permian
perpetual
perry
persecution
perseus
persia
persian
persistent
person
persona
personal
personality
persone
personid
personnel
persons
perspective
perspectives
persuasion
pertaining
peru
peshawar
pest
pet
peter
peters
petersburg
peterson
petroleum
pew
pez
pfizer
pg
ph
pharmaceutical
phase
phd
phenomena
phenomenology
phenomenon
phenotype
phi
phil
philadelphia
philip
philipp
philippe
philippine
philippines
phillip
phillips
philosopher
philosophers
philosophical
philosophie
philosophy
philpapers
philpotts
phone
phosphate
photo
photos
photosmart
photosynthesis
php
phrase
phylogenetic
phylogeny
phys
physical
physician
physicist
physics
physik
physiology
pi
piaget
piattaforma
picture
pictures
piece
pieces
pierce
pierre
pii
pilot
pin
pine
pinter
pinus
pioneer
pioneers
pipe
pitch
pitt
pittsburgh
pk
pl
place
placed
places
plague
plain
plan
planck
planet
planetary
planets
planned
planning
plans
plant
planting
plants
plasma
plastic
plataforma
plate
plateau
plateforme
platform
platforma
platforması
platformja
platformo
platformu
plato
platonic
plattform
platvormi
play
played
player
playing
plays
pleasure
pleistocene
plos
ploso
plot
plural
plus
plutarch
pluto
pm
pmatrix
pmc
pmid
pml
pnas
png
po
pocket
podataka
podatke
poems
poet
poetry
poets
poincare
point
points
poland
polar
pole
poles
police
policies
policy
policymakers
polish
political
politically
politician
politicians
politico
politics
politique
polity
poll
pollution
poly
pone
pool
poor
pop
pope
popper
popular
population
populations
populism
por
port
portal
porter
portion
portrait
portugal
portuguese
position
positions
positive
positivism
possibility
possible
post
postcolonial
postmodern
postmodernism
posts
pot
potassium
potential
potter
pour
poverty
powell
power
powerful
powers
pp
ppen
ppm
ppp
pr
prabhas
prabhu
practical
practice
practices
pradesh
praeger
prague
praise
prayer
pre
precipitation
predicting
prediction
preface
prefix
pregnancy
prehistoric
prehistory
prejudice
preliminary
premier
prentice
preparation
prepared
presence
present
presentation
presented
preservation
preserved
presidency
president
presidential
presidents
press
presse
presses
pressure
preston
pretty
prevalence
prevent
preventing
prevention
previous
previously
price
prices
pride
priestley
primarily
primary
primates
prime
primer
primitive
prince
princess
princeton
principal
principia
principle
principles
print
printed
printer
printers
printing
prior
prison
prisoners
privacy
private
privilege
prize
pro
probability
probably
probe
problem
problems
proc
proceedings
process
processes
processing
produce
produced
producers
producing
product
production
productivity
products
prof
profession
professional
professor
profile
profiles
profit
program
programme
programs
progress
progressive
project
projects
prokhorov
proleksis
prometheus
prominent
promise
promote
promoting
promotion
pronunciation
proof
propaganda
proper
properties
property
prophet
prophets
proposal
proposed
propositions
proquest
prose
prosopographique
prospects
prosperity
prostate
protect
protected
protecting
protection
protein
proteins
protest
protestant
protesters
protests
proto
protocol
proud
proudhon
proved
provenance
provide
provided
provides
providing
province
provinces
provincial
proxy
pruning
ps
pseudo
pseudoscience
psychiatric
psychiatry
psychological
psychology
pt
pti
pu
pub
publ
public
publication
publications
publique
published
publisher
publishers
publishing
pubmed
pubs
puerto
pulmonary
punishment
punjab
purchase
purdue
pure
purpose
purposes
pursuit
push
put
putin
putnam
puts
putting
px
q
qadınlar
qaeda
qatar
qquad
qr
quality
quantitative
quantity
quantum
quarter
quarterly
quaternary
que
queen
query
quest
question
questions
quick
quiet
quincy
quine
quite
quote
quoted
quotes
quoting
qur
quran
r
ra
race
races
rachel
racial
racism
radiation
radical
radio
radiocarbon
rafael
rage
rah
rahman
raid
railroad
railway
rain
rainforest
raise
raised
raising
raj
ralph
ram
ramadan
ramaphosa
ramsay
rand
randall
randolph
random
range
rank
ranked
ranking
rankings
rao
rape
raphael
rapid
rapidly
rare
rate
rates
rather
ratio
ration
rational
rationalism
raton
rawls
ray
raymond
rb
rd
re
reach
reached
reaction
reactions
reactor
read
reader
reading
readings
ready
reagan
real
realism
reality
really
realm
reason
reasoning
reasons
rebecca
rebel
rebellion
rebels
rec
received
recent
recently
recession
recognition
recognized
recommendation
recommendations
reconsidered
reconsidering
reconstruction
record
recorded
records
recovery
recycling
red
rediff
reduce
reduction
reed
reef
reefs
ref
refcelebrite
refer
reference
references
referred
referring
refers
reflections
reform
reformation
reforms
refugee
refugees
regard
regarded
regarding
regeneration
regia
regime
regimes
region
regional
regions
register
registration
regular
regulation
regulations
regulatory
reich
reid
reign
reject
rejected
rejection
rejects
related
relating
relation
relations
relationship
relationships
relative
relativity
release
released
releases
relevance
relief
religion
religions
religious
remain
remaining
remains
remarkable
remarks
remembering
remote
renaissance
render
rene
renewable
rentiels
rep
repair
repeat
replaced
replacement
replication
reply
report
reported
reporter
reporters
reporting
reports
repository
representation
representative
representatives
represented
repression
reprint
reprinted
reproduction
reproductive
repu
republic
republican
republicans
requested
required
requirements
requires
res
rescue
research
researchers
researchgate
reserve
reserves
residence
residents
resilience
resistance
resistant
resolution
resource
resources
respect
respiratory
response
responses
responsibility
responsible
rest
restoration
result
results
rethinking
retrieved
return
returns
reuters
reuther
rev
reveal
revealed
reveals
revelation
revenue
review
reviewed
reviews
revised
revision
revisited
revista
revival
revolt
revolution
revolutionary
revolutions
revue
reward
reynolds
rez
rf
rg
rgen
rh
rhetoric
rho
rhodes
ri
ria
ric
rica
ricardo
rice
rich
richard
richards
richardson
richest
richmond
rico
ridge
ridley
rie
rieur
right
rights
ring
rings
rio
riot
rise
rises
rising
risk
risks
ritchie
ritual
rival
river
rivers
rk
rkd
rkdartists
rkəmli
rl
rn
rna
ro
road
rob
robbins
robert
roberts
robertson
robin
robinson
robot
roc
rochester
rock
rocket
rocks
roderick
rodin
roger
rogers
roglo
rohi
roland
role
roles
roll
rolling
rom
roma
roman
romanian
romans
romantic
rome
ron
ronald
room
roosevelt
root
roots
rope
rorty
rosa
rosalind
rose
rosen
rosenberg
roser
ross
rot
rotation
roth
rothbard
rough
roughly
round
route
router
routledge
row
rowman
roy
royal
rr
rrna
rs
rspb
rsta
rstb
rt
rtius
ru
rubber
rubin
rudolf
rudyard
rug
ruin
rule
ruler
rulers
rules
ruling
rumsfeld
run
running
ruolo
rural
rus
rush
russel
russell
russia
russian
russians
rutgers
ruth
rutherford
ry
ryan
s
sa
sack
sacred
sacrifice
sad
saddam
saddle
safe
safety
sagan
sage
sahara
saharan
said
saint
sal
sale
sales
sally
salmon
salt
sam
same
samsung
samuel
san
sanctions
sand
sanders
sandra
sandy
sanger
sanitation
sanskrit
santa
sante
sapiens
sara
sarah
sarkozy
sars
satellite
saturn
saudi
saul
saunders
savant
savante
save
saving
savoy
saw
saxon
say
saying
says
sb
sc
scale
scan
scanjet
scarcity
scarecrow
scattered
scene
scepticism
scheme
schmidt
schmitt
schneider
scholar
scholars
scholarship
school
schools
schopenhauer
schumpeter
schuster
schwartz
schweitzer
sci
scia
sciadv
sciam
science
sciencedaily
sciencedirect
sciences
scientific
scientificamerican
scientism
scientist
scientists
scienze
scope
scorsese
scotland
scott
scottish
screen
screening
scribner
script
scripts
scruton
sdg
sdgs
se
sea
sean
search
seas
season
seat
seattle
sebastian
sec
second
secondary
secret
secretariat
secretary
secrets
section
sections
sector
secular
secularism
secure
security
see
seed
seedling
seeds
seek
seeking
seeks
seem
seems
seen
sees
seismic
select
selected
selection
selective
self
sell
selling
semanticscholar
semi
semiconductor
semitic
semitism
sen
senate
senator
send
senegal
senior
sense
sensory
sent
sentence
sentences
sentinel
seoul
sep
separate
separation
sept
september
seq
sequence
sequences
sequencing
serbian
sergey
serial
series
serious
serve
served
server
service
services
ses
session
set
seth
sets
setting
settled
settlement
seven
seventeenth
seventh
several
severe
sex
sexism
sextus
sexual
sexuality
seymour
sf
sfnp
sfsr
sh
shadow
shah
shahid
shakespeare
shall
shannon
shape
shaped
shaping
shapiro
share
sharealike
shared
shares
sharif
sharing
sharma
sharon
sharp
sharpe
shaw
she
shed
sheep
sheet
sheets
shell
shelter
shepherd
sher
sherman
shi
shift
shifted
shinzo
ship
shock
shoot
shop
short
shot
should
show
showing
shows
shrubs
shtml
si
sic
sid
side
sidney
sie
siege
sierra
sight
sign
signal
signals
signed
significance
significant
signs
sikh
sikhism
sikhs
silence
silent
silicon
silk
silver
sim
similar
simon
simone
simple
simply
simpson
sin
sinauer
since
sinclair
singapore
singer
singh
single
singular
sinopharm
sinus
sinuses
sio
sir
sister
sisters
site
sites
situation
six
sixteenth
sixth
size
sk
skepticism
skeptics
sketch
skin
skull
sky
sl
slate
slave
slavery
slaves
slavic
sleep
slip
slippery
slovenia
slow
sm
small
smart
smell
smith
smithsonian
smoke
smoking
sn
snac
snaccooperative
snake
snd
snl
snow
so
soc
soci
social
socialism
socialist
socialists
socie
societies
society
socio
sociological
sociology
sodium
soft
software
soil
solar
sold
soldier
soldiers
sole
solid
solidarity
solomon
solution
solutions
some
someone
somerset
something
sometimes
son
song
songs
sons
sony
soon
sophie
sorrow
sort
soul
sound
sounds
source
sourcebook
sources
south
southeast
southern
sovereign
sovereignty
soviet
soyuz
sp
space
spacecraft
spacex
spain
span
spanish
spark
spatial
speak
speaker
speakers
speaking
speaks
special
speciation
species
speciesism
specific
specifically
spectator
spectroscopy
spectrum
speculative
speech
speeches
speed
spell
spencer
spending
sphere
spider
spiegel
spill
spinoza
spirit
spiritual
split
spoken
sport
sports
spot
spp
spread
spreading
spring
springer
spy
square
sr
sri
ss
ssr
ssrn
st
sta
stability
stable
stacey
staff
stage
stages
stainless
stalin
stamp
stanbul
stand
standard
standards
standing
stands
stanford
stanley
stanton
star
stars
start
started
starting
starts
stat
state
stated
statement
statements
states
statesman
static
station
statista
statistical
statistics
statistik
stats
status
stay
steam
stearns
steel
stefan
stein
steinbeck
steinem
stem
step
stephanie
stephen
steps
sterling
stern
steve
steven
stevens
stewart
stick
still
stock
stockholm
stomach
stone
stop
storage
store
storico
stories
storm
story
stout
stowe
straight
strand
strange
strategic
strategies
strategy
stratification
stratigraphy
strauss
straw
stream
street
strength
stress
strike
string
strip
stripes
strong
strongly
structural
structure
structures
struggle
sts
stuart
student
students
studies
study
studying
stuff
stupid
style
su
sub
subcontinent
subject
subjects
subscription
subsequent
substance
substances
success
successful
succession
successor
such
sudan
sue
suetonius
suffering
suffix
suffrage
sugar
suggest
suggested
suggests
suicide
sullivan
sultan
sum
summary
summer
summit
sumner
sun
sunday
sunderland
sung
sunnah
sunni
suny
sup
supe
super
superheavy
superior
suppl
supplement
supply
support
supported
supporters
supporting
supports
supremacy
supreme
sur
surface
surgery
surplus
surveillance
survey
survival
susan
susanne
susceptibility
sussex
sustainability
sustainable
sutton
suu
suzanne
svalbard
svg
swaziland
sweden
swedish
sweet
swift
swiss
switch
switzerland
sword
sycomore
sydney
symbol
symbolic
symbols
symposium
symptoms
syndrome
synthesis
syracuse
syria
syrian
system
systematic
systematics
systems
t
ta
taand
tab
table
tables
tactics
tafsir
taine
taipei
taiwan
tajik
tajikistan
take
taken
takes
taking
talbot
tale
tales
taliban
talk
talking
talks
tall
tamil
tan
tandfonline
tank
tanner
tanzania
tape
tar
target
targets
task
taste
taught
tauris
tax
taxonomy
taylor
tb
te
tea
teach
teacher
teachers
teaching
teachings
teak
team
tech
techcrunch
technical
techniques
technological
technologies
technology
ted
teeth
tehran
telecommunications
telegraph
telescope
television
tell
tells
telugu
temperature
temperatures
temple
temporal
temporary
ten
tennessee
tenth
term
terminal
terminology
terms
terra
terraces
terrestrial
territorial
territories
territory
terror
terrorism
terrorist
terry
tertiary
tesla
test
testament
testing
tests
texas
text
textbook
texts
th
thai
thailand
thames
than
that
the
theatre
theguardian
their
theism
them
theme
themes
themselves
then
theodor
theodore
theological
theology
theorem
theoretical
theories
theorists
theory
thepeerage
therapy
there
therefore
theresa
thermal
thermodynamics
thesaurus
these
thesis
they
thin
thing
things
think
thinker
thinkers
thinking
thinning
third
thirty
this
thomas
thompson
thomson
thoreau
thornton
those
though
thought
thoughts
thousand
thousands
thread
threat
threats
three
through
throughout
throw
thumb
thus
ti
tibet
tidal
tien
ties
till
tim
timber
time
timeline
times
timing
timor
timothy
tiny
tissue
title
tito
tm
to
tobacco
tocqueville
today
todd
together
tokyo
tolafghan
told
tolerance
toll
tom
tomislav
tongue
tony
too
took
tool
toolforge
tools
top
topic
topics
topology
torah
torino
toronto
torres
torture
total
tough
tour
tourism
tourist
toward
towards
tower
town
towns
toxic
toxicity
toxicology
tr
tra
trace
track
tracker
tracking
trade
trading
tradition
traditional
traditions
traffic
tragedy
tragic
trail
train
training
traits
trans
transactinide
transaction
transactions
transatlantic
transcript
transfer
transformation
transformed
transforming
transistor
transition
transitions
transitive
translated
translation
translations
translator
transmission
transnational
transparency
transport
transportation
travel
tre
treasury
treated
treaties
treatise
treatment
treaty
tree
trees
trend
trends
trial
trials
triassic
tribal
tribe
tribes
tribune
tribute
trillion
trinity
trip
triple
triumph
troop
troops
tropical
trotsky
trouble
trudeau
true
truman
trump
trunk
trust
truth
try
trying
ts
tsh
tsunami
ttta
tu
tube
tucker
tudor
tufts
tunisia
turing
turkey
turkic
turkish
turkmenistan
turks
turn
turned
turner
turning
turns
tv
twelfth
twelve
twentieth
twenty
twin
twist
twitter
two
tx
tyler
type
types
typically
u
ua
uae
uc
uchicago
ucl
ucla
ufi
uganda
ugly
ui
uk
ukraine
ukrainian
ul
ulrich
ultimate
ultimately
ultra
un
una
unabridged
uncertainty
uncle
und
under
underground
underlying
understand
understanding
understood
undp
une
unemployment
unep
unesco
unfccc
unger
unhcr
uni
unicef
union
unique
unit
unitarian
united
units
unity
univ
universal
universals
universe
universidad
universite
universities
university
unknown
unported
until
untold
unwin
up
update
updated
upload
uploads
upon
upper
uppslagsverk
uprising
ur
uranium
urban
urbanization
urdu
url
uruguay
us
usa
usage
usaid
usc
usda
use
used
useful
useless
user
users
uses
usgs
using
usmca
ussc
ussr
usually
utc
utfzz
utility
utopia
utopian
uv
uzbekistan
v
va
vaccination
vaccine
vaccines
vale
validation
valley
value
values
valve
van
vance
var
variability
variant
variation
variations
varieties
variety
various
vast
vatican
vdots
ve
vec
vegetable
vegetation
vegetti
vehicle
vehicles
veil
vein
venezuela
venus
vera
verb
verge
verilerin
verlag
vernon
versailles
version
verso
versus
vertebrate
vertical
very
veterinary
vevo
vi
via
vice
victims
victor
victoria
victorian
victory
video
videos
vie
vienna
vietnam
view
viewcontent
viewed
views
vii
viii
vijay
viking
vila
village
vincent
vine
vintage
violence
violent
viral
virgin
virginia
virology
virtual
virtue
virus
viruses
viscount
visible
vision
visionary
visions
visit
visited
visual
vit
vita
vital
vitamin
vitro
vladimir
vo
vocabulary
voice
voices
vol
volume
volumes
voluntary
von
vote
votes
voting
vow
vox
voyage
voyager
vpn
vs
vulnerability
w
wa
wade
wadsworth
wage
wages
wagner
wake
waldo
wales
walk
walker
walking
wall
wallace
wallis
walsh
walter
walton
wang
want
wanted
wants
wap
war
ward
ware
warfare
warm
warming
warner
warning
warns
warren
warrior
wars
warsaw
warwick
was
washington
waste
wastewater
watch
water
waters
watkins
watson
watt
watts
wave
waves
way
wayback
wayne
ways
wd
we
weak
wealth
weapon
weapons
wear
weast
weather
weaver
web
webb
weber
website
webster
wedding
wedgwood
week
weekly
weeks
wei
weight
weights
weimar
weir
weiss
weizsa
welch
welcome
welfare
well
welle
wells
welsh
welt
wendell
wendy
went
were
werner
wernher
wesley
west
western
westminster
westport
westview
wet
wg
what
wheat
wheeler
when
where
whether
which
while
white
who
whole
whom
whose
why
wi
wide
widely
widespread
wien
wife
wiki
wikidata
wikileaks
wikimedia
wikipedia
wikisource
wild
wilderness
wildlife
wiley
wilhelm
wilkes
wilkins
wilkinson
will
willard
willem
william
williams
williamson
willis
wilson
win
wind
window
windows
windsor
wine
wing
winner
winners
winnie
winning
wins
winston
winter
wire
wired
wireless
wisconsin
wisdom
wise
wish
wissen
with
withdrawal
within
without
wittgenstein
wl
wm
wo
wolf
wolfgang
wollstonecraft
woman
women
won
wong
wood
wooden
woodrow
woods
word
wordpress
words
work
worked
worker
workers
working
works
workshop
world
worldatlas
worldbank
worldcat
worlds
worldwide
worn
worse
worship
worst
worth
would
wound
wounded
wozniak
wp
wright
write
writer
writers
writes
writing
writings
written
wrong
wrote
ws
wto
wu
ww
wwii
www
x
xi
xii
xiii
xiv
xix
xml
xu
xv
xvi
xvii
xviii
xx
xxi
xy
y
ya
yahoo
yale
yang
ye
year
yearbook
years
yellow
yeltsin
yemen
yes
yet
yi
yield
york
yorker
you
young
younger
your
youth
youtube
yu
yugoslavia
yyy
z
za
zachary
zalta
zappa
ze
zealand
zeitschrift
zenodo
zero
zhang
zhou
zhu
zi
ziegler
zimbabwe
zinc
zionism
zn
zone
zones
zoology
zu
zuckerberg
zum
zuma
zur
{
|
}
~



¡
£
§
¨
©
ª
«
¬
­
®
¯
°
±
²
³
´
µ
¶
·
¸
º
»
½
¿
×
ß
æ
÷
ø
ı
ık
ıq
ǝ
ɑ
ɔ
ɕ
ə
ɡ
ɪ
ʑ
ʰ
ʲ
ʷ
ʹ
ʻ
ʼ
ʾ
ʿ
ˈ
ˌ
ː
̀
́
̂
̃
̄
̅
̆
̇
̈
̉
̊
̋
̌
̓
̔
̛
̣
̤
̦
̧
̨
̪
̯
̱
̲
̸
͂
ͅ
͡
α
ανοικτω
β
γ
δ
δεδομε
ε
η
θ
ι
λ
μ
ν
νων
ο
π
πλατφο
ρ
ρμα
ς
σ
τ
υ
φ
χ
ω
ϕ
а
адкрытых
асыҡ
ачык
ашық
б
банк
боз
большая
в
видатних
выдающихся
відкритих
г
гг
года
гом
д
даних
данни
даннои
данных
даных
деректер
додаҳои
е
женщинах
жінок
за
зу
зьвестак
и
к
ко
л
лердиҥ
м
маалыматтарды
малюмат
мэдээллии
мәғлүмәт
н
на
нты
нээлттэи
о
отворени
отворените
отвореног
открытых
платформ
платформа
платформазы
платформаи
платформасы
платформаһы
плятформа
по
података
податоци
про
р
ргу
россии
с
слэн
советская
т
тавцан
у
усьтэм
энциклопедия
і
інформаціі
ѵ
ӏ
ө
բաց
շտեմարան
տվյալների
ְ
ִ
ֵ
ֶ
ַ
ָ
ֹ
ּ
ׁ
א
ב
ד
ה
ו
ח
י
כ
ל
ם
מ
ע
ק
ר
ש
ת
״
،
ؒ
ؕ
؛
؟
ء
ا
اء
اب
ابا
اباد
اباده
ابادي
ابادۍ
اباسين
اباسین
ابتدا
ابتداي
ابتدايي
ابتدایه
ابتدایي
ابتدایی
ابتکار
ابجد
ابخاز
ابخازیا
ابداع
ابدال
ابدالي
ابداليانو
ابدي
ابر
ابراهام
ابراهم
ابراهيم
ابراهیم
ابراهیمي
ابرهه
ابزار
ابن
ابهام
ابو
ابوالحسن
ابوبكر
ابوبکر
ابوجهل
ابوحنيفه
ابوداود
ابوذر
ابوسفيان
ابوطالب
ابوظبي
ابوظبۍ
ابونعيم
ابى
ابي
ابيطالب
ابی
ات
اتاترک
اتباع
اتباعو
اتحاد
اتحادي
اتحاديه
اتحاديو
اتحاديې
اتحادیه
اتحادیو
اتحادیې
اتر
اترو
اتريش
اتریش
اتریشي
اترې
اتسيز
اتشفشاني
اتصال
اتفاق
اتفاقي
اتل
اتلان
اتلانتا
اتلانتيک
اتلانتیک
اتلانو
اتلس
اتلسم
اتلسمه
اتلسمې
اتلسو
اتلولي
اتلولۍ
اتم
اتمانخيل
اتمر
اتمه
اتموسفير
اتموسفيري
اتموسفیر
اتمي
اتمې
اتن
اته
اتو
اتوم
اتومات
اتوماتیک
اتومسفیر
اتومسفیري
اتومه
اتوموسفیر
اتومونه
اتومونو
اتومي
اتيا
اتکا
اتڼ
اتیا
اثار
اثارو
اثبات
اثر
اثرات
اثره
اثرونه
اثرونو
اثير
اج
اجاره
اجازت
اجازه
اجازې
اجباري
اجتماع
اجتماعي
اجتماعی
اجتهاد
اجداد
اجدادو
اجر
اجرا
اجراء
اجرالدین
اجرام
اجرامو
اجراي
اجرايي
اجرایوي
اجراییه
اجزا
اجزاء
اجزاو
اجزاوو
اجزاوې
اجسام
اجسامو
اجل
اجماع
اجمعين
اجمل
اجناس
اجناسو
اجنډا
اح
احاديث
احاديثو
احادیث
احادیثو
احاطه
احتجاج
احتراق
احترام
احتمال
احتمالا
احتمالاتو
احتمالي
احتياط
احتياطي
احتیاط
احد
احداث
احرام
احزاب
احساس
احساسات
احساساتو
احساساتي
احساسوي
احسان
احسن
احصاي
احصايوي
احصايې
احصایوي
احصایې
احضار
احمد
احمدزي
احمدزی
احمدشاه
احمدشاهي
احمدي
احنافو
احوال
احوالو
احکام
احکامو
احیا
اخ
اخبار
اخبارونو
اختر
اختراع
اختراعات
اختراعاتو
اختصار
اختصاصي
اختصاصی
اختلاط
اختلاف
اختلافات
اختلافاتو
اختلافونه
اختلافونو
اختلافي
اختلال
اختلالات
اختلالاتو
اخته
اختيار
اختيارات
اختياروي
اختياري
اختیار
اختیاره
اختیاري
اخذ
اخر
اخراج
اخرت
اخره
اخري
اخستل
اخستلو
اخستنه
اخستنې
اخسته
اخستو
اخستونکي
اخستى
اخستي
اخستی
اخستې
اخلاص
اخلاق
اخلاقو
اخلاقي
اخلاقياتو
اخلاقی
اخلم
اخلو
اخلي
اخلی
اخلې
اخند
اخندزاده
اخوا
اخوان
اخوند
اخوندزاده
اخيست
اخيستل
اخيستلو
اخيستنه
اخيستنې
اخيسته
اخيستو
اخيستونکي
اخيستونکی
اخيستى
اخيستي
اخيستی
اخيستې
اخیر
اخیست
اخیستل
اخیستلو
اخیستنه
اخیستنې
اخیسته
اخیستو
اخیستونکو
اخیستونکي
اخیستونکی
اخیستي
اخیستی
اخیستې
اخېستل
اخېستلو
اخېستنه
اخېستنې
اخېستې
اد
ادا
اداء
اداب
ادابو
اداره
ادارو
ادارى
اداري
اداری
ادارې
ادامه
اداينې
اداکار
اداکارانو
اداکاره
اداکارۍ
اداکارې
ادب
ادبى
ادبي
ادبيات
ادبياتو
ادبی
ادبیات
ادبیاتو
ادبې
ادرار
ادرارو
ادراك
ادراک
ادراکي
ادرس
ادريس
ادریس
ادعا
ادعاوو
ادعاوې
ادعاګانې
ادغام
ادلون
ادم
ادوارد
اديانو
اديب
اديبان
اديبانو
ادیان
ادیانو
ادیب
ادې
اذا
اذان
اذربايجان
اذربایجان
ار
اراده
ارادو
ارادي
ارادې
اراسموس
اراضي
ارام
ارامه
ارامي
ارامۍ
اراک
اراکوزيا
ارباب
ارت
ارتباط
ارتباطات
ارتباطاتو
ارتباطي
ارتباطی
ارتجاعي
ارتداد
ارتر
ارتفاع
ارتفاعاتو
ارتقا
ارتقاء
ارتودوکس
ارتور
ارتکاب
ارث
ارثي
ارجاع
ارجن
ارجنټاين
ارجنټاین
اردبيل
اردن
اردو
اردوغان
ارزان
ارزانه
ارزو
ارزول
ارزولو
ارزونه
ارزونو
ارزونې
ارزوي
ارزي
ارزيابي
ارزښت
ارزښتمن
ارزښتمند
ارزښتمنه
ارزښتمنو
ارزښتناک
ارزښتناکه
ارزښتناکو
ارزښته
ارزښتونه
ارزښتونو
ارزګان
ارزگان
ارزیابي
ارسال
ارستو
ارسطو
ارسلا
ارسلان
ارشاد
ارشميدس
ارشيف
ارشیف
ارغسان
ارغستان
ارغنداب
ارغواني
ارقام
ارقامو
ارقم
ارل
ارمان
ارمانونه
ارمانونو
ارماني
ارمغان
ارمنستان
ارمني
ارمنیانو
ارمينيا
ارمينيايي
ارمینیا
ارنست
ارنسټ
ارنولډ
اره
ارو
اروا
ارواه
اروايي
ارواپوه
ارواپوهنه
ارواپوهنې
ارواښاد
اروایي
اروزګان
ارون
اروپا
اروپايان
اروپايانو
اروپايي
اروپایان
اروپایانو
اروپایي
اروپایی
اروپایې
اريا
اريانا
ارياي
اريايي
ارين
ارکان
ارګ
ارګان
ارګانونو
ارګانیزم
ارګانیزمونه
ارګانیزمونو
ارګانېزم
ارګانېزمونه
ارګانېزمونو
ارګون
ارگ
ارگان
ارگانيزمونه
اریانا
اریتریا
اریک
ارې
از
ازاد
ازادانه
ازاده
ازادو
ازادولو
ازادوي
ازادي
ازاديږي
ازادی
ازادیو
ازادۍ
ازادې
ازار
ازبک
ازبکستان
ازبکي
ازمايل
ازمايي
ازمايښت
ازمايښتونه
ازمايښتونو
ازمايښتي
ازمایښت
ازمایښتونو
ازمایښتي
ازموينه
ازموينو
ازمويني
ازموينې
ازمویل
ازموینه
ازموینو
ازموینې
ازمېښت
ازمېښتونه
ازمېښتونو
ازمېښتي
ازهر
ازیرگل
اس
اسارت
اساس
اساسا
اساسات
اساساتو
اساسنامه
اساسنامې
اساسى
اساسي
اساسی
اساطیر
اسامبله
اسامبلی
اسامبلۍ
اسامبلې
اسامه
اسان
اسانتيا
اسانتياوو
اسانتياوې
اسانتیا
اسانتیاوو
اسانتیاوې
اسانه
اساني
اسانی
اسانۍ
اسانې
اسباب
اسبابو
است
استاد
استادان
استادانو
استاده
استادي
استادۍ
استاذ
استاذانو
استازو
استازولي
استازولۍ
استازى
استازي
استازيتوب
استازی
استازیتوب
استازې
استان
استانبول
استبداد
استبدادي
استثمار
استثنا
استثناء
استثنايي
استحصال
استحکام
استخباراتو
استخباراتي
استخدام
استخراج
استدلال
استدلالونه
استدلالونو
استدلالي
استراحت
استراليا
استرالیا
استشهاد
استعاره
استعارې
استعداد
استعدادونو
استعفا
استعفاء
استعمار
استعماري
استعمال
استعمالول
استعمالوي
استعماليږي
استعمالیږي
استعمالیږی
استعمالېږي
استفاده
استفادي
استفادی
استفادې
استقامت
استقبال
استقرار
استقلاب
استقلال
استلین
استملاک
استناد
استنباط
استنبول
استنتاج
استهلاک
استو
استوا
استواء
استوانه
استواي
استوايي
استوایي
استوایی
استول
استولو
استونیا
استوي
استوګن
استوګنه
استوګنو
استوګنځايونو
استوګنځای
استوګنځایونه
استوګنځایونو
استوګنځي
استوګنځی
استوګنې
استوگن
استوگنه
استيعاب
استیضاح
استیناف
استینوسفیر
اسحاق
اسحق
اسد
اسدالغابه
اسدالله
اسرار
اسرارو
اسراي
اسرايلو
اسراييلو
اسراییل
اسراییلو
اسعار
اسعارو
اسعد
اسفالت
اسقف
اسلام
اسلامك
اسلامى
اسلامي
اسلاميه
اسلامپوهنه
اسلامی
اسلامیه
اسلم
اسلوب
اسم
اسما
اسماء
اسمار
اسماعيل
اسماعیل
اسمان
اسمانونو
اسماني
اسمبلۍ
اسمعیل
اسمي
اسناد
اسنادو
اسهال
اسهامو
اسونه
اسونو
اسي
اسيا
اسيايي
اسيد
اسيدونه
اسيدونو
اسير
اسټراليا
اسټرالیا
اسپ
اسپانوي
اسپانيې
اسپانیا
اسپانیایي
اسپانیې
اسپرانتو
اسپيزيا
اسکندر
اسکندریه
اسکول
اسیا
اسیايي
اسیایي
اسید
اسیدونه
اسیدونو
اسیر
اسیران
اسیرانو
اسیډ
اسیډونو
اش
اشاره
اشارو
اشاروي
اشاري
اشارې
اشباع
اشتاین
اشتباه
اشتراکي
اشتقاق
اشتها
اشخاص
اشخاصو
اشراف
اشرافانو
اشرافو
اشرافي
اشرافيت
اشرف
اشعار
اشعارو
اشعري
اشغال
اشلي
اشنا
اشور
اشوري
اشوریانو
اشوکا
اشکالو
اصالت
اصحاب
اصحابو
اصطلاح
اصطلاحا
اصطلاحات
اصطلاحاتو
اصطلاحي
اصطلاحګانې
اصغر
اصف
اصفهان
اصل
اصلا
اصلاح
اصلاحات
اصلاحاتو
اصلاحي
اصله
اصلى
اصلي
اصليت
اصلی
اصلیت
اصلې
اصول
اصولو
اصولي
اصيل
اضافه
اضافي
اضطراب
اضطراري
اط
اطاعت
اطاق
اطالوی
اطراح
اطراف
اطرافو
اطرافي
اطريش
اطریش
اطریشي
اطفال
اطفالو
اطلاع
اطلاعات
اطلاعاتو
اطلاعاتي
اطلاق
اطلس
اظهار
اع
اعتبار
اعتباره
اعتباري
اعتدال
اعتراض
اعتراضونه
اعتراضونو
اعتراف
اعتصاب
اعتقاد
اعتقادي
اعتماد
اعتمادي
اعجاز
اعداد
اعدادو
اعدام
اعدامونو
اعراض
اعزاز
اعشاريه
اعصاب
اعصابو
اعظم
اعظمي
اعلام
اعلاميه
اعلاميې
اعلامیه
اعلامیې
اعلان
اعلاناتو
اعلانولو
اعلانونه
اعلانونو
اعلانوي
اعلى
اعليحضرت
اعلی
اعلیحضرت
اعمال
اعمالو
اغا
اغذباغ
اغزن
اغزي
اغلب
اغلې
اغوستل
اغوستلو
اغوستې
اغوندي
اغيز
اغيزمن
اغيزه
اغيزو
اغيزي
اغيزې
اغیز
اغیزمن
اغیزمنتوب
اغیزمنه
اغیزمنې
اغیزه
اغیزو
اغیزی
اغیزې
اغېز
اغېزمن
اغېزمنتوب
اغېزمنتيا
اغېزمنتیا
اغېزمنه
اغېزمنو
اغېزمنوي
اغېزمنې
اغېزناک
اغېزناکتیا
اغېزناکه
اغېزناکو
اغېزناکې
اغېزه
اغېزو
اغېزې
اف
افاده
افت
افتاب
افتتاح
افتخار
افتخاري
افتونو
افراد
افرادو
افراز
افرازوي
افراط
افراطي
افريقا
افريقايي
افریقا
افریقايي
افریقایان
افریقایانو
افریقایي
افریقایی
افریل
افسانه
افسانو
افسانوي
افسانې
افسر
افسران
افسرانو
افسردګي
افسوس
افشا
افشار
افشاني
افشانۍ
افضل
افعال
افعالو
افغا
افغان
افغانان
افغانانو
افغانستان
افغانستانه
افغانه
افغاني
افغانيو
افغانی
افغانیو
افغانۍ
اففانستان
افق
افقي
افكارو
افلاس
افلاطون
افکار
افکارو
اق
اقامه
اقبال
اقتباس
اقتدار
اقتصاد
اقتصادونه
اقتصادونو
اقتصادي
اقتصادپوه
اقتصادپوهان
اقتصادپوهانو
اقتصادی
اقدام
اقدامات
اقداماتو
اقرار
اقسام
اقل
اقليم
اقليمي
اقلیت
اقلیتونو
اقلیم
اقلیمي
اقوام
اقيانوس
اقیانوس
اك
اكاډمۍ
اكبر
اكثريت
اكرم
ال
الا
الاباما
الات
الاتو
الاحکام
الاخبار
الازهر
الاسد
الاسلام
الاسلامي
الاسکا
الاشراف
الاصل
الاصله
الاعتدال
الامام
الامت
الان
الاهياتو
الاول
الاولياء
الباري
الباني
البانيا
البانيايي
البانیا
البته
البحر
البخاري
البدايه
البرت
البرز
البرټ
البقرة
البلاغه
البلد
البلدونو
البم
البنا
البوم
البيت
البکر
البکري
البېروني
الت
التاريخ
التاریخ
الترمذي
التنزيل
التهاب
التهابي
التواريخ
الثاني
الجبر
الجراح
الجزاير
الجزایر
الجزیره
الجزیرې
الجهاد
الجي
الجيان
الجيانو
الحاج
الحاد
الحاق
الحجروي
الحديث
الحديد
الحدیث
الحرام
الحرم
الحسن
الحسين
الحق
الحمایه
الحمد
الحنفي
الحکومه
الخط
الخطاب
الخلفاء
الد
الدرالمنثور
الدوله
الدين
الديهايد
الديهايدونه
الديهايدونو
الدین
الذي
الذين
الر
الرحمان
الرحمن
الرحيم
الرشید
الرژي
الزامي
الزایمر
الزمان
الزهرا
الزواوي
الزوايد
الس
السراج
السلام
السلطنت
السلطنه
السنة
الش
الشان
الشيخ
الشیخ
الص
الصحه
الصحې
الطارق
الطالب
الطبعة
العاده
العاص
العالم
العرب
العربي
العربية
العضویت
العلم
العلماء
العلوم
العمل
العنوان
الف
الفا
الفاظ
الفاظو
الفبا
الفت
الفتح
الفرد
الفریډ
الفرېډ
الفظي
الفقه
القا
القاح
القاعده
القاعدې
القدر
القذافي
القرا
القران
القضات
القلي
الكوزي
الل
اللغة
الله
اللهم
اللہ
الم
الماس
المال
المان
الماني
المانی
الماي
المثل
المحرر
المحررون
المدارس
المستدرك
المسلمين
المسلمین
المعارف
المقدس
المللي
المللی
الملک
المنافع
المو
المودة
المومنين
المونيم
المونیم
المووی
المپیک
المیلاد
الن
الناس
النبي
النبی
النساء
النضره
النهر
النهرين
النهرین
النوع
اله
الهام
الهند
الهه
الهي
الهی
الهیات
الهیاتو
الهیاتي
الهې
الو
الوت
الوتنه
الوتنو
الوتنې
الوتونکو
الوتونکي
الوتکه
الوتکو
الوتکې
الوجود
الوزي
الوسيط
الوصول
الى
الي
الياس
اليزابت
اليزابيت
الين
اليه
اليوم
اليکترون
الپ
الډریج
الکان
الکانونه
الکانونو
الکايل
الکاین
الکترو
الکتروليت
الکترومقناطیسي
الکترون
الکترونونه
الکترونونو
الکتروني
الکترونیکي
الکتریکي
الکحل
الکساندر
الکساندرا
الکسیوس
الکوزي
الکوزی
الکول
الکولو
الکولي
الکوټ
الګو
الگو
الی
الیاس
الیاژ
الیزابت
الیزابیت
الیزابېت
الیس
الین
الینور
الینیشن
الیه
الې
الېزابېت
ام
اما
اماتور
اماده
امارات
اماراتو
امارت
امازون
امام
امامان
امامانو
امامت
امامزاده
اماميانو
اماميه
امان
امانت
امانوي
اماني
امبولانس
امبېدکار
امبېکي
امت
امتحان
امتداد
امتياز
امتيازات
امتيازاتو
امتیاز
امتیازات
امتیازاتو
امداد
امر
امراض
امراضو
امريكا
امريکا
امريکايان
امريکايانو
امريکايي
امريکايۍ
امريکايې
امريکاګانو
امريکې
امریکا
امریکايي
امریکايۍ
امریکایان
امریکایانو
امریکایي
امریکایی
امریکایۍ
امریکې
امستردام
امسټرډام
امضا
امكان
املا
املاک
املاکو
امله
امن
امنه
امنيت
امنيتي
امنيه
امنیت
امنیتي
امنیتی
امنیه
امو
اموال
اموالو
امور
امورو
امونيا
امونيم
امونیا
اموي
امويانو
امویانو
اميد
امير
اميرالمو
اميرالمومنين
امين
امينو
اميه
امپدوكلس
امپراتور
امپراتورانو
امپراتوري
امپراتوریو
امپراتورۍ
امپراطور
امپراطوري
امپراطوری
امپراطورۍ
امپرياليزم
امپریالیزم
امپریالېزم
امکان
امکانات
امکاناتو
امید
امیر
امیرالمو
امیل
امین
امیندوارۍ
امینو
امېندوارۍ
ان
انا
اناتولي
اناتوليا
اناتولیا
اناتومي
اناتوميکي
انار
انارشي
انارشيزم
انارشیزم
انارشیست
انارشیستانو
انارشیستي
انارشېزم
انارشېست
انارو
انارکلي
انارکو
اناټولیا
انبار
انبساط
انتان
انتانات
انتاناتو
انتاني
انتخاب
انتخابات
انتخاباتو
انتخاباتي
انتخابونه
انتخابونو
انتخابي
انتروپولوژي
انترکتيکا
انترکتیکا
انترکس
انتشار
انتشارات
انتصاب
انتظار
انتظام
انتفاعي
انتقاد
انتقادي
انتقال
انتقالوي
انتقالي
انتقاليږي
انتقالیږي
انتقالېږي
انتقام
انتن
انتنونه
انتها
انتوني
انتونیو
انتى
انتي
انتيجن
انتی
انجام
انجلس
انجلینا
انجلۍ
انجمن
انجن
انجنونه
انجنونو
انجنير
انجنيري
انجنيرۍ
انجنیر
انجنیران
انجنیرانو
انجنیري
انجنیرۍ
انجونو
انجونې
انجيل
انجينر
انجينري
انجينير
انجیل
انجیلي
انجینر
انجینران
انجینرانو
انجینري
انجینرۍ
انجینیر
انحراف
انحصار
انحصاري
انحطاط
انحلال
اند
انداز
اندازه
اندازو
اندازي
اندازی
اندازې
اندام
اندامونو
اندرا
اندرو
اندرونیکوس
اندریو
اندلس
انده
اندو
اندورا
اندونه
اندونو
اندونيزيا
اندونیزیا
اندونېزیا
اندي
اندړ
اندړو
اندیښمن
اندیښنه
اندیښنې
اندېښمن
اندېښنه
اندېښنو
اندېښنې
انرژي
انرژی
انرژۍ
انرژې
انزال
انزايم
انزايمونه
انزایم
انزایمونه
انزایمونو
انزوا
انس
انساب
انساج
انساجو
انسان
انسانان
انسانانو
انساني
انسانيت
انسانی
انسانیت
انستيتوت
انستيتيوت
انستیتوت
انستیتیوت
انستېتیوت
انسجام
انسولين
انسولین
انسټاګرام
انسټيټيوټ
انسټیټیوټ
انشا
انشاء
انشعاب
انشټاین
انشټین
انصار
انصارو
انصاري
انصاف
انضباط
انطاکيه
انطباق
انعام
انعطاف
انعکاس
انفرادي
انفراديت
انفرادیت
انفلاسيون
انفلاسیون
انفلونزا
انفلوينزا
انقباض
انقراض
انقره
انقرې
انقلاب
انقلابونه
انقلابونو
انقلابي
انقلابیانو
انكار
انلاین
انما
انه
انو
انواع
انواعو
انور
انوشکا
اني
انيس
انټر
انټرنيټ
انټرنيټي
انټرنټ
انټرنټي
انټرنیټ
انټرنیټی
انټرنېټ
انټرنېټي
انټروپي
انټوني
انټي
انځر
انځور
انځورونه
انځورونو
انځوروي
انځورګر
انځورګري
انځورګرۍ
انځورگر
انچ
انچه
انچو
انڈیا
انډرايد
انډرسن
انډروميډا
انډریو
انډول
انډي
انډيا
انډيانا
انډیا
انډیانا
انډیز
انکار
انکشاف
انکشافي
انګارليځ
انګريزانو
انګريزي
انګریز
انګریزان
انګریزانو
انګریزي
انګریزې
انګرېز
انګرېزانو
انګرېزي
انګرېزۍ
انګستان
انګلز
انګلس
انګلستان
انګلنډ
انګلو
انګلوساکسون
انګليس
انګليستان
انګليسي
انګلينډ
انګلیس
انګلیسانو
انګلیستان
انګلیسي
انګلیسی
انګلیکان
انګلېنډ
انګور
انګورو
انګولا
انګړ
انګیرل
انګیزه
انګېرل
انګېرله
انګېرنه
انګېرنو
انګېرنې
انګېري
انګېزه
انګېزو
انګېزې
انگار
انگريزانو
انگريزي
انگریز
انگریزانو
انگریزي
انگریزی
انگرېز
انگرېزان
انگرېزانو
انگرېزي
انگرېزۍ
انگلستان
انگليس
انگليسي
انگلیسي
انگلیسی
انگور
انگورو
انگړ
انیس
انیمیشن
انۍ
اه
اهتزاز
اهتمام
اهداف
اهدافو
اهرام
اهرامونو
اهل
اهلبيت
اهلبيتو
اهلي
اهم
اهمه
اهميت
اهمیت
اهنګ
اهواز
اهورامزدا
او
اوا
اواره
اواز
اوازه
اوازونه
اوازونو
اوازې
اوامرو
اوب
اوباما
اوبتل
اوبتلونو
اوبدل
اوبدلو
اوبل
اوبلن
اوبله
اوبه
اوبو
اوبوته
اوبوکې
اوبي
اوبيا
اوبړیو
اوبړۍ
اوبیا
اوبې
اوتار
اوتر
اوتو
اوج
اوخوا
اوخپل
اود
اودا
اوداسه
اوداسي
اوداسی
اوداسې
اودخپل
اوددې
اودس
اودغه
اوده
اودهغه
اودهغې
اودوه
اودوهم
اور
اورا
اوراسیا
اورال
اورانوس
اوربشې
اوربل
اوربند
اورتودوکس
اورتېګا
اوردو
اورشيندي
اورشېندي
اورمړ
اورنج
اورنګ
اوره
اورو
اوروزنې
اورونه
اورونو
اوري
اوريدل
اوريدلو
اورپکو
اورښت
اورګاسم
اورګان
اورګانيزمونو
اورګانیزم
اورګانیزمونه
اورګانیزمونو
اورګاډي
اورگان
اورگانيزم
اورگاډي
اوریدل
اورېدل
اورېدلو
اورېدلي
اورېدلې
اورېدو
اورېدونکو
اورېدونکي
اوزار
اوزبیکستان
اوزون
اوزيات
اوس
اوستا
اوسط
اوسلو
اوسمهال
اوسنى
اوسني
اوسنيو
اوسنی
اوسنیو
اوسنۍ
اوسنې
اوسه
اوسو
اوسي
اوسيدل
اوسيده
اوسيدو
اوسيدونکو
اوسيدونکي
اوسيږي
اوسپنه
اوسپني
اوسپنې
اوسکار
اوسیدل
اوسیده
اوسیدو
اوسیدونکو
اوسیدونکي
اوسیدونکی
اوسیږي
اوسېدل
اوسېدلو
اوسېدلي
اوسېدلی
اوسېدنې
اوسېده
اوسېدو
اوسېدونكي
اوسېدونکو
اوسېدونکي
اوسېدونکی
اوسېدونکې
اوسېږي
اوصاف
اوصولو
اوضاع
اوغان
اوكه
اول
اولاد
اولاده
اولادونه
اولادونو
اولادې
اولس
اولسمه
اولسمې
اولسوالۍ
اولسي
اولني
اولنی
اوله
اولي
اولیه
اولیور
اوم
اومبرتو
اومه
اومیګا
اومې
اون
اونه
اونور
اونورو
اونيزه
اونيزې
اونيو
اونیزه
اونیزې
اونیو
اونۍ
اوه
اوهايو
اوهایو
اوهغه
اوهلته
اوهم
اوهمدارنګه
اوهمدارنگه
اوو
اووروسته
اوولس
اوولسمه
اوولسمې
اووم
اوومه
اوومې
اوون
اوونيزه
اوونۍ
اووه
اويا
اوياهم
اوين
اويو
اويوه
اوټ
اوټو
اوټول
اوپرا
اوپن
اوپه
اوځينې
اوڅار
اوچت
اوچته
اوډل
اوړه
اوړو
اوړي
اوړی
اوږد
اوږدمهال
اوږدمهاله
اوږدمهالو
اوږدمهالي
اوږدمهالې
اوږده
اوږدو
اوږدوالى
اوږدوالي
اوږدوالی
اوږدوکې
اوږدي
اوږدې
اوږه
اوږو
اوږې
اوښ
اوښان
اوښانو
اوښتل
اوښتلو
اوښتنې
اوښتو
اوښتون
اوښتي
اوښتی
اوښتې
اوښكو
اوښه
اوښکو
اوښکې
اوک
اوکام
اوکراين
اوکرايني
اوکراین
اوکرایني
اوکساید
اوکسي
اوکله
اوکه
اوکونل
اویا
اویاهم
اویلر
اى
اي
ايا
ايالات
ايالاتو
ايالت
ايالتونه
ايالتونو
ايالتي
ايت
ايتايل
ايتر
ايترونه
ايتلاف
ايتلافي
ايثار
ايجاد
ايجنسۍ
ايران
ايراني
ايرانيانو
ايرانی
ايرلينډ
ايرلينډي
ايره
ايرو
ايرې
ايز
ايزم
ايزه
ايزو
ايزې
ايس
ايسار
ايساف
ايستل
ايستلو
ايسته
ايف
ايل
ايلام
ايله
ايم
ايمان
اين
اينده
اينزايم
اينډ
ايوا
ايوان
ايوب
ايوبي
ايودايد
ايودين
ايون
ايونز
ايونونه
ايونونو
ايوني
ايټالوي
ايټاليا
ايټاليې
ايټالیا
ايپ
ايپس
ايچ
ايډوارډ
ايډيال
ايډيټ
ايډيټر
ايښودل
ايښودلو
ايښودنه
ايښودنې
ايښودونکی
ايښى
ايښي
ايښی
ايښې
ايکس
ايکو
ايکوسيستم
ايکوسيستمونو
ايکولوژي
ايکولوژيکي
ايکويانو
اټكل
اټموسفیر
اټوم
اټومونه
اټومونو
اټومي
اټک
اټکل
اټکلونه
اټکلونو
اټکلي
اپ
اپارتاید
اپارتمان
اپريدي
اپريدی
اپريل
اپریدي
اپریل
اپرېل
اپل
اپلاتون
اپلاتوني
اپلیکیشن
اپوزیسیون
اپولو
اپوټه
اپي
اپيتيل
اپیکوروس
اڅکزي
اڅکزی
اچ
اچار
اچول
اچولو
اچولي
اچولی
اچولې
اچونه
اچونې
اچوو
اچوي
اډانه
اډمز
اډمونډ
اډه
اډو
اډوارډ
اډولف
اډي
اډیسون
اډینبورګ
اډې
اړ
اړباسي
اړتيا
اړتيالري
اړتياو
اړتياوو
اړتياوي
اړتياوې
اړتیا
اړتیاو
اړتیاوو
اړتیاوې
اړخ
اړخه
اړخو
اړخونه
اړخونو
اړخي
اړخيز
اړخيزه
اړخيزو
اړخيزې
اړخی
اړخیز
اړخیزه
اړخیزو
اړخیزې
اړخې
اړه
اړو
اړودوړ
اړول
اړولو
اړولي
اړولی
اړولې
اړوند
اړوندتیا
اړونده
اړوندو
اړوندې
اړوندېږي
اړوي
اړيكي
اړيكې
اړين
اړينه
اړينو
اړينې
اړيکه
اړيکو
اړيکي
اړيکې
اړین
اړینه
اړینو
اړینې
اړیکه
اړیکو
اړیکي
اړیکی
اړیکې
اژانس
اژه
اکا
اکادمۍ
اکاډمي
اکاډمیک
اکاډمیکو
اکاډمۍ
اکبر
اکبرشاه
اکتشاف
اکتشافاتو
اکتشافي
اکتوبر
اکثر
اکثرا
اکثره
اکثرو
اکثريت
اکثریت
اکدي
اکر
اکرام
اکرم
اکس
اکسايد
اکسايدونه
اکسايدونو
اکسايډ
اکساید
اکسایدونه
اکسایډ
اکسفورډ
اکسيجن
اکسيديشن
اکسیجن
اکسیدیشن
اکسېجن
اکمالاتو
اکو
اکوادور
اکوړه
اکيډمي
اکټوبر
اکټیو
اکین
اګر
اګروفارستري
اګست
اګستيا
اګسټ
اګوست
اګوستوس
اګوون
اگر
اگست
اگسټ
ای
ایا
ایالات
ایالاتو
ایالاتونو
ایالت
ایالتونه
ایالتونو
ایالتي
ایبري
ایبټ
ایت
ایتالیا
ایتلاف
ایتلافي
ایتوپیا
ایجاد
ایداري
ایر
ایران
ایراني
ایرانی
ایرانیان
ایرانیانو
ایرل
ایرلنډ
ایرلنډي
ایرلینډ
ایریک
ایرې
ایز
ایزنهاور
ایزه
ایزو
ایس
ایسار
ایساره
ایساف
ایستل
ایستلو
ایسته
ایسلنډ
ایف
ایل
ایلام
ایله
ایلیل
ایم
ایمان
ایمرسن
ایمل
ایمیل
این
اینونو
اینډیانا
ایوا
ایوان
ایوب
ایوبي
ایون
ایونونه
ایوني
ایووا
ایټالوي
ایټالوی
ایټالیا
ایټالیایي
ایپل
ایچ
ایډز
ایډنبورګ
ایډیا
ایډیال
ایډیالوژي
ایډیالوژیکي
ایډیالوژۍ
ایډیالیزم
ایښودل
ایښودنه
ایښودونکو
ایښودونکي
ایښودونکی
ایښی
ایک
ایکس
ایکو
ایکوسیستم
ایکوسیستمونه
ایکوسیستمونو
ایکولوژي
ایکولوژيکي
ایکولوژیکي
ایکولوژۍ
ایګنیوس
اې
اېبلا
اېتوپیا
اېجین
اېران
اېرل
اېس
اېستل
اېستلو
اېف
اېل
اېلېدنې
اېم
اېن
اېوارډ
اېټالوي
اېټالیا
اېچ
اېډز
اېډوارډ
اېډېټ
اېښودل
اېښودلو
اېښودنې
اېښودو
اېښودونکو
اېښودونکي
اېښودونکی
اېښی
اېکس
اېکوسېستم
اے
ب
با
باب
بابا
بابر
بابل
بابلي
بابلیانو
بابه
بابو
بابي
بابړ
بابړې
بابېج
باثباته
باج
باجوړ
باخ
باخبره
باختر
باختري
باختین
باد
بادار
بادارانو
بادام
بادامو
بادشاه
بادغيس
بادغیس
بادماتوونکې
باده
بادونه
بادونو
بادي
بادی
بار
باران
بارانونه
بارانونو
باراني
باربرا
بارت
بارسلونا
باره
بارو
باروت
باروتو
بارورۍ
باروز
بارون
بارونه
بارونو
باروک
باري
بارټن
بارک
بارکزي
بارکزی
بارکوډ
بارگام
باز
بازار
بازارموندنې
بازارونه
بازارونو
بازانو
بازبینی
بازل
بازي
بازی
بازۍ
باس
باستیا
باسو
باسواده
باسي
باشا
باشد
باشي
باطل
باطله
باطن
باطني
باعث
باغ
باغونه
باغونو
باغي
باقاعده
باقر
باقي
بال
بالا
بالاحصار
بالاخره
بالارډ
بالتيمور
بالتيک
بالتیمور
بالتیک
بالشویک
بالغ
بالغو
بالفعل
بالفور
بالقوه
بالله
باله
بالون
بالي
باليووډ
بالډوین
بالکان
بالکل
بالیووډ
بام
باميان
باميانو
بامیان
بامیانو
بان
بانتو
بانجان
باند
باندني
باندنيو
باندنی
باندنۍ
باندى
باندي
بانديني
باندينيو
باندی
باندې
بانفوذه
بانك
بانو
بانټو
بانډ
بانډه
بانډو
بانک
بانکداري
بانکدارۍ
بانکس
بانکونه
بانکونو
بانکي
باو
باوجود
باور
باوره
باورونه
باورونو
باوري
باورۍ
باي
بايبل
بايد
بايدد
بايده
بايدپه
بايزيد
بايل
بايډن
باپتیست
باچا
باچاخان
باډي
باډېل
باړه
باک
باکا
باکتريا
باکترياو
باکترياوو
باکتریا
باکتریاوو
باکتریاوې
باکتریايي
باکس
باکو
باکونین
باکټريا
باکټریا
باکچه
باکیفیته
باڼه
بای
بایبل
باید
بایزید
بایسکل
بایو
بایوسفیر
بایوګاز
بایډن
باېد
ببر
ببرک
ببيروت
بت
بتانو
بجلي
بجو
بجې
بحارالانوار
بحث
بحثونه
بحثونو
بحر
بحران
بحرانونو
بحراني
بحرونو
بحري
بحرين
بحرین
بحیرې
بخار
بخارا
بخاري
بخاری
بخارۍ
بخت
بختور
بختيار
بختياري
بخش
بخښنه
بخښنې
بد
بدخشان
بدر
بدرګه
بدعت
بدل
بدله
بدلول
بدلولو
بدلون
بدلونونه
بدلونونو
بدلوي
بدليدو
بدليږي
بدلیږي
بدلې
بدلېدای
بدلېدل
بدلېدو
بدلېدونکو
بدلېدونکي
بدلېدونکی
بدلېدونکې
بدلېږي
بدمرغه
بدمرغۍ
بدن
بدنام
بدنامي
بدنامۍ
بدنه
بدني
بده
بدو
بدون
بدوي
بدي
بديع
بديل
بدیع
بدیل
بدیلې
بدۍ
بدې
بر
برا
برابر
برابره
برابرو
برابرول
برابروله
برابرولو
برابروي
برابري
برابريږي
برابرۍ
برابرې
برابرېږي
برادر
برازيل
برازیل
برازیلي
براعظم
براعظمي
برانډ
براهمي
براون
براي
برای
برایس
براین
برایټ
بربر
بربري
بربنډ
برتانوي
برتانویانو
برتانيا
برتانيه
برتانيې
برتانیا
برتانیې
برتري
برترۍ
برج
برجسته
برجونه
برجونو
برحاله
برخلاف
برخليک
برخلیک
برخمن
برخمنه
برخمنې
برخه
برخو
برخورد
برخوکې
برخي
برخی
برخې
برداشت
بررسي
برسيره
برسیره
برسېره
برصغیر
برعکس
برق
برقي
برقی
برلاسي
برلاسی
برلاسۍ
برلاسې
برلين
برلین
برلېن
برم
برما
برمه
برمودا
برن
برنارډ
برنامه
برنامو
برنامې
برنز
برنس
برنو
برنولي
بره
برهان
برهمن
برو
بروس
برونای
بروندي
برونز
برونزو
برونو
بروني
بروک
بروکسل
بروکلین
برى
بري
بريا
بريالى
بريالي
برياليتوب
برياليو
بريالی
بريالۍ
برياوو
برياوې
بريتانوي
بريتانيا
بريد
بريدمن
بريده
بريدونه
بريدونو
بريليک
برينز
بريښنا
بريښي
برژنف
برښنا
برک
برکت
برکته
برکلي
برکمن
برکونړ
برکي
برکې
برګ
برګسون
بری
بریا
بریالي
بریالی
بریالیتوب
بریالیتوبونو
بریالیو
بریالۍ
بریاوو
بریاوې
بریتانوي
بریتانوی
بریتانویانو
بریتانوۍ
بریتانيا
بریتانيې
بریتانیا
بریتانیې
برید
بریدمن
بریده
بریدونه
بریدونو
بریدګر
بریدګرو
برینکلي
بریټانوي
بریټانیا
بریښنا
بریښنالیک
بریښنایي
بریښنایی
بریښي
بریکوټ
برې
برېتانوي
برېتانیا
برېتانیې
برېښنا
برېښنالیک
برېښنايي
برېښناکوټ
برېښنایي
برېښي
برېښېده
بزرگ
بزګر
بزګران
بزګرانو
بزگر
بزگران
بس
بست
بستر
بستره
بستري
بسته
بستونو
بسم
بسمارک
بسنه
بسونه
بسونو
بسيا
بسپنه
بسپنې
بسیا
بسیاینې
بشار
بشر
بشردوستانه
بشري
بشريت
بشرپال
بشرپالنې
بشری
بشریت
بشير
بشپ
بشپړ
بشپړتيا
بشپړتیا
بشپړه
بشپړو
بشپړولو
بشپړوي
بشپړې
بشپړېدو
بشیر
بصره
بصري
بصرې
بصیرت
بطرۍ
بطلیموس
بطن
بطني
بطي
بعث
بعثت
بعد
بعدي
بعضو
بعضى
بعضي
بعضی
بعضې
بغاوت
بغاوتونه
بغاوتونو
بغداد
بغدادي
بغل
بغلان
بغير
بغیر
بــ
بقا
بقره
بكر
بل
بلا
بلاخره
بلاد
بلاذري
بلاروس
بلاغت
بلال
بلاک
بلاکونه
بلاکونو
بلاکي
بلبل
بلجيم
بلجیم
بلخ
بلخوا
بلخي
بلد
بلشویک
بلشویکانو
بلشویکي
بلغارستان
بلغاريا
بلغاریا
بلغم
بلكه
بلكي
بلكې
بلل
بلله
بللو
بللي
بللی
بللې
بلند
بلنه
بلنې
بله
بلو
بلوا
بلوتوت
بلوتوټ
بلوط
بلوغ
بلوم
بلوڅ
بلوڅان
بلوڅانو
بلوڅو
بلوڅي
بلوچ
بلوچستان
بلوک
بلى
بلي
بليک
بلک
بلکل
بلکه
بلکي
بلکی
بلکې
بلګراد
بلی
بلیر
بلیک
بلې
بلېن
بلېک
بم
بمب
بمبار
بمبارد
بمباري
بمباریو
بمبارۍ
بمبي
بمبۍ
بمونه
بمونو
بمي
بن
بنا
بناء
بناب
بناپارت
بنت
بنجامين
بنجامین
بند
بندر
بندرونه
بندرونو
بندري
بنده
بندو
بندول
بندولو
بندونه
بندونو
بندوي
بندي
بنديان
بنديانو
بنديز
بنديزونه
بنديزونو
بندښت
بندګانو
بندگانو
بندی
بندیان
بندیانو
بندیز
بندیزونه
بندیزونو
بندۍ
بندې
بندېدو
بندېږي
بنست
بنسن
بنسټ
بنسټه
بنسټونه
بنسټونو
بنسټيز
بنسټيزه
بنسټيزو
بنسټيزې
بنسټپال
بنسټپاله
بنسټپالو
بنسټګر
بنسټګره
بنسټګرو
بنسټگر
بنسټیز
بنسټیزه
بنسټیزو
بنسټیزې
بنفش
بنن
بنو
بنوري
بني
بنياد
بنيادي
بنټون
بنګ
بنګال
بنګالي
بنګله
بنګو
بنگال
بنگلادېش
بنگله
بنگښ
بنی
بنیاد
بنیادي
بنیامین
به
بها
بهاءالله
بهادر
بهار
بهارت
بهارک
بهاند
بهانه
بهاو
بهاي
بهايي
بهبود
بهتر
بهتره
بهترين
بهترينه
بهر
بهرام
بهرني
بهرنيانو
بهرنيو
بهرنی
بهرنیان
بهرنیانو
بهرنیو
بهرنۍ
بهره
بهسود
بهسودو
بهلول
بهنګ
بهوپال
بهير
بهيرونه
بهيرونو
بهيږي
بهیر
بهیرونه
بهیرونو
بهیږي
بهېدل
بهېدو
بهېږي
بو
بواسطة
بوبر
بوت
بوتان
بوتانو
بوتسوانا
بوتل
بوتلل
بوتله
بوتلونه
بوتلونو
بوث
بوج
بوخت
بوخته
بوخوم
بود
بودا
بودايانو
بودايي
بودايې
بوداپست
بودایانو
بودایي
بودجه
بودجې
بودن
بودند
بوده
بوديجه
بوديجې
بوديزم
بودیجه
بودیجې
بودیزم
بور
بوران
بوربن
بوربون
بورد
بورس
بورن
بورني
بوره
بورون
بوري
بورډ
بورژوا
بورژوازي
بورګېس
بوریس
بورې
بوس
بوستان
بوستون
بوسحاقي
بوسنیا
بوسټن
بوسټون
بوش
بوشهر
بول
بولدک
بولم
بولندوی
بولو
بولي
بولټزمان
بولی
بولیویا
بولۍ
بوم
بومي
بون
بوناپارت
بوهريره
بوهيموند
بوى
بوي
بويه
بوټ
بوټان
بوټانو
بوټسوانا
بوټو
بوټى
بوټي
بوټی
بوټې
بوځي
بوډا
بوک
بوکانن
بوګوتا
بوی
بویل
بوییس
بوېنس
بى
بي
بيا
بياد
بيارغونه
بيارغونې
بيالوژي
بيالوژيکي
بيان
بيانول
بيانولو
بيانوي
بياهم
بيايي
بيايې
بيت
بيته
بيتو
بيتونه
بيتونو
بيتي
بيخي
بيدون
بير
بيرته
بيرغ
بيره
بيروت
بيرون
بيزانس
بيزو
بيشكه
بيضاوي
بيضوي
بيعت
بيل
بيلا
بيلابيل
بيلابيلو
بيلاويچ
بيلتون
بيله
بيلو
بيلي
بيليون
بيلګې
بيلگه
بيلگي
بيمې
بين
بينوا
بيني
بيه
بيهقي
بيو
بيوتيک
بيوتيکونه
بيوتيکونو
بيولوژي
بيولوژيکي
بيوګرافي
بيټ
بيټني
بيچر
بيړه
بيړۍ
بيکاره
بيې
بټ
بټرۍ
بټلر
بټي
بټۍ
بڅرکي
بچ
بچن
بچه
بچو
بچي
بچيان
بچيانو
بچی
بچیان
بچیانو
بډ
بډاى
بډايه
بډای
بډایه
بډوډو
بډې
بړ
بړاس
بړبوکۍ
بښلي
بښلی
بښنه
بښنې
بک
بکارت
بکتريا
بکترياو
بکتریا
بکر
بکس
بکلي
بکو
بګرام
بگرام
بڼ
بڼه
بڼو
بڼي
بڼی
بڼې
بھی
بی
بیا
بیاترکیب
بیارغونه
بیارغونې
بیان
بیانولو
بیانونه
بیانونو
بیانوي
بیانیه
بیانېږي
بیاځلي
بیاځلې
بیاکتنه
بیاکتنې
بیایي
بیبي
بیت
بیتانسس
بیتونه
بیخي
بیدار
بیدارۍ
بیر
بیرته
بیرغ
بیروت
بیرون
بیزانس
بیزانسي
بیزو
بیزوګانو
بیزوګیان
بیزوګیانو
بیساو
بیسمارک
بیشاپ
بیضوي
بیعت
بیل
بیلا
بیلابیل
بیلابیلو
بیلانس
بیلتون
بیله
بیلو
بیلي
بیلګه
بیلګې
بیلیونه
بیمه
بیمې
بین
بینوا
بیه
بیو
بیولوجي
بیولوجیکي
بیولوژي
بیولوژيکي
بیولوژیکي
بیولوژۍ
بیوټیک
بیوګرافي
بیټ
بیټا
بیړني
بیړنۍ
بیړه
بیړۍ
بیک
بیکارۍ
بیکر
بیکن
بیګ
بیگ
بیې
بې
بېا
بېجينګ
بېخ
بېخي
بېرته
بېرغ
بېره
بېروت
بېرون
بېزوس
بېشكه
بېشکه
بېكن
بېل
بېلا
بېلابیلو
بېلابېل
بېلابېلو
بېلابېلوالي
بېلابېلوالی
بېلابېلې
بېلاروس
بېلتون
بېله
بېلو
بېلوالي
بېلوالی
بېلولو
بېلوي
بېلګه
بېلګو
بېلګې
بېلگه
بېلگې
بېلې
بېلېږي
بېنوا
بېورېج
بېوزله
بېوزلو
بېوزلي
بېوزلۍ
بېټ
بېځايه
بېړني
بېړنۍ
بېړه
بېړيو
بېړیو
بېړۍ
بېک
بېکاره
بېکارۍ
بېکر
بېګ
بېګانه
بېګم
بېگ
بېگم
بە
ة
ت
تا
تاب
تابع
تابعيت
تابعیت
تابوت
تاتار
تاته
تاثر
تاثير
تاثيرات
تاثیر
تاثیرات
تاج
تاجونه
تاجيکستان
تاجک
تاجکان
تاجکستان
تاجیکستان
تادياتو
تاديه
تادیاتو
تادیه
تار
تارونه
تارونو
تاريخ
تاريخونه
تاريخونو
تاريخى
تاريخي
تاريخپوه
تاريخپوهان
تاريخپوهانو
تاريخچه
تاريخچې
تاریخ
تاریخونه
تاریخونو
تاریخي
تاریخپوه
تاریخپوهان
تاریخپوهانو
تاریخچه
تاریخچې
تاریخی
تاریخې
تازه
تاسره
تاسو
تاسى
تاسي
تاسيس
تاسی
تاسیس
تاسیسات
تاسیساتو
تاسې
تاشکند
تال
تالا
تالار
تالان
تاليف
تالیف
تام
تاماس
تامسن
تامل
تاميل
تامين
تامیل
تامین
تان
تاند
تانزانیا
تانګ
تاو
تاوان
تاوانونه
تاوتريخوالي
تاوتريخوالی
تاوتریخوالو
تاوتریخوالي
تاوتریخوالی
تاوده
تاي
تايرايډ
تايلينډ
تايوان
تاييد
تايید
تاچر
تاکتیکونو
تاکید
تای
تایلنډ
تایلینډ
تایوان
تایپي
تایید
تاییدوي
تبادله
تبادلې
تباه
تباهۍ
تبت
تبتي
تبتی
تبخير
تبخیر
تبديل
تبدیل
تبر
تبریز
تبشير
تبصره
تبصرو
تبصرې
تبعه
تبعيد
تبعيض
تبعید
تبعیض
تبعیضي
تبليغ
تبليغات
تبليغاتو
تبليغي
تبلیغ
تبلیغات
تبلیغاتو
تبلیغاتي
تبلیغي
تبه
تبې
تت
تتراسکلين
تثبيت
تثبیت
تثلیث
تجار
تجارت
تجارتي
تجارتی
تجاهله
تجاوز
تجديد
تجدید
تجرباتي
تجربه
تجربو
تجربوي
تجربي
تجربې
تجزيه
تجزيې
تجزیه
تجزیې
تجنيس
تجهیزات
تجهیزاتو
تجويز
تجوید
تجویز
تحت
تحريف
تحريک
تحرک
تحریف
تحریم
تحریک
تحصيل
تحصيلي
تحصیل
تحصیلي
تحفه
تحقق
تحقيق
تحقيقات
تحقيقي
تحقیق
تحقیقات
تحقیقاتو
تحليل
تحليلي
تحلیل
تحلیلونو
تحلیلي
تحمل
تحميل
تحمیل
تحول
تحولات
تحولاتو
تخار
تخارستان
تخت
تخته
تختو
تختي
تختې
تخريب
تخریب
تخصص
تخصصي
تخصیص
تخلص
تخلفاتو
تخليق
تخليقي
تخلیق
تخلیقي
تخلیه
تخلیې
تخم
تخمدان
تخمر
تخمونه
تخمونو
تخمين
تخمین
تخمې
تخنيک
تخنيکونه
تخنيکونو
تخنيکي
تخنيکې
تخنیک
تخنیکونه
تخنیکونو
تخنیکي
تخيل
تخیل
تخیلي
تدابير
تداخل
تداوي
تدبير
تدبیر
تدريجي
تدريس
تدريسي
تدریج
تدریجي
تدریس
تدریسي
تدوين
تدوین
تذکرة
تذکره
تذکرو
تر
ترا
تراسونه
تراسونو
ترافیک
ترافیکي
ترانس
ترانسپورت
ترانسپورتي
ترانه
ترانو
ترانې
تراوسه
تراکم
ترای
تربور
تربيت
تربيه
تربیه
ترتيب
ترتیب
ترجمان
ترجمه
ترجمې
ترجيح
ترجیح
ترحده
ترخه
ترخو
ترخې
تردي
تردی
تردې
ترسترګو
ترسره
ترشا
ترشح
ترفیع
ترقي
ترقی
ترقۍ
تركيب
ترلاس
ترلاسه
ترلږه
ترمخه
ترمذي
ترمنځ
ترموډینامیک
ترموډینامیکي
ترميم
ترمينځ
ترمیم
ترمینځ
ترمېنځ
تره
ترهغه
ترهغې
ترهګر
ترهګرو
ترهګرۍ
تروتسکي
ترور
تروريزم
تروریزم
تروریستي
ترویج
تري
تريخ
تريليون
ترين
ترينه
ترټولو
ترځ
ترڅ
ترڅنګ
ترڅنگ
ترڅو
ترڅوپه
ترډیره
ترډېره
ترک
ترکان
ترکانو
ترکستان
ترکمن
ترکمنستان
ترکي
ترکيب
ترکيبونه
ترکيبونو
ترکيبي
ترکيه
ترکيې
ترکی
ترکیب
ترکیبات
ترکیباتو
ترکیبونه
ترکیبونو
ترکیبي
ترکیه
ترکیې
ترکې
ترکېب
تری
تریاکو
تریخ
تریشا
ترین
ترینګلې
ترې
ترېنه
تزار
تزاري
تزریق
تزي
تسلا
تسلسل
تسلط
تسليم
تسلیم
تسلیمۍ
تسلیمېدو
تسمم
تش
تشبث
تشبه
تشبيه
تشبیه
تشخيص
تشخیص
تشخیصي
تشدد
تشريح
تشريحي
تشریح
تشریحي
تشریفاتو
تشریفاتي
تشرېح
تشرېحات
تشرېحاتو
تشرېحي
تشعشع
تشكيل
تشناب
تشنابونو
تشنج
تشه
تشو
تشويش
تشويق
تشویش
تشویق
تشيال
تشکيل
تشکيلوي
تشکیل
تشکیلات
تشکیلاتو
تشکیلوي
تشکېل
تشکېلوي
تشیال
تشې
تصادف
تصادفي
تصانیف
تصحيح
تصحیح
تصديق
تصدیق
تصدۍ
تصرف
تصفيه
تصفيې
تصفیه
تصفیې
تصميم
تصمیم
تصنيف
تصنیف
تصور
تصورات
تصوراتو
تصوف
تصوفي
تصويب
تصوير
تصويرونه
تصویب
تصویر
تصویرونه
تضاد
تضمين
تضمین
تضمینوي
تطابق
تطبيق
تطبيقي
تطبیق
تطبیقي
تعادل
تعالى
تعالي
تعالی
تعامل
تعاملات
تعاملاتو
تعاملونه
تعاملونو
تعبير
تعبیر
تعجب
تعداد
تعديل
تعدیل
تعدیلات
تعدیلاتو
تعرفو
تعرفې
تعريف
تعريفونه
تعريفونو
تعريفوي
تعریف
تعریفونه
تعریفونو
تعریفوي
تعریفېږي
تعصب
تعقل
تعقيب
تعقيبوي
تعقيم
تعقیب
تعقیبوي
تعلق
تعليم
تعليمي
تعلیم
تعلیمات
تعلیماتو
تعلیمي
تعلیمی
تعميد
تعمير
تعمید
تعمیر
تعهد
تعويضي
تعين
تعین
تعیین
تغذي
تغذيه
تغذيې
تغذیه
تغذیوي
تغذیې
تغزل
تغير
تغيرات
تغیر
تغیرات
تغییر
تــ
تـه
تفاهم
تفاوت
تفاوتونه
تفتیش
تفريح
تفريحي
تفريق
تفریح
تفریحي
تفریحی
تفسير
تفسیر
تفسیرونه
تفسیرونو
تفصيل
تفصيلي
تفصیل
تفکر
تفکیک
تقابل
تقاضا
تقاطع
تقاعد
تقدير
تقدیر
تقرب
تقريبا
تقریب
تقریبا
تقریبي
تقریر
تقسيم
تقسیم
تقسیمات
تقسیمېږي
تقطير
تقليد
تقلید
تقنیني
تقوا
تقويه
تقوی
تقویه
تقي
تقی
تكړه
تل
تلاش
تلاف
تلافي
تلاوت
تلسکوپ
تلفات
تلفاتو
تلفظ
تلل
تللو
تللى
تللي
تللی
تللې
تلمود
تلنې
تله
تلو
تلوسه
تلونکو
تلونکي
تلونکې
تلويزون
تلويزوني
تلويزيون
تلويزيوني
تلویزون
تلویزیون
تلویزیونونه
تلویزیوني
تلي
تليفون
تلپاتې
تلګراف
تلی
تلیفون
تلیفونونو
تلې
تم
تماس
تمام
تمامه
تماميږي
تمامېږي
تمايل
تمایل
تمایلاتو
تمباکو
تمثيل
تمثیل
تمدن
تمدنونه
تمدنونو
تمدید
تمرين
تمرکز
تمرین
تمنا
تمه
تمويل
تمویل
تمځای
تمځي
تمې
تن
تنا
تناسب
تناسلي
تناظر
تناقض
تناوب
تناوبي
تنباکو
تنخوا
تند
تندر
تنده
تندي
تندې
تنر
تنظيم
تنظيمونو
تنظيموي
تنظيمي
تنظيمېږي
تنظیم
تنظیمول
تنظیمولو
تنظیموي
تنظیمي
تنفس
تنفسي
تنقيد
تنقيدي
تنقید
تنه
تنها
تنو
تنور
تنوع
تني
تنکي
تنکۍ
تنګ
تنګه
تنګي
تنګی
تنگ
تنې
ته
تهاجمي
تهانوي
تهديد
تهدید
تهذيب
تهران
تهمت
تهيه
تهیه
تو
توازن
تواضع
توافق
توان
توانايي
توانېدلي
توب
توبرکلوز
توبه
توبې
توت
توتاخېل
توتسي
توتو
توجه
توجو
توجيه
توجیه
توحيد
توحید
توخي
تود
توده
تودو
تودوخه
تودوخي
تودوخی
تودوخې
تودولو
تودې
تور
تورات
توربین
تورخم
تورم
تورن
تورنر
تورنه
تورنوي
توره
تورو
تورونه
تورونو
تورى
توري
تورپوستو
تورپوستي
تورپوستی
تورکي
توری
تورې
توزيع
توزیع
توزېع
توسط
توسعه
توسل
توشیح
توصيف
توصيفي
توصيه
توصیف
توصیفي
توصیه
توضيح
توضیح
توضیحات
توضیحاتو
توضېح
توطي
توطیې
توغندي
توغنديو
توغندی
توغندیو
توغندۍ
توغول
توغولو
توفيق
توقع
توقف
توقيف
توقیف
توكو
توكي
تول
تولد
تولو
توليد
توليدات
توليداتو
توليدولو
توليدونکو
توليدونکي
توليدونکی
توليدونکې
توليدوي
توليدي
توليديږي
توليدېږي
تولید
تولیدات
تولیداتو
تولیدول
تولیدولو
تولیدونکي
تولیدونکی
تولیدوونکي
تولیدوونکی
تولیدوي
تولیدوی
تولیدي
تولیدی
تولیدیږي
تولیدیږی
تولیدېږي
تولېد
توماس
تومنه
تومور
تومورونه
تومورونو
تون
توند
تونس
تونل
توهین
توي
توپ
توپان
توپانونه
توپانونو
توپاني
توپخانه
توپخانې
توپولوژي
توپونه
توپونو
توپوګرافي
توپير
توپيرلري
توپيرونه
توپيرونو
توپيري
توپچي
توپک
توپیر
توپیرونه
توپیرونو
توپیري
توږل
توک
توکل
توکم
توکمه
توکمونه
توکمونو
توکمي
توکميز
توکميزه
توکميزو
توکميزې
توکمپالنه
توکمپالنې
توکمیز
توکمیزه
توکمیزو
توکمیزې
توکه
توکو
توکونو
توکي
توکيو
توکی
توکیو
توکې
توګه
توګو
توگه
توی
تى
تي
تيا
تياتر
تيار
تياره
تيارو
تيارول
تيارې
تيت
تير
تيره
تيرو
تيرولو
تيروي
تيري
تيريدو
تيريږي
تيرې
تيز
تيزاب
تيزابو
تيزابونه
تيزابي
تيزس
تيغ
تيل
تيلفون
تيلو
تيمم
تيمور
تيموري
تيوب
تيودور
تيوري
تيورۍ
تيږه
تيږو
تيږي
تيږې
تپل
تپه
تپوس
تپي
تپې
تړانګه
تړاو
تړاولري
تړل
تړلو
تړلى
تړلي
تړلی
تړلې
تړنه
تړون
تړونونه
تړونونو
تړي
تږي
تښتول
تښتي
تښتېدلو
تښتېدلي
تک
تکامل
تکاملي
تکثر
تکثري
تکثير
تکثیر
تکرار
تکراري
تکرارېږي
تکزاس
تکل
تکلم
تکليف
تکلیف
تکميل
تکمیل
تکنالوژي
تکنالوژی
تکنالوژیکي
تکنالوژۍ
تکيه
تکړه
تکیه
تګ
تګاب
تګزاس
تګلاره
تګلارو
تګلارې
تگ
تگاب
تگلاره
تگلارې
تڼيوال
تڼۍ
تی
تیاتر
تیار
تیاره
تیاری
تیارې
تیبریوس
تیت
تیر
تیره
تیرو
تیري
تیری
تیریدو
تیریږي
تیرې
تیز
تیزاب
تیزابي
تیزس
تیل
تیلفون
تیلو
تیلګو
تیمور
تیمورشاه
تیوري
تیوریو
تیوریکي
تیورۍ
تیونو
تیوډور
تیږو
تیښته
تیښتې
تې
تېر
تېراوه
تېرمهال
تېره
تېرو
تېروتنه
تېروتنو
تېروتنې
تېرول
تېرولو
تېروي
تېرى
تېري
تېريږي
تېری
تېرۍ
تېرې
تېرېدل
تېرېدلو
تېرېده
تېرېدو
تېرېږي
تېز
تېزاب
تېزابو
تېزابي
تېزس
تېزۍ
تېزې
تېغ
تېل
تېلو
تېلوګو
تېمور
تېښته
تېښتې
تېکنالوژي
تېکنالوژۍ
تە
ث
ثابت
ثابته
ثابتو
ثابتولو
ثابتوي
ثابتې
ثابتېږي
ثار
ثارو
ثانوي
ثاني
ثانيه
ثانيو
ثانيې
ثانیه
ثانیو
ثانیې
ثبات
ثباته
ثباتي
ثباتۍ
ثبت
ثبتول
ثبتولو
ثبتوي
ثبوت
ثبوتونه
ثر
ثره
ثروت
ثریت
ثقافت
ثم
ثمره
ثنا
ثواب
ثور
ج
جا
جابر
جابز
جات
جاتو
جاج
جاده
جادو
جاذبه
جاذبوي
جاذبي
جاذبې
جار
جارج
جارو
جاري
جاسوس
جاسوسانو
جاسوسي
جاسوسۍ
جال
جالب
جام
جامد
جامده
جامدو
جامدې
جامع
جامعة
جامعه
جامه
جامو
جامي
جامې
جان
جانان
جانبي
جانز
جانسن
جانسون
جانه
جاني
جاه
جاهليت
جاوا
جاوید
جاوېد
جاي
جايداد
جايز
جايزه
جايزې
جاپان
جاپاني
جاپانيانو
جاپانی
جاپانیانو
جاکارتا
جاکارټا
جاکسون
جای
جایداد
جایزه
جایزو
جایزې
جبر
جبران
جبراي
جبري
جبل
جبه
جبهه
جبهې
جت
جد
جدا
جده
جدول
جدولونو
جدي
جديت
جديد
جدی
جدید
جذب
جذبات
جذباتو
جذبه
جذبولو
جذبوي
جذبيږي
جذبې
جذبېږي
جر
جرا
جرات
جراح
جراحي
جراحۍ
جرايم
جرايمو
جرایمو
جرسي
جرم
جرماني
جرمن
جرمنانو
جرمني
جرمنيانو
جرمنی
جرمنیانو
جرمنۍ
جرمنې
جرمونه
جرمونو
جرمي
جري
جريان
جرياناتو
جريب
جريبه
جريده
جريدې
جرير
جرړې
جرګه
جرګو
جرګې
جرگه
جرگو
جرگې
جریان
جریانونه
جریانونو
جریبه
جریده
جریمه
جریمې
جز
جزء
جزا
جزاي
جزايي
جزایي
جزر
جزوي
جزي
جزيره
جزیات
جزیاتو
جزیره
جزیرو
جزیرې
جس
جسامت
جست
جسد
جسدونه
جسم
جسماني
جسمونه
جسمونو
جسمي
جشن
جشنونه
جشنونو
جعفر
جعل
جعلي
جغتو
جغرافيايي
جغرافيه
جغرافيوي
جغرافيې
جغرافیايي
جغرافیایي
جغرافیایی
جغرافیه
جغرافیوي
جغرافیې
جغل
جــ
جفا
جفت
جفرسن
جفرسون
جل
جلا
جلاتوب
جلال
جلاله
جلالي
جلالکوټ
جلاوالي
جلاوالی
جلاوطنۍ
جلب
جلبولو
جلد
جلده
جلدونو
جلدي
جلسه
جليل
جم
جماع
جماعت
جمال
جمشید
جمع
جمعه
جمعي
جمعيت
جمعیت
جمعې
جمله
جملو
جملي
جملی
جملې
جمهور
جمهورري
جمهوري
جمهوريت
جمهوريتونو
جمهوری
جمهوریت
جمهوریتونه
جمهوریتونو
جمو
جمیعت
جمیل
جمیکا
جن
جناب
جناح
جنازه
جنازې
جنايت
جنايي
جنایت
جنایي
جنبش
جنت
جنتي
جنتیک
جنتیکي
جنجال
جنجالونه
جنجالونو
جنجالي
جندر
جنراتور
جنراتورونه
جنرال
جنرالان
جنرالانو
جنرل
جنس
جنسه
جنسو
جنسونه
جنسونو
جنسي
جنسيت
جنسيتي
جنسی
جنسیت
جنسیتي
جنو
جنوب
جنوبي
جنوبی
جنوري
جنوری
جنورۍ
جنون
جنيتيکي
جنين
جنيټيکي
جنډر
جنګ
جنګونه
جنګونو
جنګي
جنګيالي
جنګياليو
جنګیالي
جنګیالیو
جنگ
جنگسالار
جنگونو
جنگي
جنگيالي
جنگياليو
جنگی
جنیتیکي
جنین
جنینګز
جنیوا
جنیټيکي
جنیټیک
جنیټیکي
جه
جهاد
جهادي
جهاز
جهالت
جهان
جهاني
جهانګیر
جهانگير
جهانی
جهت
جهل
جهلم
جهنم
جهيل
جهيلونه
جهيلونو
جهیل
جو
جواب
جواد
جوار
جوارو
جواز
جوان
جوانا
جواهر
جوبایډن
جوت
جوته
جوتېږي
جوخت
جور
جوراسیک
جورج
جورجيا
جورجیا
جوزا
جوزجان
جوزجاني
جوزف
جوزیف
جوس
جوش
جولاى
جولاي
جولايي
جولای
جولیا
جولیان
جولیوس
جومات
جوماتونه
جوماتونو
جون
جونز
جونګ
جونگ
جونیر
جونیور
جوهان
جوهر
جوچه
جوړ
جوړاوه
جوړجاړي
جوړجاړی
جوړشو
جوړشوي
جوړشوی
جوړشي
جوړل
جوړلو
جوړه
جوړو
جوړول
جوړوله
جوړولو
جوړولوکې
جوړولی
جوړولې
جوړونه
جوړوني
جوړونکو
جوړونکي
جوړونکی
جوړونکې
جوړونې
جوړوو
جوړوونکو
جوړوونکي
جوړوونکی
جوړوونکې
جوړوي
جوړوی
جوړي
جوړيدل
جوړيدو
جوړيږي
جوړښت
جوړښتونه
جوړښتونو
جوړښتي
جوړکړي
جوړی
جوړیدل
جوړیدو
جوړیږي
جوړیږی
جوړې
جوړېدای
جوړېدل
جوړېدلو
جوړېدنه
جوړېده
جوړېدو
جوړېږي
جوړېږی
جوګه
جوگه
جوی
جویس
جي
جيل
جيلاني
جيم
جيمز
جين
جينوم
جينونه
جينونو
جيو
جيولوژي
جيولوژيکي
جټ
جک
جکسن
جکسون
جکړې
جګ
جګه
جګړن
جګړه
جګړو
جګړي
جګړې
جگ
جگړه
جگړو
جگړې
جی
جیب
جیفرسن
جیل
جیم
جیمز
جیمي
جین
جینوا
جینوم
جینومیک
جینونه
جینونو
جینوټایپ
جینیوا
جینیټيکي
جینیټیک
جینیټیکي
جیو
جیولوژي
جیولوژيکي
جیولوژیکي
جیټ
جیک
جیکسن
جې
جېل
جېمز
جېن
جېنوم
جېنونه
جېنونو
جېټ
ح
حا
حاتم
حاجت
حاجي
حاجی
حاجیانو
حاد
حادثه
حارث
حاشیه
حاصل
حاصلات
حاصلاتو
حاصلخيزي
حاصله
حاصلولو
حاصلوي
حاصليږي
حاضر
حاضری
حافظ
حافظه
حافظې
حاكم
حال
حالات
حالاتو
حالاتوکې
حالت
حالته
حالتونه
حالتونو
حاله
حامد
حامله
حاکم
حاکمان
حاکمانو
حاکمه
حاکميت
حاکمیت
حب
حباب
حبس
حبشې
حبوبات
حبوباتو
حبيب
حبيبي
حبیب
حبیبي
حتا
حتما
حتمي
حتى
حتي
حتی
حج
حجاب
حجاج
حجاز
حجازي
حجت
حجر
حجرات
حجراتو
حجره
حجرو
حجروي
حجري
حجريي
حجری
حجرې
حجم
حد
حداد
حداقل
حده
حدود
حدودو
حديث
حديثو
حديثونه
حديثونو
حدیث
حدیثو
حدیثونه
حذف
حرا
حرارت
حرارتي
حرام
حرامه
حرامو
حراني
حرب
حربي
حرص
حرف
حرفه
حرفوي
حركت
حرم
حرمت
حروف
حروفو
حرکات
حرکاتو
حرکت
حرکتونه
حرکتونو
حرکي
حریم
حزب
حزم
حس
حساب
حسابونه
حسابونو
حسابي
حسابيږي
حساس
حساسه
حساسو
حساسيت
حساسیت
حسام
حسان
حسد
حسرت
حسن
حسنه
حسني
حسه
حسي
حسين
حسین
حسېن
حشرات
حشراتو
حشره
حشرو
حشرې
حصار
حصاره
حصارک
حصه
حضرت
حضور
حفاظت
حفاظتي
حفظ
حفيظ
حفیظ
حق
حقاني
حقايق
حقايقو
حقایق
حقایقو
حقدار
حقله
حقه
حقوق
حقوقو
حقوقي
حقوقی
حقونه
حقونو
حقيقت
حقيقي
حقیقت
حقیقتونو
حقیقي
حكم
حكمت
حكمونو
حكومت
حكيم
حل
حلال
حلب
حلزون
حلقه
حلقو
حلقوي
حلقې
حلولو
حلوي
حليم
حليږي
حماد
حماسه
حماسي
حماقت
حمام
حمايت
حمايه
حمایت
حمد
حمدالله
حمزه
حمل
حمله
حملو
حملي
حملې
حميد
حميدي
حمید
حنبل
حنبليانو
حنفي
حنفيانو
حنيف
حنيفه
حوا
حوادثو
حواس
حواسو
حواله
حوالې
حوزه
حوزو
حوزې
حوصله
حوصلې
حوض
حيا
حيات
حياتي
حيث
حيثيت
حيدر
حيران
حيرانتيا
حيض
حيوان
حيوانات
حيواناتو
حيواني
حکاکي
حکم
حکمت
حکمتيار
حکمتیار
حکمران
حکمرانانو
حکمونه
حکمونو
حکومت
حکومتولي
حکومتولۍ
حکومتونه
حکومتونو
حکومتي
حکومتی
حکيم
حکیم
حیات
حیاتي
حیث
حیثه
حیثیت
حیدر
حیران
حیرانتیا
حیوان
حیوانات
حیواناتو
حیواني
حیوانی
خ
خا
خاتم
خاتون
خاد
خادم
خارج
خارجوي
خارجي
خارجية
خارجيږي
خارجی
خارجې
خارق
خارښت
خاص
خاصه
خاصو
خاصي
خاصيت
خاصيتونه
خاصی
خاصیت
خاصې
خاطر
خاطرات
خاطراتو
خاطره
خاطرې
خال
خالد
خالص
خالصه
خالصې
خالق
خاله
خالي
خاليګاه
خام
خامخا
خامه
خامو
خاموش
خاموشه
خان
خانات
خانانو
خاندان
خانقاه
خانم
خانه
خانو
خانوار
خاني
خانې
خاور
خاوره
خاورو
خاورى
خاوري
خاورين
خاوری
خاورې
خاوند
خاوندان
خاوندانو
خاونده
خاک
خاکريز
خاکریز
خاکه
خای
خبار
خبر
خبرتيا
خبرتیا
خبرداري
خبرداری
خبرنا
خبره
خبرو
خبرواترو
خبرول
خبرونه
خبرونو
خبروي
خبري
خبريال
خبريالان
خبريالانو
خبريالۍ
خبری
خبریال
خبریالان
خبریالانو
خبرې
خت
ختل
ختلو
ختم
ختمه
ختمول
ختمولو
ختمېدو
ختنه
ختيز
ختيځ
ختيځه
ختيځو
ختيځي
ختيځې
ختیځ
ختیځه
ختیځو
ختیځې
خج
خدا
خداى
خداي
خدايان
خدايانو
خدايه
خدايي
خدای
خدایان
خدایانو
خدایه
خدایي
خدمات
خدماتو
خدماتي
خدمت
خدمتونه
خدمتونو
خدمتګار
خدمتگار
خدمتگارو
خدمې
خديجه
خديجې
خذ
خر
خراب
خرابه
خرابو
خرابوالي
خرابوي
خرابي
خرابيږي
خرابیدو
خرابۍ
خرابې
خرابېدو
خراج
خراسان
خراساني
خرافات
خرافاتو
خرت
خرس
خرقه
خرقې
خرم
خرما
خره
خرو
خروار
خروج
خروشتهي
خرون
خري
خرڅ
خرڅلاو
خرڅول
خرڅولو
خرڅوي
خزان
خزانه
خزانو
خزانې
خزنده
خسر
خسرو
خصلت
خصوصا
خصوصي
خصوصيات
خصوصياتو
خصوصيت
خصوصی
خصوصیات
خضر
خط
خطا
خطاب
خطبه
خطبې
خطر
خطرناک
خطرناکه
خطرناکو
خطرناکې
خطره
خطرونه
خطرونو
خطونه
خطونو
خطي
خطيب
خطیب
خفه
خفو
خفيف
خفګان
خلا
خلاص
خلاصه
خلاصو
خلاصول
خلاصولو
خلاصون
خلاصوي
خلاصي
خلاصيږي
خلاصې
خلاف
خلافت
خلاقیت
خلجي
خلجیان
خلجیانو
خلدون
خلع
خلف
خلفاوو
خلق
خلقت
خلقو
خلك
خلكو
خليج
خليفه
خليل
خلک
خلکو
خلکوته
خلګ
خلګو
خلگ
خلگو
خلیج
خلیفه
خلیل
خلیلزاد
خلیلي
خم
خمر
خمس
خمير
خميره
خميني
خمیر
خمیني
خنثى
خنثی
خنجر
خندا
خندق
خنډ
خنډونه
خنډونو
خه
خو
خوا
خواب
خواته
خواجه
خواخوږي
خواخوږی
خواخوږۍ
خوار
خوارج
خوارجو
خوارزم
خوارزمي
خواره
خواري
خوارځواکۍ
خوارۍ
خواشيني
خواشينۍ
خواشیني
خواشینی
خواشینۍ
خواص
خواصو
خواله
خوان
خواه
خواهش
خواو
خواوو
خواوې
خواړه
خواړو
خواږه
خواښې
خواکې
خوب
خوبه
خوبونه
خوبونو
خوبياهم
خوجه
خود
خودمختاره
خور
خورا
خوراك
خوراک
خوراکونو
خوراکي
خورشيد
خوره
خورو
خوري
خوری
خورې
خوزستان
خوزه
خوزښت
خوسا
خوست
خوش
خوشال
خوشاله
خوشالي
خوشالۍ
خوشحال
خوشحاله
خوشحالي
خوشحالۍ
خوشي
خوشی
خوشې
خوله
خولو
خولي
خولۍ
خولې
خون
خوند
خونده
خوندور
خوندي
خونديتابه
خونديتوب
خوندی
خوندیتوب
خوندې
خونه
خونو
خوني
خونړي
خونړۍ
خونې
خوى
خوي
خويندو
خويندې
خوټېدنې
خوپه
خوځنده
خوځندکو
خوځندکې
خوځښت
خوځښتونه
خوځښتونو
خوړ
خوړل
خوړله
خوړلو
خوړلي
خوړلی
خوړلې
خوړو
خوړولو
خوړونه
خوړونو
خوړونکو
خوړونکي
خوړونکی
خوړونکې
خوږ
خوږه
خوږو
خوږې
خوښ
خوښه
خوښول
خوښوونکي
خوښوي
خوښي
خوښی
خوښۍ
خوښې
خوښېده
خوښېږي
خوکله
خوکه
خوګ
خوګانو
خوی
خویندو
خویندې
خوېندو
خوېندې
خي
خيال
خيالي
خيانت
خيبر
خير
خيرات
خيريه
خيشکي
خيل
خيلو
خټه
خټو
خټک
خټکو
خټکي
خټینو
خټې
خپاره
خپراوي
خپرندويه
خپرندويې
خپرندوی
خپرندویه
خپره
خپرو
خپرول
خپرولو
خپرولې
خپرونه
خپرونو
خپروني
خپرونکی
خپرونې
خپروونکي
خپروونکی
خپروي
خپريدل
خپريدو
خپريږي
خپرښت
خپریدل
خپریدو
خپریږي
خپرې
خپرېدل
خپرېدلو
خپرېدنه
خپرېدنې
خپرېده
خپرېدو
خپرېدونکی
خپرېدونکې
خپرېږي
خپل
خپلسري
خپلمنځي
خپله
خپلو
خپلواكۍ
خپلوان
خپلوانو
خپلواک
خپلواکه
خپلواکو
خپلواکي
خپلواکی
خپلواکۍ
خپلواکې
خپلولو
خپلوي
خپلوۍ
خپلي
خپلی
خپلې
خپه
خپور
خپګان
خپگان
خځلو
خځلې
خځنده
خړ
خړو
خړوب
خړوبه
خړوبولو
خړوبوي
خړې
خښ
خښته
خښتو
خښتې
خښولو
خیال
خیالي
خیانت
خیبر
خیر
خیرات
خیریه
خیل
خیلو
خېبر
خېر
خېل
خېلو
خېمې
خېټه
خېټې
د
دا
داب
دابن
دابه
دابو
داتوم
داخبره
داخل
داخله
داخلوي
داخلي
داخليږي
داخلی
داخلې
داخلېدل
داخلېدو
داخلېږي
داد
دادارى
داداری
دادالله
داده
دادى
دادي
دادی
دار
دارالعلوم
دارالمعلمين
داران
دارانو
دارای
دارتفاع
دارد
دارنګه
دارنگه
داره
دارو
داروين
داروپا
داروین
داري
داريوش
دارګ
داری
داریوش
دارۍ
دارې
داس
داستاد
داستان
داستانونه
داستانونو
داستاني
داستراحت
داستعمال
داستفادي
داستفادې
داستلین
داسد
داسلام
داسلامي
داسهال
داسى
داسي
داسی
داسې
داشت
داصلاح
داصلي
داعش
داعي
داغ
داغستان
داغونه
دافغان
دافغانستان
داقتصادي
داقليم
دال
دالاس
دالان
دالديهايدونو
دالقاح
دالقلي
دالله
دالکترون
دالکولو
دام
دامام
دامان
دامريکا
دامریکا
دامز
دامنیت
دامو
دامير
دامیر
دان
دانتقال
داندازه
داندلس
دانرژي
دانسان
دانسانانو
دانساني
دانش
دانشنامه
دانه
دانو
داني
دانګریزانو
دانګلستان
دانیال
دانیل
دانې
داهغه
داهل
داهم
داو
داوبو
داوبوسره
داود
داور
داوروژنې
داورښت
داوزون
داوس
داوسني
داوطلب
داوطلبانه
داوه
داوود
داوي
داوړي
داوکراین
داى
داي
دايرة
دايره
دايروي
دايرې
دايمي
دايو
دايودين
دايې
داټول
داپه
داپيتيل
داځل
داځکه
داچه
داچي
داچی
داچې
داډول
داړتيا
داکار
داکتر
داکسيجن
داکسيديشن
داکسیدیشن
دای
دایر
دایران
دایرة
دایره
دایروي
دایرې
دایمي
دایمی
دب
دباد
دبادماتوونکو
دباران
دباغ
دباندي
دباندې
دبدلون
دبدن
دبديع
دبرخې
دبرق
دبريښنا
دبل
دبنو
دبهرنیو
دبوټو
دبي
دبيلګې
دبې
دبېلګې
دت
دتا
دتاج
دتاريخ
دتاریخ
دتايرايدغدي
دتجارت
دتخريب
دتخم
دتخمونو
دتشخيص
دتطبيق
دتعامل
دتل
دتنظيم
دتنفس
دتنې
دتودوخي
دتودوخې
دتوليد
دتولید
دجذب
دجريان
دجسم
دجلې
دجمعې
دجنازې
دجنت
دجنوب
دجنوبي
دجنګ
دجنگ
دجهاد
دجوړولو
دجوړښت
دجګړې
دحاصل
دحج
دحجم
دحرارت
دحرکت
دحشراتو
دحضرت
دحق
دحقوقو
دحل
دحمل
دحميد
دحيوان
دحيواناتو
دحکومت
دخارجي
دخالت
دخاوري
دخاوری
دخاورې
دخداى
دخدای
دخدمت
دخلافت
دخلکو
دخوراک
دخولى
دخولي
دخولې
دخوړو
دخيبر
دخپل
دخپلو
دخپلي
دخپلې
دخیل
دد
دداخلي
دداسې
ددرجې
ددغه
ددغو
ددغي
ددغی
ددغې
ددنيا
دده
ددواړو
ددولت
ددولتي
ددوه
ددوهم
ددوو
ددوى
ددوي
ددوی
ددوې
ددى
ددي
ددين
ددښمن
ددی
ددې
در
درا
دراز
درامنځته
درانده
درانه
دراني
درانی
دربار
درباره
درباري
درباندې
دربړ
درته
درج
درجه
درجو
درجي
درجی
درجې
درخانۍ
درخواست
درد
درده
دردونه
دردونو
درز
درزا
درزونه
درزونو
درس
درست
درسته
درستیز
درسره
درسول
درسونه
درسونو
درسي
درسی
درشل
درطوبت
درغلي
درغلیو
درغلۍ
درك
درلود
درلودل
درلودلای
درلودله
درلودلو
درلودلی
درلودلې
درلوده
درلودو
درلودونكي
درلودونکو
درلودونکي
درلودونکی
درلودونکې
درلودي
درلودی
درلودې
درمل
درملتون
درملنه
درملنو
درملنې
درملو
درملي
درناوى
درناوي
درناوی
درنده
درندو
درنه
درنو
درنښت
درنګړي
درنې
دره
درهم
درهمه
درو
دروازه
دروازو
دروازې
درواغ
درواغو
درود
دروغ
دروغجن
دروغو
درول
درولو
دروم
درومي
دروند
دروي
درویش
دروېش
درى
دري
دريا
درياب
دريم
دريمه
دريو
دريځ
دريځو
درک
درکه
درکوي
درکړي
درڼا
دری
دریا
دریافت
دریم
دریمه
دریمې
دریو
دریوو
دریځ
دریځه
دریځونه
دریځونو
درۍ
درې
درېدل
درېدو
درېم
درېمه
درېمې
درېو
درېيم
درېيمه
درېيمې
درېيو
درېځ
درېږي
درېیم
درېیمه
درېیمې
درېیو
دزده
دزراعت
دزيات
دزياتو
دزياتوالي
دزړه
دساتل
دساتني
دساتنې
دساحې
دسازمان
دسانتي
دست
دستار
دستر
دسترخوان
دسترګو
دسته
دستور
دستګاه
دستګاوو
دستګاوې
دستگاه
دسر
دسرطان
دسرعت
دسره
دسرچینی
دسطحي
دسطحې
دسلطان
دسمال
دسمبر
دسند
دسوخت
دسوديم
دسوري
دسون
دسوځيدنې
دسوځيدو
دسي
دسيستم
دسيسه
دسيسې
دسيمي
دسيمين
دسيمې
دسيند
دسيندونو
دسیسه
دسیسې
دسیمې
دشاتو
دشام
دشاه
دشت
دشخصي
دشرابو
دشريد
دشمال
دشمالي
دشمن
دشهادت
دشيدو
دشين
دشپې
دشکل
دصابون
دصنعت
دصنعتي
دضرورت
دطالبانو
دطبعي
دطبقې
دطبيعي
دعا
دعادي
دعامه
دعثمان
دعثماني
دعراق
دعربو
دعربي
دعضلى
دعضوي
دعلامه
دعلم
دعمر
دعمل
دعملي
دعمومي
دعمومی
دعوا
دعوت
دعوه
دعوو
دعوی
دعوې
دغذا
دغذايي
دغره
دغرونو
دغزني
دغسي
دغسې
دغلته
دغنمو
دغه
دغو
دغور
دغي
دغير
دغړو
دغی
دغې
دفاع
دفاعي
دفتر
دفترونه
دفترونو
دفشار
دفع
دفعاليت
دفن
دقانون
دقبيلې
دقت
دقرا
دقران
دقطعه
دقوم
دقوي
دقيق
دقيقه
دقيقو
دقيقې
دقیق
دقیقا
دقیقه
دقیقو
دقیقې
دل
دلا
دلارى
دلاري
دلارې
دلاس
دلاسته
دلاستيک
دلاسه
دلال
دلالت
دلاندي
دلاندی
دلاندې
دلاور
دلاي
دلايل
دلايلو
دلایل
دلایلو
دلتا
دلته
دلرګي
دلرګيو
دلرګی
دلغمان
دلمانځه
دلمر
دلمون
دله
دلو
دلومړي
دلوى
دلوي
دلويو
دلوړ
دلوړو
دلوگر
دلوی
دليل
دلچسپي
دلیل
دلیلونه
دلیلونو
دلې
دم
دمارچ
دماشوم
دماشومانو
دماشين
دماغ
دماغو
دماغي
دمالي
دمايع
دمثال
دمحلول
دمحلي
دمحمد
دمخ
دمختلفو
دمخنيوي
دمخه
دمرکزي
دمرګ
دمسلمانانو
دمشق
دمصر
دمصنوعي
دمعدي
دمعدې
دمعلوماتو
دملا
دملي
دملی
دمنځه
دمه
دمهمو
دمو
دموادو
دموجوده
دموجوديت
دمور
دموضوع
دمولوي
دموکراتيک
دموکراتیک
دموکراسۍ
دمينې
دميوو
دمړينې
دمیاشتې
دمې
دنا
دناروغ
دناروغۍ
دنايتروجن
دنبات
دنباتاتو
دنجارۍ
دنده
دندو
دندي
دندی
دندې
دنرسرۍ
دنفوسو
دننه
دنني
دننګرهار
دننۍ
دنه
دنور
دنورو
دنوم
دنوموړو
دنوموړي
دنوموړی
دنوموړې
دنوي
دنيا
دنيالګيو
دنيايي
دنړي
دنړۍ
دنګو
دنیا
دنیوي
ده
دهارټيكلچر
دهايدروجن
دهایدروجن
دهجرت
دهد
دهر
دهرات
دهراوت
دهرزه
دهرې
دهستې
دهشت
دهغه
دهغو
دهغوى
دهغوي
دهغوی
دهغوۍ
دهغوې
دهغى
دهغي
دهغی
دهغې
دهقان
دهلمند
دهلوي
دهلي
دهلی
دهلېز
دهمدي
دهمدې
دهند
دهندوستان
دهوا
دهيواد
دهډوکو
دهیواد
دهېواد
دو
دوا
دواده
دوام
دوامدار
دوامداره
دوامدارې
دواړه
دواړو
دواړې
دواکمنۍ
دوباره
دوبي
دوبی
دوبۍ
دوتنه
دوحشي
دوحه
دوخت
دود
دودولو
دودونه
دودونو
دودي
دوديز
دوديزه
دوديزو
دوديزې
دودیز
دودیزه
دودیزو
دودیزې
دودې
دور
دوران
دورانونه
دورانونو
دوراني
دوره
دورو
دوري
دورځې
دوری
دورې
دوز
دوزخ
دوزن
دوست
دوستان
دوستانه
دوستانو
دوستم
دوستي
دوستۍ
دوشس
دوشنبه
دوشنبې
دوطن
دوعا
دول
دولت
دولته
دولتونه
دولتونو
دولتي
دولتی
دولس
دولسم
دولسمه
دولسمې
دولسو
دوم
دومره
دومینیکن
دون
دونباس
دونه
دونو
دوني
دونيا
دونې
دوه
دوهم
دوهمه
دوهمي
دوهمې
دوو
دوولس
دوولسم
دوولسمه
دوولسو
دوى
دوي
دويم
دويمه
دويمې
دويني
دوينې
دويټامين
دوچي
دوړ
دوړو
دوړې
دوښمن
دوک
دوکاس
دوکان
دوکانونه
دوکانونو
دوکتور
دوکتورا
دوکتورینو
دوکه
دوی
دویم
دویمه
دویمي
دویمې
دوۍ
دوې
دوېم
دوېمه
دى
دي
ديا
ديارلس
ديارلسم
ديارلسمه
ديارلسمې
ديارلسو
ديته
ديخ
ديد
دير
ديرش
ديسمبر
ديش
ديموکرات
ديموکراتانو
ديموکراتيک
ديموکراسي
ديموکراسۍ
دين
دينار
ديناره
دينه
دينونو
ديني
دينې
ديو
ديوال
ديوالونه
ديوالونو
ديوان
ديوبند
ديوبندي
ديوه
ديوى
ديوي
ديوې
ديپارتمنت
ديپلوم
ديپلومات
ديپلوماسۍ
ديږي
دټول
دټولنيزې
دټولنې
دټولو
دټيټ
دپاره
دپاسه
دپاليسي
دپاليسۍ
دپام
دپاکستان
دپاڼو
دپرمختګ
دپلار
دپلان
دپنسلين
دپوتاشيم
دپورتني
دپورته
دپوره
دپوستکي
دپوستکې
دپوځ
دپيسو
دپيښور
دپښتنو
دپښتني
دپښتو
دځان
دځمکي
دځمکی
دځمکې
دځنګل
دځنګلونو
دځنګلي
دځينو
دځینو
دڅاه
دڅه
دڅو
دڅښلو
دچا
دچاپ
دچاپيريال
دچاپیریال
دډير
دډيرو
دړې
دژمي
دژوند
دژونديو
دښار
دښاري
دښت
دښته
دښتو
دښتي
دښتې
دښمن
دښمنان
دښمنانو
دښمني
دښمنۍ
دښه
دښوونې
دښځو
دښځې
دکابل
دکار
دکاربن
دکارکوونکو
دکال
دکتاب
دکتور
دکتورا
دکرلو
دکرني
دکرنې
دکلسيم
دکلي
دکم
دکموالي
دکمپيوټر
دکمښت
دکن
دکنترول
دکندهار
دکنفوسيوس
دکور
دکورني
دکورنۍ
دکوريوليز
دکوم
دکونړ
دکوپراتیف
دکوپرې
دکيميا
دکيمياوي
دککړتيا
دګاز
دگرده
دگلانو
دہ
دی
دیارلس
دیارلسم
دیارلسمه
دیارلسمې
دیارلسو
دیدرو
دیر
دیرش
دیره
دیش
دیموکرات
دیموکراتانو
دیموکراتیک
دیموکراتیکو
دیموکراسي
دیموکراسۍ
دین
دینار
دینداره
دینه
دینونه
دینونو
دیني
دینی
دینې
دیو
دیوا
دیوال
دیوالونه
دیوالونو
دیوان
دیوبند
دیوبندي
دیوجانس
دیوه
دیوی
دیوې
دیپلماتیک
دیپلماتیکو
دیپلوم
دیپلوماتیک
دیکارت
دیکتاتور
دیکتاتوري
دیکتاتورۍ
دیگر
دۍ
دې
دېته
دېخوا
دېر
دېرش
دېرشم
دېرشمه
دېرشو
دېره
دېش
دېموکراتیک
دېموکریتوس
دېوال
دېوالونه
دېوالونو
دېوان
دے
دە
ذ
ذا
ذات
ذاتي
ذبح
ذبیح
ذخاير
ذخيره
ذخيرې
ذخیره
ذخیرې
ذرات
ذراتو
ذربايجان
ذربایجان
ذره
ذرو
ذروي
ذري
ذريعه
ذریعه
ذرې
ذكر
ذلت
ذمه
ذهبي
ذهن
ذهنونو
ذهني
ذهنيت
ذهنیت
ذوالفقار
ذوالقرنين
ذوالقرنین
ذوب
ذوق
ذي
ذکاوت
ذکر
ذکرشوي
ذکي
ر
را
راباسي
راباندې
رابرت
رابرسېره
رابرټ
رابط
رابطه
رابطو
رابطې
رابلل
رابللو
رابولي
رابي
رابین
راتاو
راتلاى
راتلای
راتلل
راتللو
راتله
راتلو
راتلونكي
راتلونکو
راتلونکي
راتلونکی
راتلونکې
راته
راتګ
راتگ
راثبارډ
راج
راجا
راجر
راجستان
راجستر
راجع
راجعون
راجلب
راجلبولو
راجمع
راجیه
راحت
راخېستى
رادار
رادبره
راديو
رادیو
رادیويي
رادیکال
رادیکالي
رارسېدو
راروان
راز
رازق
رازونه
رازونو
رازي
راس
راستانه
راستنه
راستنیدو
راستنېدو
راسته
راستون
راسره
راسل
راسي
راسپړي
راشد
راشنه
راشه
راشي
راشی
راضي
راغلاست
راغلل
راغلم
راغله
راغلو
راغلى
راغلي
راغلی
راغلې
راغونډ
راغونډولو
راغونډې
راغوښتل
راغى
راغي
راغی
راغې
راكړه
رالز
رالف
رالوی
رالي
رالېږد
رالېږل
رام
رامافوسا
رامنځ
رامنځته
رامه
رامي
رامينځ
رامينځته
رامینځ
رامینځته
رامۍ
رامېنځ
ران
رانا
رانازل
رانغاړل
رانغاړلو
رانغاړي
رانغښتي
رانقل
رانه
راني
رانيسي
رانيولو
رانډولف
رانږدې
راه
راهب
راهبان
راهبانو
راهبه
راهيسي
راهيسې
راهیسي
راهیسی
راهیسې
راو
راواړاوه
راوباسي
راوبلل
راوتل
راوتلو
راوتلي
راوتلی
راوتلې
راورسيد
راورسېد
راورسېدل
راوروسته
راورټي
راوست
راوستل
راوستلای
راوستلو
راوستلې
راوسته
راوستو
راوستي
راوستی
راوستې
راوغوښت
راوغوښتل
راول
راولاړ
راولاړېږي
راولو
راولي
راولپنډۍ
راولی
راونغاړي
راووت
راووتل
راووته
راووست
راووځي
راووړ
راوي
راويستل
راوپارول
راوپاروله
راوځي
راوړ
راوړل
راوړلو
راوړم
راوړنه
راوړنو
راوړني
راوړنې
راوړه
راوړو
راوړى
راوړي
راوړی
راوړې
راوګرځي
راوګرځېد
راوګرځېده
راى
راي
رايه
رايو
رايټ
رايې
راټول
راټوله
راټولو
راټولول
راټولولو
راټولونه
راټولوونکی
راټولوي
راټوليږي
راټولیږي
راټولې
راټولېدل
راټولېدو
راټولېږي
راټيټ
راټيټه
راټیټ
راټیټه
راپاتې
راپدېخوا
راپرځولو
راپه
راپور
راپورتاژ
راپورته
راپورونه
راپورونو
راپيدا
راپیدا
راپیل
راپېژندل
راپېژني
راځه
راځو
راځى
راځي
راځی
راځې
راڅخه
راڅرخي
راڅرګند
راڅرګنده
راڅرګندې
راڅرګندېدل
راڅرګندېدو
راڅرګندېږي
راڅرگند
راډيو
راډيواکتيف
راډيوي
راډيويي
راډیو
راډیويي
راډیوګانې
راډیویي
راډیکال
راژوندي
راژوندی
راژوندۍ
راښيي
راښکاره
راښکته
راښکون
راښکونکي
راښکونکې
راک
راکاږي
راکش
راکم
راکمه
راکمولو
راکموي
راکوي
راکټ
راکټي
راکډه
راکړ
راکړل
راکړه
راکړو
راکړي
راکړی
راکړې
راکښته
راګرځي
راګرځېدو
رای
رایج
رایش
راین
رایه
رایو
رایټ
رایې
رب
رباب
رباط
رباعي
رباني
ربط
ربع
ربعه
ربنز
ربه
ربي
ربيع
ربړ
ربیع
رت
رتبه
رتبو
رتبې
رتن
رتور
رتي
رجال
رجب
رجم
رجوع
رح
رحم
رحمان
رحمانه
رحماني
رحمة
رحمت
رحمن
رحمه
رحيم
رحیم
رخ
رخت
رخصت
رخصتي
رخصتیو
رخصتۍ
رد
رده
ردول
ردولو
ردوي
رديف
ردیف
رزق
رس
رسا
رسالة
رسالت
رساله
رسالو
رسالې
رسامي
رساوه
رستم
رستورانت
رسل
رسم
رسما
رسمونه
رسمي
رسميت
رسمی
رسمیت
رسمې
رسنيو
رسنیز
رسنیو
رسنۍ
رسوا
رسوايي
رسوايۍ
رسوب
رسوبات
رسوباتو
رسوبي
رسول
رسولانو
رسولای
رسوله
رسولو
رسولى
رسولي
رسولی
رسولې
رسونکي
رسونې
رسوونکو
رسوونکي
رسوونکی
رسوونکې
رسوي
رسوی
رسي
رسيدل
رسيدلي
رسيدلې
رسيده
رسيدو
رسيږي
رسټین
رسی
رسیدل
رسیدلو
رسیدلي
رسیدلی
رسیدلې
رسیده
رسیدو
رسیږي
رسیږی
رسۍ
رسېد
رسېدل
رسېدلای
رسېدلو
رسېدلى
رسېدلي
رسېدلی
رسېدلې
رسېدنه
رسېدنې
رسېده
رسېدو
رسېږي
رش
رشاد
رشت
رشته
رشتو
رشتې
رشد
رشف
رشوت
رشيد
رشيف
رشید
رشیف
رض
رضا
رضايت
رضاکارانه
رضاکارانو
رضایت
رضوان
رضوي
رضى
رضي
رضی
رطوبت
رعايت
رعایت
رغاونې
رغنده
رغول
رغولو
رغونه
رغونې
رغېدو
رفتار
رفع
رفيع
رفيق
رفيقي
رفیع
رفیق
رقابت
رقابتي
رقم
رقمي
رقمی
رقيب
رقيق
رقیب
رقیق
ركن
رم
رمان
رمز
رمزي
رمضان
رمه
رمو
رمټ
رمې
رن
رنجيت
رنجیت
رنسانس
رنومد
رنځ
رنځور
رنځونو
رنځپوهنه
رنځپوهنې
رنډ
رنګ
رنګارنګ
رنګه
رنګونه
رنګونو
رنګي
رنګين
رنګړي
رنګین
رنگ
رنگه
رنگونه
رنگونو
رنۍ
ره
رهبر
رهبران
رهبرانو
رهبري
رهبری
رهبرۍ
رهنمايي
رهي
رو
روا
روابط
روابطو
رواج
رواجونه
رواجونو
روان
روانه
روانو
رواني
روانپوهنه
روانپوهنې
روانډا
روانې
رواه
روايات
رواياتو
روايت
روايتونه
روايتونو
روايتوي
روايتي
روایاتو
روایت
روایتونه
روایتونو
روباټ
روباټونه
روباټیک
روبرت
روت
روتر
روج
روح
روحاني
روحانيت
روحانيونو
روحانی
روحانیت
روحانیونو
روحونو
روحي
روحيه
روحيې
روحیه
روحیې
رود
روداتو
رودن
رودونه
روديشيا
رورټي
روز
روزا
روزل
روزلو
روزلي
روزنه
روزني
روزنیز
روزنیزو
روزنې
روزولت
روزولټ
روزونکي
روزونکی
روزونکې
روزي
روزګار
روزګارۍ
روزگان
روس
روسان
روسانو
روسته
روسو
روسي
روسيه
روسيې
روسی
روسیه
روسیې
روسۍ
روسې
روش
روشن
روشنګري
روشنګرۍ
روغ
روغبړ
روغتون
روغتونونه
روغتونونو
روغتيا
روغتيايي
روغتیا
روغتیايي
روغتیایي
روغه
روغو
روغي
روغې
رول
رولونه
رولونو
روم
روماتيک
رومان
رومانتيک
رومانتیک
رومانس
روماني
رومانيا
رومانیا
رومانیایي
رومن
رومي
روميان
روميانو
رومی
رومیان
رومیانو
رون
رونالډ
رونالډو
رونو
روه
روهي
روهیال
روي
رويه
روټر
روټین
روپو
روپیو
روپۍ
روډ
روډولف
روږدي
روژه
روژې
روښان
روښانتيا
روښانتیا
روښانفکرۍ
روښانه
روښانولو
روښاني
روښنايي
روڼ
روڼتیا
روی
رویال
رویه
ري
ريا
رياست
رياض
رياضت
رياضي
رياضيات
رياضياتو
رياضياتي
رياضيکي
ريانا
ريايي
ريخ
ريخي
ريزين
ريس
ريل
رينچ
رييس
ريچارډ
ريښتيا
ريښتيني
ريښتينې
ريښه
ريښو
ريښي
ريښې
ريکارډ
ريکو
ريګن
رټ
رټل
رپ
رپوټ
رپوټونه
رپوټونو
رژيم
رژیم
رژیمونو
رښتيا
رښتين
رښتينولۍ
رښتينى
رښتيني
رښتينی
رښتينې
رښتیا
رښتیني
رښتینی
رښتینې
رک
رکاي
رکن
رکود
رګ
رګه
رګونه
رګونو
رگونو
رڼا
رڼايي
رڼې
ری
ریا
ریاست
ریاض
ریاضت
ریاضي
ریاضيکي
ریاضی
ریاضیات
ریاضیاتو
ریاضیکي
ریالیزم
ریان
ریانا
ریایي
ریس
ریل
ریمونډ
ریموټ
رین
ریو
ریچارد
ریچارډ
ریډ
ریښتیا
ریښتیني
ریښتینی
ریښتینې
ریښه
ریښو
ریښې
ریک
ریکا
ریکارډ
ریکارډونه
ریکارډونو
ریکو
ریګان
ریګن
ریگ
رییس
رییسي
رې
رېل
رېونده
رېږدلې
رېښه
رېښو
رېښې
رېګان
ز
زابل
زابلي
زاد
زاده
زادو
زادولو
زادي
زادی
زادیو
زادۍ
زادې
زار
زامبیا
زامن
زامنو
زانګو
زاهد
زاهدان
زاويه
زاويې
زاویه
زاویې
زاپاتا
زاړه
زاید
زبات
زبان
زبرځواک
زبور
زبير
زبیر
زحل
زحمت
زخم
زخمونه
زخمونو
زخمي
زخه
زخو
زخي
زخې
زده
زدکړه
زدکړو
زدکړي
زدکړې
زر
زراعت
زراعتي
زراعتی
زرتشترا
زردالو
زردستر
زردشت
زردشتي
زرغون
زرغونه
زرغونې
زرق
زرمت
زرملوال
زرنج
زره
زرو
زريزه
زريزې
زرين
زرګونه
زرګونو
زرگران
زرگونه
زرگونو
زریزه
زریزې
زرین
زرې
زعفران
زغره
زغرې
زغم
زغمل
زغملو
زغمي
زكات
زلزله
زلزلو
زلزلې
زلفو
زلفې
زلمى
زلمي
زلمی
زم
زما
زمان
زمانه
زمانو
زماني
زمانی
زمانې
زمخشري
زمرى
زمري
زمرک
زمری
زمزم
زمزمه
زمونږ
زمونږه
زموږ
زمين
زمينه
زمکه
زمکې
زمین
زمینه
زمینې
زن
زنا
زنجان
زنجپيل
زند
زندان
زندانه
زندانونو
زنداني
زندانیانو
زنده
زندگی
زنځير
زنځیر
زنک
زنګ
زنګون
زنګي
زه
زهد
زهر
زهرا
زهرجن
زهرجنو
زهره
زهرو
زهري
زهريت
زهری
زهرې
زهکشي
زو
زوال
زوجي
زور
زوره
زورور
زوریخ
زوزات
زولو
زوم
زوما
زون
زونونه
زونونو
زوى
زوي
زويه
زوړ
زوکړه
زوکړې
زوی
زوې
زي
زيا
زيات
زياتره
زياترو
زياته
زياتو
زياتوالى
زياتوالي
زياتوالی
زياتوالې
زياتول
زياتولو
زياتوي
زياتى
زياتي
زياتيدو
زياتيږي
زياتی
زياتې
زياتېدو
زياتېدونکي
زياتېدونکې
زياتېږي
زياد
زيار
زيارت
زيارتونه
زيان
زيانمن
زيانمنوي
زيانونه
زيانونو
زيتون
زيتونو
زيد
زير
زيرمه
زيرمې
زيري
زيمبابوی
زين
زينب
زينت
زينتي
زيو
زيوس
زيړ
زيږد
زيږدي
زيږديز
زيږون
زيږيدلى
زيږيدلي
زيږيدلی
زيږيدلې
زيږيدنې
زړه
زړو
زړور
زړورتيا
زړورتیا
زړونه
زړونو
زړي
زړښت
زړی
زړې
زړە
زښته
زکات
زکال
زکام
زکریا
زکلونو
زکې
زی
زیات
زیاتره
زیاترو
زیاته
زیاتو
زیاتوالي
زیاتوالی
زیاتولو
زیاتوي
زیاتي
زیاتی
زیاتیدو
زیاتیدونکي
زیاتیدونکې
زیاتیږي
زیاتې
زیاتېدو
زیاتېدوني
زیاتېدونکي
زیاتېدونکې
زیاتېږي
زیاد
زیار
زیارت
زیان
زیانمن
زیانمنه
زیانمنو
زیانمنې
زیانونه
زیانونو
زیتون
زید
زیر
زیربنا
زیربناوو
زیرمه
زیرمو
زیرمې
زیلاند
زیلانډ
زیمبابوې
زین
زینوویف
زینې
زیړ
زیړوک
زیړي
زیږدي
زیږدیز
زیږدیزکال
زیږون
زیږیدلي
زیږیدلی
زیږیدلې
زیږېدلي
زیږېدلی
زیږېدلې
زیږېدو
زې
زېات
زېب
زېربنا
زېربناوو
زېرمه
زېرمو
زېرمې
زېرى
زېري
زېری
زېړ
زېږد
زېږدلی
زېږدي
زېږديز
زېږدیز
زېږدیزه
زېږدیزې
زېږنده
زېږون
زېږوي
زېږيز
زېږیدلی
زېږېدل
زېږېدلو
زېږېدلى
زېږېدلي
زېږېدلی
زېږېدلې
زېږېدنه
زېږېدنې
زېږېدو
زە
س
سا
سابقه
سابه
سابو
سات
ساتل
ساتله
ساتلو
ساتلى
ساتلي
ساتلی
ساتلې
ساتنه
ساتني
ساتنی
ساتنې
ساته
ساتو
ساتونکو
ساتونکي
ساتونکی
ساتونکې
ساتي
ساتی
ساحل
ساحلونه
ساحلونو
ساحلى
ساحلي
ساحه
ساحو
ساحوي
ساحوکې
ساحي
ساحی
ساحې
ساختمان
ساختمانونه
ساختمانونو
ساختماني
ساد
سادات
ساده
سارا
سارتر
ساره
سارى
ساري
سارک
سارګون
ساری
سارې
ساز
سازش
سازمان
سازمانونه
سازمانونو
سازماني
سازي
سازښت
سازۍ
ساس
ساساني
ساسانيانو
ساسانیانو
ساعت
ساعته
ساعتو
ساعتونه
ساعتونو
سافټ
سافټوير
سافټویر
ساقه
ساقي
ساقې
سال
سالار
سالارۍ
سالازار
سالم
سالمه
سالمې
سالون
سام
سامان
ساماني
سامانيانو
سامسنګ
سامسونګ
سامنر
ساموا
ساموي
سامويل
سامویل
ساموېل
سامي
سان
سانتا
سانتي
سانتيمتره
سانتيګراد
سانتی
سانج
سانسور
سانفرانسیسکو
سانه
سانۍ
ساه
ساو
ساواک
ساوت
ساوخوړ
ساویج
ساي
سايبريا
سايز
ساينس
ساينسي
ساينسپوه
ساينسپوهانو
سايټ
سايکل
ساپوهنه
ساپوهنې
ساپي
ساپيان
ساپی
ساپینز
ساړه
ساکس
ساکسون
ساکسوني
ساکن
سایبریا
سایتوپلازم
سایرس
سایمون
ساینس
ساینسي
ساینسپوهان
ساینسپوهانو
سایټ
سایټونه
سایټونو
سب
سبا
سباوون
سبب
سببه
سببونه
سببونو
سببي
سبحان
سبز
سبزيجات
سبزيجاتو
سبزیجاتو
سبسایډي
سبق
سبو
سبک
سبکونو
سبھا
ست
ستا
ستاد
ستاره
ستاسو
ستاسي
ستاسې
ستالین
ستان
ستانه
ستانکزی
ستايل
ستاينه
ستاينې
ستايي
ستایل
ستاینه
ستاینوم
ستاینې
ستر
ستراتوسفير
ستراتيژي
ستراتيژيک
ستراتيژۍ
ستراتیژي
ستراتیژیو
ستراتیژیک
ستراتیژیکو
ستراتیژۍ
ستره
سترو
سترواک
سترواکانو
سترواکي
سترواکيو
سترواکیو
سترواکۍ
سترواکې
ستري
سترګه
سترګو
سترګي
سترګې
سترگه
سترگو
سترگي
سترگی
سترگې
سترې
ستم
ستمبر
ستن
ستندرد
ستنه
ستنو
ستنې
ستنېدو
سته
ستو
ستور
ستورات
ستورمزلو
ستورمزلي
ستورمزلی
ستورو
ستورى
ستوري
ستورپوه
ستورپوهانو
ستورپوهنه
ستورپوهنې
ستورپېژندنه
ستورپېژندنې
ستوری
ستورې
ستومانه
ستون
ستونزمن
ستونزمنه
ستونزمنو
ستونزمنې
ستونزه
ستونزو
ستونزي
ستونزی
ستونزې
ستوني
ستړى
ستړي
ستړيا
ستړی
ستړیا
ستړې
سجده
سجدې
سحر
سخاوت
سخت
سخته
سختو
سختوالي
سختي
سختۍ
سختې
سخن
سخي
سدوزي
سر
سراج
سراسر
سراسري
سراي
سرايت
سرای
سرایت
سرب
سرباز
سربستان
سربيره
سربیا
سربیره
سربېره
سرته
سرتيري
سرتیرو
سرتیري
سرتیری
سرتېرو
سرتېري
سرتېری
سرحد
سرحدونه
سرحدونو
سرحدي
سرخ
سردار
سرداران
سردارانو
سردرد
سرشماری
سرشمیرنې
سرشمېرنه
سرشمېرنې
سرطان
سرطاني
سرعت
سرغړونه
سرغړونو
سرغړونې
سرلاری
سرليک
سرليکونه
سرلیک
سرمايه
سرمایه
سرمایې
سرمحقق
سرمشریزې
سرمنشي
سرنوشت
سره
سرو
سروال
سروبي
سرود
سرودونه
سرودونو
سرور
سروزرو
سرونه
سرونو
سروي
سروکار
سروی
سرویس
سروې
سري
سريزه
سريع
سريلانکا
سرپ
سرپرست
سرپرستي
سرپرستۍ
سرپل
سرپناه
سرپو
سرچينه
سرچينو
سرچينې
سرچپه
سرچینه
سرچینو
سرچینی
سرچینې
سرک
سرکار
سرکاري
سرکاڼو
سرکوزي
سرکونو
سرکښه
سرکښۍ
سرکې
سرګي
سری
سریال
سریاني
سریزه
سریلانکا
سرې
سزا
سزار
سس
سست
سستم
سسه
سسو
سسې
سطح
سطحه
سطحو
سطحي
سطحی
سطحې
سطه
سعادت
سعد
سعدي
سعود
سعودي
سعودی
سعيد
سعید
ســ
سف
سفارت
سفارتونه
سفالوسپورينونه
سفر
سفرنامه
سفرونه
سفرونو
سفيان
سفير
سفیان
سفیر
سفیرانو
سقاو
سقراط
سقراطي
سقط
سقوط
سل
سلا
سلاح
سلام
سلامتيا
سلامي
سلامية
سلاوي
سلاویک
سلاویکي
سلاکار
سلاکارانو
سلب
سلجوقي
سلجوقيانو
سلسله
سلسلو
سلسلې
سلطان
سلطانانو
سلطانه
سلطاني
سلطنت
سلطنتونه
سلطنتونو
سلطنتي
سلطې
سلف
سلفايد
سلفر
سلفي
سلفيټ
سلم
سلما
سلمان
سلمه
سلمې
سلنه
سلنې
سله
سلو
سلواغې
سلوانیا
سلواک
سلواکي
سلواکيا
سلواکیا
سلوب
سلول
سلولوز
سلولونه
سلولونو
سلولي
سلوک
سلوکي
سلوکې
سليم
سليمان
سليمي
سليکا
سليکان
سلګونه
سلګونو
سلگونو
سلیزې
سلیم
سلیمان
سلېمان
سلېمانخېل
سم
سماء
سماجي
سمارټ
سمان
سماني
سمبال
سمبالولو
سمبالښت
سمبول
سمبولونه
سمبولونو
سمبولیک
سمت
سمدستي
سمدلاسه
سمر
سمرقند
سمستر
سمسور
سملاسي
سمنان
سمندر
سمندرونه
سمندرونو
سمندري
سمندرګي
سمندرګی
سمندری
سمندریز
سمندریزو
سمنټ
سمنټو
سمنګان
سمنگان
سمه
سمو
سموالي
سموالی
سمول
سمولو
سمون
سمونه
سمونونه
سمونونو
سمونګر
سمونې
سمويل
سمویل
سمي
سميت
سميع
سمیت
سمیع
سمیټ
سمې
سمېت
سمېټ
سن
سنا
سناتور
سناتورانو
سناریو
سنة
سنت
سنتسېز
سنتو
سنتونو
سنتي
سنتیز
سنتېز
سنج
سنجر
سنجش
سنجول
سند
سندارا
سندر
سندرغاړو
سندرغاړي
سندرغاړی
سندرغاړې
سندره
سندرو
سندري
سندرې
سندونه
سندونو
سندي
سنسکرت
سنن
سنه
سني
سنټ
سنډروم
سنګ
سنګاپور
سنګاکارا
سنګر
سنګسار
سنگ
سنگر
سنی
سه
سهار
سهارا
سهارنپور
سهارنپوري
سهاره
سهام
سهامي
سهل
سهم
سهولت
سهولتونه
سهيل
سهيلي
سهیل
سهیلي
سهېل
سهېلي
سو
سواب
سوابق
سوابقو
سوات
سواحلو
سواد
سواره
سوال
سوالبرد
سوالونه
سوالونو
سوانح
سوای
سوبه
سوبې
سوخت
سوخوی
سود
سودا
سوداګر
سوداګرو
سوداګري
سوداګريز
سوداګريزه
سوداګريزو
سوداګريزې
سوداګريو
سوداګریز
سوداګریزه
سوداګریزو
سوداګریزې
سوداګریو
سوداګرۍ
سوداگر
سوداگري
سوداگريز
سوداگريزو
سوداگریز
سوداگرۍ
سوده
سوديم
سودیم
سور
سورة
سورت
سورتونو
سورلۍ
سوره
سورى
سوري
سوريا
سوريه
سوريو
سوريې
سورپوستو
سوری
سورینام
سوریه
سوریو
سوریې
سورې
سوز
سوزان
سوسن
سوسيال
سوسياليزم
سوسياليست
سوسياليستي
سوسیال
سوسیالیزم
سوسیالیست
سوسیالیستان
سوسیالیستانو
سوسیالیستي
سوسیالیسټي
سوسیالېزم
سوسیالېست
سوشان
سوغات
سوفي
سوفیا
سوق
سوقرات
سول
سولر
سوله
سولو
سولي
سولگر
سولی
سولې
سوم
سوما
سومالي
سومالیا
سومر
سومري
سون
سونامي
سونامې
سوند
سونه
سونو
سوني
سونګ
سوه
سوو
سوى
سوي
سويدي
سويس
سويل
سويلي
سويه
سويو
سويډن
سويډني
سوپر
سوځول
سوځولو
سوځوي
سوځي
سوځيدو
سوځېدنه
سوځېدنې
سوځېدو
سوچ
سوچه
سوچي
سوډا
سوډان
سوډيم
سوډیم
سوړ
سوړبازارۍ
سوک
سوکاله
سوکالي
سوکالۍ
سوکه
سوګند
سوی
سویز
سویس
سویل
سویلي
سویوز
سویډن
سویډني
سوې
سوېل
سوېلي
سي
سيا
سياحت
سياره
سيارو
سياروي
سيارې
سياست
سياستوال
سياستوالو
سياستونو
سياستپوه
سياسى
سياسي
سياسی
سيال
سيالانو
سيالي
سياليو
سيالۍ
سياه
سيخ
سيد
سيدال
سيدان
سيدجمال
سيده
سير
سيرة
سيرت
سيره
سيروم
سيس
سيستان
سيستاني
سيستم
سيستماتيک
سيستمونه
سيستمونو
سيسلي
سيسټم
سيف
سيل
سيلاب
سيلابونه
سيلابونو
سيلاني
سيلانيانو
سيلومي
سيم
سيماب
سيمه
سيمو
سيموکې
سيمي
سيمين
سيمينار
سيمينارونو
سيمې
سين
سينا
سيند
سيندونه
سيندونو
سينما
سينه
سينوسايټس
سينيګال
سينټ
سينګار
سينګاپور
سينې
سيوري
سيوری
سيوطي
سيټ
سيپټمبر
سيږي
سيکسو
سيکولر
سيګنال
سټ
سټار
سټالين
سټالین
سټانټون
سټاک
سټاکهولم
سټایل
سټراسبورګ
سټراليا
سټرالیا
سټروک
سټریټ
سټرېټ
سټلايټ
سټنډرډ
سټه
سټو
سټوارت
سټوارټ
سټون
سټوډیو
سټيفن
سټیج
سټیشن
سټیشنونه
سټیشنونو
سټیفن
سټینلي
سټیو
سټیون
سټېشن
سپارل
سپارلو
سپاره
سپاري
سپارښت
سپارښتنه
سپارښتنو
سپارښتنې
سپاه
سپتمبر
سپر
سپرلي
سپرلۍ
سپرم
سپرمونه
سپرمونو
سپرو
سپري
سپما
سپنسر
سپه
سپور
سپورت
سپورتي
سپورټ
سپونر
سپوږميز
سپوږمکیو
سپوږمکۍ
سپوږمیز
سپوږمیو
سپوږمۍ
سپى
سپي
سپين
سپينه
سپينو
سپينوزا
سپينې
سپيو
سپيڅلي
سپټمبر
سپړل
سپړلو
سپړنه
سپړنو
سپړنې
سپک
سپکاوي
سپکاوی
سپکه
سپکو
سپکې
سپڼسي
سپی
سپیانو
سپین
سپینه
سپینو
سپینوزا
سپینې
سپیڅلي
سپیڅلی
سپېره
سپېس
سپېڅلتيا
سپېڅلو
سپېڅلي
سپېڅلی
سپېڅلې
سړبن
سړبني
سړه
سړو
سړولو
سړى
سړي
سړيو
سړښت
سړک
سړکونه
سړکونو
سړی
سړیو
سړې
سږ
سږو
سږي
سږی
سکاتلند
سکاتلنډ
سکاره
سکارو
سکالو
سکانو
سکاټ
سکاټلنډ
سکاټلنډي
سکاټلينډ
سکاټلینډ
سکته
سکتور
سکتورونه
سکتورونو
سکتې
سکرتر
سکرتریت
سکرو
سکرین
سکن
سکندر
سکه
سکو
سکورسیزي
سکول
سکولین
سکون
سکي
سکين
سکټور
سکې
سکېن
سګرټ
سګنال
سګنالونه
سی
سیا
سیاحت
سیاحتي
سیاره
سیارو
سیاروي
سیارې
سیاست
سیاستوال
سیاستوالو
سیاستونه
سیاستونو
سیاسي
سیاسی
سیال
سیالانو
سیالو
سیالي
سیالیو
سیالۍ
سیالې
سیايي
سیایي
سید
سیده
سیدي
سیر
سیرالیون
سیرت
سیریلیک
سیزار
سیس
سیستان
سیستم
سیستماتیک
سیستمونه
سیستمونو
سیسلي
سیسټم
سیسټمونه
سیسټمونو
سیسیل
سیف
سیل
سیلاب
سیلابونو
سیلانیان
سیلانیانو
سیم
سیمه
سیمو
سیمون
سیمي
سیمی
سیمینار
سیمې
سین
سینا
سیند
سیندونه
سیندونو
سینما
سینماګر
سینه
سینټ
سینګ
سینګار
سینګاپور
سینې
سیوري
سیوری
سیوطي
سیول
سیټ
سیټي
سیډني
سیک
سیکانو
سیکو
سیکولار
سیکولاریزم
سیکولر
سیکولریزم
سیکې
سیګنال
سې
سېد
سېستم
سېسټم
سېل
سېلاب
سېلابونو
سېلانيانو
سېمه
سېمو
سېمې
سېن
سېند
سېنټ
سېنګ
سېټ
سېپټمبر
سېګنال
سے
ش
شا
شاء
شات
شاته
شاتو
شاتګ
شاخ
شاخبري
شاخص
شاخصونه
شاخصونو
شاخه
شاخونه
شاخونو
شاخېلو
شادي
شار
شارجه
شارل
شارلوټ
شارون
شارپ
شارک
شاعر
شاعران
شاعرانه
شاعرانو
شاعره
شاعري
شاعرۍ
شافعي
شافعيانو
شال
شالي
شاليد
شالید
شالۍ
شام
شامل
شامله
شاملولو
شاملوي
شاملي
شامليږي
شاملیږي
شاملې
شاملېدل
شاملېدو
شاملېږي
شان
شانته
شانه
شانګ
شانګهای
شاه
شاهان
شاهانو
شاهد
شاهدان
شاهدانو
شاهده
شاهدي
شاهرخ
شاهزاده
شاهزادګۍ
شاهي
شاهين
شاهی
شاهین
شاو
شاوخوا
شاوخواکې
شايد
شاپور
شاړو
شاک
شاکر
شاګرد
شاګردان
شاګردانو
شاگرد
شاگردان
شاگردانو
شاید
شایر
شباهت
شبرغان
شبلي
شبنم
شبه
شبکه
شبکو
شبکی
شبکې
شتمن
شتمنه
شتمنو
شتمني
شتمنيو
شتمنی
شتمنیو
شتمنۍ
شتمنې
شته
شتو
شتوالى
شتوالي
شتون
شجاع
شجاعت
شجره
شجرې
شحم
شحمي
شخص
شخصا
شخصي
شخصيت
شخصيتونه
شخصيتونو
شخصی
شخصیت
شخصیتونه
شخصیتونو
شخړه
شخړو
شخړې
شد
شدت
شدن
شدند
شده
شديد
شديده
شديدو
شدہ
شدید
شدیده
شدیدو
شدیدې
شر
شراب
شرابو
شرافت
شراي
شرايط
شرايطو
شراکت
شرایط
شرایطو
شربت
شرح
شرحه
شرحې
شرط
شرطونه
شرطونو
شرطي
شرعي
شرعياتو
شرف
شرق
شرقي
شرقی
شرك
شرم
شرما
شرمن
شره
شروع
شري
شريد
شريعت
شريف
شريفه
شريفي
شريك
شريک
شريکه
شريکوي
شريکې
شرک
شرکت
شرکتونه
شرکتونو
شریان
شریانونو
شریعت
شریف
شریک
شریکانو
شریکه
شریکول
شریکولو
شریکوي
شریکې
شطرنج
شعار
شعارونه
شعاع
شعبان
شعر
شعرونه
شعرونو
شعري
شعور
شعوري
شعيب
شغل
شــ
شفا
شفاعت
شفاف
شفاهي
شفتالو
شفر
شفعه
شفعي
شفق
شفقت
شفيع
شفيق
شفیع
شفیق
شك
شكل
شل
شلتن
شلم
شلمه
شلمې
شلو
شم
شمار
شماره
شماري
شماريږي
شمارۍ
شمال
شمالي
شمالی
شمزۍ
شمس
شمسي
شمشاد
شمع
شمله
شمول
شموله
شمولیت
شمير
شميرل
شميره
شمیر
شمیرل
شمیره
شمیټ
شمېر
شمېران
شمېرل
شمېرلو
شمېرنې
شمېره
شمېرو
شمېروں
شمېري
شمېرې
شنا
شناخت
شناسى
شنبه
شنبې
شننه
شننو
شننې
شنه
شنو
شنونکي
شني
شنډ
شنگړۍ
شنې
شه
شهاب
شهادت
شهباز
شهر
شهرت
شهرستان
شهزاد
شهزاده
شهزادګۍ
شهوت
شهيد
شهيدان
شهيدانو
شهید
شهیدان
شهیدانو
شو
شوال
شوالیه
شواهد
شواهدو
شواو
شوای
شوبله
شوخ
شود
شور
شورا
شوراګانو
شورای
شورش
شوروي
شورويانو
شوروی
شورویانو
شورى
شوري
شوری
شوق
شوقي
شول
شولتن
شوله
شولو
شولې
شوم
شونتيا
شونتیا
شونو
شوني
شونډو
شونډې
شونکړۍ
شونی
شونې
شوه
شوو
شوى
شوي
شويده
شويدى
شويدي
شويدی
شويدۍ
شويو
شوچې
شوړتن
شوکت
شوی
شویده
شویدي
شویدی
شویو
شوۍ
شوې
شوېده
شوے
شى
شي
شيان
شيانو
شيبه
شيخ
شيدا
شيدو
شيدي
شيدې
شير
شيراز
شيره
شيرين
شيشه
شيطان
شيطاني
شيعه
شين
شيندل
شينوارو
شينواري
شينواری
شيوا
شيکاګو
شيگل
شټاین
شټل
شپاړس
شپاړسم
شپاړسمه
شپاړسمې
شپاړسو
شپني
شپه
شپو
شپون
شپي
شپيته
شپږ
شپږم
شپږمه
شپږمې
شپږو
شپې
شپېته
شپېتو
شپېلۍ
شړل
شړلو
شک
شکايت
شکاکیت
شکایت
شکایتونو
شکر
شکرې
شکست
شکسپیر
شکل
شکله
شکلونه
شکلونو
شکلي
شکمن
شکمنو
شکنجه
شکنجې
شکه
شکونه
شګه
شګو
شګې
شی
شیان
شیانو
شیبه
شیبې
شیخ
شیدو
شیدې
شیر
شیراز
شیراني
شیرین
شیشه
شیشې
شیطان
شیطاني
شیعه
شیل
شین
شیندل
شینواري
شینواری
شینګین
شیوه
شیټي
شیکاګو
شۍ
شې
شېبه
شېبو
شېبې
شېخ
شېر
شېرشاه
ص
صابر
صابون
صاحب
صاحبزاده
صادر
صادرات
صادراتو
صادراتي
صادره
صادرول
صادرولو
صادرونکی
صادروي
صادق
صادقانه
صاف
صافي
صافی
صالح
صبا
صبح
صبر
صبغت
صحابه
صحابي
صحت
صحرا
صحرايي
صحنه
صحنو
صحنې
صحي
صحيح
صحیح
صد
صدارت
صداقت
صدام
صدر
صدراعظم
صدف
صدق
صدقه
صدمه
صدور
صديق
صديقي
صدیق
صراحت
صراط
صربستان
صربي
صربیا
صرف
صريح
صص
صــ
صف
صفا
صفات
صفاتو
صفت
صفتونه
صفتونو
صفحه
صفحہ
صفحې
صفر
صفرا
صفراوي
صفوي
صفويانو
صفيه
صل
صلاح
صلاحيت
صلاحیت
صلاحیتونه
صلاحیتونو
صلح
صلحی
صلى
صلي
صليب
صليبي
صليبيانو
صلی
صلیب
صلیبي
صلیبی
صلیبیانو
صمد
صميم
صنايع
صنايعو
صنایع
صنایعو
صندوق
صنعت
صنعتونه
صنعتونو
صنعتي
صنعتی
صنف
صنوبر
صهیونیزم
صواعق
صوبه
صوبې
صوت
صوتي
صورت
صورتونه
صوفي
صومعه
صومعې
صيانة
صيب
صيغه
صیب
صېب
ض
ضافي
ضايع
ضايعات
ضايعاتو
ضایع
ضایعات
ضایعاتو
ضبط
ضحاک
ضخامت
ضد
ضرب
ضربان
ضربه
ضربې
ضرر
ضرره
ضرور
ضرورت
ضرورتونه
ضرورتونو
ضروري
ضروری
ضريب
ضریب
ضعف
ضعيف
ضعيفه
ضعیف
ضعیفه
ضلع
ضلعي
ضلعې
ضمانت
ضمن
ضمني
ضمير
ضميمه
ضمیر
ضمیرونه
ضمیمه
ضمیمې
ضيا
ضياء
ضيايي
ضیا
ط
طارق
طاعون
طاق
طاقت
طالب
طالبان
طالبانو
طاهر
طايفه
طب
طبابت
طباق
طبراني
طبري
طبع
طبعي
طبعيت
طبعی
طبعیت
طبقات
طبقاتو
طبقاتي
طبقه
طبقو
طبقي
طبقې
طبي
طبيب
طبيعت
طبيعي
طبيعيت
طبی
طبیب
طبیعت
طبیعي
طبیعی
طرابلس
طراح
طراحد
طراحي
طراحۍ
طرح
طرحه
طرحو
طرحې
طرز
طرزالعمل
طرزي
طرف
طرفه
طرفي
طرفۍ
طريقه
طريقو
طريقي
طريقې
طریقه
طریقو
طریقی
طریقې
طفل
طلا
طلاق
طلايي
طلایي
طلایی
طلب
طلحه
طلوع
طنز
طنزونو
طنزي
طهماسب
طو
طواف
طور
طوفان
طول
طولي
طيب
طيف
طی
طیب
طیف
ظ
ظالم
ظالمانه
ظالمانو
ظاهر
ظاهرا
ظاهرشاه
ظاهره
ظاهرى
ظاهري
ظرافت
ظرف
ظرفيت
ظرفیت
ظفر
ظلم
ظلمونه
ظلمونو
ظهور
ع
عا
عابد
عاج
عاجز
عادات
عاداتو
عادت
عادتونه
عادتونو
عادل
عادلانه
عادي
عادی
عارف
عاشق
عاشقانه
عاصم
عاصموف
عاطفي
عاطفې
عاقل
عالـم
عالم
عالمان
عالمانو
عالمه
عالي
عالی
عام
عامر
عامل
عامه
عامو
عاميانه
عامیانه
عامې
عاي
عايد
عايدات
عايداتو
عايشه
عايشې
عاکف
عاید
عایداتو
عایشه
عباداتو
عبادت
عبادتځای
عبارت
عبارتونه
عبارتونو
عباس
عباسي
عباسيانو
عبد
عبدالاحد
عبدالباري
عبدالجبار
عبدالحق
عبدالحميد
عبدالحمید
عبدالحنان
عبدالحى
عبدالحکیم
عبدالحی
عبدالخالق
عبدالرازق
عبدالرب
عبدالرحمان
عبدالرحمن
عبدالرحيم
عبدالرحیم
عبدالرزاق
عبدالرشيد
عبدالرشید
عبدالرو
عبدالروف
عبدالستار
عبدالسلام
عبدالشکور
عبدالصمد
عبدالعزيز
عبدالعزیز
عبدالعلي
عبدالغفار
عبدالغفارخان
عبدالغفور
عبدالغني
عبدالفتاح
عبدالقادر
عبدالقدوس
عبدالقيوم
عبدالقیوم
عبدالله
عبدالمالک
عبدالمجید
عبدالمطلب
عبدالملک
عبدالمنان
عبدالناصر
عبدالهادي
عبدالواجد
عبدالولي
عبدالوهاب
عبدالکريم
عبدالکریم
عبده
عبر
عبراني
عبرت
عبري
عبيد
عبيدالله
عبيده
عبید
عبیدالله
عتبه
عثمان
عثماني
عثمانيانو
عثمانی
عثمانیانو
عجب
عجيب
عجيبه
عجیب
عجیبه
عدالت
عدالتۍ
عدد
عددان
عدده
عددونه
عددونو
عددوں
عددي
عدل
عدلي
عدليې
عدلیې
عدم
عدن
عدنان
عدي
عذاب
عذر
عر
عراق
عراقي
عراقی
عرب
عربان
عربانو
عربستان
عربو
عربي
عربی
عربۍ
عرش
عرض
عرضه
عرضي
عرضې
عرف
عرفات
عرفان
عرفاني
عرفي
عروج
عروض
عروضي
عزت
عزم
عزوجل
عزيز
عزیز
عساكر
عسکر
عسکران
عسکرو
عسکري
عسکرۍ
عشق
عشقي
عصب
عصبى
عصبي
عصبی
عصر
عصري
عصری
عصمت
عضلات
عضلاتو
عضلاتي
عضلي
عضلې
عضو
عضوي
عضويت
عضوی
عضویت
عطا
عطاء
عطارد
عطر
عطرو
عطف
عظمت
عظيم
عظیم
عظیمي
عفان
عفت
عفونت
عفوني
عفونيت
عقاب
عقايد
عقايدو
عقاید
عقایدو
عقبه
عقد
عقرب
عقل
عقلاني
عقله
عقلي
عقيده
عقيدو
عقيدې
عقیدتي
عقیده
عقیدو
عقیدوي
عقیدې
علا
علاء
علاءالدین
علاج
علاقه
علاقې
علامت
علامه
علامې
علاو
علاوالدين
علاوه
علايم
علايمو
علایم
علایمو
علت
علتونه
علم
علما
علماء
علماو
علماوو
علمي
علمی
علني
علوفه
علوم
علومو
علومي
علوي
على
علي
عليخان
عليه
عليهم
علی
علیزی
علیه
علیها
علیهم
علیہ
عمان
عمدتا
عمده
عمدي
عمر
عمرا
عمراخان
عمران
عمربن
عمره
عمرو
عمرونه
عمري
عمق
عمل
عملا
عمله
عملونه
عملونو
عملي
عمليات
عملياتو
عملياتي
عمليه
عمليو
عمليې
عملکرد
عملی
عملیات
عملیاتو
عملیاتي
عملیه
عملیې
عملې
عمه
عمو
عمودي
عموم
عموما
عمومي
عموميت
عمومی
عمومې
عن
عناصر
عناصرو
عنايت
عنایت
عنصر
عنصرونه
عنصري
عنعنوي
عنه
عنها
عنهم
عنهما
عنوان
عهد
عوارض
عوارضو
عواطفو
عوام
عوامل
عواملو
عوامو
عوامي
عوايد
عوايدو
عواید
عوایدو
عورت
عوض
عوف
عي
عيب
عيبونه
عيسوي
عيسويان
عيسويانو
عيسويت
عيسى
عيسي
عيسی
عين
عيني
عکاسي
عکاسۍ
عکس
عکسونه
عکسونو
عیسوي
عیسوی
عیسویان
عیسویانو
عیسویت
عیسي
عیسی
عین
عیني
عینک
عینیت
غ
غا
غار
غارونه
غارونو
غاز
غازاتو
غازونه
غازونو
غازي
غازيان
غازيانو
غازی
غازیانو
غافل
غالب
غالبا
غالبه
غالبې
غالۍ
غاي
غاړه
غاړو
غاړي
غاړی
غاړې
غاښ
غاښونه
غاښونو
غاښي
غبار
غبرګ
غبرګون
غبرګونونه
غبرګونونو
غبرګوني
غبرگولي
غبرگون
غده
غدو
غدير
غدې
غذا
غذاي
غذايي
غذايې
غذایي
غذایی
غر
غرامت
غرب
غربت
غربي
غربی
غرض
غرغښت
غرق
غرمه
غرمې
غرني
غرنيو
غرنی
غرنیو
غرنۍ
غره
غرو
غروال
غرور
غرونه
غرونو
غريب
غريبو
غریب
غریبو
غزا
غزالي
غزل
غزلو
غزلې
غزنوي
غزنويانو
غزنویانو
غزني
غزنی
غزه
غزې
غسل
غشا
غشاء
غشو
غشي
غشی
غصب
غصه
غضب
غضنفر
غفلت
غل
غلا
غلام
غلامان
غلامانو
غلامي
غلامۍ
غلبه
غلجي
غلجیو
غلط
غلطه
غلطو
غلطي
غلطۍ
غلطې
غلظت
غله
غلو
غلى
غلي
غليظ
غليم
غلی
غلې
غم
غمجن
غمه
غمونه
غمونو
غندل
غندنه
غندي
غنم
غنمو
غني
غنيمت
غنی
غنیمت
غه
غو
غوا
غوايانو
غوايي
غواړم
غواړو
غواړي
غواړی
غواړې
غواګانو
غواګانې
غواگانو
غوث
غور
غوراوي
غوراوی
غوربند
غوره
غوري
غوريانو
غورځنګ
غورځنګونو
غورځنگ
غورځول
غورځولو
غورځوي
غورځېدو
غورچاڼ
غوریانو
غوزه
غوسه
غوسې
غوصه
غوغا
غوندي
غوندی
غوندې
غونډ
غونډال
غونډالونه
غونډله
غونډه
غونډو
غونډي
غونډيو
غونډی
غونډیو
غونډۍ
غونډې
غويي
غوټه
غوټو
غوټي
غوټيو
غوټۍ
غوټې
غوڅ
غوڅه
غوڅول
غوڅولو
غوڅې
غوړ
غوړه
غوړو
غوړي
غوړيو
غوړیو
غوړېدو
غوږ
غوږو
غوږونه
غوږونو
غوښت
غوښتل
غوښتلو
غوښتنليک
غوښتنلیک
غوښتنلیکونه
غوښتنلیکونو
غوښتنه
غوښتنو
غوښتني
غوښتنې
غوښته
غوښتونکو
غوښتونکي
غوښتونکی
غوښتونکې
غوښتي
غوښتې
غوښه
غوښو
غوښي
غوښې
غياث
غيب
غيبي
غير
غيرت
غيرعضوي
غيري
غيرې
غيږ
غټ
غټه
غټو
غټوالي
غټي
غټې
غځول
غځېدلی
غځېدلې
غځېږي
غچ
غړو
غړولې
غړى
غړي
غړيتوب
غړيو
غړی
غړیتوب
غړیو
غړۍ
غړې
غږ
غږه
غږول
غږولو
غږونه
غږونو
غږوونکی
غږيز
غږيزه
غږيزې
غږیز
غږیزه
غږیزو
غږېږي
غښتلى
غښتلي
غښتلی
غښتلې
غڼه
غڼو
غڼې
غیاث
غیر
غیرارادي
غیرت
غیرقانوني
غېر
غېزه
غېږ
غېږه
ـ
ــ
ــر
ــره
ــس
ــساوي
ــع
ـــ
ــــ
ـــــ
ــل
ــند
ــه
ــو
ــوي
ــکه
ــی
ـو
ف
فا
فابريکه
فابريکو
فابريکي
فابريکې
فابریکه
فابریکو
فابریکې
فاتح
فاتحه
فاجعه
فاحشه
فارابي
فارس
فارسي
فارسی
فارسیانو
فارغ
فارغانو
فارغه
فارغېدو
فارم
فارمر
فارمول
فارمونه
فارمونو
فارنهايت
فارنهایت
فارنهایټ
فاروق
فارياب
فاریاب
فاز
فاسد
فاسدو
فاسفورس
فاسفيټ
فاسفېټ
فاسو
فاشيزم
فاشیزم
فاشیست
فاصله
فاصلو
فاصلي
فاصلې
فاضل
فاضلابو
فاضله
فاطمة
فاطمه
فاطمي
فاطمې
فاعل
فال
فان
فاني
فاي
فايبر
فايده
فايل
فايلم
فايلونو
فاينمن
فاکس
فای
فایبر
فبروري
فبروری
فبرورۍ
فت
فتح
فتحه
فتحې
فتنه
فتنې
فتوا
فتوحات
فتوحاتو
فتونو
فحش
فحشا
فخر
فدا
فدراسيون
فدراسیون
فدرال
فدرالي
فر
فرات
فراری
فراغت
فراق
فرانز
فرانس
فرانسس
فرانسسکو
فرانسه
فرانسوا
فرانسوي
فرانسويانو
فرانسوی
فرانسویان
فرانسویانو
فرانسوۍ
فرانسي
فرانسيس
فرانسی
فرانسیس
فرانسیسکو
فرانسیسی
فرانسې
فرانسېس
فرانک
فرانکفورت
فرانکلين
فرانکلین
فرانکو
فراه
فراهي
فراي
فرج
فرخ
فرد
فردوس
فردوسي
فردي
فردیناند
فرسايش
فرش
فرشته
فرصت
فرصتونه
فرصتونو
فرض
فرضي
فرضيه
فرضيې
فرضیه
فرضیو
فرضیې
فرعون
فرعي
فرعی
فرق
فرقه
فرقو
فرقې
فرمان
فرمانونه
فرمانونو
فرماي
فرمايل
فرمايلي
فرمايي
فرمایل
فرمایلي
فرمایي
فرمایی
فرمول
فرهاد
فرهنګ
فرهنګونو
فرهنګي
فرهنگ
فرهنگي
فرهنگی
فروری
فروش
فروډیټ
فري
فرياد
فريد
فريدريک
فريډريک
فريکونسي
فريکوينسي
فرید
فریدریش
فریدریک
فریر
فریمونټ
فریډریک
فریډمن
فریکونسي
فریکونسۍ
فزيالوژي
فزيالوژيکي
فزيک
فزيکي
فزيکپوه
فزيکې
فزیک
فزیکي
فزیکی
فس
فساد
فستیوال
فسخ
فشار
فشارونه
فشارونو
فشاري
فصاحت
فصل
فصلونه
فصلونو
فضا
فضاء
فضاي
فضايي
فضایي
فضل
فضله
فضوله
فضيلت
فضیلت
فطرت
فطري
فعال
فعالان
فعالانو
فعاله
فعالو
فعالولو
فعالوي
فعاليت
فعاليتونه
فعاليتونو
فعالیت
فعالیتونه
فعالیتونو
فعالینو
فعالې
فعل
فعلا
فعلونه
فعلونو
فعلي
فغان
فقاریه
فقال
فقر
فقرات
فقره
فقرې
فقط
فقه
فقهاوو
فقهي
فقهې
فقير
فقيرخېل
فقیر
فقیه
فقې
فكر
فكري
فلتر
فلترات
فلج
فلز
فلزات
فلزاتو
فلزي
فلسطين
فلسطین
فلسطیني
فلسفه
فلسفو
فلسفي
فلسفيانو
فلسفی
فلسفې
فلش
فلم
فلمفير
فلمونه
فلمونو
فلمي
فلمینګ
فلورا
فلورانس
فلورنس
فلوریدا
فلوریډا
فلورېنس
فليپ
فلپين
فلک
فلیپ
فلیپین
فلیپیني
فن
فنا
فنجي
فنلند
فنلنډ
فنلنډي
فنلينډ
فنلینډ
فنون
فنونو
فني
فنډ
فنګس
فنگس
فنی
فهد
فهرست
فهم
فهیم
فو
فورا
فوربس
فوربېز
فورم
فورمول
فورمولونه
فورمونو
فوري
فورټ
فورډ
فوسيلي
فوسیل
فوسیلونه
فوسیلونو
فوسیلي
فوق
فولاد
فولادو
فولر
فولکلور
فولکلوري
فون
فونګي
فوټ
فوټبال
فوټه
فوټو
فوټون
فوځ
فوځي
فوکس
فوکلور
فى
في
فيته
فيتي
فيثاغورث
فيروز
فيزيک
فيزيکي
فيس
فيصده
فيصدي
فيصل
فيصله
فيض
فيل
فيلسوف
فيلسوفان
فيلسوفانو
فيلسوفه
فيليپ
فيمينيزم
فيمينيسټ
فينيکول
فيوډالي
فيچر
فيچنر
فټ
فټه
فډرال
فډرالي
فکتور
فکتورونه
فکتورونو
فکر
فکره
فکرونه
فکرونو
فکري
فکس
فکټور
فی
فیجي
فیر
فیروز
فیزیک
فیس
فیسبوک
فیشر
فیشن
فیصده
فیصدي
فیصل
فیصله
فیض
فیضون
فیل
فیلسوف
فیلسوفان
فیلسوفانو
فیلم
فیلمور
فیلپین
فیلډ
فیلیپ
فیلیپس
فیلیپین
فیمینیزم
فیمینېزم
فین
فینوټایپ
فیي
فیچر
فېدرال
فېسبوک
فېشن
فېلم
فېمینیزم
فېنوټایپ
فېکشن
ق
قا
قابل
قابليت
قابلیت
قات
قاتل
قاجار
قادر
قادري
قاره
قاري
قاریانو
قاسم
قاسمي
قاضي
قاضيان
قاضيانو
قاضی
قاضیان
قاضیانو
قاطع
قاعده
قاعدوي
قاعدې
قافله
قافيه
قافيې
قافیه
قال
قالب
قام
قاموس
قاموسونه
قاموسونو
قامي
قانع
قانون
قانوني
قانونی
قاهره
قاهرې
قاي
قايل
قايم
قاچاق
قباي
قبايل
قبايلو
قبايلي
قبایل
قبایلو
قبایلي
قبر
قبرس
قبرونه
قبرونو
قبض
قبضه
قبطي
قبل
قبله
قبلوي
قبلې
قبول
قبوله
قبيله
قبيلو
قبيلوي
قبيلي
قبيلې
قبیله
قبیلو
قبیلوي
قبیلې
قتل
قتیبه
قحطي
قحطۍ
قد
قدامت
قدر
قدرت
قدرتونه
قدرتونو
قدرمند
قدرمندې
قدس
قدم
قدیم
قذافي
قرا
قرار
قرارداد
قراردادونه
قراردادونو
قراردادي
قرارلري
قرارګاه
قراقل
قران
قرانکريم
قرانکریم
قراي
قرباغ
قربان
قرباني
قربانیان
قربانیانو
قربانۍ
قرض
قرضاوي
قرغزستان
قرن
قره
قريب
قريش
قريشو
قريشي
قريظه
قرينه
قریشو
قریشي
قزاق
قزاقستان
قزاقي
قزلباش
قسطنطنيې
قسطنطنیه
قسطنطنیې
قسطنطین
قسم
قسمت
قسمه
قسمونه
قسمي
قشر
قشرونه
قشرونو
قصد
قصدي
قصر
قصه
قصور
قصيده
قصيدې
قصیده
قصې
قضا
قضاء
قضاوت
قضاي
قضايي
قضایاوو
قضایه
قضایي
قضایی
قضيه
قضيو
قضيې
قضیه
قضیو
قضیې
قطار
قطارونه
قطارونو
قطب
قطبونو
قطبي
قطر
قطع
قطعاتو
قطعه
قطعي
قطعې
قفس
قفقاز
قل
قلا
قلات
قلب
قلبه
قلبي
قلعه
قلعي
قلم
قلمرو
قلمرونه
قلمرونو
قلمه
قلمي
قلندر
قلوي
قلي
قم
قمار
قمر
قمري
قناعت
قند
قندهار
قندوزي
قندونه
قندونو
قهر
قهرمان
قهوه
قهوې
قو
قواعد
قواعدو
قوالی
قوانين
قوانينو
قوانین
قوانینو
قواو
قواوو
قوت
قوتونو
قوريه
قوس
قول
قوله
قوم
قوماندان
قوماندانان
قوماندانانو
قومانداني
قوماندانۍ
قومانده
قوماندې
قومندان
قومندانان
قومندانانو
قومندانۍ
قومونه
قومونو
قومي
قومی
قومیت
قوه
قوو
قوي
قوی
قوې
قياس
قيام
قيامت
قيد
قيس
قيصه
قيمة
قيمت
قيمته
قيمتونه
قيمتي
قيموميت
قیاس
قیاسي
قیام
قیامت
قید
قیس
قیصر
قیمت
قیمتي
قیمومیت
قیوم
قېمت
ك
كا
كابل
كار
كاره
كاروان
كارول
كارونه
كارونو
كاري
كافر
كافي
كاكړ
كال
كاله
كامل
كان
كاوه
كاپيسا
كبله
كبير
كتاب
كتابتون
كتابونه
كتابونو
كتل
كثير
كربلا
كرل
كرم
كرنه
كره
كريم
كس
كسان
كسانو
كشف
كعبې
كعنوان
كفاره
كفاية
كفر
كل
كلا
كلام
كلتور
كلتوري
كلك
كلمه
كلمې
كلن
كلنۍ
كله
كلو
كلونه
كلونو
كلي
كليسا
كم
كمال
كمزورى
كمه
كمپيوټر
كندهار
كنزالعمال
كه
كور
كورني
كورنيو
كورنۍ
كول
كولاى
كولاي
كولای
كوله
كولو
كولى
كولې
كوم
كومه
كومې
كوه
كوو
كوونكو
كوونكى
كوونكي
كوى
كوي
كوچنى
كوښښ
كوې
كى
كي
كياني
كيدل
كيدو
كيسه
كيسې
كيفيت
كيلو
كيمياوي
كينه
كيږى
كيږي
كټواز
كچه
كړ
كړاى
كړل
كړم
كړه
كړو
كړى
كړي
كړيدي
كړی
كړۍ
كړې
كښل
كښى
كښي
كښې
كې
كېداى
كېدل
كېده
كېدو
كېدى
كېږي
كېښود
كە
ل
لا
لابراتوار
لابراتوارونو
لابراتواري
لابي
لات
لاتو
لاتين
لاتيني
لاتین
لاتینه
لاتیني
لاتینې
لاحق
لادن
لار
لارنس
لاره
لارو
لاروا
لاروي
لارويان
لاروی
لارویان
لارویانو
لارى
لاري
لاريون
لاريونونو
لارډ
لارښود
لارښونه
لارښونې
لارښوونه
لارښوونو
لارښوونې
لارکین
لاری
لاریون
لاریونونه
لاریونونو
لارۍ
لارې
لارېنس
لازم
لازمه
لازمي
لازمې
لاس
لاسته
لاستيک
لاسرسي
لاسرسی
لاسرسۍ
لاسليک
لاسلیک
لاسلیکولو
لاسه
لاسو
لاسوند
لاسوندونه
لاسوندونو
لاسونه
لاسونو
لاسوهنه
لاسوهنو
لاسوهنې
لاسي
لاسی
لافایټ
لال
لالا
لاله
لام
لامارک
لامبو
لامل
لامله
لاملونه
لاملونو
لان
لانجمن
لانجه
لانجې
لاند
لاندني
لاندنيو
لاندنۍ
لاندى
لاندي
لانديني
لاندينۍ
لاندی
لاندې
لاندېني
لانين
لانګ
لاهم
لاهو
لاهور
لاهوري
لاو
لاوا
لاورنس
لاوس
لاي
لايت
لايحه
لايق
لاين
لاپسې
لاړ
لاړشي
لاړل
لاړم
لاړه
لاړو
لاړې
لاک
لاکان
لاکن
لایبنېتس
لایحه
لایحې
لایق
لاین
لایه
لایو
لایې
لب
لباس
لبانیا
لبنان
لبنیاتو
لت
لتا
لته
لحاظ
لحاظه
لحظه
لخوا
لدي
لدينه
لدی
لدې
لذت
لر
لرستان
لرغون
لرغونتوب
لرغونتيا
لرغونتیا
لرغونو
لرغونوالی
لرغونى
لرغوني
لرغونپوه
لرغونپوهانو
لرغونپوهنه
لرغونپوهنې
لرغونی
لرغونۍ
لرغونې
لرل
لرلای
لرله
لرلو
لرلي
لرليد
لرلی
لرلید
لرلې
لرم
لره
لرو
لرونكى
لرونكي
لرونكې
لرونکو
لرونکى
لرونکي
لرونکی
لرونکې
لرى
لري
لرګو
لرګى
لرګي
لرګين
لرګينو
لرګيو
لرګی
لرګیو
لرګې
لرگي
لرگيو
لری
لرې
لس
لسان
لسانس
لست
لستوڼي
لسم
لسمه
لسمې
لسو
لسيزه
لسيزو
لسيزې
لسګونه
لسګونو
لسگونو
لسیزه
لسیزو
لسیزې
لشکر
لطف
لطيف
لطیف
لعاب
لعل
لعنت
لغات
لغاتو
لغاتونه
لغة
لغت
لغتنامه
لغتونه
لغتونو
لغمان
لغو
لغوه
لغوي
لــ
لـه
لف
لفظ
لفظونه
لفظونو
لفظي
لفون
لفکرفت
لقب
لقبونه
لقبونو
لقمان
لكه
للا
للمي
لله
لم
لمان
لماني
لمانځل
لمانځلو
لمانځنه
لمانځنې
لمانځه
لمانځي
لمانی
لمبه
لمبو
لمبې
لمخې
لمده
لمر
لمريز
لمريزه
لمريزو
لمريزکال
لمريزې
لمریز
لمریزه
لمریزو
لمریزې
لمس
لمسون
لمسى
لمسي
لمسی
لمسیان
لمسیانو
لمسۍ
لمفاوي
لمن
لمنه
لمنو
لمنځه
لمنې
لمونځ
لمونځونه
لمړني
لمړنی
لمړنۍ
لمړى
لمړي
لمړی
لمړۍ
لن
لندبل
لندن
لنده
لندې
لنډ
لنډمهال
لنډمهاله
لنډمهالي
لنډمهالی
لنډمهالې
لنډه
لنډو
لنډون
لنډي
لنډيز
لنډيو
لنډیز
لنډۍ
لنډې
لنګر
له
لهجه
لهجو
لهجې
لهخپرندویژباړن
لهسکالوټولگهټول
لو
لوا
لوازم
لواطت
لوبغالي
لوبغالی
لوبغاړو
لوبغاړي
لوبغاړی
لوبغاړې
لوبه
لوبو
لوبول
لوبولو
لوبولي
لوبولی
لوبولې
لوبوي
لوبي
لوبيا
لوبډله
لوبډلې
لوبګره
لوبگر
لوبگره
لوبیا
لوبیدلی
لوبې
لوتر
لوتري
لوحه
لوحو
لوحې
لود
لودویګ
لودي
لودين
لوديځ
لودی
لودیځ
لور
لورا
لوران
لوراند
لورته
لورو
لورى
لوري
لوريو
لورګانې
لوری
لورین
لوریو
لورې
لوست
لوستل
لوستلو
لوستلی
لوستنه
لوستنې
لوستو
لوستونکو
لوستونکي
لوستونکی
لوستي
لوستی
لوستې
لوسي
لوط
لوله
لولو
لولي
لوم
لومه
لومړنى
لومړني
لومړنيو
لومړنی
لومړنیو
لومړنۍ
لومړنې
لومړى
لومړي
لومړيتوب
لومړيو
لومړی
لومړیتوب
لومړیتوبونو
لومړیو
لومړۍ
لومړې
لوند
لونګ
لونګۍ
لونگ
لوهان
لوهانسک
لوى
لوي
لويانو
لويديز
لويديځ
لويديځه
لويديځو
لويديځې
لويس
لويه
لويو
لويي
لوييس
لويږي
لويې
لوټ
لوټان
لوڅ
لوڅو
لوړ
لوړتيا
لوړتیا
لوړه
لوړو
لوړوالى
لوړوالي
لوړوالی
لوړول
لوړولو
لوړوي
لوړي
لوړيږي
لوړپوړو
لوړپوړي
لوړپوړی
لوړیږي
لوړې
لوړېدل
لوړېدو
لوړېږي
لوږه
لوږې
لوښه
لوښو
لوښى
لوښي
لوښی
لوک
لوکاس
لوکاچ
لوکزامبورګ
لوګر
لوګزامبورګ
لوګي
لوګی
لوگر
لوڼو
لوڼي
لوڼې
لوی
لویانو
لویديځ
لویدیز
لویدیځ
لویدیځه
لویدیځو
لویدیځې
لویز
لویس
لویه
لویو
لویوالي
لویي
لویډ
لویی
لویې
لوې
لوېدو
لوېديځ
لوېديځه
لوېديځو
لوېديځې
لوېدیځ
لوېدیځه
لوېدیځو
لوېدیځې
لوېږي
لى
لي
ليا
ليارې
لياقت
ليبرال
ليبراليزم
ليبيا
ليت
ليتر
ليتره
ليتوانيا
ليتوسفير
ليد
ليدل
ليدلو
ليدلوري
ليدلى
ليدلي
ليدلی
ليدلې
ليدنه
ليدنو
ليدنې
ليده
ليدو
ليدونکو
ليدونکي
ليري
ليرې
ليسانس
ليست
ليسه
ليسې
ليف
ليك
ليكل
ليكلو
ليكلى
ليكلي
ليكلې
ليكنه
ليكنو
ليكنې
ليكه
ليكوال
ليكوالو
ليكي
ليلا
لين
ليندۍ
لينن
لينډ
لينکونه
ليه
ليو
ليوالتيا
ليون
ليوني
ليږد
ليږدول
ليږديز
ليږل
ليږي
ليک
ليکدود
ليکل
ليکلو
ليکلى
ليکلي
ليکلړ
ليکلی
ليکلې
ليکن
ليکنه
ليکنو
ليکني
ليکنښې
ليکنې
ليکه
ليکو
ليکوال
ليکوالان
ليکوالانو
ليکواله
ليکوالو
ليکوالي
ليکوالۍ
ليکونه
ليکونو
ليکونکو
ليکونکى
ليکونکي
ليکونکی
ليکونکې
ليکي
ليکې
ليګ
لټه
لټول
لټولو
لټون
لټوي
لپ
لپا
لپار
لپاره
لچې
لړ
لړزه
لړليک
لړلیک
لړم
لړمان
لړي
لړيال
لړيو
لړکې
لړی
لړیو
لړۍ
لږ
لږتر
لږترلږه
لږه
لږو
لږوالي
لږکي
لږکيو
لږکیو
لږې
لښتليک
لښتي
لښكر
لښكرو
لښکر
لښکرو
لښکرګاه
لښکرې
لک
لکه
لکو
لکونو
لکي
لکچر
لکچرنوټ
لکی
لکۍ
لګول
لګولو
لګولي
لګوي
لګښت
لګښتونه
لګښتونو
لګیا
لګېدلی
لګېدنې
لګېدو
لګېږي
لگول
لگولو
لگوي
لگښت
لہ
لی
لیاقت
لیبرال
لیبرالانو
لیبرالي
لیبرالیزم
لیبل
لیبیا
لیت
لیتوانیا
لیتویا
لیختن
لید
لیدل
لیدلو
لیدلورو
لیدلوري
لیدلوری
لیدلي
لیدلی
لیدلې
لیدنه
لیدنو
لیدنې
لیده
لیدو
لیدونکو
لیدونکي
لیري
لیری
لیرې
لیس
لیسانس
لیست
لیسه
لیسې
لیف
لیل
لیلیه
لیمو
لین
لیندۍ
لینن
لینک
لینکس
لینکلن
لینکن
لینکولن
لینین
لینینیزم
لیو
لیوالتیا
لیوس
لیون
لیونارډ
لیونز
لیوني
لیوه
لیږد
لیږدول
لیږدولو
لیږدوي
لیږدیز
لیږل
لیک
لیکدود
لیکل
لیکلو
لیکلي
لیکلی
لیکلې
لیکن
لیکنه
لیکنو
لیکني
لیکنې
لیکه
لیکو
لیکوال
لیکوالان
لیکوالانو
لیکواله
لیکوالو
لیکوالۍ
لیکوالې
لیکونه
لیکونو
لیکونکو
لیکونکي
لیکونکی
لیکونکې
لیکي
لیکچرونو
لیکی
لیکې
لیګ
لې
لېبرال
لېبراله
لېبرالیزم
لېدل
لېري
لېرې
لېسانس
لېست
لېسه
لېسې
لېنون
لېنکولن
لېوا
لېوال
لېوالتيا
لېوالتیا
لېوالتیاوو
لېواله
لېونتوب
لېوني
لېونی
لېوه
لېږد
لېږدول
لېږدولو
لېږدونکو
لېږدونکي
لېږدونې
لېږدوونکو
لېږدوونکي
لېږدوونکې
لېږدوي
لېږدي
لېږديز
لېږل
لېږلو
لېږي
لېک
لە
م
ما
مابين
مات
ماتم
ماته
ماتو
ماتول
ماتولو
ماتونې
ماتوونکو
ماتوونکې
ماتوي
ماتي
ماتيږي
ماتی
ماتې
ماتېدنې
ماتېدو
ماتېږي
ماجه
ماحول
ماخذ
ماخذونه
ماخذونو
ماخنو
ماد
ماداګاسکر
مادر
مادربورډ
مادرید
مادل
ماده
مادو
مادى
مادي
مادی
مادې
مار
ماران
مارانو
مارتا
مارتن
مارتین
مارتینو
مارجوري
مارس
مارش
مارشال
مارغانو
مارغه
مارلو
مارو
ماري
ماريا
مارټن
مارټين
مارټین
مارپېچ
مارچ
مارک
مارکس
مارکسيزم
مارکسیزم
مارکسیست
مارکسیستي
مارکسېزم
مارکسېست
مارکوس
مارکوني
مارکيټ
مارکیت
مارکیتنګ
مارکیټ
مارکېټ
مارګاریت
مارګريټ
مارګریټ
مارګرېټ
ماری
ماریا
مارینو
مازندران
ماساچوست
ماساچوستس
ماساچوسټ
ماساچوسټس
ماساچوسېټ
ماستري
ماسترۍ
ماسره
ماسټر
ماسټري
ماسټرۍ
ماسپښين
ماسپښین
ماسک
ماسکو
ماشوم
ماشومان
ماشومانو
ماشومتوب
ماشومتوبه
ماشومه
ماشومې
ماشين
ماشينونه
ماشينونو
ماشيني
ماشین
ماشیندار
ماشینونه
ماشینونو
ماشیني
ماضي
ماغزه
ماغزو
مافوق
ماقبل
مال
مالايي
مالایا
مالتا
مالداري
مالدارۍ
مالدیف
مالك
مالكيانو
مالنکوف
ماله
مالوم
مالومات
مالوماتو
مالوماتي
مالومه
مالونه
مالونو
مالوچ
مالوچو
مالي
ماليات
مالياتو
مالياتي
ماليزيا
ماليه
ماليکول
ماليکولونه
ماليکولونو
ماليکولي
ماليې
مالټا
مالک
مالکان
مالکانو
مالکوم
مالکي
مالکيت
مالکیت
مالکینو
مالګه
مالګو
مالګي
مالګې
مالگه
مالی
مالیات
مالیاتو
مالیاتي
مالیزیا
مالیه
مالیکول
مالیکولونه
مالیکولونو
مالیکولي
مالیې
مام
ماما
مامور
ماموريت
مامورين
مامورينو
ماموریت
ماموریتونه
ماموریتونو
مامورین
مامورینو
مامون
ماموند
مان
مانا
ماناوې
ماندينه
مانع
مانند
مانه
مانوي
مانویل
ماني
مانچستر
مانچسټر
مانګرو
مانیلا
مانۍ
ماه
ماهر
ماهرو
ماهون
ماهي
ماهيان
ماهيت
ماهیت
ماو
ماورا
ماوراء
ماوراي
ماورای
ماوري
ماونټ
ماي
مايع
مايعات
مايعاتو
مايل
مايوسيس
مايکرو
مايکروسکوپ
مايکروسکوپي
مايکرون
مايکل
ماټ
ماډرن
ماډل
ماډله
ماډلونه
ماډلونو
ماډيسن
ماړه
ماښام
ماکس
ماکو
ماګما
ماڼو
ماڼیو
ماڼۍ
ماڼې
مایا
مایتوکاندري
مایتوکاندریا
مایر
مایع
مایعات
مایعاتو
مایل
مایله
مایلو
ماین
ماینونو
مایو
مایک
مایکرو
مایکروسافټ
مایکروسکوپ
مایکروسکوپي
مایکل
مباحثې
مبارز
مبارزاتو
مبارزه
مبارزو
مبارزې
مبارك
مبارک
مبارکه
مبارکي
مبارکې
مبالغه
مبتلا
مبحث
مبدا
مبلغ
مبلغینو
مبهم
مبهمه
مة
مت
متا
متابعت
متاثره
متاسفانه
متبادل
متجانسو
متحد
متحده
متحدو
متحدينو
متحدین
متحدینو
متحدې
متحرک
متخصص
متخصصين
متخصصينو
متخصصین
متخصصینو
متر
مترادف
مترادفه
متراکم
مترقي
مترمکعب
متره
مترو
متري
مترۍ
متشابه
متشابهاتو
متشبث
متصل
متضاد
متضادو
متضادې
متضرر
متعارف
متعددة
متعصب
متعلق
متعهد
متغیر
متفاوت
متفاوته
متفق
متفقینو
متفکر
متقابل
متقابله
متقابلو
متقابلې
متقاعد
متقي
متل
متلونه
متلونو
متمدن
متمرکز
متمرکزه
متمرکزې
متن
متنازع
متناسب
متناظر
متناوب
متنوع
متنونه
متنونو
متني
متهم
متو
متواتر
متوازن
متوجه
متوسط
متوسطه
متوسطې
متوقع
متون
متونو
متي
متيازو
متکلم
متکي
مثال
مثاله
مثالونه
مثالونو
مثانه
مثانې
مثبت
مثبته
مثبتو
مثبتې
مثل
مثلا
مثلث
مثنوي
مجارستان
مجاز
مجازات
مجازاتو
مجازي
مجازی
مجاهد
مجاهدين
مجاهدينو
مجاهدین
مجاهدینو
مجاور
مجبور
مجبوره
مجبوروي
مجدد
مجددي
مجرا
مجرد
مجرم
مجرمینو
مجروح
مجسمه
مجسمو
مجسمې
مجلة
مجلس
مجلسونو
مجلسي
مجله
مجلو
مجلې
مجمع
مجمو
مجموع
مجموعه
مجموعو
مجموعي
مجموعې
مجنون
مجهز
مجهول
مجيد
مجید
محاذ
محاسباتو
محاسباتي
محاسبه
محاسبوي
محاسبې
محاصره
محاصرې
محافظت
محافظتي
محافظه
محافظوي
محال
محاکم
محاکمه
محاکمو
محاکمې
محب
محبت
محبس
محبوب
محبوبیت
محتاج
محتاط
محترم
محتوا
محتوی
محدث
محدود
محدوده
محدودو
محدودولو
محدودوي
محدوديت
محدوديتونه
محدوديتونو
محدودیت
محدودیتونه
محدودیتونو
محدودې
محدودېږي
محراب
محرم
محرميت
محرمیت
محروم
محرومیت
محرک
محرکه
محسن
محسوس
محصل
محصلانو
محصلين
محصلينو
محصلین
محصلینو
محصول
محصولات
محصولاتو
محضر
محفل
محفوظ
محقق
محكمه
محكمې
محل
محله
محلول
محلولونه
محلولونو
محلي
محلی
محم
محمد
محمدا
محمدبن
محمدخان
محمدكاظم
محمده
محمدي
محمدکاظم
محمدی
محمود
محنت
محور
محوره
محوري
محوه
محي
محيط
محيطي
محکمه
محکمو
محکمی
محکمې
محکوم
محکومیت
محی
محیط
محیطي
مخ
مخابرات
مخابراتو
مخابراتي
مخاطب
مخاطبینو
مخالف
مخالفان
مخالفانو
مخالفت
مخالفتونه
مخالفتونو
مخالفه
مخالفو
مخالفين
مخالفينو
مخالفین
مخالفینو
مخالفې
مخامخ
مختار
مخترع
مختصر
مختلط
مختلف
مختلفه
مختلفو
مختلفي
مختلفې
مخته
مختګ
مخدره
مخروط
مخروطي
مخزن
مخزېږد
مخزېږدي
مخزېږديز
مخزېږديزه
مخزېږديزې
مخزېږدې
مخصوص
مخصوصه
مخفف
مخفي
مخكي
مخكې
مخلص
مخلوط
مخلوق
مخلوقات
مخلوقاتو
مخنيوى
مخنيوي
مخنيوی
مخنیوي
مخنیوی
مخه
مخور
مخورو
مخونه
مخونهمخکې
مخونو
مخى
مخي
مخينه
مخينې
مخکني
مخکنیو
مخکنۍ
مخکى
مخکي
مخکيني
مخکينۍ
مخکښ
مخکښان
مخکښانو
مخکښه
مخکښو
مخکښې
مخکی
مخکیني
مخکینی
مخکینیو
مخکینۍ
مخکې
مخکېني
مخکېنیو
مخکېنۍ
مخی
مخینه
مخینې
مخې
مد
مداخله
مداخلې
مدار
مدارونه
مدارونو
مداري
مدافع
مدافعتي
مدافعینو
مدام
مداګاسکار
مدت
مدد
مدراس
مدرس
مدرسه
مدرسو
مدرسې
مدرن
مدرنو
مدعومة
مدعي
مدعی
مدغاسکر
مدغم
مدني
مدنيت
مدنيتونه
مدنيتونو
مدنی
مده
مديترانه
مديترانې
مدير
مديران
مديريت
مديريتي
مدينه
مدينې
مدیترانه
مدیترانې
مدیر
مدیران
مدیرانو
مدیره
مدیریت
مدینه
مدینې
مذاهبو
مذاکرات
مذاکراتو
مذاکره
مذاکرې
مذهب
مذهبه
مذهبونه
مذهبونو
مذهبي
مذهبی
مذکر
مر
مراتب
مراتبو
مراجعه
مراجعو
مراحل
مراحلو
مراد
مراسم
مراسمو
مراعات
مراعت
مراقبت
مراقبې
مرام
مراټي
مراکزو
مراکش
مربع
مربوط
مربوطه
مرتب
مرتبه
مرتبې
مرتد
مرتضی
مرتکب
مرجان
مرجاني
مرجع
مرحله
مرحلو
مرحلي
مرحلې
مرحو
مرحوم
مرد
مردان
مردم
مرزا
مرستندوى
مرستندويه
مرستندوی
مرستندویه
مرسته
مرستو
مرستي
مرستيال
مرستيالان
مرستی
مرستیال
مرستیالان
مرستیالانو
مرستیالې
مرستې
مرشد
مرصع
مرض
مرضونو
مرطوب
مرغاب
مرغان
مرغانو
مرغلرې
مرغه
مرغومي
مرغۍ
مركز
مركزي
مركه
مرمر
مرمرو
مرمی
مرمۍ
مره
مرهټيانو
مرهټیانو
مرو
مروان
مروت
مروج
مروجه
مرور
مروره
مروه
مري
مريان
مريانو
مريتوب
مريخ
مريض
مريم
مريي
مرچ
مرکب
مرکبات
مرکباتو
مرکبو
مرکبونه
مرکبونو
مرکبې
مرکز
مرکزونه
مرکزونو
مرکزي
مرکزيت
مرکزی
مرکزیت
مرکه
مرکو
مرکې
مرګ
مرګه
مرگ
مرگه
مری
مریخ
مریض
مریلنډ
مریم
مریيتوب
مریکا
مرییتوب
مرۍ
مز
مزاج
مزاحمت
مزار
مزارشریف
مزاري
مزایا
مزد
مزدا
مزده
مزدور
مزدورانو
مزدوري
مزدورۍ
مزدک
مزل
مزلو
مزلي
مزمن
مزه
مزي
مزيد
مزيل
مزيو
مس
مسا
مساحت
مساعد
مساعدة
مساعده
مسافر
مسافرت
مسافرو
مسافرینو
مساله
مسالې
مساوات
مساواتو
مساوي
مساي
مسايل
مسايلو
مسایل
مسایلو
مست
مستبد
مستحب
مستحق
مستدرک
مستطيل
مستطیل
مستعار
مستعمراتو
مستعمره
مستعمرو
مستعمرې
مستقل
مستقله
مستقيم
مستقيما
مستقيمه
مستقيمو
مستقيمې
مستقیم
مستقیما
مستقیمه
مستقیمو
مستقیمې
مستند
مستنده
مستهلک
مستو
مستوفي
مستې
مسجد
مسجع
مسح
مسخره
مسره
مسعود
مسلح
مسلسل
مسلط
مسلك
مسلكي
مسلم
مسلمان
مسلمانان
مسلمانانو
مسلمانه
مسلمانو
مسلمانې
مسلمه
مسله
مسلو
مسلک
مسلکونو
مسلکي
مسلکی
مسلې
مسموم
مسموميت
مسند
مسو
مسوده
مسودې
مسول
مسوليت
مسولیت
مسوول
مسووليت
مسوولیت
مسي
مسيح
مسيحي
مسيحيان
مسيحيانو
مسيحيت
مسير
مسکن
مسکو
مسیح
مسیحا
مسیحي
مسیحیان
مسیحیانو
مسیحیت
مسیر
مسیرونو
مشابه
مشابهت
مشارکت
مشارکتي
مشارکین
مشاعره
مشاعرې
مشال
مشاهدات
مشاهداتو
مشاهداتي
مشاهده
مشاهدو
مشاهدې
مشاور
مشبه
مشبوع
مشتري
مشتريانو
مشترک
مشترکه
مشترکو
مشترکې
مشتریانو
مشتق
مشتقات
مشتقاتو
مشتمل
مشخص
مشخصات
مشخصاتو
مشخصه
مشخصو
مشخصوي
مشخصې
مشخصېږي
مشر
مشران
مشرانو
مشرتابه
مشرتوب
مشرف
مشرق
مشرقي
مشره
مشروبات
مشروباتو
مشروط
مشروطه
مشروطیت
مشروع
مشروعيت
مشروعیت
مشري
مشرکانو
مشری
مشرۍ
مشرې
مشعل
مشغول
مشق
مشكل
مشكوة
مشهد
مشهور
مشهوره
مشهورو
مشهورې
مشورتي
مشوره
مشورو
مشورې
مشک
مشکل
مشکلات
مشکلاتو
مشکله
مصادره
مصارف
مصارفو
مصداق
مصدر
مصر
مصرف
مصرفوي
مصرفي
مصروف
مصري
مصريانو
مصریانو
مصطفى
مصطفی
مصعب
مصلحت
مصنف
مصنوعي
مصنوعی
مصو
مصورۍ
مصونیت
مصيبت
مضارع
مضاف
مضامين
مضامينو
مضامین
مضامینو
مضر
مضره
مضرو
مضمنة
مضمون
مطابق
مطابقت
مطالب
مطالبو
مطالعات
مطالعاتو
مطالعه
مطالعو
مطالعي
مطالعې
مطبعه
مطبعې
مطبوعات
مطبوعاتو
مطبوعاتي
مطبوعه
مطرح
مطرف
مطلب
مطلع
مطلق
مطلقه
مطلقې
مطلوب
مطلوبه
مطلوبې
مطمي
مطیع
مظاهر
مظاهره
مظاهرو
مظفر
مظلوم
مظهر
مع
معا
معادل
معادلاتو
معادله
معادلو
معادلې
معاذ
معارف
معاش
معاشونه
معاشونو
معاصر
معاصره
معاصرو
معاصرې
معاف
معافيت
معافیت
معافیتي
معالجه
معاملاتو
معامله
معاملو
معاملې
معاني
معاهده
معاهدې
معاون
معاويه
معاویه
معاينه
معاینه
معاینې
معبد
معبدونه
معبدونو
معبود
معتبر
معتبره
معتبرو
معتبرې
معتدل
معتدله
معتدلو
معتزله
معتقد
معتمد
معجزه
معجزې
معجم
معدن
معدنونو
معدني
معده
معدي
معدې
معراج
معرف
معرفت
معرفي
معرفی
معروف
معز
معزالدین
معشوق
معشوقه
معشوقې
معصوم
معظم
معظمه
معظمې
معقول
معقوله
معلق
معلم
معلو
معلول
معلولیت
معلوم
معلومات
معلوماتو
معلوماتي
معلومه
معلومو
معلومول
معلومولو
معلوموي
معلوميږي
معلومیږي
معلومې
معلومېږي
معما
معمار
معمارانو
معماري
معمارۍ
معمر
معمول
معمولا
معموله
معمولو
معمولي
معمولې
معنا
معناوو
معناوې
معنوي
معنويت
معنوی
معنویت
معنى
معني
معنی
معنې
معيار
معيارونه
معيارونو
معياري
معيت
معين
معينه
معکوس
معیار
معیارونه
معیارونو
معیاري
معین
مغازلي
مغذي
مغرب
مغربي
مغرور
مغز
مغزو
مغزي
مغل
مغلق
مغلو
مغلوب
مغلي
مغول
مغولستان
مغولو
مغولي
مغولیانو
مغيره
مــ
مفاهمه
مفاهمې
مفاهيم
مفاهيمو
مفاهیم
مفاهیمو
مفتون
مفتي
مفتی
مفرد
مفسر
مفصل
مفصله
مفعول
مفقود
مفهوم
مفهومونه
مفهومونو
مفهومي
مفيد
مفکر
مفکرينو
مفکرینو
مفکوره
مفکورو
مفکورې
مفید
مقا
مقابل
مقابله
مقابلې
مقاصدو
مقاله
مقالو
مقالې
مقام
مقامات
مقاماتو
مقاوم
مقاومت
مقايسه
مقایسه
مقبره
مقبرې
مقبوليت
مقدار
مقداري
مقدس
مقدسه
مقدسو
مقدم
مقدماتي
مقدمه
مقدوني
مقدونيه
مقدونيې
مقدونیایي
مقدونیه
مقدونیې
مقر
مقرر
مقررات
مقرراتو
مقرره
مقصد
مقصدونو
مقصود
مقصودي
مقطع
مقعد
مقناطيسي
مقناطیس
مقناطیسي
مقننه
مقننې
مقياس
مقیاس
مكروه
مكلف
مكه
مكې
مل
ملا
ملاتړ
ملاتړو
ملاتړي
ملاتړی
ملاتړې
ملاحظه
ملاريا
ملاریا
ملاقات
ملاله
ملالۍ
ملالې
ملامت
ملامحمد
ملامشک
ملاي
ملايالم
ملاکنډ
ملایانو
ملبورن
ملت
ملتان
ملتو
ملتونه
ملتونو
ملتيا
ملتپال
ملتپالنه
ملتپالنې
ملتپاله
ملتپالو
ملتیا
ملجم
ملحد
ملخ
ملخان
ملك
ملكه
ملكي
ملكيت
ملل
ملنډې
ملنګ
ملنگ
مله
ملهم
ملوث
ملوک
ملى
ملي
مليارده
مليونه
ملټي
ملچ
ملک
ملکان
ملکه
ملکونه
ملکونو
ملکي
ملکيت
ملکيتونو
ملکی
ملکیت
ملکیتونه
ملکیتونو
ملکې
ملګرتيا
ملګرتیا
ملګرو
ملګروملتونو
ملګرى
ملګري
ملګری
ملګرې
ملگرتيا
ملگرو
ملگرى
ملگري
ملگری
ملگرې
ملی
ملیارد
ملیارده
ملیالم
ملیت
ملیتي
ملیشه
ملیشو
ملیون
ملیونه
ملې
ملېشو
ممانعت
ممبۍ
ممتاز
ممكن
مملوک
مملکت
ممنوع
ممنوعیت
ممکن
ممکنه
من
منابع
منابعو
منار
مناسب
مناسبت
مناسبه
مناسبو
مناسبې
مناظر
مناظره
مناظرو
مناظرې
مناقب
مناقشې
منان
منانو
منبر
منبع
منتخب
منتظر
منتقد
منتقدین
منتقدینو
منثور
منجمد
منجمنټ
منحرف
منحصر
منحل
منحني
مند
مندل
مندو
مندۍ
منذر
منرال
منرالونه
منرالونو
منرالي
منزل
منزلونه
منزوي
منسجم
منسوب
منسوبه
منسوبوي
منسوخ
منسټر
منشا
منشاء
منشور
منشي
منشی
منصب
منصفه
منصوب
منصور
منطق
منطقه
منطقو
منطقي
منطقی
منطقې
منظر
منظره
منظرو
منظرې
منظم
منظمه
منظمو
منظمې
منظور
منظوم
منظومه
منظومې
منع
منعه
منعکس
منعکسوي
منفرد
منفى
منفي
منفی
منقرض
منل
منله
منلو
منلى
منلي
منلی
منلې
منلے
منم
مننه
مننې
منه
منهاتن
منهاج
منو
منور
منوره
منورې
منونکو
منونکي
منونکی
منونکې
مني
منين
منټل
منځ
منځا
منځته
منځلاري
منځني
منځنيو
منځنی
منځنیو
منځنۍ
منځنې
منځه
منځي
منځپانګه
منځپانګې
منځګړي
منځګړيتوب
منځګړی
منځګړیتوب
منځی
منځۍ
منډه
منډو
منډي
منډيلا
منډيګک
منډيگک
منډې
منښت
منښتلیک
منکر
منګل
منګوليا
منګولیا
منگل
منگلو
منگوال
منی
منین
منې
مه
مها
مهابت
مهاتما
مهاجر
مهاجرت
مهاجرتونو
مهاجرو
مهاجرينو
مهاجرینو
مهار
مهاراجا
مهاراشترا
مهارت
مهارتونه
مهارتونو
مهال
مهالنۍ
مهاله
مهالونو
مهالوېش
مهالي
مهالی
مهالې
مهبل
مهترلام
مهتمم
مهدي
مهر
مهربان
مهربانه
مهرباني
مهربانۍ
مهم
مهمات
مهماتو
مهمه
مهمو
مهمي
مهمې
مهندسۍ
مهيا
مو
مواد
موادو
موادوپه
موارد
مواردو
موازي
موافق
موافقت
موافقه
موافقو
موافقې
موباي
موبايل
موبایل
موتر
موتور
موثر
موثره
موثریت
موج
موجب
موجو
موجود
موجودات
موجوداتو
موجوددي
موجوده
موجودو
موجودوي
موجودي
موجوديت
موجودیت
موجودې
موجونه
موخه
موخو
موخي
موخې
مودل
موده
مودو
مودي
مودی
مودې
مور
مورال
مورخ
مورخينو
مورد
مورس
مورفولوژي
مورفولوژیکي
مورني
مورنی
مورنیو
مورنۍ
موره
موروثي
موري
موريس
مورچل
مورګان
مورګن
موریا
موریتانیا
موریس
موریسن
مورې
موزمبيق
موزيم
موزیم
موزیمونه
موزیمونو
موزیک
موس
موسس
موسساتو
موسسه
موسسو
موسسې
موسم
موسمونو
موسمي
موسولیني
موسى
موسي
موسيقي
موسيقۍ
موسکا
موسی
موسیقي
موسیقی
موسیقۍ
موصل
موضعي
موضوع
موضوعات
موضوعاتو
موضوعي
موضوعګانو
موضوعګانې
موقت
موقته
موقتي
موقتې
موقع
موقعيت
موقعیت
موقعیتونه
موقعیتونو
موقف
موقيعت
موقیعت
مول
مولا
مولانا
مولد
مولر
مولروني
مولف
مولوتف
مولوي
مولوی
مولى
موم
مومن
مومنانو
مومند
مومندو
مومو
مومي
مومی
مون
موناکو
مونث
موند
موندل
موندلای
موندله
موندلو
موندلى
موندلي
موندلی
موندلې
موندنه
موندنو
موندنې
مونده
موندونکي
مونرو
مونس
مونو
مونوګراف
مونټ
مونږ
مونږتاو
مونږه
مونیخ
موو
موويز
موټ
موټر
موټرانو
موټرو
موټرونه
موټرونو
موټي
موټی
موډ
موډرن
موډل
موډلونه
موډلونو
موړ
موړي
موړی
موړې
موږ
موږک
موږکان
موږکانو
موکه
موکو
موکې
موګابه
مى
مي
ميا
مياشت
مياشتني
مياشتنۍ
مياشتو
مياشتي
مياشتينۍ
مياشتې
ميان
مياگانو
ميتابوليزم
ميتان
ميتايل
ميتود
ميتودونه
ميتودونو
ميخانيک
ميخانيکي
ميخانيکې
ميدان
ميده
مير
ميراث
ميراثي
ميرزا
ميرمن
ميرمنو
ميرمنې
ميرويس
ميري
ميز
ميزان
ميشت
ميشته
ميشتو
ميل
ميلاد
ميلادي
ميلان
ميلاوس
ميلمه
ميله
ميلو
ميلونه
ميلي
ميليارد
ميليارده
ميليون
ميليونه
ميليونو
ميليونونو
ميلیونه
ميلې
ميمون
مين
ميندو
ميندې
مينرو
مينه
ميني
مينځ
مينځته
مينځل
مينځه
مينې
ميو
ميوزك
ميوند
ميوه
ميوو
ميوي
ميوې
ميټر
ميډيا
ميړانه
ميړه
ميږي
ميکانيزم
ميکروب
ميکروبونو
مټ
مټر
مټره
مټو
مټې
مځکه
مځکي
مځکې
مچ
مچان
مچانو
مچيو
مچیو
مچۍ
مډال
مډالونه
مډرن
مډرنیزم
مډیسون
مړ
مړشو
مړه
مړو
مړى
مړي
مړينه
مړيني
مړينې
مړی
مړینه
مړینو
مړینې
مړۍ
مړې
مک
مکان
مکاني
مکاو
مکتب
مکتبونه
مکتبونو
مکتوب
مکرر
مکرمه
مکرمې
مکروب
مکروبونه
مکروبونو
مکس
مکسيکو
مکسیکو
مکعب
مکعبه
مکلف
مکلفیت
مکلفیتونه
مکمل
مکمله
مکه
مکي
مکياوېلې
مکډونالډ
مکې
مګر
مګرپه
مګما
مګنا
مګنيزيم
مګنیزیم
مگر
مڼه
مڼو
مڼې
می
میا
میاشت
میاشتني
میاشتنی
میاشتنۍ
میاشتو
میاشتي
میاشتی
میاشتې
میان
میانمار
میتان
میتود
میتودونه
میتودونو
میثاق
میجر
میخانیک
میخانیکي
میخایل
میدان
میدانونو
میده
میر
میراث
میراثونو
میراثي
میرزا
میرمن
میرمنو
میرمنې
میرویس
میریام
میز
میزان
میس
میساچوسټس
میسن
میسوري
میسی
میشت
میشته
میشتو
میشل
میشیګان
میل
میلاد
میلاده
میلادي
میلادی
میلان
میلبورن
میلر
میلمنو
میلمه
میله
میلونه
میلي
میلیارد
میلیارده
میلیون
میلیونه
میلیونو
میلیونونه
میلیونونو
میلې
مین
مینا
میندو
میندې
مینسک
مینه
میني
مینځ
مینځلو
مینځه
مینځپانګې
مینګ
مینې
میوزیم
میوزیک
میوند
میوه
میوو
میوی
میوې
میټامورفیک
میټرو
میډویډیف
میډیا
میډیسن
میړه
میکانیزم
میکانیزمونه
میکانیزمونو
میکانېزم
میکاي
میکروب
میکروبونه
میکروبونو
میکروبي
میں
مۍ
مې
مېتا
مېتافزیک
مېتافزیکي
مېتود
مېتودونه
مېتودونو
مېجر
مېدان
مېرمن
مېرمنه
مېرمنو
مېرمني
مېرمنې
مېرویس
مېز
مېزس
مېسن
مېسي
مېشت
مېشته
مېشتو
مېشتې
مېشتېدو
مېل
مېلاد
مېلادي
مېلبورن
مېلر
مېلمانه
مېلمنو
مېلمه
مېلیونه
مېلې
مېن
مېنه
مېنځ
مېنځه
مېنې
مېوند
مېوه
مېوو
مېوې
مېپ
مېچ
مېړانه
مېړانې
مېړني
مېړه
مېړونو
مېږو
مېږې
مېگ
ن
نا
ناا
نااشنا
ناببره
نابرابر
نابرابري
نابرابرۍ
نابشپړه
نابغه
نات
ناتو
ناتوانه
ناتواني
ناتوانۍ
ناتولي
ناحيه
ناحيې
ناحیه
ناحیو
ناحیې
ناخالص
ناخالصه
ناخالصو
ناخبره
ناخوالو
ناخوښ
ناخوښه
ناخوښي
ناخوښۍ
نادر
نادرخان
نادرشاه
نادره
نادرو
نادري
نادولتي
ناراضه
نارسمي
نارمل
نارنج
نارنجي
ناره
نارو
ناروا
ناروغ
ناروغان
ناروغانو
ناروغه
ناروغى
ناروغي
ناروغيو
ناروغی
ناروغیو
ناروغۍ
ناروغې
ناروی
ناروۍ
ناروې
ناروېژي
نارينه
نارینه
نارې
ناز
نازل
نازو
نازي
نازيانو
نازړه
نازک
نازکه
نازکو
نازکې
نازیانو
نازیزم
نازیه
ناسا
ناست
ناسته
ناستو
ناستوب
ناستي
ناستی
ناستې
ناسم
ناسمه
ناسمو
ناسمې
ناسکه
ناشر
ناشناس
ناشوني
ناشونی
ناشونې
ناصر
ناصري
ناظر
ناظم
ناعادلانه
ناغوښته
نافذ
نافذه
نافرمانۍ
ناقانونه
ناقص
نالۍ
نام
نامات
نامتو
نامحدود
نامشروع
نامطلوبه
نامعلوم
نامعلومه
نامعلومو
نامعلومې
ناممکن
نامناسب
نامناسبه
نامنظم
نامه
ناموس
نامي
نامیبیا
نامې
نان
نانسي
نانو
نانوتوي
ناهيلي
ناهیلي
ناهیلی
ناو
ناوخته
ناور
ناورين
ناورین
ناورینونو
ناول
ناولتيا
ناولونه
ناولونو
ناولې
ناوه
ناوړه
ناوړو
ناوړې
ناوی
ناوې
ناي
نايب
نايتروجن
نايجيريا
نايټينګل
ناټو
ناپاکه
ناپل
ناپلیون
ناپوه
ناپوهۍ
ناپيليون
ناپیلیون
ناپېژندل
ناپېژندلې
ناڅاپه
ناڅاپي
ناڅرګند
ناڅرګنده
ناڅرګندو
ناڅه
ناچاپ
ناچاپه
ناډو
ناړي
ناړۍ
ناک
ناکافي
ناکام
ناکامه
ناکامو
ناکامي
ناکامۍ
ناکامې
ناکراریو
ناکرارۍ
ناکره
ناکس
ناکله
ناګاساکي
نایب
نایتروجن
نایجر
نایجریا
نایجیریا
نایټریک
نبات
نباتات
نباتاتو
نباتاتوکې
نباتي
نباتی
نباید
نبراسکا
نبض
نبوت
نبوغ
نبوي
نبي
نبی
نت
نتایج
نترويكي
نتن
نتيجه
نتيجې
نتیجه
نتیجې
نث
نثار
نثر
نثرم
نثرونه
نثرونو
نثري
نجات
نجاشي
نجد
نجراب
نجران
نجف
نجلۍ
نجم
نجوم
نجومي
نجونو
نجونې
نجيب
نجيل
نجیب
نحضرت
نحن
نحو
نحوه
نحوي
نخاع
نخبه
نخشه
نخوا
نخود
نخودو
نخښه
نخښې
ند
ندرت
نده
ندو
ندوي
ندى
ندي
ندی
ندۍ
ندې
نر
نرانو
نرخ
نرخونه
نرخونو
نرسري
نرسنګ
نرسې
نرم
نرمه
نرمو
نرمي
نرمښت
نرمۍ
نرمې
نرنگ
نرودا
نرى
نري
نرينه
نرګس
نرگس
نری
نرینه
نرۍ
نزد
نزدې
نزول
نس
نساجي
نسان
نساي
نسب
نسبت
نسبتا
نسبتونه
نسبتونو
نسبتي
نسبي
نسبيت
نسبیت
نستان
نسته
نسج
نسجونه
نسجونو
نسخه
نسخهدريم
نسخو
نسخې
نسل
نسله
نسلونه
نسلونو
نسلي
نسواري
نسي
نسيم
نسکور
نسکورولو
نسکورېدو
نسیم
نشان
نشایسته
نشت
نشته
نشتوالى
نشتوالي
نشتوالی
نشتون
نشر
نشرات
نشراتو
نشراتي
نشرونه
نشم
نشنل
نشنلیزم
نشه
نشو
نشوای
نشول
نشوه
نشى
نشي
نشی
نشې
نص
نصاب
نصب
نصر
نصرالله
نصراني
نصرانيت
نصرت
نصواري
نصوصو
نصيب
نصيحت
نصير
نصیب
نصیحت
نصیر
نظار
نظارت
نظام
نظامونه
نظامونو
نظامي
نظامی
نظر
نظره
نظرونه
نظرونو
نظري
نظريات
نظرياتو
نظرياتي
نظريه
نظريو
نظريې
نظرپوښتنې
نظرکې
نظریات
نظریاتو
نظریاتي
نظریه
نظریو
نظریې
نظم
نظمه
نظمونه
نظمونو
نظمي
نظمۍ
نظير
نظیر
نعمان
نعماني
نعمت
نعمتونه
نعمتونو
نعوظ
نعيم
نغاړي
نغدو
نغدي
نغدې
نغمه
نغمې
نغوته
نغښتي
نغښتی
نغښتې
نــ
نـه
نف
نفاق
نفت
نفتو
نفتي
نفر
نفرت
نفره
نفرو
نفس
نفقه
نفوذ
نفوذي
نفوس
نفوسه
نفوسو
نفى
نفي
نفې
نقاد
نقاش
نقاشي
نقاشیو
نقاشۍ
نقاط
نقد
نقدي
نقره
نقش
نقشه
نقشو
نقشې
نقص
نقصان
نقض
نقطه
نقطو
نقطي
نقطی
نقطې
نقل
نقليه
نقلیه
نك
نكاح
نكريم
نل
نلاین
نلري
نلری
نلونو
نم
نما
نمانځل
نماي
نماينده
نمایشي
نماینده
نمبر
نمر
نمره
نمرو
نمرې
نمرېوں
نمو
نمود
نمونه
نمونو
نمونې
نمي
نن
نندارتون
نندارتونونه
نندارتونونو
ننداره
نندارو
نندارې
ننني
نننی
نننۍ
ننه
ننواتې
ننوت
ننوتل
ننوتلو
ننوتو
ننوتې
ننوزي
ننوځي
نني
ننګ
ننګرهار
ننګه
ننګول
ننګونه
ننګونو
ننګونې
ننگ
ننگرهار
ننۍ
نه
نها
نهاد
نهايي
نهایت
نهایي
نهج
نهر
نهرو
نهضت
نهم
نهمه
نهمې
نهنګ
نهه
نهو
نو
نوا
نواب
نواز
نوامبر
نوبت
نوبتي
نوبل
نوبيا
نوح
نود
نوددې
نودې
نور
نورا
نورالدین
نورجهان
نورد
نورزي
نورزی
نورستان
نورستاني
نورفولک
نورمال
نورماله
نورمان
نورماندي
نورمحمد
نورمن
نورمونو
نوره
نورهم
نورو
نوروز
نورویچ
نوري
نورگل
نوری
نورې
نوزاد
نوشته
نوع
نوعه
نوعو
نوعي
نوعيت
نوعی
نوعې
نولس
نولسم
نولسمه
نولسمې
نوله
نوم
نوماند
نوماندان
نوماندانو
نومانده
نوماندي
نوماندۍ
نومبر
نومر
نومرو
نوملړ
نومه
نومهال
نومهالې
نوموتو
نوموتی
نومول
نومولی
نومونه
نومونو
نومونې
نوموي
نوموړو
نوموړى
نوموړي
نوموړی
نوموړۍ
نوموړې
نومي
نوميالي
نومياليو
نوميالی
نوميده
نوميږي
نومځري
نومځری
نومړی
نومی
نومیالي
نومیالی
نومیده
نومیږي
نومیږی
نومې
نومېدل
نومېده
نومېدی
نومېږي
نوهغه
نوو
نوولسمې
نوى
نوي
نويو
نوټ
نوټونه
نوټونو
نوپدې
نوپه
نوځکه
نوښار
نوښت
نوښتونه
نوښتونو
نوښتي
نوښتګر
نوک
نوکان
نوکرانو
نوکلیک
نوکیا
نوی
نوینسون
نویو
نوې
ني
نيا
نياز
نيازی
نيالګي
نيالګيو
نيبولا
نيت
نيسو
نيسى
نيسي
نيسې
نيشاپور
نيغ
نيكه
نيكونو
نيل
نيله
نيم
نيمايي
نيمروز
نيمه
نيمو
نيمګړتيا
نيمې
نيو
نيواک
نيوترون
نيوز
نيول
نيولو
نيولوسره
نيولى
نيولي
نيولی
نيولې
نيونه
نيونې
نيوه
نيويارک
نيوټن
نيوکه
نيوکو
نيوکې
نيټه
نيټې
نيپال
نيک
نيکاراګوا
نيکه
نيکونه
نيکونو
نټ
نپټون
نڅا
نړ
نړي
نړيو
نړيوال
نړيوالتوب
نړيواله
نړيوالو
نړيوالي
نړيوالې
نړی
نړیو
نړیوال
نړیوالتوب
نړیواله
نړیوالو
نړیوالی
نړیوالې
نړۍ
نړېوال
نړېواله
نړېوالو
نړېوالې
نږدي
نږدی
نږدې
نږدېوالي
نږدېوالی
نژاد
نژادونو
نژادي
نژدي
نژدی
نژدې
نښان
نښانه
نښانو
نښانونه
نښانونو
نښانې
نښتر
نښته
نښتو
نښتي
نښتی
نښتیځه
نښتې
نښلول
نښلولو
نښلوي
نښلي
نښه
نښو
نښي
نښير
نښی
نښې
نکاح
نکته
نکرومه
نکریم
نکل
نکلونه
نکلونو
نکوي
نکي
نکړي
نګ
نگار
نگام
نگاه
نگه
نہ
نی
نیا
نیابتي
نیابتی
نیاز
نیازی
نیاندرتال
نیت
نیروهای
نیز
نیست
نیسي
نیسی
نیشابور
نیغ
نیل
نیلسن
نیلسون
نیلي
نیم
نیمايي
نیمایي
نیمایی
نیمروز
نیمه
نیمو
نیمګړتیا
نیمګړتیاوې
نیمګړي
نیمګړی
نیمګړې
نیمې
نیندرتال
نیو
نیوانګلنډ
نیواک
نیوتروني
نیوجرسي
نیوز
نیوزلنډ
نیوزیلنډ
نیوزیلینډ
نیول
نیوله
نیولو
نیولي
نیولی
نیولې
نیونه
نیونکي
نیونې
نیوه
نیوونکو
نیوټن
نیوکه
نیوکو
نیوکې
نیویارک
نیټه
نیټې
نیپال
نیپالي
نیپتون
نیچه
نیک
نیکاراګوا
نیکسون
نیکفوروس
نیکه
نیکولاس
نیکولای
نیکونه
نیکونو
نۍ
نې
نېته
نېزه
نېزو
نېسي
نېش
نېشنل
نېغ
نېغه
نېلسون
نېواک
نېولې
نېټه
نېټو
نېټې
نېږدې
نېک
نېکمرغه
نېکمرغۍ
نېکه
نے
نە
ه
ها
هابر
هابز
هابسبورګ
هاخوا
هادریان
هادي
هار
هاربر
هاروارډ
هارورډ
هارولد
هارولډ
هارون
هارټ
هارپر
هارډ
هارډویر
هارډي
هارډینګ
هاریس
هاریسون
هاشم
هاشمي
هاضمي
هاضمې
هاغه
هال
هالند
هالنډ
هالنډي
هالوکاسټ
هالي
هامار
هامبورګ
هامر
هامون
هان
هانا
هاند
هانري
هانس
هانوفر
هانوور
هانګ
هانگ
هاو
هاوارډ
هاوانا
هاوايي
هاوایي
هاوایی
هاورډ
هاوس
هاوسا
هاوک
هاى
هاي
هايدرا
هايدرو
هايدرواکسايد
هايدروجن
هايدروجني
هايزنبرګ
هايس
هايپوتايرايډيزم
هايډروجن
هايک
هاټ
هاپکينز
هاپکینز
هاکسلي
هاکي
هاګ
های
هایدرو
هایدروجن
هاینلاین
هایټي
هایډروجن
هایک
هبتات
هبل
هجران
هجرت
هجري
هجری
هجوم
هخامنشي
هخامنشیانو
هدايت
هدایت
هدف
هدفونه
هدفونو
هدمارک
هديره
هدیره
هدیرې
هذا
هذه
هر
هرات
هراړخیز
هراکلیوس
هربرت
هربرټ
هرتز
هرحال
هرزه
هرزګوینا
هرشل
هرصورت
هرم
هرمز
هرمزگان
هرمن
هره
هرهغه
هرو
هروخت
هرومرو
هروي
هري
هريرود
هريو
هرڅه
هرڅوك
هرڅومره
هرڅوک
هرچا
هرډول
هرکال
هرکله
هرکلي
هرکلی
هری
هریس
هریسون
هریو
هرې
هزار
هزاره
هستند
هسته
هستو
هستوي
هستوګن
هستوګنه
هستوګنې
هستوی
هستي
هستۍ
هستې
هسي
هسپانوي
هسپانویانو
هسپانيه
هسپانيې
هسپانیا
هسپانیه
هسپانیوي
هسپانیې
هسک
هسکه
هسکې
هسې
هشام
هضم
هضمي
هغسې
هغه
هغو
هغومره
هغوى
هغوي
هغوی
هغوۍ
هغوې
هغى
هغي
هغی
هغې
هغە
هـ
هــ
هفته
هفتو
هكله
هل
هلال
هلاکو
هلته
هلك
هلمند
هله
هلو
هلوځلو
هلي
هلک
هلکان
هلکانو
هلیکوپتر
هلې
هم
هما
هماغسې
هماغلته
هماغه
هماغو
هماغې
همالته
همالیا
همايون
همایون
همت
همجنس
همجنسبازانو
همجنسبازۍ
همجنسګرایانو
همد
همدا
همداراز
همدارنګه
همدارنگه
همداسي
همداسې
همداشان
همدان
همداډول
همدرانګه
همدرد
همدردي
همدغسې
همدغه
همدغو
همدغې
همدلته
همده
همدومره
همدوی
همدى
همدي
همدی
همدې
همزولو
همغه
همغږي
همغږی
همغږۍ
همغږې
همغې
هملته
هملین
هممهاله
همه
همهغه
همواره
هميش
هميشه
هميلټن
همکار
همکاران
همکارانو
همکاري
همکاريو
همکاری
همکاریو
همکارۍ
همګټو
همیشه
همیلټون
همېش
همېشه
هن
هنتون
هند
هنداره
هندسه
هندسي
هندسې
هندو
هندوان
هندوانو
هندوراس
هندوستان
هندوستاني
هندوچین
هندوکش
هندویزم
هندي
هنديانو
هندکې
هندی
هندیانو
هندۍ
هنر
هنرمند
هنرمندان
هنرمندانو
هنرمنده
هنرونه
هنرونو
هنري
هنری
هنګ
هنګري
هنگ
هنگري
هو
هوا
هوار
هواره
هوارو
هواروي
هواري
هوارډ
هوارې
هوازي
هواي
هوايي
هواکې
هوایي
هوایی
هوتک
هورمون
هورمونونه
هورمونونو
هورموني
هورې
هوس
هوسا
هوساينه
هوساينې
هوساینه
هوساینې
هوسۍ
هوش
هول
هولوسين
هولوکاسټ
هولي
هولټ
هوم
هومر
هومره
هومو
هومینین
هومیوپاتي
هونولولو
هوور
هويت
هوټل
هوټلونه
هوټلونو
هوډ
هوږه
هوښ
هوښه
هوښيار
هوښیار
هوښیارۍ
هوک
هوکر
هوکړه
هوکړو
هوکړې
هوګو
هویت
هي
هيبت
هيثمي
هير
هيل
هيله
هيلو
هيلي
هيلې
هيموګلوبين
هينري
هينکاک
هيواد
هيواده
هيوادو
هيوادونه
هيوادونو
هيوادونوکې
هيوادکې
هيوم
هيي
هيڅ
هيڅكله
هيڅوك
هيڅوک
هيڅکله
هيچا
هټ
هټلر
هټۍ
هڅاند
هڅه
هڅو
هڅوب
هڅوبي
هڅول
هڅولو
هڅونه
هڅونې
هڅوي
هڅي
هڅې
هډه
هډو
هډوکو
هډوکي
هډوکی
هډوکې
هډې
هړپه
هک
هکتار
هکتاره
هکله
هکټاره
هګيو
هګی
هګیو
هګۍ
هگۍ
هی
هیات
هیت
هیر
هیروشیما
هیروډوټس
هیل
هیله
هیلو
هیلډګارډ
هیلې
هیمو
هیموګلوبین
هینري
هیو
هیواد
هیوادو
هیوادوالو
هیوادونه
هیوادونو
هیوادونوکی
هیوز
هیوم
هیي
هیټلر
هیڅ
هیڅوک
هیڅکله
هیچا
هیګل
هې
هېتیانو
هېر
هېره
هېز
هېل
هېنداره
هېندرېکس
هېنري
هېواد
هېوادمشر
هېوادمل
هېوادنو
هېواده
هېوادو
هېوادوال
هېوادوالو
هېوادونه
هېوادونو
هېپارخوس
هېڅ
هېڅكله
هېڅوک
هېڅکله
هېچا
و
وا
واتسلاف
واتیکان
واجب
واجبه
واحد
واحده
واحدونه
واحدونو
واحدي
واحدې
واخان
واخست
واخستل
واخسته
واخلم
واخله
واخلو
واخلي
واخلی
واخيست
واخيستل
واخيستله
واخيسته
واخیست
واخیستل
واخیستله
واخیسته
واخیستې
واخېست
واخېستل
واخېسته
واده
وادي
وار
وارث
وارخطا
وارد
واردات
وارداتو
وارداتي
وارده
واردولو
واردوي
وارزول
وارزوي
وارسا
وارن
وارنر
واره
وارو
واري
وارډ
وارې
واز
وازه
واستاوه
واستول
واستوي
واسط
واسطه
واشنګټن
واشنگټن
واصحابه
واضح
واضحه
واغوندي
واقع
واقعا
واقعات
واقعاتو
واقعه
واقعي
واقعيت
واقعیت
واقعیتونه
واقعیتونو
واقعې
واك
واكمن
واكمني
واكمنۍ
وال
والا
والد
والدينو
والدین
والدینو
والس
والله
والنهايه
واله
والو
والى
والي
واليانو
واليس
والټر
والپول
والډو
والی
والیان
والیانو
والیس
والۍ
والې
وان
وانا
وانخلي
وانه
وانګېرل
واهه
واو
واوره
واورو
واوري
واورين
واورې
واورېد
واورېدل
واورېده
واوسي
واول
واوړي
واوښت
واوښتل
واوښته
واوښتې
واى
واي
وايرس
وايرسونه
وايرسونو
وايروسونه
وايستل
وايم
وايه
وايو
وايى
وايي
وايټ
وايی
وايې
واټ
واټر
واټرشيډ
واټسن
واټن
واټنونو
واټه
واټونو
واپس
واچ
واچاوه
واچول
واچوله
واچولې
واچوه
واچوو
واچوي
واړاوه
واړه
واړو
واړول
واړوله
واړوه
واړوي
واژن
واژه
واښه
واښو
واک
واکر
واکسين
واکسينو
واکسین
واکسیناسیون
واکسینونه
واکسینونو
واکمن
واکمنان
واکمنانو
واکمنه
واکمنو
واکمني
واکمنيو
واکمنی
واکمنیو
واکمنۍ
واکمنې
واکه
واکونه
واکونو
واګې
وای
وایت
وایرس
وایرسونه
وایز
وایستل
وایم
وایه
وایو
وایي
وایټ
وایی
وایې
واېستل
وب
وبا
وباسي
وباله
وبلل
وبلله
وبللې
وبه
وبولو
وبولي
وبښي
وت
وتاړه
وترنري
وتل
وتلو
وتلى
وتلي
وتلی
وتلې
وتمبول
وتنۍ
وته
وتو
وتوانېد
وتوانېدل
وتوغول
وتونځايونو
وتړل
وتړله
وتړي
وتښتول
وتښتي
وتښتیدل
وتښتېد
وتښتېدل
وتښتېده
وجدان
وجنګېدل
وجه
وجهه
وجهي
وجهې
وجود
وجودلري
وجي
وجې
وحدت
وحشت
وحشي
وحشی
وحشیانه
وحى
وحي
وحی
وحې
وخت
وخته
وختو
وختونه
وختونو
وختي
وخوت
وخوري
وخوځېد
وخوړ
وخوړل
وخوړله
وخوړه
ود
ودان
ودانه
ودانو
ودانولو
وداني
ودانيو
ودانیز
ودانیزو
ودانیو
ودانۍ
ودانې
ودراوه
ودرول
ودروي
ودريږي
ودریږي
ودرېد
ودرېدل
ودرېده
ودرېږي
وده
ودونه
ودونو
ودي
ودی
ودې
ور
وراثت
وراثتي
وراره
وران
ورانه
ورانولو
ورانۍ
ورايه
ورايټي
ورایه
ورباندي
ورباندی
ورباندې
وربخښي
وربشو
وربښي
ورتلل
ورتلو
ورته
ورتګ
ورد
وردګ
وردګو
وردگ
وردگو
ورزده
ورزش
ورزشي
ورزيات
ورساوه
ورسته
ورستي
ورستيدنه
ورستيو
ورستیو
ورسره
ورسول
ورسوله
ورسولې
ورسوي
ورسي
ورسيد
ورسيدل
ورسيده
ورسيږي
ورسپارل
ورسید
ورسیدل
ورسیده
ورسیږي
ورسېد
ورسېدل
ورسېدله
ورسېده
ورسېدی
ورسېدې
ورسېږي
ورشو
ورشي
ورغلل
ورغلم
ورغله
ورغلي
ورغلی
ورغلې
ورغول
ورغوي
ورغى
ورغی
ورك
وركول
وركولو
وركوي
وركړ
وركړل
وركړه
وركړى
وركړي
وركړې
ورله
ورلډ
ورمونټ
ورننوځي
ورنه
ورنږدې
ورنکړه
وره
ورهاخوا
ورو
ورور
وروره
ورورولۍ
وروزل
وروزي
وروستاړي
وروستاړی
وروستني
وروستنی
وروستنۍ
وروسته
وروستو
وروستى
وروستي
وروستيو
وروستی
وروستیو
وروستۍ
وروستې
وروسپارل
ورونه
ورونو
وروړي
وروڼه
وروڼو
وري
وريجو
وريجې
وريځ
وريځو
وريځې
ورپسي
ورپسې
ورپه
ورپورې
ورپېښې
ورځ
ورځني
ورځنيو
ورځنی
ورځنیو
ورځنۍ
ورځنې
ورځه
ورځو
ورځى
ورځي
ورځپانې
ورځپاڼه
ورځپاڼو
ورځپاڼي
ورځپاڼې
ورځی
ورځې
ورڅخه
ورډ
ورښت
ورښتي
ورک
ورکاوه
ورکشاپ
ورکه
ورکو
ورکول
ورکولای
ورکوله
ورکولو
ورکولی
ورکولې
ورکوم
ورکونکو
ورکونکي
ورکونکی
ورکونې
ورکوو
ورکوونکو
ورکوونکي
ورکوونکی
ورکوونکې
ورکوونې
ورکوي
ورکوی
ورکړ
ورکړل
ورکړم
ورکړه
ورکړو
ورکړى
ورکړي
ورکړی
ورکړې
ورکې
ورکېدنې
ورکېدو
ورکېږي
ورګ
ورګرځي
ورګډ
ورگډ
وری
وریجو
وریدونه
وریځو
ورې
ورېځ
ورېځو
ورېځې
ورېښمو
ورېښمین
وزارت
وزارتونه
وزارتونو
وزر
وزرو
وزرونه
وزرونو
وزرې
وزغمي
وزله
وزلو
وزلي
وزلۍ
وزمه
وزمې
وزن
وزنونو
وزو
وزي
وزير
وزيران
وزيرانو
وزيرستان
وزګار
وزګارتيا
وزګارتیا
وزیر
وزیران
وزیرانو
وزیرستان
وزیره
وزیرې
وزیږېد
وزې
وزېږېد
وزېږېدل
وزېږېده
وس
وساتل
وساتله
وساتلې
وساته
وساتو
وساتي
وساتې
وساي
وسايل
وسايلو
وسایط
وسایطو
وسایل
وسایلو
وستايل
وستایل
وسط
وسطي
وسعت
وسلم
وسله
وسلو
وسلوال
وسلوالو
وسلې
وسمهال
وسه
وسو
وسوه
وسوځول
وسي
وسيط
وسيله
وسيلو
وسيلې
وسپارل
وسپارله
وسپارلې
وسپاره
وسپاري
وسپنه
وسپنې
وسیله
وسیلو
وسیلې
وسۍ
وسې
وشمېرل
وشو
وشول
وشوه
وشوې
وشي
وشړل
وشی
وصل
وصلة
وصي
وصيت
وصیت
وضاحت
وضع
وضعه
وضعي
وضعيت
وضعیت
وطن
وطنه
وطني
وطنۍ
وظايف
وظايفو
وظایف
وظيفه
وظيفوي
وظيفې
وظیفه
وظیفوي
وعده
وعدې
وعظ
وغانده
وغندل
وغندله
وغواړو
وغواړي
وغورځاوه
وغورځول
وغورځوي
وغوړېد
وغوښت
وغوښتل
وغوښته
وغيره
وغځول
وغځوي
وغځېده
وغړولې
وف
وفا
وفات
وفادار
وفاداره
وفاداري
وفادارۍ
وفرمايل
وفرمایل
وقار
وقاص
وقت
وقف
وقفه
وقفې
وكتل
وكيل
وكړ
وكړل
وكړم
وكړه
وكړو
وكړى
وكړي
وكړې
ول
ولا
ولادت
ولادمیر
ولادي
ولاديمير
ولادیمیر
ولانس
ولاياتو
ولايت
ولايتونه
ولايتونو
ولايتي
ولاړ
ولاړشي
ولاړل
ولاړم
ولاړه
ولاړو
ولاړي
ولاړی
ولاړې
ولایاتو
ولایت
ولایتونه
ولایتونو
ولایتي
ولد
ولرو
ولرى
ولري
ولری
ولرې
ولز
ولزي
ولس
ولسشمر
ولسمشر
ولسمشرانو
ولسمشري
ولسمشريز
ولسمشريزو
ولسمشریز
ولسمشریزه
ولسمشریزو
ولسمشریزې
ولسمشرۍ
ولسو
ولسوال
ولسوالى
ولسوالي
ولسواليو
ولسوالی
ولسوالیو
ولسوالۍ
ولسواک
ولسواکۍ
ولسونو
ولسي
ولسټونکرافټ
ولسی
وله
ولو
ولوباوه
ولوبوله
ولوبوي
ولور
ولوست
ولوستل
ولوستله
ولوسته
ولوله
ولولو
ولولي
ولولې
ولوېد
ولوېده
ولى
ولي
وليام
وليت
وليتونه
وليد
وليدل
وليده
وليكل
ولينو
وليږل
وليکل
وليکله
وليکلې
وليکه
وليکو
وليکي
ولټ
ولټوي
ولټېج
ولکه
ولکې
ولګاوه
ولګول
ولګوي
ولګېد
ولګېده
ولګېدې
ولی
ولیت
ولیتونه
ولیتونو
ولید
ولیدل
ولیده
ولیعهد
ولیم
ولیږدول
ولیږل
ولیکل
ولیکله
ولیکلې
ولیکه
ولیکي
ولۍ
ولې
ولېدل
ولېږدول
ولېږدوله
ولېږدوي
ولېږل
ولېږه
ولېږي
وم
ومانه
ومن
ومنل
ومنله
ومنلې
ومنو
ومني
ومومو
ومومي
وموند
وموندل
وموندله
وموندلې
ومونده
ومړ
ومړه
ومې
ون
وند
ونزویلا
ونشو
ونشي
ونلري
ونه
ونو
ونوماوه
ونومول
ونوموله
ونوکې
وني
ونيسو
ونيسي
ونيو
ونيول
ونيوله
ونيولې
ونيوه
ونډه
ونډو
ونډې
ونښته
ونښلول
ونښلوي
ونښلي
ونکړ
ونکړه
ونکړي
ونی
ونیسو
ونیسي
ونیسی
ونیو
ونیول
ونیوله
ونیولې
ونیوه
ونې
ونېول
ونە
وه
وهل
وهله
وهلو
وهلي
وهلی
وهلې
وهم
وهنه
وهنې
وهو
وهونکو
وهونکي
وهونکی
وهي
وهڅاوه
وهڅول
وهڅوله
وهڅوي
وو
وواهه
ووايم
ووايه
ووايو
ووايي
وواژه
ووایم
ووایه
ووایو
ووایي
ووایی
ووب
ووبونو
ووت
ووتل
ووته
وورسته
ووزنیاک
وولسي
وون
ووهل
ووهله
ووهي
وويشل
وويل
وويله
وويلې
وويني
ووځي
ووچې
ووډ
ووړ
ووژل
ووژني
وویستل
وویشتل
وویشل
وویل
وویله
وویني
ووېشل
ووېشله
ووېشه
ووېشو
ووېشي
ووېل
وى
وي
ويا
وياله
ويالو
ويالې
ويانا
وياند
وياړ
ويب
ويبپاڼه
ويتنام
ويجاړ
ويجاړه
ويجاړۍ
ويدا
ويده
ويدي
وير
ويرجينيا
ويره
ويروس
ويروسونه
ويروسونو
ويروسي
ويسا
ويستل
ويستلو
ويش
ويشت
ويشتل
ويشتمه
ويشتو
ويشل
ويل
ويلاى
ويلاي
ويلای
ويلز
ويلزي
ويله
ويلو
ويلى
ويلي
ويليام
ويليم
ويلی
ويلې
وينا
ويناوو
ويناوې
وينم
وينه
وينو
ويني
وينې
ويونکو
ويونکي
ويونکی
ويي
وييل
وييکه
ويټامن
ويټامين
ويټامينونه
ويډيو
ويښ
ويښتان
ويښتانو
ويښته
ويکي
ويکيسيند
ويکيپېډيا
ويی
ويې
وټاكل
وټاکل
وټاکله
وټاکه
وټاکي
وټه
وټې
وپاشل
وپلورل
وپلوري
وپنځول
وپوهېږي
وپوښتل
وپوښتي
وپيژندل
وپيژني
وپیژندل
وپیژني
وپېرل
وپېژانده
وپېژندل
وپېژنده
وپېژنو
وپېژني
وځنډول
وځنډوي
وځي
وځپل
وځپي
وځړول
وڅارل
وڅاري
وڅښي
وڅېړل
وڅېړي
وچ
وچه
وچو
وچوالي
وچول
وچولو
وچوي
وچي
وچيږي
وچکالي
وچکالۍ
وچې
وړ
وړاندوينه
وړاندوينې
وړاندوینه
وړاندوینو
وړاندوینې
وړاندوېینه
وړاندوېینې
وړاندى
وړاندي
وړانديز
وړانديزونه
وړاندی
وړاندیز
وړاندیزونه
وړاندیزونو
وړاندې
وړانګ
وړانګشون
وړانګه
وړانګو
وړانګي
وړانګې
وړانگه
وړانگو
وړانگې
وړتيا
وړتياوو
وړتياوې
وړتیا
وړتیاو
وړتیاوو
وړتیاوې
وړده
وړدي
وړل
وړله
وړلو
وړلې
وړم
وړنه
وړنې
وړه
وړو
وړولو
وړونکو
وړونکي
وړونکی
وړونکې
وړوي
وړوکي
وړوکی
وړوکې
وړى
وړي
وړيا
وړيو
وړی
وړیا
وړیو
وړۍ
وړې
وږمه
وږمې
وږو
وږي
وږی
وژباړل
وژباړه
وژغورل
وژغوره
وژغوري
وژل
وژلو
وژلي
وژلی
وژنه
وژنو
وژني
وژنې
وژونکو
وژونکي
وژونکی
وژونکې
وژړل
وښو
وښود
وښودل
وښودله
وښوده
وښووله
وښيي
وښیي
وکاراوه
وکارول
وکاروله
وکارولې
وکاروه
وکاروو
وکاروي
وکالت
وکتل
وکرل
وکري
وکولاى
وکولای
وکولی
وکوچېد
وکوچېدل
وکوچېده
وکي
وکيل
وکيلانو
وکړ
وکړاو
وکړای
وکړل
وکړم
وکړه
وکړو
وکړى
وکړي
وکړچې
وکړی
وکړې
وکیل
وکیلان
وکیلانو
وګاټه
وګاڼه
وګرځاوه
وګرځول
وګرځوله
وګرځوي
وګرځي
وګرځید
وګرځېد
وګرځېدل
وګرځېده
وګرځېدې
وګمارل
وګماره
وګوره
وګورو
وګوري
وګومارل
وګوماره
وګټل
وګټله
وګټلې
وګټي
وګړو
وګړي
وګړی
وګړیزو
وګړې
وګڼل
وګڼله
وګڼه
وګڼي
وگرځي
وگرځېد
وگمارل
وگوره
وگورو
وگوري
وگورۍ
وگومارل
وگړ
وگړو
وگړي
وگړی
وگڼل
وی
ویانا
ویاند
ویاړ
ویب
ویبسټر
ویبپاڼه
ویبپاڼې
ویت
ویتنام
ویتنامي
ویج
ویجاړ
ویجاړه
ویجاړولو
ویجاړۍ
ویجاړې
ویده
ویر
ویرجنیا
ویرجینیا
ویره
ویروس
ویروسونه
ویروسونو
ویروسي
ویرې
ویزې
ویس
ویسا
ویستل
ویستلو
ویسلي
ویسټ
ویسکانسین
ویش
ویشت
ویشتل
ویشتونکي
ویشل
ویشي
ویل
ویلا
ویلارډ
ویلای
ویلر
ویلز
ویلسن
ویلسون
ویله
ویلهلم
ویلو
ویلي
ویلی
ویلیام
ویلیامز
ویلیم
ویلې
وین
وینا
ویناوال
ویناوالو
ویناوو
ویناوې
وینایل
وینزویلا
وینس
وینم
وینه
وینو
ویني
وینځل
وینځلو
وینډوز
وینی
وینې
ویونکو
ویونکي
ویونکی
ویونکې
ویي
ویټامین
ویټو
ویډیو
ویډیوګانو
ویډیوګانې
ویژه
ویښ
ویښتان
ویکتور
ویکتوریا
ویکي
ویکټور
ویکټوریا
ویکی
ویکیپیڈیا
ویکیپیډیا
ویګ
ویی
وییکي
وییکی
ویې
وې
وېب
وېبر
وېبپاڼه
وېبپاڼې
وېره
وېروس
وېرې
وېسلي
وېسټ
وېش
وېشت
وېشتمه
وېشل
وېشلو
وېشلي
وېشلی
وېشلې
وېشنيزه
وېشنیزه
وېشي
وېل
وېلز
وېلسن
وېلي
وېلیم
وېلې
وېنا
وېنزویلا
وېو
وېور
وېوو
وېټ
وېښتان
وېښتانو
وېښته
وېکتوریا
وېګ
وە
ى
ي
يا
يات
ياد
ياده
يادو
يادول
يادولای
يادولو
يادولی
يادونه
يادوني
يادونې
يادوي
ياديږي
يادښت
يادښتونه
يادښتونو
يادګار
يادې
يادېده
يادېږي
يار
ياران
يارانو
ياست
يافته
يال
يان
يانو
ياني
يانې
ياهم
ياپه
يب
يبر
ية
يت
يتوب
يتونه
يتونو
يتيم
يحيى
يخ
يخه
يخو
يخي
يخې
يد
يدي
ير
يرغل
يرغمل
يز
يزد
يزيد
يس
يستخدم
يع
يعقوب
يعنى
يعني
يعنی
يعنې
يـې
يفتلي
يفون
يقين
يقيني
يل
يلو
يم
يمن
يمه
ين
ينابيع
ينده
ينه
ينې
يه
يهود
يهودان
يهودانو
يهودو
يهودي
يهوديان
يهوديانو
يهوديت
يو
يوازي
يوازيني
يوازينی
يوازينۍ
يوازی
يوازې
يواځي
يواځينی
يواځينۍ
يواځی
يواځې
يوبل
يودبل
يورانيم
يورانيمو
يورو
يوروزون
يوري
يوريا
يوسف
يوسفزي
يوسفزی
يوسلو
يوسي
يوشان
يوشمير
يوشمېر
يوله
يوم
يون
يونان
يوناني
يونانيان
يونانيانو
يونس
يونسکو
يونليک
يوه
يووالي
يووالی
يوولس
يوولسم
يوولسمه
يوولسمې
يوولسو
يوون
يووړ
يووړل
يووړه
يوى
يوي
يوټيوب
يوځاى
يوځاي
يوځای
يوځاې
يوځل
يوڅه
يوڅهيال
يوډول
يوړل
يوړه
يوګوسلاويا
يوی
يوې
يوە
يى
يي
ييز
ييزه
ييزو
ييزې
يږ
يږي
يک
يکــ
يی
يیز
يیزو
يې
ً
ٌ
ٍ
َ
ُ
ِ
ّ
ْ
ٓ
ٔ
ٕ
ٗ
٠
٠٠٠
١
١٠
١٠٠
١٠٠٠
١١
١٢
١٢٠
١٣
١٣٤٦
١٣٥٦
١٣٥٧
١٣٥٨
١٣٦٠
١٣٦٣
١٣٦٤
١٣٦٥
١٣٦٧
١٣٦٨
١٣٧١
١٣٧٩
١٣٨١
١٣٨٢
١٣٨٣
١٣٨٤
١٣٨٥
١٣٨٦
١٣٨٧
١٣٨٨
١٣٨٩
١٣٩٠
١٣٩١
١٤
١٥
١٥٠
١٦
١٧
١٨
١٩
١٩٦٠
١٩٦١
١٩٧٩
١٩٨٠
١٩٨٢
١٩٨٨
١٩٩٠
١٩٩٢
١٩٩٦
١٩٩٧
١٩٩٨
١٩٩٩
٢
٢٠
٢٠٠
٢٠٠٠
٢٠٠١
٢٠٠٢
٢٠٠٣
٢٠٠٤
٢٠٠٥
٢٠٠٦
٢٠٠٧
٢٠٠٨
٢٠٠٩
٢٠١
٢٠١١
٢٠١٢
٢٠١٣
٢٠١٧
٢٠١٨
٢٠١٩
٢١
٢٢
٢٣
٢٤
٢٥
٢٥٠
٢٦
٢٧
٢٨
٢٩
٣
٣٠
٣٠٠
٣٠٠٠
٣١
٣٢
٣٣
٣٤
٣٥
٣٦
٣٧
٣٨
٤
٤٠
٤٠٠
٤٠٠٠
٤١
٤٢
٤٥
٤٨
٥
٥٠
٥٠٠
٥٥
٦
٦٠
٦٠٠
٦٥
٧
٧٠
٧٥
٨
٨٠
٨٠٠
٩
٩٠
٪
٫
٬
٭
ٰ
ٹ
ٹاي
ټ
ټا
ټابمن
ټافت
ټاكل
ټال
ټام
ټامسون
ټامپکېنز
ټامېل
ټانک
ټانکو
ټانکونه
ټانکونو
ټانګ
ټاور
ټاون
ټاي
ټايم
ټايمز
ټايپ
ټاټرا
ټاټوبى
ټاټوبي
ټاټوبی
ټاپ
ټاپه
ټاپو
ټاپوزمه
ټاپووزمه
ټاپووزمې
ټاپوګان
ټاپوګانو
ټاپوګانې
ټاچر
ټاکل
ټاکلو
ټاکلي
ټاکلی
ټاکلې
ټاکنه
ټاکنو
ټاکنيزو
ټاکنيزې
ټاکنیز
ټاکنیزه
ټاکنیزو
ټاکنیزې
ټاکنې
ټاکه
ټاکونکو
ټاکونکي
ټاکونکی
ټاکونکې
ټاکي
ټایلر
ټایلنډ
ټایم
ټایمز
ټایوان
ټایپ
ټبر
ټبرونه
ټبرونو
ټرامپ
ټرانس
ټرانسپورټ
ټرانسپورټي
ټرای
ټرمپ
ټرمینل
ټرنر
ټرومن
ټروډو
ټریاسیک
ټریلیون
ټغر
ټكر
ټكى
ټكي
ټل
ټلوالې
ټلويزيون
ټلويزيوني
ټلویزیون
ټلویزیوني
ټلوېزيون
ټلګراف
ټماټر
ټن
ټنه
ټنو
ټه
ټو
ټوخي
ټوخی
ټورنټو
ټوريزم
ټورینګ
ټوك
ټوكه
ټول
ټولن
ټولنه
ټولنو
ټولني
ټولنيز
ټولنيزه
ټولنيزو
ټولنيزې
ټولنپال
ټولنپوه
ټولنپوهنه
ټولنپوهنې
ټولنی
ټولنیز
ټولنیزه
ټولنیزو
ټولنیزې
ټولنې
ټوله
ټولو
ټولواک
ټولواکمنۍ
ټولواکمنې
ټولواکه
ټولواکۍ
ټولول
ټولولو
ټولونه
ټولوژنې
ټولى
ټولي
ټوليز
ټوليزه
ټوليزو
ټوليزې
ټولټال
ټولټاکنو
ټولټاکنې
ټولپوښتنه
ټولپوښتنې
ټولکین
ټولګه
ټولګو
ټولګي
ټولګيو
ټولګټو
ټولګی
ټولګیو
ټولګې
ټولگه
ټولگي
ټولگی
ټولگې
ټولی
ټولیز
ټولیزه
ټولیزو
ټولیزې
ټولۍ
ټولې
ټوماس
ټوني
ټوټه
ټوټو
ټوټي
ټوټې
ټوپ
ټوپک
ټوپکو
ټوک
ټوکر
ټوکه
ټوکو
ټوکونو
ټوکې
ټوکېدنه
ټوګه
ټویټر
ټي
ټيم
ټينګ
ټينګار
ټينګه
ټينګوالي
ټينګوالی
ټينګې
ټينگ
ټينگار
ټينگه
ټيټ
ټيټه
ټيټو
ټيټې
ټيکنالوجي
ټيکنالوژي
ټيکنالوژيو
ټيکنالوژۍ
ټټر
ټپ
ټپه
ټپونه
ټپونو
ټپي
ټپيان
ټپیان
ټپیانو
ټپې
ټک
ټکان
ټکر
ټکرونو
ټکسي
ټکنالوجۍ
ټکنالوژي
ټکنالوژۍ
ټکو
ټکور
ټکول
ټکولو
ټکى
ټکي
ټکټ
ټکی
ټکې
ټی
ټیلي
ټیم
ټینګ
ټینګار
ټینګه
ټینګولو
ټینګښت
ټینګې
ټینگار
ټیوب
ټیټ
ټیټه
ټیټو
ټیټې
ټیک
ټیکاو
ټیکسي
ټیکنالوژي
ټیکنالوژیو
ټیکنالوژۍ
ټېل
ټېلوگو
ټېلیفون
ټېکنالوژۍ
پ
پا
پابند
پاته
پاتى
پاتي
پاتی
پاتې
پاخه
پادري
پادری
پادریانو
پادشاه
پادشاهي
پادشاهۍ
پار
پاراګوای
پارس
پارسونز
پارسي
پارسيانو
پارسی
پارسیانو
پارلمان
پارلمانونو
پارلماني
پاره
پاروونکو
پاروونکي
پاريس
پارټي
پارټۍ
پارک
پارکر
پارکس
پارکونه
پارکونو
پاریس
پازوال
پاس
پاسته
پاسني
پاسنۍ
پاسه
پاسوال
پاسورډ
پاسپورټ
پاسکال
پاشا
پاشل
پاك
پاكستان
پاكه
پاكې
پال
پالان
پالانو
پالایولوګوس
پالش
پالل
پاللو
پالنه
پالنې
پاله
پالو
پالونکو
پالونکي
پالونکی
پالونکې
پالي
پاليسي
پاليسۍ
پالک
پالیسي
پالیسیو
پالیسۍ
پالې
پام
پاملرنه
پاملرنو
پاملرني
پاملرنې
پامه
پامير
پامیر
پان
پاناما
پانقراص
پانه
پاني
پانډا
پانګه
پانګو
پانګوال
پانګوالو
پانګوالي
پانګوالۍ
پانګونه
پانګونې
پانګې
پانگه
پانگې
پانی
پاور
پاول
پاونډه
پاى
پاي
پايتخت
پايله
پايلو
پايلوچ
پايلوچان
پايلوچانو
پايلې
پاينده
پايه
پايپ
پايڅوړوروسته
پايښت
پاپ
پاپانو
پاپر
پاڅه
پاڅون
پاڅونونه
پاڅونونو
پاڅي
پاڅېد
پاڅېدل
پاچا
پاچاهان
پاچاهانو
پاچاهي
پاچاهيو
پاچاهیو
پاچاهۍ
پاچايانو
پاچايي
پاچايۍ
پاچایان
پاچایانو
پاچایی
پاچهي
پاچهۍ
پاړسي
پاک
پاکستان
پاکستاني
پاکستانی
پاکستانۍ
پاکه
پاکو
پاکوالي
پاکول
پاکولو
پاکوي
پاکي
پاکۍ
پاکې
پاڼه
پاڼو
پاڼي
پاڼی
پاڼې
پای
پایتخت
پایدار
پایداره
پایدارې
پایله
پایلو
پایلې
پایه
پایپ
پایښت
پاې
پت
پتنگ
پته
پتي
پتې
پخاطر
پخلا
پخلاينې
پخلاینې
پخلنځي
پخلي
پخلی
پخه
پخو
پخوا
پخوانى
پخواني
پخوانيو
پخوانی
پخوانیو
پخوانۍ
پخوانې
پخول
پخولو
پخيږي
پخپل
پخپله
پخپلو
پخې
پداسي
پداسې
پدر
پدرو
پدغه
پدى
پدي
پديده
پدی
پدیا
پدیای
پدیده
پدیدو
پدیدې
پدې
پدېخوا
پر
پراباس
پراته
پراخ
پراختيا
پراختيايي
پراختیا
پراختیايي
پراختیایي
پراخه
پراخو
پراخوالي
پراخوالی
پراخول
پراخولو
پراخوي
پراخي
پراخې
پراخېدنې
پراخېدو
پراخېږي
پرازيت
پرازيتونه
پرازيتي
پرازیت
پراساس
پراسسر
پرانستل
پرانستلو
پرانستې
پرانيزي
پرانيست
پرانيستل
پرانيستي
پرانيستې
پرانیزي
پرانیست
پرانیستل
پرانیستلو
پرانیسته
پرانیستو
پرانیستي
پرانیستی
پرانیستې
پرانېستل
پرانېستې
پراي
پرايميټ
پراکسايد
پراکساید
پراګ
پراگ
پرایس
پربنسټ
پرت
پرتلنې
پرتله
پرتليز
پرتلې
پرته
پرتو
پرتي
پرتګال
پرتګالي
پرتګاليانو
پرتګالیانو
پرتې
پرخلاف
پرده
پردو
پردى
پردي
پرديش
پرديو
پردی
پردیش
پردیو
پردۍ
پردې
پردېس
پرست
پرستي
پرستۍ
پرسر
پرسونل
پرضد
پرغاړه
پرل
پرله
پرلپسې
پرمخ
پرمختللو
پرمختللي
پرمختللی
پرمختللې
پرمختيا
پرمختيايي
پرمختک
پرمختګ
پرمختګونه
پرمختګونو
پرمختگ
پرمختیا
پرمختیايي
پرمختیایي
پرمهال
پرمټ
پرنټر
پرو
پروا
پرواز
پروان
پروانه
پروت
پروتستان
پروتستانت
پروتستانتانو
پروتو
پروتوزوا
پروتون
پروتوکول
پروتوکولونه
پروتين
پروتین
پروتینونه
پروتینونو
پروخت
پرودون
پروس
پروستات
پروسس
پروسه
پروسو
پروسي
پروسیا
پروسې
پروشنکو
پروشیا
پروفایل
پروفيسر
پروفيسور
پروفیسر
پروفیسور
پرولتاریا
پرون
پروټو
پروټين
پروټينو
پروټينونه
پروټينونو
پروټین
پروټینونه
پروټینونو
پروپاګند
پروډيوسر
پروډکشن
پروړاندې
پروژه
پروژو
پروژي
پروژې
پروګرام
پروګرامونه
پروګرامونو
پروگرام
پروگرامونه
پروگرامونو
پرویز
پرى
پري
پريس
پريږدي
پريښودل
پريکړه
پرځان
پرځاى
پرځاي
پرځای
پرچم
پرچون
پرښته
پرښتو
پرښتې
پرک
پری
پریس
پریسټلي
پریمانه
پریږدي
پریښود
پریښودل
پریښوده
پریکړه
پریکړو
پریکړې
پرې
پرېكړه
پرېمانه
پرېږده
پرېږدو
پرېږدي
پرېښود
پرېښودل
پرېښودلو
پرېښوده
پرېښودو
پرېښودې
پرېښي
پرېښی
پرېښې
پرېکنده
پرېکون
پرېکړه
پرېکړو
پرېکړې
پزه
پزې
پس
پست
پسته
پستي
پستې
پسرلى
پسرلي
پسرلی
پسند
پسه
پسونه
پسونو
پسى
پسي
پسی
پسې
پشان
پشاور
پشت
پشتو
پشتون
پشد
پشمول
پشه
پغمان
پــ
پــه
پـه
پكار
پكتيا
پكتيكا
پكي
پكښې
پكې
پل
پلا
پلار
پلاره
پلاز
پلازا
پلازما
پلازمينه
پلازمینه
پلازمینې
پلازمېنه
پلازمېنو
پلازمېنې
پلاس
پلاستيک
پلاستيکونه
پلاستيکي
پلاستيکې
پلاستیک
پلاستیکي
پلان
پلانونه
پلانونو
پلاني
پلانک
پلاوي
پلاوی
پلاټ
پلرني
پلرنی
پلرنۍ
پلرونه
پلرونو
پلس
پلمه
پلن
پلنوالی
پله
پلو
پلور
پلورل
پلورلو
پلورنځي
پلورنځی
پلورنځیو
پلورونکو
پلورونکي
پلورونکی
پلوري
پلوشې
پلونه
پلونو
پلوه
پلوو
پلوي
پلويان
پلويانو
پلويو
پلوټو
پلوی
پلویان
پلویانو
پلویتوب
پلوۍ
پلوې
پلي
پلټل
پلټلو
پلټنه
پلټنو
پلټنې
پلټونکو
پلټونکي
پلی
پلیٹ
پلیټ
پلې
پمپ
پنا
پناه
پنبه
پنبي
پنبې
پنج
پنجاب
پنجابي
پنجابی
پنجشنبې
پنجشیر
پنجشېر
پنجه
پنجوايي
پند
پنس
پنسلوانيا
پنسلوانیا
پنسلين
پنهان
پنوم
پنځ
پنځلس
پنځلسم
پنځلسمه
پنځلسمې
پنځلسو
پنځم
پنځمه
پنځمې
پنځه
پنځو
پنځوس
پنځوسمه
پنځوسو
پنځول
پنځولي
پنځون
پنځونه
پنځونې
پنډ
پنډغالي
پنډوالي
پنکرسټ
په
پهلوان
پهلوي
پو
پواسطه
پوتاشيم
پوتاشیم
پوتنشیل
پوتين
پوتین
پوجا
پوخ
پور
پورت
پورتني
پورتنيو
پورتنی
پورتنیو
پورتنۍ
پورتنې
پورته
پورتو
پوره
پورونه
پورونو
پوروړي
پوروړی
پورى
پوري
پورټ
پورټو
پوری
پورې
پوزه
پوزې
پوست
پوستانو
پوسته
پوستو
پوستونو
پوستي
پوستکو
پوستکى
پوستکي
پوستکی
پوستکې
پوستی
پوستې
پوسيله
پوسټ
پوسیله
پوش
پول
پولاد
پولادو
پولادي
پولش
پولند
پولنډ
پولنډي
پوله
پولو
پولي
پوليس
پوليسو
پولينډ
پولينډي
پولی
پولیبیوس
پولیس
پولیسو
پولیمیر
پولیمیرایزیشن
پولیمیرونه
پولیمیرونو
پولیو
پولې
پولېنډ
پونډ
پونډه
پونډو
پوه
پوهان
پوهاند
پوهانو
پوهاوي
پوهاوی
پوهنتون
پوهنتونه
پوهنتونو
پوهنتونونه
پوهنتونونو
پوهنتوني
پوهندوی
پوهنغونډ
پوهنمل
پوهنه
پوهنو
پوهنوال
پوهني
پوهنيز
پوهنيزه
پوهنيزو
پوهنيزې
پوهنځى
پوهنځي
پوهنځيو
پوهنځی
پوهنځیو
پوهنځۍ
پوهنیز
پوهنیزو
پوهنې
پوهه
پوهو
پوهي
پوهيدل
پوهيدو
پوهيږو
پوهيږي
پوهیدل
پوهیدو
پوهیږي
پوهې
پوهېدل
پوهېدلو
پوهېدم
پوهېدنه
پوهېدنې
پوهېده
پوهېدو
پوهېږم
پوهېږو
پوهېږي
پوهېږې
پوي
پوټکي
پوټکی
پوپ
پوپل
پوپلزی
پوځ
پوځونه
پوځونو
پوځي
پوځيان
پوځيانو
پوځی
پوځیان
پوځیانو
پوڅکۍ
پوډر
پوډرو
پوړ
پوړو
پوړونه
پوړونو
پوړي
پوړيو
پوړی
پوړۍ
پوړې
پوښ
پوښاک
پوښتل
پوښتنه
پوښتنو
پوښتني
پوښتنې
پوښتي
پوښل
پوښلو
پوښلي
پوښلی
پوښلې
پوښه
پوښونه
پوښونو
پوښي
پوښښ
پي
پياده
پياز
پياوړتيا
پياوړو
پياوړى
پياوړي
پياوړی
پياوړې
پيدا
پيداشي
پيداوار
پيدايښت
پيدايښتي
پيداکولو
پيداکوي
پيداکيږي
پيداکړي
پيداکېږي
پير
پيرمحمد
پيرو
پيروان
پيروانو
پيروي
پيري
پيسو
پيسي
پيسې
پيش
پيشنهاد
پيشو
پيغام
پيغامونه
پيغامونو
پيغمبر
پيغمبران
پيغمبرانو
پيل
پيلامه
پيله
پيلولو
پيلوي
پيلوټ
پيليږي
پيلېږي
پيمانه
پينځم
پينځه
پينځو
پيوستون
پيوند
پيټر
پيپين
پيچ
پيچلي
پيړي
پيړيو
پيړۍ
پيژندل
پيژندلو
پيژندنه
پيژندنې
پيژني
پيښ
پيښه
پيښو
پيښور
پيښي
پيښيږي
پيښې
پټ
پټان
پټرولیم
پټلۍ
پټه
پټو
پټول
پټولو
پټوي
پټي
پټيو
پټی
پټۍ
پټې
پړ
پړانګ
پړانګان
پړانګانو
پړانگ
پړاو
پړاونه
پړاونو
پړاوونه
پړاوونو
پړسوب
پړه
پړي
پژواک
پژۍ
پښت
پښتا
پښتانه
پښتـــــــــو
پښتــــــــو
پښتـــــو
پښتنه
پښتنو
پښتني
پښتنې
پښتو
پښتورګو
پښتورگو
پښتون
پښتونخوا
پښتونستان
پښتونواله
پښتونولي
پښتونولۍ
پښتوګۍ
پښتۍ
پښه
پښو
پښين
پښې
پښېمانه
پک
پکار
پکارده
پکتيا
پکتيکا
پکتیا
پکتیکا
پکي
پکښي
پکښی
پکښې
پکی
پکې
پګړۍ
پڼي
پہ
پی
پیاده
پیاز
پیام
پیانو
پیاوړتیا
پیاوړو
پیاوړي
پیاوړی
پیاوړې
پیتر
پیدا
پیدایښت
پیر
پیرس
پیرو
پیروان
پیروانو
پیرود
پیرودلو
پیرودونکو
پیرودونکي
پیروي
پیري
پیس
پیسه
پیسو
پیسې
پیش
پیشو
پیغام
پیغامونه
پیغامونو
پیغمبر
پیغمبران
پیغمبرانو
پیل
پیلامه
پیله
پیلولو
پیلوي
پیلوټ
پیلوټانو
پیلوټه
پیلیدو
پیلېدو
پیلېږي
پیمانه
پین
پینځم
پینځه
پینځو
پیوستون
پیوند
پیټ
پیټر
پیټرزبورګ
پیچلو
پیچلي
پیچلې
پیړی
پیړیو
پیړۍ
پیژندل
پیژندلو
پیژندنه
پیژندنې
پیژني
پیښ
پیښه
پیښو
پیښور
پیښیږي
پیښې
پییر
پییرس
پۍ
پې
پېج
پېدا
پېر
پېرلو
پېرودلو
پېرودونکو
پېرودونکي
پېرونو
پېرى
پېري
پېريان
پېريانو
پېسې
پېغام
پېغله
پېغلو
پېغلې
پېغمبر
پېغمبرانو
پېغمبراکرم
پېغور
پېـړۍ
پېل
پېن
پېنځه
پېټی
پېچ
پېچلتيا
پېچلتیا
پېچلو
پېچلي
پېچلی
پېچلې
پېړي
پېړيو
پېړی
پېړیو
پېړۍ
پېړې
پېژانده
پېژند
پېژندل
پېژندلو
پېژندلي
پېژندلی
پېژندلې
پېژندنه
پېژندنو
پېژندنې
پېژنده
پېژندو
پېژندونکو
پېژندونکي
پېژندونکی
پېژندګلو
پېژندګلوي
پېژنم
پېژنو
پېژني
پېښ
پېښليک
پېښه
پېښو
پېښور
پېښوي
پېښي
پېښې
پېښېدلو
پېښېدو
پېښېږي
پە
ځ
ځا
ځار
ځاله
ځالې
ځامن
ځان
ځانته
ځانله
ځانمرګي
ځانه
ځانونه
ځانونو
ځاني
ځانکړي
ځانګړتيا
ځانګړتياوو
ځانګړتياوې
ځانګړتیا
ځانګړتیاو
ځانګړتیاوو
ځانګړتیاوې
ځانګړنه
ځانګړنو
ځانګړنې
ځانګړو
ځانګړى
ځانګړي
ځانګړی
ځانګړې
ځانگړتيا
ځانگړنه
ځانگړنو
ځانگړنې
ځانگړو
ځانگړى
ځانگړي
ځانگړی
ځانگړې
ځاى
ځاي
ځايناستي
ځايناستی
ځايه
ځايو
ځايونه
ځايونو
ځايونوکې
ځايي
ځاځي
ځای
ځایناستو
ځایناستي
ځایناستی
ځایناستۍ
ځایناستې
ځایه
ځایو
ځایونه
ځایونو
ځایي
ځایګي
ځایګی
ځایی
ځاې
ځاے
ځخه
ځدراڼ
ځدراڼو
ځغاستې
ځكه
ځل
ځلا
ځلاند
ځلانده
ځله
ځلو
ځلي
ځلی
ځلې
ځم
ځما
ځمكنی
ځمكه
ځمكو
ځمكي
ځمكې
ځمک
ځمکني
ځمکنيو
ځمکنی
ځمکنیو
ځمکنۍ
ځمکه
ځمکو
ځمکوکې
ځمکي
ځمکی
ځمکې
ځناور
ځناوران
ځناورو
ځنو
ځني
ځنځير
ځنځيرونه
ځنځيري
ځنځیر
ځنځیري
ځنډ
ځنډه
ځنډول
ځنډولو
ځنګل
ځنګلاتو
ځنګلداري
ځنګلدارۍ
ځنګله
ځنګلونه
ځنګلونو
ځنګلونوڅانګه
ځنګلونوکې
ځنګلي
ځنگلونه
ځنگلونو
ځنگلي
ځنی
ځنې
ځه
ځو
ځواب
ځوابونه
ځوابونو
ځوابي
ځواك
ځواكونو
ځوان
ځوانان
ځوانانو
ځوانه
ځوانو
ځواني
ځوانکو
ځوانکې
ځوانۍ
ځوانې
ځواک
ځواکمن
ځواکمنه
ځواکمنو
ځواکمنې
ځواکونه
ځواکونو
ځور
ځورمنتيا
ځورول
ځورولو
ځورونه
ځورونو
ځورونې
ځولۍ
ځوي
ځوړ
ځوړند
ځوی
ځي
ځير
ځيرک
ځيرکتيا
ځينو
ځينى
ځيني
ځينی
ځينې
ځيګر
ځيگر
ځپل
ځپلو
ځپلې
ځړول
ځکه
ځگر
ځی
ځیر
ځیرک
ځیرکتیا
ځیرکو
ځینو
ځیني
ځینی
ځینې
ځیګر
ځې
ځېل
ځېنو
ځېنې
څ
څا
څادر
څار
څارل
څارلو
څارنه
څارنوال
څارنوالۍ
څارنې
څارونکو
څارونکي
څارونکی
څاروي
څارويو
څارویو
څاري
څانګه
څانګو
څانګي
څانګی
څانګې
څانگه
څانگو
څانگي
څانگې
څاه
څاڅکو
څاڅکي
څخه
څر
څراغ
څراغونه
څراغونو
څرخ
څرخه
څرخي
څرخې
څرخېږي
څرمن
څرنګه
څرنګوالي
څرنګوالی
څرنگه
څرنگوالي
څرک
څرګند
څرګنده
څرګندو
څرګندول
څرګندوله
څرګندولو
څرګندونه
څرګندونو
څرګندونې
څرګندوي
څرګندويي
څرګنديږي
څرګندیږي
څرګندې
څرګندېدل
څرګندېدو
څرګندېږي
څرگند
څرگنده
څرگندولو
څرگندونه
څرگندونې
څرگندوي
څرگندي
څرگنديږي
څرگندېږي
څــ
څلور
څلورم
څلورمه
څلورمې
څلورو
څلورګونو
څلويښت
څلویښت
څلوېښت
څلوېښتمه
څلوېښتو
څلي
څلی
څمکنيو
څنډه
څنډو
څنډې
څنګ
څنګه
څنگ
څنگه
څه
څو
څوارلس
څوارلسم
څوارلسمه
څوارلسمې
څوارلسو
څوك
څومره
څوپلا
څوک
څوکلن
څوکه
څوکو
څوکي
څوکیو
څوکۍ
څوکې
څوګونو
څوګوني
څير
څيرمه
څيره
څيري
څيرې
څيز
څيزونه
څيزونو
څيړل
څيړنه
څيړنو
څيړني
څيړنيز
څيړنې
څيړونکو
څيړونکي
څټ
څپرکي
څپرکی
څپه
څپو
څپې
څځه
څڅه
څړ
څړځاي
څړځايونه
څړځايونو
څړځای
څړځایونو
څښاك
څښاک
څښاکو
څښتن
څښتنان
څښتنانو
څښتنه
څښل
څښلو
څښي
څکالي
څکول
څیر
څیرمه
څیره
څیز
څیزونه
څیزونو
څیړنه
څیړنو
څیړنیز
څیړنې
څیړونکو
څې
څېر
څېرمه
څېره
څېرو
څېرې
څېړل
څېړلو
څېړلي
څېړلې
څېړنه
څېړنو
څېړني
څېړنيز
څېړنيزو
څېړنيزې
څېړنپوه
څېړنیز
څېړنیزه
څېړنیزو
څېړنیزې
څېړنې
څېړونو
څېړونکو
څېړونکي
څېړونکی
څېړونکې
څېړي
څە
چ
چا
چابهار
چاته
چاد
چار
چارتراش
چارتراشو
چارج
چارجونو
چارسده
چارسدې
چارلز
چارلس
چارلي
چارلېز
چارلېس
چاره
چارو
چارواکو
چارواکي
چارواکی
چاري
چارچ
چارچاپيره
چارچوکاټ
چاری
چارې
چاقو
چال
چامسکي
چاندلر
چانس
چانسلر
چاه
چاودنه
چاودنو
چاودنې
چاودونکي
چاودېدونکو
چاودېدونکي
چاپ
چاپه
چاپولو
چاپي
چاپير
چاپيره
چاپيريال
چاپيريالي
چاپيریال
چاپکال
چاپیریال
چاپېر
چاپېره
چاپېريال
چاپېريالي
چاپېريالپوهنې
چاپېریال
چاپېریالونو
چاپېریالي
چاپېږي
چاچې
چاړج
چاړه
چاڼ
چای
چت
چتر
چترال
چترۍ
چراغ
چرته
چرس
چرسو
چرم
چرچ
چرچل
چرچیل
چرګ
چرګان
چرګانو
چریکي
چغې
چـې
چل
چلاوه
چلم
چلن
چلند
چلندونه
چلندونو
چلندي
چلول
چلولو
چلونه
چلونکي
چلونکی
چلونې
چلوونکو
چلوونکي
چلوونکی
چلوي
چلي
چليز
چليږي
چلېدونکي
چلېږي
چم
چمبرلین
چمتو
چمتوالي
چمتوالی
چمتووالي
چمتووالی
چمن
چمنونو
چمپانزي
چناب
چنار
چنجي
چند
چندان
چنده
چنګاښ
چنګیز
چنگاښ
چه
چهار
چهر
چهل
چو
چور
چورلکو
چورلکې
چون
چونه
چونګښې
چونگښې
چونې
چوي
چوپ
چوپتيا
چوپتیا
چوپه
چوپړ
چوپړا
چوپړتیاوو
چوک
چوکاټ
چوکاټونو
چوکیو
چوکۍ
چى
چي
چيرته
چيري
چيری
چيرې
چين
چينايانو
چينايي
چينجي
چينل
چينه
چينو
چيني
چينې
چيچنيا
چيچک
چيک
چټل
چټلو
چټک
چټکتيا
چټکتیا
چټکه
چټکو
چټکۍ
چټکې
چپ
چپرهار
چپه
چپې
چک
چکر
چکسلواکیا
چکوسلواکيا
چکوسلواکیا
چکي
چڼاس
چڼچړ
چی
چیانګ
چیرته
چیري
چیری
چیرې
چیس
چیلي
چین
چینايي
چینای
چینایانو
چینایي
چینایی
چینل
چینلونه
چینلونو
چینه
چینو
چیني
چینګ
چینی
چینې
چیچنیا
چیچک
چیک
چیکی
چې
چېرته
چېري
چېرې
چېن
چېک
چېکي
چېکی
ڈیٹا
ډ
ډار
ډاره
ډاروين
ډاروین
ډاروینیزم
ډاكټر
ډال
ډالر
ډالره
ډالرو
ډالۍ
ډان
ډانس
ډانیل
ډاو
ډاى
ډاي
ډاټ
ډاټا
ډاډ
ډاډمن
ډاډمنه
ډاډه
ډاکتر
ډاکتران
ډاکترانو
ډاکه
ډاکټر
ډاکټران
ډاکټرانو
ډاکټره
ډاګلاس
ډاګه
ډاگ
ډاگه
ډای
ډایرکټر
ډایل
ډب
ډبر
ډبرليک
ډبرلیک
ډبره
ډبرو
ډبري
ډبرين
ډبرينو
ډبریز
ډبرین
ډبرینو
ډبرینې
ډبرې
ډبل
ډبلوالي
ډبلوالی
ډبليو
ډبلیو
ډراماتیک
ډرامه
ډرامو
ډرامې
ډزو
ډزې
ډسمبر
ډك
ډكه
ډل
ډلبندي
ډلبنديو
ډلبندۍ
ډله
ډلو
ډلى
ډلي
ډلګۍ
ډلی
ډلې
ډمبرو
ډنمارک
ډنمارکي
ډنډ
ډنډر
ډنډونه
ډنډونو
ډه
ډهلي
ډو
ډوب
ډوبلین
ډوبه
ډوز
ډول
ډولانځورگرد
ډوله
ډولو
ډولونه
ډولونو
ډونالډ
ډوډۍ
ډوک
ډوکتورا
ډي
ډيانا
ډيجيټل
ډير
ډيرزيات
ډيره
ډيرو
ډيرى
ډيري
ډيريږي
ډيرکم
ډيری
ډيرۍ
ډيرې
ډيزاين
ډيزلو
ډيسمبر
ډيلي
ډيورنډ
ډيوه
ډيويډ
ډيټا
ډيپلوماټیک
ډپټي
ډډ
ډډه
ډډې
ډک
ډکه
ډکو
ډکولو
ډکوي
ډکې
ډګر
ډګرمن
ډګروال
ډګرونه
ډګرونو
ډگر
ډگروال
ډگرونو
ډی
ډیالوګ
ډیانا
ډیجیټل
ډیر
ډیره
ډیرو
ډیري
ډیری
ډیریو
ډیرې
ډیزاین
ډیزل
ډیسمبر
ډیسک
ډیل
ډیلي
ډیلی
ډیموکرات
ډیموکراتیک
ډیموکراسي
ډیموکراسۍ
ډیموکراټ
ډیموکراټانو
ډیموکراټیک
ډینامیک
ډینیل
ډیو
ډیورنډ
ډیویډ
ډیټا
ډیټابیس
ډیپلوماتیک
ډیپلوماسۍ
ډیپلوماټیک
ډیکین
ډې
ډېبس
ډېر
ډېرتر
ډېرشمېر
ډېره
ډېرو
ډېروالي
ډېروالی
ډېرولو
ډېروي
ډېرى
ډېري
ډېريو
ډېرښت
ډېری
ډېریو
ډېرۍ
ډېرې
ډېرېدل
ډېرېدو
ډېرېږي
ډېسمبر
ډېسک
ډېفن
ډېموکراسي
ډېوي
ډېویس
ډېوېډ
ډېټا
ډېټابېس
ړ
ړانده
ړنګ
ړنګه
ړنګېدو
ړنگ
ړه
ړومبى
ړومبی
ړوند
ړي
ږ
ږدو
ږدي
ږغ
ږوب
ږيره
ږيري
ږیره
ژ
ژامې
ژان
ژانر
ژانرونه
ژانرونو
ژانس
ژاړم
ژاړي
ژاک
ژب
ژباړل
ژباړلي
ژباړلی
ژباړن
ژباړه
ژباړو
ژباړونکي
ژباړونکی
ژباړي
ژباړې
ژبني
ژبنيو
ژبنۍ
ژبه
ژبو
ژبي
ژبپوه
ژبپوهان
ژبپوهانو
ژبپوهنه
ژبپوهنې
ژبژغورنې
ژبی
ژبې
ژر
ژرنده
ژرندې
ژره
ژغورل
ژغورلو
ژغورنه
ژغورنې
ژغوري
ژمن
ژمنتيا
ژمنتیا
ژمنه
ژمنو
ژمني
ژمنۍ
ژمنې
ژمي
ژمی
ژمې
ژنټیک
ژنټیکي
ژو
ژواک
ژوب
ژوبل
ژوبله
ژوبلې
ژوبڼ
ژور
ژورنال
ژورنالست
ژورنالستانو
ژورنالونو
ژورناليزم
ژورناليست
ژورنالیزم
ژورنالیست
ژورنالېزم
ژورنالېست
ژورنالېستانو
ژوره
ژورو
ژوروالي
ژوروالی
ژورې
ژوزف
ژول
ژولین
ژوند
ژوندانه
ژوندليک
ژوندلیک
ژونده
ژوندون
ژوندى
ژوندي
ژونديو
ژوندکوي
ژوندکې
ژوندی
ژوندیو
ژوندۍ
ژوندې
ژونکه
ژونکو
ژونکې
ژوو
ژوي
ژويو
ژوی
ژویو
ژوې
ژيړ
ژړا
ژړل
ژړۍ
ژڼیو
ژینو
ژیړ
ژېړ
ژېړو
ښ
ښا
ښاخ
ښاخبري
ښاخه
ښاخونه
ښاخونو
ښاد
ښادمن
ښاده
ښار
ښارته
ښاره
ښارو
ښاروال
ښاروالي
ښاروالیو
ښاروالۍ
ښارونه
ښارونو
ښاري
ښارکي
ښارکې
ښارګوټو
ښارګوټي
ښارګوټی
ښارگوټي
ښاریانو
ښاغلو
ښاغلى
ښاغلي
ښاغلی
ښاغلې
ښامار
ښاي
ښايست
ښايسته
ښايي
ښايې
ښاپېرۍ
ښایست
ښایسته
ښایي
ښایی
ښایې
ښت
ښخ
ښخولو
ښرني
ښكاره
ښكاري
ښكته
ښكلا
ښكلى
ښكلي
ښه
ښو
ښود
ښودل
ښودله
ښودلو
ښودلي
ښودلی
ښودلې
ښودنه
ښودنې
ښوده
ښودونکي
ښوراوک
ښون
ښونځي
ښوول
ښوولو
ښوولې
ښوون
ښووند
ښوونكي
ښوونه
ښوونو
ښووني
ښوونځى
ښوونځي
ښوونځيو
ښوونځی
ښوونځیو
ښوونځۍ
ښوونکو
ښوونکي
ښوونکی
ښوونکې
ښوونیز
ښوونیزو
ښوونیزې
ښوونې
ښى
ښي
ښيي
ښيښه
ښيښې
ښيې
ښځ
ښځمنپالنې
ښځه
ښځو
ښځي
ښځينه
ښځی
ښځینه
ښځې
ښکار
ښکارنده
ښکارندو
ښکارندويي
ښکارندوی
ښکارندویي
ښکارندې
ښکاره
ښکاروي
ښکاري
ښکاری
ښکاریان
ښکاریانو
ښکارېدل
ښکارېده
ښکتني
ښکتنۍ
ښکته
ښکر
ښکرونه
ښکلا
ښکلاوو
ښکلو
ښکلى
ښکلي
ښکلی
ښکلې
ښکیل
ښکیلتیا
ښکېل
ښکېلاک
ښکېلاکي
ښکېلتيا
ښکېلتیا
ښکېله
ښکېلو
ښکېلې
ښی
ښیي
ښیښه
ښیښو
ښیښې
ښیې
ښۍ
ښې
ښېرازه
ښېګڼه
ښېګڼو
ښېګڼې
ښە
ک
کا
کابل
کابله
کابو
کابينه
کابينې
کابینه
کابینې
کاتب
کاترين
کاترین
کاته
کاتوليک
کاتولیک
کاتولیکان
کاتولیکانو
کاتولیکه
کاتولیکو
کاتولیکي
کاتولیکې
کاج
کار
کارابین
کاراخستل
کاراخيستل
کاران
کارانه
کارانو
کاراوه
کاراکاس
کارایب
کاربن
کاربني
کاربون
کاربونيټ
کاربونېټ
کارت
کارتاژ
کارتر
کارته
کارتون
کارتونه
کارتونو
کارخانه
کارخانو
کارخانې
کارخونه
کارخونو
کارخونې
کارسن
کارل
کارلایل
کارلو
کارلوس
کارمل
کارمند
کارمندان
کارمندانو
کارموندنې
کارن
کارنامو
کارنامې
کارناپ
کارنده
کاره
کارو
کاروان
کاروانونو
کاروبار
کاروباري
کارول
کاروله
کارولو
کارولي
کارولينا
کارولی
کارولین
کارولینا
کارولې
کارونه
کارونو
کارونکو
کارونکي
کارونې
کاروو
کاروونکو
کاروونکي
کاروي
کاروړل
کاري
کاريږي
کارټر
کارپوریشن
کارپوه
کارپوهان
کارپوهانو
کارځای
کارچوکاټ
کارډ
کارکولو
کارکونکو
کارکونکي
کارکونکی
کارکوونکو
کارکوونکي
کارکوونکی
کارکوونکې
کارکوي
کارکړنې
کارګر
کارګران
کارګرانو
کارګره
کارګرو
کارګري
کارګرې
کارگر
کاری
کاریز
کاریږي
کاریګر
کاریګرانو
کاریګرو
کارۍ
کارې
کارېدای
کارېدل
کارېدلي
کارېدلی
کارېدلې
کارېده
کارېدو
کارېدونکو
کارېدونکي
کارېدونکی
کارېدونکې
کارېږي
کارېږی
کازرون
کاسه
کاسي
کاسټ
کاسټرو
کاسیګین
کاسې
کاشغر
کاشف
کاشي
کاشکې
کاظم
کاغذ
کاغذي
کافر
کافران
کافرانو
کافي
کافی
کال
کالا
کالاش
کالج
کالجونو
کالم
کالنۍ
کاله
کالهون
کالو
کالوري
کالونه
کالونو
کالوني
کالونۍ
کالوين
کالوین
کالي
کاليفورنيا
کالیزه
کالیزې
کالیفورنیا
کالیګولا
کام
کامران
کامرون
کامل
کاملا
کامن
کامنف
کامه
کامو
کامياب
کاميابه
کاميابي
کاميابۍ
کامیاب
کامیډي
کامې
کان
کانادا
کانال
کانالونه
کانالونو
کاناډا
کاناډايي
کاناډایان
کاناډایانو
کاناډایي
کانت
کانتون
کاندهلوي
کاندي
کانديد
کاندید
کانزاس
کانفرانس
کانو
کانونه
کانونو
کاني
کانټ
کانټربري
کانټینینټل
کانکور
کانګ
کانګرس
کانګريس
کانګریس
کانګرېس
کانګو
کانګې
کانگ
کانیرز
کاهن
کاو
کاونټي
کاونټۍ
کاوه
کاوو
کاوون
کاي
کاينات
کايناتو
کاټن
کاپرا
کاپي
کاپيسا
کاپی
کاپیسا
کاږي
کاکا
کاکاخېل
کاکس
کاکړ
کاڼو
کاڼي
کاڼی
کای
کاینات
کایناتو
کب
کبان
کبانو
کبر
کبله
کبير
کبیر
کتا
کتاب
کتابتون
کتابتونونه
کتابتونونو
کتابه
کتابو
کتابونه
کتابونو
کتابي
کتابچه
کتار
کتل
کتلست
کتله
کتلو
کتلوي
کتلي
کتلی
کتلې
کتنه
کتنو
کتنې
کتو
کتونکو
کتونکي
کتونکی
کتيونونه
کتيونونو
کتیتر
کثافات
کثافاتو
کثافت
کثرت
کثير
کثیر
کدر
کده
کدو
کر
کرار
کراره
کراس
کرام
کرامت
کرامو
کرايه
کراچي
کراچی
کراچۍ
کرایه
کرایې
کربلا
کربي
کرت
کرج
کرد
کردار
کردانو
کردستان
کردن
کردند
کرده
کردي
کرزي
کرزی
کرستلي
کرسمس
کرسټال
کرشنا
کرل
کرلو
کرم
کرمان
کرمانشاه
کرن
کرنه
کرني
کرنيز
کرنيزه
کرنيزو
کرنيزې
کرنی
کرنیز
کرنیزه
کرنیزو
کرنیزې
کرنې
کره
کرهاله
کرهڼه
کرهڼې
کرو
کرواسیا
کروز
کروشيا
کروشیا
کروم
کروموزوم
کروموزومونه
کروموزومونو
کروموزومي
کروموېل
کرونا
کرونده
کروندو
کروندګر
کروندګرو
کروندې
کروي
کروچه
کروړ
کري
کريم
کريميا
کريکټ
کرښه
کرښو
کرښي
کرښې
کرک
کرکه
کرکټ
کرکټر
کرکټرونو
کرکې
کریس
کریسټوفر
کریسټین
کریم
کریمه
کریمیا
کریمیه
کریمیې
کریډیټ
کریک
کرې
کرېټیسوس
کرېټین
کرېک
کرېکټ
کز
کس
کسان
کسانو
کسب
کسبي
کسر
کسرونه
کسري
کسفورډ
کسه
کسوف
کسيجن
کسيز
کسيزه
کسپین
کسیز
کسیزه
کسیزې
کش
کشتۍ
کشر
کشران
کشره
کشری
کشش
کشف
کشفولو
کشمير
کشمیر
کشمیري
کشور
کشورهای
کشوری
کشي
کشيش
کشیش
کشیشانو
کعب
کعبه
کعبې
کــ
کـې
کفارو
کفايت
کفایت
کفر
کفري
کفن
کل
کلا
کلابند
کلابندۍ
کلات
کلارا
کلارک
کلاس
کلاسيک
کلاسيکو
کلاسيکي
کلاسيکې
کلاسیک
کلاسیکه
کلاسیکو
کلاسیکې
کلالي
کلالۍ
کلام
کلان
کلاه
کلاګانو
کلب
کلتور
کلتورونه
کلتورونو
کلتوري
کلتوری
کلسيم
کلسیم
کلفورنيا
کلفورنیا
کلمات
کلماتو
کلماني
کلمبیا
کلمه
کلمو
کلموکې
کلمې
کلن
کلنه
کلنو
کلني
کلنټن
کلنی
کلنۍ
کلنې
کله
کلو
کلودیوس
کلورايد
کلوراید
کلورایډ
کلورو
کلوروفيل
کلورين
کلورین
کلون
کلونه
کلونو
کلونوکې
کلوي
کلى
کلي
کليات
کليدي
کليز
کليزه
کليزې
کليسا
کليشه
کليفورنيا
کليماکس
کليمه
کليمې
کلينيکي
کليو
کليوال
کليوالو
کليوالي
کلپ
کلچر
کلک
کلکاني
کلکته
کلکتې
کلکه
کلکو
کلکوالی
کلکې
کلی
کلیات
کلیدي
کلیز
کلیزه
کلیزې
کلیسا
کلیساوو
کلیساوې
کلیسايي
کلیساګانو
کلیساګانې
کلیسایي
کلیشه
کلیفورنیا
کلیمه
کلیمو
کلیمې
کلینټن
کلینټون
کلینیکي
کلیو
کلیوال
کلیوالو
کلیوالي
کلیولینډ
کلیک
کلۍ
کلې
کم
کمار
کمال
کمان
کمبريج
کمبریج
کمبرېج
کمبود
کمبوديا
کمبودیا
کمبوډیا
کمتر
کمر
کمربند
کمره
کمرو
کمرې
کمزورتیا
کمزورو
کمزورى
کمزوري
کمزوری
کمزورۍ
کمزورې
کمشنر
کمه
کمو
کموالى
کموالي
کموالی
کمول
کمولو
کمونست
کمونستانو
کمونستي
کمونيزم
کمونيست
کمونيستي
کمونیزم
کمونیست
کمونیستانو
کمونیستي
کمونیسټ
کمونېزم
کمونېست
کموي
کمي
کميت
کميدو
کميس
کميسون
کميسيون
کميټه
کميټی
کميټې
کميږي
کمپ
کمپاين
کمپاین
کمپاینونه
کمپاینونو
کمپبل
کمپلکس
کمپلیکس
کمپني
کمپنيو
کمپنیو
کمپنۍ
کمپوز
کمپوزر
کمپوسټ
کمپونو
کمپوټر
کمپيوټر
کمپيوټرونه
کمپيوټرونو
کمپيوټري
کمپیوتر
کمپیوټر
کمپیوټرونه
کمپیوټرونو
کمپیوټري
کمښت
کمک
کمی
کمیت
کمیس
کمیسون
کمیسیون
کمیشنر
کمین
کمیټه
کمیټې
کمیږي
کمې
کمېدل
کمېدو
کمېسیون
کمېشنر
کمېټه
کمېټو
کمېټې
کمېږي
کن
کناډا
کنت
کنترول
کنترولوي
کند
کندز
کنده
کندهار
کندهاره
کندهارو
کندهاري
کندهاری
کندو
کندوز
کندي
کندې
کنزالعمال
کنستانتین
کنسرت
کنشکا
کنعان
کنفدراسیون
کنفدریشن
کنفرانس
کنفرانسونه
کنفرانسونو
کنفوسیوس
کنند
کننده
کنندگان
کنه
کنوانسيون
کنوانسیون
کنوانسیونونو
کنټ
کنټرول
کنټرولوي
کنډ
کنډوالو
کنډوالې
کنډي
کنډک
کنړ
کنګره
کنګرې
کنګل
کنګلونه
کنګلونو
کنیکټیکټ
که
کهزاد
کهول
کهکشان
کهکشانونه
کهکشانونو
کهکشاني
کو
کوارټز
کوانټم
کوانټمي
کوانټوم
کوانټومي
کواکر
کواین
کوبالت
کوترې
کوتل
کوثر
کود
کودتا
کودتاه
کور
کوربه
کورتس
کورته
کوردي
کورس
کورسونه
کورسونو
کورنو
کورني
کورنيو
کورنی
کورنیو
کورنۍ
کورنې
کوره
کورو
کوروش
کورونه
کورونو
کوري
کوريا
کوريايي
کوریا
کوریايي
کوریایي
کوز
کوزه
کوزوو
کوزې
کوسوو
کوسټا
کوشان
کوشاني
کوشانیانو
کوشش
کوشني
کوشنی
کوفه
کوفي
کوفین
کوفې
کول
کولا
کولاى
کولاي
کولای
کولاې
کولتور
کولتوري
کولرا
کولس
کولفاکس
کولمب
کولمبس
کولمبو
کولمبيا
کولمبیا
کولمو
کولمې
کولن
کوله
کولو
کولوسره
کولولپاره
کولون
کولوپه
کولوکې
کولى
کولي
کوليگرام
کولی
کولې
کوم
کوما
کومار
کومندان
کومه
کومو
کومي
کومک
کومی
کومې
کومېټې
کون
کونج
کونجونو
کونراد
کونسل
کونه
کوني
کونډه
کونډې
کونړ
کونکو
کونکي
کونکی
کونکې
کونګ
کونې
کوه
کوهاټ
کوهستان
کوهل
کوهن
کوهي
کوو
کوونه
کوونکو
کوونکى
کوونکي
کوونکی
کوونکې
کوونې
کوويډ
کوویډ
کوى
کوي
کويټه
کوټ
کوټه
کوټو
کوټي
کوټکي
کوټکې
کوټې
کوپر
کوپراتیف
کوپراتیفونه
کوپره
کوپرې
کوپلنډ
کوپنهاګن
کوپړۍ
کوڅه
کوڅو
کوڅې
کوچ
کوچنى
کوچني
کوچنيان
کوچنيانو
کوچنيو
کوچنيوالي
کوچنی
کوچنیانو
کوچنیو
کوچنیوالي
کوچنۍ
کوچنې
کوچي
کوچيان
کوچيانو
کوچیان
کوچیانو
کوچیاني
کوچینی
کوچینیو
کوچینۍ
کوډ
کوډو
کوډونه
کوډونو
کوړک
کوږ
کوږوالي
کوژده
کوښښ
کوک
کوکا
کوکران
کوکنارو
کوڼ
کوی
کویت
کوین
کویټ
کوۍ
کوې
کى
کي
کيداى
کيداي
کيدای
کيدل
کيدله
کيدلو
کيدنه
کيده
کيدو
کيدونکي
کيدونکې
کيدى
کيدې
کيسه
کيسو
کيسې
کيفي
کيفيت
کيلو
کيلومتر
کيلومتره
کيلومترۍ
کيلوميټر
کيموتراپي
کيميا
کيمياوي
کيميايي
کيمپ
کين
کيندل
کيندنې
کينز
کينه
کيني
کينيا
کينيډي
کينډۍ
کيو
کيوبا
کيږ
کيږدي
کيږى
کيږي
کيږی
کيږې
کيښود
کيښودل
کيڼ
کيڼې
کټ
کټه
کټواز
کټګوري
کټګوریو
کټګورۍ
کپ
کپتان
کپسول
کپور
کپیټالیزم
کپیټلېزم
کڅوړه
کڅوړو
کڅوړي
کڅوړې
کچ
کچالو
کچه
کچو
کچي
کچيري
کچې
کډه
کډوال
کډوالو
کډوالي
کډوالۍ
کړ
کړاو
کړاوونه
کړاوونو
کړاى
کړاي
کړای
کړل
کړله
کړلې
کړم
کړمه
کړن
کړنلار
کړنلاره
کړنلارو
کړنلارې
کړنه
کړنو
کړني
کړنې
کړه
کړو
کړوسی
کړونو
کړى
کړي
کړيال
کړيده
کړيدي
کړيو
کړکیچ
کړکۍ
کړکېچ
کړکېچن
کړکېچونه
کړکېچونو
کړی
کړیال
کړیالان
کړیالانو
کړیده
کړیدی
کړیو
کړۍ
کړې
کړېده
کړېږي
کړے
کږه
کږې
کښ
کښت
کښته
کښتونو
کښتيو
کښتیو
کښتۍ
کښل
کښلو
کښلي
کښلی
کښلې
کښى
کښي
کښی
کښې
کښېناست
کښېني
ککړ
ککړتيا
ککړتیا
ککړه
ککړو
ککړونکي
ککړوونکو
ککړوونکي
ککړوي
ککړې
کہ
کی
کیا
کیبل
کیبورډ
کیدای
کیدل
کیدلای
کیدلو
کیدلی
کیده
کیدو
کیدونکی
کیدی
کیرشنر
کیریر
کیسه
کیسو
کیسې
کیش
کیف
کیفي
کیفیت
کیلو
کیلومتر
کیلومتره
کیلومترو
کیلومترۍ
کیلومټره
کیلوگرامه
کیلي
کیم
کیمبرج
کیمیا
کیمیاوي
کیمیاوی
کیمیايي
کیمیاپوه
کین
کیندل
کیندنو
کیندنې
کینز
کینلي
کینه
کینوک
کینګ
کینیا
کیهان
کیهاني
کیو
کیوبا
کیوبیک
کیپ
کیږي
کیږی
کیږې
کیښود
کیښودل
کیگی
کیڼ
کۍ
کې
کېد
کېدا
کېداى
کېداي
کېدای
کېدل
کېدلای
کېدله
کېدلو
کېدلی
کېدلې
کېدنه
کېدنې
کېده
کېدو
کېدونو
کېدوني
کېدونکو
کېدونکي
کېدونکی
کېدونکې
کېدونې
کېدي
کېدی
کېدې
کېدے
کېسنجر
کېـږي
کېلر
کېلو
کېلومتر
کېمياوي
کېمیا
کېمیاوي
کېناست
کېناسته
کېندنې
کېننګ
کېنول
کېني
کېنګ
کېټ
کېپ
کېږ
کېږدي
کېږو
کېږي
کېږی
کېږې
کېښود
کېښودل
کېښوده
کے
کە
ګ
ګابن
ګارد
ګارزا
ګارفیلډ
ګارنر
ګارډ
ګارډنر
ګارې
ګاز
ګازاتو
ګازو
ګازونه
ګازونو
ګازي
ګال
ګالي
ګاليله
ګالیله
ګام
ګاما
ګامبيا
ګامونه
ګامونو
ګان
ګانا
ګاندي
ګانو
ګاني
ګانې
ګاه
ګاونډ
ګاونډي
ګاونډيانو
ګاونډيو
ګاونډی
ګاونډیانو
ګاونډیو
ګاونډۍ
ګاي
ګاډو
ګاډوین
ګاډي
ګاډی
ګاډۍ
ګاڼه
ګته
ګجرات
ګدۍ
ګر
ګراد
ګراف
ګرافيټي
ګرافیک
ګرام
ګرامر
ګرامري
ګرامه
ګران
ګرانایټ
ګرانه
ګرانو
ګرانټ
ګراهام
ګرایۍ
ګرجستان
ګرد
ګرده
ګردو
ګردي
ګردې
ګرم
ګرمه
ګرمو
ګرمولو
ګرمي
ګرمۍ
ګرمې
ګرمېدو
ګرو
ګروپ
ګروپونه
ګروپونو
ګروپي
ګري
ګريد
ګرين
ګرينلينډ
ګرينلېنډ
ګريوان
ګرځنده
ګرځندوی
ګرځول
ګرځولو
ګرځولي
ګرځولی
ګرځولې
ګرځوي
ګرځي
ګرځی
ګرځیدلی
ګرځې
ګرځېدای
ګرځېدل
ګرځېدلي
ګرځېدلی
ګرځېدلې
ګرځېده
ګرځېدو
ګریسون
ګرین
ګرینلنډ
ګریګوري
ګرې
ګرېد
ګرېوان
ګرېوز
ګرېډ
ګزمې
ګسټ
ګل
ګلاب
ګلابو
ګلابي
ګلاسکو
ګلان
ګلانو
ګلخانه
ګلستان
ګلن
ګله
ګلونه
ګلونو
ګلوکوز
ګلي
ګلپي
ګمارل
ګمارنې
ګمان
ګمراه
ګمرکي
ګن
ګناه
ګناهونو
ګنج
ګنجي
ګندهارا
ګنل
ګنه
ګني
ګنډل
ګنګا
ګنګوهي
ګنې
ګه
ګو
ګوا
ګواتیمالا
ګوام
ګواه
ګواهي
ګواښ
ګواښل
ګواښونه
ګواښونو
ګواښي
ګواکي
ګواکې
ګوت
ګوتنبرګ
ګوته
ګوتو
ګوتې
ګوجر
ګور
ګورباچوف
ګورم
ګورنر
ګوره
ګورو
ګوري
ګورډن
ګوریلا
ګورې
ګوزار
ګوستاو
ګول
ګولډ
ګولډمن
ګولۍ
ګومارل
ګومارلو
ګومارنه
ګومارنې
ګومان
ګومل
ګون
ګوند
ګوندونه
ګوندونو
ګوندي
ګوندې
ګونو
ګوني
ګونګ
ګونی
ګونې
ګوهر
ګويا
ګوټ
ګوډ
ګوډمن
ګوښه
ګوکهلي
ګوګل
ګوڼه
ګوڼې
ګویا
ګي
ګياه
ګيري
ګيرۍ
ګينه
ګيټس
ګټل
ګټلو
ګټلي
ګټلی
ګټلې
ګټنه
ګټنې
ګټه
ګټو
ګټور
ګټورتوب
ګټورتیا
ګټوره
ګټورو
ګټورې
ګټونکو
ګټونکي
ګټونکی
ګټونکې
ګټي
ګټی
ګټې
ګچ
ګډ
ګډه
ګډو
ګډوله
ګډون
ګډونه
ګډونوال
ګډونوالو
ګډوي
ګډوډ
ګډوډي
ګډوډیو
ګډوډۍ
ګډې
ګډېږي
ګړ
ګړدود
ګړندي
ګړندی
ګړندۍ
ګړنه
ګړنې
ګړي
ګړۍ
ګڼ
ګڼل
ګڼله
ګڼلو
ګڼلى
ګڼلي
ګڼلی
ګڼلې
ګڼم
ګڼه
ګڼو
ګڼوالي
ګڼي
ګڼی
ګڼې
ګی
ګیبس
ګیر
ګیري
ګیرۍ
ګیلاني
ګیلیکسي
ګینه
ګیني
ګیټس
ګۍ
ګې
ګېري
گ
گا
گاز
گام
گامونه
گان
گاندهي
گانو
گانې
گاه
گاونډي
گاونډيو
گاگارين
گاڼه
گر
گرا
گراد
گراف
گرام
گرامر
گرامه
گران
گرانه
گرد
گردد
گرده
گردو
گردې
گردېز
گرشک
گرفت
گرم
گرمه
گرمو
گرمي
گرو
گروه
گروهه
گروهو
گروهې
گروپ
گروپونو
گرځنده
گرځي
گرگین
گز
گفت
گل
گلاب
گلان
گلانو
گلستان
گلشن
گلو
گلونه
گلوکوز
گمارل
گمان
گناه
گنبد
گنج
گنجگل
گندهارا
گنل
گنه
گني
گنې
گه
گهيځ
گو
گواښ
گواکې
گوته
گوتو
گوتې
گودر
گوره
گورو
گوري
گورې
گول
گولۍ
گومارل
گومان
گوند
گوندونه
گوندونو
گوندي
گونو
گوهر
گويا
گوټ
گوښه
گوڼې
گى
گي
گيلان
گيلاني
گټلو
گټلي
گټلې
گټه
گټو
گټور
گټوره
گټورې
گټي
گټې
گډ
گډه
گډو
گډون
گډې
گړدود
گړۍ
گڼ
گڼل
گڼله
گڼه
گڼو
گڼي
گڼيال
گڼې
گی
گیانې
گۍ
ں
ڼ
ڼي
ڼيو
ھ
ہ
ہیں
ہے
ۃ
ی
یا
یات
یاتو
یاد
یاده
یادو
یادول
یادولای
یادولو
یادولی
یادونه
یادونې
یادوي
یاديږي
یادښت
یادښتونه
یادښتونو
یادکرد
یادګار
یادګاري
یادگار
یادیده
یادیږي
یادیږی
یادې
یادېدل
یادېده
یادېږي
یادېږی
یار
یارک
یارگل
یاست
یاغي
یاغیانو
یافته
یاقوت
یالات
یالاتونه
یالاتونو
یان
یانو
یانګ
یانې
یاهم
یت
یتونه
یتونو
یتي
یتیم
یحی
یحیی
یخ
یخنۍ
یخچالونو
ید
یر
یرس
یرغل
یرغلونه
یرغلونو
یرغلګرو
یرغمل
یرلنډ
یرلنډي
یرلینډ
یز
یزد
یزو
یزید
یس
یسلنډ
یعقوب
یعني
یعنی
یعنې
یقین
یقینا
یقیني
یل
یلتسین
یلو
یلي
یم
یمن
یمه
یمو
یمې
ین
ینه
یه
یهود
یهودا
یهودان
یهودانو
یهودو
یهودي
یهودی
یهودیان
یهودیانو
یهودیت
یو
یوازني
یوازنی
یوازنۍ
یوازي
یوازی
یوازیتوب
یوازیني
یوازینی
یوازینۍ
یوازې
یوازېنی
یوازېنۍ
یوان
یواځي
یواځی
یواځینی
یواځې
یوبل
یورانیم
یورو
یوري
یورک
یوریشیا
یوسف
یوسفزي
یوسي
یوشان
یوشمیر
یوشمېر
یوله
یون
یونان
یوناني
یونانی
یونانیان
یونانیانو
یونس
یونسکو
یونلیک
یونیسکو
یونیفورم
یونین
یوه
یوهان
یوهانس
یووالي
یووالی
یوولس
یوولسم
یوولسمه
یوولسمې
یوولسو
یووړ
یووړل
یووړه
یوویشتمې
یوي
یوټیوب
یوځای
یوځل
یوڅه
یوډول
یوړل
یوړه
یوکال
یوګا
یوګسلاویا
یوګوسلاویا
یوګون
یوی
یوې
یي
یيز
یيزو
یک
یکشنبه
یکشنبې
یکن
یکی
یہ
یی
ییز
ییزه
ییزو
ییزې
ییل
یې
ۍ
ې
ېو
ېي
ېې
ے
۔
ە
ۖ
ۙ
ۚ
۝
۞
۠
ۡ
ۤ
ۦ
۰
۰۰
۰۰۰
۰۱
۰۲
۰۳
۰۴
۰۵
۰۶
۰۷
۰۸
۰۹
۱
۱۰
۱۰۰
۱۰۰۰
۱۰۰۰۰
۱۰۰۰۰۰
۱۰۱
۱۰۲
۱۰۳
۱۰۴
۱۰۵
۱۰۶
۱۰۶۶
۱۰۷
۱۰۸
۱۰۹
۱۱
۱۱۰
۱۱۰۰
۱۱۱
۱۱۲
۱۱۳
۱۱۴
۱۱۵
۱۱۵۰
۱۱۶
۱۱۷
۱۱۸
۱۱۹
۱۲
۱۲۰
۱۲۰۰
۱۲۰۰۰
۱۲۰۴
۱۲۱
۱۲۱۵
۱۲۲
۱۲۳
۱۲۴
۱۲۵
۱۲۵۰
۱۲۶
۱۲۷
۱۲۸
۱۲۹
۱۳
۱۳۰
۱۳۰۰
۱۳۰۰۰
۱۳۰۸
۱۳۱
۱۳۱۰
۱۳۱۲
۱۳۱۵
۱۳۱۶
۱۳۱۷
۱۳۱۸
۱۳۱۹
۱۳۲
۱۳۲۰
۱۳۲۳
۱۳۲۴
۱۳۲۵
۱۳۲۶
۱۳۲۷
۱۳۲۸
۱۳۲۹
۱۳۳
۱۳۳۰
۱۳۳۱
۱۳۳۲
۱۳۳۳
۱۳۳۴
۱۳۳۵
۱۳۳۶
۱۳۳۷
۱۳۳۸
۱۳۳۹
۱۳۴
۱۳۴۰
۱۳۴۱
۱۳۴۲
۱۳۴۳
۱۳۴۴
۱۳۴۵
۱۳۴۶
۱۳۴۷
۱۳۴۸
۱۳۴۹
۱۳۵
۱۳۵۰
۱۳۵۱
۱۳۵۲
۱۳۵۳
۱۳۵۴
۱۳۵۵
۱۳۵۶
۱۳۵۷
۱۳۵۸
۱۳۵۹
۱۳۶
۱۳۶۰
۱۳۶۱
۱۳۶۲
۱۳۶۳
۱۳۶۴
۱۳۶۵
۱۳۶۶
۱۳۶۷
۱۳۶۸
۱۳۶۹
۱۳۷
۱۳۷۰
۱۳۷۱
۱۳۷۲
۱۳۷۳
۱۳۷۴
۱۳۷۵
۱۳۷۶
۱۳۷۷
۱۳۷۸
۱۳۷۹
۱۳۸
۱۳۸۰
۱۳۸۱
۱۳۸۲
۱۳۸۳
۱۳۸۴
۱۳۸۵
۱۳۸۶
۱۳۸۷
۱۳۸۸
۱۳۸۹
۱۳۹
۱۳۹۰
۱۳۹۱
۱۳۹۲
۱۳۹۳
۱۳۹۴
۱۳۹۵
۱۳۹۶
۱۳۹۷
۱۳۹۸
۱۳۹۹
۱۴
۱۴۰
۱۴۰۰
۱۴۰۰۰
۱۴۱
۱۴۲
۱۴۲۵
۱۴۳
۱۴۴
۱۴۵
۱۴۵۳
۱۴۶
۱۴۷
۱۴۸
۱۴۹
۱۴۹۲
۱۵
۱۵۰
۱۵۰۰
۱۵۰۰۰
۱۵۱
۱۵۱۶
۱۵۲
۱۵۲۰
۱۵۲۶
۱۵۳
۱۵۴
۱۵۵
۱۵۶
۱۵۷
۱۵۸
۱۵۹
۱۶
۱۶۰
۱۶۰۰
۱۶۰۳
۱۶۱
۱۶۱۰
۱۶۱۸
۱۶۲
۱۶۲۰
۱۶۳
۱۶۳۰
۱۶۴
۱۶۴۰
۱۶۴۲
۱۶۴۴
۱۶۴۸
۱۶۴۹
۱۶۵
۱۶۵۰
۱۶۵۱
۱۶۶
۱۶۶۰
۱۶۶۱
۱۶۷
۱۶۷۰
۱۶۸
۱۶۸۵
۱۶۸۷
۱۶۸۸
۱۶۸۹
۱۶۹
۱۷
۱۷۰
۱۷۰۰
۱۷۰۰۰
۱۷۰۱
۱۷۰۷
۱۷۰۹
۱۷۱
۱۷۱۰
۱۷۱۲
۱۷۱۴
۱۷۱۵
۱۷۲
۱۷۲۰
۱۷۲۱
۱۷۲۲
۱۷۲۵
۱۷۲۶
۱۷۲۷
۱۷۲۹
۱۷۳
۱۷۳۰
۱۷۳۸
۱۷۴
۱۷۴۰
۱۷۴۴
۱۷۴۵
۱۷۴۶
۱۷۴۷
۱۷۴۸
۱۷۵
۱۷۵۰
۱۷۵۱
۱۷۵۴
۱۷۵۵
۱۷۵۶
۱۷۵۷
۱۷۵۸
۱۷۵۹
۱۷۶
۱۷۶۰
۱۷۶۱
۱۷۶۲
۱۷۶۳
۱۷۶۴
۱۷۶۵
۱۷۶۶
۱۷۶۷
۱۷۶۸
۱۷۶۹
۱۷۷
۱۷۷۰
۱۷۷۱
۱۷۷۲
۱۷۷۳
۱۷۷۴
۱۷۷۵
۱۷۷۶
۱۷۷۷
۱۷۷۸
۱۷۷۹
۱۷۸
۱۷۸۰
۱۷۸۱
۱۷۸۲
۱۷۸۳
۱۷۸۴
۱۷۸۵
۱۷۸۶
۱۷۸۷
۱۷۸۸
۱۷۸۹
۱۷۹
۱۷۹۰
۱۷۹۱
۱۷۹۲
۱۷۹۳
۱۷۹۴
۱۷۹۵
۱۷۹۶
۱۷۹۷
۱۷۹۸
۱۷۹۹
۱۸
۱۸۰
۱۸۰۰
۱۸۰۱
۱۸۰۲
۱۸۰۳
۱۸۰۴
۱۸۰۵
۱۸۰۶
۱۸۰۷
۱۸۰۸
۱۸۰۹
۱۸۱
۱۸۱۰
۱۸۱۱
۱۸۱۲
۱۸۱۳
۱۸۱۴
۱۸۱۵
۱۸۱۶
۱۸۱۷
۱۸۱۸
۱۸۱۹
۱۸۲
۱۸۲۰
۱۸۲۱
۱۸۲۲
۱۸۲۳
۱۸۲۴
۱۸۲۵
۱۸۲۶
۱۸۲۷
۱۸۲۸
۱۸۲۹
۱۸۳
۱۸۳۰
۱۸۳۱
۱۸۳۲
۱۸۳۳
۱۸۳۴
۱۸۳۵
۱۸۳۶
۱۸۳۷
۱۸۳۸
۱۸۳۹
۱۸۴۰
۱۸۴۱
۱۸۴۲
۱۸۴۳
۱۸۴۴
۱۸۴۵
۱۸۴۶
۱۸۴۷
۱۸۴۸
۱۸۴۹
۱۸۵
۱۸۵۰
۱۸۵۱
۱۸۵۲
۱۸۵۳
۱۸۵۴
۱۸۵۵
۱۸۵۶
۱۸۵۷
۱۸۵۸
۱۸۵۹
۱۸۶
۱۸۶۰
۱۸۶۱
۱۸۶۲
۱۸۶۳
۱۸۶۴
۱۸۶۵
۱۸۶۶
۱۸۶۷
۱۸۶۸
۱۸۶۹
۱۸۷
۱۸۷۰
۱۸۷۱
۱۸۷۲
۱۸۷۳
۱۸۷۴
۱۸۷۵
۱۸۷۶
۱۸۷۷
۱۸۷۸
۱۸۷۹
۱۸۸۰
۱۸۸۱
۱۸۸۲
۱۸۸۳
۱۸۸۴
۱۸۸۵
۱۸۸۶
۱۸۸۷
۱۸۸۸
۱۸۸۹
۱۸۹
۱۸۹۰
۱۸۹۱
۱۸۹۲
۱۸۹۳
۱۸۹۴
۱۸۹۵
۱۸۹۶
۱۸۹۷
۱۸۹۸
۱۸۹۹
۱۹
۱۹۰
۱۹۰۰
۱۹۰۱
۱۹۰۲
۱۹۰۳
۱۹۰۴
۱۹۰۵
۱۹۰۶
۱۹۰۷
۱۹۰۸
۱۹۰۹
۱۹۱
۱۹۱۰
۱۹۱۱
۱۹۱۲
۱۹۱۳
۱۹۱۴
۱۹۱۵
۱۹۱۶
۱۹۱۷
۱۹۱۸
۱۹۱۹
۱۹۲
۱۹۲۰
۱۹۲۱
۱۹۲۲
۱۹۲۳
۱۹۲۴
۱۹۲۵
۱۹۲۶
۱۹۲۷
۱۹۲۸
۱۹۲۹
۱۹۳
۱۹۳۰
۱۹۳۱
۱۹۳۲
۱۹۳۳
۱۹۳۴
۱۹۳۵
۱۹۳۶
۱۹۳۷
۱۹۳۸
۱۹۳۹
۱۹۴
۱۹۴۰
۱۹۴۱
۱۹۴۲
۱۹۴۳
۱۹۴۴
۱۹۴۵
۱۹۴۶
۱۹۴۷
۱۹۴۸
۱۹۴۹
۱۹۵
۱۹۵۰
۱۹۵۱
۱۹۵۲
۱۹۵۳
۱۹۵۴
۱۹۵۵
۱۹۵۶
۱۹۵۷
۱۹۵۸
۱۹۵۹
۱۹۶
۱۹۶۰
۱۹۶۱
۱۹۶۲
۱۹۶۳
۱۹۶۴
۱۹۶۵
۱۹۶۶
۱۹۶۷
۱۹۶۸
۱۹۶۹
۱۹۷
۱۹۷۰
۱۹۷۱
۱۹۷۲
۱۹۷۳
۱۹۷۴
۱۹۷۵
۱۹۷۶
۱۹۷۷
۱۹۷۸
۱۹۷۹
۱۹۸
۱۹۸۰
۱۹۸۱
۱۹۸۲
۱۹۸۳
۱۹۸۴
۱۹۸۵
۱۹۸۶
۱۹۸۷
۱۹۸۸
۱۹۸۹
۱۹۹
۱۹۹۰
۱۹۹۱
۱۹۹۲
۱۹۹۳
۱۹۹۴
۱۹۹۵
۱۹۹۶
۱۹۹۷
۱۹۹۸
۱۹۹۹
۲
۲۰
۲۰۰
۲۰۰۰
۲۰۰۰۰
۲۰۰۰۰۰
۲۰۰۱
۲۰۰۲
۲۰۰۳
۲۰۰۴
۲۰۰۵
۲۰۰۶
۲۰۰۷
۲۰۰۸
۲۰۰۹
۲۰۱
۲۰۱۰
۲۰۱۱
۲۰۱۲
۲۰۱۳
۲۰۱۴
۲۰۱۵
۲۰۱۶
۲۰۱۷
۲۰۱۸
۲۰۱۹
۲۰۲
۲۰۲۰
۲۰۲۱
۲۰۲۲
۲۰۳
۲۰۳۰
۲۰۴
۲۰۵
۲۰۵۰
۲۰۶
۲۰۷
۲۱
۲۱۰
۲۱۰۰
۲۱۱
۲۱۲
۲۱۴
۲۱۶
۲۲
۲۲۰
۲۲۰۰
۲۲۱
۲۲۴
۲۲۷
۲۳
۲۳۰
۲۳۱
۲۳۵
۲۳۹
۲۴
۲۴۰
۲۴۳
۲۴۴
۲۴۷
۲۴۸
۲۵
۲۵۰
۲۵۰۰
۲۵۰۰۰
۲۵۰۰۰۰
۲۵۱
۲۵۲
۲۵۶
۲۶
۲۶۰
۲۶۹
۲۷
۲۷۰
۲۷۰۰
۲۷۳
۲۷۵
۲۸
۲۸۰
۲۸۴
۲۸۶
۲۹
۲۹۰
۳
۳۰
۳۰۰
۳۰۰۰
۳۰۰۰۰
۳۰۰۰۰۰
۳۱
۳۲
۳۲۰
۳۲۲
۳۲۵
۳۳
۳۳۰
۳۴
۳۴۷
۳۵
۳۵۰
۳۵۰۰
۳۶
۳۶۰
۳۶۵
۳۷
۳۷۰
۳۸
۳۸۰
۳۸۴
۳۹
۴
۴۰
۴۰۰
۴۰۰۰
۴۰۰۰۰
۴۰۰۰۰۰
۴۱
۴۱۰
۴۲
۴۲۰
۴۳
۴۳۰
۴۴
۴۵
۴۵۰
۴۵۰۰
۴۶
۴۶۰
۴۷
۴۷۰
۴۷۶
۴۸
۴۸۰
۴۹
۴۹۰
۵
۵۰
۵۰۰
۵۰۰۰
۵۰۰۰۰
۵۰۰۰۰۰
۵۱
۵۲
۵۳
۵۳۹
۵۴
۵۵
۵۵۰
۵۶
۵۷
۵۷۰
۵۸
۵۹
۶
۶۰
۶۰۰
۶۰۰۰
۶۰۰۰۰
۶۱
۶۱۰
۶۲
۶۲۲
۶۳
۶۳۲
۶۴
۶۵
۶۵۰
۶۶
۶۷
۶۸
۶۹
۷
۷۰
۷۰۰
۷۰۰۰
۷۰۰۰۰
۷۱
۷۲
۷۲۰
۷۳
۷۴
۷۵
۷۵۰
۷۶
۷۷
۷۸
۷۹
۸
۸۰
۸۰۰
۸۰۰۰
۸۰۰۰۰
۸۱
۸۲
۸۳
۸۴
۸۵
۸۶
۸۷
۸۸
۸۹
۹
۹۰
۹۰۰
۹۰۰۰
۹۱
۹۱۱
۹۲
۹۳
۹۴
۹۵
۹۵۰
۹۶
۹۷
۹۸
۹۹
۹۹۸
ި
ް
߬
ं
आ
क
ख
ग
च
ज
ट
ड
त
थ
द
ध
न
प
फ
ब
भ
म
य
र
ल
व
श
ष
स
ह
़
ा
ि
ी
ु
ू
े
ै
ो
ौ
्
ং
ক
জ
ন
ব
য
র
ল
শ
স
়
া
ি
ু
ে
্
ਮ
ਰ
ਲ
ਸ
਼
ਾ
ਿ
ੀ
ੰ
ੱ
ં
ત
ર
ા
િ
ી
ુ
ે
્
க
ப
ா
ி
ு
்
ం
క
ఖ
ట
త
న
ప
మ
య
ర
ల
స
ా
ి
ీ
ు
ె
ే
ో
్
ด
ั
ิ
ี
ื
ุ
่
้
์
་
ာ
်
მონაცემები
პლატფორმა
ღია
​
‌
‍
‎
‏
‐
‑
‒
–
—
‘
’
“
”
„
†
•
․
…
‫
‬
′
″
‹
›
⁄
⁡
⁺
₂
€
₹
№
←
↑
→
↔
↷
∂
∆
∇
∈
∑
−
∗
∙
√
∝
∞
∪
∫
≈
≡
⊂
⊆
⊖
⋅
⋮
⋯
⋱
①
②
③
④
⑤
⑥
⑦
⑧
⑨
⑩
⑪
⑫
⑬
─
▪
▷
◈
●
★
☉
☎
♡
♦
✓
✗
✡
❤
ⲁ
ⲏ
ⲓ
ⲙ
ⲛ
ⲣ
ⴰ
ⴷ
ⵜ
⺀
⺄
⺆
⺈
⺊
⺌
⺕
⺝
⺸
⺼
⿰
⿱
⿲
⿳
⿴
⿵
⿶
⿷
⿸
⿹
⿺
⿻
、
。
《
》
「
」
【
】
〖
〗
〢
い
か
こ
し
す
た
つ
て
と
に
の
は
み
ら
り
る
れ
を
゙
゚
イ
コ
シ
タ
テ
ト
フ
ユ
ル
ン
・
ー
㇁
㇂
㇄
㇇
㇈
㇉
㇓
㐁
㐄
㐅
㐌
㐫
㐬
㐭
㐮
㐱
㑒
㒵
㒸
㒼
㓁
㓞
㔾
㕛
㕣
㖾
㘝
㚅
㚇
㚔
㚘
㝉
㝡
㝴
㝵
㞋
㞢
㞷
㠩
㠭
㠯
㡀
㡭
㡿
㢲
㢴
㣇
㣺
㥯
㪅
㫄
㫐
㫒
㫺
㬅
㬎
㬥
㬰
㲋
㳄
㷠
㸒
㸚
㸦
㼌
㼲
㽞
㿟
䀠
䂞
䍃
䏍
䒑
䖍
䖒
䖝
䖵
䙴
䚻
䜌
䝿
䡛
䧹
䪞
一
丁
丂
七
丄
丅
丆
万
丈
三
上
下
丌
不
与
丏
丐
丑
专
且
丕
世
丘
丙
业
东
丞
丢
丣
两
严
並
丨
丩
个
丫
丬
中
丮
丰
丱
串
丵
丶
丷
丸
丹
为
主
丽
丿
乀
乂
乃
久
乆
乇
么
义
之
乌
乍
乎
乏
乐
乑
乔
乖
乗
乘
乙
乚
乛
乜
九
乞
也
习
乡
乳
乾
亀
亂
亅
了
亇
予
争
事
二
亍
于
亏
亐
云
互
亓
五
井
亘
亚
亜
亞
亟
亠
亡
亢
交
亥
亦
产
亨
亩
享
京
亭
亮
亯
亰
亲
亳
亶
亷
人
亻
亼
亾
仁
今
介
仌
从
仐
仑
仒
仓
仕
他
付
仝
代
令
以
任
企
伊
伏
伐
休
会
伯
但
位
何
佘
余
作
佥
使
來
侈
侌
侖
侯
侵
便
保
俞
信
修
倉
倍
候
倠
備
僉
僕
儿
兀
允
兂
元
兄
充
兆
兇
先
光
兊
克
兌
免
兑
兒
兓
兔
党
兜
兟
入
全
兩
兪
八
公
六
兮
兰
共
关
兵
其
具
典
兹
兼
冀
冂
冃
冄
内
冈
冉
冊
冋
册
再
冎
冏
冐
冒
冓
冖
冗
冘
军
农
冝
冡
冥
冫
冬
冷
几
凡
凢
凵
凶
凷
凸
凹
出
函
[...]
