!
"
#
##a
##aa
##ab
##ac
##ad
##ae
##af
##ag
##ah
##ai
##aj
##ak
##al
##am
##an
##ao
##ap
##aq
##ar
##as
##at
##au
##av
##aw
##ax
##ay
##az
##b
##ba
##bb
##bc
##bd
##be
##bf
##bg
##bh
##bi
##bj
##bk
##bl
##bm
##bn
##bo
##bp
##bq
##br
##bs
##bt
##bu
##bv
##bw
##bx
##by
##bz
##c
##ca
##cb
##cc
##cd
##ce
##cf
##cg
##ch
##ci
##cj
##ck
##cl
##cm
##cn
##co
##cp
##cq
##cr
##cs
##ct
##cu
##cv
##cw
##cx
##cy
##cz
##d
##da
##db
##dc
##dd
##de
##df
##dg
##dh
##di
##dj
##dk
##dl
##dm
##dn
##do
##dp
##dq
##dr
##ds
##dt
##du
##dv
##dw
##dx
##dy
##dz
##e
##ea
##eb
##ec
##ed
##ee
##ef
##eg
##eh
##ei
##ej
##ek
##el
##em
##en
##eo
##ep
##eq
##er
##es
##et
##eu
##ev
##ew
##ex
##ey
##ez
##f
##fa
##fb
##fc
##fd
##fe
##ff
##fg
##fh
##fi
##fj
##fk
##fl
##fm
##fn
##fo
##fp
##fq
##fr
##fs
##ft
##fu
##fv
##fw
##fx
##fy
##fz
##g
##ga
##gb
##gc
##gd
##ge
##gf
##gg
##gh
##gi
##gj
##gk
##gl
##gm
##gn
##go
##gp
##gq
##gr
##gs
##gt
##gu
##gv
##gw
##gx
##gy
##gz
##h
##ha
##hb
##hc
##hd
##he
##hf
##hg
##hh
##hi
##hj
##hk
##hl
##hm
##hn
##ho
##hp
##hq
##hr
##hs
##ht
##hu
##hv
##hw
##hx
##hy
##hz
##i
##ia
##ib
##ic
##id
##ie
##if
##ig
##ih
##ii
##ij
##ik
##il
##im
##in
##io
##ip
##iq
##ir
##is
##it
##iu
##iv
##iw
##ix
##iy
##iz
##j
##ja
##jb
##jc
##jd
##je
##jf
##jg
##jh
##ji
##jj
##jk
##jl
##jm
##jn
##jo
##jp
##jq
##jr
##js
##jt
##ju
##jv
##jw
##jx
##jy
##jz
##k
##ka
##kb
##kc
##kd
##ke
##kf
##kg
##kh
##ki
##kj
##kk
##kl
##km
##kn
##ko
##kp
##kq
##kr
##ks
##kt
##ku
##kv
##kw
##kx
##ky
##kz
##l
##la
##lb
##lc
##ld
##le
##lf
##lg
##lh
##li
##lj
##lk
##ll
##lm
##ln
##lo
##lp
##lq
##lr
##ls
##lt
##lu
##lv
##lw
##lx
##ly
##lz
##m
##ma
##mb
##mc
##md
##me
##mf
##mg
##mh
##mi
##mj
##mk
##ml
##mm
##mn
##mo
##mp
##mq
##mr
##ms
##mt
##mu
##mv
##mw
##mx
##my
##mz
##n
##na
##nb
##nc
##nd
##ne
##nf
##ng
##nh
##ni
##nj
##nk
##nl
##nm
##nn
##no
##np
##nq
##nr
##ns
##nt
##nu
##nv
##nw
##nx
##ny
##nz
##o
##oa
##ob
##oc
##od
##oe
##of
##og
##oh
##oi
##oj
##ok
##ol
##om
##on
##oo
##op
##oq
##or
##os
##ot
##ou
##ov
##ow
##ox
##oy
##oz
##p
##pa
##pb
##pc
##pd
##pe
##pf
##pg
##ph
##pi
##pj
##pk
##pl
##pm
##pn
##po
##pp
##pq
##pr
##ps
##pt
##pu
##pv
##pw
##px
##py
##pz
##q
##qa
##qb
##qc
##qd
##qe
##qf
##qg
##qh
##qi
##qj
##qk
##ql
##qm
##qn
##qo
##qp
##qq
##qr
##qs
##qt
##qu
##qv
##qw
##qx
##qy
##qz
##r
##ra
##rb
##rc
##rd
##re
##rf
##rg
##rh
##ri
##rj
##rk
##rl
##rm
##rn
##ro
##rp
##rq
##rr
##rs
##rt
##ru
##rv
##rw
##rx
##ry
##rz
##s
##sa
##sb
##sc
##sd
##se
##sf
##sg
##sh
##si
##sj
##sk
##sl
##sm
##sn
##so
##sp
##sq
##sr
##ss
##st
##su
##sv
##sw
##sx
##sy
##sz
##t
##ta
##tb
##tc
##td
##te
##tf
##tg
##th
##ti
##tj
##tk
##tl
##tm
##tn
##to
##tp
##tq
##tr
##ts
##tt
##tu
##tv
##tw
##tx
##ty
##tz
##u
##ua
##ub
##uc
##ud
##ue
##uf
##ug
##uh
##ui
##uj
##uk
##ul
##um
##un
##uo
##up
##uq
##ur
##us
##ut
##uu
##uv
##uw
##ux
##uy
##uz
##v
##va
##vb
##vc
##vd
##ve
##vf
##vg
##vh
##vi
##vj
##vk
##vl
##vm
##vn
##vo
##vp
##vq
##vr
##vs
##vt
##vu
##vv
##vw
##vx
##vy
##vz
##w
##wa
##wb
##wc
##wd
##we
##wf
##wg
##wh
##wi
##wj
##wk
##wl
##wm
##wn
##wo
##wp
##wq
##wr
##ws
##wt
##wu
##wv
##ww
##wx
##wy
##wz
##x
##xa
##xb
##xc
##xd
##xe
##xf
##xg
##xh
##xi
##xj
##xk
##xl
##xm
##xn
##xo
##xp
##xq
##xr
##xs
##xt
##xu
##xv
##xw
##xx
##xy
##xz
##y
##ya
##yb
##yc
##yd
##ye
##yf
##yg
##yh
##yi
##yj
##yk
##yl
##ym
##yn
##yo
##yp
##yq
##yr
##ys
##yt
##yu
##yv
##yw
##yx
##yy
##yz
##z
##za
##zb
##zc
##zd
##ze
##zf
##zg
##zh
##zi
##zj
##zk
##zl
##zm
##zn
##zo
##zp
##zq
##zr
##zs
##zt
##zu
##zv
##zw
##zx
##zy
##zz
$
%
&
'
(
)
*
+
,
-
.
/
0
00
000
00000
0001
0002
0003
0004
001
0012
002
0021
0022
0027
0028
003
0036
004
005
006
007
008
009
01
010
012
013
014
0140
015
016
017
018
019
02
020
021
03
030
0305
04
0464
0486
05
06
07
08
0836
09
0a
0b
0c
0d
0e
0f
0g
0h
0i
0j
0k
0l
0m
0n
0o
0p
0q
0r
0s
0t
0u
0v
0w
0x
0y
0z
1
10
100
1000
1001
1002
1006
1007
101
1016
1017
102
1021
1023
1029
103
1037
1038
104
105
1057
106
107
1073
108
1080
1086
1088
1089
109
1093
1097
1098
11
110
1101
1103
111
1111
112
1126
113
1136
114
1146
115
116
1163
117
1177
118
1186
119
12
120
1200
121
12148
122
123
124
125
1257
126
127
128
129
13
130
1300
131
132
133
134
135
1350
1353
136
1365
137
1371
138
139
1395
14
140
141
142
143
144
145
146
1467
1468
1469
147
148
149
15
150
1500
151
1515
152
1525
153
154
155
156
157
158
159
16
160
1600
161
162
163
164
165
16553580
166
167
168
169
17
170
1700
171
172
173
174
175
1758
176
177
1776
178
1787
1788
1789
179
18
180
1800
1803
181
1812
1813
1815
182
1825
1826
1827
183
1830
1837
1839
184
1840
1841
1845
1846
1848
1849
185
1850
1851
1852
1854
1855
1856
1857
1858
1859
186
1860
1861
1863
1864
1865
1866
1867
1868
1869
187
1870
1871
1872
1873
1874
1875
1876
1877
1878
1879
188
1880
1881
1882
1884
1885
1886
1887
1888
1889
189
1890
1891
1892
1893
1894
1895
1896
1897
1898
1899
19
190
1900
1901
1902
1903
1904
1905
1906
1907
1908
1909
191
1910
1911
1912
1913
1914
1915
1916
1917
1918
1919
192
1920
1921
1922
1923
1924
1925
1926
1927
1928
1929
193
1930
1931
1932
1933
1934
1935
1936
1937
1938
1939
194
1940
1941
1942
1943
1944
1945
1946
1947
1948
1949
195
1950
1951
1952
1953
1954
1955
1956
1957
1958
1959
196
1960
1961
1962
1963
1964
1965
1966
1967
1968
1969
197
1970
1971
1972
1973
1974
1975
1976
1977
1978
1979
198
1980
1981
1982
1983
1984
1985
1986
1987
1988
1989
199
1990
1991
1992
1993
1994
1995
1996
1997
1998
1999
1a
1b
1c
1d
1e
1f
1g
1h
1i
1j
1k
1l
1m
1n
1o
1p
1q
1r
1s
1t
1u
1v
1w
1x
1y
1z
2
20
200
2000
2001
2002
2003
2004
2005
2006
2007
2008
2009
201
2010
2011
2012
2013
2014
2015
2016
2017
2018
2019
202
2020
2021
2022
2025
203
2030
204
205
206
207
208
209
21
210
211
212
213
214
215
216
217
218
219
22
220
221
222
223
224
225
226
227
228
229
23
230
2307
231
232
233
234
235
236
237
238
239
24
240
241
242
243
244
245
246
247
248
249
25
250
2500
251
252
253
254
255
256
257
258
259
26
260
261
262
263
264
265
266
267
268
269
27
270
271
272
273
274
275
276
277
278
279
28
280
281
282
283
284
285
286
287
288
289
29
290
291
292
293
294
295
296
297
298
299
2a
2b
2c
2d
2e
2f
2g
2h
2i
2j
2k
2l
2m
2n
2o
2p
2q
2r
2s
2t
2u
2v
2w
2x
2y
2z
3
30
300
3000
301
302
303
304
305
306
307
308
309
31
310
311
312
313
314
315
316
317
318
319
32
320
321
322
323
324
325
326
327
328
329
33
330
331
332
333
334
335
336
337
339
3390
34
340
341
342
343
344
345
346
347
348
349
35
350
351
352
353
354
355
356
357
358
359
36
360
361
362
363
364
365
366
367
368
369
37
370
371
372
373
374
375
376
377
379
38
380
381
382
383
384
385
386
387
388
389
39
390
391
392
393
394
395
397
3a
3b
3c
3d
3e
3f
3g
3h
3i
3j
3k
3l
3m
3n
3o
3p
3q
3r
3s
3t
3u
3v
3w
3x
3y
3z
4
40
400
4000
401
402
4020
403
404
405
4051
406
407
409
41
410
411
412
414
415
41586
416
417
418
419
42
420
421
423
425
427
429
43
430
431
434
4342
436
437
44
440
441
444
445
447
448
449
45
450
451
452
453
454
456
457
46
463
4638
465
47
470
471
472
473
475
476
477
479
48
480
481
483
486
49
492
493
495
4a
4b
4c
4d
4e
4f
4g
4h
4i
4j
4k
4l
4m
4n
4o
4p
4q
4r
4s
4t
4u
4v
4w
4x
4y
4z
5
50
500
501
502
503
504
505
507
509
51
511
52
520
521
524
525
529
53
531
534
538
54
540
542
543
545
547
55
550
553
559
56
565
57
570
571
58
582
59
594
5a
5b
5c
5d
5e
5f
5g
5h
5i
5j
5k
5l
5m
5n
5o
5p
5q
5r
5s
5t
5u
5v
5w
5x
5y
5z
6
60
600
6036
61
610
612
62
621
624
627
63
631
64
642
65
66
67
6736
674
677
68
69
691
6a
6b
6c
6d
6e
6f
6g
6h
6i
6j
6k
6l
6m
6n
6o
6p
6q
6r
6s
6t
6u
6v
6w
6x
6y
6z
7
70
700
71
72
721
73
74
75
750
76
765
77
78
79
7929
7a
7b
7c
7d
7e
7f
7g
7h
7i
7j
7k
7l
7m
7n
7o
7p
7q
7r
7s
7t
7u
7v
7w
7x
7y
7z
8
80
800
81
8160
82
83
84
8424
8493
85
86
87
88
89
8a
8b
8c
8d
8e
8f
8g
8h
8i
8j
8k
8l
8m
8n
8o
8p
8q
8r
8s
8t
8u
8v
8w
8x
8y
8z
9
90
900
91
92
93
94
95
953
96
97
978
9780198606697
98
981
99
99166
9a
9b
9c
9d
9e
9f
9g
9h
9i
9j
9k
9l
9m
9n
9o
9p
9q
9r
9s
9t
9u
9v
9w
9x
9y
9z
:
;
<
=
>
?
@
[
[CLS]
[MASK]
[PAD]
[SEP]
[UNK]
\
]
^
_
`
a
a0
a1
a2
a3
a4
a5
a6
a7
a8
a9
aa
aaron
ab
abad
abc
abd
abdominal
abdul
abdullah
aben
abernathy
aberta
abierta
ability
able
abolition
abortion
about
aboutus
above
abraham
abroad
abs
absolute
abstract
abu
abuse
ac
acacia
acad
academia
academic
academies
academy
accademia
accademiadellescienze
accept
accepted
access
accessdate
accessed
according
account
accounting
accounts
accused
achieve
achievement
acid
acids
aclu
acm
across
act
acta
action
actions
active
activism
activist
activists
activities
activity
actor
acts
actually
acute
acık
acıq
ad
adam
adams
adaptation
adatok
addams
addison
addition
additional
address
adherents
adj
adjective
administration
administrative
adopted
adoption
adrian
adult
adults
adv
advance
advanced
advances
adverb
advice
advocate
ae
aesthetics
af
affairs
affect
afghan
afghanistan
afghans
afp
africa
african
africans
after
ag
again
against
age
aged
agence
agencies
agency
agenda
agent
agents
ages
aggression
agnes
agnosticism
ago
agree
agreed
agreement
agreements
agricultural
agriculture
agro
ah
ahead
ahmad
ahmed
ai
aid
aids
aim
aims
air
aircraft
airport
aj
ak
akbar
al
alan
albany
albert
alcohol
aleph
alex
alexander
alexandria
alexis
alfred
algeria
ali
alice
alien
aljazeera
all
allah
allan
allen
alliance
allied
allies
allocated
allow
allowed
almost
alone
along
alpha
alphabet
already
also
alt
alternative
although
always
am
amazon
ambedkar
ambrose
amendment
america
american
americans
americas
amid
amino
amir
amnesty
among
amount
amsterdam
amy
an
analyses
analysis
anarchism
anarchist
anarchists
anarcho
anarchy
anatomy
anb
anc
ancestor
ancestors
ancestry
ancient
and
anderson
andmete
andre
andrea
andreas
andrew
andrews
android
andy
andyal
angela
angeles
anger
anglo
angry
animal
animals
ann
anna
annals
anne
anniversary
announces
annual
annurev
another
anscombe
answer
answers
anthony
anthropocene
anthropological
anthropology
anti
antiquity
antisemitism
antonio
antony
anxiety
any
anything
ao
ap
apa
apart
apartheid
aperti
api
apj
apollo
apparent
appeal
appear
appearance
appears
appendix
appl
apple
application
applications
applied
apply
approach
approaches
appropriate
approves
apps
apr
april
aps
aq
ar
arab
arabia
arabian
arabic
arabs
archaeological
archaeology
archimedes
archinform
architecture
archive
archived
archivedate
archives
arctic
are
area
areas
areu
argentina
argument
arguments
arid
aristotle
arizona
ark
arm
armed
armenia
armenian
arms
army
arnold
around
arrested
art
arthur
article
articles
artificial
artist
artists
arts
arxiv
aryan
as
ash
asher
ashgate
asia
asian
aside
ask
asked
asp
aspects
aspx
assange
assault
assembly
assessing
assessment
asset
assets
assistance
associated
associates
association
assyrian
astrobiology
astronomical
astronomy
astrophysical
astrophysics
at
ataturk
atheism
atheist
atklata
atlantic
atlas
atm
atmosphere
atmospheric
atom
atomic
atp
attack
attacks
attempt
attempts
attention
attitudes
attorney
attribution
atvira
au
audio
aug
august
austin
australia
australian
austria
austrian
aut
auteur
author
authoritarian
authorities
authority
authors
autobiography
autonomous
autonomy
av
available
avatud
average
aviation
avoimen
avrich
aw
award
awards
awareness
away
ax
ay
az
azerbaijan
aziz
b
b0
b1
b2
b3
b4
b5
b6
b7
b8
b9
ba
babelio
babur
baby
babylon
back
background
bacteria
bacterial
bad
bag
bahrain
bailey
baker
balance
baldwin
balfour
balkh
ball
baltimore
ban
band
bang
bangkok
bangladesh
bank
banks
bankı
bannon
baptist
bar
barack
barbara
bare
barnes
barnum
baron
barry
bartleby
baruch
base
based
basic
basin
basis
bassi
battle
bay
bazaar
bb
bbc
bc
bce
bd
be
beacon
bear
bearing
beat
beautiful
beauty
beauvoir
became
because
become
becomes
becoming
bed
been
before
began
begin
beginning
beginnings
begins
behavior
behavioral
behaviorism
behaviour
behind
bei
beijing
being
beings
belarus
belief
beliefs
believe
believed
bell
belloc
belonging
below
belt
ben
bench
benefit
benefits
benjamin
bennett
bentley
berg
berkeley
berlin
bernard
bernstein
berry
best
beta
better
betty
between
beweb
beyond
bezos
bf
bg
bh
bi
bias
bibcode
bible
biblical
bibliographique
bibliographisches
bibliotheque
bid
biden
big
biggest
bill
billion
billionaire
bin
binding
bio
biochemical
biochemistry
biodiversity
biographical
biographie
biographies
biography
biol
biological
biology
bios
biotechnology
bird
birth
birthday
bishop
bissau
bit
bitcoin
bitstream
bj
bjp
bk
bl
black
blackwell
blair
blake
blast
blight
blind
block
blockchain
blocks
blog
blood
bloomberg
bloomsbury
blow
blue
blunt
bm
bmj
bn
bnf
bo
board
bob
boca
bodies
body
bollywood
bomb
bombay
bonald
bond
bone
bones
book
bookchin
books
boost
border
borders
boris
born
boston
bosworth
bot
botany
both
bottom
boulder
boundaries
boundary
bowler
box
boy
boyd
boyle
bp
bq
br
brace
bradley
brain
branch
branches
brave
brazil
bread
break
breaking
brett
brexit
brian
bride
bridge
brief
bright
brights
brill
bring
bringing
bristol
britain
britannica
british
broad
broadcast
broadcasting
broadway
brockhaus
broken
bronze
brookings
brooks
brother
brothers
brought
brown
browne
brozovic
bruce
brunei
bruno
bs
bt
bts
bu
buckley
bud
buddha
buddhism
buddhist
budding
budget
buffett
build
building
buildings
built
bulletin
bunsen
burden
bureau
burke
burkina
burma
burnet
burns
burundi
bus
bush
business
but
butler
bv
bw
bx
by
byzantine
bz
c
c0
c1
c2
c3
c4
c5
c6
c7
c8
c9
ca
cabinet
cable
caco
calculation
calendar
calhoun
california
call
called
calling
calls
calvin
cambridge
came
camel
cameron
camp
campaign
campbell
can
canada
canadian
canal
cancer
candidate
cannot
canon
cao
capacity
cape
capital
capitalism
capitalist
capitol
car
carbon
card
cardiac
cardiomyopathy
cards
care
career
careless
carl
carlos
carlson
carlyle
carnegie
carol
carolina
caroline
carrie
carried
carroll
carry
carter
carver
case
cases
cast
castro
cat
catalana
catalog
catalogue
categories
category
catherine
catholic
catt
caucasus
cause
caused
causes
cave
cavendish
cb
cbc
cbignore
cbs
cc
ccl
cd
cdc
cdots
cdr
ce
cell
cells
cellular
cengage
censorship
census
center
centers
central
centre
centuries
century
ceo
certain
certificate
cf
cfc
cg
cgi
ch
chain
challenge
challenges
chamber
chamberlain
chambers
chan
chance
chandra
chang
change
changed
changes
changing
channel
chapel
chapman
chapter
character
characteristics
charge
charging
charity
charles
charlotte
chart
charter
chechen
chechnya
check
chem
chemical
chemistry
chen
chest
chesterton
chi
chicago
chief
chiesacattolica
child
childhood
children
chimpanzee
china
chinese
choice
chomsky
choose
chosen
chretien
chris
christ
christian
christianity
christians
christine
christopher
chromosome
chronicle
chronology
chrysanthemum
church
churches
churchill
ci
cia
cid
circle
circuit
circulation
cis
citation
citationclass
cite
cited
cities
citing
citizen
citizens
citizenship
city
civil
civilian
civilians
civilisation
civilization
civilizations
cixous
cj
ck
cl
claim
claimed
claims
clamp
clarendon
clark
clarke
clash
class
classic
classical
classics
classification
claude
clay
clean
cleaning
clear
clements
cleveland
clifford
climate
climatic
climax
clinical
clinton
clio
clock
close
cloth
clothes
cloud
club
cluster
cm
cn
cnbc
cnn
co
coal
coalition
coast
coastal
coccus
code
codes
cognition
cognitive
cohen
coined
coins
cold
cole
coleridge
coli
colin
collaboration
collapse
collected
collection
collections
collective
college
collingwood
collins
colonial
colonialism
colonies
colonization
colony
color
colorado
columbia
columbus
com
combat
combined
come
comes
coming
command
commander
commentary
comments
commerce
commercial
commission
commissioner
committee
common
commonly
commons
commonwealth
communal
communication
communications
communism
communist
communists
communities
community
companies
companion
company
comparative
compare
comparing
comparison
competition
complete
completely
complex
complexity
components
composed
composition
compound
compounds
comprehensive
computer
computing
con
concept
concepts
conceptual
concern
concerning
concerns
concise
conclusion
condition
conditions
conference
confidence
config
confirmed
conflict
conflicts
confucianism
congo
congress
congressional
connected
connecticut
connection
connor
conquest
conscience
conscious
consciousness
consensus
consequences
conservation
conservatism
conservative
consider
considered
conspiracy
constant
constitution
constitutional
construction
consumer
consumption
contact
container
containing
contemporary
content
context
contexts
continent
continental
continue
continued
continuum
contract
contrast
contribution
contributions
control
controlled
controversial
controversy
convention
conversation
conversion
conway
cook
cooper
cooperation
coplen
copper
coppice
copy
copyright
cor
cord
core
corn
cornell
coronary
coronavirus
corporate
corporation
correct
correspondence
corruption
cors
cos
cosmic
cosmology
cosmos
cost
costa
costs
cotton
could
council
count
counter
countries
country
county
coup
courier
course
court
cov
covenant
cover
covering
covid
cow
cox
cp
cpu
cq
cr
craig
crash
crawford
crc
create
created
creating
creation
creationism
creative
creator
credit
crime
crimea
crimes
criminal
crisis
criteria
critical
criticism
critics
critique
crop
crops
cross
crow
crowd
crown
crucial
cruz
cry
crystal
cs
ct
cths
ctrl
cu
cuba
cultural
culture
cultures
culver
cup
currency
current
curtis
custom
customs
cut
cutting
cv
cw
cx
cy
cycle
cycles
cynthia
cyril
cyrus
cz
czech
d
d0
d1
d2
d3
d4
d5
d6
d7
d8
d9
da
dados
daily
dale
dalibor
dallas
dam
damage
dame
dan
dance
dangerous
daniel
danish
dans
danych
dar
dari
dark
darkness
darryl
darwin
darwinism
das
data
database
datan
dataplattform
date
dated
dates
dati
dating
datos
datu
datumoj
daughter
david
davidson
davies
davis
dawes
dawn
day
days
db
dc
dd
ddt
de
dead
deadly
deal
dean
death
deaths
debate
debates
deborah
debt
dec
decade
decades
december
decision
declaration
decline
deep
default
defeat
defence
defends
defense
defined
defining
definition
definitions
deforestation
degree
degruyter
del
delhi
della
delle
delta
demand
demanding
democracy
democratic
democrats
demographic
demography
den
denial
denis
denmark
dennis
density
department
depression
dept
der
derek
derived
des
descartes
descent
deschise
describe
described
description
desert
design
desire
desmond
despite
destroyed
destruction
detail
details
detection
determination
determined
detroit
deutsche
developed
developing
development
developmental
developments
devices
dewey
df
dg
dh
di
diagnosis
diamond
diana
diane
diaspora
dickinson
dictatorship
dictionaries
dictionary
did
die
died
diego
dies
difference
differences
different
differentiation
difficult
digital
dignity
dimensions
din
diogenes
dioxide
diplomacy
diplomat
diplomatic
dir
direct
directed
direction
directly
director
directorate
directory
dirty
disaster
discharge
discipline
discogs
discourse
discovered
discovery
discrete
discrimination
discussion
disease
diseases
dish
disinformation
disk
disorder
disorders
display
displaystyle
dispute
disraeli
distance
distinct
distinction
distinguish
distinguished
distress
distribution
district
districts
divergence
diversity
divide
divided
divine
division
divorce
dj
dk
dl
dm
dn
dna
do
doc
docs
doctor
doctrine
document
documentary
documents
does
dog
doi
doing
dollar
domain
domestic
dominant
domination
don
donald
donbas
done
donetsk
donnees
door
dordrecht
dorothy
dos
double
doubleday
douglas
douglass
dover
down
download
downloadpdf
dp
dq
dr
draft
dream
dress
drinking
drive
driven
driver
drop
drought
drug
drugs
drum
dry
ds
dt
du
dual
dualism
dublin
dudley
due
duke
duncan
dung
duomenu
dupree
durham
during
dust
dutch
duty
dv
dw
dwight
dworkin
dx
dy
dynamic
dynamics
dynasty
dz
e
e0
e1
e2
e3
e4
e5
e6
e7
e8
e9
ea
each
earl
earlier
earliest
early
earth
earthen
earthquake
east
eastern
easy
eat
eb
ec
ecological
ecology
economic
economics
economies
economist
economists
economy
ecosystem
ecs
ed
eden
edge
edinburgh
edison
edited
edith
edition
editions
editor
editorial
editors
edmund
eds
edu
eduard
education
educational
edward
edwards
edwin
ee
eerdmans
ef
effect
effective
effects
efficacy
efficiency
effort
efforts
efron
eg
egypt
egyptian
eh
ei
eight
eighteenth
eine
einstein
eisenhower
either
ej
ek
el
elder
eleanor
elected
election
elections
electoral
electric
electrical
electricity
electromagnetic
electronic
element
elements
elimination
eliot
elisabeth
elite
elizabeth
ella
ellen
elliott
ellis
elon
elsevier
em
embassy
emerged
emergence
emergency
emerging
emerson
emily
emissions
emma
emmanuel
emperor
emphasis
empire
empires
empirical
employed
employment
empty
en
encarta
enciclopedia
enciklopedija
encounter
encyclopaedia
encyclopedia
encyclopedic
encyclopædia
end
ended
ending
endless
ends
enemies
enemy
energy
eng
engels
engine
engineer
engineering
engineers
england
english
enlightenment
enough
enseignement
enter
enterprise
entertainment
entire
entirely
entity
entries
entry
environment
environmental
enzy
enzyklopadie
enzyme
eo
ep
epa
epidemic
epidemiology
episode
epistemology
eq
equal
equality
equipment
equity
er
era
erectus
eric
erik
ernest
ernst
erosion
error
es
especially
esposito
essay
essays
essential
est
established
establishment
estado
estaing
estate
estimate
estimated
estimates
et
etal
etc
eternal
ethical
ethics
ethiopia
ethnic
ethnicity
ethnologue
etymology
eu
eucalyptus
eugene
eurasia
euro
europa
europe
european
ev
evaluation
evan
evans
eve
even
evening
event
events
eventually
ever
every
everyone
everything
evidence
evil
evolution
evolutionary
ew
ex
exact
examination
example
examples
except
exchange
exclusive
executive
exercise
exist
existence
existential
existing
exists
exit
expanded
expansion
expedition
experience
experiences
experiment
experimental
experiments
expert
experts
expired
explain
explained
explanation
exploitation
exploration
explore
exploring
express
expression
extended
extension
extent
external
externalid
extinction
extra
extreme
ey
eye
eyes
ez
f
f0
f1
f2
f3
f4
f5
f6
f7
f8
f9
fa
faber
face
facebook
faces
facing
fact
factbook
factor
factors
facts
faculty
failed
failure
fair
faire
faith
fake
fall
fallacies
fallacy
falling
falls
false
fame
families
family
famine
famous
fao
faq
far
faraday
farm
farmer
farmers
farming
faso
fast
fat
father
favor
fb
fc
fd
fda
fe
fear
feature
features
feb
february
federal
federation
feed
feel
feeling
feet
feldman
felix
fellow
fellows
fem
female
fembio
feminine
feminism
feminist
fernandez
ferry
fever
few
feynman
ff
fg
fh
fi
fiber
fiction
field
fields
fifth
fifty
fig
fight
fighters
fighting
figure
figures
file
files
film
filmportal
films
final
finally
finance
financial
find
findagrave
finding
finds
fine
finger
fire
firm
first
fischer
fish
fisher
five
fixed
fj
fk
fl
flag
flash
flat
fleming
flight
flood
floor
florida
flow
flower
fluid
fly
flying
fm
fn
fo
focus
follow
followed
following
food
foolish
foorumi
foot
for
forbes
force
forced
forces
ford
fordham
foreign
forensic
forest
forestry
forests
forgotten
forkel
form
formal
format
formation
formed
former
formerly
forms
fort
fortune
forty
forum
forward
fossil
fossils
foster
fought
found
foundation
foundations
founded
founder
founders
founding
four
fourth
fowler
fox
fp
fq
fr
frac
fragaria
fragment
frame
framework
francaise
france
frances
francesco
francis
francisco
franco
francois
frank
franklin
franz
frau
fraud
frauendatenbank
fred
frederic
frederick
free
freedom
freeman
french
frequently
fresh
fried
friedan
friedman
friedrich
friend
friends
friendship
fritz
from
front
frontier
frontiers
fruit
fruits
fs
ft
fu
fuel
full
fuller
fully
fun
func
function
functional
functions
fund
fundamental
fundamentals
funding
fur
further
future
futures
fv
fw
fx
fy
fz
g
g0
g1
g2
g3
g4
g5
g6
g7
g8
g9
ga
gabriel
gain
galaxy
galbraith
gale
galilei
galileo
gallup
gambia
game
games
gamma
gandhi
gao
gap
garcia
garden
garland
gary
gas
gases
gates
gathering
gaulle
gave
gay
gazette
gazetteer
gb
gc
gd
gdp
ge
gec
gen
gender
gene
genealogie
genealogy
geneastar
general
generally
generation
genes
genesis
genetic
genetics
geneva
genius
genocide
genome
genus
geo
geoffrey
geographic
geographical
geography
geological
geology
geophysical
georg
george
georges
georgia
geoscience
gerald
gerhard
german
germany
geschichte
get
gets
getting
getty
gf
gg
gh
ghana
ghazni
gi
giant
gibbs
gift
gilbert
gini
girl
girls
giscard
giuseppe
give
given
gives
giving
gj
gk
gl
gladstone
glasgow
glass
glenn
global
globalization
globe
glossary
glottolog
gm
gn
gnd
gns
go
goal
goals
goat
god
gods
godwin
goes
going
gokhale
gold
golden
goldman
goldstein
gone
gonzalez
good
goods
google
gordon
gorkəmli
got
gottfried
gould
gov
governance
government
governments
governor
govt
gp
gprs
gq
gr
grace
graham
grain
grammar
gran
grand
grant
grass
grave
gravity
gray
great
greater
greatest
greece
greek
greeks
green
greene
greenhouse
greenwood
greg
gregor
gregory
gross
ground
group
groups
grove
grow
growing
grown
growth
grup
gruyter
gs
gsdlmod
gsm
gt
gu
guard
guardian
guidance
guide
guidelines
guillaume
guinea
gulf
gun
gupta
guru
gutenberg
guthrie
guy
gv
gw
gx
gy
gz
h
h0
h1
h2
h3
h4
h5
h6
h7
h8
h9
ha
habitat
had
hadith
hair
hajj
hale
half
hall
hamilton
hammarstrom
han
hand
handbook
handle
hands
handsome
hanifa
hannah
hans
hansard
hansen
happen
happened
happiness
happy
haqqında
harald
harbor
harcourt
hard
harding
harold
harper
harpercollins
harriet
harris
harrison
harry
hart
harvard
harvey
harvp
harvtxt
has
hasan
hash
haspelmath
hassan
hate
hatred
have
haven
having
hay
hayek
hayes
hb
hc
hcl
hd
hdi
hdl
he
head
health
healthy
hearing
heart
heat
heath
heaven
heavy
hebrew
hegel
heidelberg
height
heinrich
held
helen
helena
helene
hellenistic
heller
helmand
helmut
heloise
help
helped
hence
henderson
henri
henry
her
herald
herat
herbert
here
heritage
herman
hermann
hero
herodotus
heroic
hf
hg
hh
hi
hidden
hierarchy
high
higher
highest
highly
hilaire
hill
hillary
him
himself
hindi
hindu
hinduism
hippolyte
his
histoire
historia
historian
historians
historic
historical
historically
histories
history
hit
hitler
hits
hiv
hj
hk
hl
hm
hn
hno
ho
hobbes
hoffman
hold
holding
holds
hole
holland
hollande
holmes
holocaust
holt
holy
home
hominid
hominin
homo
homosexuality
hong
honor
hooke
hoover
hope
hopkins
horn
horse
hospital
host
hot
houghton
hour
hours
house
housing
houston
how
howard
howe
however
hp
hq
hr
hrc
hrvatska
hs
ht
htm
html
http
https
hu
hubble
hudson
huffington
huge
hugh
hughes
human
humanism
humanist
humanitarian
humanities
humanity
humans
hume
hundred
hungarian
hungary
hunger
hunt
hunter
hutchinson
huxley
hv
hw
hx
hy
hybrid
hyde
hygiene
hypothesis
hz
i
i0
i1
i2
i3
i4
i5
i6
i7
i8
i9
ia
iain
ian
ib
ibm
ibn
ibrahim
ic
ica
ice
icon
id
idea
ideal
idealism
ideas
identifiants
identification
identified
identify
identities
identity
ideologies
ideology
idle
ie
iea
ieee
if
ig
ih
ii
iii
ij
ik
il
ill
illegal
illinois
illness
illustrated
ilo
ils
im
image
images
imam
imdb
imf
img
immanuel
immigration
immune
immunity
impact
impacts
impeachment
imperial
imperialism
implications
importance
important
impossible
imslp
in
inauguration
inc
include
included
includes
including
income
increase
increasing
indeed
independence
independent
index
india
indian
indiana
indians
indica
indicate
indicators
indigenous
individual
individualism
individualist
individuals
indo
indonesia
induced
induction
indus
industrial
industries
industry
inequality
inf
infection
infections
infectious
inference
influence
influenza
info
infobase
infobox
informal
information
infrastructure
inge
inheritance
initial
initiative
inner
innovation
inorganic
inpho
inphoproject
inquiry
insects
inside
insider
insight
insights
instead
institut
institute
institution
institutional
institutions
instruction
instrument
insurgency
insurgents
int
integrated
integration
intellect
intellectual
intelligence
intelligent
intention
inter
interaction
interactions
interactive
interdisciplinary
interest
interests
interface
interference
intergovernmental
interior
internal
international
internet
interpretation
intervention
interview
intimate
into
intransitive
introduced
introducing
introduction
invasion
invention
investigation
investment
invisible
involved
io
ion
ip
ipcc
iq
ir
ira
iran
iranian
iranica
iraq
ireland
iris
irish
iron
irrigation
is
isaac
isabart
isaiah
isbn
isfdb
isi
isis
islam
islamabad
islamic
island
islands
isn
iso
israel
iss
issn
issue
issues
istanbul
it
italian
italy
item
ithaca
its
itself
iu
iucn
iupac
iv
ivan
iw
ix
iy
iz
j
j0
j1
j2
j3
j4
j5
j6
j7
j8
j9
ja
jack
jackson
jacob
jacobs
jacques
jama
jamaica
james
jan
jane
janet
january
japan
japanese
jason
jay
jazeera
jb
jc
jd
je
jean
jeff
jefferson
jeffrey
jenkins
jennifer
jeremy
jerome
jerry
jersey
jerusalem
jesse
jesus
jewish
jews
jf
jg
jh
ji
jihad
jim
jimmy
jj
jk
jl
jm
jn
jo
joachim
job
jobs
joe
joel
johan
johann
johannes
john
johns
johnson
johnston
join
joint
jon
jonathan
jones
jordan
jose
josef
joseph
joshua
josiah
journal
journalism
journalist
journalists
journals
journey
joy
jp
jpg
jq
jr
js
jsp
jstor
jt
ju
juan
judaism
judge
judgment
judith
jules
julex
julia
julian
julie
julius
july
jump
jun
june
just
justice
justin
jv
jw
jx
jy
jz
k
k0
k1
k2
k3
k4
k5
k6
k7
k8
k9
ka
kabul
kaiser
kamala
kandahar
kansas
kant
kapil
kaplan
karachi
karen
karl
karzai
kashmir
katalogisering
kate
kathleen
kaufman
kaufmann
kazakhstan
kb
kc
kcl
kd
ke
keep
keeping
keith
kelly
ken
kennedy
kenneth
kent
kentucky
kenya
kept
kevin
key
keynes
kf
kg
kh
khan
khyber
ki
kilani
kill
killed
killing
kills
kim
kind
kindred
kinds
king
kingdom
kings
kirk
kitchen
kj
kk
kl
klaus
klein
kluwer
km
kn
knight
knopf
know
knowing
knowledge
known
knox
ko
koh
kong
korea
korean
kp
kq
kr
kramer
krishna
krleza
ks
kt
ku
kumar
kurt
kuwait
kv
kw
kwame
kx
ky
kyoto
kz
l
l0
l1
l2
l3
l4
l5
l6
l7
l8
l9
la
lab
label
labor
laboratory
labour
lack
ladan
laden
lady
laertius
lahore
laissez
lake
lamb
lan
lancet
land
lands
landscape
lane
lang
langer
language
languages
lanham
lanius
lanka
laos
lapidus
larawbar
large
largely
larger
largest
larry
larson
las
laser
last
late
later
latest
latin
latter
launch
launches
laura
laurent
law
lawrence
laws
layer
lb
lc
lccn
ld
ldl
le
lead
leader
leaders
leadership
leading
leads
leaf
league
leap
learn
learned
learning
least
leather
leave
leaves
leaving
lebanon
lecture
lectures
led
lee
left
leg
legacy
legal
legislation
lehmann
lehmer
leibniz
leiden
leipzig
leksikon
length
lenin
leo
leon
leonard
leone
les
lesbian
leslie
less
lessons
lester
let
letter
letters
level
levels
levi
levy
lewis
lexicographical
lexicon
lexington
lf
lg
lgbt
lh
li
lib
liberal
liberalism
liberation
libertaire
libertarian
libertarianism
libertarians
liberties
liberty
libraries
library
libris
libya
license
liddell
lide
lie
lies
life
light
like
likely
limit
limited
limits
lincoln
linda
lindberg
line
lines
linguistic
linguistics
link
linked
links
lippincott
lisa
list
lists
lit
literacy
literally
literary
literature
little
littlefield
liu
live
lived
liver
liverpool
lives
living
lj
lk
ll
llc
lloyd
lm
ln
lo
load
loc
local
location
locke
log
logic
logical
london
long
longer
longman
look
looking
looks
loose
lopez
lord
los
loss
lost
louis
louise
louisiana
love
lovejoy
low
lowe
lower
lp
lq
lr
ls
lt
ltd
lu
lua
luca
lucas
luck
ludwig
lukacs
luke
lumotlar
lunar
lundy
lv
lw
lx
ly
lyndon
lynn
lyon
lz
lzmk
m
m0
m1
m2
m3
m4
m5
m6
m7
m8
m9
ma
macaulay
macdonald
machine
mackenzie
macmillan
macron
madagascar
made
madison
madrid
magazine
magnetic
mahatma
mail
main
maine
mainly
mainstream
maint
maistre
majesty
major
majority
make
makes
making
malala
malcolm
male
malferma
mali
malik
malumat
mammals
man
management
manager
manchester
manfred
manifest
manifesto
mann
manner
manual
manuel
many
map
mapping
maps
mar
marc
march
marcus
margaret
maria
marie
marine
mario
maritime
mark
marked
market
marketing
markets
marks
marquis
marriage
mars
marshall
martha
marti
martial
martin
martineau
martinez
marx
marxism
marxist
marxists
mary
maryland
masculine
mashaalradio
mason
mass
massachusetts
massive
master
masters
material
materialism
materials
math
mathbb
mathbf
mathematical
mathematics
matt
matter
matters
matthew
matthias
mature
maurice
mauritius
max
maximum
maxwell
may
maya
maynard
mayr
mb
mc
mcfarland
mcgraw
mckay
md
me
mean
meaning
meanings
means
measure
measurement
measures
measuring
meat
mecca
mechanical
mechanics
mechanism
mechanisms
med
medal
media
medical
medicine
medieval
medina
mediterranean
medium
meet
meeting
meija
melbourne
member
members
membership
memoir
memoirs
memorial
memory
men
mendel
mental
mercury
merely
merriam
mesopotamia
message
messenger
met
meta
metabrainz
metal
metals
metaphysics
meteorological
meteorology
methane
method
methods
methyl
metropolitan
mexican
mexico
meyer
mf
mg
mh
mhz
mi
michael
michel
michigan
micro
microbiology
microeconomics
microsoft
mid
middle
mifflin
might
migration
miguel
mike
miles
militant
militants
military
milk
milky
mill
millennium
miller
million
millions
mills
milton
min
mind
minds
mineral
minerals
minimal
mining
minister
ministers
ministry
minnesota
minor
minorities
minority
minutes
miriam
miroslav
mirror
mises
misinformation
mispy
miss
missing
mission
missouri
mit
mitchell
mitigation
mixed
mj
mk
ml
mm
mmhg
mn
mnras
mo
mobile
mode
model
models
modern
modernity
modified
module
mohammad
mohammed
mol
molecular
molecules
molotov
moment
monarchy
monde
monetary
money
monitor
monitoring
monotheism
montgomery
month
monthly
months
montreal
moon
moore
moral
morality
more
morgan
morning
morocco
morris
mortality
morton
moscow
moses
mosque
most
mostly
mother
motion
motlanthe
motor
mount
mountain
mountains
mouse
mouth
move
movement
movements
moving
mp
mq
mr
mrna
mrrd
mrs
ms
msc
mt
mu
much
mughal
muhammad
mullah
muller
multi
multiple
mumbai
munzinger
murder
murdoch
murphy
murray
muscle
muse
museum
music
musical
musicbrainz
musk
muslim
muslims
must
mutation
mutual
mv
mw
mx
my
myanmar
myth
mythology
myths
mz
məlumat
n
n0
n1
n2
n3
n4
n5
n6
n7
n8
n9
na
naacp
nabdp
nabi
nach
nacional
name
named
names
nancy
nangarhar
naoh
napoleon
narrative
narrow
nasa
nathan
nation
national
nationale
nationalism
nationalist
nationality
nations
native
nato
natuknica
natur
natural
naturalism
nature
naval
navy
nazi
nb
nbc
nc
ncbi
nd
ne
neanderthal
neanderthals
near
nearly
nebraska
necessary
nee
need
needed
needs
negative
negro
neil
neill
nelson
neo
neolithic
nerve
ness
net
netherlands
network
networks
neural
neuroscience
neutral
never
neville
new
newly
newman
news
newsletter
newspaper
newsweek
newton
next
nf
ng
nh
ni
nicaragua
niche
nicholas
nick
nicolas
nietzsche
nigeria
night
nih
nikola
nil
nine
nineteenth
ninth
nixon
nj
nk
nkcr
nkp
nkrumah
nl
nlm
nm
nn
nndb
no
noaa
noam
nobel
nobelprize
noble
node
noise
nomenclature
non
none
nonsense
nor
nordhoff
norge
normal
norman
norms
norske
north
northern
northwestern
norton
norway
norwegian
nose
not
notable
note
noted
notes
nothing
notice
notices
noun
nov
nova
novel
november
now
np
npr
nps
nq
nr
ns
nt
nu
nuclear
num
number
numbers
numeric
numerical
nunn
nursery
nursing
nussbaum
nv
nw
nx
ny
nyilt
nytimes
nz
nzdl
o
o0
o1
o2
o3
o4
o5
o6
o7
o8
o9
oa
oaks
oath
ob
obama
obituary
object
objective
objects
observations
observed
observer
oc
occupation
occupied
occur
occurs
ocean
oceans
och
ochiq
oclc
oct
october
od
odnb
odprte
odyssey
oe
oecd
oed
of
off
offensive
office
officer
officers
official
officials
offline
often
og
oh
ohchr
ohio
oi
oil
oj
ok
ol
old
older
oldest
oliver
om
oman
omar
omicron
on
once
one
ones
online
onlinelibrary
only
ontario
oo
op
opac
open
opendata
opening
opens
openstreetmap
operating
operation
operations
opinion
oppen
opportunities
opportunity
opposed
opposite
opposition
oppression
optical
option
options
oq
or
oral
orbit
order
orders
ordinary
org
organic
organisation
organism
organisms
organization
organizations
organized
oriental
orientation
origin
original
originally
origins
ornament
ort
orthodox
ortiz
os
osce
ospina
ot
otevrena
other
others
otto
ottoman
otvorenih
otvorenog
otvorenych
otwartych
ou
oup
our
out
outer
outline
outlines
outlook
output
outside
ouvertes
ov
over
overview
ow
owen
own
owned
ownership
ox
oxford
oxfordhb
oxidation
oxygen
oy
oz
p
p0
p1
p2
p3
p4
p5
p6
p7
p8
p9
pa
pac
pace
pacific
package
packet
pact
page
pages
paid
pain
paine
pair
pais
pajhwok
pakistan
pakistani
paktika
pal
paleolithic
palestine
palgrave
palmer
pan
pandemic
panel
panipat
paper
paperback
papers
papyrus
par
para
paradise
paragraph
parallel
parents
paris
park
parker
parks
parliament
parliamentary
parsons
part
partial
particle
particles
particular
particularly
parties
partition
partner
partnership
parts
party
pas
pascal
pashto
pashtun
pashtuns
pass
passage
passed
passes
passing
password
past
patent
paternal
path
pathans
pathology
patients
patricia
patrick
pattern
patterns
paul
pay
pb
pbs
pc
pd
pdf
pdfs
pdp
pe
peace
peak
pearson
pedagogy
pediatrics
peer
peerage
pen
penalty
pence
pencillin
penguin
peninsula
penn
pennsylvania
pentagon
people
peoples
per
percent
perception
perceptions
perennial
perez
perfect
performance
performed
perhaps
period
periodic
permanent
perpetual
perry
perseus
persia
persian
person
persona
personal
personality
persone
persons
perspective
perspectives
persuasion
pertaining
peru
peshawar
peter
peters
peterson
petroleum
pew
pf
pfizer
pg
ph
phase
phd
phenomena
phi
phil
philadelphia
philip
philipp
philippe
philippine
philippines
phillip
phillips
philosopher
philosophers
philosophical
philosophy
philpapers
phosphate
photo
photos
photosynthesis
php
phrase
phys
physical
physician
physics
physiology
pi
piattaforma
picture
pictures
piece
pieces
pierce
pierre
pii
pine
pinter
pinus
pioneer
pitch
pittsburgh
pj
pk
pl
place
placed
places
plague
plan
planck
planet
planetary
planets
planning
plans
plant
plants
plasma
plataforma
plateau
plateforme
platform
platforma
platforması
platformja
platformo
platformu
plato
plattform
platvormi
play
played
playing
pleasure
pleistocene
plos
ploso
plot
plural
plus
pluto
pm
pmatrix
pmc
pmid
pn
pnas
po
podataka
podatke
poet
poetry
poets
poincare
point
points
poland
polar
pole
poles
police
policies
policy
polish
political
politico
politics
polity
poll
pollution
poly
pone
pool
poor
pop
pope
popper
popular
population
populations
por
port
portal
porter
portion
portrait
portuguese
position
positions
positive
possible
post
posts
pot
potential
poverty
powell
power
powerful
powers
pp
ppm
ppp
pq
pr
practical
practice
practices
praeger
praise
prayer
pre
precipitation
predicting
prediction
preface
prefix
pregnancy
prehistoric
prehistory
prejudice
preliminary
premier
prentice
preparation
prepared
presence
present
presentation
presented
preservation
presidency
president
presidential
presidents
press
presses
pressure
preston
pretty
prevent
prevention
previous
previously
price
prices
pride
priestley
primarily
primary
prime
primitive
prince
princeton
principal
principia
principle
principles
print
printed
printer
printing
prior
prison
prisoners
privacy
private
privilege
prize
pro
probability
probably
probe
problem
problems
proc
proceedings
process
processes
processing
produce
produced
product
production
productivity
products
prof
profession
professional
professor
profile
profiles
profit
program
programme
programs
progress
progressive
project
projects
prokhorov
proleksis
promise
promoting
pronunciation
proof
propaganda
propagation
proper
properties
property
prophet
prophets
proposed
prose
prospects
protect
protected
protection
protein
proteins
protest
protestant
protests
proto
protocol
proud
proudhon
provide
provided
provides
province
provinces
provincial
proxy
pruning
ps
pseudo
psychiatry
psychological
psychology
pt
pu
pub
public
publication
publications
published
publisher
publishers
publishing
pubs
puerto
pulmonary
punishment
punjab
pure
purpose
pursuit
push
put
putin
putnam
putting
pv
pw
px
py
pz
q
q0
q1
q2
q3
q4
q5
q6
q7
q8
q9
qa
qadınlar
qaeda
qatar
qb
qc
qd
qe
qf
qg
qh
qi
qj
qk
ql
qm
qn
qo
qp
qq
qquad
qr
qs
qt
qu
quality
quantity
quantum
quarter
quarterly
quaternary
que
queen
quest
question
questions
quick
quincy
quite
quote
quoted
qur
quran
qv
qw
qx
qy
qz
r
r0
r1
r2
r3
r4
r5
r6
r7
r8
r9
ra
race
rachel
racial
racism
radiation
radical
radio
rage
rahman
raid
rain
raise
ralph
ram
ramadan
ramaphosa
ramsay
rand
random
range
rank
ranked
ranking
rao
rape
rapid
rare
rate
rates
rather
ratio
rational
rationalism
rationality
raton
rawls
ray
raymond
rb
rc
rd
re
reach
reaction
read
reader
reading
readings
ready
reagan
real
realism
reality
really
reason
reasoning
reasons
rebecca
rebel
rebellion
rebels
rec
received
receiver
recent
recently
recognition
recognized
recommendations
reconstruction
record
recorded
records
recovery
red
reduce
reduction
reed
ref
refcelebrite
refer
reference
references
referentiels
referred
refers
reflections
reform
refugee
refugees
regard
regarded
regarding
regeneration
regia
regime
region
regional
regions
register
registration
regulation
regulatory
reich
reid
reign
related
relating
relation
relations
relationship
relationships
relative
relativity
release
released
relevance
religion
religions
religious
remain
remains
remarks
remembering
remote
renaissance
rene
renewable
repair
report
reported
reporter
reporters
reporting
reports
repository
representation
representatives
repression
reprint
reprinted
reproduction
reproductive
republic
republica
republican
republique
requested
required
requirements
res
research
researchers
researchgate
reserve
resistance
resistant
resolution
resource
resources
respect
respiratory
response
responses
responsibility
responsible
rest
result
results
rethinking
retrieved
return
returns
reuters
reuther
rev
reveal
revealed
reveals
review
reviews
revised
revision
revisited
revival
revolution
revolutionary
revolutions
reynolds
rf
rg
rh
rhetoric
rhodes
ri
rica
rice
rich
richard
richards
richardson
richest
rico
right
rights
ring
rio
riot
rise
rising
risk
risks
ritchie
river
rivers
rj
rk
rl
rm
rn
rna
ro
road
robert
roberts
robertson
robin
robinson
roc
rock
rocks
roger
roglo
rohi
role
roles
roll
rom
roman
romantic
rome
ronald
room
roosevelt
root
roots
rope
rorty
rosa
rose
rosen
roser
ross
rot
rotation
rothbard
rough
round
route
router
routledge
row
rowman
roy
royal
rp
rq
rr
rs
rstb
rt
ru
rubber
rudolf
rug
ruin
rule
ruler
rulers
rules
ruling
run
running
ruolo
rural
rush
russel
russell
russia
russian
russians
rutgers
ruth
rutherford
rv
rw
rx
ry
ryan
rz
s
s0
s1
s2
s3
s4
s5
s6
s7
s8
s9
sa
sack
sacred
sad
saddam
saddle
sade
safe
safety
sagan
sage
sahara
saharan
said
saint
sale
salt
sam
same
samsung
samuel
san
sanctions
sand
sanders
sandy
sanitation
sanskrit
santa
sapiens
sara
sarah
sarkozy
sars
satellite
saturn
saud
saudi
saunders
save
saving
saw
say
saying
says
sb
sc
scale
scan
scarecrow
scattered
schmidt
schmitt
schneider
scholar
scholars
scholarship
school
schools
schuster
sci
science
sciencedaily
sciencedirect
sciences
scientific
scientism
scientist
scientists
scienze
scope
scotland
scott
scottish
screen
scribner
script
scripts
scruton
sd
sdg
sdgs
se
sea
sean
search
season
seat
seattle
sebastian
sec
second
secondary
secret
secretariat
secretary
secrets
section
sector
secular
secularism
security
see
seed
seeds
seek
seeks
seems
seen
seismic
select
selected
selection
self
semanticscholar
semi
semitism
sen
senate
senator
send
senegal
senior
sense
sensory
sent
sentinel
sep
separate
separation
sept
september
sequence
sequences
serial
series
serious
server
service
services
session
set
sets
setting
settled
settlement
seven
seventeenth
seventh
several
severe
sex
sexism
sextus
sexual
sexuality
sf
sfnp
sg
sgsn
sh
shadow
shah
shakespeare
shall
shape
shaped
shaping
share
sharealike
shared
sharma
sharon
sharp
sharpe
shaw
she
shed
sheep
sheet
shell
shelter
shepherd
sher
sherman
shi
shift
shifted
ship
shop
short
shot
should
show
showing
shows
shrubs
shtml
si
sic
sid
side
siege
sierra
sight
sign
signal
significance
significant
signs
sikh
sikhism
sikhs
silence
silent
silicon
silk
silver
sim
similar
simon
simone
simple
simply
simpson
sin
since
singapore
singer
singh
single
singular
sinopharm
sinus
sinuses
sio
sir
sister
site
sites
situation
six
sixteenth
sixth
size
sj
sk
skepticism
skeptics
skin
sky
sl
slate
slave
slavery
slaves
sleep
slip
slippery
slovenia
slow
sm
small
smart
smell
smith
smithsonian
smoke
smoking
sn
snac
snaccooperative
snl
snow
so
soc
soci
social
socialism
socialist
socialists
societies
society
sociological
sociology
sodium
soft
software
soil
sojourner
solar
sold
soldier
soldiers
solid
solomon
solution
solutions
some
someone
something
sometimes
son
song
sons
sony
soon
sophie
sort
soul
sound
source
sources
south
southeast
southern
sovereign
soviet
soyuz
sp
space
spacex
spain
spanish
speak
speaker
speakers
speaking
speaks
special
species
specific
spectrum
speculative
speech
speed
spell
spencer
spiegel
spinoza
spirit
spiritual
split
spoken
sports
spot
spp
spread
spreading
spring
springer
sq
square
sr
sri
ss
ssr
ssrn
st
stability
stable
staff
stage
stages
stalin
stamp
stand
standard
standards
standing
stanford
stanley
stanton
star
stars
start
started
starting
stat
state
statement
states
statesman
station
statistical
statistics
statistik
stats
status
stay
steam
steel
stein
stem
step
stephanie
stephen
steps
stern
steve
steven
stevens
stewart
still
stock
stone
stop
storage
store
stories
storm
story
stout
straight
strange
strategic
strategies
strategy
strauss
straw
stream
street
strength
stress
strike
string
strip
stripes
strong
structural
structure
structures
struggle
sts
stuart
student
students
studies
study
stupid
style
su
sub
subcontinent
subject
subjects
subscription
substance
success
successful
succession
successor
such
sudan
suetonius
suffering
suffrage
sugar
suggest
suggested
suggests
suicide
sullivan
sultan
sum
summary
summer
summit
sumner
sun
sunday
sunnah
sunni
suny
sup
super
superheavy
superieur
superior
suppl
supplement
supply
support
supported
supporting
supremacy
supreme
sur
surface
survey
survival
susan
susanne
susceptibility
sustainability
sustainable
sv
svalbard
sw
swaziland
sweden
sweet
swift
swiss
switch
switching
switzerland
sword
sx
sy
sydney
symbol
symbols
symposium
symptoms
syndrome
synthesis
syracuse
syria
syrian
system
systematic
systems
sz
t
t0
t1
t2
t3
t4
t5
t6
t7
t8
t9
ta
taand
tab
table
tafsir
taine
taiwan
tajik
tajikistan
take
taken
takes
taking
talbot
tale
taliban
talk
talks
tan
tandfonline
tank
tanzania
tape
target
targets
task
taste
tauris
tax
taxonomy
taylor
tb
tc
td
te
teacher
teachers
teaching
team
tech
technical
techniques
technological
technologies
technology
ted
teeth
tehran
telecommunications
telegraph
television
tell
tells
telugu
temperature
temple
ten
tene
tenth
term
terminal
terms
terraces
terrestrial
territories
territory
terror
terrorism
terrorist
terry
tesla
test
testament
testing
tests
texas
text
textbook
texts
tf
tg
th
thai
thailand
than
that
the
theatre
their
theism
them
themes
themselves
then
theodore
theological
theology
theorem
theoretical
theories
theory
thepeerage
therapy
there
therefore
theresa
thermal
thermodynamics
these
thesis
they
thin
thing
things
think
thinker
thinkers
thinking
thinning
third
this
thomas
thompson
thomson
thoreau
those
though
thought
thoughts
thousand
thousands
thread
threat
threats
three
through
throughout
thus
ti
tibet
ties
till
tim
timber
time
timeline
times
timor
timothy
tiny
tissue
title
tj
tk
tl
tm
tn
to
tocqueville
today
todd
together
tolafghan
told
tolerance
toll
tom
tomislav
tongue
tony
too
took
tool
toolforge
tools
top
topic
topics
topology
torino
toronto
torture
total
tour
tourism
toward
towards
tower
town
towns
tp
tq
tr
trace
track
tracker
tracking
trade
trading
tradition
traditional
traditions
traffic
trail
training
trans
transactinide
transaction
transactions
transcript
transfer
transformation
transition
transitive
translated
translation
translations
translator
transmission
transport
transportation
travel
treatise
treatment
treaty
tree
trees
trends
trial
trials
tribal
tribe
tribes
tribune
trip
troop
troops
tropical
trotsky
trouble
trudeau
true
truman
trump
trunk
trust
truth
ts
tsh
tt
ttta
tu
tube
tucker
tufts
tunisia
turk
turkey
turkic
turkish
turkmenistan
turks
turn
turned
turner
tv
tw
twelve
twentieth
twenty
twist
twitter
two
tx
ty
tyler
type
types
typically
tz
u
u0
u1
u2
u3
u4
u5
u6
u7
u8
u9
ua
uae
ub
uber
uc
uchicago
ucla
ud
udajov
ue
uf
ug
uganda
ugly
uh
ui
uj
uk
ukraine
ukrainian
ul
ultimate
ultra
um
umts
un
unabridged
uncle
und
under
underlying
understand
understanding
understood
undp
une
unemployment
unep
unesco
unfccc
unger
unhcr
unicef
union
unique
unit
united
units
unity
univ
universal
universals
universe
universities
university
unknown
unported
until
untold
uo
up
update
updated
uploads
upon
upper
uq
ur
uranium
urban
urbanization
urdu
url
us
usa
usage
usaid
usda
use
used
useful
useless
user
uses
usgs
using
ussc
ussr
usually
ut
utc
utfzz
utopia
utopian
uu
uv
uw
ux
uy
uz
uzbekistan
v
v0
v1
v2
v3
v4
v5
v6
v7
v8
v9
va
vaccination
vaccine
vaccines
vain
validation
valley
value
values
valve
van
var
variant
variation
variations
varieties
variety
various
vb
vc
vd
vdots
ve
vegetation
veil
vein
veins
venezuela
verb
verilerin
verlag
version
versus
vertebrate
very
vf
vg
vh
vi
via
vice
victims
victor
victoria
victorian
victory
video
videos
vienna
vietnam
view
viewcontent
views
vii
viii
viking
village
vincent
vintage
violence
violent
virginia
virtual
virus
viruses
visible
vision
visit
visual
vit
vital
vitamin
vj
vk
vl
vladimir
vm
vn
vo
vocabulary
voice
voices
vol
volume
volumes
voluntary
von
vote
votes
voting
vox
voyage
vp
vpn
vq
vr
vs
vt
vu
vulnerability
vv
vw
vx
vy
vz
w
w0
w1
w2
w3
w4
w5
w6
w7
w8
w9
wa
wadsworth
wage
wagner
wales
walk
walker
walking
wall
wallace
walsh
walter
walton
wang
want
wanted
wants
war
ward
ware
warfare
warm
warming
warner
warning
warns
warren
warrior
wars
was
washington
waste
watch
water
waters
watson
watt
wave
waves
way
wayback
wayne
ways
wb
wc
wd
we
weak
wealth
weapons
wear
weast
weather
weaver
web
weber
website
webster
week
weekly
weight
weights
weizsacker
welcome
welfare
well
welle
wells
went
were
wesley
west
western
westminster
westport
wf
wg
wh
what
wheat
wheeler
when
where
whether
which
while
white
who
whole
whom
whose
why
wi
wide
widely
widespread
wife
wiki
wikidata
wikileaks
wikipedia
wikisource
wild
wildlife
wiley
wilhelm
wilkins
will
willard
william
williams
williamson
wilson
win
wind
window
wine
wing
winner
winning
wins
winston
winter
wireless
wisconsin
wisdom
wise
wish
wissen
with
withdrawal
within
without
wj
wk
wl
wm
wn
wo
wolf
woman
women
won
wood
wooden
woodrow
woods
word
wordpress
words
work
worker
workers
working
works
world
worldbank
worlds
worldwide
worn
worse
worship
worst
worth
would
wounded
wozniak
wp
wq
wr
wright
write
writer
writers
writing
writings
written
wrong
wrote
ws
wt
wu
wv
ww
www
wx
wy
wz
x
x0
x1
x2
x3
x4
x5
x6
x7
x8
x9
xa
xb
xc
xd
xe
xf
xg
xh
xi
xii
xiii
xiv
xix
xj
xk
xl
xm
xml
xn
xo
xp
xq
xr
xs
xt
xu
xv
xvi
xvii
xw
xx
xy
xz
y
y0
y1
y2
y3
y4
y5
y6
y7
y8
y9
ya
yahoo
yale
yang
yb
yc
yd
ye
year
yearbook
years
yellow
yeltsin
yes
yet
yf
yg
yh
yi
yj
yk
yl
ym
yn
yo
york
you
young
your
youth
youtube
yp
yq
yr
ys
yt
yu
yv
yw
yx
yy
yyy
yz
z
z0
z1
z2
z3
z4
z5
z6
z7
z8
z9
za
zalta
zb
zc
zd
ze
zealand
zeitschrift
zenodo
zero
zf
zg
zh
zhang
zi
ziegler
zimbabwe
zionism
zj
zk
zl
zm
zn
zo
zone
zones
zoology
zp
zq
zr
zs
zt
zu
zuckerberg
zuma
zur
zv
zw
zx
zy
zz
{
|
}
~
£
§
¨
©
ª
«
¬
®
¯
°
±
²
³
´
µ
·
º
»
½
¿
×
ß
æ
ð
÷
ø
þ
đ
ı
ł
ŋ
œ
ſ
ǝ
ɐ
ɑ
ɒ
ɔ
ɕ
ɘ
ə
ɛ
ɡ
ɣ
ɤ
ɨ
ɪ
ɳ
ɻ
ɾ
ʁ
ʃ
ʈ
ʊ
ʌ
ʏ
ʑ
ʒ
ʔ
ʕ
ʰ
ʲ
ʹ
ʻ
ʼ
ʾ
ʿ
ˈ
ˌ
ː
α
ανοικτων
β
γ
δ
δεδομενων
ε
ζ
η
θ
ι
κ
λ
μ
ν
ξ
ο
π
πλατφορμα
ρ
ς
σ
τ
υ
φ
χ
ψ
ω
ϕ
а
адкрытых
асыҡ
ачык
ашық
б
банк
боз
большая
в
видатних
выдающихся
відкритих
г
гг
года
гом
д
даних
данни
данноиеслэн
данных
даных
деректер
додаҳои
е
ж
женщинах
жінок
з
за
зьвестак
и
к
коргузулердиҥ
л
м
маалыматтарды
малюмат
миг
мэдээллиин
мәғлүмәт
н
на
нты
нээлттэи
о
отворени
отворените
отвореног
открытых
п
платформ
платформа
платформазы
платформаи
платформасы
платформаһы
плятформа
по
података
податоци
про
р
с
советская
т
тавцан
у
усьтэм
ф
х
ц
ч
ш
щ
ъ
ы
ь
э
энциклопедия
ю
я
є
і
інформаціі
ј
ћ
ѵ
ғ
қ
ҡ
ҥ
ү
ҳ
һ
ӏ
ә
ө
ա
բ
բաց
դ
ե
ի
լ
հ
մ
յ
ն
շ
շտեմարան
ո
ս
վ
տ
տվյալների
ր
ց
ւ
א
ב
ד
ה
ו
ז
ח
י
ך
כ
ל
ם
מ
ן
נ
ס
ע
פ
ק
ר
ש
ת
״
،
؛
؟
ء
ا
اء
اب
ابا
اباد
اباده
ابادي
ابادۍ
اباسين
اباسین
ابتدا
ابتدايي
ابتدایي
ابتدایی
ابتکار
ابجد
ابدال
ابدالي
ابداليانو
ابدي
ابر
ابراهام
ابراهيم
ابراهیم
ابراهیمي
ابرهه
ابن
ابهام
ابو
ابوالحسن
ابوبكر
ابوبکر
ابوحنيفه
ابوداود
ابوذر
ابوسفيان
ابوطالب
ابونعيم
ابوهريره
ابى
ابي
ابيطالب
ابی
ابېڅې
ات
اتاترک
اتباع
اتباعو
اتحاد
اتحادي
اتحاديه
اتحاديو
اتحاديې
اتحادیه
اتحادیو
اتحادیې
اتر
اترو
اتريش
اتریش
اترې
اتسيز
اتش
اتصال
اتفاق
اتفاقي
اتل
اتلان
اتلانتا
اتلانتيک
اتلانتیک
اتلانو
اتلس
اتلسم
اتلسمه
اتلسمې
اتلسو
اتلولي
اتلولۍ
اتم
اتمانخيل
اتمر
اتمه
اتموسفير
اتموسفیر
اتمي
اتمې
اتن
اته
اتو
اتوم
اتومات
اتومسفیر
اتومسفیري
اتومه
اتوموسفیر
اتومونه
اتومونو
اتومي
اتيا
اتکا
اتڼ
اتیا
اثار
اثارو
اثبات
اثر
اثرات
اثره
اثرونه
اثير
اج
اجاره
اجازت
اجازه
اجازې
اجباري
اجتماع
اجتماعي
اجتماعی
اجتهاد
اجداد
اجدادو
اجر
اجرا
اجراء
اجرااتو
اجرالدین
اجرايي
اجراييه
اجراييوي
اجرايیه
اجرايیوي
اجرایوي
اجزا
اجزاو
اجزاوو
اجزاوې
اجسام
اجسامو
اجل
اجماع
اجمعين
اجمل
اجناس
اجناسو
اجنډا
اح
احاديث
احاديثو
احادیث
احادیثو
احاطه
احتجاج
احتراق
احترام
احتمال
احتمالا
احتمالاتو
احتمالي
احتياط
احتیاط
احد
احداث
احزاب
احساس
احساسات
احساساتو
احساساتي
احساسوي
احسان
احسن
احصايوي
احصايې
احصایوي
احصایې
احكام
احمد
احمدزي
احمدزی
احمدشاه
احمدشاهي
احمدي
احنافو
احوال
احکام
احکامو
احیا
اخ
اخبار
اخبارونو
اخبرنا
اختر
اختراع
اختراعات
اختراعاتو
اختصار
اختصاصي
اختصاصی
اختلاف
اختلافات
اختلافاتو
اختلافونه
اختلافونو
اختلافي
اختلال
اختلالات
اختلالاتو
اخته
اختيار
اختيارات
اختياروي
اختياري
اختیار
اختیاري
اخذ
اخر
اخراج
اخرت
اخره
اخرون
اخري
اخری
اخستل
اخستلو
اخستنه
اخستنې
اخسته
اخستو
اخستونکي
اخستى
اخستي
اخستی
اخستې
اخلاص
اخلاق
اخلاقو
اخلاقي
اخلاقی
اخلم
اخلو
اخلي
اخلی
اخلې
اخند
اخندزاده
اخوا
اخوان
اخوند
اخوندزاده
اخيست
اخيستل
اخيستلو
اخيستنه
اخيستنې
اخيسته
اخيستو
اخيستونکي
اخيستونکی
اخيستى
اخيستي
اخيستی
اخيستې
اخیر
اخیست
اخیستل
اخیستلو
اخیستنه
اخیستنې
اخیسته
اخیستو
اخیستونکو
اخیستونکي
اخیستونکی
اخیستي
اخیستی
اخیستې
اخېستل
اخېستلو
اخېستنه
اخېستنې
اخېستې
اد
ادا
اداء
اداب
ادابو
اداره
ادارو
ادارى
اداري
اداری
ادارې
ادامه
اداکار
ادب
ادبى
ادبي
ادبيات
ادبياتو
ادبی
ادبیات
ادبیاتو
ادرار
ادراك
ادراک
ادراکي
ادرس
ادريس
ادریس
ادعا
ادعاوو
ادعاوې
ادغام
ادلون
ادم
ادوارد
اديانو
اديب
اديبان
اديبانو
ادیان
ادیانو
ادیب
ادې
اذا
اذان
اذربايجان
اذربایجان
ار
اراده
ارادو
ارادي
ارادې
اراضي
ارام
ارامتیا
ارامه
ارامي
ارامۍ
اراى
ارايه
اراک
اراکوزيا
ارباب
ارت
ارتباط
ارتباطات
ارتباطاتو
ارتباطي
ارتباطی
ارتجاعي
ارتداد
ارتفاع
ارتفاعاتو
ارتقا
ارتودوکس
ارتور
ارتکاب
ارث
ارثي
ارجاع
ارجنټاين
ارجنټاین
اردبيل
اردن
اردو
اردوغان
ارزان
ارزانه
ارزو
ارزول
ارزولو
ارزونه
ارزونو
ارزونې
ارزوي
ارزي
ارزيابي
ارزښت
ارزښتمن
ارزښتمند
ارزښتمنه
ارزښتمنو
ارزښتناک
ارزښتناکه
ارزښته
ارزښتونه
ارزښتونو
ارزګان
ارزگان
ارزیابي
ارسال
ارستو
ارسطو
ارسلان
ارشاد
ارشميدس
ارشيف
ارشیف
ارغسان
ارغستان
ارغنداب
ارقام
ارقامو
ارقم
ارل
ارمان
ارمانونه
ارمانونو
ارماني
ارمغان
ارمنستان
ارمني
ارمينيا
ارنست
ارنسټ
ارنولډ
ارنومد
ارنۍ
اره
ارو
اروا
ارواه
اروايي
ارواپوه
ارواپوهنه
ارواپوهنې
ارواښاد
اروایي
اروزګان
ارونو
اروپا
اروپايانو
اروپايي
اروپایان
اروپایانو
اروپایي
اروپایی
اريا
اريانا
اريايانو
اريايي
ارين
ارټ
ارچي
ارک
ارکان
ارګ
ارګان
ارګانونو
ارګانیزم
ارګانیزمونه
ارګانیزمونو
ارګانېزم
ارګون
ارگ
ارگان
ارگانيزمونه
اریانا
اریایي
ارین
اریوب
ارې
از
ازاد
ازادانه
ازاده
ازادو
ازادولو
ازادوي
ازادي
ازاديو
ازاديږي
ازادی
ازادیو
ازادۍ
ازادې
ازار
ازبک
ازبکستان
ازبکي
ازمايل
ازمايښت
ازمايښتي
ازمایښت
ازموينه
ازموينو
ازمويني
ازموينې
ازمویل
ازموینه
ازموینو
ازموینې
ازمېښت
ازمېښتونه
ازمېښتونو
ازمېښتي
ازهر
ازیرگل
اس
اسارت
اساس
اساسا
اساسات
اساساتو
اساسنامه
اساسى
اساسي
اساسی
اسامبله
اسامبلی
اسامبلۍ
اسامبلې
اسامه
اسان
اسانتيا
اسانتياوو
اسانتياوې
اسانتیا
اسانتیاوو
اسانتیاوې
اسانج
اسانه
اسانو
اساني
اسانی
اسانۍ
اسباب
اسبابو
است
استاد
استادان
استادانو
استاده
استادي
استادۍ
استاذ
استاذانو
استازو
استازولي
استازولۍ
استازى
استازي
استازيتوب
استازی
استازیتوب
استازې
استان
استانبول
استبداد
استبدادي
استثمار
استثنا
استثناء
استثنايي
استحصال
استحکام
استخباراتو
استخباراتي
استخدام
استخراج
استدلال
استدلالونه
استدلالونو
استدلالي
استراحت
استراليا
استرالیا
استشهاد
استعاره
استعارې
استعداد
استعدادونو
استعفا
استعمار
استعماري
استعمال
استعمالول
استعمالوي
استعماليږي
استعمالیږي
استعمالیږی
استعمالېږي
استفاده
استفادي
استفادی
استفادې
استقامت
استقبال
استقرار
استقلاب
استقلال
استلین
استناد
استنباط
استنبول
استنتاج
استهلاک
استو
استوا
استواء
استوانه
استوايي
استوایي
استول
استولو
استونیا
استوي
استوګن
استوګنه
استوګنو
استوګنځای
استوګنځایونو
استوګنځي
استوګنځی
استوګنې
استوگن
استوگنه
استوگنې
استيعاب
استیضاح
اسحاق
اسحق
اسد
اسدالغابه
اسدالله
اسرار
اسرارو
اسراييل
اسراييلو
اسرايیل
اسرايیلو
اسراییل
اسراییلو
اسعار
اسعارو
اسعد
اسعداباد
اسقف
اسلام
اسلامك
اسلامى
اسلامي
اسلاميه
اسلامپوهنه
اسلامی
اسلامیه
اسلم
اسلوب
اسم
اسما
اسماء
اسمار
اسماعيل
اسماعیل
اسمان
اسمانونه
اسمانونو
اسماني
اسمبلۍ
اسمعيل
اسمعیل
اسمي
اسناد
اسنادو
اسهال
اسهامو
اسونه
اسونو
اسيا
اسيايي
اسيد
اسيدونه
اسيدونو
اسير
اسټراليا
اسټرالیا
اسپانوي
اسپانيې
اسپانیا
اسپانیایي
اسپيزيا
اسکندر
اسکول
اسیا
اسیايي
اسیایي
اسید
اسیدونه
اسیر
اسیډ
اسیډونو
اش
اشاره
اشارو
اشاروي
اشاري
اشارې
اشتاین
اشتباه
اشتراکي
اشتقاق
اشتها
اشخاص
اشخاصو
اشراف
اشرافانو
اشرافو
اشرافي
اشرف
اشعار
اشعارو
اشعري
اشغال
اشنا
اشنايي
اشور
اشوري
اشوریانو
اشوکا
اصالت
اصحاب
اصحابو
اصطلاح
اصطلاحا
اصطلاحات
اصطلاحاتو
اصطلاحي
اصغر
اصف
اصفهان
اصل
اصلا
اصلاح
اصلاحات
اصلاحاتو
اصلاحي
اصله
اصلى
اصلي
اصليت
اصلی
اصلیت
اصول
اصولو
اصولي
اصيل
اضافه
اضافي
اضطراب
اضطراري
اط
اطاعت
اطراح
اطراف
اطرافو
اطريش
اطریش
اطفال
اطفالو
اطلاع
اطلاعات
اطلاعاتو
اطلاعاتي
اطلاق
اطلس
اظهار
اع
اعتبار
اعتباره
اعتدال
اعتراض
اعتراضونو
اعتراف
اعتصاب
اعتقاد
اعتقادي
اعتماد
اعتمادي
اعجاز
اعداد
اعدادو
اعدام
اعراض
اعراضو
اعزاز
اعشاريه
اعصاب
اعصابو
اعظم
اعظمي
اعلام
اعلاميه
اعلاميې
اعلامیه
اعلامیې
اعلان
اعلاناتو
اعلانولو
اعلانونو
اعلى
اعليحضرت
اعلی
اعلیحضرت
اعمال
اعمالو
اغا
اغاز
اغذباغ
اغزن
اغزي
اغلې
اغوستل
اغوستلو
اغوستې
اغوندي
اغيز
اغيزمن
اغيزه
اغيزو
اغيزي
اغيزې
اغیز
اغیزمن
اغیزمنتوب
اغیزمنه
اغیزه
اغیزو
اغیزی
اغیزې
اغېز
اغېزمن
اغېزمنتوب
اغېزمنتیا
اغېزمنه
اغېزمنو
اغېزمنوي
اغېزمنې
اغېزناک
اغېزناکتیا
اغېزناکه
اغېزناکو
اغېزناکې
اغېزه
اغېزو
اغېزې
اف
افاتو
افاده
افت
افتاب
افتخار
افتخاري
افتونه
افتونو
افراد
افرادو
افراز
افرازوي
افراط
افراطي
افراطی
افريقا
افريقايي
افریقا
افریقايي
افریقایان
افریقایانو
افریقایي
افریقایی
افریل
افزایش
افسانه
افسانو
افسانوي
افسانې
افسر
افسران
افسرانو
افسردګي
افسوس
افشا
افشار
افشاني
افشانۍ
افضل
افعال
افعالو
افغا
افغان
افغانان
افغانانو
افغانستان
افغانستانه
افغانه
افغاني
افغانيو
افغانی
افغانیو
افغانۍ
اففانستان
افق
افقي
افكارو
افلاطون
افکار
افکارو
اق
اقا
اقامه
اقبال
اقتباس
اقتدار
اقتصاد
اقتصادونه
اقتصادونو
اقتصادي
اقتصادپوه
اقتصادپوهانو
اقتصادی
اقدام
اقدامات
اقداماتو
اقرار
اقسام
اقل
اقليم
اقليمي
اقلیت
اقلیتونو
اقلیم
اقلیمي
اقوالو
اقوام
اقيانوس
اك
اكاډمۍ
اكبر
اكثريت
اكرم
ال
الا
الاباما
الات
الاتو
الاثار
الاحکام
الاخبار
الارشيف
الارض
الازهر
الاسلام
الاسلامي
الاسلامية
الاسکا
الاشراف
الاصل
الاصله
الاعتدال
الافغان
الامام
الامت
الانوار
الانين
الاول
الاولياء
الباري
البانيا
البانیا
البته
البخاري
البدايه
البرت
البرز
البرټ
البقرة
البقره
البلاغه
البلد
البلدونو
البم
البنا
البوم
البيت
البکر
البېروني
الت
التاريخ
الترمذي
التنزيل
التهاب
التهابي
التواريخ
الثاني
الجبر
الجراح
الجزاير
الجزایر
الجهاد
الجي
الجيان
الجيانو
الحاج
الحاد
الحاق
الحجروي
الحديث
الحديد
الحدیث
الحرام
الحرم
الحسن
الحسين
الحق
الحمد
الحنفي
الحکومه
الخط
الخطاب
الخلفاء
الد
الدرالمنثور
الدوله
الدين
الديهايد
الديهايدونه
الديهايدونو
الدین
الذي
الذين
الر
الرحمان
الرحمن
الرحيم
الرشید
الرژي
الزامي
الزمان
الزهرا
الزواوي
الزوايد
الس
السراج
السلام
السلطنه
السنة
الش
الشان
الشيخ
الشیخ
الص
الصحه
الصحې
الط
الطارق
الطالب
الطبعة
العاده
العاص
العالم
العرب
العربي
العربية
العضویت
العلم
العلماء
العلوم
العمل
الف
الفا
الفاظ
الفاظو
الفبا
الفت
الفتح
الفرد
الفرېډ
الفقه
القاح
القاعده
القاعدې
القدر
القران
القضات
القلي
الكوزي
الل
الله
اللهم
الم
الماس
المال
المان
الماني
المانی
المثل
المحرر
المحررون
المستدرك
المسلمين
المسلمین
المعارف
المقدس
المللي
المللی
الملک
المنافع
المودة
المولفون
المومنين
المومنین
المونيم
المونیم
المپیک
المیلاد
الن
الناس
النبي
النساء
النضره
النهر
النهرين
النهرین
النوع
اله
الهام
الهند
الهي
الهی
الهیات
الهیاتو
الو
الوت
الوتنه
الوتنو
الوتنې
الوتونکو
الوتونکي
الوتکه
الوتکو
الوتکې
الوجود
الوزي
الوسيط
الوصول
الى
الي
الياس
اليزابت
الين
اليه
اليوم
الپ
الکان
الکانونه
الکانونو
الکايل
الکاین
الکترو
الکتروليت
الکترومقناطیسي
الکترون
الکترونونه
الکترونونو
الکتروني
الکترونیکي
الکتریکي
الکحل
الکساندر
الکوزي
الکوزی
الکول
الکولو
الکولي
الکوټ
الی
الیاس
الیزابت
الیزابیت
الیزابېت
الیس
الینور
الینیشن
الیه
الې
ام
اما
اماده
امارات
اماراتو
امارت
امازون
امام
امامان
امامانو
امامت
امامه
اماميانو
اماميه
امان
امانت
اماني
امبولانس
امبېدکار
امبېکي
امت
امتحان
امتداد
امتياز
امتيازات
امتيازاتو
امتیاز
امتیازات
امتیازاتو
امد
امداد
امده
امر
امراض
امراضو
امريت
امريكا
امريكايي
امريکا
امريکايان
امريکايانو
امريکايي
امريکايې
امريکاګانو
امريکې
امریت
امریکا
امریکايي
امریکايۍ
امریکایان
امریکایانو
امریکایي
امریکایی
امریکې
امستردام
امسټرډام
امضا
امكان
املا
املاکو
امله
امن
امنه
امنيت
امنيتي
امنيه
امنیت
امنیتي
امنیتی
امنیه
امو
اموال
اموالو
امور
امورو
اموزش
امونيا
امونيم
امونیا
اموي
اميد
امير
اميرالمومنين
امين
امينو
اميه
امپدوكلس
امپراتور
امپراتوري
امپراتوریو
امپراتورۍ
امپراطور
امپراطوري
امپراطوری
امپراطورۍ
امپرياليزم
امپریالیزم
امکان
امکانات
امکاناتو
امید
امیر
امیرالمومنین
امین
امینو
امېندوارۍ
ان
انا
اناتولي
اناتولیا
اناتومي
اناتوميکي
انار
انارشيزم
انارشیزم
انارشیست
انارشیستي
انارشېزم
انارشېست
انارو
انارکو
انان
انبار
انبساط
انتان
انتانات
انتاني
انتخاب
انتخابات
انتخاباتو
انتخاباتي
انتخابونو
انتخابي
انتروپولوژي
انترکتيکا
انترکتیکا
انترکس
انتشار
انتشارات
انتصاب
انتظار
انتظام
انتفاعي
انتقاد
انتقادي
انتقال
انتقالوي
انتقالي
انتقاليږي
انتقالېږي
انتقام
انتن
انتنونه
انتها
انتوني
انتونیو
انتى
انتي
انتيجن
انتی
انجام
انجلس
انجلۍ
انجمن
انجن
انجنير
انجنيري
انجنيرۍ
انجنیر
انجنیران
انجنیرانو
انجنیري
انجنیرۍ
انجونو
انجونې
انجيل
انجينر
انجينري
انجينير
انجیل
انجیلي
انجینر
انجینري
انجینرۍ
انحراف
انحصار
انحصاري
انحضرت
انحطاط
انحلال
اند
انداز
اندازه
اندازو
اندازي
اندازی
اندازې
اندام
اندلس
انده
اندو
اندورا
اندونه
اندونو
اندونيزيا
اندونیزیا
اندي
اندړ
اندړو
اندیښنه
اندۍ
اندېښمن
اندېښنه
اندېښنو
اندېښنې
انرژي
انرژی
انرژۍ
انزال
انزايم
انزايمونه
انزایمونو
انزوا
انس
انساب
انساج
انساجو
انسان
انسانان
انسانانو
انساني
انسانيت
انسانی
انسانیت
انستيتوت
انستيتيوت
انستیتوت
انستیتیوت
انستېتیوت
انسجام
انسولين
انسټيټيوټ
انسټیټیوټ
انشا
انشاء
انشټاین
انشټین
انصار
انصارو
انصاري
انصاف
انضباط
انطباق
انعام
انعطاف
انعکاس
انفرادي
انفراديت
انفرادیت
انفلاسيون
انفلاسیون
انفلونزا
انفلوينزا
انقباض
انقراض
انقلاب
انقلابونه
انقلابونو
انقلابي
انكار
انكشاف
انلاین
انما
انه
انها
انو
انواع
انواعو
انور
اني
انيس
انټر
انټرفس
انټرنيټ
انټرنيټي
انټرنټ
انټرنټي
انټرنیټ
انټرنیټی
انټرنېټ
انټرنېټي
انټروپي
انټي
انځر
انځور
انځورونه
انځورونو
انځوروي
انځورګر
انځورګري
انځورګرۍ
انځورگر
انچه
انډرايد
انډروميډا
انډریو
انډول
انډيا
انډیانا
انکار
انکشاف
انکشافي
انګارليځ
انګريزانو
انګريزي
انګریز
انګریزان
انګریزانو
انګریزي
انګریزې
انګرېز
انګرېزانو
انګرېزي
انګرېزۍ
انګلز
انګلستان
انګلنډ
انګلو
انګليس
انګليستان
انګليسي
انګلیس
انګلیستان
انګلیسي
انګلیسی
انګور
انګورو
انګولا
انګیرل
انګیزه
انګېرل
انګېرنه
انګېرنو
انګېرنې
انګېري
انګېزه
انګېزې
انگار
انگازې
انگريزانو
انگريزي
انگریز
انگریزانو
انگریزي
انگریزی
انگرېز
انگرېزان
انگرېزانو
انگرېزي
انگرېزۍ
انگلستان
انگليس
انگليسي
انگلیسي
انگلیسی
انگور
انگورو
انگړ
انگیزه
انیس
اه
اهتزاز
اهتمام
اهداف
اهدافو
اهرام
اهل
اهلبيت
اهلبيتو
اهلي
اهم
اهمه
اهميت
اهمیت
اهنګ
اهنگ
اهواز
اهورامزدا
او
اواره
اواز
اوازه
اوازونه
اوازونو
اوازې
اوامرو
اوب
اوباما
اوبتل
اوبدل
اوبدلو
اوبل
اوبلن
اوبله
اوبه
اوبو
اوبوته
اوبوکې
اوبيا
اوبړۍ
اوبیا
اوبې
اوتر
اوتو
اوج
اوخوا
اوخپل
اود
اودا
اوداسه
اوداسي
اوداسی
اوداسې
اودخپل
اوددې
اودس
اودغه
اوده
اودهغه
اودهغې
اودوه
اودوهم
اور
اورانوس
اوربشې
اوربل
اوربند
اورد
اوردو
اورشيندي
اورنګ
اوره
اورو
اوروزنې
اورونه
اورونو
اوري
اوريدل
اوريدلو
اورپکو
اورښت
اورګاسم
اورګانيزمونو
اورګانیزم
اورګاډي
اورگان
اورگانيزم
اورگاډي
اورېدل
اورېدلو
اورېدلي
اورېدلې
اورېدو
اورېدونکو
اورېدونکي
اوزار
اوزبکستان
اوزبیکستان
اوزون
اوزيات
اوس
اوستا
اوسط
اوسلو
اوسمهال
اوسنى
اوسني
اوسنيو
اوسنی
اوسنیو
اوسنۍ
اوسنې
اوسه
اوسو
اوسي
اوسيدل
اوسيده
اوسيدو
اوسيدونکو
اوسيدونکي
اوسيږي
اوسپنه
اوسپني
اوسپنی
اوسپنې
اوسیدل
اوسیدو
اوسیدونکو
اوسیدونکي
اوسیدونکی
اوسیږي
اوسېدل
اوسېدلو
اوسېدلی
اوسېده
اوسېدو
اوسېدونكي
اوسېدونکو
اوسېدونکي
اوسېدونکی
اوسېدونکې
اوسېږي
اوصاف
اوضاع
اوغان
اوقات
اوكه
اول
اولاد
اولاده
اولادونه
اولادونو
اولادې
اولس
اولسمه
اولسمې
اولسوالۍ
اولسي
اولني
اولنی
اوله
اولي
اولیه
اولیور
اوم
اومه
اون
اونه
اونور
اونورو
اونيزه
اونيو
اونیزه
اونیو
اونۍ
اوه
اوهایو
اوهغه
اوهلته
اوهم
اوهمدارنګه
اوهمدارنگه
اوو
اووروسته
اوولس
اوولسمه
اوولسمې
اووم
اوومه
اوومې
اوون
اوونيزه
اوونۍ
اووه
اويا
اوياهم
اويو
اويوه
اوټ
اوټول
اوپرا
اوپن
اوپه
اوځينې
اوڅار
اوچت
اوچته
اوډل
اوډون
اوړه
اوړو
اوړي
اوړی
اوږد
اوږدمهاله
اوږدمهالې
اوږده
اوږدو
اوږدوالى
اوږدوالي
اوږدوالی
اوږدوکې
اوږدي
اوږدې
اوږه
اوږو
اوښ
اوښان
اوښانو
اوښتل
اوښتو
اوښتون
اوښتي
اوښتی
اوښتې
اوښكو
اوښه
اوښکو
اوښکې
اوکام
اوکراين
اوکرايني
اوکراین
اوکرایني
اوکله
اوکه
اویا
اویاهم
اى
اي
ايا
ايالات
ايالاتو
ايالت
ايالتونه
ايالتونو
ايالتي
اية
ايت
ايتايل
ايتر
ايترونه
ايتلاف
ايتلافي
ايتونه
ايتونو
ايثار
ايجاد
ايجنسۍ
ايران
ايراني
ايرانيانو
ايرانی
ايرلينډ
ايرو
ايرې
ايز
ايزه
ايزو
ايزې
ايس
ايسار
ايساف
ايستل
ايستلو
ايسته
ايف
ايفون
ايل
ايلام
ايله
ايم
ايمان
اين
اينده
اينزايم
ايوب
ايوبي
ايودايد
ايودين
ايون
ايونونه
ايونونو
ايوني
ايي
ايينه
ايټالوي
ايټاليا
ايټاليې
ايټالیا
ايپ
ايچ
ايډوارډ
ايډيال
ايډيټر
ايښودل
ايښودلو
ايښودنه
ايښودنې
ايښودونکی
ايښى
ايښي
ايښی
ايښې
ايکو
ايکوسيستم
ايکولوژي
ايکولوژيکي
ايکويانو
اټكل
اټموسفیر
اټوم
اټومي
اټک
اټکل
اټکلونه
اټکلونو
اټکلي
اپ
اپارتاید
اپريدي
اپريدی
اپريل
اپریدي
اپریل
اپرېل
اپل
اپلاتون
اپلاتوني
اپوزیسیون
اپولو
اپوټه
اپي
اپيتيل
اڅکزي
اڅکزی
اچ
اچار
اچول
اچولو
اچولي
اچولی
اچولې
اچونه
اچونې
اچوو
اچوي
اډانه
اډمز
اډمونډ
اډه
اډو
اډوارډ
اډولف
اډیسون
اډینبورګ
اډې
اړ
اړتيا
اړتيالري
اړتياوو
اړتياوي
اړتياوې
اړتیا
اړتیاو
اړتیاوو
اړتیاوې
اړخ
اړخه
اړخو
اړخونه
اړخونو
اړخي
اړخيز
اړخيزه
اړخيزو
اړخيزې
اړخی
اړخیز
اړخیزه
اړخیزو
اړخیزې
اړه
اړو
اړودوړ
اړول
اړولو
اړولي
اړولی
اړولې
اړوند
اړونده
اړوندو
اړوندې
اړوندېږي
اړوي
اړيكي
اړيكې
اړين
اړينه
اړينو
اړينې
اړيکه
اړيکو
اړيکي
اړيکې
اړین
اړینه
اړینو
اړینې
اړیکه
اړیکو
اړیکي
اړیکی
اړیکې
اژانس
اژه
اکا
اکادمی
اکاډمي
اکاډمیک
اکاډمیکو
اکاډمۍ
اکبر
اکبرشاه
اکتشاف
اکتشافاتو
اکتشافي
اکتوبر
اکثر
اکثرا
اکثره
اکثرو
اکثريت
اکثریت
اکدي
اکر
اکرام
اکرم
اکس
اکسايد
اکسايدونه
اکسايدونو
اکسايډ
اکساید
اکسایدونه
اکسایډ
اکسفورډ
اکسيجن
اکسيديشن
اکسیجن
اکسیدیشن
اکو
اکوادور
اکوړه
اکيډمي
اکټوبر
اکټیو
اګر
اګروفارستري
اګست
اګستيا
اګسټ
اګوست
اګوستوس
اگر
اگست
اگسټ
اں
ای
ایا
ایالات
ایالاتو
ایالاتونه
ایالاتونو
ایالت
ایالتونه
ایالتونو
ایالتي
ایبټ
ایت
ایتالیا
ایتلاف
ایتونه
ایتونو
ایتوپیا
ایجاد
ایداري
ایر
ایران
ایراني
ایرانی
ایرس
ایرلنډ
ایرلنډي
ایرلینډ
ایز
ایزنهاور
ایزه
ایزو
ایس
ایسار
ایساره
ایساف
ایستل
ایستلو
ایسلنډ
ایف
ایل
ایلام
ایم
ایمان
ایمرسن
این
اینونو
ایوان
ایوب
ایوبي
ایون
ایوني
ایټالوي
ایټالیا
ایچ
ایډیا
ایډیال
ایډیالوژي
ایډیالوژۍ
ایډیالیزم
ایښودل
ایښودنه
ایښودونکی
ایښی
ایک
ایکس
ایکوسیستم
ایکولوژي
ایکولوژیکي
اې
اېران
اېس
اېستل
اېستلو
اېف
اېل
اېم
اېن
اېوارډ
اېچ
اېډز
اېډوارډ
اېډېټ
اېښودل
اېښودلو
اېښودنې
اېښودو
اېښودونکو
اېښودونکي
اېښودونکی
اېښی
اېکس
اے
ب
با
باب
بابا
بابر
بابل
بابلي
بابلیانو
بابه
بابو
بابي
بابړ
بابړې
باثباته
باج
باجوړ
باخبره
باختر
باختري
باد
بادار
بادام
بادامو
بادرنگ
بادشاه
بادغيس
بادغیس
بادماتوونکې
بادونه
بادونو
بادي
بار
باران
بارانونه
بارانونو
باراني
بارسلونا
باره
بارو
باروت
باروتو
بارورۍ
باروز
بارون
بارونه
باروک
باري
بارټن
بارک
بارکزي
بارکزی
بارگام
باز
بازار
بازارونه
بازارونو
بازانو
بازل
بازی
باستیا
باسواده
باسي
باشا
باشد
باشند
باطل
باطله
باطن
باطني
باعث
باغ
باغونه
باغونو
باغي
باقاعده
باقر
باقي
باقی
بال
بالا
بالاحصار
بالاخره
بالتیک
بالغ
بالغو
بالفور
بالقوه
بالله
باله
بالون
بالي
باليووډ
بالډوین
بالکان
بالکل
بام
باميان
باميانو
بامیان
بامیانو
بانتو
بانجان
باند
باندني
باندنيو
باندنۍ
باندى
باندي
بانديني
باندينيو
باندی
باندې
بانفوذه
بانك
بانه
بانو
بانټو
بانډ
بانډو
بانک
بانکداري
بانکدارۍ
بانکس
بانکونه
بانکونو
بانکي
باوجود
باور
باوره
باورونه
باورونو
باوري
باورۍ
بايبل
بايد
بايده
بايدپه
بايزيد
بايل
بايډن
باپتیست
باچا
باچاخان
باډي
باډېل
باړه
باکتريا
باکترياو
باکترياوو
باکتریا
باکتریاوو
باکتریاوې
باکونین
باکټريا
باکچه
باڼه
بای
بایبل
باید
بایزید
بایو
بایوګاز
بایډن
ببر
ببرک
ببيروت
بت
بتانو
بجلي
بجو
بجې
بحارالانوار
بحث
بحثونه
بحثونو
بحر
بحران
بحراني
بحرونو
بحري
بحرين
بحرین
بخار
بخارا
بخاري
بخت
بختيار
بختياري
بخش
بخشی
بخښنه
بخښنې
بد
بدخشان
بدر
بدرګه
بدعت
بدل
بدله
بدلول
بدلولو
بدلون
بدلونونه
بدلونونو
بدلوي
بدليږي
بدلیږي
بدلې
بدلېدل
بدلېدو
بدلېدونکو
بدلېدونکي
بدلېدونکې
بدلېږي
بدمرغه
بدن
بدنه
بدني
بده
بدو
بدون
بدوي
بدي
بديع
بديل
بدیع
بدیل
بدۍ
بدې
بر
برابر
برابره
برابرو
برابرول
برابرولو
برابروي
برابري
برابريږي
برابرۍ
برابرې
برابرېږي
برات
برادر
برازيل
برازیل
براون
براي
برايت
برای
برایټ
بربر
بربري
بربنډ
برتانوي
برتانيا
برتانيه
برتانيې
برتانیا
برتانیې
برتري
برترۍ
برج
برجسته
برجونه
برجونو
برحاله
برخلاف
برخليک
برخلیک
برخمن
برخمنه
برخه
برخو
برخورد
برخوکې
برخى
برخي
برخی
برخې
برداشت
بررسي
برسيره
برسیره
برسېره
برعکس
برق
برقي
برقی
برلاسي
برلاسی
برلاسې
برلين
برلین
برلېن
برم
برما
برمه
برمودا
برن
برنارډ
برنامه
برنامې
برنس
برنو
برنولي
بره
برهان
بروس
برون
بروندي
برونز
برونزو
بروني
بروک
بروکسل
برى
بري
بريا
بريالى
بريالي
برياليتوب
برياليو
بريالی
بريالۍ
برياوو
بريتانوي
بريتانيا
بريد
بريده
بريدونه
بريدونو
بريليک
برينز
بريښنا
بريښي
برښنا
برک
برکت
برکته
برکلي
برکمن
برکونړ
برکي
برکې
برګ
بری
بریا
بریالي
بریالی
بریالیتوب
بریالۍ
بریاوو
بریاوې
بریتانوي
بریتانوی
بریتانویانو
بریتانيا
بریتانيې
بریتانیا
بریتانیې
برید
بریده
بریدونه
بریدونو
بریدګر
بریټانیا
بریښنا
بریښنالیک
بریښي
بریکوټ
برې
برېتانیا
برېښنا
برېښنالیک
برېښنايي
برېښناکوټ
برېښنایي
برېښي
بزرگ
بزرگترین
بزغلي
بزګر
بزګران
بزګرانو
بزگر
بزگران
بس
بست
بستر
بسته
بستونو
بسم
بسمارک
بسنه
بسونه
بسونو
بسيا
بسپنه
بسیا
بسیار
بسیاری
بشار
بشر
بشردوستانه
بشري
بشريت
بشرپال
بشرپالنې
بشری
بشریت
بشير
بشپړ
بشپړتيا
بشپړتیا
بشپړه
بشپړو
بشپړولو
بشپړي
بشپړې
بشپړېدو
بشیر
بصره
بصري
بصرې
بصیرت
بطرۍ
بطن
بطني
بطي
بعث
بعثت
بعد
بعدي
بعضو
بعضى
بعضي
بعضی
بعضې
بغاوت
بغاوتونه
بغاوتونو
بغداد
بغدادي
بغل
بغلان
بغير
بغیر
بــ
بفېټ
بقا
بقره
بكر
بل
بلا
بلاخره
بلاد
بلاذري
بلاروس
بلاغت
بلال
بلاک
بلاکونه
بلاکونو
بلاکي
بلبل
بلجيم
بلجیم
بلخ
بلخوا
بلخي
بلد
بلشویک
بلشویکانو
بلشویکي
بلغاريا
بلغاریا
بلغم
بلقيس
بلكه
بلكي
بلكې
بلل
بلله
بللي
بللی
بللې
بلند
بلنه
بلنې
بله
بلو
بلوا
بلوغ
بلوڅ
بلوڅان
بلوڅانو
بلوڅو
بلوڅي
بلوچستان
بلوک
بلى
بلي
بليک
بلک
بلکل
بلکه
بلکي
بلکی
بلکې
بلی
بلیر
بلیک
بلې
بم
بمب
بمبار
بمباریو
بمبارۍ
بمبۍ
بمونه
بمونو
بمي
بن
بنا
بناء
بناب
بنت
بنجامين
بنجامین
بند
بندر
بندرونه
بندرونو
بندري
بنده
بندو
بندول
بندولو
بندونه
بندونو
بندوي
بندي
بنديان
بنديانو
بنديز
بنديزونه
بنديزونو
بندښت
بندګانو
بندگانو
بندی
بندیان
بندیانو
بندیز
بندیزونه
بندیزونو
بندۍ
بندې
بندېدو
بنست
بنسن
بنسټ
بنسټه
بنسټونه
بنسټونو
بنسټيز
بنسټيزه
بنسټيزو
بنسټيزې
بنسټپال
بنسټپاله
بنسټګر
بنسټګرو
بنسټگر
بنسټیز
بنسټیزه
بنسټیزو
بنسټیزې
بنفش
بنن
بنو
بنوري
بني
بنياد
بنيادي
بنګ
بنګال
بنګالي
بنګله
بنگال
بنگلادېش
بنگله
بنگښ
بنیاد
بنیادي
بنیامین
به
بها
بهادر
بهار
بهارک
بهاند
بهانه
بهاو
بهاوالدين
بهايي
بهبود
بهتر
بهتره
بهترينه
بهترین
بهر
بهرام
بهرني
بهرنيو
بهرنی
بهرنیانو
بهرنیو
بهرنۍ
بهره
بهسود
بهسودو
بهلول
بهوپال
بهير
بهيرونو
بهيږي
بهیر
بهیرونه
بهیرونو
بهیږي
بهېدل
بهېدو
بهېږي
بو
بواسطة
بوت
بوتان
بوتانو
بوتسوانا
بوتل
بوتلل
بوتله
بوتلونه
بوخت
بوخته
بوخوم
بود
بودا
بودايانو
بودايي
بودايې
بوداپست
بودایي
بودجه
بودجې
بودن
بودند
بوده
بوديجه
بوديجې
بوديزم
بودیجه
بودیجې
بودیزم
بور
بوران
بورد
بورس
بوره
بورون
بورډ
بورژوا
بورژوازي
بوریس
بورې
بوس
بوستان
بوستون
بوسحاقي
بوسنیا
بوسټن
بوسټون
بوش
بوشهر
بول
بولدک
بولم
بولندوى
بولندوی
بولو
بولي
بولی
بولیویا
بولۍ
بومي
بون
بوهره
بوى
بوي
بويه
بوټ
بوټان
بوټانو
بوټو
بوټى
بوټي
بوټی
بوټې
بوځي
بوډا
بوک
بوی
بوییس
بى
بي
بيا
بياد
بيارغونه
بيارغونې
بيالوژي
بيالوژيکي
بيان
بيانول
بيانولو
بيانوي
بياهم
بيايي
بيايې
بيت
بيته
بيتو
بيتونه
بيتونو
بيتي
بيخي
بيدون
بير
بيرته
بيرغ
بيره
بيروت
بيرون
بيزانس
بيزو
بيشكه
بيضاوي
بيضوي
بيعت
بيل
بيلا
بيلابيل
بيلابيلو
بيلتون
بيله
بيلو
بيلي
بيلګې
بيلگه
بيلگي
بيلې
بين
بينوا
بيني
بيه
بيهقي
بيو
بيوتيک
بيوتيکونه
بيوتيکونو
بيولوژي
بيولوژيکي
بيوګرافي
بيټ
بيټني
بيړه
بيړۍ
بيکاره
بيې
بټلر
بټي
بټۍ
بڅرکي
بچ
بچه
بچو
بچي
بچيان
بچيانو
بچی
بچیان
بچیانو
بډ
بډاى
بډايه
بډای
بډایه
بډې
بړ
بړاس
بړبوکۍ
بښلي
بښلی
بښنه
بښنې
بک
بکارت
بکتريا
بکترياو
بکترياوي
بکتریا
بکر
بکس
بکلي
بکو
بګرام
بگرام
بڼ
بڼه
بڼو
بڼي
بڼی
بڼې
بھی
بی
بیا
بیاترکیب
بیارغونه
بیارغونې
بیان
بیانولو
بیانونو
بیانوي
بیانیه
بیاځلي
بیاکتنه
بیاکتنې
بیت
بیتانسس
بیتونه
بیخي
بیدار
بیدارۍ
بیر
بیرته
بیرغ
بیروت
بیرون
بیزانس
بیزوګانو
بیزوګیان
بیزوګیانو
بیساو
بیسمارک
بیش
بیشتر
بیعت
بیل
بیلا
بیلابیل
بیلابیلو
بیلانس
بیله
بیلو
بیلګه
بیلګې
بیلیونه
بیمه
بیمې
بین
بینوا
بیه
بیو
بیولوجیکي
بیولوژي
بیولوژيکي
بیولوژیکي
بیولوژۍ
بیټ
بیړنۍ
بیړۍ
بیکاری
بیگ
بیې
بې
بېا
بېخ
بېخي
بېرته
بېرغ
بېره
بېزوس
بېشکه
بېكن
بېل
بېلا
بېلابېل
بېلابېلو
بېلابېلې
بېلاروس
بېلتون
بېله
بېلو
بېلوالي
بېلوالی
بېلولو
بېلوي
بېلګه
بېلګو
بېلګې
بېلگه
بېلگې
بېلې
بېلېږي
بېنوا
بېورېج
بېوزله
بېوزلو
بېوزلي
بېوزلۍ
بېټ
بېځايه
بېړني
بېړنۍ
بېړه
بېړيو
بېړیو
بېړۍ
بېکاره
بېکارۍ
بېکر
بېګم
بېگ
بېگم
بە
ة
ت
تا
تاب
تابع
تابعيت
تابعیت
تاتار
تاته
تاثر
تاثير
تاثيرات
تاثيراتو
تاثیر
تاثیرات
تاج
تاجيکستان
تاجک
تاجکان
تاجکستان
تاجیکستان
تاديه
تادیاتو
تادیه
تار
تارونه
تارونو
تاريخ
تاريخونو
تاريخى
تاريخي
تاريخپوه
تاريخپوهان
تاريخپوهانو
تاريخچه
تاريخچې
تاریخ
تاریخونه
تاریخونو
تاریخي
تاریخپوه
تاریخپوهان
تاریخپوهانو
تاریخچه
تاریخچې
تاریخی
تازه
تاسره
تاسف
تاسو
تاسى
تاسي
تاسيس
تاسی
تاسیس
تاسیسات
تاسیساتو
تاسې
تاشکند
تال
تالا
تالار
تاليف
تالیف
تام
تاماس
تامسن
تامل
تامين
تامین
تاند
تانزانیا
تاو
تاوان
تاوانونه
تاوتريخوالي
تاوتريخوالی
تاوتریخوالي
تاوتریخوالی
تاوده
تاويل
تايرايډ
تاييد
تايید
تاکتیک
تاکتیکونو
تاکید
تای
تایلنډ
تایوان
تایید
تاییدوي
تبادله
تبادلې
تباه
تباهۍ
تبت
تبتي
تبخير
تبديل
تبدیل
تبر
تبریز
تبشير
تبصره
تبصرې
تبعه
تبعيد
تبعيض
تبعید
تبعیض
تبليغ
تبليغات
تبليغاتو
تبليغي
تبلیغ
تبلیغات
تبلیغاتو
تبلیغاتي
تبلیغي
تبه
تبې
تتراسکلين
تثبيت
تثبیت
تجار
تجارت
تجارتي
تجارتی
تجاهله
تجاوز
تجديد
تجدید
تجربه
تجربو
تجربوي
تجربي
تجربې
تجزيه
تجزيې
تجزیه
تجزیې
تجنيس
تجهیزات
تجهیزاتو
تجوید
تحت
تحريك
تحريک
تحرک
تحریف
تحریم
تحریک
تحصيل
تحصیل
تحصیلات
تحصیلي
تحفه
تحقق
تحقيق
تحقيقات
تحقيقي
تحقیق
تحقیقات
تحقیقاتو
تحليل
تحليلي
تحلیل
تحلیلي
تحمل
تحميل
تحمیل
تحول
تحولات
تخار
تخارستان
تخت
تخته
تختو
تختې
تخريب
تخریب
تخصص
تخصصي
تخصیص
تخلص
تخلفاتو
تخليق
تخليقي
تخلیق
تخلیقي
تخلیه
تخم
تخمدان
تخمر
تخمونه
تخمونو
تخمين
تخمین
تخنيک
تخنيکونه
تخنيکونو
تخنيکي
تخنيکې
تخنیک
تخنیکونه
تخنیکونو
تخنیکي
تخيل
تخیل
تخیلي
تدابير
تداوي
تدبير
تدبیر
تدريج
تدريجي
تدريس
تدريسي
تدریج
تدریجي
تدریس
تدریسي
تدوين
تدوین
تذکرة
تذکره
تر
تراسونه
تراسونو
ترانس
ترانسپورت
ترانسپورتي
ترانه
ترانې
تراوسه
تراکم
ترای
تربيت
تربيه
تربیه
ترتيب
ترتیب
ترجمان
ترجمه
ترجمې
ترجيح
ترجیح
ترحده
ترخه
ترخو
ترخې
تردي
تردی
تردې
ترسره
ترشا
ترشح
ترفیع
ترقي
ترقی
ترقۍ
تركيب
ترلاس
ترلاسه
ترلږه
ترمخه
ترمذي
ترمنځ
ترموډینامیک
ترموډینامیکي
ترميم
ترمينځ
ترمیم
ترمینځ
ترمېنځ
تره
ترهغه
ترهغې
ترهګر
ترهګرو
ترهګرۍ
تروتسکي
ترور
تروريزم
تروریزم
ترویج
تري
تريخ
ترين
ترينه
ترټولو
ترځ
ترڅ
ترڅنګ
ترڅنگ
ترڅو
ترڅوپه
ترډیره
ترډېره
ترک
ترکان
ترکانو
ترکستان
ترکمن
ترکمنستان
ترکي
ترکيب
ترکيبونه
ترکيبي
ترکيه
ترکيې
ترکی
ترکیب
ترکیبونه
ترکیبونو
ترکیبي
ترکیه
ترکیې
ترکې
ترکېب
تری
ترین
ترینه
ترې
ترېنه
تزار
تسلا
تسلسل
تسلط
تسليم
تسلیم
تسمم
تش
تشبث
تشبه
تشبيه
تشبیه
تشخيص
تشخیص
تشخیصي
تشدد
تشريح
تشريحي
تشریح
تشرېح
تشرېحي
تشعشع
تشكيل
تشناب
تشه
تشو
تشويش
تشويق
تشویش
تشویق
تشيال
تشکيل
تشکيلوي
تشکیل
تشکیلاتو
تشکیلوي
تشکېل
تشکېلوي
تشیال
تشې
تصادفي
تصانیف
تصحيح
تصديق
تصدیق
تصدۍ
تصرف
تصفيه
تصفیه
تصفیې
تصميم
تصمیم
تصنيف
تصنیف
تصور
تصورات
تصوراتو
تصوف
تصوفي
تصويب
تصوير
تصويرونه
تصویب
تصویر
تضاد
تضمين
تضمین
تضمینوي
تطابق
تطبيق
تطبيقي
تطبیق
تطبیقي
تعادل
تعالى
تعالي
تعالی
تعالې
تعامل
تعاملات
تعاملاتو
تعاملونه
تعاملونو
تعبير
تعبیر
تعجب
تعداد
تعديل
تعدیل
تعدیلاتو
تعرفو
تعرفې
تعريف
تعريفونه
تعريفونو
تعريفوي
تعریف
تعریفونه
تعریفونو
تعریفوي
تعصب
تعقل
تعقيب
تعقيبوي
تعقيم
تعقیب
تعقیبوي
تعلق
تعليم
تعليمي
تعلی
تعلیم
تعلیمي
تعلیمی
تعمير
تعمید
تعمیر
تعهد
تعويضي
تعين
تعین
تعیین
تغذيه
تغذيې
تغذیه
تغزل
تغير
تغيرات
تغیر
تغیرات
تغییر
تــ
تـه
تفاهم
تفاوت
تفاوتونه
تفتیش
تفريح
تفريحي
تفريق
تفریح
تفریحي
تفسير
تفسيرونو
تفسیر
تفصيل
تفصيلي
تفصیل
تفکر
تفکيک
تفکیک
تقابل
تقاضا
تقاطع
تقاعد
تقدير
تقرب
تقريبا
تقریب
تقریبا
تقریر
تقسيم
تقسیم
تقسیمات
تقسیمېږي
تقليد
تقلید
تقنیني
تقوا
تقوى
تقويه
تقوی
تقویه
تقي
تقی
تكړه
تل
تلاش
تلاوت
تلسکوپ
تلفات
تلفاتو
تلفظ
تلل
تللو
تللى
تللي
تللی
تللې
تله
تلو
تلوسه
تلونکي
تلونکې
تلويزون
تلويزوني
تلويزيون
تلويزيوني
تلویزیون
تلویزیونونه
تلویزیوني
تلي
تليفون
تلپاتې
تلی
تلیفون
تلې
تم
تماس
تمام
تمامه
تماميږي
تمامېږي
تمايل
تمایل
تمایلاتو
تمباکو
تمثيل
تمثیل
تمدن
تمدنونه
تمدنونو
تمرين
تمرکز
تمرین
تمه
تمويل
تمویل
تمځای
تمځي
تمې
تن
تناسب
تناسلي
تناظر
تناقض
تناوبي
تنباکو
تنخوا
تند
تندر
تنده
تندي
تندې
تنر
تنظيم
تنظيمونو
تنظيموي
تنظيمي
تنظيمېږي
تنظیم
تنظیمولو
تنظیموي
تنظیمي
تنفس
تنفسي
تنقيد
تنقيدي
تنقید
تنه
تنها
تنو
تنوع
تني
تنګ
تنګه
تنګي
تنګی
تنگ
تنې
ته
تهانوي
تهديد
تهدید
تهذيب
تهران
تهمت
تهيه
تهیه
تو
توازن
تواضع
توافق
توان
توانايي
تواند
توب
توبرکلوز
توبه
توبې
توت
توتاخېل
توتو
توجه
توجو
توجيه
توجیه
توحيد
توحید
توخي
تود
توده
تودو
تودوخه
تودوخي
تودوخی
تودوخې
تودې
تور
تورات
تورخم
تورم
تورن
توره
تورو
تورونه
تورونو
تورى
توري
توريستي
تورپوستو
تورپوستي
تورکي
توری
تورې
توزيع
توزیع
توسط
توسعه
توصيف
توصيفي
توصيه
توصیف
توصیفي
توصیه
توضيح
توضیح
توضیحات
توضیحاتو
توطيې
توطیې
توغندي
توغنديو
توغندی
توغندیو
توغندۍ
توغولو
توفيق
توقع
توقف
توقيف
توقیف
توكو
توكي
تول
تولد
تولو
توليد
توليدات
توليداتو
توليدولو
توليدونکي
توليدوي
توليدي
توليديږي
تولید
تولیدات
تولیداتو
تولیدوونکي
تولیدوي
تولیدوی
تولیدي
تولیدیږي
تولیدیږی
تولیدېږي
تولېد
توماس
تومنه
تومور
تون
توند
تونس
تونل
توپ
توپان
توپانونه
توپانونو
توپاني
توپخانې
توپولوژي
توپونه
توپونو
توپوګرافي
توپير
توپيرلري
توپيرونه
توپيرونو
توپيري
توپچي
توپک
توپیر
توپیرونه
توپیرونو
توپیري
توږل
توک
توکل
توکم
توکمه
توکمونه
توکمونو
توکمي
توکميز
توکميزو
توکميزې
توکمپالنه
توکمپالنې
توکمیز
توکمیزه
توکمیزو
توکمیزې
توکه
توکو
توکونو
توکي
توکيو
توکی
توکیو
توکې
توګه
توګو
توگه
توی
تي
تيا
تياتر
تيار
تياره
تيارو
تيارول
تيارې
تيت
تير
تيره
تيرو
تيرولو
تيروي
تيري
تيريدو
تيريږي
تيرې
تيز
تيزاب
تيزابو
تيزابونه
تيزابي
تيزس
تيل
تيلفون
تيلو
تيمم
تيمور
تيموري
تيوب
تيوري
تيورۍ
تيږه
تيږو
تيږي
تيږې
تپل
تپه
تپوس
تپي
تپې
تړاو
تړاولري
تړل
تړلو
تړلى
تړلي
تړلی
تړلې
تړنه
تړون
تړونونه
تړونونو
تړي
تږي
تږی
تښتول
تښتي
تښتېدلو
تښتېدلي
تک
تکامل
تکاملي
تکثر
تکثري
تکثير
تکثیر
تکرار
تکراري
تکزاس
تکل
تکلم
تکليف
تکلیف
تکميل
تکمیل
تکنالوژي
تکنالوژی
تکنالوژۍ
تکيه
تکړه
تکیه
تګ
تګاب
تګزاس
تګلاره
تګلارو
تګلارې
تگ
تگاب
تگلاره
تگلارې
تڼيوال
تڼۍ
تی
تیاتر
تیار
تیاره
تیارې
تیت
تیر
تیره
تیرو
تیري
تیری
تیریدو
تیریږي
تیرې
تیزس
تیل
تیلفون
تیلو
تیمور
تیمورشاه
تیوري
تیوری
تیوریو
تیوریکي
تیورۍ
تیږو
تیښته
تې
تېر
تېراوه
تېرمهال
تېره
تېرو
تېروتنه
تېروتنو
تېروتنې
تېرول
تېرولو
تېروي
تېرى
تېري
تېريږي
تېری
تېرې
تېرېدل
تېرېدلو
تېرېده
تېرېدو
تېرېږي
تېز
تېزابي
تېزۍ
تېغ
تېل
تېلو
تېمور
تېښته
تېښتې
تېکنالوژي
تېکنالوژۍ
تە
ث
ثابت
ثابته
ثابتو
ثابتولو
ثابتوي
ثابتې
ثابتېږي
ثانوي
ثاني
ثانيه
ثانيو
ثانیه
ثانیو
ثبات
ثباته
ثباتي
ثباتۍ
ثبت
ثبتولو
ثبوت
ثبوتونه
ثروت
ثقافت
ثم
ثمره
ثنا
ثواب
ثور
ج
جا
جابر
جابز
جات
جاتو
جاج
جاده
جادو
جاذبه
جاذبوي
جاذبي
جاذبې
جار
جارو
جاري
جاسوس
جاسوسي
جال
جالب
جام
جامد
جامدو
جامع
جامعه
جامه
جامو
جامي
جامې
جان
جانان
جانبي
جانسن
جانسون
جانه
جاني
جاهليت
جاوا
جاوېد
جايداد
جايز
جايزه
جايزې
جاپان
جاپاني
جاپانیانو
جاکارتا
جای
جایداد
جایزه
جایزو
جایزې
جبر
جبران
جبراييل
جبري
جبل
جبه
جبهه
جبهې
جت
جد
جدا
جده
جدول
جدي
جديد
جدی
جدید
جذب
جذباتو
جذبه
جذبولو
جذبوي
جذبيږي
جذبې
جر
جرات
جراح
جراحي
جراحۍ
جرايم
جرايمو
جرایمو
جرسي
جرم
جرماني
جرمن
جرمني
جرمنی
جرمنیانو
جرمونه
جرمونو
جرمي
جريان
جريب
جريبه
جريت
جريده
جريدې
جرير
جرړې
جرګه
جرګو
جرګې
جرگه
جرگو
جرگې
جریان
جریانونه
جریانونو
جریبه
جریده
جریمه
جریمې
جز
جزء
جزا
جزايل
جزايي
جزر
جزيره
جزيي
جزيیات
جزیره
جس
جسامت
جست
جسد
جسم
جسماني
جسمونه
جسمونو
جسمي
جشن
جشنونه
جعفر
جعل
جعلي
جغتو
جغرافيايي
جغرافيه
جغرافيوي
جغرافيې
جغرافیايي
جغرافیایي
جغرافیایی
جغرافیه
جغرافیوي
جغرافیې
جغل
جــ
جفا
جفت
جفرسن
جفرسون
جل
جلا
جلاتوب
جلال
جلاله
جلالي
جلالکوټ
جلاوالي
جلاوالی
جلاوطنۍ
جلب
جلد
جلدونو
جلدي
جلسه
جليل
جم
جماع
جماعت
جمال
جمع
جمعه
جمعي
جمعيت
جمعی
جمعیت
جمعې
جمله
جملو
جملي
جملی
جملې
جمهور
جمهورريیس
جمهوري
جمهوريت
جمهوريتونو
جمهوری
جمهوریت
جمهوریتونو
جمو
جمیعت
جمیل
جمیکا
جن
جناب
جناح
جنازه
جنازې
جنايت
جنايي
جنایت
جنایي
جنبش
جنت
جنتي
جنتیک
جنتیکي
جنجال
جنجالي
جندر
جنرال
جنرالان
جنرالانو
جنرل
جنس
جنسه
جنسو
جنسونه
جنسونو
جنسي
جنسيت
جنسيتي
جنسی
جنسیت
جنسیتي
جنو
جنوب
جنوبي
جنوبی
جنوري
جنوری
جنورۍ
جنيتيکي
جنين
جنيټيکي
جنډر
جنګ
جنګونه
جنګونو
جنګي
جنګیالي
جنګیالیو
جنگ
جنگسالار
جنگل
جنگونو
جنگي
جنگيالي
جنگياليو
جنگی
جنین
جنیټیک
جنیټیکي
جه
جهاد
جهادي
جهاز
جهالت
جهان
جهاني
جهانگير
جهانی
جهت
جهل
جهنم
جهيل
جهيلونو
جهیل
جو
جواب
جواد
جوار
جوارو
جواز
جوامع
جوان
جواهر
جوت
جوته
جوتېږي
جوخت
جور
جورج
جورجيا
جورجیا
جوزا
جوزجان
جوزجاني
جوزف
جوس
جوش
جولاى
جولايي
جولای
جولیا
جومات
جوماتونه
جوماتونو
جون
جونز
جونګ
جونگ
جونیر
جوهان
جوهر
جوچه
جوړ
جوړجاړي
جوړجاړی
جوړشو
جوړشوي
جوړشوی
جوړشي
جوړلو
جوړه
جوړو
جوړول
جوړوله
جوړولو
جوړولوکې
جوړولی
جوړولې
جوړونه
جوړوني
جوړونکو
جوړونکي
جوړونکی
جوړونکې
جوړونې
جوړوو
جوړوونکو
جوړوونکي
جوړوونکی
جوړوونکې
جوړوي
جوړوی
جوړي
جوړيدل
جوړيدو
جوړيږي
جوړښت
جوړښتونه
جوړښتونو
جوړښتي
جوړکړي
جوړی
جوړیدل
جوړیدو
جوړیږي
جوړیږی
جوړې
جوړېدل
جوړېدلو
جوړېده
جوړېدو
جوړېږي
جوړېږی
جوګه
جوگه
جوی
جي
جيل
جيلاني
جيم
جيمز
جين
جينوم
جينونو
جيو
جيولوژيکي
جک
جکسن
جکسون
جګ
جګړه
جګړو
جګړي
جګړې
جگ
جگړه
جگړو
جگړې
جی
جیب
جیل
جیمز
جین
جینوا
جینوم
جینونه
جینونو
جینیوا
جیو
جیولوژي
جیولوژیکي
جیک
جې
جېل
جېمز
جېن
جېنوم
جېنونه
جېنونو
ح
حا
حاتم
حاجت
حاجي
حاجی
حاد
حادثه
حارث
حاشیه
حاصل
حاصلات
حاصلاتو
حاصلخيزي
حاصله
حاصلولو
حاصلوي
حاصليږي
حاضر
حافظ
حافظه
حافظې
حاكم
حال
حالات
حالاتو
حالت
حالتونه
حالتونو
حالی
حامد
حامله
حاکم
حاکمانو
حاکمه
حاکميت
حاکمیت
حب
حباب
حبس
حبشې
حبيب
حبيبي
حبیب
حبیبي
حت
حتا
حتما
حتمي
حتى
حتي
حتی
حج
حجاب
حجاج
حجاز
حجازي
حجت
حجر
حجرات
حجراتو
حجره
حجرو
حجروي
حجري
حجريي
حجری
حجرې
حجم
حد
حداد
حداقل
حده
حدود
حدودو
حديث
حديثو
حديثونه
حديثونو
حدیث
حدیثو
حدیثونه
حذف
حرارت
حرارتي
حرام
حرامه
حرامو
حراني
حرب
حربي
حرص
حرف
حرفوي
حركت
حرم
حرمت
حروف
حروفو
حرکات
حرکاتو
حرکت
حرکتونه
حرکتونو
حرکي
حریم
حزب
حزم
حس
حساب
حسابونه
حسابونو
حسابي
حسابيږي
حساس
حساسه
حساسو
حساسيت
حساسیت
حسام
حسان
حسرت
حسكاني
حسن
حسنه
حسني
حسي
حسين
حسین
حسېن
حشرات
حشراتو
حشره
حشرو
حشرې
حصار
حصاره
حصارک
حصه
حضرت
حضور
حفاظت
حفاظتي
حفظ
حفيظ
حفیظ
حق
حقاني
حقايق
حقايقو
حقایق
حقایقو
حقدار
حقله
حقه
حقوق
حقوقو
حقوقي
حقوقی
حقونه
حقونو
حقيقت
حقيقي
حقیقت
حقیقتونو
حقیقي
حكم
حكمت
حكمونو
حكومت
حكيم
حل
حلال
حلب
حلزون
حلقه
حلقو
حلقوي
حلقې
حلولو
حلوي
حليم
حليږي
حماسه
حماسي
حمام
حمايت
حمایت
حمد
حمزه
حمل
حمله
حملو
حملي
حملې
حميد
حميدي
حمید
حنبل
حنبليانو
حنفي
حنفيانو
حنيف
حنيفه
حواسو
حواله
حوالې
حوزه
حوزو
حوزې
حوصله
حوصلې
حوض
حيا
حيات
حياتي
حيث
حيثه
حيثيت
حيدر
حيران
حيرانتيا
حيض
حيوان
حيوانات
حيواناتو
حيواني
حکم
حکمت
حکمتيار
حکمتیار
حکمران
حکمرانانو
حکمونو
حکومت
حکومتولۍ
حکومتونه
حکومتونو
حکومتي
حکومتی
حکيم
حکیم
حیات
حیاتي
حیث
حیثه
حیثیت
حیدر
حیدراباد
حیران
حیرانتیا
حیوان
حیوانات
حیواناتو
حیواني
حیوانی
خ
خا
خاتم
خاتون
خاد
خادم
خارج
خارجي
خارجيږي
خارجی
خارښت
خاص
خاصه
خاصو
خاصي
خاصيت
خاصيتونه
خاصی
خاصیت
خاصې
خاطر
خاطرات
خاطراتو
خاطره
خاطرې
خال
خالد
خالص
خالصه
خالق
خالي
خاليګاه
خام
خامخا
خامه
خامو
خاموش
خان
خانات
خانانو
خاندان
خانقاه
خانم
خانه
خانو
خانوار
خاني
خانې
خاور
خاوره
خاورو
خاوروته
خاورى
خاوري
خاورين
خاوری
خاورې
خاوند
خاوندان
خاوندانو
خاونده
خاک
خاکريز
خاکریز
خاکه
خای
خبر
خبرتيا
خبرتیا
خبرداري
خبرداری
خبره
خبرو
خبرول
خبرونه
خبرونو
خبروي
خبري
خبريال
خبريالان
خبريالانو
خبريالۍ
خبری
خبریال
خبریالان
خبریالانو
خبرې
خت
ختل
ختلو
ختم
ختمه
ختمول
ختمولو
ختمېدو
ختنه
ختيز
ختيځ
ختيځه
ختيځو
ختيځي
ختيځې
ختیځ
ختیځه
ختیځو
ختیځې
خج
خدا
خداى
خداي
خدايان
خدايانو
خدايه
خدايي
خدای
خدایان
خدایانو
خدایه
خدایي
خدمات
خدماتو
خدمت
خدمتونه
خدمتونو
خدمتګار
خدمتگار
خدمتگارو
خديجه
خديجې
خر
خراب
خرابه
خرابو
خرابوالي
خرابوي
خرابي
خرابيږي
خرابې
خرابېدو
خراج
خراسان
خراساني
خرافات
خرافاتو
خرقه
خرقې
خرم
خرما
خره
خروار
خروج
خروشتهي
خرڅ
خرڅلاو
خرڅولو
خرڅوي
خزان
خزانه
خزانې
خزنده
خسر
خسرو
خشونت
خصايص
خصلت
خصوص
خصوصا
خصوصي
خصوصيات
خصوصياتو
خصوصيت
خصوصی
خصوصیات
خضر
خط
خطا
خطاب
خطبه
خطر
خطرناک
خطرناکه
خطرناکو
خطرناکې
خطره
خطرونه
خطرونو
خطونه
خطونو
خطي
خطيب
خطیب
خفه
خفو
خفيف
خفګان
خلا
خلاص
خلاصه
خلاصولو
خلاصون
خلاصوي
خلاصي
خلاصې
خلاف
خلافت
خلاقیت
خلجي
خلجیان
خلجیانو
خلدون
خلف
خلفاوو
خلق
خلقت
خلقو
خلك
خلكو
خليج
خليفه
خليق
خليل
خلک
خلکو
خلکوته
خلګ
خلګو
خلگ
خلگو
خلیج
خلیفه
خلیل
خلیلزاد
خلیلي
خم
خمس
خميره
خميني
خمیني
خنثى
خنثی
خنجر
خندا
خندق
خنډ
خنډونه
خنډونو
خه
خو
خوا
خواب
خواته
خواجه
خواخوږي
خواخوږی
خواخوږۍ
خوار
خوارج
خوارجو
خوارزم
خوارزمي
خواره
خواري
خوارۍ
خواشيني
خواشينۍ
خواشیني
خواشینۍ
خواص
خواصو
خواله
خوان
خواه
خواهد
خواهش
خواو
خواوو
خواوې
خواړه
خواړو
خواږه
خواکې
خوب
خوبه
خوبونه
خوبونو
خوبياهم
خود
خور
خورا
خوراك
خوراک
خوراکونو
خوراکي
خورد
خورشيد
خوره
خورو
خوري
خوری
خورې
خوزستان
خوسا
خوست
خوش
خوشال
خوشاله
خوشالي
خوشالۍ
خوشحال
خوشحاله
خوشحالي
خوشحالۍ
خوشي
خوشی
خوشې
خوله
خولو
خولي
خولۍ
خولې
خون
خوند
خونده
خوندور
خوندي
خونديتابه
خونديتوب
خوندی
خوندیتوب
خوندې
خونه
خونو
خوني
خونړي
خونړۍ
خونې
خوى
خوي
خويندو
خويندې
خويونه
خوپه
خوځنده
خوځندکو
خوځندکې
خوځښت
خوځښتونه
خوځښتونو
خوړ
خوړل
خوړلو
خوړلي
خوړلی
خوړلې
خوړو
خوړولو
خوړونه
خوړونو
خوړونکو
خوړونکي
خوړونکی
خوړونکې
خوږ
خوږه
خوږو
خوږې
خوښ
خوښه
خوښول
خوښوونکي
خوښوي
خوښي
خوښی
خوښۍ
خوښې
خوښېږي
خوکله
خوکه
خوګ
خوګانو
خوی
خویندو
خویندې
خوېندې
خي
خيال
خيالات
خيالي
خيانت
خيبر
خير
خيرات
خيريه
خيشکي
خيل
خيلو
خټه
خټو
خټک
خټکو
خټې
خپاره
خپراوي
خپرندويه
خپرندويې
خپرندوی
خپرندویه
خپره
خپرو
خپرول
خپرولو
خپرونه
خپرونو
خپروني
خپرونکی
خپرونې
خپروونکی
خپروي
خپريدل
خپريدو
خپريږي
خپریدل
خپریدو
خپریږي
خپرې
خپرېدل
خپرېدلو
خپرېدنه
خپرېدنې
خپرېده
خپرېدو
خپرېدونکی
خپرېدونکې
خپرېږي
خپل
خپلسري
خپلمنځي
خپله
خپلو
خپلواك
خپلواكۍ
خپلوان
خپلوانو
خپلواک
خپلواکه
خپلواکو
خپلواکي
خپلواکی
خپلواکۍ
خپلواکې
خپلولو
خپلوي
خپلوۍ
خپلي
خپلی
خپلې
خپه
خپور
خپګان
خپگان
خځلو
خځلې
خځنده
خړ
خړو
خړوب
خړوبه
خړوبولو
خړوبوي
خړې
خښ
خښته
خښتو
خښتې
خښولو
خیال
خیالي
خیانت
خیبر
خیر
خیریه
خیل
خیلو
خېبر
خېر
خېل
خېلو
خېټه
خېټې
د
دا
دابن
دابه
دابو
داتوم
داخبره
داخل
داخله
داخلوي
داخلي
داخليږي
داخلی
داخلې
داخلېدل
داخلېدو
داد
دادارى
داداری
دادالله
دادن
دادند
داده
دادى
دادي
دادی
دادې
دار
دارالعلوم
دارالمعلمين
داران
دارای
دارد
دارند
دارنګه
دارنگه
داره
دارو
داروپا
داروین
داري
داريوش
دارګ
داری
داریوش
دارۍ
دارې
دازادۍ
داس
داستاد
داستان
داستانونه
داستانونو
داستاني
داستاېفسکي
داستعمال
داستفادي
داستفادې
داستلین
داسد
داسلام
داسلامي
داسهال
داسى
داسي
داسی
داسې
داشت
داشته
داصلاح
داصلي
داعش
داعي
داغ
داغستان
داغونه
دافغا
دافغان
دافغانستان
داقتصادي
داقليم
دال
دالاس
دالان
دالديهايدونو
دالقاح
دالقلي
دالله
دالکترون
دالکولو
دام
دامام
دامان
دامريکا
دامریکا
دامنیت
دامو
دامير
دامیر
دان
دانتقال
داندازه
داندلس
دانرژي
دانسان
دانسانانو
دانساني
دانش
دانشگاه
دانه
دانو
داني
دانګریزانو
دانګلستان
دانگام
دانیل
دانې
داهغه
داهل
داهم
داو
داوبو
داوبوسره
داود
داور
داوزون
داوس
داوسني
داوطلبانه
داوه
داوود
داوي
داوړي
داوکراین
داى
داي
دايرة
دايره
دايروي
دايرې
دايمي
دايو
دايودين
دايې
داټول
داپه
داپيتيل
داځل
داځکه
داچه
داچي
داچی
داچې
داډول
داړتيا
داکار
داکتر
داکسيجن
داکسيديشن
داکسیدیشن
دای
دایران
دایرة
دایره
دایروي
دایرې
دایمي
دایمی
دب
دباد
دبادماتوونکو
دباران
دباغ
دباندي
دباندې
دبدلون
دبدن
دبديع
دبرق
دبريښنا
دبل
دبنو
دبوټو
دبي
دبيلګې
دبې
دبېلګې
دت
دتا
دتاج
دتاريخ
دتاریخ
دتايرايدغدي
دتجارت
دتخريب
دتخم
دتخمونو
دتشخيص
دتطبيق
دتعامل
دتل
دتنظيم
دتنفس
دتودوخي
دتودوخې
دتوليد
دجذب
دجريان
دجسم
دجلې
دجمعې
دجنازې
دجنت
دجنوب
دجنوبي
دجنګ
دجنگ
دجهاد
دجوړولو
دجوړښت
دحاصل
دحج
دحجري
دحجم
دحرارت
دحرکت
دحشراتو
دحضرت
دحق
دحقوقو
دحل
دحمل
دحميد
دحيوان
دحيواناتو
دحکومت
دخارجي
دخالت
دخاورى
دخاوري
دخاوری
دخاورې
دخداى
دخدای
دخدمت
دخلافت
دخلکو
دخوراک
دخولى
دخولي
دخولې
دخوړو
دخيبر
دخپل
دخپلو
دخپلي
دخپلې
دد
دداخلي
دداسې
ددرجې
ددغه
ددغو
ددغي
ددغی
ددغې
ددماغ
ددنيا
دده
ددواړو
ددولت
ددولتي
ددوه
ددوهم
ددوو
ددوى
ددوي
ددوی
ددوې
ددى
ددي
ددين
ددښمن
ددی
ددې
در
دراز
درانده
درانه
دراني
درانی
دربار
درباره
درباري
درباندې
دربړ
درته
درج
درجه
درجو
درجي
درجی
درجې
درخانۍ
درخواست
درد
درده
دردونه
دردونو
درز
درزونه
درزونو
درس
درست
درسته
درستیز
درسره
درسول
درسونه
درسونو
درسي
درشل
درصد
درطوبت
درغلیو
درغلۍ
درك
درلود
درلودل
درلودلای
درلودله
درلودلو
درلودلې
درلوده
درلودو
درلودونكي
درلودونکو
درلودونکي
درلودونکی
درلودونکې
درلودي
درلودی
درلودې
درمل
درملتون
درملنه
درملنو
درملنې
درملو
درملي
درناوى
درناوي
درناوی
درنده
درندو
درنه
درنو
درنښت
درنګړي
درنې
دره
درهم
درهمه
درو
دروازه
دروازو
دروازې
درواغ
درواغو
درود
دروغ
دروغجن
دروغو
درول
درولو
دروم
درومي
دروند
دروي
دروېش
درى
دري
دريا
درياب
دريم
دريمه
دريو
دريځ
درک
درکه
درکوي
درکړي
درگیری
درڼا
دری
دریا
دریاب
دریافت
دریم
دریمه
دریمې
دریو
دریځ
دریځه
درۍ
درې
درېدل
درېدو
درېم
درېمه
درېمې
درېو
درېيم
درېيمه
درېيمې
درېيو
درېځ
درېږي
درېیم
درېیمه
درېیمې
درېیو
دزده
دزراعت
دزيات
دزياتو
دزياتوالي
دزړه
دساتل
دساتنې
دساحې
دسازمان
دسانتي
دست
دستار
دستر
دسترخوان
دسترپتوماسينو
دسترګو
دسته
دستور
دستګاه
دستګاوو
دستګاوې
دستگاه
دسر
دسرطان
دسرعت
دسره
دسرچینی
دسطحي
دسطحې
دسلطان
دسمال
دسمبر
دسند
دسوخت
دسوديم
دسوري
دسون
دسوځيدو
دسي
دسيسه
دسيمي
دسيمين
دسيمې
دسيند
دسيندونو
دسړي
دسیسه
دسیسې
دسیمې
دشاتو
دشام
دشاه
دشبکی
دشت
دشخصي
دشرابو
دشريد
دشمال
دشمالي
دشمن
دشهادت
دشيدو
دشپې
دشکل
دصابون
دصنعت
دصنعتي
دضرورت
دطالبانو
دطبعي
دطبقې
دطبيعي
دعا
دعادي
دعامه
دعثمان
دعثماني
دعراق
دعربو
دعربي
دعضلى
دعضوي
دعلامه
دعلم
دعلومو
دعمر
دعمل
دعملي
دعمومي
دعمومی
دعوا
دعوت
دعوه
دعوو
دعوې
دغذا
دغذايي
دغره
دغرونو
دغزني
دغسي
دغسې
دغلته
دغنمو
دغه
دغو
دغور
دغي
دغير
دغړو
دغی
دغې
دفاع
دفاعي
دفتر
دفترونه
دفترونو
دفشار
دفع
دفعاليت
دفن
دقانون
دقبيلې
دقت
دقران
دقطعه
دقوم
دقوي
دقيق
دقيقه
دقيقو
دقيقې
دقیق
دقیقه
دقیقو
دقیقې
دل
دلا
دلارى
دلاري
دلارې
دلاس
دلاسته
دلاستيک
دلاسه
دلال
دلالت
دلاندي
دلاندی
دلاندې
دلاور
دلايل
دلايلو
دلایل
دلایلو
دلته
دلرګي
دلرګيو
دلرګی
دلغمان
دلمانځه
دلمر
دلمون
دله
دلو
دلومړي
دلوى
دلوي
دلويو
دلوړ
دلوړو
دلوگر
دلوی
دليل
دلچسپي
دلیل
دلیلونو
دلې
دم
دمارچ
دماشوم
دماشومانو
دماشين
دماغ
دماغو
دماغي
دمالي
دمايع
دمثال
دمحلول
دمحلي
دمحمد
دمخ
دمختلفو
دمخنيوي
دمخه
دمرکزي
دمرګ
دمرگ
دمسلمانانو
دمشر
دمشق
دمصر
دمصنوعي
دمعدي
دمعدې
دمعلوماتو
دملا
دملنگ
دملي
دملی
دمنځه
دمه
دمهمو
دموادو
دموجوده
دموجوديت
دمور
دموضوع
دمولوي
دموکرات
دموکراتيک
دموکراتیک
دمينې
دميوو
دمړينې
دمڼو
دمیاشتې
دمې
دنا
دناروغ
دناروغۍ
دنايتروجن
دنبات
دنباتاتو
دنبال
دنجارۍ
دنده
دندو
دندي
دندی
دندې
دنسب
دنفوسو
دننه
دنني
دننګرهار
دننۍ
دنه
دنور
دنورو
دنوم
دنوموړو
دنوموړي
دنوموړی
دنوموړې
دنوي
دنيا
دنيالګيو
دنيايي
دنړي
دنړۍ
دنګو
دنگه
دنیا
دنیوي
ده
دهارټيكلچر
دهايدروجن
دهایدروجن
دهجرت
دهد
دهر
دهرات
دهراوت
دهرزه
دهرې
دهستې
دهشت
دهغه
دهغو
دهغوى
دهغوي
دهغوی
دهغوۍ
دهغوې
دهغى
دهغي
دهغی
دهغې
دهقان
دهلمند
دهلوي
دهلي
دهلی
دهمدي
دهمدې
دهند
دهندوستان
دهه
دهوا
دهيواد
دهډوکو
دهیواد
دهېواد
دو
دوا
دواده
دوام
دوامدار
دوامداره
دوامدارې
دواړه
دواړو
دواړې
دواکمنۍ
دوباره
دوبي
دوبی
دوبۍ
دوتنه
دوحشي
دوخت
دود
دودونه
دودونو
دودي
دوديز
دوديزه
دوديزو
دوديزې
دودیز
دودیزه
دودیزو
دودیزې
دودې
دور
دوران
دوراني
دوره
دورو
دوري
دوری
دورې
دوز
دوزخ
دوزن
دوست
دوستان
دوستانه
دوستانو
دوستم
دوستي
دوستۍ
دوشنبه
دوشنبې
دوطن
دوعا
دول
دولت
دولتونه
دولتونو
دولتي
دولتی
دولس
دولسم
دولسمه
دولسمې
دولسو
دوم
دومره
دومینیکن
دون
دونباس
دونه
دونو
دوني
دونيا
دونې
دوه
دوهم
دوهمه
دوهمي
دوهمې
دوو
دوولس
دوولسم
دوولسو
دوى
دوي
دويم
دويمه
دويمې
دوينى
دويني
دوينې
دويټامين
دوړ
دوړو
دوړې
دوښمن
دوک
دوکان
دوکانونه
دوکتور
دوکتورا
دوکه
دوی
دویم
دویمه
دویمي
دویمې
دوۍ
دوې
دوېم
دوېمه
دى
دي
ديا
ديارلس
ديارلسم
ديارلسمه
ديارلسمې
ديته
ديخ
ديد
دير
ديرش
ديسمبر
ديموکرات
ديموکراتانو
ديموکراتيک
ديموکراسي
ديموکراسۍ
دين
دينار
ديناره
دينه
دينونو
ديني
ديو
ديوال
ديوالونه
ديوالونو
ديوان
ديوبند
ديوبندي
ديوه
ديوى
ديوي
ديوې
ديپارتمنت
ديپلوم
ديپلومات
ديږي
دټول
دټولنيزې
دټولنې
دټولو
دټيټ
دپاره
دپاسه
دپاليسي
دپاليسۍ
دپام
دپاکستان
دپاڼو
دپرمختګ
دپلار
دپلان
دپنسلين
دپوتاشيم
دپورتني
دپورته
دپوره
دپوستکي
دپوستکې
دپوځ
دپيسو
دپيوند
دپيښور
دپښتنو
دپښتني
دپښتو
دځان
دځمکي
دځمکی
دځمکې
دځنګل
دځنګلدارۍ
دځنګلونو
دځنګلي
دځينو
دځینو
دڅاه
دڅه
دڅو
دڅښلو
دچا
دچاپ
دچاپيريال
دچاپیریال
دډير
دډيرو
دړې
دژمي
دژوند
دژونديو
دښار
دښاري
دښت
دښته
دښتو
دښتي
دښتې
دښمن
دښمنان
دښمنانو
دښمني
دښمنۍ
دښه
دښوونې
دښځو
دښځې
دکابل
دکار
دکاربن
دکارکوونکو
دکال
دکتاب
دکتور
دکتورا
دکرلو
دکرني
دکرنې
دکلسيم
دکلي
دکم
دکموالي
دکمپيوټر
دکمښت
دکن
دکنترول
دکندهار
دکنفوسيوس
دکور
دکورني
دکورنۍ
دکوريوليز
دکوم
دکونړ
دکوپراتیف
دکوپرې
دکيميا
دکيمياوي
دککړتيا
دګاز
دگرده
دگل
دگلانو
دہ
دی
دیارلس
دیارلسم
دیارلسو
دیر
دیرش
دیش
دیموکرات
دیموکراتانو
دیموکراتیک
دیموکراتیکو
دیموکراسي
دیموکراسۍ
دین
دینار
دینداره
دینه
دینونه
دینونو
دیني
دینی
دینې
دیو
دیوال
دیوالونو
دیوان
دیوبند
دیوبندي
دیوجانس
دیوه
دیوی
دیوې
دیپلوماتیک
دیکارت
دیکتاتور
دیکتاتوري
دیکتاتورۍ
دیگر
دۍ
دې
دېته
دېخوا
دېر
دېرش
دېرشمه
دېرشو
دېره
دېش
دېموکریتوس
دېوال
دېوالونه
دېوالونو
دېوان
دے
دە
دﺉ
ذ
ذات
ذاتي
ذبح
ذبیح
ذخاير
ذخيره
ذخيرې
ذخیره
ذرات
ذراتو
ذره
ذرو
ذروي
ذريعه
ذریعه
ذرې
ذكر
ذلت
ذمه
ذهبي
ذهن
ذهنونو
ذهني
ذهنيت
ذهنیت
ذوالفقار
ذوب
ذوق
ذي
ذکاوت
ذکر
ذکي
ر
را
راباسي
راباندې
رابرت
رابرسېره
رابرټ
رابط
رابطه
رابطو
رابطې
رابلل
رابولي
راتاو
راتلاى
راتلای
راتلل
راتللو
راتله
راتلو
راتلونكي
راتلونكې
راتلونکو
راتلونکي
راتلونکی
راتلونکې
راته
راتګ
راتگ
راج
راجا
راجر
راجستر
راجع
راجعون
راجلب
راجمع
راحت
راخېستى
رادار
رادبره
رادر
راديو
رادیو
رادیکال
رارسېدو
راروان
راز
رازق
رازونه
رازونو
رازي
راس
راستانه
راستنه
راستنیدو
راستنېدو
راسته
راستون
راسره
راسل
راسي
راسپړي
راشنه
راشه
راشي
راشی
راضي
راغلاست
راغلل
راغلم
راغله
راغلو
راغلى
راغلي
راغلی
راغلې
راغونډ
راغونډولو
راغى
راغي
راغی
راغې
راكړه
رالز
رالف
رالوی
رالېږد
رالېږل
رام
رامافوسا
رامنځ
رامنځته
رامينځ
رامينځته
رامینځ
رامینځته
رامېنځ
ران
رانازل
رانغاړل
رانغاړي
رانغښتي
رانقل
رانه
راني
رانيسي
رانډولف
رانږدې
راه
راهب
راهبانو
راهبه
راهيسي
راهيسې
راهی
راهیسي
راهیسی
راهیسې
راو
راوباسي
راوبلل
راوتلو
راوتلي
راوتلی
راوتلې
راورسيد
راورسېد
راورسېدل
راوروسته
راورټي
راوست
راوستل
راوستلو
راوستلې
راوسته
راوستو
راوستي
راوستی
راوستې
راوغوښت
راوغوښتل
راولاړ
راولاړېږي
راولو
راولي
راولپنډۍ
راولی
راونغاړي
راووت
راووتل
راووته
راووست
راووځي
راووړ
راوي
راويستل
راوپاروله
راوځي
راوړ
راوړل
راوړلو
راوړم
راوړنه
راوړنو
راوړني
راوړنې
راوړه
راوړو
راوړى
راوړي
راوړی
راوړې
راوګرځېد
راى
رايه
رايو
رايټ
رايې
راټول
راټوله
راټولو
راټولول
راټولولو
راټولونه
راټولوونکی
راټولوي
راټوليږي
راټولې
راټولېدل
راټولېدو
راټولېږي
راټيټ
راټیټ
راټیټه
راپاتې
راپدېخوا
راپه
راپور
راپورتاژ
راپورته
راپورونه
راپورونو
راپيدا
راپیدا
راپېژندل
راپېژني
راځه
راځو
راځى
راځي
راځی
راځې
راڅخه
راڅرخي
راڅرګند
راڅرګنده
راڅرګندې
راڅرګندېدل
راڅرګندېدو
راڅرګندېږي
راڅرگند
راډيو
راډيواکتيف
راډيويي
راډیو
راډیويي
راډیوګانې
راډیکال
راژوندي
راژوندی
راژوندۍ
راښيي
راښکاره
راښکته
راښکون
راک
راکاږي
راکم
راکمه
راکمولو
راکموي
راکوي
راکټ
راکټي
راکړ
راکړل
راکړه
راکړي
راکړی
راکړې
راګرځي
راګرځېدو
رای
رایش
راین
رایه
رایو
رایټ
رایې
رب
رباب
رباط
رباعي
رباني
ربط
ربه
ربي
ربيع
ربړ
رت
رتبه
رتبې
رجال
رجب
رجم
رجوع
رح
رحم
رحمان
رحمانه
رحماني
رحمة
رحمت
رحمن
رحمه
رحيم
رحیم
رخ
رخت
رخصت
رخصتي
رخصتیو
رخصتۍ
رد
رده
ردول
ردولو
ردوي
رديف
ردیف
رزق
رسا
رسالة
رسالت
رساله
رسالو
رسالې
رستم
رستورانت
رسل
رسم
رسما
رسمي
رسميت
رسمی
رسمیت
رسنيو
رسنیز
رسنیو
رسنۍ
رسوا
رسوايي
رسوب
رسوبي
رسول
رسولانو
رسوله
رسولو
رسولى
رسولي
رسولی
رسولې
رسونکي
رسونې
رسوونکو
رسوونکي
رسوونکی
رسوونکې
رسوي
رسوی
رسي
رسيدل
رسيدلى
رسيدلي
رسيدلې
رسيده
رسيدو
رسيږي
رسټین
رسی
رسیدل
رسیدلو
رسیدلي
رسیدلی
رسیده
رسیدو
رسیږي
رسیږی
رسۍ
رسېدل
رسېدلای
رسېدلو
رسېدلى
رسېدلي
رسېدلی
رسېدلې
رسېدنه
رسېدنې
رسېده
رسېدو
رسېږي
رش
رشاد
رشت
رشته
رشتو
رشتې
رشد
رشوت
رشيد
رشید
رض
رضا
رضايت
رضاکارانو
رضایت
رضوان
رضوي
رضى
رضي
رضی
رطوبت
رعايت
رعایت
رغنده
رغول
رغولو
رغونه
رغونې
رغېدو
رفتار
رفع
رفيع
رفيق
رفيقي
رفیع
رقابت
رقابتي
رقم
رقمي
رقمی
رقيب
رقيق
رقیق
ركن
رم
رمز
رمضان
رمه
رمټ
رمې
رنجيت
رنسانس
رنځ
رنځور
رنځونو
رنځپوهنه
رنځپوهنې
رنګ
رنګارنګ
رنګه
رنګونه
رنګونو
رنګين
رنګړي
رنګین
رنگ
رنگه
رنگونه
رنگونو
رنۍ
ره
رهبر
رهبران
رهبرانو
رهبري
رهبری
رهبرۍ
رهنمايي
رهي
رو
روا
روابط
روابطو
رواج
رواجونو
روان
روانه
روانو
رواني
روانډا
روانی
روانې
رواه
روايات
رواياتو
روايت
روايتونه
روايتونو
روايتوي
روايتي
روایت
روایتونو
روباټونه
روتر
روح
روحاني
روحانيت
روحانيونو
روحانیونو
روحي
روحيه
روحيې
روحیه
رود
روداتو
رودونه
رورټي
روز
روزل
روزلو
روزلي
روزنه
روزني
روزنیز
روزنې
روزولت
روزولټ
روزونکي
روزي
روزګار
روزگان
روس
روسان
روسانو
روسته
روسو
روسي
روسيه
روسيې
روسی
روسیه
روسیې
روسۍ
روسې
روش
روشن
روشنګري
روشنګرۍ
روغ
روغتون
روغتونونو
روغتيا
روغتيايي
روغتیا
روغتیايي
روغتیایي
روغه
روغي
روغې
رول
روم
روماتيک
رومان
رومانتیک
روماني
رومانيا
رومانیا
رومن
رومي
روميان
روميانو
رومی
رومیانو
رونالډ
رونالډو
روه
روهي
روهیال
روي
رويه
روټر
روپۍ
روډ
روډولف
روږدي
روژه
روژي
روژې
روښان
روښانتيا
روښانتیا
روښانفکرۍ
روښانه
روښاني
روښنايي
روڼ
روی
رویه
ري
ريا
رياست
رياض
رياضت
رياضي
رياضياتو
رياضياتي
رياضيکي
ريخ
ريخي
ريزين
ريس
ريل
رينچ
رييس
ريچارډ
ريښتيا
ريښتيني
ريښتينې
ريښه
ريښو
ريښي
ريښې
ريکارډ
ريکو
ريیس
رپ
رپوټ
رپوټونو
رژيم
رژیم
رژیمونو
رښتيا
رښتين
رښتينى
رښتيني
رښتينې
رښتیا
رښتیني
رښتینی
رښتینې
رکن
رکود
رګ
رګه
رګونه
رګونو
رگونو
رڼا
رڼايي
رڼې
ری
ریاست
ریاض
ریاضي
ریاضيکي
ریاضیات
ریاضیاتو
ریاضیکي
ریان
ریس
ریل
ریو
ریچارد
ریچارډ
ریډ
ریښتیا
ریښتیني
ریښتینی
ریښتینې
ریښه
ریښو
ریښې
ریکا
ریکارډ
ریکارډونه
ریګان
ریګن
ریگ
رییس
رییسي
رې
رېل
رېونده
رېږدلې
رېښه
رېښو
رېښې
رېګان
ز
زابل
زابلي
زاده
زار
زامبیا
زامن
زامنو
زانګو
زاهد
زاهدان
زاويه
زاويې
زاویه
زاپاتا
زاړه
زبات
زبان
زبرځواک
زبور
زبير
زحل
زحمت
زخم
زخمونه
زخمونو
زخمي
زخمی
زخه
زخو
زخي
زخې
زده
زدکړه
زدکړو
زدکړي
زدکړې
زر
زراعت
زراعتي
زراعتی
زردالو
زردشت
زردشتي
زرغون
زرغونه
زرغونې
زرق
زرمت
زرملوال
زرنج
زره
زرو
زريزه
زريزې
زرين
زرګونه
زرګونو
زرگران
زرگونه
زرگونو
زریزه
زریزې
زرین
زغره
زغم
زغمل
زغملو
زغمي
زكات
زلزله
زلزلو
زلزلې
زلفو
زلفې
زلمى
زلمي
زلميانو
زلمی
زم
زما
زمان
زمانه
زمانو
زماني
زمانی
زمانې
زمخشري
زمرى
زمري
زمرک
زمری
زمزم
زمزمه
زمونږ
زمونږه
زموږ
زمين
زمينه
زمکه
زمکې
زمین
زمینه
زن
زنا
زنجان
زنجپيل
زند
زندان
زندانه
زندانونو
زنداني
زندانیانو
زنده
زندگی
زنځير
زنځیر
زنګ
زنګي
زه
زهد
زهر
زهرا
زهرجن
زهرجنو
زهره
زهرو
زهري
زهريت
زهری
زهرې
زهکشي
زو
زوال
زوجي
زور
زوره
زورور
زوزات
زوم
زوما
زون
زونونو
زوى
زوي
زويه
زوړ
زوکړه
زوکړې
زوی
زوې
زي
زيا
زيات
زياتره
زياترو
زياته
زياتو
زياتوالى
زياتوالي
زياتوالی
زياتوالې
زياتول
زياتولو
زياتوي
زياتى
زياتي
زياتيدو
زياتيږي
زياتی
زياتې
زياتېدو
زياتېدونکي
زياتېږي
زياد
زيار
زيارت
زيارتونه
زيان
زيانمن
زيانونه
زيانونو
زيتون
زيتونو
زيد
زير
زيرمه
زيرمې
زيري
زيمبابوی
زين
زينب
زينتي
زيو
زيړ
زيږد
زيږدي
زيږديز
زيږون
زيږيدلى
زيږيدلي
زيږيدلی
زيږيدلې
زيږيدنې
زړه
زړو
زړور
زړورتيا
زړورتیا
زړونه
زړونو
زړي
زړښت
زړی
زړې
زړە
زښته
زکات
زکال
زکام
زکریا
زکلونو
زکې
زی
زیات
زیاتره
زیاترو
زیاته
زیاتو
زیاتوالي
زیاتوالی
زیاتولو
زیاتوي
زیاتي
زیاتی
زیاتیدو
زیاتیدونکي
زیاتیدونکې
زیاتیږي
زیاتې
زیاتېدو
زیاتېدونکي
زیاتېدونکې
زیاتېږي
زیاد
زیار
زیارت
زیان
زیانمن
زیانونه
زیانونو
زیتون
زید
زیر
زیرا
زیربنا
زیرمه
زیرمو
زیرمې
زیلاند
زیلانډ
زین
زینوویف
زیړ
زیړوک
زیږدي
زیږدیز
زیږدیزکال
زیږون
زیږیدلی
زیږېدلی
زیږېدلې
زېات
زېربنا
زېرمه
زېرمو
زېرمې
زېرى
زېري
زېری
زېړ
زېږد
زېږدي
زېږديز
زېږدیز
زېږنده
زېږون
زېږوي
زېږيز
زېږېدل
زېږېدلو
زېږېدلى
زېږېدلي
زېږېدلی
زېږېدلې
زېږېدنه
زېږېدنې
زېږېدو
زە
س
سا
سابق
سابقه
سابه
ساتل
ساتله
ساتلو
ساتلى
ساتلي
ساتلی
ساتلې
ساتنه
ساتني
ساتنی
ساتنې
ساته
ساتو
ساتونکو
ساتونکي
ساتونکی
ساتونکې
ساتي
ساتی
ساحل
ساحلونو
ساحلى
ساحلي
ساحه
ساحو
ساحوي
ساحوکې
ساحي
ساحی
ساحې
ساختمان
ساختمانونه
ساختمانونو
ساختماني
ساختن
ساد
سادات
ساده
سارا
سارتر
سارى
ساري
سارک
ساری
سارې
ساز
سازش
سازمان
سازمانونه
سازمانونو
سازماني
سازي
ساساني
ساسانيانو
ساسانیانو
ساعت
ساعته
ساعتو
ساعتونه
ساعتونو
سافټ
سافټویر
ساقه
ساقو
ساقي
ساقې
سال
سالار
سالازار
سالم
سالمه
سالمې
ساله
سالون
سام
سامان
ساماني
سامانيانو
سامسنګ
سامنر
ساموا
سامويل
سامویل
سامي
سان
سانتا
سانتي
سانتيمتره
سانتی
سانسور
ساه
ساو
ساواک
ساوخوړ
سايتوپلازم
سايز
سايل
ساينس
ساينسي
ساينسپوهانو
سايټ
ساپوهنه
ساپي
ساپيان
ساپی
ساپینز
ساړه
ساکس
ساکسون
ساکسوني
ساکن
سایبریا
سایتوپلازم
سایر
ساینس
ساینسي
ساینسپوهان
ساینسپوهانو
سایټ
سایټونو
سب
سبا
سباوون
سبب
سببه
سببونه
سببونو
سببي
سبحان
سبز
سبزيجات
سبزيجاتو
سبق
سبو
سبک
سبکونو
ست
ستا
ستاد
ستاسو
ستاسي
ستاسی
ستاسې
ستالین
ستان
ستانه
ستانکزی
ستايل
ستاينه
ستاينې
ستايي
ستایل
ستاینه
ستاینوم
ستاینې
ستر
ستراتوسفير
ستراتيژي
ستراتيژيک
ستراتيژۍ
ستراتیژي
ستراتیژیک
ستراتیژیکو
ستراتیژۍ
ستره
سترو
سترواک
سترواکانو
سترواکي
سترواکيو
سترواکیو
سترواکۍ
ستري
سترګه
سترګو
سترګي
سترګې
سترگه
سترگو
سترگي
سترگی
سترگې
سترې
ستم
ستمبر
ستن
ستنه
ستنو
ستنې
ستنېدو
سته
ستو
ستور
ستورمزلو
ستورمزلي
ستورمزلی
ستورو
ستورى
ستوري
ستورپوه
ستورپوهانو
ستورپوهنه
ستورپوهنې
ستورپېژندنې
ستوری
ستورې
ستومانه
ستون
ستونزمن
ستونزمنه
ستونزمنو
ستونزه
ستونزو
ستونزي
ستونزی
ستونزې
ستوني
ستړى
ستړي
ستړيا
ستړی
ستړیا
ستړې
سجده
سجدې
سجع
سحر
سخاوت
سخت
سخته
سختو
سختوالي
سختي
سختۍ
سختې
سخن
سخي
سده
سدوزي
سر
سراج
سراسر
سراسري
سرايت
سرای
سرایت
سرباز
سربازان
سربستان
سربيره
سربیا
سربیره
سربېره
سرته
سرتيري
سرتیرو
سرتیري
سرتیری
سرتېرو
سرتېري
سرتېری
سرحد
سرحدونه
سرحدونو
سرحدي
سرخ
سرد
سردار
سرداران
سردارانو
سردرد
سرشماری
سرشمېرنه
سرشمېرنې
سرطان
سرطاني
سرعت
سرغړونه
سرغړونو
سرغړونې
سرليک
سرليکونه
سرلیک
سرمايه
سرمایه
سرمایې
سرمحقق
سرمنشي
سرنوشت
سره
سرو
سروال
سروبي
سرود
سرودونه
سرودونو
سرور
سروزرو
سرونه
سرونو
سروي
سروکار
سروی
سرویس
سروې
سري
سريزه
سريع
سريلانکا
سرپ
سرپرست
سرپرستي
سرپرستۍ
سرپل
سرپناه
سرپو
سرچينه
سرچينو
سرچينې
سرچپه
سرچینه
سرچینو
سرچینی
سرچینې
سرک
سرکار
سرکاري
سرکاڼو
سرکوزي
سرکونو
سرکټ
سرکښه
سرکښۍ
سرکې
سری
سریال
سریزه
سریع
سریلانکا
سرې
سزا
سست
سستم
سطح
سطحه
سطحو
سطحي
سطحی
سطحې
سطه
سعادت
سعد
سعدي
سعود
سعودي
سعودی
سعيد
سعید
ســ
ســـ
سفارت
سفالوسپورينونه
سفر
سفرنامه
سفرونه
سفرونو
سفيان
سفير
سفیر
سقاو
سقراط
سقراطي
سقط
سقوط
سل
سلا
سلاح
سلام
سلامتيا
سلامي
سلاکار
سلاکارانو
سلب
سلجوقي
سلجوقيانو
سلسله
سلسلې
سلطان
سلطانه
سلطاني
سلطنت
سلطنتونه
سلطنتونو
سلطنتي
سلف
سلفايد
سلفر
سلفيت
سلم
سلما
سلمان
سلمه
سلنه
سلنې
سله
سلو
سلواغې
سلوانیا
سلواکيا
سلواکیا
سلوب
سلول
سلولوز
سلولونه
سلولونو
سلولي
سلوک
سلوکي
سلوکې
سليم
سليمان
سليمي
سليکان
سلګونه
سلګونو
سلګۍ
سلگونو
سلیزې
سلیم
سلیمان
سلېمان
سلېمانخېل
سم
سماجي
سمبال
سمبالولو
سمبالښت
سمبول
سمبولونه
سمبولونو
سمبولیک
سمت
سمدستي
سمدلاسه
سمرقند
سمستر
سمسور
سملاسي
سمنان
سمندر
سمندرونه
سمندرونو
سمندري
سمندرګي
سمندرګی
سمندریز
سمنټ
سمنټو
سمنګان
سمنگان
سمه
سمو
سموالي
سمول
سمولو
سمون
سمونه
سمونونه
سمونونو
سمونګر
سمونې
سمويل
سمویل
سمي
سميت
سميع
سمیت
سمیع
سمیټ
سمې
سمېت
سن
سنا
سناتور
سنة
سنت
سنتو
سنتي
سنج
سنجر
سنجش
سند
سندارا
سندر
سندرغاړو
سندرغاړي
سندرغاړی
سندرغاړې
سندره
سندرو
سندري
سندرې
سندونه
سندونو
سنن
سنه
سني
سنټ
سنګ
سنګاپور
سنګاکارا
سنګر
سنګسار
سنگ
سنگر
سنگين
سنی
سه
سهار
سهارا
سهارنپور
سهارنپوري
سهاره
سهام
سهل
سهم
سهولت
سهولتونه
سهيل
سهيلي
سهیل
سهیلي
سهېل
سهېلي
سو
سواب
سوابق
سوابقو
سوات
سواحلو
سواد
سواره
سوال
سوالبرد
سوالونه
سوانح
سوای
سوبه
سوبې
سوخت
سوخوی
سود
سودا
سوداګر
سوداګرو
سوداګري
سوداګريز
سوداګريزو
سوداګريزې
سوداګريو
سوداګریز
سوداګریزه
سوداګریزو
سوداګریزې
سوداګریو
سوداګرۍ
سوداگر
سوداگري
سوداگريز
سوداگريزو
سوداگریز
سوداگرۍ
سوده
سوديم
سودیم
سور
سورة
سورت
سورتونو
سوره
سورى
سوري
سوريا
سوريه
سوريو
سوريې
سورپوستو
سوری
سورینام
سوریه
سوریې
سورې
سوز
سوزان
سوسن
سوسيال
سوسياليزم
سوسياليست
سوسياليستي
سوسیال
سوسیالیزم
سوسیالیست
سوسیالیستان
سوسیالیستانو
سوسیالیستي
سوسیالېزم
سوسیالېست
سوشان
سوفیا
سوق
سوقرات
سول
سولر
سوله
سولي
سولگر
سولی
سولې
سوم
سوما
سومالیا
سومر
سومري
سون
سوند
سوني
سونګ
سوه
سوو
سوى
سوي
سويدي
سويس
سويل
سويلي
سويه
سويو
سويچينګ
سويډن
سويډني
سويې
سوپر
سوځول
سوځولو
سوځوي
سوځي
سوځيدو
سوچ
سوچه
سوچي
سوډان
سوړ
سوکاله
سوکالي
سوکالۍ
سوکه
سوی
سویس
سویل
سویلي
سویوز
سویډن
سویډني
سوې
سوېل
سوېلي
سي
سياحت
سياره
سيارو
سيارې
سياست
سياستوال
سياستونو
سياستپوه
سياسى
سياسي
سياسی
سيال
سيالانو
سيالي
سياليو
سيالۍ
سياه
سيخ
سيد
سيدال
سيدان
سيدجمال
سيده
سير
سيرت
سيره
سيروم
سيستان
سيستاني
سيستم
سيستماتيک
سيستمونه
سيستمونو
سيسټم
سيف
سيل
سيلاب
سيلابونه
سيلابونو
سيلانيانو
سيلومي
سيم
سيمه
سيمو
سيموکې
سيمي
سيمين
سيمينار
سيمينارونو
سيمې
سين
سينا
سيند
سيندونه
سيندونو
سينما
سينه
سينوسايټس
سينيګال
سينټ
سينګار
سينې
سيوري
سيوری
سيوطي
سيټ
سيپټمبر
سيږي
سيکسو
سيکولر
سيګنال
سټالين
سټالین
سټانټون
سټایل
سټریټ
سټرېټ
سټلايټ
سټنډرډ
سټه
سټوارټ
سټون
سټیشن
سټیفن
سټېشن
سپارل
سپارلو
سپاره
سپاري
سپارښت
سپارښتنه
سپارښتنې
سپاه
سپتمبر
سپر
سپرلي
سپرم
سپرمونه
سپرمونو
سپرو
سپري
سپما
سپنسر
سپه
سپور
سپورت
سپورټ
سپونر
سپوږميز
سپوږمکیو
سپوږمکۍ
سپوږمیز
سپوږمۍ
سپى
سپي
سپين
سپينه
سپينو
سپينوزا
سپينې
سپيڅلي
سپټامبر
سپټمبر
سپړل
سپړنه
سپړنو
سپړنې
سپک
سپکاوي
سپکاوی
سپکه
سپکو
سپکې
سپڼسي
سپی
سپین
سپینه
سپینو
سپینوزا
سپینې
سپیڅلي
سپېره
سپېس
سپېڅلتيا
سپېڅلو
سپېڅلي
سپېڅلی
سپېڅلې
سړبن
سړبني
سړه
سړو
سړولو
سړى
سړي
سړيو
سړښت
سړک
سړکونه
سړکونو
سړی
سړیو
سړې
سږ
سږو
سږي
سږی
سکاتلنډ
سکاره
سکالو
سکانو
سکاټ
سکاټلنډ
سکاټلنډي
سکاټلينډ
سکاټلینډ
سکته
سکتور
سکتورونو
سکتې
سکرتر
سکرتریت
سکرو
سکندر
سکه
سکو
سکول
سکولین
سکون
سکي
سکين
سکټور
سکې
سکېن
سګرټ
سګنالونه
سی
سیاحت
سیاحتي
سیاره
سیارو
سیاروي
سیارې
سیاست
سیاستوال
سیاستوالو
سیاستونه
سیاستونو
سیاسي
سیاسی
سیاق
سیال
سیالانو
سیالو
سیالي
سیالیو
سیالۍ
سید
سیده
سیر
سیرالیون
سیریلیک
سیستان
سیستم
سیستماتیک
سیستمونه
سیستمونو
سیسټم
سیسټمونه
سیسټمونو
سیف
سیلاب
سیلانیان
سیلانیانو
سیم
سیمه
سیمو
سیمون
سیمي
سیمی
سیمې
سین
سینا
سیند
سیندونه
سیندونو
سینما
سینماګر
سینه
سینټ
سینګ
سینګار
سینې
سیوري
سیوری
سیوطي
سیول
سیټ
سیټي
سیډني
سیک
سیکانو
سیکولار
سیکولاریزم
سیکولر
سیکولریزم
سیکې
سې
سېد
سېستم
سېسټم
سېل
سېلاب
سېلانيانو
سېمه
سېمې
سېن
سېند
سېنټ
سېټ
سېګنال
سے
ش
شا
شاء
شات
شاته
شاتو
شاتګ
شاخ
شاخبري
شاخص
شاخصونه
شاخصونو
شاخه
شاخونه
شاخونو
شاخېلو
شادي
شارل
شارپ
شاعر
شاعران
شاعرانه
شاعرانو
شاعره
شاعري
شاعرۍ
شافعي
شافعيانو
شال
شالي
شاليد
شالید
شالۍ
شام
شامل
شامله
شاملولو
شاملوي
شاملي
شامليږي
شاملې
شاملېدل
شاملېږي
شان
شانته
شانه
شانګ
شاه
شاهان
شاهانو
شاهد
شاهدان
شاهدانو
شاهده
شاهدي
شاهرخ
شاهزاده
شاهي
شاهين
شاهی
شاهین
شاو
شاوخوا
شاوخواکې
شايد
شاپور
شاک
شاګرد
شاګردان
شاګردانو
شاگرد
شاگردان
شاگردانو
شاید
شباهت
شبرغان
شبلي
شبنم
شبه
شبکه
شبکو
شبکی
شبکې
شتمن
شتمنه
شتمنو
شتمني
شتمنيو
شتمنی
شتمنیو
شتمنۍ
شتمنې
شته
شتو
شتوالى
شتوالي
شتون
شجاع
شجاعت
شجره
شجرې
شحم
شحمي
شخص
شخصي
شخصيت
شخصيتونه
شخصيتونو
شخصی
شخصیت
شخصیتونه
شخصیتونو
شخړه
شخړو
شخړې
شد
شدت
شدن
شدند
شده
شديد
شديده
شديدو
شدید
شدیده
شدیدو
شدیدې
شر
شراب
شرابو
شرافت
شرايط
شرايطو
شراکت
شرایط
شرایطو
شربت
شرح
شرحه
شرحې
شرط
شرطونه
شرطونو
شرطي
شرعي
شرعياتو
شرف
شرق
شرقي
شرقی
شرك
شرم
شرما
شرمن
شره
شروع
شريد
شريعت
شريف
شريفه
شريفي
شريك
شريک
شريکه
شريکوي
شريکې
شرک
شرکت
شرکتونه
شرکتونو
شریعت
شریف
شریک
شریکه
شریکولو
شریکوي
شریکې
شش
شعار
شعاع
شعبان
شعر
شعرونه
شعرونو
شعري
شعور
شعوري
شعيب
شغل
شــ
شفا
شفاعت
شفاف
شفاهي
شفتالو
شفر
شفعه
شفعي
شفق
شفقت
شفيع
شفيق
شفیع
شفیق
شك
شكل
شل
شلتن
شلمه
شلمې
شلو
شم
شما
شمار
شماره
شماري
شماريږي
شمارۍ
شمال
شمالي
شمالی
شمزۍ
شمس
شمسي
شمشاد
شمع
شمله
شمول
شموله
شمولیت
شمير
شميرل
شميره
شمیر
شمیرل
شمیره
شمېر
شمېران
شمېرل
شمېرلو
شمېرنې
شمېره
شمېرو
شمېروں
شمېري
شمېرې
شناخت
شناخته
شناس
شناسى
شناسی
شنبه
شنبې
شننه
شننې
شنه
شنو
شنونکي
شني
شنگړۍ
شنې
شه
شهاب
شهادت
شهباز
شهر
شهرت
شهرستان
شهزاد
شهزاده
شهزادګۍ
شهوت
شهيد
شهيدان
شهيدانو
شهید
شهیدان
شهیدانو
شو
شوال
شواهد
شواهدو
شواو
شوای
شوبله
شود
شور
شورا
شوراګانو
شورای
شورش
شوروي
شورويانو
شوروی
شورویانو
شورى
شوري
شوری
شوق
شوقي
شول
شولتن
شوله
شولو
شولې
شوم
شونتيا
شونتیا
شوند
شونو
شوني
شونډو
شونډې
شونکړۍ
شونی
شونې
شوه
شوو
شوى
شوي
شويده
شويدى
شويدي
شويدۍ
شويو
شوچې
شوړتن
شوکت
شوی
شویده
شویدي
شویدی
شویو
شوۍ
شوې
شوېده
شوے
شى
شي
شيان
شيانو
شيبه
شيخ
شيدا
شيدو
شيدي
شيدې
شير
شيره
شيري
شيرين
شيشه
شيطان
شيعه
شين
شيندل
شينوارو
شينواري
شينواری
شيوا
شيکاګو
شيگل
شټل
شپاړس
شپاړسم
شپاړسمه
شپاړسمې
شپاړسو
شپه
شپو
شپون
شپي
شپيته
شپږ
شپږم
شپږمه
شپږمې
شپږو
شپې
شپېته
شپېلۍ
شړل
شړلو
شک
شکايت
شکاکیت
شکایت
شکایتونو
شکر
شکرې
شکست
شکل
شکله
شکلونه
شکلونو
شکلي
شکمن
شکنجه
شکنجې
شکه
شکونه
شګه
شګو
شګې
شی
شیان
شیانو
شیبه
شیخ
شیدو
شیدې
شیر
شیراز
شیراني
شیرین
شیطان
شیطاني
شیعه
شین
شیندل
شینواري
شینواری
شیوه
شیکاګو
شۍ
شې
شېبه
شېبو
شېبې
شېخ
شېر
شېرشاه
شېپرډ
ص
صابر
صابون
صاحب
صاحبزاده
صادر
صادرات
صادراتو
صادراتي
صادره
صادرولو
صادروي
صادق
صاف
صافي
صافی
صالح
صبا
صبح
صبر
صبغت
صحابه
صحابي
صحت
صحرا
صحرايي
صحنه
صحنې
صحي
صحيح
صحیح
صد
صدارت
صداقت
صدام
صدر
صدراعظم
صدف
صدق
صدقه
صدمه
صديق
صديقي
صدیق
صراحت
صراط
صربستان
صربیا
صرف
صريح
صص
صــ
صف
صفا
صفات
صفاتو
صفت
صفتونه
صفتونو
صفحه
صفحې
صفر
صفرا
صفوي
صفيه
صل
صلاح
صلاحيت
صلاحیت
صلاحیتونه
صلح
صلحی
صلى
صلي
صليبي
صلی
صلیب
صلیبي
صمد
صميم
صنايع
صنايعو
صنایعو
صندوق
صنعت
صنعتونه
صنعتونو
صنعتي
صنعتی
صنف
صنوبر
صهیونیزم
صواعق
صوبه
صوبې
صوت
صوتي
صورت
صوفي
صولت
صومعه
صومعې
صيانة
صيب
صیب
صېب
ض
ضايع
ضايعات
ضايعاتو
ضایع
ضایعات
ضایعاتو
ضبط
ضحاک
ضد
ضرب
ضربان
ضربه
ضرر
ضرره
ضررونه
ضرور
ضرورت
ضرورتونه
ضرورتونو
ضرورى
ضروري
ضروری
ضريب
ضریب
ضعف
ضعيف
ضعيفه
ضعیف
ضلع
ضلعي
ضلعې
ضمانت
ضمن
ضمني
ضمير
ضميمه
ضمیر
ضمیرونه
ضمیمه
ضيا
ضياء
ضيايي
ضیا
ط
طارق
طاعون
طاق
طاقت
طالب
طالبان
طالبانو
طاهر
طايفه
طب
طبابت
طباق
طبراني
طبري
طبع
طبعي
طبعيت
طبعی
طبعیت
طبق
طبقات
طبقاتو
طبقاتي
طبقه
طبقو
طبقي
طبقې
طبي
طبيب
طبيعت
طبيعي
طبيعيت
طبی
طبیب
طبیعت
طبیعي
طبیعی
طرابلس
طراح
طراحد
طراحي
طراحۍ
طرح
طرحه
طرحو
طرحې
طرز
طرزالعمل
طرزي
طرف
طرفه
طرفۍ
طريقه
طريقو
طريقي
طريقې
طریق
طریقه
طریقو
طریقی
طریقې
طفل
طلا
طلاق
طلايي
طلایي
طلب
طلحه
طلوع
طنز
طنزونو
طهماسب
طواف
طور
طوفان
طول
طولي
طيب
طيف
طی
طیب
طیف
ظ
ظالم
ظالمانه
ظالمانو
ظاهر
ظاهرا
ظاهرشاه
ظاهره
ظاهرى
ظاهري
ظرافت
ظرف
ظرفيت
ظرفیت
ظفر
ظلم
ظلمونه
ظلمونو
ظهور
ع
عا
عابد
عاج
عاجز
عادت
عادتونه
عادتونو
عادل
عادلانه
عادي
عادی
عارف
عاشق
عاشقانه
عاصم
عاطفي
عاطفې
عاقل
عالـم
عالم
عالمان
عالمانو
عالمه
عالي
عالی
عام
عامر
عامل
عامه
عامو
عاميانه
عامیانه
عامې
عايد
عايدات
عايداتو
عايشه
عايشې
عاکف
عاید
عایداتو
عبادت
عبادتځای
عبارت
عبارتونو
عباس
عباسي
عباسيانو
عبد
عبدالاحد
عبدالباري
عبدالجبار
عبدالحق
عبدالحميد
عبدالحمید
عبدالحنان
عبدالحى
عبدالحکيم
عبدالحکیم
عبدالحی
عبدالخالق
عبدالرازق
عبدالرب
عبدالرحمان
عبدالرحمن
عبدالرحيم
عبدالرحیم
عبدالرزاق
عبدالرشيد
عبدالرشید
عبدالروف
عبدالستار
عبدالسلام
عبدالشکور
عبدالصمد
عبدالعزيز
عبدالعزیز
عبدالعلي
عبدالغفار
عبدالغفارخان
عبدالغفور
عبدالغني
عبدالقادر
عبدالقدوس
عبدالقيوم
عبدالقیوم
عبدالله
عبدالمالک
عبدالمجید
عبدالمطلب
عبدالملک
عبدالمنان
عبدالهادي
عبدالولي
عبدالوهاب
عبدالکريم
عبدالکریم
عبر
عبراني
عبرت
عبري
عبيد
عبيدالله
عبيده
عبید
عبیدالله
عتبه
عثمان
عثماني
عثمانی
عثمانیانو
عجب
عجيب
عجيبه
عجیب
عجیبه
عدالت
عدالتۍ
عدد
عددان
عدده
عددونه
عددونو
عددوں
عددي
عدل
عدلي
عدليې
عدلیې
عدم
عدن
عدنان
عذاب
عذر
عر
عراق
عراقي
عرب
عربان
عربانو
عربستان
عربو
عربي
عربی
عربۍ
عرش
عرض
عرضه
عرضي
عرضې
عرف
عرفان
عرفاني
عروج
عروض
عروضي
عزت
عزم
عزوجل
عزيز
عزیز
عساكر
عسکر
عسکران
عسکرو
عسکري
عسکرۍ
عشق
عشقي
عصب
عصبى
عصبي
عصبی
عصر
عصري
عصری
عصمت
عضلات
عضلاتو
عضلاتي
عضلي
عضو
عضوي
عضويت
عضوی
عطا
عطاء
عطارد
عطر
عطرو
عطف
عظمت
عظيم
عظیم
عظیمي
عفان
عفت
عفونت
عفوني
عفونيت
عقاب
عقايد
عقايدو
عقاید
عقایدو
عقبه
عقد
عقرب
عقل
عقلاني
عقله
عقلي
عقيده
عقيدې
عقیده
عقیدو
عقیدوي
عقیدې
علا
علاء
علاءالدین
علاج
علاقه
علاقې
علامت
علامه
علامې
علاوالدين
علاوه
علايم
علايمو
علایم
علت
علتونه
علم
علما
علماء
علماو
علماوو
علمي
علمی
علني
علو
علوفه
علوم
علومو
علومي
علوي
على
علي
عليخان
عليه
عليهم
علی
علیزی
علیه
علیها
علیهم
عمان
عمدتا
عمده
عمدي
عمر
عمرا
عمراخان
عمران
عمربن
عمره
عمرو
عمرونه
عمري
عمق
عمل
عملا
عمله
عملونه
عملونو
عملي
عمليات
عملياتو
عملياتي
عمليه
عمليو
عمليې
عملی
عملیات
عملیاتو
عملیاتي
عملیه
عملې
عمو
عمودي
عموم
عموما
عمومي
عموميت
عمومی
عمومې
عن
عناصر
عناصرو
عنايت
عنایت
عنصر
عنصرونه
عنصري
عنعنوي
عنه
عنها
عنهم
عنهما
عنوان
عهد
عوارض
عواطفو
عوام
عوامل
عواملو
عوامو
عوامي
عوايد
عوايدو
عواید
عوایدو
عورت
عوض
عوف
عي
عيب
عيبونه
عيسوي
عيسويان
عيسويانو
عيسويت
عيسى
عيسي
عيسی
عين
عيني
عکاسي
عکس
عکسونه
عکسونو
عیسوي
عیسوی
عیسویان
عیسویانو
عیسویت
عیسی
عین
عیني
غ
غا
غار
غارونو
غاز
غازاتو
غازونه
غازونو
غازي
غازيان
غازيانو
غازی
غازیانو
غافل
غالب
غالبا
غالبه
غالبې
غالۍ
غايب
غاړه
غاړو
غاړي
غاړی
غاړې
غاښ
غاښونه
غاښونو
غاښي
غبار
غبرګ
غبرګون
غبرګونونه
غبرګونونو
غبرگولي
غبرگون
غده
غدو
غدير
غدې
غذا
غذايي
غذايې
غذایي
غذایی
غر
غرب
غربت
غربي
غربی
غرض
غرغښت
غرق
غرمه
غرمې
غرني
غرنيو
غرنی
غرنیو
غرنۍ
غره
غرو
غروال
غرور
غرونه
غرونو
غريب
غريبو
غریب
غریبو
غزا
غزاله
غزالي
غزل
غزلو
غزلونو
غزلې
غزنوي
غزنويانو
غزنویانو
غزني
غزنی
غزه
غسل
غشا
غشاء
غشو
غشي
غشی
غصب
غصه
غضب
غضنفر
غفلت
غل
غلا
غلام
غلامان
غلامانو
غلامي
غلامۍ
غلبه
غلجي
غلجیو
غلط
غلطه
غلطو
غلطي
غلطۍ
غلظت
غله
غلو
غلى
غلي
غليظ
غليم
غلی
غلې
غم
غمجن
غمه
غمونه
غمونو
غندنه
غنم
غنمو
غني
غنيمت
غنی
غنیمت
غه
غو
غوا
غوايي
غواړم
غواړو
غواړي
غواړی
غواړې
غواګانو
غواگانو
غوث
غور
غوراوي
غوراوی
غوربند
غوره
غوري
غوريانو
غورځنګ
غورځنګونو
غورځنگ
غورځول
غورځولو
غورځوي
غورچاڼ
غوریانو
غوزه
غوسه
غوسې
غوصه
غوندي
غوندی
غوندې
غونډ
غونډال
غونډالونه
غونډالونو
غونډله
غونډه
غونډو
غونډي
غونډيو
غونډی
غونډیو
غونډۍ
غونډې
غويي
غوټه
غوټو
غوټي
غوټيو
غوټۍ
غوټې
غوڅ
غوڅه
غوړ
غوړه
غوړو
غوړي
غوړيو
غوړېدو
غوږ
غوږو
غوږونه
غوږونو
غوښت
غوښتل
غوښتلو
غوښتنلیک
غوښتنه
غوښتنو
غوښتني
غوښتنې
غوښته
غوښتونکو
غوښتونکي
غوښتونکی
غوښتونکې
غوښتي
غوښتې
غوښه
غوښو
غوښي
غوښې
غياث
غيب
غيبي
غير
غيرت
غيرعضوي
غيري
غيرې
غيږ
غټ
غټه
غټو
غټوالي
غټي
غټې
غځېدلې
غځېږي
غچ
غړو
غړولې
غړى
غړي
غړيتوب
غړيو
غړی
غړیتوب
غړیو
غړۍ
غړې
غږ
غږه
غږول
غږونه
غږونو
غږيز
غږيزه
غږيزې
غږیز
غږیزه
غږېږي
غښتلى
غښتلي
غښتلی
غښتلې
غڼه
غڼې
غیاث
غیر
غیرت
غیرقانوني
غېر
غېږ
غېږه
ـ
ــ
ــر
ــره
ــس
ــساوي
ــع
ـــ
ــــ
ـــــ
ــل
ــند
ــه
ــو
ــوي
ــکه
ــی
ـو
ف
فا
فابريکه
فابريکو
فابريکي
فابريکې
فابریکه
فابریکو
فابریکې
فاتح
فاتحه
فارابي
فارس
فارسي
فارسی
فارغ
فارغانو
فارغه
فارغېدو
فارم
فارمر
فارمول
فارمونو
فارنهايت
فاروق
فارياب
فاریاب
فاسد
فاسفورس
فاسفيټ
فاسو
فاصله
فاصلو
فاصلي
فاصلې
فاضل
فاضله
فاطمة
فاطمه
فاطمي
فاطمې
فاعل
فال
فان
فاني
فايبر
فايده
فايل
فايلم
فايلونو
فاينمن
فاکس
فایبر
فبروري
فبروری
فبرورۍ
فتح
فتحه
فتحې
فتنه
فتنې
فتوا
فتوحات
فتوحاتو
فحشا
فخر
فدا
فدراسيون
فدراسیون
فدرال
فدرالي
فر
فرات
فرار
فراری
فراغت
فراق
فرانز
فرانس
فرانسس
فرانسه
فرانسوا
فرانسوي
فرانسوی
فرانسویانو
فرانسوۍ
فرانسي
فرانسی
فرانسیس
فرانسیسکو
فرانسیسی
فرانسې
فرانسېس
فرانک
فرانکفورت
فرانکلين
فرانکلین
فرانکو
فراه
فراهي
فرج
فرخ
فرد
فردوس
فردي
فردیناند
فرسايش
فرش
فرشته
فرصت
فرصتونه
فرصتونو
فرض
فرضي
فرضيه
فرضيې
فرضیه
فرضیو
فرضیې
فرعون
فرعي
فرعی
فرق
فرقه
فرقو
فرقې
فرمان
فرمانونه
فرمانونو
فرمايل
فرمايلي
فرمايلی
فرمايي
فرمايی
فرمايې
فرمایل
فرمایلي
فرمایي
فرمایی
فرمول
فرهاد
فرهنګ
فرهنګونو
فرهنګي
فرهنگ
فرهنگي
فرهنگی
فروش
فري
فرياد
فريد
فريډريک
فريکونسي
فريکونسۍ
فرید
فریدریش
فریدریک
فریډریک
فریډمن
فریکونسي
فزيالوژيکي
فزيک
فزيکي
فزيکې
فزیک
فزیکي
فزیکی
فساد
فشا
فشار
فشارونه
فشارونو
فصاحت
فصل
فصلونه
فصلونو
فضا
فضاء
فضايل
فضايي
فضایي
فضل
فضله
فضوله
فضيلت
فضیلت
فطرت
فطري
فعال
فعالان
فعالانو
فعاله
فعالو
فعالولو
فعاليت
فعاليتونه
فعاليتونو
فعالیت
فعالیتونه
فعالیتونو
فعالینو
فعالې
فعل
فعلا
فعلونو
فعلي
فقال
فقر
فقرات
فقره
فقرې
فقط
فقه
فقهاوو
فقهي
فقهې
فقير
فقيرخېل
فقیر
فقیه
فقې
فكر
فكري
فلتر
فلترات
فلج
فلز
فلزات
فلزاتو
فلزي
فلسطين
فلسطین
فلسفه
فلسفو
فلسفي
فلسفيانو
فلسفی
فلسفې
فلش
فلم
فلمفير
فلمونه
فلمونو
فلمي
فلورانس
فلوریدا
فلوریډا
فلورېنس
فلپين
فلک
فلیپین
فن
فنا
فنجي
فنلنډ
فنون
فنونو
فني
فنگس
فنی
فهد
فهرست
فهم
فهیم
فو
فورا
فورم
فورمول
فوري
فورټ
فورډ
فوسيلي
فوسیل
فوسیلونه
فوسیلونو
فوسیلي
فوق
فولادو
فولر
فولکلور
فون
فونګي
فوټ
فوټبال
فوټه
فوټو
فوځ
فوځي
فوکلور
فى
في
فيته
فيتي
فيثاغورث
فيروز
فيزيک
فيزيکي
فيصده
فيصدي
فيصل
فيصله
فيض
فيل
فيلسوف
فيلسوفان
فيلسوفانو
فيلسوفه
فيليپ
فيمينيزم
فيمينيسټ
فينيکول
فيوډالي
فيچر
فټ
فټه
فډرال
فډرالي
فکتور
فکتورونه
فکتورونو
فکر
فکره
فکرونه
فکرونو
فکري
فکس
فکټور
فی
فیس
فیسبوک
فیشر
فیصده
فیصل
فیصله
فیض
فیضون
فیلسوف
فیلسوفان
فیلسوفانو
فیلم
فیلمور
فیلپین
فیلیپ
فیلیپین
فیمینیزم
فیمینېزم
فینوټایپ
فینیس
فېسبوک
فېلم
فېمینیزم
فېنوټایپ
فېکشن
ق
قا
قابل
قابليت
قابلیت
قات
قاتل
قاجار
قادر
قادري
قاره
قاري
قاریانو
قاسم
قاسمي
قاضي
قاضيانو
قاضی
قاضیان
قاضیانو
قاطع
قاعده
قاعدوي
قاعدې
قافله
قافيه
قافيې
قافیه
قال
قالب
قام
قامت
قاموس
قاموسونه
قاموسونو
قامي
قانع
قانون
قانوني
قانونی
قاهره
قاهرې
قايد
قايل
قايم
قايمة
قاچاق
قبايل
قبايلو
قبايلي
قبایل
قبایلو
قبایلي
قبر
قبرس
قبرونه
قبرونو
قبض
قبضه
قبل
قبله
قبلوي
قبلې
قبول
قبوله
قبيله
قبيلو
قبيلوي
قبيلي
قبيلې
قبیله
قبیلو
قبیلوي
قبیلې
قتل
قتیبه
قحطي
قحطۍ
قد
قدامت
قدر
قدرت
قدرتونه
قدرتونو
قدرمند
قدرمندې
قدس
قدم
قدیم
قدیمی
قذافي
قرا
قرار
قرارداد
قراردادونو
قراردادي
قرارلري
قراقل
قران
قرانكريم
قراني
قرانکريم
قرانکریم
قرايت
قرایتي
قرباغ
قربان
قربانى
قرباني
قربانیانو
قربانۍ
قرض
قرضاوي
قرغزستان
قرن
قره
قريب
قريش
قريشو
قريشي
قريظه
قرينه
قزاق
قزاقستان
قزاقي
قزلباش
قسطنطنیه
قسطنطنیې
قسم
قسمت
قسمه
قسمونه
قسمي
قشر
قشرونو
قصد
قصدي
قصر
قصه
قصور
قصيده
قصيدې
قصیده
قصې
قضا
قضاء
قضاوت
قضايي
قضایاوو
قضایه
قضایي
قضایی
قضيه
قضيو
قضيې
قضیه
قضیو
قضیې
قطار
قطارونه
قطارونو
قطب
قطبونو
قطبي
قطر
قطع
قطعه
قطعي
قطعې
قفقاز
قل
قلا
قلات
قلب
قلبه
قلبي
قلعه
قلعي
قلم
قلمرو
قلمرونو
قلمه
قلمي
قلندر
قلوي
قلي
قم
قمار
قمر
قمري
قناعت
قند
قندهار
قندوزي
قندونه
قندونو
قهر
قهرمان
قهوه
قو
قواعد
قواعدو
قوانين
قوانينو
قوانین
قوانینو
قواو
قواوو
قوت
قوتونو
قوريه
قوس
قول
قوله
قوم
قوماندان
قوماندانان
قوماندانانو
قومانداني
قوماندانۍ
قومانده
قوماندې
قومندان
قومندانانو
قومندانۍ
قومونه
قومونو
قومي
قومی
قومیت
قوه
قوو
قوي
قوی
قوې
قياس
قيام
قيامت
قيد
قيس
قيصه
قيمة
قيمت
قيمته
قيمتونه
قيمتي
قیاس
قیاسي
قیام
قیامت
قید
قیمت
قیمتي
قېمت
ك
كا
كابل
كار
كاره
كاروان
كارول
كارونه
كارونو
كاري
كافر
كافي
كاكړ
كال
كاله
كامل
كان
كاوه
كايناتو
كاپيسا
كبله
كبير
كتاب
كتابتون
كتابونه
كتابونو
كتل
كثير
كربلا
كرل
كرم
كرنه
كره
كريم
كس
كسان
كسانو
كشف
كعبې
كعنوان
كفاره
كفارو
كفاية
كفر
كل
كلا
كلام
كلتور
كلتوري
كلك
كلمات
كلمه
كلمې
كلن
كلنۍ
كله
كلو
كلونه
كلونو
كلي
كليسا
كم
كمال
كمزورى
كمه
كمپيوټر
كندهار
كنزالعمال
كه
كور
كورني
كورنيو
كورنۍ
كورونو
كول
كولاى
كولاي
كولای
كوله
كولو
كولى
كولې
كوم
كومه
كومې
كوه
كوو
كوونكو
كوونكى
كوونكي
كوى
كوي
كوټه
كوچنى
كوچني
كوښښ
كوې
كى
كي
كياني
كيدل
كيدو
كيسه
كيسې
كيفيت
كيلو
كيمياوي
كينه
كيږى
كيږي
كټواز
كچه
كړ
كړاى
كړل
كړم
كړه
كړو
كړى
كړي
كړيدي
كړی
كړۍ
كړې
كښل
كښى
كښي
كښې
كې
كېداى
كېدل
كېده
كېدو
كېدى
كېږي
كېښود
كە
ل
لا
لابراتوار
لابراتوارونو
لابراتواري
لابي
لاتين
لاتيني
لاتین
لاتیني
لاتینې
لاحق
لادن
لار
لارنس
لاره
لارو
لاروا
لاروي
لارويان
لارويانو
لارویان
لارویانو
لارى
لاري
لاريون
لارډ
لارښود
لارښونې
لارښوونه
لارښوونو
لارښوونې
لاری
لاریون
لاریونونه
لاریونونو
لارۍ
لارې
لارېنس
لازم
لازمه
لازمي
لاس
لاسته
لاستيک
لاسرسي
لاسرسی
لاسليک
لاسلیک
لاسه
لاسو
لاسوند
لاسوندونه
لاسوندونو
لاسونه
لاسونو
لاسوهنه
لاسوهنو
لاسوهنې
لاسي
لاسی
لافایټ
لال
لالا
لاله
لام
لامارک
لامبو
لامل
لامله
لاملونه
لاملونو
لان
لانجمن
لانجه
لانجې
لاند
لاندني
لاندنيو
لاندنۍ
لاندى
لاندي
لانديني
لاندينۍ
لاندی
لاندې
لانګ
لاهم
لاهو
لاهور
لاهوري
لاو
لاورنس
لاوس
لايت
لايحه
لايق
لاين
لايوس
لاړ
لاړل
لاړم
لاړه
لاړو
لاړې
لاک
لاکن
لایبنېتس
لایحه
لایحې
لایق
لاین
لایه
لب
لباس
لبنان
لت
لتا
لته
لحاظ
لحاظه
لحظه
لخوا
لدي
لدينه
لدی
لدې
لذت
لر
لرستان
لرغون
لرغونتوب
لرغونتيا
لرغونتیا
لرغونو
لرغونوالی
لرغونى
لرغوني
لرغونپوه
لرغونپوهانو
لرغونپوهنه
لرغونپوهنې
لرغونی
لرغونې
لرل
لرلای
لرله
لرلو
لرلي
لرلی
لرلید
لرلې
لرم
لره
لرو
لرونكى
لرونكي
لرونكې
لرونکو
لرونکى
لرونکي
لرونکی
لرونکې
لرى
لري
لرګو
لرګى
لرګي
لرګين
لرګينو
لرګيو
لرګی
لرګیو
لرګې
لرگي
لرگيو
لری
لرې
لس
لسانس
لست
لستوڼي
لسم
لسمه
لسمې
لسو
لسيزه
لسيزو
لسيزې
لسګونه
لسګونو
لسگونو
لسیزه
لسیزو
لسیزې
لشکر
لطف
لطيف
لطیف
لعل
لعنت
لغات
لغاتو
لغاتونه
لغة
لغت
لغتنامه
لغتونه
لغتونو
لغمان
لغو
لغوه
لغوي
لــ
لـه
لف
لفظ
لفظونه
لفظونو
لفظي
لقب
لقبونه
لكه
للمي
لله
لم
لمانځل
لمانځنه
لمانځنې
لمانځه
لمبه
لمبو
لمبې
لمخې
لمده
لمر
لمريز
لمريزه
لمريزو
لمريزکال
لمريزې
لمریز
لمریزه
لمریزو
لمریزې
لمس
لمسون
لمسى
لمسي
لمسی
لمسۍ
لمفاوي
لمن
لمنه
لمنو
لمنځه
لمنې
لمونځ
لمونځونه
لمړني
لمړنی
لمړنۍ
لمړى
لمړي
لمړی
لمړۍ
لندبل
لندن
لنده
لنډ
لنډمهال
لنډمهاله
لنډمهالي
لنډمهالې
لنډه
لنډو
لنډون
لنډي
لنډيز
لنډيو
لنډیز
لنډۍ
لنډې
له
لهجه
لهجو
لهجې
لهخپرندویژباړن
لهسکالوټولگهټول
لو
لوا
لوازم
لواطت
لوبغالي
لوبغاړو
لوبغاړي
لوبغاړی
لوبغاړې
لوبه
لوبو
لوبولو
لوبولی
لوبوي
لوبي
لوبيا
لوبډله
لوبډلې
لوبگر
لوبگره
لوبې
لوتر
لودي
لودين
لوديځ
لودی
لودیځ
لور
لوران
لوراند
لورته
لورو
لورى
لوري
لوريو
لوری
لورین
لورې
لوست
لوستل
لوستلو
لوستنه
لوستو
لوستونکو
لوستونکي
لوستونکی
لوستي
لوستی
لوستې
لوسي
لوط
لولو
لولي
لوم
لومړنى
لومړني
لومړنيو
لومړنی
لومړنیو
لومړنۍ
لومړنې
لومړى
لومړي
لومړيتوب
لومړيو
لومړی
لومړیتوب
لومړیتوبونو
لومړیو
لومړۍ
لومړې
لوند
لونګ
لونګۍ
لونگ
لوهانسک
لوى
لوي
لويانو
لويديز
لويديځ
لويديځه
لويديځو
لويديځې
لويس
لويه
لويو
لويي
لويږي
لويیس
لويې
لوټ
لوټان
لوڅ
لوړ
لوړتيا
لوړتیا
لوړه
لوړو
لوړوالى
لوړوالي
لوړوالی
لوړول
لوړولو
لوړوي
لوړي
لوړيږي
لوړپوړي
لوړیږي
لوړې
لوړېدو
لوړېږي
لوږه
لوږې
لوښه
لوښو
لوښى
لوښي
لوښی
لوک
لوکاس
لوکاچ
لوکزامبورګ
لوګر
لوګي
لوگر
لوڼو
لوڼي
لوڼې
لوی
لویانو
لویديځ
لویدیز
لویدیځ
لویدیځه
لویدیځو
لویدیځې
لویز
لویس
لویه
لویو
لویي
لویډ
لویی
لویې
لوې
لوېديځ
لوېديځه
لوېديځو
لوېديځې
لوېدیځ
لوېدیځه
لوېدیځو
لوېدیځې
لوېږي
لي
ليارې
لياقت
ليبرال
ليبراليزم
ليبيا
ليتر
ليتره
ليتوسفير
ليد
ليدل
ليدلو
ليدلى
ليدلي
ليدلی
ليدلې
ليدنه
ليدنو
ليدنې
ليده
ليدو
ليدونکي
ليري
ليرې
ليسانس
ليست
ليسه
ليسې
ليك
ليكل
ليكلو
ليكلى
ليكلي
ليكلې
ليكنه
ليكنو
ليكنې
ليكه
ليكوال
ليكوالو
ليكي
ليلا
ليندۍ
لينن
لينکونه
ليو
ليون
ليوني
ليږد
ليږدول
ليږديز
ليږل
ليږي
ليک
ليکدود
ليکل
ليکلو
ليکلى
ليکلي
ليکلړ
ليکلی
ليکلې
ليکن
ليکنه
ليکنو
ليکني
ليکنښې
ليکنې
ليکه
ليکو
ليکوال
ليکوالان
ليکوالانو
ليکواله
ليکوالو
ليکوالي
ليکوالۍ
ليکونه
ليکونو
ليکونکو
ليکونکى
ليکونکي
ليکونکی
ليکونکې
ليکي
ليکې
لټه
لټول
لټولو
لټون
لټوي
لپا
لپار
لپاره
لچې
لړ
لړزه
لړليک
لړلیک
لړم
لړمان
لړي
لړيو
لړکې
لړی
لړیو
لړۍ
لږ
لږتر
لږترلږه
لږه
لږو
لږوالي
لږکي
لږکیو
لږې
لښتي
لښكر
لښكرو
لښکر
لښکرو
لښکرګاه
لښکرې
لک
لکه
لکو
لکونو
لکي
لکچر
لکچرنوټ
لکۍ
لګول
لګولو
لګوي
لګيږي
لګښت
لګښتونه
لګښتونو
لګیا
لګېدلی
لګېدو
لگول
لگولو
لگوي
لگښت
لی
لیاقت
لیبرال
لیبرالانو
لیبرالي
لیبرالیزم
لیبل
لیبیا
لیتوانیا
لیتویا
لیختن
لید
لیدل
لیدلو
لیدلورو
لیدلوري
لیدلوری
لیدلي
لیدلی
لیدلې
لیدنه
لیدنې
لیده
لیدو
لیدونکو
لیدونکي
لیري
لیری
لیرې
لیسانس
لیست
لیسه
لیسې
لیمو
لین
لیندۍ
لینن
لینک
لینکلن
لینکولن
لینین
لینینیزم
لیو
لیوالتیا
لیون
لیونز
لیوني
لیږد
لیږدول
لیږدیز
لیږل
لیک
لیکدود
لیکل
لیکلو
لیکلي
لیکلی
لیکلې
لیکن
لیکنه
لیکنو
لیکني
لیکنې
لیکه
لیکو
لیکوال
لیکوالان
لیکوالانو
لیکواله
لیکوالو
لیکوالۍ
لیکوالې
لیکونه
لیکونو
لیکونکو
لیکونکي
لیکونکی
لیکي
لیکی
لیکې
لیګ
لیگ
لې
لېبرال
لېبراليزم
لېبرالیزم
لېدل
لېري
لېرې
لېسانس
لېست
لېسه
لېسې
لېنکولن
لېوا
لېوال
لېوالتيا
لېوالتیا
لېواله
لېونتوب
لېږد
لېږدول
لېږدولو
لېږدونکي
لېږدونې
لېږدوونکو
لېږدوونکي
لېږدوي
لېږدي
لېږديز
لېږل
لېږلو
لېږي
لە
م
ما
مابين
مات
ماتم
ماته
ماتو
ماتول
ماتولو
ماتوونکو
ماتوونکې
ماتوي
ماتي
ماتيږي
ماتی
ماتې
ماتېدنې
ماتېدو
ماتېږي
ماجه
ماحول
ماخذ
ماخذونه
ماخذونو
ماخنو
ماد
مادر
مادربورډ
مادرید
مادل
ماده
مادو
مادى
مادي
مادی
مادې
مار
ماران
مارانو
مارتا
مارتن
مارتین
مارتینو
مارشال
مارغانو
مارغه
مارو
ماري
ماريا
مارټن
مارټين
مارټین
مارپېچ
مارچ
مارک
مارکس
مارکسیزم
مارکسیست
مارکسیستي
مارکسېزم
مارکوس
مارکيټ
مارکیټ
مارکېټ
مارګريټ
مارګریټ
ماری
ماریا
مارینو
مازندران
ماساچوست
ماساچوسټ
ماساچوسټس
ماستري
ماسترۍ
ماسره
ماسټر
ماسټري
ماسټرۍ
ماسپښين
ماسپښین
ماسک
ماسکو
ماشوم
ماشومان
ماشومانو
ماشومتوب
ماشومتوبه
ماشين
ماشينونه
ماشينونو
ماشین
ماشیندار
ماشینونه
ماشینونو
ماضي
ماغزه
ماغزو
مافوق
ماقبل
مال
مالتا
مالداري
مالدارۍ
مالدیف
مالك
مالكيانو
مالنکوف
ماله
مالوم
مالومات
مالوماتو
مالوماتي
مالومه
مالونه
مالونو
مالوچ
مالوچو
مالي
ماليات
مالياتو
ماليزيا
ماليه
ماليکول
ماليکولونه
ماليکولونو
ماليکولي
ماليې
مالک
مالکانو
مالکوم
مالکيت
مالکیت
مالګه
مالګو
مالګي
مالګې
مالگه
مالی
مالیات
مالیاتو
مالیاتي
مالیزیا
مالیه
مالیکول
مالیکولونه
مالیکولونو
مالیکولي
مالیې
ماما
مامور
ماموريت
مامورين
مامورينو
ماموریت
ماموریتونه
ماموریتونو
مامورین
مامورینو
مامون
ماموند
مان
مانا
ماناوې
مانده
ماندينه
مانع
مانند
مانه
مانچسټر
ماه
ماهر
ماهي
ماهيان
ماهيت
ماهیت
ماو
ماوراء
ماورای
ماوري
مايع
مايعات
مايعاتو
مايل
مايوسيس
مايکرو
مايکروسکوپ
مايکروسکوپي
مايکرون
مايکل
ماټ
ماډل
ماډلونه
ماډلونو
ماډيسن
ماړه
ماښام
ماکس
ماکو
ماڼۍ
مایا
مایتوکاندریا
مایع
مایعاتو
مایل
مایله
ماین
مایک
مایکرو
مایکروسافټ
مایکروسکوپ
مایکروسکوپي
مایکل
مبارز
مبارزاتو
مبارزه
مبارزو
مبارزې
مبارك
مبارک
مبارکه
مبارکي
مبارکې
مبالغه
مبتلا
مبحث
مبدا
مبلغ
مبهم
مت
متابعت
متاثر
متاثره
متاسفانه
متجانسو
متحد
متحده
متحدو
متحدينو
متحدین
متحدینو
متحدې
متحرک
متخصص
متخصصین
متخصصینو
متر
مترادف
مترادفه
متراکم
مترقي
مترمکعب
متره
مترو
متري
مترۍ
متشابه
متشابهاتو
متصل
متضاد
متضادو
متضرر
متعارف
متعددة
متعلق
متعهد
متفاوت
متفق
متفقینو
متقابل
متقابلو
متقابلې
متقاعد
متقي
متل
متلونه
متلونو
متمدن
متمرکز
متمرکزه
متمرکزې
متن
متناسب
متناظر
متناوب
متنوع
متنونه
متنونو
متني
متهم
متو
متواتر
متوازن
متوجه
متوسط
متوسطه
متوسطې
متون
متونو
متي
متيازو
متکلم
متکي
مثال
مثاله
مثالونه
مثالونو
مثانې
مثبت
مثبته
مثبتو
مثبتې
مثل
مثلا
مثلث
مثنوي
مجارستان
مجاز
مجازات
مجازاتو
مجازي
مجازی
مجاهد
مجاهدين
مجاهدينو
مجاهدین
مجاهدینو
مجاور
مجبور
مجبوره
مجدد
مجددي
مجرا
مجرد
مجرم
مجروح
مجسمه
مجسمو
مجسمې
مجلة
مجلس
مجلسونو
مجله
مجلو
مجلې
مجمع
مجمو
مجموع
مجموعه
مجموعي
مجموعې
مجنون
مجهز
مجهول
مجيد
مجید
محاذ
محاسباتو
محاسباتي
محاسبه
محاسبې
محاصره
محاصرې
محافظت
محافظه
محال
محاورې
محاکم
محاکمه
محاکمو
محاکمې
محب
محبت
محبس
محبوب
محبوبیت
محتاج
محتاط
محترم
محتوا
محتوی
محدث
محدود
محدوده
محدودو
محدودولو
محدودوي
محدوديت
محدوديتونه
محدوديتونو
محدودیت
محدودیتونه
محدودیتونو
محدودې
محراب
محرم
محرميت
محروم
محرومیت
محرک
محسن
محسوس
محصل
محصلانو
محصلين
محصلينو
محصلین
محصلینو
محصول
محصولات
محصولاتو
محفل
محفوظ
محقق
محكمه
محكمې
محل
محله
محلول
محلولونه
محلولونو
محلي
محلی
محم
محمد
محمدبن
محمدخان
محمدكاظم
محمده
محمدي
محمدکاظم
محمود
محور
محوره
محوري
محوه
محي
محيط
محيطي
محکمه
محکمو
محکمی
محکمې
محکوم
محکومیت
محی
محیط
مخ
مخابرات
مخابراتو
مخابراتي
مخاطب
مخالف
مخالفان
مخالفانو
مخالفت
مخالفتونه
مخالفتونو
مخالفه
مخالفو
مخالفين
مخالفينو
مخالفین
مخالفینو
مخالفې
مخامخ
مختار
مخترع
مختصر
مختلط
مختلف
مختلفو
مختلفي
مختلفې
مخته
مختګ
مخدره
مخروطي
مخزن
مخزېږد
مخزېږدي
مخزېږديز
مخصوص
مخصوصه
مخفف
مخفي
مخكي
مخكې
مخلص
مخلوط
مخلوق
مخلوقات
مخلوقاتو
مخنيوى
مخنيوي
مخنيوی
مخنیوي
مخنیوی
مخه
مخور
مخورو
مخونه
مخونهمخکې
مخونو
مخى
مخي
مخينه
مخينې
مخکني
مخکنۍ
مخکى
مخکي
مخکيني
مخکينيو
مخکښ
مخکښانو
مخکښه
مخکښو
مخکښې
مخکی
مخکیني
مخکینۍ
مخکې
مخکېني
مخی
مخینه
مخینې
مخې
مد
مداخله
مداخلې
مدار
مدارونو
مداري
مدافع
مدافعتي
مدام
مداګاسکار
مدت
مدد
مدرس
مدرسه
مدرسو
مدرسې
مدرن
مدعا
مدعومة
مدعي
مدعی
مدغم
مدني
مدنيت
مدنيتونو
مدنی
مديترانې
مدير
مديريت
مديريتي
مدينه
مدينې
مدیترانه
مدیترانې
مدیر
مدیرانو
مدیره
مدیریت
مدینه
مدینې
مذاهبو
مذاکرات
مذاکراتو
مذاکره
مذهب
مذهبه
مذهبونه
مذهبونو
مذهبي
مذهبی
مذکر
مر
مراتب
مراتبو
مراجعه
مراجعو
مراحل
مراحلو
مراد
مراسم
مراسمو
مراعات
مراعت
مراقبت
مرام
مراټي
مراکزو
مراکش
مربع
مربوط
مربوطه
مرتب
مرتبه
مرتبې
مرتد
مرتضی
مرتکب
مرجان
مرجاني
مرجع
مرحله
مرحلو
مرحلي
مرحلې
مرحو
مرحوم
مرد
مردان
مردم
مرزا
مرستندوى
مرستندويه
مرستندوی
مرستندویه
مرسته
مرستو
مرستي
مرستيال
مرستيالان
مرستی
مرستیال
مرستیالان
مرستیالانو
مرستې
مرشد
مرصع
مرض
مرطوب
مرغاب
مرغان
مرغانو
مرغلرې
مرغه
مرغومي
مرغۍ
مركز
مركزي
مركه
مرمر
مرمرو
مرمی
مرمۍ
مره
مرهټيانو
مرهټیانو
مرو
مروان
مروت
مروج
مروجه
مرور
مروره
مري
مريان
مريانو
مريخ
مريض
مريم
مريي
مرييتوب
مرچ
مرکب
مرکبات
مرکباتو
مرکبونه
مرکبونو
مرکبې
مرکز
مرکزونه
مرکزونو
مرکزي
مرکزيت
مرکزی
مرکزیت
مرکه
مرکو
مرکې
مرګ
مرګه
مرگ
مرگه
مری
مریخ
مریض
مریلنډ
مریم
مریيتوب
مرییتوب
مرۍ
مزاج
مزاحمت
مزار
مزارشریف
مزاري
مزایا
مزد
مزدا
مزدور
مزدورانو
مزدوري
مزدورۍ
مزل
مزمن
مزه
مزي
مزيد
مزيل
مزيو
مس
مساحت
مساعد
مساعدة
مساعده
مسافر
مسافرت
مسافرو
مساله
مسالې
مساوات
مساواتو
مساوي
مسايل
مسايلو
مسایل
مسایلو
مست
مستحب
مستحق
مستدرک
مستطيل
مستعار
مستعمراتو
مستعمره
مستعمرو
مستعمرې
مستقل
مستقله
مستقيم
مستقيما
مستقيمه
مستقيمو
مستقيمې
مستقیم
مستقیما
مستقیمه
مستقیمو
مستقیمې
مستند
مستوفي
مستې
مسجد
مسجع
مسح
مسخره
مسره
مسرۍ
مسعود
مسلح
مسلسل
مسلط
مسلك
مسلكي
مسلم
مسلمان
مسلمانان
مسلمانانو
مسلمانه
مسلمانو
مسلمانې
مسله
مسلو
مسلک
مسلکي
مسلکی
مسموم
مسموميت
مسند
مسو
مسوده
مسودې
مسول
مسوليت
مسولیت
مسوول
مسووليت
مسوولیت
مسي
مسيح
مسيحي
مسيحيان
مسيحيانو
مسيحيت
مسير
مسيله
مسيلو
مسيلې
مسيول
مسيوليت
مسيولينو
مسيولیت
مسکن
مسکو
مسیح
مسیحا
مسیحي
مسیحیان
مسیحیانو
مسیحیت
مسیر
مشابه
مشابهت
مشارکت
مشاعره
مشاعرې
مشال
مشاهدات
مشاهداتو
مشاهده
مشاهدو
مشاهدې
مشاور
مشبه
مشبوع
مشتري
مشتريانو
مشترک
مشترکه
مشترکو
مشتریانو
مشتق
مشتقات
مشتمل
مشخص
مشخصات
مشخصاتو
مشخصه
مشخصو
مشخصوي
مشخصې
مشر
مشران
مشرانو
مشرتابه
مشرتوب
مشرف
مشرق
مشرقي
مشره
مشروباتو
مشروط
مشروطه
مشروع
مشروعيت
مشروعیت
مشري
مشری
مشرۍ
مشرې
مشعل
مشغول
مشق
مشكل
مشكوة
مشهد
مشهور
مشهوره
مشهورو
مشهورې
مشورتي
مشوره
مشورو
مشورې
مشک
مشکل
مشکلات
مشکلاتو
مشکله
مصادره
مصارف
مصارفو
مصداق
مصدر
مصر
مصرف
مصرفوي
مصرفي
مصروف
مصري
مصريانو
مصریانو
مصطفى
مصطفی
مصعب
مصلحت
مصنف
مصنوعي
مصنوعی
مصورۍ
مصونيت
مصونیت
مضارع
مضاف
مضامين
مضامينو
مضامینو
مضر
مضره
مضمون
مطابق
مطابقت
مطالب
مطالبو
مطالعات
مطالعاتو
مطالعه
مطالعي
مطالعې
مطبعه
مطبعې
مطبوعاتو
مطبوعاتي
مطبوعه
مطرح
مطرف
مطلب
مطلع
مطلق
مطلقه
مطلقې
مطلوب
مطلوبه
مطمين
مطیع
مظاهر
مظاهرو
مظفر
مظلوم
مظهر
مع
معا
معادل
معادلاتو
معادله
معادلو
معادلې
معاذ
معارف
معاش
معاشونو
معاصر
معاصره
معاصرو
معاصرې
معاف
معافيت
معافیت
معالجه
معاملاتو
معامله
معاملې
معاني
معاهده
معاهدې
معاون
معاويه
معاویه
معاينه
معاینه
معبد
معبدونو
معبود
معتبر
معتبره
معتبرو
معتدل
معتدله
معتدلو
معتزله
معتقد
معجزه
معجزې
معجم
معدن
معدنونو
معدني
معده
معدي
معدې
معراج
معرف
معرفت
معرفي
معرفی
معروف
معز
معزالدین
معشوق
معشوقه
معشوقې
معصوم
معظم
معظمه
معظمې
معقول
معقوله
معلم
معلو
معلول
معلولیت
معلوم
معلومات
معلوماتو
معلوماتي
معلومه
معلومول
معلومولو
معلوموي
معلوميږي
معلومیږي
معلومې
معلومېږي
معمار
معماري
معمارۍ
معمر
معمول
معمولا
معموله
معمولي
معنا
معناوې
معنو
معنوي
معنويت
معنویت
معنى
معني
معنی
معنې
معيار
معيارونه
معيارونو
معياري
معيت
معين
معينه
معکوس
معیار
معیارونه
معیارونو
معیاري
معین
مغازلي
مغرب
مغربي
مغرور
مغز
مغزو
مغزي
مغل
مغلق
مغلو
مغلوب
مغول
مغولو
مغولي
مغولیانو
مغيره
مــ
مفاهمه
مفاهمې
مفاهيم
مفاهيمو
مفاهیم
مفاهیمو
مفتون
مفتي
مفتی
مفرد
مفسر
مفصل
مفصله
مفعول
مفقود
مفهوم
مفهومونه
مفهومونو
مفهومي
مفيد
مفکر
مفکرينو
مفکرینو
مفکوره
مفکورو
مفکورې
مفید
مقا
مقابل
مقابله
مقابلې
مقاصدو
مقاله
مقالو
مقالې
مقام
مقامات
مقاماتو
مقاوم
مقاومت
مقايسه
مقایسه
مقبره
مقبوليت
مقدار
مقدس
مقدم
مقدماتي
مقدمه
مقدوني
مقدونيه
مقدونیایي
مقدونیه
مقر
مقرر
مقررات
مقرراتو
مقرره
مقصد
مقصدونو
مقصود
مقصودي
مقطع
مقعد
مقناطيسي
مقناطیس
مقناطیسي
مقننه
مقننې
مقياس
مقیاس
مكروه
مكلف
مكمل
مكه
مكې
مل
ملا
ملاتړ
ملاتړو
ملاتړي
ملاتړی
ملاتړې
ملاحظه
ملاريا
ملاریا
ملاقات
ملاله
ملالۍ
ملالې
ملامت
ملامحمد
ملامشک
ملايالم
ملاکنډ
ملایانو
ملت
ملتان
ملتو
ملتونه
ملتونو
ملتيا
ملتپال
ملتپالنه
ملتپالنې
ملتپاله
ملتپالو
ملتیا
ملجم
ملحد
ملخ
ملخان
ملك
ملكه
ملكي
ملكيت
ملكې
ملل
ملنډې
ملنګ
ملنګه
ملنگ
مله
ملهم
ملوث
ملوک
ملى
ملي
مليارده
مليونه
ملچ
ملک
ملکان
ملکه
ملکونه
ملکونو
ملکي
ملکيت
ملکی
ملکیت
ملکیتونو
ملکې
ملګرتيا
ملګرتیا
ملګرو
ملګروملتونو
ملګرى
ملګري
ملګری
ملګرې
ملگرتيا
ملگرو
ملگرى
ملگري
ملگری
ملگرې
ملی
ملیارد
ملیارده
ملیت
ملیشه
ملیشو
ملیون
ملیونه
ملې
ممانعت
ممبۍ
ممتاز
ممكن
مملوک
مملکت
ممنوع
ممنوعیت
ممکن
ممکنه
من
منابع
منابعو
منار
مناسب
مناسبت
مناسبه
مناسبو
مناسبې
مناطق
مناظر
مناظره
مناظرې
منافع
مناقب
مناقشې
منبر
منبع
منتخب
منتظر
منتقد
منتقدین
منثور
منجر
منجمد
منجمنټ
منحرف
منحصر
منحل
منحني
مند
مندل
مندو
منذر
منرال
منرالونه
منرالونو
منرالي
منزل
منزلونه
منزوي
منسوب
منسوخ
منشا
منشاء
منشور
منشي
منشی
منصب
منصفه
منصوب
منصور
منطق
منطقه
منطقو
منطقي
منطقی
منطقې
منظر
منظره
منظرو
منظرې
منظم
منظمه
منظمو
منظمې
منظور
منظوم
منظومه
منظومې
منع
منعه
منعکس
منعکسوي
منفرد
منفى
منفي
منفی
منقرض
منل
منله
منلو
منلى
منلي
منلی
منلې
منلے
منم
مننه
مننې
منه
منهاتن
منهاج
منو
منور
منوره
منورې
منونکو
منونکي
منونکې
مني
منځ
منځاند
منځته
منځنى
منځني
منځنيو
منځنی
منځنیو
منځنۍ
منځنې
منځه
منځي
منځپانګه
منځپانګې
منځګړي
منځګړيتوب
منځګړیتوب
منځی
منځۍ
منډه
منډو
منډي
منډيګک
منډيگک
منډې
منښت
منښتلیک
منکر
منګل
منګولیا
منگل
منگلو
منگوال
منی
منې
مه
مهابت
مهاجر
مهاجرت
مهاجرو
مهاجرينو
مهاجرینو
مهارت
مهارتونه
مهارتونو
مهال
مهالنۍ
مهاله
مهالونو
مهالي
مهالی
مهالې
مهبل
مهترلام
مهتمم
مهدي
مهر
مهربان
مهربانه
مهرباني
مهربانۍ
مهم
مهمات
مهماتو
مهمه
مهمو
مهمي
مهمې
مهيا
مو
مواد
موادو
موادوپه
موادوڅخه
موارد
مواردو
موازي
موافق
موافقت
موافقه
موافقو
موافقې
موبايل
موباييل
موبایل
موبل
موتلانته
موتور
موثر
موثره
موثريت
موثریت
موج
موجب
موجو
موجود
موجودات
موجوداتو
موجوددي
موجوده
موجودو
موجودوي
موجودي
موجوديت
موجودیت
موجودې
موجونه
موخه
موخو
موخي
موخې
مودل
موده
مودي
مودی
مودې
موذن
مور
مورال
مورخ
مورخين
مورخينو
مورد
مورشف
مورفولوژي
مورني
مورنی
مورنۍ
موره
موري
موريس
مورچل
مورګان
مورګن
موریتانیا
موریس
مورې
موزمبيق
موزيم
موزیم
موزیمونو
موس
موسس
موسسات
موسساتو
موسسه
موسسو
موسسې
موسم
موسمونو
موسمي
موسى
موسي
موسيقي
موسيقۍ
موسکا
موسی
موسیقي
موسیقی
موسیقۍ
موصل
موضعي
موضوع
موضوعات
موضوعاتو
موضوعي
موضوعګانو
موظف
موفق
موقت
موقته
موقتي
موقتې
موقع
موقعيت
موقعیت
موقعیتونو
موقف
موقيعت
موقیعت
مول
مولا
مولانا
مولر
مولروني
مولف
مولوتف
مولوي
مولوی
مولى
مولي
موم
مومن
مومنان
مومنانو
مومند
مومندو
مومو
مومي
مومی
موناکو
مونث
موند
موندل
موندلای
موندله
موندلو
موندلى
موندلي
موندلی
موندلې
موندنه
موندنو
موندنې
مونرو
مونو
مونوګراف
مونټ
مونږ
مونږتاو
مونږه
مونیخ
موو
موويز
موټ
موټر
موټرو
موټرونه
موټرونو
موټي
موټی
موډرن
موډل
موډلونه
موډلونو
موړ
موړي
موړی
موړې
موږ
موږک
موږکان
موږکانو
موکده
موکه
موکو
موکې
مى
مي
ميا
مياشت
مياشتني
مياشتنۍ
مياشتو
مياشتي
مياشتينۍ
مياشتې
ميان
مياگانو
ميتابوليزم
ميتان
ميتايل
ميتود
ميتودونه
ميتودونو
ميخانيک
ميخانيکي
ميخانيکې
ميدان
ميده
مير
ميراث
ميراثي
ميرزا
ميرمن
ميرمنو
ميرمنې
ميرويس
ميري
ميز
ميزان
ميشت
ميشته
ميشتو
ميل
ميلاد
ميلادي
ميلان
ميلمه
ميله
ميلو
ميلونه
ميلي
ميليارد
ميليارده
ميليون
ميليونه
ميليونو
ميلیونه
ميلې
ميمون
مين
ميندو
ميندې
مينرو
مينه
ميني
مينځ
مينځته
مينځل
مينځه
مينې
ميو
ميوزك
ميوند
ميوه
ميوو
ميوي
ميوې
ميټر
ميډيا
ميړانه
ميړه
ميږي
ميکانيزم
ميکروب
ميکروبونو
مټ
مټره
مټو
مټې
مځکه
مځکي
مځکې
مچ
مچان
مچيو
مچۍ
مډال
مډالونه
مډیسون
مړ
مړشو
مړه
مړو
مړى
مړي
مړينه
مړيني
مړينې
مړی
مړینه
مړینو
مړینې
مړۍ
مړې
مک
مکان
مکاني
مکتب
مکتبونه
مکتبونو
مکتوب
مکرر
مکرمه
مکرمې
مکروب
مکروبونه
مکروبونو
مکسيکو
مکسیکو
مکعب
مکلف
مکلفيت
مکلفیت
مکمل
مکمله
مکه
مکولي
مکي
مکياوېلې
مکډونالډ
مکې
مګر
مګرپه
مګنيزيم
مگر
مڼه
مڼو
مڼې
می
میا
میاشت
میاشتني
میاشتنی
میاشتنۍ
میاشتو
میاشتي
میاشتی
میاشتې
میان
میانمار
میتان
میتود
میتودونه
میتودونو
میثاق
میخانیک
میخانیکي
میخایل
میدان
میده
میر
میراث
میراثي
میرزا
میرمن
میرمنو
میرمنې
میرویس
میز
میزان
میسوري
میسی
میشت
میشته
میشل
میشیګان
میل
میلاد
میلاده
میلادي
میلادی
میلان
میلبورن
میلر
میلمه
میله
میلونه
میلیارد
میلیارده
میلیون
میلیونه
میلیونو
میلیونونه
میلیونونو
مین
میندو
مینسک
مینه
میني
مینځ
مینځه
مینې
میوزیک
میوند
میوه
میوو
میوی
میوې
میډویډیف
میډیا
میړه
میکانیزم
میکانیزمونه
میکانیزمونو
میں
مۍ
مې
مېتا
مېتافزیک
مېتافزیکي
مېتود
مېتودونه
مېتودونو
مېجر
مېدان
مېرمن
مېرمنه
مېرمنو
مېرمني
مېرمنې
مېرویس
مېز
مېسن
مېسي
مېشت
مېشته
مېشتو
مېشتې
مېشتېدو
مېل
مېلاد
مېلادي
مېلبورن
مېلمانه
مېلمنو
مېلمه
مېلیونه
مېن
مېنه
مېنځ
مېنځه
مېنې
مېوند
مېوه
مېوو
مېوې
مېپ
مېچ
مېړانه
مېړانې
مېړني
مېړه
مېگ
ن
نا
نااشنا
ناببره
نابرابري
نابرابرۍ
نابشپړه
نابغه
ناتواني
ناحيه
ناحيې
ناحیه
ناحیې
ناخالص
ناخالصو
ناخبره
ناخوالو
ناخوښه
ناخوښي
ناخوښۍ
نادر
نادرخان
نادرشاه
نادره
نادري
نادولتي
ناراضه
نارسمي
نارمل
نارنج
نارنجي
ناره
نارو
ناروا
ناروغ
ناروغان
ناروغانو
ناروغه
ناروغى
ناروغي
ناروغيو
ناروغی
ناروغیو
ناروغۍ
ناروغې
ناروی
ناروۍ
ناروې
ناروېژي
نارينه
نارینه
نارې
ناز
نازل
نازو
نازي
نازيانو
نازک
نازکه
نازکو
نازکې
نازیانو
ناسا
ناست
ناسته
ناستو
ناستي
ناستی
ناستې
ناسم
ناسمه
ناسمو
ناسمې
ناسکه
ناشر
ناشناس
ناشوني
ناشونی
ناشونې
ناصر
ناصري
ناظر
ناظم
ناعادلانه
ناغوښته
نافذ
ناقانونه
ناقص
نام
نامات
نامتو
نامحدود
نامشروع
نامطلوبه
نامعلوم
نامعلومه
نامعلومو
ناممکن
نامناسب
نامناسبه
نامنظم
نامه
ناموس
نامي
نامیاتي
نامیبیا
نامې
نان
نانسي
نانو
نانوتوي
ناهيلي
ناو
ناوخته
ناور
ناورين
ناورین
ناورینونو
ناول
ناولتيا
ناولونه
ناولونو
ناولې
ناوه
ناوړه
ناوړو
ناوړې
ناوی
ناوې
نايب
نايتروجن
ناټو
ناپلیون
ناپوهۍ
ناپيليون
ناپیلیون
ناپېژندل
ناپېژندلې
ناڅاپه
ناڅاپي
ناڅرګند
ناڅرګنده
ناڅه
ناچاپ
ناچاپه
ناړي
ناړۍ
ناک
ناکافي
ناکام
ناکامه
ناکامو
ناکامي
ناکامۍ
ناکامې
ناکرارۍ
ناکره
ناکله
نایب
نایتروجن
نایجریا
نایجیریا
نبات
نباتات
نباتاتو
نباتاتوکې
نباتي
نباتی
نباید
نبراسکا
نبرد
نبض
نبوت
نبود
نبوغ
نبوي
نبي
نبی
نت
نتايج
نتایج
نتيجه
نتيجې
نتیجه
نتیجې
نتېجه
نثار
نثر
نثرم
نثرونه
نثرونو
نثري
نجات
نجاشي
نجراب
نجران
نجف
نجلۍ
نجم
نجوم
نجومي
نجونو
نجونې
نجيب
نجیب
نحن
نحو
نحوه
نحوي
نخشه
نخوا
نخود
نخودو
نخښه
نخښې
ند
ندارد
ندرت
نده
ندوي
ندى
ندي
ندی
ندې
نر
نرانو
نرخ
نرخونه
نرخونو
نرسري
نرم
نرمه
نرمو
نرمې
نرنگ
نرودا
نرى
نري
نرينه
نری
نرینه
نرۍ
نزد
نزدې
نزول
نس
نساجي
نسايي
نسب
نسبت
نسبتا
نسبتي
نسبي
نسبيت
نسبیت
نستان
نسته
نسج
نسجونه
نسجونو
نسخه
نسخهدريم
نسخو
نسخې
نسل
نسله
نسلونه
نسلونو
نسلي
نسواري
نسي
نسيم
نسکور
نسیم
نشان
نشت
نشته
نشتوالى
نشتوالي
نشتوالی
نشتون
نشر
نشرات
نشراتو
نشراتي
نشرونه
نشم
نشنل
نشنلیزم
نشه
نشو
نشوای
نشول
نشوه
نشى
نشي
نشی
نشې
نص
نصاب
نصب
نصر
نصرالله
نصراني
نصرانيت
نصرت
نصواري
نصوصو
نصيب
نصيحت
نصير
نصیب
نصیحت
نصیر
نظار
نظارت
نظام
نظامونه
نظامونو
نظامي
نظامی
نظر
نظره
نظرونه
نظرونو
نظري
نظريات
نظرياتو
نظرياتي
نظريه
نظريو
نظريې
نظرکې
نظریات
نظریاتو
نظریه
نظریو
نظریې
نظم
نظمه
نظمونه
نظمونو
نظمي
نظمۍ
نظير
نظیر
نعمان
نعماني
نعمت
نعمتونه
نعمتونو
نعوظ
نعيم
نغاړي
نغدو
نغمه
نغمې
نغوته
نغښتی
نغښتې
نــ
نـه
نف
نفاق
نفت
نفتو
نفتي
نفر
نفرت
نفره
نفرو
نفس
نفقه
نفوذ
نفوذي
نفوس
نفوسه
نفوسو
نفى
نفي
نفې
نقاشي
نقاشۍ
نقد
نقدي
نقره
نقش
نقشبندي
نقشه
نقشو
نقشې
نقص
نقصان
نقض
نقطه
نقطو
نقطي
نقطی
نقطې
نقل
نقليه
نقلیه
نك
نكاح
نل
نلري
نلری
نم
نما
نمانځل
نماينده
نماینده
نمبر
نمر
نمره
نمرو
نمرې
نمرېوں
نمو
نمود
نموده
نمونه
نمونو
نمونې
نمي
نمی
نن
نندارتون
ننداره
نندارو
نندارې
ننني
نننی
نننۍ
ننه
ننواتې
ننوت
ننوتل
ننوتلو
ننوتو
ننوتې
ننوزي
ننوځي
نني
ننګ
ننګرهار
ننګه
ننګونو
ننګونې
ننگ
ننگرهار
ننۍ
نه
نهاد
نهايي
نهایت
نهج
نهر
نهرو
نهضت
نهم
نهمه
نهمې
نهه
نهو
نو
نوا
نواب
نواز
نوامبر
نوبت
نوبتي
نوبل
نوبيا
نوح
نود
نوددې
نودې
نور
نورالدین
نورد
نورزي
نورزی
نورستان
نورستاني
نورمال
نورماله
نورمحمد
نورمونو
نوره
نورهم
نورو
نوروز
نوري
نورگل
نوری
نورې
نوزاد
نوع
نوعه
نوعو
نوعي
نوعيت
نوعی
نوعې
نولس
نولسم
نولسمه
نولسمې
نوله
نوم
نوماند
نوماندان
نوماندانو
نوماندي
نوماندۍ
نومبر
نومر
نومرو
نوملړ
نومه
نومهال
نوموتو
نوموتی
نومول
نومولی
نومونه
نومونو
نوموړو
نوموړى
نوموړي
نوموړی
نوموړۍ
نوموړې
نومي
نوميالي
نومياليو
نوميالی
نوميده
نوميږي
نومځري
نومځری
نومړی
نومی
نومیالي
نومیده
نومیږي
نومیږی
نومې
نومېد
نومېدل
نومېده
نومېدی
نومېږي
نوهغه
نوو
نوى
نوي
نويو
نوټ
نوټونو
نوپدې
نوپه
نوځکه
نوښار
نوښت
نوښتونه
نوښتونو
نوښتګر
نوک
نوکان
نوکرانو
نوکلیک
نوی
نویو
نوې
ني
نيا
نياز
نيازی
نيالګي
نيالګيو
نيالگي
نيبولا
نيت
نيسو
نيسى
نيسي
نيسې
نيشاپور
نيغ
نيغه
نيكه
نيل
نيله
نيم
نيمايي
نيمروز
نيمه
نيمو
نيمګړتيا
نيمګړتياوې
نيمې
نيو
نيوترون
نيوز
نيول
نيولو
نيولوسره
نيولى
نيولي
نيولی
نيولې
نيونه
نيونې
نيويارک
نيوټن
نيوکه
نيوکو
نيوکې
نيټه
نيټې
نيپال
نيک
نيکاراګوا
نيکه
نيکونه
نيکونو
نڅا
نړ
نړي
نړيوال
نړيواله
نړيوالو
نړيوالې
نړی
نړیوال
نړیوالتوب
نړیواله
نړیوالو
نړیوالی
نړیوالې
نړۍ
نړېوال
نړېواله
نړېوالو
نړېوالې
نږدي
نږدی
نږدې
نژاد
نژادونو
نژادي
نژدي
نژدی
نژدې
نښان
نښانو
نښانونه
نښانې
نښتر
نښته
نښتو
نښتي
نښتی
نښتیځه
نښتې
نښلول
نښلولو
نښلوي
نښلي
نښه
نښو
نښي
نښير
نښی
نښې
نکاح
نکته
نکل
نکلونه
نکلونو
نکوي
نکړي
نگاه
نگه
نہ
نی
نیا
نیابتی
نیاز
نیازی
نیاندرتال
نیت
نیروهای
نیروی
نیز
نیست
نیسي
نیسی
نیشابور
نیل
نیلي
نیم
نیمايي
نیمایي
نیمایی
نیمروز
نیمه
نیمو
نیمګړتیاوې
نیمګړی
نیمې
نیندرتال
نیو
نیواک
نیوجرسي
نیوز
نیوزلنډ
نیوزیلنډ
نیوزیلینډ
نیول
نیولو
نیولي
نیولی
نیولې
نیونه
نیونې
نیوونکو
نیوټن
نیوکه
نیوکو
نیوکې
نیویارک
نیټه
نیټې
نیپال
نیپتون
نیچه
نیک
نیکاراګوا
نیکسون
نیکه
نیکولاس
نیکولای
نیکونه
نیکونو
نۍ
نې
نېزو
نېسي
نېشنل
نېغ
نېغه
نېلسون
نېواک
نېولې
نېټه
نېټې
نېږدې
نېک
نېکمرغه
نېکمرغۍ
نېکه
نے
نە
ه
ها
هابز
هابسبورګ
هاخوا
هادي
هار
هاربر
هاروارډ
هارورډ
هارولډ
هارون
هارپر
هارډ
هارډویر
هارډینګ
هاریس
هاشم
هاشمي
هاضمي
هاضمې
هاغه
هال
هالند
هالنډ
هالنډي
هالوکاسټ
هامار
هامون
هان
هانا
هاند
هانس
هانګ
هانگ
هاو
هاوارډ
هاوايي
هاوس
هاى
هاي
هايدرا
هايدرو
هايدرواکسايد
هايدروجن
هايدروجني
هايزنبرګ
هايس
هايپوتايرايډيزم
هايډروجن
هايک
هاګ
های
هایدرو
هایدروجن
هایک
هایی
هبتات
هبل
هتل
هجران
هجرت
هجري
هجری
هجوم
هخامنشي
هخامنشیانو
هدايت
هدایت
هدف
هدفونه
هدفونو
هدمارک
هديره
هدیره
هذا
هذه
هر
هرات
هربرت
هربرټ
هرحال
هرزه
هرزګوینا
هرصورت
هرمز
هرمزگان
هره
هرهغه
هرو
هروخت
هرومرو
هروي
هري
هريرود
هريو
هرڅه
هرڅوك
هرڅومره
هرڅوک
هرچا
هرډول
هرکال
هرکله
هرکلي
هرکلی
هری
هریس
هریسون
هریو
هرې
هزار
هزاره
هستند
هسته
هستو
هستوي
هستوګن
هستوی
هستي
هستۍ
هستې
هسي
هسپانوي
هسپانيه
هسپانيې
هسپانیا
هسپانیه
هسپانیې
هسک
هسکه
هسکې
هسې
هشام
هضم
هضمي
هغسي
هغسې
هغه
هغو
هغومره
هغوى
هغوي
هغوی
هغوۍ
هغوې
هغى
هغي
هغی
هغې
هغە
هـ
هــ
هفته
هفتو
هكله
هلال
هلاکو
هلته
هلك
هلمند
هله
هلو
هلوځلو
هلي
هلک
هلکان
هلکانو
هلیکوپتر
هلې
هم
هما
هماغسې
هماغلته
هماغه
هماغې
همالته
همان
همايون
همایون
همت
همجنس
همجنسبازانو
همجنسګرایانو
همد
همدا
همداراز
همدارنګه
همدارنگه
همداسي
همداسې
همداشان
همدان
همداډول
همدرانګه
همدغسې
همدغه
همدغو
همدغې
همدلته
همده
همدومره
همدوی
همدى
همدي
همدی
همدې
همزمان
همغه
همغږي
همغږی
همغږۍ
همغږې
همغې
هملته
هملین
هممهاله
همه
همهغه
همواره
هميش
هميشه
هميلټن
همچنین
همکار
همکاران
همکارانو
همکاري
همکاری
همکاریو
همکارۍ
همیشه
همین
همېش
همېشه
هنتون
هند
هنداره
هندسه
هندسي
هندسې
هندو
هندوان
هندوانو
هندوراس
هندوستان
هندوستاني
هندوکش
هندویزم
هندي
هنديانو
هندکې
هندی
هندیانو
هنر
هنرمند
هنرمندان
هنرمندانو
هنرونه
هنرونو
هنري
هنری
هنګري
هنگري
هو
هوا
هوار
هواره
هوارو
هواروي
هواري
هوارې
هوازي
هوايي
هواکې
هوایي
هوایی
هوبارت
هوتک
هورمون
هورمونونه
هورمونونو
هورې
هوس
هوسا
هوساينې
هوساینه
هوساینې
هوسۍ
هوش
هولټ
هومر
هومره
هومو
هومینین
هوور
هويت
هوټل
هوټلونه
هوټلونو
هوډ
هوږه
هوښ
هوښيار
هوښیار
هوک
هوکړه
هوکړو
هوکړې
هوګو
هویت
هي
هيبت
هيثمي
هير
هيل
هيله
هيلو
هيلي
هيلې
هينري
هينکاک
هيواد
هيواده
هيوادو
هيوادونه
هيوادونو
هيوادونوکې
هيوادکې
هيوم
هييت
هيڅ
هيڅكله
هيڅوك
هيڅوک
هيڅکله
هيچا
هټلر
هټۍ
هڅه
هڅو
هڅوب
هڅول
هڅولو
هڅونه
هڅونې
هڅوي
هڅي
هڅې
هډه
هډو
هډوکو
هډوکي
هډوکی
هډوکې
هډې
هړپه
هک
هکتار
هکتاره
هکله
هکټاره
هګيو
هګی
هګیو
هګۍ
هگی
هگۍ
هی
هیات
هیت
هیر
هیل
هیله
هیلو
هیلې
هیمو
هیموګلوبین
هینري
هیواد
هیوادو
هیوادوالو
هیوادونه
هیوادونو
هیوادونوکی
هیوز
هیوم
هیيت
هیټلر
هیڅ
هیڅوک
هیڅکله
هیچ
هیچا
هیګل
هې
هېتیانو
هېر
هېره
هېز
هېل
هېنداره
هېندرېکس
هېنري
هېواد
هېوادمشر
هېوادمل
هېوادنو
هېواده
هېوادو
هېوادوال
هېوادوالو
هېوادونه
هېوادونو
هېڅ
هېڅكله
هېڅوک
هېڅکله
هېچا
و
وا
واتسلاف
واتیکان
واجب
واجبه
واحد
واحده
واحدونه
واحدونو
واحدي
واحدې
واخان
واخست
واخستل
واخسته
واخلم
واخله
واخلو
واخلي
واخلی
واخيست
واخيستل
واخيستله
واخيسته
واخیست
واخیستل
واخیسته
واخیستې
واخېست
واخېسته
واده
وادي
وار
وارث
وارخطا
وارد
واردات
وارداتو
وارده
واردوي
وارسا
وارن
واره
وارو
واري
وارې
واز
واستاوه
واستول
واستوي
واسط
واسطه
واشنګټن
واشنگټن
واصحابه
واضح
واضحه
واقع
واقعا
واقعات
واقعاتو
واقعه
واقعي
واقعيت
واقعیت
واقعیتونه
واقعیتونو
واقعې
واك
واكمن
واكمني
واكمنۍ
وال
والا
والد
والدين
والدينو
والدین
والدینو
والس
والله
والنهايه
واله
والو
والى
والي
واليانو
واليس
والټر
والی
والیس
والۍ
والې
وان
وانا
وانه
واهه
واو
واوره
واورو
واوري
واورين
واورې
واورېد
واورېدل
واورېده
واوسي
واول
واوړي
واوښت
واوښتل
واوښته
واى
واي
وايرس
وايرسونه
وايرسونو
وايروسونه
وايستل
وايم
وايه
وايو
وايى
وايي
وايټ
وايی
وايې
واټ
واټر
واټرشيډ
واټسن
واټن
واټنونو
واټه
واټونو
واپس
واچاوه
واچول
واچوله
واچوو
واچوي
واړاوه
واړه
واړو
واړول
واړوله
واړوه
واړوي
واژن
واژه
واښه
واښو
واک
واکسين
واکسينو
واکسین
واکسینونه
واکسینونو
واکمن
واکمنان
واکمنانو
واکمنه
واکمنو
واکمني
واکمنيو
واکمنی
واکمنیو
واکمنۍ
واکمنې
واکه
واکونه
واکونو
واګې
وای
وایت
وایرس
وایرسونه
وایستل
وایم
وایه
وایو
وایي
وایټ
وایی
وایې
واېستل
وب
وبا
وباسي
وباله
وبسایټ
وبلل
وبلله
وبه
وبولي
وبښي
وت
وتاړه
وتل
وتلو
وتلى
وتلي
وتلی
وتلې
وته
وتو
وتوانېد
وتوانېدل
وتوغول
وتونځايونو
وتړل
وتړله
وتړي
وتښتي
وتښتېد
وتښتېدل
وجدان
وجه
وجهه
وجهي
وجود
وجودلري
وجي
وجې
وحدت
وحشت
وحشي
وحشی
وحى
وحې
وخت
وخته
وختو
وختونه
وختونو
وختي
وخوت
وخوري
وخوځېد
وخوړ
وخوړل
وخوړله
وخوړه
ود
ودان
ودانه
ودانو
ودانولو
وداني
ودانيو
ودانیزو
ودانیو
ودانۍ
ودانې
ودراوه
ودرول
ودروي
ودريږي
ودرېد
ودرېدل
ودرېده
ودرېږي
وده
ودونه
ودونو
ودي
ودی
ودې
ور
وراثت
وراره
وران
ورانه
ورانۍ
ورايه
ورايټي
ورایه
ورباندي
ورباندی
ورباندې
وربخښي
وربشو
وربښي
ورتلل
ورتلو
ورته
ورتګ
وردګ
وردګو
وردگ
وردگو
ورزده
ورزش
ورزشي
ورزيات
ورساوه
ورسته
ورستي
ورستيدنه
ورستيو
ورستیو
ورسره
ورسول
ورسوله
ورسولې
ورسوي
ورسوی
ورسي
ورسيد
ورسيدل
ورسيده
ورسيږي
ورسپارل
ورسید
ورسیدل
ورسیده
ورسیږي
ورسېد
ورسېدل
ورسېده
ورسېدی
ورسېدې
ورسېږي
ورشو
ورشي
ورغلل
ورغلم
ورغله
ورغلي
ورغلی
ورغلې
ورغول
ورغوي
ورغى
ورغی
ورك
وركول
وركولو
وركوي
وركړ
وركړل
وركړه
وركړى
وركړي
وركړې
ورله
ورمونټ
ورننوځي
ورنه
ورنږدې
وره
ورهاخوا
ورو
ورور
وروره
وروزل
وروزي
وروستاړي
وروستاړی
وروستني
وروستنی
وروستنۍ
وروسته
وروستو
وروستى
وروستي
وروستيو
وروستی
وروستیو
وروستۍ
وروستې
وروسپارل
ورونه
ورونو
وروڼه
وروڼو
وري
وريځ
وريځو
وريځې
ورپسي
ورپسې
ورپه
ورپورې
ورپېښې
ورځ
ورځني
ورځنيو
ورځنی
ورځنیو
ورځنۍ
ورځه
ورځو
ورځى
ورځي
ورځپاڼه
ورځپاڼو
ورځپاڼي
ورځپاڼې
ورځی
ورځې
ورڅخه
ورډ
ورښت
ورښتي
ورک
ورکاوه
ورکه
ورکول
ورکولای
ورکوله
ورکولو
ورکولی
ورکولې
ورکوم
ورکونکو
ورکونکي
ورکونې
ورکوو
ورکوونکو
ورکوونکي
ورکوونکی
ورکوونکې
ورکوونې
ورکوي
ورکوی
ورکړ
ورکړل
ورکړم
ورکړه
ورکړو
ورکړى
ورکړي
ورکړی
ورکړې
ورکې
ورکېدو
ورګرځي
ورګډ
ورگډ
وریجو
وریدونه
ورې
ورېځ
ورېځو
ورېځې
ورېښمو
ورېښمین
وزارت
وزارتونو
وزر
وزرو
وزرونه
وزرونو
وزرې
وزله
وزلو
وزلي
وزلۍ
وزمه
وزمې
وزن
وزو
وزي
وزير
وزيران
وزيرانو
وزيرستان
وزګار
وزګارتيا
وزګارتیا
وزیر
وزیران
وزیرانو
وزیرستان
وزیره
وزیرې
وزیږېد
وزې
وزېږېد
وزېږېده
وس
وساتل
وساتله
وساتلې
وساته
وساتو
وساتي
وساتې
وسايل
وسايلو
وسایطو
وسایل
وسایلو
وستايل
وستایل
وسط
وسطي
وسعت
وسلم
وسله
وسلو
وسلوال
وسلوالو
وسلې
وسمهال
وسه
وسو
وسوه
وسوځول
وسي
وسيط
وسيله
وسيلو
وسيلې
وسپارل
وسپارله
وسپاره
وسپاري
وسپنه
وسپنې
وسیله
وسیلو
وسیلې
وسې
وشمېرل
وشو
وشول
وشوه
وشوې
وشي
وشړل
وشی
وصل
وصي
وصيت
وصیت
وضاحت
وضع
وضعه
وضعي
وضعيت
وضعیت
وطن
وطنه
وطني
وظايف
وظايفو
وظایف
وظيفه
وظيفوي
وظيفي
وظيفې
وظیفه
وظیفوي
وعده
وعدې
وعظ
وغندل
وغواړو
وغواړي
وغورځاوه
وغورځول
وغورځوي
وغوښت
وغوښتل
وغوښته
وغيره
وغځول
وغځېده
وغړولې
وغیره
وفا
وفات
وفادار
وفاداره
وفاداري
وفادارۍ
وفرمايل
وفرمایل
وقار
وقاص
وقت
وقف
وقفه
وقفې
وكتل
وكيل
وكړ
وكړم
وكړه
وكړو
وكړى
وكړي
وكړې
ول
ولا
ولادت
ولادمیر
ولاديمير
ولادیمیر
ولانس
ولاياتو
ولايت
ولايتونه
ولايتونو
ولايتي
ولاړ
ولاړشي
ولاړل
ولاړم
ولاړه
ولاړو
ولاړي
ولاړی
ولاړې
ولایاتو
ولایت
ولایتونه
ولایتونو
ولایتي
ولد
ولرو
ولرى
ولري
ولری
ولرې
ولس
ولسمشر
ولسمشرانو
ولسمشري
ولسمشريزو
ولسمشریزه
ولسمشریزو
ولسمشریزې
ولسمشرۍ
ولسو
ولسوال
ولسوالو
ولسوالى
ولسوالي
ولسواليو
ولسوالی
ولسوالیو
ولسوالۍ
ولسواک
ولسواکۍ
ولسونو
ولسي
ولسی
وله
ولو
ولوباوه
ولوبوله
ولوبوي
ولور
ولوست
ولوستل
ولوستله
ولوسته
ولوله
ولولو
ولولي
ولوېد
ولوېده
ولى
ولي
وليام
وليد
وليدل
وليده
وليكل
وليږل
وليکل
وليکله
وليکلې
وليکه
وليکو
وليکي
ولټ
ولټوي
ولټېج
ولکه
ولکې
ولګاوه
ولګول
ولګوي
ولګېده
ولی
ولید
ولیدل
ولیده
ولیعهد
ولیږل
ولیکل
ولیکله
ولیکه
ولیکي
ولې
ولېږدول
ولېږدوي
ولېږل
ولېږه
ولېږي
وم
ومانه
ومن
ومنل
ومنله
ومنو
ومني
ومومي
وموند
وموندل
وموندله
ومونده
ومړ
ومې
ون
وند
ونزویلا
ونشو
ونشي
ونلري
ونه
ونو
ونوماوه
ونومول
ونوموله
وني
ونيسو
ونيسي
ونيو
ونيول
ونيوله
ونيولې
ونيوه
ونډه
ونډو
ونډې
ونښته
ونښلول
ونکړه
ونکړي
ونی
ونیسو
ونیسي
ونیسی
ونیو
ونیول
ونیوله
ونیولې
ونیوه
ونې
ونېول
ونە
وه
وهل
وهله
وهلو
وهلى
وهلي
وهلی
وهلې
وهم
وهنه
وهنې
وهو
وهونکي
وهي
وهڅاوه
وهڅول
وهڅوله
وهڅوي
وو
وواهه
ووايم
ووايه
ووايو
ووايي
ووايې
وواژه
ووایم
ووایه
ووایو
ووایي
ووب
ووبونو
ووت
ووتل
ووته
وورسته
ووزنیاک
وون
ووهل
ووهله
ووهي
وويشل
وويل
وويله
وويلې
وويني
ووييل
ووځي
ووچې
ووډ
ووړ
ووژل
ووژني
وویستل
وویشل
وویل
وویني
ووېشل
ووېل
وى
وي
ويا
وياله
ويالو
ويالې
ويانا
وياند
وياړ
ويب
ويبپاڼه
ويتنام
ويجاړ
ويجاړۍ
ويدا
ويده
ويدي
وير
ويرجينيا
ويره
ويروس
ويروسونه
ويروسونو
ويروسي
ويسا
ويستل
ويستلو
ويش
ويشت
ويشتل
ويشتمه
ويشتو
ويشل
ويل
ويلاى
ويلاي
ويلای
ويلز
ويله
ويلو
ويلى
ويلي
ويليام
ويليم
ويلی
ويلې
وينا
ويناوو
ويناوې
وينم
وينه
وينو
ويني
وينې
ويونکو
ويونکي
ويونکی
ويي
وييل
وييونو
وييکه
ويټامين
ويټامينونه
ويډيو
ويښ
ويښتان
ويښتانو
ويښته
ويکي
ويکيسيند
ويکيپېډيا
ويی
ويیلے
ويې
وټاكل
وټاکل
وټاکله
وټاکه
وټاکي
وټه
وټې
وپاشل
وپلورل
وپلوري
وپوهېږي
وپوښتل
وپيژندل
وپيژني
وپیژندل
وپېژانده
وپېژندل
وپېژنو
وپېژني
وځنډول
وځي
وځپل
وځپي
وڅاري
وڅښي
وڅېړل
وڅېړي
وچ
وچه
وچو
وچوالي
وچول
وچولو
وچوي
وچي
وچيږي
وچکالي
وچکالۍ
وچې
وړ
وړاندوينه
وړاندوینه
وړاندوینې
وړاندوېینه
وړاندوېینې
وړاندى
وړاندي
وړانديز
وړانديزونه
وړاندی
وړاندیز
وړاندیزونه
وړاندې
وړانګ
وړانګشون
وړانګه
وړانګو
وړانګي
وړانګې
وړانگه
وړانگو
وړانگې
وړتيا
وړتياوو
وړتياوې
وړتیا
وړتیاوو
وړتیاوې
وړده
وړدي
وړل
وړله
وړلو
وړلې
وړم
وړنه
وړنې
وړه
وړو
وړولو
وړونکو
وړونکي
وړونکی
وړونکې
وړوي
وړوکي
وړوکی
وړوکې
وړى
وړي
وړيا
وړيو
وړی
وړیا
وړۍ
وړې
وږمه
وږمې
وږو
وږي
وږی
وژباړل
وژباړه
وژغورل
وژغوره
وژغوري
وژل
وژلو
وژلي
وژنه
وژنو
وژني
وژنې
وژونکو
وژونکي
وژونکی
وژونکې
وژړل
وښو
وښود
وښودل
وښودله
وښوده
وښيي
وښیي
وکاراوه
وکارول
وکاروله
وکارولې
وکاروه
وکاروي
وکالت
وکتل
وکرل
وکري
وکولاى
وکولای
وکولی
وکوچېد
وکي
وکيل
وکړ
وکړای
وکړل
وکړم
وکړه
وکړو
وکړى
وکړي
وکړچې
وکړی
وکړې
وکیل
وکیلانو
وګاټه
وګاڼه
وګرځاوه
وګرځول
وګرځوله
وګرځوي
وګرځي
وګرځېد
وګرځېدل
وګرځېده
وګرځېدې
وګمارل
وګوره
وګورو
وګوري
وګومارل
وګټله
وګټلې
وګټي
وګړو
وګړي
وګړی
وګړې
وګڼل
وګڼله
وګڼي
وگرځي
وگرځېد
وگمارل
وگوره
وگورو
وگوري
وگورۍ
وگومارل
وگټله
وگړ
وگړو
وگړي
وگړی
وگڼل
وی
ویانا
ویاند
ویاړ
ویب
ویبپاڼه
ویبپاڼې
ویت
ویتنام
ویج
ویجاړ
ویده
ویر
ویرایش
ویرجنیا
ویرجینیا
ویره
ویروس
ویروسونه
ویروسي
ویرې
ویزې
ویسا
ویستل
ویسټ
ویش
ویشتل
ویشتونکي
ویشل
ویل
ویلا
ویلارډ
ویلای
ویلر
ویلز
ویلسن
ویلسون
ویلهلم
ویلو
ویلي
ویلی
ویلیام
ویلیامز
ویلیم
ویلې
وین
وینا
ویناوال
ویناوو
ویناوې
وینزویلا
وینم
وینه
وینو
ویني
وینډوز
وینی
وینې
ویونکو
ویونکي
ویونکی
ویټامین
ویټو
ویډیو
ویژه
ویښ
ویکتور
ویکتوریا
ویکي
ویکټوریا
ویکی
ویی
وییکي
وییکی
ویې
وې
وېب
وېبر
وېبپاڼه
وېبپاڼې
وېره
وېروس
وېرې
وېسټ
وېش
وېشت
وېشتمه
وېشل
وېشلو
وېشلي
وېشلی
وېشلې
وېشنيزه
وېشنیزه
وېشي
وېل
وېلز
وېلسن
وېلي
وېلیم
وېلې
وېنا
وېنزویلا
وېښتان
وېښته
وېکتوریا
وېګ
وے
وە
ى
ي
يا
ياد
ياده
يادو
يادول
يادولای
يادولو
يادولی
يادونه
يادوني
يادونې
يادوي
ياديږي
يادښت
يادښتونه
يادښتونو
يادګار
يادې
يادېده
يادېږي
يار
ياران
يارانو
ياره
ياست
يافته
يال
يان
ياني
يانې
ياهم
يايې
ياپه
يب
يبر
يت
يتيم
يحيى
يخ
يخه
يخو
يخي
يد
ير
يرغل
يرغمل
يز
يزد
يزيد
يستخدم
يع
يعقوب
يعنى
يعني
يعنی
يعنې
يـې
يفتلي
يقين
يقيني
يل
يم
يمن
يمه
ين
ينابيع
ينه
يه
يهود
يهودان
يهودانو
يهودو
يهودي
يهوديان
يهوديانو
يهوديت
يو
يوازي
يوازيني
يوازينی
يوازينۍ
يوازی
يوازې
يواځي
يواځينۍ
يواځی
يواځې
يوبل
يودبل
يورانيم
يوري
يوريا
يوسف
يوسفزي
يوسفزی
يوسلو
يوسي
يوشان
يوشمير
يوشمېر
يوله
يوم
يون
يونان
يوناني
يونانيانو
يونس
يونسکو
يونليک
يوه
يووالي
يووالی
يوولس
يوولسم
يوولسمه
يوولسمې
يوون
يووړ
يووړل
يووړه
يوى
يوي
يوټيوب
يوځاى
يوځاي
يوځای
يوځل
يوڅه
يوڅهيال
يوډول
يوړل
يوکراين
يوی
يوې
يوە
يى
يي
ييز
ييزه
ييزو
ييزې
يږ
يږي
يک
يکــ
يی
يیز
يیزو
يې
٠
٠٠٠
١
١٠
١٠٠
١٠٠٠
١١
١٢
١٢٠
١٣
١٣٤٦
١٣٥٦
١٣٥٧
١٣٥٨
١٣٦٠
١٣٦٣
١٣٦٤
١٣٦٥
١٣٦٧
١٣٦٨
١٣٧١
١٣٧٥
١٣٧٩
١٣٨١
١٣٨٢
١٣٨٣
١٣٨٤
١٣٨٥
١٣٨٦
١٣٨٧
١٣٨٨
١٣٨٩
١٣٩٠
١٣٩١
١٤
١٥
١٥٠
١٦
١٧
١٨
١٩
١٩٦٠
١٩٦١
١٩٦٥
١٩٧٩
١٩٨٠
١٩٨٢
١٩٨٨
١٩٩٠
١٩٩٢
١٩٩٦
١٩٩٧
١٩٩٨
١٩٩٩
٢
٢٠
٢٠٠
٢٠٠٠
٢٠٠١
٢٠٠٢
٢٠٠٣
٢٠٠٤
٢٠٠٥
٢٠٠٦
٢٠٠٧
٢٠٠٨
٢٠٠٩
٢٠١
٢٠١١
٢٠١٣
٢٠١٧
٢٠١٨
٢٠١٩
٢١
٢٢
٢٣
٢٤
٢٥
٢٥٠
٢٦
٢٧
٢٨
٢٩
٣
٣٠
٣٠٠
٣٠٠٠
٣١
٣٢
٣٣
٣٤
٣٥
٣٦
٣٧
٣٨
٤
٤٠
٤٠٠
٤٠٠٠
٤١
٤٢
٤٥
٤٨
٥
٥٠
٥٠٠
٥٥
٦
٦٠
٦٠٠
٦٥
٧
٧٠
٧٥
٨
٨٠
٨٠٠
٩
٩٠
٪
٫
٬
٭
ٱ
ٴ
ٶ
ٹ
ټ
ټا
ټابمن
ټافت
ټاكل
ټاكي
ټال
ټام
ټامپکېنز
ټامېل
ټانک
ټانکو
ټانکونه
ټانکونو
ټاور
ټاون
ټايم
ټايمز
ټايپ
ټاټرا
ټاټوبى
ټاټوبي
ټاټوبی
ټاپه
ټاپو
ټاپووزمه
ټاپووزمې
ټاپوګان
ټاپوګانو
ټاپوگانی
ټاچر
ټاکل
ټاکلو
ټاکلي
ټاکلی
ټاکلې
ټاکنه
ټاکنو
ټاکنيزو
ټاکنیز
ټاکنیزو
ټاکنیزې
ټاکنې
ټاکونکي
ټاکي
ټایلر
ټایلنډ
ټایم
ټایمز
ټایوان
ټبر
ټبرونه
ټبرونو
ټرامپ
ټرانس
ټرانسپورټ
ټرای
ټرمپ
ټرمینل
ټرومن
ټروډو
ټریلیون
ټغر
ټكر
ټكى
ټكي
ټلوالې
ټلويزيون
ټلويزيوني
ټلویزیون
ټليفون
ټليفوني
ټن
ټنه
ټنو
ټو
ټوخي
ټوخی
ټورنټو
ټوريزم
ټوك
ټوكه
ټول
ټولن
ټولنه
ټولنو
ټولني
ټولنيز
ټولنيزه
ټولنيزو
ټولنيزې
ټولنپال
ټولنپوه
ټولنپوهنه
ټولنپوهنې
ټولنی
ټولنیز
ټولنیزه
ټولنیزو
ټولنیزې
ټولنې
ټوله
ټولو
ټولواک
ټولواکمنې
ټولول
ټولولو
ټولونه
ټولوژنې
ټولي
ټوليز
ټوليزه
ټوليزو
ټولټال
ټولټاکنو
ټولټاکنې
ټولپوښتنه
ټولپوښتنې
ټولګه
ټولګو
ټولګي
ټولګيو
ټولګټو
ټولګی
ټولګیو
ټولګې
ټولگه
ټولگي
ټولگی
ټولگې
ټولی
ټولیز
ټولیزه
ټولیزو
ټولیزې
ټولۍ
ټولې
ټوماس
ټوټه
ټوټو
ټوټي
ټوټې
ټوپ
ټوپک
ټوک
ټوکر
ټوکه
ټوکو
ټوکونو
ټوکې
ټوکېدنه
ټویټر
ټي
ټيم
ټينګ
ټينګار
ټينګه
ټينګې
ټينگ
ټينگار
ټينگه
ټيټ
ټيټه
ټيټو
ټيټې
ټيکنالوجي
ټيکنالوژي
ټيکنالوژۍ
ټټر
ټپ
ټپه
ټپونه
ټپونو
ټپي
ټپيان
ټپیان
ټپیانو
ټپې
ټک
ټکان
ټکر
ټکسي
ټکنالوجۍ
ټکنالوژي
ټکنالوژيو
ټکنالوژۍ
ټکو
ټکور
ټکول
ټکولو
ټکى
ټکي
ټکټ
ټکی
ټکې
ټی
ټیم
ټینګ
ټینګار
ټینګه
ټینګولو
ټینګښت
ټینګې
ټینگار
ټیټ
ټیټه
ټیټو
ټیټې
ټیکسي
ټیکنالوژي
ټیکنالوژۍ
ټېل
ټېلوگو
ټﻮﻝ
ټﻮﻟﻨ
ټﻮﻟﻨﻪ
ټﻮﻟﻮ
پ
پا
پابند
پاته
پاتى
پاتي
پاتی
پاتې
پاخه
پادري
پادشاه
پادشاهي
پادشاهۍ
پار
پاراګوای
پارس
پارسونز
پارسي
پارسيانو
پارسی
پارلمان
پارلمانونو
پارلماني
پاره
پاروونکو
پاريس
پارټۍ
پارک
پارکس
پارکونه
پارکونو
پاریس
پازوال
پاس
پاسته
پاسني
پاسنۍ
پاسه
پاسوال
پاسورډ
پاسپورټ
پاسکال
پاشا
پاشل
پاك
پاكستان
پاكه
پاكې
پال
پالان
پالانو
پالل
پاللو
پالنه
پالنې
پاله
پالو
پالوال
پالونکو
پالونکي
پالونکی
پالي
پاليسي
پاليسۍ
پالک
پالیسي
پالیسیو
پالیسۍ
پام
پاملرنه
پاملرني
پاملرنې
پامه
پامير
پامیر
پان
پاناما
پانه
پاني
پانډا
پانګه
پانګوال
پانګوالو
پانګوالي
پانګوالۍ
پانګونه
پانګونې
پانګې
پانگه
پانگې
پانی
پاور
پاول
پاى
پاي
پايتخت
پايله
پايلو
پايلوچ
پايلوچان
پايلوچانو
پايلې
پاينده
پايه
پايپ
پايڅوړوروسته
پايښت
پايې
پاپ
پاپر
پاڅه
پاڅون
پاڅونونه
پاڅونونو
پاڅي
پاڅېد
پاڅېدل
پاچا
پاچاهان
پاچاهانو
پاچاهي
پاچاهیو
پاچاهۍ
پاچايانو
پاچايي
پاچايۍ
پاچایانو
پاچایی
پاچهي
پاچهۍ
پاړسي
پاک
پاکستان
پاکستاني
پاکستانی
پاکه
پاکو
پاکوالي
پاکول
پاکولو
پاکي
پاکټ
پاکۍ
پاکې
پاڼه
پاڼو
پاڼي
پاڼی
پاڼې
پای
پایان
پایتخت
پایدارې
پایله
پایلو
پایلې
پایه
پایپ
پایښت
پاې
پت
پتنگ
پته
پتي
پخاطر
پخلا
پخلاینې
پخلي
پخلی
پخه
پخو
پخوا
پخوانى
پخواني
پخوانيو
پخوانی
پخوانیو
پخوانۍ
پخوانې
پخول
پخولو
پخيږي
پخپل
پخپله
پخپلو
پخې
پداسي
پداسې
پدر
پدغه
پدى
پدي
پديده
پدی
پدیده
پدیدو
پدیدې
پدې
پر
پراته
پراخ
پراختيا
پراختیا
پراختیايي
پراختیایي
پراخه
پراخو
پراخوالي
پراخوالی
پراخول
پراخولو
پراخوي
پراخي
پراخې
پراخېدنې
پراخېدو
پراخېږي
پرازيت
پرازيتونه
پرازيتي
پرازیت
پراساس
پراسسر
پرانستل
پرانستې
پرانيزي
پرانيست
پرانيستل
پرانيستې
پرانیزي
پرانیست
پرانیستل
پرانیسته
پرانیستي
پرانیستی
پرانیستې
پرانېستل
پرايميټ
پراکساید
پراګ
پراگ
پرایس
پربنسټ
پرت
پرتلنې
پرتله
پرتليز
پرتلې
پرته
پرتو
پرتي
پرتګال
پرتګالي
پرتګالیانو
پرتې
پرخلاف
پرده
پردو
پردى
پردي
پرديش
پرديو
پردی
پردیو
پردۍ
پردې
پردېس
پرست
پرستي
پرستۍ
پرسر
پرسونل
پرضد
پرغاړه
پرله
پرلپسې
پرمخ
پرمختللو
پرمختللي
پرمختللی
پرمختللې
پرمختيا
پرمختيايي
پرمختک
پرمختګ
پرمختګونه
پرمختګونو
پرمختگ
پرمختیا
پرمختیایي
پرمهال
پرمټ
پرو
پروا
پرواز
پروان
پروانه
پروت
پروتستان
پروتستانت
پروتو
پروتون
پروتوکول
پروتوکولونه
پروتين
پروتین
پروخت
پرودون
پروس
پروسس
پروسه
پروسو
پروسي
پروسې
پروشنکو
پروشیا
پروفيسر
پروفيسور
پروفیسر
پروفیسور
پرولتاریا
پرون
پروټو
پروټين
پروټينو
پروټينونه
پروټينونو
پروټین
پروټینونو
پروپاګند
پروړاندې
پروژه
پروژو
پروژي
پروژې
پروګرام
پروګرامونه
پروګرامونو
پروگرام
پروگرامونه
پروگرامونو
پرى
پري
پريس
پريږدي
پريښودل
پريکړه
پرځان
پرځاى
پرځاي
پرځای
پرچم
پرچون
پرښته
پرښتو
پرښتې
پرک
پری
پریس
پریسټلي
پریږدي
پریښود
پریښودل
پریکړه
پریکړو
پریکړی
پریکړې
پرې
پرېكړه
پرېمانه
پرېږده
پرېږدي
پرېښود
پرېښودل
پرېښودلو
پرېښوده
پرېښودو
پرېښودې
پرېښي
پرېښې
پرېکنده
پرېکون
پرېکړه
پرېکړو
پرېکړې
پزه
پزې
پس
پست
پسته
پستي
پستې
پسر
پسرلى
پسرلي
پسرلی
پسند
پسه
پسونه
پسونو
پسى
پسي
پسی
پسې
پشان
پشاور
پشت
پشتو
پشد
پشه
پغمان
پــ
پــه
پـه
پكار
پكتيا
پكتيكا
پكي
پكښې
پكې
پل
پلا
پلار
پلاره
پلاز
پلازما
پلازمينه
پلازمینه
پلازمینې
پلازمېنه
پلازمېنې
پلاس
پلاستيک
پلاستيکونه
پلاستيکي
پلاستيکې
پلاستیک
پلاستیکي
پلان
پلانونه
پلانونو
پلاني
پلانک
پلاوي
پلاوی
پلاټ
پلرني
پلرنی
پلرنۍ
پلرونه
پلرونو
پلس
پلمه
پلن
پلنوالی
پله
پلو
پلور
پلورل
پلورلو
پلورنځي
پلورونکي
پلوري
پلوشې
پلونه
پلونو
پلوه
پلوو
پلوي
پلويان
پلويانو
پلويو
پلوټو
پلوی
پلویان
پلویانو
پلویتوب
پلوۍ
پلوې
پلي
پلټل
پلټلو
پلټنه
پلټنو
پلټنې
پلټونکو
پلټونکي
پلی
پلیٹ
پلیټ
پلې
پمپ
پنا
پناه
پنبه
پنبي
پنبې
پنج
پنجاب
پنجابي
پنجشنبې
پنجشیر
پنجشېر
پنجه
پنجوايي
پند
پنس
پنسلوانيا
پنسلوانیا
پنسلين
پنهان
پنوم
پنځ
پنځلس
پنځلسم
پنځلسمه
پنځلسمې
پنځلسو
پنځم
پنځمه
پنځمې
پنځه
پنځو
پنځوس
پنځوسو
پنځول
پنځون
پنځونه
پنځونې
پنډ
پنډوالي
پنکرسټ
په
پهلوان
پهلوي
پو
پواسطه
پوتاشيم
پوتاشیم
پوتين
پوتین
پوخ
پور
پورت
پورتني
پورتنيو
پورتنی
پورتنیو
پورتنۍ
پورتنې
پورته
پورتو
پوره
پورونه
پورونو
پورى
پوري
پورټ
پورټو
پوری
پورې
پوزه
پوزې
پوست
پوستانو
پوسته
پوستو
پوستونو
پوستي
پوستکى
پوستکي
پوستکی
پوستکې
پوستی
پوستې
پوسيله
پوسټ
پوسیله
پوش
پول
پولاد
پولادو
پولادي
پولنډ
پولنډي
پوله
پولو
پولي
پوليس
پوليسو
پولينډ
پولينډي
پولی
پولیس
پولیسو
پولیمیر
پولیمیرایزیشن
پولیمیرونه
پولیمیرونو
پولې
پولېنډ
پونډ
پونډه
پوه
پوهان
پوهاند
پوهانو
پوهاوي
پوهاوی
پوهنتون
پوهنتونه
پوهنتونو
پوهنتونونه
پوهنتونونو
پوهنتوني
پوهندوی
پوهنغونډ
پوهنمل
پوهنه
پوهنو
پوهنوال
پوهني
پوهنيار
پوهنيز
پوهنيزه
پوهنيزو
پوهنيزې
پوهنځى
پوهنځي
پوهنځيو
پوهنځی
پوهنځیو
پوهنځۍ
پوهنیز
پوهنې
پوهه
پوهو
پوهي
پوهيدل
پوهيدو
پوهيږو
پوهيږي
پوهیدل
پوهیږي
پوهې
پوهېدل
پوهېدلو
پوهېدم
پوهېدنه
پوهېدنې
پوهېده
پوهېدو
پوهېږم
پوهېږو
پوهېږي
پوهېږې
پوټکي
پوپل
پوپلزی
پوځ
پوځونه
پوځونو
پوځي
پوځيان
پوځيانو
پوځی
پوځیان
پوځیانو
پوڅکۍ
پوډر
پوړ
پوړو
پوړونه
پوړونو
پوړي
پوړيو
پوړی
پوړۍ
پوښ
پوښاک
پوښتل
پوښتنه
پوښتنو
پوښتني
پوښتنې
پوښتي
پوښل
پوښلي
پوښلی
پوښلې
پوښه
پوښونه
پوښونو
پوښي
پوښښ
پي
پياده
پياز
پيازو
پياوړتيا
پياوړو
پياوړى
پياوړي
پياوړی
پياوړې
پيدا
پيداشي
پيداوار
پيدايښت
پيدايښتي
پيداکولو
پيداکوي
پيداکيږي
پيداکړي
پيداکېږي
پير
پيرمحمد
پيرو
پيروان
پيروانو
پيرودونکو
پيرودونکي
پيرودونکی
پيروي
پيسو
پيسي
پيسې
پيش
پيشنهاد
پيشو
پيغام
پيغامونه
پيغامونو
پيغمبر
پيغمبران
پيغمبرانو
پيل
پيلامه
پيله
پيلوي
پيليږي
پيلېږي
پيمانه
پينځم
پينځه
پينځو
پيوستون
پيوند
پيټر
پيچ
پيچلي
پيړي
پيړيو
پيړۍ
پيژندل
پيژندلو
پيژندنه
پيژندنې
پيژني
پيښ
پيښه
پيښو
پيښور
پيښي
پيښيږي
پيښې
پټ
پټان
پټرولیم
پټلۍ
پټه
پټو
پټول
پټولو
پټوي
پټي
پټی
پټۍ
پټې
پړ
پړانګ
پړانگ
پړاو
پړاونه
پړاونو
پړاوونه
پړاوونو
پړسوب
پړه
پژواک
پژۍ
پښت
پښتا
پښتانه
پښتنه
پښتنو
پښتني
پښتنې
پښتو
پښتورګو
پښتورگو
پښتون
پښتونخوا
پښتونستان
پښتونواله
پښتونولي
پښتونولۍ
پښتۍ
پښه
پښو
پښين
پښې
پښېمانه
پک
پکار
پکارده
پکتيا
پکتيکا
پکتیا
پکتیکا
پکي
پکښي
پکښی
پکښې
پکی
پکې
پګړۍ
پڼي
پہ
پی
پیاده
پیاز
پیام
پیانو
پیاوړتیا
پیاوړو
پیاوړي
پیاوړی
پیاوړې
پیدا
پیدایښت
پیر
پیرو
پیروان
پیروانو
پیروي
پیسه
پیسو
پیسې
پیش
پیشو
پیغام
پیغامونه
پیغامونو
پیغمبر
پیل
پیله
پیلولو
پیلوي
پیلوټ
پیلوټه
پیلېدو
پیلېږي
پیمانه
پینځه
پینځو
پیوستون
پیوند
پیټر
پیچلې
پیړی
پیړیو
پیړۍ
پیژندل
پیژندلو
پیژندنه
پیژندنې
پیژني
پیښ
پیښه
پیښو
پیښور
پیښې
پییر
پییرس
پۍ
پې
پېج
پېدا
پېر
پېرلو
پېرونو
پېرى
پېري
پېريان
پېريانو
پېسې
پېغام
پېغله
پېغلې
پېغمبر
پېغمبرانو
پېغمبراکرم
پېغور
پېل
پېن
پېنځه
پېټی
پېچ
پېچلتيا
پېچلتیا
پېچلو
پېچلي
پېچلی
پېچلې
پېړيو
پېړی
پېړیو
پېړۍ
پېژانده
پېژند
پېژندل
پېژندلو
پېژندلي
پېژندلی
پېژندنه
پېژندنې
پېژندونکو
پېژندونکي
پېژندونکی
پېژندګلو
پېژندګلوي
پېژندگلوي
پېژنم
پېژنو
پېژني
پېښ
پېښليک
پېښه
پېښو
پېښور
پېښوي
پېښي
پېښې
پېښېدو
پېښېږي
پە
ځ
ځا
ځار
ځاله
ځالې
ځامن
ځان
ځانته
ځانله
ځانمرګي
ځانه
ځانونه
ځانونو
ځاني
ځانکړي
ځانګړتيا
ځانګړتياوو
ځانګړتياوې
ځانګړتیا
ځانګړتیاوو
ځانګړتیاوې
ځانګړنه
ځانګړنو
ځانګړنې
ځانګړو
ځانګړى
ځانګړي
ځانګړی
ځانګړې
ځانگړتيا
ځانگړنه
ځانگړنو
ځانگړنې
ځانگړو
ځانگړى
ځانگړي
ځانگړی
ځانگړې
ځاى
ځاي
ځايناستي
ځايناستی
ځايه
ځايو
ځايونه
ځايونو
ځايونوکې
ځايي
ځايې
ځاځي
ځای
ځایناستي
ځایناستی
ځایه
ځایونه
ځایونو
ځایي
ځایګي
ځایګی
ځایی
ځاې
ځاے
ځخه
ځدراڼ
ځدراڼو
ځغاستې
ځكه
ځل
ځلا
ځلاند
ځلانده
ځلميانو
ځله
ځلو
ځلي
ځلی
ځلې
ځم
ځما
ځمكنی
ځمكه
ځمكو
ځمكي
ځمكې
ځمک
ځمکني
ځمکنيو
ځمکنی
ځمکنیو
ځمکنۍ
ځمکه
ځمکو
ځمکوکې
ځمکي
ځمکی
ځمکې
ځناور
ځناوران
ځناورو
ځنو
ځني
ځنځير
ځنځيري
ځنځیر
ځنځیري
ځنډ
ځنډه
ځنډول
ځنګل
ځنګلاتو
ځنګلداري
ځنګلدارۍ
ځنګله
ځنګلونه
ځنګلونو
ځنګلونوڅانګه
ځنګلونوکې
ځنګلي
ځنگلونه
ځنگلونو
ځنگلي
ځنی
ځنې
ځه
ځو
ځواب
ځوابونه
ځوابونو
ځواك
ځواكونو
ځوان
ځوانان
ځوانانو
ځوانه
ځوانو
ځواني
ځوانکو
ځوانکې
ځوانۍ
ځوانې
ځواک
ځواکمن
ځواکمنو
ځواکونه
ځواکونو
ځور
ځورمنتيا
ځورول
ځورولو
ځورونه
ځورونو
ځورونې
ځولۍ
ځوي
ځوړ
ځوړند
ځوی
ځي
ځير
ځيرک
ځيرکتيا
ځينو
ځينى
ځيني
ځينی
ځينې
ځيګر
ځيگر
ځپل
ځپلو
ځپلې
ځړول
ځکه
ځگر
ځی
ځیر
ځیرک
ځیرکتیا
ځینو
ځیني
ځینی
ځینې
ځې
ځېل
ځېنو
ځېنې
ځﺎﻥ
ڂ
څ
څا
څادر
څار
څارل
څارنه
څارنوال
څارنوالۍ
څارنې
څارونکو
څارونکي
څارونکی
څاروي
څارويو
څاروی
څارویو
څاري
څارگرې
څانګه
څانګو
څانګي
څانګې
څانگه
څانگو
څانگي
څانگې
څاه
څاڅکو
څاڅکي
څخه
څر
څراغ
څراغونه
څراغونو
څرخ
څرخه
څرخي
څرخېږي
څرنګه
څرنګوالي
څرنګوالی
څرنگه
څرنگوالي
څرک
څرګند
څرګنده
څرګندو
څرګندول
څرګندولو
څرګندونه
څرګندونو
څرګندونې
څرګندوي
څرګندويي
څرګنديږي
څرګندیږي
څرګندې
څرګندېدل
څرګندېدو
څرګندېږي
څرگند
څرگنده
څرگندولو
څرگندونه
څرگندونې
څرگندوي
څرگندي
څرگنديږي
څرگندېږي
څــ
څلور
څلورم
څلورمه
څلورمې
څلورو
څلورګونو
څلويښت
څلویښت
څلوېښت
څلوېښتمه
څلوېښتو
څلي
څلی
څمکنيو
څنډه
څنډو
څنډې
څنګ
څنګه
څنگ
څنگه
څه
څو
څوارلس
څوارلسم
څوارلسمه
څوارلسمې
څوارلسو
څوك
څومره
څوپلا
څوک
څوکلن
څوکه
څوکو
څوکي
څوکیو
څوکۍ
څوکې
څوګونو
څوګوني
څير
څيره
څيرې
څيز
څيزونه
څيزونو
څيړل
څيړنه
څيړنو
څيړني
څيړنې
څيړونکو
څيړونکي
څټ
څپرکي
څپرکی
څپه
څپو
څپې
څځه
څڅه
څړ
څړځاي
څړځايونه
څړځايونو
څړځای
څښاک
څښتن
څښتنان
څښتنانو
څښتنه
څښل
څښلو
څښي
څکول
څیر
څیرمه
څیره
څیز
څیزونه
څیزونو
څیړنه
څیړنو
څیړنیز
څیړنې
څیړونکو
څې
څېر
څېرمه
څېره
څېرو
څېرې
څېړل
څېړلو
څېړلي
څېړنه
څېړنو
څېړني
څېړنيز
څېړنيزو
څېړنيزې
څېړنپوه
څېړنیز
څېړنیزه
څېړنیزو
څېړنیزې
څېړنې
څېړونکو
څېړونکي
څېړونکی
څېړونکې
څېړي
څە
څﺨﻪ
څﻪ
څﻮ
چ
چا
چابهار
چاته
چاد
چار
چارتراش
چارج
چارجينګ
چارسده
چارسدې
چارلز
چارلس
چارلېز
چارلېس
چاره
چارو
چارواکو
چارواکي
چارواکی
چاري
چارچ
چارچاپيره
چارچوکاټ
چاری
چارې
چاقو
چال
چامسکي
چاندلر
چانس
چاه
چاودنه
چاودنو
چاودنې
چاودونکي
چاپ
چاپه
چاپولو
چاپي
چاپير
چاپيره
چاپيريال
چاپيريالي
چاپيریال
چاپکال
چاپیریال
چاپېر
چاپېره
چاپېريال
چاپېريالي
چاپېریال
چاپېریالونو
چاپېریالي
چاپېږي
چاچې
چاړج
چاڼ
چای
چت
چتر
چترال
چترۍ
چراغ
چرته
چرس
چرچ
چرچل
چرچیل
چرګ
چرګان
چرګانو
چریکي
چـې
چل
چلم
چلن
چلند
چلندونه
چلندونو
چلندي
چلول
چلولو
چلونه
چلوونکو
چلوونکي
چلوونکی
چلوي
چليز
چليږي
چلېږي
چم
چمبرلین
چمتو
چمتووالي
چمتووالی
چمن
چمپانزي
چنار
چنجي
چند
چندان
چنده
چنګاښ
چنګیز
چنگاښ
چنین
چه
چهار
چهر
چهل
چو
چور
چورلکو
چورلکې
چون
چونه
چونگښې
چونې
چوي
چوپ
چوپتيا
چوپړ
چوپړتیاوو
چوک
چوکاټ
چوکیو
چوکۍ
چى
چي
چيرته
چيرى
چيري
چيری
چيرې
چين
چينايي
چينجي
چينل
چينه
چينو
چيني
چينې
چيچنيا
چيچک
چيک
چټل
چټک
چټکتيا
چټکتیا
چټکه
چټکو
چټکۍ
چټکې
چپ
چپاو
چپرهار
چپه
چپې
چک
چکر
چکوسلواکيا
چکوسلواکیا
چڼاس
چڼچړ
چی
چیرته
چیري
چیری
چیرې
چیلي
چین
چینايي
چینایانو
چینایي
چینایی
چینل
چینه
چینو
چیني
چینی
چینې
چیچنیا
چیچک
چیک
چیکی
چې
چېرته
چېري
چېرې
چېن
چېک
چېکي
چېکی
ڈ
ڈیٹا
ډ
ډار
ډاروين
ډاروین
ډاروینیزم
ډاكټر
ډال
ډالر
ډالره
ډالرو
ډالۍ
ډان
ډاى
ډاي
ډاټ
ډاډ
ډاډمن
ډاډه
ډاکتر
ډاکتران
ډاکترانو
ډاکټر
ډاکټران
ډاکټرانو
ډاکټره
ډاګلاس
ډاګه
ډاگ
ډاگه
ډای
ډب
ډبر
ډبرليک
ډبره
ډبرو
ډبري
ډبرين
ډبرينو
ډبریز
ډبرین
ډبرینو
ډبرې
ډبل
ډبلوالی
ډبليو
ډبلیو
ډرامه
ډرامو
ډرامې
ډزو
ډزې
ډسمبر
ډك
ډكه
ډل
ډلبندي
ډلبنديو
ډلبندۍ
ډله
ډلو
ډلى
ډلي
ډلګۍ
ډلی
ډلې
ډمبرو
ډنمارک
ډنمارکي
ډنډ
ډنډر
ډنډونه
ډنډونو
ډه
ډهلي
ډو
ډوب
ډوز
ډول
ډولانځورگرد
ډوله
ډولو
ډولونه
ډولونو
ډونالډ
ډوډۍ
ډوک
ډي
ډير
ډيرزيات
ډيره
ډيرو
ډيرى
ډيري
ډيريږي
ډيرکم
ډيری
ډيرۍ
ډيرې
ډيزاين
ډيسمبر
ډيلي
ډيورنډ
ډيوه
ډيويډ
ډيټا
ډيپلوماټیک
ډپټي
ډډ
ډډه
ډډې
ډک
ډکه
ډکو
ډکولو
ډکې
ډګر
ډګروال
ډګرونه
ډګرونو
ډگر
ډگروال
ډگرونو
ډی
ډیجیټل
ډیر
ډیره
ډیرو
ډیري
ډیری
ډیرې
ډیزاین
ډیزل
ډیسمبر
ډیسک
ډیلي
ډیلی
ډیموکرات
ډیموکراتیک
ډیموکراسي
ډیموکراسۍ
ډیموکراټ
ډیموکراټیک
ډینامیک
ډیورنډ
ډیویډ
ډیټابیس
ډیکین
ډې
ډېبس
ډېر
ډېرتر
ډېره
ډېرو
ډېروالي
ډېروالی
ډېروي
ډېرى
ډېري
ډېريو
ډېرښت
ډېرګړی
ډېری
ډېریو
ډېرۍ
ډېرې
ډېرېدل
ډېرېدو
ډېرېږي
ډېسك
ډېسمبر
ډېفن
ډېموکراسي
ډېوي
ډېوېډ
ډېټا
ډېټابېس
ډﺍ
ډﻭﻝ
ڑ
ړ
ړانده
ړنګ
ړنګېدو
ړنگ
ړه
ړومبى
ړومبی
ړوند
ړﻩ
ړﻭ
ړﻯ
ړﻱ
ږ
ږدو
ږدي
ږغ
ږوب
ږيره
ږيري
ږﻱ
ژ
ژامې
ژان
ژانر
ژانرونه
ژانرونو
ژاړم
ژاړي
ژاک
ژب
ژباړل
ژباړلي
ژباړلی
ژباړن
ژباړه
ژباړو
ژباړونکي
ژباړونکی
ژباړي
ژباړې
ژبني
ژبنيو
ژبنۍ
ژبه
ژبو
ژبي
ژبپوه
ژبپوهان
ژبپوهانو
ژبپوهنه
ژبپوهنې
ژبژغورنې
ژبی
ژبې
ژر
ژرنده
ژره
ژغورل
ژغورلو
ژغورنه
ژغورنې
ژغوري
ژمن
ژمنتيا
ژمنتیا
ژمنه
ژمنو
ژمني
ژمنۍ
ژمنې
ژمي
ژمی
ژمې
ژو
ژواک
ژوب
ژوبل
ژوبله
ژوبلې
ژور
ژورنال
ژورنالست
ژورنالستانو
ژورناليزم
ژورناليست
ژورناليسټان
ژورنالیزم
ژورنالیست
ژورنالېزم
ژورنالېست
ژوره
ژورو
ژوروالي
ژوروالی
ژورې
ژوند
ژوندانه
ژوندليک
ژوندلیک
ژونده
ژوندون
ژوندى
ژوندي
ژونديو
ژوندکوي
ژوندکې
ژوندی
ژوندیو
ژوندۍ
ژوندې
ژونکه
ژونکو
ژونکې
ژوو
ژوي
ژويو
ژوی
ژویو
ژوې
ژيړ
ژړا
ژړل
ژړۍ
ژڼیو
ژیړ
ژیژکا
ژېړ
ژېړو
ښ
ښا
ښاخ
ښاخبري
ښاخونه
ښاخونو
ښاد
ښادمن
ښاده
ښار
ښارته
ښاره
ښارو
ښاروال
ښاروالۍ
ښارونه
ښارونو
ښاري
ښارکي
ښارکې
ښارګوټو
ښارګوټي
ښارګوټی
ښارگوټي
ښاغلو
ښاغلى
ښاغلي
ښاغلی
ښاغلې
ښامار
ښايست
ښايسته
ښايي
ښايې
ښاپېرۍ
ښایست
ښایسته
ښایي
ښایی
ښایې
ښخ
ښخولو
ښرني
ښكاره
ښكاري
ښكته
ښكلا
ښكلى
ښكلي
ښه
ښو
ښود
ښودل
ښودله
ښودلو
ښودلي
ښودلی
ښودلې
ښودنه
ښودنې
ښوده
ښوراوک
ښون
ښونځي
ښوول
ښوولې
ښوون
ښووند
ښوونكي
ښوونه
ښوونو
ښووني
ښوونځى
ښوونځي
ښوونځيو
ښوونځی
ښوونځیو
ښوونځۍ
ښوونکو
ښوونکي
ښوونکی
ښوونکې
ښوونیز
ښوونیزو
ښوونیزې
ښوونې
ښى
ښي
ښيي
ښيښه
ښيښې
ښيې
ښځمنپالنې
ښځه
ښځو
ښځي
ښځينه
ښځی
ښځینه
ښځې
ښکار
ښکارنده
ښکارندو
ښکارندويي
ښکارندوی
ښکارندویي
ښکارندې
ښکاره
ښکاروي
ښکاري
ښکاری
ښکارېده
ښکتنۍ
ښکته
ښکر
ښکلا
ښکلاوو
ښکلو
ښکلى
ښکلي
ښکلی
ښکلې
ښکیل
ښکېل
ښکېلاک
ښکېلاکي
ښکېلتيا
ښکېلتیا
ښکېله
ښکېلو
ښی
ښیي
ښیښه
ښیښو
ښیښې
ښیې
ښۍ
ښې
ښېرازه
ښېګڼه
ښېګڼو
ښېګڼې
ښە
ښﻪ
ڤ
ک
کا
کابل
کابله
کابو
کابينه
کابينې
کابینه
کابینې
کاتب
کاترين
کاترین
کاته
کاتوليک
کاتولیک
کاتولیکانو
کاتولیکه
کاتولیکې
کاج
کار
کارابین
کاراخستل
کاراخيستل
کاران
کارانو
کاراوه
کارایب
کاربن
کاربني
کاربون
کاربونيټ
کارت
کارتر
کارته
کارخانه
کارخانو
کارخانې
کارسن
کارل
کارلوس
کارمل
کارمند
کارمندان
کارمندانو
کارن
کارنامو
کارنامې
کارنده
کاره
کارو
کاروان
کاروبار
کاروباري
کارول
کاروله
کارولو
کارولي
کارولينا
کارولی
کارولین
کارولینا
کارولې
کارونه
کارونو
کارونکي
کارونې
کاروو
کاروونکو
کاروونکي
کاروي
کاروړل
کاري
کاريږي
کارټر
کارپوه
کارپوهان
کارپوهانو
کارډ
کارکولو
کارکونکو
کارکونکي
کارکونکی
کارکوونکو
کارکوونکي
کارکوونکی
کارکوونکې
کارکوي
کارګر
کارګران
کارګرانو
کارګرو
کارګري
کارګرې
کارگر
کاری
کاریز
کاریږي
کارۍ
کارې
کارېدای
کارېدل
کارېدلي
کارېدلی
کارېدلې
کارېده
کارېدو
کارېدونکو
کارېدونکي
کارېدونکې
کارېږي
کارېږی
کاسه
کاشغر
کاشف
کاشي
کاشکې
کاظم
کاغذ
کاغذي
کافر
کافران
کافرانو
کافي
کافی
کال
کالا
کالج
کالجونو
کالم
کالنۍ
کاله
کالهون
کالو
کالوري
کالونه
کالونو
کالونۍ
کالوين
کالي
کاليفورنيا
کالیفورنیا
کالیګولا
کام
کامران
کامرون
کامل
کاملا
کامن
کامنف
کامه
کامو
کامياب
کاميابه
کاميابي
کاميابۍ
کامیاب
کامې
کان
کانال
کانالونه
کانالونو
کاناډا
کاناډايي
کاناډایي
کانت
کانتون
کاندهلوي
کاندي
کانديد
کاندید
کانزاس
کانسټنټ
کانو
کانونه
کانونو
کاني
کانټ
کانټینینټل
کانکور
کانګ
کانګرس
کانګريس
کانګریس
کانګرېس
کانګو
کانګې
کانگ
کاهش
کاو
کاوه
کاوو
کاوون
کاينات
کايناتو
کاپي
کاپيسا
کاپیسا
کاږي
کاکا
کاکاخېل
کاکس
کاکړ
کاڼو
کاڼي
کاڼی
کاینات
کایناتو
کب
کبان
کبانو
کبر
کبله
کبير
کتاب
کتابتون
کتابتونونه
کتابتونونو
کتابو
کتابونه
کتابونو
کتابي
کتابچه
کتار
کتل
کتلست
کتله
کتلو
کتلوي
کتلي
کتلی
کتلې
کتنه
کتنو
کتنې
کتو
کتونکو
کتونکي
کتونکی
کتيونونه
کتيونونو
کتیتر
کثافاتو
کثافت
کثرت
کثير
کدر
کر
کرار
کراره
کرام
کرامت
کرامو
کرايه
کراچي
کراچی
کراچۍ
کرایه
کرایې
کربلا
کرج
کرد
کردار
کردستان
کردن
کردند
کرده
کرزي
کرزی
کرستلي
کرل
کرلو
کرم
کرمان
کرمانشاه
کرن
کرنه
کرني
کرنيز
کرنيزه
کرنيزو
کرنيزې
کرنیز
کرنیزه
کرنیزو
کرنیزې
کرنې
کره
کرهاله
کرهڼه
کرهڼې
کرو
کرواسیا
کروشیا
کروم
کروموزوم
کروموزومونه
کروموزومونو
کروموزومي
کرونا
کرونده
کروندو
کروندګر
کروندګرو
کروندې
کروي
کروچه
کروړ
کري
کريم
کريميا
کريډيټ
کريکټ
کرښه
کرښو
کرښي
کرښې
کرک
کرکه
کرکټ
کرکټر
کرکې
کریس
کریم
کریمه
کریمیا
کریمیه
کریمیې
کرې
کرېټین
کرېکټ
کز
کس
کسان
کسانو
کسب
کسبي
کسر
کسرونه
کسري
کسه
کسيز
کسيزه
کسی
کش
کشته
کشتۍ
کشر
کشره
کشش
کشف
کشمير
کشمیر
کشمیري
کشور
کشورها
کشورهای
کشوری
کشي
کشک
کشیش
کشیشانو
کعبه
کعبې
کــ
کـې
کفارو
کفايت
کفایت
کفر
کفن
کل
کلا
کلابند
کلابندۍ
کلات
کلارک
کلاس
کلاسيک
کلاسيکو
کلاسيکي
کلاسيکې
کلاسیک
کلاسیکه
کلاسیکو
کلاسیکې
کلام
کلاه
کلب
کلتور
کلتورونه
کلتورونو
کلتوري
کلتوری
کلسيم
کلسیم
کلفورنیا
کلمات
کلماتو
کلماني
کلمبیا
کلمه
کلمو
کلموکې
کلمې
کلن
کلنه
کلنو
کلني
کلنټن
کلنی
کلنۍ
کلنې
کله
کلو
کلودیوس
کلورايد
کلوراید
کلورایډ
کلوروفيل
کلورين
کلورین
کلونه
کلونو
کلونوکې
کلوييدي
کلى
کلي
کليات
کليدي
کليز
کليسا
کليشه
کليفورنيا
کليماکس
کليمه
کليمې
کلينيکي
کليو
کليوال
کليوالو
کليوالي
کلپ
کلچر
کلک
کلکاني
کلکه
کلکو
کلکې
کلی
کلیات
کلیدي
کلیزې
کلیسا
کلیساوو
کلیساګانو
کلیسای
کلیسایي
کلیفورنیا
کلیمه
کلیمو
کلیمې
کلینټن
کلینټون
کلینیکي
کلیو
کلیوال
کلیوالو
کلیوالي
کلیک
کلې
کم
کمار
کمال
کمبرېج
کمبود
کمبودیا
کمتر
کمر
کمربند
کمره
کمرې
کمزورتیا
کمزورو
کمزورى
کمزوري
کمزوری
کمزورۍ
کمزورې
کمه
کمو
کموالى
کموالي
کموالی
کمول
کمولو
کمونست
کمونستانو
کمونستي
کمونيزم
کمونيست
کمونيستي
کمونیزم
کمونیست
کمونیستانو
کمونیستي
کمونېزم
کمونېست
کموي
کمي
کميت
کميدو
کميس
کميسون
کميسيون
کميټی
کميټې
کميږي
کمپ
کمپاین
کمپاینونو
کمپبل
کمپلکس
کمپني
کمپنيو
کمپنیو
کمپنۍ
کمپوز
کمپوزر
کمپوسټ
کمپونو
کمپوټر
کمپيوټر
کمپيوټرونه
کمپيوټرونو
کمپيوټري
کمپیوتر
کمپیوټر
کمپیوټرونه
کمپیوټرونو
کمپیوټري
کمښت
کمک
کمی
کمیت
کمیس
کمیسیون
کمین
کمیټه
کمیټې
کمیږي
کمې
کمېدل
کمېدو
کمېسیون
کمېټه
کمېټو
کمېټې
کمېږي
کن
کناډا
کنت
کنترول
کنترولوي
کند
کندز
کنده
کندهار
کندهاره
کندهارو
کندهاري
کندهاری
کندو
کندوز
کندي
کندې
کنزالعمال
کنشکا
کنعان
کنفدراسیون
کنفدریشن
کنفرانس
کنفرانسونه
کنفرانسونو
کنفوسیوس
کنند
کننده
کنه
کنوانسيون
کنوانسیون
کنوانسیونونو
کنټرول
کنټرولوي
کنډ
کنډک
کنړ
کنګرې
کنګل
کنګلونه
کنګلونو
که
کهزاد
کهول
کهکشان
کهکشانونه
کهکشانونو
کو
کوانټم
کوانټوم
کوانټومي
کواین
کوبالت
کوترې
کوتل
کوثر
کود
کودتا
کودتاه
کور
کوربه
کورته
کورس
کورسونه
کورسونو
کورني
کورنيو
کورنی
کورنیو
کورنۍ
کورنې
کوره
کوروش
کورونه
کورونو
کوري
کوريا
کوریا
کوریایي
کوز
کوزه
کوزې
کوسوو
کوسټا
کوشان
کوشاني
کوشانیانو
کوشش
کوشني
کوشنی
کوفه
کوفي
کوفې
کول
کولا
کولاى
کولاي
کولای
کولاې
کولتور
کولتوري
کولفاکس
کولمب
کولمبس
کولمبو
کولمبيا
کولمبیا
کولمو
کولمې
کوله
کولو
کولوسره
کولولپاره
کولوپه
کولوکې
کولى
کولي
کوليگرام
کولی
کولیج
کولې
کوم
کومار
کومندان
کومه
کومو
کومي
کومک
کومی
کومې
کومېټې
کونج
کونسل
کونه
کوني
کونډه
کونډې
کونړ
کونکو
کونکي
کونکی
کونکې
کونګ
کونې
کوه
کوهاټ
کوهستان
کوهن
کوهي
کوو
کوونه
کوونکو
کوونکى
کوونکي
کوونکی
کوونکې
کوونې
کوويډ
کوویډ
کوى
کوي
کويټه
کوټ
کوټه
کوټو
کوټي
کوټکي
کوټکې
کوټې
کوپر
کوپراتیف
کوپراتیفونه
کوپره
کوپرې
کوپړۍ
کوڅه
کوڅو
کوڅې
کوچ
کوچنى
کوچني
کوچنيان
کوچنيانو
کوچنيو
کوچنيوالي
کوچنی
کوچنیانو
کوچنیو
کوچنیوالي
کوچنۍ
کوچنې
کوچي
کوچيان
کوچيانو
کوچیان
کوچیانو
کوچینی
کوډ
کوډو
کوډونه
کوډونو
کوړک
کوږ
کوږوالي
کوښښ
کوک
کوکنارو
کوڼ
کوی
کویت
کوین
کویټ
کوۍ
کوې
کى
کي
کيداى
کيداي
کيدای
کيدل
کيدله
کيدلو
کيدنه
کيده
کيدو
کيدونکي
کيدونکې
کيدي
کيدې
کيسه
کيسو
کيسې
کيفيت
کيلو
کيلومتر
کيلومتره
کيلومترۍ
کيلوميټر
کيميا
کيمياوي
کيميايي
کيمپ
کيندل
کينه
کيني
کينيا
کينډۍ
کيو
کيوبا
کيږ
کيږدي
کيږى
کيږي
کيږی
کيږې
کيښود
کيښودل
کيڼ
کيڼې
کټ
کټه
کټواز
کټګوریو
کټګورۍ
کپ
کپتان
کپسول
کپور
کپیټلېزم
کڅوړه
کڅوړو
کڅوړې
کچ
کچالو
کچه
کچو
کچي
کچيري
کچې
کډه
کډوال
کډوالو
کډوالي
کډوالۍ
کړ
کړاو
کړاوونه
کړاوونو
کړاى
کړاي
کړای
کړل
کړله
کړلې
کړم
کړمه
کړن
کړنلاره
کړنلارو
کړنلارې
کړنه
کړنو
کړني
کړنې
کړه
کړو
کړوسی
کړونو
کړى
کړي
کړيده
کړيدي
کړيو
کړکۍ
کړکېچ
کړکېچن
کړکېچونو
کړی
کړیالان
کړیالانو
کړیده
کړیدی
کړیو
کړۍ
کړې
کړېده
کړے
کږه
کږې
کښ
کښت
کښته
کښتيو
کښتیو
کښتۍ
کښل
کښلو
کښلي
کښلی
کښلې
کښى
کښي
کښی
کښې
کښېناست
ککړ
ککړتيا
ککړتیا
ککړه
ککړو
ککړوي
ککړې
کہ
کی
کیا
کیبل
کیدای
کیدل
کیدلو
کیدلی
کیده
کیدو
کیدونکی
کیدی
کیسه
کیسو
کیسې
کیف
کیفي
کیفیت
کیلو
کیلومتر
کیلومتره
کیلومترو
کیلومترۍ
کیلومټره
کیلوگرامه
کیلي
کیم
کیمیا
کیمیاوي
کیمیاوی
کیمیايي
کین
کیندل
کیندنې
کینز
کینلي
کینګ
کینیا
کیهان
کیو
کیوبا
کیوبیک
کیپ
کیږي
کیږی
کیږې
کیښود
کیښودل
کیگی
کیڼ
کۍ
کې
کېد
کېداى
کېداي
کېدای
کېدل
کېدلای
کېدله
کېدلو
کېدلی
کېدلې
کېدنه
کېدنې
کېده
کېدو
کېدونکو
کېدونکي
کېدونکی
کېدونکې
کېدونې
کېدى
کېدي
کېدی
کېدې
کېدے
کېـږي
کېلو
کېمياوي
کېمیا
کېمیاوي
کېناست
کېناسته
کېننګ
کېنول
کېني
کېنګ
کېپ
کېږ
کېږدي
کېږو
کېږي
کېږی
کېږې
کېښود
کېښودل
کېښوده
کے
کە
ګ
ګابن
ګارد
ګارزا
ګارفیلډ
ګارنر
ګاز
ګازاتو
ګازو
ګازونه
ګازونو
ګازي
ګالیله
ګام
ګاما
ګامبيا
ګامونه
ګامونو
ګان
ګانا
ګاندي
ګانو
ګاني
ګانې
ګاه
ګاونډ
ګاونډي
ګاونډيو
ګاونډی
ګاونډیانو
ګاونډیو
ګاډو
ګاډوین
ګاډي
ګاډی
ګاڼه
ګته
ګجرات
ګر
ګراد
ګراف
ګرام
ګرامر
ګرامري
ګرامه
ګران
ګرانه
ګرانو
ګرانټ
ګرجستان
ګرد
ګرده
ګردو
ګردي
ګردې
ګرم
ګرمه
ګرمو
ګرمولو
ګرمي
ګرمۍ
ګرمې
ګرمېدو
ګرو
ګروپ
ګروپونه
ګروپونو
ګروپي
ګري
ګريد
ګرين
ګرينلينډ
ګريوان
ګرځنده
ګرځندوی
ګرځول
ګرځولو
ګرځولي
ګرځولی
ګرځولې
ګرځوي
ګرځي
ګرځی
ګرځېدل
ګرځېدلي
ګرځېدلی
ګرځېدلې
ګرځېدو
ګریسون
ګرین
ګریګوري
ګرېوان
ګل
ګلاب
ګلابو
ګلابي
ګلاسکو
ګلان
ګلانو
ګلخانه
ګلستان
ګله
ګلونه
ګلونو
ګلوکوز
ګلي
ګلپي
ګمارل
ګمان
ګمراه
ګناه
ګناهونه
ګناهونو
ګنجي
ګندهارا
ګنل
ګنه
ګني
ګنګوهي
ګنې
ګه
ګو
ګواتیمالا
ګواه
ګواهي
ګواښ
ګواښل
ګواښونه
ګواښونو
ګواښي
ګواکي
ګواکې
ګوته
ګوتو
ګوتې
ګور
ګورباچوف
ګورم
ګورنر
ګوره
ګورو
ګوري
ګوریلا
ګورې
ګوزار
ګول
ګولډ
ګولډمن
ګولۍ
ګومارل
ګومارنه
ګومارنې
ګومان
ګومل
ګون
ګوند
ګوندونه
ګوندونو
ګوندي
ګوندې
ګونو
ګوني
ګونګ
ګونی
ګونې
ګوهر
ګويا
ګوټ
ګوډ
ګوښه
ګوکهلي
ګوګل
ګوڼه
ګوڼې
ګي
ګياه
ګيري
ګيرۍ
ګينه
ګيټس
ګټل
ګټلو
ګټلي
ګټلې
ګټنه
ګټنې
ګټه
ګټو
ګټور
ګټورتوب
ګټوره
ګټورو
ګټورې
ګټونکي
ګټونکی
ګټي
ګټی
ګټې
ګچ
ګډ
ګډه
ګډو
ګډون
ګډونوال
ګډونوالو
ګډوي
ګډوډ
ګډوډي
ګډوډیو
ګډوډۍ
ګډې
ګړدود
ګړندي
ګړندی
ګړندۍ
ګړنه
ګړنې
ګړي
ګړۍ
ګڼ
ګڼل
ګڼله
ګڼلو
ګڼلى
ګڼلي
ګڼلی
ګڼلې
ګڼم
ګڼه
ګڼو
ګڼوالي
ګڼي
ګڼې
ګی
ګیبس
ګیري
ګینه
ګیني
ګیټس
ګۍ
ګې
ګېري
گ
گا
گاز
گام
گامونه
گان
گاندهي
گانو
گانې
گاه
گاونډي
گاونډيو
گاگارين
گاڼه
گر
گرا
گراد
گراف
گرام
گرامر
گرامه
گران
گرانه
گرد
گردد
گرده
گردو
گردې
گردېز
گرشک
گرفت
گرفته
گرم
گرمه
گرمو
گرمي
گرو
گروه
گروهه
گروهو
گروهې
گروپ
گروپونو
گرځنده
گرځي
گرگین
گز
گزارش
گسترش
گفت
گل
گلاب
گلان
گلانو
گلزار
گلستان
گلشن
گلو
گلونه
گلوکوز
گمارل
گمان
گناه
گنج
گنجگل
گندهارا
گنل
گنه
گني
گنې
گه
گهيځ
گو
گواښ
گواکې
گوته
گوتو
گوتې
گودر
گور
گوربت
گوره
گورو
گوري
گورې
گوزار
گول
گولۍ
گومارل
گومان
گوند
گوندونه
گوندونو
گوندي
گونه
گونو
گوهر
گويا
گوټ
گوښه
گوڼې
گى
گي
گيلان
گيلاني
گټلو
گټلي
گټلې
گټه
گټو
گټور
گټوره
گټورې
گټي
گټې
گډ
گډه
گډو
گډون
گډې
گړدود
گړندۍ
گړۍ
گڼ
گڼل
گڼله
گڼه
گڼو
گڼي
گڼيال
گڼې
گی
گیانې
گیرد
گیری
گۍ
گې
ں
ڼ
ڼي
ڼيو
ھ
ہ
ہیں
ہے
ۃ
ۇ
ی
یا
یاد
یاده
یادو
یادول
یادولو
یادولی
یادونه
یادونې
یادوي
یاديږي
یادښت
یادښتونه
یادښتونو
یادکرد
یادګار
یادیده
یادیږي
یادیږی
یادې
یادېده
یادېږي
یادېږی
یار
یارک
یارگل
یاست
یاغي
یاغیانو
یافت
یافته
یاقوت
یان
یانګ
یانې
یاهم
یحی
یحیی
یخ
یرغل
یرغلونو
یرغلګرو
یرغمل
یزد
یعقوب
یعني
یعنی
یعنې
یقین
یقیني
یل
یلتسین
یم
یمن
یمه
یمو
یمې
یه
یهود
یهودان
یهودانو
یهودو
یهودي
یهودی
یهودیان
یهودیانو
یهودیت
یو
یوازنی
یوازنۍ
یوازي
یوازی
یوازیني
یوازینی
یوازینۍ
یوازې
یوازېنی
یواځي
یواځی
یواځې
یوبل
یورانیم
یورو
یوري
یوریشیا
یوسف
یوسفزي
یوسي
یوشان
یوشمیر
یوشمېر
یوله
یون
یونان
یوناني
یونانی
یونانیانو
یونس
یونسکو
یونلیک
یونیسکو
یونین
یوه
یوهان
یوهانس
یووالي
یووالی
یوولس
یوولسم
یوولسمې
یووړ
یووړل
یووړه
یوي
یوټیوب
یوځای
یوځل
یوڅه
یوډول
یوړل
یوړه
یوګوسلاویا
یوګون
یوی
یوې
یي
یيز
یيزو
یک
یکشنبې
یکن
یکی
یہ
یی
ییز
ییزه
ییزو
ییزې
ییل
یې
ۍ
ې
ېو
ېي
ېې
ے
۔
ە
۞
ۥ
ۦ
۰
۰۰
۰۰۰
۰۱
۰۲
۰۳
۰۴
۰۵
۰۶
۰۷
۰۸
۰۹
۱
۱۰
۱۰۰
۱۰۰۰
۱۰۰۰۰
۱۰۰۰۰۰
۱۰۱
۱۰۲
۱۰۳
۱۰۴
۱۰۵
۱۰۶
۱۰۷
۱۰۸
۱۰۹
۱۱
۱۱۰
۱۱۰۰
۱۱۱
۱۱۲
۱۱۳
۱۱۴
۱۱۵
۱۱۶
۱۱۷
۱۱۸
۱۱۹
۱۲
۱۲۰
۱۲۰۰
۱۲۰۰۰
۱۲۱
۱۲۲
۱۲۳
۱۲۴
۱۲۵
۱۲۵۰
۱۲۶
۱۲۷
۱۲۸
۱۳
۱۳۰
۱۳۰۰
۱۳۰۸
۱۳۱
۱۳۱۰
۱۳۱۲
۱۳۱۵
۱۳۱۶
۱۳۱۸
۱۳۱۹
۱۳۲
۱۳۲۰
۱۳۲۳
۱۳۲۴
۱۳۲۵
۱۳۲۶
۱۳۲۷
۱۳۲۸
۱۳۲۹
۱۳۳
۱۳۳۰
۱۳۳۱
۱۳۳۲
۱۳۳۳
۱۳۳۴
۱۳۳۵
۱۳۳۶
۱۳۳۷
۱۳۳۸
۱۳۳۹
۱۳۴
۱۳۴۰
۱۳۴۱
۱۳۴۲
۱۳۴۳
۱۳۴۴
۱۳۴۵
۱۳۴۶
۱۳۴۷
۱۳۴۸
۱۳۴۹
۱۳۵
۱۳۵۰
۱۳۵۱
۱۳۵۲
۱۳۵۳
۱۳۵۴
۱۳۵۵
۱۳۵۶
۱۳۵۷
۱۳۵۸
۱۳۵۹
۱۳۶
۱۳۶۰
۱۳۶۱
۱۳۶۲
۱۳۶۳
۱۳۶۴
۱۳۶۵
۱۳۶۶
۱۳۶۷
۱۳۶۸
۱۳۶۹
۱۳۷
۱۳۷۰
۱۳۷۱
۱۳۷۲
۱۳۷۳
۱۳۷۴
۱۳۷۵
۱۳۷۶
۱۳۷۷
۱۳۷۸
۱۳۷۹
۱۳۸
۱۳۸۰
۱۳۸۱
۱۳۸۲
۱۳۸۳
۱۳۸۴
۱۳۸۵
۱۳۸۶
۱۳۸۷
۱۳۸۸
۱۳۸۹
۱۳۹
۱۳۹۰
۱۳۹۱
۱۳۹۲
۱۳۹۳
۱۳۹۴
۱۳۹۵
۱۳۹۶
۱۳۹۷
۱۳۹۸
۱۳۹۹
۱۴
۱۴۰
۱۴۰۰
۱۴۰۰۰
۱۴۱
۱۴۲
۱۴۲۵
۱۴۳
۱۴۴
۱۴۵
۱۴۵۳
۱۴۶
۱۴۷
۱۴۸
۱۴۹
۱۵
۱۵۰
۱۵۰۰
۱۵۰۰۰
۱۵۱
۱۵۲
۱۵۲۶
۱۵۳
۱۵۴
۱۵۵
۱۵۶
۱۵۷
۱۵۸
۱۵۹
۱۶
۱۶۰
۱۶۰۰
۱۶۱
۱۶۳
۱۶۴
۱۶۴۸
۱۶۵
۱۶۵۰
۱۶۶
۱۶۶۰
۱۶۷
۱۶۸
۱۶۸۸
۱۶۸۹
۱۶۹
۱۷
۱۷۰
۱۷۰۰
۱۷۰۷
۱۷۰۹
۱۷۱
۱۷۲
۱۷۳
۱۷۴
۱۷۴۰
۱۷۴۴
۱۷۴۷
۱۷۵
۱۷۵۰
۱۷۵۵
۱۷۵۶
۱۷۵۷
۱۷۵۸
۱۷۵۹
۱۷۶
۱۷۶۰
۱۷۶۱
۱۷۶۲
۱۷۶۳
۱۷۶۵
۱۷۶۶
۱۷۶۸
۱۷۶۹
۱۷۷
۱۷۷۰
۱۷۷۲
۱۷۷۳
۱۷۷۴
۱۷۷۵
۱۷۷۶
۱۷۷۷
۱۷۷۸
۱۷۸
۱۷۸۰
۱۷۸۱
۱۷۸۳
۱۷۸۴
۱۷۸۵
۱۷۸۶
۱۷۸۷
۱۷۸۸
۱۷۸۹
۱۷۹
۱۷۹۰
۱۷۹۱
۱۷۹۲
۱۷۹۳
۱۷۹۴
۱۷۹۵
۱۷۹۶
۱۷۹۷
۱۷۹۸
۱۷۹۹
۱۸
۱۸۰
۱۸۰۰
۱۸۰۱
۱۸۰۲
۱۸۰۳
۱۸۰۴
۱۸۰۶
۱۸۰۷
۱۸۰۸
۱۸۰۹
۱۸۱
۱۸۱۰
۱۸۱۱
۱۸۱۲
۱۸۱۳
۱۸۱۴
۱۸۱۵
۱۸۱۶
۱۸۱۷
۱۸۱۸
۱۸۱۹
۱۸۲
۱۸۲۰
۱۸۲۱
۱۸۲۲
۱۸۲۳
۱۸۲۴
۱۸۲۵
۱۸۲۶
۱۸۲۷
۱۸۲۸
۱۸۲۹
۱۸۳۰
۱۸۳۱
۱۸۳۲
۱۸۳۳
۱۸۳۴
۱۸۳۵
۱۸۳۶
۱۸۳۷
۱۸۳۸
۱۸۳۹
۱۸۴۰
۱۸۴۱
۱۸۴۲
۱۸۴۳
۱۸۴۴
۱۸۴۵
۱۸۴۶
۱۸۴۷
۱۸۴۸
۱۸۴۹
۱۸۵
۱۸۵۰
۱۸۵۱
۱۸۵۲
۱۸۵۳
۱۸۵۴
۱۸۵۵
۱۸۵۶
۱۸۵۷
۱۸۵۸
۱۸۵۹
۱۸۶
۱۸۶۰
۱۸۶۱
۱۸۶۲
۱۸۶۳
۱۸۶۴
۱۸۶۵
۱۸۶۶
۱۸۶۷
۱۸۶۸
۱۸۶۹
۱۸۷
۱۸۷۰
۱۸۷۱
۱۸۷۲
۱۸۷۳
۱۸۷۴
۱۸۷۵
۱۸۷۶
۱۸۷۷
۱۸۷۸
۱۸۷۹
۱۸۸۰
۱۸۸۱
۱۸۸۲
۱۸۸۳
۱۸۸۴
۱۸۸۵
۱۸۸۶
۱۸۸۷
۱۸۸۸
۱۸۸۹
۱۸۹
۱۸۹۰
۱۸۹۱
۱۸۹۲
۱۸۹۳
۱۸۹۴
۱۸۹۵
۱۸۹۶
۱۸۹۷
۱۸۹۸
۱۸۹۹
۱۹
۱۹۰
۱۹۰۰
۱۹۰۱
۱۹۰۲
۱۹۰۳
۱۹۰۴
۱۹۰۵
۱۹۰۶
۱۹۰۷
۱۹۰۸
۱۹۰۹
۱۹۱
۱۹۱۰
۱۹۱۱
۱۹۱۲
۱۹۱۳
۱۹۱۴
۱۹۱۵
۱۹۱۶
۱۹۱۷
۱۹۱۸
۱۹۱۹
۱۹۲
۱۹۲۰
۱۹۲۱
۱۹۲۲
۱۹۲۳
۱۹۲۴
۱۹۲۵
۱۹۲۶
۱۹۲۷
۱۹۲۸
۱۹۲۹
۱۹۳
۱۹۳۰
۱۹۳۱
۱۹۳۲
۱۹۳۳
۱۹۳۴
۱۹۳۵
۱۹۳۶
۱۹۳۷
۱۹۳۸
۱۹۳۹
۱۹۴
۱۹۴۰
۱۹۴۱
۱۹۴۲
۱۹۴۳
۱۹۴۴
۱۹۴۵
۱۹۴۶
۱۹۴۷
۱۹۴۸
۱۹۴۹
۱۹۵
۱۹۵۰
۱۹۵۱
۱۹۵۲
۱۹۵۳
۱۹۵۴
۱۹۵۵
۱۹۵۶
۱۹۵۷
۱۹۵۸
۱۹۵۹
۱۹۶
۱۹۶۰
۱۹۶۱
۱۹۶۲
۱۹۶۳
۱۹۶۴
۱۹۶۵
۱۹۶۶
۱۹۶۷
۱۹۶۸
۱۹۶۹
۱۹۷۰
۱۹۷۱
۱۹۷۲
۱۹۷۳
۱۹۷۴
۱۹۷۵
۱۹۷۶
۱۹۷۷
۱۹۷۸
۱۹۷۹
۱۹۸
۱۹۸۰
۱۹۸۱
۱۹۸۲
۱۹۸۳
۱۹۸۴
۱۹۸۵
۱۹۸۶
۱۹۸۷
۱۹۸۸
۱۹۸۹
۱۹۹
۱۹۹۰
۱۹۹۱
۱۹۹۲
۱۹۹۳
۱۹۹۴
۱۹۹۵
۱۹۹۶
۱۹۹۷
۱۹۹۸
۱۹۹۹
۲
۲۰
۲۰۰
۲۰۰۰
۲۰۰۰۰
۲۰۰۰۰۰
۲۰۰۱
۲۰۰۲
۲۰۰۳
۲۰۰۴
۲۰۰۵
۲۰۰۶
۲۰۰۷
۲۰۰۸
۲۰۰۹
۲۰۱
۲۰۱۰
۲۰۱۱
۲۰۱۲
۲۰۱۳
۲۰۱۴
۲۰۱۵
۲۰۱۶
۲۰۱۷
۲۰۱۸
۲۰۱۹
۲۰۲
۲۰۲۰
۲۰۲۱
۲۰۲۲
۲۰۳
۲۰۳۰
۲۰۴
۲۰۵
۲۰۵۰
۲۰۶
۲۰۷
۲۱
۲۱۰
۲۱۰۰
۲۱۱
۲۱۲
۲۱۴
۲۲
۲۲۰
۲۲۱
۲۲۴
۲۲۷
۲۳
۲۳۰
۲۳۱
۲۳۵
۲۴
۲۴۰
۲۴۳
۲۴۸
۲۵
۲۵۰
۲۵۰۰
۲۵۰۰۰
۲۵۲
۲۵۶
۲۶
۲۶۰
۲۷
۲۷۰
۲۷۳
۲۸
۲۸۰
۲۹
۲۹۰
۳
۳۰
۳۰۰
۳۰۰۰
۳۰۰۰۰
۳۰۰۰۰۰
۳۱
۳۲
۳۲۰۰
۳۳
۳۳۰
۳۴
۳۵
۳۵۰
۳۵۰۰
۳۶
۳۶۰
۳۷
۳۸
۳۸۰
۳۸۴
۳۹
۴
۴۰
۴۰۰
۴۰۰۰
۴۰۰۰۰
۴۱
۴۲
۴۲۰
۴۳
۴۴
۴۵
۴۵۰
۴۵۰۰
۴۶
۴۷
۴۸
۴۸۰
۴۹
۵
۵۰
۵۰۰
۵۰۰۰
۵۰۰۰۰
۵۰۰۰۰۰
۵۱
۵۲
۵۳
۵۴
۵۵
۵۵۰
۵۶
۵۷
۵۷۰
۵۸
۵۹
۶
۶۰
۶۰۰
۶۰۰۰
۶۰۰۰۰
۶۱
۶۲
۶۲۲
۶۳
۶۳۲
۶۴
۶۵
۶۵۰
۶۶
۶۷
۶۸
۶۹
۷
۷۰
۷۰۰
۷۰۰۰
۷۰۰۰۰
۷۱
۷۲
۷۳
۷۴
۷۵
۷۵۰
۷۶
۷۷
۷۸
۷۹
۸
۸۰
۸۰۰
۸۰۰۰
۸۰۰۰۰
۸۱
۸۲
۸۳
۸۴
۸۵
۸۶
۸۷
۸۸
۸۹
۹
۹۰
۹۰۰
۹۰۰۰
۹۱
۹۲
۹۳
۹۴
۹۵
۹۶
۹۷
۹۸
۹۹
۹۹۸
अ
आ
क
ख
ग
च
ज
ट
ठ
ड
ण
त
द
ध
न
प
फ
ब
म
य
र
ल
ळ
व
श
ष
स
ह
ন
ব
র
ল
ਜ
ਦ
ਮ
ਰ
ਲ
ਸ
క
ఖ
ก
ค
ง
จ
ช
ด
ต
ท
น
ม
ย
ร
ล
ว
ส
ห
อ
า
เ
แ
ใ
ა
ბ
ე
ვ
თ
ი
ლ
მ
მონაცემები
ნ
ო
პ
პლატფორმა
რ
ს
ტ
უ
ფ
ქ
ღ
ღია
ც
ᄀ
ᄂ
ᄃ
ᄅ
ᄆ
ᄇ
ᄉ
ᄋ
ᄌ
ᄎ
ᄑ
ᄒ
ᅡ
ᅢ
ᅣ
ᅥ
ᅦ
ᅧ
ᅩ
ᅪ
ᅮ
ᅲ
ᅳ
ᅴ
ᅵ
ᆨ
ᆫ
ᆯ
ᆷ
ᆸ
ᆼ
ር
ባ
‐
‑
–
—
‘
’
‚
“
”
„
†
•
․
…
′
″
‹
›
⁄
⁺
₂
€
₹
№
←
↑
→
↔
↷
⇒
∀
∆
∈
∑
−
∗
∙
√
∝
∞
∪
∫
≈
≡
⊂
⊆
⊖
⋅
⋮
⋯
⋱
①
②
③
④
⑤
⑥
⑦
⑧
⑨
⑩
⑪
⑫
⑬
─
▪
▷
◈
●
★
☎
♡
♦
✓
✗
✡
❤
⺀
⺄
⺆
⺈
⺊
⺌
⺕
⺝
⺸
⺼
⿰
⿱
⿲
⿳
⿴
⿵
⿶
⿷
⿸
⿹
⿺
⿻
。
《
》
〖
〗
〢
に
の
る
コ
ユ
㇁
㇂
㇄
㇇
㇈
㇉
㇓
㐁
㐄
㐅
㐌
㐫
㐬
㐭
㐮
㐱
㑒
㒵
㒸
㒼
㓁
㓞
㔾
㕛
㕣
㖾
㘝
㚅
㚇
㚔
㚘
㝉
㝡
㝴
㝵
㞋
㞢
㞷
㠩
㠭
㠯
㡀
㡭
㡿
㢲
㢴
㣇
㣺
㥯
㪅
㫄
㫐
㫒
㫺
㬅
㬎
㬥
㬰
㲋
㳄
㷠
㸒
㸚
㸦
㼌
㼲
㽞
㿟
䀠
䂞
䍃
䏍
䒑
䖍
䖒
䖝
䖵
䙴
䚻
䜌
䝿
䡛
䧹
䪞
一
丁
丂
七
丄
丅
丆
万
丈
三
上
下
丌
不
与
丏
丐
丑
专
且
丕
世
丘
丙
业
东
丞
丢
丣
两
严
並
丨
丩
个
丫
丬
中
丮
丰
丱
串
丵
丶
丷
丸
丹
为
主
丽
丿
乀
乂
乃
久
乆
乇
么
义
之
乌
乍
乎
乏
乐
乑
乔
乖
乗
乘
乙
乚
乛
乜
九
乞
也
习
乡
乳
乾
亀
亅
了
亇
予
争
事
二
亍
于
亏
亐
云
互
亓
五
井
亘
亚
亜
亞
亟
亠
亡
亢
交
亥
亦
产
亨
亩
享
京
亭
亮
亯
亰
亲
亳
亶
亷
人
亻
亼
亾
仁
今
介
仌
从
仐
仑
仒
仓
仕
他
付
仝
代
令
以
任
企
伊
伏
伐
休
会
伯
但
位
何
佘
余
作
佥
使
來
侈
侌
侖
侯
侵
便
保
俞
信
修
倉
倍
候
倠
備
僉
僕
儿
兀
允
兂
元
兄
充
兆
兇
先
光
兊
克
兌
免
兑
兒
兓
兔
党
兜
兟
入
全
兩
兪
八
公
六
兮
兰
共
关
兵
其
具
典
兹
兼
冀
冂
冃
冄
内
冈
冉
冊
冋
册
再
冎
冏
冐
冒
冓
冖
冗
冘
军
农
冝
冡
冥
冫
冬
冷
几
凡
凢
凵
凶
凷
凸
凹
出
函
凾
刀
刁
刂
刃
刄
刅
分
切
刍
刑
刕
刖
列
刘
则
初
別
利
别
到
制
刺
則
削
剌
前
剡
剽
劉
力
功
加
劦
助
劫
劳
劵
勃
勇
勉
勒
動
務
勞
勤
勹
勺
勻
勾
勿
匀
匂
包
匆
匈
匊
匋
匍
匕
化
北
匚
匝
匡
匪
匱
匸
匹
区
医
匽
匿
區
十
卂
千
卄
卅
卆
升
午
卉
半
卌
华
卑
卒
卓
单
卖
南
卜
卝
卞
占
卡
卢
卣
卤
卦
卩
卪
卬
卯
印
危
即
却
卵
卷
卸
卻
厂
厃
厄
历
厈
厉
厌
厓
厘
厚
原
厤
厥
厨
厭
厲
厶
厷
厸
去
厼
厽
叀
参
參
叅
又
叉
及
友
双
反
叐
发
叒
叔
叕
取
受
叚
叜
叟
口
古
句
另
叩
只
召
可
台
叱
史
右
叵
号
司
叹
吂
各
吅
合
吉
吊
吋
同
名
后
吏
向
吕
君
吝
吞
否
含
启
吳
吴
吹
吾
呂
呆
呈
告
员
呙
周
命
咅
和
咎
咠
咢
咨
咸
咼
哀
品
哉
員
哥
哲
唐
商
啇
問
啚
啬
啻
善
喜
喬
單
喿
嗇
噩
嚴
囊
囗
囘
囙
囚
四
回
囟
因
囧
囬
困
囱
囷
固
国
圂
圅
國
圍
圓
土
圡
圣
圥
在
圭
地
圶
圼
坐
坒
坚
坴
垂
垔
垚
埀
埋
埶
執
基
堂
堅
堆
堇
堯
塞
墨
壘
士
壬
壯
声
壳
壴
壹
壺
壽
夂
处
夅
夆
备
夊
夋
夌
复
夏
夒
夕
外
夗
夘
多
夜
夢
大
夨
天
太
夫
夬
夭
央
失
夲
头
夷
夸
夹
夻
夾
奂
奄
奇
奈
奉
奎
奏
奐
契
奓
奔
奚
奞
奠
奢
奥
奭
女
奴
奻
好
如
妄
妙
妟
妥
妻
妾
姑
委
姜
威
娄
婁
婴
嬰
嬴
子
孑
孔
孕
孖
字
存
孚
孛
孝
孟
季
孤
学
孫
孱
學
宀
宁
宂
它
宅
宇
守
安
宋
完
宏
宓
宗
官
定
宛
宜
宝
客
宣
室
宮
宰
害
家
容
宾
宿
寄
寅
密
富
寒
察
寧
審
寫
寬
寮
寸
对
寺
寻
寽
対
寿
封
尃
射
将
將
專
尉
尊
尋
尌
對
小
少
尒
尓
尔
尖
尗
尚
尞
尢
尣
尤
尧
尨
尭
就
尸
尹
尺
尻
尼
尽
尾
尿
局
居
屈
屋
屎
屏
屑
展
屖
屚
属
屠
屡
屬
屮
屯
屰
山
屵
屾
岁
岂
岑
岡
岩
岳
岸
峯
島
崇
崑
崔
崖
崙
崩
嵬
嶲
巂
巛
川
州
巟
巠
巢
巤
工
左
巧
巨
巩
巫
差
己
已
巳
巴
巷
巸
巽
巾
巿
帀
市
布
希
帚
帛
帝
带
師
席
帶
常
干
平
年
幵
并
幷
幸
幺
幻
幼
幽
幾
广
広
庄
床
底
店
庚
府
度
庫
庭
庶
康
庸
廉
廌
廛
廣
廩
廴
延
廷
建
廾
廿
开
弁
弃
弄
弇
弋
式
弓
弔
引
弗
弘
弜
弟
弥
弦
弱
張
強
强
彊
彌
彎
彐
彑
当
彔
录
彖
彗
彡
形
彥
彦
彧
彭
彳
役
彼
往
待
律
徒
得
徙
從
復
微
徵
心
忄
必
忌
忍
志
忝
忠
忩
快
念
忽
忿
思
怠
急
怱
恆
恒
恩
恭
息
悉
患
悤
悲
悶
惠
惡
惢
愁
愈
意
愛
感
慈
慧
慮
憂
憲
應
戀
戈
戉
戊
戋
戌
戍
戎
成
我
戒
戔
或
戚
戠
戢
截
戲
戶
户
戹
戼
戾
房
所
扁
扇
手
扌
才
打
托
执
承
折
拉
拜
拿
掌
推
提
摩
支
攴
攵
收
攸
改
放
政
敄
敏
敕
敖
敗
敝
敞
敢
散
敦
敫
敬
数
敷
數
斂
文
斉
斊
斗
斤
斥
斩
斬
斯
新
方
於
施
斿
旁
旋
族
无
旡
既
旣
日
旦
旧
旨
早
旬
旱
旲
时
旾
昆
昇
昌
昍
明
昏
易
昔
昗
昜
星
春
昬
是
昱
昴
昷
時
晃
晋
晏
普
景
晶
智
暑
暴
曇
曩
曰
曲
曳
更
曷
書
曹
曼
曾
替
最
朁
會
月
有
朋
服
朔
朕
朗
望
朝
木
朩
未
末
本
札
朮
术
朱
朵
朶
朿
杀
杏
杜
束
条
来
東
杲
杳
松
析
林
枚
果
枝
枲
枼
某
柔
查
柬
柰
柴
栗
桀
桑
桼
梁
條
梟
梨
棘
棠
棥
森
楚
業
楽
榮
樂
樊
欠
次
欣
欮
欲
欶
欽
款
歆
歇
歛
止
正
此
步
武
歨
歪
歮
歯
歰
歲
歴
歷
歸
歹
歺
死
殳
段
殷
殸
殹
殺
殻
殿
毋
毌
母
每
毒
比
毕
毚
毛
毳
氏
氐
民
气
氣
水
氵
氶
氷
永
氺
氾
求
汝
汞
江
沃
沓
沙
沝
河
泉
法
波
泣
泥
泰
洛
洪
活
派
流
浦
浪
浮
淡
淮
清
渚
渠
湯
滿
漸
灣
火
灬
灭
灰
灵
灷
炅
炎
炏
炗
炙
炭
為
烈
烏
烝
焉
無
焦
焱
然
煞
熊
熏
燕
營
燮
爪
爫
爭
爯
爰
爱
爲
爵
父
爻
爽
爾
爿
片
牙
牚
牛
牜
牟
牢
牧
牪
牽
犀
犬
犭
犮
狂
狄
狊
独
狺
猋
猒
猪
献
獻
玄
率
玉
王
玟
玨
珎
班
琴
瑟
瑩
瓜
瓦
甘
甚
生
産
用
甫
甬
田
由
甲
申
电
甶
男
甸
甹
画
甾
畀
界
畏
畐
留
畜
畟
畢
畧
畨
番
畫
異
畱
當
畺
畾
疊
疋
疌
疑
疒
疾
癶
癸
癹
登
發
白
百
皀
皃
的
皆
皇
皋
皐
皕
皮
皷
皿
盃
盆
盇
盈
益
盍
盎
监
盒
盖
盛
盡
監
盤
盧
目
直
相
盾
省
眇
眉
看
眔
眞
真
眷
眼
眾
着
睘
睪
睿
瞏
瞢
瞿
矍
矛
矞
矢
矣
知
矦
短
石
破
碎
磊
磨
示
礻
礼
祟
票
祭
禀
禁
禸
禹
禺
离
禽
禾
禿
秀
秃
秉
秋
科
秝
秦
移
稟
穀
穌
穴
究
穹
空
穿
突
窄
窒
立
竒
竜
竝
竟
章
童
竹
笑
笠
第
筆
等
答
箕
算
箴
節
篤
篭
米
粉
粛
粟
粤
粦
粲
糞
糸
糹
系
約
納
素
索
紫
累
細
絜
絫
絲
維
綿
縣
繇
纍
纟
缶
网
罒
罔
罕
罗
罙
罡
罢
罪
署
罷
羅
羊
羌
羍
美
羔
羕
羗
羞
羡
羣
群
義
羲
羸
羽
翁
翏
習
翕
翟
翠
翼
老
耂
考
者
耆
而
耎
耑
耒
耳
耴
耶
耷
聂
聊
聖
聚
聶
聿
肀
肃
肅
肉
肖
肙
肥
肩
肯
育
肴
胃
背
胡
胥
能
脊
脩
膚
臣
臤
臧
自
臬
臭
臯
臱
至
致
臺
臼
臽
臾
臿
舀
舂
舄
與
興
舉
舌
舍
舛
舜
舞
舟
般
艮
良
色
艸
艹
艾
芒
芔
芬
芮
花
芳
芺
芻
苔
苗
苟
若
苦
英
茶
茸
荅
草
荒
荣
荼
莆
莧
莫
莽
菆
菊
菐
華
萬
落
葉
著
葛
董
葵
蒙
蒦
蒼
蓋
蓬
蓺
蔑
蔡
蕉
蕭
薄
薛
薦
薰
藍
藏
藥
蘭
虍
虎
虐
虒
虔
處
虖
虗
虘
虚
虛
虜
虞
虫
虽
蚤
蚩
蜀
蜜
蟲
蠡
血
行
衍
衛
衣
衤
表
衮
衰
袁
袞
褭
褱
襄
襾
西
覀
要
覃
見
規
覓
覧
親
覽
见
角
解
言
訁
訇
計
詹
誩
諸
讠
谷
豆
豈
豊
豐
豕
豖
豙
象
豦
豩
豪
豸
貇
貝
貞
貟
負
貢
貧
貪
貫
責
貳
貴
買
費
賁
資
賈
賏
賓
賔
賛
賞
賢
賣
質
賴
贊
贝
贡
责
贯
贲
贵
赖
赞
赤
赦
走
越
足
路
蹇
身
躬
車
軍
軎
軟
輦
车
辛
辜
辟
辥
辰
辱
農
辵
辶
边
达
过
近
连
迷
追
退
送
逆
逐
通
速
造
逢
連
逮
進
遀
遂
過
道
達
遣
適
遷
遺
邊
邑
邕
那
邦
邪
郎
部
郭
都
鄉
酉
酋
配
酓
釆
采
里
重
野
量
金
釒
錢
钅
長
镸
长
門
閃
閉
開
閏
閑
閒
間
閔
閵
閻
闌
门
间
闷
阑
阜
阝
阿
降
陳
隆
隊
隋
隡
隨
隱
隶
隹
隺
隻
隼
隽
难
雀
雁
集
雈
雋
雍
雐
雔
雙
雚
雜
雝
離
難
雨
雩
雪
雲
零
雷
需
霍
霜
霝
霞
霸
靈
靑
青
非
靡
面
靣
革
韋
韦
韭
韯
韱
音
頁
頃
項
須
頗
頡
頻
顛
页
風
风
飛
飞
食
飠
養
饣
首
香
馬
馮
駦
马
骨
高
髟
鬥
鬯
鬲
鬼
魚
魯
鮮
鱼
鲁
鳥
鳳
鸟
鹵
鹿
麃
麗
麥
麦
麻
黃
黄
黍
黎
黑
黒
黨
黹
黽
黾
鼎
鼓
鼠
鼻
齊
齋
齐
齒
齿
龍
龙
龜
龟
龠
龰
龱
龴
龵
龶
龷
龸
龹
者
艹
ﭖ
ﭗ
ﭘ
ﭙ
ﭼ
ﭽ
ﮊ
ﮋ
ﮎ
ﮏ
ﮐ
ﮑ
ﮔ
ﮕ
ﮞ
ﯤ
ﯥ
ﯦ
ﯧ
ﯼ
ﯽ
ﯾ
ﯿ
﴾
﴿
ﷲ
ﷺ
ﷻ
ﺀ
ﺁ
ﺂ
ﺃ
ﺄ
ﺅ
ﺆ
ﺇ
ﺉ
ﺊ
ﺋ
ﺌ
ﺍ
ﺍړﻩ
ﺍﻟ
ﺍﻟﺴﻼﻡ
ﺍﻟﻠﻪ
ﺍﻧﺴﺎﻥ
ﺍﻭ
ﺎ
ﺎﺕ
ﺎﺭ
ﺎﺭﻩ
ﺎﺳﺖ
ﺎﻝ
ﺎﻟ
ﺎﻥ
ﺏ
ﺐ
ﺑ
ﺑﺎړﻩ
ﺑﺎﻧﺪ
ﺑﺎﻧﺪﻱ
ﺑﺪ
ﺑﻞ
ﺑﻠ
ﺑﻦ
ﺑﻪ
ﺒ
ﺒﺮ
ﺓ
ﺔ
ﺕ
ﺖ
ﺗ
ﺗﺎﺳﻮ
ﺗﺮ
ﺗﻌﺎﻟ
ﺗﻪ
ﺗﻮ
ﺘ
ﺙ
ﺚ
ﺛ
ﺜ
ﺝ
ﺟ
ﺟﻞ
ﺟﻼﻟﻪ
ﺠ
ﺡ
ﺢ
ﺣ
ﺣﻖ
ﺤ
ﺥ
ﺦ
ﺧ
ﺧﺎﻥ
ﺧﺒﺮ
ﺧﺒﺮﻩ
ﺧﺪﺍ
ﺧﺪﺍﻯ
ﺧﻠ
ﺧﻮ
ﺧﻮﺍ
ﺨ
ﺩ
ﺩﺉ
ﺩﺍ
ﺩﺍﺳ
ﺩﺍﺳﻲ
ﺩﺍﻟﻠﻪ
ﺩﺧ
ﺩﺩ
ﺩﺩﻩ
ﺩﺭ
ﺩﺭﻭﻍ
ﺩﻏﻪ
ﺩﻩ
ﺩﻭﻯ
ﺩﻯ
ﺩﻱ
ﺪ
ﺪﻭ
ﺫ
ﺫﻫﻨﻲ
ﺬ
ﺭ
ﺭﺍ
ﺭﺳﻮﻝ
ﺮ
ﺮﺗﻪ
ﺮﻩ
ﺮﻳﺎ
ﺯ
ﺯړﻩ
ﺯﻣﺎ
ﺯﻩ
ﺰ
ﺱ
ﺲ
ﺳ
ﺳﺮ
ﺳﺮﻩ
ﺳﻮ
ﺳﻮﺭﺓ
ﺴ
ﺵ
ﺶ
ﺷ
ﺷﻮ
ﺷﻮﻱ
ﺷﻲ
ﺸ
ﺹ
ﺺ
ﺻ
ﺻﻠ
ﺼ
ﺽ
ﺾ
ﺿ
ﻀ
ﻁ
ﻂ
ﻃ
ﻄ
ﻆ
ﻇ
ﻇﻠﻢ
ﻈ
ﻉ
ﻊ
ﻋ
ﻋﺪﺍﻟﺖ
ﻋﻠ
ﻌ
ﻍ
ﻏ
ﻏﻮﺭﻩ
ﻐ
ﻑ
ﻒ
ﻓ
ﻔ
ﻕ
ﻖ
ﻗ
ﻗﻨﺎﻋﺖ
ﻗﻮﻡ
ﻘ
ﻙ
ﻚ
ﻛ
ﻜ
ﻝ
ﻞ
ﻟ
ﻟﺮﻱ
ﻟﻪ
ﻟﻮ
ﻟﻮﻁ
ﻟﻮﻳﻲ
ﻠ
ﻠﻪ
ﻠﻮ
ﻠﻲ
ﻡ
ﻢ
ﻣ
ﻣﺎ
ﻣﺎﻧﺎ
ﻣﺦ
ﻣﺨ
ﻣﻮ
ﻣﻮږ
ﻤ
ﻥ
ﻦ
ﻧ
ﻧﺎﺭﻭﻏ
ﻧﻪ
ﻧﻮ
ﻧﻮﺭ
ﻧﻮﺭﻭ
ﻨ
ﻨﻪ
ﻨﻮ
ﻩ
ﻪ
ﻫ
ﻫﺮ
ﻫﻐﻪ
ﻫﻐﻮ
ﻫﻢ
ﻬ
ﻭ
ﻭﺍ
ﻭﺧﺖ
ﻭﺭ
ﻭﺭځ
ﻭﺭﺗﻪ
ﻭﺭﺳﺮﻩ
ﻭﺭﻭﺳﺘﻪ
ﻭﺳﻠﻢ
ﻭﻟ
ﻭﻧﺪ
ﻭﻩ
ﻭﻭ
ﻭﻭﻳﻞ
ﻭﻱ
ﻮ
ﻮﺭ
ﻮﻝ
ﻮﻟﻮ
ﻮﻡ
ﻮﻩ
ﻮﻱ
ﻯ
ﻰ
ﻱ
ﻲ
ﻳ
ﻳﻮ
ﻳﻮﻩ
ﻳﻲ
ﻴ
ﻷ
ﻻ
ﻻﺱ
ﻼ
？
￼
�
💖
💙
💚
💛
💜
𠀁
𠀃
𠀆
𠀉
𠀎
𠀐
𠁁
𠁣
𠂆
𠂇
𠂈
𠂉
𠂊
𠂋
𠂎
𠂒
𠂔
𠂛
𠂡
𠂢
𠂤
𠂬
𠂭
𠂹
𠃊
𠃋
𠃌
𠃍
𠃎
𠃑
𠃓
𠃔
𠃜
𠄌
𠄎
𠄠
𠄢
𠆢
𠆥
𠇍
𠈌
𠌵
𠓜
𠔉
𠔥
𠔼
𠔽
𠔿
𠕀
𠕁
𠕋
𠘧
𠘨
𠙻
𠙼
𠚏
𠚒
𠚤
𠚪
𠣏
𠤎
𠤕
𠥓
𠦄
𠦑
𠦝
𠧒
𠧗
𠧪
𠩺
𠪚
𠫓
𠫔
𠫤
𠬛
𠬝
𠬞
𠬢
𠬤
𠬶
𠮛
𠮦
𠮷
𠯑
𠱠
𠳮
𠷎
𡈼
𡉀
𡉵
𡌥
𡍮
𡏳
𡕒
𡕩
𡕰
𡖅
𡗗
𡗜
𡘆
𡘤
𡧱
𡨄
𡩧
𡬠
𡭽
𡰣
𡰥
𡰪
𡰯
𡰱
𡷈
𡸁
𡿨
𡿩
𡿪
𡿺
𢀖
𢀛
𢀩
𢁙
𢆉
𢆰
𢆶
𢇁
𢇇
𢉖
𢌬
𢌿
𢏚
𢑑
𢑚
𢖻
𢙣
𢛳
𢦏
𢦒
𢧵
𢼄
𢾕
𣁋
𣄼
𣅀
𣅽
𣍘
𣎳
𣎵
𣏋
𣏼
𣗥
𣥂
𣥖
𣦵
𣦼
𣧄
𣪊
𣪠
𣬉
𣳾
𣶒
𤇾
𤊽
𤐫
𤓰
𤔔
𤕨
𤣩
𤰇
𤰔
𤰞
𤴓
𤴔
𤽄
𥁑
𥁕
𥃦
𥃩
𥃭
𥇡
𥑟
𥘅
𥘈
𥝢
𥫗
𥱡
𦈢
𦉪
𦉬
𦉼
𦍌
𦍒
𦎧
𦐇
𦓔
𦔮
𦘒
𦙃
𦚏
𦣝
𦣞
𦣻
𦥑
𦥔
𦥯
𦨉
𦭝
𦰩
𧆞
𧈧
𧘇
𧰨
𧴪
𧴮
𧵩
𧾷
𨸏
𨾴
𩙿
𩠐
𩫏
𩵋
𪉷
𪜀
𪟽
𪠲
𪩲
𫇦
𫔭
𫜸
𫝀
𫠣
𫠩
𫢉
𫥞
𫩏
𫩠
𫪡
𫲽
𫶧
𬀷
𬐘
𬗌
𬙙
𬛸
𬜯
𬟩
𬯁
𬴘
𬺻
𬼉
𬼖
𭀰
𭁈
𭁨
𭅰
𭑈
𭕄
𭗼
𭤨
𭥫
𭻾
𮅕
𮊿
𮍌
𮍏
𮓗
𮥼
𮧮
廾
𰀁
𰀄
𰀈
𰀉
𰀕
𰀠
𰀡
𰀢
𰀪
𰁜
𰃮
𰆊
𰆘
𰋙
𰕎
𰢴
𰧭
𰯲
0--
001--
003--
004--
01--
02--
03--
030--
04--
05--
06--
07--
08--
09--
1--
101--
105--
112--
113--
115--
116--
118--
119--
120--
121--
122--
123--
124--
125--
126--
127--
140--
2--
3--
323--
33--
39--
4--
40--
41--
42--
43--
44--
45--
46--
47--
48--
49--
5--
50--
500--
51--
52--
53--
54--
55--
56--
57--
58--
59--
6--
60--
61--
62--
63--
64--
65--
66--
67--
68--
69--
7--
70--
7053--
71--
72--
73--
74--
75--
76--
77--
78--
79--
8--
80--
81--
82--
83--
84--
85--
86--
87--
88--
89--
9--
90--
900--
91--
92--
93--
94--
95--
96--
97--
978--
97802--
97803--
97804--
97805--
97807--
97808--
98--
99--
aa--
ab--
abin--
ac--
accele--
accu--
accumu--
acqu--
ad--
adap--
adel--
admi--
adol--
adv--
ae--
aero--
af--
affiliat--
ag--
agno--
ah--
ai--
air--
aj--
ak--
al--
ali--
all--
alt--
am--
amba--
an--
anal--
analyt--
and--
ange--
angl--
annotat--
anta--
anth--
anthropo--
anti--
anto--
any--
ao--
ap--
apoc--
apos--
appe--
aq--
ar--
arch--
arm--
art--
as--
asse--
assemb--
assi--
aste--
astr--
astron--
at--
attr--
au--
aust--
australopi--
av--
aver--
avoi--
aw--
ax--
ay--
az--
azad--
b--
ba--
bach--
baci--
back--
baloc--
balu--
bar--
bata--
batt--
be--
beau--
bed--
ben--
berk--
bern--
bert--
betr--
beve--
bh--
bi--
biblio--
bio--
bism--
bl--
bloo--
bo--
bols--
borr--
botan--
bout--
br--
brac--
brad--
brat--
bree--
bron--
broo--
brun--
brus--
bu--
buck--
bund--
by--
ca--
calc--
cald--
cali--
can--
capi--
capt--
car--
casu--
cat--
cc--
cd--
ce--
cele--
cent--
ceph--
cere--
ch--
chal--
cham--
char--
chat--
chau--
chel--
cher--
chi--
chlo--
chol--
chrono--
ci--
circ--
cl--
clau--
cn--
co--
coll--
colo--
com--
communi--
compl--
con--
concent--
confess--
confi--
confu--
const--
contr--
cool--
cor--
cos--
counter--
cour--
cp--
cr--
cris--
crit--
cs--
cu--
cult--
curr--
cy--
cyanob--
cycl--
cyto--
da--
dar--
de--
dec--
decla--
defe--
defi--
del--
demo--
depen--
depo--
des--
dete--
deutschl--
deva--
dh--
di--
diag--
dial--
dict--
diff--
dimen--
disa--
disabi--
disapp--
disc--
disg--
dism--
disp--
diss--
dist--
distri--
divi--
dm--
do--
domin--
don--
down--
dp--
dr--
ds--
du--
dw--
dy--
dyna--
ea--
earn--
eb--
ec--
econ--
ed--
edel--
edu--
ee--
ef--
eg--
eh--
ei--
el--
elec--
electr--
elevat--
elim--
em--
emer--
emot--
emph--
empi--
empl--
en--
end--
eng--
enti--
entrep--
ep--
epig--
epis--
eq--
equa--
equi--
er--
es--
esch--
est--
et--
ethno--
etru--
eu--
euka--
euro--
ev--
eval--
ew--
ex--
exam--
exce--
execut--
exhi--
exhibit--
expe--
expectat--
expl--
expo--
extr--
extra--
ey--
fa--
faci--
fair--
fami--
far--
fe--
ferg--
ferr--
fest--
fetop--
fi--
fili--
fina--
fini--
finl--
fire--
fitz--
fl--
flor--
fo--
folk--
foot--
for--
fr--
free--
freq--
fu--
fuku--
full--
fun--
ga--
gala--
gall--
garr--
gate--
ge--
gene--
geo--
germ--
gh--
gi--
gill--
giov--
gl--
glac--
glea--
global--
gluc--
glyc--
gm--
gn--
go--
god--
gold--
good--
gr--
grad--
graf--
gram--
grand--
grat--
grif--
gu--
guar--
guer--
gun--
gw--
gy--
ha--
hamp--
hard--
harr--
harv--
hay--
hc--
he--
head--
hell--
hemo--
her--
hete--
hi--
high--
hind--
his--
histo--
ho--
holl--
home--
homo--
hond--
hori--
horm--
hot--
hr--
hu--
hump--
hurr--
husb--
hy--
hydr--
hyper--
hypo--
ia--
ib--
ic--
ice--
id--
iden--
ideo--
ie--
if--
ig--
ih--
ij--
il--
im--
imag--
immi--
immuno--
impl--
implem--
improve--
impu--
in--
inc--
incor--
indi--
indu--
inf--
inha--
inhi--
inju--
inno--
inqu--
insp--
inst--
insur--
int--
inter--
inve--
invest--
involve--
io--
ip--
ir--
irri--
is--
iso--
it--
iv--
iw--
ja--
jala--
jan--
jc--
je--
jh--
ji--
jo--
ju--
judi--
ka--
kara--
kath--
ke--
key--
kh--
ki--
kl--
kn--
ko--
kr--
kris--
ku--
ky--
la--
lan--
land--
laur--
law--
le--
leg--
leuk--
li--
lib--
life--
lind--
lit--
lo--
lu--
ly--
m--
ma--
mace--
maci--
macroe--
magn--
maha--
mala--
mamm--
man--
manuf--
mar--
mast--
mate--
matr--
maur--
mb--
mc--
mcki--
me--
med--
mega--
memb--
memo--
men--
merc--
merr--
meso--
met--
meta--
mi--
micro--
mid--
misc--
mist--
mit--
mm--
mo--
mobi--
mode--
mona--
mong--
mono--
mont--
mora--
morpho--
moti--
mp--
mr--
ms--
mt--
mu--
multi--
munici--
mush--
my--
myoc--
myst--
na--
nano--
nc--
nd--
ne--
nece--
neder--
neighb--
neo--
neum--
neur--
new--
news--
ng--
ni--
nico--
nk--
no--
non--
not--
nr--
ns--
nu--
nuri--
nutrit--
nw--
ny--
oa--
ob--
obli--
obse--
observat--
obst--
oc--
occa--
od--
oe--
off--
og--
oh--
ok--
ol--
om--
on--
one--
onto--
oo--
op--
open--
or--
os--
oste--
ot--
ou--
out--
ov--
over--
ow--
ox--
oxford--
oz--
pa--
page--
pal--
paleo--
pan--
par--
para--
patr--
pay--
pb--
pe--
pen--
per--
pest--
petr--
pf--
ph--
phen--
pi--
pilg--
pl--
play--
plea--
po--
poli--
politic--
pome--
posi--
poss--
post--
pp--
pr--
prag--
pre--
prim--
pro--
prohi--
ps--
pseudo--
psyc--
psycho--
pt--
pu--
pub--
purc--
py--
pyrr--
pyth--
qa--
qi--
qu--
quar--
ra--
radi--
radio--
rail--
rain--
ram--
rapp--
re--
rec--
recom--
reconside--
red--
ref--
regi--
regu--
rein--
reje--
rela--
rele--
reli--
repe--
repl--
requ--
res--
rest--
resur--
retr--
rev--
revelat--
rh--
ri--
rick--
ro--
rodr--
rose--
roug--
rr--
rs--
ru--
run--
ry--
sa--
sala--
salm--
sam--
san--
satu--
sc--
scar--
scen--
scepti--
scha--
sche--
schl--
scho--
schr--
schu--
schw--
sci--
se--
sea--
sedi--
serb--
serv--
sf--
sh--
sham--
she--
si--
sk--
sl--
slov--
sm--
sn--
so--
soc--
some--
sp--
spec--
spon--
sq--
sr--
ss--
st--
stan--
ster--
stereo--
stra--
stre--
strept--
stri--
su--
sub--
subse--
subst--
sudd--
suff--
sun--
sup--
super--
sur--
susp--
sv--
sw--
sy--
symb--
symp--
syna--
sync--
synt--
sz--
ta--
tc--
te--
tele--
temp--
ten--
terr--
tetr--
th--
the--
thor--
thur--
thyr--
ti--
tigh--
to--
tole--
touc--
tr--
trans--
trea--
trem--
trib--
tric--
trill--
trou--
ts--
tu--
turb--
tw--
ty--
uc--
ud--
uk--
ul--
um--
un--
under--
univer--
up--
ur--
us--
ut--
uz--
va--
vale--
van--
vati--
ve--
veget--
vent--
vers--
vert--
vi--
view--
vill--
viro--
visc--
vl--
vo--
vol--
vr--
vu--
wa--
war--
we--
web--
wedg--
wein--
west--
wh--
whit--
wi--
wiki--
win--
wind--
wo--
won--
wood--
work--
world--
wr--
ws--
wu--
wy--
xa--
xi--
xl--
xx--
ya--
ye--
yi--
yo--
your--
yu--
za--
ze--
zh--
zi--
zo--
zu--
zw--
zy--
τ--
а--
д--
и--
к--
ка--
н--
о--
респу--
росси--
с--
ا--
اب--
ابر--
ابهی--
ابو--
ابوال--
ابی--
ات--
اتر--
اتش--
اتن--
اتو--
اتی--
اثر--
اج--
اجر--
اجرا--
اح--
احص--
احمد--
اخ--
اخط--
اخې--
اد--
ادا--
ادب--
ادعا--
اذ--
ار--
ارت--
ارد--
ارز--
ارغ--
ارو--
اري--
ارک--
اری--
اریا--
از--
ازاد--
اس--
است--
استخ--
استوګن--
اسد--
اسم--
اسټ--
اسی--
اش--
اص--
اصط--
اض--
اط--
اع--
اعض--
اغ--
اغو--
اف--
اق--
اك--
اكث--
ال--
الا--
الاع--
الان--
الت--
التف--
الث--
الج--
الح--
الخ--
الد--
الر--
الز--
الس--
الش--
الص--
الط--
الع--
الغ--
الف--
الق--
الك--
الل--
الم--
الن--
اله--
الو--
الي--
الک--
الکترو--
الکټ--
الی--
الې--
ام--
اما--
امام--
امر--
امو--
امير--
امپری--
امې--
ان--
انا--
انت--
انتر--
اند--
انز--
انس--
انش--
انع--
انف--
انق--
انن--
انو--
انټر--
انډ--
انډر--
انګ--
انګارل--
اه--
اهل--
او--
اوب--
اوبر--
اوبو--
اوتا--
اوتر--
اوج--
اود--
اودا--
اور--
اوری--
اوز--
اوس--
اوص--
اوق--
اوقيان--
اول--
اولس--
اوم--
اون--
اونور--
اونورو--
اونوم--
اوه--
اوهم--
اوو--
اويا--
اوټ--
اوډ--
اوړ--
اوږد--
اوښ--
اوګ--
اوی--
اوې--
اي--
ايا--
ايت--
اير--
ايزو--
ايس--
ايل--
اين--
ايو--
اټ--
اټو--
اپ--
اپارت--
اپي--
اپی--
اپیک--
اڅ--
اچ--
اډ--
اډي--
اډی--
اړ--
اړيك--
اړې--
اک--
اکا--
اکت--
اکر--
اکس--
اکسيد--
اکسی--
اکو--
اکيډ--
اکټ--
اکېډ--
اګ--
اګوس--
ای--
ایا--
ایت--
ایدی--
ایر--
ایرو--
ایس--
ایل--
ایلی--
این--
ایډی--
ایک--
اې--
اېل--
اېن--
اېډی--
ب--
با--
بابا--
بابکر--
باد--
بار--
باز--
بازار--
باغ--
بال--
بام--
بانک--
بايد--
بايو--
بای--
بایو--
بت--
بح--
بحر--
بحی--
بخت--
بخښ--
بد--
بدر--
بدل--
بدن--
بدو--
بر--
بران--
برتا--
برخ--
برخو--
برط--
برن--
برو--
بري--
بری--
بریټا--
برې--
برېتا--
برېټا--
برېښ--
بز--
بزر--
بس--
بسپ--
بش--
بشر--
بص--
بط--
بــ--
بق--
بل--
بلا--
بلد--
بلغار--
بلو--
بلک--
بم--
بن--
بنا--
بند--
بنګ--
به--
بها--
بهاء--
بهر--
بو--
بور--
بوس--
بول--
بون--
بوټ--
بوټو--
بوک--
بي--
بيا--
بياد--
بين--
بيو--
بيړ--
بټ--
بډ--
بډو--
بړ--
بک--
بگ--
بڼ--
بی--
بیا--
بیز--
بیض--
بیل--
بین--
بیو--
بیړ--
بې--
بېخ--
بېر--
بېل--
بېلا--
بېوز--
بېړ--
ت--
تا--
تاب--
تاج--
تار--
تال--
تام--
تان--
تاو--
تاوې--
تای--
تب--
تبر--
تث--
تجر--
تجری--
تجز--
تجه--
تجو--
تح--
تحري--
تخ--
تدا--
تر--
ترا--
تراژ--
ترن--
تره--
ترو--
تري--
ترڅو--
تری--
ترې--
تز--
تس--
تش--
تشری--
تص--
تصف--
تط--
تع--
تعا--
تغ--
تغذ--
تغير--
تــ--
تـو--
تف--
تفا--
تق--
تقط--
تقني--
تك--
تل--
تلوی--
تلوې--
تم--
تن--
ته--
تو--
توب--
توت--
تور--
توط--
تول--
توپ--
توږ--
توک--
توکم--
توی--
تي--
تيت--
تير--
تيز--
تيکن--
تړ--
تړان--
تښ--
تښتی--
تښتې--
تک--
تګ--
تگ--
تڼا--
تی--
تیر--
تیز--
تیو--
تې--
تېر--
تېز--
ث--
ثبت--
ثق--
ثم--
ج--
جا--
جال--
جان--
جدا--
جذ--
جذب--
جر--
جری--
جز--
جزی--
جس--
جسد--
جغر--
جغراف--
جــ--
جل--
جلا--
جلب--
جم--
جن--
جنت--
جنرا--
جنس--
جني--
جنګ--
جنگ--
جنی--
جنې--
جه--
جو--
جور--
جوړ--
جي--
جين--
جيو--
جک--
جګ--
جگ--
جی--
جیل--
جیو--
جې--
ح--
حا--
حب--
حت--
حج--
حد--
حر--
حس--
حص--
حف--
حق--
حقوق--
حكم--
حل--
حما--
حمد--
حمو--
حن--
حوا--
حوض--
حکا--
حکم--
حې--
حېو--
خ--
خا--
خاطر--
خال--
خان--
خاک--
خبر--
خبرو--
خت--
ختم--
خج--
خدا--
خدی--
خر--
خرو--
خرڅ--
خز--
خست--
خص--
خط--
خطر--
خل--
خلا--
خلکو--
خم--
خمی--
خن--
خند--
خو--
خوا--
خوار--
خوب--
خود--
خوش--
خوي--
خوځ--
خوځې--
خوږ--
خوښ--
خوی--
خوې--
خي--
خير--
خپر--
خپل--
خپلو--
خړ--
خښ--
خی--
خیر--
خې--
د--
دا--
داحمد--
داد--
دار--
داز--
داس--
داست--
داص--
داض--
داع--
داغ--
داف--
داقتص--
دال--
دالکتر--
دام--
دان--
داو--
داوبو--
داور--
داي--
داړ--
دای--
داې--
دب--
دباد--
دبح--
دبز--
دبهر--
دبي--
دت--
دتا--
دتايرايد--
دتايرايدهور--
دتر--
دتو--
دتيز--
دتړ--
دجا--
دح--
دحج--
دخ--
دخپلو--
دد--
ددر--
ددي--
در--
درا--
درح--
درخ--
درد--
درس--
درن--
درو--
دري--
دز--
دس--
دسا--
دست--
دسر--
دسي--
دسی--
دش--
دع--
دعا--
دغ--
دغو--
دغير--
دف--
دفا--
دفع--
دفو--
دق--
دك--
دل--
دلا--
دلر--
دلمر--
دلن--
دلو--
دلوړ--
دليک--
دلی--
دم--
دمت--
دمجاه--
دمخ--
دمر--
دمط--
دمل--
دملګرو--
دمن--
دمنځ--
دمه--
دمو--
دمی--
دن--
دنا--
دنور--
دنورو--
ده--
دهاي--
دهر--
دهغو--
دهم--
دهوا--
دو--
دوا--
دواړو--
دود--
دور--
دوز--
دول--
دونو--
دوو--
دوي--
دوړ--
دوی--
دي--
ديا--
دين--
ديو--
ديکتا--
دټولو--
دپ--
دڅو--
دچا--
دډبرو--
دژوند--
دښ--
دښو--
دک--
دکار--
دکلي--
دکم--
دکور--
دکي--
دګ--
دګل--
دگ--
دی--
دیاد--
دین--
دیو--
دیپل--
دیپلو--
دې--
دېمو--
ذ--
ذو--
ذوال--
ذکر--
ر--
را--
راج--
راخ--
راز--
راس--
رام--
ران--
راو--
راي--
راپار--
راپر--
راډي--
راښ--
راک--
راگر--
رب--
ربړ--
رت--
رج--
رح--
رخ--
رد--
رسم--
رسټو--
رضا--
رغ--
رغا--
رغو--
رغې--
رف--
رق--
رك--
رم--
رمز--
رن--
رنځ--
رنګ--
ره--
رو--
روان--
روبا--
روح--
روحان--
رود--
روز--
روزن--
روس--
روش--
روغ--
رول--
روم--
روږ--
روښ--
روڼ--
ري--
ريښ--
رپ--
رښ--
رښتی--
رڼا--
ری--
ریښ--
رې--
رېښ--
ز--
زاخ--
زاخې--
زاو--
زاي--
زبي--
زبې--
زد--
زر--
زعفر--
زغم--
زم--
زما--
زمين--
زن--
زه--
زهر--
زو--
زور--
زي--
زير--
زيږ--
زيږې--
زړ--
زی--
زیر--
زیږ--
زیږی--
زیږې--
زې--
زېږ--
زېږی--
س--
سا--
ساز--
ساق--
سال--
سام--
سان--
سانس--
ساو--
ساينوباک--
سای--
سب--
سبز--
سبزی--
ست--
ستا--
ستاين--
ستر--
ستن--
ستو--
ستور--
ستړ--
ستی--
سخت--
سر--
سرخ--
سرك--
سره--
سرو--
سري--
سريښ--
سرښ--
سرک--
سری--
سزا--
سس--
سعد--
سـ--
ســـ--
سف--
سفا--
سفر--
سك--
سل--
سلا--
سلف--
سلو--
سلی--
سم--
سمو--
سمی--
سن--
سناریو--
سنج--
سند--
سنس--
سنډ--
سنګ--
سه--
سو--
سور--
سوز--
سول--
سوځې--
سي--
سيد--
سير--
سيل--
سيم--
سين--
سيټ--
سټ--
سټا--
سټر--
سټرا--
سټن--
سټو--
سټي--
سټی--
سټې--
سپ--
سپت--
سپو--
سپوږ--
سپي--
سپړ--
سپی--
سپې--
سپېڅ--
سکا--
سګ--
سی--
سید--
سیر--
سیم--
سیمی--
سین--
سیګ--
سې--
سېل--
ش--
شا--
شار--
شام--
شان--
شاه--
شاهن--
شای--
شب--
شد--
شر--
شرم--
شع--
شعا--
شـ--
شــ--
شف--
شك--
شل--
شلې--
شم--
شمير--
شمېر--
شن--
شه--
شهر--
شو--
شود--
شورا--
شون--
شوو--
شي--
شير--
شين--
شپ--
شپاړ--
شپږ--
شپی--
شپې--
شړ--
شک--
شکر--
شګل--
شی--
شیر--
شیم--
شین--
شې--
شېر--
ص--
صح--
صحا--
صد--
صدر--
صرا--
صف--
صفا--
صل--
صنف--
صو--
صوفی--
صي--
ض--
ضد--
ضرر--
ضما--
ط--
طب--
طحا--
طرف--
طل--
ظ--
ظفر--
ع--
عا--
عای--
عبد--
عبدال--
عر--
عز--
عس--
عسك--
عص--
عض--
عطا--
عق--
عقل--
عكا--
علم--
علي--
عمر--
عمل--
عن--
عي--
عی--
عیسا--
غ--
غا--
غبر--
غدو--
غذا--
غر--
غزل--
غزو--
غل--
غم--
غن--
غنا--
غند--
غو--
غوا--
غور--
غورځې--
غوز--
غولو--
غوم--
غون--
غوڅ--
غير--
غځو--
غځې--
غږ--
غږې--
غښ--
غښتل--
غی--
غیر--
غېر--
ـ--
ــ--
ـــــ--
ف--
فا--
فار--
فاس--
فال--
فای--
فایل--
فخر--
فدا--
فر--
فرن--
فري--
فری--
فرې--
فزی--
فزیوت--
فس--
فشار--
فص--
فض--
فق--
فل--
فلا--
فلز--
فلي--
فن--
فنګ--
فو--
فوتو--
فور--
فول--
فون--
فوځ--
في--
فيل--
فکر--
فی--
فیثا--
فیروز--
فیلا--
فیلو--
فیو--
فې--
فېبر--
فېدر--
ق--
قا--
قار--
قاع--
قاف--
قام--
قبل--
قد--
قدر--
قدم--
قر--
قرا--
قری--
قص--
قط--
قطر--
قطع--
قل--
قلم--
قلي--
قم--
قو--
قي--
قيم--
قی--
ك--
كا--
كار--
كال--
كان--
كر--
كرا--
كرو--
كس--
كفا--
كل--
كلا--
كم--
كمپ--
كن--
كو--
كود--
كور--
كول--
كون--
كي--
كيلو--
كړ--
كړنل--
كښ--
كښې--
كې--
ل--
لا--
لار--
لارو--
لاس--
لال--
لام--
لاو--
لاي--
لای--
لب--
لت--
لخوا--
لر--
لرونکو--
لس--
لط--
لــ--
لل--
لم--
لمر--
لمس--
لن--
لنډ--
له--
لو--
لوب--
لور--
لوم--
لوي--
لوټ--
لوړ--
لوړو--
لوژ--
لوکزام--
لوې--
لي--
ليك--
لين--
ليو--
ليږ--
ليک--
لړ--
لږ--
لږو--
لښ--
لک--
لګ--
لګي--
لګې--
لگې--
لی--
لین--
لیو--
لیپی--
لیک--
لې--
لېږ--
م--
ما--
ماتری--
مار--
ماز--
ماساچو--
مال--
مان--
ماه--
ماي--
مايکرو--
ماډ--
ماګ--
مای--
مایکرو--
مب--
مبا--
مبت--
مت--
متح--
متر--
متع--
متغیر--
مث--
مجا--
مح--
محا--
محت--
محم--
محمد--
مخ--
مختلفو--
مد--
مديت--
مدی--
مذ--
مر--
مرا--
مراج--
مرد--
مرستن--
مرض--
مرغ--
مرن--
مري--
مرګ--
مرگ--
مری--
مز--
مس--
مست--
مسجد--
مسی--
مش--
مشا--
مشر--
مص--
مض--
مط--
مطبو--
مع--
معا--
معنا--
مغ--
مــ--
مف--
مفا--
مق--
مقت--
مقد--
مك--
مل--
ملا--
ملي--
ملک--
مم--
من--
منت--
مند--
منس--
منظور--
منو--
منځ--
منګ--
مه--
مهار--
مهر--
مهم--
مو--
مواد--
موادو--
مور--
موز--
موس--
موسی--
مول--
مون--
مونت--
مونو--
مونږ--
موټ--
موږ--
موګ--
مي--
ميا--
ميتاب--
مير--
ميل--
مين--
ميټا--
ميړ--
مټ--
مځ--
مچ--
مډر--
مړ--
مښو--
مک--
مکی--
مګ--
مګر--
می--
میا--
میتا--
میتاب--
میتر--
میر--
میز--
میل--
مین--
مینیم--
میټ--
میړ--
میکرو--
میګ--
مې--
مېر--
مېل--
مېټا--
مېړ--
مېږ--
مېګ--
ن--
نا--
ناح--
نام--
نان--
نانو--
ناي--
نايټ--
ناک--
ناګ--
نای--
نت--
نتي--
نخ--
ند--
نذ--
نر--
نز--
نس--
نشاي--
نشای--
نشر--
نص--
نصب--
نصر--
نض--
نط--
نظ--
نظر--
نع--
نغ--
نغښ--
نــ--
نف--
نفس--
نق--
نقا--
نقل--
نك--
نل--
نم--
نمان--
نمو--
نمی--
نن--
ننګ--
ننگ--
نه--
نو--
نوا--
نود--
نور--
نورو--
نوم--
نوو--
نوي--
نوټ--
نوک--
نوی--
ني--
نيا--
نيك--
نيم--
نيمگړ--
نيو--
نيک--
نړ--
نړۍ--
نړې--
نږدې--
نژ--
نښ--
نښلو--
نګ--
نی--
نیم--
نیو--
نیک--
نې--
نېک--
ه--
ها--
هابس--
هار--
هام--
هاو--
هاي--
هايډ--
های--
هایدرو--
هر--
هس--
هغ--
هغو--
هف--
هل--
هم--
همد--
همدا--
هن--
هند--
هندو--
هو--
هوا--
هوس--
هوف--
هي--
هير--
هڅا--
هډ--
هک--
هی--
هیر--
هې--
هېر--
هېرې--
هېل--
هېواد--
هېښ--
و--
وا--
واخ--
وار--
واز--
واك--
وال--
والا--
وان--
واو--
واي--
واټ--
واک--
وای--
وب--
وت--
وتر--
وتم--
وتو--
وتښ--
وجا--
وجو--
وجود--
وح--
وحد--
وخ--
وخو--
ود--
ور--
وران--
ورب--
ورغ--
ورك--
ورن--
ورو--
ورځ--
ورک--
وری--
وز--
وس--
وسپ--
وش--
وص--
وض--
وطن--
وع--
وغ--
وقا--
ول--
ولو--
ولي--
ولی--
وم--
ون--
ونن--
ونو--
ونړ--
ونښ--
وه--
وو--
ووي--
ووی--
ووې--
وي--
ويب--
ويت--
وير--
وين--
وينا--
ويي--
ويښ--
وټا--
وټپ--
وپيژ--
وڅ--
وچ--
وچو--
وړ--
وړو--
وژ--
وښ--
وښو--
وګ--
وګر--
وګو--
وګړ--
وگر--
وگړ--
وی--
ویر--
ویس--
ویش--
ویل--
وین--
وې--
وېب--
وېر--
ي--
يا--
ياد--
يار--
ياغ--
يت--
يث--
يح--
يخ--
يخچال--
يد--
ير--
يع--
يل--
يم--
ين--
يه--
يو--
يورا--
يوم--
يون--
يوګوسلا--
يي--
يک--
يې--
٠--
١٠--
١١--
١٢--
١٣--
١٨--
١٩--
٢٠--
٣--
٤--
٥--
٦--
٧--
٨--
٩--
ٱ--
ٹ--
ټ--
ټا--
ټاك--
ټان--
ټاي--
ټای--
ټر--
ټرا--
ټرو--
ټري--
ټری--
ټل--
ټلوي--
ټلوې--
ټن--
ټو--
ټور--
ټول--
ټولو--
ټي--
ټيلي--
ټينګ--
ټپ--
ټک--
ټکر--
ټکنا--
ټی--
ټین--
ټیکن--
ټې--
ټېلې--
ټېکن--
پ--
پا--
پار--
پاس--
پاك--
پال--
پام--
پان--
پاي--
پاپ--
پاړ--
پاک--
پاڼ--
پای--
پت--
پتو--
پخ--
پخلن--
پر--
پرت--
پرمخ--
پرن--
پرو--
پري--
پری--
پرې--
پس--
پط--
پــ--
پل--
پلا--
پلار--
پلاز--
پلن--
پلو--
پمپ--
پن--
پنج--
پنځ--
پنډ--
په--
پو--
پوتا--
پوخ--
پور--
پورنو--
پوزی--
پول--
پولي--
پوه--
پوهن--
پوپن--
پوښ--
پي--
پيدا--
پير--
پيل--
پين--
پيژ--
پيژند--
پټ--
پټن--
پځي--
پړ--
پښتو--
پښو--
پښي--
پښی--
پښې--
پک--
پګ--
پی--
پیدا--
پیر--
پیرهو--
پیش--
پیل--
پین--
پیژ--
پیژند--
پې--
پېر--
پېل--
پېټ--
پېژ--
پېښ--
ځ--
ځا--
ځان--
ځاي--
ځای--
ځغا--
ځغل--
ځل--
ځلې--
ځم--
ځمک--
ځن--
ځنډ--
ځو--
ځور--
ځي--
ځينو--
ځړ--
ځی--
څ--
څا--
څار--
څان--
څاڅ--
څر--
څرخ--
څرخې--
څرنگو--
څلور--
څمک--
څن--
څو--
څوک--
څي--
څير--
څيړ--
څړ--
څی--
څیړ--
څیړون--
څې--
څېړ--
چ--
چا--
چار--
چاود--
چاودي--
چاودې--
چاپ--
چاپې--
چت--
چر--
چش--
چغ--
چل--
چلند--
چلې--
چم--
چمن--
چن--
چنګ--
چه--
چهار--
چو--
چور--
چي--
چپ--
چک--
چی--
چین--
چې--
ډ--
ډا--
ډار--
ډان--
ډای--
ډب--
ډبر--
ډبل--
ډل--
ډمو--
ډن--
ډنډ--
ډه--
ډو--
ډوب--
ډوک--
ډي--
ډير--
ډيرو--
ډيمو--
ډيپلو--
ډډ--
ډک--
ډکش--
ډگر--
ډی--
ډیر--
ډیمو--
ډینی--
ډیپلو--
ډې--
ډېر--
ډېمو--
ړ--
ړوم--
ړوند--
ږ--
ږغ--
ږی--
ژ--
ژب--
ژر--
ژو--
ژور--
ژون--
ژوند--
ښ--
ښا--
ښار--
ښخ--
ښند--
ښو--
ښوی--
ښوې--
ښي--
ښځم--
ښځمن--
ښک--
ښکار--
ښکر--
ښکلا--
ښی--
ښې--
ک--
کا--
کار--
کاربو--
کارو--
کاز--
کاس--
کاف--
کال--
کام--
کان--
کاو--
کب--
کتاب--
کتن--
کتي--
کتی--
کث--
کر--
کرس--
کرن--
کرو--
کري--
کری--
کرې--
کس--
کسب--
کش--
کشف--
کـ--
کــ--
کفا--
کل--
کلا--
کلب--
کلو--
کلورو--
کلي--
کلی--
کم--
کمش--
کمو--
کمپ--
کمی--
کن--
کنز--
کنسر--
کنفو--
کنډ--
که--
کو--
کود--
کور--
کوش--
کوف--
کولو--
کوم--
کون--
کوه--
کوو--
کوپ--
کوژ--
کوک--
کي--
کيدو--
کيلو--
کين--
کټ--
کپ--
کپیټ--
کچ--
کړ--
کړن--
کړو--
کړي--
کږ--
کښ--
کښت--
کښي--
کښی--
کښې--
کھ--
کی--
کیلو--
کین--
کې--
کېدو--
کېلو--
ګ--
ګا--
ګار--
ګاس--
ګال--
ګام--
ګذ--
ګر--
ګرد--
ګرو--
ګرځ--
ګرځې--
ګری--
ګل--
ګلایس--
ګلی--
ګم--
ګمر--
ګن--
ګند--
ګو--
ګوتن--
ګور--
ګي--
ګډ--
ګړ--
ګڼ--
ګڼو--
ګی--
ګې--
گ--
گا--
گذ--
گر--
گرځ--
گرځې--
گرې--
گز--
گل--
گلو--
گمر--
گن--
گند--
گو--
گور--
گون--
گي--
گټ--
گډ--
گړ--
گڼ--
گی--
گې--
ڼ--
ھ--
ہ--
ی--
یا--
یاد--
یار--
یخ--
یر--
یل--
یو--
یون--
یوویش--
یک--
یی--
ې--
ېو--
۱۲--
۱۶--
۲۱--
۲۳--
۲۴--
۲۶--
۲۷--
۳۱--
۳۴--
۳۵--
۳۷--
۴۱--
۴۳--
۴۶--
۵۴--
۵۸--
۸۱--
ᄀ--
ᄃ--
ᄅ--
ᄆ--
ᄇ--
ᄉ--
ᄋ--
ᄌ--
ᄒ--
ﺁ--
ﺍ--
ﺍﺧ--
ﺍﺳ--
ﺍﻣ--
ﺍﻭ--
ﺎ--
ﺑ--
ﺑﺎ--
ﺑﺮ--
ﺗ--
ﺗﺎ--
ﺗﺮ--
ﺘ--
ﺟ--
ﺟﻮ--
ﺣ--
ﺧ--
ﺧﺎ--
ﺧﻮ--
ﺩ--
ﺩﺭ--
ﺩﻋ--
ﺪ--
ﺭ--
ﺭﺍﻏ--
ﺭﺳ--
ﺭﻭ--
ﺮ--
ﺮﺍ--
ﺯ--
ﺰ--
ﺳ--
ﺳﺘ--
ﺴ--
ﺷ--
ﺸ--
ﺻﺤ--
ﻃ--
ﻋ--
ﻋﺎ--
ﻏ--
ﻏﺎ--
ﻏﻮ--
ﻓ--
ﻓﺮ--
ﻗ--
ﻗﺮ--
ﻛ--
ﻟ--
ﻠ--
ﻣ--
ﻣﺎ--
ﻣﺒ--
ﻣﺤ--
ﻣﺮ--
ﻣﺴ--
ﻣﻨ--
ﻣﻬ--
ﻤ--
ﻧ--
ﻧﺎ--
ﻧﻮ--
ﻨ--
ﻫ--
ﻫﻤ--
ﻭ--
ﻭﺍ--
ﻭﺭ--
ﻮ--
ﻳ--
ﻴ--
ﻻ--
ﻼ--
--0
--0
--00
--01
--02
--03
--04
--05
--06
--07
--08
--09
--1
--1
--10
--11
--12
--13
--14
--15
--16
--17
--18
--19
--2
--2
--20
--21
--22
--23
--24
--25
--26
--27
--28
--29
--3
--3
--30
--31
--32
--33
--34
--35
--36
--37
--38
--39
--4
--4
--40
--41
--42
--43
--44
--45
--46
--47
--48
--49
--5
--5
--50
--51
--52
--53
--54
--55
--56
--57
--58
--59
--6
--6
--60
--61
--62
--63
--64
--65
--66
--67
--68
--69
--7
--7
--70
--71
--72
--73
--74
--75
--76
--77
--78
--79
--8
--8
--80
--81
--82
--83
--84
--85
--86
--87
--88
--89
--9
--9
--90
--91
--92
--93
--94
--95
--96
--97
--98
--99
--a
--aa
--ab
--able
--ably
--ac
--ace
--aceae
--ach
--acies
--ack
--acre
--acy
--ad
--ada
--ade
--ado
--ae
--ael
--af
--ag
--age
--aging
--ah
--ai
--aic
--ail
--ain
--ais
--aj
--ak
--aka
--al
--ala
--all
--ally
--alo
--als
--am
--ama
--an
--ana
--ance
--and
--ane
--ang
--ani
--ano
--ans
--ant
--ants
--ao
--ap
--aphy
--aq
--ar
--ara
--ard
--ari
--aria
--aries
--arily
--ario
--arity
--aro
--ars
--ary
--as
--ase
--at
--ata
--ate
--ated
--ater
--ates
--ath
--ati
--atic
--ating
--ation
--ations
--ative
--ato
--ator
--atory
--au
--auer
--av
--avi
--aw
--awa
--ax
--ay
--az
--b
--ba
--baum
--be
--bel
--ber
--berg
--bi
--bia
--bial
--ble
--bo
--book
--bs
--burg
--by
--c
--ca
--cal
--cci
--ce
--ceae
--ced
--cence
--ces
--ch
--che
--cher
--ches
--ci
--cies
--cing
--cio
--ck
--cle
--co
--cock
--cope
--cott
--craft
--cs
--ct
--cts
--cus
--cy
--d
--da
--dae
--day
--de
--ded
--den
--dge
--dh
--di
--dia
--dial
--dic
--dio
--dis
--dium
--dle
--dler
--do
--dor
--dox
--ds
--dt
--duct
--dy
--e
--ea
--eal
--ean
--eau
--eb
--ec
--eca
--ech
--ect
--ed
--edia
--ee
--eed
--een
--ees
--ef
--eh
--ei
--eic
--ein
--eit
--ek
--el
--ela
--ele
--ell
--els
--ely
--em
--ema
--ement
--en
--enance
--ence
--ences
--ency
--end
--ene
--ened
--ening
--ens
--ensis
--ent
--ents
--eo
--eous
--eption
--er
--ere
--ered
--erg
--eri
--eria
--ering
--erior
--ern
--erous
--ers
--ert
--ery
--es
--ese
--esh
--ess
--est
--et
--ete
--etic
--ets
--ett
--ette
--eur
--eus
--ev
--ew
--ews
--ex
--ey
--eys
--ez
--f
--fa
--fax
--fe
--feld
--fer
--ff
--fi
--fied
--fin
--fs
--ft
--ful
--fy
--g
--ga
--gal
--gan
--gang
--ge
--ged
--ger
--gery
--ges
--gh
--gham
--gi
--gia
--gin
--ging
--gle
--gnant
--go
--graphy
--gs
--gton
--gue
--gy
--h
--ha
--haft
--hal
--ham
--haw
--he
--hed
--hel
--hen
--hes
--hev
--hi
--hia
--hic
--hin
--hing
--hip
--ho
--hold
--hood
--hs
--ht
--hu
--hus
--hy
--i
--ia
--iah
--ial
--ian
--ians
--ias
--ible
--ic
--ical
--ich
--ick
--ico
--ics
--id
--ida
--idae
--ide
--idence
--idents
--ides
--ids
--ie
--ied
--ield
--ien
--ience
--ient
--ier
--iers
--ies
--if
--iff
--ification
--ified
--ify
--ig
--ign
--ii
--ik
--ika
--il
--ila
--ile
--ility
--ily
--im
--ima
--in
--ina
--inal
--inate
--ination
--ind
--ine
--ines
--iness
--ing
--ings
--ington
--ini
--ino
--ins
--io
--ion
--ions
--ios
--iot
--ious
--ique
--ir
--ire
--is
--isation
--ische
--ise
--ised
--ish
--ished
--ishing
--ism
--ist
--ista
--ister
--istic
--ists
--it
--ita
--ital
--ite
--ites
--ith
--ities
--itis
--ito
--itt
--itude
--ity
--itz
--ium
--ius
--ive
--ivism
--ivity
--ix
--iya
--ization
--ize
--ized
--izes
--izing
--j
--ja
--je
--ji
--k
--ka
--kar
--ke
--ked
--ker
--ket
--kh
--ki
--kin
--kle
--ko
--ks
--ky
--l
--la
--lage
--lah
--lal
--lance
--land
--lar
--lation
--ld
--le
--len
--lent
--ler
--les
--less
--let
--ley
--li
--lia
--lic
--lin
--line
--ling
--lis
--lism
--ll
--lla
--llah
--lle
--lles
--lli
--llo
--lly
--lo
--lon
--lry
--ls
--lt
--lty
--lus
--ly
--lyn
--m
--ma
--mag
--man
--mas
--me
--men
--ment
--ments
--mer
--mes
--mi
--mia
--mic
--mo
--mond
--mons
--ms
--my
--n
--na
--naire
--nal
--nan
--nar
--nas
--nce
--ncy
--nd
--ndo
--ne
--ned
--nel
--nell
--ner
--ners
--nes
--ness
--net
--ney
--ng
--ni
--nia
--nic
--nik
--ning
--nis
--nism
--nna
--nne
--no
--nous
--ns
--nsis
--nt
--ntal
--nte
--nted
--ntly
--nto
--nts
--ntz
--nus
--ny
--o
--oa
--occus
--ock
--od
--ode
--ody
--oe
--og
--ogical
--ography
--ogy
--oi
--oid
--ok
--ol
--ola
--ole
--ological
[...]
