!
"
#
##0
##1
##10
##11
##12
##13
##14
##15
##16
##17
##18
##19
##2
##20
##21
##22
##23
##24
##25
##26
##27
##28
##29
##3
##30
##31
##32
##33
##34
##35
##36
##37
##38
##39
##4
##40
##41
##42
##43
##44
##45
##46
##47
##48
##49
##5
##50
##51
##52
##53
##54
##55
##56
##57
##58
##59
##6
##60
##61
##62
##63
##64
##65
##66
##67
##68
##69
##7
##70
##71
##72
##73
##74
##75
##76
##77
##78
##79
##8
##80
##81
##82
##83
##84
##85
##86
##87
##88
##89
##9
##90
##91
##92
##93
##94
##95
##96
##97
##98
##99
$
%
&
'
(
)
*
+
,
-
.
/
0
00
000
0000
001
002
003
004
005
006
007
008
01
011
02
021
0215
022
03
04
044
045
05
050
06
067
07
08
085
087
09
090
1
10
100
1000
1001
101
1010
1011
1012
1019
102
1020
103
1030
1031
1033
1037
104
1042
1048
105
1050
106
1066
107
108
1080
1086
109
1095
11
110
1100
1101
111
1110
1111
112
1120
113
114
115
1154
1156
116
1160
117
1170
1174
1175
118
1187
119
12
120
1200
121
122
1220
1222
123
124
125
1250
1257
126
1260
127
1270
128
1280
1289
129
1290
1292
1293
1294
1297
13
130
1300
1303
131
132
133
1330
1333
134
1340
135
1350
1357
136
1365
1368
137
1371
138
1386
139
1394
14
140
1400
141
142
1429
143
1430
1431
1436
144
1440
145
1450
1453
146
147
1470
1475
148
1482
149
1490
1492
1493
1494
1498
15
150
1500
151
1510
1511
1512
1516
1518
1519
152
1520
1521
1522
1524
1525
1527
1529
153
1530
1533
1534
1535
1536
154
1540
1542
1543
1546
1549
155
1550
1551
1555
156
1560
1564
1568
157
1570
1571
1575
1578
1579
158
1580
1582
1584
1585
1586
1587
1588
159
1590
1595
1596
16
160
1600
1601
1603
1607
1608
1609
161
1610
1612
1613
1614
1616
1618
1619
162
1620
1621
1622
1624
1625
1627
1629
163
1630
1631
1632
1636
1638
164
1640
1641
1642
1643
1644
1645
1649
165
1650
1652
1653
1655
1659
166
1660
1661
1665
1667
167
1670
1672
1674
1675
1676
1677
1678
1679
168
1680
1681
1684
1686
1687
1688
1689
169
1690
1691
1693
1694
1697
1699
17
170
1700
1701
1703
1704
1705
1706
1707
171
1710
1711
1718
1719
172
1720
1722
1724
1727
173
1730
1732
1735
1736
1738
174
1740
1743
1744
1745
1746
1747
1748
1749
175
1750
1751
1752
1753
1755
1756
1757
1758
1759
176
1760
1761
1762
1763
1765
1766
1768
1769
177
1770
1771
1772
1773
1774
1775
1776
1777
1778
1779
178
1780
1781
1782
1783
1784
1785
1786
1787
1788
1789
179
1790
1791
1792
1793
1794
1795
1796
1797
1798
1799
18
180
1800
1801
1802
1803
1804
1805
1806
1807
1808
1809
181
1810
1811
1812
1813
1814
1815
1816
1817
1818
1819
182
1820
1821
1822
1823
1824
1825
1826
1827
1828
1829
183
1830
1831
1832
1833
1834
1835
1836
1837
1838
1839
184
1840
1841
1842
1843
1844
1845
1846
1847
1848
1849
185
1850
1851
1852
1853
1854
1855
1856
1857
1858
1859
186
1860
1861
1862
1863
1864
1865
1866
1867
1868
1869
187
1870
1871
1872
1873
1874
1875
1876
1877
1878
1879
188
1880
1881
1882
1883
1884
1885
1886
1887
1888
1889
189
1890
1891
1892
1893
1894
1895
1896
1897
1898
1899
19
190
1900
1901
1902
1903
1904
1905
1906
1907
1908
1909
191
1910
1911
1912
1913
1914
1915
1916
1917
1918
1919
192
1920
1921
1922
1923
1924
1925
1926
1927
1928
1929
193
1930
1931
1932
1933
1934
1935
1936
1937
1938
1939
194
1940
1941
1942
1943
1944
1945
1946
1947
1948
1949
195
1950
1951
1952
1953
1954
1955
1956
1957
1958
1959
196
1960
1961
1962
1963
1964
1965
1966
1967
1968
1969
197
1970
1971
1972
1973
1974
1975
1976
1977
1978
1979
198
1980
1981
1982
1983
1984
1985
1986
1987
1988
1989
199
1990
1991
1992
1993
1994
1995
1996
1997
1998
1999
2
20
200
2000
2001
2002
2003
2004
2005
2006
2007
2008
2009
201
2010
2011
2012
2013
2014
2015
2016
2017
2018
2019
202
2020
2021
2022
2023
2024
2025
203
204
205
206
207
208
209
21
210
2100
211
212
213
214
215
216
217
218
219
22
220
221
222
223
224
225
226
227
228
229
23
230
2305
231
232
233
234
235
2356
236
237
238
239
24
240
2400
241
242
243
244
245
246
247
248
249
25
250
2500
251
252
253
254
255
256
257
258
259
26
260
261
262
263
264
265
266
267
268
269
27
270
271
272
273
274
275
276
277
278
279
28
280
281
282
283
284
285
286
287
288
289
29
290
291
292
293
294
295
296
297
298
299
3
30
300
3000
301
302
303
304
305
306
307
308
309
31
310
311
312
313
314
315
315290
316
3166
317
318
319
32
320
3200
321
322
323
324
325
326
327
328
329
33
330
331
332
333
334
335
336
337
338
339
34
340
341
342
342302
342303
343
344
345
346
347
348
349
349335
349336
349337
349338
349339
35
350
351
352
353
354
355
356
357
358
359
36
360
361
362
363
364
365
366
367
368
369
369258
369259
369260
369285
37
370
371
372
373
374
3745
375
376
377
377896
378
379
38
380
381
382
383
384
385
386
387
388
389
39
390
391
392
392478
392479
393
394
395
396
397
397877
397878
397880
397881
397884
397900
398
399
4
40
400
4000
401
402
403
403115
403123
403124
403125
404
405
406
407
408
409
409584
41
410
411
412
413
414
415
416
417
418
419
42
420
421
422
423
424
425
426
427
428
429
43
430
431
432
433
434
435
436
437
438
439
44
440
441
442
443
444
445
446
447
448
449
45
450
451
452
453
454
455
456
457
458
459
46
460
461
462
463
464
465
466
467
468
469
47
470
471
472
473
474
475
476
477
478
479
48
480
481
482
483
484
485
486
487
488
489
49
490
491
492
493
494
495
496
497
498
499
5
50
500
5000
501
502
503
504
505
506
507
508
509
51
510
511
512
513
514
515
516
517
518
519
52
520
521
522
523
524
525
526
527
528
529
53
530
531
532
533
534
535
536
537
538
539
54
540
541
542
543
544
545
546
547
548
549
55
550
551
552
553
554
555
556
557
558
559
56
560
561
562
563
564
565
566
567
568
569
57
570
571
572
573
574
575
576
577
578
579
58
580
581
582
583
584
585
586
587
588
589
59
590
591
592
593
594
595
596
597
598
599
6
60
600
6000
601
602
603
604
605
606
607
6075
608
609
61
610
611
612
613
614
615
616
617
618
619
62
620
621
622
623
624
625
626
627
628
629
63
630
631
632
633
634
635
636
637
638
639
64
640
641
642
643
644
645
646
647
648
649
65
650
651
652
653
654
655
656
657
658
659
66
660
661
662
663
664
665
666
667
668
669
67
670
671
672
673
674
675
676
677
678
679
68
680
681
682
683
684
685
686
687
688
689
69
690
691
692
693
694
695
697
698
699
7
70
700
701
702
703
704
705
706
707
708
709
71
710
711
712
713
714
715
716
717
718
719
72
720
721
722
723
724
725
726
727
728
729
73
730
731
732
733
734
735
736
737
738
739
74
740
741
742
743
744
745
746
747
748
749
75
750
751
752
753
754
755
756
757
758
759
76
760
761
762
763
764
765
766
767
768
769
77
770
771
772
773
774
775
776
777
778
779
78
780
781
782
783
784
785
786
787
788
79
790
792
793
794
795
796
797
799
8
80
800
8000
801
802
803
804
806
807
808
809
81
810
811
81152
81153
812
813
814
816
817
818
819
82
820
821
822
823
824
825
826
827
829
83
830
831
833
835
836
837
838
839
84
840
843
845
846
847
849
85
850
854
855
856
858
86
860
861
862
864
869
8693
87
870
873
875
879
88
880
884
885
887
888
89
890
891
894
895
897
898
9
90
900
901
904
906
907
909
91
910
911
912
913
914
915
92
920
922
925
929
93
930
932
936
94
940
942
944
945
95
950
952
954
955
958
96
960
964
965
97
970
973
974
975
978
979
98
980
981
984
989
99
990
999
:
;
<
=
>
?
@
\
^
_
`
a
aa
aaa
aacs
aam
aan
aaron
ab
aba
abad
abadi
abah
abandoned
abang
abbas
abbasiyah
abbey
abc
abd
abdas
abdi
abdome
abdul
abdullah
abdulloh
abdurrahman
abe
abel
abi
abidin
ability
abimanyu
abiotik
abiu
abiyasa
abjad
abkhazia
able
abnormal
abnormalitas
abody
abon
about
above
abraham
abrasi
abri
abroad
abs
absence
absolut
absolute
abstract
abstrak
abu
abul
abung
abus
abuse
abuskeun
ac
academic
academy
acak
acan
acar
acara
acaryya
acceleration
accent
accept
acceptable
accepted
access
accessed
accession
accident
accord
according
account
accounted
accounting
accounts
accuracy
accurate
accurately
ace
aceh
ach
ached
aches
achieve
achieved
aching
achmad
aci
acid
acids
acoustic
acquired
across
act
acting
action
actions
activated
activation
active
activist
activities
activity
actor
actress
acts
actual
actually
acuan
aculeatissimum
acuminata
acute
ad
ada
adaan
adab
adalah
adam
adams
adan
adang
adanya
adaptasi
adaptation
adapted
adas
adat
add
added
addie
adding
addition
additional
additionally
additive
address
addresses
adds
ade
adeg
adegan
adelaide
aden
ader
aders
adha
adi
adian
adidaya
adil
adilan
adilaya
adiluwih
adina
ading
adipati
adisi
aditif
adjacent
adjectives
adjustment
adline
adly
administrasi
administratif
administratifna
administration
administratip
administrative
administrator
admiral
adnan
adolf
adonan
adopted
adp
adre
adriaan
adrian
ads
adsl
adu
aduh
aduk
adult
advance
advanced
advances
advantage
advantages
advent
adventure
adventures
advertising
advice
advokat
adw
ady
adzan
ae
aegean
aek
aereas
aereos
aerial
aero
aeroflot
aerolineas
aerospace
af
afc
afdeeling
afdeling
aff
affairs
affan
affandi
affect
affected
affinity
afganistan
afghan
afghanistan
africa
african
afrika
afrikaans
afro
after
ag
again
against
agak
agama
agamana
agan
agar
age
ageman
agen
agencies
agency
ageng
agent
agents
ager
ages
ageung
agihan
aging
ago
agra
agrabinta
agranoff
agre
agreed
agreement
agresi
agribisnis
agricultural
agriculture
agrikultur
agro
agronomi
ague
agum
agung
agus
agustus
ah
ahad
ahar
ahdiat
ahe
ahir
ahiran
ahirna
ahirnya
ahli
ahmad
ahmed
ahr
ahy
ai
aichi
aid
aids
aikido
aikidoka
aimed
ain
aing
ainu
air
airasia
airbus
aircraft
aires
airlangga
airline
airlines
airlink
airport
airports
airways
aisyah
aj
aja
ajag
ajaib
ajal
ajang
ajaran
aje
ajeg
ajen
ajengan
aji
ajian
ajibarang
ajimantra
ajip
ak
aka
akad
akademi
akademik
akademis
akademisi
akage
akal
akan
akang
akar
akarna
akasaka
akbar
akdown
ake
aker
akers
akeun
akhe
akhir
akhirna
akhirnya
aki
akibat
akibatna
akihito
akina
aking
akita
akkeun
akomodasi
akon
akrab
akresi
akronim
aks
aksara
akse
aksele
akselerasi
akses
aksi
aksikeun
aksina
akson
akta
aktan
aktansi
akte
aktif
aktifitas
akting
aktingna
aktip
aktipasi
aktipis
aktipitas
aktiva
aktivasi
aktivis
aktivitas
aktor
aktris
aku
akuarium
akuatik
akumulasi
akun
akuntan
akuntansi
akur
akurasi
akurat
akustik
akut
al
ala
alabama
alaihi
alam
alamat
alami
alamiah
alamina
alamna
alan
aland
alang
alanin
alap
alapan
alaq
alas
alasa
alasan
alaska
alat
alatan
alatas
alba
albania
albanian
albany
albedo
albert
alberto
albeum
albizia
album
albumin
albumna
albums
alchemical
alchemist
alchemists
alchemy
alcohol
aldehida
ale
aled
alergi
alesan
alesanna
alessandro
alex
alexa
alexander
alexandria
alfa
alfabe
alfred
alga
algae
algebra
algebraic
algeria
algorithm
algorithms
algoritma
ali
aliansi
alias
alice
alie
alien
align
aligned
alih
alihan
alim
aling
alip
aliran
alisasikeun
alit
ality
alive
aliyah
aljabar
aljazair
alkali
alkaloid
alkana
alke
alkemis
alkil
alkitab
alkohol
alkuna
all
alla
allah
allan
alleged
allen
alliance
allium
allocated
allocation
alloh
allow
allowed
allowing
allows
alloy
alluvial
ally
alm
almarhum
almohad
almost
alo
alokasi
alomorf
alona
alone
along
alonso
alpen
alpha
alphabet
alpine
alprazolam
alps
alpukah
alpukahna
alpuket
alre
als
also
alsophila
alt
altafsir
altai
altered
alternate
alternatif
alternating
alternatip
alternative
alternatively
alternatives
alth
although
althy
alto
alue
aluminium
alumni
alumunium
alun
alur
alus
alusna
aluvial
always
alwi
alzheimer
am
ama
amal
amalan
aman
amanah
amanan
amanat
amanda
amandeme
amandraya
amangkurat
amarah
amateur
amatir
amazon
amba
ambahan
ambalan
ambalika
ambang
ambarawa
ambassador
ambe
ambek
ambekan
amber
ambeu
ambeuna
ambiguitas
ambika
ambisi
ambon
ambox
ambri
ambu
ambulan
ame
america
american
americans
americas
amerika
amfibi
ami
amien
amik
amin
amina
aming
amino
amir
amis
amitriptilin
amoeba
among
amonia
amonium
amor
amorf
amorphophallus
amount
amounts
ampar
amparan
ampe
ampel
ampera
ampere
amperes
ampibi
ampir
ampiran
amplifier
amplifiers
amplitude
amplitudo
amplop
amps
amr
amru
ams
amsterdam
amundsen
amunisi
amy
an
ana
anabolik
anacardiaceae
anacardium
anae
anak
anakan
anakna
analisa
analisis
analitik
analitis
analog
analogi
analogous
analysis
anana
ananda
anang
ananta
anapon
anas
anastasia
anatara
anatolia
anatomi
anatomis
anatomy
anc
ancak
ancaman
anceman
ancestry
ancient
ancik
ancol
ancrub
ancur
ancurna
and
anda
andalan
andalas
andalus
andalusia
andam
andaman
andawali
ande
andelan
anders
anderson
andes
andi
andika
andir
andorra
andre
andrea
andrew
android
anduk
andy
ane
aneka
anemia
ang
angan
angel
angeles
angelo
angels
angen
anger
angeun
angga
anggahota
anggang
anggap
anggapan
anggar
anggaran
anggel
angger
anggeus
anggitan
anggota
anggotaan
anggotana
anggre
anggrek
anggun
anggur
angin
anging
angiospermae
angka
angkasa
angkat
angkatan
angke
angklung
angkola
angkot
angkre
angkutan
angle
anglo
angola
angon
angora
angsana
anguilla
angulimala
angun
angustifolia
anhuma
ani
ania
anik
animal
animals
animasi
animated
animation
animator
anime
aning
anion
anjasmoro
anjatan
anjeun
anjeuna
anjeunna
anjing
anjlok
anjog
anjungan
ankara
ann
anna
annals
annana
anne
annelida
anniversary
anno
annona
annotated
announced
announces
annual
anoe
anom
anomali
anonim
anopheles
anorganik
another
ans
answer
answers
ant
anta
antagonis
antanan
antar
antara
antarana
antaranya
antarbeungeut
antarctica
antariksa
antarmoda
antarmuka
antartika
antawacana
antawis
antawisna
antazoline
ante
antel
anteneu
antenna
antennas
antepkeun
anterior
anthem
anthony
anti
antibakteri
antibiotik
antibodi
antige
antigen
antigua
antik
antikoagulan
antillen
antilles
anting
antioch
antiokhos
antioksidan
antiquity
antiseptik
antoine
antologi
anton
antonio
antraks
antropologi
antukna
anu
anugerah
anugrah
anumerta
anus
anwar
any
anyaman
anyang
anyar
anyaran
anyarna
anyer
anything
ao
aom
aomori
aora
ap
apa
apabila
apache
apakah
apal
aparat
apart
aparteme
apartheid
apatis
apbd
ape
apec
apel
apganistan
api
apingan
aplikasi
apollo
apons
apoptosis
apoptotic
apote
apparatus
apparent
appe
appendix
apple
applicable
application
applications
applied
applies
apply
applying
appointed
approach
approaches
appropriate
approx
approximate
approximately
approximation
approximations
apra
apre
apresiasi
aprika
aprikot
april
aptb
apu
apung
apus
aq
aqidah
aqua
aquifer
aquila
ar
ara
arab
arabi
arabia
arabian
arabic
araceae
arafah
arafat
aragon
arah
arahan
arahna
aram
aramaic
aramo
arance
arang
aranjeun
aranjeuna
aranjeunna
ararat
arasup
arateul
arba
arbitrary
arborophila
arby
arc
arca
arch
archaeology
archer
archers
archipelago
architecture
archive
archived
archives
arctic
ard
ardea
ardiwinata
ardy
are
area
areas
arecaceae
ared
arek
arema
aren
arena
areng
areuy
arga
argapura
arge
argentina
argentine
argo
argon
argue
argued
argume
argument
arguments
ari
aria
arief
ariel
arif
arifin
ariman
arimbi
aring
arise
aristokrasi
aristoteles
aristotelian
aristotle
arit
arithmetic
arizona
arjasari
arjawinangun
arjuna
arkady
arke
arkeologi
arktik
arl
arlier
arliest
arloji
arly
arm
armada
arme
armed
armenia
armeniaca
armenian
arms
armstrong
army
arn
arning
arnold
aro
arok
aroma
aromatik
aron
arongan
around
arpanet
arranged
array
arrhenius
arrival
arrive
arrow
arrows
ars
arse
arsenal
arsip
arsite
arsitek
arsitektur
arslan
arson
arsy
art
arte
artefak
arteri
arth
arthquake
arthquakes
arthritis
arthur
arti
article
articles
artificial
artifisial
artikel
artikelna
artina
artinya
artis
artist
artistik
artists
artos
artropoda
arts
aruba
arul
arum
arus
arvensis
arya
as
asa
asahan
asai
asak
asakan
asal
asalna
asam
asan
asang
asar
asas
asasi
asbe
ascension
ascent
ase
asean
ased
asem
asep
ases
aset
asetat
aseupan
ash
ashanty
asi
asia
asian
asiana
asiasat
asiatik
aside
asier
asih
asihan
asily
asime
asimilasi
asimo
asin
asinan
asing
asingly
asiste
asisten
asiswa
ask
asked
askorbat
asks
asli
aslina
asma
asmara
asmarandana
asmat
asmaul
aso
ason
asoning
asons
asor
asosiasi
asp
aspal
aspartam
aspartat
aspe
aspects
aspek
aspirasi
aspirin
asrama
asri
assam
assembly
assessment
assets
assigned
assist
associated
association
assume
assumed
assumes
assuming
assumption
ast
astana
astanajapura
aste
asteraceae
astern
asteroid
asti
astina
astinapura
astra
astro
astrofisika
astrologi
astronom
astronomer
astronomers
astronomi
astronomical
astronomis
astronomy
astronot
astrophysics
asturias
asuh
asuhan
asumsi
asup
asupan
asupkeun
asupna
asurable
asuransi
asure
asured
asurement
asurements
asures
asuring
aswad
aswatama
asy
asynchronous
at
ata
atah
atami
atanapi
atap
atas
atasan
atau
ataupun
atawa
ate
ated
aten
atened
ater
ates
atest
ateuk
ateul
ath
athena
athens
ather
athletes
ati
atif
atik
atikan
atikanana
atikanna
ating
ation
ativitas
atje
atlanta
atlantic
atlantik
atlas
atle
atlit
atly
atm
atma
atmadja
atmaja
atment
atmosfer
atmosfir
atmosphere
atmospheric
atol
atom
atomic
atomna
atoms
ator
atos
atp
atra
atraksi
atre
atrium
atropin
ats
atsc
atsiri
attached
attack
attacks
attempt
attempted
attempting
attempts
attention
attraction
attributes
atu
atuh
atum
aturan
aturanna
ature
atured
atures
atv
atwa
au
aub
auckland
audience
audio
audisi
audit
auditor
auf
aug
august
auguste
augustine
aula
aun
aung
aur
aura
aus
austin
australasia
australi
australia
australian
australis
austria
austrian
austro
austrone
austronesia
aute
author
authorities
authority
authors
autiful
autisme
auto
autobots
autokorelasi
automated
automatic
automatically
automobile
autonomous
autoregressive
auv
av
availability
available
ave
aven
avenged
avenue
average
aves
avia
aviation
avicenna
avily
aving
aviv
avoid
avril
avy
aw
awak
awakna
awal
awalan
awalna
awalnya
awam
awan
awang
award
awarded
awards
awas
away
awe
awewe
awi
awon
awug
ax
axe
axes
axis
ay
aya
ayah
ayahnya
ayakan
ayam
ayana
ayang
ayat
ayatrohae
aye
ayeuna
ayip
ayu
ayutthaya
az
azab
azerbaijan
azhar
aziz
azte
azusa
b
ba
bab
baba
babacaan
babad
babadotan
babage
babagi
babagian
babah
babak
babakan
babakoan
babakti
babanding
babandingan
babar
babaraha
babarengan
babari
babasan
babat
babatuan
babaturan
babaturanana
babaturanna
babi
babilonia
babon
babul
babussalam
baby
babylonian
baca
bacaan
bacaeun
bach
back
backed
background
backing
backwards
bacon
bacteria
bad
bada
badag
badagna
badai
badak
badan
badar
badarat
bade
badminton
badud
baduga
badui
baduy
bae
baek
baekeland
bag
baga
bagaimana
bagan
bagawan
bage
bagean
bagendit
bagerak
bageur
baghdad
bagi
bagian
baginda
bagja
bagong
bagus
bah
baha
bahagia
baham
bahama
bahamas
bahan
bahana
bahanna
bahar
bahari
bahasa
bahasan
bahasi
bahaya
baheula
baheulana
bahkan
bahorok
bahr
bahrain
bahuga
bahwa
bahya
baik
bait
baitul
baiturrahman
baitussalam
baja
bajaj
bajak
bajidor
bajigur
bajing
bajoang
baju
bajuang
bajuri
bak
bakal
bakalan
bakar
bakat
bakatna
bakatul
bakau
bakauheni
bakelite
baker
baki
bakicot
bako
bakong
bakongan
bakri
bakrie
bakte
bakteri
bakti
baktiya
baku
bakung
bal
bala
balabuh
balad
balada
balade
baladna
balai
balak
balakutak
balance
balang
balanja
balantik
balap
balapan
balare
balas
balayar
bale
balee
baleendah
balesan
bali
balige
balik
balikan
balikna
balikpapan
balingbing
balistik
baliung
balkan
ball
ballade
balls
balna
balok
balon
balong
balongan
balqis
baltic
baltik
baltimore
balubur
balukar
balukarna
bamban
bambang
bambel
bamboo
bambu
bambusa
ban
banana
bancana
bancang
band
banda
bandan
bandana
bandar
bandara
bande
bandeng
bandera
banding
bandingan
bandingkeun
bandoeng
bandre
bandring
bands
bandung
bandwidth
bang
banga
bangawan
bangbara
bangbarung
bangbayang
bangbung
banget
bangil
bangka
bangkalan
bangke
bangko
bangkok
bangkong
bangkrut
bangku
bangkuang
bangkunat
banglade
bangladesh
bango
bangodua
bangor
bangsa
bangsal
bangsawan
bangsing
bangun
bangunan
bangunkarta
bangunna
bani
banjar
banjaran
banjarejo
banjarharjo
banjarmangu
banjarmasin
banjarnegara
banjarsari
banjarwangi
banjir
banjit
bank
banking
banks
bantal
bantalan
bantani
bantar
bantarkalong
bantarkawung
bantarujeg
bante
banten
bantosan
bantu
bantuan
bantul
banu
banua
banyak
banyol
banyu
banyuasin
banyumas
banyumasan
banyuresmi
banyusari
banyuwangi
bao
bapa
bapak
bapakna
bapana
baptis
baptiste
baqarah
baqoroh
bar
bara
barack
baradag
baradatu
barak
barakuda
baranahan
barang
barangna
barat
barata
baratayuda
baraya
barayana
barbados
barbara
barbarossa
barbie
barbuda
barcelona
bare
baregbeg
bareng
barengan
bareuh
bargot
bari
barijil
baringin
baris
barisal
barisan
bark
barker
barn
barna
baro
barobah
baroh
barokah
baron
barona
barong
barontak
baroque
baros
barrel
barrichello
barrier
barry
barter
baru
baruang
barudak
barudakna
baruleud
baruluan
barumun
barung
barus
barusjahe
bas
basa
basah
basajan
basal
basalt
basan
basana
basanjata
base
baseball
based
basel
bases
baseuh
basf
basic
basil
basin
basins
basis
basisir
basisirna
basisna
baske
basket
basketball
baskeun
baso
basque
basri
bass
bassis
basude
basuki
bat
bata
batahan
batak
batalyon
batam
batan
batang
batanghari
batangna
batara
batari
batas
batavia
batawi
batee
bateman
batere
bates
bathin
bati
batik
batin
batminton
batok
batre
bats
battery
battle
batu
batuan
batubara
batujajar
batujaya
batuk
batunadua
batununggal
batur
baturna
batutulis
bau
bauna
bautista
bavaria
bawa
bawaan
bawah
bawahan
bawang
bawolato
bay
bayah
bayan
bayangan
bayar
bayaran
bayawak
bayem
bayern
bayes
bayesian
bayeun
bayi
bayongbong
bayu
bayur
bb
bbc
bbm
bc
bcl
bcmmbmhcbmh
bd
be
beach
beam
bear
beast
beatbox
beatles
beautiful
beban
bebas
bebe
bebegig
bebek
bebeneran
bebentukan
beber
beberapa
bebesen
became
because
becc
beck
beckham
become
becomes
becoming
bed
beda
bedagai
bedah
bedana
bedil
bedog
beds
bedug
bee
beebe
been
beer
beethoven
beetle
before
began
bege
begin
beginning
begins
begitu
begun
beh
behavior
behavioral
behaviour
behind
beijing
being
beja
beji
bekam
bekas
bekasi
bekel
bekerja
bekri
beku
bel
bela
belah
belahan
belajar
belakang
belanda
belang
belarus
belas
belawan
beledugan
belenong
belgia
belgian
belgium
beli
beliau
belief
believe
believed
beling
belitung
belize
bell
bella
bellamy
bellied
belly
belongs
below
belt
belu
beluk
belum
belut
bem
bemmelen
ben
benang
benar
bencana
benda
bendahara
bende
bendera
bendungan
benedict
benefit
benefits
bener
benerna
bengal
bengalensis
bengali
bengawan
benggala
bengkulu
benin
bening
benito
benjamin
benny
bensin
bentang
benten
benteng
benth
bentuk
bentukna
benua
benyamin
benz
ber
beracun
berada
beragam
berang
berangkat
berapi
berarti
beras
berasal
berastagi
berat
berau
berbagai
berbagi
berbahasa
berbasis
berbatasan
berbe
berbeda
berbentuk
berber
berbuat
berbunyi
bercak
berdarah
berdasarkan
berdiri
berenuk
beresih
berg
bergerak
berguna
berharga
berhasil
berhenti
beri
berikut
beriman
beringin
berisi
berita
berjalan
berjamaah
berjuang
berjudul
berkah
berkas
berkat
berkata
berkeley
berkembang
berkualitas
berlaku
berlangsung
berlian
berlin
bermassa
bermata
bermuda
bernama
bernard
bernoulli
beroperasi
berpendapat
berperan
berry
bersabda
bersaing
bersama
bersatu
bersejarah
bersenjata
bersifat
bersih
bersin
bersuara
bert
bertahan
bertahap
bertanya
bertrand
berturut
berubah
beruk
berukuran
berupa
berusaha
berwarna
besar
besi
besides
bessarabia
best
bet
beta
betah
betara
betawi
betok
beton
better
betty
betung
between
beubeulahan
beubeunangan
beubeur
beubeuritan
beubeutian
beueus
beuheung
beuheungna
beukah
beuki
beulah
beulahan
beuleum
beuli
beulian
beulikeun
beulitan
beunang
beungeut
beungeutna
beunghar
beungkeut
beungkeutan
beunyeur
beurang
beurat
beuratna
beureum
beureuman
beurit
beus
beusi
beuteung
beuteungna
beuti
beutina
beutong
beverage
beye
beyond
bf
bg
bh
bha
bhakti
bharat
bhayangkara
bhd
bhnchnhcnbcbmchbmhcbmhc
bhumi
bhutan
bhutto
bi
biak
biang
biantara
biara
biarawan
bias
biasa
biasana
biasanya
biaya
bibi
bibir
bibit
bible
bibliografi
bibliography
bibliograpi
bid
bidadari
bidan
bidang
bidara
bidari
bie
bies
bieu
big
biggest
biha
bihari
bihun
biji
bijih
bijil
bijilna
bika
bikang
bikangna
bila
bilah
bilal
bilang
bilangan
bilateral
bilatung
bilbao
bili
bilik
bill
billboard
billed
billie
billion
billy
bima
bimbingan
bin
bina
binangun
binary
binatang
bine
biner
bingei
bingkai
bingkeng
bingung
binih
binjai
binomial
binong
bintang
bintangnya
bintara
binti
bintik
bintuni
binus
bio
biochemical
biochemistry
biodata
biodegradable
biodiesel
biodiversity
bioge
biografi
biography
biokimia
biol
biola
biologi
biological
biologis
biology
bioma
biomassa
biome
biometrik
biomolekul
biosfir
biosinte
bioskop
biosphere
biote
biotik
bipolar
bir
birahi
birch
bird
birdlife
birds
birem
bireuen
bireuk
birmingham
biro
birokrasi
birth
birthday
biru
biruang
biruni
bis
bisa
bisana
bishop
bisi
bisma
bismarck
bismillah
bisnis
bison
bissau
bisul
bit
bitis
bitmap
bits
bitu
bituna
bitung
bius
biwako
biwir
biwirna
bizantium
bj
bjo
bjt
bk
bki
bkim
bkr
bl
black
blackberry
blackwell
blado
blair
blake
blambangan
blanakan
blanco
blang
blangjerango
blangkejeren
blangpegayon
blasts
ble
bless
blind
blink
blitar
block
blocks
blog
blogger
blogspot
blok
blokade
blood
blora
blow
blown
blu
blue
blues
bluetooth
blume
blunt
blur
bm
bmw
bn
bni
bo
boa
board
boarding
boat
bob
bobby
bobcats
bobo
bobodasna
bobogohan
bobojong
boboko
bobotoh
bobotsari
boca
bodas
bodies
bodo
bodor
body
boediono
boeing
boer
boerl
boga
bogana
bogem
bogo
bogor
bogota
bogowonto
boh
bohong
bohr
bojo
bojona
bojonegoro
bojong
bojonggambir
bojonggede
bojongloa
bojongme
bojongpicung
bojongsari
bojongsoang
bokor
boksen
bokura
bola
bolak
bold
bole
boleh
boling
bolivia
bolon
bolong
bom
bomb
bombay
bomber
bombings
bon
bonaire
bonan
bonang
bonaparte
bond
bondol
bondowoso
bone
boneka
bones
bongas
bongbolongan
bongkar
bonjol
bonsai
bonte
book
books
bool
boom
bor
bora
borbor
border
borders
bore
borel
boris
born
borne
borneo
borobudur
borojol
borok
boron
boronadu
borondong
borong
borontok
borosngora
borrowed
bos
bosar
bose
bosnia
boson
boss
bosscha
bosser
boston
bot
botak
botani
botanic
botanical
botany
both
botol
botomuzoi
botswana
bottom
boulder
boulevard
bound
boundaries
boundary
bounded
bow
bowl
box
boxer
boxes
boxing
boy
boyle
boyolali
boyolangu
boys
bp
bpd
bpk
bps
bpupki
bq
br
bra
brabham
brad
bradley
bradt
braga
brahma
brahmana
brain
braja
brak
bram
branch
branches
brand
branson
brantas
brasil
brata
bratakusumah
braun
brawijaya
brawn
bray
brazil
brazilian
bre
break
breakdown
breasted
brebes
breed
breeders
breeding
breeds
brezhnev
brian
bridge
bridges
brief
brien
brigade
brigadir
bright
brigjen
brill
bring
brings
brisbane
bristol
brit
britain
britania
britannia
britannica
british
britney
broad
broadband
broadcast
broadcaster
broadcasters
broadcasting
broadcasts
broadway
broken
bromo
bronkitis
bronze
brook
brooks
bros
brother
brothers
brought
brown
brownian
brownies
browser
bruari
bruce
brumbung
brune
brunei
bruno
brussels
bruto
bryan
bryant
bryn
bryonia
brønsted
bs
bss
bt
btp
bts
bu
buah
buahan
buahdua
buahna
buan
buana
buat
buatan
buaya
bubar
bubat
bubble
bubon
bubu
bubuahan
bubuk
bubuka
bubukaan
bubukuan
bubulak
bubur
buda
budah
budak
budakna
budapest
budaya
budayana
budayawan
buddha
buddhism
buddhisme
buddhist
budget
budha
budi
budidaya
budiman
buenos
bueuk
buffalo
bufo
bug
bugang
buggy
bugis
buhaya
buhun
bui
build
building
buildings
built
buitenzorg
bujal
bujang
bujangga
bujur
bujurna
buka
bukan
buket
bukhari
bukit
bukitkerman
bukittinggi
bukti
buktina
buku
bukuna
bul
bula
bulak
bulakamba
bulan
bulanan
bulanna
bulao
bulat
bulb
bule
buleleng
buleud
buleudan
bulgaria
bulian
bulimia
bulir
bulk
bull
bullet
bulletin
bulls
buloh
bulu
buluan
buluh
buluna
bulus
bumbu
bumi
bumiayu
bumina
bumn
bun
bunake
bunar
buncis
bunda
bundar
bunder
bunderan
bung
bunga
bungah
bungbu
bungbuahan
bungbulang
bungbuna
bungbung
bungkus
bungkusan
bungo
bungsu
bungur
bungursari
buni
bunisora
buniwangi
buntu
buntut
buntutna
bunuh
bunut
bupati
bupivakaine
burahol
burangrang
buras
burayak
burckhardt
bure
bureau
burih
burkhan
burkina
burm
burma
burn
burning
burns
buroq
bursa
burton
buru
buruan
buruh
buruk
burundi
burung
buruy
bus
busa
busan
busana
bush
business
businesses
businessman
busungbiu
busur
but
buta
butan
butir
butler
butterflies
butterfly
button
buttonquail
butuh
butut
buuk
buukna
buy
buya
buyung
buyut
buzz
bv
bw
bx
by
bypass
byson
bytes
byzantine
byzantium
bz
c
ca
caah
caang
cabang
cabangna
cabe
cabinet
cable
cables
cacad
cacah
cacai
cacak
cacar
cacarakan
cacat
cacing
cacingeun
cadangan
cadas
caesalpinia
caesar
cafe
caffeine
cagak
cagar
cage
cageur
cahaya
cahya
cai
caian
caina
cair
cairan
cairo
caka
cakalang
cakar
cakcak
caket
cakra
cakrabuana
cakram
cakranagara
cakrawala
cakung
cakupan
caladi
calakan
calamus
calana
calcium
calculate
calculated
calculating
calculation
calculator
calculus
calcutta
caledonia
calendar
california
calik
calincing
caliph
call
called
calling
calls
calon
calonarang
calung
calvin
cam
camara
camat
cambodia
cambridge
came
camellia
camera
cameras
cameron
cameroon
camp
campaign
campaka
campang
campbell
campuh
campur
campuran
campurdarat
campurkeun
campursari
campus
can
canada
canadian
canal
canberra
cancer
candi
candidates
candipuro
candra
candrasangkala
candu
cang
canggih
cangkale
cangkang
cangkangna
cangke
cangkilung
cangkir
cangkok
cangkring
cangkuang
cangkudu
cangkurileung
cannot
canonical
cantigi
cantik
canting
canyon
cao
cap
capability
capable
capacitance
capacitor
capacitors
capacity
capcay
cape
capit
capital
caplak
captain
capture
captured
car
cara
caraka
carana
carang
carangka
carbon
card
cards
care
career
careuh
carey
cargo
cari
caribbean
caricangkas
caricing
caringin
carios
carita
caritaan
caritaanana
caritana
cariu
carl
carlin
carlo
carlos
carmichael
carnivorous
caroge
carol
carolina
caroline
carolus
carpon
carried
carrier
carriers
carries
carry
carrying
cars
carstensz
carter
cartier
caruban
carucukan
caruluk
cascades
case
cases
casey
cash
casino
casparis
caspase
cassini
cassius
cast
casting
castle
castro
casuarius
cat
catalan
catalog
catalogue
catalonia
catang
catangna
catatan
catch
categories
category
catet
catetan
cathay
catherine
cathode
catholic
cats
catur
cau
caucasian
caucasus
cauchy
caudal
caught
causa
causal
cause
caused
causes
causing
cave
cavendish
cawan
cawang
cayman
cb
cbs
cby
cc
cctv
cd
cdc
cdf
cdma
cdot
cdots
ce
cebu
cecekelan
ced
cekap
ceko
cekoslowakia
celah
celala
celcius
celempung
celestial
cell
cells
cellular
celsius
celtic
cemara
cempaka
cempor
cenah
cendana
cendekiawan
cenderung
cendikia
cendrawasih
cengkareng
cengkat
cengke
census
center
centers
centi
central
centre
centuries
century
ceo
cepat
cepel
cepet
cepu
cerah
cerai
ceramah
ceramic
cerdas
cere
cereme
ceremony
ceres
cerita
cermin
cerna
cerpen
certain
cet
cetak
ceu
ceuk
ceuli
ceulina
ceureumen
ceurik
ceuta
cf
cfa
cg
cgs
ch
cha
chad
chadwick
chain
chains
chairil
chairman
chairul
chalcis
challenge
chamber
chamberlain
chambers
champ
champion
champions
championship
championships
chan
chance
chancellor
chandra
chang
change
changed
changes
changing
channel
channels
chao
chapman
chapter
character
characteristic
characteristics
characterized
characters
charge
charged
charges
charging
charity
charles
charlie
charlotte
chart
charter
charts
chave
chbmhcbmhbcmhb
che
check
checking
checklist
chelsea
chem
chemical
chemistry
chen
cheng
cheribon
cherry
cherrybelle
chess
chest
chester
chi
chiang
chiba
chibi
chicago
chief
chikungunya
child
children
chile
chili
chin
china
chinchilla
chinensis
chinese
ching
chip
chips
chittagong
chl
chloride
cho
chocolate
choe
choice
choir
choisy
chola
choose
chopper
chordata
chorus
chosen
chou
chris
christ
christian
christianity
christians
christina
christmas
christopher
chrisye
chrome
chronicle
chronology
chu
chubu
chuck
chun
chung
church
churchill
chye
chyornye
ci
cia
ciambar
ciamis
ciampe
cianjur
cianjuran
ciaruteun
ciasem
ciawi
ciawigebang
cibadak
cibalong
cibatu
cibeber
cibeureum
cibingbin
cibinong
cibitung
cibiuk
cibodas
cibogo
cibuaya
cibubur
cibungbulang
cibungur
ciburial
ciburuy
cicadas
cicale
cicalengka
cicantayan
cicing
cicingna
cicire
cicurug
cicuta
cidadap
cidahu
cidaun
cidera
cideres
cidolog
cidra
ciduh
ciemas
cieurih
cifor
cigadung
cigalontang
cigasong
cigedug
cigombong
cigudeg
cigugur
cihampelas
cihaur
cihaurbeuti
cihcir
cihe
ciherang
cihideung
cihujan
cijambe
cijantung
cijati
cijeruk
cijeungjing
cijulang
cik
cika
cikadu
cikajang
cikakak
cikal
cikalong
cikalongkulon
cikampe
cikampek
cikancung
cikapundung
cikarang
cikatomas
cikaum
cike
cikedung
cikele
cikelet
cikembar
cikeusik
cikidang
cikiih
cikijing
cikini
cikole
cikondang
cikone
cikoneng
cikopo
cikoru
cikudapateuh
cikundul
cikur
cikuray
cilacap
cilaka
cilaku
cilamaya
cilandak
cilangkap
cilawu
cile
cilebut
ciledug
cilegon
cilembu
cileunca
cileungsi
cileunyi
cili
cililin
cililitan
cilimus
cilincing
ciliwung
cilongok
cimahi
cimalaka
cimande
cimanggis
cimanggu
cimanggung
cimanuk
cimaragas
cimaung
cimenyan
cimerak
cimulya
cina
cincin
cindekna
cine
cinema
cing
cingambul
cingcau
cingcin
cingir
ciniru
cinnamon
cinta
cintaku
cinyusu
ciomas
cipaku
cipamali
cipanas
cipanon
ciparay
cipari
cipasung
cipatat
cipati
cipatujah
cipayung
cipeucang
cipeundeuy
cipher
cipicung
cipinang
cipta
ciptaan
ciptagelar
cipto
cipunagara
ciputat
ciracap
ciracas
ciranjang
cirata
circa
circle
circuit
circuitry
circuits
circular
circulation
circumstances
cire
cirebon
cirebonan
ciremai
cireundeu
cireunghas
ciri
cirina
ciroyom
cisaat
cisadane
cisaga
cisalak
cisarua
cisayong
cise
cisitu
cisolok
cisompe
cisompet
cisurupan
cit
cita
citak
citakan
citamiang
citana
citanduy
citarum
citation
citayam
cite
cited
citeureup
cities
citizen
citizens
citra
citralekha
citrus
city
ciung
civic
civil
civilization
ciwaringin
ciwaru
ciwide
ciwidey
ciwit
cj
ck
ckp
cl
claim
claimed
claiming
claims
clarinet
clark
clarke
class
classes
classic
classical
classics
classification
classified
claude
clay
cle
clear
clerk
cleveland
click
client
climate
climates
climbing
clinical
clinton
clipperton
clitocybe
clive
clock
clocks
cloning
close
closed
closely
closer
cloth
clothing
cloud
clouded
clouds
club
cluster
clusters
clyde
cm
cn
cnn
co
coal
coalition
coast
coastal
coaster
coat
coated
coating
coba
coca
cochran
coco
cocoba
cocog
cocok
coconut
cocooan
cocos
code
codec
codecs
coded
codes
coding
codomain
coe
coefficient
coefficients
cofdm
coffee
cohen
coho
coil
coils
coin
coincide
coins
cokelat
coklat
cokot
cola
cold
coldplay
cole
coli
colin
collapse
collected
collectie
collection
collections
collective
college
colliding
collins
collision
collisions
colombia
colombo
colonial
colonization
color
colorado
colored
colors
colour
colours
columba
columbia
columbus
column
columns
com
coma
combat
combination
combinations
combine
combined
combretum
come
comedian
comes
comet
comets
comic
comics
coming
command
commander
commentary
commerce
commercial
commercially
commission
commissioners
committed
committee
commodity
common
commonly
commons
commonwealth
commune
communication
communications
communis
communist
communities
community
commuter
compact
compagnie
companies
companion
company
comparable
comparative
compared
comparing
comparison
compass
compatibility
compatible
compete
competing
competition
compilation
compile
compiled
complementary
complete
completed
completely
complex
complexity
complicated
component
components
composed
composer
composite
composition
compound
compounds
comprehensive
compression
comprises
computation
computational
compute
computed
computer
computers
computing
con
conan
concentration
concept
concepts
concern
concerned
concerning
concerns
concert
concise
concordia
concrete
condition
conditional
conditions
condong
conduct
conducted
conducting
conductive
conductivity
conductor
conductors
cone
conference
confidence
config
configuration
confirmed
conflict
congcorang
congcot
congestion
congge
congkok
congo
congress
congressional
conjugate
connect
connected
connecticut
connecting
connection
connections
connector
connectors
connor
conquest
conrad
consecutive
consequence
consequences
consequently
conservation
conserved
consider
considerable
considered
considering
considers
consist
consisted
consistent
consisting
consists
console
consonant
consonants
consortium
const
constable
constant
constants
constituent
constitution
constitutional
constraints
construct
constructed
construction
constructor
constructs
consumer
consumers
consumption
contact
contain
contained
container
containing
contains
contemporary
content
contents
contest
context
contexts
continent
continental
continue
continued
continues
continuing
continuity
continuous
continuum
conto
contoh
contona
contrast
contribution
contributions
control
controlled
controller
controlling
controls
controversial
controversy
convenience
convention
conventional
convergence
converges
conversely
conversion
convert
converted
converter
converting
converts
convolution
coo
cook
cooke
cooking
cool
cooled
cooling
coolsma
cooper
cooperation
coordinated
coordinates
copa
copenhagen
copies
copper
copy
copyright
cor
corak
corbicula
core
cores
corn
cornelis
cornell
corner
cornwall
corolla
corona
coronavirus
coronel
corong
corp
corporate
corporation
corpus
correct
correction
correctly
correlation
correspondence
corresponding
corresponds
corruption
corsica
cos
cosmic
cosmology
cost
costa
costs
cot
cotton
coturnix
could
coulomb
council
count
counter
counties
counting
countries
country
county
coup
couple
coupled
coupling
course
court
cov
covariance
cover
coverage
covered
covering
covers
covid
cox
coxon
cp
cpu
cq
cr
crab
cracking
cradle
craig
crame
cranial
crash
crashed
crashes
crater
crazy
crc
cre
cream
creation
creek
creole
crested
cretaceous
crete
crew
cricket
crime
criminal
crisis
criterion
critical
criticism
criticized
criville
croatia
crocodile
crop
crops
cross
crossbar
crossing
crown
crowne
crowned
crt
crude
cruise
cruz
crystal
cs
css
ct
cu
cuaca
cuba
cuckoo
cucuk
cucukan
cucukna
cucunguk
cucurbitaceae
cugenang
cuisine
cuka
cukahke
cukai
cukang
cukuh
cukup
cultural
culture
cultures
cum
cuma
cumarita
cumi
cumulant
cumulants
cumulative
cunduk
cup
cupang
cupat
cupatna
cups
cupu
cupumanik
curac
curah
cure
curie
currency
current
currently
currents
curtis
curug
curugkembar
curuk
curve
custom
customer
customers
cut
cutatan
cutoff
cutthroat
cutting
cv
cw
cx
cy
cyan
cyathea
cyber
cycle
cycles
cylinder
cyperus
cyprinidae
cyprus
cyrus
cytoplasm
cz
czech
d
da
daan
dacia
dada
dadakan
dadampar
dadan
dadana
dadang
dadap
dadaran
dadasar
dadasarna
dadi
dadu
dadung
dae
daendels
daerah
daftar
dag
dagang
dagangan
dage
daging
dagingna
dago
dah
dahan
dahana
dahanna
dahar
dahareun
daharna
dahlan
dahlia
dahulu
dai
daigaku
daily
daimyo
dairi
daisy
dakan
dakeun
daksi
daktur
dakuten
dakwaan
dakwah
dal
dalah
dalai
dalam
dalamnya
dalang
dalapan
dalbergia
dale
dalem
dalil
dalima
dalit
dallas
dalton
daluang
dam
dama
damage
damaged
damai
damar
damas
damaskus
dame
damel
damon
dampak
dampal
damri
dan
dana
danadibrata
danandjaja
danasasmita
danau
dance
dang
dangdanggula
dangdaunan
dangdaunnan
dangdeur
dangding
dangdut
dangerous
danget
dangiang
dani
daniel
danish
danny
dano
dansa
dao
daon
daop
dapat
daptar
dapunta
dapur
dapuran
dar
dara
darah
darajat
daran
darangdan
darat
daratan
daratang
dare
dari
daria
daring
daripada
darius
dark
darma
darmaga
darmaraja
darmasiksa
darpan
darul
darurat
darussalam
darwin
das
dasa
dasar
dasarna
dasarnya
dasawara
dasawarsa
dasi
dat
data
database
databasebasketball
datana
datang
datangna
datar
dataran
date
dated
dates
dating
dator
datuk
daud
daughter
daula
daulat
daumatul
daun
dauna
daunna
daur
dave
david
davies
davis
dawam
dawn
dawuan
dawud
dawuh
dawuhan
day
daya
dayah
dayak
dayana
dayang
dayeuh
dayeuhkolot
dayeuhna
days
daytona
daŋ
db
dc
dd
ddt
de
dead
dean
death
debat
debate
debit
debu
debus
debut
debutna
dec
decade
decades
decay
december
decepticons
decided
decimal
decision
decisions
declaration
declared
declares
decline
deco
decode
decoding
decomposition
decre
deddy
dede
dedegan
dedicated
dedy
dee
deep
deer
def
default
defe
defence
defense
deficiency
define
defined
defines
defining
definisi
definite
definition
definitions
defri
degree
degrees
degung
dek
dekade
dekat
del
delapan
delay
delayed
delegasi
deleng
delhi
deli
delima
deliver
delivered
delivery
dell
delta
demak
demam
demand
demands
demang
demi
demikian
deming
demo
democracy
democratic
demodulasi
demografi
demographic
demokrasi
demokrat
demonstrated
demung
den
denda
dendam
dendang
dendrites
dendritik
dengan
dengda
dengki
denis
denmark
dennis
denny
denoted
denpasar
dense
densiti
densities
density
dental
dente
denyut
depan
departeme
departemen
department
departments
depati
depdikbud
depe
depend
dependence
dependent
depending
depends
depletion
depok
depot
depresi
deprotonasi
depth
der
derajat
deral
deras
derasi
derby
deres
deret
derivative
derived
des
desa
desain
desainer
descent
describe
described
describes
describing
description
descriptions
desember
desert
design
designated
designation
designed
designs
desired
desis
deskripsi
desktop
despite
destination
destinations
destroyed
destruction
det
detail
detailed
detailing
details
dete
detect
detected
detection
detectors
determine
determined
determines
determining
detik
detil
detroit
deuheus
deui
deuih
deuina
deukeut
deukeuteun
deukeuteunana
deukeutna
deungeun
deuterium
deutsche
deva
develop
developed
developer
developing
development
developments
develops
devi
deviation
deviations
device
devices
devil
devoted
dew
dewa
dewan
dewantara
dewasa
dewata
dewi
df
dg
dh
dha
dhaka
dharma
dharmasraya
dharmawangsa
dhien
dhini
dhl
dhoho
di
dia
diabadikeun
diabe
diabetes
diadakan
diadaptasi
diadegkeun
diadegkeunna
diadopsi
diadu
diaduk
diafragma
diagem
diagnosis
diagonal
diagram
diah
diajak
diajar
diajarkeun
diajarna
diaje
diajukeun
diakibatkeun
diakse
diakses
diaktipkeun
diaku
diakuan
diakui
dial
diala
dialajar
dialaman
diale
dialect
dialects
dialed
dialek
dialihkeun
dialog
dialungkeun
diambil
diame
diameter
diamond
dian
diana
dianalisis
diancurkeun
diandelkeun
diane
dianggap
dianggapna
diangge
dianggep
dianggo
diangkat
diangkatna
diangkeuh
diangkut
dianjurkeun
diantara
diantarana
diantawisna
diantepkeun
dianteurkeun
dianyam
diaphragm
diaping
diapit
diapungkeun
diarah
diarahkeun
diaranan
diare
diarsipkeun
diary
diasakan
diasingkeun
diaspora
diasuh
diasupan
diasupkeun
diatas
diatur
diawaskeun
diawe
diayakeun
diaz
dibabarkeun
dibabawa
dibaca
dibacana
dibage
dibagi
dibagikeun
dibahas
dibakukeun
dibalikeun
dibalikkeun
dibalukarkeun
dibanding
dibandingkan
dibandingkeun
dibangun
dibantu
dibantuan
dibarengan
dibarung
dibaturan
dibawa
dibawah
dibawakeun
dibawana
dibayar
dibayarkeun
dibe
dibebek
dibedakeun
dibentuk
dibentukna
diberangkatkeun
dibere
diberesihan
diberi
diberikan
dibersihkeun
dibeulah
dibeuleum
dibeuli
dibeulitkeun
dibeunangkeun
dibeungkeut
dibiayaan
dibikeun
dibom
dibongkar
diboro
dibuahan
dibuang
dibuat
dibubarkeun
dibudidayakan
dibudidayakeun
dibuka
dibukana
dibuktikeun
dibukukeun
dibulen
dibungkus
dibunuh
dibutuhkeun
dicabak
dicabut
dicalonkeun
dicampur
dicampuran
dicampurkeun
dicandak
dicaprio
dicaram
dicaritakeun
dicatet
dicaturkeun
dice
dicekel
dicepeng
dicerna
dicetak
dicicingan
dicindekkeun
dicipta
diciptakeun
dicirian
dicirikeun
dicitak
dick
dickinson
dicobaan
dicoco
dicokot
dicoo
dictionaries
dictionary
diculik
dicumponan
dicutat
did
didadarkeun
didadasaran
didagangkeun
didahar
didaharna
didakwa
didamel
didaptarkeun
didasarkeun
didatangan
dide
didefinisikeun
didi
dididik
didik
didin
didirikan
didirikeun
didistribusikeun
didominasi
didorong
diduga
didukung
didumukan
diduruk
die
died
diego
dieja
dielectric
dien
dieng
dies
diesel
diet
dietary
dieu
dieunakeun
dieureunkeun
dieusi
dieusian
dife
diferensiasi
differ
difference
differences
different
differential
differently
differs
difficult
difficulty
difraksi
diftong
difungsikeun
difusi
digabung
digabungkeun
digali
digalokeun
digambar
digambarkeun
diganggu
diganti
digantian
digantikan
digantikeun
digantung
digantungkeun
digarang
digarap
digarawe
digaringkeun
digawe
digayem
dige
digede
digelar
digentos
digerakkeun
digeroan
digest
digiling
digit
digital
digits
digodog
digolongkan
digolongkeun
digore
digoreng
diguar
digulung
digunakan
digunakeun
digunakeunana
dihade
dihadiran
dihaja
dihakan
dihaleuangkeun
dihandap
dihapus
diharepkeun
dihargaan
dihartikeun
dihasilkeun
dihasilkeunana
dihias
dihijikeun
dihina
dihirupkeun
dihontal
dihubungkeun
dihukum
dihususkeun
diide
diidinan
diijinan
diijinkeun
diikuti
diiluan
diimpor
diinget
diingu
diinum
diisolasi
diistre
diitung
dijabat
dijadikan
dijadikeun
dijadwalkeun
dijaga
dijait
dijajah
dijalankeun
dijantenkeun
dije
dijelaskeun
dijieun
dijieuna
dijieunna
dijilbab
dijual
dijudulan
dikadalikeun
dikaitkeun
dikali
dikaluarkeun
dikandung
dikante
dikanyahokeun
dikatakan
dikategorikeun
dikawasa
dikawasaan
dikawihkeun
dikawin
dikawinkeun
dikawitan
dike
dikedalkeun
dikelola
dikelompokkeun
dikembangkeun
dikenal
dikenalkeun
dikepung
diketahui
dikeueum
dikeueuman
dikeunaan
dikeureutan
dikeureuyeuh
dikira
dikirim
dikirimkeun
diklaim
diklasifikasikeun
dikode
dikokolakeun
dikombinasikeun
dikonci
dikonfirmasi
dikonsumsi
dikontrak
dikontrol
dikritik
diksi
diktator
dikuasai
dikuatkeun
dikubur
dikukut
dikulub
dikumbah
dikumpulkeun
dikurangan
dikurebkeun
dikuriling
dikurilingan
dikusumah
dikutip
dilafalkan
dilafazkan
dilahirkan
dilahirkeun
dilakonan
dilaksanakan
dilaksanakeun
dilakukan
dilakukeun
dilambangkan
dilambangkeun
dilandi
dilanggar
dilanjutkeun
dilantarankeun
dilantik
dilapadkeun
dilapis
dilapisan
dilaporkan
dilaporkeun
dilarang
dilarapkeun
dilatih
dilayanan
dile
dilegaan
dileler
dilemeskeun
dilengkepan
dileungitkeun
dileupaskeun
dili
dilihat
dilimpudan
dilingkung
diliwatan
diluluguan
dilumangsungkeun
diluncurkeun
diluyukeun
dimae
dimakamkan
dimakamkeun
dimakan
dimaksud
dimaksudkeun
dimana
dimandian
dimanfaatkeun
dimangfaatkeun
dimangpaatekun
dimangpaatkeun
dimas
dimasak
dime
dimedalkeun
dimekarkeun
dimensi
dimension
dimensional
dimensions
dimeunangkeun
dimiliki
dimimiti
dimimitian
dimimitianna
dimodifikasi
dimodulasi
dimuat
dimulai
dimungkinkeun
din
dina
dinamangsa
dinamian
dinamika
dinamis
dinamit
dinar
dinas
dinasti
dinata
dinding
dines
dingaranan
dingding
dingin
dini
dinobatkeun
dinoflagellata
dinominasikeun
dinosaurus
dinten
dinu
dinya
dinyanyikeun
dinyatakeun
dioda
diode
diodes
dioksida
dioksidasi
diol
diolah
diome
diomongkeun
dion
diondang
dioperasikeun
dioperasikeunna
dioxide
dipadungdengkeun
dipae
dipakai
dipake
dipaksa
dipalire
dipaluruh
dipanaskeun
dipancarkeun
dipane
dipangaruhan
dipanggih
dipanggihan
dipanjangan
dipapae
dipaparin
diparaban
dipare
dipariksa
diparud
dipasak
dipasang
dipasangan
dipasangkeun
dipasarkeun
dipase
dipasihan
dipasing
dipasrahkeun
dipastikeun
dipatalikeun
dipate
dipati
dipe
dipecat
dipedal
dipedalkeun
dipedar
dipelak
dipelakan
dipelakeun
dipeluk
dipence
diperankeun
dipercaya
diperenahkeun
diperhatikeun
diperintahkan
diperkirakan
diperkirakeun
diperlukeun
diperpanjang
dipertahankeun
dipertimbangkeun
diperyogikeun
dipese
dipetik
diphasiastrum
dipiara
dipibanda
dipiboga
dipiceun
dipidangkeun
dipie
dipigawe
dipigunakeun
dipiharep
dipiheulaan
dipihormat
dipikabutuh
dipikaharti
dipikahayang
dipikanyaho
dipikaresep
dipikaterang
dipikawanoh
dipikawanohkeun
dipikawanohna
dipilampah
dipilih
dipilihna
dipimeunang
dipimilik
dipimpin
dipindahkan
dipindahkeun
dipingpin
dipintonkeun
dipinuhan
dipirig
dipisah
dipisahkeun
dipiwanoh
diploma
diplomasi
diplomat
diplomatik
dipo
dipoe
dipole
diponegoro
dipotong
dipre
diproduksi
diproklamirkeun
diprose
dipublikasikeun
dipuji
dipulangkeun
dipungkas
dipupuhuan
dipurulukan
dipuseurkeun
diputer
diputuskeun
dirac
diragukeun
dirancang
dirandapan
dirarancang
dirasakeun
dirawat
dirayakeun
dire
direbut
direcah
direct
directed
direction
directions
directly
director
directory
direkahkeun
direkam
direksi
direktorat
direktur
direncanakeun
diresmikeun
diri
dirilis
dirilisna
dirina
diriwayatkeun
dirjen
dirobah
dirojong
dironjatkeun
dirope
dirty
dirujuk
diruksak
dirumuskeun
diruntuykeun
dis
disababaraha
disababkeun
disabudeureun
disada
disadiakeun
disagigireun
disahkeun
disain
disajikan
disajikeun
disakarida
disaksian
disalametkeun
disalin
disaluyukeun
disambiguasi
disambungkeun
disambut
disampurnakeun
disanghareupan
disangka
disangray
disappe
disarada
disarankeun
disaring
disaruakeun
disaster
disatujuan
disawang
disayagakeun
disayagikeun
disbudpar
disc
discharge
discipline
disciplines
discontinued
discover
discovered
discoveries
discovery
discrete
discretization
discs
discussed
discussion
dise
disease
diseases
disebabkan
disebabkeun
disebarkeun
disebat
disebatkeun
disebut
disebutkeun
disebutna
disembah
disemprot
diserahkeun
diserang
diserat
diserep
disertasi
disete
diseupan
dishes
disi
disiapkeun
disiarkeun
disiksa
disileungleuman
disimbutan
disimpen
disina
disingget
disingkahan
disingkat
disingket
disingkirkeun
disinte
disiplin
disisi
disk
diskografi
diskriminasi
diskrit
diskusi
disney
disneyland
disorder
disorders
dispersi
displacement
display
displayed
disponsoran
dispute
disputed
dissolved
distal
distance
distances
distancing
distant
distilasi
distillation
distilled
distinct
distinction
distinguish
distinguished
distorsi
distribusi
distributed
distribution
distributions
district
districts
distrik
disuguhkeun
disumputkeun
disungsi
disuntikkeun
disusul
disusun
disutradaraan
dit
dita
ditabeuh
ditae
ditahan
ditakol
ditaksir
ditalian
ditalikeun
ditalukkeun
ditalungtik
ditambah
ditambahan
ditambahkan
ditambahkeun
ditampa
ditampi
ditampik
ditampilkeun
ditan
ditandaan
ditandasa
ditandatangan
ditandatanganan
ditangtayungan
ditangtukeun
ditanya
ditarajang
ditaratas
ditare
ditarik
ditarima
ditarjamahkeun
ditasi
ditata
ditataan
ditawarkan
ditawarkeun
ditayangkan
ditayangkeun
dite
ditegeskeun
diteken
ditelasan
ditembangkeun
ditembongkeun
ditembus
ditempat
ditempatan
ditempatkeun
ditempo
ditempona
ditempuh
ditemukan
ditengah
ditepikeun
diterangkeun
diterania
diterapkeun
diteraskeun
diterbitkan
diterbitkeun
diteruskeun
ditetepkan
ditetepkeun
diteukteuk
diteundeun
ditewak
ditiiskeun
ditilik
ditimukeun
ditingali
ditinggalkeun
ditingkatkeun
ditinyuh
dititah
ditite
ditiup
ditolak
ditongton
ditor
ditorah
ditransfer
ditu
dituang
dituar
dituduh
ditugaskeun
dituju
ditujukeun
ditukangeun
ditukeurkeun
ditulis
dituliskeun
ditulisna
ditulungan
dituluykeun
ditumpangan
dituna
ditunda
ditungtungan
ditunjuk
ditunjukkeun
diturunkeun
ditutu
ditutup
ditutupan
dituturkeun
diubah
diubaran
diucapkan
diucapkeun
diudag
diuji
diuk
diukir
diukur
diulang
diulik
dium
diumumkeun
diungkabkeun
diuretik
diurus
diusahakeun
diusir
diusulkeun
diutamakeun
diutus
div
diva
diverse
diversity
divide
divided
dividen
dividend
divides
dividing
divine
divisi
division
divisions
divonis
diwadahan
diwajibkeun
diwakilan
diwangun
diwangunna
diwanohkeun
diwariskeun
diwarnaan
diwartakeun
diwates
diwatesan
diwatesanan
diwengku
diwincik
diwujudkeun
diwuwuhan
dixie
diyakini
diyeum
dj
djati
djayasasana
djeung
djibouti
djuanda
dk
dki
dkk
dl
dll
dm
dn
dna
dns
do
doa
dobel
doc
doctor
doctrine
document
documentary
documentation
documents
dodol
doel
does
doesn
dog
dogdog
doge
dogs
doha
doi
doing
dok
dokter
doktor
doktrin
dokume
dokumen
dokumentasi
dokumenter
dolar
dolby
dollar
dollars
dolog
dolok
domain
domba
dome
domestic
domestik
dominan
dominant
dominasi
dominated
domingo
dominic
dominica
dominican
dominika
dompe
don
donald
done
dong
donge
dongeng
dongnae
donia
donny
donor
doohan
doom
door
dopamin
dope
doping
doppler
dora
dorae
doraka
dorna
dorokdok
dorong
dorongan
dorsal
dos
dosa
dosana
dose
dosen
dosis
dosisna
dot
dots
dottedline
double
doug
douglas
dove
dovizioso
dow
down
downlink
download
doyong
dp
dpa
dpd
dpl
dpp
dpr
dprd
dq
dr
dra
draco
draft
drag
dragon
drain
drajat
drake
dral
dram
drama
dramaga
dramatically
dramatis
drastis
dravida
drawing
drawn
dre
dream
dri
drien
drift
drilling
drink
drinking
drinks
drive
driven
driver
drivers
drives
drona
drop
drs
drug
drugs
drum
drummer
drupada
drupadi
dry
ds
dsb
dsc
dsl
dt
dtv
du
dua
duaan
dual
duana
duanana
dubai
dublin
duck
ductus
ducula
dude
duduh
dudukuy
duduluran
due
duet
dugaan
dugi
dugika
duh
duhur
duit
dujundundund
duka
duke
duksi
dukuh
dukun
dukungan
dukupuntang
dulang
dulu
dulur
dulurna
dumadakan
dumas
dumasa
dumasar
dume
dumuk
dundee
dundundudnudn
dundunun
dung
dunia
dunn
dunuddudunu
dunundundu
dunungan
dununu
dununun
dunununu
dunununun
dunya
duo
dupi
duplex
dur
durasi
duration
durban
dure
duren
durgandini
durham
duri
durian
duriat
during
dursala
dursasana
durukan
duryodana
dust
dustira
dusun
duta
dutch
duty
dv
dvb
dvd
dvds
dw
dwaraka
dwarf
dwarfs
dwi
dwight
dwihuruf
dwipangga
dx
dy
dyah
dylan
dynamic
dynamically
dynamics
dynasty
dz
dzat
dzikir
dzongkha
dzulhijjah
e
ea
each
eagle
earliest
early
earth
earthquake
earthquakes
east
eastern
easy
eb
ebiet
ec
echinostoma
eclipse
ecological
ecology
economic
economics
economist
economists
economy
ecosystem
ecosystems
ecuador
ed
eddie
eddy
eden
edgar
edge
edi
edinburgh
edisi
edison
edit
edited
edition
editions
editor
editorial
editors
edmund
edo
eds
edu
education
educational
edukasi
edward
edwards
edwin
ee
eeg
een
ef
efek
efektif
effect
effective
effectively
effects
effendi
efficiency
efficient
effort
efforts
efisien
efisiensi
eg
egretta
egypt
egyptian
eh
ei
eiffel
eight
ein
einstein
eisenhower
either
ej
ejaan
ek
eka
ekadjati
eko
ekologi
ekonomi
ekor
ekosistem
eks
eksekutif
ekspedisi
ekspektasi
eksperimen
eksplorasi
eksponensial
ekspor
ekspres
ekspresi
eksternal
ekstrak
ekstrim
ekstrusi
ekuador
el
elaeocarpus
elang
elastic
elastica
ele
elected
election
elections
electric
electrical
electrically
electricity
electromagnetic
electromagnetism
electromechanical
electron
electronic
electronics
electrons
electrostatic
elegans
eleh
elektro
elektromagnet
elektronik
elektronika
elemen
element
elementary
elements
elephant
elf
eli
elias
elijah
elis
elizabeth
ell
ellen
elliott
elliptical
ellis
elmu
els
else
elsewhere
elshinta
elvis
em
ema
email
emang
emas
embah
embassy
embe
embedded
embrio
embun
embung
eme
emerald
emergence
emergency
emerging
emesa
emf
emih
emil
emilia
emirates
emission
emma
empal
empat
empe
emperor
emping
empire
empirical
empiris
employed
employees
empty
empu
en
ena
enable
enabled
enables
enak
enam
encke
enclosed
encoded
encoding
encyclopaedia
encyclopedia
encyclopædia
end
endah
endang
endangered
endapan
ended
endemik
ending
endog
endogan
endogna
ends
energi
energy
enforcement
eng
engang
engapan
enggal
enggano
enggeus
enggoning
engine
engineer
engineering
engineers
engines
engke
engkena
engkol
england
english
enhanced
ennies
enol
enough
ensemble
ensiklopedi
ensiklopedia
ensure
ental
ente
enter
entered
entering
enterprise
enters
entertainment
entire
entirely
entitas
entities
entitled
entity
entragan
entrance
entropy
entry
envelope
environment
environmental
environments
enya
enzim
enzyme
enzymes
eo
ep
epa
epg
episode
epithumia
eps
epsilon
eq
equal
equally
equation
equations
equatorial
equilibrium
equipment
equivalent
er
era
eric
erich
ericsson
erik
eris
eritrea
erlangga
erne
ernest
ernst
eropa
eros
error
errors
eruption
erwin
es
esa
escape
esey
espan
especially
espn
essay
essays
essential
essentially
est
establish
established
establishment
estate
estimasi
estimate
estimated
estimates
estimation
estimator
estonia
et
eta
etc
ethereum
ethernet
ethics
ethiopia
ethiopian
ethnic
ethnologue
etimologi
etnik
etnis
etsi
etymology
eu
eugene
euis
eujeung
eukariot
eukaryotic
eukeur
euler
eulis
eun
eundeuk
eungap
eunteung
eunteup
eup
eupan
euphorbiaceae
eur
eurasia
eurasian
eureun
eureunna
eurih
euro
eurocode
europa
europe
european
eusi
eusian
eusina
euweuh
euweuhna
euyeub
ev
eva
evaluasi
evaluation
evans
evaporation
even
evening
event
events
eventually
ever
everest
everland
everton
every
everyday
everything
everywhere
evidence
evil
evolusi
evolution
evolutionary
evolved
ew
ex
exact
exactly
example
examples
excellence
except
exception
exceptions
exchange
exchanges
exclusive
exclusively
execute
executed
execution
executive
exercise
exhibit
exhibition
exist
existed
existence
existing
exists
exotic
exp
expand
expanded
expansion
expectation
expected
expedition
expensive
experience
experiences
experiment
experimental
experimentation
experiments
expert
explain
explained
explanation
explicit
explicitly
exploration
explorer
explosion
explosive
expo
exponential
exposed
exposure
express
expressed
expression
expressions
extended
extends
extension
extensions
extensive
extent
external
extinct
extinction
extra
extreme
extremely
ey
eyang
eye
eyed
eyes
eyjafjallajo
ez
f
fa
fabaceae
fabel
face
facebook
faced
faces
facilities
facility
facing
fact
factbook
facto
factor
factors
factory
facts
factsheet
faculty
fadoro
fahd
fahrenheit
fail
failed
fails
failure
failures
fair
fairly
fairy
faisal
faith
fajar
fak
faksi
fakta
faktor
fakultas
fakultatif
falah
falcon
falkland
fall
fallen
falling
falls
falsafah
false
fame
famili
familia
familiar
families
family
famous
fan
fanayama
fanciers
fans
fantasi
fao
faq
far
faraday
fardhu
fardu
farm
farmakologi
farmasi
farming
faroe
fas
fase
fashion
fasilitas
faso
fast
faster
fat
fatah
fatahillah
fatal
fath
father
fatihah
fatimah
fatimiyah
fatmawati
fatty
fatwa
fault
fauna
favorit
fb
fbi
fc
fcc
fd
fda
fdma
fe
fear
feature
features
feb
febri
februari
february
federal
federasi
federation
fedexhar
fee
feed
feedback
feeding
feel
feet
felipe
fell
felt
female
fenitoin
fenomena
ferdinand
fere
ferguson
ferme
fermentasi
fermented
fern
fernando
ferrari
ferry
festival
fet
fets
fever
few
fewer
ff
fff
ffi
fg
fh
fi
fia
fiber
fiberglass
fibers
fibre
fibres
fiction
ficus
fidel
field
fields
fifa
fifth
fifty
fig
fight
fighting
figur
figure
figures
fiji
fiksi
fil
file
filem
filepath
files
filipina
filled
film
filmografi
films
filologi
filosofi
filosofis
filsafat
filsuf
filter
filtering
filum
fim
final
finalis
finally
finals
finance
financial
finansial
find
finding
fine
finger
finish
finisi
finisikeun
finite
finland
finlandia
finnish
finno
fiqh
fiqih
fir
fire
firefox
firewire
first
fischer
fish
fisher
fisheries
fishes
fishing
fisi
fisie
fisik
fisika
fisikawan
fisikna
fisiologi
fisiologis
fiskal
fit
fitoplankton
fitrah
fitri
fitted
fitting
fitur
fitzgerald
five
fix
fixed
fj
fk
fl
flag
flage
flags
flame
flanders
flash
flat
flavonoid
fle
fleet
fleksibel
fleming
flemish
flex
flexible
flickr
flight
flights
float
floating
flood
floor
flora
flore
florence
flores
florida
florinda
flow
flower
flowers
flowing
flows
floyd
flu
fluid
fluida
fluids
fluorida
flux
fly
flying
fm
fn
fo
foam
focus
focused
foetida
fog
fokker
foklor
fokus
folat
folk
folklor
folklore
follow
followed
following
follows
foma
fondasi
fone
fonem
fonologi
font
fontsize
food
foods
foot
football
for
forbes
force
forced
forces
ford
fore
foreign
foreman
forensik
forest
forever
forex
form
formal
formaldehida
formally
formasi
format
formation
formats
formed
former
formerly
forming
formosa
forms
formula
formulas
formulasi
formulated
formulation
formulir
fort
forth
fortune
forum
forward
fosfat
fosfolipid
fosfor
fosil
fossil
foster
foto
fotografer
fotografi
foton
fotosinte
found
foundation
foundations
founded
founder
founding
four
fourier
fourth
fox
fp
fpbs
fq
fr
frac
fraction
fractional
fragme
fragmen
fragments
fraksi
frame
frames
framework
franc
france
franchise
francis
franciscan
francisco
franco
francophonie
frank
frankfurt
franklin
franky
fransisco
franz
frasa
frase
frazier
fre
fred
freddie
freddy
frederick
frederik
free
freedom
freely
freeman
freeview
freight
frekuensi
french
freq
frequencies
frequency
frequent
frequently
fresh
freud
freycinetia
friday
friedrich
friend
friends
friendship
fries
frin
fritz
frog
from
front
frontier
fruit
fruits
fruktosa
fs
ft
ftp
ftv
fu
fuel
fuji
fukuda
fukui
fukuoka
fukushima
full
fully
fun
function
functional
functions
fund
fundame
fundamental
funeral
fungi
fungisida
fungsi
fungsina
fungsional
fur
furigana
furious
furnitur
further
furthermore
fusi
fusion
futsal
futuna
future
fuzzy
fv
fw
fx
fy
fz
g
ga
gaang
gabon
gabriel
gabung
gabungan
gabus
gabuswetan
gada
gadang
gadget
gading
gadis
gadjah
gado
gaduh
gadung
gaga
gagah
gagak
gagal
gagalna
gagang
gagangan
gagangna
gaganti
gagantina
gagasan
gaib
gain
gained
gairaigo
gajah
gajayana
gaji
gajih
gak
gaki
gal
gala
galactic
galah
galak
galaksi
galang
galaxies
galaxy
gale
galengan
galeri
galian
galib
galibna
galih
galile
galilei
galileo
galing
galinggem
galingging
galitikum
gallagher
gallery
gallicolumba
gallus
galo
galokeun
galton
galuh
galunggung
galur
galura
gama
gamal
gambang
gambar
gambaran
gambarna
gambia
gambir
gamble
gambringan
gambyong
game
gamelan
gamendung
games
gamet
gamma
gampang
gampangna
gamparan
gampil
gampong
gan
gana
ganas
gancang
gancangna
ganda
gandapura
gandari
gandaria
gandhi
gandrum
gandum
gane
ganeca
ganesha
gang
gangas
gangga
ganggang
ganggu
gangguan
gangna
gangster
ganja
ganjang
ganjar
ganjaran
ganjil
gantar
ganti
gantina
gantung
ganyol
gap
gape
gapeka
gaple
gaplek
gaps
gapura
gara
garam
garapan
garasi
garawangi
garcia
garden
gardens
gare
garede
gareja
gareth
gari
garihal
garing
garis
garisun
gariswanci
garland
garmanah
garnasih
garnisun
garoga
garpu
garu
garuda
garut
garwa
garwana
gary
gas
gases
gasi
gasing
gasoline
gastrointestinal
gat
gate
gates
gateway
gathering
gatif
gatip
gatot
gatotkaca
gatrik
gauge
gaul
gaulle
gauss
gaussian
gautama
gave
gawang
gawe
gawir
gay
gaya
gayo
gaza
gb
gc
gd
gde
gdp
ge
gebang
gecko
gedang
gede
gedong
gedung
gee
gegede
geger
gegeremet
gegerkalong
gegesik
geget
gegetuk
geisha
gejala
gejalana
gel
gelam
gelambir
gelandang
gelang
gelanggang
gelap
gelar
gelaran
gelarna
gelas
geledegan
gelembung
gelombang
gelombangna
gelora
gelung
gelut
gema
gembleng
gembur
gembyung
gemini
gempa
gempol
gempungan
gemuk
gen
genah
gencatan
gendang
gender
gending
gene
genep
genera
general
generalized
generally
generasi
generate
generated
generating
generation
generations
generator
generators
generic
generik
genes
genesis
genetic
genetics
genetik
genetika
geneva
genggerong
genocide
genome
genre
gente
genteng
genting
gentong
gentur
genus
geo
geoffrey
geografi
geografis
geographic
geographical
geography
geologi
geological
geology
geometric
geometry
geopelia
georg
george
georgia
georgian
geotrygon
gepe
geq
gera
gerak
gerakan
gerakanna
gerakna
gerald
gerard
gerbang
gerbong
gere
gereja
geri
gerilya
gerilyawan
gering
german
germanic
germanium
germany
gero
gerokgak
gers
gesang
geschichte
get
getah
getasi
geter
geteran
getih
getihan
getihna
getol
gets
getter
getting
geudong
geulang
geulanggang
geulis
geulumpang
geuneuk
geuning
geunyal
geura
geuredong
geus
geusan
geutah
geutahna
geuwat
gf
gg
ggsn
gh
ghana
ghazali
ghiyath
ghost
ghz
gi
gia
giant
giants
gibernau
gibraltar
gido
gie
gif
gifu
gigantea
gigantochloa
gigi
gigir
gigireun
gigirna
giji
gila
gilang
gilbert
gilgamesh
gili
gilinding
giliran
gim
gimpo
gina
gincu
gini
ginjal
gintung
gion
gional
giovanni
girang
girek
giri
girimukti
girl
girls
giru
gis
gislatif
gister
gisting
gita
gitar
gitaris
giuseppe
give
given
gives
giving
gizi
gj
gje
gk
gl
glacier
gland
glang
glasari
glasial
glass
gle
glee
glenn
gletser
glie
glikoge
glikolisis
glikosida
gliserin
gliserol
glisin
global
globe
globosa
globulin
glochidion
glory
glossary
glucose
glukosa
glumpang
glutamat
glycosmis
gm
gme
gn
go
goa
goal
goals
gobang
god
godang
godfrey
godi
godog
godogan
gods
goenawan
goes
goeslaw
gogh
gogo
goib
going
goju
gokart
goku
gol
golak
gold
golden
gole
golek
golf
golgi
golgota
golkar
golongan
gombong
gomo
gon
gondang
gondangdia
gonde
gondok
gondwana
gone
gong
gonggong
good
goods
google
goong
goparana
gorbachev
gordon
gore
goreng
gorengan
gori
gorian
gorila
gorobag
gorombolan
gorontalo
gosali
gosip
got
gothenburg
gotong
gottfried
gould
gov
governance
governed
government
governments
governor
govina
govpubs
goyang
goyobod
gozo
gp
gpp
gprs
gps
gq
gr
grace
gracilis
gradasi
grade
gradie
gradient
gradually
graduate
graf
grafik
grafis
grafit
grafiti
graha
graham
grain
grains
gram
gramatikal
gramedia
grammar
grammy
gran
granada
grand
grande
grandiflora
granit
grant
granted
graph
grasindo
grass
gratis
gravitasi
gravitational
gravity
gray
gre
great
greater
greatest
greatness
greece
greek
greeks
green
greenland
greenwood
greg
gregorian
gregory
grenada
gresik
grew
grey
grid
gringsing
gro
grobogan
grogol
grong
gross
ground
groundwater
group
grouped
groups
grove
grow
growing
grown
growth
grup
gs
gsm
gt
gtp
gu
gua
guadalete
guadeloupe
guam
guangdong
guangxi
guangzhou
guano
guaran
guard
guardian
guatemala
guba
gubeng
gubernur
guci
gudang
gudeg
gue
guernsey
gugah
guglielmo
gugur
guguratan
guguritan
guguru
gugus
gugusi
guha
guiana
guide
guides
guilty
guine
guinea
guinee
guinness
guitar
guitarist
guitarra
gujarat
gul
gula
gulasi
gulat
gulden
gule
gulf
gulma
guludug
gulungan
gum
gumantung
gumarang
gumbira
gumelar
gumelaran
gumelarna
gumpalan
gun
guna
gunana
gunawan
gundih
gundukan
gundul
gung
gunong
guns
gunta
gunting
guntur
gunung
gunungsari
gunungsitoli
gupernur
gura
gurame
gurat
gurih
guru
guruh
gurun
guruna
guruntulan
gustav
gusti
guy
guyana
gv
gw
gwangju
gwangye
gx
gy
gye
gyeonggi
gym
gyo
gz
h
ha
haag
haan
habib
habibie
habinsaran
habitat
habitatna
habits
habsburg
had
hade
hadi
hadiah
hadir
hadirin
hadirna
hadis
hadist
hadith
hadits
hae
hafshoh
hagu
hahalang
hahn
hai
haid
hainan
hair
haiti
hajar
hajat
hajatan
haji
hajj
hak
hakam
hakaneun
hakata
hake
hakim
hakna
hakodate
hakone
hal
halah
halal
halaman
halang
halangan
hale
half
halfwidth
halida
halim
halimun
hall
halley
hallier
halliwell
halls
halmahera
halna
halo
halodo
haloge
halongonan
halte
halteu
halu
halus
halusinasi
ham
hama
hamamatsu
hamas
hamba
hambalan
hamburg
hamid
hamil
hamilton
hamka
hampa
hampang
hamparan
hampas
hampir
hampiran
hampru
hampshire
hampura
hamzah
han
hana
hanaang
hanafi
hanana
hancock
hancur
hand
handap
handapeun
handapeunana
handapna
handbook
handle
handset
handsets
haneut
hang
hangat
hangul
hanifah
hanja
hanjakal
hanjakalna
hanjuang
hankyu
hanna
hannana
hanoi
hans
hansen
hanteu
hantu
hanung
hanya
hanyir
hanyu
hanzhalah
hanzi
hapa
happen
happened
happens
happy
har
hara
harald
haram
haramay
harambay
harapan
haratis
harbor
hard
hardcover
harder
hardjapamekas
hardware
hardy
hare
haremis
harepan
hareup
hareupeun
hareupeunana
hareupna
harfiah
harga
hargana
hari
harian
hariang
harigu
harimau
harina
harita
hariwang
harjo
harmoni
harmonic
harmonik
harms
harold
harper
harris
harrison
harry
hart
harta
harti
hartina
hartosna
harun
harupat
harus
harvard
harvest
harvey
haryanto
has
hasan
hasanah
hasanuddin
hasanudin
hasclass
haseum
haseup
hashi
hashima
hashimoto
hasiat
hasiatna
hasil
hasilna
hasna
hassan
hastinapura
hasundutan
hasyim
hat
hatan
hataran
hate
hateup
hateupna
hati
hatta
hatulistiwa
hatur
haur
haurgeulis
haurwangi
haus
have
haven
having
hawa
hawai
hawaii
hawaiian
hawana
hawk
hawking
hawu
hawuk
hayam
hayang
hayangeun
hayat
hayati
hayden
hayley
hayu
hazard
hazards
hb
hbs
hc
hcl
hd
hdi
hdmi
hdtv
he
head
headed
health
heart
heat
heaven
heavy
hebrew
hedgehog
hee
height
heinrich
heisei
heisenberg
hejo
hektar
held
helen
helena
helium
hell
hello
helmy
help
helped
helps
helsinki
helvetia
helvy
hemingway
hemisphere
hemsl
hemsworth
hence
hendaknya
henderson
hendra
hendrik
heneuweuh
hengan
henri
henry
henteu
henteuna
heparin
hepburn
her
heraclius
herald
heran
herang
herba
herbal
herbarium
herbert
herbisida
herbivora
herbs
here
heritage
herman
hermann
hermes
hermina
hermit
herna
hero
heroes
heron
herschel
hertz
herzegovina
het
heuay
heubeul
heubeulna
heug
heula
heulang
heuleut
heun
heunceut
heunteu
heuras
heureut
heureuy
heurin
hewan
hexadecimal
hey
heyne
hf
hg
hh
hhm
hi
hiang
hias
hiasan
hibah
hibala
hiber
hibernasi
hibiscus
hibrid
hibrida
hiburan
hida
hidayah
hidayat
hidayatullah
hidden
hide
hideki
hidep
hideung
hidrasi
hidroge
hidrogen
hidrokarbon
hidroksida
hidroksil
hidrolisis
hidrologi
hidroponik
hidup
hie
hierarchy
higashi
high
higher
highest
highland
highlights
highly
highway
hij
hijab
hijau
hijaz
hiji
hijian
hijina
hijo
hijrah
hijriah
hijriyah
hikayat
hikmah
hilal
hileud
hiliduho
hilir
hilisalawa
hiliserangkai
hill
hillary
hills
hilton
him
hima
himalaya
himalayan
himpunan
himself
hina
hinai
hind
hindi
hindia
hindu
hinduism
hingga
hino
hip
hiperbola
hiperte
hipertensi
hipotalamus
hipote
hipotesa
hipotesis
hipu
hira
hiragana
hiris
hiro
hirohito
hiroshima
hirup
hirupna
his
hisab
hispaniola
histogram
historia
historian
historic
historical
historically
historiografi
historis
history
hit
hitachi
hitam
hitar
hitler
hits
hiu
hiv
hj
hk
hkeun
hl
hla
hlist
hlm
hm
hms
hn
hna
hnik
hnis
hnologi
ho
hoa
hobbes
hobi
hockey
hodgkin
hoe
hoeve
hok
hokage
hokkaido
hoku
hokuriku
hokusai
hold
holding
holds
hole
holes
holiday
holidays
holland
holle
hollywood
holmes
holocaust
holy
home
homeland
homepage
homo
homoge
homolog
honda
honduras
honey
hong
hongaria
hongkong
honje
honolulu
honor
honoris
honshu
hood
hook
hooker
hop
hope
hopkins
hore
horison
horizon
horizontal
hormat
hormon
hormone
horn
hornets
horor
horre
horse
horticulture
hortikultura
hosni
hospital
hospitals
hossein
host
hosted
hosting
hot
hote
hotel
hottentottus
hour
hours
house
household
houses
housing
houston
how
howard
however
howstuffworks
hoyong
hp
hq
hr
hrc
hs
hscsd
hsdpa
hspa
hsu
hsupa
ht
htm
html
http
https
hu
hua
huang
huap
hub
hubble
hubungan
hubunganana
hubunganna
hud
huda
hudang
hudson
huge
hugh
hughes
hugo
hui
huis
hujan
hukum
hukuman
hukumna
hulu
huluan
huluna
hum
huma
human
humans
humas
humbang
humboldt
humor
hun
hundred
hundreds
hungaria
hungarian
hungary
hungkul
hunt
hunter
huntu
huntuna
hurairah
hurang
hurip
huristak
hurricane
huru
huruf
huruna
hurung
hurup
husada
husain
husayn
huse
husein
husna
hussein
husus
hususna
hut
huta
hutaimbaru
hutan
hutang
hutangna
huut
huygens
hv
hw
hwa
hwei
hx
hy
hyang
hybrid
hyderabad
hydrogen
hydrologic
hydrology
hye
hymenoptera
hymn
hyo
hypotheses
hypothesis
hyun
hz
i
ia
iain
ialah
ian
iana
iata
iau
ib
ibadah
ibadahna
ibarat
iber
iberia
ibid
ibing
ibingan
ibis
iblis
ibm
ibn
ibnu
ibrahim
ibrani
ibrohim
ibu
ibukota
ibukotana
ibun
ibuna
ibuprofen
ic
icao
ice
iceland
icelandic
ichiro
ichtiar
icikibung
icon
icraf
id
ida
idanogawo
idanoi
idanotae
ide
identical
identification
identified
identify
identik
identitas
identity
ideologi
ideu
idi
idin
idle
idol
idola
idris
idrisi
idul
ie
iec
ieee
ieu
if
iftar
iga
igloo
ignition
iguana
ihlas
ihsan
ihtisar
ii
iii
iinditan
iis
ij
ije
iji
ijin
ijing
ijo
ik
ika
ikan
ikanaŋ
ikat
ikatan
ikea
ikebana
ikeda
iket
iketan
ikhlas
ikhtisar
iki
ikip
ikkyo
iklan
iklim
iklimna
ikoma
ikon
iku
ikut
il
ila
ilahar
ilaharna
ilang
ile
ilham
ilibiung
ilir
ill
illegal
illinois
illuminati
illustrated
illustration
ilmi
ilmiah
ilmiahna
ilmu
ilmuwan
ilubiung
ilustrasi
ilustrator
ilyas
im
image
images
imaginary
imagine
imaging
imah
imahna
imajinasi
imam
iman
imarah
imbanagara
imbit
imdb
imf
img
imigran
imigrasi
immanuel
immediate
immediately
immigrants
immigration
immune
impact
impacts
impe
impedance
imperial
imperium
impian
implement
implementation
implemented
implengan
implications
implies
impor
importance
important
impossible
improve
improved
improvement
improvements
improvisasi
impuls
impun
imran
imron
imun
imunisasi
imunitas
imut
in
ina
inah
inaje
inaktif
inang
inangna
inc
inch
inche
incheon
inchi
inci
incident
include
included
includes
including
income
incorporated
incorrect
incre
increment
incu
incuna
ind
indah
inde
indeed
indeks
indepe
independen
independence
independent
index
india
indian
indiana
indianapolis
indica
indicate
indicated
indicates
indicating
indicator
indices
indicum
indicus
indie
indies
indigenous
indihiang
indikasi
indikator
indirect
indische
indit
inditan
individu
individual
individuals
indo
indochina
indocina
indomie
indone
indonesia
indonesian
indoor
indosat
indosiar
indra
indramayu
indraprahasta
indrapuri
induced
inductance
induction
inductive
inductor
induk
induktif
indung
indungna
indus
indusiatus
industri
industrial
industries
industry
indycar
ine
inelastic
inequality
inert
inf
infanteri
infantri
infaq
infe
infeksi
inference
inferior
infinite
infinity
inflamasi
inflasi
inflation
influence
influenced
influences
influential
info
infobox
informal
informasi
informatika
information
infra
infrabeureum
infrared
infrastructure
infrastruktur
infty
infus
ing
inget
ingetan
inggit
inggris
ingin
ingkar
ingon
inguan
ingvar
inhabitants
inherit
inheritance
inherited
inhibitor
inhibits
inhye
ini
inisiasi
inisiatif
initial
initially
initiative
inje
injection
injeksi
injeuman
injil
injuk
injured
injures
injuring
injury
inka
inklinasi
inkubasi
inland
inline
inna
inner
inocybe
inogenik
inohong
inovasi
inovatif
inpe
inpormasi
input
inputs
insan
insang
insani
inscriptions
inse
insect
insects
insert
inside
insiden
insight
insinyur
insomnia
inspirasi
inspired
instalasi
installed
instan
instance
instances
instansi
instant
instar
inste
institusi
institut
institute
institution
institutions
instruksi
instrume
instrumen
instrument
instrumental
instruments
insula
insulated
insulation
insulator
insulin
insurance
int
intake
intan
inte
integer
integers
integrable
integral
integrals
integrasi
integrate
integrated
integration
integritas
intel
intele
inteleje
intelektual
intellectual
intelligence
intelsat
inten
intended
intense
intensif
intensitas
intensity
inter
interaction
interactions
interactive
interaksi
interaktif
intercontinental
interest
interesting
interface
interfaces
interfe
interfere
interference
interim
interior
intermediate
internal
internasional
international
internationale
internationally
interne
internet
interpolation
interpre
interpretasi
interpretation
interpreted
interquartile
interstellar
interval
intervals
intervensi
interview
inti
intina
intip
into
intrinsic
intrinsik
introduced
introducing
introduction
inu
inum
inuman
inumeun
inuyama
invariant
invasi
invasion
invasive
inve
inventarisasi
invented
invention
inventions
inverse
invertebrata
investasi
investigation
investigations
investment
investor
involve
involved
involves
involving
inwon
inya
inyana
iodine
ion
ionik
ionisasi
ios
iowa
ip
ipa
ipad
ipb
iphone
ipis
ipomoea
ipp
iptv
iq
iqbal
iqro
ir
ira
iraha
irak
irama
iran
iranian
iranica
iraq
iraqi
irawan
irb
ireland
iri
irian
irigasi
iring
iringan
iris
irish
iritasi
irlandia
iroha
iron
irung
irungna
irut
irving
is
isa
isaac
isarat
isbi
isbn
isdb
ise
ishak
ishaq
ishikawa
isi
isin
isis
iskan
iskandar
isla
islam
islamabad
islami
islamic
islamweb
island
islandia
islands
isle
isles
ismail
isn
isnendes
iso
isola
isolasi
isolated
isome
isotop
isp
isra
israe
israel
israeli
isro
isroil
issn
issue
issued
issues
istambul
istana
istanbul
istasyonu
isteri
istiadat
istilah
istilahna
istime
istimewa
istirahat
istri
istrikaan
istrina
istrinya
isu
isuk
isukna
isun
isyana
it
itachi
itali
italia
italian
italy
itam
itb
item
items
iterative
iteuk
itil
ito
its
itself
itu
itung
itungan
itv
iucn
iuh
iupac
iv
ivan
ivoire
ivory
iwa
iwal
iwan
iwate
iwo
iwung
ix
iye
iyeu
iyo
iyyah
izin
izu
iŋ
j
ja
jaan
jaarbeurs
jaat
jaba
jabal
jabang
jabar
jabatan
jabatanna
jabbar
jabir
jabodetabe
jabodetabek
jabung
jack
jackson
jackup
jacob
jacobs
jacq
jacques
jadi
jadikeun
jadina
jadwal
jae
jafar
jaga
jagabaya
jagakarsa
jagan
jagana
jagat
jago
jagong
jagorawi
jaguar
jagung
jah
jahan
jahannam
jahat
jahe
jahiliyah
jaipong
jaipongan
jait
jaja
jajahan
jajaka
jajal
jajalaneun
jajamu
jajanan
jajangkung
jajantung
jajar
jajaran
jajate
jak
jaka
jakarta
jake
jakeun
jakk
jakob
jaksa
jal
jalak
jalaksana
jalal
jalan
jalanan
jalancagak
jalangan
jalanna
jalil
jalma
jalmana
jalmi
jalu
jaluna
jalur
jalurna
jam
jama
jamaah
jamaica
jamaika
jamak
jamal
jaman
jamanna
jamban
jambatan
jambe
jambi
jamblang
jambo
jambore
jambu
james
jami
jamie
jaminan
jamming
jampang
jamparing
jampe
jamu
jamur
jan
jana
janame
janari
jandal
jande
jane
janeiro
jang
jangan
jangari
jangjang
jangjangan
jangjangna
jangjawokan
jangji
jangjina
jangka
jangkat
jangkrik
jangkung
jangkungna
janin
janji
jannah
janssen
janten
janteun
jantho
jantung
januari
january
janur
japan
japanese
japara
japati
japonica
jaradi
jarah
jarak
jarakna
jarami
jarang
jarapah
jarawat
jargon
jari
jariji
jaring
jaringan
jarum
jas
jasa
jasad
jasana
jasinga
jasmani
jason
jat
jatayu
jati
jatibarang
jatigede
jatiluhur
jatinangor
jatinegara
jatinunggal
jatisari
jatitujuh
jatiwangi
jatiwaras
jatuh
jatukrami
jauh
jauhna
java
javan
javanica
javanicum
javanicus
javasche
javascript
jawa
jawab
jawaban
jawabna
jawara
jawatan
jawe
jawi
jawura
jay
jaya
jayabaya
jayade
jayadrata
jayagiri
jayakarta
jayanti
jayapura
jayawijaya
jazirah
jazz
jb
jd
je
jean
jeddah
jeff
jefferson
jeffrey
jeget
jejak
jejaring
jejer
jejerna
jeju
jelajah
jelas
jelasna
jelema
jelma
jembar
jembatan
jember
jemle
jemlek
jempol
jenang
jend
jendela
jenderal
jendral
jene
jeneng
jenengan
jenewa
jeng
jengkol
jenglong
jenis
jenisna
jenjang
jennifer
jenson
jentik
jentre
jenuh
jepang
jepara
jeput
jerami
jerawat
jeremy
jerman
jermanik
jernih
jero
jeroan
jeroeun
jerona
jeroning
jerry
jersey
jeruk
jerusalem
jesse
jessica
jesus
jet
jets
jetstar
jeug
jeujeur
jeumpa
jeun
jeung
jeungjing
jeunieb
jewish
jews
jf
jg
jh
ji
jibril
jidar
jieun
jieunan
jiga
jigana
jihad
jihat
jika
jil
jilbab
jilid
jim
jima
jimat
jimmy
jin
jinah
jinak
jingga
jingjing
jinis
jinisna
jinping
jipang
jiraiya
jirangan
jis
jitu
jiwa
jiwana
jj
jk
jkt
jl
jln
jm
jmpl
jn
jng
jo
joan
job
jobs
jodo
joe
joel
jogja
jogjakarta
joglo
joglosemarkerto
johan
johann
johannes
johannesburg
johar
john
johnny
johns
johnsgard
johnson
johor
johr
join
joined
joint
joko
jokowi
jol
jolie
jomantara
jombang
jomblo
jon
jonas
jonathan
jones
jong
jonggol
jonny
jordan
jorge
jorlang
jorong
jose
joseon
joseph
josephine
josh
jotang
joule
journal
journalist
journey
jovi
jp
jpeg
jpg
jq
jr
jrk
jrrd
js
jsb
jst
jste
jt
ju
jual
jualan
juan
juanda
juang
juara
judge
judi
judul
judulna
jueng
juga
juhar
juice
jujuhan
jujukutan
jujuluk
jujun
jujur
jujutan
juku
jukut
jul
julang
juli
julia
julian
juliana
julius
julok
julu
julukan
julung
july
jum
juma
jumaah
jumadil
jumat
jumeneng
jumlah
jumlahna
jump
jumplukan
jumrah
jun
junction
june
jung
jungkrang
jungle
juni
junior
juniors
juniper
junk
juntinyuat
junun
jupiter
juragan
jurang
jure
juri
jurig
jurisprudence
jurit
jurnal
jurnalis
jurnalistik
jurong
juru
juruna
jurus
jurusan
jus
just
justice
justin
justru
jusuf
juta
jutaan
juwar
juz
jv
jw
jx
jy
jyp
jz
k
ka
kaa
kaadaban
kaadilan
kaagamaan
kaagungan
kaahe
kaahlian
kaalaman
kaamanan
kaambeu
kaan
kaancam
kaancuran
kaane
kaanggotaan
kaangseu
kaanna
kaasaman
kaasih
kaasup
kaasupan
kaatur
kaawakan
kaayaan
kaayaana
kaayaanana
kaayaanna
kaayan
kaayeunakeun
kab
kabage
kabagi
kabagjaan
kabalikan
kabandungan
kabangsaan
kabanjahe
kabar
kabawa
kabaya
kabayan
kabe
kabebasan
kabeh
kabel
kabeneran
kabentuk
kabentukna
kaberangkatan
kaberhasilan
kabersihan
kabetot
kabeuleum
kabeungharan
kabeungkeut
kabeuratan
kabiasaan
kabine
kabinet
kabingungan
kabisa
kabisat
kabogoh
kabogohna
kabu
kabubuahan
kabudayaan
kabuka
kabuki
kabukti
kabuktian
kabul
kabungah
kabupate
kabupaten
kabur
kaburu
kabuto
kabutuh
kabutuhan
kabuyutan
kac
kaca
kacamata
kacamatan
kacanduan
kacang
kacangan
kacantum
kacape
kacapi
kacaritakeun
kacatet
kacatetkeun
kacaturkeun
kace
kaceluk
kacepatan
kacepetan
kacerdasan
kaci
kacida
kacilakaan
kacindekan
kacipta
kaciri
kacoklatan
kacuali
kacumponan
kacutat
kad
kadaharan
kadaharanana
kadal
kadalapan
kadali
kadang
kadangkala
kadaptar
kadar
kadarna
kadatangan
kadaulatan
kade
kadele
kader
kadeu
kadieunakeun
kadipate
kadipaten
kadir
kadiri
kado
kadokteran
kadongdong
kadu
kadua
kaduana
kadudampit
kadudukan
kadugede
kaduhung
kaduitan
kadungora
kadupandak
kaduruk
kadutaan
kae
kaemasan
kaeusi
kafe
kafilah
kafir
kagabung
kagagalan
kagambar
kaganggu
kage
kagenep
kagero
kageulisan
kagiatan
kagiatanana
kagiatanna
kagolong
kagolongkeun
kagore
kagoshima
kagubernuran
kagumantungan
kagunaan
kagungan
kah
kahade
kahaja
kahakanan
kahakiman
kahalangan
kahamilan
kahampangan
kahan
kahar
kahareupna
kahariwang
kaharti
kahayang
kahayangna
kahe
kahean
kaheurasan
kahfi
kahieuman
kahiji
kahijian
kahijina
kahirupan
kahirupanana
kahirupanna
kahitna
kahontal
kahormatan
kahot
kahubung
kahuripan
kahuruan
kahutanan
kahyangan
kai
kaidah
kaido
kaiji
kaimanan
kain
kaina
kainfe
kainuman
kairo
kairut
kaisar
kaiser
kaislaman
kaistime
kait
kaitung
kaiuhan
kaizoku
kajaba
kajadian
kajadianana
kajadianna
kajaga
kajahatan
kajantenan
kajati
kajauhan
kajayaan
kajian
kajieun
kajiwaan
kajual
kajuaraan
kajuruan
kakacangan
kakacoan
kakaisaran
kakaitan
kakalian
kakamigahara
kakandungan
kakao
kakap
kakara
kakashi
kakawasaan
kakawasaanana
kakawasaanna
kakawihan
kakawin
kakayaan
kakebalan
kakeueum
kakeunaan
kakhalifahan
kaki
kakiatan
kakoncara
kakone
kakontaminasi
kaktus
kaku
kakuasaan
kakuatan
kakuatanana
kakuatanna
kakubur
kakulawargaan
kakumpul
kakurang
kakurangan
kakurung
kal
kala
kalah
kalahiran
kalahka
kalainan
kalakay
kalakuan
kalam
kalan
kalang
kalangan
kalangenan
kalangkang
kalapa
kalaparan
kalasan
kalau
kalawan
kalawarta
kalaya
kalayan
kalde
kaldera
kaldu
kale
kalebet
kaledonia
kalemahan
kalembaban
kalender
kalengkepan
kalenjar
kaler
kalereun
kaleuleuwihan
kaleuleuwihi
kaleungitan
kaleuwihan
kali
kalian
kalianda
kalibata
kalibening
kalibesar
kalibet
kalideres
kalieun
kalifornia
kaligondang
kaligrafi
kaligung
kalijaga
kalijati
kaliki
kalilaan
kalima
kalimah
kalimanah
kalimantan
kalimat
kalimaya
kalina
kalinga
kalintang
kalinyamat
kalipetan
kalipucang
kalirejo
kaliru
kalisari
kalium
kaliwat
kaliwatan
kaliwedi
kaliwungu
kalkulator
kalkulus
kalkum
kalkuta
kalla
kalobaannana
kalolobaan
kalompok
kalong
kalori
kalsium
kaluar
kaluaran
kaluarga
kaluarna
kaluhur
kaluhuran
kalumangsungan
kalungguhan
kalungguhanana
kalurahan
kam
kamaharajaan
kamahe
kamajuan
kamakmuran
kamal
kamalir
kamampuan
kamampuh
kamampuhan
kamampuhna
kaman
kamandaka
kamandang
kamanusaan
kamar
kamarang
kamari
kamasan
kamasarakatan
kambang
kambing
kamboja
kame
kamekaran
kamekaranana
kamen
kamenterian
kamentrian
kamer
kamera
kamerde
kamerdekaan
kamerdikaan
kamerdikaanna
kamerun
kameunangan
kami
kamil
kamiripan
kamiskinan
kamojang
kamone
kampak
kampanye
kampanyeu
kamper
kampong
kamprad
kampung
kampungna
kampus
kamu
kamulyaan
kamunduran
kamungkinan
kamuning
kamus
kan
kana
kanada
kanae
kanagaraan
kanagawa
kanak
kanal
kanan
kanaria
kanayama
kanazawa
kancah
kancana
kancing
kanda
kandaga
kandang
kandanghaur
kandaraan
kandel
kandelna
kandeman
kandidat
kandung
kandungan
kandunganana
kane
kang
kangen
kangge
kanggo
kangjeng
kangkalung
kangker
kangkung
kangsa
kani
kanik
kanika
kanis
kanisius
kanisme
kanismeu
kanjeng
kanji
kanjut
kanker
kano
kanoman
kanopi
kansai
kansas
kanselir
kant
kante
kanto
kanton
kantong
kantor
kantorna
kantos
kanu
kanyaah
kanyaho
kanyahoan
kanyataan
kanyataanana
kanyataanna
kanye
kanyeri
kaol
kaolahan
kaom
kaonjoyan
kaopat
kaopatna
kaos
kapadetan
kapahayu
kapake
kapaksa
kapal
kapala
kapaluruh
kapamilikan
kapamingpinan
kapan
kapanasan
kapang
kapangaruhan
kapange
kapanggih
kapanggihna
kapangurusan
kapanlagi
kapapate
kaparigelan
kapas
kapasitas
kapasitasna
kapasitor
kapayang
kape
kapendak
kapentingan
kapercayaan
kaperluan
kapetakan
kapeto
kapile
kapilih
kapincut
kapindahan
kaping
kapinis
kapinteran
kapisah
kapita
kapital
kapitalis
kappa
kapre
kapri
kapribadian
kapsul
kapte
kapten
kapua
kapuk
kapulaga
kapuloan
kapunahan
kapungkur
kapur
kaput
kaputusan
kar
kara
karabakh
karachi
karacunan
karadenan
karagaman
karageman
karaharjaan
karajaan
karajaanana
karajinan
karak
karakter
karakteristik
karakterna
karamat
karame
karana
karandapan
karang
karangampe
karangampel
karangan
karanganyar
karangasem
karangjaya
karanglewas
karangnunggal
karangpawitan
karangsari
karangsembung
karangtalun
karangtawang
karangtengah
karantina
karapetan
karapihan
karasa
karasana
karaside
karat
karate
karaton
karavan
karawang
karawitan
karbala
karbamazepin
karbohidrat
karboksilat
karbon
karbonat
karbondioksida
karbonil
karbonna
kardiovaskular
kare
karek
karel
karen
karena
karep
kareseban
karesep
karesepna
karesian
karesme
karet
kareta
kareueus
kareueut
kareung
kargo
kari
kariaan
karibia
karier
karim
karimun
karinding
karir
karirna
karl
karlstad
karna
karnivora
karno
karo
karoten
karpe
karta
kartakusuma
kartanegara
kartawinata
kartika
karting
kartini
kartografi
kartu
kartun
karugian
karuhun
karuhunna
karuksakan
karun
karung
karusakan
karusuhan
karya
karyamukti
karyana
karyawan
karzai
kas
kasadaran
kasadiaan
kasaimbangan
kasakit
kasaksian
kasakte
kasaktian
kasalahan
kasalametan
kasalapan
kasaluruhan
kasaluyuan
kasampak
kasampurnaan
kasang
kasapukan
kasapuluh
kasar
kasarna
kasaruaan
kasarung
kasatimbangan
kasatuan
kase
kasebar
kasebat
kasebut
kasebutkeun
kasedih
kasehatan
kasejahteraan
kasempetan
kasenangan
kasenian
kasepuhan
kaserang
kaserep
kaset
kashmir
kasieun
kasih
kasimpulan
kasintu
kasinugrahan
kasir
kaso
kasohor
kasohorna
kasokandel
kasomalang
kasoran
kasorang
kasorot
kaspia
kasta
kastil
kasuburan
kasucian
kasugemaan
kasugihan
kasui
kasukse
kasuksesan
kasulitan
kasultanan
kasundaan
kasup
kasur
kasus
kasusah
kasusastraan
kasusna
kasusun
kaswari
kat
kata
katabolisme
katahanan
katai
kataji
katakana
katalan
katalis
katalitik
katalungtik
katambah
katange
katangkep
katangtu
katangtuan
katapang
katara
katarajang
katarik
katarima
kate
katedral
kategangan
kategori
katelah
katelahna
katem
katembong
katempo
katempona
katengtreman
katerangan
katerap
kateusaruaan
katibung
katiga
katilu
katiluna
katimu
katingal
katingali
katingalina
katinggali
katinggang
katingtriman
kation
katite
katna
kato
katoda
katojo
katolik
katompe
katon
katore
katrina
katsir
katua
katuangan
katuhu
katuhueun
katuhuna
katujuh
katukang
katulis
katulistiwa
katumbiri
katun
katuncar
katup
katurunan
katus
katut
katutup
katutupan
kau
kauangan
kauger
kaukasia
kaukasus
kaula
kaulinan
kaum
kaunggel
kaunggulan
kaungkab
kaunikan
kauntungan
kaurus
kautamaan
kautsar
kav
kavaleri
kawah
kawajiban
kawali
kawan
kawangun
kawangunna
kawani
kawanoh
kawarganagaraan
kawas
kawasa
kawasaki
kawasan
kawasna
kawat
kawates
kawatesanan
kaway
kawe
kawenangan
kawengku
kawentar
kawentarna
kawi
kawih
kawihna
kawijakan
kawijaksanaan
kawilang
kawin
kawinan
kawit
kawung
kawunggirang
kaya
kayaan
kayakinan
kayan
kayaning
kayas
kayasa
kayee
kayu
kazakhstan
kb
kbbi
kbit
kbs
kc
kcl
kd
ke
keajaiban
kearifan
kebangkitan
kebangsaan
kebantenan
kebanyakan
kebase
kebat
kebayakan
kebayoran
kebijakan
kebijaksanaan
kebo
kebon
kebudayaan
kebul
kebume
kebumen
kebun
kec
kecamatan
kecap
kecapna
kecepatan
kecil
kecipir
keclak
kecrik
kecuali
kedah
kedalan
kedamaian
kedaton
kedawung
kedelai
kedele
kediri
kedok
kedokteran
kedondong
kedoya
kedua
keduanya
kedung
kedungbante
keep
keeping
kegiatan
keguruan
kehidupan
kehormatan
kehutanan
kei
keihan
keihin
keio
keisei
keith
keizo
kejadian
kejaksan
kejang
keju
kejuaraan
kejuruan
kekaisaran
kekebalan
kekebul
kekecapan
kekedutan
kekembangan
kekemu
kekerasan
kekuasaan
kel
kelainan
kelak
kelamin
kelana
kelapa
kelas
kelautan
kelenci
kelengkapan
kelenjar
keliling
kelinci
keling
kelipah
kelir
kelirna
kelly
kelom
kelompok
kelompokna
kelopak
keluar
keluarga
kelud
kelurahan
kelvin
kemal
kemang
kemangkon
kemasan
kematian
kemayoran
kembali
kembang
kembangan
kembanganna
kembangna
kembar
kembaran
kembung
kemenangan
kementerian
kementrian
kemerdekaan
kemih
kemiri
kemiringan
kemis
kempot
kempul
kemranje
kemudian
kemuning
ken
kena
kenanga
kenangan
kencana
kencing
kendal
kendali
kendan
kendang
kendaraan
kendari
kendi
kenging
kennedy
kenneth
kenong
kent
kentang
kente
kentel
kentucky
kenur
kenya
kep
kepada
kepala
kepayang
kependudukan
keperawatan
kepler
kepoh
kepok
kepompong
kepribadian
kept
kepulauan
kepuloan
keputusan
ker
kera
kerah
kerajaan
kerajinan
kerak
kerala
keramat
keramik
kerang
kerangka
keras
keraton
kerbau
kere
kereta
keretas
kereteg
kerinci
kering
keris
kerja
kerjasama
kernel
keroncong
kersa
kersamanah
kertabumi
kertajati
kertajaya
kertanagara
kertanegara
kertas
kertasari
kertasemaya
kertawinangun
kertosono
kerukunan
keruntuhan
kerupuk
kesadaran
kesaktian
kesambi
kesan
kesatuan
kesed
kesehatan
keseimbangan
kesejahteraan
kesemek
kesenian
kesultanan
ketambe
ketan
ketanggungan
ketapang
ketat
ketentuan
keterangan
ketetapan
ketiga
ketik
ketika
ketinggian
ketol
keton
ketua
ketuk
ketukan
ketulis
keturunan
ketut
keuangan
keude
keukeuh
keumala
keumuneng
keun
keuna
keuneung
keupeul
keur
keureutan
keurseus
keusik
keusikan
keusrak
keutapang
keuyeup
kevin
kew
kewarganegaraan
key
keyakinan
keyboard
keys
kf
kg
kh
kha
khadijah
khaer
khaldun
khalid
khalifa
khalifah
khan
khaolah
kharisma
khas
khasanah
khasiat
khatib
khattab
khatulistiwa
khilau
khmer
khodijah
kholid
kholifah
khotbah
khrushchev
khulafaur
khulna
khusus
khususna
khuwailid
khwarizmi
khz
ki
kiai
kiamat
kian
kiara
kiaracondong
kiat
kibang
kiblat
kicimpring
kick
kid
kidang
kidman
kidney
kids
kidul
kiduleun
kiduleunnana
kidulna
kidung
kieu
kiih
kiii
kijing
kila
kilang
kilat
kiliningan
kill
killed
killer
killers
killing
kills
kilo
kilogram
kilome
kilometer
kilometres
kim
kimchi
kimi
kimia
kimiana
kimiawan
kimiawi
kimono
kina
kinabalu
kinanti
kind
kinds
kine
kinerja
kinetic
king
kingdom
kingdoms
kings
kini
kinki
kintel
kinten
kintetsu
kios
kipas
kiper
kira
kirai
kirana
kirang
kiri
kiribati
kiridit
kiripik
kirkland
kis
kisah
kisaran
kismis
kiso
kiss
kistan
kita
kitab
kitabna
kitakyushu
kitin
kitlv
kitts
kitu
kituna
kiwari
kiwi
kiyai
kj
kje
kk
kkeun
kl
klaim
klan
klangenan
klapanunggal
klarasi
klarasikeun
klari
klasemen
klasifikasi
klasik
klaster
klate
klaten
klaus
klausa
kle
kleub
kleup
klien
klik
klimaks
klindamisin
klinik
klinis
klip
kliring
kliwon
klm
klon
kloning
klorida
klorin
klorofil
klorokuin
kloropil
kloroplas
klub
kluet
klumbayan
km
kmp
kn
kna
knew
knight
knik
knil
knis
knologi
know
knowledge
known
ko
koagulasi
koala
koalisi
kobalt
kobe
koce
koch
kocok
kodam
kode
kodepos
kodeu
kodon
koe
koefisien
koes
koesoemadinata
kognitif
koh
kohaku
kohe
kohkol
koi
koin
koizumi
koja
kok
kokain
koki
koko
kokoh
kokolot
kokone
kokosan
kokotor
kokotorna
kol
kolaborasi
kolage
kolam
kolang
kole
kolek
koleksi
kolesterol
kolibri
kolkata
kolmogorov
kologi
kologis
kolom
kolombia
kolon
kolone
kolonel
kolong
koloni
kolonial
kolonialisme
kolonisasi
kolot
kolotna
kolumbia
koma
komandan
komando
komara
kombinasi
komdak
kome
komedi
komersial
komersil
komet
komik
komisaris
komisi
komite
komitmen
komo
komoditas
komoditi
komodo
komodor
komona
komoro
komp
kompa
kompas
kompeni
kompetisi
kompilasi
komple
komplek
kompleks
kompleme
komplikasi
kompone
komponen
komponis
kompor
kompos
komposer
komposisi
komposit
kompre
komputasi
komputer
komputerisasi
komune
komunikasi
komunis
komunisme
komunitas
komuter
kon
konci
koncian
kondang
konde
kondensasi
kondisi
konduksi
konduktivitas
konduktor
kone
koneng
konfe
konfere
konferensi
konfigurasi
konfirmasi
konflik
konfrontasi
kong
konghucu
kongkolak
kongo
kongre
kongres
konjugasi
konoha
konom
konome
konomi
konomian
konomina
konomis
konon
konse
konseling
konsentrasi
konsep
konser
konservasi
konservatif
konsiste
konsisten
konsol
konsolidasi
konsonan
konspirasi
konstan
konstanta
konstantin
konstantinopel
konstipasi
konstitue
konstitusi
konstitusional
konstruksi
konstruktor
konsultan
konsultasi
konsultasikeun
konsume
konsumen
konsumsi
kontak
kontaminasi
konte
konteks
kontemporer
kontine
kontinyu
kontra
kontrak
kontraksi
kontras
kontribusi
kontribusina
kontributor
kontrol
kontrove
kontroversi
kontroversial
kontruksi
konve
konvensional
konverge
konversi
konvolusi
koordinasi
koordinat
koordinator
kopassus
kope
koperasi
kopi
kopo
koptik
kor
koran
korang
korban
kordinat
kordoba
kore
korea
korean
korelasi
koridor
korma
korne
korodok
korona
koronavirus
koroncong
koropak
korosi
korps
korsi
kortisol
korupsi
kos
kosa
kosakata
kosakecap
kosambi
kosasih
kosinus
kosistem
koslowakia
kosme
kosmik
kosmologi
kosong
kosovo
kosta
kosterm
kostrad
kostum
koswara
kota
kotabaru
kotabumi
kotak
kotamadya
kotana
kotanopan
kotarih
koting
koto
kotok
kotor
kovale
kovarian
kowi
kp
kpk
kq
kr
krai
krakatau
krama
kramat
kramatwatu
krangkeng
kraton
krd
kre
kreatif
kredit
kresna
krieg
kriging
krike
krim
krime
krimea
kriminal
krisdayanti
krisik
krisis
kristal
kristalin
kristen
kristinehamn
kristus
krite
kriteria
kritik
kritikan
kritikus
kritis
kriya
krl
kroasia
krom
kromatin
kromium
kromosom
kronis
kronologi
kronologis
kropak
kroya
krsna
kru
krueng
krui
krut
ks
ksasi
ksatria
ksatriya
kse
ksekutif
ksekutip
ksemplar
ksi
ksibel
ksikeun
ksiko
ksina
ksis
ksiste
ksklave
ksklusif
kskre
ksna
kspansi
kspe
kspedisi
ksploitasi
ksplorasi
kspor
kspre
kste
ksternal
kstil
kstrak
kstraksi
kstrim
kstur
ksturna
ksual
ksukutip
kt
kta
ktar
kte
kter
ktif
ktip
ktisida
ktivitas
ktonik
ktor
ktorat
ktori
ktral
ktrifikasi
ktrik
ktrokimia
ktrolit
ktromagne
ktron
ktronik
ktronika
ktroskopi
ktrum
ktt
ktual
ktur
kturna
ktv
ku
kua
kuador
kuadrat
kuah
kuahna
kuala
kualifikasi
kualitas
kualitasna
kualitatif
kualuh
kuan
kuantisasi
kuantitas
kuantitatif
kuantum
kuartal
kuartil
kuasa
kuat
kuatna
kuator
kuba
kubah
kubang
kubik
kublai
kubu
kubur
kuburan
kubus
kucara
kucing
kuciwa
kucubung
kuda
kude
kudu
kuduna
kudus
kue
kueh
kuensi
kuil
kuiper
kuis
kujalan
kujang
kukang
kukituna
kuku
kukumbul
kukupu
kukuran
kukus
kul
kula
kulah
kulam
kulawarga
kulawargana
kulawargga
kulawargi
kulawu
kule
kuled
kuli
kuliah
kuliahna
kuline
kuliner
kulit
kulitna
kulkas
kull
kulon
kuloneun
kuloneunnana
kulonna
kultivar
kultur
kulu
kulub
kulur
kuluwung
kuma
kumaha
kumamoto
kuman
kumawasa
kumbah
kumbang
kumbuh
kumeli
kumis
kumparan
kumpeh
kumpeni
kumpul
kumpulan
kumuh
kumulatif
kun
kuna
kunang
kunaon
kunce
kunci
kuncup
kundang
kunde
kung
kungsi
kuning
kuningan
kunjungan
kuno
kunrei
kunsill
kunth
kunti
kuntilanak
kuntul
kunu
kunut
kunyet
kunyit
kuo
kuomintang
kupang
kupat
kupu
kur
kurang
kurangna
kurawa
kurban
kurdi
kurdish
kurdistan
kurikulum
kuriling
kuring
kurma
kurnia
kurniawan
kursi
kursor
kursus
kurt
kurtosis
kuru
kurun
kurung
kurupuk
kuruse
kurva
kurz
kusabab
kusi
kusir
kusne
kusta
kusuma
kusumadinata
kusumah
kuta
kutabuluh
kutai
kutalimbaru
kutambaru
kutang
kutapanjang
kutaragi
kutasari
kutawaringin
kute
kutif
kutip
kutipan
kutoarjo
kutojaya
kutu
kutub
kuwait
kuwu
kuya
kv
kw
kwala
kwartir
kwik
kwon
kx
ky
kyai
kyi
kyo
kyoto
kyrgyzstan
kyu
kyuko
kyushu
kz
l
la
laan
lab
laba
labe
label
labor
laboratorium
laboratory
labour
labs
labu
labuan
labuh
labuhan
labuhanbatu
labuhna
lack
lada
ladang
ladies
ladiri
lady
lae
lag
laga
lagi
lagoa
lagu
laguboti
laguna
lah
lahan
lahang
lahar
lahewa
lahir
lahiriah
lahirna
lahore
lahusa
lai
laila
lain
laina
lainna
lainnya
lais
laja
laje
lajeng
laju
lajuna
lak
lakbok
lake
lakes
lakeun
laki
lakon
lakonet
lakop
laksa
laksamana
laksana
laktat
laktosa
laktulosa
laku
lakukeun
lalab
lalajo
lalaki
lalakina
lalakon
lalakonna
lalampahan
lalampahanana
lalampahanna
lalangit
lalaunan
lalawanan
lalay
lalayaran
laleur
laleutik
lali
lalu
laluasa
lam
lama
laman
lambaga
lambak
lambalek
lambang
lambangna
lambar
lambaran
lambaro
lambat
lambda
lambung
lami
lamiaceae
lamina
laminations
lamongan
lamp
lampah
lampahna
lampegan
lamping
lampoh
lampu
lampung
lamu
lamun
lan
lana
lanang
lancah
lancar
lance
lanceuk
lanceukna
lancok
land
landak
landas
landasan
landeuh
landian
landihan
landmark
lands
landscape
lane
lang
langensari
langganan
langgeng
langit
langka
langkah
langkahan
langkaplancar
langkat
langkung
langlayangan
langsa
langsung
language
languages
lanjut
lanjutan
lanka
lanoma
lanset
lanskap
lantai
lantara
lantaran
lante
lao
laos
lap
lapan
lapang
lapangan
lapar
lapis
lapisan
laplace
laporan
laportea
laptop
lara
larang
larangan
larapan
larapna
laras
large
largely
larger
largest
laris
larry
lars
larus
larut
larutan
larva
las
laser
lasi
laskar
lasminingrat
last
lastari
lastis
lat
latar
late
laten
later
lateral
latest
latif
latifolia
latihan
latin
latina
latitude
lativitas
latter
latvia
lau
laubaleng
lauk
laukna
laun
launch
launched
laura
laurasia
laure
laurent
laut
lautan
lautna
lava
lavoisier
law
lawa
lawak
lawan
lawang
lawanna
lawas
lawe
lawon
lawrence
laws
lawu
lawung
lawungan
lay
layak
layanan
layang
layar
layer
layered
layers
layon
layout
layu
layung
lb
lbss
lc
lcd
ld
ldp
le
lead
leader
leaders
leading
leads
leaf
league
learn
learning
least
leaves
lebah
lebahan
lebak
lebakwangi
lebanon
lebar
lebaran
lebesgue
lebet
lebih
lebu
lebur
lecture
led
ledakan
lee
leeward
left
leg
lega
legacy
legal
legana
lege
legend
legenda
legendaris
legislatif
legislation
legislative
legit
legitimate
legok
legon
legs
leibniz
leicester
leiden
lekasan
leles
lem
lemah
lemahabang
lemahna
lemahsugih
lemak
lemakna
lembab
lembaga
lembah
lembang
lembar
lembaran
lembu
lembur
lemburna
lembut
leme
lemes
lemesna
lemon
lemong
lempeng
lempengan
lempengna
lempung
lempuyangan
lencana
lendir
lengan
lengkap
lengkep
lengkepna
lengkob
lengkong
lengkungan
lengser
length
lengths
lennon
lenong
lenovo
lenteng
lentong
leo
leokum
leon
leonardo
leone
leonhard
leopard
lepan
lepas
lepidoptera
leptotila
leq
ler
leres
les
lesmana
less
lesser
lessons
lestari
leste
let
letak
letnan
letter
letters
letup
letusan
leubeut
leueur
leuit
leukemia
leuleus
leuleutik
leumpang
leumpangna
leunca
leung
leungeun
leungeunna
leungit
leungiteun
leungitna
leupas
leupeut
leupung
leuser
leutak
leutik
leutikna
leuweung
leuwi
leuwigoong
leuwih
leuwihna
leuwiliang
leuwimunding
leuwisari
leuwung
levant
level
levels
levering
levi
levy
lewat
lewih
lewis
lexicon
leyur
leyuran
lf
lg
lgia
lh
lhok
lhoknga
lhokseumawe
lhoksukon
lhoong
li
lia
liam
lian
liana
liang
liangan
liangna
lianna
liar
liat
libanon
liberal
liberia
liberty
libraries
library
libur
liburan
libya
license
licensed
licensing
licik
lidah
lie
liechtenstein
lies
lieur
life
lifetime
lift
liga
ligar
light
lightning
lights
ligi
lignin
ligung
lihat
like
likelihood
likely
liket
likopter
lila
lilana
lilin
lilium
liliwatan
lily
lim
lima
liman
limau
limb
limbad
limbah
limbangan
limbur
limfoma
limfosit
limit
limited
limits
limo
limpa
limpung
limun
limus
lincah
lincoln
linda
lindsay
lindu
lindung
line
linear
lineas
lineker
lineout
liner
lines
ling
lingan
linge
lingga
linggajati
linggarjati
linggasari
linggih
lingkar
lingkaran
lingkung
lingkungan
lingkunganana
lingkunganna
lingkup
linglung
lingua
linguistic
linguistics
linguistik
linguists
linhas
lini
linie
linier
link
linked
linkin
linking
links
linnaeus
lintang
lintas
lintasan
lintong
linus
linux
lion
lionel
lip
lipat
lipet
lipi
lipid
lipoma
lippo
lips
liputan
liquid
lir
lirik
lis
lisa
lisan
lisbon
lise
lisin
lisozim
lisp
list
listed
listing
liston
listrik
listrikna
lists
lisung
lit
litbang
liter
literal
literally
literary
literatur
literature
lithium
lithuania
litium
litsea
little
lituania
liu
lium
live
lived
liver
liverpool
livery
lives
living
liwat
liwatan
liwet
lj
ljuk
lk
lkeun
ll
lla
ller
lloyd
lm
lman
lmu
lmuan
lmuna
lmuwan
ln
lna
lo
loa
load
loads
loba
lobak
lobana
lobby
lobu
lobus
local
locally
located
location
locations
loce
lock
lockdown
locked
locks
lodaya
lodi
lodong
log
logak
logam
logarithm
logaritma
logat
logawa
logic
logical
logika
logis
logistik
logo
logos
logostikon
lohbener
lohor
lojor
lok
loka
lokakarya
lokal
lokali
lokasi
lokasina
lokatmala
lokomotif
lokomotip
lokon
lokus
lolobana
lolobanana
lolobananana
lolomatua
lolong
lolongkrang
lolos
lolowau
loma
lomari
lomba
lombang
lombok
lon
lonce
londok
london
lonely
long
longer
longest
longhair
longitudinal
longleftrightarrow
longman
longse
longsor
lonjong
lontar
lontong
lonyod
look
looking
looks
loop
looping
loose
lor
lorazepam
lord
lorentz
lorenzo
lori
lorong
los
losarang
losari
loss
losses
lossless
lost
lot
lote
lotte
lotu
lotus
louis
louise
louisiana
louisville
lour
love
lover
low
lower
lowest
lowry
loyang
loyog
lp
lr
lrt
ls
lsinki
lt
lta
ltd
lti
lu
lua
luar
luareun
luarna
luas
lubang
lubis
lubu
lubuk
luca
lucas
lucia
lucky
lucu
lucy
ludwig
lueng
lues
luffy
lufthansa
luhak
luhung
luhur
luhureun
luhureunana
luhurna
luis
luka
lukas
lukis
lukisan
lukman
luksemburg
lukut
lular
lule
lulugu
luluhur
lulumpang
lulus
lulusan
lumahing
lumajang
lumaku
lumakuna
lumampah
lumangsung
lumangsungna
lumar
lumayan
lumba
lumban
lumbok
lumbung
lumpat
lumpia
lumping
lumpuh
lumpur
lumut
luna
lunak
lunar
lunas
luncat
luncatan
lundgren
lung
lungguh
lungsur
lupus
luragung
lurah
lurus
lusi
luther
lutheran
lutung
luxembourg
luxury
luyu
luzon
lv
lw
lx
ly
lycopodium
lynn
lynx
lyon
lyrics
m
ma
maag
maakond
maarif
maarten
maatschappij
mabok
mac
maca
macaca
macakeun
macam
macan
macana
macau
macdonald
mace
macedonia
macedonian
macem
machine
machines
machu
macmillan
macropygia
macrovision
maculosus
mad
mada
madagascar
madagaskar
madali
madang
madani
madaniyah
madara
madat
made
madeira
madenda
madhab
madinah
madison
madiun
madrais
madrasah
madrid
madrim
madu
madukara
madura
madya
mae
maeda
maen
maenpo
maestro
mafia
magazine
mage
magelang
magellan
magetan
maghrib
magic
magis
magister
magma
magne
magnesium
magnet
magnetic
magnetik
magnetism
magnets
magnituda
magnitude
magnitudo
magnus
magrib
magrupa
magyar
mah
maha
mahabarata
mahabharata
mahakam
mahal
mahan
mahar
maharaja
maharani
mahasiswa
mahathir
mahatma
mahayana
mahdi
mahe
maher
mahi
mahkamah
mahkota
mahluk
mahmoud
mahmud
mahoni
mai
maibara
maiden
mail
main
maine
mainland
mainly
mainstre
maint
maintain
maintained
maintenance
maja
majalah
majalaya
majale
majalengka
majapahit
majapait
majelis
majemuk
maji
majlis
major
majority
maju
majuna
mak
maka
makalah
makam
makamna
makan
makanan
makara
makasar
makassar
makau
make
makedonia
maker
makes
makhluk
makhlukna
makin
making
makkah
makkiyah
maklumat
makmu
makmue
makmur
makna
makro
makromolekul
makruh
maksa
maksimal
maksimum
maksud
maksudna
makudur
makuta
makutana
mal
mala
malabar
malaccensis
malae
malah
malahan
malai
malaikat
malaka
malam
malang
malangbong
malarat
malaria
malati
malawi
malay
malaya
malaysia
malaysian
malayu
malcolm
male
malela
malem
males
malesia
mali
maligas
malignant
malihan
malik
malikeun
maliki
malikkeun
malin
maling
malintang
malioboro
mall
mallaby
malta
maltosa
maluku
maluruh
malvaceae
mama
mamala
mamalia
mamangna
mamanis
mamaos
mamawa
mammals
mampang
mamplam
mampu
mampuh
mamrati
man
mana
manado
manaf
management
manager
managing
manah
manajeme
manajemen
manajer
manan
manaskeun
manat
mancak
mancanagara
mancang
mancarkeun
mance
manchester
manchu
manchuria
mandailing
mandala
mandalasari
mandalawangi
mandar
mandarin
mandat
mandatory
mande
mandela
mandi
mandiangin
mandiminyak
mandiraja
mandirancan
mandiri
mandrehe
manduamas
mane
manehna
manengah
maneuh
manfaat
mang
manga
mangabad
mangan
mangaruhan
mangat
mangbulan
mange
mangfaat
mangga
manggah
manggala
manggarai
manggeng
manggih
manggihan
manggihkeun
manggis
manggu
manggung
mangifera
mangka
mangkak
mangkana
mangkat
mangkok
mangku
mangkubumi
mangle
mangpaat
mangpaatkeun
mangpaatna
mangpirang
mangrove
mangrupa
mangrupakeun
mangrupi
mangrupikeun
mangsa
mangsana
mangsi
mangtaun
mangunkusumo
mangunreja
mangunsarkoro
manhattan
mani
maniamolo
maniis
manik
manila
maninjau
manipulasi
manis
manisan
manjang
manjangan
manjangkeun
manjing
mann
manner
manonjaya
mansipasi
mansur
mansyur
mantab
mantak
mantan
mante
mantel
manten
mantena
manteng
mantenna
mantra
mantri
mantu
mantuan
manual
manuel
manufacture
manufactured
manufacturer
manufacturers
manufacturing
manufaktur
manuk
manunggal
manuper
manusa
manusia
manuver
many
manyak
manyang
mao
maok
maos
maot
maotna
map
mapag
mapakan
maparin
mapay
mapping
maps
mar
mara
maraban
maradona
marah
marahmay
maraja
marake
marancar
marane
maranggi
maraot
marapi
marbau
marc
marcapada
march
marciano
marco
marconi
marcus
mardingding
mare
marebutkeun
marengan
marentah
maret
mareuman
marga
margaasih
margacinta
margahayu
margaluyu
margaret
margasari
margasatwa
margi
margin
marginal
margo
mari
maria
mariah
mariana
maribaya
marie
marihat
mariksa
marilyn
marine
maring
maringgai
marinir
marino
mario
maritim
maritime
marjan
mark
markas
markasna
marked
market
marketing
markets
markisa
markov
marks
markus
marmer
marmot
maro
maroko
maroon
marriage
married
mars
marsekal
marshall
martabe
martadinata
martanagara
martha
marti
martin
martinique
maru
marud
marunouchi
marvel
marwan
marx
mary
maryam
maryland
marz
marzuki
mas
masa
masagi
masak
masakan
masal
masalah
masalahna
masang
masangkeun
masarakat
masarakatna
masayoshi
mase
masehi
mashudi
masigit
masih
masihan
masihul
masilam
masing
masingna
masita
masjid
masjidil
mask
maskapai
maskape
masker
maskot
masrahkeun
mass
massa
massachusetts
massacre
massal
massana
massanya
masses
massive
mastaka
master
masters
mastikeun
mastixia
masuk
masurai
masyarakat
mat
mata
matahari
matak
matakna
matalikeun
matan
matana
matang
matangi
matangkuli
mataram
matarmaja
match
matches
matching
mate
matematik
matematika
matematikawan
matematis
materi
material
materials
materil
math
mathbf
mathcal
mathematical
mathematically
mathematicians
mathematics
mathrm
mati
matika
matikawan
matinggi
matis
matoda
matok
matraman
matrial
matrik
matriks
matrix
matsumoto
matsuyama
matt
matter
matthew
matthews
matthias
matuh
maturan
mau
maudy
maul
maulana
maulid
maung
maupun
maurice
mauritania
mauritius
mauro
maut
mawa
mawakeun
mawar
mawardi
mawi
max
maximum
maxwell
may
maya
mayang
mayar
mayasari
maybe
mayeng
mayit
mayjen
mayor
mayoritas
mayotte
mazhab
mazinger
mb
mba
mbah
mbak
mbakan
mbakkeun
mbal
mbalan
mbang
mbara
mbaran
mbarkeun
mbc
mbcmbhcbhmb
mbe
mber
mbit
mbok
mbong
mbongan
mbongkeun
mbongna
mbox
mbran
mbrio
mbrionik
mc
mcboto
mccartney
mcconaughey
mcdonald
mcdonnell
mcgraw
mclaren
md
mdpl
me
mean
meaning
means
measure
measurement
mecahkeun
mecakan
mecca
mecenghul
mecenghulna
mechanical
mechanics
mechanism
mechanisms
medal
medali
medalkeun
medalna
medan
medang
medar
medarkeun
medellin
media
median
mediawiki
medical
medicinal
medicine
medieval
medika
medina
medis
mediterania
mediterrane
mediterranean
medium
mee
meester
meet
meeting
meets
mega
megalaima
megalitik
megar
megatkeun
megawati
meh
mehmed
mei
meiji
meisn
meitetsu
meja
mekah
mekanik
mekanika
mekanisme
mekar
mekarjaya
mekarkeun
mekarmukti
mekarna
mekarsari
mekarwangi
mekkah
mekong
meksiko
melainkan
melak
melakeun
melakna
melaksanakan
melakukan
melalui
melambangkan
melanie
melaporkan
melati
melayu
melbourne
melengkung
meles
melete
meliaceae
melihat
melinjo
melintas
melinting
meliputi
mellitus
melly
melodi
melody
melting
memang
memasuki
membaca
membangun
membantu
membawa
membeli
membentuk
member
memberikan
members
membership
membran
membrane
membuat
meme
memed
memilih
memiliki
memoir
memori
memorial
memory
memperhatikan
mempunyai
memutuskan
men
menak
menang
menangkeun
menanti
menara
menarik
mencakup
mencapai
mencari
mence
mencek
mencil
menciptakan
mencos
mendahara
mendakan
mendaluh
mendapat
mendapatkan
mendekati
mendirikan
mendut
menembus
meneng
menengah
menentukan
menerima
menerkeun
menetapkan
mengadakan
mengalami
mengambil
mengandung
mengatakan
mengatur
mengelilingi
mengembangkan
mengenai
mengenal
mengendalikan
menggala
menggantikan
menggunakan
menghasilkan
mengikuti
mengkonfirmasi
mengkuang
mengkudu
mengorbit
mengudara
mengumumkan
menimbulkan
meninggal
meninggalkan
meningkat
meningkatkan
menit
menjadi
menjaga
menopause
menore
menta
mental
mentawai
menteng
menteri
mentha
mentingkeun
mention
mentioned
mentri
menu
menuju
menulis
menunggu
menurut
menuturkan
menyadari
menyan
menyatakan
menyiarkan
mer
merah
meraih
merak
meraksa
merangan
merangin
merankeun
meranti
merapi
merasa
merawan
merbabu
merbau
mercalli
mercedes
merchant
merchants
mercosur
mercury
mercy
merde
merdeka
merdika
mere
merek
mereka
merenah
meresihan
merged
merger
merhatikeun
meri
meriah
meridian
meristem
merk
merkurius
merlukeun
merr
merremia
mersam
mertahankeun
merupakan
mesatkeun
mese
mesidah
mesin
mesir
mesiu
mesjid
meski
meskipun
mesopotamia
message
messages
messaging
messenger
messi
mestong
mesuji
met
meta
metabolism
metabolisme
metadata
metakeun
metal
metallic
metallica
metals
mete
meteorologi
meter
method
methods
metik
metoda
metode
metoklopramid
metot
metre
metres
metric
metro
metromini
metropolitan
meucci
meujeuhna
meukek
meulaboh
meulah
meuleum
meuli
meulit
meunang
meunangkeun
meunangna
meunasah
meuncit
meungkeut
meuntas
meuntasan
meunteun
meupeuskeun
meurah
meuraxa
meureubo
meureudu
meureun
mev
mew
mewarnai
mexican
mexico
meyer
mf
mfd
mg
mh
mheg
mhp
mhz
mi
mia
miami
miang
miara
mibanda
miboga
miceun
miceunan
michael
michel
michelin
michelle
michigan
mick
mickey
micro
micronesia
microsoft
microwave
micu
mid
midang
midangkeun
middle
midiyeum
midnight
midway
mie
miftahul
migas
migawe
might
migran
migrasi
migration
migunakeun
mihak
miharep
mihawk
miheulaan
mihrab
mijah
mijahkeun
mik
mika
mikabutuh
mikahayang
mikanyaah
mikanyaho
mikaresep
mikawanoh
mike
mikeun
mikhail
miki
mikir
mikiran
mikirkeun
mikonduktor
mikro
mikroba
mikrobiologi
mikrone
mikroorganisme
mikropon
mikroprose
mikroskop
mil
mila
milampah
milan
milangkala
mild
mile
miles
miliar
miligram
milih
milihan
milik
milime
milisi
militan
militants
military
milite
militer
milk
milky
mill
milla
millennium
miller
million
millions
milton
milu
miluan
milyar
mimbar
mime
mimi
mimilukeun
mimindengna
mimiti
mimitian
mimitina
mimosa
mimpi
min
mina
minahasa
minami
minang
minanga
minangka
minangkabau
minangkana
minantu
minantuna
minaret
minat
minato
mind
mindahkeun
mindanao
mindeng
mindengna
mine
mineng
mineral
minerals
ming
minggu
mingguan
mingkin
mingpin
minh
mini
miniatur
minimal
minimize
minimum
minin
mining
minister
ministry
minnesota
mino
minor
minoritas
minority
mint
minta
minton
mintonkeun
mintul
minuhan
minuman
minus
minute
minutes
minyak
minyakna
minzu
miocene
mipa
mipis
miquelon
mir
mira
mirabilis
mirah
mirat
mirig
miring
mirip
mirupa
mirza
mis
misa
misah
misahkeun
misal
misalna
misalnya
misan
mischocyttarus
misfe
misi
misil
misionaris
miskin
miss
missing
mission
mississippi
missouri
mistake
misteri
misterius
mit
mitchell
mite
mitembeyan
mitochondria
mitochondrial
mitohana
mitokondria
mitologi
mitos
mitra
miturut
mium
miwah
mix
mixed
miya
mizan
mizuki
mj
mk
ml
mly
mm
mma
mmf
mms
mn
mnctv
mnemonic
mns
mo
moal
mobil
mobile
mobiles
mobilitas
mobility
mobilna
moch
mochtar
moci
moda
modal
mode
model
modeling
models
modem
moderen
modern
modes
modified
modifikasi
modulasi
modulation
module
moe
moehamad
moesa
moglobin
mogok
mogot
mografi
moh
mohamad
mohamed
mohammad
mohammed
moisture
mojang
mojokerto
mokrasi
mokrat
mokratik
mokratis
mokuskeun
mol
molar
moldavia
moldenke
molding
moldova
mole
molecular
molecule
molecules
molekul
molekular
molekule
molekulna
molen
molo
moluska
mome
momen
moment
moments
momentum
mon
monaco
monako
monarch
monarchy
monarki
monas
mondok
mone
monetary
moneter
money
mongol
mongolia
monica
monitor
monitoring
monk
monkey
mono
monokotil
monoksida
monolit
monome
monopoles
monopoli
monopoly
monorail
monosakarida
monroe
monsoon
monster
monsters
monstrasi
montana
montasik
monte
montenegro
montgomery
month
monthly
months
montreal
monume
monumen
monye
monyet
mood
moon
moore
mopohokeun
mor
mora
moraceae
moral
morawa
more
morfin
morfologi
morgan
mori
moriyama
morning
moro
morocco
morris
morse
mortality
mosambik
moscow
moses
mosi
mosional
moskow
moskwa
most
mostly
mosul
mote
motegi
moterapi
mother
motif
motion
motivasi
moto
motogp
motong
motor
motorcycle
motorcycles
motors
motto
motu
mount
mountain
mountains
mouse
move
moved
movement
movements
moves
movie
movies
moving
moyan
moyang
moyok
mozambik
mozambique
mozart
mozilla
mp
mpak
mparan
mpati
mpc
mpe
mpec
mpeg
mph
mplaseme
mpo
mpore
mpr
mpu
mpv
mq
mr
mrebet
mri
mrna
mroduksi
mrt
ms
msc
msg
mt
mts
mtv
mu
muangtai
muara
muaro
muasal
muasalna
muat
muatan
muatanana
muawiyah
muay
muaŋ
mubah
mubarak
mubarok
much
muchtar
mucunghul
muda
mudah
mudik
muell
mufti
muga
mughal
mugi
mugia
muh
muhajir
muhajirin
muhamad
muhammad
muhammadiyah
muhara
muharam
muharram
muhyi
muhyiddin
mui
muja
mujahid
muji
muka
mukai
mukim
mukmin
muko
mukosa
mukti
mula
mulah
mulai
mulang
mulangkeun
mulanya
mulasara
mulia
mulih
muljana
mulk
muller
mulo
multi
multilayer
multime
multimedia
multipath
multiple
multiplexing
multiplication
multiplied
multiply
multise
multivariate
mulud
mulus
mulya
mulyana
mulyani
mulyasari
mulyo
mumbai
mumusuhan
mun
munara
muncang
muncul
munculna
munculnya
mundel
munding
mundinglaya
mundu
mundur
mundurna
mundut
mung
munggah
munggaran
munggaranana
munggaranna
munggel
mungguh
mungguhing
mungkas
mungkin
mungkur
mungkus
munich
municipal
municipalities
municipality
munisipalitas
munjul
munjungan
munte
mupus
mur
murag
murah
murangkalih
murata
murder
muria
muriang
murid
muridna
murni
murphy
murray
muru
murwa
mus
musa
musabab
musara
musawarah
muse
museum
museur
museurkeun
musharraf
mushroom
mushrooms
musi
musibah
music
musica
musical
musician
musieum
musik
musikal
musikna
musim
musisi
musium
muslim
muslimah
muslimat
muslimin
muslims
musnah
muson
musppanitra
mussolini
must
mustafa
mustahil
mustapa
mustappa
mustika
mustofa
musuh
musuhna
musyawarah
musyrik
mut
mutahir
mutasi
muter
muterkeun
muterna
muththalib
mutiara
mutlak
mutlakna
mutu
mutual
mutually
mutuskeun
muzabanah
mv
mvp
mw
mx
my
myanmar
mye
myeon
mymensingh
myrtaceae
mystery
myth
mythology
myths
mz
n
na
nabara
nabati
nabawi
nabeuh
nabi
nabla
nabrak
nabung
nacional
nad
nada
nadana
nadia
nadjib
nae
naek
nafas
nafsu
naga
nagamasa
nagan
nagano
nagara
nagarakretagama
nagarana
nagari
nagasaki
nagasari
nage
nagorno
nagoya
nagrak
nagre
nagri
nah
naha
nahan
nahdlatul
nahun
naik
nainggolan
nairobi
naive
najan
najd
najis
najong
najwa
nak
naka
nakagawa
nakasendo
nakatsugawa
naked
nakhchivan
naklukeun
naklukkeun
nakol
nakula
nal
nalian
nalika
nalin
nalingakeun
nalti
nalukeun
nalukkeun
nalungtik
naluri
nam
nama
naman
namatkeun
nambah
nambahan
nambahkeun
nambahna
nambo
namdaemun
name
named
namely
names
nami
namibia
namina
naming
namo
namorambe
nampa
nampi
nampik
nampilkeun
nampung
namun
namung
nan
nana
nanang
nanaon
nanas
nancebkeun
nancy
nanda
nandaan
nandakeun
nandangan
nandasa
nandatangan
nandatanganan
nande
nandingan
nang
nanggar
nanggroe
nanggung
nanging
nangka
nangkep
nangkeup
nangkub
nangtang
nangtayungan
nangtoskeun
nangtukeun
nangtung
nanjak
nanjeur
nanjeurkeun
nanjing
nankai
nano
nanome
nanotechnology
nantang
nanus
nanya
nanyakeun
naoh
naon
napak
napas
napati
napel
naphazoline
naples
naplok
napole
napoleon
napoli
napsu
nara
narada
narajang
naraka
narapel
narasi
naratas
naratif
nare
nari
narik
narima
naringgul
nario
narita
narjamahkeun
narkoba
narkotika
narrow
narrowband
narumonda
naruto
nas
nasa
nasab
nasal
nascar
nasdaq
nase
nash
nashville
nasi
nasib
nasional
nasionalis
nasionalisme
nasir
naskah
naskahna
nasr
nasrani
nassau
nasser
nasution
nat
nata
nataan
natal
natambaan
natar
natas
nation
national
nationalism
nations
native
nato
nator
natrium
natsir
natuan
natural
naturalis
naturally
nature
nauli
naungan
nauru
naval
navbox
navchild
navframe
navigasi
navigation
navigator
navtoggle
navy
nawarkeun
nawawi
nawi
nayaga
nazi
nb
nba
nbal
nbc
nc
nca
ncaa
ncana
ncang
nce
nchen
ncia
ncipe
ncok
ncos
ncrang
nd
nda
ndah
ndahan
ndahna
ndaris
ndasikeun
nde
ndemik
nden
ndensi
nder
nderal
ndez
ndo
ndok
ndokrin
ndol
ndos
ndose
ndra
ndral
ndro
ndse
ndum
ne
near
nebula
necessarily
necessary
neck
neda
nederlandsch
nedunan
need
needed
needle
needs
nees
neg
negara
negatif
negatip
negative
negeri
negeskeun
neglasari
negorij
negotiations
negrak
negri
neguh
neil
neither
neken
nekenkeun
nelah
nelasan
nelepon
nelson
nemasing
nembak
nembang
nembangkeun
nembe
nembongkeun
nembrak
nembus
nempatan
nempatkeun
nempo
nempokeun
nempu
nen
nendeun
nengah
nengetan
nentang
neo
nepal
nepenthaceae
nepenthes
nepi
nepika
nepikeun
neptunus
nepungan
nera
neraca
nerangkeun
nerapkeun
neraskeun
nerbitkeun
nerekab
nergi
nergina
nero
nerus
neruskeun
nes
net
netep
netepkeun
netherlands
netik
netral
network
networking
networks
neu
neukteuk
neul
neuleum
neuleuman
neumann
neundeun
neunggar
neunggeul
neuroblastoma
neuron
neutral
neutron
nevada
never
new
newer
newfoundland
newly
news
newsletter
newspaper
newspapers
newton
newtonian
next
nezue
nf
ng
nga
ngababarikeun
ngababarkeun
ngabage
ngabagi
ngabagikeun
ngabahas
ngabahayakeun
ngabahyakeun
ngabales
ngabalukarkeun
ngabandingkeun
ngabangkitkeun
ngabangun
ngabantah
ngabantosan
ngabantu
ngabantuan
ngabasmi
ngabatalkeun
ngabdi
ngabe
ngabebek
ngabedakeun
ngabehi
ngabejaan
ngabela
ngabeledug
ngaben
ngabendung
ngabenerkeun
ngabentuk
ngabersihan
ngabersihkeun
ngabeuleum
ngabeunangkeun
ngabeungkeut
ngabiayaan
ngabiluk
ngabina
ngabingungkeun
ngabogaan
ngabongkar
ngabubarkeun
ngabudidayakeun
ngabuka
ngabuktikeun
ngabungkus
ngabutuhkeun
ngadadak
ngadadarkeun
ngadagangkeun
ngadagoan
ngadahar
ngadaharna
ngadahup
ngadalikeun
ngadamel
ngadangu
ngadangukeun
ngadaptar
ngadaptarkeun
ngadarat
ngadatangan
ngadatangkeun
ngadawuh
ngade
ngadeg
ngadegkeun
ngadegna
ngadesek
ngadete
ngadeukeutan
ngadidik
ngadirikeun
ngadominasi
ngadon
ngadonge
ngadopsi
ngadorong
ngadu
ngaduga
ngadukung
ngadumuk
ngaduruk
ngae
ngagabung
ngagabungkeun
ngagaduhan
ngagali
ngagambar
ngagambarkeun
ngagampangkeun
ngagancangkeun
ngaganggu
ngaganti
ngagantikeun
ngagantung
ngagantungkeun
ngagarap
ngagaringkeun
ngage
ngagede
ngagem
ngagentos
ngagentoskeun
ngagerakeun
ngagerakkeun
ngagero
ngageroan
ngagiling
ngagiring
ngagolak
ngagolongkeun
ngagore
ngagorombol
ngaguar
ngagulingkeun
ngagulung
ngagunakeun
ngagunduk
ngagurilap
ngahade
ngahadiran
ngahaja
ngahakan
ngahakanan
ngahalangan
ngahambat
ngahampura
ngahapus
ngaharepkeun
ngahargaan
ngahartikeun
ngahasil
ngahasilkeun
ngahe
ngahibur
ngahiji
ngahijikeun
ngahijina
ngahina
ngahirupkeun
ngahontal
ngahormat
ngahormatan
ngahubungkeun
ngahudang
ngahudangkeun
ngahukum
ngahuma
ngahurungkeun
ngahususkeun
ngaide
ngailhaman
ngait
ngajabat
ngajadi
ngajadikeun
ngajaga
ngajagaan
ngajajah
ngajajar
ngajak
ngajalanan
ngajalankeun
ngajalin
ngajamin
ngajangge
ngajantenkeun
ngajar
ngajarkeun
ngajauhan
ngajauhkeun
ngajawab
ngaje
ngajelaskeun
ngajelegur
ngajendul
ngaji
ngajieun
ngajorag
ngajual
ngajugjug
ngajukeun
ngajuru
ngajurung
ngakan
ngakibatkeun
ngaklaim
ngaku
ngakuan
ngakukeun
ngakut
ngala
ngalaan
ngalade
ngalahirkeun
ngalakonan
ngalaksa
ngalaksanakeun
ngalakukeun
ngalalakonkeun
ngalalana
ngalaman
ngalamar
ngalambangkeun
ngalancarkeun
ngalanggar
ngalangkungan
ngalanglang
ngalanjutkeun
ngalantarankeun
ngalap
ngalaporkeun
ngalarang
ngalarapkeun
ngalatih
ngalawan
ngalawanan
ngalayanan
ngalayang
ngale
ngalegaan
ngalegakeun
ngalemahkeun
ngalengkepan
ngaleukeunan
ngaleungit
ngaleungitkeun
ngaleupaskeun
ngaleutikan
ngaleuwihan
ngaleyurkeun
ngali
ngalibatkeun
ngalibetkeun
ngalih
ngalihkeun
ngalindungan
ngalingkung
ngalir
ngalirkeun
ngaliwat
ngaliwatan
ngalobaan
ngalogat
ngalongok
ngaluarkeun
ngalukis
ngalumakukeun
ngalunasan
ngaluncurkeun
ngalungguhan
ngalungkeun
ngaluyukeun
ngamajukeun
ngamalir
ngamalkeun
ngamangpaatkeun
ngamangsa
ngamankeun
ngambah
ngambang
ngambek
ngambeu
ngambur
ngamekarkeun
ngamimitian
ngaminimalkeun
ngampar
ngamprah
ngamuara
ngamuat
ngamumule
ngamungkinkeun
ngan
nganalisis
ngancam
ngancem
ngancurkeun
ngandeg
ngandelkeun
ngandung
ngane
ngang
nganggap
ngangge
nganggep
nganggeuskeun
nganggo
ngangkat
ngangkut
ngangon
nganjang
nganjrek
nganjuk
ngante
ngantep
ngantepkeun
nganteur
nganteurkeun
ngantunkeun
nganut
nganyahokeun
nganyatakeun
ngaos
ngapak
ngaproduksi
ngapung
ngapungkeun
ngaput
ngarah
ngarahkeun
ngaraih
ngaraketkeun
ngarakit
ngarambat
ngarambatkeun
ngarambe
ngaran
ngarana
ngaranan
ngarancang
ngarandapan
ngarang
ngaranggeuy
ngarangkep
ngarangrangan
ngarangsang
ngaranna
ngarantau
ngararancang
ngaras
ngarasa
ngarasakeun
ngaratakeun
ngarawat
ngarayakeun
ngarayap
ngare
ngarebut
ngarecah
ngarekahan
ngarekahkeun
ngarekam
ngarencanakeun
ngarengsekeun
ngarep
ngaresmikeun
ngareuah
ngareuy
ngariksa
ngarilis
ngariung
ngariwayatkeun
ngarobah
ngarobih
ngarojong
ngaroko
ngaronjat
ngaronjatkeun
ngaronjatna
ngarope
ngarora
ngarti
ngartikeun
ngarubuhkeun
ngarugikeun
ngarugrugkeun
ngarujuk
ngaruksak
ngarumpul
ngarumuskeun
ngarungkun
ngaruntuy
ngarupakeun
ngarupikeun
ngarurug
ngarusak
ngasah
ngasahkeun
ngasakan
ngasilkeun
ngasuh
ngasupan
ngasupkeun
ngatik
ngatur
ngawadahan
ngawajibkeun
ngawakilan
ngawaler
ngawang
ngawangun
ngawanohkeun
ngawariskeun
ngawarnaan
ngawas
ngawasa
ngawasaan
ngawaskeun
ngawates
ngawatesan
ngawe
ngawengku
ngawi
ngawih
ngawin
ngawinkeun
ngawitan
ngawujud
ngawujudkeun
ngawula
ngawulang
ngawuluku
ngayakeun
ngayakinkeun
ngde
nge
ngedalkeun
ngeja
ngeling
ngembang
ngembangkeun
ngembangna
ngenaan
ngenalkeun
ngendag
ngendalikeun
ngendog
ngengat
ngepung
ngeueum
ngeun
ngeunaan
ngeunah
ngeunaheun
ngeundeuk
ngeureunan
ngeureunkeun
ngeusi
ngeusian
ngeuyeuban
ngeuyeuk
nggada
nggal
ngge
nghap
ngibing
ngider
ngidinan
ngidul
ngigel
ngijih
ngijinan
ngijinkeun
ngiket
ngilu
ngiluan
ngimpi
nging
nginget
ngingetan
ngingetkeun
ngingkeun
ngingu
nginjeum
nginum
nginumna
ngira
ngirangan
ngirim
ngirimkan
ngirimkeun
ngiring
ngiringan
ngirut
ngising
ngistre
ngitung
ngiuhan
ngka
ngkadan
ngkah
ngke
ngkeun
ngking
ngkob
ngkok
ngkol
ngkolan
ngkong
ngna
ngo
ngobatan
ngobrol
ngocor
ngojay
ngokolakeun
ngolah
ngolahna
ngole
ngome
ngomong
ngomongkeun
ngompa
ngondang
ngonfirmasi
ngonsumsi
ngontrol
ngoperasikeun
ngora
ngorana
ngorbankeun
ngorbit
ngore
ngoyagkeun
ngre
ngritik
ngrowo
ngse
ngsin
ngu
nguap
nguatan
nguatkeun
ngubaran
ngubur
ngucapkeun
ngucapkeunna
ngudag
nguin
nguji
ngukur
ngukut
ngulang
ngulik
ngulon
ngulub
ngumbah
ngumbara
ngumpul
ngumpulkeun
ngumumkeun
ngunduh
ngundurkeun
ngungkabkeun
ngungkapkeun
ngungkulan
ngungsi
nguntungkeun
ngupayakeun
ngurah
ngurangan
nguriling
ngurilingan
ngurus
nguruskeun
ngusahakeun
ngusap
nguseup
ngusir
ngusulkeun
ngutamakeun
ngutus
nh
nha
nhk
ni
nia
niaga
nias
niat
nibong
nibung
nica
nicaragua
niccolo
nice
nicholas
nick
nickelodeon
nicki
nickname
nicky
nico
nicolas
nicole
nie
nietzsche
nieun
nige
niger
nigeria
night
nights
nightsa
nigra
nih
nihon
nihuta
niigata
niiskeun
nik
nika
nikah
nikahan
nikahkeun
nikahna
nikakeun
nikaragua
nike
nikel
nikita
nikmat
nikola
nikolai
nikotin
nil
nila
nilai
nilalanin
nilam
nile
nilem
nilemkeun
nilep
niley
nilik
nilon
nim
nimbang
nimbulkeun
nimpah
nimu
nimukeun
nin
nina
nincak
nine
nineteenth
ning
ningal
ningali
ningalikeun
ninggali
ninggalkeun
ninggang
ningitis
ningkat
ningkatkeun
ningkatna
nini
ninina
ninja
nintendo
ninth
ninun
nior
nipah
nipis
nippon
nira
nirkabel
niron
nirsuara
niru
nirvana
nis
nisa
nisam
nisbah
nishi
nisia
nisilin
niskala
nissan
nist
nistan
nitah
nite
nitis
nitrat
nitroge
nitrogen
niue
nium
niup
niwaskeun
nixon
nj
nje
njing
njo
njoan
nk
nkeun
nkeunana
nklave
nkripsi
nkyou
nl
nm
nmark
nmt
nn
nna
no
noah
nobe
nobel
noble
nobunaga
node
nodeu
nodus
noe
noel
noer
noflip
nois
noise
nokia
nokturnal
nol
nolak
nom
nome
nomena
nomenclature
nomer
nomerna
nominal
nominasi
nomor
non
nona
nonaktip
none
nong
nongton
nonjol
nonlogam
nonoman
nonpolar
nonton
noor
nope
nopember
nor
nord
nordic
nordik
nore
norfolk
norland
norma
normal
normally
normalna
norman
normandia
noron
norse
north
northe
northern
northwest
northwestern
norton
norway
norwe
norwegia
norwegian
nose
nosin
not
notable
notably
notaris
notasi
notation
note
notebook
noted
notes
nothing
notice
notion
notoc
notog
nov
nova
novasi
nove
novel
novelis
november
now
nozoikum
nozomi
np
npasar
npc
npsn
nr
ns
nsa
nsasi
nsi
nsia
nsial
nsif
nsik
nsiklope
nsin
nsina
nsional
nsitas
nsitif
nsitip
nsor
nsr
nss
nsus
nt
nta
ntah
ntahan
ntahanana
ntahanna
ntahannana
ntahkeun
ntahna
ntal
ntang
ntangan
ntar
ntase
ntasi
ntasikeun
nte
nten
nter
nth
nti
ntial
ntifikasi
ntik
ntikasi
ntime
ntina
ntitas
ntog
ntra
ntral
ntrasi
ntre
ntri
ntrik
ntripe
ntrisitas
ntropi
ntsc
ntt
ntum
nu
nuansa
nuar
nuban
nucle
nuclear
nuclei
nucleus
nuduh
nuduhkeun
nugini
nugraha
nugroho
nuh
nuhun
nuju
nujul
nukle
nukleus
nuklir
nulis
nuliskeun
nulisna
null
nulungan
nuluykeun
number
numbers
numbu
numbukeun
numeral
numerals
numerical
numerik
numerous
numpak
numpang
numpangkeun
numpes
numpuk
numutkeun
numuwuhkeun
nun
nunda
nunggal
nunggang
nunggu
nungguan
nungkulan
nungtun
nungtut
nunjuk
nunjukkeun
nunjul
nuno
nunyai
nur
nurani
nurdin
nurhaliza
nursal
nursing
nurul
nurun
nurunkeun
nurunna
nurussalam
nurut
nurutan
nurutkeun
nus
nusa
nusantara
nusayr
nut
nutrient
nutrisi
nutrition
nutu
nutup
nutupan
nuturkeun
nv
nx
ny
nya
nyaah
nyaangan
nyaba
nyababkeun
nyabak
nyabit
nyabut
nyadap
nyadar
nyadiakeun
nyae
nyaeta
nyagak
nyageurkeun
nyaho
nyai
nyaimbangkeun
nyak
nyaksian
nyalametkeun
nyalin
nyalindung
nyalira
nyalonkeun
nyalukan
nyalurkeun
nyaluyukeun
nyambung
nyambungkeun
nyambut
nyampak
nyamplung
nyampur
nyampurkeun
nyampurnakeun
nyamur
nyandak
nyandi
nyandra
nyandu
nyanghareup
nyanghareupan
nyangka
nyangkaruk
nyangking
nyanyi
nyanyian
nyanyikeun
nyarankeun
nyaring
nyarios
nyarioskeun
nyarita
nyaritakeun
nyaruaan
nyaruakeun
nyarupaan
nyata
nyatakeun
nyatana
nyatet
nyatetkeun
nyatujuan
nyauran
nyawa
nyawang
nyawe
nyayagakeun
nyayagikeun
nyayang
nyayogikeun
nye
nyebabkeun
nyebar
nyebarkeun
nyebarna
nyebat
nyebatkeun
nyebut
nyebutkeun
nyebutna
nyedot
nyegah
nyekel
nyekelan
nyembah
nyepeng
nyerah
nyerahkeun
nyerang
nyerat
nyerbu
nyerek
nyerep
nyeri
nyerna
nyetak
nyete
nyeureud
nyeuri
nyeuseup
nyi
nyiap
nyiapkeun
nyiar
nyiarkeun
nyicingan
nyideraan
nyieun
nyieuna
nyieunna
nyiksa
nyiku
nyilakakeun
nyileungleum
nyileungleuman
nyimbolkeun
nyimpang
nyimpen
nyimpulkeun
nyindekkeun
nyingkahan
nyingkahkeun
nyingkirkeun
nyingsieunan
nyinte
nyipta
nyiptakeun
nyirikeun
nyirip
nyirorot
nyiru
nyiruan
nyitak
nylon
nyoba
nyobaan
nyobian
nyoco
nyoko
nyokot
nyoman
nyondong
nyongcolang
nyonya
nyorang
nyorangan
nyorong
nyuburkeun
nyucikeun
nyugemakeun
nyukcruk
nyukupan
nyulik
nyumbang
nyumbangkeun
nyumebabkeun
nyumebarkeun
nyumponan
nyumput
nyumputkeun
nyungcung
nyupiran
nyuprih
nyusu
nyusuan
nyusul
nyusun
nyutat
nz
nze
nzim
o
oa
oak
oasis
ob
obah
obama
obat
obatan
obe
obeng
obje
object
objective
objects
objek
objektif
oblast
obor
obrolan
observable
observasi
observation
observations
observatorium
observatory
observe
observed
observer
observers
observing
obtain
obtained
obvious
obye
obyek
oc
occasionally
occupation
occupied
occur
occurred
occurring
occurs
oce
ocean
ocellatus
ochi
oclc
oct
octal
october
od
oda
odakyu
odal
odd
odds
ode
odyssey
oe
oecd
of
off
offer
offered
offering
offers
office
officer
offices
official
officially
officials
offset
offshore
offspring
ofisial
ofisika
often
og
ogaki
ogan
ogasawara
oge
ografi
ografis
ografisna
ographic
ographical
ography
ograpis
oh
ohara
ohio
ohm
oil
ois
ojok
ok
okada
okayama
okimia
okinawa
oklahoma
oksalat
oksi
oksida
oksidasi
oksidatif
oksige
oksigen
oksitosin
oktober
ol
olah
olahan
olahraga
olahragawan
old
older
oldest
ole
oleh
oleosa
olga
oli
olimpiade
olimpiadeu
olitik
olive
oliver
olivia
olo
olof
olog
ologi
ological
ologis
ology
olympic
olympics
om
oman
omar
ombak
ome
omega
ometri
ometric
ometry
omnivora
omong
omongan
on
onan
onang
once
oncom
ondangan
onde
onder
onderdeel
one
ones
oneworld
ong
ongan
ongjo
ongkos
ongoing
oning
onjoy
online
only
ono
onohazumba
onolalu
ons
onta
ontario
onthisday
onto
ontohod
ontologi
oo
oost
op
opak
opat
opati
opatra
opec
open
opened
opening
opens
opera
operasi
operasina
operasional
operate
operated
operates
operating
operation
operational
operations
operator
operatorname
operators
opieun
opini
opinion
ople
oples
oposisi
opportunity
opposed
opposite
opposition
oprasi
oprote
optical
optics
optik
optimal
optimization
optimus
option
or
ora
orahili
oral
orang
orange
orangutan
oranye
oranyeu
orat
oray
orayan
orbit
orbital
orbitna
orbitnya
orbits
orchestra
orde
order
ordered
orders
ordinal
ordinary
ordo
ordovisium
ore
oregon
orem
orema
orems
oretical
org
organ
organe
organic
organik
organisasi
organisation
organism
organisme
organismeu
organisms
organization
organizations
organized
organs
orge
orgia
ori
oricon
orie
orient
oriental
orientalis
orientasi
orientation
oriented
ories
oriflame
origin
original
originally
originating
origins
oritis
orke
orkes
orleans
orname
oro
orochimaru
orok
orokna
orologi
orthodox
orthogonal
ortodoks
ortografi
ortyxelos
ory
oryza
os
osaka
osbourne
oscar
osce
oscillator
ose
osi
osilasi
oslo
osok
osse
ost
oste
osteoporosis
ot
ota
otak
otan
ote
other
others
otherwise
otida
oto
otoko
otomatis
otomotif
otonom
otonomi
otoritas
otot
otto
ottoman
ou
oul
our
ous
ously
out
outcome
outcomes
outer
outgassing
outline
output
outre
outside
ov
ova
oval
ovarium
oven
over
overall
overhe
overline
overnight
overview
ovum
owari
owen
owl
own
owned
owner
ownership
ox
oxford
oxide
oxygen
oy
oyo
oyong
oz
ozoikum
ozon
ozzy
p
pa
paan
paantel
pabaru
pabe
pabedilan
pabeubeurang
pabeungeutan
pabinihan
pablo
pabrik
pabrikan
pabuaran
pabukon
pacabangan
pacampur
pacar
pace
paceklik
pacet
pacific
pacikrak
pacioli
pacitan
pack
package
packages
packet
packets
pacu
pacul
pada
padagang
padagangan
padahal
padaharan
padahe
padakembang
padalangan
padalarang
padalisan
padamelan
padang
padangsidimpuan
padarincang
padasuka
padat
padding
pade
pademangan
padet
padetan
padeukeut
padi
padika
padjadjaran
padoman
paduan
padudan
paduka
paduli
padumuk
padumukan
padumukna
padungdengan
pae
paederia
paeh
pagade
pagaden
paganini
pagar
pagaran
pagaruyung
pagawe
pagawean
page
pageh
pagelaran
pagentan
pager
pagerageung
pagerakan
pages
pageuh
pagi
paging
pago
pagulat
paguneman
pagunungan
paguron
paguyuban
pahae
pahala
paham
pahang
pahareup
paheut
pahili
pahing
pahlawan
pahwalan
pai
paid
paimahan
pain
painter
pair
pairs
pais
pait
pajabat
pajagan
pajajaran
pajak
pajang
pajangjian
pajaratan
pajauh
pajeg
pajeulit
pajoang
pajoangan
pajuang
pajuangan
pajumlahan
pak
pakait
pakaitna
pakakas
pakam
pakampungan
pakan
pakar
pakarang
pakarangan
pakasaban
pakasabanana
pakbola
pake
pakebonan
pakeman
pakenjeng
paket
pakeun
pakidulan
pakis
pakistan
pakistani
pakkat
pakotaan
pakpak
paksa
paksi
pakta
paktor
paku
pakuan
pakuat
pakumpulan
pal
pala
palabuan
palabuhan
palabuhanratu
palace
palagan
palahlar
palajaran
palaksanaan
palaku
palakuna
palang
palanggan
palanggaran
palangka
palapa
palapah
palarangan
palas
palasah
palasari
palastik
palastra
palataran
palatih
palatihan
palatum
palaturan
palau
palaut
palawak
palawan
palawanan
palawangan
palawija
palayanan
palayaran
pale
palebah
palem
palembang
palengkep
palestina
palestine
palestinian
palgrave
pali
palid
palih
palimanan
palindung
paling
palipi
pallas
pallawa
palm
palma
palme
palmerah
palmyra
paloh
palsu
paltot
palu
palukis
paluncuran
palung
palupuh
palustris
pamaca
pamadegan
pamae
pamaen
pamahaman
pamaheg
pamajegan
pamajikan
pamajikanana
pamajikanna
pamakaman
pamake
pamakean
pamali
pamanasan
pamancar
pamandangan
pamandian
pamanggih
pamanggihan
pamanggihna
pamangku
pamangpaatan
pamangsa
pamanna
pamanukan
pamare
pamarekan
pamarentah
pamarentahan
pamarican
pamariksaan
pamasangan
pamasaran
pamass
pamasukan
pamatang
pamatuk
pamatukna
pamawa
pamayang
pambagian
pambekuan
pame
pamedal
pameget
pamekar
pamekaran
pamenang
pameran
pameunang
pameungpeuk
pameuntasan
pameunteu
pami
pamiarsa
pamiceunan
pamijahan
pamikiran
pamilih
pamilihan
pamilik
pamilon
pamilu
pamimpin
pamindahan
pamingpin
pamingpinna
pamintonan
pamisah
pamisahan
pamoha
pamohalan
pamor
pamoyanan
pamrograman
pamrose
pamuda
pamujaan
pamuka
pamukaan
pamukiman
pamulihan
pamundut
pamungkas
pamungkasna
pamungkus
pamupus
pamustunganana
pamustunganna
pamuter
pan
panabeuh
panah
panahan
panai
panakawan
panakol
panaksir
panaliti
panalitian
panalukan
panalungtik
panalungtikan
panalungtikanana
panalungtikanna
panama
panambah
panambahan
panambang
panampilan
panampungan
pananda
panang
panangan
pananggalan
panangkaran
panangtayungan
panangtu
panangtuan
pananjung
pananya
panarajang
panarajangan
panaratas
panari
panarima
panarimaan
panarjamah
panarukan
panas
panasaran
panase
panaskeun
panasna
panasonic
panata
panawangan
panca
pancakaki
pancala
pancalang
pancaniti
pancar
pancaran
pancasila
pancatengah
pance
panceg
panci
pancoran
pancur
pancuran
panda
pandan
pandang
pandangan
pandanus
pandawa
pande
pandeglang
pandemi
pandeuri
pandita
pandrah
pandu
panduan
panduduk
pane
panei
panel
panelasan
panembahan
panembang
panempo
panen
panengah
panerapan
panerbangan
panerus
pang
panga
pangabisa
pangabisana
pangabutuh
pangacara
pangadeg
pangadegan
pangadilan
pangagem
pangageungna
pangagung
pangahirna
pangajar
pangajaran
pangaje
pangajian
pangakuan
pangalaman
pangale
pangalengan
pangalusna
pangamis
pangampura
pangan
pangancur
pangandaran
pangangkut
pangante
panganten
panganteur
panganut
panganyarna
pangaping
pangapungan
pangaranan
pangarang
pangaresep
pangaribuan
pangaruh
pangaruhna
pangasingan
pangasuh
pangatikan
pangatur
pangaturan
pangauban
pangawakan
pangawakanna
pangawal
pangawas
pangawasa
pangawasaan
pangawasan
pangawe
pangaweruh
pangbadagna
pangbage
pangbalanjaan
pangbante
pangbarontak
pangbarontakan
pangbasajanna
pangbe
pangbeungharna
pangdeukeutna
pange
pangebom
pangeboman
pangembangan
pangenan
pangepungan
pangeran
pangeureunan
pangeusi
pangeusina
panggampangna
panggancangna
panggang
pangganti
pangge
panggede
panggero
panggih
panggilan
panggore
pangguna
panggunaan
panggung
panghade
panghalang
panghandapna
pangharepan
panghareupna
panghargaan
panghasil
panghasilan
pangheubeulna
pangheulana
panghormatan
panghubung
panghulu
pangibing
pangilaharna
pangimeutan
panginget
panginten
pangirim
pangiriman
pangiringna
pangiuhan
pangjajah
pangjajahan
pangjalajah
pangjangkungna
pangjauhna
pangjerona
pangkakoncarana
pangkal
pangkalan
pangkale
pangkasohorna
pangkat
pangkawentarna
pangkidulna
pangkolotna
pangkuatna
pangkulonna
pangkur
panglade
panglawungan
pangle
panglegana
panglengkep
panglengkepna
pangleutikna
pangleyur
panglilana
panglima
panglobana
pangluarna
pangluhurna
pangmahalna
pangmimitina
pangmindengna
pangna
pangngorana
pangobatan
pangolahan
pangorana
pangorbanan
pangpadetna
pangpangna
pangpanjangna
pangparahna
pangpentingna
pangperangan
pangpondokna
pangpopule
pangpunjulna
pangrango
pangre
pangrojong
pangrungu
pangsae
pangsaeutikna
pangsibukna
pangsiun
pangtohagana
panguat
pangubaran
pangukur
pangukuran
pangumumna
pangungsi
pangungsian
pangunjung
panguragan
pangurangan
pangururan
pangurus
pangusaha
pangwangunan
pangwe
paniagaan
paniis
panimu
panimuan
paninggalan
paningkatan
panite
panitia
panjaga
panjajah
panjajahan
panjalu
panjang
panjangna
panjara
panji
panjualan
pankre
panolakan
panon
panongton
panonna
panonpoe
panorama
panribuan
pantai
pantan
pante
panteraja
pantes
panthera
panti
panto
pantomim
panton
pantona
pantrangan
pantulan
pantun
pantura
panuju
panulis
panulisan
panumbangan
panumpang
panumpangna
panungtung
panungtungan
panunjuk
panutup
panutupan
panyabab
panyabungan
panyadia
panyair
panyajak
panyakit
panyakitna
panyalindungan
panyambung
panyang
panyangga
panyanyi
panyatur
panyaturna
panyawat
panyawe
panye
panyebaran
panyerang
panyerangan
panyiaran
panyicingan
panyimpen
panyimpenan
panyindangan
panyingkiran
panyipta
panyitak
panyumputan
panyungsi
panyusun
paolo
papa
papacangan
papada
papae
papais
papak
papake
papalik
papan
papandayan
papanggih
papanggihan
papantunan
paparan
paparikan
papasan
papasangan
papase
papasingan
papasiran
papatah
papatong
paper
paperback
papers
papisah
papua
par
para
parab
parabola
parabot
paradaban
parade
paradise
paradoks
paradox
parae
paragi
paraguay
parah
parahiangan
parahiyangan
parahu
parahyangan
parairan
paraji
parakan
parako
parale
paralisis
parallel
paralysis
paramadina
parame
parameter
paramita
paramount
paran
parang
paranginan
parangkat
paranjang
parantau
parantauan
paranti
parantos
parapat
pararaton
parase
parasi
parasit
parasurama
parawan
parawatan
paray
parayaan
parbuluan
parcel
pardamean
pardasuka
pardomuan
pardus
pare
parebut
parebutan
pareng
parent
parentah
pareum
parfum
pari
pariaman
paribasa
parigel
parigi
parikesit
paringkat
paripolah
paripolahna
paripurna
paris
parit
pariwara
pariwisata
park
parker
parkinson
parkir
parks
parleme
parlemen
parliament
parliamentary
parlilitan
parmonangan
parna
paro
parobahan
parobihan
parogelap
paroman
paron
parondok
parramatta
pars
parsi
parsial
part
partai
parte
partei
partey
partial
partially
particle
particles
particular
particularly
parties
partikel
partisipasi
partition
partly
partner
partners
partnership
parts
party
paru
parud
parudan
parujar
parung
parunggu
parungkuda
parusahaan
parutan
parwa
pas
pasagi
pasai
pasaka
pasakan
pasakutuan
pasal
pasalingsingan
pasamakmuran
pasamoan
pasang
pasangan
pasanganna
pasanggiri
pasanggrahan
pasantre
pasantren
pasar
pasaran
pasaribu
pasarikatan
pasarturi
pasaruaan
pasatujuan
pasawahan
pasawat
pasca
pascal
pascasarjana
pase
paseh
paselang
paseuk
pasha
pasi
pasie
pasien
pasif
pasifik
pasilangan
pasim
pasing
pasingareup
pasini
pasinyalan
pasipatan
pasipik
pasir
pasirjambu
pasirwangi
pasisian
paskah
pasna
pasoendan
pasokan
pasosore
paspor
pasrah
pass
passage
passed
passenger
passengers
passes
passing
past
pasta
pasteur
pasti
pastikeun
pastina
pastun
pasualan
pasukan
pasukanana
pasukanna
pasundan
pasupati
pasuruan
pasusulan
pat
patah
patahan
patahanan
patali
patalian
patalimarga
patalina
patandingan
patani
patapa
patapaan
patarosan
pataruman
patarung
patarungan
patas
patati
pate
patelak
patempatan
patempuran
patengahan
patent
patepung
paternakan
path
paths
pathway
pathways
pati
patient
patients
patih
patik
patilasan
patimah
pating
patinju
patitis
patlot
patoge
patok
patokan
patologi
patria
patricia
patrick
patriot
patrol
pattern
patterns
patterson
pattimura
patualangan
patugas
patuh
patukang
patukeur
patula
patumpang
patung
patut
pauh
paul
paula
pauling
paulo
paulus
paus
pausahaan
paviliun
pawakilan
pawangun
pawangunan
pawarna
pawates
pawayangan
pawe
pawindan
pawon
pay
paya
payed
pays
payu
payudara
payun
payuneun
payung
pb
pbb
pbs
pc
pcm
pcr
pcs
pd
pdb
pdf
pdi
pdp
pdri
pe
pea
peace
peak
pearl
pearson
peb
pebruari
pecah
pecahan
pecel
pecinta
pedah
pedalaman
pedang
pedaran
pedes
pediatric
pedir
pedoman
pedro
pedrosa
peer
pegadungan
pegagan
pegajahan
pegangsaan
pegasing
pegat
pegatna
pegon
pegunungan
pejabat
pejawaran
pejuang
peka
pekalongan
pekan
pekanbaru
pekerja
pekerjaan
peking
pekunce
pekurun
pelabuhan
pelafalan
pelajar
pelajaran
pelak
pelaksana
pelaksanaan
pelanggan
pelangi
pelarut
pelat
pelatih
pelatihan
pelawak
pelawan
pelayanan
pelayaran
pelayo
pele
peledak
pelepat
pelesir
pelestarian
pelindung
pelita
pelog
pelopor
peluang
pelukis
peluncuran
pelung
pemain
pemalang
pemasaran
pematang
pematangsiantar
pemayung
pembagian
pembahasan
pembakaran
pembalap
pembangkit
pembangunan
pembantu
pembawa
pembayaran
pembayun
pembe
pembela
pembelajaran
pembentukan
pemberdayaan
pemberhentian
pemberian
pemberontak
pemberontakan
pembina
pembinaan
pembuatan
pembukaan
pembuluh
pembunuhan
pemda
pemekaran
pemeran
pemerintah
pemerintahan
pemikiran
pemilihan
pemilu
pemuda
pemwangunan
pen
pena
penakluk
penampilan
penanaman
penang
penanggalan
penangsang
penari
penasihat
penataan
penataran
penawar
penca
pencahar
pencak
pence
pencegahan
pencernaan
pencipta
penclon
penclut
pendaki
pendakian
pendapat
pendapatan
pendaptaran
pendarahan
pendatang
pende
pendek
pendekatan
penderita
pendet
pendeta
pendidikan
pendiri
pendirian
pendopo
penduduk
pendudukan
pendudukna
pendukung
pendul
penebar
penegak
peneliti
penelitian
penemuan
penengahan
penerangan
penerbangan
penerbit
penerbitan
penerjemah
penerus
pengabuan
pengacara
pengadilan
pengajar
pengajaran
pengalaman
pengamat
pengamatan
pengantar
pengantin
pengaruh
pengawas
pengawasan
pengelola
pengelolaan
pengeluaran
pengembangan
pengendalian
pengertian
pengetahuan
penggabungan
penggalang
penggawa
penggilingan
penggunaan
penghargaan
penghasil
pengikut
pengiriman
pengkajian
pengker
pengobatan
pengolahan
penguin
pengurai
pengurus
pengusaha
penilaian
peninggalan
peningkatan
peninsula
peninsular
penisilamin
penjaga
penjajah
penjajahan
penjara
penjaringan
penjelajah
penjelasan
penjualan
penjuru
pennsylvania
pensatrada
pentas
pentil
penting
pentingna
pentium
pentul
penuh
penulis
penulisan
penumpang
penurunan
penyair
penyakit
penyanyi
penyedap
penyelenggaraan
penyelidikan
penyerbukan
penyiar
penyiaran
penyu
penyusun
penyusunan
people
pepagan
pepedut
pepek
pepelakan
peperangan
peperenian
peppa
per
peradaban
peradangan
peradilan
perairan
perak
peralatan
peralihan
peran
peranan
perancang
perancis
perang
perangkat
perangko
perangna
peranna
perantara
perantauan
perasaan
peraturan
perawan
perawatan
perayaan
perbaikan
perbandingan
perbankan
perbatasan
perbaungan
perbe
perbedaan
perbuatan
perbudakan
percaya
percent
percentage
perception
percetakan
percobaan
percut
perdagangan
perdamaian
perdame
perdana
perdata
perdebatan
perdu
pere
perekonomian
perempuan
perenah
perenahna
perencanaan
perennial
pererahna
perewis
perfect
perfectly
perfektur
perform
performance
performed
performing
performs
pergaulan
pergerakan
pergi
perguruan
perhaps
perhatian
perhatikeun
perhiasan
perhimpunan
perhitungan
perhubungan
periapsis
perihelion
perikanan
perilaku
perilakunya
perindustrian
peringatan
peringkat
perintah
perintis
period
periode
periodic
periodik
periods
perisai
peristiwa
perjalanan
perjangjian
perjanjian
perjoangan
perjuangan
perkantoran
perkara
perkasa
perkawinan
perkawis
perkebunan
perkembangan
perkembangannya
perkiraan
perkotaan
perkumpulan
perkusi
perl
perlahan
perlak
perlakuan
perlambang
perlawanan
perlaya
perlengkapan
perlindungan
perlombaan
perlu
perluasan
perluna
permae
permai
permainan
permaisuri
permana
permane
permanen
permanent
permasalahan
permata
perme
permendagri
permukaan
pernafasan
pernah
pernahna
pernapasan
pernikahan
pernyataan
perobahan
peroksida
peron
perpecahan
perpendicular
perpustakaan
perry
pers
persada
persahabatan
persaingan
persamaan
persatuan
perse
persegi
persekutuan
persemakmuran
persen
persentase
persepsi
perserikatan
persero
persetujuan
perseus
persia
persian
persians
persiapan
persib
persichetti
persija
persis
persisna
person
personal
personality
persone
personel
personil
personilna
personnel
persons
perspective
perspectives
pertahanan
pertama
pertamana
pertambangan
pertamina
pertandingan
pertanian
pertanyaan
pertarungan
pertempuran
pertemuan
pertengahan
perth
pertikahan
pertimbangan
pertiwi
pertumbuhan
pertunjukan
peru
perubahan
perum
perumahan
perundang
perundingan
perunggu
perusahaan
perut
perwakilan
perwira
peryogi
pesam
pesan
pesanggrahan
pesantre
pesantren
pesat
pesawaran
pesawat
pesen
peserta
pesisir
pesona
pesta
pestisida
pet
peta
petak
petamburan
petang
petani
petasan
pete
peter
peternakan
peterpan
peters
petersburg
peti
petik
petingan
petir
petojo
petroleum
petty
petualangan
petugas
petunjuk
peucang
peudada
peudawa
peudaya
peujit
peukan
peulimbang
peundeuy
peuntas
peunteun
peupeundeuyan
peupeus
peurah
peureulak
peusangan
peusing
peuteuy
peuting
peutingna
peuyeum
pf
pg
pgri
ph
phallus
phantom
pharmacy
phase
phases
phasianidae
phd
phenomena
phenomenon
phi
phil
philadelphia
philip
philipina
philippine
philippines
philips
phillip
phillips
philosopher
philosophers
philosophical
philosophy
phoenix
phone
phones
phonetic
photo
photograph
photographs
photon
photons
photos
php
phs
phyllanthaceae
phylogeny
phylum
physical
physically
physicist
physicists
physics
physiology
pi
piagam
piagem
piala
pianakan
pianis
piano
piaraan
pias
picasso
picchu
piceun
picilakaeun
pick
pico
picture
pictures
picung
pid
pidada
pidana
pidangan
pidato
pide
pidermis
pidie
pie
piece
pieces
piekun
pier
pierce
pierre
pieter
pifit
pig
pigawe
pige
pigeon
pigeulang
pigme
pigmen
pigunungan
pihak
piit
pijadieun
pik
pika
pikachu
pikaresepeun
pikasieuneun
pikatan
pikeu
pikeun
pikir
pikiran
piksel
pilangsari
pilar
pilates
pile
pilem
pilemburan
pilemna
pilih
pilihan
pilipina
pilkada
pilosop
pilot
pimpinan
pin
pinang
pinanga
pinanggih
pinangsori
pinareup
pinasti
pindah
pindahkeun
pindahna
pinding
pine
pinem
pines
ping
pingpinan
pingping
pinilih
pining
pinjaman
pink
pinnata
pinter
pintonan
pintonanna
pintu
pinuh
pinunjul
pinus
pinyin
pioneer
pionir
pipa
pipah
piper
pipi
pipilueun
pipindahan
pipir
pipirakan
pipiti
pir
pirak
piramida
pirang
pirantel
pires
piring
piringan
piruruhan
piruvat
pisa
pisah
pisahkeun
pisan
pisang
pisces
pisi
pisik
pisode
pit
pita
pitaloka
pitarubak
pitcairn
pitch
pitcher
pite
pites
pitt
pittsburgh
pitu
pituduh
pituin
pitulung
piutang
piwuruk
pizza
pj
pk
pkeun
pki
pks
pkt
pl
pla
place
placebo
placed
places
placing
plain
plains
plak
plan
planck
plane
planes
planet
planetary
planets
plankton
planned
planning
plans
plant
plantamor
planten
plants
plase
plasma
plasmodium
plastic
plastics
plastik
plat
plate
plateau
plates
platform
platforms
platinum
plato
platyhelminthes
play
playback
played
player
players
playing
playoff
plays
playstation
plaza
plb
ple
please
plectocomia
pler
pleyte
plika
plikasi
pliny
pll
pln
plo
plot
plta
pluchea
plug
pluit
plum
plumbon
plural
plus
pluto
pm
pmi
pmt
pn
pna
pneumonia
png
pni
pns
po
poaceae
poci
pocket
pocong
podium
poe
poestaka
poet
poetry
poh
pohaci
pohan
pohara
poho
pohon
poin
point
pointer
points
poison
poisson
pok
pokan
poke
pokhkisen
pokna
poko
pokok
pokona
pol
pola
polah
poland
polandia
polar
polarisasi
polarity
pole
polemik
poles
poli
police
policies
policy
polie
polifenol
polifonik
polikarbonat
poliklinik
polime
polimer
poline
polinesia
polio
polipe
polipropile
polisakarida
polish
polisi
polistire
polite
politeknik
political
politically
politician
politics
politik
politikus
politis
politisi
poll
polling
pollung
pollution
polo
polong
polonia
polos
polusi
polyamide
polyester
polyethylene
polymer
polynesia
polynomial
polynomials
polystyrene
polyurethane
pom
pompa
pompeii
pon
poncol
pondasi
pondok
pondokna
ponggang
ponorogo
pontang
pontianak
pooh
pool
poole
poor
pop
pope
popotongan
popular
popularitas
popularitasna
popularity
populasi
populasina
population
populations
popule
populer
populerna
pori
porog
poros
porsea
porsi
port
portable
portal
porter
portibi
portion
portland
portrait
portugal
portugis
portuguese
pos
posed
posisi
posisina
positif
position
positions
positip
positive
positron
posna
posong
possibility
possible
possibly
post
postal
poster
posterior
pot
potassium
potato
pote
potensi
potensial
potential
potentially
poto
potong
potongan
potosinte
potre
potret
potsdam
potter
pound
powder
powell
power
powered
powerful
powers
pp
ppki
ppm
ppp
ppss
pq
pr
pra
prabhu
prabowo
prabu
prabumulih
practical
practice
practices
practitioners
prada
pradesh
pradnya
prague
praha
prain
praja
prajurit
prak
prakan
prakanana
prakna
prakte
praktik
praktikum
praktis
praktisi
prambanan
prambors
prame
pramuka
pranala
prancis
prangko
prangrang
prapatan
prasajarah
prasarana
prasasti
prasejarah
pratama
prayer
praziquantel
pre
preanger
prebu
precipitation
precise
precisely
precision
predator
predict
predicted
prediction
predictions
prediksi
prefecture
prefektur
prefer
preferred
preform
premier
premium
premna
prentice
preparation
prepared
presence
present
presentation
presented
presenter
presenting
preservation
preserved
preside
presiden
president
presidential
presidium
presley
press
pressure
pressures
prestasi
prestasina
pretoria
pretty
prevent
preventing
prevention
prevents
previous
previously
pri
pria
priangan
pribadi
pribadina
pribumi
price
prices
pride
priest
prima
primarily
primary
primata
prime
primer
primitif
primordial
prince
princess
princeton
principal
principle
principles
pring
pringse
pringsewu
prinsip
print
printed
printer
printing
priok
prior
prioritas
prisma
priuk
privacy
private
prix
priyadi
priyayi
prize
pro
probabilistic
probabilitas
probabiliti
probabilities
probability
probable
probably
probe
problem
problems
probolinggo
procedure
procedures
proceedings
proceeds
procera
process
processed
processes
processing
prod
prodi
produce
produced
producer
produces
producing
product
production
productions
productivity
products
produk
produkna
produksi
produksina
produktif
produktip
produktivitas
produse
produsen
produser
prof
profe
profesi
profesional
profesor
professional
professor
profil
profile
profit
progo
program
programme
programmed
programmer
programming
programs
progress
progressive
project
projects
prokariot
prokaryotes
proklamasi
proliferasi
proliferation
prominent
promosi
promote
pronounced
pronunciation
proof
propaganda
propagation
proper
properly
properti
properties
property
prophet
propil
propinsi
propinsina
proporsi
proporsional
proportion
proportional
proposal
proposed
proposition
prosa
prose
prosea
prosedur
proses
prosesi
prospects
prostaglandin
prostat
protagonis
prote
protect
protected
protection
protein
proteins
proteksi
protestan
protests
proto
protocol
protokol
proton
protons
prototipe
prototype
protozoa
prove
proved
provide
provided
provider
providers
provides
providing
province
provinces
provinsi
proximity
proye
proyek
prujakan
prunus
prupuk
prusia
ps
pseudo
pseudorandom
psi
psikolog
psikologi
psikologis
psikoterapi
psikotropika
psk
psm
pso
psr
pssi
pstn
psychology
pt
pte
ptember
pterocarpus
ptida
ptik
ptil
ptilinopus
ptolemeus
ptor
ptt
ptunus
pu
puas
puasa
pub
pubian
public
publication
publications
publik
publikasi
published
publisher
publishers
publishing
pucok
pucuk
pucukna
pue
puerto
puguh
pugung
puhu
puhuna
pui
puisi
pujangga
puji
pujian
pukul
pula
pulang
pulau
pulih
pulisi
pulitik
pulitikeus
pulitikna
pulitikus
pulitis
pulitisi
pulitzer
pulo
pulp
pulpe
pulsa
pulsar
pulse
pulsed
pulses
puluh
puluhan
pump
pun
punah
puncak
puncakna
punclut
pundah
punde
punduh
punduk
pundukna
pundung
pungga
punggelan
punggur
pungkasan
pungkut
pungsi
pungsina
punjab
punjul
punk
punti
punya
pupa
pupuh
pupuhu
pupuhuna
pupujian
pupuk
pupus
pupusna
pura
purabaya
purah
purba
purbakala
purbalingga
purbolinggo
purchase
purdue
pure
purely
puri
purn
purnama
purnawarman
purnomo
purple
purpose
purposes
purulukan
purusa
purut
purwa
purwadadi
purwaharja
purwakanti
purwakarta
purwanegara
purwasari
purwo
purwodadi
purwojaya
purwokerto
purworejo
purwosari
pusaka
pusakanagara
pusan
pusat
pusatna
puser
puseur
puseurna
push
puskesmas
puspa
puspahiang
puspawangsa
pustaka
put
putat
puter
putera
puteran
puterana
puteri
puti
putih
putik
putra
putrana
putri
putrina
putu
putus
putusan
puuk
puyuh
pvc
pw
pwk
pwt
px
py
pycnonotus
pythagoras
python
q
qa
qadar
qaeda
qam
qamaruddin
qantas
qasim
qatar
qb
qc
qd
qe
qf
qg
qh
qi
qimonda
qin
qing
qj
qk
ql
qn
qo
qodar
qomar
qp
qq
qquad
qr
qs
qu
quad
quadrature
quail
quality
quantitative
quantities
quantity
quantization
quantum
quark
quarter
quarterly
quarto
que
quebec
queen
queensland
quest
question
questions
quick
quickly
quite
qunut
quoted
qur
quraish
quraisy
quran
qure
qy
qz
r
ra
raad
rabah
rabev
rabi
rabie
rabu
race
races
rachel
rachmat
racial
racing
racun
racunan
rada
radang
radar
radars
rade
raden
radhiyallahu
radial
radian
radiasi
radiation
radical
radikal
radio
radioactive
radioaktif
radios
radius
radix
radja
rae
raf
rafael
rafah
raffi
raffles
rafflesia
rafik
rafli
raga
ragaji
ragam
rage
ragem
ragi
ragrag
ragragna
ragunan
rah
rahang
raharja
rahasia
rahayat
rahayatna
rahayu
raheut
rahib
rahim
rahmah
rahman
rahmat
rahmawati
rahna
rahwana
rahyang
rai
raid
rail
railink
railroad
railway
railways
rain
rainbow
rainforest
raion
rais
raise
raised
raj
raja
rajabasa
rajade
rajagaluh
rajah
rajamandala
rajana
rajapati
rajapolah
rajasa
rajawali
rajeun
rajin
rajo
rajshahi
rajya
rajyarajya
rak
raka
rakai
rakan
rakata
rake
raket
rakeyan
rakit
rakitan
rakryan
raksa
raksasa
raksukan
rakun
rakyat
rally
raloba
ralph
ram
rama
ramadan
ramadhan
ramah
ramai
ramalan
raman
ramana
ramani
ramat
ramatloka
ramayana
rambatan
rambong
rambung
rambut
rambutan
rame
ramo
ramona
ramos
rampah
rampak
rampasan
rampog
ramuan
ran
rana
ranan
ranca
rancabuaya
rancae
rancaekek
rancage
rancah
rancakalong
rancamaya
rancana
rancang
rancangan
randa
randegan
random
randy
rang
rangda
range
ranges
rangga
ranggajati
ranggeuyan
rangginang
rangin
ranginang
ranging
rangka
rangkaian
rangkas
rangkasbitung
rangkay
rangke
rangkep
rangpur
rangsangan
rangu
rania
ranitidin
ranjang
ranjau
rank
ranked
ranking
rano
ransi
rantau
rantay
rante
ranting
ranto
rao
rap
rapa
rapat
rapet
rapi
rapid
rapidly
rapih
rapper
rara
rarabi
raraga
rarakitan
raramat
rarame
rarancang
rarangke
rarasaan
rarata
raray
rare
rarely
ras
rasa
rasana
rasau
rase
rashid
rasi
rasia
rasiah
rasial
rasinah
rasio
rasional
rasmi
raster
rasul
rasulullah
rasululloh
rasuna
rasyid
rasyidin
rat
rata
ratai
ratana
rate
rated
rates
rather
rating
ratio
ration
rational
ratna
ratu
ratug
ratus
ratusan
rau
raw
rawa
rawamangun
rawan
rawang
rawat
rawayan
rawe
rawit
ray
raya
rayagung
rayat
rayeuk
rayleigh
raymond
raynald
rayon
rays
rb
rba
rbal
rbia
rbivora
rc
rca
rcti
rd
re
reaction
reactions
read
reading
reagan
reaksi
real
reality
really
rebab
reban
rebana
rebel
rebo
rebon
rebu
rebutan
receive
received
receiver
receivers
receiving
recent
recentchanges
recently
reception
recipes
recognised
recognition
recognize
recognized
recommended
reconstruction
record
recorded
recording
recordings
records
rectangular
rectifiers
recycled
recycling
red
redaksi
redaktur
reduce
reduced
reduces
reducing
reduction
redwood
reed
reeves
ref
refer
reference
references
referendum
referensi
referred
referring
refers
refined
reflected
reflections
reflects
reform
reformasi
reforms
regard
regarded
regarding
regardless
regent
regentschap
regentschappen
regime
regina
region
regional
regions
register
registration
regression
regu
regular
regularly
regulation
regulations
regulatory
reguler
reign
reject
rejected
rejeki
rejo
rek
rekaman
rekan
rekayasa
rekening
rekonstruksi
rekor
rekre
rektor
rel
rela
related
relatif
relating
relation
relations
relationship
relationships
relative
relatively
relativistic
relativity
relay
relays
rele
release
relevant
reliability
reliable
relief
religi
religion
religions
religious
religius
rely
rem
remaco
remain
remainder
remained
remaining
remains
remaja
rembang
remember
remen
remote
remove
removed
rempah
ren
renah
renaissance
renamed
renang
renault
rencana
rencanana
rencang
rendah
rendang
rendra
rene
rengasdengklok
rengat
rengganis
rengking
rengse
renovasi
rensi
rensiasi
rentang
renville
repe
repeat
replace
replaced
replacement
replaces
replacing
report
reported
reporting
reports
repository
represent
representation
representative
representatives
represented
representing
represents
reprint
reprinted
reproduction
reproductive
reproduksi
repsol
reptil
republic
republican
republik
republika
request
require
required
requirements
requires
requiring
res
rescue
rese
research
resep
reseptor
reserve
reserved
reservoir
resi
residen
residence
residential
residentie
residents
residual
resigns
resiko
resin
resistance
resistant
resistive
resistor
resistors
resmi
resmina
resolusi
resolution
resonance
resonant
resort
resource
resources
respect
respective
respectively
respon
response
responses
responsibility
responsible
rest
restaurants
restoran
restorasi
restricted
restu
result
resulted
resulting
results
retail
retained
retired
retrieved
retty
return
returned
returns
reu
reuah
reudeup
reueus
reuhak
reujeung
reumatik
reun
reundeu
reuneuh
reungit
reureuh
reuters
reuwas
rev
reve
reverse
review
reviews
revised
revisi
revision
revolusi
revolusioner
revolution
rex
rey
reza
rezeki
rezim
rf
rfc
rg
rgb
rgi
rgina
rh
rhee
rheumatoid
rhine
rhino
rhinoceros
rho
ri
ria
rial
rianti
riasalah
riau
riba
ribawi
ribe
ribonukle
ribosom
ribu
rica
rice
rich
richadiana
richard
richards
richardson
richie
richter
rick
ricky
rico
rida
ride
rider
ridge
ridho
ridian
ridl
ridwan
rie
rieke
riemann
rif
rig
right
rightarrow
rights
rigs
rihanna
riil
rika
rikit
riko
riksdag
ril
rilis
rim
rimba
rimbas
rimbo
rime
rimpang
rina
rinci
rincian
rincik
rindu
rine
ring
ringan
ringkes
ringkesan
rini
rinkai
rinkeby
rintakan
rinyuh
rio
rioda
riode
riodeu
riodik
riots
ripuh
ris
risalah
risasi
rise
riset
risiko
rising
risk
risks
risoles
rita
ritori
ritorial
ritre
ritrosit
ritual
ritus
riungan
riut
rival
river
rivers
riwayat
riweuh
riyadh
riyal
rizki
rj
rk
rkeun
rkurius
rl
rlin
rll
rlts
rm
rma
rman
rmanik
rmaprodit
rme
rmland
rmome
rms
rn
rna
rnakeun
rnasional
rnisasi
ro
road
roald
roaming
roay
rob
robah
robahan
robahna
robert
roberto
roberts
robih
robik
robin
robinson
robo
robot
robust
rock
rocket
rocks
rockstar
rocky
rod
roda
rode
roderick
roem
roepa
roger
rogers
rogue
roh
rohaka
rohang
rohangan
rohani
rohman
rohmat
roid
roje
rojongan
rok
roka
rokaat
rokan
roke
roket
roko
rol
roland
role
roll
rolling
rom
roma
romadon
romaji
roman
romance
romani
romania
romanisasi
romanization
romans
romantis
romawi
rombongan
rome
romli
romon
ron
ronald
ronde
rong
rongga
rongge
ronggeng
rongkah
ronjatan
roof
rookie
room
roosevelt
root
roots
ropa
ropah
rope
roris
roro
rorongkong
roronoa
rosa
rose
rosemallow
roses
rosetta
rosewood
rosi
rosidi
ross
rossa
rossi
rostov
rosul
rosululloh
rot
rotan
rotasi
rotating
rotation
rote
roti
rotterdam
rough
roughly
round
rounded
route
router
routes
routing
routledge
row
rowling
rox
roxb
roy
royal
royen
royong
rozoikum
rp
rpm
rq
rquez
rr
rrc
rri
rrt
rs
rscm
rsi
rsia
rsial
rsib
rsie
rsil
rsitas
rspd
rss
rsu
rsud
rsup
rt
rte
rtica
rtikal
rtilisasi
rto
ru
ruam
ruang
ruangan
ruas
rubak
rubakna
rubakpita
rubber
rube
ruben
rubens
rubidium
rubrik
rubuh
ruby
rudal
rudolf
rudy
ruf
rugbi
rugby
rughyet
rugi
rujak
rujukan
rukem
ruksak
ruksakna
rukun
rule
ruler
rules
rum
rumah
rumaja
rumania
rumasa
rumbia
rumble
rumi
rumit
rumpaka
rumpakana
rumphius
rumpin
rumpun
rumput
rumus
rumusan
run
rundayan
rundeng
runggu
rungkun
runic
runner
running
runoff
runs
runtag
runtagna
runtah
runtime
runtuh
runtuhna
runtuyan
runway
rupa
rupana
rupaning
rupi
rupiah
rupsi
rural
ruruntuhan
ruruntuk
rusa
rusak
rusia
rusiah
rusip
rusli
rusman
russel
russell
russia
russian
rusuk
rusyana
rutaceae
rute
ruteu
ruteuna
ruth
rutherford
rutin
rv
rvasi
rvasina
rviks
rw
rwanda
rx
ry
ryan
rye
ryu
ryukyu
ryya
rz
rze
s
sa
saab
saabad
saacan
saacanna
saalam
saan
saanggeus
saarah
saarc
saat
saatos
saatosna
saba
sabab
sababara
sababarah
sababaraha
sababna
sababraha
sabada
sabadana
sabagai
sabage
sabagian
sabah
sabak
sabalikna
saban
sabana
sabanda
sabanding
sabang
sabangsa
sabangsana
sabangsaning
sabapa
sabar
sabaraha
sabari
sabda
sabe
sabee
sabelas
sabenerna
sabeulah
sabeulahna
sabil
sabilulungan
sabit
sabot
sabrang
sabtu
sabudeureun
sabudeureunana
sabudeureunna
sabudeureunnana
sabuk
sabulan
sabun
sabuntut
sacanata
sacara
sacred
sacukupna
sad
sada
sadana
sadananya
sadang
sadar
sadarajat
sadat
sadaya
sadayana
saddam
sade
sadengkeun
saderhana
sadia
sadiakeun
sadikin
sado
sadr
sadu
sadudulur
sadulur
sadunya
sae
saencan
saenggeus
saenggeusna
saenyana
saeutik
saeutikna
safari
safe
safety
saga
sagagang
sagala
sagalahe
sagalaherang
sagalana
sagara
sagarahe
sagaranten
sagawayah
sage
sagede
sagelas
sagemblengna
sagi
sagigireun
sagitilu
sagoe
sagolongan
sagu
saguling
sah
saha
sahabat
sahadat
sahade
saham
sahandapeun
sahanteuna
sahara
saharga
sahari
saharita
sahenteuna
saheulaanan
saheunteuna
sahih
sahiji
sahijina
sahingga
sahur
sai
said
saigon
saimbang
saimbangna
sain
saing
saingan
sains
saint
saionji
saipar
sair
saitama
saito
saja
sajaba
sajabana
sajajar
sajak
sajakna
sajalan
sajam
sajarah
sajarahna
sajarawan
sajati
sajauh
sajenis
sajeroeun
sajeroeunna
sajeroning
sajinis
sajumlah
sajumlahing
sajuta
saka
sakabe
sakabeh
sakadang
sakadar
sakakala
sakali
sakalian
sakaligus
sakaol
sakapeung
sakarat
sake
sakedapan
sakedik
sakelompok
sakeudeung
sakeun
sakeupeul
saking
sakirana
sakit
sakitar
sakitu
saklar
sakola
sakolana
sakral
saksi
sakti
saku
sakuduna
sakujur
sakulawarga
sakuliah
sakumaha
sakumna
sakumpulan
sakur
sakura
sakurang
sakuriling
sakurilingeun
sakurilingna
sakutu
sala
salad
salada
saladah
salah
salahiji
salahsahiji
salahuddin
salain
salaje
salajengna
salak
salaka
salakanagara
salaki
salakina
salaku
salam
salamander
salambar
salamet
salametan
salami
salancar
salang
salapan
salapian
salasa
salasahiji
salasahijina
salat
salatiga
salawasna
salawe
salawu
sale
salega
saleh
salem
salemba
salendro
salep
saleresna
sales
salian
saliara
salib
salila
salilana
salim
salinan
saling
salinitas
salinity
salira
saliwat
salju
sallam
salman
salmon
salmun
saloba
salopa
salt
salts
saluareun
saluas
saluhur
saluhureun
salumpit
saluran
saluyu
salvador
salya
sam
sama
samad
samadua
samagaha
samak
samalah
samalanga
saman
samangka
samar
samara
samaran
samarang
samarinda
samatiga
sambal
sambara
sambas
sambel
sambung
sambungan
same
samemeh
samemehna
samenanjung
samentara
samentawis
sami
samin
saminggu
samoa
samode
samosir
sampai
sampang
sampe
sampel
sampeu
samping
sampingan
sample
samples
sampling
sampo
sampoiniet
sampul
sampurna
sampyong
samsudi
samsung
samudera
samudra
samuel
samurai
san
sana
sanajan
sanaos
sanca
sancaka
sancang
sand
sandang
sandera
sandgrouse
sandi
sanding
sandiwara
sandra
sandwich
sandy
sane
sanes
sanesna
sang
sanga
sangat
sangay
sangga
sanggar
sanggeus
sanggeusna
sanggul
sanggup
sanghiang
sanghyang
sangiang
sangka
sangkaan
sangkan
sangkuni
sangkuriang
sangray
sangsakerta
sangsara
sangsekerta
sangsi
sangu
sani
saniskara
sanitasi
sanjata
sanjaya
sanji
sanka
sanksi
sansakerta
sansekerta
sanskerta
sanskrit
santa
santai
santan
santang
santanu
santen
santi
santiago
santo
santolo
santosa
santri
santrina
santun
sanusi
sanyawa
sanyawaan
sanyo
sao
saolah
saorang
saos
sapanjang
saparakanca
saparantos
saparantosna
saparapat
sapardi
saparo
sapasang
sapatemon
sapatu
sape
saperluna
saperti
sapertilu
sapertos
sapeuting
sapi
sapiens
sapihak
sapindales
sapinuhna
sapoe
saponin
sapopoe
sapotong
sappan
sapporo
saprak
saptu
sapu
sapuk
sapuluh
sapupusna
saputra
sar
sara
saraf
saragam
sarah
sarampah
saran
sarana
sarang
sarange
sarangke
sarap
saraswati
sarat
saratus
sarawak
sardinia
sare
sarekat
sareng
sareung
sarga
sari
sariawan
saribu
sarikat
sarimbag
sarimi
saring
saringan
sariwangi
sarjana
sarmidi
saroja
sarolangun
saron
sars
sarta
sartika
saru
sarua
sarung
saruntuyan
sarupa
sarupaning
sarwa
sas
sasadiaan
sasaha
sasaje
sasak
sasakala
sasaksaat
sasalad
sasama
sasana
sasaran
sasarengan
sasaruaan
sasatoan
sasauran
sase
sasih
sasis
sassanid
sastera
sastra
sastrahadiprawira
sastrawan
sasuke
sat
satangkal
satapak
satata
sataun
sate
satelit
satellite
satellites
satempat
satengah
satengahna
saterasna
saterusna
sateuacan
sateuacanna
satia
satiap
satimna
satingkat
satjadibrata
sato
satria
satru
satu
satuan
satuju
satukangeun
satuluyna
satunya
saturn
saturnus
satutasna
satwa
satya
satyawati
saud
saudara
saudi
saukur
saukuran
saum
saumur
saunders
saung
saupama
saupamana
saur
saurang
saurna
saussure
sausum
sauyunan
savana
save
saving
saw
sawa
sawah
sawaktu
sawal
sawala
sawan
sawang
sawangan
saware
sawarga
sawatara
sawates
sawawa
sawe
sawed
sawelas
sawios
sawit
sawo
sawunggalih
saxon
say
saya
sayaga
sayang
sayangna
sayap
saye
sayembara
saying
says
sayur
sayuran
sayuti
sayyid
sayyidina
saŋ
sb
sbol
sbs
sc
scalar
scale
scales
scan
scandic
scandinavia
scandinavian
scarcity
scarecrow
scdma
scene
schaum
scheduled
scheherazade
scheme
schemes
schleichera
schleswig
schlumbergera
schmidt
schoemaker
scholar
scholars
school
schools
schro
schumacher
schuster
schwarze
sci
science
sciences
scientific
scientist
scientists
score
scores
scotland
scott
scottish
scout
screen
script
scroll
scrum
scs
sctv
scudderia
sd
sdm
sdn
sdt
se
sea
sean
search
season
seasons
seattle
sebab
sebagai
sebagaimana
sebagian
sebanyak
sebaran
sebastian
sebatan
sebel
sebelah
sebelas
sebelum
sebelumnya
sebenarnya
seberang
sebesar
seblak
sebo
sebuah
sebut
sebutan
sec
secang
secanggang
secara
second
secondary
seconds
secret
secretary
section
sections
sector
secular
secularism
secure
security
seda
sedang
sedangkan
sedangkeun
sedap
sedekah
sedeng
sedengkeun
sederhana
sedih
sedikit
sedimentary
see
seed
seeds
seek
seem
seems
seen
sees
sega
segala
seger
segera
segi
segitiga
segitilu
segmen
segment
seharusnya
sehat
sehingga
sei
seibu
seiring
seja
sejahtera
sejak
sejarah
sejati
seje
sejen
sejenna
sejuk
sejumlah
sek
sekali
sekaligus
sekampung
sekar
sekarang
sekerak
sekernan
sekertaris
sekigahara
sekincau
sekitar
sekolah
sekor
sekretariat
sekretaris
sekrup
seksi
seksual
sektor
sekuen
sekunde
sekunder
sekutu
sel
sela
selaawi
selagai
selain
selajambe
selalu
selam
selama
selamat
selandia
selang
selanjutnya
selaparang
selaput
selat
selatan
selayang
sele
selebriti
select
selected
selection
selective
selektif
selentem
selesai
self
seling
selir
seljuk
sell
selling
seluas
seluler
selulosa
seluruh
semadam
semak
semaka
semakin
semangat
semantics
semantik
semar
semarang
sembah
sembilan
sembrani
seme
semen
semenanjung
sementara
semeru
semesta
semester
semet
semi
semiconductor
semiconductors
semifinal
semikonduktor
seminar
seminung
semit
semitik
sempalan
sempat
sempet
sempit
semprong
sempurna
semu
semua
semuanya
semuong
semur
sen
sena
senam
senang
senapati
senar
senat
senate
senayan
send
sendai
sendal
sendang
sender
sendi
sending
sendiri
sendok
sends
sene
senegal
senen
sengau
sengit
sengketa
seni
seniman
senior
senja
senjata
senna
sensasi
sense
senshi
sensitive
sensitivity
sensor
sensors
sensus
sent
sentai
sentence
sentosa
sentra
sentral
sentul
senyawa
senyerang
seorang
seoul
sep
sepa
sepak
sepakat
sepakbola
sepang
sepanjang
separate
separated
separately
separates
separation
sepasang
sepat
sepenggal
seperti
sepertos
sepi
sepre
september
sepuh
sepuhna
sepur
seputar
seputih
sequence
sequences
serabut
seragam
serah
seram
serambi
serang
serangan
serangga
serapan
serat
seratna
serayu
serba
serbajadi
serbia
serbo
serdang
seren
serena
serepan
seri
serial
seribu
series
serikat
sering
serious
seririt
serius
seroja
serotonin
serpong
sersan
serta
serupa
seruway
serve
served
server
serves
service
services
serving
sesa
sesama
sesbania
sesebutan
seseg
sesek
sesembahan
seseorang
sesepuh
seserahan
session
sesuai
sesuatu
sesungguhnya
set
setan
setasion
setasiun
sete
setelah
setengah
setia
setiabudi
setiap
setiawan
seto
setre
sets
setting
seudati
seueul
seueur
seug
seukeut
seulawah
seuleumak
seulimeum
seunagan
seuneu
seuneuan
seuneubok
seungit
seungitna
seunuddon
seupan
seureuh
seuri
seuseungitan
seven
sevenfold
seventeen
seventh
several
severe
sewang
sewangan
sewu
sex
sexual
seychelles
seyyed
sf
sg
sga
sgsn
sh
sha
shade
shadow
shaft
shah
shahih
shakespeare
shalat
shaleh
shallallahu
shallow
shan
shang
shanghai
shania
shanks
shannon
shape
shaped
shapes
share
shared
sharing
sharingan
shark
sharon
sharp
shaw
she
sheet
shek
shelf
shell
shelter
shenzhen
sherina
shewhart
shi
shichibukai
shiddiq
shield
shift
shifted
shiga
shihab
shikara
shiki
shikoku
shima
shin
shinagawa
shinano
shinee
shinjuku
shinkansen
shinto
shinzo
shiojiri
ship
shipping
ships
shireen
shirley
shirohige
shirt
shishapangma
shizuoka
sho
shock
shoemaker
shogun
sholat
shooting
shop
shopping
shore
short
shorter
shorthair
shortly
shot
should
show
showed
showing
shown
shows
shu
shuku
shuttle
si
sia
siabu
siaga
siah
sial
sialang
sialis
siam
siamese
sian
siang
sianida
siantar
siap
siapa
siapkeun
siaran
siasat
siasi
siatas
siau
sibe
siberia
sibiru
siblah
sibolangit
sibolga
siborong
sibuk
sichuan
sicily
sidamanik
sidang
side
sideband
sidekah
siden
sides
sidik
sidikalang
sidney
sido
sidoarjo
sidodadi
sidomukti
sidomulyo
sidu
sidua
sie
siem
siemens
siempat
sienta
sierra
sies
sieun
sieur
sif
sifat
sifatna
sifik
sifikasi
siga
sigala
sigaluh
sigana
siger
sigli
sigma
sign
signal
signaling
signalling
signals
signed
significance
significant
significantly
signifikan
signing
signs
sigompulon
sigumpar
sih
sihan
sihapas
sihir
sihung
sihwa
sikap
sikat
sikep
sikeun
siki
sikian
sikina
sikkim
siklik
siklon
siklus
siko
siksa
siksaan
siksikan
siku
sila
silaen
silang
silat
silaturahmi
silau
silem
silent
silia
silicon
silih
silika
silikat
silikon
silima
silinder
silindris
siliwangi
silk
silla
siloka
silou
silsilah
siluman
silva
silver
silverstone
sim
sima
simalungun
simangambat
simanindo
simbarke
simbol
simbolis
simbul
simbut
sime
simeulue
simeut
similar
similarities
similarly
simon
simoncelli
simpang
simpangan
simpanseu
simpati
simpen
simpenan
simple
simplest
simplex
simply
simpson
simulasi
simulation
simultane
sin
sina
sinai
sinambung
sinar
sinareng
since
sindang
sindangagung
sindangbarang
sindangjaya
sindangkasih
sindangkerta
sindanglaya
sindangsari
sindangwangi
sinde
sinden
sindoro
sindrom
sindur
sine
sinensis
sinetron
sing
singa
singajaya
singaparna
singapore
singapur
singapura
singareup
singasari
singel
singer
singget
singgetan
singh
singhasari
singk
singkahan
singkat
singkatan
singket
singketan
singkil
singkong
singkut
singlar
single
singles
singsaha
singular
sini
sinila
sinjang
sino
sinom
sinonim
sinovac
sint
sinta
sinte
sintre
sinunukan
sinus
sinusoida
sinusoidal
sinyal
sion
sional
sip
sipahutar
sipat
sipatahoenan
sipatahunan
sipatna
sipil
sipirok
sipispis
sipitasi
sipoholon
sipongi
siprus
sir
sira
sirah
sirahna
siraru
sireum
sirih
sirilik
sirip
sirit
sirkuit
sirkular
sirkulasi
sirna
sirnagalih
sirnajaya
sirombu
sirop
sirsak
sirung
sirungan
sis
sisa
sisarahili
sisi
sisieun
sisik
sisikian
sisilia
sisina
sisindiran
sisingaan
sisir
sisit
sisitna
sistansi
siste
sistem
sistematis
sistemik
sister
sistim
sistor
siswa
sit
sita
site
sitelu
sites
siti
sitinjau
sitio
sitokrom
sitolu
sitoplasma
sitrat
situ
situasi
situation
situations
situraja
situs
siulak
sium
siwa
siwur
six
sixth
size
sizes
sj
sjuman
sk
ska
skala
skalar
skandal
skandinavia
ske
skeleton
skema
skenario
sketch
skeun
skewness
ski
skin
skizofre
skop
skopje
skor
skotlandia
skrip
skripsi
skull
sky
skype
sl
slam
slamet
slav
slave
slavery
slavia
slavik
slawi
sle
sleep
slendro
sliding
slight
slightly
slipi
sliyeg
slo
slope
slot
slots
slovakia
slove
slovenia
slow
slowakia
slowly
slta
sltp
sm
sma
small
smaller
smallest
sman
smart
smas
smc
smi
smith
smithsonian
smk
smkn
smks
smoke
smoking
smooth
smp
smpn
sms
smu
sn
sna
snake
snakes
snow
snowdon
snr
so
soal
soang
soba
sobat
sobatna
soc
soca
soccer
social
socialist
societies
society
soda
sodagar
sodara
sodium
sodonghilir
soe
soedirman
soeharto
soekarno
soenda
sofia
soft
software
sofyan
sogae
sohabat
sohe
sohor
soil
sok
sokaraja
sokuon
sol
solanaceae
solanum
solar
solat
sold
soldadu
soldiers
sole
solid
solidaritas
solidline
solo
solobong
solok
solokan
solokanjeruk
solomon
solusi
solution
solutions
solve
solved
solving
soma
somali
somalia
somaliland
somambawa
somantri
sombong
some
something
sometimes
somewhat
somewhere
somolo
son
sonansi
song
songket
songo
songs
songwriter
sonny
sono
sonora
sons
sony
soo
soon
sop
sopan
sophia
sophisticated
sopia
sor
sora
sorana
sorangan
sorbitol
sore
sorga
sorghum
sorik
sorkam
sorong
sorot
sort
sosa
sosial
sosialis
sosialisasi
sosialna
sosiolog
sosiologi
sosis
sosobatan
sosok
soson
sosopan
sosoranganan
sot
sote
sotho
soto
soul
soun
sound
sounds
soundtrack
source
sources
south
southe
southeast
southern
southwest
southwestern
sovereign
sovie
soviet
sowaŋ
sp
spa
space
spacecraft
spaces
spacetime
spain
spam
spammers
spamming
span
spanish
spanyol
spark
spasi
spatial
spc
spe
speaker
special
specialized
specially
species
specific
specifically
specification
specifications
specified
specify
speciosa
spectroscopy
spectrum
speech
speed
speedcast
speeds
spektakuler
spektrum
spelling
spencer
spent
spesialis
spesies
spesifikasi
sphere
spice
spices
spider
spiders
spielberg
spike
spikelet
spin
spinks
spiral
spirasi
spirit
spirits
spiritual
spite
spk
split
splitting
spoken
spon
spongebob
spons
sponsor
spontan
spoon
spora
sport
sporting
sports
spot
spotted
spp
spre
spread
spring
springer
sprite
spss
spy
sq
sqrt
square
squared
squares
sr
srage
sragi
srange
srengseng
sri
srikandi
srimanganti
srivijaya
sriwijaya
ss
ssang
ssb
ssp
st
sta
staatsspoorwegen
stabat
stabil
stabilitas
stability
stable
stackrel
stadion
stadium
staf
staff
stage
stages
stai
stain
stainless
stajumena
stalin
stalingrad
stallone
stambul
stamford
stamina
stan
stand
standar
standard
standardisasi
standardization
standardized
standards
standarisasi
standing
stands
stanford
stanley
star
starastra
starata
starr
stars
start
started
starting
starts
stasi
stasion
stasiun
state
stated
statement
states
static
statically
station
stationary
stations
statis
statistic
statistical
statistics
statistik
statistika
statistis
status
statusna
statute
staudinger
stay
std
ste
steam
steel
steenis
stefan
stellar
stem
sten
step
stephen
steps
ster
stera
steril
sterling
stern
sterol
steve
steven
stewart
sti
stick
stie
stik
still
stimator
stimulan
stimulasi
stina
stis
stisida
stival
stkip
stm
stmik
stochastic
stock
stockholm
stocks
stok
stokastik
stone
stoner
stones
stonia
stop
stops
storage
storan
storasi
store
stored
stores
stories
storm
story
stoste
stovia
stra
straight
strait
straits
strand
strange
strata
strate
strategi
strategis
strategy
stratovolcano
stratton
stratum
straw
stre
stream
streaming
street
strength
streptopelia
stres
stress
strial
strictly
strike
strikes
string
strings
strip
stro
stroge
stroke
strokes
strong
stronger
strongly
structural
structure
structures
struggle
struktur
struktural
strukturna
stsi
stt
stu
stuart
student
students
studi
studied
studies
studio
studios
study
studying
stuna
stuning
style
styles
su
suak
suaka
sual
suami
suara
suasana
suatu
sub
subadra
subah
subang
subdipo
subdivided
subdivisions
subduksi
subfamili
subje
subject
subjects
subkelas
submarine
subordo
subscriber
subscribers
subscription
subsequent
subsequently
subset
subsets
subsidiary
subsistem
subsp
subspe
substance
substances
substansi
substantially
substitusi
substitution
substrat
subtropis
subuh
subulussalam
subur
suburban
suburbs
subway
succeeded
success
successful
successfully
succession
successive
successor
such
suci
sucinaraja
sucker
sud
sudah
sudan
sudarso
sudaryat
sudirman
sudoku
sudra
sudut
sue
suez
suffered
sufficient
sufficiently
sufi
sufism
sufyan
sugan
sugar
sugema
suggest
suggested
suggests
sugih
sugu
suhardiman
suharto
suhu
suhud
suhuna
suhunan
suhunanana
sui
suicide
suis
suit
suitable
suited
suk
suka
sukabumi
sukadami
sukadana
sukagumiwang
sukahaji
sukajadi
sukajaya
sukakarya
sukaluyu
sukamaju
sukamakmur
sukamantri
sukamukti
sukamulya
sukanagara
sukapura
sukaraja
sukarame
sukaratu
sukare
sukaresik
sukaresmi
sukarno
sukasada
sukasari
sukatani
sukawangi
sukawening
suke
sukjong
sukma
sukoharjo
sukon
sukra
sukrosa
sukse
sukses
suku
sukun
sukuna
sukur
sukuran
sulae
sulaiman
sulap
sulawesi
sulfasalazin
sulfat
sulfida
sulfur
suling
sulit
sultan
sulu
suluh
suluk
sulur
sum
suma
sumananjung
sumanget
sumardjo
sumarsono
sumatera
sumatra
sumatran
sumatrana
sumawona
sumba
sumbang
sumbangan
sumbawa
sumber
sumberdaya
sumberjaya
sumberna
sumbi
sumbu
sumbul
sumebar
sumebarna
sumedang
sumerah
summa
summary
summer
summit
sumpah
sumping
sumpit
sumsum
sumur
sun
sunalari
sunami
sunan
sunandar
sunarya
sunaryo
sunat
sunatan
sunda
sundana
sundane
sundanese
sunday
sung
sungai
sunggal
sungkai
sungkal
sungkem
sungsum
sungut
sungutna
sunnah
sunni
sunrise
sunset
sunshine
sunten
sunter
suntik
suntikan
sunyalarang
sunyaragi
suoh
sup
supa
supados
supata
supaya
super
superbike
superbuana
superfamili
supergugus
superior
supermarket
supernova
superordo
superstar
supir
suplai
supleme
supplement
supplies
supply
support
supported
supporting
supports
suppose
supposed
supra
supratman
supreme
supriyanto
sur
sura
surabaya
surachman
surade
surah
surakarta
suramanggala
surat
surawijaya
surawise
surawung
sure
surface
surfaces
surga
surge
surgery
suri
suriah
surian
suriname
suro
surrounding
surung
surup
surupan
surupna
surut
surve
survey
survival
surviving
surya
suryadi
suryamandala
suryana
suryani
sus
susah
susan
susana
suscitator
sushi
susi
susilo
susoh
suspe
suspected
suspended
sustainable
suster
susu
susua
susuguh
susuhunan
susukan
susukanlebak
susun
susunan
susuratan
susuru
sutam
sutan
sutera
sutiasumarga
sutra
sutradara
suu
suuk
suung
suvarnabhumi
suwarna
suwon
suyadi
suzuki
sv
svalbard
svenska
sverse
svg
sw
swadaya
swahili
swara
swasembada
swasta
swaziland
swe
sweden
swedes
swedia
swedish
sweet
swift
swiss
switch
switched
switches
switching
switzerland
sword
sworn
swt
sx
sy
sya
syafe
syafi
syah
syahadat
syahrir
syaikh
syair
syam
syamsuddin
syamsuri
syamtalira
syara
syaraf
syarah
syarat
syari
syariah
syariat
syarif
syawal
sydney
sye
syeh
syeikh
syekh
syi
syiah
syiar
sylhet
sylvaticus
sylvester
symbol
symbolic
symbols
symmetry
syn
sync
synchronous
syndrome
syntax
synthesis
synthetic
syracuse
syria
system
systematic
systems
syukur
syukuran
syuting
syzygium
sz
t
ta
taat
tab
tabah
tabe
tabel
tabir
table
tables
tablet
tabloid
tabolik
tabolisme
tabolismeu
tabolit
tabrakan
tabuh
tabung
tacan
tackle
tacloban
tadabbur
tadi
tadina
tadu
tadzakkur
tae
tafsir
tag
tagalog
tagihan
tagog
tah
tahan
tahanan
tahap
tahapan
tahir
tahna
tahta
tahu
tahun
tahunan
tai
taiga
tail
tailed
taipei
taisho
taiwan
taj
tajik
tajikistan
tajimi
tajongan
tajug
tajur
tajurhalang
tajwid
tak
taka
takahashi
takao
takaran
takashi
takayama
takbir
takbiran
takdir
take
taken
takes
taki
taking
takokak
taksaka
taksi
taksiran
takson
taksonomi
taktak
taktik
takut
takwa
tal
tala
talaga
talagasari
talang
talari
talatah
talawi
tale
taleq
tales
taleus
tali
taliban
talik
taliti
talk
talking
talks
tall
taluk
talun
talus
tam
tama
taman
tamansari
tamansiswa
tamara
tamat
tambaga
tambah
tambahan
tambahkeun
tambak
tambaksari
tambang
tambangan
tambihan
tambleg
tambo
tambora
tambun
tame
tamiang
tamil
tamorfosis
tampa
tampak
tamperan
tampil
tampilan
tampolong
tampomas
tamsyah
tamu
tan
tana
tanaga
tanah
tanahabang
tanaka
tanam
tanaman
tanara
tanda
tandak
tandan
tandana
tandang
tanding
tanduk
tandukna
tandur
taneuh
taneuhna
taneun
tang
tangal
tangan
tange
tangerang
tangga
tanggal
tanggamus
tanggana
tanggeung
tanggul
tanggulun
tanggung
tangkai
tangkal
tangkalna
tangkas
tangki
tangkil
tangkis
tangkolo
tangkorak
tangkuban
tangse
tangsi
tangtangan
tangtara
tangtu
tangtukeun
tangtuna
tani
tanin
tanjong
tanjung
tanjungjaya
tanjungkarang
tanjungkerta
tanjungsari
tanjungsiang
tank
tanna
tano
tanoh
tanol
tanpa
tantangan
tantara
tantowi
tanu
tanya
tanzania
taoyuan
tap
tapa
tapak
tapaktuan
tapanuli
tapas
tape
tapel
tapi
tapian
tapina
tapis
tapos
taqwa
tar
tara
tarajangan
taraje
taraju
tarang
tarantula
tarapti
tarasi
taratas
tarate
taratu
tarawangsa
tarawih
tarbiyah
tare
targe
target
tari
tarian
tarif
tarigu
tarik
tarikan
tarikna
tarikolot
tarima
tariq
taris
tarjamah
tarjamahan
tarling
taro
tarogong
tarompe
tarompet
tartib
tarucing
tarum
tarumanagara
taruna
tarung
tarusbawa
tarutung
tas
tasawuf
tasbe
tasi
tasik
tasikmalaya
task
tasks
tasma
tasmania
taste
tat
tata
tataan
tatah
tatahar
tatakrama
tatamba
tatanan
tatane
tatanen
tatang
tatangga
tatanggana
tatangkalan
tatapa
tatapakan
tatapi
tatar
tatarucingan
tate
tatha
tati
tatu
tau
tauco
taufik
taufiq
tauhid
taun
taunan
taunna
tawa
tawanan
tawang
tawar
tawaran
tawe
tax
taxa
taxi
taxonomy
taya
tayalian
tayamum
tayang
taylor
tayub
tb
tbc
tbilisi
tbk
tc
tcp
td
tdd
tdma
tdp
te
tea
teaching
team
teater
tebet
tebih
tebing
tebo
tebu
tech
technical
technically
technique
techniques
technische
technological
technologies
technology
tectonic
tectorius
ted
teddy
teeth
tegak
tegal
tegalan
tegalwaru
tegangan
teges
tegesna
tegineneng
teguh
teh
tehnik
tehnologi
tehran
teka
tekad
tekanan
tekenan
teki
teknik
teknis
teknologi
teks
tekstil
tekstur
tel
teladan
teladas
telaga
telah
telat
telecom
telecommunication
telecommunications
telegraf
telegram
telegraph
telekomunikasi
telematika
telephone
telephones
telephony
telepon
telescope
teleskop
televisi
television
telkom
telkomvision
tell
telu
teluk
telukbetung
telukjambe
telur
telurium
tema
tembaga
tembang
tembesi
tembok
tembus
temen
tempat
tempatna
tempe
tempel
temperatur
temperature
temperatures
template
templates
temple
tempo
tempona
temporal
temporary
tempuh
tempur
tempuran
ten
tenaga
tenang
tend
tenda
tendency
tends
teng
tengah
tengahan
tengahna
tenggara
tengger
tengtrem
tenis
tenjo
tenjolaya
tennessee
tenong
tenor
tens
tense
tentang
tentara
tente
teorema
teori
tepak
tepang
tepas
tepat
tepatna
tepi
tepikeun
tepung
tepus
ter
terahir
terakhir
teran
terang
terangun
terapan
terapi
teras
terasan
teratur
terbagi
terbaik
terbang
terbanggi
terbanyak
terbatas
terbentuk
terbesar
terbit
terbitan
terbuat
terbuka
tercatat
terdapat
terdiri
terebang
terestrial
terfel
tergantung
terhadap
teri
terima
teripe
terisi
terjadi
terjemahan
terjemahnya
terjun
terkadang
terkait
terkemuka
terkenal
terkini
terlalu
terlarang
terletak
term
termal
termasuk
termed
terminal
terminals
terminologi
terminology
termoplastik
terms
terna
ternak
ternate
terpadu
terpilih
terpisah
terrestrial
territorial
territories
territory
terry
ters
tersebar
tersebut
tersie
tersono
tertentu
tertib
tertinggi
tertinjau
tertulis
tertutup
terumbu
terus
terusan
terutama
terwujudnya
terzaghi
tes
tesis
tesla
test
testament
testing
tests
tetap
tetapi
tetekon
tetempoan
tetep
teterusan
tethys
teton
tetryzoline
tetsu
teu
teuas
teuing
teuku
teuleum
teundeun
teuneung
teunggeulan
teungoh
teunom
teupah
teupati
teupin
teureuh
tewas
texas
text
textbook
textile
textiles
texts
textual
tf
tfrac
tg
th
tha
thai
thailand
thalib
thames
thamrin
than
thana
thariq
that
the
thea
theater
theft
their
them
theme
themselves
then
theodomir
theodore
theorem
theorems
theory
therapy
there
thereby
therefore
thermal
thermoforming
thermometer
these
thesis
theta
they
thick
thief
thin
thing
things
think
thinking
thiopia
third
thirty
this
tho
tholib
thom
thomas
thompson
thomson
thoriq
those
though
thought
thousand
thousands
thr
thre
threatened
three
thriller
through
throughout
throughput
thrown
thumb
thumbnail
thumos
thunnus
thus
ti
tia
tiada
tiamin
tiang
tianjin
tiap
tiara
tiasa
tiba
tibalik
tibatan
tibe
tibet
tibetan
tibeto
tibra
tica
ticket
tico
tidak
tidar
tidore
tidung
tidur
tie
tien
ties
tiga
tigabinanga
tigalingga
tiganderket
tigapanah
tiger
tigris
tiguling
tihang
tiheula
tii
tiis
tiiskeun
tiji
tik
tika
tike
tiket
tikna
tikoro
til
tilar
tilas
tile
tilelep
tilimpik
till
tilu
tim
timah
timang
timbal
timbang
timbangan
timber
timbul
timbulna
time
timeline
times
timeslot
timimiti
timing
timna
timnas
timologi
timologis
timor
timothy
timu
timuan
timur
tin
tina
tinangtu
tindakan
tindih
ting
tingal
tingali
tinggal
tinggaleun
tinggali
tinggi
tingkah
tingkat
tingkatan
tingkeban
tingkir
tini
tinimbang
tinimbangan
tinjauan
tinju
tinjuna
tinta
tinu
tinulis
tinuluy
tiny
tio
tionghoa
tiongkok
tiopia
tiori
tip
tipar
tipe
tipena
tipeu
tipi
tipikal
tipografi
tips
tipu
tipung
tiram
tirip
tiris
tirmidzi
tiro
tiroid
tirosin
tirta
tirtayasa
tirto
tis
tisimal
tisme
tissue
tissues
titan
titanic
titanium
titel
titeue
titi
titik
titilar
titimangsa
titinggal
titinggalian
titiran
titisan
title
titled
titles
tito
tiung
tiup
tiupan
tivi
tiwas
tiwasna
tiwu
tj
tjarita
tje
tk
tkeun
tko
tkr
tl
tm
tmii
tmnr
tn
tna
tnam
tnan
tnf
tni
tnik
tnis
tnologi
tnt
to
toba
tobacco
tobago
tobat
tobing
tobu
toda
today
tode
todeu
toe
toei
toge
together
togo
toha
tohaga
toilet
tokai
toke
tokelau
toki
toko
tokoh
tokoname
toksik
tokugawa
tokyo
tol
tole
toledo
tolerance
tolib
tolombong
tom
toma
tomat
tombangan
tombol
tome
tomentosa
tommy
tomo
ton
tone
tong
tonga
tongge
tonggoh
tonggong
tonggongna
tongkat
tongkol
tonjolan
tonjong
tonkin
tony
too
took
tool
tools
top
topan
tope
topeng
topi
topic
topics
topik
topografi
topology
tor
toraja
toraks
torgamba
tornado
toroidal
toronto
torowongan
torpe
torr
torres
toru
tos
toshiba
toskop
tot
total
totalna
toto
totol
totonde
tottenham
touch
tour
tourism
tourist
tourists
tournament
tours
toward
towards
tower
towers
town
towns
township
toxic
toy
toyama
toyohashi
toyota
tozan
tp
tpi
tq
tr
tra
trace
trachypithecus
track
tracking
tracks
trade
trading
tradisi
tradisional
tradisionalna
tradisonal
tradition
traditional
traditionally
traditions
traffic
trafo
trage
tragedi
tragulus
trahe
trailer
train
training
trains
traktat
tral
tramway
trang
trans
transaksi
transceiver
transfer
transferred
transform
transformasi
transformation
transformed
transformer
transformers
transforms
transfusi
transilvania
transisi
transistor
transistors
transit
transition
transjakarta
transkaukasus
transkripsi
translasi
translated
translation
translations
transliterasi
transmigrasi
transmisi
transmission
transmissions
transmit
transmitted
transmitter
transmitters
transmitting
transnistria
transparan
transparency
transparent
transpor
transport
transportasi
transportation
transportes
transverse
trap
trauma
travel
traveling
travels
travis
traye
tre
treatment
treaty
tree
trees
trek
tren
trend
trends
trenggalek
trenggana
treron
treuk
tri
trial
trials
triangle
trias
tribe
tribune
tribute
trichosanthes
tried
trieng
trienggadeng
tries
trifosfat
trigger
trigonome
trijaya
trik
triliun
trimurjo
trinidad
trio
trip
tripa
triple
tris
trisakti
tristan
trivia
trna
tro
trofi
trombofilia
trombosit
tron
troops
tropenmuseum
tropi
tropical
tropika
tropis
tropolitan
trouble
trout
truck
true
truk
truman
trumon
trump
trung
trunk
trunks
trunyan
truseb
truska
trust
truth
try
trying
ts
tsa
tsar
tsu
tsunade
tsunami
tsunamis
tsushima
tt
tu
tua
tualang
tuan
tuang
tuangeun
tuba
tubagus
tuban
tube
tuberkulosis
tubes
tubrukan
tubuh
tubular
tuduhan
tuesday
tug
tugala
tugas
tugasna
tugu
tuh
tuha
tuhan
tuhemberua
tujuan
tujuana
tujuanana
tujuanna
tujuh
tukang
tukangeun
tukangna
tukeur
tulak
tulang
tulangna
tulip
tulis
tulisan
tulisanana
tulisanna
tulung
tulungagung
tulungan
tulus
tuluy
tuluyan
tumali
tumapel
tumbak
tumbila
tumbu
tumbuh
tumbuhan
tumenggung
tumerap
tumetep
tumiba
tumijajar
tumis
tumor
tumpang
tumpeng
tumpukan
tumpur
tumuluy
tumurun
tumut
tumuwuh
tumuwuhna
tun
tuna
tunai
tunangan
tunas
tunda
tundra
tunduh
tunduk
tuned
tuner
tung
tunggal
tunggang
tunggu
tunggul
tungkal
tungtunan
tungtung
tungtungna
tungtungnakeun
tungturunan
tungtutan
tuning
tunisia
tunjangan
tunjung
tunnel
tunong
tuntutan
tuo
tur
turangga
turbo
turi
turing
turis
turk
turkey
turki
turkish
turkme
turkmenistan
turks
turn
turname
turnamen
turned
turner
turnix
turns
turta
turtle
turun
turuna
turunan
turunanana
turunkeun
turunna
turus
turut
turuwiseun
tus
tusam
tusuk
tut
tutong
tutorial
tutugan
tutuka
tutul
tutuluyan
tutumbu
tutumpakan
tutung
tutunggulan
tutunjuk
tutup
tutupan
tutupna
tutur
tutut
tutuwuhan
tuur
tuvalu
tuwi
tuwuh
tuwuhan
tuyul
tv
tvone
tvri
tw
twain
tweeter
twelve
twentieth
twenty
twice
twilight
twin
twitter
two
tx
ty
type
typed
types
typical
typically
typing
tyson
tz
u
ua
uang
uap
ub
ubaidah
ubar
ubarna
ububan
ubuntu
ubur
uc
ucang
ucap
ucapan
ucb
uchiha
ucing
ucla
ucul
ud
udag
udagan
udang
udara
udeg
udik
udjo
udud
ue
uefa
ueno
ueshiba
uf
ug
uga
uganda
ugeran
ugimba
ugm
ugrik
uh
uhf
uhud
ui
uin
uit
uj
ujang
uji
ujian
ujong
ujug
ujung
ujungberung
uk
ukar
uke
uki
ukiran
ukm
ukraina
ukraine
ukrainian
ukur
ukuran
ukurana
ukuranana
ukuranna
ukurannya
ul
ula
ulah
ulama
ulang
ulangan
ule
ulee
ulikan
ulim
ulin
ulsan
ulster
ultimate
ultimately
ultimatum
ultra
ultraviole
ultraviolet
ulu
uluan
ulugawo
ulum
ulun
ulunoyo
ulususua
um
uma
umang
umar
umat
umatna
umay
umayyah
umbara
umbilik
umbul
umbunasi
umkm
ummi
ummu
ummul
umpakan
umpama
umpamana
umpan
umpu
umroh
umts
umum
umumna
umumnya
umur
umurna
un
una
unak
unbiased
uncal
uncertainty
und
undae
undak
undakan
undang
undangan
under
undergo
undergraduate
underground
underlying
understand
understanding
understood
undur
une
unesco
ung
unggah
unggal
unggas
unggul
unggulan
unggut
ungkapan
ungkara
ungkut
ungu
uni
unicef
unicode
uniform
unik
unikna
unikom
unina
uninga
uninus
union
unique
unisba
unise
unit
united
units
unity
univ
unive
universal
universe
universitas
universiteit
universities
university
unjuk
unknown
unless
unlike
uno
unofficial
unpad
unpas
unrecognized
unsur
unsurna
until
untuk
untung
untungna
unur
unus
unyil
uo
up
upacara
upah
upama
upamana
upami
upas
upaya
upazila
update
updated
updates
upeti
upi
uplink
upload
upon
upper
uppsala
upright
uq
ur
ura
urang
uranium
uranus
urat
urban
urdu
ure
urin
url
urn
ursus
urug
uruguay
urusan
urut
urutan
us
usa
usage
usaha
usahana
usar
usb
usd
usda
use
used
useful
usenet
usep
user
username
users
uses
useup
usgs
ushuluddin
usia
usik
using
uskup
usman
usmar
usopp
uss
ussr
ustmani
ustrali
usu
usual
usually
usuk
usul
usulan
usulna
usum
usuman
usus
ut
uta
utah
utama
utamana
utami
utamina
utan
utang
utara
utc
uterus
uteuk
uteun
util
utility
utilization
utomo
utrecht
utsman
utsmani
utsmaniyah
utuh
uturunku
utusan
utuy
uu
uud
uv
uw
uwais
ux
uy
uyah
uz
uzbe
uzbekistan
v
va
vacuum
vagina
vaksin
vaksinasi
vakuasi
vakum
vakuola
vale
valencia
valentine
valentino
valid
valley
valuable
valuasi
value
valued
values
van
vanadium
vancouver
vanderbilt
vanuatu
vapor
var
varanus
vare
varepsilon
variabel
variable
variables
varian
variance
variant
variants
variasi
variatif
variation
variations
varie
varied
varies
varietas
varieties
variety
variogram
various
varius
varphi
vary
varying
vas
vasa
vasco
vast
vatikan
vb
vc
vd
ve
vec
vector
vectors
vedic
vegas
vegetables
vegetarian
vegetasi
vegetatif
vehicle
vehicles
vektor
velocity
velox
venezuela
venice
ventral
ventrikel
venture
venus
verb
verbal
verbs
verde
verheij
verlag
versa
versatile
versi
version
versions
versus
vert
vertebrae
vertebrata
vertical
vertikal
very
vessels
vesta
vesuvius
veteran
vf
vg
vh
vhf
vi
via
vice
victor
victoria
victory
vide
video
videos
vidio
vie
vienna
vietnam
vietnamese
view
viewed
views
vihara
vihuela
vii
viii
viking
vila
villa
village
vin
vincent
vinci
vine
vintage
vinyl
violence
violet
viral
virgin
virginia
virgo
virtual
virtually
virus
viruses
visa
visi
visible
visigoth
vision
visit
visitors
vista
visual
vital
vitamin
vitis
vitro
viva
vj
vk
vl
vladimir
vm
vn
vo
voc
vocabulary
vocal
vocalist
vocals
vodafone
vodka
vodkas
voice
voices
void
voip
vokal
vokalis
vol
volcanic
volcano
voli
volksraad
vols
volt
volta
voltage
voltages
voltase
volts
volume
volumena
volumes
volusi
volusione
volusioner
von
voor
vote
voted
voters
votes
voting
vowel
vowels
voyage
voyager
vp
vq
vr
vron
vs
vsat
vsb
vt
vu
vulgaris
vulkanik
vulkanis
vulnerable
vv
vw
vx
vy
vz
w
wa
waan
wabah
wabrata
wacana
wada
wadah
wadana
waditra
wado
wadon
waduk
wae
wafat
wafatna
wage
wagner
wah
wahab
wahana
wahangan
wahid
wahyu
wai
waisak
waisya
waiting
waja
wajah
wajar
wajib
wajit
wak
waka
wake
waki
wakil
waktos
waktosna
waktu
waktuna
wal
walahar
walahir
walanda
walangsungsang
walaupun
walcott
wale
wales
wali
walid
walikota
walirang
walk
walker
walks
wall
wallace
wallachia
wallis
walls
walsh
walt
walter
waluh
walungan
waluya
wampu
wan
wana
wanaperih
wanara
wanaraja
wanasari
wanayasa
wancahan
wanci
wanda
wandana
wang
wangan
wangchuck
wangenan
wangi
wangsa
wangsakerta
wangun
wanguna
wangunan
wangunanana
wangunanna
wangunjaya
wangunna
wangwangan
wani
wanita
wanoh
wanoja
want
wantara
wanted
wants
wanua
waqi
war
wara
waragad
warakeun
waralaba
waras
ward
wards
waregu
warfarin
warga
wargana
wargi
waringin
waris
warisan
warm
warman
warming
warna
warnaan
warnana
warner
warni
warning
wars
warsaw
warsawa
warsih
warta
wartawan
waru
waruga
warung
warungasem
warungkondang
was
wasa
wasallam
washington
wasiat
wasir
wasit
wasp
waspada
wasta
wastana
waste
wastu
wata
watak
watang
watangna
watch
watching
wate
watek
watekna
water
waters
wates
watesan
watesna
watson
watt
watts
watu
wav
wave
waveguide
wavelength
waves
wawacan
wawadahan
wawakil
wawales
wawancara
wawane
wawangsalan
wawaran
wawarman
wawasan
wawates
wawatesan
wawatjan
wawuh
way
wayah
wayahna
wayan
wayang
wayne
ways
wb
wc
wd
wdihan
we
weapons
weather
web
webm
webpage
website
webster
webtoon
weda
wedal
wedana
wedding
wedi
week
weekly
weezer
weighing
weight
weights
wejangan
welas
welcome
wele
weleri
welfare
well
wellington
welsh
weltevreden
wenang
wengi
wengkuan
went
were
wereng
werner
weru
weruh
wesi
wesley
west
westenra
western
westminster
westview
wet
wetan
wetaneun
wetu
weureu
weweg
wewenang
wewengkon
wewengkonna
wf
wg
wh
what
whe
wheel
when
where
whether
which
while
whilst
white
whitney
who
whole
whom
whose
why
wi
wiati
wib
wibawa
wibisana
wibowo
wibro
wicitrawirya
widadari
widang
widara
widasari
wide
widely
widespre
widi
widianto
widjaja
widodo
width
widura
widya
wiener
wife
wifi
wih
wiha
wijaksana
wijaya
wijayakusuma
wije
wiki
wikimedia
wikipe
wikipedia
wikisource
wiktionary
wilah
wilangan
wilayah
wilayahna
wild
wilde
wildlife
wiley
wilhelm
wilhelmina
wilhelmus
wilis
will
willd
willem
william
williams
willis
wilson
wilujeng
wimax
win
wina
winaih
wincikan
wind
winding
windings
window
windows
winds
wine
wineh
wing
winged
wings
winkas
winner
winners
winnie
winning
winny
wins
winslet
winston
winter
wira
wiracarita
wiradadaha
wirahadikusumah
wirahma
wiranatakusumah
wirata
wiratanudatar
wire
wireless
wires
wiring
wisata
wisatawan
wisconsin
wisdom
wise
wish
wisma
wisnu
with
within
without
witir
witiza
wiwaha
wiwitan
wiyono
wiyoto
wizards
wj
wk
wka
wl
wlan
wm
wn
wo
wol
wolf
wolff
wolfgang
woman
women
won
wonder
wong
wono
wonogiri
wonokromo
wonosari
wonosobo
wonotunggal
wonpil
woo
wood
wooden
woodrow
woods
woofer
wool
woolpit
word
wordpress
words
work
worked
workers
working
works
workshop
world
worlds
worldwide
worst
wortel
worth
would
wound
woyla
wp
wq
wr
wreck
wrestler
wretikandayun
wright
write
writer
writers
writes
writing
writings
written
wrong
wrote
ws
wssa
wt
wto
wu
wudhu
wuh
wuhan
wujud
wujudna
wuluh
wuluku
wulung
wungkul
wungu
wuruk
wuwung
wv
ww
www
wx
wy
wyatt
wz
x
xa
xanthophyllum
xb
xc
xd
xe
xf
xg
xh
xi
xii
xiii
xiv
xix
xj
xk
xl
xm
xn
xo
xp
xq
xr
xs
xt
xu
xv
xvi
xvii
xviii
xw
xx
xxiv
xxx
xy
xylitol
xz
y
ya
yaa
yadawa
yadika
yadnya
yae
yahoo
yahudi
yahya
yaitu
yakin
yakni
yakuza
yale
yam
yama
yamagata
yamaguchi
yamaha
yamamoto
yaman
yamanashi
yamanote
yamato
yamin
yamuna
yan
yana
yang
yani
yaong
yap
yarmuk
yasa
yasana
yasin
yasser
yat
yatim
yay
yayan
yayasan
yayat
yazid
yb
yc
yd
ye
year
years
yellow
yellowstone
yen
yerevan
yerusalem
yes
yesus
yet
yew
yf
yg
yh
yi
yia
yield
yields
ying
yj
yk
yl
ym
yn
yna
yo
yodium
yoga
yogie
yogya
yogyakarta
yohanes
yokkaichi
yokohama
yokosuka
yomi
yongin
yoo
yordania
york
yorke
yos
yoseph
you
young
younger
your
youth
youtube
yovie
yp
yppm
yq
yr
ys
yt
yu
yuan
yudha
yudhoyono
yudistira
yuga
yugoslavia
yui
yume
yun
yunani
yuni
yunnan
yunus
yupiter
yuri
yurisdiksi
yus
yusuf
yuswa
yuswana
yuta
yuyutsu
yv
yy
yz
z
za
zae
zai
zaid
zainal
zainuddin
zaire
zaitun
zakat
zaman
zambia
zamzam
zanzibar
zaragoza
zaskia
zat
ze
zealand
zebra
zedong
zee
zeit
zelda
zenaida
zeppelin
zero
zeta
zhao
zhi
zhonghua
zhou
zhu
zi
ziarah
zigot
zikan
zikir
zikrul
zim
zimbabwe
zinc
zingiberaceae
zion
ziyad
zn
zombie
zona
zone
zoo
zoologi
zoological
zoology
zoro
zu
zuckerberg
zue
zulu
zur
zurich
zuylen
{
|
}
~


£
¥
§
©
«
¬
­
®
°
±
²
³
´
µ
·
¹
º
»
¼
½
¾
×
ß
æ
ð
ø
ørsted
þ
đ
đa
đi
ħ
ı
ŀ
ł
ŋ
œ
ſ
ƒ
ɑ
ɒ
ɓ
ɔ
ɖ
ə
ɛ
ɟ
ɡ
ɣ
ɨ
ɪ
ɲ
ʃ
ʈ
ʋ
ʎ
ʏ
ʒ
ʔ
ʰ
ʻ
ʼ
ʾ
ʿ
ˈ
ː
˚
̀
́
̂
̃
̄
̆
̇
̈
̉
̊
̋
̌
̏
̑
̓
̔
̛
̣
̥
̦
̧
̨
̭
̰
̱
̸
͂
͡
΄
α
β
γ
δ
ε
ζ
η
θ
ι
κ
λ
μ
ν
ξ
ο
π
ρ
ς
σ
τ
υ
φ
ω
б
в
е
и
м
н
о
у
я
،
؟
ء
ا
اب
ات
اد
ار
اع
اف
اق
ال
الا
الر
الل
الله
الم
الن
ام
ان
اه
ب
بن
ة
ت
ث
ج
ح
خ
د
ذ
ر
ز
س
ش
ص
صلى
ض
ط
ظ
ع
عليه
عن
غ
ـ
ف
في
ق
ك
ل
لا
م
ما
من
ن
نس
ه
هل
و
وا
وسلم
ول
ون
ى
ي
ير
يم
ين
يه
ً
ٌ
ٍ
َ
ُ
ِ
ّ
ْ
ٓ
ٔ
ٕ
ٰ
ٱل
ٱلا
ٱلس
ٱلل
ۖ
ۤ
ं
क
ग
ण
त
द
ध
न
प
ब
भ
म
य
र
ल
व
श
ष
स
ा
ि
ी
ु
ृ
े
ो
्
॑
॒
ং
ব
ম
র
ল
স
়
া
ি
ী
ু
ে
্
ி
்
ത
ാ
ി
്
්
ෙ
ม
ว
ั
ิ
ี
ื
ุ
ู
็
่
้
་
န
ဘ
မ
သ
ာ
း
်
ြ
쌍
ᮀ
ᮁ
ᮂ
ᮃ
ᮃᮊ
ᮃᮒᮝ
ᮃᮔ
ᮃᮚ
ᮃᮞ
ᮄ
ᮄᮉ
ᮄᮔ
ᮄᮞ
ᮅ
ᮆ
ᮆᮒ
ᮇ
ᮇᮌ
ᮉ
ᮊ
ᮊᮔ
ᮊᮘ
ᮊᮜ
ᮊᮞ
ᮌ
ᮌᮜ
ᮍ
ᮍᮔ
ᮎ
ᮏ
ᮏᮓ
ᮏᮝ
ᮐ
ᮑ
ᮑᮆᮒ
ᮒ
ᮒᮅᮔ
ᮒᮒ
ᮒᮔ
ᮓ
ᮔ
ᮔᮊ
ᮔᮔ
ᮕ
ᮕᮊ
ᮕᮒ
ᮕᮔ
ᮖ
ᮗ
ᮘ
ᮘᮌ
ᮘᮔ
ᮘᮞ
ᮙ
ᮙᮍ
ᮙᮔ
ᮙᮞ
ᮚ
ᮛ
ᮜ
ᮝ
ᮝᮜᮔ
ᮞ
ᮞᮊ
ᮞᮕ
ᮞᮛ
ᮞᮜ
ᮞᮞ
ᮠ
ᮠᮔ
ᮠᮛ
ᮡ
ᮢ
ᮣ
ᮤ
ᮥ
ᮦ
ᮧ
ᮨ
ᮩ
᮪
᮲
᮵
᮶
​
‎
‏
‑
–
—
‘
’
“
”
„
†
•
…
′
″
‹
›
⁰
⁻
€
℃
ℓ
№
™
⅓
←
↑
→
↔
↷
⇒
⇔
∂
∈
∑
−
√
∞
∧
∨
∩
∪
∫
≈
≡
≤
≥
⊥
⋅
③
④
⑦
│
▲
○
●
★
♭
⚖
⺀
⺄
⺆
⺈
⺊
⺌
⺕
⺝
⺸
⺼
⿰
⿱
⿲
⿳
⿴
⿵
⿶
⿷
⿸
⿹
⿺
⿻
、
。
〈
〉
「
」
〒
〢
あ
い
う
え
お
か
き
く
け
こ
さ
し
す
せ
そ
た
ち
っ
つ
て
と
な
に
ぬ
ね
の
は
ひ
ふ
へ
ほ
ま
み
む
め
も
ゃ
や
ゅ
ゆ
ょ
よ
ら
り
る
れ
ろ
わ
ゐ
ゑ
を
ん
゙
゚
゛
゜
ァ
ア
ィ
イ
ゥ
ウ
ェ
エ
ォ
オ
カ
キ
ク
ケ
コ
サ
シ
ス
セ
ソ
タ
チ
ッ
ツ
テ
ト
ナ
ニ
ヌ
ネ
ノ
ハ
ヒ
フ
ヘ
ホ
マ
ミ
ム
メ
モ
ャ
ヤ
ュ
ユ
ョ
ヨ
ラ
リ
ル
レ
ロ
ワ
ヰ
ヱ
ヲ
ン
ヶ
・
ー
ㄱ
ㄲ
ㄴ
ㄷ
ㄸ
ㄹ
ㅁ
ㅂ
ㅃ
ㅅ
ㅆ
ㅇ
ㅈ
ㅉ
ㅊ
ㅋ
ㅌ
ㅍ
ㅎ
ㅐ
ㅟ
㇁
㇂
㇄
㇇
㇈
㇉
㇓
㐁
㐄
㐅
㐌
㐫
㐬
㐭
㐮
㐱
㑒
㒵
㒸
㒼
㓁
㓞
㔾
㕛
㕣
㖾
㘝
㚅
㚇
㚔
㚘
㝉
㝡
㝴
㝵
㞋
㞢
㞷
㠩
㠭
㠯
㡀
㡭
㡿
㢲
㢴
㣇
㣺
㥯
㪅
㫄
㫐
㫒
㫺
㬅
㬎
㬥
㬰
㲋
㳄
㷠
㸒
㸚
㸦
㼌
㼲
㽞
㿟
䀠
䂞
䍃
䏍
䒑
䖍
䖒
䖝
䖵
䙴
䚻
䜌
䝿
䡛
䧹
䪞
一
丁
丂
七
丄
丅
丆
万
丈
三
上
下
丌
不
与
丏
丐
丑
专
且
丕
世
丘
丙
业
东
丞
丢
丣
两
严
並
丨
丩
个
丫
丬
中
丮
丰
丱
串
丵
丶
丷
丸
丹
为
主
丽
丿
乀
乂
乃
久
乆
乇
么
义
之
乌
乍
乎
乏
乐
乑
乔
乖
乗
乘
乙
乚
乛
乜
九
乞
也
习
乡
乳
乾
亀
亅
了
亇
予
争
事
二
亍
于
亏
亐
云
互
亓
五
井
亘
亚
亜
亞
亟
亠
亡
亢
交
亥
亦
产
亨
亩
享
京
亭
亮
亯
亰
亲
亳
亶
亷
人
亻
亼
亾
仁
今
介
仌
从
仐
仑
仒
仓
仕
他
付
仙
仝
代
令
以
仮
仲
件
任
企
伊
伏
伐
休
会
伝
伯
但
位
佐
体
何
佘
余
作
佤
佥
使
來
侈
侌
侖
侯
侵
便
保
俞
信
修
倉
倍
候
倠
値
備
僉
働
僕
儿
兀
允
兂
元
兄
充
兆
兇
先
光
兊
克
兌
免
児
兑
兒
兓
兔
党
兜
兟
入
全
兩
兪
八
公
六
兮
兰
共
关
兵
其
具
典
兹
养
兼
冀
冂
冃
冄
内
円
冈
冉
冊
冋
册
再
冎
冏
冐
冒
冓
冖
冗
冘
军
农
冝
冡
冥
冫
冬
冷
几
凡
凢
凵
凶
凷
凸
凹
出
函
凾
刀
刁
刂
刃
刄
刅
分
切
刍
刑
刕
刖
列
刘
则
初
別
利
别
到
制
刺
則
削
剌
前
剡
剽
劉
力
功
加
劦
助
劫
劳
劵
勃
勇
勉
勒
動
務
勝
勞
勢
勤
勹
勺
勻
勾
勿
匀
匂
包
匆
匈
匊
匋
匍
匕
化
北
匚
匝
匡
匪
匱
匸
匹
区
医
匽
匿
區
十
卂
千
卄
卅
卆
升
午
卉
半
卌
华
卑
卒
卓
单
卖
南
卜
卝
卞
占
卡
卢
卣
卤
卦
卩
卪
卬
卯
印
危
即
却
卵
卷
卸
卻
厂
厃
厄
历
厈
厉
厌
厓
厘
厚
原
厤
厥
厨
厭
厲
厶
厷
厸
去
厼
厽
叀
参
參
叅
又
叉
及
友
双
反
叐
发
叒
叔
叕
取
受
叚
叜
叟
叡
口
古
句
另
叩
只
召
可
台
叱
史
右
叵
叶
号
司
叹
吂
各
吅
合
吉
吊
吋
同
名
后
吏
向
吕
君
吝
吞
吠
否
含
启
吳
吴
吹
吾
呂
呆
呈
呉
告
员
呙
周
味
呼
命
咅
和
咎
咠
咢
咨
咸
咼
哀
品
哉
員
哥
哲
唄
唐
商
啇
問
啚
啬
啻
善
喜
喬
單
営
喿
嗇
嘉
噩
嚴
囊
囗
囘
囙
囚
四
回
囟
因
団
囧
囬
困
囱
囷
固
国
圂
圅
國
圍
園
圓
土
圡
圣
圥
在
圭
地
圶
圼
坂
坐
坒
坚
坴
垂
垔
垚
埀
埋
城
域
埶
執
培
基
堂
堅
堆
堇
堯
場
堺
塘
塞
墨
壘
士
壬
壯
声
売
壳
壴
壹
壺
壽
夂
处
夅
夆
备
変
夊
夋
夌
复
夏
夒
夕
外
夗
夘
多
夜
夢
大
夨
天
太
夫
夬
夭
央
失
夲
头
夷
夸
夹
夻
夾
奂
奄
奇
奈
奉
奎
奏
奐
契
奓
奔
奚
奞
奠
奢
奥
奭
女
奴
奻
好
如
妄
妙
妟
妥
妹
妻
妾
始
姑
委
姜
威
娄
娱
婁
婴
嬰
嬴
子
孑
孔
孕
孖
字
存
孚
孛
孝
孟
季
孤
学
孫
孱
學
宀
宁
宂
它
宅
宇
守
安
宋
完
宏
宓
宗
官
定
宛
宜
宝
客
宣
室
宮
宰
害
家
容
宾
宿
寄
寅
密
富
寒
察
寧
審
寫
寬
寮
寸
对
寺
寻
寽
対
寿
封
尃
射
将
將
專
尉
尊
尋
尌
對
小
少
尒
尓
尔
尖
尗
尙
尚
尞
尢
尣
尤
尧
尨
尭
就
尸
尹
尺
尻
尼
尽
尾
尿
局
居
屈
屋
屎
屏
屑
展
屖
屚
属
屠
屡
屬
屮
屯
屰
山
屵
屾
岁
岂
岐
岑
岡
岩
岳
岸
峯
島
崇
崎
崑
崔
崖
崙
崩
嵐
嵬
嶲
巂
巛
川
州
巟
巠
巢
巤
工
左
巧
巨
巩
巫
差
己
已
巳
巴
巷
巸
巽
巾
巿
帀
市
布
希
帚
帛
帝
带
師
席
帰
帶
常
幌
干
平
年
幵
并
幷
幸
幺
幻
幼
幽
幾
广
庁
広
庄
床
底
店
庚
府
度
庫
庭
庶
康
庸
廉
廌
廛
廣
廩
廴
延
廷
建
廾
廿
开
弁
弃
弄
弇
弋
式
弓
弔
引
弗
弘
弜
弟
弥
弦
弱
張
強
强
弾
彊
彌
彎
彐
彑
当
彔
录
彖
彗
彡
形
彥
彦
彧
彭
彳
役
彼
往
待
律
後
徒
得
徙
從
御
復
微
徳
徵
德
心
忄
必
忌
忍
志
応
忝
忠
忩
快
念
忽
忿
怒
思
怠
急
性
怪
怱
恆
恒
恩
恭
息
恵
悉
患
悤
悪
悲
悶
悼
情
惠
惡
惢
愁
愈
意
愛
感
慈
慧
慮
慶
憂
憲
應
懐
戀
戈
戉
戊
戋
戌
戍
戎
成
我
戒
戔
或
戚
戠
戢
戦
截
戲
戶
户
戸
戹
戼
戾
房
所
扁
扇
手
扌
才
打
托
执
承
技
折
拉
拜
拿
掌
探
推
提
摩
撃
支
攴
攵
收
攸
改
放
政
敄
敏
敕
敖
敗
教
敝
敞
敢
散
敦
敫
敬
数
敵
敷
數
斂
文
斉
斊
斎
斗
斤
斥
斩
斬
斯
新
方
於
施
斿
旁
旅
旋
族
无
旡
既
旣
日
旦
旧
旨
早
旬
旱
旲
时
旾
昆
昇
昌
昍
明
昏
易
昔
昗
昜
星
春
昬
是
昱
昴
昷
時
晃
晋
晏
普
景
晶
智
暑
暴
曇
曩
曰
曲
曳
更
曷
書
曹
曼
曾
替
最
朁
會
月
有
朋
服
朔
朕
朗
望
朝
木
朩
未
末
本
札
朮
术
朱
朵
朶
朿
杀
李
杏
村
杜
束
条
来
東
杲
杳
松
析
林
枚
果
枝
枲
枼
某
柔
查
柬
柰
柴
栄
栗
根
桀
桑
桼
梁
條
梟
梨
棘
棠
棥
森
楚
業
極
楽
榮
樂
樊
横
橋
機
欠
次
欣
欮
欲
欶
欽
款
歆
歇
歌
歛
止
正
此
步
武
歨
歪
歮
歯
歰
歲
歴
歷
歸
歹
歺
死
殳
段
殷
殸
殹
殺
殻
殿
毋
毌
母
每
毒
比
毕
毚
毛
毳
氏
氐
民
气
気
氣
水
氵
氶
氷
永
氺
氾
求
汉
汝
汞
江
池
決
沃
沓
沖
沙
沝
河
治
泉
法
波
泣
泥
泰
洋
洛
洞
津
洪
洲
活
派
流
浜
浦
浪
浮
海
淡
淮
淸
清
渚
渠
港
湖
湯
湾
源
滅
滿
漢
漸
激
濁
濃
灣
火
灬
灭
灰
灵
灷
炅
炎
炏
炗
炙
炭
点
為
烈
烏
烝
焉
無
焦
焱
然
煞
熊
熏
熱
燃
燕
營
燮
爆
爪
爫
爭
爯
爰
爱
爲
爵
父
爻
爽
爾
爿
片
牙
牚
牛
牜
牟
牢
牧
物
牪
特
牽
犀
犬
犭
犮
狂
狄
狊
独
狺
猋
猒
猛
猪
献
猿
獄
獅
獣
獻
玄
率
玉
王
玟
玨
珎
班
現
球
琴
瑟
瑩
環
瓜
瓦
甘
甚
生
産
用
甫
甬
田
由
甲
申
电
甶
男
甸
甹
町
画
甾
畀
界
畏
畐
畑
留
畜
畟
畢
畧
畨
番
畫
異
畱
當
畺
畾
畿
疊
疋
疌
疑
疒
疾
癶
癸
癹
発
登
發
白
百
皀
皃
的
皆
皇
皋
皐
皕
皮
皷
皿
盃
盆
盇
盈
益
盍
盎
监
盒
盖
盛
盡
監
盤
盧
目
直
相
盾
省
眇
眉
看
県
眔
眞
真
眷
眼
眾
着
睘
睪
睿
瞏
瞢
瞬
瞿
矍
矛
矞
矢
矣
知
矦
短
石
研
破
碎
磊
磨
示
礻
礼
社
神
祟
票
祭
禀
禁
福
禸
禹
禺
离
禽
禾
禿
秀
私
秃
秉
秋
科
秝
秦
移
稟
稲
穀
穌
穴
究
穹
空
穿
突
窄
窒
立
竒
竜
竝
竟
章
童
竹
笑
笠
第
笼
筆
等
筑
答
箕
算
箱
箴
節
篤
篭
米
粉
粛
粟
粤
粦
粲
糞
糸
糹
系
紀
約
紅
納
素
索
紫
累
細
終
絜
絫
絲
維
綿
総
線
縣
繇
纍
纟
组
织
缶
网
罒
罔
罕
罗
罙
罡
罢
罪
署
罷
羅
羊
羌
羍
美
羔
羕
羗
羞
羡
羣
群
義
羲
羸
羽
翁
翏
習
翕
翟
翠
翼
老
耂
考
者
耆
而
耎
耑
耒
耳
耴
耶
耷
聂
聊
聖
聚
聶
聿
肀
肃
肅
肉
肖
肙
肥
肩
肯
育
肴
胃
背
胡
胥
能
脊
脩
膚
臣
臤
臧
臨
自
臬
臭
臯
臱
至
致
臺
臼
臽
臾
臿
舀
舂
舄
與
興
舉
舌
舍
舛
舜
舞
舟
般
船
艮
良
色
艸
艹
艾
芒
芔
芝
芬
芮
花
芳
芺
芻
苔
苗
苟
若
苦
英
茨
茶
茸
荅
草
荒
荣
荼
莆
莊
莧
莫
莽
菆
菊
菐
菜
華
萬
落
葉
著
葛
董
葵
蒙
蒦
蒼
蓋
蓬
蓺
蔑
蔡
蕉
蕭
薄
薛
薦
薰
藍
藏
藤
藥
蘇
蘭
虍
虎
虐
虒
虔
處
虖
虗
虘
虚
虛
虜
虞
號
虫
虽
蚤
蚩
蜀
蜜
蟲
蠡
血
行
衍
衛
衣
衤
表
衮
衰
袁
袞
製
褭
褱
襄
襾
西
覀
要
覃
見
規
覓
覧
親
観
覽
见
角
解
言
訁
訇
計
訓
記
詹
誓
語
誩
説
読
誰
諸
讃
讠
诗
语
谷
豆
豈
豊
豐
豕
豖
豙
象
豦
豩
豪
豸
貇
貝
貞
貟
負
貢
貧
貪
貫
責
貳
貴
買
費
賀
賁
資
賈
賊
賏
賓
賔
賛
賞
賢
賣
質
賴
贊
贝
贡
责
贯
贲
贵
赖
赞
赤
赦
走
超
越
足
跡
路
蹇
身
躬
車
軌
軍
軎
軟
輝
輦
车
辛
辜
辟
辥
辰
辱
農
辵
辶
边
达
过
近
连
迷
追
退
送
逆
逐
通
速
造
逢
連
逮
進
遀
遂
遇
運
過
道
達
遠
遣
適
遷
遺
邊
邑
邕
那
邦
邪
郎
郡
部
郭
都
鄉
酉
酋
配
酓
釆
采
里
重
野
量
金
釒
釜
鈴
鉄
銀
銚
鋼
錢
錦
鐵
钅
長
镸
长
門
閃
閉
開
閏
閑
閒
間
閔
関
閵
閻
闌
闘
门
间
闷
阑
阜
阝
阪
阿
降
陳
陸
険
陽
隆
隊
隋
隐
隡
隨
隱
隶
隹
隺
隻
隼
隽
难
雀
雁
雄
雅
集
雈
雋
雍
雐
雔
雙
雚
雜
雝
離
難
雨
雩
雪
雲
零
雷
電
需
震
霍
霜
霝
霞
霸
靈
靑
青
静
非
靡
面
靣
革
韋
韦
韭
韯
韱
音
頁
頃
項
順
須
頗
頡
頭
頻
顛
顯
页
風
风
飛
飞
食
飠
養
館
饣
首
香
馬
馮
駅
駒
駦
马
骨
體
高
髟
鬥
鬯
鬲
鬼
魂
魔
魚
魯
鮮
鯉
鱼
鲁
鳥
鳳
鸟
鹵
鹿
麃
麗
麥
麦
麻
黃
黄
黍
黎
黑
黒
黨
黹
黽
黾
鼎
鼓
鼠
鼻
齊
齋
齐
齒
齿
龍
龙
龜
龟
龠
龰
龱
龴
龵
龶
龷
龸
龹
ꦏ
ꦠ
ꦧ
ꦩ
ꦫ
ꦭ
ꦮ
ꦱ
ꦶ
ꦸ
ꦼ
ꦿ
꧀

者
艹
ﷺ
（
）
，
－
：
？
｜
～
･
￼
�
🛄
𠀁
𠀃
𠀆
𠀉
𠀎
𠀐
𠁁
𠁣
𠂆
𠂇
𠂈
𠂉
𠂊
𠂋
𠂎
𠂒
𠂔
𠂛
𠂡
𠂢
𠂤
𠂬
𠂭
𠂹
𠃊
𠃋
𠃌
𠃍
𠃎
𠃑
𠃓
𠃔
𠃜
𠄌
𠄎
𠄠
𠄢
𠆢
𠆥
𠇍
𠈌
𠌵
𠓜
𠔉
𠔥
𠔼
𠔽
𠔿
𠕀
𠕁
𠕋
𠘧
𠘨
𠙻
𠙼
𠚏
𠚒
𠚤
𠚪
𠣏
𠤎
𠤕
𠥓
𠦄
𠦑
𠦝
𠧒
𠧗
𠧪
𠩺
𠪚
𠫓
𠫔
𠫤
𠬛
𠬝
𠬞
𠬢
𠬤
𠬶
𠮛
𠮦
𠮷
𠯑
𠱠
𠳮
𠷎
𡈼
𡉀
𡉵
𡌥
𡍮
𡏳
𡕒
𡕩
𡕰
𡖅
𡗗
𡗜
𡘆
𡘤
𡧱
𡨄
𡩧
𡬠
𡭽
𡰣
𡰥
𡰪
𡰯
𡰱
𡷈
𡸁
𡿨
𡿩
𡿪
𡿺
𢀖
𢀛
𢀩
𢁙
𢆉
𢆰
𢆶
𢇁
𢇇
𢉖
𢌬
𢌿
𢏚
𢑑
𢑚
𢖻
𢙣
𢛳
𢦏
𢦒
𢧵
𢼄
𢾕
𣁋
𣄼
𣅀
𣅽
𣍘
𣎳
𣎵
𣏋
𣏼
𣗥
𣥂
𣥖
𣦵
𣦼
𣧄
𣪊
𣪠
𣬉
𣳾
𣶒
𤇾
𤊽
𤐫
𤓰
𤔔
𤕨
𤣩
𤰇
𤰔
𤰞
𤴓
𤴔
𤽄
𥁑
𥁕
𥃦
𥃩
𥃭
𥇡
𥑟
𥘅
𥘈
𥝢
𥫗
𥱡
𦈢
𦉪
𦉬
𦉼
𦍌
𦍒
𦎧
𦐇
𦓔
𦔮
𦘒
𦙃
𦚏
𦣝
𦣞
𦣻
𦥑
𦥔
𦥯
𦨉
𦭝
𦰩
𧆞
𧈧
𧘇
𧰨
𧴪
𧴮
𧵩
𧾷
𨸏
𨾴
𩙿
𩠐
𩫏
𩵋
𪉷
𪜀
𪟽
𪠲
𪩲
𫇦
𫔭
𫜸
𫝀
𫠣
𫠩
𫢉
𫥞
𫩏
𫩠
𫪡
𫲽
𫶧
𬀷
𬐘
𬗌
𬙙
𬛸
𬜯
𬟩
𬯁
𬴘
𬺻
𬼉
𬼖
𭀰
𭁈
𭁨
𭅰
𭑈
𭕄
𭗼
𭤨
𭥫
𭻾
𮅕
𮊿
𮍌
𮍏
𮓗
𮥼
𮧮
廾
𰀁
𰀄
𰀈
𰀉
𰀕
𰀠
𰀡
𰀢
𰀪
𰁜
𰃮
𰆊
𰆘
𰋙
𰕎
𰢴
𰧭
𰯲
01--
02--
03--
04--
05--
06--
07--
08--
09--
100--
102--
104--
106--
111--
114--
116--
118--
119--
120--
121--
124--
126--
130--
133--
136--
137--
138--
139--
140--
141--
143--
147--
149--
152--
153--
154--
155--
156--
159--
162--
163--
166--
172--
2010--
202--
2025--
206--
207--
208--
210--
211--
213--
215--
216--
217--
218--
219--
221--
223--
224--
226--
22680--
227--
230--
231--
232--
234--
235--
236--
237--
240--
241--
242--
243--
244--
245--
247--
248--
250--
251--
252--
253--
254--
256--
258--
259--
260--
263--
264--
265--
267--
268--
270--
271--
272--
275--
276--
277--
278--
279--
281--
284--
285--
286--
288--
290--
292--
293--
294--
296--
297--
298--
300--
301--
302--
303--
304--
305--
306--
307--
308--
309--
310--
311--
312--
313--
315--
317--
318--
319--
322--
323--
324--
326--
327--
328--
329--
331--
332--
333--
334--
335--
336--
337--
338--
339--
340--
342--
343--
344--
345--
346--
347--
348--
349--
350--
351--
352--
353--
354--
356--
357--
358--
361--
363--
364--
365--
366--
367--
368--
369--
370--
371--
372--
373--
374--
376--
377--
378--
380--
381--
382--
384--
385--
386--
387--
388--
389--
390--
391--
392--
393--
394--
395--
396--
397--
399--
401--
402--
403--
405--
406--
407--
408--
409--
416--
455--
468--
474--
483--
488--
600--
607--
697--
69786--
698--
699--
80--
84--
85--
86--
87--
88--
89--
90--
92--
9286--
93--
94--
95--
96--
97--
978--
978979--
979--
99--
aa--
ab--
aba--
abbre--
abd--
abdul--
abi--
aboli--
abs--
absor--
abu--
ac--
acade--
acceler--
accum--
ace--
ach--
act--
activ--
ad--
ada--
add--
adi--
adje--
admini--
adu--
advi--
ae--
aero--
af--
aff--
afri--
after--
ag--
ago--
agro--
ah--
ai--
air--
aj--
aja--
aji--
ajur--
ak--
aka--
aki--
aku--
al--
ala--
alam--
ale--
aleks--
ali--
alih--
all--
aller--
alm--
alo--
als--
alt--
alter--
alum--
am--
ama--
ambo--
ame--
ami--
ams--
an--
ana--
analy--
anc--
ancho--
and--
anda--
ane--
aneka--
ang--
angli--
ani--
ann--
ans--
ant--
anta--
antar--
antho--
anthrop--
anti--
anu--
any--
ao--
ap--
apa--
apert--
api--
apoc--
[...]
