!
"
#
##0
##1
##10
##11
##12
##13
##14
##15
##16
##17
##18
##19
##2
##20
##21
##22
##23
##24
##25
##26
##27
##28
##29
##3
##30
##31
##32
##33
##34
##35
##36
##37
##38
##39
##4
##40
##41
##42
##43
##44
##45
##46
##47
##48
##49
##5
##50
##51
##52
##53
##54
##55
##56
##57
##58
##59
##6
##60
##61
##62
##63
##64
##65
##66
##67
##68
##69
##7
##70
##71
##72
##73
##74
##75
##76
##77
##78
##79
##8
##80
##81
##82
##83
##84
##85
##86
##87
##88
##89
##9
##90
##91
##92
##93
##94
##95
##96
##97
##98
##99
$
%
&
'
(
)
*
+
,
-
.
/
0
00
000
001
002
003
004
005
006
007
008
009
01
010
011
014
017
02
020
021
0215
022
03
032
04
044
05
050
06
067
07
08
081
08160
09
1
10
100
1000
1001
1002
1006
1007
101
1010
1011
1012
1016
1017
1019
102
1021
103
1030
1033
1037
1038
104
1042
1046
1048
105
106
1066
107
1073
108
1080
1086
1088
109
1093
1095
1098
11
110
1100
1101
111
1111
112
1126
113
1130
1136
114
115
1155
116
1163
117
1175
1178
118
1186
1187
119
12
120
1200
121
122
123
124
125
1250
126
127
128
129
1293
1297
13
130
1300
131
132
133
1333
134
135
1350
1357
136
1365
1368
137
1371
138
1386
139
1394
14
140
1400
141
142
143
144
1440
145
1453
146
1469
147
1475
148
1482
149
1492
1494
1498
15
150
1500
151
1510
1512
1518
1519
152
1520
1521
1522
1524
1527
1529
153
1530
1533
1534
1535
1536
154
1542
1543
1546
155
1550
1555
156
1564
1568
157
1570
1573
1575
1579
158
1580
1582
1584
1585
1586
1587
159
1590
1596
16
160
1600
1601
1603
1606
1607
1608
1609
161
1610
1612
1613
1616
1618
1619
162
1620
1622
1624
1629
163
1630
1636
1638
164
1640
1641
1642
1643
1644
1645
165
1650
1655
1659
166
1660
1665
167
1672
1674
1676
1677
1678
1679
168
1680
1683
1687
1689
169
17
170
1700
1701
1702
1703
1704
1706
1707
171
1710
1718
172
1720
1722
1724
1727
173
1730
1735
1736
1738
174
1740
1743
1744
1745
1746
1747
1748
1749
175
1750
1751
1752
1753
1755
1756
1757
1758
1759
176
1760
1761
1762
1763
1765
1768
1769
177
1770
1771
1772
1773
1774
1775
1776
1777
1778
1779
178
1780
1781
1782
1783
1784
1785
1786
1787
1788
1789
179
1790
1791
1792
1793
1794
1795
1796
1797
1798
1799
18
180
1800
1801
1802
1803
1804
1805
1806
1807
1808
1809
181
1810
1811
1812
1813
1814
1815
1816
1817
1818
1819
182
1820
1821
1822
1823
1824
1825
1826
1827
1828
1829
183
1830
1831
1832
1833
1834
1835
1836
1837
1838
1839
184
1840
1841
1842
1843
1844
1845
1846
1847
1848
1849
185
1850
1851
1852
1853
1854
1855
1856
1857
1858
1859
186
1860
1861
1862
1863
1864
1865
1866
1867
1868
1869
187
1870
1871
1872
1873
1874
1875
1876
1877
1878
1879
188
1880
1881
1882
1883
1884
1885
1886
1887
1888
1889
189
1890
1891
1892
1893
1894
1895
1896
1897
1898
1899
19
190
1900
1901
1902
1903
1904
1905
1906
1907
1908
1909
191
1910
1911
1912
1913
1914
1915
1916
1917
1918
1919
192
1920
1921
1922
1923
1924
1925
1926
1927
1928
1929
193
1930
1931
1932
1933
1934
1935
1936
1937
1938
1939
194
1940
1941
1942
1943
1944
1945
1946
1947
1948
1949
195
1950
1951
1952
1953
1954
1955
1956
1957
1958
1959
196
1960
1961
1962
1963
1964
1965
1966
1967
1968
1969
197
1970
1971
1972
1973
1974
1975
1976
1977
1978
1979
198
1980
1981
1982
1983
1984
1985
1986
1987
1988
1989
199
1990
1991
1992
1993
1994
1995
1996
1997
1998
1999
2
20
200
2000
2001
2002
2003
2004
2005
2006
2007
2008
2009
201
2010
2011
2012
2013
2014
2015
2016
2017
2018
2019
202
2020
2021
2022
2023
2024
2025
203
204
205
206
207
208
209
21
210
2100
211
212
213
214
215
216
217
218
219
22
220
221
222
223
224
225
226
227
228
229
23
230
2305
2307
231
232
233
234
235
2356
236
237
238
239
24
240
241
242
243
244
245
246
247
248
249
25
250
2500
2502
251
252
253
254
255
256
257
258
259
26
260
261
262
263
264
265
266
267
268
269
27
270
271
272
273
274
275
276
277
278
279
28
280
281
282
283
284
285
286
287
288
289
29
290
291
292
293
294
295
296
297
298
299
3
30
300
3000
301
302
303
304
305
306
307
308
309
31
310
311
312
313
314
315
315290
316
3166
317
318
319
32
320
321
322
323
324
325
326
327
328
329
33
330
331
332
333
334
335
336
337
338
339
34
340
341
342
342302
342303
342304
343
344
345
346
347
348
349
349335
349336
349337
349338
349339
35
350
351
352
353
354
355
356
357
358
359
36
360
361
362
363
364
365
366
367
368
369
369258
369259
369260
369261
369285
37
370
371
372
373
374
3745
375
376
377
377896
378
379
38
380
381
382
383
384
385
386
386982
387
388
389
39
390
391
392
392478
392479
392488
393
394
395
396
397
397877
397878
397880
397881
397884
397900
398
399
4
40
400
4000
401
402
403
403115
403123
403124
403125
404
405
406
407
408
409
409584
41
410
411
412
413
414
415
416
417
418
419
42
420
421
422
423
424
425
426
427
428
429
43
430
431
432
43281
433
434
435
436
437
438
439
44
440
441
442
443
444
445
446
447
448
449
45
450
451
452
453
454
45463431
455
456
457
458
459
46
460
461
462
463
464
465
466
467
468
469
47
470
471
472
473
474
475
476
477
478
479
48
480
481
482
483
484
485
486
487
488
489
49
490
491
492
493
494
495
496
497
498
499
5
50
500
5000
501
502
503
504
505
506
507
508
509
51
510
511
512
513
514
515
516
517
518
519
52
520
521
522
523
524
525
526
527
528
529
53
530
531
532
533
534
535
536
537
538
539
54
540
541
542
543
544
545
546
547
548
549
55
550
551
552
553
554
555
556
557
558
559
56
560
561
562
563
564
565
566
567
568
569
57
570
571
572
573
574
575
576
577
578
579
58
580
581
582
583
584
585
586
587
588
589
59
590
591
592
593
594
595
596
597
598
599
6
60
600
6000
601
602
603
604
605
606
607
6075
608
609
61
610
611
612
613
614
615
616
617
618
619
62
620
621
622
623
624
625
626
627
628
629
63
630
631
632
633
634
635
636
637
638
639
64
640
641
642
643
644
645
646
647
648
649
65
650
651
652
653
654
655
656
657
658
659
66
660
661
662
663
664
665
666
667
668
669
67
670
671
672
673
674
675
676
677
678
679
68
680
681
682
683
684
685
686
687
688
689
69
690
691
692
693
694
695
696
697
698
699
7
70
700
701
702
703
704
705
706
707
708
709
71
710
711
712
713
714
715
716
717
718
719
72
720
721
722
723
724
725
726
727
728
729
73
730
731
732
733
734
735
736
737
738
739
74
740
741
742
743
744
745
746
747
748
749
75
750
751
752
753
754
755
756
757
758
759
76
760
761
762
763
764
765
766
767
768
769
77
770
771
772
773
774
775
776
777
778
7785
779
78
780
781
782
783
784
785
786
787
788
79
790
792
793
794
795
796
797
798
799
8
80
800
8000
801
802
803
804
806
808
809
81
810
811
81119
81152
81153
81154
81161
812
813
814
816
817
819
82
820
821
822
824
8248
825
826
827
829
83
830
831
832
833
835
838
84
840
843
845
847
849
85
850
852
855
856
858
86
860
861
864
868
869
8693
87
870
873
875
879
88
880
881
883
884
885
887
888
889
89
890
891
894
895
897
9
90
900
901
907
909
91
910
911
913
914
915
917
92
920
925
929
93
930
932
936
94
940
942
944
949
95
950
951
952
954
955
958
96
960
961
962
964
965
967
97
970
971
973
974
975
976
978
9786022297437
9786026475275
9786028693226
9789790061941
9789814480338
979
9793631937
9794192597
98
980
981
983
984
989
99
990
999
:
;
<
=
>
?
@
[
\
]
^
_
`
a
aa
aacs
aam
aan
aang
aanteekeningen
aaron
ab
aba
abad
abadi
abah
abandoned
abang
abbas
abbasiyah
abbey
abc
abd
abdallah
abdas
abdi
abdome
abdul
abdullah
abdulloh
abdurrahman
abe
abel
abi
abidin
abidjan
ability
abimanyu
abiu
abiyasa
abjad
abkhazia
able
abnormal
abnormalitas
abon
abong
about
above
abraham
abrasi
abri
abroad
abs
absence
absolut
absolute
abstract
abstrak
abu
abul
abundance
abung
abus
abuse
abuskeun
ac
academia
academic
academies
academy
acak
acan
acar
acara
acceleration
accent
accept
acceptable
accepted
access
accessdate
accessed
accession
accessyear
accord
according
account
accounting
accounts
accuracy
accurate
accurately
ace
aceh
ach
achaemenid
ached
aches
achieve
achieved
aching
achmad
aci
acid
acids
acquired
across
act
acta
acting
action
actions
activation
active
activist
activities
activity
actor
actress
acts
actual
actually
acuan
aculeatissimum
acuminata
acute
ad
ada
adab
adakah
adalah
adam
adamantan
adams
adan
adang
adansonia
adanya
adaptasi
adaptation
adas
adat
add
added
addie
adding
addison
addition
additional
additionally
additive
address
adds
ade
adeg
adegan
aden
ader
aders
adha
adi
adian
adidaya
adigung
adil
adilaya
adiluwih
adina
ading
adipati
adisi
aditif
aditya
adjacent
adjustment
admin
administrasi
administratif
administratifna
administration
administrative
administrator
admiral
adnan
adolf
adonan
adopted
adre
adriaan
adrian
ads
adsl
adu
aduh
aduk
adult
advance
advanced
advances
advantage
advantages
advent
adventure
adventures
advertising
advice
advokat
ady
ae
aegean
aek
aereas
aerial
aero
aerospace
aerox
af
afar
afc
afdeeling
aff
affair
affairs
affan
affandi
affect
affected
afganistan
afghan
afghanistan
afix
africa
african
afrika
afrikaans
afro
after
afulu
ag
again
against
agak
agam
agama
agamana
agan
agar
age
ageman
agen
agency
ageng
agent
agents
ager
ages
ageung
aging
ago
agrabinta
agre
agreed
agreement
agresi
agribisnis
agricultural
agriculture
agrikultur
agro
agroforestry
agromedia
agronomi
ague
agul
agum
agung
agus
agustus
ah
ahad
ahar
ahe
ahir
ahiran
ahirna
ahli
ahmad
ahmed
ahr
ahy
ai
aichi
aid
aids
aikido
aikidoka
ain
aing
ainu
air
airasia
airborne
airbus
aircraft
aires
airlangga
airline
airlines
airplane
airport
airports
airways
ais
aise
aisyah
aj
aja
ajag
ajaib
ajal
ajang
ajar
ajaran
aje
ajeg
ajen
ajengan
aji
ajian
ajibarang
ajibata
ajip
ajug
ak
aka
akad
akademi
akademik
akademis
akademisi
akal
akan
akang
akar
akaran
akarna
akbar
ake
aker
akers
akeun
akhir
akhirat
akhirna
akhirnya
akhlak
aki
akibat
akibatna
akihito
akina
aking
akita
akkeun
akon
akrab
akram
akronim
aks
aksara
akse
aksele
akselerasi
akses
aksi
aksikeun
aksina
akson
akta
aktan
aktansi
akte
aktif
aktifitas
akting
aktingna
aktip
aktipis
aktipitas
aktiva
aktivasi
aktivis
aktivitas
aktor
aktris
aku
akuarium
akuatik
akumulasi
akun
akuntan
akuntansi
akur
akurasi
akurat
akustik
akut
al
ala
alabama
alah
alaihi
alain
alam
alamat
alami
alamiah
alamna
alan
aland
alang
alanin
alap
alapan
alas
alasa
alasan
alaska
alat
alatan
alatas
alba
albania
albany
albedo
albert
alberto
albeum
albizia
albrecht
album
albumin
albumna
albums
alchemists
alchemy
alcohol
aldehida
aldi
ale
aled
alergi
alesan
alesanna
alessandro
alex
alexa
alexander
alexandra
alexandria
alfa
alfabe
alfabet
alfred
alga
algae
algebra
algeria
algonquian
algorithm
algorithms
algoritma
ali
aliansi
alias
alice
alie
alien
alif
aligned
alih
alim
aling
alip
aliran
alison
alit
ality
alive
aliyah
aljabar
aljazair
alkali
alkaloid
alkana
alke
alkemis
alkil
alkitab
alkohol
alkuna
all
alla
allah
allan
allen
alliance
allium
allmovie
allmusic
allocated
allocation
alloh
allow
allowed
allowing
allows
ally
alm
almanac
almarhum
almohad
almost
alo
alodokter
alokasi
alomorf
alon
alona
alone
along
alonso
alpen
alpha
alphabet
alpine
alprazolam
alpukah
alpukahna
alpuket
alquran
alre
already
als
also
alsophila
altafsir
alternatif
alternating
alternatip
alternative
alternatively
alternatives
alth
although
alto
alue
alum
aluminium
alumni
alumunium
alun
alur
alus
alusna
aluvial
alva
alvin
always
alwi
alzheimer
am
ama
amal
aman
amanah
amanan
amanat
amanda
amandel
amandeme
amandraya
amangkurat
amarah
amat
amaterasu
amateur
amatir
amazine
amazing
amazon
amba
ambahan
ambalika
ambang
ambarawa
ambassador
ambe
ambek
ambekan
amber
ambeu
ambeuna
ambiguitas
ambika
ambil
amboinense
ambon
ambri
ambu
ambulan
ame
amelia
america
american
americans
americas
amerika
amfibi
ami
amien
amik
amil
amin
amina
aminah
aming
amino
amir
amis
amit
amitriptilin
amitriptyline
amoeba
among
amonia
amonium
amor
amorf
amorphophallus
amount
amounts
amp
ampar
amparan
ampat
ampe
ampel
ampera
ampere
amphibian
ampibi
ampir
amplas
amplifier
amplifiers
amplitude
amplitudo
amplop
amps
amr
ams
amstelaedami
amsterdam
amundsen
amunisi
amy
an
ana
anacardium
anae
anak
anakan
anakna
analgesik
analisa
analisis
analitis
analog
analogi
analogous
analyses
analysis
analytical
anana
ananda
anang
anapon
anas
anastasia
anatara
anatolia
anatomi
anatomis
anatomy
anc
anca
ancaman
anceman
ancestry
anchovy
ancient
ancik
ancol
ancrub
ancur
and
anda
andalan
andalas
andalus
andalusia
andam
andaman
andawali
ande
andelan
anders
anderson
andes
andi
andika
andir
andorra
andre
andrea
andreas
andrew
andrews
android
anduk
andy
ane
aneka
anemia
ang
angan
angel
angeles
angelo
angels
angen
anger
angeun
angga
anggahota
anggang
anggap
anggapan
anggar
anggaran
anggel
angger
anggeus
anggitan
anggota
anggotana
anggre
anggrek
anggun
anggur
angin
anging
angiospermae
angka
angkasa
angkat
angkatan
angke
angklung
angkola
angkot
angkre
angkutan
angle
anglo
angola
angon
angora
angsana
anguilla
angulimala
angustifolia
ani
ania
animal
animals
animasi
animated
animation
animator
anime
aning
anion
anjasmoro
anjatan
anjeun
anjeuna
anjeunna
anjing
anjlok
anjog
anjungan
ankara
ankle
ann
anna
annals
annana
anne
annie
anniversary
annona
annotated
announce
announced
announces
annual
anoe
anom
anomali
anonim
anopheles
anorganik
another
ans
ansi
answer
answers
ant
anta
antagonis
antah
antanan
antar
antara
antarana
antaranews
antaranya
antarbeungeut
antarctic
antarctica
antareja
antariksa
antarstasiun
antartika
antawacana
antawis
antawisna
antazoline
ante
anteb
antel
anteneu
antenna
antennas
antepkeun
anterior
anthem
anthony
anthropology
anti
antibakteri
antibiotik
antibodi
antige
antigen
antigua
antik
antillen
antilles
anting
antiokhos
antioksidan
antiquity
antiseptik
antoine
antologi
anton
antonio
antraks
antropologi
ants
antukna
anu
anugerah
anugrah
anumerta
anus
anwar
any
anyaman
anyang
anyar
anyarna
anyer
anything
ao
aom
aomori
aora
ap
apa
apabila
apache
apakah
apal
apapun
aparat
apart
aparteme
apartheid
apatis
ape
apec
apel
apes
apganistan
api
apik
apingan
aplikasi
apollo
apons
apoptosis
apoptotic
aporosa
apote
app
apparent
appe
appendix
apple
application
applications
applied
applies
apply
applying
appointed
approach
approaches
appropriate
approved
approx
approximate
approximately
approximation
apps
apr
apre
apresiasi
aprika
aprikot
april
aptb
apu
apud
apung
apus
aq
aqua
aquatic
aquifer
aquila
ar
ara
arab
arabi
arabia
arabian
arabic
arafah
arafat
aragon
arah
arahan
arahna
aralus
aram
aramco
aramo
arance
arang
aranjeun
aranjeuna
aranjeunna
ararat
arasup
arateul
arbitrary
arbores
arby
arc
arca
arch
archaeology
archers
archery
archipelago
architectural
architecture
archive
archived
archivedate
archives
archiveurl
archontology
arctic
ardea
ardian
ardiwinata
ardy
are
area
areas
arecaceae
ared
arek
arema
arena
areng
arep
areuy
arfak
arga
argapura
arge
argentina
argentine
argo
argue
argued
argume
argument
arguments
ari
aria
ariana
arief
ariel
arif
arifin
ariman
arimbi
aring
aristokrasi
aristoteles
aristotelian
aristotle
arit
arithmetic
arizona
arjasari
arjawinangun
arjuna
arkady
arke
arkeologi
arkive
arktik
arl
arlier
arliest
arly
arm
armada
armand
arme
armed
armenia
armenian
arms
armstrong
army
arn
arning
arnold
aro
arok
aroma
aromatik
aron
arongan
around
arranged
arrhenius
arrival
arrow
ars
arse
arsenal
arsip
arsite
arsitek
arsitektur
arson
art
arte
artefak
arteri
arth
arthquake
arthritis
arthropoda
arthur
arti
article
articlerender
articles
artid
artificial
artifisial
artikel
artina
artinya
artis
artist
artistic
artistik
artists
artocarpus
artos
artropoda
arts
aruba
arul
arulin
arum
arurang
arus
arvensis
arxiv
arya
as
asa
asahan
asai
asak
asakan
asakna
asal
asalna
asam
asan
asap
asar
asas
asasi
asbe
ascension
ascent
ase
asean
ased
asem
asep
ases
aset
asetat
aseupan
ash
ashanty
asi
asia
asian
asiana
asiasat
asiatic
asiatik
asier
asih
asily
asime
asimilasi
asin
asinan
asing
asingly
asiste
asisten
asiswa
ask
asked
askorbat
asli
aslina
asma
asmara
asmarandana
asmat
asmaul
aso
ason
asoning
asons
asor
asosiasi
asp
aspal
aspartam
aspartat
aspe
aspects
aspek
aspirasi
aspirin
aspx
asrama
asri
assam
assassination
assembly
assen
assessment
assets
assigned
assist
associated
associates
association
associations
assume
assumed
assumes
assuming
assumption
ast
astana
astanajapura
aste
asteraceae
astern
asteroid
asteroids
asti
astina
astinapura
astra
astrid
astro
astrologi
astronom
astronomers
astronomi
astronomical
astronomis
astronomy
astronot
astrophysics
astuti
asu
asuh
asuhan
asumsi
asup
asupan
asupkeun
asupna
asurable
asuransi
asure
asured
asurement
asurements
asures
asuring
aswatama
asy
asynchronous
at
ata
atah
atami
atanapi
atap
atas
atau
atawa
ate
ated
ater
ates
atest
ateul
ath
athena
athens
ather
athletes
ati
atif
atik
atikan
atikanana
atikanna
atina
ating
ation
ativitas
atje
atlanta
atlantic
atlantik
atlas
atle
atlet
atlit
atly
atm
atma
atmadja
atmaja
atment
atmosfer
atmosfir
atmosphere
atmospheric
atol
atom
atomic
atomna
atoms
atos
atp
atra
atraksi
atribut
atrium
atropin
ats
atsc
atsiri
attached
attack
attacks
attempt
attempts
attention
attraction
attributes
atu
atuh
atum
aturan
aturanna
ature
atured
atures
atwa
au
aub
auckland
audience
audio
audisi
audit
auditor
auf
aug
august
auguste
augustus
aula
aun
aung
aur
aura
aus
austin
australasia
australi
australia
australian
australis
austria
austrian
austro
author
authorities
authority
authors
auto
autobots
autokorelasi
automated
automatic
automatically
automobile
autonomous
autoregressive
autosport
auv
av
availability
available
ave
avenue
average
averages
aves
avia
aviation
avicenna
avily
aving
avoid
avril
avy
aw
awak
awakna
awal
awalan
awalna
awalnya
awam
awan
awang
award
awarded
awards
awas
away
awe
awewe
awi
awwal
ax
axe
axes
axiomatika
axis
ay
aya
ayah
ayakan
ayam
ayana
ayang
ayat
ayatrohae
aye
ayeuna
ayip
ayo
ayu
ayunda
ayutthaya
az
azab
azerbaijan
azerbaijani
azeri
azhar
aziz
azte
azzaino
azərbaycan
b
ba
bab
babad
babadotan
babagi
babagian
babah
babak
babakan
babakoan
babakti
babalan
babanding
babandingan
babar
babaraha
babarengan
babari
babasan
babat
babatuan
babaturan
babaturanana
babaturanna
babe
babi
babilonia
babon
babul
babussalam
baby
baca
bacaan
bacang
bach
bachelor
back
backed
background
backing
bacon
bacteria
bacterial
bad
bada
badag
badagna
badai
badak
badami
badan
badar
badarat
bade
badiri
badminton
badud
baduga
badui
baduy
bae
baek
baekeland
bafta
bag
baga
bagai
bagaimana
bagan
bagawan
bage
bagean
bageur
baghdad
bagi
bagian
baginda
bagja
bagong
bagus
bah
baha
bahagia
baham
bahama
bahamas
bahan
bahana
bahanna
bahar
bahari
baharu
bahasa
bahasan
bahasi
bahaya
bahayana
bahe
baheula
baheulana
bahkan
bahorok
bahrain
bahu
bahuga
bahwa
bahya
baik
bait
baiturrahman
baitussalam
baja
bajaj
bajak
bajenis
bajidor
bajigur
bajing
bajo
bajoang
baju
bajuang
bajubang
bajuna
bak
bakal
bakalan
bakar
bakat
bakatna
bakau
bakauheni
bakelite
baker
baki
bakicot
bako
bakong
bakongan
bakri
bakrie
bakte
bakteri
bakti
baktiraja
baktiya
baku
bakung
bal
bala
balabuh
balad
balada
balade
baladna
balai
balak
balakutak
balance
balanja
balantik
balap
balapan
balare
balas
balayar
bale
balee
baleendah
balesan
bali
balige
balik
balikan
balikna
balikpapan
baling
balingbing
balistik
baliung
balkan
ball
balls
balna
balok
balon
balong
balongan
balqis
baltik
baltimore
balubur
balukar
balukarna
balung
bamban
bambang
bambel
bamboo
bamboos
bambu
bambusa
ban
banana
bananas
bancana
bancang
band
banda
bandan
bandana
bandar
bandara
bande
bandeng
bandera
banding
bandingan
bandingkeun
bandoeng
bandre
bandring
bands
bandung
bandwidth
bang
banga
bangawan
bangbara
bangbarung
bangbayang
bangbung
bange
banget
bangga
bangil
bangka
bangkai
bangkalan
bangke
bangko
bangkok
bangkong
bangkrut
bangku
bangkuang
bangkunat
bangla
banglade
bangladesh
banglapedia
bango
bangodua
bangor
bangsa
bangsal
bangsana
bangsat
bangsawan
bangun
bangunan
bangunkarta
bangunna
bani
banjar
banjaran
banjarejo
banjarharjo
banjarmangu
banjarmasin
banjarnegara
banjarsari
banjarwangi
banjir
banjit
bank
banking
banks
bantal
bantalan
bantani
bantar
bantarkalong
bantarkawung
bantarujeg
bante
banten
banteng
banting
bantu
bantuan
bantul
banu
banua
banyak
banyol
banyu
banyuasin
banyumas
banyumasan
banyuresmi
banyusari
banyuwangi
bao
bapa
bapak
bapakna
bapana
bappenas
baptis
baptiste
baqarah
baqoroh
bar
bara
barack
baradag
baradatu
barakuda
baranahan
barang
barangbang
barangna
barangsiapa
barat
barata
baratayuda
baraya
barayana
barbados
barbara
barbarossa
barber
barbie
barbiturat
barbuda
barcelona
bare
baregbeg
bareng
barengan
bareuh
bargot
bari
barijil
baringin
baris
barisal
barisan
barita
barito
bark
barker
barn
barna
baro
barobah
baroh
barokah
baron
barona
barong
baroque
baros
barrel
barrichello
barrier
barry
barter
barthe
baru
baruang
barudak
barudakna
baruleud
baruluan
barumun
barung
barus
barusjahe
bas
basa
basah
basajan
basal
basalt
basan
basana
basanjata
base
baseball
based
basel
bases
baseuh
basf
bashair
bashirat
basic
basics
basil
basin
basis
basisir
basisirna
basisna
baske
basket
basketball
baskeun
baskom
baso
basri
bass
bassis
basude
basuki
bat
bata
batahan
batak
batalyon
batam
batan
batang
batanghari
batangna
batara
batari
batas
batavia
bataviaasch
batawi
batee
bateman
batere
bathin
bati
batik
batin
batman
batminton
batok
baton
batre
bats
battery
battle
battles
batu
batuan
batubara
batujajar
batujaya
batuk
batuna
batunadua
batur
baturade
baturna
batutulis
batvia
bau
bauer
bauna
bautista
bavaria
bavarian
bawa
bawaan
bawah
bawahan
bawal
bawang
bawaning
bawolato
bay
bayah
bayan
bayang
bayangan
bayar
bayaran
bayawak
bayem
bayern
bayes
bayesian
bayeun
bayi
bayongbong
bayu
bayur
bb
bbc
bbm
bc
bcmmbmhcbmh
bd
be
beach
beam
bean
bear
beast
beatbox
beatles
beautiful
beauty
beaver
beban
bebas
bebe
bebeneran
beber
beberapa
bebesen
became
because
becc
beck
becker
beckham
become
becomes
becoming
bed
beda
bedagai
bedah
bedana
bedas
bedil
bedog
bedug
bee
beebe
been
beer
beethoven
beetle
before
began
bege
begin
begini
beginning
begins
begitu
begun
behavior
behavioral
behaviour
behind
beijing
being
beirut
beja
beji
bekam
bekas
bekasi
bekel
bekerja
bekerjasama
bekri
beku
bel
bela
belah
belahan
belajar
belakang
belalau
belanda
belang
belarus
belas
belawan
beledugan
belgia
belgian
belgium
beli
beliau
belief
believe
believed
beling
belitung
belize
bell
bella
bellamy
belly
belongs
belonidae
below
belt
belu
beluk
belum
belut
ben
benang
benar
bencana
benda
bendahara
bende
bendera
bendungan
benedict
benefit
benefits
bener
benerna
bengal
bengala
bengalensis
bengali
bengawan
benggala
bengkulu
bengkung
benin
bening
benito
benjamin
bennett
benny
bensin
benson
bentang
benten
benteng
benth
bentuk
bentukna
benua
benyamin
ber
beracun
berada
beranak
berandan
berang
berangkat
berani
berapi
berarti
beras
berasal
berastagi
berat
berbagai
berbagi
berbahasa
berbahaya
berbasis
berbatasan
berbau
berbe
berbeda
berbentuk
berber
berbuat
berbunyi
berdarah
berdasarkan
berdiri
berenuk
beresih
berg
bergantung
bergerak
berguna
berguru
berharga
berhasil
berhenti
beri
berikut
beriman
beringin
berisi
berita
beritasatu
berjalan
berjuang
berjudul
berkah
berkas
berkat
berkata
berkeley
berkembang
berkhasiat
berkisar
berkualitas
berlaku
berlalu
berlangsung
berlian
berlin
bermain
bermuda
bernama
bernard
bernhard
bernoulli
beroperasi
berpendapat
berpengaruh
berperan
berry
bersabda
bersaing
bersama
bersamadakwah
bersatu
bersejarah
bersenjata
bersifat
bersih
bersin
bersuara
bertahan
bertahap
bertambah
bertanam
bertanya
bertemu
bertrand
berubah
beruk
berukuran
berulang
berupa
berusaha
berwarna
besar
beserta
besi
besitang
best
bet
beta
betah
betara
betawi
beternak
betok
beton
better
betty
betung
between
beubeulahan
beubeunangan
beubeur
beubeuritan
beubeutian
beueus
beuheung
beuheungna
beukah
beuki
beulah
beulahan
beuleum
beuli
beulian
beulikeun
beunang
beungeut
beungeutna
beunghar
beungkeut
beungkeutan
beunyeur
beurang
beurat
beuratna
beureum
beurit
beus
beusi
beuteung
beuteungna
beuti
beutina
beutong
bewoners
beye
beyond
bf
bg
bh
bhakti
bharat
bhayangkara
bhnchnhcnbcbmchbmhcbmhc
bhumi
bhutan
bhutto
bi
biak
biang
biantara
biar
biara
biarawan
biarlah
bias
biasa
biasana
biasanya
biaya
bibcode
bibi
bibir
bibit
bible
bibliography
bicara
bidadari
bidan
bidang
bidara
bidari
biduk
bie
bies
bieu
big
biggest
bihari
bihun
biji
bijih
bijil
bijilna
bika
bikang
bikangna
bike
bikin
bila
bilah
bilal
bilang
bilangan
bilateral
bilatung
bili
bilik
bill
billboard
billie
billion
billy
bima
bimbingan
bimbo
bin
bina
binangun
binary
binasa
binatang
bine
bingei
bingkeng
bingung
binih
binjai
binomial
binong
bintang
binti
bintik
bintuni
binus
bio
biochemical
biochemistry
biodata
biodegradable
biodiesel
biodiversity
bioge
biografi
biographical
biography
biokimia
biol
biola
biologi
biological
biologis
biology
bioma
biomassa
biome
biometrik
biosfir
biosinte
bioskop
biosphere
biosynthesis
biote
biotechnology
biotik
bipolar
bir
birch
bird
birdlife
birds
birem
bireuen
bireuk
birit
birmingham
biro
birokrasi
birth
birthday
biru
biruang
biruni
bis
bisa
bisana
bishop
bisi
bisma
bismarck
bismillah
bisnis
bison
bissau
bisul
bit
bitis
bits
bitu
bituna
bitung
bius
biwir
biwirna
bizantium
bj
bjo
bjt
bk
bki
bkr
bl
blabbermouth
black
blackberry
blackwell
blade
blado
blair
blake
blambangan
blanakan
blang
blangjerango
blangkejeren
blangpegayon
ble
bleeker
bless
blica
blind
blink
blitar
block
blocks
blog
blogger
blogs
blogspot
blok
blood
bloomberg
blora
blow
blown
blu
blue
blues
bluetooth
blume
blumeana
blunt
blur
bm
bmg
bmj
bmw
bn
bni
bo
boa
board
boarding
boat
bob
bobby
bobo
bobodasna
bobogohan
bobojong
boboko
bobot
bobotoh
bobotsari
boca
bocor
bodas
bodies
bodo
bodoh
bodor
body
boediono
boeing
boer
boerl
boga
bogaeun
bogana
bogo
bogoh
bogor
bogota
bogowonto
boh
bohemian
bohong
bohr
bojo
bojona
bojonegoro
bojong
bojonggambir
bojonggede
bojongloa
bojongpicung
bojongsari
bojongsoang
bokor
boksen
bola
bolak
bolasport
bole
boleh
bolivia
bolon
bolong
bolu
bom
bomb
bombay
bomber
bon
bonaire
bonan
bonang
bonaparte
bonatua
bond
bondol
bondowoso
bone
boneka
bones
bongas
bongbolongan
bongkar
bongkok
bonsai
bonte
book
books
bool
boom
bor
bora
borangan
borbor
border
borders
borel
boris
born
borne
borneo
boro
borobudur
borojol
borok
boron
boronadu
borondong
borong
borontok
borosngora
bos
bosar
bose
bosnia
boson
boss
bosscha
bosser
boston
bosworth
bot
botak
botani
botanic
botanical
botany
both
botol
botomuzoi
botswana
bottle
bottom
boulder
boulevard
bound
boundaries
boundary
bounty
bow
bowl
box
boxer
boxing
boy
boyle
boyolali
boyolangu
boys
bp
bpd
bpk
bpom
bps
bpupki
bq
br
bra
brad
bradley
bradt
braga
brahma
brahmana
brain
braja
brak
bram
branch
branches
brand
branson
brantas
brasil
brata
bratakusumah
braun
brawijaya
brawn
bray
brazil
brazilian
bre
break
breakfast
breaking
breasted
brebes
breed
breeders
breeding
breeds
brian
bride
bridelia
bridge
bridges
brief
brien
brigade
briggs
bright
brill
bring
brink
brisbane
bristol
brit
britain
britania
britannia
britannica
british
britney
brno
broad
broadband
broadcast
broadcaster
broadcasters
broadcasting
broadcasts
broadway
brock
broken
bromo
bronkitis
bronze
brook
brooklyn
brooks
bros
brother
brothers
brought
brown
brownian
brownies
browser
bruari
bruce
brune
brunei
bruno
brussels
bryan
bryant
bryonia
brønsted
bs
bt
btp
bts
bu
buah
buahan
buahdua
buahna
buan
buana
buat
buatan
buay
buaya
bubar
bubat
bubon
bubu
bubuahan
bubuk
bubuka
bubukaan
bubukuan
bubur
buck
buda
budah
budak
budakna
budapest
budaya
budayana
budayawan
buddha
buddhism
buddhist
budget
budha
budi
budidaya
budiman
buenos
bueuk
buffalo
bufo
bug
bugang
bugis
buhaya
buhun
bui
build
building
buildings
built
buitenzorg
bujal
bujang
bujangga
bujur
bujurna
buka
bukan
bukanlah
bukate
buket
bukhari
bukit
bukitkerman
bukittinggi
bukti
buktina
buku
bukuna
bul
bula
bulak
bulakamba
bulan
bulanan
bulanna
bulao
bulat
bule
buleleng
bulenek
buleud
buleudan
bulgaria
bulian
buligir
bulimia
bulir
bulk
bull
bullet
bulletin
bulls
buloh
bulok
bulu
buluan
buluh
buluna
bulus
bumbu
bumi
bumiayu
bumina
bumn
bunake
bunaken
bunar
buncis
bunda
bundar
bunder
bunderan
bung
bunga
bungah
bungbu
bungbuahan
bungbulang
bungbuna
bungkal
bungkus
bungkusan
bungo
bungsu
bungur
bungursari
buni
buniwangi
buntu
buntut
buntutna
bunuh
bunut
bupati
bupivacaine
bupivakaine
bur
burahol
burangrang
buras
burayak
bure
bureau
burgerlijke
burih
burkhan
burkina
burm
burma
burn
burning
burns
buroq
bursa
burton
buru
buruan
buruh
buruk
burundi
burung
buruy
bus
busa
busan
busana
bush
business
businesses
busuk
busungbiu
busur
but
buta
butan
butir
butler
butterflies
butterfly
button
buttonquail
butuh
butut
buuk
buukna
buy
buya
buying
buyung
buyut
bv
bw
bx
by
byson
byzantine
byzantium
bz
c
ca
caah
caang
cabang
cabangna
cabe
cabinet
cable
cables
cacad
cacah
cacai
cacak
cacangkir
cacar
cacarakan
cacat
cacing
cacingeun
cactus
cadangan
cadas
caesalpinia
caesar
caesium
cafe
caffeine
cagak
cagar
cage
cageur
cahaya
cahya
cahyono
cai
caian
caina
cair
cairan
cairo
cak
caka
cakalang
cakar
cakcak
caket
cakra
cakrabuana
cakram
cakranagara
cakrawala
cakung
cakupan
cal
caladi
calakan
calamus
calana
calcium
calculate
calculated
calculation
calculator
calculus
calcutta
cale
caledonia
calendar
calibration
california
calik
calincing
caliph
call
called
calling
calls
calon
calonarang
calung
calvin
cam
camara
camat
cambodia
cambridge
came
camera
cameras
cameron
cameroon
camp
campaign
campaka
campbell
campuh
campur
campuran
campurkeun
campursari
campus
can
canada
canadian
canal
canary
canberra
cancer
candi
candipuro
candra
candrasangkala
candu
candy
cang
canggih
cangkale
cangkang
cangkangna
cangke
cangkilung
cangkir
cangkok
cangkuang
cangkudu
cangkurileung
cannon
cannot
canonical
cantigi
cantik
canyon
cao
cap
capability
capable
capacitance
capacitor
capacitors
capacity
cape
capit
capital
capitals
caplak
captain
capture
captured
car
cara
caraka
carana
carang
carangka
carbamazepine
carbon
card
cardiff
cardiovascular
cards
care
career
carek
careuh
carey
cargo
cari
caribbean
caricangkas
caricing
caringin
carios
carita
caritaan
caritana
cariu
carl
carlin
carlo
carlos
carnivora
carnivorous
caroge
carol
carolina
caroline
carolus
carpenter
carpon
carried
carrier
carriers
carries
carry
carrying
cars
carstensz
carter
cartier
cartoon
caruban
carucukan
caruluk
cas
case
cases
casey
cash
casino
casparis
cassava
cassini
cassius
cast
casting
castle
castro
cat
catalog
catalogue
catalogus
catang
catangna
catatan
catch
categories
category
catet
catetan
catherine
cathode
catholic
cats
catur
cau
caucasian
caucasus
cauchy
caught
causa
cause
caused
causes
causing
cave
cavendish
cawan
cawang
cayman
cb
cbs
cc
cctv
cd
cdc
cdf
cdma
cdot
cdots
ce
cebu
cebus
cecekelan
cek
cekap
cekel
ceko
celah
celala
celempung
celestial
cell
cells
cellular
celsius
celtic
cemetery
cempaka
cempedak
cempor
cenah
cendana
cendawan
cendekiawan
cenderung
cendikia
cendrawasih
cengkareng
cengke
census
center
centers
central
centre
centuries
century
ceo
cepat
cepel
cepet
cepu
cerah
cerai
ceramah
cerdas
cere
cereme
ceremony
ceres
cerita
cermin
cerna
cerpen
certain
cet
cetak
cetakan
ceu
ceuk
ceuli
ceulina
ceureumen
ceurik
ceuta
ceylon
cf
cfa
cfm
cg
cggj
cgi
ch
cha
chaco
chad
chadwick
chain
chains
chairil
chairman
chairul
challenge
challenges
chamber
chambers
champaign
champion
champions
championship
championships
chan
chance
chancellor
chances
chandra
chang
change
changed
changes
changing
changuion
channel
channels
chao
chapman
chapter
character
characteristic
characteristics
characters
charge
charged
charges
charging
charity
charles
charlie
charlotte
chart
charter
charts
chase
chbmhcbmhbcmhb
che
check
checklist
cheddar
cheese
chelsea
chem
chemical
chemicals
chemistry
chen
cheng
cheribon
cherry
cherrybelle
chest
chevron
chi
chiang
chiba
chibi
chicago
chicken
chief
chiho
chikungunya
child
children
chile
chili
chin
china
chinensis
chinese
ching
chip
chittagong
chl
chloride
cho
chocolate
choe
choi
choice
chola
choose
chopper
chorus
chosen
chris
christ
christian
christianity
christie
christina
christine
christmas
christophe
christopher
chrisye
chrome
chromosome
chronic
chronicle
chronicles
chronology
chu
chubu
chuck
chudori
chun
chung
chungyehagsuldaehoe
church
churchill
ci
cia
ciambar
ciamis
ciampe
cianjur
cianjuran
ciaruteun
ciasem
ciawi
ciawigebang
cibadak
cibalong
cibatu
cibe
cibeber
cibeureum
cibingbin
cibinong
cibiru
cibitung
cibiuk
cibodas
cibogo
cibuaya
cibubur
cibunar
cibungbulang
cibungur
ciburial
ciburuy
cicadas
cicale
cicalengka
cicantayan
cicing
cicingeun
cicingna
cicire
cicurug
cicuta
cid
cidadap
cidahu
cidaun
cidera
cidolog
cidra
ciduh
ciemas
cifor
cigadung
cigalontang
cigasong
cigedug
cigombong
cigudeg
cigugur
cihampelas
cihaur
cihaurbeuti
cihcir
cihe
ciherang
cihideung
cihujan
cijambe
cijantung
cijati
cijeruk
cijeungjing
cijulang
cik
cika
cikadu
cikajang
cikakak
cikal
cikalong
cikalongkulon
cikampe
cikampek
cikancung
cikapundung
cikarang
cikaso
cikatomas
cikaum
cike
cikedung
cikele
cikelet
cikembar
cikeusik
cikidang
cikiih
cikijing
cikini
cikondang
cikone
cikoneng
cikopo
cikoru
cikundul
cikunir
cikur
cikuray
cilacap
cilaka
cilaku
cilamaya
cilandak
cilawu
cile
cilebut
ciledug
cilegon
cilembu
cileunca
cileungsi
cileunyi
cili
cililin
cililitan
cilimus
cilincing
ciliwung
cilok
cilongok
cimahi
cimalaka
cimande
cimanggis
cimanggu
cimanggung
cimanuk
cimaragas
cimaung
cimenyan
cimerak
cimol
cimulya
cin
cina
cincin
cindekna
cinderella
cindy
cine
cinema
cing
cingambul
cingcau
cingcin
cingir
ciniru
cinta
cintaku
cinyusu
ciomas
cipaku
cipanas
ciparay
cipari
cipasung
cipatat
cipati
cipatujah
cipayung
cipeucang
cipeundeuy
cipher
cipicung
cipinang
cipongkor
cipta
ciptaan
ciptagelar
cipto
cipunagara
ciputat
ciracap
ciracas
cirahayu
ciranjang
cirata
circle
circuit
circuits
circular
circulation
cire
cirebon
cirebonan
ciremai
cireundeu
cireunghas
ciri
cirina
ciroyom
cis
cisaat
cisadane
cisaga
cisalak
cisarua
cisayong
cise
cisitu
cisolok
cisompe
cisompet
cisurupan
cit
cita
citak
citakan
citamiang
citana
citanduy
citarum
citation
citations
citayam
cite
cited
cites
citeureup
cities
citizen
citizens
citra
citrus
citumang
city
ciung
civic
civil
civilization
civilizations
ciwaringin
ciwaru
ciwide
ciwidey
ciwit
cj
ck
ckp
cl
claim
claimed
claims
clara
clarendon
clarinet
clark
clarke
clash
class
classes
classic
classical
classics
classification
classified
classroom
claude
clay
cle
cleopatra
clerk
cleveland
click
clickable
client
climate
climates
climbing
clin
clinical
clinton
clio
clipperton
clitocybe
clive
clock
clocks
close
closed
closely
closer
cloth
clothing
cloud
clouded
clouds
club
cluster
clusters
clyde
cm
cn
cnn
co
coal
coalition
coast
coastal
coat
coated
coating
coauthors
coba
cobaan
coca
cocaine
cochran
coco
cocog
cocok
coconut
cocooan
cocos
code
codec
codes
coding
codomain
coe
coefficient
cofdm
coffee
cohen
coil
coils
coin
coins
cokelat
coklat
cokot
cola
cold
coldplay
cole
coli
colin
collaboration
collapse
collected
collection
collections
college
collins
collision
colombia
colombo
colonial
colonies
color
colorado
colors
colour
columba
columbia
columbus
column
com
combat
combination
combinations
combined
combinedfleet
combretum
come
comedy
comes
comet
comets
comic
comics
coming
command
commander
commentary
commerce
commercial
commercially
commission
committed
committee
commodity
common
commonly
commons
commonwealth
commune
communication
communications
communis
communist
communities
community
commuter
compact
companies
companion
company
comparable
comparative
compared
comparing
comparison
compass
compatibility
compatible
competing
competition
compiled
complementary
complete
completed
completely
complex
complexity
complicated
component
components
composed
composer
composite
composition
compound
compounds
comprehensive
compression
computation
computational
compute
computed
computer
computers
computing
comro
comte
con
conan
concentration
concept
concepts
concern
concerned
concerning
concerns
concert
concise
concrete
condet
condition
conditional
conditions
condong
conduct
conducted
conducting
conductivity
conductor
confederation
conference
confessions
confidence
configuration
confirmed
confirms
conflict
congcorang
congcot
congge
congkok
congo
congress
connect
connected
connecticut
connecting
connection
connections
connector
connectors
connor
conplectens
conquest
conrad
consequence
consequences
consequently
conservation
conserved
consider
considerable
considered
considering
considers
consist
consistent
consisting
consists
console
consort
consortium
constable
constant
constellation
constitution
constitutional
constraints
construct
constructed
construction
consumer
consumers
consumption
contact
contain
contained
container
containing
contains
contemporary
content
contents
contest
context
contexts
continent
continental
continue
continued
continues
continuity
continuous
continuum
conto
contoh
contohnya
contona
contract
contrast
contribution
contributions
control
controlled
controller
controls
controversial
controversy
convention
conventional
convergence
conversion
convert
converted
converter
converting
converts
convolution
coo
cook
cooking
cool
cooled
cooling
coolsma
cooper
cooperation
coordinates
cop
copa
copenhagen
copies
copper
copy
copyright
cor
corak
coral
corbicula
cord
core
cores
corn
cornelis
cornell
corner
cornwall
corolla
corona
coronavirus
coronel
corong
corp
corporate
corporation
corpus
correct
correction
correlation
correspondence
corresponding
corresponds
corruption
cos
cosmic
cosmology
cost
costa
costs
cot
cotton
could
coulomb
council
count
counter
counties
counting
countries
country
counts
county
coup
couple
courier
course
court
courts
cov
covariance
cover
coverage
covered
covering
covers
covid
cowboy
cox
coxon
cp
cpu
cq
cr
crab
craig
crame
crash
crashed
crashes
crater
crazy
crc
cre
cream
creating
creation
creative
creek
creole
crescent
crest
cretaceous
crew
cricket
crime
crimes
criminal
crisis
criterion
critical
criticism
criville
croatia
crocodile
crop
crops
cross
crossing
crow
crown
crowned
crowns
crt
crude
cruise
crusade
cruz
cry
crystal
cs
ct
cu
cuaca
cuba
cube
cubic
cuckoo
cucuk
cucukan
cucukna
cucunguk
cucurbitaceae
cucurut
cugenang
cuisine
cuka
cukahke
cukai
cukang
cukuh
cukup
cultivation
cultural
culture
cultures
cum
cuma
cumarita
cumi
cumulant
cumulants
cumulative
cunduk
cunha
cup
cupang
cupat
cupatna
cups
cupu
cupumanik
curac
curah
cure
curie
curiga
currencies
currency
current
currently
currents
curtis
curug
curugkembar
curuk
curve
custom
customer
customers
customs
cut
cutatan
cuti
cutoff
cutting
cuvier
cv
cw
cx
cy
cyathea
cyber
cycle
cylinder
cynthia
cyperus
cyprus
cyrus
cz
czech
d
da
daan
dabun
dacia
dada
dadakan
dadampar
dadan
dadana
dadang
dadap
dadaran
dadasar
daddy
dadi
dadu
dadung
dae
daek
daendels
daerah
daftar
dag
dagang
dagangan
dage
daging
dagingna
dago
dah
daha
dahan
dahanna
dahar
dahareun
daharna
dahlan
dahlia
dahulu
dai
daigaku
daily
daimyo
dairi
daisy
dakeun
dakota
daksi
daktur
dakuten
dakwaan
dakwah
dal
dalah
dalai
dalam
dalang
dalapan
dalbergia
dale
dalem
dalil
dalima
dalimartha
dalit
dallas
dalton
daluang
dam
dama
damage
damai
damang
damar
damas
damaskus
damayanti
dame
damel
damon
dampak
dampal
damri
dan
dana
danadibrata
danan
danasasmita
danau
dance
dang
dangdanggula
dangdaunan
dangdaunnan
dangdeur
dangding
dangdut
danger
dangerous
danget
dangiang
dangong
dangukeun
dani
daniel
danish
danny
dano
dansa
dao
daon
daop
dapat
daptar
dapunta
dapur
dapuran
dar
dara
darah
darajat
daran
darangdan
darat
daratan
daratang
dare
dari
daria
daring
daripada
darius
dark
darma
darmaga
darman
darmaraja
darmasiksa
darpan
darul
darurat
darussalam
darwin
das
dasa
dasar
dasarna
dasawara
dasawarsa
dashboard
dasi
dat
data
database
datana
datang
datangna
datar
dataran
date
dates
dating
dator
datuk
daud
daughter
daula
daulat
daun
dauna
daunna
daur
dave
david
davidson
davies
davis
dawam
dawn
dawson
dawuan
dawud
dawuh
day
daya
dayah
dayak
dayana
dayang
dayeuh
dayeuhkolot
dayeuhna
daylight
days
db
dc
dd
de
dead
deal
dean
death
deathly
deaths
debai
debat
debate
debit
debu
debut
debutna
dec
decade
decades
decay
december
decepticons
decided
decimal
decision
decisions
declaration
declared
declares
decline
deco
decoding
decre
deddy
dede
dedegan
dedi
dedicated
dedy
dee
deep
deepublish
deer
def
default
defe
defence
defense
deficiency
define
defined
defines
defining
definisi
definite
definition
definitions
defri
degree
degrees
degung
dek
dekade
dekat
dekker
del
delapan
delay
delayed
delegasi
deleng
delhi
deli
delima
deliver
delivered
delivery
dell
della
delta
dem
demak
demam
demand
demang
demedia
demi
demikian
deming
demo
democracy
democratic
demographic
demokrasi
demokrat
demonstrated
dempak
demung
den
dena
denai
denda
dendam
dendang
dendrites
dendritik
dengan
dengda
dengki
denis
denmark
dennis
denny
denpasar
densiti
density
dental
dente
denuttigeplanten
depan
departeme
departemen
department
departments
depati
depdikbud
depe
depend
dependence
dependent
depending
depends
depletion
depok
depot
deprecated
depresi
depth
der
derajat
deral
deras
derasi
derby
deres
deret
derivative
derived
des
desa
desain
describe
described
describes
describing
description
descriptions
desember
desert
design
designated
designation
designed
designs
desire
desired
desis
deskripsi
desktop
despite
destination
destinations
destiny
destroyed
destroyers
destruction
det
detail
detailed
details
dete
detect
detection
detective
detectors
determination
determine
determined
determining
detik
detikcom
detikfinance
detiknews
detil
detroit
deudeuh
deui
deuih
deukeut
deukeuteun
deukeutna
deuleu
deungeun
deuterium
deutsche
develop
developed
developer
developers
developing
development
developments
devi
deviation
deviations
device
devices
devil
devoted
dew
dewa
dewan
dewantara
dewasa
dewata
dewi
df
dg
dh
dha
dhaka
dharma
dharmasraya
dharmawangsa
dhien
dhini
dhoho
di
dia
diabadikeun
diabe
diabetes
diadaptasi
diadegkeun
diadegkeunna
diadopsi
diadu
diagem
diagnosa
diagnosis
diagonal
diagram
diah
diajak
diajar
diajarkeun
diajarna
diaje
diajukeun
diakibatkeun
diakse
diakses
diaktipkeun
diaku
diakuan
diakui
dial
diala
dialajar
dialaman
diale
dialect
dialects
dialek
dialihkeun
dialog
dialungkeun
diam
diambil
diame
diameter
diamond
diamonds
dian
diana
dianalisis
diancurkeun
diandelkeun
diane
dianggap
dianggep
dianggit
dianggo
diangkat
diangkatna
diangkeuh
diangkut
dianjurkeun
diantara
diantarana
diantawisna
diantep
diantepkeun
dianteurkeun
dianyam
diaping
diapit
diapungkeun
diarah
diarahkeun
diaranan
diare
diarsipkan
diarsipkeun
diary
diasah
diasakan
diasingkeun
diaspora
diasuh
diasupan
diasupkeun
diatas
diatur
diawe
diayakeun
diaz
dibabarkeun
dibabawa
dibaca
dibacana
dibage
dibagi
dibagikeun
dibahas
dibalikeun
dibalikkeun
dibalukarkeun
dibanding
dibandingkeun
dibangun
dibantu
dibantuan
dibarengan
dibarung
dibasakeun
dibaturan
dibawa
dibawah
dibawakeun
dibawana
dibayar
dibayarkeun
dibe
dibebek
dibedakeun
dibelah
dibentuk
dibentukna
diberangkatkeun
dibere
diberesihan
diberi
dibetot
dibeulah
dibeuleum
dibeuli
dibeulitkeun
dibeunangkeun
dibeungkeut
dibikeun
dibom
dibongkar
diboro
dibrata
dibuahan
dibuang
dibuat
dibubarkeun
dibudidayakan
dibudidayakeun
dibuka
dibukana
dibuktikeun
dibukukeun
dibulen
dibungbuan
dibungkus
dibunuh
dibutuhkeun
dicabak
dicabut
dicalonkeun
dicampur
dicampuran
dicampurkeun
dicandak
dicaprio
dicaram
dicaritakeun
dicatet
dicaturkeun
dice
dicekel
dicepeng
dicerna
dicetak
dicicingan
dicindekkeun
diciptakeun
dicirian
dicirikeun
dicitak
dick
dickinson
dicobaan
dicoco
dicokot
dicoo
dictionaries
dictionary
dictyophora
diculik
dicumponan
dicutat
did
didadarkeun
didadasaran
didagangkeun
didahar
didaharna
didakwa
didalam
didamel
didaptarkeun
didasarkeun
didatangan
dide
didefinisikan
didefinisikeun
didi
dididik
didik
didin
didinya
didirikan
didirikeun
didistribusikeun
didn
dido
didominasi
didorong
diduga
didukung
didumukan
diduruk
die
died
diego
dieja
dielectric
dien
dieng
dies
diesel
diet
dietary
dieu
dieunakeun
dieureunkeun
dieusi
dieusian
dife
diferensiasi
differ
difference
differences
different
differential
differentiis
difficult
diftong
difungsikeun
difusi
digabung
digabungkeun
digali
digalokeun
digambar
digambarkeun
diganggu
diganti
digantian
digantikeun
digantung
digantungkeun
digarang
digarap
digarawe
digaringkeun
digawe
digayem
dige
digede
digelar
digentos
digeroan
digest
digiling
digit
digital
digits
digodog
digolongkeun
digore
digoreng
diguar
digunakan
digunakeun
digunakeunana
dihade
dihadiran
dihaja
dihakan
dihaleuangkeun
dihandap
dihapus
diharepkeun
dihargaan
dihartikeun
dihasilkeun
dihasilkeunana
dihias
dihijikeun
dihina
dihirupkeun
dihontal
dihubungkeun
dihukum
dihususkeun
diidinan
diijinkeun
diikuti
diiluan
diimpor
diinget
diingu
diinum
diisolasi
diistre
diitung
dijabat
dijadikan
dijadikeun
dijaga
dijait
dijajah
dijalankeun
dijantenkeun
dije
dijelaskeun
dijieun
dijieuna
dijieunna
dijual
dijudulan
dijugjug
dikadalikeun
dikaitkeun
dikali
dikaluarkeun
dikandung
dikanyahokeun
dikatakan
dikategorikeun
dikawasa
dikawasaan
dikawihkeun
dikawin
dikawinkeun
dikawitan
dike
dikecapkeun
dikedalkeun
dikelola
dikelompokkeun
dikembangkeun
dikenal
dikenalkeun
dikepung
diketahui
dikeueum
dikeueuman
dikeureutan
dikira
dikirim
dikirimkeun
diklaim
diklasifikasikeun
dikode
dikokolakeun
dikombinasikeun
dikonfirmasi
dikonsumsi
dikontrol
dikritik
diksi
diktator
dikti
dikuatkeun
dikubur
dikukut
dikulub
dikumbah
dikumpulkeun
dikurangan
dikurebkeun
dikuriling
dikurilingan
dikusumah
dikutip
dilafalkan
dilahirkan
dilahirkeun
dilakonan
dilaksanakeun
dilakukan
dilakukeun
dilambangkan
dilambangkeun
dilandi
dilanggar
dilanjutkeun
dilantarankeun
dilantik
dilapalkeun
dilapis
dilapisan
dilaporkan
dilaporkeun
dilarang
dilarapkeun
dilatih
dilayanan
dile
dilegaan
dileler
dilemeskeun
dilengkepan
dilepaskan
dileungitkeun
dileupaskeun
dili
dilihat
dilindungi
dilingkung
diliwatan
diluluguan
dilumangsungkeun
diluncurkeun
diluyukeun
dimae
dimakamkan
dimakamkeun
dimakan
dimaksud
dimaksudkeun
dimana
dimandian
dimanfaatkeun
dimangfaatkeun
dimangpaatekun
dimangpaatkeun
dimas
dime
dimedalkeun
dimekarkeun
dimensi
dimension
dimensional
dimensions
dimeunangkeun
dimiliki
dimimitian
dimimitianna
dimodifikasi
dimodulasi
dimuat
dimulai
dimumule
dimungkinkeun
din
dina
dinamangsa
dinamian
dinamika
dinamis
dinamit
dinar
dinas
dinasti
dinata
dinda
dinding
dines
dingaranan
dingding
dingin
dini
dinobatkeun
dinominasikeun
dinosaurus
dinten
dinu
dinya
dinyanyikeun
dinyatakeun
dioda
diode
diodes
dioksida
dioksidasi
diolah
diome
diomongkeun
dion
diondang
dioperasikan
dioperasikeun
dioperasikeunna
dioxide
dipacok
dipadungdengkeun
dipae
dipakai
dipake
dipaksa
dipalire
dipaluruh
dipanaskeun
dipancarkeun
dipandang
dipane
dipangaruhan
dipanggih
dipanggihan
dipanjangan
dipapae
dipaparin
diparaban
dipare
dipariksa
diparud
dipasak
dipasang
dipasangan
dipasangkeun
dipasarkeun
dipasihan
dipasing
dipasrahkeun
dipastikeun
dipatalikeun
dipate
dipati
dipe
dipecat
dipedal
dipedalkeun
dipedar
dipelak
dipelakan
dipelakeun
dipence
dipendakan
diperankeun
dipercaya
diperenahkeun
diperhatikeun
diperkirakan
diperkirakeun
diperlukeun
diperpanjang
dipertahankeun
dipertimbangkeun
diperyogikeun
dipese
dipetik
dipeunteun
diphasiastrum
dipiara
dipibanda
dipiboga
dipiceun
dipidangkeun
dipie
dipigawe
dipigunakeun
dipiharep
dipihormat
dipikabutuh
dipikaharti
dipikahayang
dipikanyaah
dipikanyaho
dipikaresep
dipikaterang
dipikawanoh
dipikawanohkeun
dipikawanohna
dipikir
dipilampah
dipilih
dipimilik
dipimpin
dipindah
dipindahkeun
dipingpin
dipintonkeun
dipinuhan
dipirig
dipisah
dipisahkeun
dipiwanoh
diploma
diplomacy
diplomasi
diplomat
diplomatik
dipo
dipoe
dipole
diponegoro
dipotong
dipre
diproduksi
diproklamirkeun
diprose
dipublikasikeun
dipuji
dipulangkeun
dipulut
dipungkas
dipupuhuan
dipurulukan
diputer
diputuskeun
dirac
diraih
dirancang
dirandapan
dirarancang
dirasa
dirasakeun
dirawat
dirayakeun
dire
direbut
direct
directed
direction
directions
directly
director
directory
direkahkeun
direkam
direktorat
direktori
direktur
direncanakeun
diresmikan
diresmikeun
diri
dirilis
dirina
dirinya
diriwayatkeun
dirjen
dirobah
dirojong
dironjatkeun
dirope
dirty
dirujuk
dirumuskeun
diruntuykeun
dis
disababaraha
disababkeun
disabudeureun
disada
disadap
disadiakeun
disahkeun
disain
disajikan
disajikeun
disakarida
disaksian
disalametkeun
disalin
disaluyukeun
disambig
disambiguasi
disambungkeun
disampurnakeun
disanghareupan
disangka
disangray
disappe
disarada
disarankeun
disaring
disaruakeun
disaster
disatujuan
disawang
disayagakeun
disayagikeun
disbudpar
disc
discharge
discography
discover
discovered
discoveries
discovery
discrete
discs
discussed
discussion
dise
disease
diseases
disebabkan
disebabkeun
disebarkeun
disebat
disebatkeun
disebut
disebutkeun
disebutna
disembah
disentri
diserahkeun
diserang
diserat
diserep
disertasi
disete
diseupan
disi
disiapkeun
disiarkeun
disidang
disiksik
disimbutan
disimpen
disina
disingget
disingkahan
disingkat
disingket
disini
disinte
disiplin
disisi
disk
diskriminasi
diskrit
diskusi
disney
disneyland
disorang
disorder
disorders
disparbud
dispersi
displacement
display
displaystyle
disponsoran
dispute
dissolved
distal
distance
distances
distancing
distant
distilasi
distillation
distinct
distinction
distinguish
distinguished
distribusi
distributed
distribution
distributions
distributor
district
districts
distrik
disuguhkeun
disumputkeun
disungsi
disuntikkeun
disusul
disusun
disutradaraan
dit
dita
ditabeuh
ditae
ditahan
ditakol
ditaksir
ditalian
ditalikeun
ditalukkeun
ditalungtik
ditambah
ditambahan
ditambahkeun
ditampa
ditampi
ditampik
ditampilkeun
ditanam
ditandaan
ditandasa
ditandatangan
ditandatanganan
ditanggung
ditangtayungan
ditangtukeun
ditanya
ditarajang
ditaratas
ditare
ditarik
ditarima
ditarjamahkeun
ditata
ditataan
ditawarkan
ditawarkeun
ditayangkeun
dite
diteken
ditelasan
ditembangkeun
ditembongkeun
ditempat
ditempatan
ditempatkeun
ditempo
ditempona
ditempuh
ditemukan
ditendeun
ditengah
ditepikeun
diterangkeun
diterania
diterapkeun
diteraskeun
diterbitkan
diterbitkeun
diteruskeun
ditetepkeun
diteukteuk
diteundeun
ditiiskeun
ditilik
ditimukeun
ditingali
ditinggalkeun
ditingkatkeun
ditinyuh
dititah
ditite
ditiup
ditolak
ditor
ditu
dituang
dituar
dituduh
dituduhkeun
ditugaskeun
dituju
ditujukeun
ditulis
dituliskeun
ditulisna
ditulungan
dituluykeun
ditumpangan
dituna
ditunda
ditungtungan
ditunjuk
ditunjukkeun
diturih
diturunkeun
diturut
diturutan
ditutu
ditutup
ditutupan
dituturkeun
diubah
diubaran
diucapkan
diucapkeun
diudag
diuji
diuk
diukir
diukur
diulang
diulik
dium
diumumkeun
diunggal
diungkabkeun
diuretik
diurus
diusahakeun
diusir
diusulkeun
diutus
diva
diverse
diversity
divide
divided
dividen
divine
divisi
division
divisions
diwadahan
diwajibkeun
diwakilan
diwangun
diwangunna
diwanohkeun
diwariskeun
diwarnaan
diwartakeun
diwates
diwatesan
diwatesanan
diwengku
diwincik
diwujudkeun
diwuwuhan
dixie
diyakini
diyeum
dj
djakarta
djambatan
djarum
djati
djawa
djawatan
djayasasana
djeung
djibouti
djoko
djuanda
dk
dki
dkk
dl
dll
dm
dn
dna
dns
do
doa
dobel
doc
doctor
doctrine
document
documentary
documentation
documents
dodo
dodol
dodong
doel
does
doesn
dog
dogdog
doge
dogs
doha
doi
doing
dok
dokter
doktor
doktrin
dokume
dokumen
dokumentasi
dolar
dolat
dolby
dollar
dollars
dolog
dolok
domain
domba
dome
domestic
domestik
dominan
dominant
dominasi
dominated
dominic
dominica
dominican
dominika
dompe
don
donald
done
dong
donge
dongeng
dongkap
donia
donnie
donny
donor
doohan
doom
door
dopamin
doping
dora
dorae
doraka
dori
dorna
dorokdok
dorong
dorongan
dorothy
dorsal
dos
dosa
dosage
dosana
dose
dosen
dosis
dosisna
dot
dots
double
douglas
dove
dover
dovizioso
dow
down
downlink
download
doyong
dp
dpd
dpl
dpp
dpr
dprd
dq
dr
dra
draco
draft
dragon
dragons
drajat
drake
dral
dram
drama
dramaga
dramatis
drastis
dravida
drawing
drawn
dre
dream
dreams
drew
dri
drien
drift
drink
drinking
drinks
drive
driven
driver
drivers
driving
drona
drop
drs
drug
drugbank
drugs
drum
drummer
drupada
drupadi
dry
ds
dsb
dsl
dt
dtv
du
dua
duaan
dual
duana
duanana
dubai
dubia
dublin
ducati
duck
ducke
ducula
dude
dudi
duduh
duduk
dudukuy
duduluran
due
duet
dugaan
dugi
dugika
duh
duit
duitna
dujundundund
duka
duke
duksi
dukuh
dukun
dukungan
dukupuntang
dulang
dulu
dulur
dulurna
dumadakan
dumas
dumasar
dume
dumuk
duncan
dundee
dundundudnudn
dundunun
dung
dunia
dunn
dunuddudunu
dunundundu
dunungan
dununu
dununun
dunununu
dunununun
dunya
duo
dupi
duplex
durahman
durasi
duration
durban
dure
duren
durgandini
durham
duri
durian
duriat
during
dursasana
durukan
duryodana
dust
dustira
dusun
duta
dutch
duty
duwa
duwit
duyfjes
dv
dvb
dvd
dvds
dw
dwaraka
dwarf
dwarfs
dwi
dwight
dwihuruf
dwipangga
dx
dy
dyah
dylan
dynamic
dynamics
dynasty
dysoxylum
dz
dzat
dzikir
dzittamyiz
dzongkha
dzulhijjah
e
ea
each
eagle
earl
earliest
early
earth
earthquake
earthquakes
east
easter
eastern
easy
eat
eating
eb
ebiet
ebirds
ebola
ebta
ec
echo
eclipse
ecological
ecology
economic
economics
economische
economist
economists
economy
ecosystem
ecosystems
ecuador
ed
eddie
eddy
eden
edgar
edge
edi
edible
edinburgh
edisi
edison
edited
edition
editions
editor
editorial
editors
edmund
edo
eds
edu
education
educational
edukasi
edward
edwards
edwin
ee
een
eenige
ef
efek
efektif
effect
effective
effectively
effects
effendi
efficiency
efficient
effort
efforts
efisien
efisiensi
eg
egc
egretta
egypt
egyptian
eh
ei
eiffel
eight
eiland
ein
eine
einstein
eisenhower
either
ej
ejaan
ejournal
ek
eka
ekadjati
eki
eko
ekologi
ekonomi
ekor
ekosistem
eks
eksekutif
ekspedisi
ekspektasi
eksplorasi
eksponensial
ekspor
ekspres
ekspresi
eksternal
ekstrak
ekstrim
ekstrusi
ekuador
el
elang
elba
elder
ele
elected
election
elections
electoral
electric
electrical
electrically
electricity
electrodynamics
electromagnetic
electromagnetism
electron
electronic
electronics
electrons
electrostatic
eleh
elektro
elektronik
elektronika
elemen
element
elementary
elements
elephant
elex
elf
eli
elias
elijah
eling
elis
elisabeth
elite
elizabeth
ell
ellen
elliott
elliptical
ellis
elm
elmer
elmu
elok
elon
els
else
elsevier
elsewhere
elvis
em
ema
email
emang
emas
embacang
embah
embassy
embe
embedded
embrio
embun
embung
eme
emerald
emergence
emergency
emerging
emesa
emi
emih
emil
emilia
emily
emirates
emma
emmanuel
empal
empat
empe
emperor
emping
empire
empires
empirical
empiris
employed
empty
empu
empuk
en
ena
enable
enak
enam
encoded
encoding
encyclopaedia
encyclopedia
encyclopædia
end
endah
endang
endangered
endapan
ende
ended
endemik
ending
endog
endogan
endogna
ends
ene
enemy
energi
energy
enforcement
eng
engang
engapan
enggal
enggang
enggano
enggeus
enggoning
engine
engineer
engineering
engineers
engines
engkau
engke
engkena
engkol
england
english
engraulis
enhanced
enol
enough
ensiklopedi
ensiklopedia
ensure
ental
ente
enter
entered
enterprise
entertainment
entire
entirely
entitas
entities
entitled
entity
entragan
entri
entropy
entry
environment
environmental
environments
enya
enzim
enzyme
enzymes
eo
ep
epa
epg
epic
episode
eps
epsilon
eq
equal
equally
equation
equations
equatorial
equilibrium
equinox
equipment
equivalent
er
era
ere
eric
erich
erik
eris
eritrea
erlangga
ernest
ernst
erok
eropa
error
errors
eruption
erwin
es
esa
escape
esey
esiwa
espan
espargaro
especially
espn
essay
essays
essential
essentially
est
establish
established
establishment
estate
estetika
estimasi
estimate
estimated
estimates
estimation
estimator
estonia
et
eta
etc
ethereum
ethernet
ethics
ethiopia
ethiopian
ethnic
ethnicity
ethnologue
etik
etika
etimologi
etnik
etnis
etransportasi
etsi
etsu
etymology
eu
eugene
euis
eujeung
eukariot
eukeur
euler
eun
eundeuk
eungap
eunteung
eunteup
eup
eupan
euphorbiaceae
eur
eurasia
eurasian
eureun
eureunna
eurih
euro
eurocode
europa
europaea
europe
european
eusi
eusian
eusina
eustatius
eutik
euweuh
euweuhna
euy
euyeub
ev
eva
evaluasi
evaluation
evans
evaporation
eve
even
evening
event
events
eventually
ever
everest
everland
every
everyday
everything
everywhere
evidence
evil
evolusi
evolution
evolutionary
evolved
ew
ex
exact
exactly
example
examples
excellence
except
exception
exchange
exchanges
exclusive
exclusively
execution
executive
exercise
exhibit
exhibition
exist
existed
existence
existing
exists
exotic
exp
expand
expanded
expansion
expectation
expectations
expected
expedition
expensive
experience
experiences
experiment
experimental
experiments
expert
explain
explained
explanation
explicit
explicitly
exploration
explorer
exploring
explosion
explosive
expo
exponential
export
exposure
express
expressed
expression
expressions
extended
extends
extension
extensive
extent
external
extinct
extinction
extra
extract
extrasolar
extreme
extremely
ey
eyang
eye
eyes
eyewitness
eyjafjallajo
ez
f
fa
fabaceae
faber
face
facebook
faced
faces
facilities
facility
fact
factbook
facto
factor
factors
factory
facts
factsheet
faculty
fadoro
fahd
fahrenheit
fail
failed
failure
fair
fairly
fairuz
fairy
faisal
faith
fajar
fak
faksi
fakta
faktor
fakultas
fakultatif
falah
falcon
falkland
fall
fallen
falling
falls
falsafah
false
fame
famili
familia
familiar
families
family
famous
fan
fanayama
fanciers
fans
fantasi
fao
faq
far
faraday
fardhu
fardu
farid
farm
farmasi
farming
faroe
fase
fashion
fasilitas
faso
fast
faster
fasting
fat
fatah
fatahillah
fatal
fath
father
fatihah
fatimah
fatimiyah
fatmawati
fatty
faturohman
fatwa
fault
fauna
fauzi
favorit
favorite
fb
fbi
fc
fcc
fcgi
fd
fda
fe
fear
feature
features
feb
febri
februari
february
federal
federasi
federation
fedexhar
feed
feedback
feeding
feel
feet
feline
felipe
felix
fell
felt
female
fenitoin
fenol
fenomena
ferdinand
fere
ferguson
ferme
fermentasi
fern
fernando
ferns
ferrari
ferry
festival
fever
few
fewer
feynman
ff
ffi
fg
fh
fi
fiber
fiction
ficus
fidel
field
fields
fifa
fifth
fifty
fig
fight
fighters
fighting
figur
figure
figures
fiji
fiksi
fil
file
filem
files
filipina
filled
film
films
filologi
filosofi
filosofis
filsafat
filsuf
filter
filtering
filum
fim
final
finalis
finally
finance
financial
finansial
find
finding
findings
finds
fine
finger
finish
finisi
finisikeun
finite
finland
finlandia
finnish
finno
fiqh
fiqih
fir
firdaus
fire
firefly
firefox
firewire
firm
firman
first
fischer
fish
fishbase
fisher
fisheries
fishes
fishing
fisi
fisie
fisik
fisika
fisikawan
fisikna
fisiologi
fisiologis
fit
fitrah
fitri
fitting
fitur
fitzgerald
five
fix
fixed
fj
fk
fl
flag
flags
flame
flanders
flash
flat
flavonoid
fle
fleet
fleming
flemish
fletcher
flex
flexible
flight
flights
flood
floor
flora
floral
flore
florence
flores
florida
flow
flower
flowers
flowing
flows
floyd
flu
flueggea
fluid
fluids
fluorida
fluoxetine
flux
fly
flying
fm
fn
fo
focus
foetida
fokker
fokus
folat
folk
folklor
folklore
follow
followed
following
follows
foma
fondasi
fone
fonem
fonologi
font
food
foods
foot
football
for
forbes
forbidden
force
forced
forces
ford
fore
foreign
foreman
forensik
forest
forests
forever
forex
forgotten
form
formal
formaldehida
formally
formasi
format
formation
formats
formed
former
formerly
forming
forms
formula
formulas
formulasi
formulated
formulation
fort
forth
fortune
forum
forward
fosfat
fosfolipid
fosfor
fosil
fossil
foster
foto
fotografer
fotografi
foton
fotosinte
found
foundation
foundations
founded
founder
founding
four
fourier
fourth
fox
fp
fpbs
fq
fr
frac
fraction
fragme
fragmen
fraksi
frame
framework
franc
france
frances
francesco
franchise
francis
francisco
franciscum
franco
francophonie
frank
frankfurt
franklin
franky
fransisco
franz
frasa
frase
frazier
fre
fred
freddie
freddy
frederick
frederik
free
freedom
freely
freeman
freeview
freight
frekuensi
french
frequencies
frequency
frequent
frequently
fresh
freud
freycinetia
friday
friedman
friedrich
friend
friends
fries
frin
fritz
froese
frog
from
front
frontier
fruit
fruits
fruktosa
frutices
fs
ft
ftp
fu
fuel
fuji
fukuda
fukui
fukuoka
fukushima
fulconis
full
fully
fun
function
functional
functions
fund
fundame
fundamental
fundamentals
funeral
fungi
fungisida
fungsi
fungsina
fungsinya
fungsional
fur
furigana
furious
furnitur
further
furthermore
fusi
fusion
futsal
futuna
future
fuzzy
fv
fw
fx
fy
fz
g
ga
gaang
gabon
gabriel
gabung
gabungan
gabus
gabuswetan
gada
gadang
gaddis
gade
gading
gadis
gadjah
gado
gaduh
gadung
gae
gaga
gagah
gagak
gagal
gagalna
gagang
gagangan
gagangna
gaganti
gagantina
gagarabah
gagasan
gaib
gain
gained
gairaigo
gajah
gajayana
gaji
gajih
gak
gaki
gal
gala
galactic
galah
galak
galaksi
galang
galat
galatik
galaxies
galaxy
gale
galengan
galeri
gali
galian
galib
galibna
galih
galile
galilei
galileo
galing
galinggem
galingging
gallagher
gallery
gallicolumba
gallus
galo
galokeun
galton
galuh
galunggung
galur
galura
gama
gamal
gambang
gambar
gambaran
gambarna
gambia
gambir
gamble
gambus
gambyong
game
gamelan
gamendung
games
gamma
gampang
gampangna
gamparan
gampil
gampong
gan
gana
ganas
gancang
gancangna
ganda
gandapura
gandari
gandaria
gande
gandhi
gandrum
gandum
gane
ganeca
ganesha
gang
gangas
gangga
ganggang
ganggu
gangguan
gangna
gangster
ganja
ganjang
ganjar
ganjaran
ganjil
gantangan
gantar
ganti
gantina
gantung
ganyol
gap
gape
gapeka
gaplah
gaple
gapura
gara
garam
garapan
garasi
garawangi
garcia
garden
gardening
gardens
gardner
gare
gareja
gareth
garihal
garing
garis
garland
garmanah
garnisun
garoga
garpu
garpuh
garu
garuda
garut
garwa
garwana
gary
gas
gases
gasing
gasoline
gate
gates
gateway
gathering
gatif
gatip
gatot
gatotkaca
gatrik
gauge
gaul
gaulle
gauss
gaussian
gautama
gave
gawang
gawe
gawena
gawir
gay
gaya
gayo
gayung
gaza
gazette
gazetteer
gb
gc
gd
gde
gdp
ge
gear
gebang
gecko
gedang
gede
gedong
gedung
gegede
geger
gegeremet
gegesik
geget
gegetuk
geisha
gejala
gejalana
gekbreng
gel
gelam
gelandang
gelang
gelanggang
gelap
gelar
gelaran
gelarna
gelas
geledegan
gelembung
gelombang
gelombangna
gelora
gelung
gelut
gema
gembleng
gemblong
gembyung
gemeente
gempa
gempol
gempungan
gemuk
gen
genah
genap
gencatan
gendang
gender
gending
gene
genep
genera
general
generalized
generally
generasi
generate
generated
generating
generation
generations
generator
generic
genes
genesis
genetic
genetics
genetik
genetika
geneva
genggam
genggerong
gening
genius
genocide
genome
genootschap
genre
gente
genteng
genting
gentong
gentur
genus
geo
geoffrey
geografi
geografis
geographic
geographical
geography
geologi
geological
geology
geometric
geometry
georg
george
georgia
georgian
geotrygon
gepe
gepuk
geq
gera
geragai
gerak
gerakan
gerakanna
gerakna
gerald
gerard
gerbang
gerbong
gere
gereja
geri
gerilya
gerilyawan
gering
german
germanic
germanium
germany
germplasm
gero
gerokgak
ges
gesang
geschichte
get
getah
getas
geter
geteran
getih
getihan
getihna
getol
gets
getting
geudong
geulang
geulis
geulumpang
geuneuk
geuning
geunyal
geura
geuredong
geus
geusan
geutah
geutahna
geuwat
gf
gg
ggsn
gh
ghalia
ghana
ghazali
ghost
ghz
gi
gia
giant
giants
gibraltar
gibson
gido
gie
gifu
gigantochloa
gigi
gigir
gigireun
gigirna
giji
gil
gila
gilang
gilbert
gilgamesh
gilinding
giliran
gim
gimpo
gin
gina
gincu
ginding
gini
ginjal
gintung
gion
gional
giovanni
girang
girek
giri
girimukti
girl
girls
giru
gis
gislatif
gister
gisting
gita
gitar
gitaris
giuseppe
give
given
gives
giving
gizi
gj
gk
gl
glabrata
glacier
gland
glang
glasari
glass
gle
glen
glenn
gletser
glie
glikoge
glikolisis
glikosida
gliserol
glisin
global
globe
globulin
glochidion
glory
glossary
glucose
glukosa
glumpang
glutamat
glycosmis
gm
gmail
gme
gn
go
goa
goal
gobang
goblet
god
godang
godfrey
godi
godog
godogan
gods
godwin
goenawan
goes
goeslaw
gog
gogog
goib
going
goju
gol
golak
gold
golden
goldfish
gole
golek
golf
golgi
golkar
golodog
golongan
gombong
gomo
gon
gondang
gondangdia
gonde
gondok
gondwana
gone
gong
gonggong
good
goods
google
goong
gor
gorbachev
gordon
gore
goreng
gori
gorian
gorila
gorobag
gorombolan
gorontalo
gorowong
gosali
gosip
got
gote
gothenburg
gotong
gottfried
gottlieb
gov
governance
governing
government
governments
governor
govina
govpubs
govt
goyang
goyobod
gozo
gp
gpp
gprs
gps
gq
gr
grace
gracilis
gradasi
grade
gradient
gradually
graduate
graf
grafik
grafika
grafindo
grafis
grafit
graha
graham
grahanusa
grain
grains
gram
gramatikal
gramedia
grammar
grammy
gran
granada
granat
grand
grande
grandiflora
granit
grant
graph
graphics
grasindo
grass
gratis
grave
gravitasi
gravitational
gravity
gray
gre
great
greater
greatest
greatness
greece
greek
green
greenland
greenwood
greg
gregorian
gregory
grenada
gresik
grew
grey
grid
griffiths
grin
gringsing
griya
gro
grobogan
grogol
grong
gross
ground
groundwater
group
groups
grove
groves
grow
growing
grown
growth
grup
gs
gsm
gt
gtp
gu
gua
guadeloupe
guam
guangdong
guangxi
guangzhou
guano
guard
guardian
guardians
guatemala
guba
gubeng
gubernur
guci
gudang
gudeg
gue
guernsey
guglielmo
gugur
guguratan
guguritan
guguru
gugus
gugusi
guha
guiana
guide
guidelines
guides
guild
guilty
guine
guinea
guinness
guitar
gujarat
gul
gula
gulasi
gulat
gulden
gule
gulf
gulma
guludug
gulungan
guluntungan
gum
gumantung
gumarang
gumbira
gumelar
gumelarna
gumpalan
gun
guna
gunana
gunawan
gundih
gundukan
gundul
gung
gunong
guns
gunta
gunting
guntur
gunung
gunungsari
gunungsitoli
gupernur
gura
gurame
gurat
gurih
guru
guruh
gurun
guruna
guruntulan
gustav
gusti
gutenberg
guy
guyana
gv
gw
gx
gy
gye
gyeonggi
gym
gymnastics
gz
h
ha
haag
haan
habib
habibie
habinsaran
habis
habitat
habitatna
habsburg
hack
had
hade
hadi
hadiah
hadir
hadirna
hadis
hadist
hadith
hadits
hae
hafnium
hafsh
hafshoh
hagu
hahalang
hahn
hai
haid
haile
hainan
hair
haiti
hajar
hajat
hajatan
haji
hajj
hak
hakam
hakaneun
hakata
hake
hakim
hakna
hakodate
hakone
hal
halal
halaman
halang
halangan
hale
half
halfwidth
halida
halim
halimun
halis
hall
halley
halliwell
hallows
halls
halmahe
halna
halo
halodo
halongonan
halteu
halu
halus
halusinasi
ham
hama
hamamatsu
hamas
hamba
hambalan
hamburg
hamid
hamil
hamilton
hamka
hammer
hampa
hampang
hamparan
hampas
hampir
hampiran
hampru
hampura
hamzah
han
hana
hanaang
hanafi
hanana
hanca
hancur
hand
handap
handapeun
handapeunana
handapna
handbook
handelsbotanie
handle
hands
handset
haneut
hang
hangat
hangugcheoldohaghoe
hangul
hanja
hanjakal
hanjakalna
hanjelu
hanjuang
hanna
hannana
hanoi
hans
hansen
hansip
hanteu
hantu
hanung
hanya
hanyir
hanyu
hanyut
hanzhalah
hanzi
hapa
happen
happened
happy
har
hara
harald
haram
haramay
harambay
harap
harapan
haratis
harbor
hard
hardcover
harder
harding
hardjapamekas
hardware
hardy
hare
haremis
harepan
hareup
hareupeun
hareupeunana
hareupna
harfiah
harga
hargana
hari
harian
hariang
harigu
harimau
harina
harita
hariwang
harjo
harmattan
harmoni
harmonic
harmonik
harmonis
harmony
harms
harold
harper
harpercollins
harris
harrison
harry
hart
harta
hartanto
harti
hartina
hartosna
harum
harun
harupat
harus
harvard
harvey
haryanto
has
hasan
hasanah
hasanuddin
hasanudin
haseum
haseup
hashi
hashima
hashimoto
hasiat
hasiatna
hasil
hasilna
hasna
hasrat
hassan
hasskarl
hasundutan
hasyim
hat
hatan
hataran
hate
hateup
hateupna
hati
hatiku
hatonduhan
hatta
hatulistiwa
hatur
haur
haurgeulis
haurwangi
haus
have
haven
having
hawa
hawai
hawaii
hawaiian
hawana
hawk
hawking
hawu
hawuk
hayam
hayang
hayangeun
hayashi
hayat
hayati
hayden
hayu
hazard
hazards
hb
hbs
hc
hcl
hd
hdi
hdmi
hdtv
he
head
health
heart
heat
heaven
heavy
hebrew
hee
height
heinrich
heisenberg
hejo
hektar
held
helen
helena
helium
hell
hello
hellraiser
helm
helmut
helmy
help
helps
helsinki
helvetia
helvy
hembing
hemingway
hemisphere
hemsl
hence
hendak
hendaknya
henderson
hendra
hendri
hendrik
heneuweuh
henri
henry
henteu
henteuna
hepburn
her
heraclius
herald
heran
herang
herba
herbal
herbarium
herbert
here
heritage
herlina
herman
hermann
hermannum
hermawan
hermes
hermit
herna
hero
heroes
heron
herschel
hertz
heryawan
herzegovina
hese
het
heuay
heubeul
heubeulna
heug
heula
heulang
heuleut
heun
heunceut
heunteu
heuras
heureut
heureuy
hewan
hexadecimal
heyne
hf
hg
hh
hhm
hi
hiang
hias
hiasan
hibah
hibala
hibe
hiber
hibernasi
hibiscus
hibrid
hibrida
hibridisasi
hiburan
hida
hidangan
hidayah
hidayat
hidayatullah
hidden
hideki
hidep
hideung
hidrasi
hidroge
hidrogen
hidrokarbon
hidroksida
hidroksil
hidrolisis
hidrologi
hidroponik
hidung
hidup
hie
hierarchy
higashi
high
higher
highest
highlights
highly
highway
hihid
hij
hijau
hijaz
hiji
hijian
hijina
hijrah
hijriah
hijriyah
hikayat
hiking
hikmah
hilal
hilang
hileud
hiliduho
hilimegai
hilir
hilisalawa
hiliserangkai
hill
hillary
hills
hilton
him
hima
himalaya
himalayan
himpunan
himself
hina
hinai
hindi
hindia
hindu
hinduism
hingga
hinis
hip
hiperbola
hiperte
hipertensi
hipotalamus
hipote
hipotesa
hipotesis
hipu
hira
hiragana
hiris
hiro
hirobumi
hirohito
hiroshi
hiroshima
hirup
hirupna
his
hisham
hispaniola
histogram
histoire
historia
historic
historical
historically
histories
historis
history
hit
hitachi
hitam
hitar
hitler
hits
hiu
hiv
hj
hk
hkeun
hl
hla
hlm
hm
hms
hn
hna
hnik
hnis
hnologi
ho
hoa
hobbes
hobi
hockey
hodgkin
hoe
hoeve
hok
hokage
hokkaido
hoku
hokuriku
hold
holding
holds
hole
holes
holiday
holidays
holland
hollandsch
holle
hollow
hollywood
holmes
holmiae
holy
home
homeopathy
homepage
homo
homoge
homolog
honda
honduras
honey
hong
hongaria
hongkong
honje
honolulu
honor
honoris
honour
honshu
hood
hook
hooker
hoover
hop
hope
hopkins
hore
horison
horizon
horizontal
hormat
hormon
hormone
horor
horror
horse
horses
horticultural
horticulture
hortikultura
hospital
hospitals
hossein
host
hosted
hosting
hot
hote
hotel
houghton
hour
hours
house
household
houses
housing
houston
how
howard
however
hoyong
hp
hq
hr
hrc
hs
hscsd
hsdpa
hspa
hsu
hsupa
ht
htm
html
http
https
hu
hua
huang
huap
hub
hubble
hubungan
hubunganana
hubunganna
hud
huda
hudang
hudson
huge
hugh
hughes
hugo
hui
huis
hujan
hujanna
hukum
hukuman
hukumna
hulu
huluan
huluna
hum
huma
human
humanitarian
humans
humas
humbang
humboldt
humor
humus
hun
hunan
hundred
hundreds
hungaria
hungarian
hungary
hungkul
hunt
hunter
huntu
huntuna
hurang
hurip
huristak
hurricane
huru
huruf
huruna
hurung
hurup
husada
husain
huse
husna
hussain
hussein
husus
hususna
hut
huta
hutaimbaru
hutan
hutang
hutton
huut
huygens
hv
hw
hwa
hwan
hwang
hwei
hx
hy
hyang
hybrid
hydrogen
hydrologic
hydrology
hydroxychloroquine
hye
hymenoptera
hyo
hypothesis
hyun
hz
i
ia
iain
ialah
ian
iana
iata
iau
ib
ibadah
ibadahna
ibarat
iber
iberia
ibid
ibing
ibingan
ibis
iblis
ibm
ibn
ibnu
ibrahim
ibrani
ibrohim
ibu
ibukota
ibukotana
ibun
ibuna
ibuprofen
ic
icann
icao
ice
iceland
ichiro
ichtiar
icikibung
icon
icraf
id
ida
idanogawo
idanoi
idanotae
ide
ideal
ideas
identical
identification
identified
identifikasi
identify
identik
identitas
identity
ideu
idi
idin
idn
idol
idola
idris
idrisi
idul
ie
iec
ieee
ieu
ieuh
if
iga
igloo
ignored
iguana
ih
ihlas
ihsan
ihwal
ii
iii
iinditan
iis
ije
ijin
ijing
ijn
ijo
ijuk
ika
ikan
ikatan
ikbal
ikea
ikebana
ikeda
iket
iketan
ikhlas
ikhsan
ikhtisar
ikip
iklan
iklim
iklimna
ikon
iku
ikut
il
ila
ilahar
ilaharna
ilahiah
ilang
ile
ilham
ilibiung
ilir
illegal
illinois
illuminati
illustrated
illustration
illustrations
ilmi
ilmiah
ilmiahna
ilmu
ilmuwan
ilubiung
ilustrasi
ilyas
im
image
images
imagine
imaging
imah
imahna
imajinasi
imam
iman
imarah
imbanagara
imbit
imdb
imf
imigran
imigrasi
imitation
immanuel
immediate
immediately
immigrants
immigration
impact
impedance
impensis
imperial
imperialisme
imperium
impian
implement
implementation
implemented
implications
implies
impor
importance
important
impossible
improve
improved
improvement
improvements
improvisasi
impuls
impun
imran
imron
imun
imunisasi
imunitas
imut
in
ina
inaje
inang
inangna
inc
inche
incheon
inchi
inci
incident
include
included
includes
including
income
inconsistent
incorporated
incorrect
incre
incu
incuna
ind
indah
indahnya
inde
indeed
indeks
indepe
independen
independence
independent
independently
index
india
indian
indiana
indianapolis
indica
indicate
indicated
indicates
indicating
indicator
indices
indicus
indie
indies
indigenous
indihiang
indikasi
indikator
indische
indit
inditan
individu
individual
individuals
indo
indochina
indocina
indomie
indone
indonesia
indonesiakaya
indonesian
indoor
indosat
indosiar
indra
indramayu
indraprahasta
indrapuri
induced
inductance
induction
induk
induktif
indung
indungna
indus
indusiata
indusiatus
industri
industrial
industries
industry
indy
ine
inequality
inert
inf
infanteri
infantri
infaq
infe
infection
infectious
infeksi
inference
infinite
infinity
inflamasi
inflammatory
inflasi
inflation
influence
influenced
influences
influential
info
infobox
informal
informasi
informatika
information
infra
infrabeureum
infrared
infrastructure
infrastruktur
infty
ing
ingat
inge
inget
ingetan
inggis
inggit
inggris
inggrisna
ingin
ingkar
ingon
ingvar
inhabitants
inheritance
inhibitor
inhye
ini
inilah
inisial
inisiasi
inisiatif
initial
initially
initiative
inje
injection
injeksi
injeuman
injil
injuk
injured
injury
inka
inklinasi
inland
inline
inn
inna
inner
innovation
inocybe
inohong
inorganic
inovasi
inovatif
inpe
inpormasi
input
inputs
insan
insang
insani
inscriptions
inse
insect
insects
insee
inside
insiden
insight
insinyur
insomnia
inspirasi
inspired
instagram
instalasi
installed
instan
instance
instances
instansi
instant
inste
institusi
institut
institute
institution
institutions
instituto
instruksi
instrume
instrumen
instrument
instrumental
instruments
insulation
insulin
int
intake
intan
inte
integer
integers
integrable
integral
integrals
integrasi
integrated
integration
intel
intele
intelektual
intellectual
intelligence
intelsat
inten
intended
intensif
intensitas
intensity
inter
interaction
interactions
interactive
interaksi
interaktif
interest
interface
interfaces
interfe
interference
interim
interior
interlocking
intermediate
internal
internasional
international
internationale
interne
internet
interpretasi
interpretation
interpreted
interquartile
interstellar
interval
intervals
interview
inti
intina
intip
intisari
into
introduced
introduction
inu
inum
inuman
inumeun
inuyama
invariant
invasi
invasion
invasive
inve
inventarisasi
invented
invention
inverse
invertebrata
investasi
investigation
investigations
investment
investor
involved
involves
involving
inwon
inya
inyana
ioc
iodine
ion
ionik
ios
iowa
ip
ipa
ipad
ipb
iphone
ipis
ipod
ipomoea
ips
iptek
iqbal
iqro
ir
ira
iraha
irak
irama
iran
iranian
iranica
iraq
iraqi
irawan
irb
ireland
irene
irian
irigasi
iring
iringan
iris
irish
iritasi
irlandia
irma
iroha
iron
irung
irungna
irut
irving
is
isa
isaac
isarat
isbn
isdb
ise
ishak
ishaq
ishikawa
isi
isin
isis
iskan
iskandar
iskandarwassid
isla
islam
islamabad
islami
islamic
islamweb
island
islandia
islands
isle
isles
ismail
isn
isnendes
iso
isola
isolasi
isolated
isolation
isome
isotop
isp
isra
israe
israel
israeli
issn
issue
issued
issues
istambul
istana
istanbul
isteri
istiadat
istilah
istilahna
istime
istimewa
istirahat
istri
istrikaan
istrina
isu
isuk
isukan
isukna
isxn
isyana
it
itachi
itali
italia
italian
italy
itam
itb
item
itemid
items
iteuk
ithaca
itik
itil
itis
ito
its
itself
itu
itulah
itunes
itung
itungan
itv
iub
iucn
iucnredlist
iuh
iupac
iv
ivan
ivoire
iwa
iwal
iwan
iwate
iwo
iwung
ix
iye
iyeu
iyo
iyyah
izin
izu
j
ja
jaan
jaarbeurs
jaat
jaba
jabang
jabar
jabarprov
jabatan
jabatanna
jabir
jabodetabe
jabodetabek
jabung
jack
jackie
jackson
jacob
jacobs
jacques
jadi
jadikeun
jadina
jadwal
jae
jafar
jaga
jagabaya
jagakarsa
jagana
jagat
jago
jagong
jagorawi
jaguar
jagung
jah
jahan
jahat
jahe
jail
jaipong
jaipongan
jait
jaja
jajahan
jajaka
jajalaneun
jajamu
jajanan
jajangkung
jajantung
jajar
jajaran
jajate
jak
jaka
jakarta
jake
jakeun
jakk
jakob
jaksa
jal
jalak
jalaksana
jalal
jalan
jalanan
jalancagak
jalangan
jalanna
jalil
jalma
jalmana
jalmi
jalu
jaluna
jalur
jalurna
jam
jama
jamaah
jamaica
jamaika
jamak
jamal
jaman
jamanna
jamban
jambatan
jambe
jambi
jamblang
jambo
jambore
jambu
james
jami
jamie
jaminan
jampang
jamparing
jampe
jamu
jamur
jan
jana
janame
janari
jande
jandela
jane
janeiro
jang
jangan
janganlah
jangjang
jangjangan
jangjangna
jangjawokan
jangji
jangka
jangkat
jangkrik
jangkung
jangkungna
janin
janjan
janji
jannah
jansen
janten
janteun
jantho
jantung
januari
january
japan
japanese
japara
japati
japonica
jaradi
jarah
jarak
jarakna
jarami
jarang
jarapah
jarawat
jared
jargon
jari
jariji
jaring
jaringan
jarum
jarvis
jas
jasa
jasad
jasadna
jasana
jasinga
jasmani
jasminum
jason
jat
jatayu
jateng
jati
jatibarang
jatigede
jatiluhur
jatim
jatinangor
jatinegara
jatinunggal
jatisari
jatitujuh
jatiwangi
jatiwaras
jatuh
jatukrami
jauh
jauhna
java
javan
javanica
javanicum
javanicus
javasche
jawa
jawab
jawaban
jawabna
jawara
jawatan
jawe
jawi
jawura
jay
jaya
jayabaya
jayade
jayadrata
jayagiri
jayakarta
jayanti
jayapura
jayawijaya
jazeera
jazirah
jazz
jb
jd
je
jean
jeddah
jeff
jefferson
jeffrey
jeget
jehe
jejak
jejaring
jejer
jejerna
jelajah
jelang
jelas
jelema
jelma
jelutung
jembar
jembatan
jember
jemle
jempol
jend
jendela
jenderal
jendral
jene
jeneng
jenengan
jenewa
jeng
jengkol
jenis
jenisna
jenjang
jennifer
jenson
jentik
jentre
jenuh
jepang
jepara
jeput
jerami
jerat
jerawat
jeremy
jerez
jerman
jermanik
jernih
jero
jeroan
jeroeun
jerona
jeroning
jerry
jersey
jeruk
jerusalem
jesse
jessica
jesuit
jesus
jet
jets
jeug
jeujeur
jeumpa
jeun
jeung
jeungjing
jeunieb
jewish
jews
jf
jg
jh
ji
jibril
jidar
jieun
jieunan
jiga
jigana
jihad
jihat
jika
jikalau
jil
jilbab
jilid
jill
jim
jima
jimat
jimmy
jin
jinah
jinak
jingga
jingjing
jinis
jinisna
jipang
jiraiya
jis
jitu
jiwa
jiwana
jj
jk
jkt
jl
jln
jm
jmpl
jn
jo
joan
job
jobs
jodo
joe
joel
jog
jogja
jogjakarta
joglo
joglosemarkerto
johan
johann
johannes
johannesburg
johar
john
johnny
johns
johnson
johor
join
joined
joins
joint
joko
jokowi
jol
jolene
jolie
joman
jomantara
jombang
jon
jonas
jonathan
jones
jong
jonggol
jonny
joo
jordan
jorge
jorlang
jorong
jose
josef
joseon
joseph
josephine
josh
joshua
jotang
joule
journal
journalist
journals
journey
jovi
joyce
jp
jpbd
jpg
jpl
jq
jr
jrk
jrrd
js
jsb
jst
jste
jstor
jt
ju
jua
jual
jualan
juan
juanda
juang
juara
judge
judi
judul
judulna
jueng
juga
juhar
jujuhan
jujukutan
jujuluk
jujun
jujur
juku
jukut
jul
julang
juli
julia
julian
juliana
julie
juliet
julius
julok
julu
julukan
julung
july
jum
juma
jumaah
jumadil
jumat
jumeneng
jumlah
jumlahna
jump
jumplukan
jun
junction
june
jung
jungkrang
jungle
junglefowl
juni
junior
juniors
juniper
juniperus
juntinyuat
junun
jupiter
juragan
jurang
jurassic
jurassik
jure
juri
jurig
jurisprudence
jurit
jurnal
jurnalis
jurnalistik
jurong
juru
juruna
jurus
jurusan
jus
just
justice
justin
justru
justus
jusuf
juta
jutaan
juwar
juz
jv
jw
jx
jy
jyp
jz
k
ka
kaa
kaadilan
kaagamaan
kaagungan
kaahlian
kaalaman
kaamanan
kaambeu
kaan
kaancam
kaane
kaanggotaan
kaangseu
kaanna
kaasaman
kaasih
kaasup
kaasupan
kaatur
kaawakan
kaayaan
kaayaana
kaayaanana
kaayaanna
kaayan
kaayeunakeun
kab
kaba
kabage
kabagi
kabagjaan
kabalikan
kabandungan
kabangsaan
kabanjahe
kabar
kabawa
kabaya
kabayan
kabe
kabebasan
kabeh
kabel
kabeneran
kabentuk
kabentukna
kaberangkatan
kaberhasilan
kabetot
kabeuleum
kabeungharan
kabeungkeut
kabeuratan
kabiasaan
kabine
kabinet
kabisa
kabisat
kabogoh
kabogohna
kabubuahan
kabudayaan
kabuka
kabuki
kabukti
kabuktian
kabul
kabungah
kabungahan
kabupate
kabupaten
kabur
kaburu
kabut
kabutuh
kabutuhan
kabuyutan
kac
kaca
kacamatan
kacanduan
kacang
kacangan
kacantum
kacape
kacapi
kacaritakeun
kacatet
kacatetkeun
kacaturkeun
kace
kaceluk
kacepatan
kacepetan
kacerdasan
kaci
kacida
kacilakaan
kacindekan
kacipta
kaciri
kacoklatan
kacumponan
kacutat
kad
kadaharan
kadaharanana
kadal
kadalapan
kadali
kadang
kadangkala
kadaptar
kadar
kadarna
kadatangan
kadaulatan
kade
kadele
kadenge
kader
kadeu
kadieu
kadieunakeun
kadipate
kadipaten
kadir
kadiri
kaditu
kado
kadokteran
kadongdong
kadu
kadua
kaduana
kadudampit
kadudukan
kaduga
kadugede
kaduhung
kadungora
kadupandak
kaduruk
kadutaan
kae
kaemasan
kaeusi
kafe
kafilah
kafir
kagabung
kagagalan
kagambar
kaganggu
kage
kagenep
kagero
kaget
kageulisan
kagiatan
kagiatanana
kagolong
kagolongkeun
kagore
kagoshima
kagubernuran
kagumantungan
kagunaan
kagungan
kah
kahade
kahaja
kahakanan
kahakiman
kahalangan
kahamilan
kahampangan
kahan
kahareupna
kahariwang
kaharti
kahayang
kahayangna
kahe
kahean
kaheurasan
kahfi
kahieuman
kahiji
kahijian
kahijina
kahirupan
kahirupanana
kahirupanna
kahitna
kahontal
kahormatan
kahot
kahubung
kahuripan
kahuruan
kahutanan
kahyangan
kai
kaidah
kaido
kaimanan
kain
kaina
kainfe
kairo
kairut
kaisar
kaiser
kaislaman
kaitan
kaitung
kaiuhan
kaizoku
kajaba
kajadian
kajadianana
kajaga
kajahatan
kajantenan
kajati
kajauhan
kajayaan
kajeun
kajian
kajieun
kajiwaan
kajual
kajuaraan
kajuruan
kakacangan
kakacoan
kakaisaran
kakaitan
kakamigahara
kakandungan
kakao
kakap
kakara
kakashi
kakawasaan
kakawasaanana
kakawasaanna
kakawihan
kakawin
kakayaan
kakebalan
kakeueum
kakeunaan
kakhalifahan
kaki
kakiatan
kakoncara
kakone
kakontaminasi
kaktus
kaku
kakuasaan
kakuatan
kakuatanana
kakulawargaan
kakurang
kakurangan
kakurung
kal
kala
kalah
kalahiran
kalahka
kalainan
kalakay
kalakuan
kalakuanna
kalam
kalan
kalang
kalangan
kalangenan
kalangkang
kalapa
kalaparan
kalasan
kalau
kalawan
kalawarta
kalaya
kalayan
kalde
kaldera
kaldu
kale
kalebet
kaledonia
kalemahan
kalembaban
kalender
kalengkepan
kalenjar
kaler
kalereun
kaleuleuwihan
kaleuleuwihi
kaleungitan
kaleuwihan
kali
kalian
kalianda
kalibaru
kalibata
kalibening
kalibet
kalideres
kalieun
kalifornia
kaligondang
kaligrafi
kaligung
kalijaga
kalijati
kaliki
kalilaan
kalima
kalimah
kalimanah
kalimantan
kalimat
kalina
kalinga
kalintang
kalinyamat
kalipucang
kalirejo
kaliru
kalium
kaliwat
kaliwatan
kaliwedi
kaliwungu
kalkum
kalkuta
kalla
kalobaannana
kalolobaan
kalompok
kalong
kalori
kalsium
kaltim
kaluar
kaluaran
kaluarga
kaluarna
kaluhur
kaluhuran
kalumangsungan
kalung
kalungguhan
kalungguhanana
kalurahan
kam
kamajuan
kamakmuran
kamal
kamalir
kamampuan
kamampuh
kamampuhan
kamampuhna
kaman
kamana
kamandaka
kamandang
kamanusaan
kamar
kamarang
kamari
kamasan
kamasarakatan
kambang
kambing
kamboja
kame
kamekaran
kamekaranana
kamen
kamenterian
kamentrian
kamer
kamera
kamerde
kamerdekaan
kamerdikaan
kamerun
kameunangan
kami
kamil
kamiripan
kamiskinan
kamone
kampak
kampanye
kampanyeu
kampar
kampong
kamprad
kampung
kampungna
kampus
kamu
kamulyaan
kamungkinan
kamuning
kamus
kan
kana
kanada
kanae
kanagaraan
kanagawa
kanak
kanal
kanan
kanayama
kanazawa
kanca
kancah
kancana
kancing
kancra
kanda
kandaga
kandahar
kandang
kandanghaur
kandaraan
kandel
kandelna
kandeman
kandidat
kandung
kandungan
kandunganana
kane
kang
kangge
kanggo
kangjeng
kangkalung
kangker
kangkung
kangsa
kani
kanik
kanika
kanis
kanisius
kanisme
kanjeng
kanji
kanjut
kanker
kanna
kano
kanopi
kansai
kansas
kanselir
kant
kante
kantin
kanto
kanton
kantong
kantor
kantorna
kantos
kanu
kanyaah
kanyaho
kanyahoan
kanyataan
kanyataanana
kanyataanna
kanye
kanyeri
kaol
kaolahan
kaom
kaonjoyan
kaopat
kaos
kapadetan
kapadetanna
kapaheutan
kapake
kapaksa
kapal
kapala
kapamilikan
kapamingpinan
kapan
kapanasan
kapang
kapangaruhan
kapange
kapanggih
kapanggihna
kapangurusan
kapanlagi
kapapance
kapapate
kaparigelan
kapas
kapasitas
kapasitasna
kapasitor
kape
kapendak
kapentingan
kapercayaan
kaperluan
kapetakan
kapeto
kapilih
kapincut
kaping
kapinis
kapinteran
kapisah
kapita
kapital
kapok
kappa
kapre
kapri
kapribadian
kapsul
kapte
kapten
kapuas
kapuk
kapulaga
kapuloan
kapunahan
kapungkur
kapur
kaputusan
kar
kara
karabakh
karachi
karacunan
karadenan
karagaman
karageman
karaharjaan
karajaan
karajaanana
karajinan
karak
karakter
karakteristik
karakterna
karam
karamat
karame
karana
karandapan
karang
karangampe
karangampel
karangan
karanganyar
karangasem
karangjaya
karanglewas
karangnunggal
karangpawitan
karangsari
karangsembung
karangtalun
karangtawang
karangtengah
karantina
karapetan
karas
karasa
karasana
karat
karate
karaton
karawaci
karawang
karawitan
karbala
karbamazepin
karbohidrat
karboksilat
karbon
karbonat
karbonna
kare
karel
karen
karena
kareng
karep
kareseban
karesep
karesepna
karesian
karesme
karet
kareta
kareueus
kareueut
kareung
kargo
kari
kariaan
karibia
karier
karim
karinding
karinjang
karir
karirna
karl
karlstad
karma
karna
karnivora
karno
karo
karoten
karpe
karta
kartakusuma
kartasasmita
kartawinata
kartika
karting
kartini
kartu
kartun
karugian
karuhun
karuhunna
karuksakan
karun
karung
karunia
karunya
karusakan
karusuhan
karya
karyamukti
karyana
karyawan
kas
kasababaraha
kasabaran
kasadaran
kasaimbangan
kasakit
kasakte
kasaktian
kasalahan
kasalametan
kasalapan
kasaluruhan
kasaluyuan
kasampak
kasampurnaan
kasang
kasapukan
kasapuluh
kasar
kasarna
kasaruaan
kasarung
kasatimbangan
kasatuan
kase
kasebar
kasebat
kasebut
kasebutkeun
kasedih
kasehatan
kasempetan
kasenangan
kasenian
kasepuhan
kaserang
kaserep
kaset
kashmir
kasieun
kasih
kasilih
kasim
kasimpulan
kasintu
kasinugrahan
kasir
kaso
kasohor
kasohorna
kasokandel
kasomalang
kasoran
kasorang
kasorot
kaspia
kasta
kastil
kastrol
kasuburan
kasucian
kasugihan
kasui
kasukse
kasuksesan
kasulitan
kasultanan
kasundaan
kasup
kasur
kasus
kasusah
kasusahan
kasusastraan
kasusna
kasusun
kaswari
kat
kata
katadata
katahanan
katai
kataji
katak
katakana
katalis
katalitik
katalog
katalungtik
katambah
katange
katangkep
katangtuan
katapang
katara
katarajang
katarik
katarima
kate
katebak
katedral
kategangan
kategori
katelah
katelahna
katem
katembong
katempo
katempona
katengtreman
katerangan
katerap
kathleen
katibung
katiga
katilu
katiluna
katimu
katingal
katingali
katingalina
katinggali
katinggang
katingtriman
kation
katite
katna
kato
katoda
katojo
katolik
katompe
katon
katore
katua
katuangan
katuhu
katuhuna
katujuh
katukang
katulis
katulistiwa
katumbiri
katun
katuncar
katup
katurunan
katus
katut
katutup
katutupan
kau
kauangan
kauger
kaukasia
kaukasus
kaula
kaulinan
kaum
kaunggel
kaunggulan
kaungkab
kaunikan
kauntungan
kaurus
kautamaan
kautsar
kav
kavaleri
kawah
kawajiban
kawali
kawan
kawangun
kawangunna
kawani
kawanoh
kawarganagaraan
kawas
kawasa
kawasaki
kawasan
kawasna
kawat
kawates
kawatesanan
kaway
kawe
kawenangan
kawengku
kawentar
kawentarna
kawi
kawih
kawihna
kawijakan
kawijaksanaan
kawilang
kawin
kawinan
kawit
kawula
kawung
kawunggirang
kay
kaya
kayaan
kayakinan
kayaning
kayas
kayasa
kayee
kayu
kazakh
kazakhstan
kb
kbbi
kbit
kbs
kc
kci
kcl
kd
ke
keadaan
keadilan
keajaiban
keamanan
kearifan
kebahagiaan
kebaikan
kebangkitan
kebangsaan
kebase
kebat
kebayakan
kebayoran
kebenaran
kebijakan
kebo
kebon
kebudayaan
kebul
kebume
kebumen
kebun
kebutuhan
kec
kecamatan
kecantikan
kecap
kecapna
kecepatan
kecil
kecipir
keclak
kecrik
kecuali
kedah
kedai
kedal
kedalan
kedamaian
kedaton
kedawung
kedelai
kedele
kediri
kedok
kedokteran
kedondong
kedoya
kedua
keduanya
kedudukan
kedul
kedung
kedungbante
keempat
keep
keeping
kegan
kegiatan
kegunaan
keguruan
kehidupan
kehilangan
kehormatan
kehutanan
kei
keihan
keihin
keindahan
keinginan
keio
keith
kejadian
kejahatan
kejang
keju
kejuaraan
kejujuran
kejuruan
kekaisaran
kekayaan
kekebalan
kekebul
kekecapan
kekedutan
kekembangan
kekerasan
kekuasaan
kekuatan
kekurangan
kel
kelainan
kelak
kelamin
kelana
kelapa
kelas
kelautan
kelebihan
kelenci
kelengkapan
kelenjar
keliling
kelinci
keling
kelipah
kelir
kelirna
kelly
kelom
kelompok
kelompokna
kelopak
keluar
keluarga
kelurahan
kelvin
kemakmuran
kemal
kemang
kemangkon
kemasan
kematian
kemayoran
kembali
kembang
kembangan
kembangna
kembar
kembaran
kembung
kemdikbud
kemenangan
kementerian
kementrian
kemerdekaan
kemih
kemiling
kemis
kempot
kempul
kemranje
kemudian
kemuliaan
kemuning
ken
kena
kenal
kenali
kenanga
kenangan
kencana
kencing
kendal
kendali
kendan
kendang
kendaraan
kendari
kendi
keneh
kenging
kennedy
kenneth
kenong
kent
kentang
kente
kentel
kentucky
kenur
kenya
kenyang
kep
kepada
kepala
kepayang
keperawatan
kepercayaan
keping
kepler
kepoh
kepok
kepompong
keppres
kepribadian
kept
kepuh
kepulauan
kepuloan
kepustakaan
keputusan
ker
kera
kerah
kerajaan
kerajinan
kerak
kerala
keramat
keramik
kerang
kerangka
keras
keraton
kerbau
kere
kereta
keretas
kerinci
kering
keris
kerja
kerjasama
kern
kernel
keroncong
kersa
kersamanah
kertabumi
kertajati
kertajaya
kertanagara
kertanegara
kertas
kertasari
kertasemaya
kertawinangun
kertosono
keruh
kerupuk
kesadaran
kesalahan
kesambi
kesan
kesatuan
kesed
kesehatan
kesehatannya
kesejahteraan
keselamatan
kesemek
kesenian
kesuksesan
kesusastraan
ketahui
ketambe
ketan
ketapang
ketat
keterangan
ketiga
ketik
ketika
ketinggian
ketol
keton
ketua
ketuk
ketulis
keturunan
ketut
keuangan
keude
keukeuh
keumala
keun
keuna
keuneung
keupeul
keur
keureutan
keurseus
keusik
keusikan
keusrak
keutamaan
keutapang
keuyeup
kevin
kew
kewarganegaraan
key
keyakinan
keyboard
keys
kf
kg
kh
kha
khadijah
khaer
khaldun
khalid
khalifa
khalifah
khan
kharisma
khas
khasanah
khasiat
khatib
khattab
khatulistiwa
khazanah
khilau
khmer
khodijah
kholid
kholifah
khotbah
khrushchev
khulafaur
khulna
khusus
khususna
khuwailid
khz
ki
kiai
kiamat
kian
kiara
kiaracondong
kiat
kibang
kiblat
kicimpring
kick
kid
kidang
kidman
kidney
kids
kidul
kiduleun
kiduleunnana
kidulna
kidung
kieu
kiih
kiii
kijing
kilang
kilat
kiliningan
kill
killed
killer
killers
killing
kills
kilo
kilogram
kilome
kilometer
kilometres
kim
kimchi
kimi
kimia
kimiana
kimiawan
kimiawi
kimono
kina
kinabalu
kind
kinds
kine
kinerja
kinetic
king
kingdom
kingdoms
kings
kini
kinki
kintel
kinten
kintetsu
kios
kipas
kiper
kira
kirai
kirana
kirang
kiri
kiribati
kiripik
kirk
kiruh
kis
kisah
kisaran
kismis
kiso
kiss
kistan
kita
kitab
kitakyushu
kitin
kitts
kitu
kituna
kiwari
kiwi
kiyai
kiyeu
kj
kje
kk
kkeun
kl
klaim
klan
klangenan
klapanunggal
klarasi
klarasikeun
klari
klasifikasi
klasik
klaster
klate
klaten
klaus
klausa
kle
klein
klender
kleub
klien
klik
klinik
klinis
klip
kliring
klm
klon
kloning
klorida
klorin
klorofil
klorokuin
kloroplas
kls
klub
kluet
klumbayan
km
kmp
kn
kna
knight
knik
knil
knis
knologi
know
knowledge
known
ko
koagulasi
koala
koalas
koalisi
kobalt
kobe
kobong
koce
koch
kocok
kodam
kodansha
kode
kodepos
kodeu
kodon
koe
koefisien
koes
koesoemadinata
kognitif
kohaku
kohe
kohkol
koi
koin
koizumi
koja
kojima
kok
kokain
koki
koko
kokoh
kokolot
kokone
kokoro
kokosan
kokotor
kol
kolaborasi
kolage
kolam
kolang
kole
kolek
koleksi
kolesterol
kolibri
kolkata
kolmogorov
kologi
kologis
kolom
kolombia
kolone
kolonel
kolong
koloni
kolonial
kolonialisme
kolonisasi
kolot
kolotna
kolumbia
koma
komandan
komando
komara
kombinasi
kome
komedi
komersial
komersil
komet
komik
komikus
komisaris
komisi
komite
komitmen
komo
komoditas
komoditi
komodo
komona
komoro
komp
kompa
kompas
kompasiana
kompeni
kompetisi
kompilasi
komple
komplek
kompleks
komplikasi
kompone
komponen
komponis
kompor
kompos
komposer
komposisi
komposit
kompre
komputasi
komputer
komputindo
komune
komunikasi
komunis
komunisme
komunitas
komuter
kon
konci
kondang
konde
kondensasi
kondisi
kondisional
konduksi
konduktivitas
konduktor
kone
koneng
konfe
konfere
konferensi
konfigurasi
konfirmasi
konflik
konfrontasi
kong
konghucu
kongkolak
kongkorongok
kongo
kongre
kongres
konoha
konom
konome
konomi
konomian
konomina
konomis
konon
konse
konseling
konsentrasi
konsep
konser
konservasi
konsiste
konsisten
konsol
konsonan
konspirasi
konstan
konstanta
konstantin
konstantinopel
konstipasi
konstitue
konstitusi
konstitusional
konstruksi
konstruktor
konsultan
konsultasi
konsultasikeun
konsume
konsumen
konsumsi
kontak
kontaminasi
kontan
konte
konteks
kontemporer
kontine
kontinyu
kontra
kontrak
kontraksi
kontras
kontribusi
kontribusina
kontributor
kontrol
kontrove
kontroversi
kontroversial
kontruksi
konve
konvensional
konverge
konversi
konvolusi
koordinasi
koordinat
koordinator
kop
kopaja
kopassus
kope
koperasi
kopi
kopo
koptik
kor
koran
korang
korban
kore
korea
korean
korelasi
koridor
korma
korn
korne
korodok
korona
koronavirus
koroncong
koropak
korosi
korps
korsi
kortisol
korupsi
kos
kosakata
kosakecap
kosambi
kosasih
kosinus
kosistem
koslowakia
kosme
kosmik
kosmologi
kosong
kosovo
kosta
kosterm
kostrad
kostum
koswara
kota
kotabaru
kotabumi
kotak
kotamadya
kotana
kotanopan
kotapinang
kotarih
koting
koto
kotok
kotor
kotoran
kovale
kovarian
kowi
kp
kq
kr
krai
krakatau
krama
kramat
kramatwatu
krangkeng
kraton
krause
krd
kre
kreasi
kreatif
kredit
kresna
kri
kriging
krike
krim
krime
kriminal
krisdayanti
krishna
krisik
krisis
kristal
kristalin
kristen
kristinehamn
kristus
krite
kritik
kritikan
kritikus
kritis
kriya
krl
kroasia
krom
kromium
kromosom
kronis
kronologi
kropak
kroya
kru
krueng
krui
krut
ks
ksasi
ksatria
kse
ksekutif
ksekutip
ksemplar
ksi
ksibel
ksikeun
ksiko
ksina
ksiste
ksklave
ksklusif
kskre
kspansi
kspe
ksplorasi
kspor
kspre
kste
ksternal
kstil
kstrak
kstraksi
kstrim
kstur
ksturna
ksual
kt
kta
ktar
kter
ktif
kting
ktip
ktisida
ktivitas
ktonik
ktor
ktorat
ktori
ktrik
ktrokimia
ktrolit
ktromagne
ktron
ktronik
ktronika
ktroskopi
ktrum
ktual
ktur
kturna
ku
kua
kuador
kuadrat
kuah
kuahna
kuala
kualifikasi
kualitas
kualitasna
kualitatif
kualuh
kuan
kuantisasi
kuantitas
kuantitatif
kuantum
kuartil
kuasa
kuasan
kuat
kuatna
kuator
kuba
kubah
kubang
kubik
kubu
kubur
kuburan
kubus
kubutambahan
kucara
kucing
kuciwa
kucubung
kuda
kude
kudu
kuduna
kudus
kue
kueh
kuil
kuiper
kuis
kujalan
kujang
kukang
kukituna
kuku
kukumbul
kukupu
kukuran
kukus
kul
kula
kulah
kulam
kulantaran
kulawarga
kulawargana
kulawargga
kulawargi
kulawu
kule
kuled
kuli
kuliah
kuliahna
kuline
kuliner
kulit
kulitna
kulkas
kull
kulon
kuloneun
kuloneunnana
kulonna
kultivar
kultur
kulu
kulub
kuluwung
kuma
kumaha
kumamoto
kuman
kumar
kumawasa
kumbah
kumbang
kumbuh
kumeli
kumis
kumparan
kumpeh
kumpeni
kumpul
kumpulan
kumuh
kumulatif
kumun
kun
kuna
kunang
kunaon
kunce
kunci
kuncup
kundang
kunde
kung
kungsi
kuning
kuningan
kunjungan
kuno
kunrei
kunsill
kunsten
kunth
kunti
kuntilanak
kuntul
kuntze
kunu
kunyit
kuo
kupang
kupat
kupu
kur
kura
kurang
kurangna
kurawa
kurban
kurdi
kurdish
kurdistan
kurikulum
kuriling
kuring
kurma
kurnia
kurniawan
kursi
kursor
kursus
kurt
kurtosis
kuru
kurun
kurung
kurupuk
kuruse
kurusetra
kurva
kurz
kusabab
kusi
kusir
kusne
kusta
kusuma
kusumadinata
kusumah
kuta
kutabuluh
kutai
kutalimbaru
kutambaru
kutang
kutapanjang
kutaragi
kutasari
kutawaringin
kute
kutha
kutif
kutip
kutipan
kutoarjo
kutojaya
kutu
kutub
kutuk
kuwait
kuwu
kuya
kv
kw
kwak
kwala
kwik
kwk
kwon
kx
ky
kyai
kyeong
kyi
kyo
kyoto
kyrgyzstan
kyu
kyuko
kyushu
kz
l
la
laan
lab
laba
labe
label
labor
laboratorium
laboratory
labour
labs
labu
labuan
labuh
labuhan
labuhanbatu
labuhna
lack
lada
ladang
ladies
ladiri
lady
lae
lag
laga
lagi
lagoa
lagu
laguboti
laguna
lah
lahan
lahang
lahar
lahewa
lahir
lahirna
lahomi
lahore
lahusa
lai
laila
lain
laina
lainna
lainnya
lais
laja
laje
lajeng
laju
lajuna
lak
lakan
lakbok
lake
lakes
lakeun
laki
lakon
lakonet
lakop
laksa
laksamana
laksana
laktat
laktosa
laktulosa
laku
lakukeun
lakuna
lalab
lalaguan
lalajo
lalaki
lalakina
lalakon
lalakonna
lalampahan
lalampahanana
lalampahanna
lalangit
lalaunan
lalawanan
lalawuh
lalay
lalayaran
laleur
laleutik
lali
lalu
laluasa
lam
lama
laman
lambaga
lambak
lambalek
lambang
lambangna
lambar
lambaran
lambat
lambda
lambu
lambung
lami
lamongan
lamp
lampah
lampahna
lampegan
lamping
lampoh
lampu
lampung
lamu
lamun
lan
lana
lanang
lancah
lancar
lanceuk
lanceukna
land
landak
landas
landasan
landeuh
landian
landihan
landmark
lands
landscape
lane
lang
lange
langensari
langganan
langgar
langgeng
langit
langka
langkah
langkahan
langkaplancar
langkat
langkung
langlayangan
langsa
langsung
language
languages
lanin
lanjut
lanjutan
lanka
lanoma
lanset
lanskap
lantai
lantaran
lante
lao
laos
lap
lapan
lapang
lapangan
lapar
lapis
lapisan
laplace
laporan
laptop
lara
larang
larangan
larantuka
larapan
larapna
laras
large
largely
larger
largest
lari
laris
larry
lars
larus
larut
larutan
larva
las
laser
lasi
laskar
lasminingrat
last
lastari
lastis
lat
latar
late
laten
later
lateral
latest
lathaif
latif
latifolia
latihan
latin
lativitas
latter
latvia
lau
laubaleng
lauk
laukna
laun
launch
launched
launches
laura
laurasia
laurent
laurentii
laut
lautan
lautna
lava
law
lawa
lawak
lawan
lawang
lawanna
lawas
lawe
lawon
lawrence
laws
lawu
lawungan
lay
layak
layanan
layang
layar
layer
layers
layon
layu
layung
lb
lbss
lc
lcd
ld
ldp
le
lead
leader
leaders
leading
leaf
league
leap
learn
learning
least
leaves
lebah
lebahan
lebak
lebakwangi
lebanese
lebanon
lebar
lebaran
lebe
lebesgue
lebet
lebih
lebu
lebur
lecture
lectures
led
ledakan
ledong
lee
leech
leeward
left
lega
legacy
legal
legana
lege
legend
legenda
legendaris
legends
legislatif
legislation
legislative
legit
legok
legon
legs
leguminosae
leibniz
leicester
leiden
leidong
leipzig
lekasan
leksikon
lelea
leles
lem
lemah
lemahabang
lemahna
lemahsugih
lemak
lemakna
lembab
lembaga
lembah
lembang
lembar
lembaran
lembu
lembur
lemburna
lembut
leme
lemek
lemes
lemesna
lemon
lemong
lempeng
lempengan
lempengna
lempung
lempuyangan
lemy
lencana
lendir
lengan
lengkap
lengkep
lengkepna
lengkong
lengkungan
length
leningrad
lennon
lenong
lenovo
lensa
lenteng
lentera
lentong
leo
leokum
leonard
leonardo
leone
leopard
leopold
lepan
lepas
lepidoptera
leq
ler
leres
les
leslie
lesmana
lesot
less
lesser
lessons
lestari
leste
lesung
let
letak
lethal
letnan
letter
letters
letup
letusan
leubeut
leueur
leuit
leukemia
leuleus
leuleutik
leumpang
leumpangna
leunca
leung
leungeun
leungeunna
leungit
leungiteun
leungitna
leupas
leupeut
leupung
leuser
leutak
leutik
leutikna
leuweung
leuwi
leuwigoong
leuwih
leuwihna
leuwiliang
leuwimunding
leuwisari
levamisole
level
levels
levering
levi
levine
levy
lewat
lewih
lewis
lexicon
leyur
leyuran
lf
lg
lgia
lh
lhok
lhoknga
lhokseumawe
lhoksukon
lhoong
li
lia
liam
lian
liana
liang
liangan
liangna
lianna
liar
liat
libanon
liberal
liberation
liberia
liberty
libraries
library
libur
liburan
libya
license
licensing
licik
licin
lidah
lie
liechtenstein
liem
lies
lieur
life
lifestyle
lifetime
lift
liga
ligar
light
lightning
lights
lignin
ligung
lihat
lika
like
likelihood
likely
liket
likopter
lila
lilana
lilin
liliwatan
lily
lim
lima
liman
limau
limb
limbad
limbah
limbangan
limbur
limfoma
limfosit
limit
limited
limits
limo
limpa
limpung
limun
limus
lin
lina
lincah
lincoln
linda
lindeuk
lindsay
line
linear
lineker
liner
lines
ling
lingan
linge
lingga
linggajati
linggarjati
linggawarman
linggih
lingkar
lingkaran
lingkung
lingkungan
lingkunganana
lingkup
linglung
lingua
linguistic
linguistics
linguistik
linguists
lini
linie
linier
link
linked
linkin
linko
links
linn
linnaeus
linne
linnean
linrary
lintang
lintas
lintasan
lintong
lintuh
linus
linux
lion
lionel
lipat
lipet
lipi
lipid
lipoma
lips
liputan
liquid
lir
lirik
lis
lisa
lisan
lisbon
lise
lisin
lisozim
list
listed
listen
listing
liston
listrik
listrikna
lists
lisung
lit
litbang
liter
literacy
literal
literally
literary
literasi
literatur
literature
lithium
lithuania
litium
litsea
little
lituania
liu
lium
live
lived
liver
liverpool
livery
lives
livestock
living
liwat
liwatan
liza
lj
lk
lkeun
lkis
ll
lla
llc
ller
lloyd
lm
lmu
lmuan
lmuna
lmuwan
ln
lna
lo
loa
load
loba
lobak
lobana
lobang
lobby
lobu
lobus
local
located
location
locations
loce
lock
lockdown
locks
lodaya
lodi
lodong
log
logak
logam
logarithm
logaritma
logat
logawa
logic
logical
logika
logis
logistik
logo
logor
logos
lohbener
lohor
lojor
lok
loka
lokal
lokali
lokasi
lokasina
lokomotif
lokomotip
lokus
lolobana
lolobanana
lolobananana
lolofitu
lolomatua
lolong
lolongkrang
lolos
lolowau
loma
lomari
lomba
lombang
lombok
lon
lonce
lonchura
london
lone
lonely
long
longer
longest
longitudinal
longkib
longleftrightarrow
longman
longse
longsor
lonjong
lontar
lontong
lonyod
look
looking
looks
lookup
loop
looping
lopez
lor
lorazepam
lord
lorentz
lorenz
lorenzo
lori
lorong
los
losarang
losari
lose
loss
losses
lossless
lost
lot
lote
lotte
lotu
lotus
louis
louise
louisiana
louisville
lour
love
lovely
lover
low
lower
lowest
lowry
loyang
loyog
lp
lr
lrt
ls
lsinki
lt
lta
ltd
lti
lu
luahagundre
luang
luar
luareun
luarna
luas
lubang
lubis
lubu
lubuk
luca
lucas
lucia
luck
lucky
lucu
lucy
ludwig
lueng
lues
luffy
luhung
luhur
luhureun
luhurna
luis
luka
lukas
luke
lukis
lukisan
lukman
luksemburg
lukut
lular
lule
lulu
lulugu
luluhur
lulumpang
lulus
lulusan
lumaku
lumampah
lumangsung
lumangsungna
lumayan
lumba
lumban
lumbok
lumbung
lumpat
lumpia
lumping
lumpuh
lumpur
lumrah
lumut
luna
lunak
lunar
lunasi
luncat
luncurkan
lundgren
lung
lungguh
lungsur
luragung
lurah
lurus
lusi
luther
luthfiyani
lutung
luwu
luxembourg
luxury
luyu
luzon
lv
lw
lx
ly
lycopodium
lynn
lynx
lyrics
m
ma
maag
maakond
maarif
maarten
maatschappij
mabok
mabuk
mac
maca
macaca
macakeun
macam
macan
macana
macaranga
macau
macdonald
mace
macedonia
macedonian
macem
machine
machinery
machines
machu
macintosh
macmillan
macrovision
macul
maculosus
mad
mada
madagascar
madagaskar
madali
madang
madani
madaniyah
madara
madat
made
madeira
madhab
madinah
madison
madiun
madrais
madrasah
madrid
madrim
madu
madukara
madura
madya
mae
maeda
maehan
maen
maenpo
maestro
mafia
magazine
mage
magelang
magellan
magetan
mageuhan
maghrib
magic
magis
magister
magma
magne
magnesium
magnet
magnetic
magnetik
magnetism
magnets
magnituda
magnitude
magnitudo
magnus
magrib
magyar
mah
maha
mahabarata
mahabharata
mahakam
mahal
mahan
mahar
maharaja
maharani
mahasiswa
mahathir
mahatma
mahayana
mahdi
mahe
maher
mahi
mahkamah
mahkota
mahluk
mahmoud
mahmud
mahoni
mai
maibara
maiden
mail
mailing
main
mainland
mainly
mainstre
maint
maintain
maintained
maintenance
maja
majalah
majalaya
majale
majalengka
majapahit
majapait
majelis
majemuk
majesty
maji
majlis
major
majority
maju
majuna
mak
maka
makalah
makam
makamna
makan
makanan
makasar
makassar
makau
make
makedonia
maker
makes
makhluk
makhlukna
makin
making
makkah
makkiyah
makmu
makmue
makmur
makna
makoto
makro
makromolekul
maksa
maksad
maksimal
maksimum
maksud
maksudna
makuta
makutana
mal
mala
malabar
malaccensis
malade
malae
malah
malahan
malai
malaikat
malaka
malam
malang
malangbong
malarat
malaria
malati
malawi
malay
malaya
malaysia
malaysian
malayu
malcolm
male
malela
malem
males
malesia
malesiana
mali
maligas
malik
maliki
malikkeun
malin
maling
malintang
malioboro
mall
malta
maltosa
malu
maluku
maluruh
mama
mamah
mamala
mamalia
maman
mamangna
mamanis
mamaos
mamawa
mammal
mammals
mampang
mamplam
mampu
mampuh
man
mana
manado
manaf
management
manager
managing
manah
manajeme
manajemen
manajer
manakala
manan
manaskeun
manat
manau
mancak
mancanagara
mancarkeun
mance
manchester
manchu
mancung
mandailing
mandala
mandalawangi
mandarin
mandat
mande
mandela
mandi
mandiangin
mandiraja
mandirancan
mandiri
mandoge
mandrehe
manduamas
mane
maneh
manehna
manengah
maneuh
manfaat
manfaatnya
manfred
mang
manga
mangabad
mangan
mangaruhan
mangat
mange
mangga
manggah
manggala
manggarai
manggeng
manggih
manggihan
manggihkeun
manggis
manggu
manggung
mangifera
mangka
mangkak
mangkat
mangkok
mangku
mangkubumi
mangle
mangpaat
mangpaatkeun
mangpaatna
mangpirang
mangrove
mangrupa
mangrupakeun
mangrupi
mangrupikeun
mangsa
mangsana
mangsi
mangtaun
mangunkusumo
mangunreja
mangunsarkoro
manhattan
mani
maniamolo
maniis
manik
manila
manipulasi
manis
manisan
manjang
manjangan
manjangkeun
manjing
mann
manner
manokwari
manonjaya
mans
mansipasi
manson
mansur
mansyur
mantak
mantan
mante
mantel
manten
mantena
manteng
mantenna
mantes
mantra
mantri
mantu
mantuan
manual
manuel
manufacture
manufactured
manufacturer
manufacturers
manufacturing
manufaktur
manuk
manunggal
manusa
manuscript
manusia
many
manyak
manyang
mao
maok
maos
maot
maotna
map
mapag
maparin
mapatahan
mapay
mapping
maps
mar
mara
maraban
maradona
marah
maraja
marake
maranatha
marancar
marane
maranggi
maraot
marapi
marbau
marc
marcapada
marcel
march
marco
marconi
marcus
mardingding
mare
marebutkeun
marengan
marentah
maret
mareuman
marga
margaasih
margahayu
margaluyu
margaret
margasari
margasatwa
margi
margin
marginal
margo
mari
maria
mariah
mariana
maribaya
marie
marihat
mariksa
marilyn
marina
marine
maringgai
marinir
marino
mario
maritim
maritime
marius
mark
markas
markasna
marked
market
marketing
markets
markisa
markov
marks
markus
marmer
marmot
marmota
maro
maroko
marquez
marriage
married
mars
marshall
martabat
martadinata
martanagara
martha
marti
martial
martin
martinique
martinus
martoba
marty
maru
marud
marurag
marvel
marwan
marx
mary
maryam
maryland
marz
marzuki
mas
masa
masagal
masagi
masak
masakan
masal
masalah
masalahna
masang
masangkeun
masarakat
masarakatna
masayoshi
masduki
mase
masehi
mashudi
masigit
masih
masihan
masihul
masilam
masing
masingna
masita
masjid
masjidil
mask
maskapai
maskape
masker
maskot
masrahkeun
mass
massa
massachusetts
massacre
massal
massana
masses
massive
mastaka
master
masters
mastikeun
mastixia
masuk
masumai
masurai
masyarakat
mat
mata
matahari
matak
matakna
matan
matana
matang
matangi
matangkuli
mataram
matarmaja
match
matches
matching
mate
matematik
matematika
matematikawan
matematis
materi
material
materials
math
mathbf
mathcal
mathematica
mathematical
mathematically
mathematicians
mathematics
mathrm
mathworld
mati
matika
matikawan
matinggi
matis
matius
matok
matraman
matriks
matrix
matsumoto
matsushita
matsuyama
matt
matter
matters
matthew
matthews
matthias
matuh
maturan
mau
maudy
maulana
maulid
maung
maupun
maurice
mauritania
mauritius
mauro
maut
mawa
mawakeun
mawaqif
mawar
max
maximum
maxwell
may
maya
mayang
mayar
mayasari
maybe
mayeng
mayit
mayjen
mayor
mayoritas
mayotte
mazdudin
mazhab
mazino
mazo
mb
mba
mbah
mbak
mbakan
mbakkeun
mbalan
mbang
mbara
mbaran
mbarkeun
mbc
mbcmbhcbhmb
mbe
mber
mbit
mbok
mbong
mbongan
mbongkeun
mbongna
mbox
mbran
mbrio
mbrionik
mbur
mc
mccartney
mcconaughey
mcdonald
mcdonnell
mcgraw
mclaren
mcpherson
md
mdpl
me
mean
meaning
means
measure
measurement
measures
mecahkeun
mecakan
mecca
mecenghul
mecenghulna
mechanical
mechanics
mechanism
mechanisms
med
medal
medali
medalkeun
medalna
medan
medang
medar
medarkeun
media
mediaindonesia
median
mediatama
medical
medicinal
medicine
medieval
medina
medis
mediterania
mediterrane
mediterranean
medium
medlineplus
mee
meet
meeting
meets
mega
megah
megalaima
megan
megapolitan
megar
megatkeun
megawati
meh
mehmed
mei
meijden
meiji
meisn
meitetsu
meja
mekah
mekanik
mekanika
mekanisme
mekar
mekarjaya
mekarkeun
mekarmukti
mekarna
mekarsari
mekarwangi
mekkah
mekong
meksiko
melainkan
melak
melaksanakan
melakukan
melalui
melambangkan
melanie
melaporkan
melati
melayu
melbourne
melengkung
meles
melete
melihat
melinjo
melintang
mellitus
melly
melodi
melody
melting
memakai
memang
membaca
membangun
membawa
membeli
membentuk
member
memberi
memberikan
members
membership
membran
membrane
membuat
membuka
meme
memed
memelihara
memilih
memiliki
memoir
memori
memorial
memory
mempunyai
men
menak
menang
menangkeun
menanti
menara
menari
menarik
mencapai
mencari
mence
mencegah
mencek
mencil
mencintai
menciptakan
mencos
mendahara
mendakan
mendaluh
mendapat
mendapatkan
mending
mendirikan
mendut
menembus
meneng
menengah
menentukan
menerima
menerkeun
menetapkan
mengadu
mengalami
mengambil
mengandung
mengapa
mengatakan
mengatur
mengelilingi
mengenai
mengenal
mengenang
mengendalikan
mengetahui
menggala
menggantikan
menggunakan
menghadapi
menghasilkan
mengikuti
mengkonfirmasi
mengkuang
mengkudu
mengobati
mengorbit
mengubah
mengumumkan
meni
menikah
menikmati
meninggal
meninggalkan
meningitis
meningkat
meningkatkan
menit
menjadi
menjaga
menjul
menopause
menore
menta
mental
mentawai
menteng
menteri
mentha
mentingkeun
mention
mentioned
mentri
menu
menuju
menulis
menunggu
menunjukkan
menurut
menyadari
menyan
menyatakan
menyebar
menyebut
mer
merah
meraih
merak
meraksa
merangan
merangin
merankeun
meranti
merapi
merasa
merawan
merawat
merbau
mercalli
mercedes
merchant
mercosur
mercury
mercy
merde
merdeka
merdika
mere
merek
mereka
merenah
meresihan
merger
merhatikeun
meri
meriah
meridian
meristem
merk
merkurius
merlukeun
merlung
merpati
merr
merriam
mersam
mertahankeun
merupakan
mesatkeun
mese
mesh
mesidah
mesin
mesir
mesiu
mesjid
meski
meskipun
mesopotamia
message
messages
messaging
messenger
mestong
mesuji
met
meta
metabolism
metabolisme
metakeun
metal
metallic
metallica
metals
mete
meteorologi
meteorological
meter
method
methodology
methods
metik
metoda
metode
metoklopramid
metot
metre
metres
metric
metro
metromini
metropolis
metropolitan
meujeuhna
meukek
meulah
meuleum
meuli
meulit
meunang
meunangkeun
meunangna
meunasah
meuncit
meungkeut
meuntas
meuntasan
meupeuskeun
meurah
meuraxa
meureubo
meureudu
meureun
mev
mewarnai
mexican
mexico
meyer
meyong
mf
mfd
mg
mh
mheg
mhp
mhz
mi
mia
miami
miang
miara
mibanda
miboga
miceun
miceunan
michael
michel
michelin
michelle
michigan
mick
mickey
micro
microbiology
micronesia
microsoft
microwave
micu
mid
midang
midangkeun
midazolam
middle
midnight
mie
mifflin
miftahul
migas
migawe
might
migran
migrasi
migration
migunakeun
mihak
miharep
miheulaan
mihrab
mijah
mikabutuh
mikacinta
mikahayang
mikanyaah
mikanyaho
mikaresep
mikat
mikawanoh
mike
mikeun
mikhail
miki
mikir
mikiran
mikirkeun
mikro
mikroba
mikrobiologi
mikrolet
mikrone
mikroorganisme
mikropon
mikroskop
mil
mila
milampah
milan
milangkala
mild
mile
miles
miliar
miligram
milih
milihan
milik
milime
milisi
militan
military
milite
militer
milk
milky
milla
millennium
miller
million
millions
mills
milton
milu
miluan
milyar
mimbar
mime
mimetik
mimi
mimilukeun
mimindengna
mimiti
mimitian
mimitina
mimpi
min
mina
minahasa
minaj
minami
minang
minangka
minangkabau
minangkana
minantu
minantuna
minat
minato
mind
mindahkeun
mindanao
mindeng
mindengna
mine
mineng
mineral
minerals
ming
minggu
mingguan
mingkin
mingpin
minh
mini
minimal
minimize
minimum
mining
minister
ministry
minnesota
mino
minor
minoritas
minorities
minority
mint
minta
minton
mintonkeun
mintul
minuhan
minuman
minus
minute
minutes
minyak
minyakna
minzu
mipis
miq
mir
mira
mirabilis
miracle
mirah
mirat
mirig
miring
mirip
mirror
mirupa
mis
misa
misah
misahkeun
misal
misalna
misalnya
misan
mischocyttarus
misfe
misi
misil
misionaris
miskin
misro
miss
missing
mission
mississippi
missouri
mistake
misteri
misterius
mit
mitchell
mite
mitembeyan
mitochondrial
mitokondria
mitologi
mitos
mitra
miturut
mium
miwah
mix
mixed
miya
miyuni
mizan
mizuki
mizwar
mj
mk
ml
mly
mm
mma
mms
mn
mnctv
mnemonic
mo
moal
mobil
mobile
mobilitas
mobility
mocca
moch
mochtar
moci
modal
mode
model
modeling
models
modem
moderen
modern
modes
modified
modifikasi
modul
modulasi
modulation
modulator
module
moe
moehamad
moesa
moglobin
mogok
mogot
mografi
moh
mohamad
mohamed
mohammad
mohammed
moi
moisture
mojang
mojo
mojokerto
mokrasi
mokrat
mokratik
mokratis
mokuskeun
mol
moldavia
moldenke
molding
moldova
mole
molecular
molecule
molecules
molekul
molekular
molekule
molekulna
molen
molo
mom
mome
momen
moment
moments
momentum
mon
mona
monaco
monako
monarch
monarchs
monarchy
monarki
monas
moncorong
mondok
mone
monetary
moneter
money
mongol
mongolia
monica
monitor
monitoring
monkey
monkeys
mono
monograph
monokotil
monoksida
monome
monopoli
monorail
monosakarida
monroe
monster
monsters
monstrasi
montana
montasik
monte
montenegro
montgomery
month
monthly
months
montreal
montserrat
monume
monumen
monye
monyet
mood
moon
moore
mopohokeun
mor
mora
moraceae
moral
morawa
more
morfologi
morgan
mori
moriyama
morning
moro
morocco
morphology
morris
morse
mortality
morton
mosambik
moscow
moses
mosi
mosional
moskow
mosque
most
mostly
mosul
mote
motegi
mother
motif
motion
motivasi
moto
motogp
motong
motor
motorcycle
motors
motorsport
motorsports
motto
mount
mountain
mountains
mouse
mouth
move
moved
movement
movements
moves
movie
movies
moving
mowal
moyan
moyang
mozambik
mozambique
mozart
mozilla
mp
mparan
mpc
mpe
mpec
mpeg
mph
mping
mplaseme
mpo
mpore
mpr
mpu
mq
mr
mrebet
mrna
mroduksi
mrs
mrt
ms
msc
msg
mt
mts
mtv
mu
muangtai
muara
muaro
muasal
muasalna
muat
muatan
muatanana
muawiyah
muay
mubarak
much
muchtar
mucunghul
muda
mudah
mudik
muell
mufti
muga
mughal
mugi
muh
muhamad
muhammad
muhammadiyah
muhara
muharam
muharram
muhyi
muhyiddin
mui
muir
muja
mujamma
muji
muka
mukai
mukim
mukmin
muko
mukosa
mukti
mula
mulai
mulang
mulangkeun
mulanya
mulasara
mulia
mulih
muljana
mulo
multi
multime
multimedia
multiple
multiplexing
multiplication
multise
multivariate
mulud
mulus
mulut
mulya
mulyana
mulyani
mulyasari
mulyo
mumbai
mumusuhan
mun
munara
muncang
muncul
munculna
munculnya
mundel
munding
mundinglaya
mundu
mundur
mundurna
mundut
mung
munggah
munggaran
munggaranana
munggaranna
munggel
mungguh
mungkas
mungkin
mungkir
mungkur
mungkus
munich
municipal
municipalities
municipality
munisipalitas
munjul
munte
mupus
mur
murag
murah
murakami
murangkalih
murata
murder
muri
muria
muriang
murid
muridna
murka
murni
murphy
murray
muru
murwa
mus
musa
musang
musawarah
muse
museum
museur
museurkeun
mushaf
musharraf
mushroom
mushrooms
musi
musibah
music
musical
musician
musieum
musik
musikal
musikna
musim
musisi
musium
musk
muslihat
muslim
muslimat
muslimin
muslims
musnah
muson
mussolini
must
mustafa
mustahil
mustapa
mustappa
mustika
mustofa
musuh
musuhna
musyawarah
mut
mutahir
mutasi
muter
muterkeun
muterna
mutiara
mutlak
mutlakna
mutu
mutual
mutually
mutuskeun
mv
mw
mx
my
myanmar
mye
myeon
myrtaceae
mystery
myth
mythology
myths
mz
n
na
nabara
nabati
nabawi
nabawiyah
nabeuh
nabi
nabla
nabrak
nabung
nacional
nada
nadh
nadia
nadjib
nae
naek
nafas
nafsu
naga
nagamasa
nagan
nagano
nagara
nagarakretagama
nagarana
nagari
nagasaki
nagasari
nage
nagorno
nagoya
nagrak
nagre
nagri
nah
naha
nahan
nahdlatul
nahun
naif
naik
nainggolan
nairobi
naisans
naive
najan
najd
najis
najong
najwa
nak
nakagawa
nakamura
nakasendo
nakatsugawa
naked
naker
nakhchivan
naklukkeun
nakol
nakula
nal
nalar
nalian
nalika
nalin
nalingakeun
nalo
nalti
nalukeun
nalukkeun
nalungtik
naluri
nam
nama
naman
namanya
namatkeun
nambah
nambahan
nambahannana
nambahkeun
nambahna
nambo
name
named
namely
names
nami
namibia
namina
naming
namo
namohalu
namorambe
nampa
nampi
nampik
nampilkeun
nampung
namun
namung
nan
nana
nanah
nanang
nanaon
nanas
nancebkeun
nancy
nanda
nandaan
nandakeun
nandangan
nandasa
nandatangan
nandatanganan
nande
nandingan
nang
nanggala
nanggar
nanggeuy
nanggroe
nanggung
nanging
nangka
nangkep
nangkeup
nangkub
nangtang
nangtayungan
nangtukeun
nangtung
nani
naningan
nanjak
nanjeur
nanjeurkeun
nanjing
nankai
nano
nanotechnology
nanti
nanya
nanyakeun
naomi
naon
napak
napas
napati
napel
naphazoline
naples
naplok
napole
napoleon
napoli
napsu
nara
narajang
naraka
narasi
naratas
naratif
nare
nari
narik
narima
naringgul
narita
narjamahkeun
narkoba
narkotika
narrow
narumonda
naruto
nas
nasa
nasal
nascar
nasdaq
nase
nash
nashville
nasi
nasib
nasional
nasionalis
nasionalisme
nasir
naskah
naskahna
nasr
nassau
nasser
nasution
nat
nata
natal
natalia
natambaan
natar
natas
nation
national
nationalism
nations
native
nato
nator
natrium
natsir
natuan
natur
natural
naturalis
naturally
nature
nauli
naungan
nauru
naval
navigasi
navigation
navigator
navy
nawarkeun
nawawi
nayaga
nazi
nb
nba
nbal
nbc
nc
nca
ncana
ncang
ncbi
nce
nchen
ncia
ncipe
ncok
ncos
ncov
ncrang
nd
nda
ndah
ndahan
ndahna
nde
ndemik
nden
ndensi
nder
nderal
ndez
ndo
ndok
ndokrin
ndol
ndos
ndra
ndral
ndro
ndse
ndum
ne
neal
neangan
near
nebula
necessarily
necessary
ned
neda
nederland
nederlands
nederlandsch
nedunan
need
needed
needle
needs
nees
neg
negara
negatif
negatip
negative
negeri
negeskeun
neglasari
negorij
negrak
negri
neguh
neil
neither
neken
nekenkeun
nelah
nelasan
nelayan
nelepon
nelson
nemasing
nembak
nembang
nembangkeun
nembe
nembongkeun
nembrak
nembus
nempatan
nempatkeun
nempo
nempokeun
nempu
nendeun
nengah
nengetan
nenjo
neo
nepal
nepenthaceae
nepenthes
nepi
nepika
nepikeun
neptunus
nepungan
neraca
nerangkeun
nerapkeun
neraskeun
nerbitkeun
nerekab
nergi
nergina
nero
nerus
neruskeun
nes
net
netep
netepkeun
netflix
netherlands
netik
netral
network
networking
networks
neu
neukteuk
neukteukan
neul
neuleum
neuleuman
neumann
neundeun
neunggar
neunggeul
neureuy
neuroblastoma
neuron
neurotransmitter
neutral
neutron
nevada
never
nevis
new
newer
newly
news
newsletter
newspaper
newspapers
newsweek
newton
newtonian
newyork
next
nezue
nf
ng
nga
ngababarikeun
ngababarkeun
ngabage
ngabagi
ngabagikeun
ngabahas
ngabahayakeun
ngabales
ngabalukarkeun
ngabandingkeun
ngabangkitkeun
ngabangun
ngabantosan
ngabantu
ngabantuan
ngabasmi
ngabatalkeun
ngabdi
ngabe
ngabedakeun
ngabehi
ngabejaan
ngabela
ngabeledug
ngabenerkeun
ngabentuk
ngabersihan
ngabersihkeun
ngabeuleum
ngabeungkeut
ngabiayaan
ngabiluk
ngabina
ngabingungkeun
ngabogaan
ngabom
ngabongkar
ngabubarkeun
ngabudidayakeun
ngabuka
ngabuktikeun
ngabungkus
ngabutuhkeun
ngadadak
ngadadarkeun
ngadagoan
ngadahar
ngadaharna
ngadahup
ngadalikeun
ngadamel
ngadangu
ngadangukeun
ngadarat
ngadatangan
ngadatangkeun
ngadawuh
ngade
ngadeg
ngadegkeun
ngadegna
ngadenge
ngadesek
ngadete
ngadeukeutan
ngadidik
ngadirikeun
ngadominasi
ngadon
ngadonge
ngadopsi
ngadorong
ngadu
ngaduga
ngadukung
ngaduruk
ngae
ngagabung
ngagabungkeun
ngagaduhan
ngagali
ngagambar
ngagambarkeun
ngagampangkeun
ngagancangkeun
ngaganggu
ngaganti
ngagantikeun
ngagantung
ngagantungkeun
ngagarap
ngagaringkeun
ngagawe
ngage
ngagede
ngagem
ngagentos
ngagentoskeun
ngagerakeun
ngagerakkeun
ngagero
ngageroan
ngagiling
ngagolak
ngagolongkeun
ngagore
ngaguar
ngagulingkeun
ngagulung
ngagunakeun
ngagunduk
ngagurilap
ngah
ngahade
ngahadiran
ngahaja
ngahakan
ngahakanan
ngahalangan
ngahambat
ngahampura
ngahapus
ngaharepkeun
ngahargaan
ngahartikeun
ngahasil
ngahasilkeun
ngahe
ngahibur
ngahiji
ngahijikeun
ngahijina
ngahina
ngahirupkeun
ngahontal
ngahormat
ngahormatan
ngahubungkeun
ngahudang
ngahudangkeun
ngahukum
ngahuma
ngahurungkeun
ngahususkeun
ngaide
ngait
ngajabat
ngajadi
ngajadikeun
ngajaga
ngajagaan
ngajajah
ngajajar
ngajak
ngajalanan
ngajalankeun
ngajalin
ngajamin
ngajangge
ngajantenkeun
ngajar
ngajarkeun
ngajauhan
ngajauhkeun
ngajawab
ngaje
ngajelaskeun
ngajelegur
ngajendul
ngaji
ngajieun
ngajorag
ngajual
ngajugjug
ngajukeun
ngajuru
ngajurung
ngakan
ngakibatkeun
ngaklaim
ngaku
ngakuan
ngakukeun
ngakut
ngala
ngalaan
ngalade
ngalahirkeun
ngalakonan
ngalaksa
ngalaksanakeun
ngalakukeun
ngalalana
ngalaman
ngalamar
ngalambangkeun
ngalampahkeun
ngalancarkeun
ngalanggar
ngalangkungan
ngalanglang
ngalanjutkeun
ngalantarankeun
ngalap
ngalaporkeun
ngalarang
ngalarapkeun
ngalatih
ngalawan
ngalawanan
ngalayanan
ngalayang
ngale
ngalegaan
ngalegakeun
ngalengkepan
ngaleukeunan
ngaleungit
ngaleungitkeun
ngaleupaskeun
ngaleutikan
ngaleuwihan
ngaleyurkeun
ngali
ngaliang
ngalibatkeun
ngalibetkeun
ngalih
ngalihkeun
ngalindungan
ngalingkung
ngalir
ngalirkeun
ngaliwat
ngaliwatan
ngalobaan
ngalogat
ngaluarkeun
ngalukis
ngalumakukeun
ngalunasan
ngaluncurkeun
ngalungguhan
ngalungkeun
ngamajukeun
ngamalir
ngamangpaatkeun
ngamangsa
ngamankeun
ngambah
ngambang
ngambek
ngambeu
ngambur
ngamekarkeun
ngamimitian
ngaminimalkeun
ngampar
ngamprah
ngamuat
ngamuk
ngamumule
ngamungkinkeun
ngan
nganalisis
ngancam
ngancem
ngancik
ngancurkeun
ngandeg
ngandelkeun
ngandung
ngang
nganggap
ngangge
nganggeuskeun
nganggo
ngangkat
ngangkut
ngangon
nganjang
nganjrek
nganjuk
ngante
ngantep
ngantepkeun
nganteur
nganteurkeun
ngantunkeun
nganut
nganyahokeun
nganyatakeun
ngaos
ngapak
ngaproduksi
ngapung
ngapungkeun
ngaput
ngarah
ngarahkeun
ngaraih
ngaraketkeun
ngarambat
ngarambe
ngaran
ngarana
ngaranan
ngarancabang
ngarancang
ngarandapan
ngarang
ngaranggeuy
ngarangkep
ngarangrangan
ngarangsang
ngaranna
ngarantau
ngararancang
ngaras
ngarasa
ngarasakeun
ngaratakeun
ngarawat
ngarayakeun
ngarayap
ngare
ngarebut
ngarecah
ngarekahan
ngarekahkeun
ngarekam
ngarencanakeun
ngarengsekeun
ngarep
ngaresmikeun
ngareuah
ngareuy
ngariksa
ngarilis
ngariung
ngariwayatkeun
ngarobah
ngarobih
ngarojong
ngaroko
ngaronjat
ngaronjatkeun
ngaronjatna
ngarope
ngarora
ngarot
ngarti
ngartikeun
ngarugikeun
ngarugrugkeun
ngarujuk
ngaruksak
ngarumpul
ngarumuskeun
ngarungkun
ngaruntuy
ngarupakeun
ngarusak
ngasaan
ngasah
ngasahkeun
ngasakan
ngasilkeun
ngasuh
ngasupan
ngasupkeun
ngatik
ngatur
ngawadahan
ngawajibkeun
ngawakilan
ngawang
ngawangsul
ngawangun
ngawanohkeun
ngawaris
ngawariskeun
ngawarnaan
ngawas
ngawasa
ngawasaan
ngawaskeun
ngawates
ngawatesan
ngawe
ngawengku
ngawi
ngawih
ngawinkeun
ngawitan
ngawujud
ngawujudkeun
ngawulang
ngawuluku
ngayakeun
ngayakinkeun
ngbal
ngde
nge
ngebul
ngedalkeun
ngeja
ngeling
ngeluk
ngembang
ngembangkeun
ngembangna
ngenaan
ngenalkeun
ngendag
ngendalikeun
ngendog
ngengat
ngepung
ngerjakeun
ngetik
ngeueum
ngeun
ngeunaan
ngeunah
ngeunaheun
ngeundeuk
ngeureunan
ngeureunkeun
ngeureut
ngeusi
ngeusian
ngeuyeuban
ngeuyeuk
nggal
ngge
nghap
nghe
ngibing
ngider
ngidinan
ngidul
ngigel
ngijih
ngijinkeun
ngiket
ngilu
ngiluan
ngimpi
nging
nginget
ngingetan
ngingetkeun
ngingkeun
ngingu
nginjeum
nginum
nginumna
ngira
ngirangan
ngirim
ngirimkeun
ngiring
ngiringan
ngirut
ngising
ngistre
ngitung
ngiuhan
ngka
ngkadan
ngkah
ngke
ngkeun
ngking
ngkob
ngkok
ngkol
ngkong
ngna
ngo
ngobatan
ngobrol
ngocor
ngojay
ngokolakeun
ngolah
ngolahna
ngole
ngome
ngomong
ngomongkeun
ngomongna
ngompa
ngondang
ngonsumsi
ngontrol
ngoperasikeun
ngora
ngorana
ngorbankeun
ngorbit
ngore
ngoyagkeun
ngre
ngrowo
ngse
ngsin
ngu
nguap
nguatkeun
ngubaran
ngubur
ngucapkeun
ngudag
nguin
nguji
ngukur
ngukut
ngulang
ngulik
ngulon
ngulub
ngumbah
ngumbara
ngumpul
ngumpulkeun
ngumumkeun
ngundurkeun
ngungkabkeun
ngungkapkeun
ngungkulan
ngungsi
nguntungkeun
ngurah
ngurangan
nguriling
ngurilingan
ngurus
nguruskeun
ngusahakeun
ngusap
nguseup
ngusir
ngusulkeun
ngutamakeun
ngutip
ngutus
nh
nha
nhk
ni
nia
niaga
nias
niat
nibong
nibung
nica
nicaragua
nice
nicholas
nick
nickelodeon
nicki
nickname
nicky
nico
nicolas
nicole
nie
niels
nige
nigel
niger
nigeria
night
nightmare
nights
nightsa
nigra
nih
nihon
nihuta
niigata
niiskeun
nik
nika
nikah
nikahan
nikahna
nikakeun
nikaragua
nike
nikel
nikita
nikmat
nikola
nikotin
nil
nila
nilai
nilaina
nilalanin
nilam
nile
nilem
nilemkeun
nilep
niley
nilik
nilon
nimbang
nimbulkeun
nimu
nimukeun
nin
nina
nincak
nine
nineteenth
ning
ningal
ningali
ningalikeun
ninggali
ninggalkeun
ninggang
ningitis
ningkat
ningkatkeun
ningkatna
nini
ninina
ninja
nintendo
ninth
ninun
nior
nipah
nipis
nippon
nipu
nira
nirkabel
niron
nirsuara
niru
nirvana
nis
nisa
nisam
nisbah
nishi
nisia
nisilin
niskala
nissan
nist
nistan
nitah
nite
nitrat
nitroge
nitrogen
niue
nium
niup
niwaskeun
nixon
nj
nje
njing
njo
njoan
nk
nkeun
nkripsi
nkyou
nl
nlm
nm
nmark
nmt
nna
no
noah
nobe
nobel
noble
nobunaga
node
nodeu
noe
noel
noer
nois
noise
nokia
nokturnal
nol
nolak
nolan
nom
nome
nomena
nomenclature
nomer
nominal
nominasi
nomor
non
nona
nonaktif
nonaktip
none
nong
nongton
nonjol
nonmunjib
nonoman
nonpolar
nonton
noor
noorduyn
nope
nopember
nor
nordic
nordik
norfolk
norma
normal
normally
normalna
norman
normandia
norodom
noron
norse
north
northern
northwest
norton
norway
norwe
norwegia
norwegian
nose
nosin
not
notable
notably
notaris
notasi
notation
note
notebook
noted
notes
nothing
notice
notion
notog
notre
nouvelle
nov
nova
novasi
nove
novel
novelis
november
novi
now
nozoikum
nozomi
np
npasar
npc
nps
npsn
nr
ns
nsa
nsasi
nsi
nsia
nsial
nsif
nsik
nsiklope
nsin
nsina
nsional
nsitas
nsitif
nsitip
nsor
nsus
nt
nta
ntaan
ntah
ntahan
ntahanana
ntahanna
ntahannana
ntahkeun
ntahna
ntal
ntang
ntangan
ntar
ntase
ntasi
ntasikeun
nte
nten
nter
nti
ntifikasi
ntik
ntime
ntina
ntitas
ntog
ntong
ntra
ntral
ntrasi
ntre
ntri
ntrisitas
ntropi
ntsc
ntt
ntum
nu
nuansa
nuar
nuban
nucle
nuclear
nuclei
nucleus
nuduh
nuduhkeun
nugini
nugraha
nugroho
nuh
nuhun
nuju
nujul
nukle
nukleus
nuklir
nulis
nuliskeun
nulisna
null
nulungan
nuluykeun
num
number
numbers
numeral
numerical
numerik
numerous
numpak
numpangkeun
numpes
numpuk
numutkeun
numuwuhkeun
nun
nunda
nunggal
nunggang
nunggu
nungguan
nungkulan
nungtun
nungtut
nunjuk
nunjukeun
nunjukkeun
nunjul
nuno
nunyai
nur
nurani
nurdin
nurhaliza
nursal
nurul
nurun
nurunkeun
nurunna
nurussalam
nurut
nurutan
nurutkeun
nus
nusa
nusantara
nusawiru
nusayr
nut
nutr
nutrient
nutrisi
nutrition
nutritional
nuttige
nutu
nutup
nutupan
nuturkeun
nv
nw
nx
ny
nya
nyaah
nyaangan
nyaba
nyababkeun
nyabak
nyabit
nyabut
nyadap
nyadar
nyadiakeun
nyae
nyaeta
nyagak
nyageurkeun
nyaho
nyai
nyaimbangkeun
nyak
nyaksian
nyalametkeun
nyalin
nyalindung
nyalira
nyalurkeun
nyaluyukeun
nyaman
nyambung
nyambungkeun
nyambut
nyampak
nyampeurkeun
nyamplung
nyampur
nyampurkeun
nyampurnakeun
nyamuni
nyamur
nyandak
nyandi
nyandu
nyanghareup
nyanghareupan
nyangka
nyangkaruk
nyangking
nyangsang
nyanyi
nyanyian
nyanyikeun
nyarankeun
nyare
nyaring
nyarios
nyaris
nyarita
nyaritakeun
nyaruaan
nyaruakeun
nyarupaan
nyata
nyatakeun
nyatana
nyatet
nyatetkeun
nyatu
nyatujuan
nyaur
nyawa
nyawang
nyawe
nyayagakeun
nyayagikeun
nyayang
nyayogikeun
nye
nyebabkeun
nyebar
nyebarkeun
nyebarna
nyebat
nyebatkeun
nyebut
nyebutkeun
nyebutna
nyedot
nyegah
nyekel
nyekelan
nyembah
nyeondo
nyepeng
nyerah
nyerahkeun
nyerang
nyerat
nyerek
nyerep
nyeri
nyerna
nyetak
nyete
nyeungeut
nyeupah
nyeupan
nyeureud
nyeuri
nyeuseup
nyi
nyiapkeun
nyiar
nyiarkeun
nyicingan
nyideraan
nyieun
nyieuna
nyieunan
nyieunna
nyiksa
nyiku
nyilakakeun
nyileungleum
nyimpang
nyimpen
nyimpulkeun
nyindekkeun
nyingkah
nyingkahan
nyingkahkeun
nyingkirkeun
nyingsieunan
nyinte
nyipta
nyiptakeun
nyirikeun
nyirip
nyirorot
nyiru
nyiruan
nyitak
nylon
nyoba
nyobaan
nyobian
nyoco
nyoko
nyokot
nyoman
nyongcolang
nyonya
nyorang
nyorangan
nyorong
nyorot
nytimes
nyuburkeun
nyucikeun
nyugemakeun
nyukcruk
nyukupan
nyulik
nyumbang
nyumbangkeun
nyumebabkeun
nyumebarkeun
nyumponan
nyumput
nyumputkeun
nyungcung
nyupiran
nyuprih
nyusu
nyusuan
nyusul
nyusun
nyutat
nz
nze
nzim
o
oa
oak
oasis
ob
obah
obama
obat
obatan
obe
obeng
obje
object
objective
objects
objek
oblast
obor
obrolan
observable
observasi
observation
observations
observatorium
observatory
observe
observed
observer
observers
observing
obtain
obtained
obye
obyek
oc
occasionally
occupation
occupied
occur
occurred
occurs
oce
ocean
oceania
ochi
oclc
oct
october
od
oda
odading
odakyu
odd
odds
ode
oder
odi
odyssey
oe
oecd
of
off
offer
offered
offering
offers
office
officer
offices
official
officially
officials
offset
offspring
often
og
ogaki
ogan
oge
ografi
ografis
ografisna
ographic
ographical
ography
ograpis
oh
ohio
ohm
oil
ois
ojok
ok
okada
okayama
okezone
okinawa
oklahoma
oksalat
oksi
oksida
oksidasi
oksidatif
oksige
oksigen
oksitosin
oktober
okurigana
ol
olah
olahan
olahraga
old
older
oldest
oldid
ole
olea
oleh
olga
oli
olimpiade
olimpiadeu
olitik
olive
oliver
olivia
olo
olog
ologi
ological
ologis
ology
olympic
olympics
olympus
om
oman
omar
ombak
ome
omega
ometri
ometric
omnivora
omong
omongan
omongna
on
onan
onang
once
oncom
ondangan
onde
onder
one
oneng
onepage
ones
ong
ongan
ongjo
ongkos
onjoy
online
only
ono
onohazumba
onolalu
ons
onta
ontario
onthisday
onto
ontohod
oo
oost
op
opak
opat
opati
opatra
opec
open
openbare
opened
opening
opens
opera
operasi
operasina
operasional
operate
operated
operates
operating
operation
operational
operations
operator
operatorname
operators
opieun
opini
opinion
opium
ople
opor
oposisi
opportunity
opposed
opposite
opposition
oprasi
oprote
optical
optics
optik
optimal
optimization
optimus
option
or
ora
orahili
oral
orang
orange
orangutan
oranye
oranyeu
orat
oray
orbit
orbital
orbitna
orbitnya
orbits
orchestra
orde
order
ordered
orders
ordinal
ordinary
ordo
ordovisium
ore
oregon
orem
orema
oretical
org
organ
organe
organic
organik
organisasi
organisation
organism
organisme
organismeu
organisms
organization
organizations
organized
orge
orgia
ori
oricon
orie
orient
oriental
orientalis
orientasi
oriented
ories
oriflame
origin
original
originally
origins
oritis
orke
orkes
orleans
orname
oro
orochimaru
orok
orokna
orologi
orthodox
orthogonal
ortodoks
ortografi
ory
oryza
os
osaka
osbourne
oscar
osce
oscillator
ose
osi
osilasi
oslo
osok
ost
oste
osteoporosis
ot
ota
otak
ote
other
others
otherwise
otida
oto
otomatis
otomotif
otonom
otonomi
otoritas
otot
otto
ottoman
ou
oul
our
ous
ously
out
outbreak
outcome
outer
outline
outlook
output
outre
outside
ov
oval
ovarium
oven
over
overall
overhe
overline
overseas
overview
ovum
owari
owen
owl
own
owned
ox
oxford
oxygen
oy
oyag
oyo
oyong
oz
ozoikum
ozon
ozzy
p
pa
paal
paan
paantel
pabaru
pabe
pabedilan
pabeubeurang
pabeungeutan
pablo
pabrik
pabrikan
pabuaran
pabukon
pacabangan
pacampur
pacar
pace
paceklik
pacet
pacific
pacikrak
pacioli
package
packaging
packet
packets
pacu
pacul
pada
padagang
padagangan
padahal
padaharan
padahe
padakembang
padalangan
padalarang
padalisan
padamara
padamelan
padang
padangsidimpuan
padarincang
padasuka
padat
padati
pade
pademangan
padet
padetan
padeukeut
padi
padika
padjadjaran
padjajaran
padoman
paduan
padudan
paduli
padumuk
padumukan
padumukna
padungdengan
pae
paederia
paeh
pagade
paganini
pagar
pagaran
pagawe
pagawean
page
pagelaran
pagentan
pager
pagerageung
pagerakan
pages
pageuh
pagi
pagigir
pago
pagulat
paguneman
pagunungan
paguron
paguyuban
pahae
pahala
paham
pahang
pahareup
paheut
pahili
pahlawan
pahwalan
pai
paid
paimahan
pain
pair
pairs
pais
pait
pajabat
pajagan
pajajaran
pajak
pajang
pajangjian
pajaratan
pajauh
pajeg
pajeulit
pajoang
pajoangan
pajuang
pajuangan
pajumlahan
pak
pakai
pakait
pakaitna
pakakas
pakam
pakampungan
pakan
pakantan
pakar
pakarang
pakarangan
pakasaban
pakbola
pake
pakebonan
pakem
pakeman
pakenjeng
paket
pakeun
pakidulan
pakis
pakistan
pakistani
pakkat
pakotaan
pakpak
paksa
paksi
pakta
paktor
paku
pakuan
pakuat
pakumpulan
pal
pala
palabuan
palabuhan
palabuhanratu
palace
palagan
palahlar
palajaran
palaksanaan
palaku
palakuna
palang
palanggan
palanggaran
palangka
palapa
palapah
palapalan
palas
palasah
palasari
palastik
palastra
palataran
palatih
palatihan
palatum
palaturan
palau
palaut
palawak
palawan
palawanan
palawangan
palawija
palayanan
palayaran
pale
palebah
palem
palembang
palengkep
palestina
palestine
palestinian
palgrave
pali
palid
palih
palimanan
paling
palipi
pallas
pallawa
palm
palma
palmer
palmerah
paloh
palsu
paltot
palu
palukis
palung
paluruh
palustris
pamaca
pamadegan
pamae
pamaen
pamahaman
pamaheg
pamajegan
pamajikan
pamajikanana
pamajikanna
pamakaman
pamake
pamali
paman
pamanasan
pamancar
pamandangan
pamandian
pamanggih
pamanggihan
pamanggihna
pamangku
pamangpaatan
pamangsa
pamanna
pamanukan
pamare
pamarekan
pamarentah
pamarentahan
pamarican
pamariksaan
pamasangan
pamasaran
pamass
pamasukan
pamatang
pamatuk
pamatukna
pamawa
pamayang
pambekuan
pame
pamedal
pameget
pamekar
pamekaran
pamenang
pameran
pameungpeuk
pameuntasan
pameunteu
pami
pamiarsa
pamiceunan
pamijahan
pamikiran
pamilih
pamilihan
pamilik
pamilon
pamilu
pamimpin
pamindahan
pamingpin
pamingpinna
pamintonan
pamisahan
pamoha
pamohalan
pamor
pamoyanan
pamrograman
pamrose
pamuda
pamujaan
pamuka
pamukaan
pamukiman
pamulihan
pamungkas
pamungkasna
pamungkus
pamupus
pamustunganana
pamustunganna
pamuter
pan
panabeuh
panah
panahan
panai
panakawan
panakol
panaksir
panaliti
panalukan
panalungtik
panalungtikan
panalungtikanana
panalungtikanna
panama
panambah
panambahan
panambang
panampungan
pananda
panang
panangan
pananggalan
panangkaran
panangtayungan
panangtuan
pananjung
pananya
panarajang
panarajangan
panaratas
panari
panarima
panarimaan
panarjamah
panas
panase
panaskeun
panasna
panasonic
panata
panawangan
panca
pancakaki
pancala
pancalang
pancar
pancaran
pancasila
pancatengah
pance
panceg
panci
pancing
pancoran
pancur
pancuran
panda
pandai
pandan
pandang
pandangan
pandanus
pandawa
panday
pande
pandeglang
pandemi
pandeuri
pandita
pandrah
pandu
panduan
panduduk
pane
panei
panel
panelasan
panembahan
panempo
panen
panengah
panerapan
panerbangan
panerus
pang
panga
pangabisa
pangabisana
pangabutuh
pangacara
pangadeg
pangadegan
pangadilan
pangagem
pangagung
pangahirna
pangajar
pangajaran
pangaje
pangajian
pangakuan
pangalaman
pangale
pangalengan
pangalusna
pangamis
pangampura
pangan
pangancur
pangandaran
pangangkut
pangante
panganten
panganteur
panganut
panganyarna
pangaping
pangapungan
pangarang
pangaresep
pangaribuan
pangarti
pangaruh
pangaruhna
pangasingan
pangatikan
pangatur
pangaturan
pangauban
pangawakan
pangawakanna
pangawal
pangawas
pangawasa
pangawasaan
pangawasan
pangawe
pangaweruh
pangbadagna
pangbage
pangbante
pangbarontak
pangbarontakan
pangbasajanna
pangbe
pangbeungharna
pangdeukeutna
pange
pangebom
pangeboman
pangembangan
pangenan
pangepungan
pangeran
pangeureunan
pangeusi
pangeusina
panggancangna
panggang
pangganti
panggede
panggero
panggih
panggilan
panggore
pangguna
panggunaan
panggung
panghade
panghalang
panghandapna
panghareupna
panghargaan
panghasil
panghasilan
pangheubeulna
pangheulana
panghormatan
panghubung
panghulu
pangibing
pangilaharna
panginten
pangirim
pangiriman
pangiuhan
pangjajah
pangjajahan
pangjalajah
pangjangkungna
pangjerona
pangkakoncarana
pangkal
pangkalan
pangkale
pangkasohorna
pangkat
pangkatan
pangkawentarna
pangkidulna
pangkolotna
pangkuatna
pangkulonna
panglade
panglawungan
pangle
panglegana
panglengkep
panglengkepna
pangleutikna
pangleyur
panglilana
panglima
panglobana
pangluarna
pangluhurna
pangma
pangmahalna
pangmimitina
pangna
pangngorana
pangobatan
pangolahan
pangorana
pangpadetna
pangpangna
pangpanjangna
pangparahna
pangpentingna
pangperangan
pangpondokna
pangpopule
pangpunjulna
pangrango
pangre
pangrojong
pangsae
pangsaeutikna
pangse
pangsibukna
pangsiun
pangtohagana
pangubaran
pangubuan
pangukuran
pangumumna
pangungsi
pangungsian
pangunjung
panguragan
pangurangan
pangururan
pangurus
pangusaha
pangwangunan
pangwe
paniagaan
panic
panimu
panimuan
paninggalan
paninggaran
paningkatan
panite
panitia
panjaga
panjajah
panjajahan
panjalu
panjang
panjangna
panjara
panji
panjualan
pankre
panombeian
panon
panongton
panonna
panonpoe
panorama
panribuan
pantai
pantan
pante
panteraja
pantes
panther
panthera
panti
panto
pantomim
panton
pantrangan
pantulan
pantun
pantura
panuju
panulis
panulisan
panumbangan
panumpang
panumpangna
panungtung
panungtungan
panunjuk
panutup
panutupan
panyabab
panyabungan
panyadia
panyair
panyajak
panyakit
panyakitna
panyalindungan
panyambung
panyang
panyangga
panyanyi
panyatur
panyaturna
panye
panyerang
panyerangan
panyiaran
panyicingan
panyimpenan
panyindangan
panyingkiran
panyipta
panyumputan
panyusun
paolo
papa
papacangan
papada
papae
papais
papak
papake
papalik
papan
papandayan
papanggih
papanggihan
papantunan
paparan
paparikan
papasan
papasangan
papase
papasingan
papasiran
papatah
papatong
paper
paperback
papers
papisah
papua
par
para
parab
parabola
parabot
parabotan
paradaban
parade
paradise
paradoks
paradox
parae
paragi
paraguay
parah
parahiangan
parahiyangan
parahu
parahyangan
parairan
paraji
parakan
parakansalak
parako
parale
parallel
paralysis
paramadina
parame
parameter
parameters
parametrik
paramita
paran
parang
paranginan
parangkat
paranjang
paranje
paranti
parantos
parapat
pararaton
parase
parasi
parasit
parasurama
parawan
parawatan
paray
parayaan
parbuluan
pardamean
pardasuka
pardomuan
pardus
pare
parebut
parebutan
pareng
parent
parentah
parents
pareum
parfum
pari
pariaman
paribasa
parigel
parigi
parikesit
paringkat
paripolah
paripolahna
paripurna
parira
paris
parit
pariwara
pariwisata
park
parker
parkinson
parkir
parks
parleme
parlemen
parliament
parliamentary
parlilitan
parmaksian
parmonangan
parna
paro
parobahan
parobihan
paroman
paron
parondok
parramatta
pars
parsi
parsial
part
partai
parte
partey
partial
partially
particle
particles
particular
particularly
parties
partikel
partisipasi
partition
partly
partner
partnership
parts
party
paru
parud
parudan
parung
parunggu
parungkuda
parusahaan
parwa
pas
pasagi
pasai
pasaka
pasakan
pasakutuan
pasal
pasalingsingan
pasamakmuran
pasamoan
pasang
pasangan
pasanganna
pasanggiri
pasanggrahan
pasantre
pasantren
pasar
pasaran
pasaribu
pasarikatan
pasarturi
pasaruaan
pasatujuan
pasawahan
pasawat
pasca
pascal
pascasarjana
pase
paseh
paselang
paseuk
pasha
pasi
pasie
pasien
pasif
pasifik
pasilangan
pasim
pasing
pasingareup
pasini
pasinyalan
pasipatan
pasipik
pasir
pasirjambu
pasirwangi
pasisian
paskah
pasna
pasoendan
pasokan
pasosore
paspor
pasrah
pass
passage
passed
passenger
passengers
passes
passing
passion
past
pasta
pasteur
pasti
pastikeun
pastina
pastun
pasualan
pasukan
pasukanana
pasukanna
pasundan
pasupati
pasuruan
pasusulan
pat
patah
patahan
patahanan
patali
patalian
patalimarga
patalina
patandingan
patani
patapa
patapaan
patarosan
pataruman
patarungan
patas
pate
patelak
patempatan
patempuran
patengahan
patent
patepung
paternakan
path
paths
pathway
pati
patient
patients
patih
patik
patilasan
patimah
patina
pating
patitis
patlot
patoge
patok
patokan
patologi
patri
patricia
patrick
patriot
patrol
pattern
patterns
patterson
pattimura
patualangan
patugas
patuh
patukang
patukeur
patula
patumbak
patung
patut
pauh
paul
paula
pauling
paulo
paulus
pauly
paus
pausahaan
paviliun
pawakilan
pawangun
pawarna
pawayangan
pawe
pawindan
pawon
pay
paya
payed
payne
pays
payu
payudara
payun
payuneun
payung
pb
pbb
pbs
pbsi
pc
pcm
pcs
pd
pdb
pdf
pdi
pdp
pe
peace
peak
pearl
pearson
peb
pebayuran
pebruari
pecah
pecahan
pecel
pecinta
pedah
pedalaman
pedang
pedaran
pedas
pedes
pedoman
pedro
pedrosa
peer
pegadungan
pegagan
pegajahan
pegangsaan
pegasing
pegat
pegatna
pegon
pegunungan
pejabat
pejawaran
pejuang
pek
peka
pekalongan
pekan
pekanbaru
pekerja
pekerjaan
peking
pekunce
pekurun
pelabuhan
pelafalan
pelajar
pelajaran
pelak
pelaksana
pelaksanaan
pelanduk
pelanggan
pelangi
pelantikan
pelat
pelatih
pelatihan
pelawak
pelawan
pelayanan
pelayangan
pelayaran
peledak
pelepat
pelesir
pelestarian
pelindung
pelita
pelog
pelopor
peluang
pelukis
pelung
pemain
pemalang
pemasaran
pematang
pematangsiantar
pemayung
pembagian
pembalap
pembangkit
pembangunan
pembantu
pembarap
pembawa
pembayaran
pembayun
pembela
pembelajaran
pembentukan
pemberdayaan
pemberian
pemberontak
pemberontakan
pembina
pembinaan
pembuatan
pembuluh
pembunuhan
pemda
pemenang
pemeran
pemerintah
pemerintahan
pemikiran
pemilihan
pemilu
pemimpin
pemuda
pemwangunan
pen
pena
penakluk
penampilan
penanaman
penang
penanganan
penanggalan
penangsang
penari
penataran
penawar
penca
pencak
pence
pencegahan
pencernaan
pencipta
penciptaan
penclon
penclut
pendaki
pendakian
pendapat
pendapatan
pendarahan
pendatang
pende
pendek
pendekatan
penderita
pendeta
pendidikan
pendiri
pendopo
penduduk
pendudukan
pendudukna
pendukung
pendul
penebar
penegak
peneliti
penelitian
penemu
penemuan
penengahan
penerangan
penerbangan
penerbit
penerbitan
pengabuan
pengacara
pengadilan
pengajar
pengajaran
pengalaman
pengamat
pengantar
pengantin
pengaruh
pengawas
pengawasan
pengelola
pengelolaan
pengeluaran
pengembangan
pengendalian
pengertian
pengetahuan
pengganti
penggawa
penggempur
penggilingan
pengguna
penggunaan
penghargaan
penghasil
penghasilan
pengiriman
pengkajian
pengker
pengobatan
pengolahan
pengoperasian
penguin
pengunjung
pengurus
pengusaha
penilaian
peninggalan
peningkatan
peninsula
peninsular
penisilamin
penjaga
penjajah
penjajahan
penjara
penjaringan
penjelajah
penjelasan
penjualan
penn
pennsylvania
pensatrada
penting
pentingna
pentium
penuh
penulis
penulisan
penumpang
penurunan
penyair
penyakit
penyanyi
penyebab
penyebaran
penyedap
penyelenggaraan
penyelidikan
penyerbukan
penyiaran
penyu
penyusun
people
peoples
pepedut
pepek
pepelakan
peperangan
peperenian
peppa
peptides
per
peradaban
peradangan
peradilan
perahu
perairan
perak
peralatan
peralihan
peran
peranan
perancis
perang
perangkat
perangko
perangna
peranna
perantara
perasaan
peraturan
perawatan
perayaan
perbaikan
perbandingan
perbankan
perbatasan
perbaungan
perbe
perbedaan
perbuatan
perbudakan
percaya
percent
percentage
perception
percetakan
percobaan
percut
perdagangan
perdamaian
perdame
perdana
perdata
perdebatan
perdu
pere
perekonomian
perempuan
perenah
perenahna
perencanaan
perennial
pererahna
peresmian
perewis
perfect
perfektur
perform
performance
performed
performing
pergaulan
pergerakan
pergi
perguruan
perhaps
perhatian
perhatikeun
perhentian
perhiasan
perhimpunan
perhitungan
perhubungan
periapsis
perihelion
perikanan
perilaku
perindustrian
peringatan
peringkat
perintah
perintis
period
periode
periodic
periodik
periods
peristiwa
perjalanan
perjangjian
perjanjian
perjoangan
perjuangan
perkara
perkasa
perkawinan
perkawis
perkebunan
perkembangan
perkeretaapian
perkiraan
perkotaan
perkumpulan
perkusi
perlakuan
perlambang
perlawanan
perlaya
perlindungan
perlu
perluasan
perluna
permai
permainan
permaisuri
permana
permane
permanen
permanent
permasalahan
permata
perme
permendagri
permukaan
permusyawaratan
pernah
pernahna
pernapasan
pernikahan
pernyataan
perobahan
peron
perpanjang
perpres
perpustakaan
perry
pers
persada
persahabatan
persaingan
persamaan
persatuan
perse
persegi
persekutuan
persen
persentase
persepsi
perserikatan
persero
perseus
persia
persian
persians
persiapan
persib
persichetti
persinyalan
persis
persisna
persoalan
person
personal
personel
personil
personilna
persons
perspective
perspectives
perspektif
pertahanan
pertama
pertamana
pertambangan
pertamina
pertandingan
pertanian
pertanyaan
pertarungan
pertempuran
pertemuan
pertengahan
perth
pertimbangan
pertiwi
pertolongan
pertumbuhan
pertunjukan
peru
perubahan
perum
perumahan
perundang
perundingan
perunggu
perusahaan
perut
perwakilan
perwira
pesam
pesan
pesanggrahan
pesantren
pesat
pesawaran
pesawat
pesen
peserta
pesisir
pesona
pesta
pestisida
pet
peta
petamburan
petana
petang
petasan
pete
peter
peternakan
peterpan
peters
petersburg
peti
petingan
petir
petisah
petojo
petroleum
petty
petualangan
petugas
petunjuk
peucang
peudada
peudawa
peujit
peukan
peulimbang
peundeuy
peunggas
peuntas
peunteun
peupeundeuyan
peupeus
peurah
peureulak
peurih
peusangan
peusing
peuteuy
peuting
peutingna
peuyeum
pewaris
pf
pg
pgri
ph
phallus
phantom
pharmaceutical
pharmacology
pharmacy
phase
phases
phd
phenomena
phenomenon
phenytoin
phi
phil
philadelphia
philip
philipina
philippe
philippine
philippines
philips
phillip
phillips
philosopher
philosophers
philosophical
philosophy
phoenix
phone
phones
phonetic
photo
photograph
photographs
photography
photon
photons
photos
php
phs
phylogenetic
phylogeny
phys
physical
physically
physician
physicist
physicists
physics
physik
physiology
pi
piagam
piagem
piala
pianakan
pianis
piano
piaraan
pias
pibahayaeun
pibakaleun
picchu
piceun
picilakaeun
pick
picture
pictures
picung
pid
pidada
pidana
pidangan
pidato
pide
pidermis
pidie
pie
piece
pieces
piekun
pier
pierce
pierre
pieter
pifit
pig
pigawe
pigeon
pigeulang
pigme
pigmen
pigunungan
pihak
piit
pijadieun
pik
pika
pikachu
pikaresepeun
pikaseurieun
pikasieuneun
pikeu
pikeun
pikir
pikiran
piksel
pilar
pilates
pile
pilek
pilem
pilemburan
pilemna
pilih
pilihan
pilipina
pilkada
pillar
pilosop
pilot
pimpinan
pin
pinang
pinanga
pinanggih
pinangsori
pinareup
pinasti
pindah
pindahna
pindang
pinding
pine
pinem
pines
ping
pingpinan
pingping
pinilih
pining
pinjaman
pink
pinnata
pintar
pinter
pintonan
pintonanna
pintu
pinuh
pinunjul
pinus
pinyin
pioneer
pionir
pipa
pipah
piper
pipi
pipilueun
pipina
pipindahan
pipir
pipirakan
pipit
pipiti
pir
pirak
piramida
pirang
pirantel
pirates
pires
piring
piringan
piruruhan
piruvat
pisa
pisah
pisan
pisang
pisau
pisi
pisik
pisode
pit
pita
pitaloka
pitarubak
pitcairn
pitch
pitcher
pite
pitt
pittsburgh
pitu
pituduh
pituin
pitulung
piwuruk
pizza
pj
pk
pkeun
pki
pkl
pks
pkt
pl
pla
place
placebo
placed
places
plain
plak
plan
planck
plane
planes
planet
planetary
planets
planiceps
planit
plankton
planned
planning
plans
plant
plantain
plantamor
plantarum
plantas
planten
plants
plase
plasma
plasmodium
plastic
plastics
plastik
plat
plate
plateau
plates
platform
platforms
platinum
plato
play
playback
played
player
players
playing
playoff
playstation
plaza
plb
ple
please
plectocomia
pleyte
plika
plikasi
pliny
pll
pln
plo
plos
plot
plta
pluchea
plug
pluit
plum
plumbon
plural
plurimas
plus
pluto
pm
pmc
pmcentrez
pmi
pmid
pn
pna
pnas
pneumonia
png
pni
pns
po
poaceae
poci
pocket
pocong
podium
poe
poems
poeradiredja
poestaka
poet
poetry
poets
poh
pohaci
pohan
pohara
poho
pohon
poin
point
pointer
points
poison
poisonous
poisson
pok
pokan
poke
pokemon
pokhkisen
pokna
poko
pokok
pol
pola
polah
poland
polandia
polar
polarisasi
pole
polemik
poles
poli
police
policies
policy
polie
polifenol
polifonik
polikarbonat
poliklinik
polime
polimer
poline
polinesia
polio
polipe
polipropile
polisakarida
polish
polisi
polistire
polite
politeknik
political
politician
politics
politik
politikus
politis
politisi
poll
polling
pollung
pollution
polo
polong
polonia
polos
polusi
polyamide
polyester
polyethylene
polymer
polynesia
polynomial
polynomials
polystyrene
polyurethane
pom
pompa
pompeii
pon
poncol
pondasi
pondok
pondokna
pongo
ponorogo
pont
pontang
pontianak
pooh
pool
poor
pop
pope
popong
popotongan
popular
popularitas
popularitasna
popularity
populasi
populasina
population
populations
popule
populer
por
pori
porog
poros
porsea
porsi
port
portable
portal
porter
portibi
portion
portland
portrait
portugal
portugis
portuguese
pos
posisi
posisina
positif
position
positions
positip
positive
positron
posna
posong
possibility
possible
possibly
post
poster
posterior
pot
potassium
pote
potensi
potensial
potential
poto
potong
potongan
potre
potret
potter
pound
pounds
pour
poverty
powder
powe
powell
power
powered
powerful
powers
pp
ppki
ppm
ppp
ppss
pq
pr
pra
prabhu
prabowo
prabu
prabumulih
practical
practice
practices
practitioners
prada
pradesh
pradnya
praeger
praha
prain
praja
prajurit
prak
prakan
prakanana
prakna
prakte
praktik
praktikum
praktis
praktisi
prambanan
prame
pramuka
prancis
prangrang
prapatan
prapti
prasajarah
prasarana
prasasti
prasejarah
pratama
prawira
prayer
praziquantel
pre
preanger
prebu
precipitation
precise
precisely
precision
predator
predict
predicted
prediction
predictions
prediksi
prefecture
prefectures
prefektur
preferred
preform
prehistoric
preliminary
premier
premium
premna
prentice
preparation
presence
present
presentation
presented
presenter
presents
preservation
preside
presiden
president
presidential
presidium
presley
press
pressure
pressures
prestasi
pretoria
pretty
prevent
preventing
prevention
previous
previously
pri
pria
priangan
pribadi
pribadina
pribumi
price
prices
pride
priestley
prihatin
prima
primarily
primary
primata
primate
prime
primer
primitif
primordial
prince
princess
princeton
principal
principle
principles
pring
pringse
pringsewu
prinsip
print
printed
printer
printing
priok
prior
prioritas
prisma
prisoner
priuk
private
prix
priyadi
priyayi
prize
pro
probabilitas
probabiliti
probabilities
probability
probable
probably
probe
problem
problems
probolinggo
proc
procedure
procedures
proceedings
procera
process
processes
processing
processor
prod
prodi
prodromus
produce
produced
producer
producers
produces
producing
product
production
productions
productivity
products
produk
produkna
produksi
produksina
produktif
produktip
produktivitas
produse
produsen
produser
prof
profe
profesi
profesional
profesor
professional
professionals
professor
profil
profile
profiles
profit
progo
program
programme
programmer
programmes
programming
programs
progress
progressive
project
projects
prokariot
proklamasi
prominent
promosi
promote
pronounced
pronunciation
proof
propaganda
propagation
proper
properly
properti
properties
property
prophet
propil
propinsi
propinsina
proporsi
proporsional
proportion
proportional
proposal
proposed
proposition
prosa
prose
prosea
prosedur
proses
prosesi
prosiding
prospects
prostat
prostate
prota
protagonis
prote
protect
protected
protection
protein
proteins
protestan
protests
proto
protocol
protokol
proton
protozoa
prove
proved
provide
provided
provider
provides
providing
province
provinces
provincial
provinsi
provisional
proximity
proye
proyek
prujakan
prunus
prupuk
prusia
ps
pseudo
psi
psikolog
psikologi
psikologis
psikoterapi
psikotropika
psm
pssi
pstn
psycho
psychology
pt
ptable
pte
ptember
pterocarpus
ptida
ptik
ptil
ptilinopus
ptolemeus
ptor
ptt
ptunus
pu
puas
puasa
pub
pubchem
pubian
publ
public
publication
publications
publik
publikasi
publique
publish
published
publisher
publishers
publishing
pubmedcentral
pubs
pucuk
pucukna
pue
pueblo
puerto
puguh
pugung
puhu
puhuna
pui
puisi
pujangga
puji
pujian
pukul
pula
pulang
pulau
pulih
pulisi
pulitik
pulitikna
pulitikus
pulitis
pulitisi
pulitzer
pulo
pulp
pulpe
pulsa
pulse
pulses
puluh
puluhan
pump
pun
punah
puncak
puncakna
punclut
punctulata
pundah
punduh
punduk
pundukna
pungga
punggelan
punggung
punggur
pungkasan
pungkut
pungsi
pungsina
punjab
punjul
punk
punten
punti
punya
pupuh
pupuhu
pupuhuna
pupujian
pupuk
pupus
pupusna
pur
pura
purabaya
purah
purba
purbakala
purbalingga
purbolinggo
purchase
purdue
pure
puri
purn
purnama
purnawarman
purnomo
purple
purpose
purposes
puru
purut
purwa
purwadadi
purwaharja
purwakanti
purwakarta
purwanegara
purwasari
purwodadi
purwojaya
purwokerto
purworejo
purwosari
pusaka
pusakanagara
pusan
pusat
pusatna
puser
puseur
puseurna
push
puskesmas
puspa
puspahiang
pustaka
put
putaran
putat
puter
putera
puteran
puteri
puti
putih
putik
putra
putrana
putri
putrina
puts
putu
putus
putusan
puyuh
pv
pvc
pw
pwk
pwt
px
py
pythagoras
python
q
qa
qajar
qam
qamaruddin
qasim
qatar
qb
qc
qd
qe
qf
qg
qh
qi
qin
qing
qj
qk
ql
qm
qn
qo
qodar
qp
qq
qquad
qr
qs
qu
quad
quadrature
quail
quake
qualification
quality
quantitative
quantities
quantity
quantization
quantum
quarantine
quark
quarter
quarterly
quarto
quattrocchi
qub
que
quebec
queen
queensland
query
quest
question
questions
quick
quickly
quite
quo
quoted
quotes
qur
quraisy
quran
qure
qy
qz
r
ra
raan
rab
rabbit
rabev
rabi
rabie
race
races
rachel
rachman
rachmat
racing
racun
racunan
rada
radang
radar
rade
raden
radial
radian
radiasi
radiation
radical
radikal
radio
radioaktif
radios
raditya
radius
radja
rae
raf
rafael
rafah
raffi
raffles
rafflesia
rafli
raga
ragaji
ragam
rage
ragem
ragi
ragrag
ragragna
ragu
ragunan
rah
rahang
raharja
rahasia
rahayat
rahayatna
rahayu
raheut
rahib
rahim
rahma
rahmah
rahman
rahmat
rahmawati
rahna
rahwana
rahyang
rai
raid
raih
rail
railink
railroad
railway
railways
rain
rainbow
rainforest
raion
rais
raise
raised
raising
raj
raja
rajab
rajabasa
rajade
rajagaluh
rajah
rajana
rajapati
rajapolah
rajasa
rajawali
rajeun
rajin
rajo
rajshahi
rajya
rak
raka
rakai
rakata
rake
raket
rakeyan
rakit
rakitan
rakryan
raksa
raksasa
raksukan
rakyat
ral
raloba
ralph
ram
rama
ramadan
ramadhan
ramah
ramai
ramalan
raman
ramana
ramat
ramatloka
ramayana
rambat
rambatan
rambong
rambung
rambut
rambutan
rame
rami
ramo
ramona
ramos
rampah
rampak
rampog
ramuan
ran
rana
ranan
ranca
rancabuaya
rancae
rancaekek
rancage
rancah
rancakalong
rancana
rancangan
rancatan
rand
randa
randegan
random
randy
rang
rangda
range
ranger
ranges
rangga
ranggajati
ranggeuyan
rangginang
rangin
ranginang
ranging
rangka
rangkaian
rangkas
rangkasbitung
rangkay
rangke
rangkep
rangpur
rangsangan
rangu
rania
ranitidin
ranjang
ranjau
rank
ranked
ranking
rano
ransi
rantau
rantay
rante
ranting
ranto
rao
rap
rapa
rapat
rapet
rapi
rapid
rapidly
rapih
rapper
rara
rarabi
raraga
rarakitan
raramat
rarame
rarancang
rarangke
rarasaan
rarata
raray
rare
rarely
ras
rasa
rasana
rasau
rase
rashid
rasi
rasia
rasiah
rasial
rasinah
rasio
rasional
rasmi
raster
rastrelliger
rasul
rasulullah
rasuna
rasyid
rasyidin
rat
rata
ratai
ratana
rate
rated
rates
rather
rating
ratio
ration
rational
ratna
raton
ratu
ratug
ratus
ratusan
rau
raw
rawa
rawamangun
rawan
rawang
rawayan
rawe
rawit
ray
raya
rayagung
rayat
rayeuk
rayleigh
raymond
raynald
rayon
rays
rb
rba
rbal
rbia
rbivora
rc
rca
rcti
rd
re
rea
reaction
reactions
read
reader
reading
ready
reagan
reaksi
real
realitas
reality
really
reason
rebab
reban
rebana
rebang
rebecca
rebel
rebo
rebon
rebu
rebutan
receive
received
receiver
receivers
receiving
recent
recently
reception
recipes
recognised
recognition
recognized
recommendations
recommended
record
recorded
recording
recordings
records
recovery
rectangular
rectifiers
red
redaksi
redaktur
redirected
reduce
reduced
reduces
reducing
reduction
redwood
reed
reeder
reeves
ref
refer
reference
references
referendum
referensi
referred
referring
refers
refined
reflected
reflects
reform
reformasi
reforms
regard
regarded
regarding
regardless
regent
regime
region
regional
regions
register
registration
regression
regu
regular
regularly
regulation
regulations
regulatory
reguler
reid
reign
rejected
rejeki
rejo
rek
rekaman
rekan
rekayasa
rekor
rekre
rektor
rel
rela
relasi
related
relatif
relating
relation
relations
relationship
relationships
relative
relatively
relativistic
relativity
relay
rele
release
released
relevant
reliability
reliable
relief
religi
religion
religions
religious
religius
rely
rem
remaco
remain
remainder
remained
remaining
remains
remaja
rematik
rembang
remember
remen
remote
remove
removed
rempah
ren
renah
renaissance
renamed
renang
renault
rencana
rencanana
rendah
rendang
rene
rengasdengklok
rengat
rengganis
rengking
rengse
renovasi
rensi
rentang
renville
renyah
repe
replace
replaced
replacing
report
reported
reporter
reports
repository
represent
representation
representative
representatives
represented
representing
represents
reprint
reprinted
reproduction
reproductive
reproduksi
repsol
repu
republic
republican
republik
republika
request
require
required
requirements
requires
requiring
res
rescue
rese
research
resep
reseptor
reserve
reserved
reservoir
resi
residen
residence
resident
residential
residents
residual
resiko
resin
resistance
resistant
resistor
resistors
resmi
resmikan
resmina
resolusi
resolution
resolve
resort
resource
resources
respect
respectively
respon
response
responses
responsibility
responsible
respublika
rest
restoran
restorasi
restoration
restricted
restu
result
resulted
resulting
results
retail
retak
retired
retrieved
retty
return
returned
returns
reu
reuah
reueus
reuhak
reujeung
reuma
reumatik
reun
reundeu
reuneuh
reungit
reureuh
reuters
reuwas
rev
reve
reveals
revenge
reverse
review
reviews
revised
revisi
revision
revolusi
revolution
revolutionary
rex
rey
reya
reynolds
reza
rezeki
rezim
rf
rfid
rg
rgb
rgi
rgina
rh
rhapsody
rheumatoid
rhine
rhino
rhinoceros
rho
rhs
ri
ria
rial
rianti
rias
riau
riba
ribe
ribonukle
ribosom
ribu
ribut
ric
rica
rice
rich
richadiana
richard
richards
richardson
richmond
richter
rick
ricklefs
ricky
rico
rida
ride
rider
ridge
ridho
ridian
ridl
ridwan
rie
rieke
riemann
rif
rig
rigg
right
rightarrow
rights
rihanna
riil
rik
rika
rikit
riko
ril
rilis
rim
rimba
rimbas
rimbaud
rimbo
rime
rimpang
rin
rina
rinci
rincian
rincik
rindu
rine
ring
ringan
ringkes
ringkesan
rings
rini
rinkai
rintakan
rinyuh
rio
riode
riodeu
riodik
ripuh
ris
risalah
risasi
rise
rises
riset
risiko
rising
risk
risks
risoles
rita
rite
ritori
ritorial
ritre
ritrosit
ritual
ritus
riungan
riut
rival
river
rivers
riwayah
riwayat
riweuh
riyadh
riyal
rizal
rizki
rizky
rj
rk
rkeun
rkurius
rl
rlin
rll
rlts
rm
rma
rman
rmanik
rme
rmland
rmome
rms
rn
rna
rnakeun
rnasional
rnisasi
ro
road
roaming
roay
rob
robah
robahan
robahna
robbins
robert
roberto
roberts
robertson
robih
robik
robin
robinson
robot
robust
rock
rocket
rocks
rockstar
rocky
rod
roda
rode
roderick
roem
roepa
roger
rogers
rogue
roh
rohaka
rohang
rohangan
rohani
rohman
rohmat
roid
roje
rojongan
rok
roka
rokan
roke
roket
roko
rol
roland
role
roll
rolling
rom
roma
romadon
romaji
roman
romance
romani
romania
romanian
romanisasi
romanization
romans
romantis
romawi
rombongan
rome
romeo
romli
romon
ron
rona
ronald
ronaldo
ronde
rong
rongga
rongge
ronggeng
ronggur
rongkah
roof
room
roosevelt
root
roots
ropa
ropah
rope
roris
roro
rorongkong
rosa
rose
roses
rosetta
rosewood
rosi
rosidi
ross
rossa
rossi
rostov
rosul
rosululloh
rot
rotan
rotasi
rotating
rotation
rote
roti
rotten
rotterdam
rough
roughly
round
rounded
route
routes
routledge
row
rowling
rox
roxb
roy
royal
royale
royen
royong
rozoikum
rp
rpm
rq
rquez
rr
rrc
rri
rrt
rs
rscm
rsi
rsia
rsial
rsib
rsie
rsil
rsitas
rss
rt
rte
rtikal
rtilisasi
rto
ru
ruam
ruang
ruangan
ruas
rubak
rubakna
rubakpita
rubber
rube
ruben
rubidium
rubrik
rubuh
ruby
rudal
rudi
rudolf
rudy
ruf
rugbi
rugby
rugi
ruhak
ruhaliah
rujak
rujukan
rukem
ruket
rukmana
ruksak
ruksakna
rukun
rule
ruler
rules
rum
rumah
rumaja
rumania
rumasa
rumbia
rumi
rumit
rumpaka
rumpakana
rumpf
rumphius
rumpin
rumpun
rumput
rumus
run
rundayan
rundeng
rundingan
runggu
rungkun
runner
running
runs
runtag
runtagna
runtah
runtuh
runtuhna
runtuyan
rupa
rupana
rupaning
rupert
rupi
rupia
rupiah
rupsi
rural
ruruntuk
rus
rusa
rusak
rusalem
rusdi
ruselli
rush
rusia
rusiah
rusip
rusli
rusman
russell
russia
russian
russians
rusuk
rusyana
rute
ruteu
ruteuna
ruth
rutherford
rutin
ruygrok
rv
rvasi
rviks
rw
rwanda
rx
ry
ryan
rye
ryu
ryukyu
rz
rze
s
sa
saab
saabad
saacan
saacanna
saalam
saan
saanggeus
saarah
saarc
saat
saatos
saatosna
saba
sabab
sababara
sababarah
sababaraha
sababna
sababraha
sabada
sabadana
sabagai
sabage
sabagian
sabah
sabak
sabalikna
saban
sabana
sabanding
sabang
sabangsa
sabangsana
sabangsaning
sabapa
sabar
sabaraha
sabari
sabda
sabe
sabee
sabelas
sabenerna
sabeulah
sabeulahna
sabil
sabilulungan
sabit
sabot
sabrang
sabtu
sabudeureun
sabudeureunana
sabudeureunna
sabudeureunnana
sabuk
sabuku
sabulan
sabun
sabuntut
sabut
sacanata
sacara
sacred
sacukupna
sad
sada
sadana
sadananya
sadang
sadar
sadarajat
sadat
sadaya
sadayana
saddam
sade
sadengkeun
saderhana
sadia
sadiakeun
sadikin
sado
sadu
sadudulur
sadulur
sadunya
sae
saencan
saenggeus
saenggeusna
saenyana
saeutik
saeutikna
safari
safavid
safe
safety
safinah
saga
sagagang
sagala
sagalahe
sagalaherang
sagalana
sagara
sagaranten
sagawayah
sage
sagede
sagelas
sagemblengna
sagi
sagigireun
sagitilu
sagoe
sagolongan
sagu
saguling
sah
saha
sahabat
sahadat
sahade
saham
sahandapeun
sahanteuna
sahara
sahardjo
saharga
sahari
saharita
sahaya
sahenteuna
saheulaanan
saheunteuna
sahih
sahiji
sahijina
sahingga
sahur
sai
said
saigon
saimbang
saimbangna
sain
saing
saingan
sains
saint
saionji
saipar
sair
saitama
saito
saja
sajaba
sajabana
sajajar
sajak
sajakna
sajalan
sajam
sajarah
sajarahna
sajarawan
sajati
sajauh
sajenis
sajeroeun
sajeroeunna
sajeroning
sajeungkal
sajinis
sajumlah
sajumlahing
sajuta
sak
saka
sakabe
sakabeh
sakadang
sakadar
sakali
sakalian
sakaligus
sakaol
sakapeung
sakarat
sake
sakedap
sakedik
sakelompok
saketi
sakeudeung
sakeun
sakeupeul
sakilo
saking
sakirana
sakit
sakitar
sakitu
sakola
sakolana
sakral
saksi
sakti
saku
sakuduna
sakujur
sakulawarga
sakuliah
sakum
sakumaha
sakumna
sakumpulan
sakur
sakura
sakurang
sakuriling
sakurilingeun
sakurilingna
sakutu
sala
salad
salada
saladah
salafi
salah
salahiji
salahsahiji
salahuddin
salain
salaje
salajengna
salak
salaka
salakanagara
salaki
salakina
salaku
salam
salambar
salame
salamet
salametan
salami
salancar
salang
salapan
salapian
salasa
salasahiji
salat
salatiga
salawasna
salawe
salawu
sale
salega
saleh
salem
salemba
salendro
salep
saleresna
sales
salian
saliara
salib
salila
salilana
salim
salin
salinan
saling
salinitas
salinity
salira
saliwat
salju
sallam
salman
salmon
salmun
saloba
salopa
salt
saluareun
saluas
saluhur
saluhureun
salumpit
saluran
saluyu
salvador
salvii
salya
sam
sama
samad
samadua
samagaha
samak
samalah
samalanga
saman
samangka
samar
samara
samaran
samarang
samarinda
samatiga
sambal
sambara
sambas
sambel
sambil
sambung
sambungan
same
samemeh
samemehna
samenanjung
samentara
samentawis
sami
saminggu
samoa
samode
samoja
samosir
sampah
sampai
sampang
sampe
sampel
sampeu
sampeyan
samping
sampingan
sample
samples
sampling
sampo
sampoiniet
sampul
sampurna
sampyong
samsoedi
samsudi
samsung
samudera
samudra
samuel
samurai
san
sana
sanajan
sanaos
sanca
sancaka
sancang
sanctuary
sand
sandang
sandera
sanders
sandi
sandiaga
sandiasma
sandiwara
sandra
sandwich
sandy
sane
sanes
sanesna
sang
sangat
sangay
sangga
sanggar
sanggeus
sanggeusna
sanggul
sanggup
sanghyang
sangiang
sangka
sangkaan
sangkan
sangkuni
sangkunur
sangkuriang
sangray
sangsakerta
sangsara
sangsekerta
sangu
sani
sanjata
sanjaya
sanji
sanksi
sanna
sansakerta
sansekerta
sanskerta
sanskrit
santa
santan
santang
santanu
santen
santi
santiago
santo
santolo
santosa
santoso
santri
santrimuda
santrina
santun
sanusi
sanyawa
sanyawaan
sanyo
sao
saolah
saorang
saos
sap
sapa
sapanjang
saparakanca
saparantos
saparapat
sapardi
saparo
sapasang
sapatemon
sapatu
sape
saperluna
saperti
sapertilu
sapertos
sapeuting
sapi
sapiens
sapinuhna
sapoe
saponin
sapopoe
sapotong
sappan
sapporo
saprak
saptu
sapu
sapuk
sapuluh
saputra
sar
sara
saraf
saragam
sarah
saran
sarana
sarang
sarange
sarangke
sarap
sarasvati
saraswati
sarat
saratna
saratus
sarawak
sardinia
sare
sarekat
sareng
sareung
sari
sariawan
saribu
sarikat
sarimbag
sarimi
saring
saringan
sariwangi
sarjana
sarmidi
saroja
sarolangun
saron
sars
sarta
sartika
saru
sarua
sarung
saruntuyan
sarupa
sarupaning
sarwa
sas
sasadiaan
sasaha
sasaje
sasak
sasakala
sasaksaat
sasalad
sasama
sasana
sasaran
sasarengan
sasaruaan
sasatoan
sase
sasih
sasis
sastera
sastra
sastrahadiprawira
sastrapradja
sastrawan
sasuke
saswi
sat
satangkal
satapak
satata
sataun
sate
satelit
satellite
satellites
satempat
satengah
satengahna
saterasna
saterusna
sateuacan
sateuacanna
satia
satiap
satimna
satingkat
satjadibrata
sato
satria
satru
satu
satuan
satuju
satukangeun
satuluyna
satunya
saturday
saturn
saturnus
satutasna
satwa
satya
satyawati
sauber
saud
saudara
saudi
saukur
saukuran
saumur
saunders
saung
saupama
saur
saurang
saurna
saussure
sausum
sauyunan
savage
savana
save
saving
saw
sawa
sawah
sawajarna
sawaktu
sawal
sawala
sawan
sawang
sawangan
saware
sawarga
sawatara
sawawa
sawe
sawed
sawelas
sawios
sawit
sawo
sawunggalih
saxon
say
saya
sayaga
sayang
sayangna
sayap
saye
sayembara
saying
says
sayur
sayuran
sayuti
sayyid
sayyidina
sb
sbs
sby
sc
scalar
scale
scales
scan
scandic
scandinavia
scandinavian
scarecrow
scared
scdma
scene
sch
schaum
scheduled
scheherazade
scheme
schemes
schleichera
schlumbergera
schmidt
schneider
schoemaker
scholar
scholars
school
schools
schumacher
schuster
sci
science
sciencedirect
sciences
scientific
scientist
scientists
score
scores
scorpion
scorpions
scotland
scott
scottish
scout
scream
screen
screening
script
scrum
scs
sctv
scudderia
sd
sdm
sdn
sdt
se
sea
sean
search
seas
season
seasons
seattle
sebab
sebagai
sebagaimana
sebagian
sebanyak
sebaran
sebastian
sebel
sebelah
sebelas
sebelum
sebelumnya
sebenarnya
seberang
sebesar
seblak
sebo
sebuah
sebut
sebutan
sec
secang
secanggang
secara
second
secondary
seconds
secret
secretary
secrets
section
sections
sector
secular
secularism
secundum
secure
security
seda
sedang
sedangkan
sedangkeun
sedap
sedekah
sedeng
sedengkeun
sederhana
sedih
sedikit
see
seed
seek
seekor
seem
seems
seen
sega
segala
segar
seger
segera
segi
segitiga
segitilu
segmen
sehari
seharusnya
sehat
sehatq
sehingga
sei
seibu
seiring
seja
sejahtera
sejak
sejarah
sejati
seje
sejen
sejenna
sejuk
sejumlah
sekali
sekaligus
sekalipun
sekam
sekampung
sekar
sekarang
sekerak
sekernan
sekertaris
sekitar
sekolah
sekretariat
sekretaris
sekrup
seksi
seksual
sektor
sekuen
sekunde
sekunder
sekutu
sel
sela
selaawi
selagai
selain
selajambe
selalu
selam
selama
selamat
selandia
selang
selanjutnya
selaput
selat
selatan
selayang
sele
selebriti
select
selected
selection
selective
selektif
selesai
self
seling
selir
seljuk
sell
selling
seluas
seluler
selulosa
seluruh
semadam
semak
semaka
semakin
semangat
semantics
semantik
semar
semarang
sembah
sembilan
sembrani
sembuh
seme
semen
semenanjung
sementara
semeru
semesta
semester
semet
semi
semiconductor
semifinal
semikonduktor
seminar
seminung
semit
semitik
sempalan
sempat
sempet
sempit
semprong
sempurna
semu
semua
semuanya
semuli
semuong
semur
semut
sen
sena
senam
senang
senar
senat
senate
senayan
send
sendai
sendal
sendang
sender
sendi
sendiri
sendok
sene
senegal
senen
sengau
sengit
sengketa
seni
seniman
senin
senior
senja
senjata
senna
sensasi
sense
sensitive
sensitivity
sensor
sensors
sensus
sent
sentosa
sentra
sentral
sentul
senyawa
senyerang
seo
seorang
seoul
sep
sepa
sepak
sepakat
sepakbola
sepang
sepanjang
separate
separated
separation
sepat
sepenggal
seperti
sepertos
sepi
sepre
september
sepuh
sepuhna
sepuluh
sepur
seputar
seputih
sequence
sequences
serabut
seragam
serah
serai
seram
serambi
serang
serangan
serangga
serapan
serat
seratna
seratus
serayu
serba
serbajadi
serbia
serdang
seren
serena
serepan
seri
serial
seribu
serie
series
serikat
sering
serious
seririt
serius
seroja
serotonin
serpong
sersan
serta
serumpun
serupa
seruway
serve
served
server
serves
service
services
serving
sesa
sesah
sesebutan
sesek
seseorang
sesepuh
seserahan
session
sesuai
sesuatu
sesungguhnya
set
setahun
setan
setasion
setasiun
sete
setelah
setengah
setia
setiabudi
setiap
setiawan
setijati
setre
sets
setting
settled
settlement
setya
seubeuh
seudati
seueul
seueur
seug
seukeut
seulawah
seulimeum
seunagan
seuneu
seuneuan
seuneubok
seungit
seungitna
seunuddon
seupan
seureuh
seuri
seuseungitan
seuseurian
seven
seventeen
seventeenth
seventh
several
severe
sewang
sewangan
sewu
sex
sexual
seyche
seychelles
seyyed
sf
sg
sgsn
sh
sha
shades
shadow
shah
shahab
shahih
shakespeare
shalat
shaleh
shallallahu
shallow
shan
shanghai
shania
shanks
shannon
shape
shaped
share
shared
sharing
sharingan
shark
sharon
sharp
shaw
she
sheet
shelf
shell
sherina
shewhart
shi
shichibukai
shiddiq
shield
shift
shiga
shihab
shiki
shikoku
shima
shin
shinagawa
shinano
shinee
shinjuku
shinkansen
shinto
shinzo
shiojiri
ship
ships
shireen
shirley
shirohige
shirt
shisha
shizuoka
sho
shock
shoes
shogun
sholat
shop
shopping
short
shorter
shorthair
shortly
shot
should
show
showa
showdateerror
showed
showing
shown
shows
shtml
shu
shuku
shuri
shut
shuttle
si
sia
siabu
siaga
siah
sial
sialang
sialis
siam
sian
siang
sianida
sianjar
siantar
siap
siapa
siapapun
siapkeun
siaran
siasat
siasi
siatas
siau
sibabangun
sibe
siberia
sibiru
siblah
sibolangit
sibolga
siborong
sibuk
sichuan
sicily
sid
sidamanik
sidang
side
sideband
sidekah
siden
sides
sidik
sidikalang
sidney
sido
sidoarjo
sidodadi
sidomukti
sidomulyo
sidu
sidua
sie
siem
siemens
siempat
sienta
sierra
sies
sieun
sieur
sieve
sif
sifat
sifatna
sifik
sifikasi
siga
sigala
sigaluh
sigana
siger
sight
sigli
sigma
sign
signal
signaling
signalling
signals
signed
significance
significant
significantly
signifikan
signing
signs
sigompulon
sigumpar
sih
sihan
sihapas
sihir
sihung
sijamapolang
sikap
sikat
sikep
sikeun
siki
sikian
sikina
sikkim
siklik
siklon
siklus
siko
siksa
siksaan
siksikan
siku
sila
silaen
silang
silangkitang
silat
silaturahmi
silau
silem
silia
silicon
silih
silika
silikon
silima
silimakuta
silinda
silinder
silindris
siliwangi
silk
silla
siloka
silou
silsilah
siluman
silva
silver
silverstone
sim
simalungun
simangambat
simangumban
simanindo
simbol
simbolis
simbul
simbut
sime
simeulue
simeut
similar
similarly
simkuring
simon
simpang
simpangan
simpanseu
simpati
simpen
simpenan
simple
simply
simpson
simulasi
simulation
simultane
sin
sina
sinai
sinambung
sinar
sinareng
sinatra
since
sindang
sindangagung
sindangbarang
sindangjaya
sindangkasih
sindangkerta
sindanglaya
sindangsari
sindangwangi
sinde
sinden
sindir
sindonews
sindoro
sindrom
sindur
sine
sinetron
sing
singa
singajaya
singaparna
singapore
singapur
singapura
singareup
singasari
singel
singer
singget
singgetan
singh
singhasari
singk
singkahan
singkat
singkatan
singket
singketan
singkil
singkong
singkut
single
singsaha
singular
sini
sinjang
sino
sinom
sinonim
sint
sinta
sintaksis
sinte
sintesis
sintre
sinunukan
sinus
sinusoida
sinusoidal
sinyal
sional
sipahutar
sipangan
sipat
sipatahoenan
sipatahunan
sipatna
sipil
sipin
sipirok
sipispis
sipoholon
sipongi
siprus
sir
sirah
sirahna
sirandorung
sirapit
siraru
siregar
sireum
sirih
sirilik
sirip
sirit
sirkuit
sirkulasi
sirna
sirnagalih
sirnajaya
sirombu
sirop
sirsak
sirung
sirungan
sis
sisa
sisarahili
sisi
sisidueun
sisieun
sisik
sisikian
sisilia
sisina
sisindiran
sisingaan
sisir
sisit
sisitan
sisitna
sistansi
siste
sistem
sistematis
sister
sistim
sistor
siswa
sit
sita
site
sitelu
sitember
sites
siti
sitinjau
sitio
sitokrom
sitolu
sitoplasma
sitrat
situ
situasi
situation
situations
situbondo
situraja
situs
siulak
sium
siwa
siwur
six
sixth
siyeun
size
sized
sizes
sj
sjahrir
sjuman
sk
ska
skala
skalar
skandal
skandinavia
ske
skema
sketsa
skeun
skewness
ski
skin
skizofre
skop
skor
skotlandia
skrip
skripsi
skull
sky
skype
sl
slam
slamet
slav
slave
slavia
slavik
slawi
sle
sleep
sleeping
sleman
slightly
slipi
sliyeg
slo
slope
slot
slots
slovakia
slove
slovenia
slow
slowakia
slowly
sltp
sm
sma
small
smaller
smallest
sman
smart
smas
smc
smi
smith
smithsonian
smk
smkn
smks
smoke
smoking
smp
smpn
sms
smu
sn
sna
snake
snakes
snow
snowdon
so
soal
soang
soara
soba
sobat
sobatna
soc
soca
soccer
social
societies
society
soda
sodagar
sodara
sodium
sodonghilir
soe
soedirman
soeharto
soekarno
soenda
soendaneesch
sofia
soft
software
sofyan
sogae
sohabat
sohe
sohor
soil
sok
sokaraja
sokuon
sol
solanum
solar
solat
sold
soldadu
soldier
soldiers
sole
solid
solo
solobong
solok
solokan
solokanjeruk
solomon
solusi
solution
solutions
solve
solved
solving
soma
somali
somalia
somaliland
somambawa
somantri
sombong
some
something
sometimes
somewhat
somewhere
somolo
son
sonansi
sondaicus
song
songo
songs
songsong
songsongan
songwriter
sonny
sono
sons
sony
soo
soon
sop
sopan
sophia
sophie
sopia
sor
sora
sorana
sorangan
sorbitol
sore
sorga
sorghum
sorik
sorkam
sorong
sorot
sort
sosa
sosial
sosialis
sosialisasi
sosialna
sosiolog
sosiologi
sosis
sosobatan
sosok
soson
sosopan
sosoranganan
sosorgadong
sot
sote
sotho
soto
soul
soun
sound
sounds
soundtrack
source
sources
south
southe
southeast
southern
southwest
sovereign
sovie
soviet
sp
spa
space
spacecraft
spaces
spain
spam
spammers
spamming
span
spanish
spanyol
spark
sparks
spasi
spatial
spc
spe
speaker
speaking
special
specialist
specialized
species
specific
specifically
specification
specifications
specified
specify
speciosa
spectral
spectroscopy
spectrum
speech
speed
speedcast
speeds
speedtv
spektakuler
spektrum
spelling
spencer
spent
spesial
spesialis
spesies
spesifik
spesifikasi
sphere
spice
spices
spider
spiders
spielberg
spikelet
spin
spiral
spirasi
spirit
spirits
spiritual
spk
split
spoken
spon
spongebob
spons
sponsor
spontan
spoon
spora
sport
sporting
sports
spot
spotted
spp
spre
spread
spring
springer
springs
spss
spy
sq
sqrt
square
squared
squares
sr
srage
sragi
srange
srengseng
sri
srikandi
srimanganti
sriwijaya
ss
ssb
st
sta
staatsspoor
staatsspoorwegen
stabat
stabil
stabilitas
stability
stable
stackrel
stadion
stadium
staf
staff
staffa
stage
stages
stainless
stajumena
stalin
stalingrad
stallone
stambul
stamford
stamina
stan
stand
standar
standard
standardisasi
standardization
standardized
standards
standarisasi
standing
stands
stanford
stanley
star
starastra
starata
stars
start
started
starting
starts
stasi
stasion
stasiun
state
stated
statement
states
static
station
stationary
stations
statis
statistic
statistical
statistics
statistik
statistika
statistis
statoids
stats
statue
status
statusna
staudinger
stay
std
ste
steam
steel
steenis
stefan
stellar
stem
sten
step
stephen
steps
ster
stera
steril
sterling
stern
steroid
sterol
steve
steven
stevens
stewart
stick
stie
stik
still
stimator
stimulan
stimulasi
stina
stis
stisida
stival
stkip
stm
stmik
stochastic
stock
stockholm
stocks
stol
stone
stoner
stones
stonia
stoomtram
stop
storage
storan
storasi
store
stored
stores
stories
storm
story
stoste
stovia
stra
straight
strait
straits
strange
stranger
strata
strate
strategi
strategic
strategis
strategy
stratum
stre
stream
street
strength
streptopelia
stres
stress
strictly
strike
strikes
string
strip
stro
stroge
stroke
strong
stronger
strongly
structural
structure
structures
struggle
struktur
struktural
strukturna
stsi
stt
stu
stuart
stub
student
students
studi
studied
studies
studio
studios
study
studying
stuff
stuna
stuning
style
styles
su
suak
suaka
sual
suami
suara
suasana
suatu
sub
subadra
subah
subang
subdipo
subdit
subdivision
subdivisions
subduksi
subfamili
subje
subject
subjects
subkelas
submarine
subordo
subscriber
subscribers
subscription
subsequently
subset
subsets
subsidiary
subsistem
subsp
subspe
substance
substances
substansi
substrat
subtropis
subuh
subulussalam
subur
suburban
subway
success
successful
successfully
succession
successor
such
suci
sucinaraja
sud
sudah
sudan
sudarso
sudaryat
sudirman
sudoku
sudra
sudut
sue
suez
sufficient
sufficiently
sufi
sufyan
sugan
suganda
sugar
sugema
suggested
suggests
sugiana
sugiarto
sugih
sugu
suhardiman
suharto
suhu
suhud
suhuna
suhunan
suhunanana
sui
suicide
suis
suit
suitable
suji
suk
suka
sukabumi
sukadami
sukadana
sukagumiwang
sukahaji
sukajadi
sukajaya
sukakarya
sukaluyu
sukamaju
sukamakmur
sukamandi
sukamantri
sukamukti
sukamulya
sukan
sukanagara
sukapura
sukaraja
sukarame
sukaratu
sukare
sukaresik
sukaresmi
sukarno
sukasada
sukasari
sukatani
sukau
sukawangi
sukawening
suke
sukjong
sukma
sukoharjo
sukon
sukra
sukrosa
sukse
sukses
suksesi
suku
sukun
sukuna
sukur
sukuran
sulae
sulaiman
sulan
sulap
sulawesi
sule
sulfat
sulfida
sulfur
suling
sulit
sullivan
sulsel
sultan
suluh
suluk
sulur
sum
sumananjung
sumanget
sumardjo
sumarsono
sumatera
sumatra
sumawona
sumay
sumba
sumbang
sumbangan
sumbawa
sumber
sumberdaya
sumberjaya
sumberna
sumbi
sumbu
sumbul
sumebar
sumebarna
sumedang
sumerah
summa
summary
summer
summit
sumpah
sumping
sumpit
sumpiuh
sumsum
sumur
sun
sunah
sunalari
sunami
sunan
sunandar
sunarya
sunaryo
sunat
sunatan
sunda
sundana
sundane
sundanese
sunday
sung
sungai
sunggal
sungkai
sungkal
sungkem
sungsang
sungsum
sungut
sungutna
sunnah
sunni
sunrise
sunset
sunshine
sunten
sunter
suntikan
sunting
sunyaragi
suoh
sup
supa
supados
supata
supaya
super
superbuana
superfamili
supergugus
superior
supernova
superstar
supir
suplai
supleme
suppl
supplement
supply
support
supported
supporting
supports
suppose
supra
supratman
supreme
supriatna
supriyanto
sur
sura
surabaya
surachman
surade
surah
surakarta
suramanggala
surat
surawise
surawung
sure
surface
surfaces
surga
surge
surgery
suri
suriah
surian
suriname
suro
surrounding
surung
surup
surupan
surupna
surut
surve
survey
surveys
survival
surya
suryadi
suryamandala
suryana
suryanegara
suryani
sus
susah
susan
susana
susanti
susanto
suscitator
sushi
susi
susilo
susoh
suspe
sustainable
suster
susu
susua
susuguh
susuhunan
susukan
susun
susunan
susuru
sutam
sutan
sutera
sutiasumarga
sutisna
sutra
sutradara
suu
suuk
suung
suwarna
suweg
suwon
suyadi
suzuki
sv
svalbard
svg
sw
swadaya
swahili
swara
swasembada
swasta
swaziland
swe
sweden
swedes
swedia
swedish
sweet
swift
swiss
switch
switched
switches
switching
switzerland
sword
swt
sx
sy
sya
syafi
syah
syahadat
syahbandar
syahrir
syaikh
syair
syam
syamsuddin
syamsul
syamsuri
syamtalira
syara
syaraf
syarah
syarat
syari
syariah
syariat
syarif
syawal
sydney
sye
syeh
syeikh
syekh
syen
syi
syiah
sylhet
symbol
symbolism
symbols
symptoms
syn
synchronous
syndrome
synonyms
synopsis
syntax
synthesis
synthetic
synthetische
syracuse
syria
system
systema
systematic
systematics
systems
syukur
syuting
syzygium
sz
t
ta
taal
taat
tab
tabari
tabe
tabel
tabir
table
tables
tablet
tabloid
tabolik
tabolisme
tabolit
tabrakan
tabuh
tabung
tacan
tackle
tacloban
tactics
tadi
tadina
tadu
tae
tafsir
tag
tagalog
tagihan
tagog
tah
tahan
tahanan
tahap
tahapan
tahir
tahna
tahta
tahu
tahun
tahunan
tai
tail
tailed
taina
taipei
taisho
taiwan
taj
tajam
tajik
tajikistan
tajimi
tajongan
tajug
tajur
tajurhalang
tajwid
tak
taka
takahashi
takao
takashi
takayama
takbir
takbiran
takdir
take
taken
takeo
takes
taki
taking
takkan
takokak
taksaka
taksi
taksiran
takson
taksonomi
taktak
taktik
takut
takwa
tal
tala
talaga
talagasari
talang
talari
talas
talatah
talawi
tale
taleq
tales
taleus
tali
taliban
talik
taliti
talk
talking
talks
tall
taluk
talun
tama
taman
tamansari
tamansiswa
tamara
tamat
tamba
tambaga
tambah
tambahan
tambahkeun
tambak
tambaksari
tambang
tambangan
tambihan
tambleg
tambo
tambora
tambun
tame
tamiang
tamil
tamin
tamol
tamorfosis
tampa
tampak
tamperan
tampian
tampil
tampilan
tampolong
tampomas
tamsyah
tamu
tan
tana
tanaga
tanagana
tanah
tanahabang
tanaka
tanam
tanaman
tanara
tanda
tandan
tandana
tandang
tanding
tanduk
tandukna
tandur
taneuh
taneuhna
taneun
tang
tangal
tangan
tange
tangerang
tangga
tanggal
tanggamus
tanggeung
tanggul
tanggulun
tanggung
tangkai
tangkal
tangkalna
tangkas
tangki
tangkil
tangkis
tangkorak
tangkuban
tangse
tangsi
tangtangan
tangtara
tangtu
tangtukeun
tangtuna
tani
tanin
tanjong
tanjung
tanjungbalai
tanjungjaya
tanjungkarang
tanjungkerta
tanjungsari
tanjungsiang
tank
tanna
tano
tanoh
tanol
tanpa
tantangan
tantara
tantowi
tanu
tanya
tanzania
tao
tap
tapa
tapak
tapakna
tapaktuan
tapanuli
tapas
tape
tapel
tapi
tapian
tapina
tapis
tapos
taqwa
tar
tara
tarabintang
tarajangan
taraje
taraju
tarang
tarantula
tarapti
tarasi
taratas
tarate
taratu
tarawangsa
tare
targe
target
tari
tarian
tarif
tarigu
tarik
tarikna
tarikolot
tarima
tarjamah
tarjamahan
tarling
taro
tarogong
tarompe
tartib
tarucing
tarum
tarumanagara
taruna
tarung
tarusbawa
tarutung
tas
tasawuf
tasbe
tasi
tasik
tasikmalaya
task
tasks
tasma
tasmania
taste
tat
tata
tataan
tatabeuhan
tatahar
tatakrama
tatamba
tatan
tatanan
tatane
tatanen
tatang
tatangga
tatanggana
tatangkalan
tatapa
tatapakan
tatapi
tatar
tatarucingan
tati
tatu
tau
taufik
taufiq
tauhid
taun
taunan
taunna
tauris
tawa
tawanan
tawang
tawar
tawaran
tawe
tax
taxa
taxi
taxon
taxonomic
taxonomy
taya
tayalian
tayang
taylor
tayub
tb
tbc
tbilisi
tbk
tc
tcp
td
tdd
tdma
te
tea
teaching
team
teams
teater
tebet
tebih
tebing
tebo
tebu
tech
technical
technique
techniques
technische
technological
technologies
technology
tectorius
ted
teddy
teen
teenage
teeth
tegak
tegal
tegalan
tegalwaru
tegangan
tegep
teges
tegesna
tegineneng
teguh
teh
tehnik
tehnologi
tehran
tejakula
teka
tekad
tekanan
tekenan
teki
teknik
teknologi
teks
tekstil
tel
teladan
teladas
telaga
telah
telat
telecom
telecommunication
telecommunications
telegraf
telegram
telegraph
telekomunikasi
telematika
telephone
telephones
telephony
telepon
telescope
teleskop
televisi
television
telkom
telkomvision
tell
tells
telu
teluk
telukbetung
telukjambe
telur
telurium
tema
teman
temase
tembaga
tembang
tembesi
tembok
tembong
tembung
tembus
temen
tempat
tempatna
tempe
temperatur
temperature
temperatures
temple
tempo
tempona
temporal
tempuh
tempur
tempuran
tempuyung
ten
tenaga
tenang
tend
tenda
tendean
tendency
tends
teng
tengah
tengahan
tengahna
tenggara
tengger
tengtrem
tenis
tenjo
tenjolaya
tennessee
tenong
tens
tension
tentang
tentara
tentu
teorema
teori
tepang
tepas
tepat
tepatna
tepi
tepikeun
tepung
tepus
ter
terahir
terakhir
teran
terang
terangun
terapan
terapi
teras
terasan
teratur
terbagi
terbaik
terbang
terbanggi
terbaru
terbatas
terbentuk
terbesar
terbit
terbitan
terbuat
terbuka
tercatat
terdapat
terdiri
terebang
tereh
terestrial
terhadap
teri
terima
teripe
terisi
terj
terjadi
terjemahan
terjemahnya
terjun
terkait
terkemuka
terkenal
terkini
terlalu
terlarang
terletak
term
termal
termasuk
termed
terminal
terminals
terminologi
terminology
termoplastik
terms
terna
ternak
ternate
ternyata
teroris
terowongan
terpadu
terpilih
terpisah
terrestrial
territorial
territories
territory
terror
terry
ters
tersebar
tersebut
tersie
tersono
tertentu
tertinggi
tertutup
terumbu
terus
terusan
terutama
terzaghi
tes
tesis
tesla
test
testament
testing
tests
tetap
tetapi
tetapkan
tetekon
tetempoan
tetep
teterusan
teton
tetsu
teu
teuas
teuing
teuku
teuleum
teundeun
teuneung
teunggeulan
teungoh
teunom
teupah
teupati
teupin
teureuh
tevens
tewas
texas
text
textbook
textile
textiles
texts
teya
tf
tg
th
tha
thai
thailand
thalib
thames
than
thana
thariq
that
the
thea
theater
theatre
theft
theguardian
their
them
theme
themeda
themselves
then
theodore
theorem
theories
theory
thepeerage
therapy
there
thereby
therefore
thermal
these
thesis
theta
they
thi
thiba
thief
thimphu
thin
thing
things
think
thinking
thiopia
third
thirteen
this
tho
tholib
thom
thomas
thompson
thomson
thor
thorf
thoriq
those
though
thought
thousand
thousands
thre
threatened
three
thriller
through
throughout
thumb
thus
ti
tia
tiada
tiamin
tiang
tiap
tiara
tiasa
tiba
tibalik
tibatan
tibe
tibet
tibetan
tibeto
tibra
tica
ticket
tico
tidak
tidore
tidung
tidur
tie
tien
ties
tiga
tigabinanga
tigalingga
tiganderket
tigapanah
tiger
tigris
tiguling
tihang
tiheula
tii
tiis
tiiskeun
tijdschrift
tiji
tik
tika
tike
tiket
tikna
tikoro
til
tilar
tilas
tile
tilelep
till
tilu
tim
timah
timang
timbal
timbang
timbangan
timber
timbul
timbulna
time
timeline
times
timimiti
timing
timna
timnas
timologi
timologis
timor
timothy
timu
timuan
timur
tin
tina
tinangtu
tindakan
tindih
tinekanan
ting
tingal
tingali
tinggal
tinggaleun
tinggalkan
tinggi
tingkah
tingkat
tingkatan
tingkeban
tingkir
tini
tinimbang
tinimbangan
tinjauan
tinju
tinta
tinton
tinu
tinulis
tinuluy
tiny
tio
tionghoa
tiongkok
tionin
tiopia
tiori
tip
tipar
tipe
tipeu
tipi
tipikal
tips
tipu
tipung
tiram
tiris
tirmidzi
tiro
tiroid
tirosin
tirta
tirtayasa
tirto
tis
tisimal
tisme
tisna
tissue
tissues
titan
titanic
titanium
titel
titeue
titeuleum
titi
titiek
titik
titilar
titimangsa
titinggal
titinggalian
titiran
titisan
title
titles
tito
titsingh
tiung
tiup
tiupan
tivi
tiwas
tiwasna
tiwu
tj
tjarios
tjarita
tje
tk
tkeun
tkr
tl
tm
tmii
tn
tna
tnam
tnan
tnf
tni
tnik
tnis
tnologi
to
toba
tobacco
tobago
tobat
tobing
tobu
today
todd
tode
todeu
toe
toegeschreven
toei
toge
together
togo
toha
tohaga
toilet
tojo
toke
tokelau
toki
toko
tokoh
tokohindonesia
toksik
tokugawa
tokyo
tol
tolak
told
tole
toledo
tolerance
toll
tolombong
tom
toma
tomat
tomatoes
tombangan
tombol
tome
tomentosa
tommy
tomo
tomorrow
ton
tone
tong
tonga
tongge
tonggoh
tonggong
tonggongna
tongkat
tongkol
toni
tonjolan
tonjong
tons
tony
too
took
tool
tools
top
topan
tope
topeng
topi
topic
topics
topik
topografi
topology
tor
toraja
tore
torgamba
tornado
toronto
torowongan
torpe
torr
torres
toru
tos
tosa
toshiba
toskop
tot
total
totalna
toto
totol
totonde
touch
tour
tourism
tourist
tourists
tournament
tours
toward
towards
tower
towers
town
towns
toxic
toy
toyama
toyohashi
toyota
tozan
tp
tpi
tq
tr
tra
trachypithecus
track
tracking
tracks
trade
trading
tradisi
tradisional
tradisionalna
tradition
traditional
traditionally
traditions
traffic
trafo
trage
tragedi
tragulus
trail
trailer
train
training
trains
traktat
tral
tramway
tramwegen
trang
trans
transactions
transaksi
transfer
transferred
transform
transformasi
transformation
transformed
transformer
transformers
transforms
transilvania
transisi
transistor
transistors
transit
transition
transjakarta
transkaukasus
transkripsi
translasi
translate
translated
translation
translations
translator
transliterasi
transmisi
transmission
transmissions
transmit
transmitted
transmitter
transmitters
transmitting
transnistria
transparan
transparency
transpor
transport
transportasi
transportation
transporter
transportumum
transverse
trauma
travel
traveling
travels
travis
traye
trayek
tre
treasure
treatment
treaty
tree
trees
trek
tren
trend
trends
trenggana
treron
treuk
tri
trial
trials
trias
tribe
tribun
tribune
tribunnews
tribute
tried
trieng
trienggadeng
trigger
trigonome
trik
triliun
trimurjo
trinidad
trio
trip
tripa
triple
tris
tristan
trna
tro
trofi
trombofilia
trombosit
tron
troops
tropical
tropicos
tropika
tropis
tropolitan
trouble
trout
trubus
true
truk
truman
trumon
trump
trunk
trunyan
truseb
truska
trust
truth
try
trying
ts
tsany
tsar
tsn
tsu
tsunade
tsunami
tsunamis
tsurumi
tsushima
tt
tti
tu
tua
tuah
tualang
tuan
tuang
tuangeun
tuba
tubagus
tuban
tube
tuberkulosis
tubes
tubrukan
tubuh
tuduhan
tuesday
tug
tugala
tugas
tugasna
tugu
tuh
tuha
tuhan
tuhemberua
tujuan
tujuana
tujuanana
tujuanna
tujuh
tukang
tukangeun
tukangna
tukeur
tukka
tulak
tulang
tulangan
tulangna
tule
tulip
tulis
tulisan
tulisanana
tulisanna
tulung
tulungagung
tulungan
tulus
tuluy
tuluyan
tumali
tumapel
tumbak
tumbila
tumbu
tumbuh
tumbuhan
tumenggung
tumerap
tumetep
tumiba
tumijajar
tumor
tumpak
tumpang
tumpeng
tumpukan
tumpur
tumuluy
tumurun
tumut
tumuwuh
tumuwuhna
tun
tuna
tunai
tunas
tunda
tundra
tunduh
tunduk
tuner
tung
tunggal
tunggang
tunggu
tunggul
tungkal
tungkul
tungtung
tungtungna
tungtungnakeun
tungturunan
tungtutan
tuning
tunisia
tunjung
tunnel
tunong
tuntas
tuntungan
tuntutan
tuo
tur
turangga
turbo
turi
turing
turis
turk
turkey
turki
turkic
turkish
turkme
turkmenistan
turks
turn
turname
turnamen
turned
turner
turnix
turns
turta
turtle
turtles
turug
turun
turunan
turunanana
turunkeun
turunna
turus
turut
turuwiseun
tus
tusam
tusuk
tut
tuti
tutorial
tuttle
tutugan
tutul
tutuluyan
tutumbu
tutumpakan
tutung
tutunggulan
tutunjuk
tutup
tutupna
tutur
tutut
tutuwuhan
tuur
tuvalu
tuwan
tuwuh
tuwuhan
tuyul
tv
tvone
tvri
tw
twain
twelve
twentieth
twenty
twice
twilight
twin
twitter
two
tx
ty
type
typed
types
typical
typically
tyson
tz
tze
u
ua
uang
uap
ub
ubaidah
ubar
ubarna
ubi
ububan
ubun
ubuntu
uc
ucap
ucapan
ucb
uchiha
ucing
ucla
ud
udag
udagan
udang
udara
udayana
udik
udin
udjo
udud
ue
uefa
ueno
ueshiba
uf
ug
uga
uganda
ugeran
ugly
ugm
ugrik
uh
uhf
ui
uin
uing
uit
uj
ujang
uji
ujian
ujong
ujug
ujung
ujungberung
uk
ukar
uke
uki
ukiran
ukm
ukraina
ukraine
ukrainian
ukur
ukuran
ukurana
ukuranana
ukuranna
ul
ula
ulah
ulama
ulang
ulangan
ular
ule
ulee
ulikan
ulim
ulin
ulster
ultimate
ultimatum
ultra
ultraviole
ultraviolet
ulu
uluan
ulugawo
ulum
ulun
ulunoyo
ulususua
um
uma
umang
umar
umat
umatna
umay
umayyah
umbara
umberto
umbi
umbilik
umbul
umbunasi
umi
ummu
ummul
umpama
umpamana
umpan
umpu
umrah
umroh
umts
umum
umumkan
umumna
umumnya
umur
umurna
un
una
unak
unbiased
uncal
uncategorized
uncertainty
und
undak
undakan
undang
undangan
under
undergraduate
underground
underlying
understand
understanding
understood
undp
undur
une
unesco
ung
unggah
unggal
unggas
unggul
unggulan
unggut
ungkapan
ungkara
ungu
uni
unicef
unicode
unified
uniform
unik
unikna
unikom
unina
uninga
uninus
union
unique
unisba
unit
united
units
unity
univ
unive
universal
universe
universita
universitas
universiteit
universities
university
unjuk
unknown
unless
unlike
uno
unpad
unpas
unrecognized
unsur
unsurna
unta
until
untuk
untung
unus
unyil
uo
up
upacara
upah
upama
upamana
upami
upas
upaya
upazila
update
updated
updates
upeti
upi
upih
uplink
uploads
upon
upper
uppsala
upsilon
uq
ur
ural
urang
uranium
uranus
urat
urban
urdu
ure
urek
urin
url
urn
ursus
urug
uruguay
urusan
urut
urutan
us
usa
usage
usaha
usahana
usar
usb
usd
usda
use
used
useful
usenet
usep
user
users
uses
useup
usgs
usia
usik
using
uskup
usman
usmar
usopp
uss
ussr
ustad
ustmani
ustrali
usu
usual
usually
usuk
usul
usulan
usulna
usum
usuman
usus
ut
uta
utah
utama
utamana
utami
utamina
utan
utang
utara
utc
uterus
uteuk
utility
utomo
utrecht
utsman
utsmani
utsmaniyah
uttwerf
utuh
uturuncu
uturunku
utusan
utuy
uu
uud
uv
uw
uwais
ux
uy
uyah
uz
uzbe
uzbekistan
v
va
vacation
vaccine
vacuum
vagina
vaksin
vaksinasi
vakuasi
vakum
vakuola
val
vale
valencia
valenciennes
valentine
valentino
valid
valley
valuasi
value
valued
values
vampire
van
vanadium
vancouver
vanderbilt
vanuatu
vapor
var
varanus
vare
varepsilon
variabel
variable
variables
varian
variance
variant
variasi
variatif
variation
variations
varie
varied
varies
varietas
varieties
variety
variogram
various
varley
varphi
varsity
vary
varying
vasco
vast
vatican
vatikan
vauthors
vb
vc
vd
ve
vec
vector
vectors
vedic
vega
vegas
vegetables
vegetarian
vegetasi
vegetatif
vehicle
vehicles
vektor
velocity
venezuela
venice
ventral
venture
venus
verb
verbs
verde
verheij
verlag
versa
verse
versi
version
versions
verslag
verso
versus
vert
vertebrae
vertebrata
vertical
vertikal
very
verzamelingen
vessels
vesta
vesuvius
veteran
vf
vg
vh
vhf
vi
via
vice
victor
victoria
victory
vide
video
videos
vidio
vie
vienna
vietnam
vietnamese
view
viewed
views
vihara
vii
viii
viking
villa
village
vin
vincent
vinci
vintage
vinyl
violence
violet
viral
virgin
virginia
virtual
virtually
virus
viruses
vis
visa
visi
visible
visigoth
vision
visit
visiting
visitors
vista
visual
vital
vitamin
vitis
vitro
viva
vj
vk
vl
vladimir
vm
vn
vo
voc
vocabulary
vocal
vodka
vodkas
voice
voices
voip
vokal
vokalis
vol
volcanic
volcanism
volcano
volcanoes
voli
volkslectuur
volksraad
vols
volt
volta
voltage
voltages
voltase
volts
volume
volumena
volumes
volusi
volusione
volusioner
von
voor
vote
voted
votes
voting
vowel
vowels
voyage
voyages
vp
vq
vr
vron
vs
vsat
vsb
vt
vu
vulgaris
vulkanik
vulkanis
vulnerable
vv
vw
vx
vy
vz
w
wa
waan
wabah
wabrata
wacana
wada
wadah
wadahna
wadana
wade
waditra
wado
wadon
waduk
wae
wafat
wage
wageningen
wagner
wagub
wah
wahab
wahana
wahangan
wahhab
wahid
wahyu
waiting
waja
wajah
wajar
wajib
wajit
wak
waka
wake
wakil
waktos
waktosna
waktu
waktuna
wal
walahar
walahir
walakaya
walanda
walang
walangsungsang
walasuji
walaupun
wale
wales
wali
walid
walikota
walirang
walk
walker
walks
wall
wallace
wallachia
wallis
walls
walsh
walt
walter
waluh
walungan
wampu
wan
wana
wanara
wanaraja
wanasari
wanayasa
wancahan
wanci
wanda
wandana
wang
wangan
wangchuck
wangenan
wangi
wangsa
wangsakerta
wangun
wanguna
wangunan
wangunanna
wangunna
wangwangan
wani
wanita
wanoh
wanoja
want
wantara
wanted
wants
war
wara
waragad
warah
warakeun
waralaba
waras
ward
waregu
warga
wargana
wargi
waringin
waris
warisan
warm
warman
warna
warnaan
warnana
warner
warni
warning
warren
warrior
wars
warsawa
warsih
warta
wartawan
waru
waruga
warung
warungasem
warungkondang
was
wasa
washington
wasiat
wasir
wasit
waspada
wasps
wasta
waste
wastu
wata
watang
watangna
watch
wate
watek
watekna
water
waters
wates
watesan
watesna
watson
watt
watts
wave
waveguide
wavelength
waves
wawacan
wawadahan
wawakil
wawales
wawan
wawancara
wawane
wawangsalan
wawangunan
wawarman
wawasan
wawates
wawatesan
wawatjan
waway
wawuh
way
wayah
wayahna
wayan
wayang
wayback
wayne
ways
wb
wc
wd
we
weapons
weather
web
webcitation
weber
webmd
webpage
website
webster
webtoon
weda
wedal
wedalan
wedana
wedding
wedi
weeds
week
weekly
weeks
weezer
wegener
weighing
weight
weights
weisstein
welas
welcome
wele
weleri
welfare
well
wellington
wells
welsh
weltevreden
wen
wenang
wengi
wengkuan
went
were
wereng
werken
werner
weru
weruh
wesi
wesley
west
western
westminster
westview
wet
wetan
wetaneun
wetenschappen
wetu
weureu
weuteuh
weweg
wewenang
wewengkon
wewengkonna
wf
wg
wh
what
whatever
whe
wheeler
when
where
whether
which
while
white
whitney
who
whole
whose
why
wi
wiart
wiati
wib
wibawa
wibisana
wibowo
wibro
wicitrawirya
widadari
widang
widara
widasari
wide
widely
widespre
widi
widianti
widianto
widjaja
widodo
width
widura
widya
widyatama
wiener
wife
wifi
wih
wijaksana
wijaya
wijayakusuma
wije
wiki
wikibooks
wikicutatan
wikikamus
wikilink
wikime
wikimedia
wikipe
wikipedia
wikipustaka
wikisource
wikispecies
wikivoyage
wiktionary
wilah
wilangan
wilayah
wilayahna
wild
wilde
wildlife
wiley
wilhelm
wilhelmina
wilis
wilkinson
will
willd
willem
william
williams
willis
willughbeia
willy
wilson
wilujeng
wim
wimax
win
wina
wind
winding
windings
window
windows
wine
wing
winged
wings
winner
winners
winnie
winning
winny
wins
winslet
winston
winter
wira
wiracarita
wiradadaha
wirahadikusumah
wirahma
wiranatakusumah
wirata
wirausaha
wire
wireless
wires
wisata
wisatawan
wisconsin
wisdom
wise
wish
wisnu
wit
witch
with
within
without
witir
witness
wiwaha
wiwitan
wiyono
wizards
wj
wk
wl
wm
wn
wo
wojo
wok
wol
wolf
wolff
wolfgang
woman
women
won
wonder
wong
wonogiri
wonokromo
wonosari
wonosobo
wonotunggal
woo
wood
woodrow
woods
wool
woolpit
woordenboek
word
wordpress
words
work
worked
workers
working
works
workshop
world
worldcat
worlds
worldwide
worst
wortel
worth
wos
would
wound
woyla
wp
wpp
wq
wr
wretikandayun
wright
write
writer
writers
writing
writings
written
wrong
wrote
ws
wt
wto
wu
wudu
wuh
wuhan
wujud
wujudna
wulan
wulandari
wuluh
wuluku
wulung
wungkul
wungu
wuruk
wuwung
wv
ww
wwe
www
wx
wy
wyatt
wyuha
wz
x
xa
xanthophyllum
xb
xc
xd
xe
xf
xg
xh
xi
xii
xiii
xinjiang
xiv
xix
xj
xk
xl
xm
xn
xo
xp
xq
xr
xs
xt
xu
xv
xvi
xvii
xviii
xw
xx
xxiv
xy
xylitol
xz
y
ya
yadawa
yadika
yae
yahoo
yahudi
yahya
yaitu
yakin
yakni
yakuza
yale
yama
yamagata
yamaguchi
yamaha
yamamoto
yaman
yamanashi
yamanote
yamato
yamin
yamuna
yan
yana
yang
yani
yanti
yap
yasa
yasana
yasin
yasser
yasuo
yat
yatim
yay
yayan
yayasan
yayat
yazid
yb
yc
yd
ye
year
yearbook
years
yellow
yemen
yen
yerevan
yerusalem
yes
yesus
yet
yew
yf
yg
yh
yi
yia
yields
ying
yip
yj
yk
yl
ym
yn
yna
yo
yodium
yoga
yogie
yogya
yogyakarta
yohanes
yokkaichi
yokohama
yokosuka
yomi
yoo
yordania
york
yorke
yos
yoseph
yoshida
you
young
younger
your
youth
youtube
yovie
yp
ypk
yppm
yq
yr
yrama
ys
yt
yu
yuan
yudha
yudhistira
yudhoyono
yudistira
yuga
yugoslavia
yui
yuk
yun
yunani
yuni
yunnan
yunus
yupiter
yuri
yurisdiksi
yus
yusuf
yuswa
yuswana
yuta
yuyun
yv
yy
yz
z
za
zai
zaid
zain
zainal
zainuddin
zaire
zaitun
zakat
zakir
zaman
zambia
zamrud
zamzam
zanzibar
zaskia
zat
ze
zealand
zebra
zee
zelda
zen
zeppelin
zero
zhang
zhao
zheng
zhonghua
zhou
zhu
zi
ziarah
zigot
zikan
zikrul
zim
zimbabwe
zinc
zion
ziyad
zombie
zona
zone
zoo
zoologi
zoological
zoology
zoro
zoroaster
zphy
zu
zuardin
zuckerberg
zue
zulu
zur
zurich
zuylen
{
|
}
~

£
¥
§
¨
©
«
¬
­
®
¯
°
±
²
³
´
µ
·
¹
º
»
¼
½
¾
¿
×
ß
æ
ðe
ø
đa
đi
ħ
ı
ł
ŋ
ɑ
ɒ
ɔ
ɕ
ə
ɛ
ɡ
ɣ
ɧ
ɪ
ɯ
ɴ
ɺ
ʃ
ʌ
ʒ
ʕ
ʰ
ʲ
ʷ
ʻ
ʼ
ʾ
ʿ
ˈ
ˌ
ː
˚
ˤ
˥
˧
̀
́
̂
̃
̄
̆
̇
̈
̉
̊
̋
̌
̓
̔
̚
̛
̞
̠
̣
̥
̦
̧
̨
̩
̪
̯
̸
͂
͈
͡
΄
α
β
γ
δ
ε
ζ
η
θ
ι
κ
λ
μ
ν
ξ
ο
π
ρ
ς
σ
τ
υ
φ
χ
ψ
ω
ϕ
ϵ
а
б
в
г
е
и
м
н
на
о
россии
с
скои
у
федерации
я
،
ء
ا
اب
ات
ار
اف
اق
ال
الا
الل
الله
ام
ان
اه
ب
بن
ة
ت
ث
ج
ح
خ
د
ذ
ر
ز
س
ش
ص
صلى
ض
ط
ظ
ع
عبد
عليه
عن
غ
ـ
ف
فا
في
ق
قال
ك
ل
لا
م
ما
محمد
من
ن
ه
و
وا
ول
ون
ى
ي
يم
ين
يه
ً
ٌ
ٍ
َ
ُ
ِ
ّ
ْ
ٓ
ٔ
ٕ
ٰ
ٱل
ٱلا
ٱلس
ٱلل
ۤ
ं
क
ख
ग
च
ज
ण
त
द
ध
न
प
ब
भ
म
य
र
ल
व
श
ष
स
ह
़
ा
ि
ी
ु
ृ
े
ो
्
॑
॒
ং
ক
খ
গ
জ
ট
ঢ
ত
দ
ধ
ন
প
ব
ভ
ম
য
র
ল
শ
স
হ
়
া
ি
ী
ু
ে
্
ச
ப
ி
ு
ை
்
්
ෙ
จ
ด
ท
น
พ
ม
ย
ร
ว
ศ
ส
ั
ิ
ี
ื
ุ
ู
็
่
้
์
་
།
ག
ང
མ
ཚ
ར
ལ
ས
ི
ོ
ྫ
ྲ
က
ခ
င
စ
ဆ
ည
တ
န
ပ
ဘ
မ
ယ
ရ
လ
သ
အ
ာ
ိ
ီ
ု
ူ
ေ
ံ
့
း
်
ျ
ြ
ွ
ှ
ᨗ
ᨘ
ᨙ
ᨚ
ᨛ
ᮀ
ᮁ
ᮂ
ᮃ
ᮃᮊ
ᮃᮒᮝ
ᮃᮔ
ᮃᮕ
ᮃᮚ
ᮃᮞ
ᮄ
ᮄᮉ
ᮄᮔ
ᮄᮞ
ᮅ
ᮆ
ᮇ
ᮇᮌ
ᮇᮔ
ᮈ
ᮉ
ᮊ
ᮊᮔ
ᮊᮘ
ᮊᮛ
ᮊᮜ
ᮊᮞ
ᮌ
ᮍ
ᮍᮔ
ᮎ
ᮎᮕ
ᮏ
ᮏᮝ
ᮐ
ᮑ
ᮑᮆᮒ
ᮒ
ᮒᮅᮔ
ᮒᮔ
ᮒᮞ
ᮓ
ᮓᮆᮛ
ᮔ
ᮕ
ᮕᮊ
ᮕᮒ
ᮕᮔ
ᮕᮜ
ᮖ
ᮗ
ᮘ
ᮘᮌ
ᮘᮔ
ᮘᮞ
ᮙ
ᮙᮍ
ᮙᮔ
ᮙᮞ
ᮚ
ᮛ
ᮛᮞ
ᮜ
ᮝ
ᮞ
ᮞᮊ
ᮞᮛ
ᮞᮜ
ᮠ
ᮠᮔ
ᮡ
ᮢ
ᮣ
ᮤ
ᮥ
ᮦ
ᮧ
ᮨ
ᮩ
᮪
᮶
​
‌
‎
‏
‐
‑
–
—
―
‖
‘
’
“
”
„
†
•
…
′
″
‹
›
⁡
⁰
€
⃣
℃
ℓ
№
™
⅓
←
↑
→
↓
↔
↷
∂
∇
∈
∏
∑
−
∗
√
∞
∣
∩
∪
∫
∼
≈
≡
≤
≥
⊂
⋅
⋯
⌊
⌋
⏟
①
③
④
⑦
│
█
●
◻
☉
♭
⚖
⟶
⟺
ⴰ
ⴳ
ⴷ
ⵉ
ⵍ
ⵏ
ⵓ
ⵔ
ⵜ
⺀
⺄
⺆
⺈
⺊
⺌
⺕
⺝
⺸
⺼
⿰
⿱
⿲
⿳
⿴
⿵
⿶
⿷
⿸
⿹
⿺
⿻
、
。
〈
〉
「
」
『
』
〒
〜
〢
あ
い
う
え
お
か
き
く
け
こ
さ
し
す
せ
そ
た
ち
っ
つ
て
と
な
に
ぬ
ね
の
は
ひ
ふ
へ
ほ
ま
み
む
め
も
ゃ
や
ゅ
ゆ
ょ
よ
ら
り
る
れ
ろ
わ
ゐ
ゑ
を
ん
゙
゚
ァ
ア
ィ
イ
ゥ
ウ
ェ
エ
ォ
オ
カ
キ
ク
ケ
コ
サ
シ
ス
セ
ソ
タ
チ
ッ
ツ
テ
ト
ナ
ニ
ヌ
ネ
ノ
ハ
ヒ
フ
ヘ
ホ
マ
ミ
ム
メ
モ
ャ
ヤ
ュ
ユ
ョ
ヨ
ラ
リ
ル
レ
ロ
ワ
ヰ
ヱ
ヲ
ン
ヶ
・
ー
ㄱ
ㄲ
ㄴ
ㄷ
ㄸ
ㄹ
ㅁ
ㅂ
ㅃ
ㅅ
ㅆ
ㅇ
ㅈ
ㅉ
ㅊ
ㅋ
ㅌ
ㅍ
ㅎ
㇁
㇂
㇄
㇇
㇈
㇉
㇓
㐁
㐄
㐅
㐌
㐫
㐬
㐭
㐮
㐱
㑒
㒵
㒸
㒼
㓁
㓞
㔾
㕛
㕣
㖾
㘝
㚅
㚇
㚔
㚘
㝉
㝡
㝴
㝵
㞋
㞢
㞷
㠩
㠭
㠯
㡀
㡭
㡿
㢲
㢴
㣇
㣺
㥯
㪅
㫄
㫐
㫒
㫺
㬅
㬎
㬥
㬰
㲋
㳄
㷠
㸒
㸚
㸦
㼌
㼲
㽞
㿟
䀠
䂞
䍃
䏍
䒑
䖍
䖒
䖝
䖵
䙴
䚻
䜌
䝿
䡛
䧹
䪞
一
丁
丂
七
丄
丅
丆
万
丈
三
上
下
丌
不
与
丏
丐
丑
专
且
丕
世
丘
丙
业
东
丞
丢
丣
两
严
並
丨
丩
个
丫
丬
中
丮
丰
丱
串
丵
丶
丷
丸
丹
为
主
丽
丿
乀
乂
乃
久
乆
乇
么
义
之
乌
乍
乎
乏
乐
乑
乔
乖
乗
乘
乙
乚
乛
乜
九
乞
也
习
乡
乳
乾
亀
亅
了
亇
予
争
事
二
亍
于
亏
亐
云
互
亓
五
井
亘
亚
亜
亞
亟
亠
亡
亢
交
亥
亦
产
亨
亩
享
京
亭
亮
亯
亰
亲
亳
亶
亷
人
亻
亼
亾
仁
今
介
仌
从
仐
仑
仒
仓
仕
他
付
仙
仝
代
令
以
仮
仲
件
任
企
伊
伏
伐
休
会
伝
伯
但
位
佐
体
何
佘
余
作
佤
佥
使
來
侈
例
侌
侖
侯
侵
便
俊
保
俞
信
修
俺
倉
個
倍
候
倠
値
健
備
僉
僕
優
儿
兀
允
兂
元
兄
充
兆
兇
先
光
兊
克
兌
免
児
兑
兒
兓
兔
党
兜
兟
入
全
兩
兪
八
公
六
兮
兰
共
关
兴
兵
其
具
典
兹
养
兼
冀
冂
冃
冄
内
円
冈
冉
冊
冋
册
再
冎
冏
冐
冒
冓
冖
冗
冘
写
军
农
冝
冠
冡
冥
冫
冬
况
冷
几
凡
凢
凵
凶
凷
凸
凹
出
函
凾
刀
刁
刂
刃
刄
刅
分
切
刍
刑
刕
刖
列
刘
则
初
別
利
别
到
制
刺
則
削
剌
前
剡
剣
剽
劉
力
功
加
劦
动
助
劫
劳
劵
勃
勇
勉
勒
動
務
勝
勞
勢
勤
勹
勺
勻
勾
勿
匀
匂
包
匆
匈
匊
匋
匍
匕
化
北
匚
匝
匡
匪
匱
匸
匹
区
医
匽
匿
區
十
卂
千
卄
卅
卆
升
午
卉
半
卌
华
卑
卒
卓
单
卖
南
博
卜
卝
卞
占
卡
卢
卣
卤
卦
卩
卪
卫
卬
卯
印
危
即
却
卵
卷
卸
卻
厂
厃
厄
历
厈
厉
厌
厓
厘
厚
原
厤
厥
厨
厭
厲
厶
厷
厸
去
厼
厽
县
叀
参
參
叅
又
叉
及
友
双
反
叐
发
叒
叔
叕
取
受
叚
叜
叟
叡
口
古
句
另
叩
只
召
可
台
叱
史
右
叵
叶
号
司
叹
吂
各
吅
合
吉
吊
吋
同
名
后
吏
向
吕
君
吝
吞
否
含
启
吳
吴
吹
吾
呂
呆
呈
告
员
呙
周
味
呼
命
咅
和
咎
咠
咢
咨
咸
咼
哀
品
哉
响
員
哥
哲
唄
唐
商
啇
問
啚
啬
啻
喀
善
喜
喬
單
営
喿
嗇
嘉
噩
嚴
囊
囗
囘
囙
囚
四
回
囟
因
団
囧
囬
困
囱
図
囷
固
国
圂
圅
國
圍
園
圓
土
圡
圣
圥
在
圭
地
圶
圼
坂
坐
坒
坚
坴
垂
型
垔
垚
埀
埋
城
域
埶
執
培
基
堂
堅
堆
堇
堯
報
場
塘
塞
增
墨
壘
士
壬
壯
声
売
壳
壴
壹
壺
壽
夂
处
夅
夆
备
変
夊
夋
夌
复
夏
夒
夕
外
夗
夘
多
夜
夢
大
夨
天
太
夫
夬
夭
央
失
夲
头
夷
夸
夹
夻
夾
奂
奄
奇
奈
奉
奎
奏
奐
契
奓
奔
奚
奞
奠
奢
奥
奭
女
奴
奻
好
如
妄
妙
妟
妥
妹
妻
妾
姉
始
姑
委
姜
威
娄
婁
婴
嬰
嬴
子
孑
孔
孕
孖
字
存
孚
孛
孝
孟
季
孤
学
孫
孱
學
宀
宁
宂
它
宅
宇
守
安
宋
完
宏
宓
宗
官
定
宛
宜
宝
実
客
宣
室
宮
宰
害
家
容
宾
宿
寄
寅
密
富
寒
察
寧
審
寫
寬
寮
寸
对
寺
寻
寽
対
寿
封
尃
射
将
將
專
尉
尊
尋
尌
對
小
少
尒
尓
尔
尖
尗
尙
尚
尞
尢
尣
尤
尧
尨
尭
就
尸
尹
尺
尻
尼
尽
尾
尿
局
居
屈
屋
屎
屏
屑
展
屖
屚
属
屠
屡
屬
屮
屯
屰
山
屵
屾
岁
岂
岐
岑
岡
岩
岳
岸
峡
峯
島
崇
崎
崑
崔
崖
崙
崩
嵐
嵬
嶲
巂
巛
川
州
巟
巠
巢
巤
工
左
巧
巨
巩
巫
差
己
已
巳
巴
巷
巸
巽
巾
巿
帀
市
布
希
帚
帛
帝
带
師
席
帰
帶
常
幌
干
平
年
幵
并
幷
幸
幹
幺
幻
幼
幽
幾
广
庁
広
庄
床
应
底
店
庚
府
度
庫
庭
庶
康
庸
廉
廌
廛
廣
廩
廴
延
廷
建
廾
廿
开
弁
弃
弄
弇
弋
式
弓
弔
引
弗
弘
弜
弟
弥
弦
弱
張
強
强
彊
彌
彎
彐
彑
当
彔
录
彖
彗
彡
形
彥
彦
彧
彭
彳
役
彼
往
待
律
後
徒
得
徙
從
御
復
微
徳
徵
德
徽
心
忄
必
忌
忍
志
応
忝
忠
忩
快
念
忽
忿
态
思
怠
急
性
怪
怱
恆
恒
恩
恭
息
恵
悉
患
悤
悪
悲
悶
情
惠
惡
惢
愁
愈
意
愛
感
慈
慧
慮
慶
憂
憲
應
戀
戈
戉
戊
戋
戌
戍
戎
成
我
戒
戔
或
戚
戠
戢
戦
截
戲
戶
户
戸
戹
戼
戾
房
所
扁
扇
手
扌
才
打
托
执
承
技
投
折
报
拉
拜
拿
挙
振
掌
推
提
摩
支
攴
攵
收
攸
改
放
政
敄
敏
救
敕
敖
敗
教
敝
敞
敢
散
敦
敫
敬
数
敷
數
斂
文
斉
斊
斎
斗
料
斤
斥
斩
斬
斯
新
方
於
施
斿
旁
旅
旋
族
无
旡
既
旣
日
旦
旧
旨
早
旬
旱
旲
时
旾
昆
昇
昌
昍
明
昏
易
昔
昗
昜
星
映
春
昬
昭
是
昱
昴
昷
時
晃
晋
晏
普
景
晶
智
暑
暴
曇
曩
曰
曲
曳
更
曷
書
曹
曼
曾
替
最
朁
會
月
有
朋
服
朔
朕
朗
望
朝
木
朩
未
末
本
札
朮
术
朱
朵
朶
朿
杀
李
杏
村
杜
束
条
来
東
杲
杳
松
析
林
枚
果
枝
枲
枼
某
染
柔
查
柬
柰
柳
柴
栗
株
根
桀
桑
桼
梁
條
梟
梨
棘
棠
棥
森
楚
業
極
楽
榮
樂
樊
模
横
橋
機
欠
次
欣
欮
欲
欶
欽
款
歆
歇
歌
歛
止
正
此
步
武
歨
歩
歪
歮
歯
歰
歲
歴
歷
歸
歹
歺
死
殳
段
殷
殸
殹
殺
殻
殿
毅
毋
毌
母
每
毒
比
毕
毚
毛
毳
氏
氐
民
气
気
氣
水
氵
氶
氷
永
氺
氾
求
汉
汝
汞
江
池
決
沃
沓
沖
沙
沝
沢
河
治
泉
法
波
泣
泥
注
泰
洋
洛
洞
津
洪
洲
活
派
流
浜
浦
浪
浮
海
消
淡
淮
清
渚
渠
渡
港
湖
湯
湾
源
準
滅
滿
演
漢
漸
潮
澤
濁
濃
灣
火
灬
灭
灰
灵
灷
灾
炅
炎
炏
炗
炙
炭
点
為
烈
烏
烝
焉
無
焦
焱
然
煞
熊
熏
熱
燕
營
燮
爪
爫
爭
爯
爰
爱
爲
爵
父
爻
爽
爾
爿
片
牙
牚
牛
牜
牟
牢
牧
物
牪
特
牽
犀
犬
犭
犮
状
狀
狂
狄
狊
独
狺
猋
猒
猪
献
獄
獣
獻
玄
率
玉
王
玟
玨
珎
班
現
球
琴
瑟
瑩
環
瓜
瓦
甘
甚
生
産
用
甫
甬
田
由
甲
申
电
甶
男
甸
甹
町
画
甾
畀
界
畏
畐
留
畜
畟
畢
畧
畨
番
畫
異
畱
當
畺
畾
畿
疊
疋
疌
疑
疒
疫
疾
病
癶
癸
癹
発
登
發
白
百
皀
皃
的
皆
皇
皋
皐
皕
皮
皷
皿
盃
盆
盇
盈
益
盍
盎
监
盒
盖
盛
盡
監
盤
盧
目
直
相
盾
省
眇
眉
看
県
眔
眞
真
眷
眼
眾
着
睘
睪
睿
瞏
瞢
瞿
矍
矛
矞
矢
矣
知
矦
短
石
研
破
确
碎
確
磊
磨
示
礻
礼
社
神
祟
票
祭
禀
禁
福
禸
禹
禺
离
禽
禾
禿
秀
秃
秉
秋
科
秝
秦
称
移
稟
稲
穀
穌
穴
究
穹
空
穿
突
窄
窒
立
竒
竜
竝
竟
章
童
竹
笑
笠
第
笼
筆
等
筑
答
箕
算
箱
箴
節
篤
篭
米
粉
粛
粟
粤
粦
粲
糞
糸
糹
系
紀
約
紅
納
素
索
紫
累
細
終
絜
絫
絲
維
綿
緋
線
締
縣
繇
纍
纟
级
组
织
缶
网
罒
罔
罕
罗
罙
罡
罢
罪
署
罷
羅
羊
羌
羍
美
羔
羕
羗
羞
羡
羣
群
義
羲
羸
羽
翁
翏
習
翕
翟
翠
翼
老
耂
考
者
耆
而
耎
耑
耒
耳
耴
耶
耷
聂
聊
聖
聚
聶
聿
肀
肃
肅
肉
肖
肙
肥
肩
肯
育
肴
肺
胃
背
胡
胥
能
脊
脩
腹
膚
臣
臤
臧
臨
自
臬
臭
臯
臱
至
致
臺
臼
臽
臾
臿
舀
舂
舄
與
興
舉
舌
舍
舛
舜
舞
舟
航
般
船
艮
良
色
艸
艹
艾
芒
芔
芦
芬
芮
花
芳
芺
芻
苔
苗
苟
若
苦
英
茶
茸
荅
草
荒
荣
荼
莆
莊
莧
莫
莽
菆
菊
菐
菜
華
萬
落
葉
著
葛
董
葵
蒙
蒦
蒼
蓋
蓬
蓺
蔑
蔡
蕉
蕭
薄
薛
薦
薰
藍
藏
藤
藥
蘭
虍
虎
虐
虒
虔
處
虖
虗
虘
虚
虛
虜
虞
虫
虽
蚤
蚩
蜀
蜜
蟲
蠡
血
行
衍
街
衛
衣
衤
表
衮
衰
袁
袞
製
褭
褱
襄
襾
西
覀
要
覃
見
規
覓
覧
親
観
覽
见
角
解
言
訁
訇
計
訓
記
診
話
詹
語
誠
誩
説
読
誰
諸
讃
讠
认
讯
诊
诗
语
谷
豆
豈
豊
豐
豕
豖
豙
象
豦
豩
豪
豸
貇
貝
貞
貟
負
貢
貧
貪
貫
責
貳
貴
買
費
賀
賁
資
賈
賊
賏
賓
賔
賛
賞
賢
賣
質
賴
贊
贝
贡
责
贯
贲
贵
资
赖
赞
赤
赦
走
超
越
足
路
蹇
身
躬
車
軌
軍
軎
軟
転
輝
輦
车
输
辛
辜
辟
辥
辰
辱
農
辵
辶
边
达
过
近
返
连
迷
追
退
送
逆
逐
通
速
造
逢
連
逮
進
遀
遂
遇
運
過
道
達
遠
遣
適
遷
選
遺
邊
邑
邕
那
邦
邪
郎
郡
部
郭
都
鄉
酉
酋
配
酓
釆
采
里
重
野
量
金
釒
釜
鈴
鉄
銀
鋼
錢
錦
鏡
鐵
钅
镇
長
镸
长
門
閃
閉
開
閏
閑
閒
間
閔
関
閵
閻
闌
闘
门
间
闷
闻
阑
阜
阝
阪
阿
降
陳
陸
険
陽
隆
隊
隋
隐
際
隡
隨
隱
隶
隹
隺
隻
隼
隽
难
雀
雁
雄
雅
集
雈
雋
雍
雐
雔
雙
雚
雜
雝
離
難
雨
雩
雪
雲
零
雷
電
需
震
霍
霜
霝
霞
霸
靈
靑
青
静
非
靡
面
靣
革
韋
韓
韦
韭
韯
韱
音
頁
頃
項
順
須
頗
頡
頭
頻
顛
顯
页
風
风
飛
飞
食
飠
養
館
饣
首
香
馬
馮
駅
駦
騨
马
骨
體
高
髟
鬥
鬯
鬲
鬼
魂
魔
魚
魯
鮮
鯉
鱼
鲁
鳥
鳳
鸟
鹵
鹿
麃
麗
麥
麦
麻
黃
黄
黍
黎
黑
黒
黨
黹
黽
黾
鼎
鼓
鼠
鼻
齊
齋
齐
齒
齿
龍
龙
龜
龟
龠
龰
龱
龴
龵
龶
龷
龸
龹
ꦁ
ꦂ
ꦃ
ꦎ
ꦏ
ꦒ
ꦔ
ꦕ
ꦗ
ꦝ
ꦠ
ꦢ
ꦤ
ꦥ
ꦧ
ꦩ
ꦪ
ꦫ
ꦭ
ꦮ
ꦯ
ꦱ
ꦲ
ꦴ
ꦶ
ꦸ
ꦺ
ꦼ
ꦾ
꧀
꧇

者
艹
ﷺ
﻿
！
（
）
，
－
１
４
８
９
：
？
ｊ
ｋ
ｔ
｜
～
･
￼
�
🇾
🗘
🛄
𠀁
𠀃
𠀆
𠀉
𠀎
𠀐
𠁁
𠁣
𠂆
𠂇
𠂈
𠂉
𠂊
𠂋
𠂎
𠂒
𠂔
𠂛
𠂡
𠂢
𠂤
𠂬
𠂭
𠂹
𠃊
𠃋
𠃌
𠃍
𠃎
𠃑
𠃓
𠃔
𠃜
𠄌
𠄎
𠄠
𠄢
𠆢
𠆥
𠇍
𠈌
𠌵
𠓜
𠔉
𠔥
𠔼
𠔽
𠔿
𠕀
𠕁
𠕋
𠘧
𠘨
𠙻
𠙼
𠚏
𠚒
𠚤
𠚪
𠣏
𠤎
𠤕
𠥓
𠦄
𠦑
𠦝
𠧒
𠧗
𠧪
𠩺
𠪚
𠫓
𠫔
𠫤
𠬛
𠬝
𠬞
𠬢
𠬤
𠬶
𠮛
𠮦
𠮷
𠯑
𠱠
𠳮
𠷎
𡈼
𡉀
𡉵
𡌥
𡍮
𡏳
𡕒
𡕩
𡕰
𡖅
𡗗
𡗜
𡘆
𡘤
𡧱
𡨄
𡩧
𡬠
𡭽
𡰣
𡰥
𡰪
𡰯
𡰱
𡷈
𡸁
𡿨
𡿩
𡿪
𡿺
𢀖
𢀛
𢀩
𢁙
𢆉
𢆰
𢆶
𢇁
𢇇
𢉖
𢌬
𢌿
𢏚
𢑑
𢑚
𢖻
𢙣
𢛳
𢦏
𢦒
𢧵
𢼄
𢾕
𣁋
𣄼
𣅀
𣅽
𣍘
𣎳
𣎵
𣏋
𣏼
𣗥
𣥂
𣥖
𣦵
𣦼
𣧄
𣪊
𣪠
𣬉
𣳾
𣶒
𤇾
𤊽
𤐫
𤓰
𤔔
𤕨
𤣩
𤰇
𤰔
𤰞
𤴓
𤴔
𤽄
𥁑
𥁕
𥃦
𥃩
𥃭
𥇡
𥑟
𥘅
𥘈
𥝢
𥫗
𥱡
𦈢
𦉪
𦉬
𦉼
𦍌
𦍒
𦎧
𦐇
𦓔
𦔮
𦘒
𦙃
𦚏
𦣝
𦣞
𦣻
𦥑
𦥔
𦥯
𦨉
𦭝
𦰩
𧆞
𧈧
𧘇
𧰨
𧴪
𧴮
𧵩
𧾷
𨸏
𨾴
𩙿
𩠐
𩫏
𩵋
𪉷
𪜀
𪟽
𪠲
𪩲
𫇦
𫔭
𫜸
𫝀
𫠣
𫠩
𫢉
𫥞
𫩏
𫩠
𫪡
𫲽
𫶧
𬀷
𬐘
𬗌
𬙙
𬛸
𬜯
𬟩
𬯁
𬴘
𬺻
𬼉
𬼖
𭀰
𭁈
𭁨
𭅰
𭑈
𭕄
𭗼
𭤨
𭥫
𭻾
𮅕
𮊿
𮍌
𮍏
𮓗
𮥼
𮧮
廾
𰀁
𰀄
𰀈
𰀉
𰀕
𰀠
𰀡
𰀢
𰀪
𰁜
𰃮
𰆊
𰆘
𰋙
𰕎
𰢴
𰧭
𰯲
01--
02--
03--
04--
05--
06--
07--
09--
102--
111--
114--
118--
121--
126--
130--
133--
136--
138--
139--
140--
143--
147--
149--
151--
152--
156--
159--
162--
166--
208--
210--
215--
218--
219--
221--
224--
226--
22680--
227--
230--
232--
234--
235--
240--
242--
244--
245--
250--
252--
253--
254--
258--
263--
265--
268--
270--
271--
272--
275--
277--
278--
279--
281--
284--
285--
286--
288--
290--
292--
293--
294--
297--
300--
303--
305--
309--
311--
313--
315--
317--
322--
327--
328--
331--
332--
335--
336--
337--
339--
340--
342--
344--
346--
349--
353--
357--
358--
361--
364--
365--
369--
370--
373--
374--
377--
378--
380--
381--
382--
384--
386--
389--
392--
394--
397--
399--
402--
403--
405--
407--
408--
409--
80--
84--
85--
87--
89--
90--
92--
9286--
94--
978--
978602--
97890--
978979--
979--
99--
aa--
ab--
abbre--
abi--
aboli--
absor--
abu--
ac--
acceler--
accid--
accum--
ace--
ach--
activ--
ad--
ada--
ade--
adi--
adje--
advis--
advoc--
ae--
aero--
af--
aff--
ag--
agra--
agro--
ah--
ai--
air--
aj--
aji--
ak--
aka--
aki--
aku--
al--
ala--
alam--
ale--
aleks--
ali--
alih--
all--
alm--
alo--
am--
ama--
ame--
amp--
an--
ana--
anc--
ancho--
and--
anda--
aneka--
ang--
ani--
ann--
anna--
ans--
ant--
anta--
antar--
antho--
anthrop--
anti--
anu--
any--
ao--
ap--
api--
apoc--
app--
appe--
apr--
aq--
ar--
ara--
arans--
arc--
ari--
arit--
arl--
arm--
arn--
ars--
art--
arti--
as--
ash--
ask--
asp--
assemb--
ast--
astra--
astro--
asy--
at--
ate--
ath--
atma--
au--
aur--
auric--
aus--
auto--
av--
ave--
aw--
ax--
axi--
ay--
ayu--
az--
ba--
bab--
babaw--
back--
bad--
bada--
bag--
bah--
bak--
bal--
bala--
bali--
ban--
bang--
bank--
bar--
bare--
baru--
bas--
base--
bat--
bata--
batu--
bau--
bay--
be--
bed--
bel--
bela--
ben--
bengk--
ber--
berg--
beri--
bet--
beun--
beur--
beve--
bh--
bhag--
bi--
bibli--
bie--
bijd--
bin--
bina--
bio--
biodi--
bis--
bit--
biz--
bk--
bl--
ble--
bloo--
blu--
blue--
bm--
bo--
bobo--
boh--
bojong--
bon--
bor--
bos--
bot--
bour--
bp--
br--
bra--
bre--
bri--
brok--
brum--
bs--
bu--
budd--
bul--
bulu--
buni--
bur--
bus--
but--
by--
ca--
cai--
cakra--
cal--
cam--
can--
candi--
cang--
cap--
car--
cara--
carto--
cas--
cat--
cau--
cc--
ce--
cek--
cele--
celebra--
cender--
certific--
ceu--
ch--
cha--
che--
chi--
chl--
cho--
chry--
ci--
cia--
cid--
cik--
cika--
cin--
cina--
cinta--
cipa--
cipe--
circum--
cis--
cit--
cita--
cl--
cle--
clif--
clim--
cm--
cn--
co--
coe--
cogn--
coll--
colla--
collec--
columb--
com--
come--
compen--
compi--
con--
conce--
conclus--
const--
consu--
conve--
[...]
