!
"
#
##0
##1
##10
##11
##12
##13
##14
##15
##16
##17
##18
##19
##2
##20
##21
##22
##23
##24
##25
##26
##27
##28
##29
##3
##30
##31
##32
##33
##34
##35
##36
##37
##38
##39
##4
##40
##41
##42
##43
##44
##45
##46
##47
##48
##49
##5
##50
##51
##52
##53
##54
##55
##56
##57
##58
##59
##6
##60
##61
##62
##63
##64
##65
##66
##67
##68
##69
##7
##70
##71
##72
##73
##74
##75
##76
##77
##78
##79
##8
##80
##81
##82
##83
##84
##85
##86
##87
##88
##89
##9
##90
##91
##92
##93
##94
##95
##96
##97
##98
##99
$
%
&
'
(
)
*
+
,
-
.
/
0
00
000
0000
0003
001
002
003
009
01
010
015
02
029
03
030
035
037
038
04
05
06
07
08
09
1
10
100
1000
1001
1002
1003
10050
1006
1009
101
1010
1011
1012
1014
1016
1019
102
1020
1024
1025
1026
1028
103
1032
1037
104
1040
1045
1046
1047
1048
1049
105
1050
1054
1057
1058
1059
106
1061
1063
107
1073
108
1080
1085
1087
1088
109
1095
1099
11
110
1100
1101
1105
1106
111
1111
1118
1119
112
1124
1126
113
1130
1138
114
1143
1144
1145
1146
1148
115
1153
1154
1155
1157
1159
116
1160
117
1177
118
1181
1185
1187
119
1191
1195
1198
12
120
1200
1202
1204
1206
121
1210
1215
1216
122
1220
1225
1227
1229
123
1230
1239
124
1240
1241
1244
125
1250
1252
1253
1254
126
1260
1261
1264
1265
1268
127
1271
1274
1275
1276
1277
1279
128
1281
1282
1285
1287
1289
129
1290
1291
1292
1294
1296
13
130
1300
1303
1304
1305
1307
131
1314
1315
132
1321
1324
1325
1326
133
1332
1334
1336
1339
134
1342
135
1350
1352
1356
136
1362
1363
1368
1369
137
1370
1378
138
1389
139
1396
1397
1398
14
140
1400
1402
1404
1405
1406
141
1410
1413
1417
142
143
1431
1433
1436
1439
144
1440
1443
1444
1446
1447
1449
145
1450
1452
1453
1454
1455
1458
1459
146
1462
1464
1466
1468
1469
147
1470
1471
1473
1475
1476
1477
1478
1479
148
1480
1483
1484
1485
1487
1488
1489
149
1490
1491
1492
1493
1494
1495
1496
1497
1498
1499
15
150
1500
1501
1502
1503
1504
1505
1506
1507
151
1511
1512
1513
1514
1515
1516
1517
1519
152
1520
1521
1522
1523
1524
1525
1526
1527
1528
1529
153
1531
1532
1533
1534
1535
1536
1538
154
1541
1542
1543
1544
1545
1546
1547
1549
155
1550
1551
1552
1554
1555
1556
1557
1559
156
1563
1564
1565
1566
1567
1568
1569
157
1570
1571
1572
1574
1575
1577
158
1580
1582
1583
1585
1586
1587
1588
159
1590
1591
1592
15924
1593
1594
1595
1596
1597
1598
1599
16
160
1600
1602
1603
1604
1605
1606
1607
1609
161
1610
1611
1612
1613
1614
1615
1616
1618
1619
162
1620
1621
1622
1623
1624
1626
1628
163
1630
1632
1634
1635
1636
1638
1639
164
1640
1641
1642
1643
1644
1646
1648
1649
165
1650
1651
1652
1653
1654
1655
1656
1659
166
1660
1661
1662
1664
1665
1666
1667
1669
167
1670
1673
1674
1675
1676
1678
168
1680
1682
1683
1685
1686
1687
1688
1689
169
1690
1691
1692
1693
1694
1695
1697
1699
17
170
1700
1701
1702
1703
1704
1705
1706
1707
1708
1709
171
1710
1711
1712
1713
1714
1715
1716
1717
1718
1719
172
1720
1721
1722
1723
1724
1725
1726
1727
1728
1729
173
1730
1731
1732
1733
1734
1735
1736
1737
1738
1739
174
1740
1741
1742
1743
1744
1745
1746
1747
1748
1749
175
1750
1751
1752
1753
1754
1755
1756
1757
1758
1759
176
1760
1761
1762
1763
1764
1765
1766
1767
1768
1769
177
1770
1771
1772
1773
1774
1775
1776
1777
1778
1779
178
1780
1781
1782
1783
1784
1785
1786
1787
1788
1789
179
1790
1791
1792
1793
1794
1795
1796
1797
1798
1799
18
180
1800
1801
1802
1803
1804
1805
1806
1807
1808
1809
181
1810
1811
1812
1813
1814
1815
1816
1817
1818
1819
182
1820
1821
1822
1823
1824
1825
1826
1827
1828
1829
183
1830
1831
1832
1833
1834
1835
1836
1837
1838
1839
184
1840
1841
1842
1843
1844
1845
1846
1847
1848
1849
185
1850
1851
1852
1853
1854
1855
1856
1857
1858
1859
186
1860
1861
1862
1863
1864
1865
1866
1867
1868
1869
187
1870
1871
1872
1873
1874
1875
1876
1877
1878
1879
188
1880
1881
1882
1883
1884
1885
1886
1887
1888
1889
189
1890
1891
1892
1893
1894
1895
1896
1897
1898
1899
19
190
1900
1901
1902
1903
1904
1905
1906
1907
1908
1909
191
1910
1911
1912
1913
1914
1915
1916
1917
1918
1919
192
1920
1921
1922
1923
1924
1925
1926
1927
1928
1929
193
1930
1931
1932
1933
1934
1935
1936
1937
1938
1939
194
1940
1941
1942
1943
1944
1945
1946
1947
1948
1949
195
1950
1951
1952
1953
1954
1955
1956
1957
1958
1959
196
1960
1961
1962
1963
1964
1965
1966
1967
1968
1969
197
1970
1971
1972
1973
1974
1975
1976
1977
1978
1979
198
1980
1981
1982
1983
1984
1985
1986
1987
1988
1989
199
1990
1991
1992
1993
1994
1995
1996
1997
1998
1999
2
20
200
2000
2001
2002
2003
2004
2005
2006
2007
2008
2009
201
2010
2011
2012
2013
2014
2015
2016
2017
2018
2019
202
2020
2021
2022
2024
2025
2026
2028
2029
203
2030
204
205
206
207
2072
208
209
21
210
2100
211
212
213
214
215
216
217
218
219
22
220
221
222
223
224
225
226
227
228
229
23
230
231
232
233
234
235
236
237
238
239
24
240
2400
241
242
243
244
245
246
247
248
249
25
250
2500
251
252
253
254
255
256
257
258
259
26
260
2600
261
262
263
264
265
266
267
268
269
27
270
271
272
273
274
275
276
277
278
279
28
280
281
282
283
284
285
286
287
288
289
29
290
291
292
293
294
295
296
297
298
299
3
30
300
3000
301
302
303
304
305
306
307
308
309
31
310
311
312
313
314
315
316
3166
317
318
319
32
320
3200
321
322
323
324
325
326
327
328
329
33
330
331
332
333
334
335
336
337
338
339
34
340
341
342
343
344
345
346
347
348
349
35
350
3500
351
352
353
354
355
356
357
358
359
36
360
3600
361
362
363
364
365
366
367
368
369
37
370
371
372
373
374
375
376
377
378
379
38
380
381
382
383
384
385
386
387
388
389
39
390
391
392
393
394
395
396
397
398
399
4
40
400
4000
401
402
403
404
405
406
407
408
409
41
410
411
412
413
414
415
416
417
418
419
42
420
421
4217
422
4221
423
424
425
426
427
428
429
43
430
431
432
433
434
435
436
437
438
439
44
440
441
442
443
444
445
446
447
448
449
45
450
451
452
453
454
455
456
457
458
459
46
460
461
462
463
464
465
466
467
468
47
470
471
472
473
474
475
476
477
478
479
48
480
481
482
483
484
485
486
487
488
489
49
490
491
492
493
494
495
496
497
498
499
5
50
500
5000
501
502
503
504
505
506
507
508
509
51
510
511
512
513
514
515
516
517
518
519
52
520
521
522
523
524
525
526
527
528
529
53
530
531
532
533
534
535
536
537
538
539
54
540
541
542
543
544
546
547
548
549
55
550
551
552
553
554
555
556
557
558
56
560
561
562
563
564
565
566
567
568
57
570
571
572
573
574
575
576
577
578
579
58
580
581
582
583
584
585
586
587
588
589
59
590
592
593
594
595
596
597
598
599
6
60
600
6000
601
603
604
606
607
608
609
61
610
611
612
613
614
615
616
617
618
619
62
620
621
622
623
624
625
626
627
628
629
63
630
631
632
633
634
635
636
637
638
639
64
640
641
642
643
644
645
646
647
648
649
65
650
651
653
654
655
656
657
658
659
66
660
661
662
663
664
665
666
667
668
669
67
670
671
672
673
674
675
676
677
678
679
68
680
681
682
683
684
685
686
687
688
689
69
690
693
694
695
696
697
699
7
70
700
7000
701
702
703
704
705
706
707
708
709
71
710
711
712
713
714
715
716
717
718
719
72
720
722
723
725
726
727
728
729
73
730
731
732
733
734
735
736
737
738
739
74
740
741
742
743
745
746
747
748
75
750
751
752
753
754
755
756
757
76
760
761
762
763
764
765
766
767
768
769
77
770
771
772
773
774
775
776
78
780
781
782
783
784
785
786
787
789
79
790
791
792
793
794
795
796
797
798
799
8
80
800
8000
801
802
80420
806
807
808
809
81
810
811
813
814
815
816
817
819
82
820
822
824
825
826
827
828
829
83
830
831
835
837
839
84
841
842
843
844
847
85
850
851
852
853
854
855
856
858
859
86
860
8601
862
865
867
869
87
870
872
873
876
878
879
88
880
881
882
884
885
886
887
888
89
890
891
892
893
894
895
896
897
898
899
9
90
900
901
902
903
904
905
906
907
908
909
91
910
911
912
913
914
915
917
918
919
92
920
922
925
927
928
929
93
930
931
934
935
936
937
938
939
94
940
941
942
943
944
946
947
949
95
950
952
955
96
960
962
963
964
965
966
967
969
97
970
972
973
974
975
976
977
978
979
98
980
981
983
984
985
986
989
99
990
994
995
996
997
998
999
:
;
<
=
>
?
@
\
^
_
`
a
aa
aaddaan
aadipen
aak
aaron
aas
ab
aba
ababa
ababaw
ababen
abad
abadia
abaga
abagatan
abagatana
abagatanna
abagatn
abagtan
abak
abakada
abalbalay
abanse
abashiri
abasida
abau
abaya
abbas
abbey
abbong
abbreviata
abc
abd
abdul
abdullah
abe
abel
abellen
abelmoschus
abenida
abesedario
abestrus
abhasio
abi
abiertas
abilidad
abilidadda
abilidadna
abinomn
abira
abisinio
abjad
abkhaz
abkhazia
ablan
ablanca
abo
abogado
abong
aborigines
aborihenio
aborihinal
aborlan
abot
about
abra
abraham
abram
abrams
abril
abrus
abs
absoluto
abstract
abstrakto
abu
abueg
abueva
abugida
abui
abulug
abun
aburra
abuso
abut
abuta
abutenna
abuyog
abvd
ac
acacia
acade
academia
academic
academy
acanthella
acapulco
acca
accepted
access
accessdate
accessed
according
account
accra
ace
aceh
acehnes
acerosa
acevedo
achaeta
achievement
achille
acid
acida
acidosasa
aciotis
acmena
acmispon
aconcagua
acosta
acostae
acre
across
acrosynanthus
act
acta
action
actor
actors
actress
aculeata
acuminata
acunae
acutiflora
acutifolia
ad
ada
adaan
adaanda
adabe
adad
adadayo
adadda
adadu
adagiti
adal
adalem
adalen
adalna
adam
adams
adan
adang
adans
adanson
adansonia
adapted
adaya
adayo
add
adda
addaa
addaan
addaanda
addada
addan
addang
addanto
addis
additional
addu
ade
adelaar
adelaide
adelbert
aden
adi
adigi
adigue
adios
adipen
adistrito
administrador
administrasion
administratibo
administration
administrative
administribo
administrtibo
adolf
adolfi
adolfo
adolph
adolphe
adonara
adriaan
adrian
adriano
adriatiko
adrien
adto
adu
adua
aduana
aduda
adun
advanced
adventure
adventures
ae
aeneas
aenetus
aerial
aero
aeta
aethiopica
af
afar
affair
affaires
affairs
affinis
affleck
afi
afonso
africa
africaines
african
africana
afrikaans
afrique
afro
after
afternoon
afzelii
ag
aga
agad
agadadal
agadal
agadayo
again
against
agal
agala
agan
agananup
aganay
agangay
agannong
agapito
agar
agaramid
agariya
agarup
agarupda
agas
agasmang
agassawa
agathisanthemum
agatian
agatiddog
agaw
agawit
agay
agayat
agayayus
agayos
agayus
agayusda
agbalbalakad
agbalbalinen
agbalbaliw
agbalbaliwda
agbalikuskos
agbalin
agbalinda
agbalinen
agbalinto
agbaliw
agballasiw
agbanbaniaga
agbanbanniaga
agbanniaga
agbasa
agbasbasa
agbatbatok
agbati
agbiag
agbibiag
agbibingayda
agbilang
agbilbilin
agbirbiruk
agbiruk
agbisbisita
agbisbista
agbitbitin
agbukel
agbunga
agbungbunga
agburburas
agbutbutos
agbutos
agbutosda
agbuybuya
agcaoili
agdadamo
agdagsen
agdagup
agdalapdap
agdam
agdama
agdan
agdangan
agdepdepende
agduduma
agdumaduma
agdumadumada
agdurdur
age
agedad
agency
ages
agganganansia
aggapu
aggatgatang
aggiddiat
aggigiddan
aggigiddiat
aggigiyan
aggunay
aggungunay
aghu
agi
agibagbaga
agikkat
agila
agin
agingana
agingga
aginggan
aginggana
agingggana
agipabpablaak
agipakpakita
agipalpalawag
agiparang
agiparawad
agipatpatarus
agiraman
agit
agited
agitited
agiwarwarnak
agkabagian
agkabagianda
agkabsat
agkakaarruba
agkakabagian
agkakabagianda
agkakabsat
agkalatkat
agkalkalatkat
agkalkalay
agkamkammatalek
agkankanta
agkasigkay
agkaykaysa
agkitkitikit
agkukuyog
agkukuyogda
agkusikos
agkutkuti
agkuyog
agkuyogda
aglaklako
aglalaok
aglaon
aglaonda
aglawa
aglay
aglaylayag
aglayus
agliklikmut
aglipay
aglomerasion
agmangngamangnga
agmaris
agmarisda
agmaymaysa
agnaed
agnagan
agnanaed
agnanayon
agnaynayon
agnes
agnew
agniebe
agno
agnon
agnostiko
ago
agob
agobobra
agobra
agoncillo
agong
agonis
agoo
agostino
agosto
agouticarpa
agpa
agpaabagatan
agpaadu
agpaamianan
agpababa
agpabalin
agpabpabuya
agpada
agpadaya
agpadpada
agpakanawan
agpakanigid
agpakatengnga
agpalaud
agpalpaliiw
agpalpalikmut
agpang
agpangato
agpanpanunot
agpapaay
agpapada
agparang
agparangda
agparis
agparparang
agparparawad
agparpartuat
agpartuat
agpataud
agpataudda
agpatingga
agpatpataray
agpatpataud
agpaut
agpaysao
agpayso
agpili
agporma
agraman
agrang
agrangrang
agraniag
agraraem
agreement
agrehistro
agri
agricultural
agriculture
agrikultura
agrikultural
agrimensura
agririmpuok
agrukod
agrukodda
agrup
agrupo
agsaao
agsabatda
agsabong
agsabsabong
agsagsagaba
agsaksakay
agsanga
agsangsangaili
agsansanay
agsao
agsaoda
agsapa
agsardeng
agsasao
agsasaoda
agsasaruno
agserbi
agserserbi
agsikko
agsina
agsingin
agsinnaranay
agsinnublat
agsisina
agsisinnaranay
agsisinnublat
agsmang
agsubli
agsukisok
agsukog
agsuksukimat
agsuksukisok
agsumbangir
agsupsuporta
agsurat
agsursurat
agta
agtaeng
agtagikua
agtagikuada
agtagtagikua
agtagtagilako
agtagtaginayon
agtakder
agtaktakder
agtalinaay
agtaltalek
agtaltalinaay
agtaltalinaed
agtaltalon
agtaray
agtartaray
agtartaripatu
agtataeng
agtataengda
agtateng
agtatengda
agtaud
agtawen
agtawid
agtayag
agtaytayab
agtaytayyek
agtayyek
agtengnga
agtengngel
agtengtengel
agtengtengngel
agtignay
agtigtignay
agtimbukel
agtinnag
agtintinnag
agtitinnulong
agtrabaho
agtrabtrabaho
agtubo
agtubtubo
agtudo
agtudtudo
agtuloy
agtultulatid
agtultuloy
agtultuloyda
agtunos
agtunton
agtuon
agturay
agturong
agturturay
agtutubo
agtutunos
agtutuon
aguada
aguascalientes
agubat
aguila
aguilar
aguinaldo
agukrad
agur
agurnong
agus
agusan
agusar
agusti
agustin
agustiniano
agususar
agutaya
agutaynen
agwaywayas
agy
agyan
agyelo
agyus
ah
ahakea
ahensia
ahente
ahl
ahmad
ahmed
ahom
ahu
ai
aichi
aidi
aidia
aidiay
aids
aiello
aikhenvald
aileen
ailey
aimara
aime
ain
ainu
air
aires
airoran
airosperma
airy
ais
aise
aiti
aiton
aix
aj
ajuy
ak
aka
akaba
akabira
akadagiti
akademia
akademie
akademiko
akadio
akaigawa
akan
akar
akarayan
akas
akayo
akbar
aken
aket
aki
akikid
akin
akinbaba
akinday
akindaya
aking
akingato
akinlaud
akinngato
akinrebbeng
akinruar
akintengnga
akira
akita
akkeshi
aklan
aklanon
aklub
ako
akostiko
akronimo
akrotiri
akrusada
aks
aksidente
aksion
aksis
aktibidad
aktibidadna
aktibista
aktibo
aktinido
aktor
aktres
akuatiko
akustika
al
ala
alabama
alabang
alabat
alad
alagad
alagaden
alagoas
alahas
alain
alak
alaknanda
alalaki
alamada
alamblak
alaminos
alan
alangalang
alangan
alaotra
alas
alaska
alaskey
alata
alatus
alaud
alba
albanes
albania
albanian
albano
albany
albay
albert
alberta
alberteae
alberto
albicans
albiflora
alboran
albrecht
albuera
album
albumna
albuquerque
alcala
alcalde
alcantara
alcoy
aldaw
aldawen
aldawna
ale
alec
alegre
alegria
alehandro
alejandrino
alejandro
alejo
aleksander
aleksandr
aleman
alemani
alemania
alemaniko
alentejo
alerto
alessandro
aleut
aleutiana
alex
alexander
alexandra
alexandre
alexei
alexis
alfar
alfonso
alfred
alfredo
algae
algarve
algas
algeria
algic
algiers
algonquian
algoritmo
alhebra
ali
aliado
aliaga
alibertia
alibungabong
alibungubong
alice
alicia
alien
align
alignbars
aliguay
alikamen
alilem
aling
alingasaw
alipugpog
alis
alison
alitagtag
aliwagwag
alkaloid
alkampor
alkohol
all
alla
allacapan
allah
allan
allauch
alleizettella
allemand
allen
allende
alliance
allid
allies
allilaw
allmovie
allmusic
allon
alloneuron
allotetraploid
alma
almaciga
almagro
almanac
almario
almaty
almaza
almeda
almeida
almendras
almeria
almidon
almiralidad
almirante
alo
alog
alois
alonso
alonzo
alor
aloy
aloysius
alpabetiko
alpabeto
alpes
alpha
alphabet
alphonse
alpilles
alpine
alpino
alsace
alseis
also
alston
alt
alta
altai
altar
altavas
alternatibo
altiplano
altissima
altitud
altivola
alto
alu
alua
alugar
aluminio
alunan
aluta
alutiit
alva
alvarado
alvarez
alves
alvin
always
alwin
alzateaceae
am
ama
amabirukan
amada
amadeo
amadeus
amado
amaga
amaianan
amain
amaioua
amak
amal
amalia
amami
amammo
amana
amanab
amangan
amanipud
amanita
amano
amapa
amaracarpus
amaral
amarasi
amariko
amasona
amaysa
amazon
amazonas
amazonia
amazonica
amba
ambae
ambai
ambala
ambalatungan
ambel
ambelau
amber
ambiente
ambon
ambones
ambos
ambroise
ambrosio
ambrym
ame
amelia
america
american
americana
americano
americas
amerigo
amerika
amerikana
amerikano
amerindiano
ames
ametta
amg
ami
amia
amiaman
amian
amiana
amianan
amiananna
amianna
amihan
amin
amina
aminan
amino
amis
amlan
ammad
amman
ammo
ammoda
ammon
ammona
ammuan
amnen
amniota
amo
amoebozoa
amoena
amomyrtella
amomyrtus
among
amor
amores
amoron
amorong
amoroso
amos
ampat
ampatuan
amphiasma
amphiblemma
amphidasya
amphipogon
amphipterygium
amphistemon
ampibia
ampiteatro
amplexicaulis
ampon
amsterdam
amto
amula
amulung
amundsen
amy
an
ana
anaaw
anacardiaceae
anacardium
anadyr
anagan
anahawan
anaipablaak
anak
anakana
anakda
anakna
analanjirofo
analawag
analitiko
analogo
analyses
analysis
anambas
ananthagiri
anarkismo
anarkista
anarko
anasayaat
anastasio
anatole
anatolia
anatomia
anatomiko
anatomy
anay
ancash
ancestry
ancheta
ancien
ancient
ancrene
and
anda
andalus
andalusia
andaman
andamanes
andamanese
andamanica
andaya
anders
andersen
anderson
andersson
andes
andesita
andesitiko
andhra
andidit
andorra
andra
andre
andrea
andreas
andrei
andres
andrew
andrews
andric
andromeda
andy
ane
aneityum
ang
anga
angalo
angan
angat
angaw
angay
angel
angela
angeles
angelina
angelo
angels
angep
anges
anggulo
anghel
angin
anginggana
angiosperm
angiospermae
angiosperms
angkla
angkola
angkor
angku
angkuiko
anglais
anglikano
anglo
angola
angolensis
angono
angor
angoram
angot
angry
anguilla
angus
angusta
angustata
angustifolia
angustifolium
angustifolius
ani
ania
aniaman
anibersario
aniki
anilao
anima
animado
animador
animal
animalia
animasion
animasola
anime
animista
anino
anisoptera
aniwa
anjou
ankara
ann
anna
annaberg
annak
annakda
annakna
annales
annals
annapolis
anne
annette
annie
anniniwan
anniversary
anno
annona
annonaceae
annong
annongna
annotated
annotations
annual
annuario
annuroten
annurotenna
ano
anod
anogeissus
anomalia
anomochloa
anon
anosy
another
ans
anselmo
ansisit
ansus
ant
antalan
antarctic
antarctica
antartika
antartiko
antequera
anthem
antherostele
anthony
anthorrhiza
anthospermum
anthropological
anthropology
anti
antigo
antigua
antiguo
antillas
antilles
anting
antioquia
antipoda
antipodal
antipodes
antipolo
antique
antirhea
anto
antofagasta
antoine
antoinette
antolohia
anton
antoni
antonia
antonino
antonio
antropologo
antropolohia
anu
anud
anuki
anup
anus
anuta
anyan
ao
aoi
aomori
aoranthe
aosta
ap
apa
apache
apag
apagbeddengan
apagilian
apagkatlo
apagsasao
apakasaritaan
apalit
apamilia
apanawen
apannakabagi
apapel
aparato
aparke
aparri
aparte
apartheid
apartment
apaset
apat
apay
apayao
apday
ape
apec
apeiba
apelyido
apelyidona
apex
apg
apgad
apganistan
aphaenandra
api
apinidad
apit
aplaya
aplayana
aplikasion
aplya
apma
apni
apo
apodanthaceae
apoko
apolinario
apollo
apolong
apolonio
apomuria
apona
apong
apongna
apopulasion
aporma
apostol
apotayo
apoy
appendices
appendix
appenzell
apple
appleton
applied
approach
appunia
apr
aprika
aprikana
aprikano
april
apro
aproasiatiko
aprobinsia
aproksimado
aptera
apug
apulia
apuy
aqaba
aquatic
aque
aquilino
aquino
ar
ara
arab
arabe
arabia
arabian
arabiano
arabic
arabica
arabiko
arabisch
arabo
arachnothryx
arado
arafundi
arafura
aragon
aragone
aragones
arai
arak
arakan
araki
aramaic
aramat
aramaten
arame
arameo
aramid
aramiden
aramidna
aran
aranda
arandai
araneta
aranzazu
arapesh
aras
arau
arauca
araucani
araw
arawak
arawakan
arawe
aray
arayat
araz
arbitrario
arbor
arborea
arboretum
arbuscula
arc
arcade
archaea
archaeological
archaeology
archaeplastida
archer
archibald
archipelago
archirhodomyrtus
architecture
archive
archives
arctic
arcuata
arcytophyllum
are
area
areas
arellano
arem
arena
arenaria
arenicola
arevalo
arg
argao
argelia
argentea
argentina
argocoffeopsis
argostemma
arguilla
argumento
arguni
arhel
arhelia
arhentina
arhentino
ari
aria
arias
arica
ariel
arina
arinduyog
aringay
arisadsad
aristata
aristida
aristidoideae
aristokrasia
aristokratiko
aristoteles
aristotle
aritao
aritmetik
aritmetika
ariwanas
arizona
ark
arkaiko
arkanghel
arkansas
arkeologo
arkeolohia
arkeolohiko
arkibo
arkidiosesis
arkitekto
arkitektura
arkitektural
arko
arles
arlington
arliss
armada
armand
armando
armas
armed
armen
armenia
armenian
armenio
armm
arms
armstrong
army
arn
arne
arnel
arngian
arnhem
arnold
aro
aromatica
aromatiko
arop
around
arroyo
arrubayan
arrubia
ars
arsenio
arsobispo
art
arta
artabotrys
arte
artemio
artes
arthropoda
arthur
article
articles
artiko
artikulo
artikulona
artileria
artipakto
artipisial
artist
artista
artistiko
artists
artropoda
arts
artsakh
arturo
aru
aruaten
aruba
arubayan
arundinoideae
arundo
arvensis
aryabhata
aryan
aryano
as
asa
asahikawa
asames
asaoen
asaro
asasideg
asawa
asawana
asawen
asbridge
asean
aseksual
asemblea
asemblia
ash
ashe
asher
ashgate
ashibetsu
ashoka
ashoro
ashton
asi
asia
asian
asiano
asiatic
asiatiko
asideg
asidegda
asidegna
asidiko
asido
asiglo
asimov
asin
asingan
asiriano
asirio
asit
asiudad
asl
asli
aslian
asliano
asmat
aso
asociacio
asok
asosasion
asp
aspects
aspekto
aspera
asperula
aspeto
aspirasion
aspleniaceae
aspleniineae
asplenium
asplundii
aspx
assabu
assam
asselineau
assessment
assistant
associated
associates
association
ast
asta
astaire
astana
astartea
asteka
asteraceae
asterids
asteroid
asteromyrtus
astiella
aston
astrid
astrologo
astrolohia
astronauta
astronidium
astronomia
astronomikal
astronomiko
astronomo
astropisika
astur
asturiano
asturias
asu
asukar
asul
asuncion
asupre
asuri
aswan
at
ata
atab
atacama
atake
atan
atao
atap
atas
atatiddog
atattao
atatu
atauro
atawen
atawtawen
atayal
atayaliko
atbara
atchin
ate
ateismo
ateista
aten
atenas
ateneo
atenna
atep
ateritorio
atermino
athabaskan
athyriaceae
athyrium
ati
atiananna
atiddog
atimonan
atis
atkinson
atla
atlanta
atlantic
atlantico
atlantiko
atlas
atleta
atmospera
atmosperiko
atmosperio
atmospheric
atna
atok
atol
atoll
atomic
atomiko
atomo
atractocarpus
atractogyne
atrato
atropurpureum
atsimo
atsinanana
atsuta
atta
attapeu
attenborough
attica
atty
au
aua
aubagne
aubert
aubl
aublet
aubre
auckland
auct
audio
audrey
auf
aug
august
augusta
auguste
augustin
augustine
augusto
augustus
aulacocalyx
aulandra
aunor
aurea
aurelio
aureus
auriculata
aurora
aus
austin
austral
australasia
australasian
australe
australia
australiae
australian
australiana
australiano
australiensis
australis
austria
austriano
austro
austroasiatic
austroasiatiko
austrobaileyaceae
austromyrtus
austronesian
austronesio
author
authored
authority
authors
auto
autobiography
autobiograpia
autobiograpiana
autobiograpiko
autokratiko
automatiko
autonimo
autonomia
autonomo
autonomous
autor
autoridad
autoritariano
aux
available
avant
ave
avena
avenue
avesta
avicenna
avignon
aviv
avril
aw
awa
awag
awagan
awan
awanan
awananda
awanen
awanna
award
awarded
awards
awat
awatan
awaten
away
awbono
aweng
awin
awis
awit
awyu
axamb
axel
axelius
axil
axillare
axillaris
axillary
axinaea
ay
aya
ayala
ayam
ayaman
ayamuom
ayan
ayat
ayaten
ayatenka
ayatna
ayayam
ayda
ayen
aymara
ayna
ayo
ayon
ayos
ayse
ayta
ayuchi
ayug
ayuntamiento
ayup
ayus
ayutthaya
aywan
aywanan
ayyub
az
azerbaijan
azerbaijani
azores
azov
aztec
azteca
aztecan
azucar
azucena
azur
b
ba
baaben
baaen
baao
bab
baba
bababen
bababi
babae
babaen
babai
baban
babana
babar
babaro
babassit
babatngon
babay
babba
babbabassit
babbai
baben
babilonia
babiloniko
babilonio
babingtonia
baboy
babuyan
babuyanes
babuza
baby
bac
bacan
bacanes
bacarra
baccalaure
bach
bachelor
bacigalupo
back
backhousia
backlund
bacnotan
baco
bacolod
bacolor
bacon
bacong
bacoor
bacteria
bad
bada
badaiko
badan
badari
baden
badian
badoc
badusa
baeckea
baehni
baetan
baetanda
baffin
bafta
bag
baga
bagabag
baganga
bagas
bagatan
bagbagi
bagbagida
bagbagis
baggao
baghdad
bagi
bagida
bagik
bagina
bagio
bagis
bagnos
bago
bagobo
bagong
baguio
bagumbayan
bah
baha
bahamas
bahasa
bahau
bahay
bahia
bahnar
bahnaric
bahnariko
baho
bahr
bahrain
bai
baibai
baikal
bailey
baill
baillon
bain
baining
bais
baja
bajau
bajaw
baji
bajia
bajjah
bajo
baka
bakal
bakalan
bakante
bakbaket
bakbakir
baker
bakeriana
bakes
baket
bakh
bakir
bakkah
bakke
bakla
baknang
baknangna
bako
bakrang
bakras
bakrasna
bakteria
baku
bakun
bal
bala
balabac
balada
balagtas
balakad
balanan
balanga
balangao
balangat
balangeg
balanse
balaoan
balasan
balasang
balata
balatan
balatoc
balatukan
balaustion
balawbaw
balay
balayan
balayda
balayna
balbalan
balbalasang
balbalay
balbalikas
balboa
baldwin
balear
baler
balet
balete
balf
balgos
bali
baliaks
balikas
balikasna
balikpapan
baliktad
balikuskos
balilihan
balines
balinese
balinghoy
balinsasayao
balintang
balintawak
balir
balisongsong
balitok
baliwanna
balkan
balkonahe
ball
ballasiw
ballasiwen
ballasiwenna
ballesteros
ballet
balligi
balmea
balo
balochi
baloi
balot
balota
balsa
baltazar
baltiko
baltimore
balud
balungao
balut
balyena
bam
bamako
bamban
bambanag
bambang
bambantay
bambara
bamboo
bambusa
bambusoideae
bamu
ban
banaba
banag
banagna
banahaw
banak
banatao
banatay
banate
banaty
banaue
banayoyo
banbanag
banbanatay
banbanig
banbantay
bancr
bancroft
band
banda
bandar
bandus
bang
banga
bangar
bangbanga
bangbanglo
bangen
banggai
banggi
bangir
bangirna
bangka
bangkag
bangkay
bangkayna
bangkirig
bangkok
banglades
bangladesh
banglo
bangon
bangsamoro
bangued
bangui
bangus
bani
banjar
bank
banka
banko
banks
banna
bannawag
banner
bannoni
bannuar
bansa
bansalan
bantay
bantayan
banten
bantik
banton
bantu
banu
banuar
banyuwangi
bao
bapor
baptist
baptista
baptiste
baquiran
bar
bara
barack
baram
barangay
baranggay
baranoa
baras
barat
barb
barbados
barbara
barbaranggay
barbarko
barbaro
barbata
barber
barbodes
barbosa
barbra
barbuda
barcelona
bare
barents
bari
barikes
barili
bario
barit
barito
bariweswes
bark
barker
barkla
barkley
barko
barmm
barnes
barnum
baro
barok
baroko
baron
barongia
barot
barotac
barr
barranquilla
barrett
barrie
barrier
barrio
barrios
barroso
barrow
barry
barrymore
barteri
barthelmess
bartholomew
bartl
bartlett
bartolome
bartolomeo
barton
bartram
baru
baruch
barugo
barukong
barupu
bas
basa
basaen
basal
basalo
basalto
basap
basay
basbasit
basbassit
basco
base
based
basel
bases
basey
bashevis
basi
basic
basikaw
basil
basilan
basilika
basilio
basilisa
basin
basista
basket
basketball
basketbolista
baskin
basko
baskular
basnut
baso
basonimo
basque
bass
bassano
bassi
bassit
bastard
basud
basutoland
bat
bata
bataan
batac
batad
batak
batalion
batalla
batan
batanes
batang
batangas
bataniko
bataraza
batas
batasan
batasang
batavia
batay
batayan
batbato
batek
bateman
bates
bathysa
bati
batikano
bato
baton
batong
batopedina
battista
battle
battuta
batu
batuan
batulao
bau
bauan
bauang
baudo
bauer
bauko
baul
baum
baungon
bautista
bavaria
baw
bawah
bawang
baxter
bay
baya
bayabao
bayabas
bayaby
bayad
bayadan
bayambang
bayan
bayang
bayani
bayat
bayawan
baybay
baybaya
baybayin
baybayna
bayer
bayombong
bayono
bayugan
bazaar
bb
bbabaen
bbc
bc
bcd
bce
bd
be
beach
bean
bear
beard
beardslee
beast
beatles
beatrice
beaufort
beautiful
beauty
beauv
beauvoir
beauvois
became
because
becc
beccariana
beccarianum
beccariella
beccarii
beck
becker
beckett
become
becquerel
bed
bedbed
bedd
beddeng
beddengan
beddenganna
bedford
bedre
beech
been
beer
beery
beethoven
before
began
begawan
beginning
behind
behoa
beijing
being
beirut
beja
bekati
bel
belait
belarus
bele
belen
belga
belgium
belhika
beli
belis
belitung
belize
belizensis
bell
bella
bellas
belle
bellingshausen
bello
bellona
bellow
bells
belmonte
belo
belonophora
beloved
beltran
bemba
bemol
ben
benavides
benedict
benedictino
benedicto
benelux
benesia
bengal
bengali
bengkulu
benguet
benigno
benin
benito
benjamin
benjamins
benkara
benn
benneg
bennett
benny
benosa
benson
benth
bentham
bentley
benue
benus
beorhthelm
beorhtnoth
beowulf
bequaert
ber
berau
berawan
berber
berbo
berchtold
berde
bereberes
berg
berger
bergman
bergoglio
bergson
beri
bering
berkeley
berlin
berlioz
bermuda
bermudez
bern
berna
bernadette
bernakular
bernal
bernard
bernardino
bernardo
bernd
berners
bernhard
bernhardt
bernieri
berre
berry
bersion
berso
bertebrado
bertebrata
bertiera
bertikal
bertolonia
bertram
bertrand
bertus
besar
beses
besi
bessang
bessarabia
bessie
best
bet
beta
betampona
betamponensis
betawi
beterano
bethesda
beto
betsu
betsukai
bette
better
betts
betty
betulia
between
beverly
bey
beyer
beyond
bha
bhagirathi
bhendi
bhojpuri
bhutan
bi
biag
biagda
biagko
biagna
biak
biaka
bianco
biao
biała
bibai
bibi
bible
biblia
bibliko
bibliographies
bibliography
bibliograpia
bibliograpiko
biblioteka
bibliotheca
bibsys
bicol
bicolano
bicolor
bicutan
bida
bidang
bidayuh
biddut
biden
bidentata
bidwillii
bie
bieb
bielorusia
bieloruso
bien
bienvenido
biernes
bietnam
bietnamis
bifida
biflora
bifuka
big
biga
bigat
bigbigen
bigbigenna
bigelow
bihar
bihoro
bikario
bikini
bikkia
bikol
bikolano
bikonta
biktima
bil
bilang
bilateral
bilateria
bilbilang
bilbileg
bileg
bilegda
bilin
bilingual
bilion
biliran
bill
billboard
billit
bima
bimmallasiw
bimmassit
bimmassiten
bimmisita
bimtak
bin
binagon
binalabala
binaliwan
binaliwanda
binaliwanna
binalonan
binandere
binandereano
binangon
binangonan
binangonna
binario
binay
binayadan
bineddengan
bing
bingay
bingayenna
bingbingayen
binh
binigbig
biningbingay
binisita
binisitana
binn
binnatog
bino
binomio
binondo
bint
bintulu
bintuni
binukel
binuklan
binulan
binulod
binuluan
binutosan
bio
biodibersidad
biodiversity
biogeography
biografia
biographical
biography
biograpia
biograpiko
biograpo
bioheograpia
bioheograpiko
biokimika
biokimiko
biol
bioleta
biolin
biological
biologo
biology
biolohia
biolohiko
biomasa
biome
biospera
biota
bioteknolohia
biotiko
bird
birdlife
birds
birey
birgitta
birhen
birhor
biri
birjia
birmano
birngas
birth
birthday
birtual
birtud
biruni
birus
bis
bisa
bisansio
bisantino
bisaya
bisayano
bisbisitaen
bise
biseksual
bisel
bishop
bisiesto
bisin
bisita
bislak
bislama
bislig
bismarck
bisperas
bissau
bisse
bisual
bit
bitalismo
bitamina
bitbituen
bitla
bitter
bittorrent
bituen
bixa
bixaceae
biyom
bjo
bjornson
bjornstjerne
bk
bla
blaan
black
blackburn
blackwell
bladderfern
blagar
blair
blake
blakea
blanc
blanche
blanco
blang
blas
blasis
blaz
blechnaceae
blechnoideae
blechnum
blench
blepharidium
blepharocalyx
bless
bleu
blg
blica
blng
block
blog
blogsite
blogspot
blom
blood
bloods
bloom
bloomington
blue
blues
bluet
blume
blumea
blunt
blust
bnf
bo
boac
boano
board
bob
bobby
bobea
boca
bochotnica
bochum
bode
bodhi
bodo
body
boehmak
boer
boerl
boerlagella
bogart
bogo
bogor
bogota
bohai
bohemia
bohemiano
bohemio
bohol
boholano
bohr
boiken
bois
boise
boiss
bojer
bokabulario
bokabularioda
bokabulariona
bokal
bokma
bokod
boksing
boksingero
bol
bola
bolango
boli
bolinao
bolivar
bolivarensis
bolivia
bolivian
boljoon
bolo
bologna
bolshevik
bolt
boluntario
bolus
bolyu
bom
bomb
bomba
bombacaceae
bombadil
bombay
bomberai
bombon
bon
bonaparte
bonbon
bondo
bondoc
bone
bong
bongabon
bongao
bongbong
boni
bonifacio
bonn
bonnie
bonpl
bonpland
bonsai
bontoc
bontok
book
booker
books
boom
booth
boothia
bop
bor
boracay
borang
borbon
border
borges
borgnine
borhidi
boris
borja
born
bornean
borneano
borneensis
borneo
boro
borojo
borongan
bos
bosavi
boses
bosesna
bosnia
bosnio
bosporo
boston
bosworth
bot
bota
botania
botanic
botanica
botanical
botanicus
botanik
botanika
botanikal
botaniko
botanique
botaniques
botanische
botanischen
botany
both
bothriospora
botnia
botolan
botswana
bottom
bouc
bouches
bougainville
boulevard
bounty
bourbon
bourdillonii
boutros
bouvardia
bouyei
bow
bowie
box
boy
boyaca
boyer
boys
br
bra
brachyantha
brachyotum
brachyphylla
brachytome
bractea
bracteata
bracteosa
brade
bradea
bradley
bradshaw
bradt
bragado
bragg
brahma
brahmagupta
brahman
brahmaputra
brahmi
brahmiko
brahms
braille
braktea
bramwell
branch
branches
brand
brandegee
brandenburg
brando
brandt
branko
brao
brasil
brasiliana
brasiliano
brasiliensis
brassicaceae
brassii
braun
bravo
brazil
brazilian
brazzaville
bre
breakfast
brede
bremek
bremekamp
bremen
bremer
bremeria
brenan
brenania
breonia
breton
bretsa
brevifolia
brevipedicellata
brevipedunculata
brevipes
breviseta
brgy
brian
bridge
bridges
bridget
bridson
brief
brien
brigada
briggs
bright
bril
brill
brillantes
bristol
brita
britain
britani
britania
britanika
britaniko
britannica
briteiros
british
briton
britten
britton
brittonia
broad
broadcast
broadcasting
broadway
broccoli
brochidodroma
brocka
brockmeyer
broderick
brodersonius
brodsky
brody
broken
brongn
brongniart
bronse
brooke
brooks
bros
brother
brothers
brouillet
brown
browne
brownii
bru
bruce
bruhn
brunei
bruno
brunonia
brunswick
bruselas
brush
bruxelles
bryan
brynner
bryophillin
bryophyllum
bs
bt
bu
buan
buang
buaya
bubalis
bubalus
bubon
bucaneg
bucas
bucay
buch
buchanan
buchenavia
bucida
buck
bucquetia
bud
buda
budapest
buddha
buddy
budismo
budista
budong
buenaventura
buenavista
bueno
buenos
buffalo
buga
bugan
bugas
bugbugtong
bugeng
bugguong
bugines
buginese
bugis
bugotu
bugter
buguey
buguias
buhangin
buhay
buhi
buhid
bui
building
buin
buis
buising
buka
bukaneg
bukawa
bukbukel
bukel
bukelna
bukid
bukidnon
buklen
buklenna
bukod
bukodda
bukodna
bukodtayo
bula
bulacan
bulaga
bulaka
bulakan
bulalacao
bulan
bulang
bulbifera
bulbulan
bulbulkan
bulbulong
bulgaria
bulgarian
bulgaro
buli
bulkan
bulkaniko
bulkanismo
bulkanologo
bulkanolohia
bull
bullata
bulletin
bullock
bully
bulong
bulongda
bulongna
bulosan
buluan
bulusan
bum
bumaba
bumallasiw
bumang
bumasbassit
bumasbassiten
bumassit
bun
bunak
bung
bunga
bungada
bungana
bungarimba
bungbunga
bungku
bunobon
bunton
bunun
buo
buok
buokna
buot
burador
burate
burauen
burayok
burch
burck
burckella
burdeos
bureau
buren
burghausen
burgos
buri
burias
buridek
burke
burkill
burkina
burma
burman
burmese
burmeso
burnay
burnett
burnham
burr
burret
burrows
burstyn
burt
burton
burtong
buru
buruanga
burundi
burusphat
bury
buryatia
bus
busa
busbos
busel
bush
bushi
business
buster
bustos
busuanga
but
butan
butbut
butbuteng
buteng
butig
butler
buto
buton
butos
button
buttonbush
buttonweed
butuan
butuanon
butyracea
buwan
buxifolia
buxing
buya
buyot
buyotna
bwh
by
byron
bøge
bøgen
bølgen
bɔn
c
ca
caa
caba
cabadbaran
cabagan
cabalian
caballo
cabanatuan
cabangan
cabarruyan
cabatuan
cabgan
cabi
cabiao
cabie
cabinda
cabo
cabral
cabrera
cabucgayan
cabugao
cabusao
cabuyao
cacao
cachola
cadaguiti
cadiz
caerulea
caesar
cafe
caffra
cagayan
cagdanao
cagdianao
cage
cagney
cai
caibiran
caicos
caillei
caimito
caine
cainito
cainta
cairo
cajanus
cajidiocan
cakchiquel
calabanga
calabarzon
calabria
calaca
calaguas
calamba
calamian
calamianes
calapan
calasiao
calatagan
calatrava
calauag
calauan
calauit
calayan
calbayog
calcicola
calcutta
caldas
caldero
cale
caledonia
caledonio
calhoun
cali
calicoan
california
calinog
calintaan
calixto
call
calle
called
calling
callipeltis
calo
caloocan
calophylla
calophyllum
calubian
calumpang
calumpit
caluya
calvescens
calvin
calycina
calycogonium
calycolpus
calycophyllum
calycorectes
calycosia
calycosiphonia
calycothrix
calyptranthes
calyptrogenia
calytrix
calyx
cam
camalaniugan
camalig
camaligan
camargue
camarines
cambess
cambodia
cambodian
cambridge
came
cameron
cameroon
camiguin
camiling
camille
camilo
camotes
camp
campamento
campbell
campeche
campii
campo
campomanesia
campos
campus
camus
can
canaan
canada
canadian
canal
canaman
cananga
canaria
canarias
canary
canberra
cancajanag
candaba
candelaria
candolle
candon
cane
canellaceae
canephora
canescens
canigao
canistel
canlaon
cannat
cannes
canoe
canon
canonical
cantabria
canto
canton
cantor
canvas
cao
caoayan
cap
capas
cape
capell
capensis
capili
capirona
capita
capital
capitata
capitellata
capiz
capones
capoocan
capote
capparales
cappell
capra
caprese
captain
captcha
capul
capuron
capuronii
caqueta
car
caraballo
carabao
caracas
caraga
caramoan
caramoran
carapichea
carcar
cardinal
cardona
carducci
carex
carey
carib
caribbean
carigara
carl
carla
carles
carleton
carlin
carlo
carlos
carlota
carmen
carmona
carnamah
carnegie
carney
carnosa
caro
carol
carolina
caroline
carolinio
carolus
carolyn
carpacoce
carpenter
carphalea
carpio
carr
carranglan
carren
carreon
carrie
carroll
carson
cartagena
carter
cartier
caruso
cary
caryophyllales
cas
casa
casablanca
casaje
casanare
casasia
cascade
case
casecnan
casey
casiguran
casimir
casimiro
caspar
casper
cast
castan
castellana
castile
castilla
castillejos
castillo
castle
castro
casuarina
casuarinaceae
cat
cataingan
catalan
catalina
catalog
catalogue
catalonia
catanauan
catanduanes
catarina
catarman
catbalogan
catcher
cate
cateel
category
catesbaea
cathedral
catherine
catholic
catmon
catolico
cattleianum
cattley
cattleyanum
catunaregam
cauayan
cauca
caucasian
caudata
cauliflora
cav
cavaco
cavalier
cavendish
cavinti
cavite
cay
cayennensis
cayetano
cayman
cayos
cb
cbe
cbn
cc
ccp
cd
ce
cebu
cebuano
cecil
cecilia
ceferino
cefet
ceja
cela
celebes
celebica
celebiko
celeste
celestino
celsius
cembo
cenderawasih
censo
census
center
centradenia
central
centre
centro
centronia
centropodia
centuries
century
ceo
cephalanthus
ceram
ceres
ceriscoides
cerrado
cerro
cervantes
ces
cesar
ceuta
ceylon
cf
cfa
cgi
ch
cha
chabacano
chad
chadwick
chagos
chai
chairman
chala
cham
chamaelaucium
chamaepentas
chamberlain
chamelaucium
chamguava
chamic
chamiko
chamisso
chamorro
champ
champa
chan
chanakya
chandler
chandra
chandragupta
chang
change
changed
changes
changing
channel
chao
chap
chapel
chaplin
chapman
chapter
characteristics
characters
charisse
charles
charlie
charlize
charlotte
charlotteae
charlton
charo
charpentier
chart
chartacea
chase
chassalia
chatham
chatino
chatterton
chaucer
chavacano
chavi
chaw
chazaliella
chaze
che
checklist
cheek
cheeseman
cheke
chekhov
chelsea
chemical
chen
cheney
cheng
cher
chernovetskyi
cherry
chester
chetumal
chev
chevalier
chewong
cheyenne
cheyniana
chhattisgarh
chhe
chi
chia
chiang
chiapas
chiba
chicago
chicle
chico
chief
chihuahua
child
children
chile
chilean
chileno
chilensis
chiloe
chimarrhis
chimboracensis
chimbu
chin
china
chinantec
chinensis
chinese
chinesisch
ching
chinook
chiococca
chiococceae
chione
chiov
chip
chippubetsu
chips
chishima
chita
chitose
chittagong
chloridoideae
cho
choco
chocolate
chogha
choice
choiseul
chomelia
chomsky
chong
chongzuo
choo
chopin
chordata
choricarpia
choso
chota
chr
chrau
chris
christ
christenh
christenhusz
christiaan
christian
christiana
christie
christina
christine
christmas
christoff
christoph
christopher
chromalveolata
chromolucuma
chronicle
chru
chrysophylloideae
chrysophyllum
chu
chua
chuan
chukchi
chukotka
chukotko
chulalongkorn
chun
chung
church
churchill
chuuk
chuukes
chuukiko
ci
cia
cicero
cid
cidades
cie
cies
ciliata
ciliatum
ciliosemina
cinchona
cinchoneae
cinchonoideae
cinchonopsis
cinema
cinerea
circa
circle
cirilo
ciro
cistaceae
cita
citadel
citak
cite
cities
citing
citrullus
citrus
citta
city
ciudad
civet
civil
civilization
cl
claire
clandestina
clapham
clapman
clara
clarence
clarendon
clarendonensis
clarin
clarissa
clarito
clark
clarke
clarkson
claro
class
classical
classification
classifying
claude
claudette
claudia
claudio
claus
clausen
clav
clavata
claveria
clavifolius
clayton
cle
clement
clemente
cleopatra
cleto
cleveland
clidemia
cliff
clifford
clifton
clint
clinton
clio
clive
clock
cloezia
clos
close
clouse
club
clusiifolia
cluster
cm
cmd
cnn
cnrs
co
coach
coahuila
coal
coast
coastal
cobar
coccinea
coccocypselum
cochimi
cochlospermum
coco
cocos
cocteau
code
codes
coelospermum
coetzee
cofa
coffea
coffee
coffeeae
coffeoides
cogn
cogniaux
cogon
cohen
cojuangco
col
colbert
colchaguensis
cold
cole
colegio
colenso
colfax
colima
colin
collected
collection
collections
college
collier
collina
collins
colman
cologne
colombia
colombiana
colombiano
colombo
colonial
colony
color
colorado
colors
coloso
columbia
columbus
com
coma
combat
combination
combretaceae
come
comedy
comelec
comes
comfort
coming
comm
command
commedia
commelinales
commelinidae
commelinids
commelinoids
commentary
commerce
commercial
commission
committee
common
commons
commonwealth
communaute
communication
communis
communist
community
como
comore
comores
comoros
compact
companion
company
comparative
compare
comparison
compendium
compilation
compiled
complete
complex
compositae
compostela
comprehensive
comprising
compton
computer
comrie
con
conabio
concepcio
concepcion
concept
conception
concerning
concio
concise
concolor
concord
concordia
condaminea
condamineeae
conde
condita
condivi
confederate
conference
conferta
confertus
conflict
conformis
confucian
confucius
congesta
congo
congress
conn
connecticut
connell
connery
connor
conostomium
conquest
conrad
conservation
considered
consolacion
constancio
constant
constantin
constantine
constitution
construction
contact
contains
contemporary
content
context
conti
continuum
contralto
contribution
contributions
control
convention
cook
coolidge
cooper
cooperation
coordination
cop
cope
copenhagen
copernicus
copiapo
coprosma
coptosperma
coquimbo
coral
corazo
corazon
corbin
corbusier
corchorus
cordata
cordatum
cordero
cordiera
cordifolia
cordifolium
cordillera
cordon
cordova
cordus
cordylostigma
core
corella
coriacea
cornejo
cornelio
cornelis
cornell
corner
corolla
coron
corona
coronel
coroza
corozal
corp
corporation
corps
corpus
corpuz
corrales
correa
corregidor
corregimiento
correll
corse
corsica
corte
cortes
cortesi
cortez
cory
corymbosa
corynanthe
coscolluela
cosmibuena
cosmocalyx
costa
costales
costaricensis
costata
costatus
cota
cotabato
cotinifolia
cotton
cotylelobium
coudoux
council
counties
countries
country
county
course
court
coussarea
coutaportla
coutarea
cove
coven
cowan
cox
cr
craib
craig
crane
crash
crassicaulis
crassifolia
crassipes
crater
craterispermum
craven
crawford
crc
cre
creation
creative
cree
creek
cremaspora
cremocarpon
creole
creta
crinipes
crinita
crinitus
crisis
crisostomo
crispina
cristiana
cristiano
cristina
cristo
cristobal
criteria
critic
critical
criticism
critics
croatian
croce
croisilles
cronquist
crosby
cross
crossing
crossosomatales
crow
crowe
crowley
crown
cruckshanksia
cruel
crusea
crusoe
crustace
cruz
cry
crypteronia
crypteroniaceae
crystal
cs
csa
csb
cst
ct
ctesiphon
cu
cua
cuartero
cuatrecasasii
cuba
cubanola
cubao
cubensis
cuckoo
cucumis
cucurbita
cucurbitaceae
cucurbitales
cue
cuenca
cuernos
cufod
culaba
culion
cultivated
cultura
cultural
culture
cultures
cum
cuma
cumberland
cundinamarca
cuneata
cuneifolia
cunn
cunningham
cunninghamii
cuntapay
cup
cuprea
curac
curie
curitiba
current
currently
currimao
curt
curtis
curtisii
curzon
cusa
cushitiko
cuspidata
custard
cut
cuthbert
cutucuensis
cuvier
cuyapo
cuyo
cuyonon
cyanoneuron
cyathostemon
cyd
cyperaceae
cyperales
cyperus
cyprinid
cypriota
cyprus
cyril
cyrus
cystodium
cystopteridaceae
cystopteris
cz
czech
czechoslovakia
czesław
d
da
daan
daanbantayan
daang
dabawenio
dacanay
dadael
dadakkel
daddadakkel
daddum
dadduma
daddumapay
daduma
dae
daerah
daet
dag
daga
dagami
dagan
dagana
dagat
dagdaga
dagidi
dagii
dagiit
dagit
dagita
dagiti
dagitibulong
dagitoy
dagitoyen
dagityo
dagohoy
dagsen
dagti
daguiti
dagup
dagupan
dagus
dagusda
dahlem
dahlgren
dai
daig
daigdig
daily
dairi
daisen
daisy
daiti
daito
dajo
dakamat
dakami
dakdakel
dakdakkel
dakes
dakkel
dakota
daksanggasat
daku
dal
dalaguete
dalahican
dalan
dalanan
dalanna
dalawang
dalayap
dale
dalem
dali
dalisay
dallas
dalluyon
dalton
dalumpinas
dalupiri
daly
dalzell
dalziel
dam
dama
damag
damar
damascus
damaso
damdamag
damdamili
dame
damnacanthus
damo
dampay
dan
dana
danais
danao
danau
danaw
dance
dancer
dancers
dandan
dandanaw
dandani
dandaniw
dandanum
dandaragan
dandy
dane
danes
dang
dangadang
dangerous
danggay
danglas
dani
daniel
daniels
danilo
danish
daniw
daniwna
danmark
dans
dante
danu
danubio
danum
danumna
danzig
dao
dapa
dapao
dapis
dapitan
dapo
dar
dara
daraga
daram
darat
dardanelo
daremdem
darfur
dari
darie
darikmat
darius
dark
darling
darna
darrell
dartmouth
darussalam
darwin
darya
das
dasitiko
dasmarin
data
database
databases
datar
datayo
date
dateformat
dati
dating
daton
datos
datoy
datu
datum
dau
daughter
dauin
daulo
daulona
davao
david
davidse
davidson
davies
davis
davisson
daw
daweloor
dawera
dawes
dawn
dawson
day
daya
dayak
dayat
dayaw
daydi
daylight
days
dayta
daytan
dayto
daytoy
daytoyen
daytoyket
daytpy
dayyeng
daza
dc
dd
dda
de
dead
deaf
dean
dear
death
debado
debate
debato
debia
deborah
debut
dec
decandra
december
decipiens
declieuxia
decussata
dee
deep
deer
defense
definition
deg
degeneri
degeneriaceae
degrado
degree
degreef
dehong
dei
dekada
deklarasion
dekorasion
del
dela
delagado
delaware
delegado
delegasion
delfin
delfina
delgado
delhi
delimitations
dell
della
delon
delos
delphinensis
delprete
delta
dem
demanda
demille
demissa
democracy
democratic
demograpia
demograpiko
demokrasia
demokrata
demokratiko
demonio
dempwolff
den
dendrochilum
dendrosipanea
dene
deng
denis
denmark
dennis
dennstaedtiaceae
denominasion
denr
densidad
densiflora
dentella
denticulata
denver
denzel
deparia
departamento
departamentos
departemen
department
departmento
depende
dependensia
depensa
depiksion
depinitibo
deposito
deppaar
deppea
depresion
depressa
dept
deputado
der
derek
deriada
derosas
derraas
des
desaparecidos
descartes
descendants
description
descriptions
descriptive
desentralisasion
desert
desf
desierto
designasion
desimal
desinio
desire
deskripsion
deskriptibo
dessein
dessins
destinasion
desv
det
detail
details
detarioideae
determinismo
detroit
deuterio
deuterostome
deuterostomia
deutsch
deutsche
deutschen
deutschland
deux
devanagari
development
devia
devil
dewevrei
dewey
dexter
dfb
dgaiti
dhabi
dhaka
dhao
dharma
dhekelia
di
dia
diabetes
diagnostic
diagnostiko
diagrama
diak
diakono
diakritiko
dial
dialect
dialects
dialektiko
dialekto
dialektona
dialogo
dialogue
diamante
diametro
diamond
diana
diane
dianstia
diaries
diario
diary
diaspora
diay
diaz
dibersidad
dibersio
dibersipikasion
dibision
dibiyaso
dicamay
dicaprio
dick
dickens
dickey
dicot
dicotyledon
dicotyledons
dictionary
dictionnaire
did
dida
diderrichii
didicas
didigra
diding
didto
didymosalpinx
die
died
diederich
diego
diehl
diels
dies
dieta
dietr
dietrich
diffloth
diffun
diger
digital
digitized
dignidad
digos
digrapo
dihital
dihito
diksionario
diktador
diktadura
dila
dilasag
dilg
dili
diliman
dill
diller
dimakkel
dimasalang
dimension
dimetia
dimir
dimmakel
dimmakkel
dimmakkelen
dimmar
dimmayeg
dimteng
dimtengan
din
dina
dinadael
dinagat
dinalungan
dinalupihan
dinamag
dinamarka
dinamika
dinamiko
dinamili
dinamita
dinapigue
dinaremdem
dinastia
dinastiko
dinawat
dinaydayaw
dinengdeng
ding
dingdong
dinger
dingle
dingoen
dingras
dinguen
dinisenio
dinka
dinokumentuan
dinosauro
dio
diodella
diodia
dioecious
diogo
dioi
dioksido
dionisio
dios
diosa
diosdado
diosen
diot
dioula
dipaculao
diplazium
diplodiscus
diploid
diploknema
diplomacy
diplomasia
diplomata
diplomatiko
diplospora
dipolog
dipraksion
dipterocarpaceae
dipterocarpus
dipterokarpo
diptongo
dir
dirac
directory
direksion
direktor
direktorio
dirichletia
diro
dis
disakarido
disc
discolor
discospermum
discover
discovery
discussion
disembre
disenio
disertasion
disiembre
disierto
disiplina
disipulo
disisembre
disk
disko
diskograpia
diskreto
diskriminasion
diskurso
disney
dispersal
displina
dissertation
disso
dissotis
dissuor
distansia
distant
distributario
distribution
district
distrio
distrito
dit
dita
dith
diti
ditions
ditoy
dittrich
divaricata
diversifolia
diversity
divided
divilacan
divine
division
diwa
diwata
dix
dixon
diyos
dizionario
dizon
dj
djibouti
dk
dl
dm
dmitri
dna
dnye
do
doberai
doble
doblies
dobu
doc
doctor
doctoral
doctrina
documentary
documentation
documented
documents
dodo
dodsonii
does
doesn
dog
dogon
dogri
doha
doi
doktor
doktorado
doktoral
doktrina
dokumentario
dokumentasion
dokumento
dolianthus
doliar
dolicholobium
dolichopentas
dolly
dolnoserbski
dolores
dom
domain
dome
domenico
domestiko
domin
dominante
domingensis
dominggo
domingo
domini
dominica
dominikal
dominikano
dominio
dominion
dominique
don
dona
donald
donasion
donat
donato
donax
dong
donie
donn
donna
donner
donoghue
donohue
donsol
doom
door
dop
dora
dordrecht
dori
dorig
doris
dorotan
dorothy
dos
dosena
doso
dostoyevsky
dot
dotph
douard
double
doubleday
douglas
douro
dove
dover
down
download
doyle
dr
draft
dragon
drake
drama
dramatiko
dramatista
dramaturgo
dravidian
dravidiano
drawing
dre
dream
dreamachine
dreams
dregeochloa
drehu
drente
dressler
drew
dreyfuss
drot
drouhardii
druce
druga
drum
drummond
drummondii
drupa
dry
dryden
dryer
dryobalanops
dst
du
dua
dual
duane
duapulo
dubai
dubard
dubia
dublin
dubu
duchesne
ducke
dudua
due
duen
duero
duffy
dugo
dukado
duke
dukesa
dukkha
dulag
dulang
dulce
dulcificum
dulcis
dulian
dulon
dumagat
dumaget
dumaguete
dumakamat
dumakdakkel
dumakkel
dumalag
dumalapdap
duman
dumangas
dumanjug
dumaran
dumarao
dumaya
dumidibuho
dumlao
dumo
dumont
dumut
duna
dunal
dunaway
duncan
dung
dunn
dunne
dunor
duog
duogen
dupaningan
dupax
duque
durance
durand
durango
durant
duri
during
duroia
dusa
dusner
dust
dustin
dusun
dusuniko
dutch
dutdot
duterte
dutton
duvalier
duvall
duyan
duyaw
duyfjes
dvd
dvor
dwarf
dwight
dwyer
dy
dyer
dylan
dynamics
dzhigarkhanyan
dzongkha
dzyrzec
e
eagle
eagles
eamon
ear
earl
earle
early
earth
east
easter
eastern
easton
eastwood
easy
eat
eaton
eb
ebanghelio
ebaporitiko
ebchecked
eberhard
eberhardtia
ebetsu
ebidensia
ebolusion
ebolusionario
ecb
ecclesia
ecclinusa
echague
echegaray
echeverri
echinocephala
ecija
ecocrop
ecological
ecology
economic
economist
economy
ecosystems
ecuador
ecuadorense
ecuadorensis
ed
eda
edad
eddie
ede
eden
edgar
edgardo
edge
edible
edilberto
edinburgh
edirne
edision
edison
edited
edith
edition
editions
editor
editore
editorial
editors
editrice
edizioni
edmond
edmondson
edmund
edmundo
edn
edo
edouard
edrastima
eds
edsa
edu
eduard
eduardo
education
educational
edukasion
edukasional
edukasionna
edulis
edward
edwards
edwin
ee
eerwah
efate
effects
efren
eg
egeo
eggplant
egypt
egyptian
ehekutibo
ehime
ehipsio
ehipto
ehrend
ehrharta
ei
eichler
eiffel
eight
ein
eine
einstein
eipo
eisenhower
eisenstein
ek
ekari
ekis
eklesiatiko
ekliptiko
ekman
ekmanii
ekn
eko
ekolohia
ekolohiko
ekonomia
ekonomiana
ekonomika
ekonomiko
ekonomista
ekonomou
ekorehion
ekosistema
ekosona
ekoturismo
ekplorador
eksakto
eksamen
eksaminasion
eksentriko
eksibision
eksilo
eksklusibo
ekslusibo
eksonimo
eksoplaneta
eksotiko
ekspedision
eksperimental
eksperimento
eksperto
eksplorador
eksplorasion
eksplosibo
eksport
eksposision
ekstensibo
ekstra
ekstraordinario
ektaria
ekuador
ekualidad
ekuasion
ekuatorial
ekuinokso
el
elaeagia
elaeoluma
elam
elar
elata
elatum
elbert
elder
eleanor
elebasion
elected
electronic
elegans
elegia
eleksion
elektado
elektoral
elektrikal
elektriko
elektrisidad
elektromagnetiko
elektromagnetismo
elektron
elektronika
elektroniko
elektura
eleman
elemental
elementaria
elementario
elementary
elemento
elements
elena
elengi
elepante
elephant
eleptiko
eli
elias
eliot
eliptiko
elisabeth
eliseo
eliza
elizabeth
ellen
elliceano
elliot
elliott
elliottii
elliptica
ellipticum
ellis
ellisochloa
elmar
elmer
elmeri
elongata
elpidio
elsa
else
elseng
elsevier
elvis
elynia
elytis
elytrophorus
em
ema
emae
emanuel
emarginata
embahada
embahador
embera
embes
embryophyta
emerging
emerhensia
emeritus
emi
emigrante
emil
emile
emilio
emily
emirato
emision
emma
emmanuel
emmenopterys
emmy
emperador
emperor
empire
empleado
empogona
empresa
emumu
en
enbiromento
enbironmental
enbironmento
encanto
encarnacion
encarta
enciclopedia
enclave
encyclopaedia
encyclopedia
encyclopædia
end
endangered
endangeredlanguages
ende
endemic
endemiko
endemismo
ending
endl
endlicher
endokrina
endonimo
enekbatus
energy
enerhia
enero
eng
enga
engan
engels
enggano
engineers
engl
england
engler
englerophytum
english
enimienda
eniwa
enne
enough
enrico
enrile
enrique
enriquez
ensalada
ensiklopedia
ensima
entablado
enteblado
enterprise
entertainment
entidad
entity
entomologo
entrebista
entrecasteaux
entry
enumeratio
enumeration
environment
environmental
eo
eol
eonile
eoseno
ep
epektibo
epekto
epi
epifanio
epiko
epipitiko
episentro
episoda
episode
epiteta
epiteto
eppo
equatorial
equisetifolia
er
era
eran
erasmus
ere
erecta
eremolaena
eretz
eri
eric
ericales
erich
ericomyrtus
eriguel
erik
erin
erineo
eriocaulales
eris
erithalis
eritrea
erlinda
erma
ermita
ernest
ernesto
ernie
ernodea
ernst
eroplano
eropuerto
erromango
erwin
erythrophylla
es
esashi
escalante
escobar
escuela
esculenta
esculentum
esenbeck
eskandinabia
eskandinabo
eskaya
eskayano
eskimo
esko
eskolar
eskoria
eskoses
eskosia
eskritu
eskuadron
eskudo
eskuela
eskuelaan
eskuelana
eskula
eskultor
eskultura
eslabo
eslobakia
eslobako
eslobenia
eslobeno
espada
espan
espana
espania
espaniol
espasio
espe
especial
espejo
espektra
espektral
espektro
espektroskopia
espera
esperance
esperanto
esperanza
espero
espesial
espesiala
espesialisado
espesialista
espesimen
espesipikasion
espesipiko
espi
espino
espinosa
espiritu
espiritual
espongha
espora
essai
essay
essays
essem
essential
essentials
esser
est
esta
estadi
estadio
estadista
estadistika
estadistikal
estadistiko
estado
estados
estambre
estancia
estanislao
estasion
estatiko
estatua
estdo
esteban
estelar
estepa
ester
estetika
estiano
estilo
estilona
estimates
estipula
estokolmo
estonia
estonio
estoria
estrada
estratehia
estratehiko
estratihiko
estrato
estratobulkan
estrella
estruktura
estruktural
estrukturana
estuar
estuaries
estuario
estudiante
estudiantena
estudio
eswatini
et
etanol
etc
eternal
ethiopia
ethnic
ethnicity
ethnography
ethnologue
ethnology
etika
etikal
etiketa
etiko
etimolohia
etimolohiko
etiopia
etiopiano
etniko
etnikona
etnisidad
etno
etnograpia
etnograpiko
etnograpo
etnolingguistiko
etnonimo
eton
etrusko
etsu
etymology
eu
euasterids
eucalyptopsis
eucalyptus
euclinia
eudicotidae
eudikota
eufranio
euge
eugen
eugene
eugenia
eugenio
eukariota
eukaristiko
eukarya
eukaryota
eukaryote
euklides
euler
eunuko
eupolypodiales
eupolypods
eupomatiaceae
euprates
eur
eurasia
eurasiano
euro
europa
europe
european
europeano
eurosentriko
eurosids
eurosona
euryomyrtus
euryphylla
eusebio
ev
eva
evangelio
evangelista
evans
evasco
eve
evelyn
even
events
ever
everest
everett
everglades
every
everything
evidence
evolution
evolutionary
evolving
ewald
ewe
ex
exallage
examination
example
excelsa
except
excerpt
exchange
exclave
executive
exell
exinvolucrata
exostema
expansion
expedition
experience
exploration
explorations
explorer
exposition
express
expressway
extinct
extinction
ey
eyes
eyma
eyvind
ez
ezo
ezra
f
fa
fabaceae
fabales
faber
fabian
fabidae
faboideae
facatativa
face
facebook
faces
facility
fact
factbook
facto
facts
fagales
fagerl
fahrenheit
fair
fairbanks
faire
fairview
fairy
faita
faith
fakfak
falkland
fall
fallax
falls
false
famas
fame
familia
families
familiesbiota
familiesgovaerts
familiesthe
famille
family
famous
fan
fane
fang
fanny
fao
faq
far
faraday
faramea
fargo
farm
farmer
faroe
fars
fas
fascicularis
fasciculata
faso
fasu
fataluku
fate
father
fatherland
fatima
faulkner
fauna
favorlang
fay
faye
fe
fear
features
febrero
february
fedden
federal
federico
feliciano
felinae
felipe
felis
felix
fellini
fellow
fellowship
female
feng
ferdinand
ferdinandusa
ferdowsi
ferguson
ferlus
fermi
fern
ferna
fernand
fernanda
fernandel
fernandez
fernandeziana
fernando
fernelia
ferns
ferrer
ferruginea
ferrugineum
festival
festschrift
few
feynman
ff
fi
fibonacci
fiction
fictionist
ficulneus
fidel
field
fierro
fiesta
fifth
fig
figueiredo
figueres
fiji
fijiano
fila
file
filemon
files
filipina
filipinas
filipino
filipinos
film
films
fin
final
finance
finch
find
finet
finisterre
finland
finnish
fire
firefox
first
firth
fisch
fischer
fish
fisher
fisheries
fishes
fitovinany
fitzg
fitzgerald
five
fl
flag
flagelo
flagenium
flags
flame
flanders
flassy
flava
flavescens
fleming
flemish
fleroya
fletcher
flew
flexuosa
flickr
flight
flo
flora
florabase
florae
flore
florence
florencia
florensia
florentino
flores
floribunda
floribundum
florida
floridablanca
flower
flowered
flowering
flowers
floy
floyd
fluvial
fly
flycatcher
flying
fm
fo
focus
foetida
foi
foia
foley
foliage
foliosa
folk
following
fon
fonda
fonseca
fontaine
fontsize
food
foot
football
for
forbes
force
ford
fordata
foreign
foreman
forest
forestry
forests
forever
form
forma
forman
format
formation
former
formerly
formosa
formosan
formosano
formoso
formosum
foronda
forrest
forst
forster
fort
forte
fortich
fortune
forum
fosberg
fosbergia
fosbergii
foster
found
foundation
four
fourier
fourth
foveolata
fowler
fox
foxx
fr
fra
fragilis
fragmenta
fragrans
fraile
frame
frameless
franc
franca
france
frances
francesco
franch
francia
francis
francisca
franciscana
francisco
francisii
franck
franco
francophonie
frank
frankfurt
franklin
frans
frantis
franz
fraser
fraseri
fraternum
fre
fred
freddie
frederic
frederick
frederik
fredric
fredrik
free
freedom
freeman
freiberger
freire
french
freshwaters
freud
frey
frida
friedericii
friedrich
friend
friends
frisian
fritz
frodin
from
frondosa
front
frontier
frost
frs
fruit
fruited
fruits
fruta
fruticosa
fryderyk
frye
fryxell
ft
fu
fuchs
fuego
fuentes
fuga
fuji
fujian
fukagawa
fukui
fukuoka
fukushima
fulani
fulbrook
fulfulde
full
fulva
fund
fune
fungi
fungus
funza
fur
furano
further
furubira
fusagasuga
fusca
fusiformis
futami
futsu
futuna
futunano
futuniko
future
fyodor
g
ga
gabaldon
gabi
gabin
gabinete
gable
gabon
gabriel
gabriela
gadaba
gaddang
gaelic
gaertn
gaertner
gaertnera
gagangay
gagarin
gagnep
gainesville
gainza
gaius
gal
gala
galaktiko
galapa
galapageium
gale
galego
galela
galen
galeon
galeotti
galera
galeras
galeria
gales
galianthe
galicia
galilei
galileo
galimuyod
galium
gallego
gallery
gallman
galo
galoli
galopina
galsworthy
gama
gamay
gambang
gambia
gambier
gamble
game
gameng
games
gamle
gamma
gan
gana
ganansia
gandat
gandatna
gandhi
gane
ganetget
ganetgetna
ganga
ganganaet
ganganai
gangandat
gangani
ganganidan
gangemi
ganges
gangganaet
ganggani
ganggannaet
gantingan
gao
gaou
gapan
gapo
gapu
gapuanan
gapun
gapuna
gaputa
gar
garabogazko
garbo
garcellano
garchitorena
garci
garcia
gard
garde
garden
gardenia
gardenieae
gardening
gardens
gardner
gardneri
garfield
garit
garland
garner
garson
gartens
garup
garvida
gary
gas
gasan
gasat
gascoyne
gaspar
gasper
gasut
gata
gatad
gatang
gatas
gates
gatmaitan
gato
gattaran
gau
gaua
gaudich
gaulle
gaura
gauss
gautama
gawad
gawain
gay
gaya
gayang
gaylord
gaynor
gayo
gayyem
gayyemna
gaza
gazetteer
gbaya
gbe
gbif
gdan
gdp
ge
gebe
geddes
gedeh
gedney
geelvink
geiger
gel
gela
gelao
gelasio
gen
genaro
gene
genealogy
genera
general
generation
generic
genericorum
generoso
genetic
genetics
genghis
geniculatus
genipa
genoa
gentry
genus
geo
geodetic
geoffrey
geographic
geographical
geography
geoid
geological
geology
geophila
georg
george
georges
georgia
georgian
georgiano
geothermal
ger
gerais
gerald
geraldine
geraldton
geraniales
geranium
gerard
gere
gereau
gerhard
gerila
gerilia
german
germania
germany
germplasm
gerona
geronimo
gerrit
gerry
gertrude
geschichte
gesellschaft
geser
gesmundo
get
gets
geul
gg
ghali
ghana
ghats
ghazal
ghazali
ghirlandaio
ghost
gi
gia
giacomo
gian
giant
gibbs
gibraltar
gibson
gibus
gid
giddiatan
gide
gif
gifu
gigantea
gigantes
gil
gilbert
giles
gilg
gilgamesh
gillespie
gimi
gimmatang
gimmay
gimnasio
gimong
gimongan
ginasut
ginatang
ginatangna
ginatilan
ginebra
ginger
ginget
gingined
gingoog
gini
gio
giorgio
giorgos
giosue
giovanni
girardot
girl
girls
gisantes
gish
gitara
gitarista
giulio
giuseppe
give
given
gje
gjellerup
glabra
glabrata
glabratus
glabrescens
glabrum
gladys
glan
glandula
glandular
glasgow
glasier
glass
glauca
glaucescens
glaucum
gleason
gleasonia
gleasoniana
gledhill
glenda
glenn
gliceria
global
globalisasion
globalrecordings
globe
globo
globosa
glomerata
gloria
glory
glosario
glossary
glossostipula
glottal
glottolog
glover
glucoside
gluema
glukosa
glutinosa
glycine
gma
gmel
gmelin
gmina
gmt
gnd
gnu
go
goa
gob
gobernacion
gobernador
gobernorato
gobi
gobierno
gobiernona
god
godfather
godfrey
godofredo
gods
goebel
goes
goethe
gogh
gogodala
goia
goilalan
going
goku
gold
goldberg
golden
goldfields
goldwyn
golf
golpo
golson
goma
gomes
gomez
gondi
gondwana
gone
gonza
gonzaga
gonzalagunia
gonzales
gonzalez
good
goodall
goodbye
goodenough
goodman
google
gop
gora
gorda
gordimer
gordon
gore
goroka
gorontalo
gorum
goryeo
gospel
gossia
gossweileri
got
gotiko
goto
gottfried
gottlieb
gottlob
gould
gov
govaerts
government
governor
govpubs
goya
gpap
gps
graafil
grabidad
grabitasion
grabitasional
grace
gracia
gracile
gracilipes
gracilis
gracio
gradgrado
grado
gradona
graduado
graduate
graf
graffenrieda
graffiti
graggen
graham
gram
gramatika
gramatikal
gramatiko
grammar
grammatical
grammy
gramo
gran
granada
granadensis
grand
grande
grandiflora
grandiflorum
grandiflorus
grandifolia
grandifolius
grandis
grandistipula
granito
grant
granulosa
grapiko
grass
grassbase
grasses
grave
graveolens
gray
graz
gre
great
greater
greatest
grebo
greece
greek
green
greenberg
greene
greenea
greeniopsis
greenland
greenm
greenwayi
greenwich
greenwood
greer
greg
gregerson
gregor
gregoria
gregoriano
gregorio
gregory
greko
grenada
grenadito
gresia
greta
grey
grid
gridcolor
griego
griff
griffith
griffithii
griffiths
grimes
grin
gris
griseb
grito
groeninckx
grosso
groucho
group
grouping
groups
grove
grover
growing
growth
gru
grupgrupo
grupo
gruyter
gta
gtaʔ
gu
gua
guadalajara
guadalcanal
guadalupe
guadeloupe
guaduella
guagua
guaini
guajira
guam
guanajuato
guang
guangdong
guangnan
guangxi
guangxiensis
guaranda
guarani
guardia
guardian
guarne
guatape
guatemala
guava
guaviare
guayaba
gubat
gubatan
gubgubat
gudua
gue
guedday
gueiler
guernsey
guerrero
guettarda
guettardeae
guevara
guez
guglielmo
guhu
gui
guiana
guianensis
guibei
guibian
guico
guide
guides
guido
guieb
guihulngan
guild
guill
guillaume
guillaumin
guilledo
guillermo
guimaras
guimba
guinayangan
guine
guinea
guineense
guingona
guinness
guinobatan
guinsiliban
guiting
guiuan
guiwan
guizhou
gujarat
gujarati
gula
gulf
guliguli
gulo
gum
gumaca
gumamela
gumay
gumil
gun
gunay
gundaway
gunggona
gungguna
gunglo
gunguna
gunnar
gunnerales
gunniana
gunnii
guns
gunung
guo
gupit
gupta
guriaso
gurigor
gurruod
guru
gustaf
gustav
gustave
gustavo
gutenberg
gutierrez
gutob
gutta
guy
guyana
guymer
guzman
gvp
gw
gwyneth
gymnocarpium
gymnospermae
gynochthodes
h
ha
haakon
haba
habagat
habanes
habitana
habitat
habitatna
habsburg
hack
hackman
had
hadji
haemodoraceae
hafeld
hagahai
hagen
hagia
hagonoy
hague
hai
haida
hail
hain
hainan
hainanensis
hainismo
hairy
haiti
haitian
haitiano
haiyan
haji
hajj
hakeifolia
hakka
hakodate
hal
halacsy
halang
halcon
haldina
half
hall
halldo
halle
haller
hallier
halmahera
ham
hamaika
hamamasu
hamanaka
hamatonbetsu
hamburg
hamel
hamelia
hamelieae
hamiguitan
hamilton
hamlin
hammarstro
hammond
hampden
hampshire
hamsun
hamtic
han
hance
hand
handbook
handel
handke
handle
hangeul
hangul
hani
hanja
hanks
hannah
hannibal
hanoi
hanover
hans
hansen
hanuno
hanyu
hao
hapo
hapon
haponesa
haponiko
happened
happy
har
hara
harald
harbor
harbour
harcourt
hard
hardback
hardin
harding
hardinna
hardware
hardy
harhardin
hari
harlingii
harlow
harmogia
harms
harold
harper
harpercollins
harriet
harris
harrisburg
harrisii
harrison
harry
hart
haruai
harv
harvard
harvey
haryana
has
hashima
haslam
hasmin
hat
hatam
hattori
haudricourt
hauman
hausa
havana
have
haven
havil
havilland
hawai
hawaii
hawaiian
hawayano
hawking
hawkins
hawu
hay
haya
hayakita
hayata
hayden
haydn
hayes
hayward
hayy
hbs
hdi
hdl
he
head
heads
healey
health
heart
heat
heath
heather
heaven
hebei
hebreo
hectares
hector
hedder
hedyotis
hegel
heidelberg
heidenstam
height
heights
heim
heine
heinemann
heinrich
heinsia
heinz
heisenberg
hejaz
hekeri
hektaria
helbetiko
held
heldr
helen
helena
helenistiko
heliantheae
helianthus
helikopter
helio
heliosentriko
heller
helmut
helong
helsinki
hemidictyum
hemifragilis
hemingway
hemisperio
hemsl
hen
hend
henderson
hendricks
hendrik
henelohia
heneolohiko
henera
heneral
henerasion
henero
henesis
henetiko
henio
henley
heno
henoma
henri
henriettea
henriettella
henrik
henriquezia
henry
henryi
henryk
heo
heodesia
heograpia
heograpikal
heograpiko
heograpo
heolohia
heolohikal
heolohiko
heometria
heometriko
heomorpolohia
heopisikal
heopolitika
heopolitikal
heopolitiko
heotermal
hepburn
hepe
hepper
her
herald
herarkia
herbario
herbarium
herbert
herbosa
here
herero
herington
heritage
herm
herman
hermana
hermania
hermaniko
hermann
hermanos
hermaproditiko
herminia
herminio
hermogenes
hermosa
herna
hernan
hernandez
hernando
hero
herodotus
heron
herre
herrera
herschel
hertz
herusalem
herzegovina
hesperonesio
hess
hesse
heston
hesu
hesuita
hesukristo
hesus
het
heteromalla
heterophyllaea
heteropyxis
hexachlamys
hexandra
hexapetalus
heyse
hh
hi
hibisceae
hibiscus
hibok
hibrido
hida
hidaka
hidalgo
hidden
hide
hidro
hidroelektriko
hidrograpiko
hidrohenio
hidroheno
hidrolohia
hidrolohiko
hiedler
hierba
hiern
hieronymus
higante
higashi
higashimokoto
higgins
high
higher
highest
highland
highlands
highway
hiko
hil
hila
hilaria
hilary
hilbert
hildebrandtii
hiligaynon
hill
hillebr
hillia
hillieae
hills
hilongos
him
himalaya
himamaylan
himantandraceae
himes
himmelmann
himno
hin
hinatuan
hindang
hindi
hinds
hindsia
hindsioides
hindu
hinduismo
hindustani
hindustaniko
hinebra
hinirang
hintonia
hinunangan
hinundayan
hipotesis
hipotetikal
hipotetiko
hippolyte
hiri
hiroo
hiroshi
hiroshima
hirsuta
hirsutum
hirta
hirtiflora
his
hispania
hispanic
hispaniola
hispano
hispida
hist
histoire
historia
historiador
historical
histories
historikal
historiko
historiograpia
historique
history
hit
hitano
hitchcock
hitler
hits
hitu
hiv
hiw
hiyama
hlai
hler
hmc
hmong
hn
ho
hoa
hoanya
hoava
hobart
hobbit
hochr
hochst
hoffm
hoffman
hoffmann
hoffmannia
hogan
hogg
hoi
hoia
hokkaido
hokkien
hoku
hokuriku
hokusai
hokuto
holanda
holden
holdings
holiday
holland
hollandiae
holliday
hollrungiana
holly
hollywood
holmgren
holo
holokausto
holoseno
holosericea
holozoa
holst
holt
holton
holy
homalocalyx
home
homecoming
homeland
homer
homero
homme
homo
homolle
homonhon
homonimo
honda
honduras
honey
hong
hongshuihe
honiko
honneur
honolulu
honor
honorario
honorio
honour
honshu
hooghly
hook
hooker
hooper
hoover
hope
hopea
hopkins
horace
hordania
horisontal
horisonte
horizon
hormona
horn
hornbill
hornbostel
horokanai
horonobe
horse
horsenettle
horst
horticultural
hortikultura
hortikultural
hortus
hot
hotel
hotte
hotteana
houghton
hour
hours
house
housing
housley
houston
houstonia
how
howard
howe
howell
howland
howlin
hoyle
hre
hsi
hsiu
hsu
ht
htm
htmcal
html
htmlplanet
http
https
hu
hua
huaceae
hualien
huang
huave
hubb
hubbard
hubble
huber
huberi
hubert
huckleberry
hudah
hudaismo
hudeo
hudio
hudson
hue
huebes
hues
hugh
hughes
hugo
hui
huila
huilaea
huli
huliano
huling
hulio
hull
humaine
human
humanista
humanities
humb
humbert
humbertii
humblot
humblotii
humboldt
hume
humidex
humilis
hummingbird
humphrey
hun
hunan
hundred
hung
hungaria
hungaro
hungduan
hunio
hunmin
hunt
hunta
hunter
hunting
huntington
huon
hupiter
hurista
huron
hurt
hus
hustisia
husto
hut
hutch
hutchinson
hutu
huveaune
huxley
hver
hwang
hyderabad
hydnophytum
hygroryza
hyland
hymenodictyon
hymn
hyo
hyon
hyperacanthus
hyperwerks
hypobathrum
hypocalymma
hypothesis
hystrix
i
ia
iaai
ian
iana
iatmul
iau
ib
iba
ibaan
ibabangon
ibaga
ibagbaga
ibajay
ibaloi
iban
ibanag
ibaniko
ibaraki
ibarra
ibatan
ibati
iberia
iberiko
iberio
ibero
ibig
ibilang
ibm
ibn
ibra
iburi
ibus
ic
ica
icaal
ical
icbn
ice
ich
ichiro
icn
icones
id
ida
idadakkel
idaho
idasig
idasigna
idauluan
iday
idaytoy
idea
idealismo
identidad
identidadda
identification
identifier
identities
identity
ideolohia
idi
idia
idiat
idiay
idin
idinto
idioma
idiy
ido
idto
idu
idudur
iduh
iers
if
ife
ifugao
ig
igaaw
igat
igbo
igges
igid
igidna
iglesia
igloria
ignacia
ignacio
ignatz
igor
igorot
iguig
iha
iho
ihrer
ii
iiday
iidi
iii
iit
iiti
iitlogan
ije
ik
ika
ikabil
ikabilda
ikabilna
ikan
ikapetna
ikaw
ikeda
ikeddeng
ikeddengda
ikeddengna
iket
iki
ikitna
ikobi
ikono
il
ila
ilac
ilagan
ilalabas
ilang
ilasin
ilasinna
ilaya
ildefonso
ile
ileleggak
ilelennek
iles
ilet
ili
ilia
iligan
ilina
ilista
ilistana
ill
illana
illinois
illustrated
illustrations
ilocano
ilocos
ilog
iloilo
ilokana
ilokano
iloko
ilonggo
ilongot
iluko
ilustrado
ilustrasion
ilustre
ilya
ilyich
im
ima
imad
image
images
imagesize
imahen
imakane
imam
imatonan
imbagbaga
imbalido
imbension
imbentor
imbentorio
imbes
imbestigasion
imbricata
imbudo
imdb
imelda
imf
img
imigrante
imigrasion
immaculate
immad
immadu
immakar
immakarda
immakulada
immal
immalis
immalisda
immanuel
immatiddog
immay
immindayon
immitlog
immmuna
immun
immuna
immunada
immuno
immununa
impaay
impablaak
impabuya
impact
impakto
impalawag
impalawagna
impasug
imperial
imperiale
imperialismo
imperio
imperiona
implawag
implications
impluensia
impluensial
impluensiana
impormal
importante
imposible
impraestruktura
imprenta
imprimerie
imroing
imus
in
ina
inabak
inabakda
inabakna
inactive
inad
inadadal
inadal
inadaw
inadministro
inagta
inaldaw
inampon
inamponna
inana
inanan
inanimado
inar
inaramid
inaramidna
inararamid
inasawa
inasawana
inati
inaturalist
inaw
inawat
inawatna
inay
inayon
inbaga
inbagbaga
inbagbagada
inbagbagana
inbati
inbatina
inbension
inbentor
inbernadero
inbertebrata
inbilin
inbilinna
inc
inca
incertae
incheon
include
included
includes
including
increment
indang
indasig
indauloan
indauluan
inde
indehenio
indeks
independence
independencia
independent
independiente
index
indi
india
indiae
indian
indiana
indianapolis
indiano
indias
indibidual
indibidualista
indica
indies
indigenous
indihenio
indihitado
indio
individual
indo
indomalaya
indone
indones
indonesia
indonesian
indosasa
indotsina
indumento
indus
indusia
industri
industria
industrial
industrialisado
industrialisasion
industriana
industry
indutok
indutokna
ine
ined
inegi
inerme
infanta
info
information
ing
inga
ingangato
ingemarsson
inggana
inggles
inglatera
inglaterra
ingles
ingmar
ingres
ingrid
ingrupo
inh
inhambanella
inhenieria
inheniero
inhenniera
inhennieria
inhenniero
ini
inikkat
inimpluensiaan
inisiatibo
init
initial
inkabil
inkabilna
inkapet
inkaskaso
inkata
inkeddeng
inkeddengda
inkeddengna
inklusibo
inladawan
inladawanna
inladladawan
inland
inlasin
inlista
inn
innaganan
innala
innalana
innayon
innayonda
innayonna
innem
inner
innokenty
innovations
innsbruck
ino
inobasion
inocencio
inopacan
inopinata
inorganiko
inpablaak
inpakita
inpalawag
inpalawagna
inpangatona
inpasa
inpatakder
inpatakderna
inpatarus
inpatulod
inpatulodna
inpeksion
inploressensia
inpluensia
inpormal
inpraespesipiko
inpraestruktura
inpranalabbasit
inquirer
inraman
inrangarang
inrangarangna
inranggo
inranggona
inrehistro
inreporta
inreportana
inrugi
inrugina
insao
insasao
insee
insekto
inside
insidente
insignis
insik
insika
insilpo
insina
insingasing
insingasingda
insingasingna
insinsina
inskripsion
inspirasion
inst
institusion
institut
institute
institution
instituto
instrumental
instrumento
insular
insularis
insulina
insuppiat
insupsuppiat
insurat
insuratna
insureksion
insursuratna
insursuro
int
intangible
intar
inted
intedna
integral
integrated
integridad
intelektual
intelihensia
intelligence
inter
interaktibo
interchange
interesado
interestelar
interface
interim
interior
interlingua
interlingue
intermedia
internal
internasional
international
internet
intero
interpretasion
interpretation
intertribal
interview
inti
into
intono
intramuros
introduction
intrumento
intsik
inturong
inu
inuit
inuktitut
inupiaq
inur
inurnong
inurnos
inus
inusar
inusarda
inusarna
inususar
inut
inutda
invasive
inventory
investigation
involucrata
involucre
inwaragawag
inyalis
inyalisna
inyeg
inyetnag
io
ioc
ion
iowa
ipa
ipakat
ipakita
ipalawag
ipalawagna
ipapan
ipapanaw
ipapatay
iparang
ipil
ipni
ipupusay
ipupusayna
ipus
ipusna
ir
ira
irak
iraman
iramanna
iran
irani
iranian
iraniko
iranun
iraq
irarang
irarutu
iraya
ire
ireland
irene
ireporta
irepresenta
irian
iriga
irish
irkutsk
irlanda
irlandes
irlandia
irminger
irmng
iro
iron
irons
ironwood
irosin
irregularis
irteng
iruruar
irurugi
irurumsua
irwin
is
isa
isaac
isabel
isabela
isabella
isabelo
isagani
isaloensis
isan
isang
isarog
isasanglad
isasangpet
isbangan
isbn
isbukun
ise
isem
isertia
iseserrek
ishigaki
ishiguro
ishikari
ishikawa
ishmael
isi
isidoro
isidro
isilpo
isilpona
isimbolona
isina
isinana
isingasing
isingasingna
isip
isipna
isirawa
isis
isisina
iskrin
isla
islam
islamic
islamiko
islana
island
islanders
islandes
islandia
islands
islas
isle
isles
ismail
ismo
isnag
isneg
iso
isolado
isolate
isolated
isolates
isonandra
isotopiko
isotopo
isoya
isport
israel
israeli
israelita
issn
issue
issues
istanbul
isthmus
istoria
isu
isuda
isudan
isuidi
isuket
isumet
isun
isuna
isunga
isunto
it
ita
itagu
italia
italian
italiana
italiano
italiko
italy
itan
itawit
itbayat
ited
iti
itikaatiddog
itikatayag
itilas
itilaud
itilugar
itim
itimaysa
itipon
itis
itlog
itneg
ito
itogon
itoy
itremoensis
its
itu
iturayan
iturup
iucn
iupac
iv
ivan
ivanovich
ivar
ives
ivisan
ivo
ivoire
ivorensis
ivuhos
iwa
iwal
iwam
iwamizawa
iwanai
iwate
iwo
iwoo
ix
ixora
ixoroideae
iya
iyaadu
iyallilaw
iyeg
iyo
iyu
iyuumay
iz
izabalensis
izu
izumo
j
ja
jabal
jabonga
jacinto
jack
jacks
jackson
jacob
jacobs
jacobsen
jacq
jacqueline
jacques
jacquin
jae
jaen
jaffe
jaffre
jagga
jaguar
jah
jahai
jahrbu
jai
jaime
jaimiqui
jain
jair
jakarta
jake
jakob
jalal
jalaur
jalisco
jam
jamaica
jamaicensis
jambi
james
jameson
jamie
jamindan
jan
jane
janeiro
janet
janis
janiuay
jannings
jansen
january
jao
japan
japanese
japonica
jarai
jaramillo
jardi
jardim
jardin
jaro
jaroslav
jart
jasmine
jasminiflora
jasminoides
jason
jasper
jaub
java
javanese
javanica
javier
jawa
jawaharlal
jawi
jay
jaya
jayakarta
jayapura
jaza
jazz
jcmiras
je
jean
jeanne
jeanneret
jebb
jeddah
jeff
jefferson
jeffrey
jejomar
jen
jeng
jenk
jennica
jennifer
jenny
jens
jensen
jepson
jeremy
jero
jerold
jerome
jerry
jersey
jerusalem
jerzy
jesse
jessica
jessie
jessup
jesu
jesup
jesus
jet
jewish
jeziory
jf
jharkhand
ji
jie
jill
jim
jima
jime
jimenez
jimmy
jin
jinfang
jing
jintotolo
jiu
jj
jnr
jo
joa
joachim
joan
joanne
joaqui
joaquin
job
jocson
jodie
joe
joel
joey
johan
johann
johanna
johannes
johanss
johansson
john
johnny
johns
johnson
johnsonii
johnst
johnston
johor
jolie
jolo
jomalig
jon
jonas
jonathan
jones
jong
jonsson
jonstlouis
joosia
joplin
jordan
jorge
jose
josef
josefa
josefina
joselito
joseon
joseph
josepha
josephine
josephus
joshua
joule
journal
journals
journey
journeys
jovellar
joy
joyce
jp
jpg
jr
jru
jstor
jt
ju
jua
juan
juana
juang
juanico
juanito
juban
jucunda
judas
judd
jude
judeo
judgment
judith
judy
juk
jules
julia
julian
julie
julien
juliet
juliette
julio
julita
julius
july
jum
jun
june
jung
jungle
jungli
junio
junior
juniperina
jura
juray
jure
juruana
juss
jussieu
just
justice
justin
justiniano
jørgen
k
ka
kaaba
kaada
kaadalem
kaadaleman
kaadalemna
kaadalen
kaadayo
kaadayona
kaadaywan
kaadda
kaaddana
kaadduan
kaadgiti
kaadu
kaaduan
kaaduana
kaaduanda
kaaduanen
kaaduanna
kaaduna
kaakaba
kaakabaan
kaakabana
kaakikidan
kaaktibuan
kaalaensis
kaamerikaan
kaanakan
kaanakanna
kaano
kaapgad
kaarian
kaariping
kaaripingna
kaarruba
kaarrubaan
kaarrubada
kaarrubana
kaarrubayan
kaarrubayanna
kaaruba
kaarubaan
kaarubana
kaarubayanna
kaasideg
kaasidegna
kaasitgan
kaatapan
kaatiddog
kaatiddogan
kaatiddogna
kaatidog
kaawan
kababa
kababaan
kababalin
kabacan
kabagian
kabagianda
kabagianna
kabaketan
kabakiran
kabaknang
kabaknangan
kabalian
kabaliero
kabalio
kaballigian
kabambanatayan
kabambantayan
kabanbantayan
kabangibang
kabankalan
kabarbaro
kabaruan
kabassit
kabassitan
kabataan
kabatbatuan
kabayagan
kabayan
kabayatan
kabeddeng
kabeddengna
kabibiag
kabibiagna
kabiitan
kabilegan
kabo
kabsat
kabsatna
kabukbukodan
kabukbukodanda
kabukbukodanna
kabuksilan
kabul
kabuntalan
kabusor
kabusorda
kabusorna
kaco
kada
kadaanan
kadadakkelan
kadagidi
kadagidiay
kadagii
kadagiit
kadagioti
kadagit
kadagita
kadagiti
kadagitoy
kadagsen
kadagti
kadagtii
kadagupan
kadai
kadaiti
kadakeklan
kadakelan
kadakkel
kadakkelan
kadakkelna
kadaklan
kadaksan
kadam
kadapan
kadaratan
kadawayan
kadawayn
kadawyan
kadawyana
kadawyanda
kadayawan
kadayeg
kadayegan
kadaywan
kadazan
kadda
kadena
kadenna
kadennana
kadeppa
kadgiti
kadi
kadigiti
kaditi
kadkadapan
kadsaaran
kadua
kaduada
kaduan
kaduana
kaduna
kaduogan
kafka
kafoa
kagawa
kagera
kagimongan
kagoshima
kagudua
kahel
kahlo
kahon
kahoy
kai
kaibatugan
kaibuksilan
kaibuksilanna
kaikaisuna
kaikyo
kaili
kailokuan
kaimito
kaimpluensiaan
kaimpluensian
kainantu
kainul
kaipapanan
kaipapananna
kaipuleohone
kairiru
kairui
kaiser
kajang
kakabsat
kakabsatna
kakaduana
kakaisuna
kakaro
kakaruan
kakaw
kakaykayoan
kakaykayuan
kaki
kakuyog
kakuyogda
kakuyogna
kala
kalaallisut
kaladawan
kalagan
kalaing
kalaingan
kalaingda
kalaingna
kalaka
kalakaan
kalakayan
kalalaingan
kalalainganna
kalalatakan
kalam
kalamian
kalamiis
kalamiisan
kalanchoe
kalapasan
kalapati
kalapaw
kalapsan
kalapsanna
kalasag
kalatak
kalatakan
kalatungan
kalaudan
kalaw
kalawa
kalawaan
kalawag
kalawan
kalawana
kalayaan
kaldera
kalding
kale
kalendario
kalgaw
kalgoorlie
kali
kalibo
kalidad
kalidadna
kaligrapia
kalilidayan
kalimantan
kalinga
kaliningrad
kalintegan
kalipa
kalipato
kalkalendario
kalkalsada
kallahan
kallugong
kalpasan
kalpasanna
kalpsan
kalsada
kalub
kalugnakan
kalyeserye
kam
kamagaan
kamali
kamang
kamara
kamatayan
kamatis
kamaudian
kamay
kamayo
kambera
kambot
kamchatka
kamchatkan
kameda
kamelio
kamemng
kamen
kameng
kamengda
kamengna
kamera
kamerun
kamholz
kami
kamifurano
kamiiso
kamikawa
kaminokuni
kamisunagawa
kamkameng
kammasapulan
kamoenai
kamoro
kamote
kampala
kampana
kampania
kampeon
kampeonato
kampo
kampong
kamposanto
kampus
kamula
kamus
kan
kanada
kanadiana
kanadiano
kanagan
kanagawa
kanagto
kanagtuan
kanak
kanakanabu
kanakanavu
kanal
kananga
kanaq
kanares
kanata
kanawan
kanayon
kandela
kandidato
kane
kanen
kang
kangaroo
kangato
kangatona
kangatuan
kangchenjunga
kangean
kanggaru
kangimongan
kanginaan
kangrunaa
kangrunaaan
kangrunaan
kangrunaanda
kani
kania
kaniada
kaniak
kaniami
kaniana
kaniatayo
kaniet
kanigid
kanito
kanji
kankana
kankanaey
kankanayon
kankanayonda
kankanen
kankanta
kankanyon
kanknayon
kanlaon
kanluran
kannaway
kano
kanon
kanori
kansai
kansas
kanselor
kanser
kansilier
kant
kanta
kantana
kantidad
kanto
kanton
kantonal
kantones
kanum
kanungpalan
kanungpalanna
kanuri
kao
kaoba
kaohsiung
kapada
kapadana
kapadasan
kapadpada
kapadpadana
kapampangan
kapanggepan
kapanglaw
kapanglawan
kapanunotan
kapanunotanda
kapanunotanna
kapanunutan
kapardas
kapardasan
kapas
kapasidad
kapatagan
kapategan
kapatgan
kapaut
kapautan
kape
kapeina
kapigsa
kapigsaan
kapilia
kapingamarangi
kapintas
kapintasan
kapitalismo
kapitalista
kapitan
kapitolio
kapitolion
kapitoliona
kapitulio
kapitulo
kaplasan
kapok
kapori
kappi
kappia
kappon
kaprikornio
kapsit
kapsula
kapudot
kapudotan
kapuonan
kapur
kapusekan
kapuskol
kaputotan
kaputotanda
kaputotanna
kapututan
kar
kara
karabakh
karaban
karabasa
karabukob
karachi
karakter
karakterna
karaman
karamchand
karang
karaniagan
karao
kararag
kararua
kararuak
karas
karayan
karbengan
karbohidrato
karbon
kardinal
kardis
kardomia
kare
karel
karen
karer
karerna
karga
kari
karibal
karibe
karidad
karigat
karigatan
karikut
karikutan
karim
karimata
karit
karkar
karkarakter
karkarayan
karkarbengan
karkarna
karkaruay
karkulo
karl
karlomagno
karloman
karnai
karnataka
karne
karnero
karo
karolingio
karrer
karrerna
karro
karst
karta
kartograpia
kartograpo
karuay
karuburoban
karuburuban
karuotan
kas
kasaad
kasai
kasakbayan
kasangay
kasangayna
kasano
kasantuan
kasapaan
kasapulan
kasasaad
kasasaadna
kasata
kasayaat
kasayaatan
kasayaatna
kasigkay
kasilpo
kasimir
kasinsin
kasinsinna
kasisigud
kasla
kaso
kasoy
kaspagarigan
kaspio
kasta
kastila
kastilio
kastoy
kasumbangir
kasumbangirna
kasuppiat
kasuppiatan
kasuppiatna
kat
kata
katakunaynay
katalan
katalonia
katanga
katar
katarata
katayag
katayagan
katayagna
kate
katedral
kategoria
katengngaan
katerina
katharine
katherine
kathleen
kathmandu
kathryn
kathy
katie
katigbak
katimbengan
katipunan
katmandu
kato
katodiko
katoliko
katolisismo
katologo
katrabahuanna
katrina
katu
katuduan
katuic
katuiko
katulagan
katulong
katulongan
katuon
katurayan
katurodan
katutubo
katy
kaua
kauai
kaubingan
kaudian
kaukasio
kaukaso
kaulf
kaunaan
kaunda
kauneg
kaunegan
kaur
kaure
kausel
kauswagan
kavalan
kavite
kawal
kawar
kawasaki
kawaw
kawayaan
kawayan
kawes
kawi
kawit
kay
kaya
kayabe
kayagar
kayan
kayangan
kayapa
kayarigan
kayat
kayatda
kayatn
kayatna
kayeli
kaykanayon
kaykayat
kaykayatda
kaykayatna
kaykayo
kayo
kayona
kayumanggi
kazakh
kazakhstan
kazimierz
kazukuru
kbl
kd
kdpy
ke
kean
keaton
keay
keb
kedah
keddeng
kedngan
kei
keith
kela
kelaat
kelabit
kelantan
kelapa
kele
kellaat
keller
kellogg
kelly
keltiko
kelvin
kem
kemak
kemal
kemberano
kembra
kemie
kemikal
kemiko
ken
kenati
kendagiti
kendayan
kendrick
keng
kenia
kenka
kenkuana
kenn
kennedy
kenneth
kenni
kenny
kensiu
kent
kenti
kentucky
kenya
kenyah
kepler
kepulauan
ker
kerala
kerangas
keraudren
kerch
kerima
kerinci
kermadec
kern
kernel
kerr
keruing
keso
ket
ketagalan
ketdi
ketisu
ketmabalin
ketmabirukan
ketti
keu
kevin
kew
key
keyensis
keynes
keys
keyt
kg
kha
khabit
khaldu
khaldun
khamkeut
khammouane
khamti
khan
khanate
khang
khao
kharia
khartoum
khasi
khe
khmer
khmu
khmuic
khmuiko
kho
khoa
khoisan
khorasan
khu
khuen
khwa
ki
kia
kiaersk
kiangan
kiaten
kiaw
kibiri
kibo
kickx
kid
kidapawan
kiddaw
kidman
kie
kiel
kierkegaard
kiev
kikonai
kikongo
kikori
kilima
kilimanjaro
kilivila
kilkilometro
kill
killing
killipii
killo
kilmeri
kilogramo
kilometro
kim
kimat
kimberley
kimika
kimiko
kimki
kimmaddua
kimmadduaan
kimmadua
kimmaduaan
kimmaro
kimmuyog
kimobetsu
kina
kinaabogado
kinaagpayso
kinaagtutubo
kinabalu
kinabaluensis
kinabatangan
kinabukbukodan
kinadayeg
kinadios
kinalaing
kinalaingna
kinalatak
kinapadi
kinapanglaw
kinapangruna
kinapangrunana
kinapapa
kinapapana
kinapigsa
kinapintas
kinapresidente
kinapudno
kinapuraw
kinaray
kinarkulo
kinasaririt
kinasiasino
kinasirib
kinatao
kinaturay
kinatured
kinaubing
kinaubingna
kinaudi
kinaugma
kinauna
kinauneg
kinawaya
kinayat
kinayatna
kinaykayat
kinaykayatan
kinaykayatda
kinaykayatna
kinaynayat
kind
kindergarten
king
kingdom
kingfisher
kings
kingsley
kiniddaw
kinolonia
kinonstrukto
kinshasa
kinuna
kinunana
kinunkuna
kinunkunana
kinuyog
kinyarwanda
kiorr
kiowa
kipet
kipling
kirgistan
kiribati
kiritimati
kirk
kirkbr
kirkbridei
kirkii
kirokiro
kirundi
kisar
kiss
kiswahili
kit
kita
kitaen
kitahiroshima
kitahiyama
kitami
kitana
kitanglad
kitcharao
kituba
kivu
kiwai
kiwaiano
kiwi
kjellbergiodendron
kk
klade
kladistiko
klado
kladograma
klamer
klase
klasikal
klasiko
klaus
klein
kleinii
kleriko
klero
kliente
klima
klimatiko
klokov
kloroplasto
klotzsch
km
knapp
knew
kniang
knight
knopf
know
knowledge
known
knoxia
knoxieae
knud
knut
knuth
ko
koadhutor
kobe
kobon
koch
koda
kodaku
kodi
kodigo
kodigona
kodkodigo
koenig
koepisiente
kognado
kognitibo
kohautia
kohlsaat
koho
koiari
koine
kojima
kok
koko
kol
kola
kolaboratibo
kolegio
kolehio
koleksion
kolektibo
koli
kolkata
kolonia
kolonial
kolonialismo
kolonisasion
kolonista
kolopom
kolor
kolordapo
kolumnada
kom
koma
koman
komander
kombension
kombento
kombinasion
kombio
komedia
komediante
komemoratibo
komentario
komering
komersial
komersiante
komersio
komi
komidiante
komiks
komisaria
komision
komisioner
komisyon
komite
komodo
komoriano
komoros
kompakto
kompania
komparatibo
kompederasion
komperensia
kompidensia
kompiuter
kompleks
kompleto
komplikado
komplikasion
komponente
komposer
komposision
komposisionna
komposito
kompositor
komprehensibo
kompromiso
kompuesto
komsomolets
komuna
komunidad
komunikasion
komunion
komunismo
komunista
komyandaret
kon
konbension
konda
kondado
konde
kondesa
kondision
kondison
kondor
konduktor
koneksion
kong
kongkistador
kongo
kongregasion
kongregista
kongresional
kongresista
kongreso
koninklijke
konipero
konjo
konkani
konkistador
konkreto
kono
konpederado
konpederasion
konperensia
konprehensibo
konpusianismo
konrad
konsehal
konseho
konsenso
konsentrasion
konsepsion
konsepto
konserbasion
konserbatibo
konserbatismo
konserbatorio
konsesion
konsetrasion
konsierto
konsilo
konsilor
konsonante
konstantino
konstantinopla
konstelasion
konstituente
konstruksion
konsultado
konsultasion
kontantinopla
konteksto
kontemporaneo
kontemporario
kontemporariona
kontesto
kontinental
kontinente
kontra
kontrapapa
kontrasto
kontrata
kontrato
kontribusion
kontribusionna
kontributor
kontrobersia
kontrobersial
kontsa
konurbasion
kooperasion
koord
koordinasion
koordinato
kopa
kopia
koptiko
kor
koraku
korales
koran
koraput
kordiliera
korea
korean
koreano
koregimiento
koreo
koreograpo
koridor
koriente
korku
korniko
koro
korola
koronadal
koronel
korowai
korporado
korporasion
korpus
korte
korth
korthals
korthalsii
korupun
korwa
kos
koseki
kosmiko
kosmolohia
kosmonauta
kosmopolitano
kosmos
kosovo
kosrae
kosterm
kostermans
kota
kotelni
kottelat
kova
kove
kow
kowan
kowiai
kr
kra
kracht
krai
krako
kramer
krapf
krasnoyarsk
kratie
krause
krauss
kraussia
kravet
kreatibo
kredo
krema
kreol
kretaseo
kretasiko
kretasio
kri
krima
krimea
krimen
kriminal
krio
kris
krisa
kristal
kristen
kristian
kristianidad
kristianismo
kristiano
kristine
kristo
kriteria
kritikal
kritiko
kritisismo
kroasia
kroata
kromosoma
kroniko
kronolohia
krota
kru
krug
krus
krusada
krusado
ksingmul
kso
ku
kua
kuadrado
kuadro
kuala
kuan
kuantum
kuarta
kuartel
kuarto
kuba
kubano
kubiko
kubismo
kubitzki
kubrick
kuching
kuchingensis
kudarat
kudeta
kudil
kudlit
kudo
kueba
kuei
kuenta
kuerdas
kuerdasna
kuerpo
kuhlmannii
kui
kuiper
kuko
kuku
kukua
kula
kulanit
kulapot
kulibangbang
kulisusu
kullaaw
kulon
kultibar
kulto
kultura
kultural
kuma
kumadduaan
kumadua
kumaduaan
kumaduaanna
kumaishi
kumakanta
kumalatkat
kumamoto
kuman
kumar
kumayat
kumbento
kumitkita
kumurang
kumuyog
kun
kuna
kunashiri
kung
kuni
kunkel
kunming
kunth
kuntze
kunze
kuo
kuot
kupang
kur
kura
kurarapnit
kurata
kurdi
kurdish
kurdo
kuril
kurima
kuro
kuromatsunai
kurosawa
kuroshima
kurso
kurt
kurudu
kurukh
kurumba
kurz
kush
kushiro
kutai
kutch
kutchan
kuton
kutubuano
kuwait
kuwento
kuy
kw
kwa
kwame
kwara
kwazulu
kwerba
kwoma
kwomtari
kyiv
kylie
kyo
kyoto
kyrgyzstan
kyu
kyushu
l
la
laa
laan
lab
laban
labes
labesna
labill
labneng
labnengna
labo
laboratorio
laboratory
labourdonnaisia
labrador
labramia
labsanna
labsenna
labu
labuan
labus
lachenaud
laconsay
lacuesta
ladawan
ladenbergia
ladingit
ladladawan
ladrilio
lady
lae
laeng
laengen
laevis
lag
lagawe
lagenaria
lagerlo
laglagipen
lago
lagonoy
lagos
laguna
lagunacaldera
laguncularia
lahar
lai
laibin
lak
lakambini
lakan
lakas
lakay
lake
lakes
lakewood
laki
lakkja
laklakay
lakon
lakota
lal
lala
lalaki
lalande
lalat
lallakay
lallaki
lam
lama
lamaholot
lamarchea
lamarck
lamb
lambert
lamberto
lambir
lamboya
lambs
lambunao
lames
lamet
lamiis
lamisaan
lamitan
lamma
lammin
lamok
lampang
lampara
lampung
lamut
lan
lana
lanag
lanao
lanata
lancaster
lanceolata
lanceolatum
lancifolia
land
landia
landicho
landok
landolfo
landrum
landscape
lane
lang
langa
langam
langana
lange
langit
langlanga
language
languages
langue
langues
lanham
lanka
lannerus
lanoh
lanot
lantapan
lao
laoag
laok
laon
laos
laotiano
lap
lapayag
lapinig
laplace
lapped
laprida
laptev
lapu
lapuyan
laquedivas
lara
larena
large
largest
larish
larry
lars
larsen
larson
las
lasag
lasagna
lasam
lasatenna
lasiantha
lasianthus
lasioclada
laskowske
lassa
last
lasud
lat
lata
late
later
lateral
laterano
lateritiko
laterito
latest
latex
lati
latiflora
latifolia
latifolius
latin
latina
latino
latintropicos
latitud
latium
lato
latta
latukan
latvia
lau
laua
lauan
laud
laude
laudna
laue
laughter
laughton
laur
laura
lauraceae
laureado
laurel
laurence
laurens
laurent
laurentii
laurie
laurifolia
laurina
laus
lausanne
laut
lauterb
lav
lava
lave
laveh
laven
lavender
lavi
lavoisiera
lavukaleve
law
lawa
lawag
lawas
lawasda
lawlaw
lawlawna
lawoi
lawrence
lawson
lawwalawwa
laxa
laxiflora
laxness
lay
laya
laycock
layus
laz
lazarev
lazaro
lazarus
lazi
lazio
lazo
lb
lc
le
lea
leach
leaders
leadership
leaf
league
leandra
leandro
lear
learned
learning
least
leaved
leaves
lebanon
lebante
lecomte
lecomtedoxa
lecture
ledermannii
ledesma
lee
leersia
leeward
left
leg
legacy
legado
legadona
legal
leganes
legaspi
legazpi
legend
legrand
legrandia
legume
leguminosae
lehion
lehislasion
lehislatibo
lehislatura
lehitimado
lehmann
lehtonen
lehua
lei
leibniz
leiden
leigh
leighton
leiocarpa
leipzig
leitre
leksikal
leksiko
leksikon
lektura
lele
lelepa
lem
lemay
lembata
lemerig
lemerre
lemery
lemmon
lemur
len
lena
lenakel
leng
lengguahe
lengua
leni
lenin
lenkeran
lente
lenwebbia
leo
leon
leona
leonard
leonardo
leoncio
leone
leonesa
leonhard
leonid
leonor
leonov
leopold
leopoldo
lepanto
lepidoptera
lepki
lepo
leptactina
leptagrostis
leptaspis
leptodermis
leptolaena
leptopetala
leptopetalum
leptospermoides
leptospermum
lerchea
leroy
les
lesaad
leschenaultii
leslie
lesotho
lessaad
lesser
lessing
lessons
leste
lester
let
leti
leticia
leton
letonia
letra
letran
letter
letters
lettow
lettres
lev
levantino
level
levi
levine
levinson
levu
levy
lewis
lewo
lexical
lexicon
lexikon
lexington
leybold
leyenda
leyte
lez
lezo
lg
lgu
li
lia
lian
liana
liang
lianshan
liao
libacao
libagon
liber
liberal
liberalismo
liberia
liberica
libertad
libertador
libertariano
liberty
libjo
liblibro
libmanan
libon
libona
libraries
library
libre
libreria
libris
libro
librona
libunao
libungan
libya
license
liddell
lidflower
lidia
lidlidda
lie
liebknecht
liechtenstein
liehmann
lies
lieu
life
lifetime
liga
ligao
ligatura
light
lighthouse
liguria
lijndenia
like
likido
likmut
likod
likud
likudan
likum
lila
lilia
lilian
lillian
lilly
liloan
lily
lim
lima
limapulo
limasawa
limay
limba
limbang
limestone
limitado
limitasion
limited
limits
limmabas
limned
limon
limos
limpopo
lin
lina
linabag
linabsanna
linamon
linaon
linaonna
linapacan
linaw
linawas
lincoln
lincom
lincz
linda
linden
lindl
lindley
lindo
lindog
lindsaeaceae
lindsaeineae
lindsay
line
linear
linearifolia
linegrey
liner
ling
lingala
lingayen
lingguista
lingguistika
lingguistiko
lingig
linglingsat
lingnguistiko
lingsat
lingua
linguasphere
linguist
linguistic
linguistics
linguistiko
linguistique
linia
linifolia
linikudan
linikudanna
link
linked
links
linlinteg
linn
linnaaw
linnaea
linnaeus
linne
linnean
linneo
linnæus
lino
linong
linteg
lintegna
linton
linux
linz
lio
liogier
lion
lionel
lipa
lipido
lippmann
lirika
liriko
lis
lisa
lisbon
lisela
lisensia
liseo
list
lista
listaan
lister
listing
lists
lit
literal
literario
literary
literasia
literatura
literature
lithomyrtus
lito
litoral
litro
little
littlefield
littoralis
lituania
lituano
liturhia
liturhiko
liu
liujiang
liv
live
lives
living
livingstone
liwanag
liwayway
liwliwa
lix
liza
lken
ll
lla
llanera
llanos
llanquihue
ller
llosa
lloyd
lo
loa
loay
lobel
lobo
loboc
lobos
lobu
loc
local
locations
lockwood
locsin
lodhi
loefgrenia
logo
lohika
lohikal
lohiko
loi
loire
lokal
lokalidad
lokasion
lokasionna
lola
lolo
lombardia
lombardo
lombok
lonchitis
london
londres
lonely
long
longest
longiflora
longifolia
longipes
longituba
longitud
longman
longyearbyen
longzhou
loniu
lonnie
loob
looc
look
loomis
loon
lope
lopez
lophostemon
lorca
lord
lordi
lore
loren
lorence
lorentz
lorenz
lorenza
lorenzo
loreto
loretta
loro
lorraine
los
lost
lote
lotud
lotus
lou
loughnane
louis
louise
louisiade
louisiana
lour
lourdes
louvre
love
lover
lovers
lovett
loving
low
lowe
lower
lowii
lowry
lozano
lozi
lp
ls
lt
ltd
lu
lua
lualhati
luang
luangiko
luba
lubang
lubao
lublin
lubong
lubuagan
luc
luca
lucap
lucas
lucban
luce
lucena
lucens
luci
lucia
luciano
lucida
lucien
lucio
lucky
lucuma
lucy
ludwig
lue
luek
luffa
lugan
lugar
lugara
lugarna
lughadha
luglugar
lugonis
lugus
luha
lui
luigi
luis
luisa
luise
lukas
lukat
luke
luksemburgo
luma
lumabas
lumad
lumasat
lumaud
lumba
lumban
lumnek
lumot
lumpur
lun
luna
lunar
lund
lundayeh
lundell
lunes
luneta
lung
lungog
lungsod
luo
lupa
lupang
lupao
lupi
luri
luruaco
lutea
luterano
luther
luto
luwu
luxembourg
luxemburg
luz
luzon
luzviminda
lvarez
lvovich
lvovna
lxii
lyce
lycianthes
lycioides
lycopersicum
lycophytes
lydia
lyell
lyn
lynch
lyndley
lyndon
lynn
lyon
m
ma
maa
maabot
maabotan
maabutanna
maadal
maala
maammuan
maap
maapektaran
maapit
maar
maaramat
maaramid
maarten
maas
maasim
maasin
maastricht
maatianan
maaw
maawagan
maawat
maawatan
maawit
maay
maba
mabagbagi
mabairukan
mabalacat
mabalbaliwan
mabalin
mabalina
mabalinda
mabalinen
mabalinna
mabalinto
mabalinton
mabaliwan
mabaln
mabanagan
mabanglo
mabangon
mabasa
mabasbasa
mabatbati
mabati
mabberley
mabeddengan
mabennat
mabigbig
mabigbigan
mabinay
mabingay
mabingbingay
mabini
mabirbirukan
mabirukan
mabirukanda
mabisbisita
mabuhay
mabukel
mabuso
mabutosan
mabuya
mac
macaca
macajalar
macalelon
macansantos
macao
macapagal
macario
macaronesia
macarthur
macau
macbr
maccabeos
macedonia
machaonia
machiavelli
machine
macho
mackenzie
mackinder
maclaine
maclayana
macmillan
maco
maconacon
macrantha
macranthum
macro
macrocalyx
macrocarpa
macrocnemum
macrohon
macrophylla
mactan
macy
mad
madadael
madagascar
madagascariensis
madak
madakdakamat
madalag
madaliasat
madam
madame
madanar
madang
madangran
madarang
maddela
madden
made
madeira
madhuca
madhya
madi
madia
madison
madlaw
madonna
madras
madre
madrid
madridejos
madudua
maduktalan
madura
mae
maestra
maestrana
maestro
maewo
mag
maga
magadan
magadhi
magalang
magalha
magalismontanum
magallanes
magalona
magarao
magasin
magasina
magat
magatang
magawidan
magazine
magdalena
magdiwang
magellan
maggie
maghreb
magic
magma
magmagna
magna
magnani
magnetiko
magnetismo
magnifica
magnitud
magnolia
magnoliaceae
magnoliales
magnolianae
magnoliidae
magnoliids
magnoliopsida
magnus
magori
magpet
magreb
magsanop
magsaysay
magsingal
magtoto
maguindanao
maguire
maguirei
magun
mah
maha
mahaba
mahabang
mahabharata
mahagnao
mahakam
mahal
mahaplag
maharashtra
mahatma
mahayana
mahfouz
mahidol
mahinog
mahler
mahoma
mai
maiak
maiakdua
maiaktlo
maibaga
maibagay
maibagbaga
maibalikas
maibatay
maibbatan
maibilang
maibilbilang
maibingay
maidasig
maiduma
maigawid
maigawidan
maigay
maigiddiat
maigo
maigrupo
maigupit
maik
maika
maikabagian
maikabagianda
maikabil
maikadu
maikadua
maikaduapulo
maikalima
maikanem
maikapat
maikapet
maikapito
maikasangapulo
maikasiam
maikatlo
maikawalo
maikeddeng
maikeddengda
maikkan
maikkat
maikuyog
mailaklako
mailako
mailaksid
mailasin
mailasinda
mailetra
mailuan
maimula
maimulmula
maimuyongan
main
mainaganan
mainaig
mainaynayon
mainayon
maine
maingayi
mainit
mainland
maintenance
mainum
mainz
maio
maipaay
maipabassit
maipablaak
maipabuya
maipada
maipadakkel
maipadpada
maipadpadto
maipadto
maipagarup
maipagpagarup
maipakat
maipakita
maipakpakita
maipalawag
maipalpalawag
maipaltiing
maipalubos
maipan
maipanggep
maipangta
maipangyababa
maipanunotan
maipapaan
maipapan
maipapana
maiparabor
maiparang
maiparparang
maiparuar
maipasubli
maipatakder
maipatarus
maipatinayon
maipresenta
maipud
mairaman
mairamanda
mairamraman
mairan
mairanggo
mairasi
maire
mairepresenta
mais
maisagmak
maisalumina
maisao
maisasao
maisilpo
maisin
maisina
maisingasing
maison
maisubli
maisuppiat
maisuppiatan
maisurat
maitagikua
maited
maithili
maitipon
maitiptipon
maitudo
maitudtudo
maitunos
maiturong
maitutop
maiwa
maiwaras
maiwarwaras
maiyakar
maiyakarto
maiyalis
maiyallilaw
maiyaon
maiyasping
maiyebkas
majagual
major
mak
maka
makaabot
makaagas
makaala
makaalis
makaallilaw
makaammo
makaanay
makaanayen
makaannong
makaapekto
makaaramid
makaawat
makaawis
makaay
makabael
makabaelda
makabasa
makabiruk
makabutos
makadadael
makadangran
makadua
makagun
makaibtur
makaimpluensia
makaipakita
makaited
makakita
makalap
makan
makapan
makapartuat
makapataud
makapatay
makaporma
makapukaw
makaputarak
makaraut
makasabidong
makasae
makasai
makasanay
makasansanay
makasao
makasaoda
makasapul
makasar
makassar
makassares
makasurat
makatao
makatawen
makatayab
makati
makatlo
makatulong
makaturing
makes
makhuwa
makian
makibingay
makibingbingay
makibingbinglay
makibinglay
makibinningay
makibinningayda
makilaban
makilunag
makina
making
makino
makira
makisinnukat
makissayan
makita
makitinnignay
makitkita
makkah
makkari
makmakan
makonstrukto
makopa
makro
makubetsu
makuna
makunkuna
mal
mala
malaanonan
malabarica
malabon
malabsanna
malabuyoc
malacca
malaccense
malaccensis
maladaga
malagasi
malagasy
malaglagip
malais
malaita
malaka
malakal
malaksid
malakula
malambo
malang
malangas
malapascua
malappedan
malaria
malas
malasin
malasiqui
malate
malaweg
malawi
malay
malaya
malayalam
malayano
malaybalay
malayic
malayiko
malayo
malaysia
malaysian
malaysio
malba
malcatop
malcolm
maldibas
maldives
male
malek
malekula
malem
malesia
malesian
malgache
mali
maliklikan
maliksi
malilipot
malinao
malindang
malindig
malita
malitbog
mall
malleostemon
mallig
mallow
malmalmeng
malo
malolos
malpas
malta
maltes
maltese
malukatan
maluku
maluom
maluto
malva
malvaceae
malvales
malvar
malvidae
malvoideae
mam
mama
mamagaan
mamalia
mamannurat
mamanwa
mamati
mamatiak
mambacayao
mambai
mambajao
mamberamo
mamburao
mambusao
mamerto
mamin
mamindua
maminsan
mamluk
mammal
mammana
mammanday
mammatek
mamuju
man
mana
manado
managan
managanan
managayat
managbalbaliw
managbaliw
managbasol
management
managrikna
managsakit
managsangaili
manakman
manalak
manalaysay
manalo
manam
manama
manambu
manamnama
manamoc
manaoag
manat
manati
manayonan
manbi
mancha
manchester
manchu
manchuria
manda
mandailing
mandalagan
mandaluyong
mandar
mandarin
mandaue
mandaya
mande
mandeb
mandela
manen
manenn
manettia
manfred
mang
manga
mangabak
mangabbong
mangal
mangala
mangaldan
mangan
mangapekto
mangar
mangaramat
mangaramid
mangareva
mangawat
mangawis
mangawit
mangay
mangaywan
mangbalbaliw
mangbaliw
mangballasiw
mangbangon
mangbeddeng
mangbigbig
mangbingay
mangbingbingay
mangbukel
mangbukelda
mangdadael
mangeg
mangga
manggarai
mangibaga
mangibagbaga
mangibalay
mangibalbalay
mangiballatek
mangibangon
mangibati
mangidadaulo
mangidagup
mangidasig
mangidaton
mangidaulo
mangidesignado
mangidutok
mangifera
mangigandat
mangigiddiat
mangikabil
mangikapet
mangikaykaysa
mangikeddeng
mangikkat
mangiko
mangiladawan
mangiladladawan
mangilaksid
mangilasin
mangilawlawag
mangilista
mangimaton
mangimpluensia
manginagan
manginayon
mangipaay
mangipablaak
mangipadayaw
mangipagulo
mangipakat
mangipakita
mangipakpakita
mangipalagip
mangipalawag
mangipalpalawag
mangipalplawag
mangipaltiing
mangipalubos
mangipan
mangipangato
mangipanggep
mangipangulo
mangiparang
mangiparit
mangipatakder
mangipatengnga
mangipatingga
mangipatudo
mangipresenta
mangiragpat
mangiraman
mangiramanda
mangiramraman
mangirangarang
mangirebbeng
mangirehistro
mangirepresenta
mangirugi
mangisalakan
mangisalumina
mangisangaili
mangisasao
mangisigurado
mangisilpo
mangisimbolo
mangisina
mangisingasing
mangisingsingasing
mangisuro
mangisursuro
mangit
mangitakder
mangital
mangitalinaay
mangited
mangitipon
mangitited
mangitudo
mangitudtudo
mangitunton
mangituray
mangiturong
mangiturturong
mangiwaras
mangiyeg
mangiyuna
mangiyunay
mangkarkulo
mangkissay
mangkita
mangkompleto
mangkonserba
manglapped
mangliklik
manglikmut
mangmangan
mangmangeg
mangmangged
mangmarka
mangngagas
mangngalap
mango
mangoro
mangpaadu
mangpabassit
mangpadas
mangpadur
mangpakabael
mangpakan
mangpakpakan
mangpalaka
mangpalikmut
mangpalubos
mangpapardas
mangparang
mangpartuat
mangpasardeng
mangpasayaat
mangpasingked
mangpataud
mangpawil
mangporma
mangpormada
mangpreserba
mangpunno
mangraut
mangrove
mangroves
mangrugi
mangrukod
mangsakop
mangsakup
mangsalaknib
mangsangaili
mangsangsangaili
mangsibog
mangsolbar
mangsukat
mangsuporta
mangsuppiat
mangsupsuporta
mangsurot
mangtagtagitao
mangtalinaay
mangtan
mangtaripato
mangtartaripato
mangted
mangtengngel
mangtimbeng
mangtulong
mangtunton
manguean
mangurnos
mangusar
mangusig
mangwaswas
mangyan
manhattan
mani
mania
manicani
manide
manie
manihiki
manihot
manila
manilal
manilkara
manipu
manipud
manipuri
maniq
manito
manitoba
mankomunidad
manmadles
manmano
mann
mannakigubat
mannalaysay
mannalon
mannaniw
mannen
manning
manns
mannurat
mannuro
manny
mano
manoa
manobo
manok
manolo
manong
mansaka
mansakan
mansanas
mansi
mansim
mansion
manso
mansur
mantauran
mantekilia
manticao
manu
manual
manubaran
manuel
manursuro
manus
manuscript
manuscripts
manuskrito
manx
many
manzanillo
mao
maori
map
mapa
mapaadu
mapabaro
mapabassit
mapagtalkan
mapagteng
mapalabas
mapalaka
mapaliiw
mapalpaliiw
mapalubosan
mapan
mapanda
mapandan
mapanuepe
mapapati
maparang
maparsua
mapartuat
mapasamak
mapasardeng
mapasayaat
mapasingkedan
mapaspasamak
mapataud
mapattapatta
mapatubo
mapawilan
mapia
mapili
mapmapa
mapmapan
maporma
mapreserba
mapropagado
maps
mapuche
mapudungun
mapukaw
mapukpukaw
mapun
mapuyot
mar
mara
maraberde
marabutit
maraderosas
maraduyaw
maragondon
marais
marakayumanggi
maralabbasit
maramaris
maramarisdapo
maramba
maran
maranalabbasit
maranan
maranao
maranha
marapuraw
marapurpura
marathi
maratimbukel
marau
marawi
marc
marcel
marcela
marcelino
marcello
marcelo
march
marcha
marchant
marcia
marco
marconi
marcos
marcus
marcy
mare
marella
margaret
margaritopsis
marginal
marginata
marginatum
margosatubig
margot
marguerite
mari
maria
marian
mariana
marianas
marianne
mariano
marias
maribojoc
maricel
marie
mariinsky
marikina
marilao
marilou
marilyn
marin
marina
marind
marinduque
marine
mariner
marinero
maring
marino
mario
marion
maripipi
maris
marisna
maritima
maritime
maritimo
marius
mariveles
marjorie
mark
marka
markes
markets
markgr
markham
marktl
marlee
marlene
marlierea
marlon
marmara
marmol
maro
marovo
marpil
marquesan
marquesano
marquesas
marquesia
marquesiko
marquez
marriage
marron
mars
marseille
marsha
marshall
marso
mart
marta
marte
martens
martes
martha
marti
martial
martigues
martin
martinez
martinique
martins
martinson
martinus
martir
martires
martius
martsa
martyn
marukod
marunggay
marvin
marx
marxism
marxismo
marxista
mary
maryland
mas
masa
masabat
masagepsep
masakbayan
masakupan
masalakniban
masam
masanay
masansan
masansana
masansanda
masantol
masao
masapul
masaraga
masarakan
masarang
masasao
masbate
masbatenio
masbuar
mascarene
masedonia
masedonio
masela
maserrekan
masetas
masetera
mashike
masida
masigurado
masimpa
masingangar
masinloc
masjid
maskara
maskelyne
masna
masoalensis
masolbar
mason
mass
massachusetts
massep
massif
masson
master
mastixiodendron
mastroianni
masubokan
masukatan
masukog
masuportaran
masurot
masurotan
mat
mata
mataengan
matag
matagtagitao
matalinaay
matalom
mataltal
matarawidwidan
mataripato
matawagan
matawtawagan
matay
matbat
matematika
matematikal
matematiko
matengngel
mateo
mater
materia
material
materiales
materialismo
materials
matgedan
mathematics
mathew
mathias
mathrm
mati
matias
matigsalug
matisse
matlin
matmatayen
matmatnag
matnag
matnog
mato
matrato
matsumae
matsumoto
matsuyama
matt
matter
matteuccia
matthew
matthews
matthias
mattos
matugotan
matungpal
matungtungpal
mau
mauban
maud
maudi
maui
maule
maulit
mauriac
maurice
mauricio
maurisio
mauritania
mauritius
maurnong
maurnos
mauro
maurya
maus
mausar
mausig
maususar
mavea
maw
mawes
max
maxim
maximilian
maximo
maxon
maxwell
may
maya
mayan
mayantoc
mayat
mayawag
mayen
mayer
maymaysa
maynard
maynila
mayo
mayon
mayor
mayorga
mayoria
mayotte
mayoyao
mayr
mays
maysa
maysan
mazaea
mazas
mazatec
mazine
mbalo
mbo
mbula
mcarthur
mcbrien
mccain
mccann
mccoy
mcculloch
mcdonald
mcdormand
mcelhanon
mcfarland
mcgill
mcgraw
mckinley
mclaglen
mcleod
mcmillan
mcmurdo
mcniven
mcpherson
mcvaugh
md
me
mea
mead
mean
meaning
mecca
mecklenburg
mecranium
med
medalia
medan
medelli
medellin
media
medibal
medica
medical
medici
medicinal
medicine
mediebal
mediebalista
medieval
medikal
mediko
medikus
medina
medinilla
medio
medisina
meditasion
mediteraneo
mediterranean
mediusella
medline
medu
meeting
mega
meghna
mehek
mehika
mehikano
mehiko
mehmed
meier
meijer
meiji
meisn
meissner
mek
meka
mekanika
mekanikal
mekaniko
mekanismo
mekeo
mekong
mel
melanau
melanesia
melanesian
melanesio
melanocarpa
melanocenchris
melastoma
melastomataceae
melayu
melbourne
melchor
melchora
mele
meliaceae
melissa
mellander
mellitus
melody
melokoton
melon
melongena
melpa
melville
melvin
memanbetsu
member
membranacea
memoir
memoirs
memorandum
memoria
memorial
memories
memory
memphis
memuro
men
mena
menashi
mendel
mendez
mendiola
mendoza
mene
meng
menghai
menghun
mengla
menor
mensahe
ment
mentawai
menzies
mer
merah
mercado
mercedes
mercer
mercosur
mercury
meri
meriam
meriania
merida
meridiano
merku
merkurio
merlie
merr
merriam
merrill
merrillii
meryl
mes
mesa
mesias
mesiko
meskita
meso
mesoamericana
mesoamerika
mesoamerikano
mesopotamia
mestiso
met
meta
metaboliko
metabolismo
metadata
metal
metaliko
metalurhia
metamorphosis
metano
metapisika
metapisikal
metazoa
meteorolohia
meteorolohiko
metmetro
meto
metriko
metro
metropolis
metropolitan
metropolitano
metrosideros
metten
meung
mexica
mexicali
mexican
mexicana
mexicano
mexico
mey
meycauayan
meyer
mez
mg
mga
mi
mia
miami
miao
mich
michael
michel
michelangelo
michele
michelle
michigan
michoaca
michx
mico
miconia
micrantha
micranthum
microcarpa
micromyrtus
micronesia
micronesian
micropholis
microphylla
microphyllum
microsoft
mid
middle
middleton
midia
midiki
midnight
midsayap
midway
mie
miembro
mien
mierkoles
miers
mifflin
mifune
mig
migne
migrante
migrasion
migrations
miguel
miho
mika
mikasa
mikawa
mike
mikhail
mikro
mikrobio
mikrobiolohia
mikronesia
mikronesio
mikroorganismo
mikroskopiko
mil
milagros
milan
milano
milaor
mildbr
mildred
mile
milenio
miles
milia
milimetro
milion
milisia
militar
militaria
military
milkwood
milky
mill
milland
miller
milleri
millet
million
mills
milmilia
milne
milo
miltar
milton
mimaropa
mimet
mimosa
mimusops
min
mina
minahasa
minahasan
minaig
minalabac
minami
minamifurano
minangkabau
minanibai
minas
mind
mindanaensis
mindanao
mindoro
mine
miner
mineral
minerales
ming
minh
minima
ministro
ministry
minminuto
minnanes
minneapolis
minnelli
minnesota
mino
minogue
minor
minoridad
minority
minus
minutiflora
minutifolia
minuto
minutos
minzu
mioseno
miq
miquelon
mir
mira
miracle
miranda
mirasol
miraya
mirbeau
miri
miriam
miro
mirror
mirtus
mis
misa
misamis
miscellaneous
miseneo
misima
mision
misionario
mismo
miss
missing
mission
missionary
mississippi
missouri
misterio
mistiko
mistral
misuari
mit
mitchell
mitchella
mitiko
miting
mito
mitolohia
mitolohiko
mitra
mitragyna
mitranthes
mitrantia
mitriostigma
mitu
miwok
mixe
mixed
mixtec
miyagi
miyake
miyako
miyazaki
miyoshi
mizuki
miłosz
mks
mlabri
mm
mmo
mnnurat
mnong
mo
moa
moaensis
moalboal
mobile
moc
moda
modal
modang
mode
model
modelo
models
moderado
modern
modernismo
modernista
moderno
moench
mogol
mogpog
mohammad
mohammed
mohan
mohandas
mohawk
mohr
moi
moines
moises
mojiang
mok
moken
moklen
mokleniko
mol
molave
molbog
moldavia
moldova
molecular
molekula
molekular
molina
molinieae
molino
mollis
mollissima
molo
molof
molokai
molotov
molucca
moluccas
mombasa
mombin
mombum
mommsen
momoko
momordica
momuna
mon
mona
monaco
monarkia
monarko
monasterio
monastiko
monath
monbetsu
moncada
mondale
monde
mondragon
monestario
mong
monghe
mongol
mongolia
mongolian
mongoliko
mongondow
monica
moniko
monitor
monitoring
monkey
mono
monochaetum
monocot
monocots
monocotyledon
monoespesipiko
monograph
monographs
monoheneriko
monolena
monolingual
monopiletiko
monosakarido
monoteismo
monoteistiko
monotes
monotipiko
monreal
monroe
monsters
mont
montalban
montana
montane
montanum
monte
montenegrino
montenegro
monterrey
montes
montevideo
montezuma
montgomery
monticola
montpelier
montrouz
montsoreau
monumbo
monument
monumental
monumento
moon
moonii
moonlight
moor
moore
moorei
mor
morado
moral
morales
moralidad
moran
moraori
moravia
morawa
more
morehead
morelos
moresby
morgan
mori
morinda
moringa
moringaceae
moriori
moritz
morley
mormon
morning
moro
morobe
morocco
morong
morotai
morphology
morphosyntax
morpolohia
morpolohiko
morris
morrison
morroa
morrow
mortal
mortalidad
mortlockes
morton
morwap
mos
mosa
mosaic
mosaiko
moschatus
moscow
moseley
moses
moseushi
moshoeshoe
mosquera
moss
most
mota
motel
mother
motion
motley
motleyana
moto
motor
motu
moulds
mouly
mount
mountain
mountaineer
mountains
mouriri
mouton
movement
movie
movies
moyen
mozambique
mozart
mozilla
mp
mr
mrs
ms
msa
msc
msn
mss
mt
mtv
mu
muak
mualang
much
muddy
mueang
muell
mueller
muenchen
muerte
mughal
muh
muhammad
muir
mukawa
mukha
mul
mula
mulanay
mulberry
muller
mulmula
multi
multiflora
multiflorum
multinasional
multiple
multiselular
multitree
mulu
mumbai
mun
muna
munda
mundari
mundial
mundo
mungay
muni
munich
municipal
municipality
municipios
munisipal
munisipalidad
munisipio
munispalidad
munro
munting
muntinlupa
munzinger
muong
mura
murad
murasaki
murcia
murder
murdong
muricata
murik
murkim
murmansk
muroran
murphy
murray
murut
murutiko
musa
musan
muscat
muscosa
muse
museo
museu
museum
museums
music
musica
musical
musicbrainz
musika
musikal
musikana
musikero
musk
muskogean
muslim
mussaenda
mussau
mustafa
musuan
mutiny
mutisii
muton
muyong
muyu
mw
mwerlap
mwesen
mwotlap
mx
my
myanmar
myint
myon
myra
myrceugenia
myrcia
myrcianthes
myrciaria
myriantha
myristicaceae
myrmecodia
myrmephytum
myrrhinium
myrsinoides
myrtaceae
myrtacearum
myrtales
myrteae
myrtella
myrteola
myrtifolia
myrtle
myrtoideae
myrtoides
myrtus
myself
myth
n
na
naabak
naabbongan
naabongan
naabongotan
naabot
naabotan
naabotna
naabungotan
naabutanna
naad
naadal
naadalan
naadalem
naadaw
naal
naala
naaladan
naalana
naalsem
naalumaymay
naam
naamammoan
naamammuan
naamamuan
naammuan
naammuanna
naampon
naan
naangep
naangot
naannad
naanus
naap
naapapgad
naapday
naapektaran
naapgad
naaprobaran
naar
naaramid
naaramiden
naaresto
naarian
naarkibo
naarmasan
naasasinado
naata
naatap
naaw
naawagan
naawanan
naawat
naawatna
nababa
nababbaba
nabaknang
nabaknnag
nabalangatan
nabalbaliwan
nabalin
nabalitokan
nabaliwan
nabaliwanen
naballigi
nabanagan
nabanglo
nabangon
nabangonen
nabara
nabas
nabasa
nabasbasa
nabatbati
nabati
nabato
nabayag
nabayagen
nabaybayag
nabeddengan
nabennebenneg
nabi
nabiag
nabibiit
nabigador
nabigasion
nabigbig
nabigbigan
nabigbiganen
nabiit
nabileg
nabilegan
nabingay
nabingbinagy
nabingbingay
nabingbingayda
nabingbingayen
nabirbirukan
nabirngasan
nabirukan
nabirukanda
nabirukanen
nabisbisita
nabisel
nabua
nabukel
nabuklan
nabulod
nabunbuntog
nabunga
nabuniagan
nabuntog
nabunturan
naburak
nabutosan
nabutusan
nacional
nacionalista
nad
nadadaan
nadadael
nadaddadael
nadaeg
nadagdagsen
nadagsen
nadakamat
nadakdakamat
nadalumpinas
nadalus
nadam
nadangran
nadaras
nadarat
nadaremdem
nadayag
nadaydayeg
nadayeg
nadidingan
nadine
nadisturbo
nadokumentuan
nadu
naduamduma
naduduog
nadukomentuan
naduktalan
naduktalanda
naduktalanna
nadumaduma
nadumduma
nadur
nadutdotan
nadutokan
nae
naeskolar
naestruktura
nag
naga
nagabak
nagabetan
nagablin
nagad
nagadal
nagaget
nagala
nagampon
nagan
naganda
naganetget
naganko
naganmo
nagann
naganna
nagannak
nagannakda
nagano
naganos
naganus
nagar
nagaramid
nagaramidda
nagarao
nagarte
nagasaki
nagassawada
nagatngato
nagato
nagay
nagayat
nagayayat
nagayus
nagbabaetan
nagbaetan
nagbalakad
nagbalbalin
nagbalbaliw
nagbali
nagbalin
nagbalinan
nagbalinda
nagbalinen
nagbaliw
nagballigi
nagbanagan
nagbanbaniaga
nagbangon
nagbanniaga
nagbasa
nagbasbasa
nagbati
nagbeddengan
nagbettak
nagbiag
nagbibingayan
nagbida
nagbilbilin
nagbilin
nagbirbiruk
nagbisbisita
nagbukel
nagbuklan
nagbulbulod
nagbutbuteng
nagbutos
nagdadael
nagdait
nagdaliasatan
nagdudua
nagdumaduma
naggappuan
naggapu
naggapuan
naggiddiatan
naggigian
naggigiddiat
naggugubat
naghurado
nagiabsaran
nagibagbaga
nagibasaran
nagidaulo
nagikkat
nagin
nagininut
nagipablaak
nagipagarup
nagipakita
nagipakpakita
nagipalawag
nagipaltiing
nagiparawad
nagipatakder
nagiraman
nagirangarang
nagirepresenta
nagisasao
nagisingasing
nagisit
nagisurat
nagisursuro
nagited
nagituray
nagiturong
nagiwangan
nagiyunayunay
nagkampania
nagkankanta
nagkarkulo
nagkaykayat
nagkaykaysa
nagkiddaw
nagkolonia
nagkontribusion
naglabanan
naglalaok
naglaon
naglayag
naglaylayag
naglukat
nagmadi
nagmarka
nagmaymaysa
nagnaed
nagnagan
nagnamnama
nagob
nagobra
nagorno
nagoya
nagpa
nagpaadu
nagpaay
nagpabalin
nagpabaro
nagpabassit
nagpabpabuya
nagpadakkel
nagpadas
nagpadpadas
nagpadur
nagpakabael
nagpakamatay
nagpanpanunot
nagpapel
nagparang
nagparawad
nagparnuay
nagparparang
nagparparawad
nagpartuat
nagparukma
nagpasardeng
nagpasayaat
nagpasingked
nagpaso
nagpataud
nagpatingga
nagpatinggaan
nagpatpataud
nagpaut
nagpili
nagpirma
nagplano
nagporma
nagprogreso
nagpukaw
nagpundar
nagpuonan
nagpur
nagpussuak
nagputot
nagrambak
nagrang
nagrangrang
nagraraem
nagraut
nagresultaan
nagretiro
nagririmpuok
nagrugi
nagrugian
nagrugrugi
nagrugrugida
nagruna
nagsabong
nagsagaba
nagsagsagaba
nagsakit
nagsanay
nagsanod
nagsansanay
nagsapata
nagsardeng
nagsasabtan
nagsasao
nagsasaoda
nagsasaruno
nagserbi
nagserserbi
nagsisina
nagsisinada
nagsubli
nagsublida
nagsubsubli
nagsukat
nagsukimat
nagsukisok
nagsuksukimat
nagsuksukisok
nagsuporta
nagsuppiat
nagsurat
nagsursurat
nagsursuro
nagtaeng
nagtaengan
nagtaengda
nagtagikua
nagtaginayon
nagtagitaoan
nagtagitaon
nagtagtagilako
nagtagtagitao
nagtakem
nagtalinaay
nagtalinaed
nagtaltalek
nagtaltalinaay
nagtartaripatu
nagtataeng
nagtataengda
nagtaud
nagtaudan
nagtaudanda
nagtaudanna
nagtaudda
nagtawen
nagtawtawag
nagtengngel
nagtengtengngel
nagtignay
nagtigtignay
nagtimbukel
nagtinnag
nagtipon
nagtipunan
nagtitimbukel
nagtitipon
nagtitiponan
nagtoktokar
nagtrabaho
nagtrabtrabaho
nagtrabtrabahoda
nagtubo
nagtuloy
nagtultuloy
nagtultuloyda
nagtungpalan
nagtunton
nagturay
nagturpos
nagturturay
nagubsang
nagudua
naguib
naguilian
nagun
nagungar
nagunggunaan
nagungunaan
nagur
nagurnong
nagurnos
nagurnosda
nagus
nagusar
nagyan
nagyanan
nah
naha
nahali
nahuatl
nai
naibaet
naibaga
naibagbaga
naibalod
naibalud
naibangon
naibasar
naibatay
naibati
naibedbed
naibeddengan
naibilang
naibilbilang
naibuklan
naic
naidangep
naidaremdem
naidasdasig
naidasig
naidasigda
naidasigen
naidaton
naidatonan
naidayegan
naidedikado
naidesgnado
naidesignado
naidesinio
naidisso
naidistrito
naidulin
naiduma
naidumaduma
naidumduma
naidutok
naie
naigagara
naigandat
naigay
naigrupo
naigrupoda
naigupit
naikabatayan
naikabil
naikabilda
naikabkabil
naikameng
naikapanunotan
naikapet
naikari
naikaskaso
naikategoria
naikaykaysa
naikeddeng
naikeddenga
naikeddengan
naikeddengda
naikeddengen
naikedeng
naikedkeddeng
naikkan
naikkanda
naikkat
naikkaten
naikodigo
naikonekta
naikonsentrado
naikuartel
naikuyog
nailadawan
nailaglagipan
nailain
nailaklako
nailako
nailaksid
nailalaok
nailangitan
nailaon
nailasin
nailasinda
nailaslasin
nailawlawagan
nailemmeng
nailenned
nailet
nailetra
nailian
nailig
nailinia
nailista
nailistada
nailustrado
naimaldit
naimas
naimbag
naimodelo
naimpluensiaan
naimpluensian
naimula
naimulmula
naimuyongan
nain
nainagan
nainaganan
nainagananen
nainaig
nainayon
naindagaan
naindaklan
naindayawan
naindayegan
naindumadumaan
naingayeman
nainget
naingpis
nainit
nainkalintegan
nainkorporado
nainlangitan
nainomido
nainominado
naipaammo
naipaatiddog
naipabasol
naipabassit
naipablaak
naipabpabuya
naipabuya
naipadakkel
naipadto
naipagarup
naipagbaliw
naipagkaykaysa
naipagpagarup
naipagpagarupan
naipagtitipon
naipagunguna
naipakasaritaan
naipakat
naipakita
naipakitan
naipakpakat
naipakpakita
naipakpatakder
naipalawa
naipalawag
naipalawagda
naipalawagen
naipalawlaw
naipaletra
naipalikmut
naipalpalawag
naipalpalawagan
naipalplawag
naipalubos
naipammadayaw
naipammadayawan
naipammategan
naipammatian
naipampamattian
naipampanunotan
naipan
naipanagan
naipanaganan
naipangato
naipangay
naipanggep
naipangpangruna
naipangruna
naipangrunaan
naipangta
naipangyababa
naipangyababaan
naipanpanunotan
naipanunotan
naipanunutan
naiparang
naiparangarang
naiparparang
naiparuar
naipasa
naipasdek
naipasngay
naipasubli
naipatakder
naipatarus
naipatarusen
naipategan
naipatengnga
naipatengngaan
naipatingga
naipato
naipatulod
naipaul
naipayammo
naipenpen
naiprenta
naipresenta
naipreserba
naipuesto
naipulang
naipundar
naipunpon
nairaman
nairamanda
nairamraman
nairangarang
nairanggo
nairegget
nairehistro
nairehistron
nairekord
naireporta
nairepresenta
nairepresentada
naireserba
nairobi
nairomanisado
nairuar
nairugi
nairuknoy
naisaad
naisagana
naisagmak
naisakup
naisalaysay
naisalaysayan
naisalsalumina
naisalumina
naisangayan
naisangayanda
naisanglad
naisangsangayan
naisangsangayn
naisangsangyan
naisangyan
naisao
naisapasap
naisapata
naisardeng
naisasao
naisasaoda
naisayangkat
naisentro
naisilpo
naisilpoda
naisina
naisingasing
naisingasingen
naisingsingasing
naisinsina
naisinsinada
naisolado
naisubli
naisuppiat
naisuppiatan
naisurat
naisuratan
naisursurat
naisursuro
nait
naitabon
naitakder
naitakderan
naital
naitalek
naitalinaay
naitalinaed
naitaripnong
naited
naitermino
naitipon
naitiptipon
naitited
naitudtudo
naitukon
naitunos
naitunton
naiturong
naiwaras
naiwarwara
naiwarwaras
naiwarwarasda
naiwarwaris
naiyakar
naiyakarda
naiyalagad
naiyalis
naiyanak
naiyaon
naiyarkibo
naiyasideg
naiyebkas
naiyeg
naiyulog
naiyumok
naiyuna
naka
nakaabot
nakaadal
nakaal
nakaala
nakaalaan
nakaammo
nakaaramid
nakaaramidan
nakaawat
nakaawatanna
nakaawis
nakabael
nakabaelda
nakabangonan
nakabingayanda
nakabiruk
nakabirukda
nakabuklan
nakadadael
nakaduktal
nakafurano
nakagawa
nakagun
nakai
nakaibatayan
nakaimpluensia
nakainaganan
nakaipakita
nakaipasngayan
nakairamanan
nakairehistro
nakairig
nakairugian
nakaisasaoan
nakaited
nakaituronga
nakaiturongan
nakaiyanakan
nakaiyeg
nakaiyegan
nakakaskasdaaw
nakakita
nakakitkita
nakalako
nakali
nakalkali
nakapabael
nakapalikmut
nakapan
nakaparang
nakaparsuaan
nakapartuat
nakapataud
nakapatay
nakappia
nakapsot
nakapsut
nakapukaw
nakar
nakarehistro
nakarga
nakarit
nakarkaro
nakarkaroda
nakarkulo
nakaro
nakaroda
nakaron
nakasagaba
nakasaksi
nakasakup
nakasanay
nakasango
nakasarak
nakashibetsu
nakatakder
nakatalinaay
nakatalna
nakatayan
nakatiponan
nakatugaw
nakatulong
nakaunget
nakayanakan
nakedngan
nakem
naken
nakersang
nakhchivan
nakhon
nakiassawa
nakibingbinglay
nakibinglay
nakibinningay
nakigayyem
nakikadua
nakilaban
nakilabanda
nakilablaban
nakisina
nakisinnupiat
nakita
nakitada
nakitana
nakitinnulag
nakitkita
nakitkitana
nakitulag
naklimatisado
nakolonisado
nakompleto
nakompletona
nakonstrukto
nakpil
nakulong
nakunkuna
nakusnaw
nakuttong
nala
nalababsit
nalabbaga
nalabbasit
naladaw
naladladaw
nalag
nalagda
nalaglagip
nalaing
nalaka
nalakada
nalaklaka
nalalaing
nalalat
nalames
nalamiis
nalamlamiis
nalamuyot
nalan
nalangto
nalappedan
nalasag
nalasbang
nalatak
nalatlatak
nalaut
nalawa
nalawag
nalawagan
nalawagda
nalawlawa
nalawlawag
nalayus
nalayusan
nalca
nalidem
nalimed
nalinak
naliniaan
nalinongan
nalinteg
nalisensiaan
nalitnaw
nalpas
nalpasna
nalugnak
nalukatan
nalukay
nalukmeg
nalukneng
naluktan
nalumotan
nalundasan
naluom
nam
nama
namaga
namagaan
namagmaga
namammoan
namarisan
namarkaan
namarsua
namatmati
namatmatian
namatmatida
nambo
nambu
name
named
names
namibia
namin
namindua
naminsan
namitlo
namla
namnama
nan
nana
nanae
nanaganan
nanak
nanam
nanamnama
nanayonan
nancy
nang
nanga
nangabak
nangabakanna
nangala
nangampon
nangamponda
nangaramid
nangasawa
nangatngato
nangato
nangaw
nangawat
nangawawis
nangbalbaliw
nangbaliw
nangbangon
nangbangonda
nangbigbig
nangbingbingay
nangbukel
nangdadael
nangibaga
nangibagbaga
nangibagbagada
nangibangon
nangibangonda
nangibati
nangidaton
nangidaulo
nangiduron
nangikabil
nangikapet
nangikari
nangikeddeng
nangikkat
nangiladawan
nangilasin
nangimaton
nangimpluensia
nangina
nanginagan
nanginayon
nangipaammo
nangipablaak
nangipadto
nangipagpagarup
nangipakat
nangipakita
nangipakpakita
nangipalawag
nangipalpalawag
nangipalplawag
nangipalubos
nangipangato
nangipangulo
nangiparang
nangiparuar
nangipasa
nangipatakder
nangipatakderda
nangipatingga
nangipatulod
nangipayammo
nangipresenta
nangiraman
nangiramraman
nangirangarang
nangirehistro
nangireporta
nangirepresenta
nangirugi
nangirugida
nangirugrugi
nangisagana
nangisilpo
nangisina
nangisingasing
nangisingsingasing
nangisit
nangist
nangisubli
nangisuppiat
nangisurat
nangisuro
nangisursurat
nangisursuro
nangit
nangitakder
nangitaktakder
nangitalinaay
nangited
nangitipon
nangitunton
nangituray
nangiturong
nangiturongan
nangiyaddang
nangiyebkas
nangiyeg
nangiyuna
nangiyunay
nanglikud
nanglukat
nangmarka
nangnangruna
nangpabassit
nangpadakkel
nangpadas
nangpakabael
nangpalikmut
nangpalubos
nangpartuat
nangpasayaat
nangpasingked
nangpataud
nangporma
nangpundar
nangrugi
nangrugian
nangrugida
nangrugrugi
nangrugrugida
nangrugrugidan
nangrugrugin
nangrun
nangruna
nangrunada
nangsakop
nangsakup
nangsangaili
nangsaruno
nangsukat
nangsukog
nangsuporta
nangsuppiat
nangsurat
nangtulong
nangunggunaan
nanipud
nanjing
nanking
nanoteknolohia
nanpo
nao
napaamo
napaay
napabaro
napabasol
napabassit
napadakkel
napadas
napadasan
napadayawan
napadsok
napadur
napagbalin
napait
napakabaelan
napalabas
napalabasen
napalaka
napaliiw
napaliiwna
napalikmutan
napalpalabas
napalpaliiw
napaltogan
napalubosan
napammadayawan
napan
napanaganan
napanawan
napanawanen
napanda
napaneknekan
napanglaw
napapatay
napapaut
napapel
naparagpagan
naparang
napardas
napardasda
naparpardas
napartuat
naparukma
napasamak
napasardeng
napasayaat
napasingkedan
napaspasamak
napatalaw
napatalgedan
napataud
napatay
napateg
napategan
napatinggaan
napaungar
napaut
napauten
napay
napayakan
napdsok
napeggad
napetsaan
napetsado
napigket
napigpigsa
napigsa
napili
napilit
napilitan
napilitda
napilpili
napino
napintas
napipia
napirmaan
napisi
naplabas
naplano
napnapan
napno
napoleon
napoleoniko
napoles
napoli
napolitano
naporma
napreserba
napu
napudno
napudot
napudpudno
napudpudot
napukaw
napukawen
napukawna
napukpukan
napukpukaw
napundar
napunno
napuoran
napusasaw
napusek
napusgan
napuskol
napuspusasaw
naputed
naqada
nara
naragsak
narakrak
naramen
narang
naranggas
narangha
naraniag
naranraniag
narapis
nararaeman
narasay
naratibo
naraut
narciso
narebba
naregget
narigat
narikepan
narikpan
narikut
narin
naririmpuok
nariro
naro
narom
narra
narrative
narugian
narugit
naruhito
narukod
narukop
narunaw
narungsot
narusanger
narvacan
nasa
nasadiwa
nasagepsepan
nasakbayan
nasakop
nasaksian
nasakupan
nasal
nasalakniban
nasalaysayan
nasalun
nasam
nasamek
nasanay
nasangaan
nasansanay
nasantuan
nasao
nasap
nasapa
nasapsapa
nasapsapasap
nasarakan
nasaririt
nasayaat
nasayaatda
nasaysayaat
nasekka
naserbi
naserraan
nash
nashville
nasi
nasiitan
nasikkil
nasiksikan
nasilawan
nasileng
nasimpa
nasion
nasional
nasionalismo
nasionalista
nasipnget
nasirib
nasirmata
nasken
naskenda
nasolbar
nasolbarthe
nasubokan
nasudi
nasugatan
nasugbu
nasukatan
nasukatanen
nasukisok
nasukog
nasuksukimat
nasuportaran
nasuppiatan
nasurok
nasursurok
nasursuruan
nat
natadem
nataengan
natagtagitao
natakneng
natal
natalged
natalie
natalinaay
natalinaed
natalna
nataltalon
natan
natangken
nataoran
natarikayo
natartaraken
natartaripato
natasha
natawidna
natawtawagan
natay
natayag
natayen
nataytayag
nateng
natengngel
natengtengngel
nathaniel
natib
natibker
natibo
natidda
natiempuan
natiliw
natiliwna
natimbeng
natimbengan
nation
national
nationale
nationalism
nationalismo
nationalista
nationalities
nations
natirad
natituloan
natituluan
native
natividad
natnag
natnatay
natnateng
nato
natrato
natte
natu
natubbog
natukaktukak
natuktokan
natuna
natunaw
natungpal
natunton
natura
naturae
natural
naturalis
naturalisado
naturalismo
naturalista
naturay
naturayan
nature
natured
naturelle
naturikan
nau
nauclea
naucleeae
naud
naudi
naudin
naududi
naueti
naujan
naulimek
naulit
naumnong
naun
nauneg
naungaw
naungawen
naur
nauram
nauratan
naurnong
naurnos
naurnosda
nauru
naus
nausar
naususar
nautika
nautikal
navajo
naval
navarro
navas
navigation
navotas
navy
naw
nawara
nawaswas
nawatiwat
nawatwatiwat
naway
nawaya
nawayaan
nawayada
nay
nayanak
nayar
nayarit
nayelo
nayentablado
naynay
nayon
nayoro
nazca
nazi
nb
nc
ncbi
nchen
nchez
ncipe
ncr
nct
nd
nda
nde
nden
ndez
ndu
ndumut
ne
nea
neal
neanderthal
near
nebraska
nebulosa
neck
nectaries
ned
nedebang
nederland
nees
negatibo
negeri
negm
negosasion
negosiante
negosio
negrito
negritos
negro
negros
negrosensis
nehan
nehru
neil
neill
nektar
nelly
nelson
nematopoa
nemi
nemuro
nen
neo
neofabricia
neolamarckia
neolemonniera
neolitiko
neomitranthes
neomura
neon
neonauclea
neotropikal
neotropiko
nepal
nepali
nepenthes
nepnep
nepomuk
neptuno
nerbios
neri
neriifolia
nertera
neruda
nervosa
nery
nesoluma
nesom
nesperos
nest
nestor
net
netherlands
nettle
network
neucha
neue
neumann
neurocalyx
neurona
neutral
neutron
nevada
never
neverland
neville
new
newari
newell
newfoundland
newman
news
newsletter
newton
next
neyraudia
nez
ng
nga
ngaidiay
ngaju
ngamin
ngan
ngana
ngarab
ngarud
ngata
ngato
ngatona
nge
ngel
ngem
ngen
nghe
nghie
ngimmato
ngina
ngipen
ngiwat
ngo
ngu
ngumatngato
ngumato
nguo
nguye
nguyen
nh
nha
nho
ni
nia
nias
nic
nica
nicaragua
niccolo
nice
niche
nicholas
nicholson
nick
nico
nicobar
nicobares
nicobarese
nicola
nicolaas
nicolas
nicolaus
nicole
nicolson
nicosia
nie
niebe
niedenzu
niels
nielsen
niemeyera
nietzsche
nieuw
nieves
niger
nigeria
nigerica
niggle
night
nighthawk
nightshade
nigrescens
nigricans
nigrum
nih
nihon
nii
niigata
niikappu
nijhoff
nika
nikel
niki
nikitin
nikola
nikolai
nikolaus
nila
nile
niles
nilo
nils
nilsson
nimboran
nimo
nimoy
nin
nina
ninaganan
ninagananda
ninagananna
nine
ningming
ninka
ninoy
nio
niog
nipas
nippon
nir
niro
nisasao
niseko
nishi
nisshin
nitida
nitrato
nitroheno
niuafo
niuano
niuatoputapu
niue
niuean
nivea
niven
nixon
nj
njaro
nkr
nkrumah
nl
nm
nmnh
nn
nnagruna
no
noa
noaa
noah
nob
nobel
nobela
nobelana
nobelista
nobelprize
nobiembre
nobilidad
noble
nobleza
nobonob
noche
nodo
noe
noel
noemi
noi
nolasco
noli
nolledo
nom
noma
nomad
nomadiko
nomenclature
nomenklatura
nominado
nominal
nominasion
nomination
nominum
non
none
nong
nonilon
noon
nor
nora
norbert
nord
nordiko
norfolk
noriega
norma
normal
normale
norman
normandia
normando
noronha
norquest
norsk
norte
north
northampton
northeast
northeastern
northern
northia
northwest
northwestern
norton
norway
norwega
norwegian
norwego
norzagaray
nos
noss
nostolachma
not
nota
notasion
note
notes
nothing
nothofer
notice
notion
notizblatt
notoc
notre
notsuke
noume
nouvelle
nov
nova
novae
novaliches
novaya
novel
novela
noveleta
november
novicio
noviembre
novo
novon
now
np
nr
nrcs
nri
nsw
nt
ntgen
nther
nti
ntico
ntore
nu
nuang
nubia
nuclear
nuea
nues
nuestra
nueva
nuevo
nui
nuklear
nukleiko
nukumanu
nukuoro
num
numa
numancia
numata
numbami
number
nume
numeral
numeriko
numero
numfor
numnumero
numugen
nun
nunavut
nung
nunungan
nuosu
nupay
nuqui
nur
nuremberg
nurunor
nusa
nussbaum
nut
nutans
nutrision
nuts
nutt
nuttall
nuwas
nuytsia
nvm
ny
nya
nyah
nyaheun
nyanja
nyao
nyindrou
nynorsk
nyungan
nz
nzeler
nær
næss
o
oahu
oak
oakland
oas
oaxaca
oay
ob
obama
obando
obi
obihiro
obira
obispo
obituario
obituary
object
oblast
obligasion
oblongifolia
oblongifolius
obokuitai
obovata
obra
obrada
obrana
obscurum
obserbasion
obserbatorio
observations
observatory
observer
obtusa
obtusifolia
ocampo
occidental
occidentale
occidentalis
occitan
occur
ocean
oceania
oceanic
oceaniko
oceans
och
ochracea
ochrosperma
oclc
octandra
octave
octavio
october
octotropideae
od
oda
odan
odanna
odda
ode
odi
odia
odiongan
odisha
odna
odontosoria
odorata
odore
odyssey
oecd
oed
oesoe
of
off
office
official
officinalis
oficial
ofisial
often
og
ogasawara
ogea
oh
ohio
oi
oil
oirata
ois
oiti
oiwake
ojeda
ojibwa
ok
okasion
okayama
oketo
okhotsk
oki
okinawa
oklahoma
okra
okrug
oksapmin
oksido
oksiheno
oksitano
okt
oktubre
okushiri
ol
ola
olac
olan
olanda
olande
olandes
olav
olaya
old
oldenlandia
oldenlandiopsis
ole
oleifera
olga
oliba
oligantha
oligoseno
oligostachyum
olimpia
olimpiada
olinia
oliniaceae
oliv
olive
oliveira
oliver
oliveriana
olivia
olivier
olmec
olo
olof
olongapo
olrat
olson
olutanga
olympia
olympic
om
oman
omar
omnia
omniglot
omsk
on
ona
onard
once
one
ones
ong
ongensis
onin
online
only
ono
onoclea
onocleaceae
onocleopsis
onofre
onsen
ontario
ontolohia
ontong
onuevo
onwards
oo
op
opec
open
opening
openstreetmap
opera
operasion
operating
opercularia
operculata
ophile
ophiorrhiza
opinion
opisal
opisial
opisialda
opisian
opisina
opisio
opisthokonta
opold
opoldville
oposision
oppenheimer
oppositifolia
opsial
opsina
optika
optikal
opurtunidad
opus
or
ora
orador
oral
orang
orange
oras
orchidaceae
orcid
order
orders
ordinansia
ordinario
ore
oregon
org
organiko
organisasion
organisation
organised
organismo
organista
organization
organo
orhan
ori
orient
oriental
orientale
orientalis
orientasion
orientation
oriente
origin
original
origins
orihinal
orinoco
oriole
orion
orissa
oriya
orkestra
orkidia
orlando
orleans
ormoc
ornamental
oro
orokaiva
oromo
oroquieta
orphe
orr
orsini
ortega
orthodoxia
ortigas
ortiz
ortodokso
ortograpia
ortograpiko
orwell
orya
oryza
oryzoideae
os
osa
osage
osaka
osbeckia
osborn
osbornia
oscar
osce
oseaniko
oseanograpia
oseanograpiko
osetia
oshamambe
oshima
osing
oskar
oslo
oslob
osman
osmanlı
osmen
osmena
osmond
oso
osos
ospital
ossaea
ost
ostapirat
osten
ostrogodo
oswald
ot
otakebi
otaru
otel
other
others
oti
oto
otobe
otofuke
otoineppu
otomano
otomi
otonio
ottawa
otto
ottoman
otwock
ou
ouachitana
ouest
our
out
outline
ouve
ovalifolia
ovata
ovejas
over
overlook
overview
ovidio
owa
owen
owenno
owl
own
oxalidales
oxford
oxyanthus
oy
oya
oz
ozamis
ozamiz
p
pa
paa
paama
paammo
paano
paaweng
paay
pablaak
pablaakna
pablo
paborito
pabrika
pabuya
pabuyana
pachom
pachuca
pachycentria
pachyphylla
paciano
pacific
pacifico
pacino
pacita
packard
pacmad
paco
pacoh
pacquiao
padang
padi
padilla
padios
padoe
padre
padto
padua
pae
paederia
paet
paete
pag
pagabetan
pagadalan
pagadian
pagalagadan
pagaliwaksayan
pagan
pagangayan
pagannurotan
pagano
pagaraban
pagaramidan
pagarian
pagarigan
pagasa
pagatianan
pagaw
pagawisan
pagay
pagayusan
pagayusanna
pagbaetan
pagbaetanda
pagbalayan
pagbaliwen
pagballasiwan
pagbaludan
pagbanagan
pagbasabasa
pagbatokan
pagbatuan
pagbeddenagn
pagbeddengan
pagbeddenganna
pagbiagan
pagbibingayan
pagbilangan
pagbilao
pagbuyaan
pagdagusan
pagdalanan
pagdumadumaan
pagduyosan
page
pages
paget
paggatangan
paggatasan
paggiddiatan
paggidiatan
paggigiddiatan
pagi
pagibasaran
pagibatayan
pagiddiatan
pagidulinan
pagigiddiatan
pagikabilan
pagilian
pagilianda
pagilianna
pagimbagan
pagipablaakan
pagipardasan
pagipenpenan
pagiwarnak
pagkalapan
pagkapat
pagkatlo
pagkawalo
paglabsan
paglaglagipan
paglakkuan
paglakuan
paglalakbay
paglanguyan
paglappedan
paglasatan
paglayusan
pagliklikmutan
paglinglingayan
paglinongan
pagliwliwaan
pagluganan
pagmalditan
pagminaan
pagnaan
pagnaedan
pagnanaedan
pagobraan
pagorasan
pagos
pagpaatiddog
pagpadaan
pagpagarian
pagpagilian
pagpasiaran
pagpatayaban
pagpatinggaan
pagpilian
pagresultaan
pagrugian
pagsaadan
pagsaao
pagsabtan
pagsammakedan
pagsangladan
pagsanjan
pagsapulan
pagsapulanna
pagsardengan
pagsasabtan
pagsasao
pagsasaoa
pagsasaoda
pagsasaona
pagsasarunuan
pagsaso
pagserrekan
pagsiapingan
pagsisinaan
pagssao
pagsubokan
pagsukisokan
pagsurotan
pagtaengan
pagtaenganda
pagtaenganna
pagtagilakuan
pagtalkan
pagtalonan
pagtan
pagtaudan
pagtayaban
pagtayyekan
pagtayyekanna
pagtengngaan
pagtitinnulongan
pagtonoyan
pagtrabahuan
pagtubuan
pagtuladan
pagtumpongan
pagtungpalan
pagtunosan
pagturayan
pagturogan
pagtutumpongan
pagudpud
pagurnongan
pagyanan
pahanan
pahang
pahlavi
pahoturi
pai
paici
pairs
paisano
paitaniko
paiwan
pak
pakaaammo
pakaaamo
pakaammo
pakaamo
pakaaramidan
pakabilangan
pakabirukan
pakabuklan
pakadanagan
pakaibatayan
pakaibilangan
pakaidumaan
pakaigiddiatan
pakaikabagian
pakaikapetan
pakailasinan
pakailawlawagan
pakailiddingan
pakaimatangan
pakaipakatan
pakairamanan
pakaitunosan
pakaiturongan
pakakitaan
pakalaglagipan
pakan
pakaniko
pakasarakan
pakasaritaan
pakasaritaanna
pakasritaan
pakatengngaan
pakauna
pakbo
pakbu
pakdaar
pakil
pakinakem
pakipagilian
pakisinnaritaan
pakistan
pakitinnarusan
pako
paktor
paktoria
paku
pakultad
pal
palace
palaeontology
palakpakin
palanan
palanca
palaquium
palasan
palasio
palau
palauano
palaui
palauig
palaung
palaungic
palaungiko
palawan
palawano
palayan
pale
palembang
paleolitiko
paleoseno
palestina
palestrina
palgrave
pali
palicourea
palikmutan
palikmutanna
palisot
pallang
pallava
pallens
pallida
palm
palma
palmar
palmas
palmato
palmer
palmeri
palmito
palmitos
palmyra
palo
palompon
palso
paltat
paltiing
paltog
paltrow
palu
paluan
paludosa
palumbanes
palustris
pam
pama
pamanunotan
pamay
pambansa
pamela
pamili
pamilia
pamiliada
pamilian
pamiliana
pammabasol
pammadayaw
pammadayawna
pammalagip
pammalubos
pammasingked
pammati
pammatina
pammigbig
pamona
pampam
pampanga
pampanid
pamplona
pamuk
pamunganayan
pamuspusan
pan
pana
panabo
panag
panagabanse
panagabel
panagabuso
panagad
panagadadal
panagadal
panagadalna
panagakar
panagala
panagalagad
panagampon
panaganges
panaganup
panagapit
panagarado
panagaramid
panagarte
panagasawa
panagawan
panagawat
panagay
panagayat
panagayatna
panagayos
panagayus
panagayusna
panagaywan
panagbalbaliw
panagbalikuskos
panagbalin
panagbaliw
panagballasiw
panagballigi
panagballigina
panagbanbaniaga
panagbanbaniagana
panagbanbanniaga
panagbangbangon
panagbangon
panagbaniaga
panagbanniaga
panagbanniagana
panagbasa
panagbatok
panagbawbaw
panagbayad
panagbettak
panagbettakna
panagbiag
panagbiagna
panagbiahe
panagbidana
panagbilang
panagbilbilang
panagbingbingay
panagbiruk
panagbisita
panagbisitana
panagbitay
panagbomba
panagbubutos
panagbuis
panagbulbulod
panagbulod
panagbutbuteng
panagbutbutos
panagbutos
panagbuya
panagdadael
panagdakkel
panagdal
panagdaliasat
panagdalus
panagdengngeg
panagdillaw
panagdinnungpar
panagdudua
panagduduma
panagduktal
panagdumaduma
panagdungpar
panagdur
panagdusa
panaggatang
panagggunay
panaggigiddiat
panaggun
panaggunay
panaggundaway
panaggungunay
panagguyod
panagibagbaga
panagikeddeng
panagikkat
panagiladawan
panagilasin
panagilawlawag
panagiletra
panagin
panaginagan
panaginana
panaginnala
panagipablaak
panagipadas
panagipadpada
panagipagarup
panagipagpagarup
panagipalawag
panagipalpalawag
panagipalpalawagan
panagiparit
panagipatakder
panagipatarus
panagipenpen
panagirangarang
panagisao
panagisuro
panagisursuro
panagited
panagitudo
panagiyallatiw
panagiyebkas
panagkabagian
panagkakabagian
panagkalap
panagkalay
panagkali
panagkalkali
panagkallaysa
panagkanaig
panagkanta
panagkarkulo
panagkayat
panagkaykaysa
panagkita
panagkodigo
panagkolonia
panagkonstrukto
panagkrusada
panagkukua
panagkukuana
panagkuna
panagkuti
panaglabas
panaglabsing
panaglagip
panaglaglagip
panaglaklako
panaglako
panaglalaban
panaglalam
panaglalaok
panaglapped
panaglasat
panaglayag
panaglayus
panagliklikmut
panaglikud
panagliwliwa
panagluas
panaglugan
panaglukat
panaglunag
panaglungsot
panagluto
panagmaneho
panagmarka
panagmartsa
panagmina
panagmula
panagnagan
panagnayon
panagniebe
panagobra
panagpaadu
panagpaamo
panagpababa
panagpabaro
panagpabasol
panagpabassit
panagpabpabuya
panagpabuya
panagpabuyana
panagpadakkel
panagpadas
panagpadur
panagpalaka
panagpalawag
panagpaliiw
panagpalpaliiw
panagpalpalikmut
panagpalpaliwa
panagpaltog
panagpanday
panagpangato
panagpanpanunot
panagpapada
panagpapatay
panagpapigsa
panagparang
panagparangna
panagparnuay
panagpartuat
panagparuar
panagparukma
panagpasardeng
panagpasayaat
panagpasiar
panagpasingked
panagpatakder
panagpataray
panagpataud
panagpatay
panagpatayab
panagpatingga
panagpattapatta
panagpatubo
panagpawil
panagpili
panagpinta
panagpirma
panagplano
panagporma
panagpreserba
panagproseso
panagpudot
panagpukan
panagpukaw
panagpukpukan
panagpuor
panagpussuak
panagraem
panagrakit
panagrang
panagrangrang
panagraraem
panagraraut
panagrason
panagraut
panagrebba
panagrehistro
panagrengngat
panagrepaso
panagreporma
panagrikna
panagriringgor
panagrugi
panagrugit
panagrukma
panagrukod
panagsabong
panagsagepsep
panagsagsagaba
panagsakop
panagsakup
panagsalaknib
panagsalisal
panagsaludsod
panagsanay
panagsanayna
panagsanglad
panagsansanay
panagsao
panagsardeng
panagsarsaruno
panagsasao
panagsasarungkar
panagsasaruno
panagsenial
panagserbi
panagserrek
panagsibog
panagsiim
panagsikog
panagsilaw
panagsimpa
panagsina
panagsinnaranay
panagsinnukat
panagsirmata
panagsisiim
panagsisina
panagsisinnaruno
panagsubli
panagsubok
panagsuek
panagsukat
panagsukimat
panagsukisok
panagsukisokna
panagsuko
panagsukog
panagsuksukimat
panagsuksukisok
panagsungbat
panagsupiat
panagsuporta
panagsuppiat
panagsuppiatna
panagsurat
panagsuratna
panagsurot
panagsursurat
panagsusulbod
panagsusuldong
panagsusuppiat
panagtaeng
panagtagabu
panagtagikua
panagtagilako
panagtagtagilako
panagtagtagitao
panagtakem
panagtalaw
panagtalek
panagtalinaay
panagtalon
panagtaltalon
panagtangar
panagtaraken
panagtarikayo
panagtaripato
panagtaripatu
panagtawag
panagtawid
panagtayab
panagtayyek
panagtayyekna
panagtengngel
panagtignay
panagtimbeng
panagtipon
panagtitinnulong
panagtitinnulongan
panagtitipon
panagtrabaho
panagtubo
panagtudo
panagtudtudo
panagtulong
panagtultuloy
panagtungpal
panagtunton
panagturay
panagturayna
panagturpos
panagturturay
panagtutudo
panagungar
panagur
panagurnong
panagurnos
panagus
panagusar
panagusarna
panagusig
panagwayawaya
panagwayawayas
panagwaywayas
panagyaman
panagyelo
panagyot
panahon
panaka
panakaabak
panakaala
panakaammo
panakaapday
panakaaramid
panakaawat
panakabangon
panakabingbingay
panakabutos
panakadadael
panakaduktal
panakaidasig
panakaikabil
panakailasin
panakaimatangan
panakaipalpalawag
panakaipangato
panakaipasngay
panakaipasngayna
panakaipatarus
panakairaman
panakaiwarwaras
panakakita
panakalpas
panakapaay
panakaparnuay
panakapartuat
panakapukaw
panakarebba
panakasanay
panakatnag
panakawaya
panakawayawaya
panakibiang
panakisinnukat
panama
panamao
panamensis
panangabak
panangabakna
panangagas
panangala
panangawat
panangibaga
panangibagbaga
panangibalikas
panangibaliw
panangibangon
panangidasig
panangidasigna
panangidaulo
panangidaulona
panangidutok
panangigatad
panangigawid
panangigiddiat
panangigrupo
panangikabil
panangikapet
panangikaskaso
panangikaykaysa
panangikeddeng
panangiladawan
panangiladawanna
panangilaglagip
panangilasin
panangilawlawag
panangiletra
panangimapa
panangimaton
panangimuyong
pananginagan
pananginayon
panangipablaak
panangipada
panangipadas
panangipagarup
panangipakat
panangipakita
panangipalawag
panangipalpalawag
panangipalplawag
panangipapelna
panangipatakder
panangipatarus
panangipateg
panangipatingga
panangipatungpal
panangipetsa
panangiragpat
panangiraman
panangirangarang
panangiranggo
panangirepresenta
panangisagana
panangisao
panangisilpo
panangisina
panangisinnukat
panangisubli
panangisuro
panangisursuro
panangital
panangited
panangitipon
panangituray
panangiturong
panangiyaddang
panangiyakar
panangiyammo
panangiyaon
panangiyasping
panangiyebkas
panangiyuna
panangiyunay
panangpaandar
panangprograma
panangrugi
panangsakup
panangungar
panaon
panaras
panasuan
panatar
panateng
panawen
panawenna
panay
pandacan
pandan
pandanan
pandek
pandemia
pandi
pandin
paneknek
pang
panganan
panganiban
pangantucan
pangarap
pangasinan
pangasinense
pangbiruk
panggep
panggepen
panggepna
pangibalayan
pangil
pangilasin
pangileppas
pangiyunaan
panglaglagip
panglao
panglapped
panglima
pangmarka
pangnagan
pangngagas
pangpelikula
pangrabii
pangrugian
pangsandi
pangsandida
pangsandina
pangsangladan
pangsaruno
pangsukat
pangsukisok
pangsuldong
pangsuporta
pangta
pangtelebision
panguartaan
panguil
pangulo
pangutaran
pangyababaan
pangyuna
paniai
paniculata
paniculatum
panid
panikula
panirigan
panitan
panlalawigan
panlungsod
pannagidasig
pannagipagarup
pannagna
pannaka
pannakaabak
pannakaadipen
pannakaala
pannakaalis
pannakaallilaw
pannakaammo
pannakaammona
pannakaamo
pannakaampon
pannakaapday
pannakaaprobar
pannakaaramid
pannakaawan
pannakaawat
pannakaawatna
pannakabagi
pannakabagina
pannakabalbaliw
pannakabalikas
pannakabalin
pannakabalud
pannakabangon
pannakabangonna
pannakabigbig
pannakabingay
pannakabingbingay
pannakabiruk
pannakabukel
pannakabutos
pannakabutosna
pannakadadael
pannakadisturbo
pannakadlaw
pannakaduktal
pannakaduktalna
pannakagun
pannakaibaga
pannakaibagi
pannakaibalikas
pannakaibatay
pannakaidasig
pannakaidasigna
pannakaiduma
pannakaidumduma
pannakaidutok
pannakaigiddiat
pannakaigrupo
pannakaikabagian
pannakaikabagianna
pannakaikabil
pannakaikameng
pannakaikapet
pannakaikapetna
pannakaikaskaso
pannakaikeddeng
pannakaikkat
pannakailadawan
pannakailasin
pannakailetra
pannakailinia
pannakailista
pannakaimatangan
pannakaimpluensia
pannakaimuyong
pannakainagan
pannakainaig
pannakaipabassit
pannakaipablaak
pannakaipada
pannakaipadana
pannakaipakat
pannakaipakita
pannakaipalawag
pannakaipalpalawag
pannakaipalplawag
pannakaipan
pannakaipangato
pannakaipasa
pannakaipasngay
pannakaipasngayna
pannakaipatakder
pannakaipatarus
pannakairaman
pannakairamanna
pannakairangarang
pannakairanggo
pannakairuar
pannakaisalakan
pannakaisalumina
pannakaisanga
pannakaisangayan
pannakaisilpo
pannakaisina
pannakaisinsina
pannakaisubli
pannakaisurat
pannakaited
pannakaitunos
pannakaiwaras
pannakaiwarwaras
pannakaiwarwarasna
pannakaiyakar
pannakaiyallilaw
pannakaiyammo
pannakaiyasideg
pannakakita
pannakalagip
pannakalpa
pannakalpas
pannakapaay
pannakapaayna
pannakapalpalawag
pannakaparang
pannakapartuat
pannakapasamak
pannakapasayaat
pannakapasingked
pannakapatay
pannakapirma
pannakapisi
pannakaporma
pannakapukaw
pannakapundar
pannakapundarna
pannakarebba
pannakasanay
pannakasapul
pannakatay
pannakatiliw
pannakatnag
pannakatunaw
pannakaturay
pannakaumili
pannakaungaw
pannakaurnos
pannakausar
pannakausarna
pannakawaswas
pannakawaya
pannakawayana
pannakawayawaya
pannakbagi
pannakiasawa
pannakiasawana
pannakibiang
pannakibiangna
pannakibinag
pannakibingay
pannakibinglay
pannakigayyem
pannakigubat
pannakigubatan
pannakikabagian
pannakikadua
pannakikumplot
pannakilaban
pannakilablaban
pannakisarita
pannakisina
pannakisinnarita
pannakisinnukat
pannakitignay
pannangan
pannkaduktal
pannkaipatarus
pano
panorama
panoramiko
panoramio
panpanawen
panpantok
pansipit
pantabangan
pantalan
pantaleon
pantao
pantar
pantasia
panteon
panthera
pantok
pantokna
pantropikal
panukulan
panungpalan
panunot
panunotna
pao
paoay
paolo
paombong
papa
papael
papanan
papel
papeles
papelna
paper
paperback
papers
papi
papiamentu
papillosa
papiro
papora
pappapel
papua
papuan
papuana
papuano
papuasia
papyraceum
papyrus
paquiao
par
para
paracale
parada
parade
paradigma
paradise
paradisec
paragonis
paragpag
paraguay
parai
paraigid
paraiso
parakad
paralahe
paralelo
paramore
paramount
paran
parana
paranan
parang
parangan
paranses
parapiletiko
parashorea
parasitiko
parawad
parbo
pardas
pardo
pare
paredes
pari
paria
parikut
paris
parish
park
parke
parker
parkinson
parks
parlamentario
parlamento
parmasiotiko
parokia
parokpok
parsua
part
parte
parteda
partena
partido
partidona
parties
partikula
partikular
parto
parts
party
parviceps
parviflora
parvifolia
parvipetala
pas
pasacao
pasahe
pasahero
pasakbay
pasamak
pasaporte
pasar
pasaruno
pasasao
pasay
pasayan
pascal
pascale
pascua
pascual
pasdek
paseo
paset
pasetna
pashto
pasi
pasiente
pasig
pasil
pasilidad
pasingkedan
pasion
pasipiko
pasismo
pasista
paskua
paskuas
paso
pasonanca
pasong
paspasamak
paspaset
pass
passage
passi
passim
passion
past
pastazana
pasteur
pastor
pastoral
pastrana
pasts
pat
pata
patagonia
patakder
patani
patapat
patarus
patatas
pataud
patauden
patay
pateg
pategna
patens
paterno
paternoster
pateros
paterson
pati
patinayon
pating
patingga
patinggana
patingnga
patnanungan
patneng
patnenng
pato
patoc
patpatar
patria
patriarka
patriarko
patricia
patrick
patrickiae
patriota
patriotic
patriotiko
patrologia
patron
patronna
pattani
patubo
pau
pauciflora
pauciflorum
paul
paula
pauline
paulo
paulus
pauridiantha
pausinystalia
pauwasi
pav
pavarotti
pavel
pavetta
pavetteae
pavia
pavo
pavonia
pawaia
pawikan
pawley
pay
paya
payak
payap
payen
payena
payne
payo
pays
paz
pazeh
pb
pbs
pdf
pdp
pe
pea
peabody
peace
peak
peakbagger
pear
peariko
pearl
pearson
peb
pebrero
pechora
peck
pedal
pedaso
pederado
pederal
pederala
pederasion
pedicellata
pedra
pedro
peduncularis
pedunculatus
pedunkulo
peel
peggad
pegges
pei
peiros
pelaez
pelagio
pele
pelicula
pelikula
pelikulana
pellegr
peltata
peminista
pen
penaeaceae
penal
penama
penan
penang
pendidikan
penduduk
pendula
penduliflora
penguin
penh
penicillata
peninsula
peninsular
penisia
penisilina
penisio
penn
penned
pennington
pennoyer
pennsylvania
penny
penomena
penomeno
penrhyn
pentachlaena
pentagonia
pentandra
pentanisia
pentarhizidium
pentas
pentecost
pentecosta
people
peoples
peopling
pepin
pepino
per
perak
peralta
perama
peras
percent
percha
percy
peregrina
peregrinasion
peregrino
pereira
perenial
perennial
perez
perfect
perhaps
pericalymma
period
periodiko
periplus
perkins
perlas
permanent
permanente
permanently
pernambuco
pero
peroe
perokaril
perpekto
perpendikular
perpusilla
perr
perrie
perrier
perrieri
perrierodendron
perrokarril
perry
pers
perse
perseus
persia
persian
persiano
persica
person
persona
personal
personalidad
personalidadna
perspective
perspectives
perspektibo
perss
perth
peru
peruvian
peruviana
pesiolo
peste
pet
petalio
petalo
pete
peter
peters
petersburgo
petersen
peterson
petiolaris
petiolata
petit
petrie
petrolio
petrus
petsa
peuple
pez
pfefferkorn
pfeiffer
pfeil
pflanzen
pflanzengeographie
pflanzengeschichte
pg
ph
pha
phai
phaidon
phainantha
phan
pharus
phaseolae
phaseoleae
phaseolus
phay
phd
phe
phenix
phi
phialanthus
phil
philadelphia
philip
philipe
philipp
philippe
philippensis
philippica
philippine
philippinensis
philippines
phillip
phillips
philology
philosophical
philosophy
phivolcs
phnom
pho
phoenix
phon
phone
phonemes
phonetic
phonetics
phong
phonological
phonology
photo
photos
php
phra
phragmites
phraya
phu
phuan
phuket
phyllis
phylogenetic
phylogenetics
phylogeny
phylohydrax
phylum
physical
physics
phytographiae
phytologia
phytotaxa
pi
pia
piaf
piagapo
pianista
piano
pianoforte
piansa
piat
piawi
picasso
pichay
pichinchensis
pickford
pico
picramniales
picture
pictures
pidal
piddig
pidgin
pie
pieces
piemonte
pier
pierce
pierre
piesta
pieta
pieter
pietro
pig
piglat
pigsa
pigura
pii
pijin
piksion
pila
pilamento
pilantropo
pilar
pilbara
pileanthus
pileni
pilg
pili
pilid
pilidiostigma
pilipinas
pilipino
pilly
pilo
pilohenetika
pilohenetiko
pilohenia
piloheniko
pilohenio
pilologo
pilosa
pilosopia
pilosopiana
pilosopiko
pilosopo
pilot
piloto
pimenta
pimentel
pimmanaw
pimmardas
pimmatay
pimmusay
pimusay
pin
pinadakkel
pinadasna
pinadur
pinagadal
pinagtipon
pinagtitipon
pinai
pinakbet
pinalubosan
pinanaganan
pinanawan
pinanawanda
pinanawanna
pinansia
pinarang
pinarmek
pinarnuay
pinartuat
pinartuatna
pinarukma
pinarukmana
pinasia
pinasingkedan
pinataud
pinatay
pinatayna
pinatinggaan
pinatpataray
pinatubo
pinay
pindar
pinduten
pine
pineda
ping
pingir
pinguino
pinia
pinifolia
pinili
pinilina
pinintaan
pinintaanna
pinirmaan
pink
pinlandes
pinlandia
pinnado
pinnata
pino
pinorma
pinoy
pinta
pintas
pinter
pinto
pintor
pintura
pintuyan
pinukpuk
pinundar
pinundarna
pinus
pinyin
pio
piojo
pionero
piper
piperales
piptophyllum
pirak
piramida
pirandello
piraso
pirata
pires
pirgis
pirma
piroklastiko
piru
pisa
pisano
pisi
pisika
pisikal
pisiko
pisin
pisiograpiko
pisiolohia
pisisista
piskel
pison
pisos
pit
pita
pitak
pitcairn
pitcher
pithecellobium
pitman
pito
pitogo
pitta
pittayaporn
pittayawat
pittier
pittieri
pittsburgh
pizarro
pl
place
placer
places
plain
plains
plaka
plan
planch
planchon
planchonella
planck
planet
planeta
planetario
planning
plano
planona
plant
planta
plantae
plantarum
plantas
plantasion
plantes
plantnet
plants
plaridel
plasma
plastik
plata
plataporma
plate
plath
platino
plato
platyphylla
play
playa
plaza
plebesito
plebisito
pleistoseno
pleurocalyptus
plinia
pliny
plocama
plota
plotarea
plotdata
plum
pluma
plural
plus
pluta
pluto
pm
pmc
pmp
pnawen
png
pngsl
po
poa
poaceae
poales
pob
poblacio
poblacion
pocdol
pocket
pod
podgorica
podlaska
podlaski
poe
poem
poemas
poems
poepp
poet
poetiko
poetry
poets
pogaya
pohala
pohl
pohnpei
pohnpeiano
point
poir
poitier
pol
pola
polako
polangui
polar
polbora
pole
polemoniaceae
polen
policarpo
police
policy
polieto
polikal
polillo
polimero
polinador
polinasion
polinesia
polinesio
polinia
polipiletiko
polis
polita
politeismo
political
politics
politika
politikal
politiko
polk
polklorista
pollard
pollen
polo
polonia
polonuevo
polotan
poly
polyalthia
polyandra
polygalifolium
polymorpha
polynesian
polyneura
polypodiales
polypodiopsida
polysperma
polysphaeria
polystemonea
polytechnic
pom
pomo
ponce
pond
pondo
ponedera
ponema
ponemiko
ponetiko
pong
ponga
ponolohia
ponolohiko
ponta
pontevedra
pontianak
pontificalis
pontificio
pontipikado
pontoppidan
pontos
pooideae
pool
poole
poona
poor
pop
popaya
popoloca
popoluca
popov
popular
populasion
populasionda
populasionna
population
por
porac
porma
pormada
pormal
pormana
pormasion
pormat
pormula
pormulasion
poro
porome
porselana
porsiento
port
portal
porter
portlandia
porto
portoricensis
portrait
portraits
portugal
portuges
portuguese
posibilidad
posil
positibo
position
posoqueria
posporo
possible
post
potato
potograpia
potograpiko
potograpo
poton
potosi
potosintesis
potosintetiko
pototan
potter
pou
pour
pouteria
powell
power
powers
pp
ppen
ppg
ppp
pr
pra
practical
practice
pradesh
prado
pradosia
praeger
prague
prain
prairie
prakrit
praktikal
pram
pramiko
pran
pranko
pranse
pranses
pransia
prantl
prasad
pratt
praxedes
pray
prayle
prc
pre
preatiko
predinastiko
predominante
prefecture
prefectures
prehistoria
prehistoriko
prehistory
preissianae
prekuensia
preliminario
preliminary
premier
premio
premsrirat
prenta
prep
prepektura
prepektural
prescott
present
presentacion
presentasion
presentation
presented
presents
preserba
preserbasion
presidency
presidensia
presidensial
president
presidente
presidential
presio
presion
presipitasion
presision
presl
presley
press
prestihio
pretty
pri
pribado
price
pride
prieto
prika
primabera
primario
primary
prime
primer
primera
primitibo
primo
prince
princesa
princess
princeton
principal
principia
pringle
prinsesa
prinsipalidad
prinsipe
prinsipio
print
printed
printing
prioridad
prismatomeris
pritz
pritzel
private
prix
prize
pro
probabilidad
probinsia
probinsial
probinsiana
probision
probisional
probisnia
problem
problema
problematiko
problems
proc
proceedings
proctor
procumbens
prodromus
production
productions
products
produksion
produktibidad
produktibo
produkto
produser
proenc
prof
professor
profile
program
programa
programme
progresibo
progreso
project
projects
projekt
proklamasion
proleptiko
promedio
prominensia
prominente
proninsia
pronominal
pronouns
prontera
pronunciation
propaganda
proper
propesion
propesional
propesor
propeta
propinqua
proporsion
prosa
proschan
prose
proseso
prosperidad
prospero
prostrata
protected
protection
protektorado
protesta
protestante
protestantismo
protina
protista
proto
protokol
proton
protrusa
proust
provenc
provence
providence
providencia
province
provinces
provincia
proyeksion
proyekto
prudente
prudhomme
prunus
prusia
prusiano
prutas
ps
psidium
psiloxylaceae
psophocarpus
psu
pswt
psy
psychology
psychotria
psychotrieae
pt
pteleopsis
pteridophyte
ptolomeo
ptolomio
pu
puari
pub
puberula
pubescens
publ
public
publication
publications
publiko
publique
published
publisher
publishers
publishing
pubmed
puccini
pudno
pudnoda
pudot
pudtol
puebla
pueblo
puelia
puelioideae
puersa
puersana
puerto
puesto
puestona
puff
puget
pugo
puinave
pujada
pukapuka
pul
pula
pulag
pulangi
pulau
pulchella
pulcherrima
pulchra
pulgada
puli
pulilan
pulitzer
pullman
pulo
pulos
pulot
pulsar
pumanaw
pumarola
pumaroliko
pumila
pumpkin
punan
punctata
pundador
pundamentalismo
pundasion
pundo
pung
punganay
punganayan
punjab
punjabi
punta
puntaan
punto
puntod
puntona
puntos
puoc
puon
puonan
puonna
puot
pura
purari
puraw
purdue
pure
puregold
puro
purok
purple
purpura
purpurea
purpureostemon
purpuro
purpurok
pusa
pusat
puseg
pushkin
pusilla
puso
pusok
pustaka
pustulata
putbol
putik
putot
putrajaya
putting
puttock
putumayo
puy
puyat
puyo
puyuma
puławy
px
pycnandra
pye
pygmaea
pygmy
pyongyang
pyramus
python
pyu
q
qaa
qaqet
qatar
qauqaut
qi
qian
qin
qing
qinghai
qld
qq
qtz
qua
quadrangularis
quadrifida
quang
quarterly
quartzite
quas
quasimodo
quattrocchi
quayle
que
queano
quebec
quechua
queen
queensland
quekett
quen
quercus
quere
queries
quest
question
quet
quevedo
quezon
qui
quiapo
quiche
quichua
quincy
quindoza
quiniluban
quinn
quintana
quintin
quintos
quirino
quito
quitoriano
quixote
quiz
quo
qur
r
ra
raay
rabaw
rabawna
rabii
rabong
rabrabii
race
racemosa
rachel
rade
radiasion
radikal
radio
radioaktibidad
radioaktibo
radlk
rae
raf
rafael
raffles
rag
raga
ragang
ragay
raha
rai
raiateensis
raiders
rain
rainbow
rainer
rainforest
raitt
raivavaensis
raj
raja
rajah
rajasthan
rakahanga
rakotonas
ral
ralph
ram
rama
ramallah
raman
ramay
rambakan
rambaud
ramelaiko
ramen
ramesh
rami
ramiflora
ramit
ramo
ramon
ramos
ramosissima
ramramit
ramsay
ramu
ramut
ramutna
ran
rana
ranariv
rand
randall
randia
randolph
random
rang
range
ranggas
ranggo
ranggona
rangkis
rangtay
ranh
rankoshi
ranngo
rano
rao
rapa
rapanui
raphael
rapper
rapu
rard
rare
ras
rasawa
rasisalai
rason
rat
ratagnon
ratanakiri
rather
ration
ratite
raton
rau
rauschert
rausu
raut
rautenna
raven
ravenstein
raw
rawis
rawo
ray
raya
rayleigh
raymond
raymondii
raymund
raymundo
rayo
rayon
rayos
rayus
razafim
razafimandimbison
razafimandimbisonia
rb
rbara
rchb
rd
rdoba
re
rea
read
reader
reagan
reaksion
reaktibo
real
realidad
realismo
reap
rebbeng
rebbengna
rebecca
rebelde
rebelion
rebision
rebolto
rebolusion
rebolusionario
rebulosion
rebun
rech
recherche
recherches
recognition
recoletos
reconstruction
record
recordings
records
recovery
rect
red
redgrave
redmayne
reed
reef
reefs
rees
reesink
reeve
reevesiana
ref
refer
reference
references
reflexa
reform
refulgens
regalis
regalo
regel
regensburg
regget
regina
reginald
regio
region
regional
regions
register
registry
regni
regnum
regular
regulasion
rehed
rehensia
rehimen
rehimento
rehion
rehional
rehionna
rehistrasion
rehistro
rei
reich
reid
reina
reinhard
reinhold
reino
reinw
rejang
rekado
reklamo
rekonstruksion
rekord
rekorder
rekording
rektanggulo
rektor
rekurso
relasion
relasionna
related
relatibidad
relatibo
relation
relations
relationship
relationships
relative
religion
religions
religiosum
religious
relihion
relihionna
relihioso
remains
remarks
rembrandt
remedios
remember
remembrance
remigio
remijia
remo
remontado
remota
remun
ren
renaissance
renania
renasimiento
renato
rendle
rene
rengngat
rennell
renner
rentas
reo
rep
repaso
repdigit
repens
reperendum
reperensia
repolio
reporma
repormasion
report
reporta
reporter
reports
repositorio
repository
repraksion
representasion
representatibo
representatibona
representatives
reprint
reprinted
reproduksion
reproduktibo
reptilia
repu
repubika
republic
republica
republican
republika
republikano
reputasion
requiem
rer
res
research
reserba
reserbasion
reserve
resi
residente
resistansia
resolusion
resort
resource
resources
respektibo
respeto
responsibilidad
restorasion
result
resulta
results
rethinking
reticulata
reticulatus
retiro
retrato
retrieved
return
retusa
reuel
rev
reveal
review
revilla
revised
revision
revisiting
revista
revoluta
revolution
revolutum
revolutus
revue
rex
rey
reyes
reykjavi
reyna
reynald
reynaldo
reynolds
reynosa
rez
rfaafil
rfc
rgb
rgen
rhachidosorus
rhead
rhexia
rhilton
rhine
rhineland
rhizaria
rho
rhode
rhodesia
rhodolaena
rhynchocalycaceae
ri
ria
riang
rianzares
riau
ribo
ribribo
ribu
ric
rica
ricardo
ricarte
rice
rich
richard
richards
richardson
richel
richmond
rick
rico
rida
rider
ridge
ridl
ridley
ridleyi
ridsdale
ridsdalea
rie
ries
riesgo
rieure
right
rights
rigida
rigidus
rigveda
rikna
riley
riliebo
rilke
rillo
rimbachii
rimmagadi
rimmang
rimmuar
rimpuok
rimpuook
rimsua
rin
rinaraeman
rinaut
rinautda
rinautna
rinconada
ring
rings
rinibo
rinibu
riniwriw
rinugian
rinukod
rinzia
rio
rionegro
ripariano
riribok
riribuk
risaralda
rise
rishiri
risk
risoma
ristantia
rita
rite
ritmiko
rito
ritos
ritter
ritu
ritual
river
rivera
rivie
riwriw
riyadh
rizal
rizmi
rj
rk
rke
rm
rn
rna
ro
roa
road
roald
rob
robbins
robbr
robbrecht
robert
roberto
roberts
robertson
robianes
robin
robinson
robinsons
robot
robredo
robson
robusta
robustum
robyn
robyns
roc
roca
roccasecca
rock
rockefeller
rocks
rocky
rod
rodensia
rodney
rodolfo
rodr
rodri
rodrigo
rodrigues
rodriguez
roem
rogelio
roger
rogers
rogiera
roglai
roi
rojas
roland
rolando
role
rolfe
roll
rolland
rolling
rom
roma
roman
romana
romance
romani
romania
romanian
romanisasion
romano
romanse
romansh
romantiko
romantisismo
romatiko
romblomanon
romblon
rome
romeo
romero
rommel
romualdez
romulo
romulus
ron
rona
ronald
ronaldo
roncalli
ronda
rondeletia
rondeletieae
rondo
rono
roo
roof
room
roon
roosevelt
roots
roque
rosa
rosaceae
rosales
rosario
rosas
rosauro
rose
rosea
rosemary
rosenbergiodendron
rosetta
rosids
roskas
ross
rossi
rostam
rostrata
rostratum
rot
rota
rote
roth
rothfels
rothman
rothmannia
roti
rotokas
rotumano
rotundifolia
rouge
rough
round
rouse
routledge
roux
roviana
rowan
rowena
rowland
rowling
roxas
roxb
roxburgh
roxburghii
roy
royal
royale
royen
royena
royle
rr
rte
rttemberg
ru
ruangan
ruar
ruben
rubens
rubia
rubiaceae
rubin
rubino
rubioideae
rubovietnamia
rubra
ruby
rudge
rudgea
rudolf
rudolph
rudyard
rue
rueda
rufa
rufescens
ruffa
rufino
rugby
rugi
rugit
rugosa
rugosum
rui
ruiz
rukai
rukib
rukod
rule
rules
rum
rumangrang
rumaniano
rumano
rummuar
rummuaran
rumoi
rumrummuar
rumrumsua
rumsua
run
rundi
rungbeb
ruot
rupa
rupestris
rupicola
rural
rurog
ruruot
rus
rusby
rush
rusia
ruso
russel
russell
russia
russian
russians
rustia
rusutsu
rutaceae
ruth
rutherford
ruu
ruy
rwaai
rwanda
ryan
rye
ryu
ryukyu
s
sa
saa
saad
saan
saana
saanak
saanda
saandan
saanen
saanka
saanko
saanna
saantayo
saanto
saarc
saaroa
saba
sabado
sabah
sabahano
sabali
sabalia
sabalida
sabana
sabanagrande
sabanalarga
sabanas
sabang
sabangan
sabanganna
sabicea
sabidong
sabine
sablan
sablayan
sabong
sabongna
sabsabali
sabsabong
sabtang
sabtenna
sabu
saccolomataceae
sachs
sacramento
sacred
sacrifice
sad
sadanga
sadc
sadi
sadiay
sadino
sadri
sadto
saeculum
saek
sag
saga
sagada
sagart
sagay
sage
saggaysa
sagn
sagneb
sagpaminsan
sagpaminsanda
sagpamisan
sagrado
sagun
sagut
sahara
saharan
sahel
sahon
sahrawi
sahu
sai
said
saigon
saint
sainte
saipan
saisiyat
saitama
sajau
saka
sakaanan
sakana
sakao
sakbay
sakbayan
sakha
sakhalin
saki
sakishima
sakit
sakizaya
sakop
sakopna
sakripisio
saksi
sakup
sakupda
sakupen
sakupenna
sakupna
sal
sala
salaam
salaan
saladin
salaknib
salako
salaksak
salamagi
salamangka
salamina
salanga
salas
salaya
salaysay
salaysayna
salazar
salbahe
salcedo
salem
saleng
salgado
salicifolia
salicifolius
salina
salinas
salino
salip
salisal
salisb
salisbury
salishan
salle
sally
salmon
salog
salon
salonga
salt
salten
salu
saluan
saludsod
salug
salun
salusod
salute
saluyot
salvador
salvatore
sam
sama
samal
samane
samang
samani
samantha
samar
samarangense
samaritano
samarokena
samat
samba
sambal
sambaliko
sambiranensis
samboan
same
sami
samiweng
samo
samoa
samoan
samoano
samoiko
samonte
sampaloc
sampson
samre
samson
samtao
samtoy
samuel
samur
san
sana
sanchez
sand
sandakania
sandaun
sandawe
sandoricum
sandra
sandstone
sandwicensis
sandwich
sandwith
sandy
sang
sanga
sangadosena
sangagasot
sangagasut
sangalubongan
sangana
sangapulo
sangaribo
sangaribu
sangguniang
sangihe
sangir
sangiriko
sangkabalayan
sangkabassit
sangkapaset
sangkaputotan
sangkataoan
sangkatiponan
sangkatipunan
sangladan
sangley
sanglubongan
sango
sangpulo
sangre
sangsanga
sanguanan
sanguenna
sanna
sannantha
sanskrit
sanskrito
sant
santa
santali
santana
santander
santi
santiago
santo
santol
santos
santuario
sao
saodan
saoen
sapa
sapad
sapang
sapasap
sapasapa
sapasapda
sapata
sapatos
sapian
sapiens
sapindaceae
sapindales
sapodilla
saponi
saposa
sapot
sapota
sapotaceae
sapote
sapotoideae
sapporo
sapsap
sapuan
sar
sara
sarah
saramago
saran
sarandon
sarangani
sarawak
sarawakano
sarawakensis
sarcaulus
sarcocephalus
sarcolaena
sarcolaenaceae
sarda
sardinia
sardinian
sardo
sarg
sargsyan
sarguelas
sari
sariaya
saringit
saririt
sarita
saritana
sarmi
sarmiento
sarming
sarokaja
sarrat
sarsarita
sartidia
sartre
sarunuen
sasa
sasak
sasanida
sasao
saskatchewan
sassanid
sassao
satelite
satinash
sativa
saturday
saturno
satyajit
saud
saudi
saul
saunders
saundry
sava
savage
savaiq
savanna
savara
save
savemore
savi
saving
savosavo
savu
saw
sawai
sawen
saweru
sawi
sawila
sawu
saxicola
saxifragales
saxon
say
saya
sc
scabra
scalemajor
scaleminor
scandens
scarecrow
scarlet
scarlett
scene
schaef
schatz
schauer
scheff
schell
schengen
schenk
scheuchzer
schiller
schindler
schinz
schizolaena
schlechtendal
schlieffen
schltdl
schltr
schmidt
schneid
schneider
scho
schocken
scholar
scholars
scholtzia
schomb
school
schools
schotia
schott
schouten
schrad
schradera
schreb
schro
schu
schubert
schult
schultz
schultze
schulz
schum
schumach
schumann
schumanniophyton
schuster
schuyler
schwa
schwartz
schwarz
schwyz
sci
science
sciences
scientific
sclerophylla
scofield
scolosanthus
scoparia
scortechinii
scotia
scotland
scots
scott
screen
scribner
script
scrotochloa
sctex
scuba
se
sea
seal
sealang
seals
sean
search
seas
season
seattle
sebada
sebakor
sebangan
sebastia
sebastian
sebbanagan
sebbanagn
sebbangan
sebbangankew
sebbanganna
sebbanganthe
sebop
sebu
sec
second
secret
secretary
secrets
section
sections
secunda
secundum
security
seda
sedang
sede
sedimentario
sedimento
sedis
see
seed
seediq
seeds
seem
seen
seferis
segovia
segregasion
segu
segun
segundo
seguridad
seifert
seimat
seine
seisa
seismiko
seismology
seit
sek
seki
sekka
seko
sekondaria
sekondario
sekong
sekretariat
sekretario
sekreto
seksion
sekso
seksual
sektor
sekular
selanda
selangor
selaru
selat
selayar
selected
seleusia
seleusida
self
selio
seljuk
sellers
selma
selula
selular
selulosa
semai
semantic
semaq
semelai
semi
semidecandra
seminal
seminar
seminario
semitiko
sen
sena
senado
senador
senagi
senario
senator
senatorial
senegal
sengngaw
senial
senias
senoufo
sense
sensilio
sensilo
sensitibo
senso
sensu
sentabo
sentai
sentani
sentenial
senteno
sentensia
sentimetro
sentral
sentro
sentrona
senufo
seok
seorsus
seoul
sep
sepa
sepalio
sepalo
separate
sepik
sepilok
sept
september
septiembre
sequence
sequences
ser
sera
seram
seramiko
seraya
serbesa
serbia
serbian
serbina
serbio
serbisio
serbiso
serbo
sereal
seremonia
seremonial
serena
sereno
seresa
sergei
sergio
seri
serial
sericanthe
sericea
serie
series
serioso
serissa
serna
sero
serpyllifolia
serra
serrano
serrekan
serres
serrulata
sersalisia
sertipikado
serua
serudung
serui
server
service
services
serye
sesbania
sesion
sesotho
sesse
sessiliflora
sessilifolia
sessilis
session
set
setana
sete
seti
setiembre
seto
setosa
settlement
seu
seven
seventeen
seventh
several
severino
severnaya
sevilla
seville
sex
sexual
seychelles
seymour
sg
sh
sha
shadow
shah
shahnama
shahnameh
shakespeare
shakotan
shall
shan
shana
shandong
shanghai
shari
sharia
shariff
shark
sharon
sharp
sharpii
shaw
shawnee
she
shearer
sheet
shelikhov
sheng
sheoak
sherman
shi
shia
shibecha
shibetoro
shibetsu
shift
shiga
shigeru
shih
shihoro
shiji
shikibu
shikoku
shikotan
shikotsu
shima
shimamaki
shimane
shimaore
shimin
shimizu
shimokita
shimukappu
shin
shinano
shinkansen
shinshinotsu
shintani
shinto
ship
shiranuka
shiraoi
shire
shiribeshi
shiriuchi
shirley
shizuoka
sho
shogunato
sholokhov
shona
shopping
shorea
short
shoto
should
show
shows
shrine
shrubs
shu
shuangjiang
shui
shun
shunsho
shwng
si
sia
siaammo
siak
siam
siamensis
siames
siargao
siasi
siat
siaton
siayan
sibalom
siberia
sibibiag
sibik
sibiko
sibil
sibilisasion
sibubukel
sibugay
sibuguey
sibulan
sibutu
sibuyan
sibz
sic
sicat
sichuan
sicilia
sida
sidaen
sidapa
siddaaw
side
sidecut
sidereal
sideroxylon
sidney
sidwell
sie
sieber
siebold
siegbahn
siegel
siegfried
siem
siempre
siena
sienkiewicz
siensia
sientipiko
sientista
sierra
sies
sig
sigay
sigismund
siglo
sigma
sigmund
sign
signal
signes
signipikante
signoret
sigsiglo
sigud
siigam
siiigam
siit
sika
sikaiana
sikaritai
sikat
sikatuna
sikh
sikhi
sikigan
sikkim
sikko
siklo
sikolohia
sikolohiko
siksik
sikule
sil
sila
silaba
silabiko
silang
silangan
silaw
silay
siled
silence
silent
silesia
silesiano
sili
silicon
silikon
silindriko
silindro
silk
silliman
sillong
silmarillion
silo
silpo
silsilpo
silulukat
silva
silver
silvestre
silvestris
silvia
sim
sima
simalungun
simang
simao
simbaan
simbiosis
simboliko
simbolo
simborio
simeon
simetria
simetriko
simeulue
similis
simira
simmakbay
simmanglad
simmangladda
simmangpet
simmangpetda
simmarsaruno
simmaruno
simmarunuan
simmayaat
simmina
simmonds
simmons
simmrek
simmuko
simmukoda
simmupiat
simmuppiat
simmurot
simmursurot
simo
simon
simone
simons
simotsimot
simple
simplex
simplicio
simponia
simpson
simrek
simsimbaan
simunul
sin
sina
sinagepsep
sinai
sinait
sinakop
sinakopna
sinakup
sinakupan
sinakupna
sinaloa
sinama
sinao
sinapomorpia
sinarapan
sinaruno
sinarunona
sinarunuan
sinauer
since
sincelejo
sinclair
sindh
sindhi
sindhu
sine
sinema
sinensis
sing
singapore
singapur
singasing
singer
singh
singin
single
singsing
singular
sinhala
sinhales
sinica
siniloan
sinitiko
sino
sinologo
sinoman
sinonimo
sinsuat
sint
sintaksis
sintenisii
sintesis
sintetiko
sintoma
sinukatan
sinukatanen
sinukatanna
sinukimat
sinukisok
sinukog
sinuportaran
sinuppiat
sinuppiatan
sinurat
sinuratan
sinuratna
sinurot
sinursurat
sinursuratan
sinursuratna
sio
sionil
sipalay
siphoneugena
sipo
sipocot
sippit
sipud
siquijor
sir
sirang
siraya
sirayaiko
sire
sirhano
siri
siria
siriako
siriliko
sirkulasion
sirkulo
sirkumnabigasion
sirkumskripsion
sirok
sirokna
siruma
sis
sisaket
sisasagana
sismolohia
sison
sissano
sissy
sistem
sistema
sistemana
sistematika
sistematiko
sister
sitangkai
sitatakder
sitcom
site
sitema
sites
siti
sitio
sito
sitoy
situasion
situation
siu
siuda
siudad
siudadna
six
sixto
size
sk
skal
ske
skeels
sketch
ski
sko
skou
sky
sl
sla
slave
sleep
slihng
slim
slinh
slovenia
sm
sma
small
smallhorn
smart
smith
smithii
smithsonia
smithsonian
smithsoniano
smoktunovsky
smooth
sn
snake
sneddon
snow
so
soacha
sobat
sobienie
sobiet
sobra
sobral
sobre
soc
soccsksargen
social
socialism
socie
societies
society
sociolinguistic
socorro
socotra
socotrana
socrates
sodiroi
sodom
soembawa
sofia
sofronio
software
sogod
soil
sok
sokoloff
sol
solana
solanaceae
solano
solanum
solar
soldado
soledad
solido
solis
solitario
soliven
solnit
solo
solomon
solomoniko
solomons
solpatara
solpatariko
solstisio
soltis
solusion
solzhenitsyn
som
somahai
somali
somalia
sombrero
some
somera
somers
something
sometimes
son
sona
sonata
sond
song
songs
sonke
sonn
sonny
sonora
sons
sonsorol
sont
soologo
soolohia
soolohiko
soon
sop
sophia
sophie
sopokles
sopwer
sora
sorabo
sorachi
sorbetes
sorbian
sorbo
sorghum
sori
soriano
soroastrianismo
soroastriano
sorsogon
sorus
sos
sosial
sosialismo
sosialista
sosio
sosiolingguistika
sosiolohia
sot
sotho
soto
sotto
soul
sound
source
sources
sousa
south
southeast
southeastern
southern
southwest
southwestern
sovereign
soviet
sowa
sowerby
soya
sp
spa
space
spacek
spach
spain
spanish
sparrei
spathulata
spatial
speak
speaking
special
species
specimen
speciosa
spectabilis
speech
spencer
spermacoce
spermacoceae
sphaerantia
sphaerocarpa
sphenomeris
spicata
spiegel
spielberg
spinosa
spirit
spirits
spiro
spitteler
spitzbergen
splendens
spoken
spondias
spotted
spp
sprachbund
sprache
sprachen
sprague
spreng
spring
springer
springfield
springs
spruce
spruceanum
sq
sqi
squamata
squamellaria
squamosa
square
squliq
sr
srae
sre
sri
srivijaya
ss
sseldorf
ssp
ssr
st
sta
staaer
stable
stace
stadt
staff
stage
stalin
stallman
stanbul
stand
standard
standards
standl
standley
stanford
stanley
stanwyck
stapf
star
starflower
stark
starosta
starr
stars
start
state
statehood
states
station
statistical
statistics
statistik
status
statutes
stead
steel
steenis
steenisia
stefan
stefani
steiger
stein
steinbeck
stella
stellata
stemonoporus
stenbrohult
stenochlaena
stenopetala
stenophylla
stenostomum
stephan
stephen
stephens
steps
sterculiaceae
stereocaryum
stern
steud
steve
steven
stevens
stevenson
stewart
steyerm
sti
stica
stieng
stig
still
stilpnophyllum
stinkweed
stipagrostis
stipulosa
sto
stock
stockholm
stockton
stoff
stokes
stone
stop
store
storia
stories
storm
story
strabo
strait
straits
strange
strategy
strauss
stravinsky
strawberry
stream
streep
street
streisand
streptochaeta
streptogyna
streptophytina
strickland
stricto
strid
strigosa
strike
strindberg
strip
strong
structure
structures
struggle
struktur
strumpfia
struthiopteris
strutt
stuart
student
studies
study
stuttgart
style
styppeiochloa
su
sua
sual
suan
suar
suarez
sub
subanen
subanon
subatomiko
subcontinent
subdialekto
subdibision
subdistrito
subduksion
suberosa
subestrato
subfamily
subgroup
subgrouping
subgrupo
subhenero
subic
subject
subklase
subkomite
subkontinente
submarino
subnasional
subpamilia
subpilo
subpopulasion
subprefecture
subprepektura
subprepektural
subrehion
subrehistro
subsebbangan
subsessilifolia
subsessilis
subsidiario
subsp
subteraneo
subtribu
subtropikal
subtropiko
suburbio
suburbo
suc
such
sucre
sud
sudad
sudan
sudanes
sudarso
sudd
sudipen
sue
sueko
suesia
suez
sufi
sugar
sugat
sugata
sugpon
suheto
suhetona
sui
suisa
suiso
suisse
suk
suka
sukat
sukhothai
suki
sukimatenna
sukog
sukogna
sul
sula
sulat
sulawesi
sulcata
suldong
suleiman
suli
sulka
sullivan
sully
sulpiz
sultan
sultanato
sulu
sumagad
sumaganad
sumagand
sumagmamano
sumakbay
sumakop
sumaksakop
sumakup
sumangsango
sumaoang
sumapaz
sumaruno
sumasala
sumatra
sumatrano
sumba
sumbanes
sumbangir
sumbawa
sumbawano
sumeri
sumerio
sumi
sumilao
summary
summer
summit
sumo
sumrek
sumrekan
sumsumrek
sumuko
sumungbat
sumuppiat
sumupsuppiat
sumurok
sumurot
sumursurot
sun
sunagawa
sunda
sundanes
sunday
sunderland
sunflower
sung
sungai
sungay
sungbat
sunggo
sungrod
sunidos
sunni
sunrise
sunset
sunshine
sunurok
supe
super
superba
superindises
superintendente
superior
supernova
superpamilia
supersebbangan
supi
supismo
suplemento
suporta
suppiat
suppiatan
suppl
supplement
support
suprema
supremasia
supreme
supremo
suprepektura
sur
surabaya
surat
surealista
surface
surigao
surigaonon
surinam
suriname
surinamensis
suripet
suroten
surotenna
surrey
sursurat
sursuro
survey
survival
sus
susan
suskrision
suso
suspeto
suspicion
sustainability
sustainable
sustansia
sutton
suttsu
suva
suvorin
suwawa
suwilai
suyo
svalbard
svantesson
svatopluk
sve
svenska
svetlana
svg
svo
sw
swadesh
swahili
swamp
swan
swank
swanson
swazi
swaziland
sweden
swedish
sweet
swenson
swift
swiss
sy
sydney
sydow
sylvatica
sylvestre
sylvia
symposium
syn
syncarpia
synonyms
synopsis
synoptic
synsepalum
syntax
syquia
syria
syrmatium
syste
system
systema
systematic
systematics
systematik
systematis
systems
syzygium
szczecin
szymborska
søren
t
ta
taal
taaw
taba
tabaco
tabag
tabako
tabango
tabas
tabasco
tabbada
tabin
tabla
tablas
table
tables
tableta
tabon
tabontabon
tabuk
tabungaw
tacloban
tacurong
tadena
tadjoura
tae
taeng
taengan
taft
tag
taga
tagabitla
tagabu
tagalog
taganrog
tagapul
tagaytay
tagbanwa
tagbilaran
tagikua
tagikuada
tagikuana
tagilako
taglish
tagoloan
tagore
tagtagainep
tagtagikua
taguchi
tagudin
taguig
tagum
tahiti
tahitiano
tahitiko
tai
taiap
taiki
tailandes
tailandia
taipei
taisei
taisho
taitung
taivoan
taiwan
taiwanes
taizong
taj
tajikistan
tajimi
takayama
takder
takem
takenoshin
takeshima
takhtajan
takia
takikawa
taksa
takson
taksonomia
taksonomiko
taksonomo
taktika
takuu
tala
talahib
talakag
talaud
talavera
talbot
talbotii
talca
tale
talento
talentona
tales
tali
taliang
talinaay
talinhaga
talinis
talisay
talisayan
talk
tall
tallo
tallopulo
talmud
talo
talomo
talon
taltalon
talysh
tam
tama
taman
tamaniko
tamaraw
tamatea
tamaulipas
tamayo
tambak
tambalacoque
tambo
tambon
tambor
tambora
tame
tami
tamil
tampuan
tampuon
tan
tana
tanah
tanaka
tanakh
tanap
tanauan
tanay
tanda
tandag
tandang
tandia
tanduay
tandubas
tandy
tanem
tanema
tang
tanganyika
tangatang
tange
tangkal
tangkig
tanglapui
tangtangkig
tangub
tanimbar
tanjay
tanjong
tanjung
tanna
tantanap
tanudan
tanya
tanza
tanzania
tao
taoismo
taokas
tapa
tapajo
tapaz
tape
tapno
tapnon
tapok
tapul
tapulao
tara
tarabay
tarahumara
taraken
tarangan
taraon
tarapaca
tarascon
tarenna
tarigagay
tarikayo
taripa
taripnong
tarlac
tarnovo
taro
tarong
tarso
tasa
tashkent
tasman
tasmania
tassili
tat
tata
tataaw
tatak
tatangna
tatao
tatar
tatay
tate
tatlong
tatta
tattan
tattao
tattaona
tatto
tau
taub
taudan
taudanda
taudanna
tauris
tauro
tause
tausu
tausug
tauya
tavera
taw
tawa
tawagan
tawbuid
tawen
tawenna
tawi
tawid
tawidan
tawitawi
tawtawen
tawtawenna
taxa
taxandria
taxi
taxon
taxonomic
taxonomy
tay
tayabas
tayikistan
taylor
tayo
taysan
taytay
tayug
tbilisi
tboli
tc
tchaikovsky
td
te
tea
teaching
team
teanu
teatriko
teatro
tebera
tech
technical
technology
tecson
ted
tedted
tehit
tehran
tei
teijsm
teismo
teista
teistiko
teiwa
tejada
tejeros
teke
tekla
teklado
teknikal
teknolohia
teknolohiko
teksto
tektonika
tektoniko
tel
tela
telander
telebision
telebison
telecom
telefol
telegraph
telekomunikasion
telepono
teleskopio
television
tell
telugu
teluk
tem
tema
temiar
temotu
temperado
temperatura
temperature
temperetura
temple
templo
tempo
temporal
temporario
temuan
temuco
ten
tenerife
tengah
tenggara
tenggeres
tenglen
tengna
tengnga
tengngana
tengnged
teniente
tenis
tennessee
tennesseensis
tennga
tenochtitla
tenochtitlan
tenor
tentatibo
tenth
tenuiflora
tenuifolia
tenuis
teo
teodora
teodoro
teodosio
teofisto
teologo
teolohia
teolohiko
teor
teoretikal
teoretiko
teoria
teoriana
teorista
teotihuacan
tepehua
ter
terakota
terasa
terence
terengganu
teres
teresa
teresita
teretifolia
teritoria
teritorial
teritorio
teritoriona
term
termal
terminal
terminalia
terminalis
termino
terminolohia
terminona
termodinamika
terms
ternata
ternate
ternifolia
terorismo
terra
terraces
terre
terrell
terrestrial
terribles
terrill
territorial
territories
territorio
territory
terry
terteritorio
tertiario
tes
teshikaga
teshio
tesis
tesla
tessmannianthus
testament
testamento
testo
tet
tetraedra
tetragona
tetrandra
tetraphylla
tetraphyllus
tetrapoda
tetraptera
tetrazygia
tetum
tetun
teun
teutoniko
tewa
texas
texcoco
text
textbook
textcolor
texts
tg
th
tha
thai
thailand
thaleropia
thames
than
thanh
thani
thao
tharu
that
the
theater
theatre
their
theligonum
them
theme
then
theodor
theodore
theory
theplantlist
theraphan
theravada
there
theresa
theron
these
thesis
thessaloniki
theta
they
thi
thie
thiloa
thimphu
thin
thing
things
thiollierea
third
this
tho
thom
thomas
thomasiana
thomps
thompson
thomson
thongkum
thorn
thorne
those
thou
thouars
thouarsii
thought
thoughts
thousand
threatened
three
through
thryptomene
thu
thule
thulin
thumb
thumbnail
thunb
thurifera
thwaites
thymoides
ti
tiahuanaco
tian
tiang
tianjin
tiaong
tibassit
tibet
tibetan
tibetano
tibeto
tibouchina
tiburon
tica
ticao
ticino
tid
tidda
tidong
tidore
tidung
tie
tieghemella
tiempo
tien
tiendaan
tienne
tierra
tif
tifal
tiganay
tigaon
tigbauan
tiger
tignay
tigre
tigris
tigwa
tii
tijuana
tikopia
tikor
til
tilapia
tiliaceae
till
tim
tima
timaysa
timbengan
timbukel
time
timeaxis
timek
times
timmalaw
timmaray
timmipon
timmiponda
timmirad
timmulag
timmulong
timmunos
timonius
timor
timoriko
timothy
timpoong
timpuyog
timpuyogan
timula
timur
timurid
tin
tina
tinaengan
tinaenganda
tinaga
tinagan
tinagikua
tinago
tinagtagitao
tinagtagitaoda
tinallo
tinambac
tinapay
tinartaripato
tinataengan
tinaudan
tinaudanda
tinaudanna
tinawagan
tinawaganna
tinawen
tinawid
tinawtawagan
tinawtawaganda
tinawtawaganna
tinawtawagn
tinawtawgan
tinawtawid
tinctoria
tindale
tinengngel
tinengngelna
tinengtengngel
tinggian
tinglayan
tingloy
tinig
tiniliw
tinio
tinulongan
tinumek
tinunton
tinuntonda
tinuntonna
tinurayan
tinurayanna
tinurturayan
tio
tipiko
tipo
tipograpia
tipolohiko
tiponan
tipulu
tique
tirad
tirador
tirio
tirreno
tirtiris
tiruray
tirveng
tisasao
tisebbangan
titan
titi
title
titles
tito
titsingh
titulo
titulona
tiu
tiwi
tl
tlaxcala
tlingit
tng
to
toba
tobacco
tobago
tobi
tobiano
tobias
toboso
toc
tocantins
tochigi
tocoyena
today
tofamna
toga
together
togo
toi
tok
tokachi
tokar
tokara
tokarczuk
tokelau
tokelauano
tokoro
tokugawa
tokushima
tokyo
tolai
tolaki
tolda
toledo
tolentino
tolima
tolitoli
tolkien
tolosa
tolstaya
tolstoy
tolu
toluca
tom
toma
tomamae
tomari
tomas
tomato
tomb
tombulu
tome
tomentella
tomentosa
tomini
tomo
tomorrow
tomu
ton
tona
tonal
tonda
tondano
tondo
tone
tonelada
tong
tonga
tongan
tongano
tongiko
toni
tonkin
tonkinensis
tono
tontemboan
tony
too
toole
top
topic
topiko
topobea
topograpia
topograpiko
tor
torah
toraja
tori
torishima
tornilio
toro
toronto
torr
torralba
torre
torres
torrevillas
torrey
torricelli
torrijos
torun
tosh
toshiro
tot
total
totalitariano
toto
totonac
tottori
touo
tour
tourism
towards
town
towns
township
toy
toyako
toyama
toyotomi
toyoura
tpl
tr
tra
trabaho
trabahona
tracia
tracy
trade
tradision
tradisional
tradisionalda
tradison
tradisonal
tradition
traditional
tragedy
training
tran
trang
trangkaso
trans
transaction
transactions
transfer
transision
transisional
transit
transkaukasia
transkontinental
transkripsion
translated
translation
translations
transliterado
transliterasion
transpormasion
transportasion
transvaal
trapiko
tratuen
travel
travels
traverse
tre
treatado
treatment
trece
tree
trees
trek
tren
trends
trenton
tres
trevor
tri
trial
triana
trianggular
trianggulo
trias
tribal
tribe
tribes
tribu
tribunal
tributario
tributariona
tricalysia
trichocalyx
tricolor
tricolour
tricolpate
tridesmostemon
triflora
triflorum
trigo
trigonometria
trigonometriko
trilion
trilohia
trimurti
trinidad
trinidadiano
trinity
trinsera
triolena
trip
triplarina
triple
triraphis
tristania
tristaniopsis
triticeae
triticum
tro
trong
trono
tropa
tropana
tropical
tropicos
tropics
tropikal
tropiko
trouble
troy
tru
trudgen
true
trukiko
truku
truman
truncata
trunk
trust
trustees
truth
tryon
ts
tsa
tsart
tsat
tse
tseka
tseko
tseng
tsi
tsimshian
tsina
tso
tsokolate
tsou
tsouic
tsouiko
tsu
tsubetsu
tsuchida
tsugaru
tsukigata
tsunami
tt
tting
ttingen
tu
tuamotu
tuao
tuareg
tuazon
tuba
tubajon
tubara
tubbataha
tubbog
tube
tuberosum
tubig
tubigon
tublay
tubo
tubod
tubuai
tubulosa
tuburan
tucker
tudela
tudes
tudo
tugaw
tugot
tugtugaw
tuguegarao
tukak
tukang
tukki
tuktok
tuktokna
tula
tulag
tulagan
tulang
tulbek
tuldek
tuleng
tulnek
tulong
tultulang
tulu
tulunan
tum
tumaray
tumartaray
tumauini
tumawtawag
tumba
tumipon
tumpaw
tumtumpaw
tumulong
tumultulong
tuna
tundra
tunel
tung
tunga
tunggal
tungngal
tungpalen
tungtungan
tungusiko
tunisia
tunngal
tunton
tuntonen
tuon
tupi
tupian
tur
turama
turay
turayan
turayna
turbina
turbo
turcz
turdulo
turi
turing
turismo
turista
turkey
turkia
turkic
turkiko
turkish
turkmenistan
turko
turks
turner
turning
turod
turong
turrill
turtle
turturod
turumsa
tus
tutoh
tutong
tutot
tutsi
tuvalu
tuvera
tuy
tuye
tuyo
tv
twain
tweddell
twentieth
twenty
twi
twin
twitter
two
tyi
tyler
type
types
typha
typology
tz
tzotzil
tzu
u
uab
uae
uare
ub
ubaas
ubas
ubay
ubbing
ubbog
ube
ubet
ubian
ubing
ububing
ubuntu
uc
ucayali
ucb
ucla
ud
udi
uefs
ug
ugali
uganda
uggot
uging
ugis
ugma
ugot
ugsa
uk
ukarumpa
uki
ukis
ukisna
ukiyo
ukom
ukoman
ukraine
ukrania
ukraniano
ul
ula
ulaanbaatar
ulan
ulbod
uleg
ulei
ulep
uli
ulit
uliteg
ulitegna
ulithiano
ulloa
ulo
ulrich
ulrika
ultimate
ultra
ultrabioleta
ultramapiko
ulu
ulvik
ulyanov
ulysses
um
uma
umabagatan
umabot
umad
umadayo
umado
umak
umakar
umakikid
umal
umalis
umallo
umamianan
uman
umar
umas
umatiddog
umaw
umay
umayad
umayyad
umbellata
umberto
umili
umingan
umiray
umiso
umisu
umm
umno
umnong
umun
umuna
umunada
un
una
unabridged
unana
unang
unas
unay
unayen
uncaria
uncinatum
unclassified
und
under
understanding
undp
undset
undulata
une
uneg
unegna
unep
unesco
unfccc
ung
ungar
ungel
ungkay
ungkayna
ungria
ungto
ungtona
ungulata
uni
unibersal
unibersidad
uniberso
unicode
unido
unidos
uniflora
uniflorum
unikonta
unilateral
unio
union
uniprot
unisan
uniselular
unit
unitariano
unitario
united
units
univ
universal
universe
universidad
universidade
universita
universitas
universities
university
unix
unknown
uno
unofficial
unpublished
until
ununana
unwin
uong
up
upat
updated
upernavik
upi
uploads
upon
uppat
upper
uppsala
upright
ur
ura
uraba
urak
urakawa
ural
uraliko
uram
uranio
urano
urat
urata
uray
urayno
urb
urban
urbana
urbanisado
urbanisasion
urbano
urbino
urceolata
urdaneta
urdu
ure
uri
uribe
uripiv
url
urmot
urno
urnong
urnongna
urnos
urnosna
uromyrtus
urophyllum
ursa
uru
uruguay
urville
uryu
us
usa
usage
usambara
usar
usarda
usaren
usarenda
usarenna
usarna
usd
usda
use
used
useful
user
usfws
usgs
usher
usiacuri
using
usit
usku
uso
usok
uson
uss
ussr
usu
ut
uta
utah
utang
utanobori
utara
utashinai
utc
ute
utek
utilis
uto
utong
utrecht
uttar
uttarakhand
utupua
uu
uvaria
uvea
uveano
uyghur
uyokan
uzbek
uzbekistan
v
va
vaginata
vahl
vai
vaigach
val
valantia
valdez
valdivia
vale
valencia
valentin
valentina
valentine
valenzuela
valerie
valery
valeton
valladolid
valle
valledupar
vallehermoso
valley
valparai
value
values
van
vancouver
vand
vanessa
vangunu
vanikoro
vanimo
vanua
vanuatu
vao
var
varela
vargas
varieties
variety
variola
various
varna
varney
vasari
vasco
vascular
vasily
vat
vateria
vatica
vaticana
vatovavy
vaucluse
vaughan
vaupe
vaz
vd
ve
vedic
vega
vegas
vegetabile
vegetabilis
vegetation
veinte
veitch
vela
velar
velasco
velasquez
veliko
vell
vella
velutina
venado
venecia
venezuela
venezuelensis
venosa
vent
ventosa
ventura
venus
ver
vera
veracruz
verb
verbal
verbenaceae
verbs
verdc
verdcourt
verde
verdi
verhandelingen
verlag
vermont
verne
verner
vernon
veronica
verrucosa
verrucosus
versailles
version
vert
vertical
verticillata
very
vespertine
vespucci
vestita
veterans
vi
via
viaf
vic
vice
vicente
vichada
victor
victoria
victoriano
victorias
victory
vida
vidal
vidalasia
vidalii
video
vie
viejo
vienna
vientiane
viernes
viet
vietic
vietiko
vietnam
vietnamese
view
vig
viga
vigan
vii
viii
viking
vila
vilesh
villa
villaba
villaflor
village
villalobos
villanueva
villar
villaraigosa
villareal
villaria
villasis
villaverde
villavicencio
villaviciosa
ville
villosa
vilma
viloria
vincent
vincenzo
vinci
vintar
vinzons
violacea
virac
virama
viray
virectaria
virescens
virgata
virgatum
virgil
virgilio
virgin
virginia
viridiflora
viridifolium
viridiplantae
viridis
virtual
virtusio
vis
visaya
visayan
visayas
viscosa
vishnu
vision
vista
vistula
vita
vitae
vitales
vitellariopsis
viti
vitiaz
vitiensis
vitu
viv
viva
vivaldi
vivien
viz
vizcaya
vladimir
vladivostok
vo
vocabulary
vogel
voh
voice
voices
voight
voigt
vol
volcanism
volcano
volcanoes
volcanology
volga
volow
vols
volta
volume
volumes
vom
von
voorhoeve
vor
vorpommern
vort
vosges
vostok
vowel
voyage
vries
vs
vu
vuc
vure
vv
vysotsky
w
wa
waals
wachagga
wadan
wade
wadi
wagas
wagayway
wagner
wahgi
wahl
waig
waigeo
waiko
waima
waimaha
waiting
wak
wakayama
wake
wakkanai
wala
walang
walcott
wales
walio
walk
walker
walking
wall
wallace
waller
wallich
wallichii
wallis
wallisiano
walo
walopulo
walp
wals
walsh
walt
walter
waltermart
walters
walton
wam
wan
wandamen
wang
wanted
wantoat
wanukaka
war
warapu
waray
waraywaray
warb
ward
ware
warembori
warfare
waris
warmia
warnakan
warneckea
warner
waropen
warren
wars
warsaw
warszewiczia
warwarnakan
was
washington
washo
wasi
wasn
wat
watam
watch
water
waterh
waterhouse
waterhousea
waters
watershed
watson
watt
watts
watubela
watut
watzenrode
waugh
wawa
wawonii
wax
waxflower
way
waya
wayang
wayaway
wayawaya
wayawayana
wayne
waywaya
wcsp
we
weaver
web
webb
weber
webmaster
webpage
website
webster
wedd
wedding
weed
week
weekly
weeno
weera
wei
weimar
wejewa
welga
well
wellington
wells
welsh
welw
wemale
wen
wendl
wendlandia
wendy
wenno
weno
wensite
went
were
werner
wernham
wesley
west
western
westminster
weston
wet
wetar
wetares
wetlands
wettstein
wgs
whang
what
wheatbelt
wheeler
when
where
which
whig
whipple
whitaker
white
whitehead
whitehouse
whitfordii
whitmore
whitney
whittier
who
whole
whom
whoopi
why
whyi
wi
wide
width
wien
wiener
wieringa
wiesbaden
wife
wight
wik
wikang
wiki
wikidata
wikimedia
wikipedia
wikisource
wikispecies
wiktionary
wild
wilde
wildfire
wildflower
wildlife
wiley
wilfredo
wilfrido
wilhelm
will
willard
willd
willem
william
williams
williamsii
williamson
willis
willow
wilson
wilsonii
win
winaswas
wind
window
windows
windsor
wine
wing
wings
winifred
wins
winslet
winston
winter
winteraceae
wiru
wisconsin
wise
wistuba
wisława
wit
with
witherspoon
within
without
wittgenstein
witu
wka
wnga
wo
wohlers
woleaiano
wolf
wolff
wolfgang
wolio
wollastonii
wolof
wom
woman
women
womo
won
wonderful
wong
wood
woodard
woodland
woodrow
woodruff
woods
woodsiaceae
woodward
woodwardia
woody
worcester
word
wordlist
wordpress
words
work
working
works
workshop
workspace
world
worldcat
worlds
worldwide
worms
wotu
wouk
would
wp
wrangel
wright
wrightii
writer
writers
writing
writings
written
wto
wu
wulff
wuming
wurdack
wurdackii
wurm
wurmian
wutung
wuvulu
ww
www
wyatt
wyk
wyman
wyoming
władysław
x
xa
xanthophytum
xanthostemon
xaver
xavier
xerochlamys
xhosa
xi
xianfan
xiang
xico
xii
xiii
xing
xingjian
xingu
xinh
xinjiang
xiongnu
xiv
xjo
xlviii
xml
xu
xua
xv
xvi
xviii
xx
xxiii
xyloolaena
y
ya
yaaddang
yaalsa
yaeyama
yafi
yagumyum
yahoo
yai
yakan
yako
yakumo
yala
yale
yalgoo
yali
yalta
yam
yamagata
yamaguchi
yamakoshi
yamanashi
yamaz
yambo
yamdena
yami
yan
yang
yangtze
yangum
yangzi
yantangay
yao
yaon
yap
yapen
yapes
yareban
yarumal
yau
yawa
ye
year
yearbook
years
yei
yele
yellow
yelo
yemen
yen
yerba
yerevan
yes
yesterday
yet
yevgeny
yi
yiddish
yidis
yierba
yii
yimas
yin
yinchia
ying
yndigt
yo
yoga
yogad
yogyakarta
yoichi
yoke
yokohama
yolanda
yolombo
yonaguni
yong
yongbei
yongxian
york
yorker
yoruba
yos
yot
you
young
your
youth
youtube
yoy
yu
yuan
yuat
yucata
yue
yugoslavia
yukaghir
yukon
yul
yum
yuman
yumi
yun
yunbing
yunit
yunnan
yunnanensis
yupik
yuri
yuson
yuwen
ywny
yy
yyyy
z
za
zabana
zacarias
zacatecas
zachary
zagreb
zagros
zai
zaire
zambales
zambia
zamboanga
zamboanguen
zamora
zamoyski
zanne
zanuck
zanzibar
zapata
zapote
zapotec
zapoteco
zappi
zaragoza
zarraga
zaytsev
zaza
zazaki
zdene
ze
zea
zealand
zedong
zeeman
zef
zeichensprache
zeitoun
zeitschrift
zellweger
zemlya
zen
zenker
zenkeria
zetkin
zeyheri
zeylanica
zhang
zhao
zhejiang
zheng
zhengzhou
zho
zhou
zhu
zhuang
zi
zia
zide
zimbabwe
zipaquira
zo
zona
zone
zoo
zool
zoology
zoque
zora
zorc
zosimo
zquez
zu
zucc
zug
zulu
zulueta
zum
zur
zurich
zxx
zz
{
|
}
~
£
§
©
«
­
°
±
²
³
´
·
¹
º
»
½
¾
¿
×
æ
ø
østerstrand
đ
đa
đe
đi
đie
đo
đu
ı
ŋ
ɔ
ɗ
ə
ɛ
ɲ
ʔ
ʰ
ʷ
ʻ
ʼ
ʾ
ʿ
ˈ
ː
˚
˧
̀
́
̂
̃
̄
̆
̇
̈
̉
̊
̋
̌
̍
̓
̔
̛
̜
̣
̦
̧
̨
̪
̮
̱
̲
̸
͂
α
β
γ
ε
ζ
η
ι
μ
ν
ο
ρ
ς
φ
χ
ω
а
агта
аи
арабскии
б
беларуская
в
г
е
жестовыи
и
к
м
мн
море
н
о
р
с
саамскии
северныи
скии
станкевіч
т
у
ф
ч
ю
южныи
я
ян
і
ә
ְ
ִ
ֵ
ַ
ָ
ֹ
ּ
ב
ה
י
ש
ת
ا
بهاس
ت
د
ر
ع
ق
ل
م
ملايو
ه
و
ي
َ
ُ
ِ
ّ
ْ
ٓ
ٔ
ި
ं
क
ग
च
ज
ड
त
थ
द
ध
न
प
फ
ब
भ
म
य
र
ल
व
स
ह
़
ा
ि
ी
ु
ू
े
ै
ो
्
ঁ
ং
ক
খ
চ
ঢ
ত
ন
প
ব
ভ
ম
য
র
ল
শ
ষ
স
হ
়
া
ি
ী
ু
ে
ৈ
্
ਾ
ੀ
ੰ
ં
ત
સ
ા
િ
ી
ુ
ଇ
ା
େ
க
ச
ட
த
ந
ன
ப
ய
ர
ள
ா
ி
ீ
ு
ெ
ே
ை
்
త
స
ీ
ు
ಗ
ತ
ರ
ಸ
ಹ
ಿ
ು
ೂ
ೆ
್
ೕ
ം
ക
ട
ാ
്
ං
ක
ද
න
ප
බ
ම
ය
ර
ල
ව
හ
්
ා
ැ
ි
ී
ු
ෙ
ก
ข
ง
จ
ด
ต
ท
น
ม
ย
ล
ศ
ส
ห
อ
ั
า
ิ
ี
ึ
ื
ุ
ู
เม
็
่
้
์
ຈ
ັ
ົ
་
ག
ང
ེ
ོ
တ
န
ဘ
မ
ရ
သ
ာ
ု
ေ
း
္
်
ြ
ᜀ
ᜀᜅ
ᜀᜆ
ᜀᜋ
ᜃ
ᜃᜋ
ᜄ
ᜅ
ᜆ
ᜇ
ᜈ
ᜈᜅ
ᜉ
ᜊ
ᜋ
ᜌ
ᜍ
ᜎ
ᜏ
ᜐ
ᜑ
ᜒ
ᜓ
᜔
᜵
᜶
ក
ខ
ជ
ផ
ព
ម
រ
ល
ា
ែ
ំ
្
ᤡ
᩠
‌
‎
‏
‐
‑
–
—
‖
‘
’
“
”
†
•
…
‪
‬
‰
′
″
₁
€
₱
№
→
↔
↷
−
∞
≈
≤
③
④
⑦
═
♀
♂
♅
⛢
⤧
ⴰ
ⴱ
ⵉ
ⵍ
ⵎ
ⵔ
ⵖ
ⵜ
ⵢ
ⵣ
⺀
⺄
⺆
⺈
⺊
⺌
⺕
⺝
⺸
⺼
⿰
⿱
⿲
⿳
⿴
⿵
⿶
⿷
⿸
⿹
⿺
⿻
、
。
《
》
〢
あ
い
う
え
お
か
き
く
け
こ
し
す
そ
た
ち
て
と
な
に
の
ひ
ふ
め
も
よ
り
る
れ
ろ
を
ん
゙
゚
ア
ィ
イ
オ
カ
キ
ク
コ
サ
シ
ス
ソ
タ
ッ
ツ
テ
ト
ナ
ニ
ネ
ノ
ハ
ヒ
フ
ヘ
ホ
マ
ム
ュ
ユ
ョ
ラ
リ
ル
レ
ロ
ン
・
ー
㇁
㇂
㇄
㇇
㇈
㇉
㇓
㐁
㐄
㐅
㐌
㐫
㐬
㐭
㐮
㐱
㑒
㒵
㒸
㒼
㓁
㓞
㔾
㕛
㕣
㖾
㘝
㚅
㚇
㚔
㚘
㝉
㝡
㝴
㝵
㞋
㞢
㞷
㠩
㠭
㠯
㡀
㡭
㡿
㢲
㢴
㣇
㣺
㥯
㪅
㫄
㫐
㫒
㫺
㬅
㬎
㬥
㬰
㲋
㳄
㷠
㸒
㸚
㸦
㼌
㼲
㽞
㿟
䀠
䂞
䍃
䏍
䒑
䖍
䖒
䖝
䖵
䙴
䚻
䜌
䝿
䡛
䧹
䪞
一
丁
丂
七
丄
丅
丆
万
丈
三
上
下
丌
不
与
丏
丐
丑
专
且
丕
世
丘
丙
业
东
丞
丢
丣
两
严
並
丨
丩
个
丫
丬
中
丮
丰
丱
串
临
丵
丶
丷
丸
丹
为
主
丽
丿
乀
乂
乃
久
乆
乇
么
义
之
乌
乍
乎
乏
乐
乑
乔
乖
乗
乘
乙
乚
乛
乜
九
乞
也
习
乡
书
买
乳
乾
亀
亅
了
亇
予
争
事
二
亍
于
亏
亐
云
互
亓
五
井
亘
亚
亜
亞
亟
亠
亡
亢
交
亥
亦
产
亨
亩
享
京
亭
亮
亯
亰
亲
亳
亶
亷
人
亻
亼
亾
什
仁
今
介
仌
从
仐
仑
仒
仓
仕
他
仗
付
仙
仝
代
令
以
任
企
伊
伏
伐
休
会
伝
伦
伯
伴
伽
但
位
低
住
何
佘
余
佛
作
佤
佥
佧
佩
佯
使
來
侈
例
侌
侖
侗
依
侬
侯
侵
便
係
俄
保
俞
信
俫
修
俾
倈
倉
倍
候
倠
値
倮
傈
備
傣
僉
僕
僜
僧
儿
兀
允
兂
元
兄
充
兆
兇
先
光
兊
克
兌
免
兑
兒
兓
兔
党
兜
兟
入
全
兩
兪
八
公
六
兮
兰
共
关
兴
兵
其
具
典
兹
养
兼
冀
冂
冃
冄
内
冈
冉
冊
冋
册
再
冎
冏
冐
冒
冓
冖
冗
冘
军
农
冝
冡
冥
冫
冬
冰
冲
况
冷
准
凌
几
凡
凢
凯
凵
凶
凷
凸
凹
出
函
凾
刀
刁
刂
刃
刄
刅
分
切
刈
刍
刑
刕
刖
列
刘
则
刚
初
別
利
别
到
制
刺
則
削
剌
前
剡
剥
割
剽
劉
力
功
加
务
劦
助
努
劫
劳
劵
勃
勇
勉
勐
勒
動
務
勝
勞
勤
勹
勺
勻
勾
勿
匀
匂
包
匆
匈
匊
匋
匍
匕
化
北
匚
匝
匡
匪
匱
匸
匹
区
医
匽
匿
區
十
卂
千
卄
卅
卆
升
午
卉
半
卌
华
卑
卒
卓
单
卖
南
博
卜
卝
卞
占
卡
卢
卣
卤
卦
卩
卪
卫
卬
卯
印
危
即
却
卵
卷
卸
卻
厂
厃
厄
历
厈
厉
厌
厓
厘
厚
原
厤
厥
厨
厭
厲
厶
厷
厸
去
厼
厽
县
叀
参
參
叅
又
叉
及
友
双
反
叐
发
叒
叔
叕
取
受
叙
叚
叜
叟
口
古
句
另
叩
只
召
可
台
叱
史
右
叵
叶
号
司
叹
吂
各
吅
合
吉
吊
吋
同
名
后
吏
吐
向
吕
君
吝
吞
吠
否
含
启
吳
吴
吹
吾
呂
呆
呈
告
员
呙
周
命
咅
和
咎
咠
咢
咨
咪
咲
咸
咼
哀
品
哇
哈
哉
員
哥
哲
唐
商
啇
問
啚
啟
啬
啻
喀
善
喜
喬
單
喿
嗇
嗣
嘉
嘎
噩
噶
嚴
囊
囗
囘
囙
囚
四
回
囟
因
囧
囬
困
囱
囷
固
国
图
圂
圅
國
圍
圓
圖
土
圡
圣
圥
在
圭
地
圶
场
圼
均
坎
坐
坒
坚
坝
坡
坦
坪
坴
垂
垔
垚
埀
埃
埋
城
埔
埶
執
基
堂
堅
堆
堇
堡
堯
塔
塘
塞
增
墨
壘
士
壬
壮
壯
声
壳
壴
壹
壺
壽
夂
处
夅
夆
备
夊
夋
夌
复
夏
夒
夕
外
夗
夘
多
夜
夢
大
夨
天
太
夫
夬
夭
央
失
夲
头
夷
夸
夹
夻
夾
奂
奄
奇
奈
奉
奎
奏
奐
契
奓
奔
奚
奞
奠
奢
奥
奭
女
奴
奻
好
如
妄
妙
妟
妥
妻
妾
姆
姑
委
姜
威
娄
婁
婴
嬰
嬴
子
孑
孔
孕
孖
字
存
孚
孛
孜
孝
孟
季
孤
学
孫
孱
學
宀
宁
宂
它
宅
宇
守
安
宋
完
宏
宓
宗
官
定
宛
宜
宝
客
宣
室
宮
宰
害
家
容
宽
宾
宿
寄
寅
密
富
寒
察
寧
寨
審
寫
寬
寮
寸
对
寺
寻
寽
対
寿
封
尃
射
将
將
專
尉
尊
尋
尌
對
小
少
尒
尓
尔
尖
尗
尚
尞
尢
尣
尤
尧
尨
尭
就
尸
尹
尺
尻
尼
尽
尾
尿
局
居
屈
屋
屎
屏
屑
展
屖
屚
属
屠
屡
屬
屮
屯
屰
山
屵
屾
岁
岂
岑
岔
岛
岡
岩
岱
岳
岸
峨
峯
島
崇
崎
崑
崔
崖
崙
崩
嵬
嶲
巂
巛
川
州
巟
巠
巢
巤
工
左
巧
巨
巩
巫
差
己
已
巳
巴
巷
巸
巽
巾
巿
帀
市
布
希
帕
帚
帛
帝
带
師
席
帯
帶
常
幌
干
平
年
幵
并
幷
幸
幺
幻
幼
幽
幾
广
庁
広
庄
庆
庇
床
库
底
店
庚
府
度
庫
庭
庶
康
庸
廃
廉
廌
廛
廣
廩
廴
延
廷
建
廾
廿
开
弁
弃
弄
弇
弋
式
弓
弔
引
弗
弘
弜
弟
张
弥
弦
弱
張
強
强
彊
彌
彎
彐
彑
归
当
彔
录
彖
彗
彙
彝
彡
形
彥
彦
彧
彭
影
彳
役
彼
往
待
律
後
徒
得
徙
從
御
復
微
徵
德
徽
心
忄
必
忌
忍
志
忝
忠
忩
快
念
忽
忿
怒
思
怠
急
怱
总
恆
恒
恩
恭
息
恰
悉
悟
患
悤
悲
悶
惠
惡
惢
愁
愈
意
愛
感
慈
慧
慮
憂
憨
憲
應
戀
戈
戉
戊
戋
戌
戍
戎
成
我
戒
戔
或
戚
戠
戢
截
戲
戶
户
戸
戹
戼
戾
房
所
扁
扇
手
扌
才
扎
打
托
执
扬
承
折
报
拉
拜
拼
拿
挖
挝
挪
振
捷
掌
排
探
控
推
提
摩
撒
支
攴
攵
收
攸
改
放
政
敄
敏
敕
敖
敗
教
敝
敞
敢
散
敦
敫
敬
数
敷
數
斂
文
斉
斊
斐
斗
斤
斥
斩
斬
斯
新
方
於
施
斿
旁
旅
旋
族
无
旡
既
旣
日
旦
旧
旨
早
旬
旭
旱
旲
时
旺
旾
昂
昆
昇
昌
昍
明
昏
易
昔
昗
昜
星
春
昬
昭
是
昱
昴
昷
時
晃
晋
晏
晤
普
景
晶
智
暑
暴
曇
曩
曰
曲
曳
更
曷
書
曹
曼
曾
替
最
朁
會
月
有
朋
服
朔
朕
朗
望
朝
期
木
朩
未
末
本
札
朮
术
朱
朵
朶
朿
杀
李
杏
村
杜
束
条
来
杰
東
杲
杳
松
析
林
枚
果
枝
枲
枼
某
柔
查
柬
柰
柳
柴
标
树
栗
校
根
格
桀
桂
桑
桥
桼
梁
梅
條
梟
梨
梭
梯
棉
棘
棠
棥
森
植
楊
楚
楠
業
楽
概
榄
榮
槎
樂
樊
模
横
檜
欠
次
欣
欮
欲
欶
欽
款
歆
歇
歌
歛
止
正
此
步
武
歨
歪
歮
歯
歰
歲
歳
歴
歷
歸
歹
歺
死
殳
段
殷
殸
殹
殺
殻
殿
毋
毌
母
每
毒
比
毕
毚
毛
毳
氏
氐
民
气
氣
水
氵
氶
氷
永
氺
氾
求
汉
汗
汝
汞
江
池
汤
汪
沃
沓
沖
沙
沝
沧
河
油
治
泉
泊
法
波
泣
泥
泰
洁
洋
洒
洛
津
洪
洲
活
派
流
济
浜
浦
浪
浮
海
涅
涧
淡
淮
混
清
渚
渠
渡
渤
温
測
港
湘
湯
湾
溪
滋
满
滿
漢
漳
漸
潛
澳
濒
瀘
灣
火
灬
灭
灰
灵
灷
炅
炎
炏
炗
炙
炭
為
烈
烏
烝
焉
無
焦
焱
然
煞
熊
熏
熱
燕
營
燮
爪
爫
爭
爯
爰
爱
爲
爵
父
爻
爽
爾
爿
片
版
牙
牚
牛
牜
牟
牢
牧
牪
特
牽
犀
犬
犭
犮
犹
狂
狄
狊
狩
独
狺
猋
猒
猪
献
獻
玄
率
玉
王
玛
玟
玨
环
现
玻
珍
珎
珞
珠
班
球
理
琉
琴
琼
瑙
瑞
瑟
瑩
瑶
瓜
瓦
甘
甚
生
産
用
甫
甬
田
由
甲
申
电
甶
男
甸
甹
町
画
甾
畀
界
畏
畐
留
畜
畟
畢
畧
畨
番
畫
異
畱
畴
當
畺
畾
疆
疊
疋
疌
疑
疒
疾
癶
癸
癹
登
發
白
百
皀
皃
的
皆
皇
皋
皐
皕
皮
皷
皿
盃
盆
盇
盈
益
盍
盎
监
盒
盖
盛
盡
監
盤
盧
目
直
相
盾
省
眇
眉
看
県
眔
眞
真
眷
眼
眾
着
睘
睪
睿
瞏
瞢
瞿
矍
矛
矞
矢
矣
知
矦
矩
短
石
研
破
硏
碎
碑
碧
磊
磐
磨
示
礻
礼
社
祁
祖
祜
神
祟
票
祭
禀
禁
禄
福
禮
禸
禹
禺
离
禽
禾
禿
秀
秃
秉
秋
科
秝
秦
移
稟
種
稲
稳
穀
穂
穆
穌
穴
究
穹
空
穿
突
窄
窒
立
竒
竜
竝
竟
章
童
端
竹
笑
笠
第
筆
等
筍
答
箕
算
箴
節
篆
篤
篭
米
粉
粛
粟
粤
粦
粲
粵
糞
糸
糹
系
約
納
素
索
紫
累
細
絜
絫
絲
綠
維
網
綿
総
緑
線
縣
繇
纂
續
纍
纟
红
约
纲
纳
纽
练
细
绍
绪
维
缅
编
缶
网
罒
罔
罕
罗
罙
罡
罢
罪
置
署
罷
羅
羊
羌
羍
美
羔
羕
羗
羞
羡
羣
群
義
羲
羸
羽
翁
翏
習
翕
翟
翠
翼
老
耂
考
者
耆
而
耎
耑
耒
耳
耴
耶
耷
聂
聊
聖
聚
聪
聶
聿
肀
肃
肅
肉
肖
肙
肥
肩
肯
育
肴
胃
胆
背
胖
胜
胡
胥
能
脊
脩
脱
腊
膚
臣
臤
臧
自
臬
臭
臯
臱
至
致
臺
臼
臽
臾
臿
舀
舂
舄
與
興
舉
舌
舍
舒
舛
舜
舞
舟
般
艮
良
色
艳
艸
艹
艾
节
芒
芔
芦
芬
芮
花
芳
芺
芻
苏
苔
苗
苟
若
苦
英
茂
茅
茨
茶
茸
荅
草
荒
荔
荣
荷
荼
莆
莧
莫
莱
莽
菆
菊
菐
華
菲
萄
萌
营
萧
萨
萬
落
葉
著
葛
葡
董
葵
蒂
蒐
蒙
蒦
蒼
蓋
蓬
蓺
蔑
蔡
蕃
蕉
蕭
薄
薛
薦
薰
藍
藏
藥
藩
藻
蘭
虍
虎
虐
虒
虔
處
虖
虗
虘
虚
虛
虜
虞
虫
虽
蚤
蚩
蜀
蜜
蝦
融
蟲
蠡
血
行
衍
街
衛
衣
衤
表
衮
衰
袁
袞
裕
褭
褱
襄
襾
西
覀
要
覃
見
規
覓
覧
親
覽
见
角
解
言
訁
訇
計
訓
記
詞
話
詹
語
誩
説
調
諸
讀
讠
认
论
识
试
话
语
诺
调
谷
豆
豈
豊
豐
豕
豖
豙
象
豦
豩
豪
豸
貇
貝
貞
貟
負
貢
貧
貪
貫
責
貳
貴
買
費
賀
賁
資
賈
賏
賓
賔
賛
賞
賢
賣
質
賴
賽
贊
贝
贡
责
贯
贲
贵
贾
赓
赖
赛
赞
赤
赦
赫
走
赵
超
越
趙
足
路
蹇
身
躬
車
軍
軎
軟
輦
车
辛
辜
辞
辟
辥
辰
辱
農
辵
辶
边
达
过
迈
近
远
连
迦
迪
迷
追
退
送
逆
逊
逐
通
速
造
逢
連
逮
進
遀
遂
過
道
達
遠
遣
適
遮
遷
選
遺
邊
邑
邕
那
邦
邪
邵
郎
郡
部
郭
都
鄂
鄉
酉
酋
配
酓
釆
采
释
里
重
野
量
金
釒
釧
錄
錢
録
鍋
钅
钦
钵
铁
锡
锦
镇
長
镸
长
門
閃
閉
開
閏
閑
閒
間
閔
閩
閵
閻
闌
關
门
问
间
闷
闽
阑
阜
阝
阳
阿
陀
际
陈
降
院
陳
陶
隆
隊
隋
隘
隡
隨
隱
隶
隸
隹
隺
隻
隼
隽
难
雀
雁
雄
雅
集
雈
雋
雍
雐
雔
雙
雚
雜
雝
離
難
雨
雩
雪
雲
零
雷
雾
需
霍
霜
霝
霞
霸
靈
靑
青
非
靡
面
靣
革
靼
鞑
韋
韓
韦
韩
韭
韯
韱
音
頁
頃
項
須
頗
頡
頻
頼
題
顛
類
页
顿
颇
题
颜
風
风
飛
飞
食
飠
飯
養
饣
首
香
馬
馮
駦
马
骨
高
髟
鬥
鬯
鬲
鬼
魂
魚
魯
鮮
鱼
鲁
鲜
鳥
鳳
鸟
鹵
鹿
麃
麗
麥
麦
麻
黃
黄
黍
黎
黑
黒
黔
黨
黹
黽
黾
鼎
鼓
鼠
鼻
齊
齋
齐
齒
齿
龍
龙
龜
龟
龠
龰
龱
龴
龵
龶
龷
龸
龹
者
艹
（
）
１
：
？
～
𠀁
𠀃
𠀆
𠀉
𠀎
𠀐
𠁁
𠁣
𠂆
𠂇
𠂈
𠂉
𠂊
𠂋
𠂎
𠂒
𠂔
𠂛
𠂡
𠂢
𠂤
𠂬
𠂭
𠂹
𠃊
𠃋
𠃌
𠃍
𠃎
𠃑
𠃓
𠃔
𠃜
𠄌
𠄎
𠄠
𠄢
𠆢
𠆥
𠇍
𠈌
𠌵
𠓜
𠔉
𠔥
𠔼
𠔽
𠔿
𠕀
𠕁
𠕋
𠘧
𠘨
𠙻
𠙼
𠚏
𠚒
𠚤
𠚪
𠣏
𠤎
𠤕
𠥓
𠦄
𠦑
𠦝
𠧒
𠧗
𠧪
𠩺
𠪚
𠫓
𠫔
𠫤
𠬛
𠬝
𠬞
𠬢
𠬤
𠬶
𠮛
𠮦
𠮷
𠯑
𠱠
𠳮
𠷎
𡈼
𡉀
𡉵
𡌥
𡍮
𡏳
𡕒
𡕩
𡕰
𡖅
𡗗
𡗜
𡘆
𡘤
𡧱
𡨄
𡩧
𡬠
𡭽
𡰣
𡰥
𡰪
𡰯
𡰱
𡷈
𡸁
𡿨
𡿩
𡿪
𡿺
𢀖
𢀛
𢀩
𢁙
𢆉
𢆰
𢆶
𢇁
𢇇
𢉖
𢌬
𢌿
𢏚
𢑑
𢑚
𢖻
𢙣
𢛳
𢦏
𢦒
𢧵
𢼄
𢾕
𣁋
𣄼
𣅀
𣅽
𣍘
𣎳
𣎵
𣏋
𣏼
𣗥
𣥂
𣥖
𣦵
𣦼
𣧄
𣪊
𣪠
𣬉
𣳾
𣶒
𤇾
𤊽
𤐫
𤓰
𤔔
𤕨
𤣩
𤰇
𤰔
𤰞
𤴓
𤴔
𤽄
𥁑
𥁕
𥃦
𥃩
𥃭
𥇡
𥑟
𥘅
𥘈
𥝢
𥫗
𥱡
𦈢
𦉪
𦉬
𦉼
𦍌
𦍒
𦎧
𦐇
𦓔
𦔮
𦘒
𦙃
𦚏
𦣝
𦣞
𦣻
𦥑
𦥔
𦥯
𦨉
𦭝
𦰩
𧆞
𧈧
𧘇
𧰨
𧴪
𧴮
𧵩
𧾷
𨸏
𨾴
𩙿
𩠐
𩫏
𩵋
𪉷
𪜀
𪟽
𪠲
𪩲
𫇦
𫔭
𫜸
𫝀
𫠣
𫠩
𫢉
𫥞
𫩏
𫩠
𫪡
𫲽
𫶧
𬀷
𬐘
𬗌
𬙙
𬛸
𬜯
𬟩
𬯁
𬴘
𬺻
𬼉
𬼖
𭀰
𭁈
𭁨
𭅰
𭑈
𭕄
𭗼
𭤨
𭥫
𭻾
𮅕
𮊿
𮍌
𮍏
𮓗
𮥼
𮧮
廾
𰀁
𰀄
𰀈
𰀉
𰀕
𰀠
𰀡
𰀢
𰀪
𰁜
𰃮
𰆊
𰆘
𰋙
𰕎
𰢴
𰧭
𰯲
00--
01--
02--
03--
04--
07--
08--
123--
236--
383--
384--
84--
92--
a--
aa--
aag--
aak--
ab--
aba--
abd--
abe--
aber--
abi--
abo--
abori--
abs--
abu--
ac--
acantho--
accele--
ace--
ach--
act--
actinost--
acumina--
ad--
add--
ade--
adi--
adminis--
adminit--
ae--
aequa--
aero--
af--
afg--
afro--
afze--
ag--
aga--
agar--
agay--
agbal--
agburb--
agdar--
agde--
agdes--
agg--
aggi--
agi--
agin--
agipat--
agit--
agka--
agkam--
agkol--
agkom--
agluk--
agng--
ago--
agpa--
agpar--
agpu--
agra--
agre--
agrep--
agro--
agsag--
agsal--
agsar--
agsil--
agsin--
agsis--
agsub--
agsus--
agta--
agtagi--
agtar--
agtu--
agtult--
agu--
ah--
ai--
aig--
ain--
air--
aj--
ak--
aka--
aki--
akin--
ako--
aku--
al--
ala--
albe--
albi--
alder--
ale--
alek--
ali--
all--
alo--
also--
alt--
alta--
alter--
alu--
am--
ama--
amang--
amb--
ame--
ami--
amo--
amphi--
ampi--
ampl--
amri--
amyg--
an--
ana--
anag--
anak--
anang--
and--
ang--
ani--
ann--
ano--
ans--
ant--
anthro--
anti--
anu--
ao--
ap--
apa--
apag--
apala--
apanag--
apang--
apannaka--
ape--
apg--
aph--
api--
apicu--
apo--
appl--
applica--
apr--
apro--
apu--
aq--
ar--
ara--
arc--
arch--
are--
arg--
ari--
aristo--
ark--
arkeo--
arko--
arn--
aro--
arri--
art--
artic--
aru--
arund--
as--
asa--
asce--
ash--
asi--
asia--
asien--
aso--
asp--
asper--
ast--
astro--
at--
ata--
ate--
ati--
atom--
atro--
au--
aure--
aus--
austro--
auto--
ava--
ave--
avi--
aw--
awa--
ax--
ay--
ayu--
az--
azu--
b--
ba--
baba--
bac--
bach--
bad--
bag--
baga--
bagum--
bah--
bai--
bak--
bal--
bala--
balang--
bali--
bam--
ban--
bang--
banto--
bao--
bar--
bara--
barb--
bas--
bat--
bau--
bay--
bb--
be--
beau--
bego--
behi--
bei--
bel--
bell--
ben--
ber--
bersa--
bet--
bha--
bi--
bib--
biblio--
bibliogra--
bie--
bieber--
big--
bil--
bimm--
bin--
bing--
bio--
biogra--
bir--
biru--
bis--
bisik--
bit--
bla--
blech--
bli--
blo--
blos--
blu--
bly--
bo--
bob--
bog--
bol--
bon--
bor--
bos--
bot--
botsc--
bou--
boul--
bour--
bow--
box--
boy--
br--
bra--
brachy--
brass--
bre--
brevi--
bri--
brig--
brok--
brom--
bromeli--
brow--
bru--
bry--
bryo--
bu--
bucar--
buce--
buck--
bud--
bug--
bui--
buk--
bul--
bulb--
bum--
bun--
buo--
bur--
burb--
burn--
bus--
but--
bux--
bwa--
by--
byza--
c--
ca--
caba--
cada--
cag--
cai--
cajan--
cal--
calab--
calan--
cali--
callit--
caly--
cam--
camp--
can--
cao--
cap--
car--
carni--
cas--
cast--
cat--
cau--
caud--
cav--
cay--
cc--
ce--
cecc--
cele--
celebra--
cell--
cent--
cepha--
cer--
cerr--
ces--
ceutho--
ch--
cha--
chall--
chan--
char--
che--
chees--
chi--
chic--
chin--
chitt--
chloran--
cho--
chou--
chr--
chry--
chu--
ci--
cicat--
cie--
cilia--
cine--
cir--
citi--
cl--
cladoce--
cle--
cleis--
clo--
cly--
co--
coc--
coch--
cochin--
cock--
coel--
col--
collo--
colum--
com--
comm--
compo--
con--
confer--
consol--
cop--
copy--
cor--
cord--
corn--
corr--
corres--
cosm--
cott--
cow--
cr--
cran--
cras--
crassi--
crassifo--
cre--
cris--
crit--
cro--
croco--
cru--
cs--
ct--
cten--
cu--
cua--
cuatre--
cucu--
cucurb--
cum--
cup--
cur--
curr--
cy--
cycl--
cyclant--
cypho--
cysto--
cz--
d--
da--
dacty--
dae--
dag--
dagiti--
dah--
dai--
dak--
dal--
dall--
dam--
dama--
dan--
dao--
dar--
das--
datd--
dau--
daw--
day--
de--
dec--
decor--
defe--
defi--
defin--
dei--
dek--
del--
delim--
dem--
demet--
democr--
demonst--
den--
densifo--
depo--
der--
des--
desentra--
desig--
det--
deter--
dev--
di--
dia--
dicho--
dict--
did--
die--
diff--
differe--
dig--
dimm--
dimmak--
dimor--
din--
ding--
dio--
dipl--
diptero--
dir--
direct--
dis--
disap--
dispu--
dit--
diu--
diver--
divi--
dj--
do--
doc--
dod--
dog--
dol--
doli--
dolicho--
dolp--
dom--
don--
dong--
dor--
dou--
down--
dr--
dre--
dry--
du--
dua--
dulc--
dum--
dumak--
dumt--
dun--
dur--
dy--
dz--
e--
eb--
ebapo--
eben--
ec--
ecua--
ed--
edu--
ee--
efe--
eff--
eg--
egalita--
ehr--
ei--
ek--
eklesia--
eko--
eksistenti--
ekstra--
eku--
el--
ele--
elect--
elek--
elektro--
eleu--
eli--
ellag--
elli--
ely--
em--
embr--
emi--
emper--
empl--
en--
encoun--
end--
endos--
ener--
eng--
engel--
eo--
ep--
epi--
epiphy--
epist--
equi--
er--
ere--
eri--
erup--
eryth--
es--
eskept--
espe--
espi--
esse--
est--
estru--
et--
ethn--
ethnogra--
eti--
etim--
etno--
etrus--
ety--
eu--
euco--
euk--
eukar--
euro--
ev--
eva--
ever--
ex--
excav--
exce--
expl--
expo--
exten--
extre--
ey--
ez--
f--
fa--
fabr--
fair--
families--
fan--
far--
fas--
fav--
fe--
feat--
feder--
fedts--
feed--
fei--
feli--
fer--
ferr--
feu--
fi--
fig--
fili--
fin--
fire--
fitz--
fl--
fla--
flam--
flavi--
flo--
flora--
fo--
fol--
folk--
fon--
foot--
for--
fore--
foss--
foto--
fr--
fra--
fre--
free--
fri--
fried--
fu--
full--
fur--
g--
ga--
gad--
gal--
gam--
gan--
gang--
gangg--
gar--
gas--
gau--
ge--
geis--
gel--
gen--
gene--
geo--
ger--
get--
gha--
gi--
gig--
gigan--
gil--
ginu--
giuli--
giz--
gla--
gladia--
glandu--
glau--
glo--
go--
god--
gold--
gom--
gop--
gor--
goron--
goss--
gossy--
got--
gover--
gra--
gram--
gran--
gre--
green--
gri--
grie--
groen--
gron--
gru--
grø--
gu--
gua--
guaya--
gue--
gui--
guil--
guint--
gum--
gumat--
gun--
guy--
gw--
gy--
gypt--
h--
ha--
had--
hag--
hai--
hal--
ham--
han--
hand--
har--
hart--
has--
hat--
hau--
haw--
hay--
he--
head--
hebr--
hed--
heil--
hel--
hell--
hemis--
hen--
heo--
her--
herak--
herce--
het--
heter--
heterocl--
heu--
hew--
hey--
hi--
hidro--
hil--
him--
hin--
hiper--
hir--
hirsu--
his--
hit--
hn--
ho--
hodg--
hol--
holl--
holo--
home--
homin--
homo--
hondu--
hor--
hot--
hrvat--
hu--
hua--
huay--
hue--
hui--
humi--
hun--
hur--
hus--
hut--
hy--
hydr--
hydrop--
hylo--
hymen--
hymeno--
hypo--
i--
ia--
ib--
iba--
ibalb--
iber--
ic--
ica--
ice--
ich--
id--
ida--
idi--
idiay--
idu--
if--
ig--
ii--
ik--
ika--
iki--
il--
ila--
illus--
im--
ima--
imagi--
impa--
impak--
impat--
imper--
impl--
impro--
in--
ina--
inae--
inapro--
inaug--
inaw--
inay--
inc--
incor--
inde--
indo--
indofe--
indu--
ine--
infe--
infl--
influ--
ing--
inh--
ini--
inkedked--
inn--
ino--
inpa--
inpag--
inpalpal--
inpra--
insol--
insub--
insur--
int--
integ--
inten--
inter--
inu--
inya--
io--
ion--
ip--
ipa--
ipag--
ipi--
ir--
ira--
ire--
iro--
is--
isa--
isi--
iske--
iso--
isog--
ist--
isu--
it--
ita--
itakd--
iti--
ito--
itu--
iv--
iwa--
ix--
iya--
iyu--
iz--
j--
ja--
jag--
jam--
jan--
jar--
je--
jen--
jere--
ji--
jin--
jing--
jo--
joll--
jor--
ju--
jum--
jun--
k--
ka--
kabar--
kabkaba--
kabu--
kabuk--
kabun--
kad--
kada--
kadagiti--
kadk--
kai--
kak--
kaka--
kakay--
kal--
kala--
kalang--
kalb--
kali--
kalka--
kam--
kami--
kan--
kanung--
kapabil--
kapt--
kapu--
kar--
kara--
kari--
karku--
karna--
karni--
karo--
karug--
kas--
kash--
kasi--
kasupi--
kat--
kata--
katid--
katim--
katu--
kawa--
kay--
kd--
ke--
kebud--
kei--
kem--
ken--
ker--
ket--
key--
kh--
kha--
kher--
khi--
kho--
khu--
ki--
kid--
kil--
kilo--
kilopar--
kim--
kin--
kina--
kiniti--
kinn--
kinom--
kir--
kirch--
kiri--
kit--
kita--
kk--
kle--
klin--
klo--
klu--
kne--
ko--
koe--
kok--
kol--
kolekti--
koli--
kom--
komplementa--
komputa--
kon--
koot--
kop--
koper--
kor--
koro--
kos--
kow--
kpe--
kr--
kra--
kri--
kron--
krono--
ku--
kua--
kuadr--
kualipi--
kum--
kuma--
kumu--
kun--
kur--
kurik--
kuz--
kw--
kwa--
ky--
kya--
l--
la--
lab--
lac--
lact--
ladis--
lae--
laevifo--
lag--
lagu--
lai--
lak--
lal--
lam--
lan--
lancifo--
lang--
lanug--
lao--
lap--
lapu--
las--
lasio--
lat--
lati--
lau--
lav--
law--
lawa--
laz--
lc--
le--
lea--
ledifo--
leg--
lei--
leksiko--
lem--
len--
lenor--
leo--
leon--
lepi--
lept--
leptosper--
les--
let--
leuc--
lev--
lexico--
ley--
lg--
li--
lia--
libre--
lie--
lig--
likli--
lili--
lim--
limbur--
lin--
line--
ling--
lipp--
lis--
lit--
liu--
ll--
lla--
lo--
loa--
loan--
loc--
lod--
log--
lom--
long--
longi--
lou--
low--
lt--
lu--
lua--
lub--
lud--
lug--
lum--
lun--
lusi--
luz--
ly--
læ--
m--
ma--
maa--
maar--
mab--
mabi--
mabuy--
mac--
mad--
mae--
mag--
maga--
mages--
mah--
maha--
mahis--
mai--
maika--
maim--
maimp--
main--
maipa--
maipab--
maipat--
mais--
maisal--
maiya--
maje--
mak--
maka--
makapa--
makib--
makisa--
makro--
makun--
mal--
mala--
mali--
mam--
mama--
mamag--
mamng--
man--
mana--
manag--
mang--
mangi--
mangimat--
mangipa--
mangipak--
mangipat--
mangisa--
mangital--
mangpa--
mangpal--
mangsak--
mani--
mann--
manu--
mao--
map--
mapa--
mapag--
mapagta--
mapat--
mapet--
mapol--
mar--
mara--
mari--
mas--
masa--
masar--
masku--
maso--
mass--
masup--
mat--
mata--
mathe--
matri--
mau--
maug--
mauri--
maw--
may--
mayum--
maz--
mbu--
mc--
mcc--
mci--
mcki--
mcm--
me--
mea--
med--
mediter--
mega--
megi--
meh--
mek--
mel--
men--
meos--
mer--
meri--
mes--
meso--
met--
meta--
meteo--
meteoro--
mexi--
mey--
mi--
mia--
micr--
micro--
microf--
mid--
mig--
mikro--
mil--
min--
mina--
minami--
minis--
mir--
mira--
mis--
misce--
mit--
mix--
mm--
mo--
mobil--
moc--
mog--
moga--
mok--
mol--
mom--
mon--
mono--
monst--
mont--
monte--
mor--
mori--
mos--
mou--
moy--
mp--
mt--
mu--
muh--
muir--
mul--
multi--
mun--
mur--
muta--
mw--
my--
myr--
myrme--
myst--
mæ--
n--
na--
[...]
