!
"
#
##0
##1
##10
##11
##12
##13
##14
##15
##16
##17
##18
##19
##2
##20
##21
##22
##23
##24
##25
##26
##27
##28
##29
##3
##30
##31
##32
##33
##34
##35
##36
##37
##38
##39
##4
##40
##41
##42
##43
##44
##45
##46
##47
##48
##49
##5
##50
##51
##52
##53
##54
##55
##56
##57
##58
##59
##6
##60
##61
##62
##63
##64
##65
##66
##67
##68
##69
##7
##70
##71
##72
##73
##74
##75
##76
##77
##78
##79
##8
##80
##81
##82
##83
##84
##85
##86
##87
##88
##89
##9
##90
##91
##92
##93
##94
##95
##96
##97
##98
##99
$
%
&
'
(
)
*
+
,
-
.
/
0
00
000
0000
00000
0001
0002
0003
0004
0006
0007
001
00158
002
0022
0024
0024851
0028
003
0031
0033
0034
004
005
006
007
008
009
00996
01
010
0100000
011
0117
012
013
014
015
016
017
019
02
020
021
022
025
028
028642
029
03
030
033
035
037
039
03972
04
040
046
048
05
050
055
058
06
066
067
07
070
071
072
08
080
081
083
085
0858835622
09
090
092
096
098
1
10
100
1000
1001
1002
1003
10050
1006
1007
1009
101
1010
1011
1012
10125
1014
1016
1017
1019
102
1020
1021
1023
1024
1025
1026
1029
103
1032
1035
1037
1038
1039
104
1040
1043
1044
1045
1046
1047
1048
1049
105
1050
1051
1054
1055
1056
1057
1058
1059
106
1061
1063
1066
107
1071
1073
1075
1076
1078
108
1080
1085
1086
1087
1088
109
1092
1093
1095
1096
1098
1099
11
110
1100
1101
1102
1103
1104
1105
1106
1109
111
1110
1111
1112
1113
1114
1115
1116
1117
1118
1119
112
1124
1126
1127
1128
1129
113
1130
1136
1138
1139
114
1143
1144
1145
1146
1148
115
1150
1153
1154
1155
1157
1159
116
1163
11646
117
1173
1175
1177
1179
118
1181
1185
1186
1187
119
1191
1195
1198
1199
12
120
1200
12007
1202
1204
1206
1208
121
1210
1211
12148
12150
1216
1219
122
1220
12229
1225
12262
1227
1229
123
1230
12385
124
1241
125
1250
1254
1255
1259
126
1261
1264
126442
1265
1268
127
12705
1271
1274
1276
1277
128
1280
1281
1285
1286
1287
129
1290
1291
1294
1296
1299
13
130
1300
1303
1304
13047001
1305
13054001
1307
131
13103001
1313
1317
132
1325
1326
133
1334
134
1342
135
1350
1351
1352
1353
136
1362
1365
1367
1368
1369
137
1370
1371
1372
1378
138
1380
1389
139
1392
1396
1398
1399
14
140
1400
1402
1404
1405
1406
1409
141
1410
1412
1413
1417
142
1421
1422
1426
143
1431
1433
1437
1439
144
1440
1441
1442
1443
1444
1446
1447
1449
145
1450
1453
1454
1455
1457
1458
1459
146
1464
1468
1469
147
1470
1471
1472
1473
1474
1475
1476
1477
1478
1479
148
1480
1483
1484
1485
1488
1489
149
1490
1491
1492
1493
1494
1496
1497
1498
1499
15
150
1500
1501
1502
1503
1504
1505
1506
1507
151
1511
1512
1513
1514
15144
1515
1516
1517
1519
152
1520
1521
1522
1523
1524
1525
1526
1527
153
1530
1531
1532
1533
153301537
1534
1535
1536
1538
154
1540
1541
1542
1543
1544
1545
1546
1547
1549
155
1550
1551
1552
1553
1554
1555
1556
1558
1559
156
1563
1564
1565
1566
1567
1568
1569
157
1570
1571
1572
1574
1575
1577
158
1580
1582
1583
1585
1587
159
1590
1591
1592
1595
1596
1597
1598
1599
16
160
1600
1602
1603
1604
1605
1606
1607
1609
161
1610
1611
1613
1614
1615
1616
1618
1619
162
1620
1621
1622
1623
1624
1625
1626
1627
1628
1629
163
1630
1632
1633
1634
1635
1636
1638
1639
164
1640
1641
1642
1643
1644
1646
1648
165
1650
1651
1652
1654
1655
1656
1658
166
1660
1661
1662
1663
1664
1665
1666
1667
1668
1669
167
1670
1672
1674
1675
1676
1678
168
1680
1682
1683
1684
1685
1686
1687
1688
1689
169
1690
1691
1692
1693
1694
1695
1697
1699
17
170
1700
1701
1703
1704
1705
1706
1707
1708
1709
171
1711
1712
1713
1714
1715
1716
1717
1718
1719
172
1720
1721
1722
1723
1724
1727
1728
1729
173
1730
1731
1732
1733
1734
1735
1736
1737
1738
1739
174
1740
1741
1742
1743
1744
1745
1746
1747
1748
1749
175
1750
1751
1752
1753
1754
1755
1756
1757
1758
1759
176
1760
1761
1762
1763
1764
1765
1766
1767
1768
1769
177
1770
1771
1772
1773
1774
1775
1776
1777
1778
1779
178
1780
1781
1782
1783
1784
1785
1786
1787
1788
1789
179
1790
1791
1792
1793
1794
1795
1796
1797
1798
1799
18
180
1800
1801
1802
1803
1804
1805
1806
1807
1808
1809
181
1810
1811
1812
1813
1814
1815
1816
1817
1818
1819
182
1820
1821
1822
1823
1824
1825
1826
1827
1828
1829
183
1830
1831
1832
1833
1834
1835
1836
1837
1838
1839
184
1840
1841
1842
1843
1844
1845
1846
1847
1848
1849
185
1850
1851
1852
1853
1854
1855
1856
1857
1858
1859
186
1860
1861
1862
1863
1864
1865
1866
1867
1868
1869
187
1870
1871
1872
1873
1874
1875
1876
1877
1878
1879
188
1880
1881
1882
1883
1884
1885
1886
1887
1888
1889
189
1890
1891
1892
1893
1894
1895
1896
1897
1898
1899
19
190
1900
1901
1902
1903
1904
1905
1906
1907
1908
1909
191
1910
1911
1912
1913
1914
1915
1916
1917
1918
1919
192
1920
1921
1922
1923
1924
1925
1926
1927
1928
1929
193
1930
1931
1932
1933
1934
1935
1936
1937
1938
1939
194
1940
1941
1942
1943
1944
1945
1946
1947
1948
1949
195
1950
1951
1952
1953
1954
1955
1956
1957
1958
1959
196
1960
1961
1962
1963
1964
1965
1966
1967
1968
1969
197
1970
1971
1972
1973
1974
1975
1976
1977
1978
1979
198
1980
1981
1982
1983
1984
1985
1986
1987
1988
1989
199
1990
1991
1992
1993
1994
1995
1996
1997
1998
1999
2
20
200
2000
2001
2002
2003
2004
2005
2006
2006197
2007
2008
2009
201
2010
2011
2012
2013
2014
2015
2016
2017
2018
2019
202
2020
202041
2021
20210101
2022
2023
2024
2025
2026
2027
2028
2029
203
2030
20382247
204
205
2050
206
207
2072
208
2084
2088
209
21
210
2100
211
212
213
214
2148
215
216
217
218
2181
219
22
220
2200
22022365
221
22115274
222
22223449
223
224
225
226
2262
227
228
229
23
230
2305
2307
231
232
233
234
235
236
237
238
239
24
240
2400
241
241600000
242
243
2436
244
245
246
247
248
24851
249
25
250
2500
25065646
25065865
251
252
253
254
255
256
257
258
259
26
260
2600
261
262
263
264
265
266
267
2675
268
269
27
270
271
272
273
27329
274
275
276
277
278
279
28
280
2800
281
282
283
284
285
286
287
288
289
29
290
2900
291
292
293
294
295
296
297
298
299
3
30
300
3000
301
302
303
304
305
306
307
308
309
31
310
3100
311
312
313
314
315
316
3166
317
318
319
3192703
32
320
3200
321
322
323
324
325
326
327
328
32859555
32890
329
33
330
331
332
333
334
335
336
337
338
339
34
340
341
3417
342
343
344
345
346
347
348
349
35
350
3500
351
352
353
354
355
356
357
358
359
36
360
3600
361
362
363
364
365
366
367
368
369
37
370
37096514
371
372
373
37312
3732
374
375
376
3767
377
378
379
38
380
381
382
383
384
385
386
387
388
389
3897
39
390
391
392
393
394
395
396
396954
397
398
399
4
40
400
4000
401
402
4020
403
4039
404
405
4051
406
4067
407
408
409
41
410
411
4110238
412
413
414
415
416
417
418
419
4190
42
420
421
4217
422
4221
423
424
425
426
427
428
429
43
430
431
432
433
434
435
436
437
438
439
44
440
441
442
443
444
445
446
447
448
449
45
450
4500
451
452
453
454
455
456
457
458
459
46
460
461
462
463
464
465
466
467
468
469
47
470
471
472
473
474
47494
475
476
477
478
479
48
480
48043
481
482
483
484
485
486
487
488
489
48929366
49
490
491
4918
492
493
494
495
496
497
498
499
5
50
500
5000
501
502
503
504
505
506
507
508
509
51
510
511
512
513
514
515
516
517
518
519
52
520
521
522
523
524
525
526
527
528
529
53
530
531
532
533
534
535
536
537
538
539
54
540
541
542
543
544
545
546
547
548
549
55
550
551
552
553
554
555
556
557
558
559
56
560
561
562
563
564
56431036
565
566
567
568
569
57
570
571
572
573
57356
574
575
576
57607
577
578
579
58
580
581
582
583
584
585
586
587
588
589
59
590
592
593
594
595
596
597
598
599
599077
6
60
600
6000
601
602
603
604
605
606
607
608
609
61
610
611
612
613
614
615
616
617
618
619
61903
62
620
621
622
62265494
623
624
625
626
627
628
629
63
630
631
632
633
634
635
636
637
638
639
64
640
641
642
643
645
646
647
648
649
65
650
651
652
653
654
655
656
657
658
659
66
660
661
662
663
664
665
666
667
668
669
67
670
671
672
67292782
673
674
675
676
677
678
679
68
680
681
682
683
68377
684
685
686
687
688
69
691
692
694
695
696
697
698
699
7
70
700
7000
7007
701
702
704
705
706
707
708
709
71
710
711
712
713
714
715
716
7167
717
718
719
72
720
721
722
723
725
726
727
728
729
73
730
731
7318
732
73271
733
735
736
737
738
74
740
7408
741
74104
742
743
7432
744
745
746
747
748
75
750
751
752
753
754
7546
755
756
757
758
759
76
760
761
7614
762
763
764
765
766
767
768
769
77
770
771
772
773
774
775
776
779
78
780
781
7813
782
783
784
785
786
7864
787
789
79
790
7914
792
793
794
795
796
797
798
799
8
80
800
8000
801
8014
8018
802
8020
8028
803
804
8047
805
8050
806
8065
807
808
809
81
810
8108
8109
811
813
8133
8137
814
8147
815
816
8160
817
818
819
82
820
8204
82071
821
822
8221
8223
824
8248
825
826
8264
827
828
829
83
830
831
832
833
8339
835
837
839
84
840
841
842
843
844
8444
846
847
848
849
8493
85
850
85091
851
852
853
854
855
856
857
858
85883
859
86
860
8601
861
862
864
865
867
868
869
87
870
871
872
874
875
876
877
877058
87779
87893
879
88
880
881
882
883
884
885
886
887
888
889
89
890
891
892
893
894
895
89586
896
897
898
899
9
90
900
9000
901
902
903
904
905
906
907
908
909
909605
91
910
911
912
913
914
915
917
918
919
92
920
921
922
924
925
927
928
929
93
930
931
932
933
934
935
936
937
938
939
94
940
941
942
943
944
945
946
947
947643
949
95
950
951
952
953
954
955
956
957
958
9589436
96
960
961
962
963
964
965
966
967
968
969
97
970
971
972
973
974
975
976
977
978
9780521685535
9780521866453
979
98
980
981
982
983
984
985
986
988
989
99
990
991
992
994
995
996
997
998
999
:
;
<
=
>
?
@
[
\
]
^
_
`
a
aa
aachen
aadipen
aak
aaron
aas
ab
aba
ababa
ababaw
abaca
abad
abaga
abagatan
abagatana
abagatanna
abagatn
abagtan
abalbalay
abang
abanse
abashiri
abasida
abau
abaya
abbas
abbasid
abbey
abbong
abbreviata
abbreviations
abc
abd
abdul
abdullah
abe
abel
abellen
abelmoschus
abenida
abesedario
abestrus
abhasio
abiertas
abilidad
abilidadna
abinomn
abira
abjacks
abjad
abkhazia
ablan
ablanca
abo
abogado
abong
aboriginal
aborigines
aborihenio
aborihinal
aborlan
abot
about
above
abra
abraham
abram
abrams
abril
abrus
abs
absoluto
abstract
abstrakto
abu
abucay
abueg
abugida
abui
abulug
abun
aburra
abut
abuta
abutenna
abuyog
abvd
ac
acacia
acad
acade
academia
academic
academies
academy
acapulco
acca
accepted
access
accessdate
accessed
accession
according
account
accra
aceh
acehnes
acerosa
acevedo
achaeta
achievement
achille
achras
acid
acidosasa
aciotis
acmena
acmispon
aconcagua
acosta
acquired
acre
across
acrosynanthus
act
acta
acting
actinodium
action
activities
activity
actor
actors
actress
acts
acuminata
acunae
acutiflora
acutifolia
ad
ada
adaan
adad
adadayo
adadu
adagiti
adal
adalem
adalen
adalna
adam
adams
adan
adang
adans
adansonia
adaya
adayo
adb
add
adda
addaa
addaan
addaanda
addada
addan
addang
addanto
addis
additional
address
addu
ade
adelaar
adelaide
adelbert
aden
adi
adigi
adigue
adipen
adistrito
adjacent
adjusted
adl
adlai
admin
administrador
administrasion
administratibo
administration
administrative
administrativo
administribo
adolf
adolph
adolphe
adopted
adrian
adriano
adriatiko
adrien
adshead
adu
adua
aduana
aduda
adun
advanced
adventure
adventures
advisory
adzera
ae
aero
aeta
af
affair
affairs
affinis
affleck
afghanistan
afi
afp
afrancia
africa
africaines
african
africana
afrika
afrikaans
afrique
after
afternoon
afzelii
ag
aga
agad
agadadal
agadal
agadayo
again
against
agal
agala
agan
aganay
agangay
agapito
agar
agaramid
agarup
agarupda
agas
agasmang
agassawa
agatian
agatiddog
agaw
agay
agayat
agayos
agayus
agbalbalakad
agbalbalinen
agbalbaliw
agbalikuskos
agbalin
agbalinda
agbalinto
agbaliw
agballasiw
agbanbaniaga
agbanbanniaga
agbanniaga
agbasa
agbasbasa
agbatbatok
agbiag
agbibiag
agbilang
agbilbilin
agbirbiruk
agbiruk
agbisbisita
agbisbista
agbitbitin
agbukel
agbunga
agbungbunga
agburburas
agbutbutos
agbutos
agbuybuya
agcaoili
agdadamo
agdagsen
agdagup
agdakamat
agdalapdap
agdam
agdama
agdan
agdangan
agdepdepende
agduduma
agdumaduma
age
agedad
agency
agenda
agents
ages
agganganansia
aggapu
aggatgatang
aggiddiat
aggigiddiat
aggunay
aggungunay
aghu
agibagbaga
agikkat
agila
agilaklak
agin
agingana
agingga
aginggan
aginggana
agipabpablaak
agipakpakita
agipatpatarus
agiraman
agit
agited
agitited
agiwarwarnak
agkabagian
agkabagianda
agkabsat
agkakaarruba
agkakabagian
agkakabsat
agkalatkat
agkalkalay
agkamkammatalek
agkankanta
agkitkitikit
agkukuyog
agkusikos
agkutkuti
agkuyog
agkuyogda
aglaklako
aglalaok
aglaon
aglaonda
aglawa
aglay
aglaylayag
aglipay
aglomerasion
agmangngamangnga
agmaris
agmaymaysa
agnaed
agnagan
agnanaed
agnanayon
agnaynayon
agnes
agnew
agno
agnostiko
agnotisismo
ago
agob
agobobra
agoncillo
agong
agonis
agoo
agostino
agosto
agouticarpa
agpa
agpaabagatan
agpaadu
agpaamianan
agpababa
agpabalin
agpabpabuya
agpada
agpadaya
agpadpada
agpakanawan
agpakanigid
agpakatengnga
agpalaud
agpalpaliiw
agpalpalikmut
agpang
agpangato
agpanpanunot
agpapaay
agpapada
agparang
agparangda
agparis
agparparang
agparparawad
agparpartuat
agpartuat
agpataud
agpataudda
agpatingga
agpatpataray
agpatpataud
agpaut
agpaysao
agpayso
agpili
agporma
agraman
agrangrang
agraraem
agreement
agri
agricultural
agriculture
agrikultura
agrikultural
agrimensura
agririmpuok
agroforestry
agroforestrytree
agrukod
agrukodda
agrup
agrupo
agsabong
agsabsabong
agsanga
agsangsangaili
agsansanay
agsao
agsaoda
agsapa
agsasao
agsasaoda
agsasaruno
agserbi
agserserbi
agsina
agsinnaranay
agsinnublat
agsisina
agsisinnublat
agsmang
agsubli
agsukog
agsuksukimat
agsuksukisok
agsumbangir
agsupsuporta
agsurat
agsursurat
agta
agtaeng
agtagikua
agtagikuada
agtagtagikua
agtagtagilako
agtagtaginayon
agtakder
agtaktakder
agtalinaay
agtaltalek
agtaltalinaay
agtaltalon
agtaray
agtartaray
agtataeng
agtataengda
agtateng
agtaud
agtawen
agtawid
agtayag
agtaytayab
agtaytayyek
agtengnga
agtengngel
agtengtengel
agtengtengngel
agtignay
agtigtignay
agtimbukel
agtinnag
agtintinnag
agtrabaho
agtrabtrabaho
agtubo
agtubtubo
agtudo
agtuloy
agtultuloy
agtultuloyda
agtunos
agtunton
agturay
agturong
agturturay
agtutubo
aguada
aguak
aguascalientes
agubat
aguila
aguilar
aguinaldo
aguingay
aguirre
agukrad
agur
agurnong
agus
agusan
agusar
agusti
agustin
agususar
agutaya
agutayan
agwaywayas
agyus
ah
ahakea
ahan
ahensia
ahente
ahl
ahmad
ahmed
ahu
ai
aichi
aid
aida
aidi
aidia
aidiay
aids
aiello
ailey
aimara
aime
ainu
air
aires
airosperma
airport
airy
ais
aise
aiti
aiton
aix
aj
ajb
ajuy
ak
aka
akaba
akabira
akadagiti
akademia
akademie
akademiko
akadio
akaigawa
akan
akar
akas
akbar
akem
aken
aket
akikid
akin
akinbaba
akinday
akindaya
aking
akingato
akinlaud
akinngato
akinrebbeng
akinruar
akintengnga
akira
akita
aklan
aklanon
aklub
ako
akronimo
akrotiri
aks
aksidente
aksion
aksis
aktibidad
aktibidadna
aktibista
aktibo
aktinido
aktor
aktres
akuatiko
al
ala
alabama
alabang
alabat
alabel
alad
alagad
alagaden
alagoas
alain
alak
alaknanda
alalaki
alaldaw
alamada
alaminos
alan
alang
alangalang
alangan
alangilan
alaotra
alas
alaska
alaskey
alastair
alata
alatus
alaud
alba
albanes
albania
albano
albany
albay
alben
albert
alberta
alberto
albicans
albiflora
alboran
albrecht
albuera
album
alburquerque
alcala
alcalde
alcantara
alcoy
aldaw
aldawen
aldawna
alec
alegre
alegria
alehandria
alehandro
alejandrino
alejandro
aleksandar
aleksander
aleksandr
aleman
alemania
aleosan
alert
alerto
alessandro
aleutiana
alex
alexa
alexander
alexandra
alexandre
alexandria
alexei
alexievich
alexis
alfar
alfonso
alfred
alfredo
algae
algas
algeria
algiers
algoritmo
algrizea
alhebra
ali
aliado
aliaga
alibertia
alibungabong
alibungubong
alice
alicia
alien
aliguay
alikamen
alilem
alilin
alimodian
alingasaw
alipugpog
alis
alitagtag
aliwagwag
alkaloid
alkohol
all
alla
allacapan
allah
allan
allauch
alleizettella
allen
alliance
allies
allman
allmovie
allmusic
allon
alloneuron
alma
almagro
almanac
almario
almaty
almaza
almeda
almeida
almendras
almeria
almidon
almiralidad
almirante
alo
alog
aloguinsan
alois
along
alonso
alor
alpabetiko
alpabeto
alpes
alpha
alphabet
alphonse
alpilles
alpine
alpino
alseis
also
alston
alta
altar
altavas
alternatibo
although
altissima
altitud
alto
alu
alubijid
alugar
aluminio
alunan
aluta
alutiit
alva
alvarado
alvarez
alves
alvin
always
alwin
am
ama
amadeo
amadeus
amado
amaga
amai
amaianan
amain
amaioua
amami
amammo
amana
amanab
amanda
amanipud
amanita
amano
amapa
amaracarpus
amaral
amarasi
amariko
amasona
amaya
amaysa
amazon
amazonas
amazonia
amazonica
ambae
ambaguio
ambai
ambala
ambalatungan
ambel
ambelau
amber
ambiente
ambolong
ambon
ambos
ambroise
ambrosio
ambrym
ambulong
ame
amelia
america
american
americana
americano
americans
americas
amerigo
amerika
amerikana
amerikano
amerindiano
ames
ami
amia
amiaman
amian
amiana
amianan
amiananna
amianna
amihan
amin
amina
amino
amis
amistad
amitabh
amlan
ammad
amman
ammo
ammoda
ammok
ammon
ammona
ammuan
amniota
amo
amoebozoa
amoena
amomyrtella
amomyrtus
among
amor
amoreuxia
amorong
amos
amparo
ampat
ampatuan
ampelocalamus
amphiasma
amphiblemma
amphidasya
amphipogon
amphipterygium
amphistemon
ampibia
amplexicaulis
ampon
amsterdam
amt
amto
amulung
amundsen
amy
an
ana
anaaw
anabu
anacardiaceae
anacardium
anadyr
anagan
anahaw
anahawan
anak
anakda
anakna
analanjirofo
analawag
analitiko
analyse
analyses
analysis
anan
anao
anarkismo
anarkista
anarko
anastasio
anatole
anatolia
anatomia
anatomical
anatomiko
anatomy
anay
ancestry
ancient
and
anda
andalus
andalusia
andaman
andamanes
andamanica
anders
andersen
anderson
andersson
andes
andesita
andesitiko
andhra
andidit
andorra
andre
andrea
andreas
andrei
andres
andrew
andrews
andrianjafy
andric
andromeda
andy
ane
aneityum
ang
anga
angadanan
angalo
angan
angat
angaw
angay
angel
angela
angeles
angelina
angelo
angelou
angels
angep
anggulo
anghel
angin
anginggana
angiosperm
angiosperma
angiospermae
angiosperms
angkla
angkor
angku
angkuiko
anglikano
anglo
angola
angolensis
angono
angot
angry
anguilla
angular
angus
angusta
angustifolia
angustifolium
ani
ania
aniaman
anibersario
anibong
anibongan
anilao
anima
animado
animal
animalia
animals
animasion
anime
animista
anini
anislag
anisoptera
aniston
anita
aniwa
anjou
ankara
ann
anna
annaberg
annak
annakda
annakna
annales
annals
annapolis
anne
annette
annex
annie
anniniwan
anniversary
anno
annona
annonaceae
annong
annotated
annotations
annual
annuario
annurev
annuroten
annurotenna
ano
anod
anogeissus
anoling
anomalia
anomochloa
anon
anonang
anonymous
another
ans
ansisit
answers
ant
anta
antalan
antarctic
antarctica
antartika
antartiko
antequera
antherostele
anthony
anthorrhiza
anthospermum
anthropocene
anthropological
anthropology
anti
antigo
antigua
antillas
antilles
antioquia
antipas
antipoda
antipodal
antipodes
antipolo
antique
antiquity
antirhea
anto
antofagasta
antoine
antoinette
antolohia
anton
antoni
antonino
antonio
antony
antropologo
antropolohia
anu
anud
anup
anus
anuta
any
anyan
ao
aoi
aomori
aoranthe
aosta
aoste
ap
apa
apad
apag
apagilian
apagkatlo
apagsasao
apakasaritaan
apalit
apanawen
apannakabagi
aparato
aparri
aparte
apartheid
apaset
apat
apay
apayao
apc
apec
apeiba
apelyido
apelyidona
apex
apg
apgad
apganistan
aphaenandra
api
apiculata
apilyedo
apit
apitong
apj
aplaya
aplayana
aplikasion
aplya
apma
apni
apo
apolinario
apollo
apomuria
apona
apong
apongna
apopulasion
aporma
apostol
apotayo
apoy
app
appendices
appendix
appenzell
apple
appleton
application
applications
applied
appointed
approach
approved
apps
appunia
aprika
aprikana
aprikano
april
apro
aproasiatiko
aproksimado
aptera
apug
apulia
apuy
aqaba
aquatic
aque
aqueum
aquilino
aquino
ar
ara
arab
arabi
arabia
arabian
arabiano
arabic
arabica
arabiko
arabo
araceli
arachnothryx
arado
arafundi
arafura
aragon
aragones
arai
arak
arakan
araki
aramaic
aramat
aramaten
arameo
aramid
aramiden
aramidna
aran
aranda
arandai
araneta
arapesh
aras
arau
arauca
araucani
araw
arawe
aray
arayat
arbitrario
arbitration
arbor
arborea
arboretum
arbuscula
arc
arch
archaea
archaeological
archaeology
archaeplastida
archer
archibald
archipelago
archirhodomyrtus
architectural
architecture
archival
archive
archived
archivedate
archives
archiveurl
arctic
arcytophyllum
are
area
areal
arealstatistik
areas
areces
arechav
arellano
arem
arena
arenaria
arenas
arenicola
arevalo
arg
argao
argelia
argentea
argentina
argocoffeopsis
argostemma
arguilla
arhel
arhelia
arhentina
arhentino
ari
aria
arias
arica
ariel
arina
arinduyog
aringay
aristata
aristida
aristokrasia
aristokratiko
aristoteles
aristotle
aritao
aritmetika
ariwanas
arizona
ark
arkaiko
arkansas
arkeologo
arkeolohia
arkeolohiko
arkibo
arkidiosesis
arkimedes
arkitekto
arkitektura
arkitektural
arkive
arko
arles
arlington
arliss
armada
armand
armando
armas
armen
armenia
armenian
armenio
armm
arms
armstrong
army
arn
arne
arngian
arnold
arnott
aro
aromatica
aromaticum
aromatiko
arop
aroroy
around
arroyo
arrubayan
arrubia
ars
arsenio
arsobispo
art
arta
artabotrys
arte
arteche
artes
arthropoda
arthur
article
articles
artiko
artikulo
artikulona
artipakto
artipisial
artist
artista
artistiko
artists
artropoda
arts
artsakh
arturo
aru
aruaten
aruba
arundo
arxiv
aryan
aryano
as
asa
asahikawa
asames
asan
asaoen
asasideg
asawa
asawana
asawen
asean
aseksual
asemblea
asemblia
ash
asher
ashgate
ashibetsu
ashoka
ashoro
ashton
asi
asia
asian
asiano
asiatic
asiatiko
asideg
asidegda
asidiko
asido
asimov
asin
asinan
asingan
asiriano
asirio
asis
asiudad
asl
asli
aslian
asliano
asmat
aso
asok
asosasion
asp
aspects
aspekto
aspera
asperula
aspeto
aspirasion
aspleniaceae
aspleniineae
asplenium
asplundii
aspx
assabu
assam
asselineau
assembly
assessment
assessor
associated
associates
association
ast
asta
astaire
astana
astartea
asteka
asteraceae
asterids
asteroid
asteromyrtus
astiella
astrid
astro
astrologo
astrolohia
astronidium
astronomia
astronomical
astronomikal
astronomiko
astronomo
astronomy
astrophysical
astrophysics
astropisika
asturiano
asturias
asukar
asul
asuncion
asupre
asuri
aswan
at
ata
atab
atabay
atacama
atake
atan
atao
atap
atas
atatu
atauro
atawen
atayal
atayaliko
atchin
ate
ateismo
ateista
atenas
ateneo
atenna
atep
ateritorio
atheism
athens
athyriaceae
athyrium
ati
atiananna
atiddog
atimonan
atis
atkinson
atla
atlanta
atlantic
atlantico
atlantiko
atlas
atmospera
atmosperiko
atmosperio
atmospheric
atna
atok
atol
atoll
atomic
atomiko
atomo
atpb
atractocarpus
atractogyne
atrato
atribusion
atsimo
atsinanana
atsuta
atta
attapeu
attenborough
attorney
attraction
attractions
au
aua
aubagne
aubert
aubl
aublet
aubre
auckland
auct
audio
audit
audrey
auf
aug
august
augusta
auguste
augustin
augustine
augusto
augustus
aulacocalyx
aulandra
aunor
aurea
aurelio
aureus
auriculata
aurora
aus
austin
austral
australasia
australasian
australe
australia
australiae
australian
australiana
australiano
australiensis
australis
austria
austriano
austro
austroasiatic
austroasiatiko
austromyrtus
austronesian
austronesians
austronesio
author
authored
authority
authors
auto
autobiography
autobiograpia
autobiograpiko
autokratiko
automatiko
autonimo
autonomia
autonomo
autonomous
autonomy
autor
autoridad
autoritariano
aux
auxiliary
available
avalon
avant
ave
avec
aveleyman
avena
avenue
average
aves
avicenna
avid
avifauna
avignon
avila
aviv
avril
aw
awa
awag
awagan
awan
awanan
awananda
awanen
awang
award
awarded
awards
awat
awatan
awaten
away
awbono
aweng
awis
awit
awn
awyu
axel
axelius
axil
axillare
axillaris
axillary
axinaea
ay
aya
ayala
ayam
ayaman
ayamuom
ayan
ayat
ayayam
ayda
ayen
aymara
ayna
ayo
ayon
ayos
ayse
ayta
ayug
ayungon
ayup
ayus
ayusan
ayutthaya
aywan
az
azerbaijan
azerbaijani
azores
azov
aztec
azucar
azucena
azur
b
ba
baaben
baaen
baan
baao
baay
bab
baba
bababen
bababi
babae
babaen
babag
babai
baban
babana
babar
babaro
babassit
babatngon
babbabassit
babbai
baben
babilonia
babiloniko
babilonio
babingtonia
baboy
babuyan
babuyanes
babuza
baby
bac
bacacay
bacan
bacarra
bacayawan
bach
bachchan
bachelor
bacigalupo
back
background
backhousia
backlund
backnumber
baclaran
baclayon
bacnotan
baco
bacolod
bacolor
bacon
bacong
bacoor
bacsil
bacteria
bacungan
bad
bada
badaiko
badak
badan
baden
badian
badiang
badiangan
badoc
badusa
baeckea
baehni
baetan
baetanda
baffin
bafta
bag
bagabag
bagac
bagacay
bagakay
bagamanoc
baganga
bagani
bagas
bagbag
bagbagi
bagbagida
bagbagis
baggao
baghdad
bagi
bagida
bagina
bagio
bago
bagoaingud
bagobo
bagong
baguio
bagulin
bagumbayan
bah
baha
bahamas
bahasa
bahay
bahi
bahia
bahnar
bahnaric
bahnariko
bahr
bahrain
bai
baibai
baikal
bailey
baill
baillargeon
baillon
bailly
bain
baines
baining
baird
bais
baja
bajau
bajaw
baji
bajo
baka
bakal
bakalan
bakante
bakbaket
bakbakir
baker
baket
bakh
bakir
bakla
baknang
bakrang
bakras
bakrasna
bakteria
baku
bakud
bakun
bal
bala
balabac
balabag
balabagan
balada
balagbag
balagtas
balakad
balamban
balanan
balanga
balangao
balangat
balangiga
balangkayan
balansae
balanse
balaoan
balas
balasan
balasang
balata
balatan
balatukan
balaustion
balawbaw
balay
balayan
balayda
balayna
balbalan
balbalasang
balbalay
balbalikas
balboa
baldwin
balear
baler
balet
balete
balf
balfour
bali
baliaks
balibago
baliguian
balikas
balikasna
balikpapan
baliktad
balikuskos
balili
balilihan
balimbing
balindong
balines
balinese
balingasag
balingoan
balinsasayao
balintang
balintawak
balir
balisongsong
balite
balitok
baliuag
baliw
baliwan
balkan
balkans
ball
ballantine
ballasiw
ballasiwen
ballasiwenna
ballesteros
ballet
balligi
balmea
balogo
baloi
balong
balota
balsa
baltazar
baltiko
baltimore
baluarte
balud
balugo
balungao
baluno
balut
balyena
bamako
bamban
bambanag
bambang
bambantay
bambi
bamboo
bambusa
bambusoideae
ban
banaba
banag
banagna
banahao
banahaw
banak
banao
banaoang
banarsidass
banatay
banate
banaty
banaue
banaybanay
banayoyo
banban
banbanag
banbanatay
banbantay
bancal
bancr
bancroft
band
banda
bandar
bandus
bang
banga
bangad
bangar
bangbang
bangbanga
bangbanglo
bangco
bangen
banggai
bangir
bangirna
bangka
bangkag
bangkal
bangkay
bangkayna
bangkirig
bangko
bangkok
banglades
bangladesh
bangon
bangsamoro
bangued
bangui
banguingui
bangus
bani
banilad
banisilan
banjar
bank
banka
banko
banks
banna
bannawag
banner
bannuar
bano
bansa
bansalan
bansud
bantam
bantay
bantayan
banten
bantigue
bantik
bantog
banton
bantu
bantug
banu
banuar
bao
bapor
baptist
baptista
baptiste
bar
bara
baracbac
barack
baram
barangay
baranggay
baranoa
baras
barat
barayong
barb
barbara
barbaranggay
barbarko
barbaro
barbata
barbaza
barber
barbera
barbodes
barbosa
barbra
barbuda
barcelona
bardot
barents
bari
barikes
barili
bario
barira
barisentro
barit
barito
bariweswes
bark
barka
barker
barkla
barkley
barko
barlig
barmm
barnes
barnhart
barnum
baro
barobo
barok
baroko
baron
barongia
barot
barotac
baroy
barr
barranquilla
barrett
barrie
barrier
barrio
barrios
barron
barroso
barrow
barry
barrymore
barteri
barthe
barthelmess
bartholomew
bartl
bartlett
bartolome
barton
baruch
barugo
barukong
barupu
bas
basa
basaen
basak
basal
basalo
basalto
basay
basbassit
basco
base
based
basel
basey
bashevis
basi
basiao
basic
basikaw
basil
basilan
basilika
basilio
basilisa
basin
basis
basista
basketball
basketbol
basketbolista
baskin
basko
baskular
baso
basonimo
bass
bassano
bassit
bastasa
bastien
basud
bat
bata
bataan
batac
batad
batak
batan
batanes
batang
batangan
batangas
bataniko
bataraza
batas
batasan
batasang
batavia
batay
batayan
batbato
batchelor
batek
bateman
bates
bathysa
batikano
bato
baton
batong
batopedina
battista
battle
battuta
batu
batuan
batulao
bau
bauan
bauang
bauer
bauko
baum
baumann
baungon
bautista
bavaria
baw
bawah
bawang
baxter
bay
baya
bayabao
bayabas
bayaby
bayad
bayadan
bayambang
bayan
bayanan
bayang
bayani
bayanihan
bayat
bayawan
baybay
baybaya
baybayin
bayer
bayerisches
bayog
bayombong
bayono
bayugan
bazaar
bb
bbabaen
bbc
bc
bcd
bce
bd
be
beach
bean
bear
beard
beardslee
beast
beatles
beatrice
beaufort
beaumont
beautiful
beauty
beauv
beauvoir
beauvois
bec
became
because
becc
beccariana
beccarianum
beccariella
beccarii
beck
becker
beckett
become
becomes
becoming
becquerel
bed
bedbed
bedd
beddeng
beddengan
beddenganna
bedford
been
beery
beethoven
before
began
begawan
beginning
behind
behoa
beijing
being
beirut
bekati
bel
belait
belarus
bele
belen
belga
belgium
belhika
belis
belitung
belize
belknap
bell
bella
bellingshausen
bello
bellona
bellow
bellwood
belmondo
belmonte
belonophora
beltran
beltsville
ben
benavides
benedetto
benedict
benedicto
benefits
benesia
bengal
bengali
bengkulu
benguet
benigno
benin
benito
benjamin
benjamins
benkara
benn
benneg
bennett
benny
benson
benth
bentham
bentley
benus
beowulf
bequaert
bequaertii
ber
berau
berawan
berber
berbo
berchtold
berde
bereberes
berg
berger
bergman
bergoglio
bergson
beri
bericht
bering
berkeley
berlin
berlioz
bermuda
bern
berna
bernadette
bernakular
bernal
bernard
bernardino
bernardo
bernd
berners
bernhard
bernhardt
bernice
bernieri
bernstein
berre
berry
bersion
berso
bertebrado
bertebrata
bertiera
bertikal
bertolonia
bertrand
bertus
besao
besar
beses
besi
bessang
bessarabia
best
beta
betamponensis
betawi
beterano
bethesda
bethwyn
betsu
betsukai
bette
better
betty
betulia
between
beverly
bevo
beyer
beyond
bf
bfs
bgy
bha
bhagirathi
bhl
bhutan
bi
biag
biagda
biagko
biagna
biak
biaka
biasong
biała
bibai
bibcode
bible
biblia
biblical
bibliko
bibliographies
bibliography
bibliograpia
bibliograpiko
biblioteca
biblioteka
bibliothe
bibliotheca
bibsys
bical
bicol
bicolano
bicolor
bicutan
bid
bida
biddut
biden
bidentata
bidwillii
bie
bieb
bieber
bielorusia
bieloruso
bien
bienvenido
biernes
bietnam
bietnamis
biffin
biflora
bifuka
big
biga
bigaa
bigat
bigbiga
bigbigen
bigbigenna
bigelow
bihar
bihoro
bijdragen
bikkia
bikol
bikolano
bikonta
biktima
bil
bila
bilang
bilar
bilateral
bilateria
bilbilang
bileg
bilin
bilingual
bilion
biliran
bill
billboard
billion
billit
bima
bimmallasiw
bimmassit
bimmassiten
bimtak
bin
binagon
binalbagan
binaliw
binaliwan
binaliwanna
binalonan
binandere
binandereano
binangon
binangonan
binangonna
binario
binay
binayadan
bindoy
bineddengan
bing
bingawan
bingay
bingayenna
binh
binigbig
biningbingay
binisita
binisitana
binmaley
binn
bino
binomio
binondo
bint
bintulu
bintuni
binuangan
binukel
binuklan
binulan
binulod
binuluan
binutosan
bio
biodibersidad
biodiversity
biogeographic
biogeography
biographical
biography
biograpia
biograpiko
biograpo
bioheograpiko
biokimika
biokimiko
biol
bioleta
biolib
biolin
biological
biologo
biology
biolohia
biolohiko
biospera
biota
biotechnology
bioteknolohia
bird
birdlife
birds
birgitta
birhen
birhor
biri
birjia
birkha
birkinshaw
birmano
birmingham
birngas
birth
birthday
birtual
birtud
biruken
biruni
birus
bis
bisansio
bisantino
bisaya
bisayano
bisbisitaen
bise
biseksual
bisel
bishkek
bishop
bisiesto
bisikleta
bisin
bisita
bislama
bislig
bismarck
bissau
bisse
bisual
biswas
bit
bita
bitamina
bitbituen
bitla
bito
bitoon
bitter
bittorrent
bituen
bixaceae
bjo
bk
blaan
black
blackburn
blackwell
bladderfern
blagar
blah
blair
blake
blakea
blanc
blanca
blanche
blanchett
blanco
blang
blas
blasis
blechnaceae
blechnum
blench
blepharidium
blepharocalyx
bleu
blg
blica
blika
bliss
blng
block
blog
blogspot
blom
blood
bloods
bloom
bloomberg
bloomington
bloomsbury
blotiella
blue
blues
bluet
blume
blumea
blunt
blust
blyth
bmc
bnf
bo
boac
boano
board
bob
bobby
bobea
bobon
boca
bocaue
bocelli
bochotnica
bode
bodhi
bodies
body
boer
boerl
bogart
bogo
bogor
bogota
bogtong
bohai
bohe
bohemia
bohemiano
bohol
boholano
bohr
boiken
bois
boise
boiss
boivin
boj
bojer
bokabulario
bokabulariona
bokal
bokma
bokod
boksingero
bol
bola
boli
bolinao
boliney
bolivar
bolivarensis
bolivia
boljoon
bollywood
bolo
bologna
bolshevik
bolt
boluntario
bolus
bolyu
bomb
bomba
bombacaceae
bombay
bomberai
bombon
bon
bonaire
bonaparte
bonbon
bondoc
bone
bong
bonga
bongabon
bongabong
bongao
bongbong
boni
bonifacio
bonn
bonnie
bonpl
bonpland
bonsai
bontoc
bontok
book
booker
books
bookstore
boom
booth
bop
bor
boracay
borbon
border
borges
borgnine
borhidi
boris
borja
born
bornean
borneano
borneensis
borneo
bornm
borojo
borongan
bory
bosavi
bose
boses
bosman
bosnia
bosnio
bosporo
bosser
boston
bosworth
bot
bota
botanic
botanica
botanical
botanicus
botanik
botanika
botanikal
botaniko
botanique
botaniques
botanische
botanischen
botanists
botany
both
bothriospora
botnia
botolan
botong
botswana
bouc
bouches
bougainville
boulder
boulevard
bound
boundaries
boundary
bounty
bourbon
bourdillonii
bourgoin
boutros
bouvardia
bowern
bowie
bowman
box
boxes
boy
boyaca
boyce
boyd
boyer
boys
bp
bps
br
bra
brace
brachyantha
brachyotum
brachytome
bractea
bracteata
bracteosa
brad
brade
bradea
bradley
bradshaw
bradt
bragado
braganza
bragg
brahma
brahmagupta
brahman
brahmaputra
brahms
braille
brain
braktea
bramwell
branch
branches
brand
brandegee
brandenburg
brando
brands
brandt
branko
brao
brasil
brasiliana
brasiliano
brasiliensis
brassicaceae
brassicales
brassii
bratislava
braun
bravo
brazil
brazilian
brazzaville
bre
breaking
bremek
bremekamp
bremen
bremer
bremeria
brenan
brenania
breonia
breton
brevifolia
brevipedicellata
brevipes
brgy
brian
bridge
bridges
bridget
bridson
brief
brien
brigada
briggs
bright
brigitte
bril
brill
brillantes
bristol
brita
britain
britania
britanika
britaniko
britannica
british
britney
briton
britten
britton
brittonia
broad
broadcast
broadcasting
broadway
brochidodroma
brock
brocka
brockhaus
broderick
brodsky
brody
broglie
broken
brongn
brongniart
bronse
brook
brooke
brooklyn
brooks
bros
brother
brothers
brouillet
brown
browne
brownii
browser
bru
bruce
bruggen
bruhn
brullo
brummitt
bruneau
brunei
bruno
brunonia
brunswick
bruselas
brush
brussels
bruxelles
bryan
brynner
bryophyllum
bu
buadi
buadiposo
bual
bualan
buan
buang
buaya
buayan
bubalus
bubon
bubong
bubonga
bucal
bucana
bucao
bucas
bucay
buch
buchanan
buchenavia
bucida
buck
bucloc
bucquetia
bud
buda
budapest
buddha
buddhism
budget
budismo
budista
budong
bued
buena
buenasuerte
buenaventura
buenavista
buenlag
bueno
buenos
buffalo
buga
bugallon
bugan
bugang
bugas
bugasong
bugbugtong
bugeng
bugguong
bugho
bugines
bugis
bugnay
bugotu
bugtong
buguey
buguias
buhangin
buhay
buhi
buhid
building
buin
buis
buising
buka
bukal
bukaneg
bukawa
bukbukel
bukel
bukelna
bukid
bukidnon
buklen
buklenna
bukod
bukodda
bukodna
bukodtayo
bula
bulacan
bulaga
bulak
bulaka
bulakan
bulala
bulalacao
bulan
bulang
bulawan
bulbulan
bulbulkan
bulbulong
bulgaria
bulgaro
buli
bulihan
bulkan
bulkaniko
bulkanismo
bulkanologo
bulkanolohia
bull
bullata
bulletin
bullock
bullones
bully
bulo
bulod
bulong
bulongda
bulongna
bulosan
buluan
bulusan
bumaba
bumallasiw
bumang
bumasbassit
bumasbassiten
bumassit
bun
buna
bunak
bunawan
bundok
bung
bunga
bungada
bungahan
bungana
bungarimba
bungbunga
bungku
bungro
bunton
buntong
bunun
buo
buok
buokna
buot
burabod
burador
burate
burauen
burayok
burck
burckella
burdeos
bureau
buren
burgess
burghausen
burgos
buri
burias
burke
burkina
burma
burman
burmese
burmeso
burnay
burnett
burnham
burokrasia
burol
burr
burret
burrows
burstyn
burt
burton
burtong
buru
buruanga
burundi
bus
busa
busay
busbos
busel
bush
bushi
business
buster
bustos
busuanga
but
butan
butbut
butch
butig
butler
buto
buton
butong
butos
buttonbush
buttonweed
butuan
butuanon
buug
buwan
buxifolia
buxing
buya
buyo
buyot
by
bynes
byng
byron
byzantine
bɑ
c
ca
caa
caba
cabacungan
cabadbaran
cabadiangan
cabagan
cabalian
cabanatuan
cabanbanan
cabangahan
cabangan
cabangcalan
cabanglasan
cabaritan
cabaroan
cabarroguis
cabaruan
cabasaran
cabatuan
cabi
cabiao
cabinda
cabinet
cabisera
cable
cabo
cabral
cabrera
cabucgayan
cabugao
cabulihan
cabunga
cabungahan
cabusao
cabuyao
cacao
cactus
cadamba
cadayonan
caddah
cadiz
caesalpinioideae
caesar
caesia
cafe
caffra
cag
cagay
cagayan
cagayancillo
cagdianao
cage
cagney
cagua
cahiers
cai
caibiran
caicos
caimito
caine
caingin
cainito
cainta
cairns
cairo
cajanus
cajidiocan
calabanga
calabarzon
calabria
calaca
calaguas
calamagui
calamba
calamian
calao
calaocan
calapan
calape
calasiao
calatagan
calatrava
calauag
calauan
calauit
calayan
calbayog
calbiga
calcicola
calcutta
caldas
calder
caldero
calderon
cale
caledonia
caledonio
calendar
calero
calflora
calhoun
cali
calif
california
calinog
calintaan
calixto
call
called
calling
callipeltis
caloocan
calophylla
calophyllum
calubian
calumpang
calumpit
calunasan
caluya
calvescens
calvin
calycina
calycogonium
calycolpus
calycophyllum
calycorectes
calycosia
calycosiphonia
calycothrix
calyptranthes
calyptrogenia
calytrix
calyx
calzada
cam
camagong
camalaniugan
camalig
camaligan
camambugan
camanga
camangaan
camansi
camargue
camarines
cambess
cambodia
cambodian
cambridge
came
camelus
cameron
cameroon
camiguin
camiling
camille
camilo
camotes
camp
campaign
campamento
campbell
campeche
campii
campo
campomanesia
campos
campus
camus
can
canaan
canada
canadian
canal
canaman
cananga
canaria
canarias
canary
canberra
candaba
candelaria
candijay
candolle
candollea
candon
candoni
canephora
canescens
cang
canigao
canlaon
cannabis
cannes
canon
canonical
cantidad
cantino
canton
cantor
cao
caoayan
cap
capalonga
capas
cape
capell
capensis
capirona
capita
capital
capitan
capitata
capitellata
capitol
capiz
capiznon
capo
capones
capoocan
capote
cappell
capra
captain
captcha
capul
capurodendron
capuron
capuronii
caqueta
car
caraballo
carabao
caracas
caraga
caramoan
caramoran
carapichea
carbon
carcar
cardinal
cardona
cardoso
carducci
care
career
carey
caribbean
caridad
carigara
carl
carla
carles
carleton
carlin
carlo
carlos
carlota
carmen
carmona
carnamah
carnegie
carney
carnosa
caro
carol
carolina
caroline
carolinio
carolus
carolyn
carpacoce
carpenter
carphalea
carpio
carr
carranglan
carren
carrie
carrington
carroll
carson
cartagena
carter
cartier
cartographic
cartography
caruso
cary
caryophyllales
cas
casa
casablanca
casaje
casanare
casasia
casay
case
casecnan
cases
casey
casiguran
casilagan
casili
casimir
caspar
cassell
cast
castan
castellana
castile
castilla
castillejos
castillo
castle
castro
casuarina
casuarinaceae
cat
cata
catagbacan
cataingan
catalan
catalina
catalog
catalogue
catalogueoflife
catalonia
catanauan
catanduanes
catarina
catarman
catbalogan
cate
cateel
categories
catesbaea
catherine
catholic
catigbian
catmon
cato
cattleyanum
catubig
catunaregam
cauayan
cauca
caucasus
caudata
caudatus
cauliflora
causwagan
cav
cavaco
cavalier
cavendish
caves
cavinti
cavite
cawa
cawayan
cawit
cayetano
cayman
cb
cbn
cbnnews
cbs
cc
ccpv
cd
ce
cebu
cebuano
cecil
cecilia
cedsci
cefet
ceja
cela
celastrinum
celebes
celebica
celebiko
celebrated
celebrating
celebration
celebrity
celentano
celeste
celestial
celestino
cell
celsius
cenderawasih
cengage
censo
census
censusindia
centennial
center
centradenia
central
centre
centro
centronia
centropodia
centuries
century
ceo
cephalanthus
ceram
ceratopyxis
cerca
ceremony
ceres
ceriscoides
cerrado
cerro
certain
certificate
cervantes
ces
cesar
ceuta
ceylon
cf
cg
cgi
ch
cha
chabacano
chad
chadwick
chagos
chai
chair
chairman
challenge
challenges
cham
chamaelaucium
chamaepentas
chamberlain
chambers
chamelaucieae
chamelaucium
chamguava
chamic
chamiko
chamisso
chamorro
champ
champa
chan
chanakya
chandler
chandra
chang
change
changed
changes
changing
channel
chao
chapel
chaplin
chapm
chapman
chapter
characteristics
characters
charisse
charity
charles
charleston
charlie
charlize
charlotte
charlton
charo
charpentier
chart
chartacea
charter
charts
chase
chassalia
chatham
chatterjee
chaucer
chaw
chazaliella
chaze
che
checklist
cheek
cheese
cheeseman
cheke
chekhov
chelsea
chemical
chemistry
chen
cheney
cheng
cher
cherry
chester
chetumal
chev
chevalier
chevrette
chewong
cheyenne
cheyniana
chgt
chhattisgarh
chhe
chi
chia
chiang
chiapas
chiba
chicago
chicle
chico
chief
chiho
chihuahua
child
children
chile
chilean
chilena
chileno
chiloe
chimarrhis
chimbu
chimei
chin
china
chinensis
chinese
ching
chiococca
chiococceae
chione
chiou
chiov
chips
chisholm
chitose
chloridoideae
chloroplast
cho
choco
chocolate
chodat
choice
choiseul
chomelia
chomsky
chong
choo
chopin
chordata
choricarpia
chr
chrau
chris
christ
christenh
christenhusz
christiaan
christian
christiana
christianity
christie
christina
christine
christmas
christoff
christoph
christophe
christopher
chromalveolata
chronicle
chronicles
chru
chrysophylloideae
chrysophyllum
chu
chua
chuan
chubanshe
chukchi
chukotka
chulalongkorn
chun
chung
church
churches
churchill
chuuk
chuukes
ci
cia
cibeles
cicero
cid
cie
cienti
cies
ciliata
ciliosemina
cinchona
cinchoneae
cinchonoideae
cinco
cinema
cinerea
cinii
circa
circle
circulation
cirilo
ciro
citadel
citak
citation
cite
citerefipcc
citerefmalone
citerefmccorduck
citerefrussellnorvig
citerefwillmott
cities
citing
citizen
citrifolia
citrus
citta
city
citypopulation
ciudad
civil
civilization
ck
cl
clade
cladistic
cladistics
claim
claire
clapton
clara
clarence
clarendon
clarendonensis
clarin
clarissa
clark
clarke
clarkson
claro
class
classe
classes
classic
classical
classics
classification
classifications
classifying
claude
claudette
claudio
claus
clause
clausen
clav
clavata
claveria
clavifolius
clay
clayton
cle
clemens
clement
clemente
cleopatra
clerk
cles
cleveland
clidemia
cliff
clifford
clifton
climat
climate
climates
climatstationn
clint
clinton
clio
clive
clock
cloezia
close
cloud
clouse
club
cluster
clyde
cm
cn
cnn
cnrs
co
coahuila
coal
coast
coastal
coastline
coat
coccinea
coccocypselum
cochinchinensis
cochlospermum
coco
cocos
cocteau
code
codes
coefficient
coelospermum
coetzee
coffea
coffee
coffeeae
coffeoides
cogn
cogniaux
cogon
cohen
cojuangco
col
colbert
cold
cole
colegio
coleman
colfax
colima
colin
collected
collection
collections
college
collier
collina
collins
colloquial
colman
colo
cologne
colombia
colombiana
colombiano
colombo
colon
colonial
colony
color
colorado
columbia
columbus
com
combination
combined
combretaceae
come
comedy
comelec
comes
comics
coming
comm
command
commelinids
commentary
commerce
commercial
commission
commissioner
committee
common
commons
commonwealth
communal
communication
communications
communis
communism
communities
community
como
comore
comores
comoros
companion
company
comparative
comparison
compass
compendium
compilation
compiled
compiler
complete
complex
component
components
compositae
composition
compostela
comprehensive
comprising
compton
computer
comrie
con
conabio
conakry
concepcio
concepcion
concept
conception
concepts
concerning
concerto
concio
concise
concolor
concord
concordia
condaminea
conde
conditions
conference
conferta
confertus
conflict
conformis
confucius
congesta
congo
congreso
congress
congressional
conn
connecticut
connell
conner
connery
connor
conostomium
conquest
conrad
cons
consejo
conservation
conservatoire
considered
consolacion
consonants
consortium
constable
constant
constantin
constantine
constantino
constantinople
constitution
constitutional
construction
consuelo
consulta
contact
contains
contemporary
contenidos
content
context
conti
continent
continental
continents
continuum
contorta
contralto
contribution
contributions
control
convention
convergence
conversion
cook
cooke
coolidge
cooper
cooperation
coordinates
coordination
cope
copeland
copenhagen
copernicus
copiapo
copper
coppercups
coprosma
coptosapelta
coptosperma
copy
copyright
coquimbo
coral
corazo
corazon
corbett
corbin
corbusier
corchorus
corcuera
cordata
cordatum
cordero
cordiera
cordifolia
cordifolium
cordillera
cordon
cordova
cordylostigma
core
corella
coriacea
cormatan
cornejo
cornelio
cornelis
cornelius
cornell
corner
corolla
coron
corona
coronel
coroza
corp
corporation
corps
corpus
corpuz
corrales
correa
corregidor
corregimiento
correll
correspondence
corrick
corriere
corsica
corte
cortes
cortesi
cortez
corymbosa
corynanthe
coscolluela
cosmibuena
cosmic
cosmocalyx
cosmos
costa
costaricensis
costata
costatus
cota
cotabato
cotillard
cotton
cotylelobium
coudoux
could
council
count
counties
countries
country
county
courier
course
court
coussarea
coutaportla
coutarea
cove
cover
cowan
cox
coyhaique
cpdna
cpo
cpu
cquer
cr
cracraft
craib
craig
crane
cranfill
crassifolia
crassifolium
crassipes
craterispermum
craven
crawford
crc
created
creating
creation
creative
cree
creek
cremaspora
cremocarpon
creole
creta
crinipes
crinita
crinitus
crisis
crisostomo
crispin
cristata
cristina
cristo
cristobal
criteria
critic
critical
critically
critics
croatian
croce
croisilles
cronquist
crop
crops
crosby
cross
crossing
crossosomatales
crowe
crowley
crown
cruckshanksia
cruel
crusades
crusea
crusoe
crustace
cruz
crypteronia
crypteroniaceae
crystal
cs
csa
csiro
csv
csy
ct
ctr
cu
cua
cuartero
cuatrecasasii
cuatro
cub
cuba
cubanola
cubay
cubensis
cuckoo
cucurbitaceae
cucurbitales
cuenca
cuentame
cuernos
cufod
culaba
culasi
culham
culion
cultivated
cultivation
cultura
cultural
culture
cultures
cum
cumberland
cummings
cundinamarca
cuneifolia
cunn
cunningham
cunninghamii
cuntapay
cup
cupang
cuprea
curac
curie
curitiba
curlie
current
currently
curriculum
currimao
curt
curtis
curtisii
curva
curzon
cusa
cuspidata
custard
custom
customs
cut
cuta
cuthbert
cutucuensis
cuyapo
cuyo
cuyonon
cyanoneuron
cyathostemon
cycle
cyd
cynthia
cyperaceae
cyperus
cyprinid
cypriota
cyprus
cyril
cyrus
cystopteris
cz
czech
czechoslovakia
d
da
daan
daanbantayan
daang
dacanay
dacu
dadakkel
daddadakkel
dadduma
daddumapay
dado
daduma
dae
daerah
daet
dag
daga
dagami
dagan
dagana
dagat
dagatan
dagdaga
dagidi
dagii
dagiit
dagit
dagita
dagiti
dagitoy
dagitoyen
dagohoy
dagsen
dagti
daguiti
dagup
dagupan
dagus
dagusda
dahl
dahlem
dahlgren
dai
daig
daigdig
daihyakka
daily
daisy
daiti
daito
dajo
dakamat
dakamaten
dakami
dakdakel
dakdakkel
dakes
dakkel
dakota
daku
dal
dalaga
dalaguete
dalama
dalan
dalanan
dalawang
dalayap
dalby
dale
dalem
dali
dalig
dalisay
dallas
dalluyon
dallwitz
dalton
dalumpinas
dalupiri
dalzell
dalziel
dam
dama
damag
damar
damascus
damaso
damdamag
damdamili
dame
damnacanthus
damo
damulog
dan
dana
danais
danao
danau
danaw
dancalan
dance
dancer
dancers
dandan
dandanaw
dandani
dandaniw
dandanum
dandaragan
dandy
dane
danes
dang
dangerous
danggay
danglas
dani
daniel
daniels
danilo
daniw
daniwna
dans
dansalan
dante
danubio
danum
danumna
dao
dap
dapa
dapao
dapdap
dapitan
dapo
dar
dara
daraga
daram
darat
darby
dardanelo
daremdem
dari
darie
darikmat
darius
dark
darling
darrell
darussalam
darwin
darya
das
dasitiko
dasmarin
dasol
data
database
databases
datag
datagan
datar
datayo
date
dated
daten
datenverarbeitung
dati
dating
dato
daton
datos
datoy
datu
datum
dau
daughter
dauin
dauis
daulo
davao
dave
david
davidse
davidson
davies
davis
davisson
dawes
dawis
dawkins
dawn
dawson
day
daya
dayak
dayat
dayaw
daydi
daylight
days
dayta
dayto
daytoy
daytoyen
daytoyket
daytpy
dayyeng
db
dc
dd
dda
de
dead
deaf
dean
dear
death
debado
debate
debato
debia
deborah
debut
dec
decade
decandra
decaspermum
december
decipiens
declaration
declared
declares
declaring
declieuxia
decline
decock
decree
decreto
decurrens
decussata
deep
deer
default
defense
definition
definitions
degen
degeneri
degrado
degree
degreef
dei
dekada
deklarasion
dekorasion
del
dela
delagado
delaware
delegado
delfin
delfina
delgado
delhi
delimitations
dell
della
delon
delos
delprete
delta
dem
demanda
democracy
democratic
demographia
demographic
demography
demograpia
demograpiko
demokrasia
demokrata
demokratiko
demonio
dempwolff
den
deng
denggen
dengngen
denis
denmark
dennis
dennstaedtiaceae
denominasion
denr
densidad
densiflora
density
dentella
denticulata
denver
denzel
deparia
departamento
departemen
department
departmento
depende
dependency
depensa
depinitibo
deposito
deppaar
deppea
depresion
depressa
dept
deputado
der
derek
deriada
derived
derosas
derraas
des
desaparecidos
desarrollo
descartes
descendants
described
description
descriptions
descriptive
desert
desf
desierto
design
designasion
designated
designation
desimal
desinio
desire
deskripsion
desmond
desr
dessein
destinasion
destination
destinations
desv
det
detail
details
detarioideae
determination
detroit
deuterostomia
deutsch
deutsche
deutschen
deutscher
deutsches
deutschland
deux
development
devil
dewey
dfb
dgaiti
dhabi
dhaka
dhao
dharma
dhekelia
di
dia
diabetes
diadi
diagnostic
diak
diakritiko
dial
dialect
dialectology
dialects
dialektiko
dialekto
dialektona
dialogo
dialogue
diamante
diametro
diamond
diana
diane
dianstia
diaries
diario
diary
diaspora
diay
diaz
dibersidad
dibersio
dibersipikasion
dibision
dicamay
dicaprio
dick
dickens
dickson
dicot
dicotyledon
dict
dictionaries
dictionary
dictionnaire
did
didicas
didigra
diding
didymosalpinx
didz
die
died
diederich
diego
diels
dies
dieta
dietrich
difference
diffloth
diffun
digital
digitized
dignidad
digos
dihital
dihito
diksionario
diktador
diktadura
dila
dilasag
dilausan
dilemma
dilg
dili
diliman
dill
diller
dimakkel
dimaporo
dimasalang
dimayon
dimension
dimetia
dimiao
dimmakel
dimmakkel
dimmakkelen
dimmar
dimmayeg
dimteng
dimtengan
din
dina
dinadael
dinagat
dinalungan
dinalupihan
dinamarka
dinamiko
dinamita
dinapigue
dinas
dinastia
dinastiko
ding
dingalan
dinger
dingle
dingoen
dingras
dinguen
dinner
dinokumentuan
dinosauro
diodella
diodia
dioecious
diogo
dioksido
dionisio
dios
diosa
diosdado
diosen
diot
dipaculao
diplahan
diplazium
diplodiscus
diploknema
diplomacy
diplomasia
diplomata
diplomatic
diplomatiko
diplospora
dipolog
dipterocarp
dipterocarpaceae
dipterocarpus
dipterokarpo
diptongo
dirac
direct
directions
director
directory
direksion
direktor
direktorio
dirichletia
dirk
diro
dis
disakarido
disaster
disc
discolor
discospermum
discourse
discourses
discover
discovered
discoveries
discovering
discovers
discovery
discussion
disembre
disiembre
disiplina
disipulo
disk
disko
diskreto
diskurso
disney
dispersal
displaystyle
displina
disposable
dispute
dissertation
disso
dissotis
dissuor
dist
distance
distances
distansia
distant
distributario
distribution
district
districts
distrio
distrito
dita
dith
diti
ditions
ditoy
ditsaan
dittrich
divaricata
divergence
diversification
diversifolia
diversity
divided
divilacan
divine
division
divisoria
diwa
diwata
dix
dixon
diyos
dizionario
dizon
dj
djibouti
dk
dl
dm
dmitri
dna
do
doble
doblies
dobu
doc
docs
doctor
doctoral
doctrina
documentary
documentation
documents
dod
dodd
dodo
dodsonii
does
dog
doha
doi
doktor
doktorado
doktoral
doktrina
dokumentario
dokumentasion
dokumento
dolianthus
doliar
dolicholobium
dolichopentas
dolly
dolores
dolphy
dom
domain
dome
domenico
domestic
domestiko
domin
dominador
dominante
domingensis
dominggo
domingo
domini
dominica
dominican
dominicana
dominikal
dominikano
dominio
dominion
dominique
don
dona
donald
donasion
donat
donato
donax
dong
donie
donn
donna
donner
donoghue
donohue
donsol
door
dordrecht
dorig
doris
dorling
dorothy
dos
dosena
doso
dostoyevsky
dot
dotph
douard
double
doubleday
doug
douglas
douro
dove
dover
down
download
downloads
doyle
dp
dr
draft
dragon
drake
drama
dramatiko
dramatista
dramaturgo
drawing
dream
dreamachine
dreams
dregeochloa
drehu
dressler
drew
dreyfuss
drive
druce
druga
drum
drummond
drummondii
drupa
dry
dryer
dryobalanops
dst
dt
du
dua
dual
duane
duapulo
dubai
dubard
dubia
dublin
duchesne
ducke
dudley
dudua
due
duen
duero
dugo
duhat
dujali
dukado
duke
dukesa
dulag
dulang
dulangan
dulce
dulcificum
dulcis
dulian
dulon
dulong
dumagat
dumaget
dumaguete
dumakamat
dumakdakkel
dumakkel
dumalag
dumalapdap
dumalinao
dumalneg
dumangas
dumanjug
dumaran
dumarao
dumaya
dumidibuho
dumont
dumut
duna
dunal
dunaway
duncan
dundas
dung
dungon
dunn
dunne
duog
dupaningan
dupax
duque
duran
durance
durand
durango
durant
durham
duri
durian
during
duroia
dusa
dushanbe
dusner
dust
dustin
dusun
dusuniko
dutch
dutdot
duterte
dutta
dutton
duvalier
duvall
duyan
duyaw
dvd
dvor
dwarf
dwight
dwyer
dy
dyer
dylan
dynamics
dynasty
dzhigarkhanyan
dzyrzec
də
e
ea
each
eagle
earl
earle
early
earth
easily
east
easter
eastern
easton
eastwood
easy
eat
eaton
eb
ebanghelio
ebchecked
eberhard
eberhardtia
ebetsu
ebidensia
ebolusion
ebolusionario
ebook
ebrey
ec
ecb
ecclinusa
echague
echinocephala
echinochloa
ecija
eckl
eco
ecocrop
ecological
ecology
economic
economics
economies
economist
economy
ecosystem
ecosystems
ecs
ecuador
ecuadorensis
ed
eda
edad
eddie
eddowes
eden
edgar
edgardo
edge
edible
edilberto
edinburgh
edirne
edision
edison
edited
edith
edition
editions
editor
editore
editorial
editors
editrice
edizioni
edmond
edmondson
edmund
edmundo
edn
edo
edouard
edrastima
eds
edsa
edu
eduard
eduardo
educacio
education
educational
edukasion
edukasional
edulis
edward
edwards
edwin
ee
een
eerdmans
efate
effects
efloras
efren
eg
egalitarian
egan
egeo
eggplant
egypt
egyptian
ehekutibo
ehime
ehipsio
ehipto
ehrend
ehrharta
ei
eic
eichler
eiffel
eight
ein
eine
einstein
einwohnerzahlen
eipo
eisenhower
eisenstein
ek
ekari
ekis
ekliptiko
ekman
ekmanii
ekn
eko
ekolohia
ekolohiko
ekonomia
ekonomiana
ekonomika
ekonomiko
ekonomista
ekonomou
ekorehion
ekosistema
ekosona
ekoturismo
eksakto
eksaminasion
eksilo
eksklusibo
ekslusibo
eksonimo
ekspedision
eksperimental
eksperimento
eksperto
eksplorador
eksplorasion
eksplosibo
eksport
ekstensibo
ekstraordinario
ektaria
ekuador
ekualidad
ekuasion
ekuatorial
ekuinokso
el
ela
elaeagia
elaeoluma
elaine
elam
elar
elata
elbert
elbrus
elder
eleanor
elebasion
elected
election
elections
electric
electronic
elegans
eleksion
elektado
elektoral
elektrikal
elektriko
elektrisidad
elektromagnetiko
elektromagnetismo
elektron
elektronika
elektroniko
eleman
element
elementaria
elementario
elementary
elemento
elements
elena
elepante
elephant
eleptiko
elevation
elevations
eleventh
eli
elias
eliot
eliptiko
elisabeth
eliza
elizabeth
ellen
elliot
elliott
elliottii
elliptica
ellipticum
ellis
elmar
elmer
elmeri
elongata
elpidio
elsa
else
elseng
elsevier
elusive
elvis
elynia
elytis
elytrophorus
em
ema
emae
emanuel
emarginata
embahada
embahador
embassy
embes
emblems
embryophyta
emerging
emerhensia
emeritus
emil
emile
emilio
emily
emirato
emma
emmanuel
emmenopterys
emmet
emmy
emperador
emperor
empire
empires
empleado
empogona
empresa
en
enbiromento
enbironmental
enbironmento
encanto
encarnacion
encarta
enciclopedia
enclave
encuestas
encyclopaedia
encyclopedia
encyclopædia
end
endangered
endangeredlanguages
ende
endemic
endemiko
endemismo
ending
endl
endlicher
endokrina
endonimo
ene
enekbatus
energy
enerhia
enero
enfield
eng
enga
engan
engels
enggano
engineering
engineers
engl
england
engler
englerophytum
english
enigma
enimienda
eniwa
enne
enrico
enrile
enrique
enriquez
ensalada
ensiklopedia
ensiklopediko
ensima
entablado
entertainment
entidad
entire
entity
entre
entrecasteaux
entry
enumerasion
enumeratio
enumeration
environment
environmental
eol
eoseno
ep
epektibo
epekto
epi
epic
epifanio
epiko
epipitiko
episode
epiteta
epiteto
eponyms
eppo
epstein
equatorial
equisetifolia
equivalised
er
era
erasmus
erebus
erecta
eremolaena
eri
eric
ericales
erich
ericomyrtus
eriguel
erik
eriksson
erin
eris
erithalis
eritrea
erlinda
ermita
ernest
ernesto
ernie
ernodea
ernst
eroplano
eropuerto
erromango
error
eruption
erwin
erythrophylla
es
esa
esashi
escalante
escobar
escuela
esculenta
esculentum
eskandinabia
eskaya
eskayano
eske
esko
eskolar
eskoria
eskoses
eskosia
eskribiente
eskritu
eskudo
eskuela
eskuelaan
eskula
eskultor
eskultura
eslabo
eslobakia
eslobako
eslobenia
eslobeno
espada
espan
espana
espania
espaniol
espanol
espasio
espe
especiales
espektra
espektral
espektro
espektroskopia
espera
esperance
esperanto
esperanza
espesial
espesialisado
espesialista
espesimen
espesipikasion
espesipiko
espi
espino
espinosa
espiritu
espiritual
espongha
espora
essai
essay
essays
essem
essential
essentials
est
established
establishment
estadi
estadio
estadista
estadistika
estadistikal
estadistiko
estado
estados
estambre
estancia
estasion
estate
estatiko
estatua
este
esteban
estela
estelar
estepa
ester
estetika
estiano
estilo
estilona
estimate
estimated
estimates
estipula
estokolmo
estonia
estonio
estoria
estrada
estratehia
estratehiko
estratihiko
estratobulkan
estrella
estruktura
estruktural
estuar
estuaries
estuario
estudiante
estudiantena
estudio
eswatini
et
etanol
etc
eternal
ethics
ethiopia
ethnic
ethnicity
ethnobotany
ethnography
ethnologue
ethnology
ethnopharmacology
etika
etiketa
etiko
etimolohia
etimolohiko
etiopia
etiopiano
etniko
etnisidad
etno
etnograpiko
etnograpo
etnolingguistiko
etnonimo
etrusko
etsu
etudes
etymological
etymology
etymonline
eu
eucalyptopsis
eucalyptus
euclinia
eudicotidae
euge
eugen
eugene
eugenia
eugenio
eugenioides
eukariota
eukarya
eukaryota
eukaryote
eukaryotes
eukaryotic
euklides
euler
eunuko
eupolypod
eupolypodiales
euprates
eur
eurasia
eurasiano
euro
euromonitor
europa
europe
european
europeano
eurosids
eurosona
eurostat
euryomyrtus
euryphylla
eusebio
ev
eva
evaluation
evangelio
evangelista
evans
evasco
eve
evelyn
even
events
ever
everest
everett
everglades
every
everybody
everything
evidence
evol
evolution
evolutionary
evolving
ewald
ex
exallage
example
excel
excellency
excelsa
except
excerpt
exchange
exclave
executive
exell
exinvolucrata
exostema
expanded
expansion
expedition
experience
experimental
experts
exploration
explorations
explore
explorer
exploring
exposition
express
expressway
extant
extension
extinct
extinction
extra
ey
eye
eyes
eyma
eyvind
ez
ezo
f
fa
fabaceae
fabales
faber
fabian
faboideae
fabrica
face
facebook
faces
facility
fact
factbook
factfinder
facto
facts
factsheet
fagerl
fahrenheit
faint
fair
fairbank
fairbanks
faire
fairview
fairy
faith
falkland
fall
falls
false
famas
fame
familia
families
famille
family
familysearch
famous
famy
fan
fang
fanny
fao
faq
far
faraday
faramea
fargo
farmer
faroe
fas
fascicularis
fasciculata
fashion
faso
fast
fastest
fataluku
fate
father
fatima
faucherea
faulkner
fauna
faune
favorlang
fay
faye
fe
fear
feature
features
feb
february
fedden
federal
federation
federico
feliciano
felidae
felin
felinae
felipe
felis
felix
fellini
fellow
fellows
fellowship
female
feng
fennig
ferdinand
ferdinandusa
ferdowsi
ferguson
ferlus
fermi
fern
ferna
fernand
fernanda
fernandel
fernandes
fernandez
fernando
fernelia
ferns
ferranti
ferrer
ferrol
ferruginea
ferrugineum
ferry
festival
festschrift
few
feynman
ff
fi
fibonacci
fica
fico
fiction
ficulneus
fidel
field
fieldiana
fieldwork
fierro
fifth
fig
figs
figueiredo
figure
figures
fiji
fijiano
file
files
filgueiras
filipina
filipinas
filipino
filipinos
fillmore
film
filmcredit
filmid
filmreference
films
filomena
final
finance
financial
finch
find
findagrave
finder
finding
finds
finet
finisterre
finland
fiona
fiori
fire
firefly
firefox
first
firth
fisch
fischer
fish
fishbase
fisher
fisheries
fishery
fishes
fishing
fitovinany
fitzg
fitzgerald
five
fl
flag
flagelo
flagenium
flags
flame
flanders
flava
flavescens
fleming
fleroya
fletcher
flew
flickr
flight
flo
flood
floor
flora
florabase
florae
floral
flore
florence
florencia
florensia
florentino
flores
floribunda
floribundum
florida
floridablanca
flower
flowered
flowering
flowers
floy
floyd
fluvial
fly
flying
fm
fo
focus
foetida
foia
foley
folk
folklore
following
fonda
fonseca
fontaine
foo
food
foot
for
forbes
force
forces
ford
fordata
foreign
foreman
forest
forestry
forests
forever
foreword
forget
forgotten
forke
forkel
form
forma
forman
format
formation
former
formosa
formosan
formosano
formoso
formosum
forms
fornier
forrest
forschungsinstitut
forst
forster
fort
forte
fortich
fortul
fortuna
fortune
forum
forzza
fosberg
fosbergia
fosbergii
fossil
fossilworks
foster
found
foundation
foundations
four
fourier
fourn
fourth
foveolata
fowler
fox
foxx
fr
fra
fragilis
fragmenta
fragrans
fragrantissima
fraile
franc
franca
france
frances
francesco
franch
francia
francis
francisca
francisco
francisii
franck
franco
francophonie
franjieh
frank
frankfurt
franklin
frans
frantis
franz
fraser
fraseri
fraternum
fre
fred
freddie
frederic
frederick
frederik
fredric
fredrik
free
freedom
freeman
freire
french
freshwater
freshwaters
freud
frey
friburgo
frida
friday
friedman
friedrich
friend
friends
friis
fringe
frisco
fritz
frodin
froese
from
front
frontier
frost
frs
fruit
fruits
fruta
fruticosa
fryderyk
frye
fryxell
ft
fu
fuente
fuentes
fuga
fugu
fuhrer
fuji
fujian
fukagawa
fukui
fukuoka
fukushima
fulbrook
full
fuller
fulva
function
fund
funds
fundy
fune
fungal
fungi
fungorum
fungus
further
furubira
fusca
fuse
fusiformis
futami
futsu
futuna
futunano
future
fyodor
g
ga
gabaldon
gabi
gabin
gabinete
gable
gabon
gabriel
gabriela
gabu
gadaba
gaddang
gaddis
gadongan
gaertn
gaertner
gaertnera
gagangay
gagarin
gagnep
gainesville
gainza
gaius
gal
gala
galaktiko
galathea
galaxy
gale
galego
galela
galen
galeon
galeotti
galera
galeria
gales
galianthe
galicia
galilei
galileo
galimuyod
galium
gallego
gallery
galo
galoli
galopina
galvez
gama
gamay
gamba
gambang
gambia
gambier
gamble
game
gameng
games
gamma
gamu
gan
gana
ganassi
gandara
gandat
gandatna
gandhi
gane
ganetget
gang
ganga
ganganaet
ganganai
gangandat
gangani
gangemi
ganges
gangganaet
ganggani
ganggannaet
gantingan
gao
gaou
gapan
gapas
gapo
gapu
gapuanan
gapuna
gaputa
garbo
garcellano
garchitorena
garci
garcia
gard
garde
garden
gardener
gardenia
gardenieae
gardening
gardens
gardner
gardneri
garfield
garit
garland
garner
garson
gartens
garvida
gary
gas
gasan
gasat
gascoyne
gaspar
gasper
gaston
gasut
gata
gatad
gatang
gatas
gates
gatmaitan
gato
gattaran
gaua
gaulle
gauss
gautama
gawad
gawc
gay
gaya
gayang
gaynor
gayyem
gayyemna
gaza
gazette
gazetteer
gb
gbif
gdp
ge
geburtsort
geddes
gedney
geelvink
geiger
gela
gelasio
gemeinden
gen
gender
gene
genealogy
genera
general
generally
generation
generic
genericorum
generoso
genes
genetic
genetics
geneva
genghis
geniculatus
genipa
genius
genoa
genome
genomes
genomics
genre
gent
gente
gentianales
gentry
genus
geo
geoarchivos
geodetic
geoff
geoffrey
geogra
geografi
geographic
geographical
geographies
geography
geoid
geological
geology
geophila
geophysical
georg
george
georges
georgia
georgiano
geospatial
geothermal
ger
gerais
gerald
geraldine
geraldton
geranium
gerard
gerhard
gerila
gerilia
german
germania
germany
germplasm
gerona
geronimo
gerrit
gerry
gertrude
geschichte
geschlecht
gesellschaft
gesmundo
get
getafe
gets
getting
gg
ghali
ghana
ghats
ghazali
ghost
gi
gia
giacomo
giant
gibbs
gibraltar
gibson
gibus
gica
gid
gide
gifu
gigantea
gil
gilbert
gilbertes
giles
gilg
gilgamesh
gill
gillespie
gimi
gimmatang
gimmay
gimong
gimongan
gin
gina
ginasut
ginatilan
ginebra
gines
ginger
ginget
gingined
gingoog
gini
gio
gion
giosue
giovanni
giporlos
girl
girls
gish
gitara
gitarista
giulio
giuseppe
give
given
gives
gl
glaberrima
glabra
glabrata
glabrescens
glabrum
gladys
glan
glandula
glandular
glarus
glasgow
glasier
glasnevin
glass
glauca
glaucescens
gleason
gleasonia
gleasoniana
gledhill
glenda
glenn
gliceria
gliederungen
global
globalisasion
globalization
globe
globo
globosa
glomerata
gloria
glory
glosario
glossary
glossostipula
glottal
glottolog
glover
glucoside
gluema
glutinosa
glycine
gma
gmanetwork
gmbh
gmel
gmina
gmt
gnd
gnu
go
goa
gob
gobernacio
gobernacion
gobernador
gobernorato
gobierno
gobiernona
god
goddard
godfather
godfrey
godofredo
goebel
goes
goethe
gogh
gogodala
gogon
goia
going
goku
golan
gold
goldberg
golden
goldenb
goldenberg
goldfields
goldman
goldstein
goldwyn
golf
golfo
golin
golpo
golson
goma
gomes
gomez
gonavensis
gondwana
gone
gonza
gonzaga
gonzalagunia
gonzales
gonzalez
gonzalo
good
goodall
goodbye
goodman
goodwin
google
gop
gora
goran
gorda
gordon
gore
goroka
gorontalo
gorum
gospel
gossia
gossweileri
got
gottfried
gottlieb
gould
gov
govaerts
governance
government
governor
govpubs
goya
gp
gpo
gps
gr
graafil
grabidad
grabitasion
grabitasional
grace
gracia
gracilipes
gracilis
gradgrado
grado
gradona
graduado
graduate
graeme
graf
graff
graffenrieda
graggen
graham
gram
gramatika
gramatikal
gramatiko
gramineae
grammaire
grammar
grammatical
grammatik
grammy
gramo
gran
granada
granadensis
grand
grande
grandiflora
grandiflorum
grandiflorus
grandifolia
grandifolius
grandis
grandistipula
grandtner
granitica
granito
grant
granth
granulosa
grapiko
grapito
grass
grassbase
grasses
graubu
grave
graveolens
gray
graz
gre
great
greater
greatest
greece
greek
green
greenberg
greene
greenea
greenhills
greeniopsis
greenland
greenm
greenwich
greenwood
greer
greg
gregerson
gregor
gregoria
gregoriano
gregorio
gregory
grenadito
gresia
greta
greuter
grewioideae
grey
grid
griego
griff
griffith
griffithii
griffiths
grimes
grin
gris
griseb
groeninckx
groningen
gross
grosso
grossregionen
groucho
ground
group
grouping
groups
grove
grover
groves
growing
growth
gru
grupgrupo
grupo
gruyter
gsi
gu
gua
guadalajara
guadalcanal
guadalupe
guadeloupe
guaduella
guagua
guaini
guajira
guam
guanajuato
guang
guangdong
guangxi
guangxiensis
guangzhou
guarani
guardia
guardian
guarne
guatape
guatemala
guava
guaviare
guayaba
guba
gubat
gubatan
gubgubat
gudua
gue
guedday
guerra
guerrero
guettarda
guevara
guez
gugerli
guglielmo
gui
guiana
guianas
guianensis
guibuangan
guide
guidelines
guides
guido
guieb
guiguinto
guihulngan
guild
guill
guillaume
guillaumin
guilledo
guillermo
guimaras
guimba
guinayangan
guindapunan
guindulman
guine
guinea
guineense
guingona
guinhawa
guinness
guinobatan
guinsiliban
guipos
guitar
guitarists
guiting
guiuan
guiwan
guiwanon
guizhou
gujarat
gujarati
gulf
gulo
gulod
gum
gumaca
gumamela
gumay
gumil
gun
gunay
gundaway
gunggona
gungguna
gunglo
gunguna
gunma
gunnar
gunniana
gunnii
guns
gunung
guo
gupit
gupta
guriaso
gurigor
gurruod
guru
gustaf
gustav
gustave
gustavo
gut
gutalac
gutenberg
guthrie
guti
gutierrez
gutob
gutta
guy
guyana
guymer
guzma
guzman
gvp
gw
gwen
gymnocarpium
gymnospermae
gynochthodes
h
ha
haakon
haba
habanes
habitantes
habitat
habitatna
habsburg
hacienda
hack
hackman
had
hadji
haemodoraceae
haevermans
hagen
hagia
hagonoy
hague
hai
hain
haina
hainan
hainanensis
hainismo
haiti
haitiano
haiyan
haji
hajj
hakeifolia
hakka
hakodate
hal
hala
halacsy
halang
halcon
hale
half
halford
halili
hall
halldo
halle
haller
hallier
halmahera
halo
halonen
ham
hamaika
hamanaka
hamburg
hamel
hamelia
hamiguitan
hamilton
hamlin
hammarstro
hammond
hampshire
hamtic
han
hance
hand
handbook
handbuch
handel
handke
handle
hangul
hanja
hanks
hanna
hannah
hannibal
hanoi
hans
hansen
hanuno
hanyu
hao
hapo
hapon
haponesa
happened
happy
har
hara
harald
harbor
harbour
harcourt
hard
hardback
hardin
harding
hardware
hardy
harhardin
hari
harley
harlingii
harlow
harman
harmogia
harmony
harms
harold
harper
harpercollins
harrassowitz
harriet
harris
harrisburg
harrison
harry
hart
hartford
hartley
hartmann
haruai
harv
harvard
harvcoltxt
harvey
harvnb
harvtxt
has
haspelmath
hassler
hastata
hat
hatam
hattori
haudricourt
haufler
hauptbereichen
hausa
hausskn
havana
have
haven
havil
havilland
hawai
hawaii
hawaiian
hawayano
hawkes
hawking
hawkins
hawthorne
hawu
hay
hayakita
hayata
hayden
haydn
hayes
hayti
hayward
hc
hdi
hdl
he
head
headache
headed
heads
healey
health
heart
heat
heath
heather
heaven
hebei
hebreo
hebrides
hecht
hectares
hector
hedyotis
hegel
heidelberg
heights
heim
heine
heinemann
heinrich
heinsia
heinz
heisenberg
hektaria
held
heldr
helen
helena
helenistiko
heliantheae
helianthus
helikopter
helio
heliosentriko
heller
helmut
helong
help
helsinki
hemidictyum
hemingway
hemisperio
hemisphere
hemsl
hen
hend
henderson
hendricks
hendrik
henelohia
heneolohiko
henera
heneral
henerasion
henero
henesis
henetiko
henio
henley
heno
henoma
henrard
henri
henriettea
henriettella
henrik
henriquezia
henry
henryi
henryk
hentschel
heo
heograpia
heograpikal
heograpiko
heograpo
heolohia
heolohikal
heolohiko
heometria
heometriko
heopisikal
heopolitika
heopolitikal
heopolitiko
heotermal
hepburn
hepe
hepper
her
herald
herarkia
herb
herbaria
herbario
herbarium
herbermann
herbert
herbosa
here
herendeen
herington
heritage
herman
hermaniko
hermann
hermano
hermaproditiko
herminia
hermosa
hermosillo
herna
hernandez
hernando
hernani
hero
herodotus
heroes
herre
herrera
herschel
hertz
herusalem
herzegovina
herzog
hesperonesio
hess
hesse
heston
hesuita
hesukristo
hesus
het
heteromalla
heterophyllaea
heteropyxis
hexachlamys
hexandra
hexapetalus
heyse
hi
hibiscus
hibok
hibrido
hida
hidaka
hidalgo
hidden
hide
hidro
hidroelektriko
hidrograpiko
hidrohenio
hidroheno
hidrolohia
hidrolohiko
hierarchy
hierba
hiern
higante
higashi
higashimokoto
higgins
high
higher
highest
highlands
highly
highway
hiko
hil
hilaria
hilario
hilary
hilbert
hildebrandtii
hiligaynon
hill
hillary
hillebr
hillia
hills
hilongos
hilton
him
himalaya
himalayan
himamaylan
himes
himmelmann
himno
hinabangan
hinatuan
hindang
hindi
hindsia
hindu
hinduismo
hindustani
hindustaniko
hinebra
hingyon
hinigaran
hinirang
hinoba
hintonia
hinunangan
hinundayan
hipotesis
hippolyte
hiri
hiroo
hiroshi
hiroshima
hirsuta
hirsutum
hirta
hirtiflora
his
hispania
hispanic
hispaniola
hispano
hispida
hist
histo
histoire
historia
historiador
historian
historians
historic
historical
histories
historikal
historiko
historiograpia
historique
history
hit
hitano
hitchc
hitchcock
hitler
hits
hiv
hiw
hiyama
hlai
hler
ho
hoa
hoanya
hoava
hobart
hochr
hochst
hodge
hoffm
hoffman
hoffmann
hoffmannia
hogan
hogares
hoi
hoia
hokkaido
hokkien
hoku
hokuriku
hokusai
hokuto
holanda
holden
holdings
holiday
holland
hollandiae
holliday
hollrungiana
holly
hollywood
holmes
holmgren
holo
holokausto
holoseno
holst
holstein
holt
holton
holy
holzknecht
homalocalyx
home
homecoming
homeland
homepage
homer
homero
homes
homme
homo
homolle
homonhon
homonimo
honda
honduras
hong
honiko
honolulu
honor
honorario
honorio
honors
honour
honshu
hooghly
hook
hooker
hooper
hoover
hope
hopea
hopkins
horace
hordania
horisontal
horisonte
horizon
horizons
hormona
horn
hornbostel
horokanai
horse
horst
horticultural
horticulture
hortikultura
hortikultural
hortus
host
hot
hotel
hotte
hottea
houghton
hour
hours
house
household
housing
houston
houstonia
how
howard
howe
however
howland
howlin
hoyle
hr
hre
hrer
hsi
hsiu
hsu
ht
htm
htmcal
html
htmlplanet
http
https
hu
hua
huang
hubb
hubbard
hubble
huber
huberi
hubert
hudaismo
hudeo
hudio
hudson
hue
huebes
hues
hugh
hughes
hugo
hui
huila
huilaea
hul
huli
huliano
huling
hulio
hull
human
humanista
humanities
humanity
humb
humbertii
humblot
humblotiana
humblotii
humboldt
hume
humidex
humifusa
humilis
hummingbird
humphrey
hun
hunan
hundred
hung
hungaria
hungaro
hungduan
hunio
hunt
hunta
hunter
hunting
huntington
huon
hupiter
hurd
hurista
hurst
hurt
hus
hustisia
husto
hut
hutch
hutchinson
hutu
huveaune
huxley
hyde
hydnophytum
hydrographic
hydrophylax
hygroryza
hyland
hymenodictyon
hyo
hyperacanthus
hypobathrum
hypocalymma
hypothesis
hystrix
i
ia
iaai
ian
iatmul
iau
iba
ibaan
ibaba
ibabang
ibabangon
ibabao
ibaga
ibagbaga
ibajay
ibaloi
iban
ibanag
ibaniko
ibaraki
ibarra
ibatan
iberia
iberica
iberiko
iberio
ibero
ibge
ibig
ibilang
ibis
ibm
ibn
iburi
ic
icaal
ical
icar
icarus
icbn
icc
ice
iceland
icelandic
ich
ichiro
icon
icones
id
ida
idadakkel
idaho
idasig
idasigna
idauluan
iday
idaytoy
idea
ideas
identidad
identification
identifier
identities
identity
ideolohia
idi
idia
idiay
idin
idioma
idiy
ido
ie
ien
iers
ietf
if
ifugao
ig
igang
igat
igbaras
igbo
igges
igid
igidna
iglesia
igloria
ignacia
ignacio
ignatius
ignatz
igor
igorot
iguig
iha
iho
ihrer
ii
iiday
iidi
iii
iiti
iitlogan
ijsl
ik
ika
ikabil
ikabilna
ikan
ikeda
ikeddeng
ikeddengda
ikeddengna
iket
ikono
il
ilagan
ilaksid
ilang
ilasin
ilasinna
ilaud
ilawod
ilaya
ilayang
ildefonso
ile
ileleggak
ilelennek
iles
ilet
ili
iliada
ilian
iligan
ilihan
ilina
ilista
ilistana
ill
illana
illeg
illinois
illustrated
illustrations
ilocano
ilocos
ilog
iloilo
ilokano
iloko
ilonggo
ilongot
ilu
ilustrado
ilustrasion
ilustre
ilyich
im
ima
imad
image
images
imahen
imam
imatonan
imbagbaga
imbalance
imbalido
imbentor
imbentorio
imbes
imbricata
imbudo
imdb
imelda
imf
imigrante
imigrasion
immaculate
immad
immadu
immakar
immakarda
immalis
immalisda
immanuel
immatiddog
immay
immindayon
immitlog
immmuna
immun
immuna
immunada
immununa
impaay
impablaak
impact
impakto
impalawag
impalawagna
impasug
impatakder
imperial
imperiale
imperialismo
imperio
imperiona
imperium
implawag
implementation
implications
impluensia
impluensial
impluensiana
impormal
important
importante
imposible
impraestruktura
imprenta
imprimerie
imus
in
ina
inabak
inabakda
inabakna
inabanga
inactive
inad
inadadal
inadal
inadaw
inadministro
inagta
inaldaw
inampon
inamponna
inana
inanimado
inar
inaramid
inaramidna
inararamid
inasawa
inasawana
inati
inaturalist
inaugurated
inauguration
inaw
inawat
inawatna
inay
inayawan
inbaga
inbagbaga
inbagbagana
inbati
inbension
inbentor
inbernadero
inbertebrata
inbilin
inc
inca
incertae
include
included
includes
including
income
incorporated
increase
indanan
indang
indasig
indauloan
indauluan
indehenio
indeks
independence
independencia
independent
independiente
index
indi
india
indian
indiana
indianapolis
indiano
indias
indibidual
indica
indicators
indices
indie
indies
indigenous
indihenio
indihitado
indio
indo
indomalaya
indones
indonesia
indonesian
indosasa
indotsina
induced
induction
indumento
indus
indusia
industri
industria
industrial
industrialisado
industrialisasion
industry
indutok
indutokna
ine
ined
inegi
inekualidad
inequality
ines
infanta
infer
inferred
influence
info
infobase
informacio
informacion
information
ing
inga
ingangato
inge
inggana
inggles
inglatera
ingles
ingmar
ingrid
ingud
inh
inhenieria
inheniero
inhenniera
inhennieria
inhenniero
ini
inikkat
inimpluensiaan
inisial
inisiatibo
init
initao
initial
initiative
inkabil
inkabilna
inkapet
inkaskaso
inkata
inkeddeng
inkeddengda
inkeddengna
inklusibo
inkubadora
inladawan
inladawanna
inland
inlasin
inlista
inn
innaganan
innala
innalana
innayon
innem
inner
innerrhoden
innovation
ino
inobasion
inocencio
inopacan
inopinata
inorganiko
inpablaak
inpablaakda
inpakita
inpalawag
inpatakder
inpatarus
inploressensia
inpluensia
inpormal
inpraespesipiko
inpraestruktura
inpranalabbasit
inprastruktura
inquirer
inraman
inrangarang
inrangarangna
inranggo
inranggona
inrehistro
inreporta
inrugi
inrugina
insao
insasao
inscriptions
insee
insekto
inside
insidente
insider
insignis
insik
insika
insilpo
insina
insingasing
insingasingna
insinsina
inskripsion
inspirasion
inst
institusion
institut
institute
institution
institutionellen
instituto
instruction
instrumental
instrumento
insular
insularis
insulina
insuppiat
insupsuppiat
insurat
insuratna
insureksion
insursuro
int
intangible
inted
intedna
integral
integrated
integridad
intelektual
intelihensia
intellectual
intelligence
inter
interactive
interaksion
interaktibo
interchange
interesado
interestelar
interface
interim
interior
interlingua
interlingue
intermedia
internacional
internal
internasional
international
internationale
internet
internodes
intero
interpretasion
interpretation
intertribal
interview
inti
intimate
into
intono
intramuros
introduction
intrumento
intsik
inturong
inu
inudaran
inuit
inur
inurnong
inurnos
inus
inusar
inusarna
inususar
inut
inutda
invasive
inventing
invention
inventory
investigation
investment
involucrata
involucre
inyalisna
inyeg
io
ioc
ion
ionta
iowa
ipa
ipakita
ipalawag
ipalawagna
ipapan
ipapanaw
ipapatay
iparang
ipcc
ipecacuanha
ipil
ipni
ipupusay
ipupusayna
ipus
ipusna
iquique
ir
ira
irak
iraman
iramanna
iran
irani
iranian
iranica
iraq
irarang
irarutu
iraya
ire
ireland
irene
ireporta
irepresenta
irian
iriga
iris
irish
irkutsk
irla
irlanda
irlandes
irlandia
irminger
irmng
iron
irons
ironwood
irosin
irteng
iruruar
irurugi
irurumsua
irving
irwin
is
isa
isaac
isabart
isabel
isabela
isabella
isabellae
isabelle
isabelo
isagani
isaloensis
isan
isang
isarog
isasangpet
isbangan
isbn
isbukun
ise
isem
isertia
iseserrek
ishiguro
ishikari
ishikawa
ishmael
isi
isidoro
isidro
isilpo
isilpona
isina
isingasing
isip
isipna
isirawa
isis
iskrin
isla
islam
islamabad
islamic
islamiko
islana
island
islandes
islandia
islands
islas
isle
isles
ismail
ismo
isnag
isneg
iso
isolado
isonandra
isotopo
isport
israel
israeli
israelita
issn
issue
issues
istanbul
istat
istoria
isu
isuda
isuidi
isuket
isulan
isumet
isun
isuna
isunga
isunto
it
ita
itaas
itagu
italia
italian
italiana
italiano
italiko
italy
itan
itawit
itbayat
ited
iter
ithaca
iti
itikaatiddog
itilugar
itim
itimaysa
itis
itlog
itneg
ito
itogon
itoy
its
iturayan
iucn
iucnredlist
iulis
iuniverse
iupac
iv
ivan
ivana
ivanovich
ivar
ivisan
ivo
ivoire
iwa
iwam
iwamizawa
iwanai
iwate
iwoo
ix
ixora
ixoroideae
iya
iyaadu
iyallilaw
iyo
iyu
iyuumay
iz
izu
izumo
j
ja
jabal
jabonga
jacinta
jacinto
jack
jackie
jacks
jackson
jacob
jacobi
jacobs
jacobsen
jacq
jacqueline
jacques
jacquin
jae
jaen
jaena
jaffre
jagna
jah
jahai
jahrbu
jaime
jaimiqui
jain
jair
jakarta
jake
jakob
jalajala
jalal
jalaur
jalisco
jam
jama
jamaica
jamaicensis
jambi
james
jamie
jamindan
jan
jane
janeiro
janet
janick
janis
janiuay
jannings
jansen
january
japan
japanese
japonica
jarai
jaramillo
jardi
jardim
jardin
jaro
jaroslav
jart
jasaan
jasmine
jasminiflora
jasminoides
jason
jaub
java
javanese
javanica
javellana
javier
jawa
jawaharlal
jawi
jay
jaya
jayapura
jaza
jazz
je
jean
jeanne
jeanneret
jebb
jeddah
jeff
jefferson
jeffrey
jejomar
jen
jena
jenkins
jennifer
jennings
jenny
jennylyn
jens
jensen
jepson
jeremy
jero
jerold
jerome
jerrold
jerry
jersey
jerusalem
jerzy
jesse
jessica
jessie
jesu
jesup
jesus
jet
jewel
jewish
jf
jharkhand
jhl
ji
jia
jiabong
jiang
jiangxi
jie
jill
jim
jima
jimalalud
jime
jimenez
jimmy
jin
jinfang
jing
jinghong
jintotolo
jipapad
jiu
jj
jm
jn
jo
joa
joachim
joan
joanne
joaqui
joaquin
job
jodie
joe
joel
johan
johann
johanna
johannes
johanss
johansson
john
johnny
johns
johnson
johnsonii
johnst
johnston
johor
joint
jolie
jolo
jomalig
jon
jonas
jonathan
jones
jong
jonstlouis
joosia
joplin
jordan
jorge
jose
josef
josefa
josefina
joselito
joseon
joseph
josephine
josh
joshua
joule
journal
journalist
journals
journey
journeys
jovellar
jovet
joy
joyce
jp
jpg
jpl
jr
jru
js
jse
jstor
jt
ju
jua
juan
juana
juang
juanico
juban
jucunda
judas
judd
judgment
judith
judy
judziewicz
juk
jules
julex
julia
julian
julianne
julie
julien
juliet
juliette
julio
julita
julius
julugan
july
jumhu
jun
june
juneau
jung
jungle
junio
junior
juniperina
jupiter
jura
jure
juss
jussieu
just
justice
justin
jørgen
k
ka
kaada
kaadalem
kaadaleman
kaadalemna
kaadalen
kaadayo
kaadayona
kaadaywan
kaadda
kaaddana
kaadduan
kaadgiti
kaadu
kaaduan
kaaduana
kaaduanda
kaaduanen
kaaduanna
kaaduna
kaakaba
kaakabaan
kaakikidan
kaaktibuan
kaalaensis
kaamerikaan
kaanakan
kaano
kaapgad
kaarian
kaariping
kaaripingna
kaarruba
kaarrubaan
kaarrubada
kaarrubana
kaarrubayan
kaarrubayanna
kaarubaan
kaarubana
kaarubayanna
kaasideg
kaasidegna
kaasitgan
kaatapan
kaatiddog
kaatiddogan
kaatiddogna
kaatidog
kaawan
kababaan
kababalin
kabacan
kabagian
kabagianda
kabagianna
kabaketan
kabakiran
kabaknang
kabaknangan
kabalian
kabaliero
kabalio
kaballigian
kabambanatayan
kabambantayan
kabanbantayan
kabangibang
kabankalan
kabarbaro
kabaruan
kabasalan
kabassit
kabassitan
kabatbatuan
kabayagan
kabayan
kabayatan
kabeddeng
kabeddengna
kabibiag
kabibiagna
kabiitan
kabilegan
kabsat
kabsatna
kabugao
kabukbukodan
kabukbukodanda
kabukbukodanna
kabuksilan
kabul
kabuntalan
kabusor
kabusorna
kada
kadaanan
kadadakkelan
kadagidi
kadagidiay
kadagit
kadagita
kadagiti
kadagitoy
kadagsen
kadagti
kadagtii
kadagupan
kadai
kadaiti
kadakeklan
kadakelan
kadakkel
kadakkelan
kadakkelna
kadaksan
kadam
kadapan
kadaratan
kadawayan
kadawayn
kadawyan
kadawyana
kadawyanda
kadayawan
kadayeg
kadayegan
kadaywan
kadazan
kadda
kadena
kadenna
kadennana
kadeppa
kadgiti
kadi
kadingilan
kaditi
kadsaaran
kadua
kaduan
kaduana
kaduna
kaduogan
kafka
kagawa
kagimongan
kagoshima
kagudua
kahayagan
kahlo
kahon
kahoy
kai
kaibuksilan
kaibuksilanna
kaikaisuna
kaili
kailokuan
kaimito
kaimpluensiaan
kaimpluensian
kainantu
kainul
kaipapanan
kaipapananna
kaipuleohone
kairiru
kairui
kaiser
kajang
kakabsat
kakabsatna
kakaduana
kakaro
kakaruan
kakaw
kakaykayuan
kaki
kakuyog
kakuyogna
kala
kaladawan
kalaing
kalaingan
kalaingna
kalaka
kalakaan
kalakayan
kalalaingan
kalalainganna
kalalatakan
kalam
kalamian
kalamiisan
kalanchoe
kalapasan
kalapati
kalapaw
kalapsan
kalapsanna
kalasag
kalatak
kalatakan
kalatungan
kalaudan
kalaw
kalawa
kalawaan
kalawag
kalawana
kalawit
kalayaan
kaldera
kalding
kalendario
kalgaw
kalgoorlie
kali
kalibo
kalidad
kalidadna
kaligrapia
kalilangan
kalimantan
kalinga
kaliningrad
kalintegan
kalipa
kalipato
kalkalsada
kallugong
kalpasan
kalpasanna
kalsada
kalub
kalugnakan
kam
kamagaan
kamali
kamang
kamara
kamatayan
kamatis
kamaudian
kamayo
kambera
kambot
kamchatka
kameda
kamelio
kamemng
kamen
kameng
kamengda
kamengna
kamera
kamerun
kamholz
kami
kamifurano
kamiiso
kamikawa
kaminokuni
kamisunagawa
kamkameng
kammasapulan
kamoenai
kamoro
kamote
kampana
kampania
kampeon
kampo
kampong
kamposanto
kampus
kamus
kan
kanada
kanadiana
kanadiano
kanagan
kanagawa
kanagtuan
kanak
kanakanavu
kanakomyrtus
kanal
kananga
kanaq
kanares
kanawan
kanayon
kandidato
kane
kanen
kang
kangaroo
kangato
kangatona
kangatuan
kangchenjunga
kangean
kanggaru
kangimongan
kanginaan
kangrunaa
kangrunaaan
kangrunaan
kangrunaanda
kania
kaniada
kaniak
kaniana
kaniatayo
kaniet
kanigid
kanito
kanji
kankana
kankanaey
kankanayon
kankanayonda
kankanen
kankanta
kankanyon
kanlaon
kanluran
kannada
kannaway
kano
kanon
kansai
kansas
kanselor
kanser
kant
kanta
kantidad
kanto
kanton
kantone
kantonen
kantones
kanum
kanungpalan
kanungpalanna
kao
kaoba
kapada
kapadana
kapadasan
kapadpada
kapadpadana
kapai
kapalong
kapampangan
kapangan
kapanggepan
kapanglaw
kapanglawan
kapanunotan
kapanunotanna
kapanunutan
kapardas
kapardasan
kapas
kapasidad
kapatagan
kapategan
kapaut
kapautan
kape
kapeina
kapigsa
kapigsaan
kapilia
kapingamarangi
kapintas
kapintasan
kapitalisasion
kapitalismo
kapitalista
kapitan
kapitolio
kapitolion
kapitoliona
kapitulio
kapitulo
kaplasan
kapok
kapori
kappi
kappia
kappon
kaprikornio
kapsit
kapsula
kapudotan
kapuonan
kapur
kapusekan
kapuskol
kaputotan
kaputotanda
kaputotanna
kar
kara
karabakh
karaban
karabasa
karabukob
karachi
karafuto
karakoram
karakter
karakterna
karaman
karamchand
karang
karaniag
karaniagan
karao
kararag
kararua
karas
karayan
karbengan
karbohidrato
karbon
kardinal
kardis
kardomia
karel
karen
karer
karerna
karga
kari
karibal
karibe
karidad
karigat
karikut
karim
karit
karkar
karkarakter
karkarayan
karkarbengan
karkarna
karkaruay
karkulo
karl
karlomagno
karnai
karnataka
karne
karnero
karnow
karo
karolingio
karrer
karrerna
karro
karst
karta
kartograpo
karuay
karuburoban
karuburuban
karuotan
kas
kasaad
kasaho
kasai
kasakbayan
kasangayna
kasano
kasantuan
kasapaan
kasapulan
kasasaad
kasasaadna
kasayaat
kasayaatan
kasayaatna
kashmir
kasinsin
kasinsinna
kasisigud
kasla
kaso
kasoy
kaspio
kasta
kastila
kastilio
kastoy
kasuga
kasumbangir
kasupiat
kasuppiat
kasuppiatna
kata
katakunaynay
katalan
katalonia
katang
katanglad
katar
katayag
katayagan
katayagna
kate
katedral
kategoria
katengngaan
katerina
katharine
katherine
kathleen
kathmandu
kathryn
kathy
katie
katigbak
katimbengan
katipunan
katmandu
kato
katoliko
katolisismo
katologo
katrabahuanna
katrina
katu
katuduan
katuic
katuiko
katulagan
katulong
katurayan
katurodan
katutubo
kauai
kaubingan
kaudian
kaufman
kaufmann
kaukaso
kauki
kaulf
kaunaan
kaunda
kauneg
kaunegan
kaunlaran
kaur
kaure
kausel
kauswagan
kavalan
kawar
kawasaki
kawaw
kawayaan
kawayan
kawes
kawi
kawit
kay
kaya
kayan
kayapa
kayarigan
kayat
kayatda
kayatn
kayatna
kayeli
kaykayat
kaykayatda
kaykayatna
kaykayo
kayo
kayona
kayumanggi
kazakhstan
kazimierz
kazukuru
kazuo
kb
kd
kdpy
ke
kean
keaton
keay
keb
kebudayaan
kedah
keddeng
kedngan
keegan
keeling
kegan
kei
keighery
keith
kelabit
kelantan
kellaat
keller
kellogg
kelly
keltiko
kelvin
kemal
kemberano
kembra
kemie
kemikal
kemiko
ken
kenati
kendagiti
kendayan
kendrick
keng
kenia
kenka
kenkuana
kennedy
kenneth
kenni
kenny
kensiu
kent
kenti
kentucky
kenya
kenyah
kepler
kepulauan
ker
kerala
kerangas
kerinci
kernel
kerr
kershaw
keruing
keso
ket
ketagalan
ketdi
ketmabalin
ketti
kevin
kew
kewensis
key
keynes
keys
kg
kha
khaldu
khaldun
khamkeut
khammouane
khan
khang
khao
kharia
khartoum
khasi
khe
khmer
khmu
khmuic
khmuiko
kho
khoa
khu
khwa
ki
kia
kiaersk
kiangan
kiaw
kibawe
kiblawan
kibo
kibungan
kidapawan
kiddaw
kidman
kids
kie
kiel
kierkegaard
kiev
kikonai
kilima
kilimanjaro
kilivila
kilkilometro
kill
killing
killo
kilogramo
kilometro
kim
kimat
kimberley
kimika
kimiko
kimki
kimmaddua
kimmadduaan
kimmadua
kimmaduaan
kimmaro
kimmuyog
kimobetsu
kin
kina
kinaagpayso
kinaagtutubo
kinabalu
kinabaluensis
kinabukbukodan
kinadayeg
kinadios
kinapanglaw
kinapangruna
kinapangrunana
kinapapa
kinapapana
kinapigsa
kinapintas
kinapresidente
kinapudno
kinapudo
kinaray
kinarkulo
kinasaririt
kinasayaat
kinasiasino
kinasirib
kinaturay
kinatured
kinaubing
kinaudi
kinaugma
kinauna
kinauneg
kinawaya
kinayat
kinayatna
kinaykayat
kinaykayatda
kinaykayatna
kinaynayat
kind
kindersley
kinetiko
king
kingdom
kingdoms
kingfisher
kings
kingsley
kinonstrukto
kinshasa
kinuna
kinunana
kinunkuna
kinuyog
kipet
kipling
kipot
kiput
kirgistan
kiribati
kirk
kirkbr
kirkbridei
kirkii
kirundi
kisar
kiss
kiswahili
kit
kita
kitaen
kitahiroshima
kitahiyama
kitami
kitana
kitanglad
kitcharao
kitchener
kitlv
kivung
kiwai
kiwaiano
kiwi
kk
klade
kladistiko
klado
kladograma
klamer
klase
klasikal
klasiko
klaus
klein
kleinii
kleriko
klero
kliente
klima
kline
klinikal
klokov
kloroplasto
klotzsch
kluwer
km
knapp
knew
knight
knopf
know
knowledge
known
knox
knoxia
knud
knut
knuth
ko
kobe
kobon
koch
kochummen
koda
kodaku
kodansha
kodi
kodigo
kodkodigo
koenig
koepisiente
koetjape
kognado
kognitibo
kohautia
koine
koko
kokota
kokujyoho
kol
kola
kolaboratibo
kolambugan
kolegio
kolehio
koleksion
kolektibo
kolkata
kolonia
kolonial
kolonialismo
kolonisasion
kolonista
kolor
kolordapo
koma
koman
kombension
kombento
kombinasion
komedia
komediante
komentario
komering
komersial
komersio
komidiante
komiks
komision
komisionado
komisioner
komisyon
komite
komodo
komoriano
komoros
kompakto
kompania
komparatibo
kompederasion
komperensia
kompiuter
kompleks
kompleto
komplikado
komplikasion
komponente
komposer
komposision
komposito
kompositor
komprehensibo
kompromiso
kompuesto
komuna
komunidad
komunikasion
komunismo
komunista
kon
konbension
kondado
konde
kondision
konduktor
koneksion
kong
kongkistador
kongo
kongregista
kongresional
kongresista
kongreso
koninklijk
koninklijke
konipero
konjo
konkreto
kono
konpederado
konpederasion
konperensia
konpusianismo
konrad
konsehal
konseho
konsenso
konsentrasion
konsepto
konserbasion
konserbatibo
konserbatismo
konserbatorio
konsetrasion
konsierto
konsilo
konsilor
konsonante
konstantin
konstantino
konstantinopla
konstelasion
konstituente
konstruksion
konsulado
konsultasion
konteksto
kontemporaneo
kontemporario
kontemporariona
kontesto
kontinental
kontinente
kontra
kontrapapa
kontrato
kontribusion
kontribusionna
kontributor
kontrobersia
kontrobersial
kontrol
kontsa
konurbasion
kooperasion
koord
koordinasion
koordinato
kopa
kopia
kopiko
koptiko
kor
korales
korall
koran
koraput
kordiliera
korea
korean
koreano
koreo
koreograpo
korica
koridor
koriente
korniko
koro
korola
koronadal
koronel
korporado
korporasion
korserbasion
korte
korth
korthals
korthalsii
korupun
korwa
kosmiko
kosmolohia
kosmonauta
kosmopolitano
kosmos
kosovo
kosrae
kosterm
kostermans
kota
kotelni
kotte
kottelat
kova
kra
kracht
krai
krako
kramer
kratie
krause
krauss
kraussia
kreatibo
krecz
kredo
kreise
krema
kreol
kri
kriebel
krima
krimea
krimen
kriminal
krio
kris
krishna
kristal
kristen
kristian
kristianidad
kristianismo
kristiano
kristine
kristo
kriteria
kritikal
kritiko
kritisismo
kroasia
kroata
kromosoma
kronika
kroniko
kronolohia
krota
kru
krug
krus
krusada
ks
ksingmul
kso
ku
kua
kuadrado
kuadro
kuala
kuan
kuantum
kuarta
kuartel
kuarto
kuba
kubano
kubiko
kubismo
kubitzki
kubrick
kuchingensis
kudarat
kudeta
kudil
kudlit
kudo
kueba
kuei
kuenta
kuerdas
kuerpo
kuhn
kui
kuiper
kuko
kukua
kulanit
kulapot
kulay
kulibangbang
kulisusu
kullaaw
kultibar
kulto
kultura
kultural
kuma
kumadduaan
kumadua
kumaduaan
kumaduaanna
kumaishi
kumakanta
kumalarang
kumalatkat
kumamoto
kuman
kumar
kumitkita
kumurang
kuna
kung
kuni
kunkel
kunming
kunstleri
kunth
kuntze
kunze
kuo
kuot
kupang
kur
kura
kurarapnit
kurata
kurdistan
kurdo
kuril
kuro
kuromatsunai
kurosawa
kurso
kurt
kurudu
kurz
kush
kushiro
kutai
kutch
kutchan
kuton
kutubuano
kuwait
kuwento
kuy
kuyogan
kw
kwazulu
kwerba
kwomtari
kyiv
kyle
kylie
kyo
kyoku
kyoto
kyrgyzstan
kyu
kyushu
kz
kɑ
kə
l
la
laa
laak
lab
laban
labangan
labat
label
labeouf
labes
labill
labneng
labo
labor
laboratorio
laboratory
labourdonnaisia
labrador
labramia
labsanna
labu
labuan
labus
lachenaud
laconsay
lacrampe
lacub
lacuesta
ladawan
ladefoged
ladenbergia
ladladawan
ladrilio
lady
lae
laeng
laengen
laevis
lag
lagangilang
lagawe
lagerlo
laglagipen
lago
lagonglong
lagonoy
lagos
laguna
laguncularia
lagundi
lahar
lahi
lai
lak
lakambini
lakan
lakas
lakay
lake
lakes
lakewood
laki
lakit
laklakay
lakon
lal
lala
lalaki
lalat
lalawigan
lallakay
lallaki
lam
lama
lamao
lamarchea
lamarck
lamb
lambayong
lambert
lamberto
lambir
lamboya
lambunao
lames
lamet
lamiis
laminusa
lamisaan
lamitan
lamma
lammin
lamok
lamon
lampang
lampara
lampung
lamut
lan
lana
lanag
lanao
lanas
lanata
lancaster
lanceolata
lanceolatum
lanceolatus
lancifolia
land
landau
landesamt
landicho
landing
landok
landrum
lands
landscape
lane
lang
langa
langam
langana
lange
langiden
langit
langka
langlanga
language
languages
langue
langues
languyan
lanham
lanka
lanna
lanot
lansing
lantapan
lantawan
lantoy
lanuginosa
lao
laoac
laoag
laoang
laok
laon
laos
laotiano
lap
lapayag
lapinig
lapped
laptev
lapu
lapuyan
lapuz
lara
larena
large
largest
larish
larry
lars
larsen
larson
larsson
las
lasa
lasag
lasagna
lasam
lasatenna
lasianthus
lasioclada
laskowske
last
lasud
lat
lata
late
later
lateral
lateritiko
laterito
latest
latex
lati
latiflora
latifolia
latifolius
latin
latina
latino
latitud
lato
latta
latukan
latvia
lau
laua
lauan
laud
laudna
laue
laughton
laur
laura
laureado
laurel
lauren
laurence
laurens
laurent
laurentii
laurie
laurifolia
laurina
laus
lausanne
laut
lauterb
lautner
lava
laven
lavender
lavezares
lavi
lavin
lavoisiera
lavukaleve
law
lawa
lawaan
lawag
lawas
lawasda
lawigan
lawlaw
lawph
lawphil
lawrence
lawrie
laws
lawson
lawwalawwa
laxa
laxiflora
laxness
lay
laya
laycock
layus
lazarev
lazaro
lazio
lb
lc
lccn
ld
le
lea
leach
leader
leaders
leadership
leading
leaf
league
leandra
leandro
learned
learner
learning
least
leaved
leaves
lebak
lebanon
lebante
leben
lecomte
lecomtedoxa
lectotype
lecture
lectures
ledermannii
ledesma
lee
leersia
leeward
left
legacy
legado
legadona
legal
leganes
legarda
legaspi
legazpi
legend
legends
legislation
legislative
legislators
legislature
legrand
legrandia
legume
legumes
leguminosae
lehislasion
lehislatibo
lehislatura
lehitimado
lehmann
lehtonen
lei
leibniz
leiden
leigh
leighton
leiocarpa
leipzig
leisure
lejos
leksikal
leksiko
leksikon
lektura
lem
lembata
lemery
lemmon
lemur
lemy
len
lena
lengguahe
lengua
leni
lenin
lente
lenwebbia
leo
leon
leona
leonard
leonardo
leoncio
leone
leonhard
leonid
leonor
leonov
leopold
leopoldo
lepanto
lepidoptera
lepki
lepo
leptactina
leptagrostis
leptaspis
leptodermis
leptolaena
leptopetala
leptopetalum
leptospermoides
leptospermum
lerchea
leroy
les
leschenaultii
leslie
lesotho
less
lessaad
lesser
lessing
lesson
lessons
leste
lester
let
leti
leticia
leton
letonia
letra
letran
letter
letters
leuven
levantino
level
levi
levine
levinson
levu
levy
lewis
lewo
lexical
lexicon
lexikon
lexington
ley
leyenda
leyte
lez
lezo
lg
lgpms
li
lia
liam
lian
liana
liang
lianga
liangan
liao
libacao
libagon
libas
liber
liberal
liberalismo
liberation
liberia
liberica
libertad
libertador
libertariano
liberty
libis
libjo
liblibro
libmanan
libo
libod
libon
libona
libra
libraries
library
libre
libreria
libris
libro
librona
libtong
libunao
libungan
libya
licab
license
lico
licuan
liddell
lidflower
lidlidda
lie
liechtenstein
lies
lieu
life
lifetime
liga
ligao
ligaya
light
lighthouse
lijndenia
lika
like
likido
likmut
likud
likudan
lila
lilia
liliw
lillian
lilly
liloan
lilod
lily
lim
lima
limapulo
limasawa
limay
limba
limbang
limburges
limestone
limitado
limited
limits
limmabas
limned
limon
limpopo
lin
lina
linabag
linabsanna
linamon
linao
linaon
linapacan
linawas
lincoln
lincom
lincz
linda
linden
lindl
lindley
lindog
lindsaeaceae
lindsay
lindsayomyrtus
line
lineages
linear
linearifolia
liner
ling
lingayen
lingguista
lingguistika
lingguistiko
lingig
linglingsat
lingnguistiko
lingsat
lingua
linguasphere
linguist
linguistcs
linguistic
linguistics
linguistiko
linguistique
linguistiques
linia
linifolia
linikudan
link
linkage
linked
links
linlinteg
linn
linnaaw
linnaea
linnaeus
linne
linnean
linneo
linnæus
lino
linong
linteg
lintegna
linton
linuk
linux
lio
liogier
lion
lionel
liong
lipa
lipata
lipay
lippmann
lipunan
lira
lirika
liriko
lis
lisa
lisboa
lisbon
lisela
lisensia
list
lista
listaan
listed
listen
listing
lists
lit
literacy
literal
literario
literary
literasia
literatura
literature
lithomyrtus
lito
litro
little
littlefield
littoralis
lituania
lituano
liturhiko
liu
live
lives
living
livingstone
liwan
liwanag
liwayway
liwliwa
lix
liza
ljubljana
lkerung
ll
llanera
llanos
llanquihue
llc
ller
llorente
llosa
lloyd
lo
loa
loay
loba
lobel
lobo
loboc
lobos
loc
local
location
locations
locis
locke
lockwood
locsin
lodhi
loefgrenia
logo
lohan
lohika
lohiko
lohmueller
loi
loire
lois
loka
lokal
lokalidad
lokasion
lokasionna
lola
lollobrigida
lombardia
lombardo
lombok
lomboy
lonchitis
london
londres
lonely
long
longer
longest
longiflora
longifolia
longipedicellata
longipes
longipetiolata
longituba
longitud
longman
longos
longyearbyen
loniu
lonnie
lonoy
loob
looc
look
loomis
loon
lope
lopez
lophostemon
lorca
lord
lordi
lore
loren
lorence
lorentz
lorenz
lorenza
lorenzo
loreto
loretta
loro
lorraine
los
lost
lote
lothian
lotud
lotus
lou
loughnane
louis
louise
louisiade
louisiana
lour
lourdes
louvre
love
lover
lovett
lovi
loving
low
lowe
lower
lowii
lowry
loyn
lozano
lp
ls
ltd
lu
lua
lualhati
luanda
luang
luba
lubang
lubao
lubigan
lublin
lubo
lubong
lubuagan
luc
luca
lucas
lucban
luce
lucena
lucerna
lucero
lucia
luciano
lucida
lucien
lucio
lucky
luculia
lucuma
lucy
ludovic
ludwig
lue
luek
lugait
lugan
lugar
lugarna
lughadha
luglugar
lugonis
lugus
luha
luigi
luis
luisa
luise
luisiana
lukas
luke
luma
lumabas
lumad
lumang
lumangbayan
lumasat
lumaud
lumba
lumbac
lumbaca
lumban
lumbang
lumbatan
lumbayanague
lumbayao
lumbia
lumie
lumot
lumpur
lun
luna
lunar
lund
lundayeh
lundell
lunes
luneta
lungog
lungsod
luo
lupa
lupang
lupao
lupi
lupon
luruaco
lutayan
lutea
luterano
luther
luto
luu
luuk
luwu
luxembourg
luxemburg
luyang
luz
luzon
lvarez
lvovich
lwua
lxii
ly
lyce
lycopersicum
lycophytes
lydia
lyn
lynch
lyndley
lyndon
lynn
lyon
lyons
lysicarpus
lɑ
m
ma
maa
maabot
maadal
maag
maala
maammuan
maammuanto
maap
maapektaran
maapit
maar
maaramat
maaramid
maarten
maas
maasim
maasin
maatianan
maaw
maawagan
maawat
maawatan
maay
mabain
mabalacat
mabalbaliwan
mabalin
mabalina
mabalinda
mabalinen
mabalinmo
mabalinna
mabalinto
mabaliwan
mabanagan
mabanglo
mabangon
mabasa
mabasbasa
mabati
mabato
mabberley
mabeddengan
mabennat
mabigbig
mabigbigan
mabinay
mabingbingay
mabini
mabirbirukan
mabirukan
mabirukanda
mabisbisita
mabitac
mabolo
mabuhay
mabukel
mabunga
mabuso
mabutosan
mabuya
mac
macabebe
macaca
macajalar
macalelon
macao
macapagal
macario
macarthur
macau
macbr
macdonald
macedo
macedonia
machado
machaonia
machiavelli
machine
mackenzie
mackinder
maclaine
macmillan
maco
maconacon
macopa
macquarie
macrantha
macro
macrocalyx
macrocarpa
macrocnemum
macrohon
macrophylla
mactan
mactutor
madadael
madagascar
madagascariensis
madakdakamat
madalag
madamba
madame
madanar
madanding
madang
madangran
madaya
maddela
made
madeira
madhuca
madhya
madi
madison
madlaw
madras
madre
madrid
madridejos
madudua
madura
mae
maestra
maestro
maeterlinck
maewo
mag
maga
magalang
magalha
magalismontanum
magallanes
magalona
magarao
magasin
magasina
magat
magatang
magawidan
magazine
magdalena
magdalo
magdiwang
magellan
magenta
maggie
maghreb
magic
magma
magmagna
magna
magnani
magnetiko
magnetismo
magnifica
magnitud
magnolia
magnoliales
magnolianae
magnoliidae
magnoliids
magnoliopsida
magnus
magori
magpet
magreb
magsaysay
magsingal
maguindanao
maguing
maguire
maguirei
magun
magyar
mah
maha
mahaba
mahabang
mahabharata
mahagnao
mahakam
mahal
mahaplag
maharashtra
maharlika
mahatao
mahatma
mahayag
mahayahay
mahayana
mahidol
mahinog
mahler
mahoma
mai
maia
maiak
maiakdua
maiaktlo
maibaga
maibagay
maibagbaga
maibalikas
maibatay
maibigbigan
maibilang
maidasig
maiden
maiduma
maier
maigawid
maigawidan
maigay
maigiddiat
maigo
maigrupo
maika
maikabagian
maikabil
maikadu
maikadua
maikaduapulo
maikalima
maikanem
maikapat
maikapet
maikapito
maikasangapulo
maikasiam
maikaskaso
maikatlo
maikawalo
maikeddeng
maikeddengda
maikkan
maikkat
maikuyog
mail
mailako
mailaksid
mailasin
mailetra
maimbung
maimula
maimulmula
maimuyongan
main
mainaganan
mainaig
mainaynayon
mainayon
maine
maingayi
mainit
mainland
maintenance
mainum
maipaay
maipablaak
maipabuya
maipada
maipadpada
maipadto
maipagarup
maipagpagarup
maipakat
maipakita
maipalawag
maipalpalawag
maipaltiing
maipalubos
maipan
maipanggep
maipangta
maipangyababa
maipanunotan
maipapan
maiparang
maiparuar
maipasubli
maipatarus
maipatinayon
maipud
mairaman
mairamanda
mairamraman
mairanggo
mairasi
maire
mairepresenta
mais
maisagmak
maisalumina
maisao
maisasao
maisilpo
maisin
maisina
maisingasing
maison
maisuppiat
maisuppiatan
maisurat
maitagikua
maited
maitipon
maitiptipon
maitudo
maitudtudo
maitum
maitunos
maiturong
maitutop
maiwa
maiwaras
maiwarwaras
maiyalis
maiyallilaw
maiyaon
maiyasping
maiyebkas
maizlish
majayjay
major
majority
majure
maka
makaabot
makaagas
makaala
makaalis
makaallilaw
makaammo
makaanay
makaanayen
makaaramid
makaawat
makaawis
makaay
makabael
makabiruk
makabutos
makadadael
makadangran
makadua
makagun
makaibtur
makaimpluensia
makaipakita
makaited
makakita
makalap
makan
makapan
makapataud
makapatay
makaporma
makaraut
makasabidong
makasae
makasai
makasanay
makasansanay
makasao
makasaoda
makasapul
makassar
makassares
makasurat
makatao
makatawen
makati
makatlo
makato
makatulong
makaturing
make
makes
makian
makibingbingay
makibingbinglay
makibinglay
makibinningay
makibinningayda
makilaban
makilala
makiling
makina
making
makino
makira
makita
makitam
makitkita
makkah
makkari
makmakan
makonstrukto
makopa
makro
makubetsu
makuna
makunkuna
mal
mala
malaanonan
malabago
malabang
malabarica
malabon
malabuyoc
malacan
malacca
malaccense
malaccensis
maladaga
malagasang
malagasi
malagasy
malaglagip
malaita
malaka
malaki
malaking
malaksid
malakula
malalag
malambo
malang
malangas
malaria
malasin
malasiqui
malate
malaweg
malawi
malay
malaya
malayalam
malayano
malaybalay
malayic
malayiko
malayo
malaysia
malaysian
malaysio
malba
malbog
malcolm
maldibas
maldives
male
malek
malekula
malem
malesia
mali
malibago
malibcong
maligaya
maliklikan
maliksi
malilipot
malimono
malinao
malindang
malindig
malita
malitbog
maliwanag
mall
mallea
malleostemon
malley
mallig
mallow
malmalmeng
malo
malobago
malolos
malone
malpas
malta
maltes
maltese
malukatan
maluku
malungon
maluom
maluso
maluto
malva
malvaceae
malvales
malvar
malvoideae
mama
mamagaan
mamalia
mamanwa
mamati
mambai
mambajao
mamberamo
mambog
mamburao
mambusao
mamerto
mamin
mamindua
maminsan
mamisoa
mamluk
mammal
mammalia
mammals
mammana
mammanday
mamuju
man
mana
manabilang
manado
managanan
managayat
managbalbaliw
managbaliw
management
managing
manakman
manalak
manalaysay
manalo
manam
manama
manambu
manamnama
manaoag
manapla
manat
manati
manay
manayonan
manchester
manchu
mandailing
mandala
mandalagan
mandaluyong
mandaon
mandar
mandarin
mandaue
mandaya
mandela
manen
manenn
manettia
manfred
mang
manga
mangabbong
mangal
mangala
mangaldan
mangan
mangaramat
mangaramid
mangareva
mangatarem
mangawat
mangawis
mangawit
mangbaliw
mangballasiw
mangbangon
mangbeddeng
mangbigbig
mangbingay
mangbingbingay
mangbukel
mangbukelda
mangdadael
mangeg
mangga
manggahan
manggarai
mangibaga
mangibagbaga
mangibalay
mangibalbalay
mangiballatek
mangibangon
mangibati
mangidadaulo
mangidasig
mangidaton
mangidaulo
mangidesignado
mangifera
mangigandat
mangigiddiat
mangikabil
mangikapet
mangikaykaysa
mangikeddeng
mangikkat
mangiko
mangiladawan
mangiladladawan
mangilaksid
mangilasin
mangilista
mangimaton
mangimpluensia
manginagan
manginayon
mangipaay
mangipagulo
mangipakat
mangipakita
mangipakpakita
mangipakpatakder
mangipalagip
mangipalawag
mangipalpalawag
mangipalplawag
mangipaltiing
mangipalubos
mangipan
mangipanggep
mangipangulo
mangiparang
mangiparit
mangipatakder
mangipatengnga
mangipatingga
mangipatudo
mangipresenta
mangiragpat
mangiraman
mangiramraman
mangirangarang
mangirehistro
mangirepresenta
mangirugi
mangisalumina
mangisangaili
mangisasao
mangisigurado
mangisilpo
mangisina
mangisingasing
mangit
mangitakder
mangital
mangitalinaay
mangited
mangitipon
mangitited
mangitudo
mangitudtudo
mangitunton
mangituray
mangiturong
mangiturturong
mangiwaras
mangiyeg
mangiyuna
mangiyunay
mangkarkulo
mangkissay
mangkita
mangkompleto
manglapped
mangliklik
manglikmut
mangmangan
mangmangeg
mangmangged
mangmarka
mangngagas
mangngalap
mango
mangoro
mangpaadu
mangpabassit
mangpadas
mangpadur
mangpakabael
mangpakan
mangpalaka
mangpalikmut
mangpalubos
mangparang
mangpartuat
mangpasayaat
mangpasingked
mangpataud
mangpawil
mangporma
mangpormada
mangpreserba
mangrove
mangroves
mangrugi
mangrukod
mangsakop
mangsakup
mangsalaknib
mangsangaili
mangsangsangaili
mangsukat
mangsuporta
mangsuppiat
mangsupsuporta
mangtagtagitao
mangtalinaay
mangtaripato
mangtartaripato
mangted
mangtengngel
mangtimbeng
mangtulong
mangtunton
mangurnos
mangusar
mangyan
manhattan
mani
mania
manicani
manide
manihiki
manihot
manila
manilkara
manipu
manipud
maniq
manito
manitoba
maniud
manjuyod
mankayan
mankomunidad
manmadles
manmano
mann
mannakigubat
mannalaysay
mannalon
mannaniw
manning
manns
mannurat
mannuro
manny
mano
manoa
manobo
manok
manolo
mansakan
mansalay
mansanas
mansim
mansion
mansur
manta
mantekilia
manticao
manu
manual
manuel
manupali
manursuro
manus
manuscript
manuscripts
manuskrito
many
manzanillo
mao
maori
map
mapa
mapaadu
mapabaro
mapabassit
mapagtalkan
mapagteng
mapalabas
mapalaka
mapaliiw
mapalpaliiw
mapalubosan
mapan
mapanas
mapandan
mapantao
mapanuepe
maparang
mapartuat
mapasamak
mapasardeng
mapasayaat
mapasingkedan
mapaspasamak
mapataripato
mapataud
mapatubo
mapawilan
mapia
mapili
mapmapa
mapmapan
maporma
mapping
mapreserba
maps
mapuche
mapukaw
mapukpukaw
mapun
mapuntaan
mapuyot
mar
mara
maraberde
marabut
maraderosas
maraduyaw
maragondon
maragusan
marais
maraka
marakayumanggi
maralabbasit
maramag
maramaris
maramarisdapo
maran
maranalabbasit
maranan
maranao
maranha
marantao
marapuraw
marapurpura
marasbaras
marathi
maratimbukel
marau
maravilla
marawi
marc
marcel
marcela
marcelino
marcello
marcelo
march
marcha
marchant
marco
marconi
marcos
marcus
marcy
mare
marella
margaret
margarita
margaritopsis
marginal
marginata
marginatum
margosatubig
margot
marguerite
mari
maria
mariah
marian
mariana
marianas
marianne
mariano
marias
maribojoc
marie
marihatag
marikina
marikit
marilao
marilou
marilyn
marin
marina
marind
marinduque
marine
mariner
marinero
maring
marino
mario
marion
maripipi
maris
marisna
maritima
maritime
maritimo
marius
mariveles
marjorie
mark
marka
markers
market
markets
markgr
markham
marktl
markus
marlee
marlene
marlierea
marlon
marmara
marmol
maro
marogong
marpil
marquesano
marquesas
marquez
marriage
marron
mars
marseille
marsh
marshall
marso
mart
marta
marte
martens
martes
martha
marti
martial
martigues
martin
martinez
martinique
martins
martinus
martir
martires
martius
martsa
marukod
marunggay
marvin
marx
marxism
marxismo
marxista
mary
maryland
mas
masa
masagepsep
masakbayan
masalakniban
masam
masansan
masansana
masansanda
masantol
masao
masapul
masaraga
masarakan
masarang
masasao
masaya
masbate
masbatenio
mascarene
masedonia
masedonio
masela
maserrekan
masetas
masetera
mashike
masida
masigurado
masingangar
masinloc
maskara
maslog
masna
masoalensis
masolbar
mason
mass
massachusetts
massep
massif
massive
masson
master
masters
mastixiodendron
mastroianni
masukatan
masuportaran
masuppiatan
masurot
masurotan
mat
mata
mataas
mataasnakahoy
mataengan
matag
matagtagitao
matalam
matalinaay
matalom
mataltal
matampay
matanao
matanda
matanog
matarawidwidan
mataripato
matawagan
matawtawagan
matay
matching
mate
matematika
matematikal
matematiko
matengngel
mateo
mater
materia
material
materiales
materialismo
materials
matgedan
mathematical
mathematics
mathew
mathias
mathrm
mati
matias
matigsalug
matin
matisse
matlin
matmatayen
matmatnag
matnag
matnog
mato
maton
matrato
matsumae
matsumoto
matsuyama
matt
matter
matteuccia
matthew
matthews
matthias
mattos
matugotan
matungao
matungpal
matutum
mau
mauban
maud
maudi
maui
maule
maulit
maungpot
maurice
mauricio
maurisio
mauritania
mauritius
maurnos
maus
mausar
mausig
maususar
mauswagon
mavea
mawab
max
maxima
maximilian
maximo
maxon
maxted
maxwell
may
maya
mayana
mayantoc
mayat
maydolong
mayen
mayer
maymaysa
maynard
maynila
mayo
mayon
mayor
mayorga
mayors
mayotte
mayoyao
mayr
mayrinax
mays
maysa
mazaea
mazas
mazine
mb
mbalo
mcarthur
mcbrien
mccain
mccarthy
mcclure
mcconaughey
mccorduck
mcculloch
mcdonald
mcdormand
mcelhanon
mcfarland
mcgraw
mckinley
mclaglen
mcleod
mcmillan
mcmullin
mcneill
mcniven
mcpherson
mcvaugh
md
me
mead
mean
meaning
meanings
means
measures
mecca
mechanics
mecklenburg
mecranium
med
medal
medalia
medan
medelli
medellin
media
medica
medical
medici
medicinal
medicine
medicion
mediebal
medieval
medikal
mediko
medina
medinilla
medio
medisina
meditasion
mediteraneo
mediterranean
mediusella
medline
meet
meeting
meeuse
mega
meghna
mehek
mehikano
mehiko
mei
meier
meijer
meiji
meirelles
meisn
meissner
mek
meka
mekanika
mekanikal
mekaniko
mekanismo
mekeo
mekong
mel
melanau
melanesia
melanesian
melanesio
melanocarpa
melanocenchris
melanoxylon
melastoma
melastomataceae
melayu
melbourne
melchor
melchora
mele
meli
meliaceae
melissa
mellitus
melokoton
melon
melville
melvin
memanbetsu
member
members
membranacea
memoir
memoirs
memorandum
memoria
memorial
memories
memory
memuro
men
mena
menashi
mencho
mendel
mendeleev
mendez
mendiola
mendoza
mene
meng
menor
mensahe
menseki
ment
mentawai
menzies
mer
merah
mercado
mercedes
mercer
merck
mercury
meri
meriam
meriania
merida
meridiano
merit
merkel
merku
merkurio
merlie
merr
merriam
merrill
merritt
meryl
mes
mesa
mesias
mesiko
meskita
meso
mesoamerica
mesoamericana
mesoamerika
mesoamerikano
mesopotamia
mestiso
met
meta
metaboliko
metabolismo
metadata
metal
metalurhia
metano
metapisika
metapisikal
metazoa
meteofrance
meteorological
meteorolohia
meteorolohiko
meteoromyrtus
meters
method
methods
metmetro
meto
metriko
metro
metropolis
metropolitan
metropolitana
metropolitano
metrosideros
metten
meung
mexica
mexicali
mexican
mexicana
mexicano
mexicanos
mexico
mey
meycauayan
meyer
mez
mf
mg
mga
mi
mia
miagao
miami
mian
miao
mich
michael
michel
michelang
michelangeli
michelangelo
michele
michelle
michelson
michigan
michoaca
michx
mico
miconia
miconieae
micrantha
micranthum
microbiology
microcarpa
micromyrtus
micronesia
micronesian
micropholis
microphylla
microphyllum
micropolitan
microsoft
microwave
mid
middle
middleton
midia
midiki
midnight
midsalip
midsayap
mie
miembro
mierkoles
miers
mifflin
mifune
mig
migne
migrante
migrasion
migration
migrations
miguel
miho
mika
mikael
mikasa
mike
mikhail
mikro
mikrobio
mikrobiolohia
mikronesia
mikronesio
mikroorganismo
mikroskopiko
mil
milagro
milagros
milagrosa
milan
milaor
mildbr
mile
milenio
miles
milia
milimetro
milion
milisia
militar
military
milky
mill
milland
millard
millennium
miller
millet
millikan
million
mills
milmilia
milne
milo
milton
mimaropa
mimusops
min
mina
minahasa
minahasan
minaig
minalabac
minami
minamifurano
minanga
minangkabau
minas
mind
mindanaensis
mindanao
mindoro
mine
miner
mineral
minerales
ming
minglanilla
minh
minima
mining
minister
ministerio
ministro
ministry
minminuto
minneapolis
minnelli
minnesota
mino
minogue
minor
minoridad
minorities
minority
minus
minutiflora
minuto
minutos
minuyan
minzu
miocene
mioseno
miq
miquelon
mir
mira
miracle
miranda
mirandes
mirasol
mirbeau
miri
miriam
mirren
mirror
mirtus
mis
misa
misamis
miscellaneous
miscellany
misima
mision
misionario
mismo
miss
missing
mission
missionary
mississippi
missouri
misterio
mistiko
mistral
misuari
mit
mitchell
mitchella
mitiko
miting
mito
mitolohia
mitolohiko
mitra
mitragyna
mitranthes
mitre
mitriostigma
mixed
miyagi
miyake
miyako
miyazaki
mizuki
miłosz
mj
mk
mlabri
mm
mmo
mn
mnong
mnras
mo
moa
moalboal
mobile
mobo
mobot
moc
mockingbird
mod
moda
modang
mode
model
modelo
models
moderado
modern
modernidad
modernismo
modernista
moderno
moench
mogol
mogpog
mohamed
mohammad
mohammed
mohandas
mohd
mohon
mohr
mohtar
moi
moines
moises
mojo
mojon
mok
moken
moklen
mokleniko
mol
molave
molbev
moldavia
moldova
molecular
molekula
molekular
molina
molino
mollis
molo
molokai
molotov
molucca
moluccas
mombasa
mombin
mombum
mommsen
momoko
momordica
momuna
mon
mona
monachather
monaco
monarchy
monarkia
monarko
monasterio
monbetsu
moncada
mondale
monde
mondragon
monestario
monetary
money
mong
monghe
mongol
mongolia
mongondow
monica
monitor
monitoring
monk
monkayo
monkey
mono
monochaetum
monocle
monocot
monocots
monocotyledon
monoespesipiko
monogr
monografias
monograph
monographs
monolena
monolingual
monophyly
monopiletiko
monosakarido
monoteismo
monoteistiko
monotes
monotipiko
monreal
monroe
mont
montan
montana
montane
montano
montanum
monte
montenegrino
montenegro
monterrey
montes
montevideo
montevista
montgomery
monthly
monticola
montpelier
montrouz
montserrat
montsoreau
monumbo
monumental
monumento
moon
moonlight
moore
moorei
mor
morado
moral
morales
moralidad
moran
morawa
more
morehead
morelia
morelos
moresby
morgan
mori
morinda
moringa
moringaceae
moriori
moritz
moritzi
morley
mormon
morning
moro
morobe
morocco
morong
morphological
morphology
morphosyntax
morpolohia
morpolohiko
morris
morrison
morrone
morrow
mortal
mortalidad
mortlockes
morton
morwap
mos
mosa
mosaic
mosaics
mosaiko
moschatus
moscow
moseley
moses
moshe
moshoeshoe
mosiera
mosquera
mosquito
moss
most
mota
mother
motilal
motion
motiong
motley
motleyana
moto
motor
motto
motu
moulds
mouly
mount
mountain
mountaineer
mountains
mouriri
mouton
move
movement
movie
movies
moving
mozambique
mozart
mozilla
mp
mr
mrs
ms
msa
msc
msn
mt
mu
muak
mubarak
much
muddy
muell
mueller
muenchen
mughal
muh
muhammad
muir
mukha
mul
mula
mulanay
mulmula
multi
multiflora
multiflorum
multigene
multilingual
multilingualism
multinasional
multinervia
multiple
multitree
mulu
mumbai
mun
muna
munai
munda
mundari
mundi
mundo
mungay
muni
munich
municipal
municipalities
municipality
municipio
municipios
munisipal
munisipalidad
munisipio
munispalidad
munro
munti
munting
muntinlupa
munzinger
muong
mura
murasaki
murcia
murder
murdong
muricata
murik
murkim
murmansk
muroran
murphy
murray
murut
mus
musa
musan
muscat
muscosa
muse
museo
museum
museums
music
musica
musical
musicbrainz
musika
musikal
musikana
musikero
musk
muslim
muslims
mussaenda
mussau
must
mustafa
musuan
mutia
mutiny
mutisii
muton
muyong
muyu
muzon
mw
mwerlap
mwesen
mwotlap
mx
my
myanmar
myers
myint
myon
myrceugenia
myrcia
myrcianthes
myrciaria
myriantha
myrmecodia
myrmephytum
myrrhinium
myrtaceae
myrtacearum
myrtales
myrtella
myrteola
myrtifolia
myrtle
myrtoideae
myrtoides
myrtus
mysteries
mystery
myth
mə
n
na
naabak
naabbongan
naabongan
naabongotan
naabot
naabotan
naabungotan
naad
naadal
naadalan
naadalem
naadaw
naal
naala
naalana
naalsem
naalumaymay
naam
naamammoan
naamammuan
naamamuan
naammuan
naampon
naan
naangot
naannad
naapday
naapektaran
naapgad
naaprobaran
naar
naaramid
naaramiden
naarian
naarkibo
naarmasan
naasasinado
naata
naatap
naaw
naawagan
naawan
naawat
naawatan
naawatna
nababa
nababbaba
nabaknang
nabalangatan
nabalbaliwan
nabalitokan
nabaliwan
naballigi
nabanglo
nabangon
nabangonen
nabara
nabas
nabasa
nabasbasa
nabatbati
nabati
nabato
nabayag
nabayagen
nabeddengan
nabennebenneg
nabi
nabiag
nabibiit
nabigador
nabigasion
nabigbig
nabigbigan
nabiit
nabilangan
nabileg
nabilegan
nabingay
nabingbingay
nabingbingayda
nabingbingayen
nabirngasan
nabirukan
nabirukanda
nabirukanen
nabisbisita
nabisel
nabua
nabukel
nabuklan
nabunbuntog
nabuntog
nabunturan
nabutosan
nabutusan
nach
nacio
nacional
nacionalista
nad
nadadaan
nadadael
nadaeg
nadagdagsen
nadagsen
nadakamat
nadakdakamat
nadalumpinas
nadalus
nadam
nadangran
nadaras
nadarat
nadaremdem
nadawel
nadayag
nadaydayeg
nadayeg
nadidingan
nadine
nadisturbo
nadokumentuan
nadu
naduamduma
naduduog
naduktalan
naduktalanna
nadumaduma
nadumduma
nadutdotan
nadutokan
naeskolar
naestruktura
nag
naga
nagabak
nagabetan
nagablin
nagad
nagadal
nagaget
nagan
naganda
naganna
nagannak
nagannakda
nagano
naganos
naganus
nagar
nagaramid
nagasaki
nagatngato
nagato
nagay
nagayat
nagayayat
nagayus
nagbaetan
nagbalbalin
nagbalbaliw
nagbalin
nagbalinan
nagbalinda
nagbalinen
nagbaliw
nagballigi
nagbanagan
nagbanbaniaga
nagbangon
nagbanniaga
nagbasa
nagbasbasa
nagbati
nagbeddengan
nagbettak
nagbiag
nagbibingayan
nagbida
nagbilbilin
nagbilin
nagbirbiruk
nagbisbisita
nagbukel
nagbuklan
nagbulbulod
nagbutos
nagcarlan
nagdadael
nagdait
nagdumaduma
naggapu
naggapuan
naggiddiatan
naggigian
naggigiddiat
naghurado
nagibagbaga
nagibasaran
nagidaulo
nagikkat
nagin
nagininut
nagipablaak
nagipakita
nagipakpakita
nagipaltiing
nagipatakder
nagipatarus
nagiraman
nagirangarang
nagirepresenta
nagisasao
nagisingasing
nagisit
nagisurat
nagisursuro
nagited
nagituray
nagiturong
nagkarkulo
nagkaykayat
nagkaykaysa
nagkolonia
nagkontribusion
naglalaok
naglaon
naglayag
nagmadi
nagmarka
nagmaymaysa
nagnaed
nagnagan
nagnamnama
nagob
nagobra
nagorno
nagoya
nagpaadu
nagpaay
nagpabpabuya
nagpadakkel
nagpadas
nagpakabael
nagpakamatay
nagpapel
nagparang
nagparawad
nagparnuay
nagparparang
nagpartuat
nagparukma
nagpasayaat
nagpasingked
nagpaso
nagpataud
nagpatingga
nagpatinggaan
nagpatpataud
nagpaut
nagpili
nagpirma
nagplano
nagporma
nagpukaw
nagpundar
nagrambak
nagrang
nagraraem
nagraut
nagrebcan
nagresultaan
nagretiro
nagririmpuok
nagrugi
nagrugian
nagrugrugi
nagrugrugida
nagruna
nagsabaran
nagsabong
nagsagaba
nagsagsagaba
nagsanay
nagsapata
nagsardeng
nagsasabtan
nagsasao
nagsasaoda
nagsasaruno
nagserbi
nagserserbi
nagsisina
nagsubli
nagsublida
nagsubsubli
nagsukimat
nagsukisok
nagsuksukimat
nagsuksukisok
nagsuporta
nagsuppiat
nagsurat
nagsursurat
nagsursuro
nagtaeng
nagtaengan
nagtaengda
nagtagikua
nagtaginayon
nagtagitaoan
nagtagitaon
nagtagtagilako
nagtagtagitao
nagtakem
nagtalinaay
nagtalinaed
nagtaltalek
nagtaltalinaay
nagtartaripatu
nagtataeng
nagtataengda
nagtaud
nagtaudan
nagtaudanda
nagtaudanna
nagtaudda
nagtawen
nagtawtawag
nagtengngel
nagtengtengngel
nagtignay
nagtigtignay
nagtimbukel
nagtipon
nagtipunan
nagtitimbukel
nagtitipon
nagtitiponan
nagtrabaho
nagtrabtrabaho
nagtubo
nagtuloy
nagtultuloy
nagtultuloyda
nagtungpalan
nagtunton
nagturay
nagturpos
nagturturay
nagubsang
nagudua
naguilian
nagun
nagunggunaan
nagungunaan
nagur
nagurnong
nagurnos
nagus
nagusar
nagyan
nagyanan
nah
naha
nahuatl
nai
naibaet
naibaga
naibagbaga
naibalud
naibangon
naibasar
naibatay
naibati
naibedbed
naibilang
naic
naidaremdem
naidasdasig
naidasig
naidasigda
naidasigen
naidaton
naidatonan
naidayegan
naidedikado
naidesgnado
naidesignado
naidesinio
naidisenio
naidisso
naidistrito
naidulin
naiduma
naidumaduma
naidumduma
naidutok
naie
naigandat
naigay
naigrupo
naigrupoda
naigupit
naikabil
naikabilda
naikabit
naikabkabil
naikameng
naikapanunotan
naikapet
naikari
naikaskaso
naikategoria
naikaykaysa
naikeddeng
naikeddenga
naikeddengan
naikeddengda
naikeddengen
naikedeng
naikedkeddeng
naikkan
naikkanda
naikkat
naikkaten
naikodigo
naikonsentrado
naikuartel
naikuyog
nailadawan
nailaglagipan
nailain
nailaklako
nailako
nailalaok
nailangitan
nailasin
nailaslasin
nailemmeng
nailet
nailetra
nailian
nailinia
nailista
nailistada
nailustrado
naimaldit
naimas
naimbag
naimodelo
naimpluensiaan
naimpluensian
naimula
naimulmula
naimuyongan
nain
nainagan
nainaganan
nainagananen
nainayon
naindagaan
naindaklan
naindayawan
naindayegan
naindumadumaan
naingayeman
nainget
naingpis
nainit
nainkalintegan
nainkorporado
nainlangitan
nainomido
nainominado
naipaammo
naipaatiddog
naipabassit
naipablaak
naipabpabuya
naipabuya
naipadakkel
naipadto
naipagarup
naipagkaykaysa
naipagpagarup
naipagpagarupan
naipagtitipon
naipakasaritaan
naipakat
naipakatengngaan
naipakita
naipakitan
naipakpakita
naipalawa
naipalawag
naipalawagen
naipalawlaw
naipaletra
naipalikmut
naipalpalawag
naipalpalawagan
naipalplawag
naipammadayaw
naipammadayawan
naipammategan
naipammatian
naipampamattian
naipampanunotan
naipan
naipanagan
naipanaganan
naipangato
naipangay
naipanggep
naipangpangruna
naipangruna
naipangrunaan
naipangta
naipangyababa
naipangyababaan
naipanpanunotan
naipanunotan
naipanunutan
naiparang
naiparangarang
naiparparang
naiparuar
naipasa
naipasdek
naipasngay
naipasubli
naipatakder
naipatarus
naipatarusen
naipategan
naipatengnga
naipatingga
naipatulod
naipaul
naipayammo
naipenpen
naiprenta
naipresenta
naipreserba
naipuesto
naipulang
naipundar
naipunpon
nairaman
nairamanda
nairamraman
nairangarang
nairanggo
nairehistro
nairehistron
nairekord
naireporta
nairepresenta
naireserba
nairetiro
nairobi
nairuar
nairugi
naisaad
naisagmak
naisakup
naisalaysay
naisalaysayan
naisalsalumina
naisalumina
naisangayan
naisanglad
naisangsangayan
naisangsangayn
naisangsangyan
naisangyan
naisapata
naisasao
naisasaoda
naisayangkat
naisentro
naisilpo
naisilpoda
naisina
naisingasing
naisingasingen
naisingsingasing
naisinsina
naisubli
naisuppiat
naisuppiatan
naisurat
naisuratan
naisursurat
naisursuro
nait
naitabon
naitakder
naital
naitalek
naitaripnong
naited
naitermino
naitipon
naitiponda
naitiptipon
naitudtudo
naitundaka
naitunos
naitunton
naiturong
naiwaras
naiwarwara
naiwarwaras
naiwarwarasda
naiwarwaris
naiyakar
naiyakarda
naiyalagad
naiyalis
naiyanak
naiyaon
naiyarkibo
naiyasideg
naiyebkas
naiyeg
naiyuna
naka
nakaabot
nakaadal
nakaal
nakaala
nakaalaan
nakaaramid
nakaawat
nakaawis
nakabael
nakabingayanda
nakabiruk
nakabirukda
nakabuklan
nakadadael
nakaduktal
nakafurano
nakagawa
nakagun
nakai
nakaibatayan
nakaimpluensia
nakainaganan
nakaipakita
nakaipasngayan
nakairamanan
nakairugian
nakaited
nakaiturongan
nakaiyanakan
nakakaskasdaaw
nakakita
nakakitkita
nakali
nakapalikmut
nakapan
nakaparang
nakapartuat
nakapataud
nakappia
nakapsot
nakapsut
nakapukaw
nakar
nakarehistro
nakarkaro
nakarkulo
nakaro
nakaroda
nakaron
nakasaksi
nakasanay
nakasango
nakashibetsu
nakatakder
nakatayan
nakatugaw
nakatulong
nakayanakan
nakedngan
nakem
nakersang
nakhchivan
nakhon
nakibingbinglay
nakibinglay
nakibinningay
nakilaban
nakilablaban
nakisina
nakisinnupiat
nakita
nakitana
nakitkita
nakitkitana
naklimatisado
nakompleto
nakonstrukto
nakpil
nakunkuna
nakusnaw
nala
nalababsit
nalabbaga
nalabbasit
naladaw
naladladaw
nalag
nalagda
nalaglagip
nalaing
nalaka
nalakada
nalaklaka
nalalat
nalames
nalamiis
nalamlamiis
nalamuyot
nalappedan
nalasag
nalasin
nalatak
nalatlatak
nalawa
nalawag
nalawagan
nalawagda
nalawlawa
nalayusan
nalidem
nalimed
nalinongan
nalinteg
nalitnaw
nalpas
nalpasna
nalugnak
nalukatan
nalukay
nalukmeg
nalukneng
naluktan
nalumotan
nalundasan
naluom
nam
nama
namaga
namagmaga
namarisan
namarkaan
namatmati
namatmatian
namatmatida
nambo
name
named
names
namibia
namin
namindua
naming
naminsan
namitlo
namnama
nampicuan
namria
nan
nana
nanae
nanaganan
nanak
nanam
nanamnama
nance
nancy
nang
nanga
nangabak
nangabakanna
nangala
nangalisan
nangampon
nangaramid
nangasawa
nangatngato
nangato
nangaw
nangawat
nangbalbaliw
nangbaliw
nangbangon
nangbukel
nangdadael
nangibaga
nangibagbaga
nangibagbagada
nangibangon
nangibati
nangidaulo
nangikabil
nangikapet
nangikeddeng
nangikkat
nangiladawan
nangilasin
nangimaton
nanginagan
nangipaammo
nangipablaak
nangipadto
nangipakat
nangipakita
nangipakpakita
nangipalawag
nangipalpalawag
nangipalplawag
nangipalubos
nangipangato
nangipangulo
nangiparang
nangipatakder
nangipatakderda
nangipatingga
nangipatulod
nangipayammo
nangiraman
nangirangarang
nangirehistro
nangireporta
nangirepresenta
nangirugi
nangisilpo
nangisina
nangisingasing
nangisingsingasing
nangisit
nangist
nangisubli
nangisuppiat
nangisurat
nangisuro
nangisursuro
nangit
nangitakder
nangitalinaay
nangitaneman
nangited
nangitunton
nangituray
nangiturong
nangiturongan
nangiyaddang
nangiyeg
nangiyuna
nangiyunay
nangka
nanglikud
nanglukat
nangmarka
nangnangruna
nangpabassit
nangpadakkel
nangpadas
nangpakabael
nangpalikmut
nangpalubos
nangpartuat
nangpasingked
nangporma
nangpundar
nangrugi
nangrugian
nangrugida
nangrugrugi
nangrugrugida
nangrugrugin
nangruna
nangrunada
nangsakop
nangsangaili
nangsukat
nangsukog
nangsuporta
nangsurat
nangtulong
nanipud
nanjing
nanoteknolohia
nanpo
napaamo
napaay
napabaro
napabasol
napabassit
napadakkel
napadayawan
napadsok
napadur
napagbalin
napait
napakabaelan
napalabas
napalabasen
napalaka
napaliiw
napalikmutan
napalpaliiw
napammadayawan
napan
napanaganan
napanawan
napanda
napaneknekan
napanglaw
napapatay
napapaut
napapel
naparagpagan
naparang
napardas
naparpardas
napartuat
naparukma
napasamak
napasardeng
napasayaat
napasingkedan
napaspasamak
napatalaw
napataud
napatay
napateg
napategan
napatinggaan
napaungar
napaut
napauten
napayakan
napeggad
napetsaan
napetsado
napigpigsa
napigsa
napili
napilit
napilitda
napilpili
napino
napintas
napipia
napirmaan
napisi
naplabas
naplano
napnapan
napno
napo
napoleon
napoleoniko
napoles
napolitano
naporma
napreserba
napu
napudno
napudot
napudpudot
napukaw
napukawen
napukawna
napukpukan
napukpukaw
napundar
napunno
napuoran
napusasaw
napusek
napusgan
napuskol
napuspusasaw
naqada
nara
naragsak
narakrak
naramen
narang
naranggas
narangha
naraniag
narapis
narasay
naratibo
narciso
narebba
naregget
narigat
narikepan
narikpan
narikut
narin
naririmpuok
nariro
narom
narra
narrative
narugian
narugit
naruhito
narukod
narusanger
narvacan
nasa
nasadiwa
nasagepsepan
nasaksian
nasakupan
nasalakniban
nasalun
nasam
nasamek
nasanay
nasansanay
nasantuan
nasao
nasap
nasapa
nasapsapa
nasaririt
nasayaat
nasayaatda
nasaysayaat
nasekka
naserbi
naserraan
nash
nashville
nasi
nasiitan
nasikkil
nasiksikan
nasileng
nasimpa
nasion
nasional
nasionalismo
nasionalista
nasipit
nasipnget
nasirib
nasken
naskenda
nasolbar
nasudi
nasugatan
nasugbu
nasukatan
nasukatanen
nasukisok
nasukog
nasuksukimat
nasuportaran
nasuppiatan
nasurok
nasursurok
nat
natadem
nataengan
natagtagitao
natakneng
natal
natalense
natalensis
natalged
natalie
natalinaay
natalinaed
natalna
nataltalon
natan
natangken
natarikayo
natawtawagan
natay
natayag
natayen
nataytayag
nateng
natengngel
nath
nathan
nathaniel
natib
natibker
natibo
natidda
natiempuan
natiliw
natiliwna
natimbeng
natimbengan
nation
national
nationale
nationalencyklopedin
nationalism
nationalismo
nationalista
nationalities
nations
natirad
natituloan
natituluan
native
natividad
natl
natnag
natnatay
natnateng
nato
natonin
natrato
natu
natubbog
natuna
natunaw
natunton
natur
naturae
natural
naturales
naturalis
naturalisado
naturalista
naturay
naturayan
nature
natured
naturelle
naturikan
nauclea
naucleeae
naud
naudi
naudin
naududi
naueti
naujan
naulimek
naulit
naumnong
naun
nauneg
naungaw
naungawen
naur
nauram
nauratan
naurnong
naurnos
naurnosda
nauru
naus
nausar
naususar
nautika
naval
navarro
navas
navigation
navotas
navy
naw
nawara
nawaswas
nawatiwat
nawatwatiwat
naway
nawaya
nawayaan
nawayada
nayanak
nayarit
nayelo
nayentablado
naynay
nayon
nayoro
nazareno
nazareth
nazi
nb
nc
ncbi
nchen
nchez
ncia
ncid
ncipe
ncr
nd
nda
nden
nder
ndez
ndige
ndna
ndu
ndumut
ne
nea
neal
near
nebraska
nebula
nebulosa
neck
ned
nedebang
nederland
nederlands
nederlandsch
nee
need
needham
nees
negatibo
negeri
neglecta
negm
negosasion
negosiante
negosio
negrito
negritos
negro
negros
nehru
neil
neill
nektar
nelly
nelson
nematopoa
nemi
nemuro
nen
neo
neofabricia
neolamarckia
neolemonniera
neolitiko
neomitranthes
neomura
neon
neonauclea
neotrop
neotropical
neotropikal
neotropiko
nepal
nepenthes
nephelium
nepnep
neptune
neptuno
nerbios
neri
neriifolia
nertera
neruda
nervosa
nery
nesoluma
nesom
nesperos
nest
nestor
net
netherlands
network
networks
neucha
neue
neumann
neupane
neurocalyx
neutral
neutron
nevada
neve
never
neverland
neville
new
newfoundland
newman
news
newsinfo
newsletter
newton
next
neyraudia
nez
ng
nga
ngaju
ngamin
ngan
ngarab
ngarud
ngata
ngato
nge
ngel
ngem
ngen
nghe
ngho
ngimmato
ngina
ngipen
ngiwat
ngo
ngs
ngu
ngua
nguembou
ngumatngato
ngumato
nguo
nguye
nguyen
ngzho
nh
nha
nho
nhua
ni
nia
nias
nibaliw
nic
nica
nicaragua
niccolo
niche
nicholas
nichols
nicholson
nichtsta
nick
nickel
nickname
nicknames
nico
nicobar
nicobares
nicobarese
nicola
nicolaas
nicolas
nicolaus
nicole
nicolson
nicosia
nido
nidwalden
niebe
nied
niedenzu
niels
nielsen
niemeyera
nietzsche
nieuw
nieves
nigel
niger
nigeria
night
nighthawk
nightshade
nigrescens
nigricans
nih
nihon
nii
niigata
nijhoff
nika
nikel
nikitin
nikola
nikolai
nikolaus
nila
nile
niles
nilo
nils
nimboran
nimo
nimoy
nin
nina
ninaganan
ninagananda
ninagananna
nine
nineteenth
nino
ninoy
nio
niog
nipa
nipas
nipponika
nir
niro
niseko
nishi
nitida
nitrato
nitroheno
niuafo
niuano
niue
niven
nixon
nj
njic
njiu
nkr
nkrumah
nl
nlm
nm
nmi
nmnh
nn
no
noa
noaa
noah
noam
nob
nobel
nobela
nobelana
nobelista
nobelprize
nobiembre
nobilidad
noble
nobleza
nodo
noe
noel
noemi
noi
noli
nolledo
nom
noma
nomadiko
nomenclator
nomenclatural
nomenclature
nomenklatura
nominado
nominal
nominasion
nomination
nominum
non
nong
noni
nonmarine
nonok
noon
nor
nora
norbert
nord
nordic
nordiko
norfolk
noriega
norma
normal
norman
normandia
normando
noronha
norsk
norte
north
northampton
northeast
northeastern
northern
northia
northwest
norton
norvig
norway
norwega
norwegian
norwego
norzagaray
nos
noss
nostolachma
not
nota
notasion
note
notes
nothofer
notice
notices
notizblatt
notre
notsuke
notulae
noume
noun
nouveau
nouvelle
nouvelles
nov
nova
novae
novaliches
novaya
novel
novela
noveleta
november
novi
novo
novon
now
np
npr
nr
nrcs
nscb
nsw
nt
nta
ntgen
nther
nti
ntico
ntore
nu
nuang
nuclear
nues
nuestro
nueva
nuevo
nui
nuklear
nukleiko
nukumanu
nukuoro
numa
numancia
numbami
number
numbers
nume
numeral
numeriko
numero
nun
nunavut
nung
nunungan
nuosu
nupay
nur
nuremberg
nurunor
nus
nusa
nussbaum
nut
nutans
nutrision
nuts
nutt
nuwas
nuytsia
nwe
ny
nya
nyah
nyc
nynorsk
nytimes
nz
næss
o
oahu
oak
oakland
oaks
oas
oaxaca
ob
obama
obando
obi
obihiro
obira
obispo
obituario
obituary
object
oblast
obligasion
oblongifolia
oblongifolius
obovata
obovatum
obra
obrada
obrana
obrero
obscura
obscurum
obserbasion
obserbatorio
observations
observatory
observer
obtusa
obtusifolia
obtusifolius
obwalden
oc
ocampo
occidental
occidentale
occidentalis
occupation
occupied
occur
occurrence
oce
ocean
oceania
oceanic
oceaniko
oceanographic
oceanography
oceans
och
ochracea
ochrosperma
oclc
oct
octandra
octave
october
od
oda
odan
odanna
odda
ode
oder
odin
odiong
odiongan
odisha
odna
odontosoria
odorata
odore
odyssey
oecd
oed
oeste
of
off
office
offices
official
officially
officiel
oficial
ofisial
often
og
ogan
ogasawara
oh
ohio
ohwi
oi
oil
oirata
ois
oise
oiwake
ok
okasion
okayama
oketo
okhotsk
oki
okinawa
oklahoma
okra
oksapmin
oksido
oksiheno
oksitano
okt
oktubre
okushiri
ol
ola
olac
olan
olanda
olande
olandes
olango
olav
olaya
old
oldenlandia
oldenlandiopsis
oldman
ole
oleifera
olga
oligandra
oligantha
oligoseno
oligostachyum
olimpia
olimpiada
olinguito
olinia
oliniaceae
oliv
olive
oliveira
oliver
olivia
olivier
olmec
olmstead
olo
olof
olongapo
olrat
olson
olutanga
olympia
olympic
om
oman
omar
omnia
omniglot
on
onard
once
one
ones
ong
onin
online
only
ono
onoclea
onocleaceae
ontario
onthisday
ontong
onuevo
onwards
oo
op
opao
opec
open
opening
openstreetmap
opera
operasion
operating
operation
opercularia
ophile
ophiorrhiza
opinion
opisal
opisial
opisiala
opisialda
opisina
opisthokonta
opol
opold
opon
oppositifolia
opsial
opsina
optika
optikal
opurtunidad
opus
or
ora
orador
oral
orang
orange
orani
oras
orbis
orchid
orcid
ord
order
orders
ordinansia
ordinario
ordines
oregon
org
organic
organiko
organisasion
organisation
organised
organismo
organisms
organization
organizations
organo
ori
orient
oriental
orientale
orientalis
orientasion
oriente
origin
original
origins
orihinal
orinoco
oriole
oriolus
orion
orissa
orkestra
orkidia
orlando
orleans
ormoc
ornamental
oro
orokaiva
oroquieta
orr
orrell
ortega
orthography
ortigas
ortiz
ortodokso
ortograpia
ortograpiko
orwell
orya
oryza
os
osa
osaka
osbeckia
osborn
osborne
osbornia
oscar
osce
oseanograpia
osetia
oshamambe
oshima
osias
oskar
oslo
oslob
osman
osmanlı
osmen
osmena
oso
osos
ospital
ossaea
ossetia
ostapirat
osvaldo
oswald
ot
otaru
otdday
otdmonth
otdyear
otel
other
others
oto
otobe
otofuke
otoineppu
otomano
oton
otonio
ottawa
otto
ottoman
ou
ouachitana
our
out
outline
outlook
ouve
ovalifolia
ovata
over
overall
overcoming
overlook
overseas
overview
ovidio
owen
owl
own
oxalidales
oxford
oxyanthus
oy
oya
oz
ozamis
ozamiz
ozanne
p
pa
paama
paammo
paano
paaweng
paay
pablaak
pablo
paborito
pabrika
pabuya
pabuyana
pac
pachom
pachuca
pachycentria
pachyphylla
paciano
pacific
pacifico
pacino
pacita
packard
pacmad
paco
pacoh
pacquiao
padada
padang
padi
padilla
padios
padoe
padre
padto
padua
paederia
paete
pag
pagabetan
pagadalan
pagadian
pagalagadan
pagalamatan
pagaliwaksayan
pagalongan
pagalungan
pagan
pagangayan
pagannurotan
pagano
pagaraban
pagarian
pagarigan
pagasa
pagatpat
pagaw
pagawisan
pagay
pagayawan
pagayusan
pagbaetan
pagbaetanda
pagbalayan
pagbaliwen
pagballasiwan
pagbaludan
pagbanagan
pagbasabasa
pagbatokan
pagbeddengan
pagbeddenganna
pagbiagan
pagbibingayan
pagbilangan
pagbilao
pagbuyaan
pagdagusan
pagdalanan
pagdumadumaan
pagduyosan
page
pages
paget
paggatangan
paggatasan
paggiddiatan
paggidiatan
paggigiddiatan
pagi
pagibatayan
pagiddiatan
pagidulinan
pagikabilan
pagilian
pagilianna
pagimbagan
pagipablaakan
pagipenpenan
pagiwarnak
pagkakaisa
pagkalapan
pagkapat
pagkatlo
paglakkuan
paglakuan
paglalakbay
paglanguyan
paglappedan
paglayusan
pagliklikmutan
paglinawan
paglinglingayan
paglinongan
pagliwliwaan
pagluganan
pagmalditan
pagminaan
pagnaan
pagnaedan
pagobraan
pagorasan
pagos
pagpaatiddog
pagpadaan
pagpagarian
pagpagilian
pagpasiaran
pagpatayaban
pagpatinggaan
pagpilian
pagresultaan
pagrugian
pagsaadan
pagsaao
pagsabtan
pagsammakedan
pagsanghan
pagsangladan
pagsanjan
pagsapulan
pagsapulanna
pagsardengan
pagsasabtan
pagsasao
pagsasaoda
pagsasaona
pagsasarunuan
pagserrekan
pagsiapingan
pagsisinaan
pagssao
pagsukisokan
pagsurotan
pagtaengan
pagtaenganda
pagtaenganna
pagtagilakuan
pagtalonan
pagtaudan
pagtayaban
pagtayyekan
pagtayyekanna
pagtengngaan
pagtitinnulongan
pagtonoyan
pagtubuan
pagtuladan
pagtumpongan
pagtungpalan
pagturayan
pagtutumpongan
paguartaan
pagudpud
pagurasan
pagyanan
pahang
pahlavi
pai
paici
pairs
paisano
pait
paitan
paitaniko
paiwan
pajo
pak
pakaaammo
pakaaamo
pakaammo
pakaamo
pakabilangan
pakabirukan
pakabuklan
pakadanagan
pakaibatayan
pakaibilangan
pakaidumaan
pakaigiddiatan
pakailasinan
pakailawlawagan
pakaimatangan
pakairamanan
pakaitunosan
pakaiturongan
pakakitaan
pakalaglagipan
pakan
pakaniko
pakaraimaea
pakasarakan
pakasaritaan
pakasaritaanna
pakatengngaan
pakbo
pakdaar
pakil
pakinakem
pakipagilian
pakisinnaritaan
pakistan
pakitinnarusan
pako
paktoria
paku
pakultad
pal
palace
palagip
palais
palale
palanan
palanas
palanca
palao
palapag
palaquium
palasio
palata
palau
palauano
palaui
palauig
palaung
palaungic
palaungiko
palawan
palayan
pale
palembang
paleolitiko
palestina
palestine
palestinian
palgrave
pali
palicourea
palikmutan
palimbang
palina
palisot
palko
pallang
pallens
pallida
palm
palma
palmar
palmas
palmato
palmer
palmeri
palo
palompon
palso
paltat
paltog
palu
paluan
paludosa
palumbanes
palustris
pamanunotan
pamay
pambansa
pambujan
pamela
pamilia
pamiliada
pamilian
pamiliana
pammabasol
pammadayaw
pammadayawna
pammalagip
pammalubos
pammasingked
pammati
pammatina
pammigbig
pamona
pamp
pampanga
pampanid
pamplona
pamunganayan
pamuspusan
pan
pana
panabo
panag
panagabuso
panagad
panagadadal
panagadal
panagadalna
panagakar
panagala
panagalagad
panagampon
panaganges
panaganup
panagapit
panagaramid
panagarte
panagawan
panagawat
panagay
panagayat
panagayatna
panagayos
panagayus
panagaywan
panagbalbaliw
panagbalikas
panagbalikuskos
panagbalin
panagbaliw
panagballasiw
panagballigi
panagballigina
panagbanbaniaga
panagbanbaniagana
panagbanbanniaga
panagbangon
panagbaniaga
panagbanniaga
panagbanniagana
panagbasa
panagbatok
panagbawbaw
panagbayad
panagbettak
panagbettakna
panagbiag
panagbiagna
panagbiahe
panagbidana
panagbilang
panagbingbingay
panagbirbiruk
panagbiruk
panagbisita
panagbisitana
panagbitay
panagbomba
panagbubutos
panagbuis
panagbulbulod
panagbulod
panagbutbuteng
panagbutbutos
panagbutos
panagbuya
panagdadael
panagdakamat
panagdakkel
panagdal
panagdaliasat
panagdalus
panagdengngeg
panagdillaw
panagdinnungpar
panagdudua
panagduduma
panagduktal
panagdumaduma
panagdungpar
panagdur
panaggatang
panagggunay
panaggigiddiat
panaggun
panaggunay
panaggundaway
panaggungunay
panagikeddeng
panagikkat
panagiladawan
panagilasin
panagilawlawag
panagiletra
panagin
panaginagan
panaginana
panaginnala
panagipablaak
panagipadas
panagipadpada
panagipagarup
panagipagpagarup
panagipalawag
panagipalpalawag
panagipalpalawagan
panagipatakder
panagipatarus
panagipenpen
panagirangarang
panagiranggo
panagisursuro
panagited
panagitudo
panagiyebkas
panagkabagian
panagkakabagian
panagkalap
panagkalay
panagkali
panagkanaig
panagkanta
panagkarkulo
panagkayat
panagkaykaysa
panagkita
panagkukua
panagkuna
panagkuti
panaglabas
panaglabsing
panaglagip
panaglaklako
panaglako
panaglalaban
panaglalam
panaglalaok
panaglapped
panaglasat
panaglayag
panaglayus
panaglikmut
panaglikud
panagliwliwa
panagluas
panaglugan
panaglukat
panaglunag
panaglungsot
panagluto
panagmaneho
panagmaymaysa
panagmina
panagmodelo
panagmula
panagnagan
panagnayon
panagniebe
panagobra
panagpaadu
panagpaamo
panagpababa
panagpabaro
panagpabasol
panagpabassit
panagpabpabuya
panagpabuya
panagpabuyana
panagpadakkel
panagpadas
panagpadur
panagpakamatay
panagpalaka
panagpalawag
panagpalpaliiw
panagpalpalikmut
panagpangato
panagpanpanunot
panagpapada
panagpapatay
panagpapigsa
panagparang
panagparangna
panagparnuay
panagpartuat
panagparuar
panagparukma
panagpasardeng
panagpasayaat
panagpasiar
panagpasingked
panagpatakder
panagpataray
panagpataud
panagpatay
panagpatayab
panagpatingga
panagpattapatta
panagpatubo
panagpawil
panagpili
panagpinta
panagpirma
panagplano
panagporma
panagproseso
panagpudot
panagpukan
panagpukaw
panagpukpukan
panagpuor
panagpussuak
panagraem
panagrakit
panagrang
panagrangrang
panagraraem
panagrason
panagraut
panagrebba
panagrehistro
panagrepaso
panagreporma
panagrikna
panagriringgor
panagrugi
panagrugit
panagrukma
panagrukod
panagsabong
panagsagepsep
panagsagsagaba
panagsakop
panagsakup
panagsalaknib
panagsalisal
panagsaludsod
panagsanay
panagsanayna
panagsanglad
panagsansanay
panagsardeng
panagsarsaruno
panagsasao
panagsasarungkar
panagsasaruno
panagserbi
panagserrek
panagsibog
panagsiim
panagsikog
panagsilaw
panagsina
panagsinnaranay
panagsinnukat
panagsirmata
panagsisiim
panagsisina
panagsisinnaruno
panagsubli
panagsubok
panagsukat
panagsukimat
panagsukisok
panagsukisokna
panagsuko
panagsukog
panagsuksukimat
panagsuksukisok
panagsungbat
panagsuporta
panagsuppiat
panagsuppiatna
panagsurat
panagsuratna
panagsurot
panagsursurat
panagsursuro
panagsusulbod
panagsusuldong
panagtaeng
panagtagabu
panagtagikua
panagtagilako
panagtagtagilako
panagtakem
panagtalaw
panagtaldiap
panagtalek
panagtalinaay
panagtalon
panagtaltalon
panagtaraken
panagtarikayo
panagtaripato
panagtaripatu
panagtawag
panagtayab
panagtayyek
panagtengngel
panagtignay
panagtimbeng
panagtipon
panagtitinnulong
panagtitinnulongan
panagtitipon
panagtokar
panagtrabaho
panagtubo
panagtudo
panagtudtudo
panagtulong
panagtultuloy
panagtungpal
panagtunton
panagturay
panagturayna
panagturpos
panagturturay
panagtutudo
panagungar
panagurnong
panagurnos
panagus
panagusar
panagusig
panagwayawaya
panagwayawayas
panagwaywayas
panagyelo
panagyot
panahon
panaka
panakaala
panakaammo
panakaawat
panakabangon
panakabingbingay
panakadadael
panakaduktal
panakaidasig
panakailasin
panakaimatangan
panakaipalpalawag
panakaipangato
panakaipasngay
panakaipasngayna
panakaipatarus
panakairangarang
panakaiwarwaras
panakakita
panakalpas
panakapaay
panakapartuat
panakapresidente
panakapukaw
panakarebba
panakasanay
panakatnag
panakawaya
panakawayawaya
panakibiang
panama
panamao
panamensis
panangabak
panangagas
panangala
panangawat
panangibaga
panangibagbaga
panangibalikas
panangibaliw
panangibangon
panangidasig
panangidasigna
panangidaulo
panangigawid
panangigrupo
panangikabil
panangikapet
panangikaskaso
panangikaykaysa
panangikeddeng
panangiladawan
panangiladawanna
panangilasin
panangilawlawag
panangiletra
panangimapa
panangimaton
panangimuyong
pananginagan
pananginayon
panangipablaak
panangipada
panangipadas
panangipagarup
panangipakat
panangipakita
panangipalawag
panangipalpalawag
panangipalplawag
panangipapelna
panangiparang
panangipatakder
panangipatarus
panangipateg
panangipatingga
panangipatungpal
panangipetsa
panangiragpat
panangiraman
panangirangarang
panangiranggo
panangirepresenta
panangisagana
panangisao
panangisina
panangisubli
panangisuro
panangisursuro
panangital
panangited
panangitipon
panangituray
panangiturong
panangiyaddang
panangiyakar
panangiyammo
panangiyasping
panangiyebkas
panangiyuna
panangiyunay
panangpaandar
panangrugi
panangsakup
panaon
panapaan
panas
panateng
panawen
panawenna
panay
pandacan
pandan
pandanan
pandek
pandemia
pandi
pandin
paneknek
pang
panganan
panganiban
pangantucan
pangarap
pangasinan
pangasinense
pangdan
panggep
panggepna
pangi
pangibalayan
pangil
pangilasin
panglaglagip
panglao
panglapped
panglima
pangmarka
pangnagan
pangngagas
pangpang
pangpelikula
pangrabii
pangrugian
pangsandi
pangsandida
pangsandina
pangsangladan
pangsaruno
pangsubok
pangsukat
pangsukisok
pangsuldong
pangsuporta
pangta
pangtelebision
panguartaan
panguil
pangulo
pangutaran
pangyabaaan
pangyababaan
pangyababaanna
pangyababan
pangyuna
paniai
paniculata
paniculatum
panid
panidna
paniki
panikula
paniqui
panirigan
panitan
panlalawigan
pannagidasig
pannagipagarup
pannagna
pannaka
pannakaabak
pannakaadipen
pannakaala
pannakaalis
pannakaallilaw
pannakaammo
pannakaammona
pannakaampon
pannakaapday
pannakaaramid
pannakaawan
pannakaawat
pannakabagi
pannakabagina
pannakabalbaliw
pannakabalikas
pannakabalin
pannakabangon
pannakabangonna
pannakabigbig
pannakabingay
pannakabingbingay
pannakabukel
pannakabutos
pannakabutosna
pannakadadael
pannakaduktal
pannakaduktalna
pannakagun
pannakaibaga
pannakaibagi
pannakaibalikas
pannakaibatay
pannakaidasig
pannakaidasigna
pannakaiduma
pannakaidutok
pannakaigiddiat
pannakaigrupo
pannakaikabagian
pannakaikabagianna
pannakaikabil
pannakaikameng
pannakaikapet
pannakaikapetna
pannakaikaskaso
pannakaikeddeng
pannakaikkat
pannakailadawan
pannakailasin
pannakailetra
pannakailinia
pannakaimatangan
pannakaimpluensia
pannakainagan
pannakainaig
pannakaipabassit
pannakaipablaak
pannakaipada
pannakaipadana
pannakaipakat
pannakaipakita
pannakaipalawag
pannakaipalpalawag
pannakaipalplawag
pannakaipan
pannakaipangato
pannakaipasa
pannakaipasngay
pannakaipasngayna
pannakaipatakder
pannakaipatarus
pannakairaman
pannakairamanna
pannakairangarang
pannakairanggo
pannakaisalumina
pannakaisilpo
pannakaisina
pannakaisinsina
pannakaisurat
pannakaitunos
pannakaiwaras
pannakaiwarwaras
pannakaiwarwarasna
pannakaiyallilaw
pannakaiyammo
pannakaiyasideg
pannakakita
pannakalagip
pannakalpa
pannakalpas
pannakapaay
pannakapalpalawag
pannakapartuat
pannakapasayaat
pannakapasingked
pannakapirma
pannakaporma
pannakapukaw
pannakapundar
pannakarebba
pannakasanay
pannakasapul
pannakatay
pannakatiliw
pannakatnag
pannakatunaw
pannakaturay
pannakaumili
pannakaungaw
pannakaurnos
pannakausar
pannakausarna
pannakawaswas
pannakawaya
pannakawayawaya
pannakbagi
pannakiasawa
pannakiasawana
pannakibiang
pannakibinglay
pannakigubat
pannakigubatan
pannakikabagian
pannakikadua
pannakikumplot
pannakilaban
pannakisarita
pannakisinnarita
pannakisinnukat
pannakitignay
pannangan
panorama
panoramiko
panoramio
panpanawen
panpantok
pansipit
pansol
pantabangan
pantalan
pantaleon
pantao
pantaon
pantar
pantasia
pantay
panteon
panthera
pantoc
pantok
pantokna
pantropikal
pantukan
panukulan
panunot
pao
paoay
paolo
paombong
papa
papael
papan
papanan
papel
papeles
papelna
paper
paperback
papers
papi
papilionoideae
papillosa
papiro
papora
papua
papuan
papuana
papuano
papuasia
papyrus
paquiao
par
para
paracale
paracelis
parada
parade
paradigma
paradise
paradisec
paraensis
paragonis
paragpag
paraguay
parai
paraigid
paraiso
parakad
paralahe
paralelo
parametro
paramount
paran
parana
paranan
parang
parangan
parapiletiko
parashorea
parasitiko
paratong
parawad
parbo
pardas
pardo
pare
parentesis
pari
paria
parian
parikut
parinacota
paris
parish
park
parke
parker
parkinson
parks
parkvall
parlamentario
parlamento
parliament
parmasiotiko
parokia
parokpok
parry
pars
parsua
part
parte
partena
particular
partido
partidona
parties
partikula
partikular
partnership
parto
parts
party
parviceps
parviflora
parvifolia
parvipetala
pas
pasacao
pasahe
pasahero
pasakbay
pasamak
pasaruno
pasasao
pasay
pasayan
pascal
pascale
pascua
pascual
pasdek
paseo
paset
pasetna
pasi
pasiente
pasig
pasil
pasilidad
pasingkedan
pasipiko
pasismo
pasista
paskua
paskuas
paso
pasonanca
pasong
paspasamak
paspaset
pass
passage
passi
passim
passion
past
pastazana
pasteur
pastor
pastoral
pastrana
pasts
pat
pata
patag
patagonia
patakder
patani
patapat
patarus
patatas
pataud
patauden
patay
pateg
pategna
patel
patens
paterno
pateros
path
pati
patikul
pating
patingga
patinggana
patingnga
patnanungan
patneng
pato
patoc
patong
patriarka
patricia
patrick
patriota
patriotiko
patrologia
patron
patterns
patubo
pau
pauciflora
pauciflorum
paul
paula
pauline
paull
paulo
pauly
pauridiantha
pausinystalia
pauwasi
pav
pavarotti
pavetta
pavia
pavo
pavonia
pawa
pawikan
pawley
pay
paya
payak
payao
payap
payen
payena
payne
payo
pays
paz
pazeh
pazih
pb
pbs
pc
pdf
pe
peabody
peace
peak
peakbagger
peakery
peaklist
peaks
pear
peariko
pearl
pearson
peb
pebrero
pechora
peck
pedal
pederado
pederal
pederala
pederalista
pederasion
pedicellata
pedra
pedro
peduncularis
pedunkulo
peel
pegg
peggad
pei
peiros
peking
pelaez
pelagio
pelargonium
pelicula
pelikula
pelikulana
pellegr
pellegrin
peminista
pen
penaeaceae
penal
penan
penang
pence
pendatun
pendidikan
penduduk
pendula
penduliflora
pene
penerbit
peng
penguin
penh
penicillata
peninsula
peninsular
penisia
penisilina
penisio
penn
penned
penneys
pennington
pennsylvania
penny
penomena
penomeno
penrhyn
pentachlaena
pentagonia
pentandra
pentanisia
pentas
pentecosta
people
peoples
peopling
pep
pepin
pequen
per
perak
peralta
perama
percent
percha
percy
peregrina
peregrinasion
peregrino
pereira
perenial
perennial
perez
perfect
perfil
performance
pericalymma
period
periodiko
periplus
perkins
perlas
permanent
permanente
permanently
pernambuco
perokaril
perpekto
perpusilla
perr
perrie
perrier
perrieri
perrierodendron
perrokarril
perry
pers
perseus
persia
persian
persiano
persica
person
persona
personal
personalidad
personalidadna
personas
persons
perspective
perspectives
perspektibo
perss
persson
perth
peru
peruviana
pesiolo
peste
pet
petalo
pete
peter
peters
petersburg
petersburgo
petersen
peterson
petiolaris
petiolata
petit
petra
petrolio
petrus
petsa
pew
pez
pfeiffer
pfeil
pflanzen
pflanzengeographie
pflanzengeschichte
pg
ph
pha
phai
phaidon
phainantha
phan
pharus
phaseoleae
phaseolus
phd
phenix
phi
phialanthus
phil
philadelphia
philip
philipe
philipp
philippe
philippine
philippinensis
philippines
phillip
phillips
phillyreifolia
philology
philosophical
philosophy
philstar
phivolcs
phnom
pho
phoenix
phon
phone
phonemes
phonetic
phonetics
phong
phonological
phonologies
phonology
photo
photographs
photos
photosynthesis
photosynthetic
php
phraya
phu
phyla
phyllis
phylogenetic
phylogenetics
phylogenomic
phylogeny
phylum
physical
physics
phytochemistry
phytographiae
phytokeys
phytologia
phytologist
phytotaxa
pi
pia
piaf
piagapo
piang
pianista
piano
piansa
pias
piat
piawi
pic
picasso
pichay
pichinchensis
pichonia
pickford
pico
picture
pictures
pidal
piddig
pidgin
pidigan
pie
pier
pierce
piero
pierre
pierrei
piers
piesta
pieter
pietro
pigsa
pigura
pijin
pikit
piksion
pila
pilamento
pilantropo
pilar
pilbara
pileanthus
pileni
pilg
pili
pilid
pilidiostigma
pililla
pilipinas
pilipino
pilly
pilo
pilohenetika
pilohenetiko
pilohenia
piloheniko
pilohenio
pilologo
pilosa
pilosopia
pilosopiko
pilosopo
pilot
piloto
pimenta
pimentel
pimmanaw
pimmatay
pimmusay
pin
pinabacdao
pinadakkel
pinadur
pinagbayanan
pinagbuklod
pinagtitipon
pinakbet
pinanawan
pinanawanna
pinansia
pinarang
pinarmek
pinarnuay
pinartuat
pinartuatna
pinarukma
pinarukmana
pinasia
pinasingkedan
pinataud
pinatay
pinatpataray
pinatubo
pinay
pindangan
pindolonan
pinduten
pine
pineda
ping
pingir
pinguino
pinia
pinifolia
pinili
pinilina
pinintaan
pinintaanna
pinirmaan
pink
pinlandes
pinlandia
pinnado
pinnata
pino
pinorma
pinoy
pinoyexchange
pinoymountaineer
pintas
pinter
pinto
pintor
pintuyan
pinukpuk
pinundar
pinundarna
pinus
pinyin
pio
pioneer
pionero
piper
piptophyllum
pirak
piramida
pirata
pires
pirgis
pirineos
piroklastiko
piru
pisa
pisi
pisika
pisikal
pisiko
pisin
pisiograpiko
pisiolohia
pisisista
piskel
pison
pisos
pit
pita
pitak
pitanga
pitcairn
pitcher
pithecellobium
pitman
pito
pitogo
pitt
pittayaporn
pittayawat
pittier
pittieri
pittsburgh
pizarro
pl
place
placer
places
plain
plains
plaka
plan
planch
planchon
planchonella
planck
planet
planeta
planetario
planetary
planets
planning
plano
plans
plant
planta
plantae
plantarum
plantas
plantasion
plantes
plantnet
plants
plantzafrica
plaridel
plasma
plastid
plastik
plata
plataporma
plate
plath
plato
platyphylla
play
playa
plaza
plebesito
plebiscite
plebisito
pleistoseno
pleurocalyptus
plinia
pliny
plocama
plos
ploso
plota
plum
plural
pluriflora
plus
pluto
pm
pmc
pmid
pnas
pnawen
png
pngsl
po
poaceae
poales
pob
poblacio
poblacion
pocdol
pocket
pocock
podgorica
podlaska
podlaski
poe
poem
poems
poepp
poet
poetiko
poetry
poets
pohl
pohnpei
pohnpeiano
point
poir
poitier
pola
polako
poland
polangui
polar
polbora
pole
polen
poli
policarpo
police
policies
policy
polieto
polillo
polimero
polinasion
polinesia
polinesio
polipiletiko
polis
polita
politeismo
politica
political
politics
politika
politikal
politiko
polity
polk
poll
pollard
pollen
pollination
polo
polomolok
polonia
polyandra
polyanthum
polygalifolium
polymorpha
polyne
polynesia
polynesian
polyneura
polypodiales
polypodiopsida
polysperma
polysphaeria
polystemonea
pomax
ponce
ponciano
pond
pondo
pone
ponema
ponemiko
ponetiko
pong
ponolohia
ponolohiko
ponong
pontevedra
pontianak
pontificalis
pontificia
pontificio
pontipikado
pooc
pooideae
pook
poole
poon
poona
poor
pop
popaya
pope
popes
popov
popular
populasion
populasionda
populasionna
population
populations
por
porac
porma
pormada
pormal
pormana
pormasion
pormat
pormula
poro
porome
porsiento
port
portal
porter
portland
portlandia
portman
porto
portoricensis
portrait
portraits
portugal
portuges
portugue
portuguese
posibilidad
posil
positibo
position
posoqueria
posporo
possible
post
postal
postscript
postura
potato
potential
potograpia
potograpiko
potograpo
poton
potosi
potosintesis
potosintetiko
pototan
potter
pour
pouteria
poverty
powell
power
powers
pozorrubio
pp
ppen
ppg
ppp
pr
pra
practical
practice
practices
pradesh
prado
pradosia
praeger
prague
prairie
prakrit
praktikal
pran
pranko
pranse
pranses
pransia
prasad
pratt
praxedes
pray
prayle
prc
pre
preatiko
preface
prefecture
prehistoria
prehistoric
prehistoriko
prehistory
preissianae
prekuensia
preliminario
preliminary
premier
premio
prenta
prentice
prepektura
prepektural
pres
presbyterian
prescott
present
presentacion
presentasion
presentation
presented
presents
preserba
preserving
presidency
presidensia
presidensial
president
presidente
presidential
presidents
presio
presion
presipitasion
presision
presl
presley
press
prestihio
pretoria
pri
pribado
price
pride
prieto
prika
primabera
primary
prime
primer
primera
primitibo
primo
prince
princesa
princess
princeton
principal
principles
pringle
prinsesa
prinsipalidad
prinsipe
prinsipio
print
printed
printing
prioridad
prismatomeris
pritz
pritzel
private
prix
prize
pro
probabilidad
probinsia
probinsial
probinsiana
probision
probisional
problem
problema
problematiko
problems
proc
proceedings
process
processing
proclamation
proctor
procumbens
prod
prodromus
product
production
productions
productos
products
produksion
produktibidad
produktibo
produkto
produser
proenc
prof
professor
profile
profiles
program
programa
programas
programme
progresibo
progreso
progress
project
projections
projects
projekt
proklamasion
prometheus
prominence
prominens
prominensia
prominente
proninsia
pronominal
pronouns
prontera
pronunciation
propaganda
proper
properties
propesion
propesional
propesor
propeta
propinqua
proporsion
prosa
prose
proseso
prospects
prospekto
prosperidad
prostrata
protected
protection
protektorado
protesta
protestante
protestantismo
protina
protista
proto
protocol
protokol
proton
proust
provenc
provence
provide
providence
providencia
providing
province
provinces
provincia
provincial
provinsi
provisional
proyecciones
proyectos
proyeksion
proyekto
prudhomme
prunus
prusia
prusiano
prutas
pryer
ps
pseudosasa
psgc
psidium
psophocarpus
psychology
psychotria
psychotrieae
psychotrioides
pt
pteleopsis
pteridophyte
pterolepis
ptolemy
ptolomeo
pu
pualas
pub
puberula
puberulum
pubescens
publ
public
publicaciones
publication
publications
publiko
publique
published
publisher
publishers
publishing
pubmed
puccini
pudno
pudnoda
pudot
pudtol
puebla
pueblo
puelia
puente
puersa
puerto
puesto
puestona
puff
pugo
pujada
pukapuka
pukapukano
pula
pulag
pulang
pulangi
pulau
pulchella
pulcherrima
pulchra
pulgada
puli
pulilan
pulitzer
pullman
pulo
pulong
pulot
pulupandan
pumanaw
pumarola
pumaroliko
pumila
punan
punctata
pundador
pundamentalismo
pundasion
pundo
punganay
punjab
punjabi
punod
punong
punta
puntaan
puntius
punto
puntod
puntona
puntos
punud
puon
puonan
puonna
pura
purari
puraw
purdue
pure
purisima
puro
purok
purple
purposes
purpura
purpurea
purpureostemon
purpuro
purpurok
pusa
pusat
puseg
pushkin
pusilla
puso
pustaka
pustulata
putbol
puti
putik
putin
puting
putnam
putol
putot
putrajaya
putting
puttock
putumayo
puyuma
puławy
pycnandra
pygmaea
pyongyang
pyotr
pyramus
pyu
pə
q
qa
qatar
qi
qian
qin
qing
qld
qu
qua
quadrangularis
quality
quang
quarterly
quartzite
quartzitorum
quas
quaternary
quattrocchi
quayle
que
quebec
quechua
queen
queens
queensland
queiroz
quere
queries
query
quest
question
questions
quevedo
quezon
qui
quiapo
quick
quickfacts
quiling
quinapondan
quincy
quindoza
quinn
quintana
quintin
quintos
quirino
quito
quixote
quo
qur
r
ra
raay
rabanos
rabaw
rabawna
rabii
rabindranath
rabong
rabrabii
race
racemosa
rachel
rachelle
rade
radiasion
radiation
radical
radikal
radio
radioaktibidad
radioaktibo
radlk
radlkofer
rae
raf
rafael
raffles
rag
raga
ragang
ragat
ragay
raha
rai
rain
rainbow
rainer
rainfall
rainforest
raitt
raj
raja
rajah
rajeriarison
rakahanga
rakotonas
ral
raleigh
ralph
ram
rama
ramain
ramallah
raman
ramay
rambakan
ramen
ramesh
rami
ramit
ramo
ramon
ramos
ramosissima
ramosmania
rampling
ramramit
ramsay
ramsey
ramu
ramut
ramutna
ran
rana
ranao
ranariv
rancagua
rand
randall
randia
randolph
random
randrianasolo
rang
range
ranggas
ranggo
rangkis
rangtay
ranh
rank
ranked
rankings
rankoshi
ranngo
rao
rapa
raphael
rapid
rapids
rapper
rappler
rapu
rard
rare
ras
rasa
rasawa
rason
rat
ratagnon
rate
rates
ration
ratite
raton
rau
rausu
raven
raw
rawis
ray
raya
rayleigh
raymond
raymondii
raymundo
rayo
rayon
rayos
rayus
razafim
razafimandimbison
razafimandimbisonia
rb
rbara
rbcl
rchb
rd
rdoba
re
rea
read
reader
reading
reagan
reaksion
reaktibo
real
realismo
reality
really
reap
reason
reassessment
rebbeng
rebbengna
rebecca
rebel
rebelde
rebelion
rebision
rebolusion
rebolusionario
rebulosion
rebun
rec
recent
rech
recherche
recherches
recognition
recognized
recommended
reconstruction
record
recorded
recordings
records
recovery
recto
red
redgrave
redistricting
redmayne
reed
reeder
reef
reefs
rees
reese
reesink
reeve
reeves
ref
refer
reference
references
refers
reflections
reform
regalo
regel
regget
regierungsbezirke
regina
reginald
regine
regio
region
regional
regiones
regions
register
registration
registry
regni
regnum
regular
regulasion
rehed
rehensia
rehimento
rehion
rehional
rehionna
rehistrasion
rehistro
rei
reich
reid
reimer
reina
reinhard
reinhold
reino
reinstatement
reinw
reinwardtiana
rejang
rekado
rekonstruksion
rekord
rekording
rektanggulo
rekurso
relasion
related
relatibidad
relatibo
relation
relations
relationship
relationships
relative
relatives
release
releases
religion
religions
religiosum
religious
relihion
relihionna
relihioso
remains
remarks
rembrandt
remedios
remember
remembrance
remigio
remijia
remo
remota
remun
ren
renaissance
renania
renasimiento
renato
rendle
rene
rengngat
rennell
renner
rentas
reo
reorganization
rep
repaso
repdigit
repens
reperendum
reperensia
repolio
reporma
repormasion
report
reporta
reported
reporter
reports
repositorio
repository
representasion
representatibo
representatibona
representative
representatives
reprint
reprinted
reproduksion
reproduktibo
reptilia
repu
repubika
republic
republica
republik
republika
republikano
reputasion
request
rer
res
research
reserba
reserve
resident
residente
residents
resistansia
resolusion
resolution
resolve
resolves
resolving
resort
resource
resources
respektibo
respeto
responsibilidad
reston
restorasion
restricted
result
resulta
resultados
results
resurrection
reticulata
retiro
retrato
retrieval
retrieved
return
returns
retusa
retz
reuel
reuters
rev
reveal
revealed
reveals
review
reviews
revilla
revised
revision
revisited
revista
revoluta
revolution
revolutionary
revolutum
revolutus
revue
rex
rey
reyes
reykjavi
reyna
reynaldo
reynolds
reynosa
rez
rfc
rfk
rg
rgen
rhachidosorus
rhexia
rhine
rhizaria
rho
rhode
rhodes
rhodesia
rhodolaena
rhs
rhynchocalycaceae
ri
ria
riang
riau
ribo
ribribo
ribu
ric
rica
ricardo
ricarte
rice
rich
richard
richards
richardson
richel
richest
richmond
rick
rico
rida
rider
ridge
ridl
ridley
ridleyi
ridsdale
ridsdalea
rie
riesgo
right
rights
rigida
rigidus
rigkeit
rikna
rikubetsu
riley
rilke
rillo
rimbachii
rimmagadi
rimmang
rimmuar
rimpuok
rimsua
rin
rinaraeman
rinaut
rinautda
rinautna
rinconada
ring
rings
rinibo
rinibu
riniwriw
rinukod
rinzia
rio
rionegro
riparia
ripariano
ripley
riribok
riribuk
risaralda
rise
rishiri
rising
risk
risoma
ristantia
rita
rite
ritmiko
rito
ritos
ritter
ritu
ritual
river
rivera
rivers
riverside
rivie
rivierre
riwriw
riyadh
rizal
rizmi
rj
rk
rkdartists
rke
rkiye
rko
rldens
rlts
rm
rn
rna
ro
roa
road
roald
rob
robbins
robbr
robbrecht
robert
roberto
roberts
robertson
robin
robinson
robles
robot
robredo
robson
robusta
robustum
robyn
robyns
roc
roca
rochant
rock
rockefeller
rocks
rocky
rod
rodensia
roderick
rodger
rodney
rodolfo
rodr
rodri
rodrigo
rodrigues
rodriguesii
rodriguez
roem
rogelio
roger
rogers
rogiera
roi
rojas
roland
rolando
role
rolfe
roll
rolland
rolling
rom
roma
roman
romana
romance
romani
romania
romanisado
romanisasion
romanization
romanized
romano
romanse
romansh
romantiko
romantisismo
romanum
romaschenko
romblomanon
romblon
rome
romeo
romero
rommel
romney
romualdez
romulo
romulus
ron
ronald
ronaldo
ronda
rondeletia
rondo
rono
roo
roof
room
roon
roosevelt
root
roots
roque
rosa
rosaceae
rosal
rosales
rosalind
rosario
rosary
rosas
rosauro
rose
rosea
roseller
rosemary
rosen
rosenberg
rosenbergiodendron
rosids
roskas
roskov
ross
rossum
roster
rostlin
rostrata
rostratum
rota
rote
roth
rothfels
rothman
rothmannia
rotokas
rotumano
rotundifolia
rouge
rough
round
rouse
rousseau
routledge
roux
rovi
roviana
row
rowan
rowena
rowland
rowman
roxas
roxb
roxburgh
roxburghii
roy
royal
royen
royle
rps
rr
rs
rsbm
rspb
rsta
rstb
rt
rterbuch
rttemberg
ru
ruan
ruangan
ruar
ruben
rubens
rubiaceae
rubieae
rubiginosa
rubiginosum
rubin
rubino
rubioideae
rubovietnamia
rubra
ruby
rudge
rudgea
rudolf
rudolph
rudyard
rueda
rufa
rufescens
rufino
rufus
rugby
rugi
rugit
rugosa
rugosum
ruhsam
rui
ruiz
rukai
rukod
rule
rules
rum
rumangrang
rumano
rummuar
rummuaran
rumoi
rumrummuar
rumrumsua
rumsua
run
rungbeb
running
ruot
rupa
rupestris
rupicola
rupr
rural
rurog
ruruot
rus
rusby
rush
rusia
ruso
russel
russell
russia
russian
rustia
rusutsu
rutaceae
ruth
rutherford
ruy
rwaai
rwanda
ryan
rye
ryu
ryukyu
s
sa
saa
saad
saan
saana
saanak
saanda
saandan
saanen
saanmo
saanna
saanto
saarc
saaroa
saba
sabado
sabah
sabahano
sabali
sabana
sabanalarga
sabanas
sabang
sabangan
sabanganna
sabha
sabicea
sabidong
sabine
sablan
sablayan
sabong
sabongna
sabsabali
sabsabong
sabtang
sabtenna
sachs
sacramento
sacred
sacrum
sadanga
saddle
sadiay
sadino
saeculum
safety
sag
saga
sagada
sagart
sagasa
sagay
sagbayan
sage
saggaysa
sagn
sagneb
sagpaminsan
sagpaminsanda
sagpamisan
sagrada
sagrado
saguday
saguiaran
sagun
sagut
sahara
saharan
sahel
sahon
sahrawi
sai
said
saigon
sailing
saint
sainte
saipan
saisiyat
saitama
sajau
saka
sakaanan
sakana
sakbay
sakbayan
saker
sakha
sakhalin
saki
sakit
sakizaya
sakop
saksi
sakup
sakupen
sakupenna
sakupna
sal
sala
salaam
salaan
saladin
salaknib
salaksak
salam
salamagi
salamangka
salamina
salanga
salas
salay
salaysay
salazar
salcedo
salem
saleng
salgado
salicifolia
salicifolius
salinas
salino
salip
salisal
salisb
salisbury
sallapadan
salle
sally
salmon
salog
salon
salong
salonga
salt
saltillo
salu
saluan
salud
saludsod
salug
salun
salusod
saluyot
salvacion
salvador
salvii
sam
sama
samal
samang
samani
samantha
samar
samarangense
samarokena
samat
samba
sambag
sambal
sambaliko
sambiranensis
samboan
sambulawan
same
samoa
samoan
samoano
samoiko
samonte
sampaguita
sampaloc
sampao
sample
samre
samson
samuel
samuli
samur
samurai
san
sana
sanchez
sand
sandakania
sandaun
sanderson
sandoricum
sandoval
sandra
sandstone
sandwicensis
sandwich
sandwith
sang
sanga
sangadosena
sangagasut
sangalubongan
sangana
sangapulo
sangaribo
sangaribu
sangay
sangguniang
sangihe
sangir
sangiriko
sangkabalayan
sangkabassit
sangkapaset
sangkaputotan
sangkataoan
sangkatiponan
sangkatipunan
sangladan
sanglubongan
sango
sangpulo
sangsanga
sanguanan
sanguenna
sanna
sannantha
sanskrit
sanskrito
sant
santa
santali
santana
santander
santi
santiago
santo
santol
santor
santos
santuario
sao
saoen
sap
sapa
sapad
sapang
sapasap
sapatos
sapian
sapiens
sapindaceae
sapindales
sapodilla
saponi
sapot
sapota
sapotaceae
sapporo
sapsap
sapuan
sar
sara
sarabetsu
sarah
sarandon
sarangani
sarawak
sarawakensis
sarcaulus
sarcocephalus
sarcolaena
sarcolaenaceae
sarcosperma
sarda
sardinia
sardo
sargsyan
sarguelas
sari
sariaya
saringit
saririt
sarita
saritana
sarmi
sarmiento
sarming
sarrat
sarsarita
sartidia
sartre
sarunuen
sasa
sasak
sasanida
sasao
saskatchewan
sasmuan
sassanid
sassao
sastre
satelite
satinash
sativa
sato
saturday
saturno
satyajit
saud
saudi
saul
saunders
saundry
sava
savage
savaiq
savanna
save
saving
savosavo
savu
saw
sawa
sawai
sawang
sawen
saweru
sawi
saxicola
saxifragales
say
says
sb
sc
scabra
scale
scan
scandens
scarecrow
scarlett
scene
schaef
schaefer
schatz
schauer
schell
schengen
schenk
schiller
schindler
schinz
schizolaena
schlechtendal
schleswig
schltdl
schltr
schmid
schmidt
schmitt
schneid
schneider
schnell
scho
scholar
scholars
scholtzia
school
schools
schotia
schott
schouten
schrad
schradera
schreb
schro
schu
schubert
schuettpelz
schult
schultz
schultze
schum
schumach
schumann
schumanniophyton
schuster
schuyler
schwartz
schwarz
schwyz
sci
science
sciences
scientific
scientifiques
scientist
scientists
sclerophylla
scofield
scolosanthus
scoparia
scortechinii
scotia
scotland
scott
screen
screenonline
scribner
script
scrotochloa
scuba
se
sea
seal
sealang
seals
sean
search
seas
season
seattle
sebada
sebakor
sebangan
sebaste
sebastia
sebastian
sebbanagan
sebbanagn
sebbangan
sebbanganna
sebop
sebu
sec
second
secret
secretariat
secretary
secrets
section
sections
secundum
security
seda
sedang
sede
sedimentario
sedimento
sedis
see
seed
seediq
seeds
seem
seen
segovia
segregate
segu
segun
segunda
segundo
seguridad
seifert
seimat
seine
seismiko
seismology
seit
sejarah
sek
sekka
seko
sekondaria
sekondario
sekong
sekretariat
sekretario
sekreto
seksion
sekso
seksual
sektor
sekular
selanda
selangor
selaru
selat
selatan
selayar
selected
selection
self
seligman
selio
seljuk
sellers
selula
selular
selulosa
semai
semantic
semantics
semelai
semi
seminar
seminario
semitiko
sen
senado
senador
senagi
senario
senate
senator
senckenberg
senegal
sengngaw
senial
senias
senior
sense
sensilio
sensitibo
senso
sensu
sensus
sentabo
sentani
sentenario
senteno
sentensia
sentimetro
sentinel
sentral
sentro
sentrona
seok
seorsus
seoul
sep
sepa
sepalo
separate
separation
sepik
sepilok
sept
september
septentrionalis
septiembre
sequence
sequences
ser
sera
seram
seramiko
seraya
serbesa
serbia
serbian
serbina
serbio
serbisio
serbiso
serbo
sereal
seremonia
seremonial
serena
sereno
seresa
sergei
sergio
seri
serial
sericanthe
sericea
serie
series
serioso
serissa
serm
sero
serpyllifolia
serra
serrano
serres
serrulata
sersalisia
sertipikado
serua
server
service
services
serye
sesbania
sesion
sessiliflora
sessilifolia
sessilis
session
set
setana
seth
seti
setosa
settlement
seven
seventeen
seventeenth
seventh
several
severino
sevilla
seville
sex
sexo
sexual
seychelles
seymour
sf
sfn
sg
sh
sha
shadow
shah
shahnama
shahnameh
shakespeare
shakotan
shalchian
shall
shan
shandong
shanghai
shapiro
share
shared
shari
shariff
shark
sharma
sharon
sharp
sharpe
shaw
she
shearer
sheet
sheets
sheila
shelikhov
shelley
shelton
sheng
shepherd
sherman
shi
shia
shibecha
shibetsu
shift
shiga
shigeru
shih
shihoro
shiji
shikibu
shikoku
shikotan
shild
shima
shimamaki
shimane
shimaore
shimizu
shimukappu
shin
shinko
shinners
shinshinotsu
ship
shire
shiribeshi
shiriuchi
shirley
shizuoka
sho
shogakukan
shona
shorea
short
shorto
shoto
should
show
shows
shrine
shrub
shrubs
shtml
shu
shuangjiang
shun
si
sia
siaammo
siak
siam
siamensis
siames
siasi
siat
siaton
siay
siayan
sibalom
siberia
sibibiag
sibik
sibiko
sibil
sibilisasion
sibonga
sibubukel
sibuco
sibugay
sibuguey
sibulan
sibutad
sibutu
sibuyan
sic
sichuan
sicilia
sico
sida
sidapa
siddaaw
side
sideroxylon
sidney
sidwell
sie
sieber
siebold
siegbahn
siegel
siem
siempre
sienkiewicz
siensia
sientipiko
sientista
sierra
sigay
sigayan
sigismund
siglo
sigma
sigmund
sign
signal
signed
signipikante
signoret
sigsiglo
sigud
siigam
siiigam
siit
sika
sikaiana
sikaritai
sikat
sikatuna
sikh
sikhi
sikhismo
sikigan
sikkim
sikko
siklo
sikolohia
sikolohiko
siksik
sil
sila
silaba
silang
silangan
silaw
silay
silc
siled
silence
silent
silesiano
sili
silicon
silindriko
silk
silliman
sillong
silo
silpo
silsilpo
silulukat
silva
silver
silvestre
silvia
silvino
sima
simalungun
simbaan
simbahan
simboliko
simbolo
simborio
simeon
simetria
simeulue
similis
simira
simmakbay
simmanglad
simmangpet
simmangpetda
simmarsaruno
simmaruno
simmina
simmonds
simmons
simmrek
simmuko
simmuppiat
simmurot
simmursurot
simo
simon
simone
simons
simotsimot
simple
simplex
simplicio
simponia
simpson
simrek
sims
simunul
sin
sina
sinai
sinait
sinakop
sinakup
sinakupan
sinakupna
sinaloa
sinama
sinamar
sinapangan
sinarapan
sinaruno
sinarunona
sinarunuan
sinauer
since
sinclair
sindangan
sindh
sindhi
sindhu
sine
sinema
sinensis
sing
singapore
singapur
singasing
singer
singh
singin
single
singsing
singson
singular
sinhala
sinica
siniloan
sinitiko
sino
sinologo
sinoman
sinonimo
sinsuat
sint
sintaksis
sintenisii
sintesis
sintetiko
sintoma
sinukatan
sinukatanen
sinukatanna
sinuportaran
sinuppiat
sinuppiatan
sinurat
sinuratan
sinuratna
sinursurat
sinursuratan
sinursuratna
sio
siocon
sionil
sipalay
siphoneugena
sipocot
sippit
sipud
siquijor
sir
sirang
sirawai
siraya
sire
siria
siriako
siriliko
sirkulasion
sirkulo
sirkumskripsion
sirmata
sirok
sirokna
siruma
sisaket
sismolohia
sison
sissano
sissy
sistem
sistema
sistemana
sistemas
sistematika
sistematiko
sister
sitangkai
sitcom
site
sitema
sites
siti
sitio
sitoy
situasion
situation
siuda
siudad
siudadna
six
sixteenth
sixth
sixto
size
sk
ske
skean
sketch
ski
sko
skou
sky
sl
slim
slinh
slooten
slovenc
slovenia
sm
sma
small
smallhorn
smart
smets
smith
smithii
smithsonia
smithsonian
smithsoniano
smoktunovsky
smooth
sn
snac
snake
sneddon
snow
snyder
so
soacha
sobat
soberano
sobienie
sobiet
sobra
sobral
sobre
soc
soccsksargen
social
socie
societies
society
socio
sociolinguistic
sociology
socorro
socotra
socrates
sodiroi
soepadmo
sofia
sofronio
software
sogod
soil
sok
sokoloff
sol
solana
solanaceae
solanales
solano
solanum
solar
soldado
sole
soledad
solido
solis
solitario
soliven
solnit
solo
solomon
solomoniko
solong
solothurn
solpatara
solpatariko
solsona
solstisio
soltis
solusion
solzhenitsyn
som
somali
somalia
somaliland
some
somers
something
sometimes
son
sona
sonata
sond
song
songs
sonia
sonke
sonn
sonny
sonora
sons
sonsorol
soologo
soolohia
soolohiko
soon
sop
sophia
sophie
sopokles
sopwer
sora
sorabo
sorachi
sorbetes
soreng
sorghum
soriano
soro
soroastrianismo
soroastriano
sorosoro
sorsogon
sorus
sos
sosial
sosialismo
sosialista
sosio
sosiolohia
soto
sotto
soul
sound
source
sources
sousa
south
southeast
southeastern
southern
southwest
southwestern
souza
sovereign
soviet
sowa
soya
sp
spa
space
spacek
spacey
spach
spain
span
spanish
sparrei
spathulata
spatial
speak
speaker
speakers
speaking
spears
special
specialist
species
specimen
speciosa
spectabilis
speech
speg
spencer
spermacoce
spermacoceae
sphaerantia
sphaerocarpa
sphenomeris
spicata
spice
spider
spiegel
spielberg
spinosa
spirit
spiro
spitteler
spitzbergen
splendens
spock
spoken
spondias
sponsored
spotted
spp
spra
sprache
sprachen
sprague
spreng
spring
springer
springfield
springs
spruce
spruceanum
sq
squamata
squamellaria
squamosa
square
sr
sra
sre
sri
srivijaya
srpski
ss
ssc
ssp
ssr
st
sta
staatsangeho
stable
stadt
staff
stage
stalin
stallman
stan
stanbul
stand
standard
standardization
standards
standl
standley
stanford
stanley
stanwyck
stapf
star
starflower
stark
stars
start
started
stat
state
statehood
statement
states
station
statistical
statistics
statistik
statistique
statistischer
statistisches
stato
statoids
stats
status
statutes
stead
stearns
steel
steenis
steenisia
stefan
stefani
stefano
steiger
stein
steinbeck
stella
stellata
stellatum
stemonoporus
stenocalyx
stenopetala
stenophylla
stenostomum
stephan
stephen
stephens
steps
stereocaryum
sterling
stern
steud
steve
steven
stevens
stevenson
stewart
steyerm
sti
stica
sticas
stico
stieng
stig
still
stillman
stilpnophyllum
stinkweed
stipagrostis
stipulosa
sto
stock
stockholm
stockton
stoff
stokes
stone
stop
store
storia
stories
storm
story
strabo
straight
strait
straits
strange
strategic
strategies
strategy
strauss
stravinsky
strawberry
stream
streep
street
streisand
streptochaeta
streptogyna
striata
strickland
stricta
stricto
strid
strigosa
strindberg
strip
stromberg
strong
structural
structure
structures
struggle
struktur
strumpfia
struthio
strutt
stuart
student
students
studies
study
stuttgart
style
styppeiochloa
su
sua
sual
suarez
sub
suba
subanen
subanon
subatomiko
subcontinent
subdialekto
subdibision
subdistrito
subdivision
subduksion
subestrato
subfam
subfamilies
subfamily
subgroup
subgrouping
subgrupo
subhenero
subic
subject
subjects
subklase
subkomite
subkontinente
submarino
subnasional
suborbicularis
subpamilia
subpilo
subpopulasion
subprefecture
subprepektura
subprepektural
subrehion
subsebbangan
subsp
subteraneo
subtribu
subtropikal
subtropiko
subulata
suburbo
suc
such
sucre
sud
sudad
sudan
sudanes
sudipen
sudlon
sue
sueko
suerte
suesia
suez
sufi
sugala
sugar
sugat
sugata
sugbongcogon
sugod
sugpon
suheto
sui
suisa
suiso
suisse
suitable
suk
suka
sukat
sukhothai
suki
sukog
sukogna
suku
sul
sula
sulat
sulawesi
sulcata
suldong
suleiman
suli
sulit
sulka
sullivan
sulop
sulpiz
sultan
sultanato
sulu
sumagad
sumaganad
sumagand
sumagmamano
sumakbay
sumakop
sumaksakop
sumakup
sumangsango
sumarsaruno
sumaruno
sumasala
sumatra
sumatrano
sumatranum
sumba
sumbanes
sumbawa
sumbawano
sumerio
sumilao
sumisip
summary
summer
summit
sumo
sumrek
sumrekan
sumsumrek
sumuppiat
sumurok
sumurot
sumursurot
sun
sunagawa
sunda
sundanes
sunday
sunderland
sung
sungai
sungay
sungbat
sunggo
sungrod
sunidos
sunni
sunrise
sunset
sunshine
sunstar
suny
supe
super
superba
superintendente
superior
supernova
supertree
supi
supismo
suplemento
suporta
suppiat
suppiatan
suppiaten
suppl
supplement
support
suprema
supreme
supremo
sur
surabaya
surallah
surat
surface
surigao
surigaonon
surinam
suriname
suripet
suroten
surotenna
surrey
surrounding
sursurat
sursuro
survey
surveys
survival
sus
susan
susana
susanne
suskrision
suso
sussex
sustainability
sustainable
sustansia
sutton
suttsu
suva
suwawa
suwilai
suyo
suzanne
svalbard
svantesson
svatopluk
sven
svenska
svetlana
svo
sw
swadesh
swahili
swamp
swan
swank
swanson
swazi
swaziland
sweden
sweet
swenson
swift
swiss
sy
sydney
sylvatica
sylvestre
sylvia
symbols
symington
symphony
symposium
syn
syncarpia
synonym
synonymis
synonyms
synopsis
synoptic
synsepalum
syntax
syr
syria
syrmatium
sys
sysbio
syst
syste
system
systema
systematic
systematics
systematik
systematis
systems
sytsma
syzygium
szczecin
szymborska
søren
t
ta
taal
taaw
tab
taba
tabaco
tabag
tabako
tabango
tabas
tabasco
tabellenblatt
tabin
tabing
tabla
tablas
table
tables
taboc
tabogon
tabon
tabontabon
tabrizi
tabu
tabuan
tabuc
tabucan
tabugon
tabuk
tabunan
tabungaw
tabunok
tacloban
tacurong
tadena
tadian
tadjoura
tae
taengan
taft
tag
taga
tagabitla
tagabu
tagalog
tagapul
tagaytay
tagbac
tagbanwa
tagbilaran
tagbina
tagikua
tagikuada
tagikuana
tagilako
taglish
tago
tagoloan
tagore
tagtagainep
tagtagikua
tagudin
taguig
tagum
tagumpay
tahiti
tahitiano
tai
taiap
taiki
tailandes
tailandia
taipei
taisei
taisho
taivoan
taiwan
taiwanes
tajikistan
takder
taken
takenoshin
takes
takhtajan
takia
takikawa
taksa
takson
taksonomia
taksonomiko
taksonomo
takuu
tal
tala
talaba
talacogon
talaga
talahib
talakag
talalora
talaud
talavera
talayan
talbotii
talca
tale
talento
tales
talibon
talinaay
talinhaga
talinis
talipao
talisay
talisayan
talitay
talk
tallahassee
tallo
tallopulo
talo
talogtog
talomo
talon
taltalon
talugtug
talusan
talysh
tam
tama
tamambo
taman
tamatea
tamaulipas
tamayo
tambac
tambak
tambalacoque
tambis
tambo
tambon
tambor
tambora
tambulig
tame
tami
tamil
tamontaka
tampakan
tamparan
tampilisan
tampuan
tan
tana
tanah
tanaka
tanap
tanauan
tanawan
tanay
tanda
tandag
tandang
tandu
tanduay
tandubas
tandy
tanem
tang
tangalan
tanganyika
tangatang
tangcal
tange
tangkal
tangke
tangkig
tangub
tanimbar
tanjay
tanjong
tanjung
tanna
tantanap
tanudan
tanya
tanza
tanzania
tao
taoismo
taokas
tapa
tapaz
tape
tapi
tapia
tapno
tapok
tapul
tapulao
tara
tarabay
taraka
taraken
tarangan
tarangnan
taraon
tarapaca
tarascon
tarciso
tardieu
tarenna
tarikayo
taripa
taripnong
tarlac
tarnovo
taro
tarong
tarso
tasa
tashkent
task
tasman
tasmania
tat
tata
tatak
tatangna
tatao
tate
tatlong
taton
tatta
tattan
tattao
tattaona
tatto
tau
taub
taudan
taudanna
tauris
tause
tausug
taw
tawa
tawagan
tawen
tawenna
tawi
tawid
tawidan
tawtawen
tax
taxa
taxandria
taxon
taxonomic
taxonomy
tay
tayabas
tayasan
tayikistan
tayiko
taylor
tayo
taysan
taytay
tayug
tayum
tb
tbilisi
tboli
tc
tchaikovsky
tcm
td
te
tea
teacher
teaching
team
teanu
teatriko
teatro
tech
technical
technological
technology
tecson
tectonic
ted
tedted
tehit
tehran
tei
teijsm
teisher
teismo
teistiko
teiwa
tejada
tejero
tejeros
tekla
teklado
teknikal
teknolohia
teknolohiko
teksto
tektonika
tektoniko
tel
tela
telebision
telecom
telefol
telegraph
telekomunikasion
telepono
teleskopio
television
tell
telopea
telugu
teluk
tem
tema
temotu
temperado
temperatura
temperature
temperatures
temple
templo
tempo
temporal
temporario
temuan
temuco
ten
tenella
tenga
tengah
tenggara
tenggeres
tenglen
tengna
tengnga
tengngana
tengnged
teniente
tenis
tennessee
tennga
tenochtitla
tenochtitlan
tenor
tentatibo
tenth
tenuiflora
tenuifolia
tenuis
teo
teodora
teodoro
teodosio
teologo
teolohia
teolohiko
teor
teoretikal
teoretiko
teoria
teoriana
teorista
tepic
ter
terakota
terence
terengganu
teres
teresa
teresita
teretifolia
teritorial
teritorio
teritoriona
term
termal
terminal
terminalia
terminalis
termino
terminology
terminolohia
terminona
termodinamika
terms
ternate
ternifolia
terorismo
terra
terre
terrell
terrestrial
terrill
territorial
territories
territorio
territory
terry
terteritorio
tes
teshikaga
teshio
tesis
tesla
tessmannianthus
testamento
testo
tetraedra
tetragona
tetrandra
tetraphylla
tetraptera
tetrazygia
tetum
tetun
teun
teutoniko
texas
texcoco
text
textbook
texts
tg
th
tha
thai
thailand
thaleropia
thames
than
thanh
thani
thao
that
the
theater
theatre
their
theligonum
them
theme
then
theodor
theodore
theory
theplantlist
theraphan
theravada
there
theresa
theron
these
thesis
theta
they
thi
thie
thiloa
thimphu
thin
thing
things
thiollierea
third
thirty
this
tho
thom
thomas
thomasiana
thomps
thompson
thomson
thongkum
thonn
thorne
those
thou
thouars
thouarsii
thought
thoughts
thousand
thousands
threatened
three
through
thryptomene
thu
thule
thulin
thunb
thurgood
thwaites
ti
tian
tiang
tianjin
tiaong
tibag
tibassit
tibet
tibetan
tibetano
tibeto
tibiao
tibouchina
tiburcio
tiburon
tica
ticao
ticino
tidda
tidong
tidore
tie
tieghemella
tiempo
tiendaan
tienne
tierra
tif
tifal
tigaon
tigbao
tigbauan
tigbawan
tiger
tignay
tigre
tigris
tii
tijuana
tikopia
tikor
til
tilapia
tiliaceae
tim
timaysa
timbengan
timber
timbukel
time
timeanddate
timek
timeline
times
timmaray
timmipon
timmiponda
timmirad
timmulong
timo
timonius
timor
timothy
timpoong
timpuyog
timpuyogan
timur
timurid
tin
tina
tinaengan
tinaga
tinagan
tinago
tinagtagitao
tinallo
tinambac
tinapay
tinartaripato
tinataengan
tinaudan
tinaudanda
tinaudanna
tinawagan
tinawaganna
tinawen
tinawid
tinawtawagan
tinawtawaganda
tinawtawaganna
tinawtawagn
tinawtawgan
tinawtawid
tinctoria
tindale
tineg
tinengngel
tinengngelna
tinengtengngel
tinglayan
tingloy
tiniliw
tinio
tinoc
tinulongan
tinunton
tinuntonna
tinurayan
tinurayanna
tinurturayan
tio
tipiko
tipo
tipolohiko
tiponan
tique
tirad
tirador
tirano
tirio
tirreno
tirtiris
tiruray
tirveng
tisebbangan
titan
titay
titi
title
titles
tito
titulo
titulona
tiu
tiwi
tl
tlaxcala
tng
to
toba
tobago
tobiano
tobias
toboso
tocantins
tochigi
tocoyena
today
todd
toga
together
togo
tok
tokachi
tokar
tokarczuk
tokelau
tokelauano
tokoro
tokugawa
tokushima
tokyo
tolai
tolaki
toledo
tolentino
tolima
tolitoli
tolkien
tolosa
tolstoy
toluca
tom
toma
tomas
tomato
tombulu
tome
tomentosa
tomini
tomo
tomorrow
tompkins
tomu
tona
tondano
tondo
tone
tonelada
tong
tonga
tongan
tongano
tongiko
tongue
tongues
tongyong
toni
tonkin
tono
tony
too
toole
top
topeka
topic
topics
topiko
topobea
topography
topograpia
topograpiko
tor
torah
toraja
torneo
tornilio
toro
toronto
torr
torralba
torre
torres
torrevillas
torrey
torricelli
torrijos
torun
tosh
toshiro
tot
total
totalitariano
totals
tottori
touo
tour
tourism
tourist
towards
towers
town
towns
townsend
toy
toyama
toyoura
tpl
tr
tra
trabaho
trabahona
tracheophyta
tracy
trade
tradision
tradisional
tradison
tradisonal
tradition
traditional
trail
training
tran
trangkaso
trans
transaction
transactions
transaksion
transfer
transformation
transision
transisional
transit
transition
transkaukasia
transkontinental
transkripsion
translated
translation
translations
translator
transliterasion
transnistria
transpormasion
transportasion
transvaal
trapiko
tras
tratuen
travel
travels
traverse
tre
treatado
treatment
treaty
trece
tree
trees
tregear
trek
tren
trench
trends
trenton
tres
trevor
tri
tria
trial
triana
trianggulo
triangle
trias
tribal
tribe
tribes
tribu
tribunal
tribune
tributario
tributariona
tribute
tricalysia
tricolpate
trie
triflora
triflorum
trigo
trigonometria
trilion
trilohia
trimurti
trin
trinidad
trinity
trinsera
triolena
trip
tripadvisor
triplarina
triple
triraphis
tristania
tristaniopsis
triticeae
triticum
trnc
trnf
trnl
trono
trop
tropa
tropical
tropicos
tropics
tropikal
tropiko
trouble
troy
tru
trudgen
true
trukiko
truku
truman
trump
truncata
trust
trustees
truth
tryon
ts
tsa
tsai
tsart
tsat
tschern
tseka
tseko
tsi
tsina
tskhinvali
tsokolate
tsou
tsouiko
tsu
tsubetsu
tsuchida
tsugaru
tsukigata
tsunami
tt
tting
ttingen
ttir
tu
tuao
tuazon
tuba
tubajon
tubao
tubaran
tubay
tubbog
tuberculatus
tubig
tubigan
tubigon
tublay
tubo
tubod
tuboran
tubuan
tubulosa
tubungan
tuburan
tuca
tucker
tuddao
tudela
tudes
tudo
tugas
tugaw
tugaya
tugot
tuguegarao
tuka
tukak
tukki
tuktok
tula
tulag
tulagan
tulang
tulay
tulbek
tuleng
tulo
tulong
tultulang
tulunan
tum
tumaray
tumauini
tumawtawag
tumba
tumipon
tumtumpaw
tumulong
tumultulong
tuna
tunel
tunga
tungawan
tunggal
tungngal
tungtungan
tunisia
tunngal
tunton
tuntonen
tuon
tupas
tupi
turay
turayan
turayna
turbina
turbo
turchin
turcz
turi
turing
turismo
turista
turkey
turkia
turkish
turkmenistan
turko
turks
turner
turning
turod
turong
turrill
turtle
turturod
turu
turumsa
tus
tutoh
tutong
tutot
tutsi
tuttle
tuvalu
tuvaluano
tuvera
tuy
tuye
tuyo
tv
tw
twain
tweddell
twentieth
twenty
twi
twin
twitter
two
tx
tycho
tyler
type
types
typology
tyrannosaurus
tz
tʃi
u
ua
uab
uae
uare
ub
ubas
ubay
ubbing
ubbog
ube
ubet
ubian
ubibersidad
ubing
ubos
ubuntu
uc
ucayali
ucb
ucla
ud
udi
uefs
ug
ugali
uganda
uggot
uging
ugis
ugma
ugot
ugsa
uh
uielem
uk
ukarumpa
uki
ukis
ukiyo
ukom
ukoman
ukraine
ukrania
ukraniano
ul
ula
ulaanbaatar
ulan
ule
uleg
ulep
uli
ulit
uliteg
ulitegna
ulithiano
ulloa
ulo
ulrich
ulrika
ultimate
ultra
ultrabioleta
ultramapiko
ulu
ulvik
ulyanov
ulysses
um
uma
umabagatan
umabot
umad
umadayo
umado
umakar
umakikid
umal
umalis
umallo
umamianan
uman
umar
umatiddog
umay
umayad
umayyad
umbellata
umberto
umili
umingan
umiray
umiso
umisu
umno
umnong
umuna
umunada
un
una
unabridged
unana
unang
unas
unay
unayen
uncaria
uncinatum
und
under
understanding
undp
undulata
une
uneg
unegna
unep
unesco
unfccc
ung
ungar
ungel
ungkay
ungkayna
ungto
uni
unibersal
unibersidad
uniberso
unicode
unido
unidos
uniflora
unikonta
unilateral
unio
union
uniprot
unique
unisan
uniselular
unit
unitariano
unitario
unite
united
units
unity
univ
universal
universe
universidad
universidade
universita
universitas
universite
universities
university
unix
unknown
uno
unofficial
unpublished
unraveling
until
unusual
unwin
uong
up
update
updated
updates
upernavik
upi
uploads
upon
uppat
upper
uppsala
upuna
ur
ura
uraba
urakawa
ural
uram
uranio
urano
uranus
urat
urausu
uray
urayno
urb
urban
urbana
urbanisado
urbanisasion
urbanized
urbano
urbino
urbiztondo
urceolata
urdaneta
urdu
ure
uri
uribe
uripiv
url
urnong
urnongna
urnos
uromyrtus
urophyllum
ursa
uruguay
urville
urvilleana
uryu
us
usa
usage
usain
usambara
usar
usarda
usaren
usarenda
usarna
usd
usda
use
used
useful
user
uses
usfws
usgs
usher
using
usit
usku
uso
uson
uss
ussr
usu
ut
uta
utah
utang
utanobori
utara
utashinai
utc
utek
utilis
utilities
utrecht
uttar
uttarakhand
utupua
uu
uvaria
uvea
uveano
uy
uyokan
uyugan
uzbek
uzbekistan
v
va
vaginata
vahl
val
valais
valantia
valdez
valdivia
vale
valencia
valentin
valentina
valentine
valenzuela
valenzuelana
valerie
valeton
valladolid
valle
valledupar
vallehermoso
valley
valparai
value
values
van
vancouver
vand
vangunu
vanikoro
vanimo
vanua
vanuatu
var
vargas
variation
variations
varieties
variety
various
varna
vasari
vasco
vascular
vasey
vasily
vat
vateria
vatica
vatican
vaticana
vatke
vatovavy
vaucluse
vaughan
vaupe
vaupes
vaz
ve
vedic
vega
vegas
vegetabile
vegetabilis
vegetation
veitch
vel
vela
velar
velasco
velasquez
veliko
vell
vella
veloppement
velutina
venado
venecia
venezuela
venezuelensis
venosa
vent
ventosa
ventura
venulosa
venus
ver
vera
veracruz
verb
verbal
verbenaceae
verbs
verdc
verdcourt
verde
verdi
verhandelingen
verlag
vermont
verne
verner
vernon
veronica
verrucosa
verrucosus
versailles
versicolor
version
versions
verso
vertical
verticillata
veruela
very
vespucci
vestita
veterans
vi
via
viaf
vic
vice
vicente
vichada
victor
victoria
victorian
victoriano
victorias
victory
vida
vidal
vidalasia
vidalii
video
vie
vieillardii
viejo
vienna
vientiane
viet
vietic
vietiko
vietnam
vietnamese
view
vig
viga
vigan
vii
viii
viking
vila
villa
villaba
villaflor
village
villages
villahermosa
villalobos
villamor
villanueva
villar
villareal
villaria
villasis
villaverde
villavicencio
villaviciosa
ville
villosa
vilma
viloria
vincent
vincenzo
vinci
vink
vintage
vintar
vinzons
violacea
violence
virac
viray
virectaria
virgata
virgatum
virgen
virgilio
virgin
virginia
viridiflora
viridiplantae
viridis
virtual
virtue
virtusio
virus
vis
visaya
visayan
visayas
viscosa
vishnu
vision
visit
vista
vistula
vita
vitae
vitellariopsis
viti
vito
vitro
vitu
viv
viva
vivaldi
vivien
viz
vizcaya
vladimir
vn
vo
voa
vocabulary
vogel
voice
voices
voight
voigt
vol
volcanism
volcano
volcanoes
volcanology
volga
volkenkunde
volow
vols
volta
voltaire
volume
volumes
volution
volvariella
vom
von
voor
voorhoeve
vorontsova
vorpommern
vosges
vostok
vowel
vowels
voyage
voyager
vries
vriese
vs
vu
vuc
vure
vv
vysotsky
w
wa
waals
wachagga
wadan
wade
wadi
wagas
wagayway
wagner
wahgi
wahl
wahlgren
waig
waigeo
waiko
waima
waimaha
waiting
wak
wakas
wakayama
wake
wakkanai
wala
walang
walcott
waldseemu
wales
walio
walk
walker
walking
wall
wallace
waller
wallich
wallichii
wallis
wallisiano
walo
walopulo
walp
wals
walsh
walt
walter
walters
walton
wan
wandamen
wang
want
wanted
wantoat
wants
wao
war
waray
waraywaray
warb
ward
warembori
warfare
waris
warm
warnakan
warneckea
warner
waropen
warren
wars
warsaw
warszewiczia
warwarnakan
was
wasay
washington
wat
watanabe
watch
water
waterh
waterhouse
waterhousea
waters
watershed
watkins
watson
watt
watts
watut
watzenrode
waugh
waves
wawa
wawonii
wax
waxflower
way
waya
wayang
wayaway
wayawaya
wayback
wayne
ways
waywaya
wcsp
we
weather
weaver
web
webb
weber
webmaster
webpage
website
webster
wedd
wedding
week
weekly
weeno
wei
weidenfeld
weights
weill
weimar
weiss
weiyuanhui
welch
welcome
welfare
welga
well
wellington
wells
welsh
welw
wemale
wen
wendl
wendlandia
wendy
wenno
weno
wensite
went
wepa
were
werner
wernham
wesley
west
weste
western
westminster
weston
westport
westview
wet
wetar
wetland
wetlands
wettstein
wever
wg
wgs
whale
whang
what
whc
wheatbelt
wheeler
when
where
whether
which
whiffin
whig
while
whipple
whitaker
whitburn
white
whitehead
whitehouse
whitei
whitlock
whitney
whittier
who
whole
whoopi
whose
why
wi
wide
wien
wiener
wieringa
wiesbaden
wietze
wife
wigen
wiggins
wight
wikang
wiki
wikidata
wikimedia
wikipedia
wikiquote
wikisource
wikispecies
wikivoyage
wikstr
wikstro
wiktionary
wilbur
wild
wilde
wildfire
wildflower
wildflowers
wildlife
wildscreen
wiley
wilfredo
wilfrido
wilhelm
will
willard
willd
willem
william
williams
williamsii
williamson
willis
willmott
willow
wilson
wilsonii
wimbledon
win
wind
window
windows
winds
windsor
wine
wing
wings
winifred
winner
winning
wins
winslet
winston
winter
winteraceae
wisconsin
wise
wissenschaften
wistuba
wisława
wit
with
witherspoon
within
without
wittgenstein
witu
wka
wm
wmo
wo
wohnbevo
woleaiano
wolf
wolff
wolfgang
wolfram
wolio
woman
women
won
wonderful
wong
wood
woodard
woodland
woodrow
woodruff
woods
woodsiaceae
woodward
woody
worcester
word
wordlist
wordpress
words
work
working
works
workshop
workspace
world
worldatlas
worldbank
worldcat
worlds
worldwide
worms
wouk
would
wow
wp
wrangel
wright
wrightii
writer
writers
writing
writings
written
wto
wu
wulff
wurdack
wurdackii
wurm
wutung
wuvulu
ww
www
wyatt
wyk
wylie
wyman
wyoming
x
xa
xanthomyrtus
xanthophytum
xanthostemon
xantolis
xavier
xerochlamys
xhosa
xi
xia
xian
xianfan
xiang
xiao
xico
xii
xiii
xinbei
xingjian
xinh
xinhua
xinjiang
xiongnu
xiv
xix
xls
xlsx
xlviii
xml
xslx
xu
xua
xv
xvi
xvii
xviii
xx
xxi
xxiii
xyloolaena
y
ya
yaalsa
yafi
yah
yahoo
yakal
yakan
yako
yakumo
yale
yalgoo
yali
yam
yamagata
yamaguchi
yamakoshi
yamanashi
yambo
yamdena
yami
yan
yang
yangtze
yangum
yangzi
yantangay
yaon
yap
yapen
yapes
yareban
yarumal
yat
yates
yau
yaung
yawa
ye
year
yearbook
years
yele
yellow
yelo
yemen
yen
yerba
yerevan
yes
yesterday
yet
yevgeny
yi
yiddish
yidis
yierba
yii
yimas
yin
ying
ympev
ynszxc
yo
yoga
yogad
yogyakarta
yoichi
yoke
yokohama
yolombo
yong
yongxian
york
yorker
yoruba
yos
yoshida
you
young
your
youth
youtube
yu
yua
yuan
yuanzhu
yuat
yucata
yue
yugoslavia
yukon
yul
yum
yun
yunbing
yuni
yunit
yunnan
yunnanensis
yuri
yuson
yves
yy
z
za
zabana
zacarias
zacatecas
zachary
zagreb
zai
zaide
zaire
zambales
zambia
zamboanga
zamboanguita
zamora
zanne
zanuck
zanzibar
zapatero
zapote
zappi
zaragoza
zarraga
zaytsev
zazaki
ze
zealand
zedong
zeeman
zef
zeitoun
zeitschrift
zeitung
zellweger
zemlya
zen
zenkeria
zensho
zetkin
zeyheri
zeylanica
zh
zhang
zhao
zhe
zhejiang
zheng
zhengzhou
zho
zhou
zhu
zhuang
zi
zia
zich
zimbabwe
zimmer
zimmermann
zion
zip
zizka
zo
zobel
zoetmulder
zona
zone
zones
zoo
zool
zoological
zoology
zora
zorc
zosimo
zquez
zu
zucc
zuerich
zug
zuloaga
zulu
zum
zumarraga
zur
zurich
{
|
}
~
£
§
©
«
­
°
±
²
³
´
·
¹
º
»
½
¾
¿
×
æ
ð
ðe
ø
þ
đ
đa
đe
đi
đie
đo
đu
ı
łobez
ŋ
ɐ
ɑ
ɒ
ɔ
ɕ
ə
ɛ
ɡ
ɣ
ɤ
ɨ
ɪ
ɪj
ɪtɕ
ɬ
ɯ
ɾ
ʀ
ʁ
ʃ
ʊ
ʌ
ʒ
ʒɑ
ʔ
ʰ
ʱ
ʲ
ʷ
ʻ
ʼ
ʾ
ʿ
ˀ
ˈ
ˌ
ː
ːˈ
ˑ
˚
ˠ
ˤ
˥
˦
˧
˨
˩
̀
́
̂
̃
̄
̆
̇
̈
̉
̊
̋
̌
̍
̓
̔
̛
̝
̞
̣
̤
̥
̦
̧
̨
̩
̪
̮
̯
̰
̱
̺
͂
ͅ
͡
α
ας
β
γ
ε
ευ
η
θ
ι
λ
μ
ν
ο
π
ρ
ς
της
φ
χ
ω
ϕ
ϯ
а
абхазия
б
беларуская
в
г
года
е
евич
з
и
к
л
м
мн
мо
море
н
на
населения
о
от
ре
республики
россии
с
ская
скои
станкевіч
т
у
украі
ф
федерации
ч
ю
ян
і
ә
ְ
ִ
ֵ
ֶ
ַ
ָ
ֹ
ּ
־
ׁ
א
ב
ה
י
ל
ם
מ
ר
ש
ת
؟
ا
الا
العربية
ب
بن
بهاس
ة
ت
ج
خ
د
دریای
ر
س
ش
ص
ط
ع
ق
ل
م
محمد
ملايو
ن
ه
و
ي
ً
َ
ُ
ِ
ّ
ْ
ٓ
ٔ
ٕ
ާ
ި
ެ
ं
क
ग
च
ज
त
द
ध
न
प
फ
ब
म
य
र
ल
व
स
ह
़
ा
ि
ी
ु
ू
ृ
े
ो
्
ঁ
ং
ক
খ
চ
ঢ
ত
দ
ন
প
ব
ভ
ম
য
র
ল
শ
ষ
স
হ
়
া
ি
ী
ু
ে
্
ਸ
ਾ
ੀ
ં
ધ
સ
ા
િ
ી
ુ
க
ச
ட
த
ந
ன
ப
ய
ர
ள
ா
ி
ீ
ு
ெ
ே
ை
்
త
స
ీ
ಗ
ರ
ಸ
ಹ
ಿ
ು
ೂ
ೆ
್
ೕ
ം
ക
ട
ാ
്
ං
ක
ද
න
ප
බ
ම
ය
ර
ල
ව
හ
්
ා
ැ
ි
ී
ු
ෙ
ก
ข
ง
จ
ด
ต
ท
น
ม
ย
ศ
ส
ห
อ
ั
า
ิ
ี
ึ
ื
ุ
ู
็
่
้
์
ຈ
ນ
ັ
ົ
໌
་
།
ག
ང
ད
ན
པ
བ
མ
ཡ
ལ
ས
ི
ུ
ེ
ོ
ྐ
ྒ
ྡ
ྲ
ྷ
က
ခ
င
စ
ည
တ
ဒ
န
ပ
ဘ
မ
ယ
ရ
သ
အ
ာ
ိ
ီ
ု
ေ
ံ
့
း
်
ျ
ြ
ွ
ှ
ᜀ
ᜀᜅ
ᜀᜆ
ᜃ
ᜃᜋ
ᜅ
ᜆ
ᜇ
ᜈ
ᜉ
ᜊ
ᜋ
ᜌ
ᜍ
ᜎ
ᜏ
ᜐ
ᜑ
ᜒ
ᜓ
᜔
᜵
ក
ខ
ជ
ទ
ន
ផ
ព
ភ
ម
រ
ល
ស
ា
ុ
ួ
ៀ
េ
ែ
ោ
ំ
ះ
្
ᨔ
ᨘ
᩠
ᮔ
ᮥ
᮪
ᵊ
​
‌
‎
‏
‐
‑
–
—
‖
‘
’
“
”
„
†
•
…
‪
‬
‰
′
″
⁄
⁡
ⁿ
₁
€
₱
№
→
↔
↷
−
∗
∫
≈
≤
≥
③
④
⑦
═
☉
⟨
⟩
⠝
ⲉ
ⲏ
ⲓ
ⲙ
ⲟ
ⲡ
ⲣ
ⲥ
ⲩ
ⲭ
ⴰ
ⴱ
ⵉ
ⵍ
ⵎ
ⵔ
ⵕ
ⵢ
⺀
⺄
⺆
⺈
⺊
⺌
⺕
⺝
⺸
⺼
⿰
⿱
⿲
⿳
⿴
⿵
⿶
⿷
⿸
⿹
⿺
⿻
、
。
《
》
「
」
〢
あ
い
う
え
お
か
き
く
け
こ
さ
し
す
せ
そ
た
ち
っ
つ
て
と
な
に
の
ひ
ふ
へ
ほ
ま
み
め
も
よ
ら
り
る
れ
ろ
わ
を
ん
゙
゚
ア
ィ
イ
ウ
ェ
エ
オ
カ
キ
ク
コ
サ
シ
ス
セ
ソ
タ
チ
ッ
ツ
テ
ト
ナ
ニ
ヌ
ネ
ノ
ハ
ヒ
フ
ヘ
ホ
マ
ム
メ
ャ
ュ
ユ
ョ
ラ
リ
ル
レ
ロ
ワ
ン
・
ー
㇁
㇂
㇄
㇇
㇈
㇉
㇓
㐁
㐄
㐅
㐌
㐫
㐬
㐭
㐮
㐱
㑒
㒵
㒸
㒼
㓁
㓞
㔾
㕛
㕣
㖾
㘝
㚅
㚇
㚔
㚘
㝉
㝡
㝴
㝵
㞋
㞢
㞷
㠩
㠭
㠯
㡀
㡭
㡿
㢲
㢴
㣇
㣺
㥯
㪅
㫄
㫐
㫒
㫺
㬅
㬎
㬥
㬰
㲋
㳄
㷠
㸒
㸚
㸦
㼌
㼲
㽞
㿟
䀠
䂞
䍃
䏍
䒑
䖍
䖒
䖝
䖵
䙴
䚻
䜌
䝿
䡛
䧹
䪞
一
丁
丂
七
丄
丅
丆
万
丈
三
上
下
丌
不
与
丏
丐
丑
专
且
丕
世
丘
丙
业
东
丞
丢
丣
两
严
並
丨
丩
个
丫
丬
中
丮
丰
丱
串
临
丵
丶
丷
丸
丹
为
主
丽
丿
乀
乂
乃
久
乆
乇
么
义
之
乌
乍
乎
乏
乐
乑
乔
乖
乗
乘
乙
乚
乛
乜
九
乞
也
习
乡
书
乳
乾
亀
亅
了
亇
予
争
事
二
亍
于
亏
亐
云
互
亓
五
井
亘
亚
亜
亞
亟
亠
亡
亢
交
亥
亦
产
亨
亩
享
京
亭
亮
亯
亰
亲
亳
亶
亷
人
亻
亼
亾
亿
仁
今
介
仌
从
仐
仑
仒
仓
仔
仕
他
仗
付
仝
代
令
以
任
企
伊
伏
伐
休
会
伝
伯
但
位
住
体
何
佘
余
作
佤
佥
佧
使
來
侈
例
侌
侖
侗
侯
侵
便
係
俊
保
俞
信
俫
修
倈
倉
倍
候
倠
値
備
傣
僉
僕
儿
兀
允
兂
元
兄
充
兆
兇
先
光
兊
克
兌
免
児
兑
兒
兓
兔
党
兜
兟
入
全
兩
兪
八
公
六
兮
兰
共
关
兴
兵
其
具
典
兹
养
兼
冀
冂
冃
冄
内
冈
冉
冊
冋
册
再
冎
冏
冐
冒
冓
冖
冗
冘
军
农
冝
冠
冡
冥
冫
冬
况
冷
凌
几
凡
凢
凤
凵
凶
凷
凸
凹
出
函
凾
刀
刁
刂
刃
刄
刅
分
切
刍
刑
划
刕
刖
列
刘
则
初
別
利
别
到
制
刺
則
削
剌
前
剡
割
剽
劉
力
办
功
加
务
劦
助
劫
劳
劵
勃
勇
勉
勐
勒
動
務
勝
勞
勢
勤
勹
勺
勻
勾
勿
匀
匂
包
匆
匈
匊
匋
匍
匕
化
北
匚
匝
匡
匪
匱
匸
匹
区
医
匽
匿
區
十
卂
千
卄
卅
卆
升
午
卉
半
卌
华
卑
卒
卓
单
卖
南
卜
卝
卞
占
卡
卢
卣
卤
卦
卩
卪
卫
卬
卯
印
危
即
却
卵
卷
卸
卻
厂
厃
厄
历
厈
厉
厌
厓
厘
厚
原
厤
厥
厨
厭
厲
厶
厷
厸
去
厼
厽
县
叀
参
參
叅
又
叉
及
友
双
反
叐
发
叒
叔
叕
取
受
叚
叜
叟
口
古
句
另
叩
只
召
可
台
叱
史
右
叵
叶
号
司
叹
吂
各
吅
合
吉
吊
吋
同
名
后
吏
向
吕
君
吝
吞
否
含
启
吳
吴
吹
吾
呂
呆
呈
告
员
呙
周
命
咅
和
咎
咠
咢
咨
咪
咸
咼
哀
品
哉
員
哥
哲
唐
商
啇
問
啚
啬
啻
善
喜
喬
單
喿
嗇
嗣
嘉
嘎
噩
嚴
囊
囗
囘
囙
囚
四
回
囟
因
囧
囬
困
囱
図
囷
固
国
圂
圅
國
圍
圏
圓
圖
土
圡
圣
圥
在
圭
地
圶
场
圼
均
坐
坒
坚
坡
坪
坴
垂
垔
垚
埀
埋
城
埔
埶
執
基
埼
堂
堅
堆
堇
堯
報
場
塞
塩
増
增
墨
壘
士
壬
壮
壯
声
壳
壴
壹
壺
壽
夂
处
夅
夆
备
夊
夋
夌
复
夏
夒
夕
外
夗
夘
多
夜
夢
大
夨
天
太
夫
夬
夭
央
失
夲
头
夷
夸
夹
夻
夾
奂
奄
奇
奈
奉
奎
奏
奐
契
奓
奔
奚
奞
奠
奢
奥
奭
女
奴
奻
好
如
妄
妙
妟
妥
妹
妻
妾
始
姑
委
姜
威
娄
婁
婴
媛
嬰
嬴
子
孑
孔
孕
孖
字
存
孚
孛
孝
孟
季
孤
学
孫
孱
學
宀
宁
宂
它
宅
宇
守
安
宋
完
宏
宓
宗
官
定
宛
宜
宝
实
客
宣
室
宮
宰
害
家
容
宾
宿
寄
寅
密
富
寒
察
寧
寨
審
寫
寬
寮
寸
对
寺
寻
寽
対
寿
封
尃
射
将
將
專
尉
尊
尋
尌
對
小
少
尒
尓
尔
尖
尗
尚
尞
尢
尣
尤
尧
尨
尭
就
尸
尹
尺
尻
尼
尽
尾
尿
局
居
屈
屋
屎
屏
屑
展
屖
屚
属
屠
屡
屬
屮
屯
屰
山
屵
屾
岁
岂
岐
岑
岛
岡
岩
岳
岸
峡
峯
島
崇
崎
崑
崔
崖
崙
崩
嵬
嶲
巂
巛
川
州
巟
巠
巢
巤
工
左
巧
巨
巩
巫
差
己
已
巳
巴
巷
巸
巽
巾
巿
帀
市
布
希
帕
帚
帛
帝
带
師
席
帯
帳
帶
常
幌
干
平
年
幵
并
幷
幸
幺
幻
幼
幽
幾
广
庁
広
庄
庆
床
库
底
店
庚
府
度
庫
庭
庶
康
庸
廃
廉
廌
廛
廣
廩
廳
廴
延
廷
建
廾
廿
开
弁
弃
弄
弇
弋
式
弓
弔
引
弗
弘
弜
弟
张
弥
弦
弱
張
強
强
彊
彌
彎
彐
彑
归
当
彔
录
彖
彗
彙
彝
彡
形
彥
彦
彧
彭
影
彳
役
彼
往
待
律
後
徒
得
徙
從
御
復
微
徳
徵
德
心
忄
必
忌
忍
志
忝
忠
忩
快
念
忽
忿
思
怠
急
怱
总
恆
恒
恩
恭
息
恵
悉
悟
患
悤
悲
悶
情
惠
惡
惢
愁
愈
意
愛
感
慈
態
慧
慮
憂
憲
應
懐
戀
戈
戉
戊
戋
戌
戍
戎
成
我
戒
戔
或
戚
戠
戢
截
戲
戶
户
戸
戹
戼
戾
房
所
扁
扇
手
扌
才
打
托
执
扬
承
折
报
拉
拜
拼
拿
持
指
按
挖
振
掌
探
控
推
提
摩
撒
支
攴
攵
收
攸
改
放
政
敄
敏
敕
敖
敗
教
敝
敞
敢
散
敦
敫
敬
数
敷
數
斂
文
斉
斊
斗
斜
斤
斥
斩
斬
斯
新
方
於
施
斿
旁
旅
旋
族
无
旡
既
旣
日
旦
旧
旨
早
旬
旭
旱
旲
时
旾
昆
昇
昌
昍
明
昏
易
昔
昗
昜
星
春
昬
是
昱
昴
昷
時
晃
晋
晏
普
景
晶
智
暑
暴
曇
曩
曰
曲
曳
更
曷
書
曹
曼
曾
替
最
朁
會
月
有
朋
服
朔
朕
朗
望
朝
期
木
朩
未
末
本
札
朮
术
朱
朵
朶
机
朿
杀
李
杏
村
杜
束
条
来
東
杲
杳
松
析
林
枚
果
枝
枲
枼
某
柔
查
柬
柰
柴
査
栃
树
栗
校
根
格
桀
桂
桃
案
桑
桼
梁
梅
條
梟
梨
梭
棉
棘
棚
棠
棥
森
植
楊
楚
業
楽
概
榄
榮
槎
様
樂
樊
標
横
樺
檜
欠
次
欣
欮
欲
欶
欽
款
歆
歇
歌
歛
止
正
此
步
武
歨
歪
歮
歯
歰
歲
歳
歴
歷
歸
歹
歺
死
殳
段
殷
殸
殹
殺
殻
殿
毋
毌
母
毎
每
毒
比
毕
毚
毛
毳
氏
氐
民
气
気
氣
水
氵
氶
氷
永
氺
氾
求
汇
汉
汗
汝
汞
江
沃
沈
沓
沖
沙
沝
沧
河
治
沼
泉
法
波
泣
泥
泰
洁
洋
洒
洛
洞
津
洪
洲
活
派
流
济
浜
浦
浪
浮
浴
海
涧
淡
淮
深
混
清
渚
渠
渡
渤
測
港
湖
湧
湯
湾
満
源
準
滋
满
滿
演
漢
漳
漸
潟
澤
濒
瀬
灣
火
灬
灭
灰
灵
灷
炅
炎
炏
炗
炙
炭
為
烈
烏
烝
焉
無
焦
焱
然
煞
熊
熏
熱
燕
營
燮
爪
爫
爭
爯
爰
爱
爲
爵
父
爺
爻
爽
爾
爿
片
版
牙
牚
牛
牜
牟
牢
牧
牪
特
牽
犀
犬
犭
犮
状
狂
狄
狊
狩
独
狺
猋
猒
猪
献
獻
玄
率
玉
王
玛
玟
玨
现
珍
珎
珠
班
現
球
理
琉
琴
瑟
瑩
瑪
瓜
瓦
甘
甚
生
産
用
甫
甬
田
由
甲
申
电
甶
男
甸
甹
町
画
甾
畀
界
畏
畐
留
畜
畟
畢
畧
畨
番
畫
異
畱
畴
當
畺
畾
疊
疋
疌
疑
疒
疾
癶
癸
癹
登
發
白
百
皀
皃
的
皆
皇
皋
皐
皕
皮
皷
皿
盃
盆
盇
盈
益
盍
盎
监
盒
盖
盛
盡
監
盤
盧
目
直
相
盾
省
眇
眉
看
県
眔
眞
真
眷
眼
眾
着
睘
睪
睿
瞏
瞢
瞿
矍
矛
矞
矢
矣
知
矦
矩
短
石
砂
研
破
础
硏
碎
磊
磐
磨
磯
示
礻
礼
社
神
祟
票
祭
禀
禁
福
禮
禸
禹
禺
离
禽
禾
禿
秀
秃
秉
秋
科
秝
秦
移
程
稟
種
稳
穀
穌
積
穴
究
穹
空
穿
突
窄
窒
立
竒
竜
竝
竟
章
童
竹
笑
笠
第
筆
等
筍
答
策
简
箕
算
管
箴
節
篠
篤
篭
簡
籍
米
粉
粛
粟
粤
粦
粲
粵
糞
糸
糹
系
紀
約
納
素
索
紫
累
細
紹
結
絜
絫
統
絲
綠
維
網
綿
総
緑
線
縄
縣
繁
繇
纂
纍
纟
红
纲
纳
线
练
组
经
结
编
缶
网
罒
罔
罕
罗
罙
罡
罢
罪
置
署
罷
羅
羊
羌
羍
美
羔
羕
羗
羞
羡
羣
群
義
羲
羸
羽
翁
翏
習
翕
翟
翠
翼
老
耂
考
者
耆
而
耎
耑
耒
耳
耴
耶
耷
聂
聊
聖
聚
聶
聿
肀
肃
肅
肉
肖
肙
肥
肩
肯
育
肴
胃
胆
背
胖
胡
胥
能
脊
脩
膚
臣
臤
臧
自
臬
臭
臯
臱
至
致
臺
臼
臽
臾
臿
舀
舂
舄
與
興
舉
舌
舍
舛
舜
舞
舟
航
般
艮
良
色
艸
艹
艾
芒
芔
芦
芬
芭
芮
花
芳
芺
芻
苔
苗
苟
若
苦
英
茂
茅
茨
茶
茸
荅
草
荒
荔
荣
荼
莆
莉
莎
莧
莫
莽
菆
菊
菐
華
菲
萊
萌
营
萧
萬
落
葉
著
葛
董
葵
蒐
蒙
蒦
蒼
蓋
蓬
蓺
蔑
蔡
蕃
蕉
蕭
薄
薛
薦
薰
藍
藏
藤
藥
藩
蘂
蘭
虍
虎
虐
虒
虔
處
虖
虗
虘
虚
虛
虜
虞
號
虫
虽
蚤
蚩
蜀
蜜
蝦
蟲
蠡
血
行
衍
術
街
衛
衣
衤
表
衮
衰
袁
袞
褭
褱
襄
襾
西
覀
要
覃
見
規
覓
覧
親
観
覽
见
规
角
解
言
訁
訇
計
訓
記
設
許
評
詞
詩
話
詹
誌
認
語
誩
課
調
論
諸
讀
讠
记
论
设
词
试
话
语
调
谷
豆
豈
豊
豐
豕
豖
豙
象
豦
豩
豪
豸
貇
貝
貞
貟
負
貢
貧
貪
貫
責
貳
貴
買
費
賀
賁
資
賈
賏
賓
賔
賛
賞
賢
賣
質
賴
賽
贊
贝
贡
责
贯
贲
贵
赓
赖
赞
赤
赦
走
赵
超
越
趙
足
路
蹇
身
躬
車
軍
軎
軟
輝
輦
车
辉
辛
辜
辞
辟
辥
辭
辰
辱
農
辵
辶
边
达
过
运
近
连
迦
迷
追
退
送
逆
逐
通
速
造
逢
連
逮
進
遀
遂
過
道
達
遠
遣
適
遷
選
遺
邊
邑
邕
那
邦
邪
邵
郎
郑
郡
部
郭
都
鄉
酉
酋
配
酓
釆
采
释
釋
里
重
野
量
金
釒
釧
錄
錢
録
鎮
钅
铁
锦
镇
長
镸
长
門
閃
閉
開
閏
閑
閒
間
閔
関
閵
閻
闌
關
门
问
间
闷
阑
阜
阝
阪
阿
际
陈
降
陛
院
陰
陳
陶
陸
陽
隆
隊
隋
際
隡
隨
隱
隶
隸
隹
隺
隻
隼
隽
难
雀
雁
雅
集
雈
雋
雍
雐
雔
雙
雚
雜
雝
離
難
雨
雩
雪
雲
零
雷
電
需
霍
霜
霝
霞
霸
靈
靑
青
静
非
靡
面
靣
革
韋
韓
韦
韭
韯
韱
音
頁
頃
項
須
頗
領
頡
頭
頻
頼
顛
類
页
项
颜
風
风
飛
飞
食
飠
飯
養
館
饣
首
香
馬
馮
駦
马
骨
體
高
髟
鬥
鬯
鬲
鬼
魂
魚
魯
鮮
鱼
鲁
鳥
鳳
鸟
鹵
鹿
麃
麗
麥
麦
麻
黃
黄
黍
黎
黑
黒
黨
黹
黽
黾
鼎
鼓
鼠
鼻
齊
齋
齐
齒
齿
龍
龙
龜
龟
龠
龰
龱
龴
龵
龶
龷
龸
龹
ꜜ
ꜣ
ꦃ
ꦔ
ꦗ
ꦠ
ꦮ
ꦲ
ꦶ
ꦺ
者
艹
﻿
！
（
）
，
／
：
？
ｎ
ｕ
｜
～
𐎢
𠀁
𠀃
𠀆
𠀉
𠀎
𠀐
𠁁
𠁣
𠂆
𠂇
𠂈
𠂉
𠂊
𠂋
𠂎
𠂒
𠂔
𠂛
𠂡
𠂢
𠂤
𠂬
𠂭
𠂹
𠃊
𠃋
𠃌
𠃍
𠃎
𠃑
𠃓
𠃔
𠃜
𠄌
𠄎
𠄠
𠄢
𠆢
𠆥
𠇍
𠈌
𠌵
𠓜
𠔉
𠔥
𠔼
𠔽
𠔿
𠕀
𠕁
𠕋
𠘧
𠘨
𠙻
𠙼
𠚏
𠚒
𠚤
𠚪
𠣏
𠤎
𠤕
𠥓
𠦄
𠦑
𠦝
𠧒
𠧗
𠧪
𠩺
𠪚
𠫓
𠫔
𠫤
𠬛
𠬝
𠬞
𠬢
𠬤
𠬶
𠮛
𠮦
𠮷
𠯑
𠱠
𠳮
𠷎
𡈼
𡉀
𡉵
𡌥
𡍮
𡏳
𡕒
𡕩
𡕰
𡖅
𡗗
𡗜
𡘆
𡘤
𡧱
𡨄
𡩧
𡬠
𡭽
𡰣
𡰥
𡰪
𡰯
𡰱
𡷈
𡸁
𡿨
𡿩
𡿪
𡿺
𢀖
𢀛
𢀩
𢁙
𢆉
𢆰
𢆶
𢇁
𢇇
𢉖
𢌬
𢌿
𢏚
𢑑
𢑚
𢖻
𢙣
𢛳
𢦏
𢦒
𢧵
𢼄
𢾕
𣁋
𣄼
𣅀
𣅽
𣍘
𣎳
𣎵
𣏋
𣏼
𣗥
𣥂
𣥖
𣦵
𣦼
𣧄
𣪊
𣪠
𣬉
𣳾
𣶒
𤇾
𤊽
𤐫
𤓰
𤔔
𤕨
𤣩
𤰇
𤰔
𤰞
𤴓
𤴔
𤽄
𥁑
𥁕
𥃦
𥃩
𥃭
𥇡
𥑟
𥘅
𥘈
𥝢
𥫗
𥱡
𦈢
𦉪
𦉬
𦉼
𦍌
𦍒
𦎧
𦐇
𦓔
𦔮
𦘒
𦙃
𦚏
𦣝
𦣞
𦣻
𦥑
𦥔
𦥯
𦨉
𦭝
𦰩
𧆞
𧈧
𧘇
𧰨
𧴪
𧴮
𧵩
𧾷
𨸏
𨾴
𩙿
𩠐
𩫏
𩵋
𪉷
𪜀
𪟽
𪠲
𪩲
𫇦
𫔭
𫜸
𫝀
𫠣
𫠩
𫢉
𫥞
𫩏
𫩠
𫪡
𫲽
𫶧
𬀷
𬐘
𬗌
𬙙
𬛸
𬜯
𬟩
𬯁
𬴘
𬺻
𬼉
𬼖
𭀰
𭁈
𭁨
𭅰
𭑈
𭕄
𭗼
𭤨
𭥫
𭻾
𮅕
𮊿
𮍌
𮍏
𮓗
𮥼
𮧮
廾
𰀁
𰀄
𰀈
𰀉
𰀕
𰀠
𰀡
𰀢
𰀪
𰁜
𰃮
𰆊
𰆘
𰋙
𰕎
𰢴
𰧭
𰯲
016--
02--
03--
04--
05--
06--
07--
08--
09--
100--
101--
108--
109--
1101--
1103--
112--
122--
216--
241--
265--
280--
284--
362--
692--
701--
79--
81--
84--
889--
92--
920--
955--
956--
957--
958--
960--
961--
962--
963--
965--
966--
967--
970--
971--
972--
974--
975--
976--
977--
978--
979--
980--
981--
982--
985--
986--
988--
989--
99--
992--
994--
995--
996--
997--
998--
a--
aa--
ab--
aba--
abd--
abo--
abori--
abu--
ac--
accele--
acumina--
acy--
ad--
add--
ade--
adi--
advan--
ae--
aequa--
af--
ag--
aga--
agan--
agar--
agay--
agdar--
agid--
agin--
agipa--
agpa--
agpu--
agra--
agrep--
agro--
agsag--
agsar--
agta--
agtu--
agtul--
agu--
ah--
ai--
air--
aj--
ak--
aka--
akin--
ako--
aku--
al--
ala--
albe--
alder--
ale--
alei--
alek--
ali--
all--
alta--
alter--
alti--
alu--
alza--
am--
ama--
amb--
ame--
amend--
amo--
ampl--
amri--
amyg--
an--
ana--
ances--
and--
ang--
ani--
ann--
ano--
ant--
anthr--
anti--
anu--
ao--
ap--
apa--
apag--
apala--
apart--
apo--
app--
appea--
ar--
ara--
arc--
are--
arg--
ari--
ark--
aro--
arri--
art--
artic--
aru--
arund--
arya--
as--
asa--
asce--
ash--
asi--
asia--
aso--
asp--
assemb--
assi--
ast--
astro--
at--
ati--
atti--
au--
aure--
aus--
austro--
auto--
ave--
aw--
awa--
ax--
ay--
az--
b--
ba--
bac--
bad--
bag--
bagum--
bai--
bak--
bal--
bala--
bali--
bamb--
ban--
banto--
bao--
bar--
barb--
bas--
bat--
bau--
bay--
be--
beau--
bego--
behi--
bel--
ben--
ber--
beth--
bey--
bha--
bi--
bian--
bib--
bie--
bil--
bimm--
bin--
binah--
bing--
bio--
bis--
bit--
blu--
bo--
bol--
bon--
book--
bor--
bot--
bou--
boul--
bour--
bow--
boy--
br--
bra--
brachy--
brah--
bre--
brevi--
bro--
broc--
brom--
bru--
bryo--
bu--
bucan--
bud--
bug--
bukbuk--
bul--
bulb--
bumb--
bun--
bur--
burb--
bus--
but--
buty--
buy--
by--
byza--
c--
ca--
cab--
caba--
cabi--
cag--
cai--
cal--
calab--
calcula--
cali--
calo--
calu--
caly--
cam--
camac--
camp--
can--
cani--
cap--
car--
cas--
cat--
cata--
cato--
cav--
cc--
ce--
cele--
cepha--
ces--
ch--
cha--
chalc--
char--
charact--
chava--
che--
chi--
chin--
chitt--
cho--
chr--
chry--
ci--
cilia--
cine--
cir--
citeref--
ck--
cl--
clau--
cle--
clo--
cn--
co--
coch--
cock--
col--
colle--
colum--
com--
comm--
compo--
con--
confi--
confu--
contr--
corn--
correc--
corres--
cosm--
cott--
cow--
coy--
cr--
cran--
cras--
crassi--
creb--
cren--
cres--
cris--
croc--
cru--
cten--
cu--
cua--
cucurb--
cum--
cuspida--
cut--
cy--
cz--
d--
da--
dae--
dag--
dagiti--
daiji--
dal--
dam--
dama--
dan--
dang--
dar--
das--
dau--
de--
dec--
decor--
defi--
del--
dela--
deleg--
delim--
dem--
demet--
democ--
den--
denom--
depen--
depo--
der--
des--
desentra--
det--
deter--
dev--
dho--
di--
dia--
die--
diff--
din--
dina--
dinay--
dipl--
dis--
dist--
diver--
divi--
dm--
dni--
do--
doc--
documen--
doli--
dom--
don--
doron--
dr--
dry--
du--
dua--
dum--
dumt--
dun--
dy--
dzong--
e--
ea--
eb--
ec--
echi--
eco--
ed--
edic--
ee--
eff--
eg--
ehr--
ei--
ek--
eko--
eksistenti--
el--
ela--
elec--
elek--
eli--
em--
emer--
emig--
en--
end--
eng--
engel--
enter--
entomo--
ep--
epi--
er--
eri--
eryth--
es--
eskan--
espe--
espi--
est--
et--
ethno--
etno--
eu--
euco--
euro--
eva--
ex--
excav--
excl--
extre--
ey--
ez--
f--
fa--
fabr--
fair--
fak--
falc--
far--
fe--
feb--
feder--
feed--
ferr--
feu--
fi--
fig--
fili--
fire--
fl--
fla--
flavi--
flexu--
flo--
fo--
foo--
foot--
for--
forec--
form--
fr--
fra--
fre--
frei--
fri--
frid--
fu--
g--
ga--
gal--
gala--
gan--
gang--
gar--
garg--
gas--
gay--
ge--
gen--
geo--
ger--
gha--
gi--
gid--
gig--
gil--
gin--
gina--
gio--
gl--
glabrifo--
glandu--
glau--
glazio--
global--
gluk--
go--
god--
gold--
good--
got--
gr--
grac--
gracili--
gre--
green--
gri--
groen--
gru--
gu--
gua--
guaya--
gue--
gui--
guil--
guina--
gum--
gun--
gunne--
guy--
gw--
gwy--
h--
ha--
had--
hag--
hal--
ham--
han--
happ--
har--
has--
hat--
hay--
he--
head--
heil--
hel--
hell--
hen--
heo--
her--
herak--
heu--
hew--
hexa--
hey--
hi--
hidro--
hier--
high--
hil--
him--
hipo--
hirt--
his--
ho--
hoeh--
hol--
hold--
holl--
holo--
homin--
homo--
hong--
hr--
hu--
hua--
huff--
hun--
hus--
hy--
hydr--
hypo--
i--
ia--
ib--
iba--
ibalb--
ic--
id--
ida--
idi--
if--
ig--
ii--
ik--
ika--
il--
ili--
illus--
im--
ima--
imma--
impat--
in--
ina--
inaw--
inc--
indivi--
indo--
infl--
infra--
ing--
inh--
ini--
inkedked--
inn--
ino--
inpa--
inpag--
inpat--
int--
integ--
inter--
into--
inu--
inve--
inya--
inyet--
io--
ion--
ir--
ire--
is--
isa--
iso--
isu--
it--
ita--
iti--
iv--
iya--
iz--
j--
ja--
jam--
jan--
jaya--
je--
jen--
ji--
jin--
jo--
ju--
judi--
jun--
juris--
k--
ka--
kabak--
kabkaba--
kada--
kadagiti--
kai--
kak--
kaka--
kal--
kala--
kalang--
kali--
kam--
kami--
kan--
kank--
kapa--
kapi--
kar--
kari--
karni--
karug--
kas--
kasig--
kata--
kati--
kay--
ke--
ken--
ker--
ket--
key--
kha--
khi--
kho--
ki--
kil--
kilo--
kim--
kin--
kina--
kir--
kiss--
kit--
kk--
kne--
ko--
kol--
kolum--
komer--
komm--
komp--
komputa--
kon--
kor--
kra--
krasn--
kre--
kreta--
kri--
krono--
kry--
ks--
ku--
kua--
kuhl--
kun--
kunn--
kur--
kuz--
kw--
l--
la--
lab--
lact--
lag--
lai--
lal--
lam--
lama--
lan--
lang--
lap--
las--
lasio--
lat--
le--
lei--
leksiko--
lem--
len--
leo--
leon--
lept--
leptos--
les--
let--
leuc--
lexico--
ley--
li--
lia--
lie--
life--
ligu--
lim--
lin--
ling--
lis--
lit--
ll--
lo--
loa--
loc--
long--
lopho--
lou--
lu--
lub--
luc--
lud--
luks--
lun--
ly--
m--
ma--
maa--
maar--
mac--
macfar--
mad--
mag--
mah--
maha--
mai--
maimb--
main--
maipa--
maipat--
mais--
maiya--
maka--
maki--
makisinna--
makit--
makro--
mal--
mala--
mali--
mam--
mama--
mamb--
mamm--
mamp--
man--
mana--
manag--
mang--
mangi--
mangipa--
mangisa--
mangpa--
mani--
mann--
manu--
map--
mapa--
mapat--
mapro--
mar--
mara--
mari--
mas--
maske--
masku--
mass--
mat--
mata--
mathe--
mau--
may--
mayum--
mb--
mcc--
mcg--
mci--
mck--
mcm--
mcn--
me--
measure--
med--
mega--
megi--
mehr--
mel--
men--
mer--
mes--
met--
meta--
mete--
mi--
micr--
mid--
mig--
mikro--
mil--
min--
mir--
mis--
mit--
mm--
mn--
mo--
mobil--
mod--
moi--
mok--
mol--
molo--
mon--
mono--
mont--
monte--
mor--
mora--
mori--
mos--
moy--
mp--
mu--
muh--
mul--
multi--
mun--
mus--
mussa--
muti--
my--
myrt--
n--
na--
naaw--
nabak--
nabi--
nad--
naen--
naest--
nag--
naga--
nagbal--
nagipa--
nagiwa--
nagpa--
nagpadp--
nagsal--
nagsi--
nagtu--
nai--
nain--
naipa--
naipag--
naipat--
naipl--
nairang--
naisan--
naisi--
nait--
naka--
nakai--
naki--
nakit--
naku--
nal--
nala--
nam--
nama--
nan--
nana--
nang--
nangi--
nangipa--
nangisa--
napa--
napal--
napar--
nari--
narigr--
nasa--
nasi--
nasus--
nat--
nau--
naw--
nay--
nc--
nd--
ne--
nea--
nen--
neo--
neph--
ner--
net--
new--
news--
ng--
nga--
ni--
nico--
ning--
nn--
no--
nob--
nom--
nor--
nos--
not--
nst--
nt--
nu--
nuk--
nur--
ny--
nya--
nz--
o--
ob--
obli--
obser--
oc--
occas--
occi--
och--
od--
of--
og--
oh--
oi--
ok--
ol--
old--
ole--
olig--
oly--
om--
on--
one--
ono--
op--
opport--
or--
ora--
orbicu--
ord--
oreop--
org--
oro--
ory--
os--
ot--
oto--
ou--
out--
p--
pa--
pab--
pac--
pachy--
paed--
pag--
pagi--
pagka--
pagtu--
pai--
pak--
pakaa--
pakai--
pakas--
pakasa--
pal--
palak--
pamb--
pamil--
pamm--
pan--
pana--
panag--
panagpa--
panaka--
panaki--
panakisinna--
panang--
pananga--
panangi--
panangipa--
pang--
pangi--
pann--
panna--
pannaka--
pannaki--
pannka--
pannkai--
papi--
papu--
par--
para--
parvifo--
pas--
pat--
pata--
pati--
pau--
pav--
pavet--
pay--
pe--
peder--
pedi--
pedr--
pedunc--
peduncula--
pel--
pelo--
pemb--
pen--
pene--
pep--
per--
perga--
pet--
pey--
ph--
pha--
phrag--
phu--
phy--
phyll--
phyto--
pi--
pia--
pic--
pie--
pig--
pil--
pimm--
pin--
pinaa--
pinag--
pinama--
pito--
pl--
plei--
pluri--
ply--
po--
pol--
poli--
poly--
pomp--
pop--
por--
posi--
posses--
pr--
pra--
pre--
pri--
price--
princ--
pro--
promo--
propo--
pru--
prud--
ps--
pseu--
pseudo--
psiloxy--
pt--
pu--
pub--
pug--
pul--
pulc--
punda--
punp--
pur--
pure--
py--
q--
qa--
qi--
qu--
qua--
quadr--
que--
qui--
r--
ra--
ragon--
rai--
rain--
raj--
ral--
ram--
ran--
raro--
ras--
rat--
rau--
raw--
ray--
raza--
re--
rea--
reak--
rec--
recommen--
recon--
red--
redis--
reg--
reh--
rehabil--
rek--
rele--
reli--
ren--
rep--
reper--
represen--
res--
resis--
respi--
reticu--
rev--
rho--
rhyncho--
ri--
rie--
rig--
rinam--
rinug--
rio--
rivu--
riz--
ro--
rob--
rod--
rog--
rom--
ron--
roth--
rotund--
row--
rr--
rs--
rt--
ru--
rufo--
rum--
rus--
ry--
s--
sa--
sacc--
sag--
sagu--
sal--
saly--
sam--
san--
sand--
sang--
sangka--
sap--
sar--
sau--
say--
sc--
scab--
sch--
scha--
sche--
schi--
schim--
schizo--
schlech--
scho--
scyphi--
se--
sea--
sebb--
sec--
sedi--
see--
seg--
sek--
sel--
sele--
sell--
semi--
sen--
seng--
ser--
set--
sh--
sha--
she--
sherb--
shi--
sho--
shu--
si--
sic--
sidd--
side--
sie--
siko--
sil--
sili--
simb--
simm--
simp--
sin--
sina--
sinuk--
sinur--
sir--
sk--
sl--
sla--
slo--
sloven--
sm--
smy--
sn--
so--
sok--
sol--
som--
sorb--
sosio--
sp--
spa--
spec--
spel--
sq--
squ--
sr--
sri--
ss--
st--
sta--
star--
sten--
stenoch--
step--
stercu--
sti--
sto--
streng--
strep--
stri--
stric--
su--
sua--
sub--
suba--
subsi--
suc--
sud--
sugg--
sui--
suk--
suki--
sul--
sun--
super--
sur--
sus--
sw--
sy--
syl--
symb--
syn--
t--
ta--
tab--
tag--
tai--
tak--
taki--
tal--
tala--
tam--
tampo--
tan--
tang--
tao--
tar--
tart--
tau--
taw--
tay--
td--
te--
tea--
tei--
tel--
teles--
tem--
ten--
teng--
teph--
ter--
term--
tes--
tetra--
th--
tha--
the--
thelypt--
thi--
thu--
ti--
tig--
til--
tim--
tin--
tina--
tinaw--
tio--
to--
tok--
tom--
ton--
tont--
too--
topogra--
tor--
toy--
toyok--
tr--
tra--
trans--
tre--
treas--
tri--
tricho--
tro--
tru--
ts--
tsu--
tt--
tu--
tubercu--
tug--
tul--
tum--
tung--
tuy--
tv--
tw--
ty--
u--
ua--
ub--
ug--
uh--
uk--
ul--
um--
uma--
un--
unci--
und--
under--
ung--
uni--
up--
[...]
