!
"
#
##0
##1
##10
##11
##12
##13
##14
##15
##16
##17
##18
##19
##2
##20
##21
##22
##23
##24
##25
##26
##27
##28
##29
##3
##30
##31
##32
##33
##34
##35
##36
##37
##38
##39
##4
##40
##41
##42
##43
##44
##45
##46
##47
##48
##49
##5
##50
##51
##52
##53
##54
##55
##56
##57
##58
##59
##6
##60
##61
##62
##63
##64
##65
##66
##67
##68
##69
##7
##70
##71
##72
##73
##74
##75
##76
##77
##78
##79
##8
##80
##81
##82
##83
##84
##85
##86
##87
##88
##89
##9
##90
##91
##92
##93
##94
##95
##96
##97
##98
##99
$
%
&
'
(
)
*
+
,
-
.
/
0
00
000
0000
0000532
001
001203
0018
0018246
003
006
01
012
016
02
024
0242
027
0275988767
03
037
04
05
06
060
07
08
081
085
0874
089
09
092105
1
10
100
1000
101
1017
102
1021
103
104
1048
105
1057
106
107
108
1086
109
11
110
1100
1101
111
1111
11111111
112
1120
1125
1126
113
113000
1139
114
115
1150
116
117
1173
118
119
119517867398895020
119676
12
120
1200
121
122
1227
123
124
125
125540
126
127
1279
128
129
13
130
1300
13000
131
132
1326
133
133395
134
1340
135
1353
136
1360
1368
138
1389
139
1392147
14
140
1400
1405
1409
1415
1419
142
144
1443
1444
1445
1446
145
1455
1456
1460
1462
1468
1469
1473
1478
148
1480
1482
1483
1485
1486
1488
149
1490
1492
1494
1496
1497
1498
1499
15
150
1500
1501
1502
1503
1504
1505
1506
1507
1509
151
1510
1511
1512
1513
1514
1515
1516
152
1520
1521
1522
1525
1526
1527
1529
153
1530
1531
1532
1534
1538
154
1540
1541
1542
1543
1545
1546
1548
1549
155
1550
1552
1554
1557
1558
156
1560
1561
1563
1564
1565
1566
1567
157
1570
1571
1574
1575
158
1580
159
16
160
1600
1600000
1601
1602
1603
1604
1605
1606
1607
1608
1609
1610
1611
16116
1612
1613
1614
1615
1616
1617
1618
1619
162
1620
1621
1622
1623
1624
1625
1626
1627
1628
1629
163
1630
1631
1632
1633
1634
1635
1636
1637
1638
1639
164
1640
1641
1642
1643
1644
1645
1646
1647
1648
1649
165
1650
1651
1652
1653
1653901
1654
1655
1656
1657
1658
1659
166
1660
1661
1662
1663
1664
1665
1666
1667
1668
1669
167
1670
1671
1672
1673
1674
1675
1676
1677
1678
1679
168
1680
1681
1682
1683
1684
1685
1686
1687
1688
1689
169
1690
1691
1692
1693
1694
1695
1696
1697
1698
1699
169995
17
170
1700
1706
1707
171
1710
1714
1720
1723
1729
173
1730
1732
1739
174
1740
1746
1749
175
1750
1752
1755
1756
1757
1759
176
1760
1769
177
1770
1777
178
1781
1783
1784
1787
1789
1790
1791
1793
1794
1797
1799
18
180
1800
18000
180000
1801
1802
1804
1805
1807
1808
1809
1810
1811
1812
1813
1814
1815
1817
1818
1820
1821
1822
1824
1825
1827
1828
1829
183
1830
1831
1832
1833
1834
1835
1837
1838
1839
184
1840
1841
1842
1843
1844
1845
1846
1847
1848
1849
185
1850
1851
1853
1854
1855
1856
1857
1858
1859
186
1860
1861
1862
1863
1864
1865
1866
1867
1868
1869
187
1870
1871
1873
1874
1875
1876
1878
1879
188
1880
1881
1882
1883
1884
1885
1886
1887
1888
1889
1890
1891
1892
1893
1894
1895
1896
1897
1898
1899
19
190
1900
1901
1902
1903
1904
1905
1906
1907
1908
1909
191
1910
1911
1912
1913
1914
1915
1916
1917
1918
1919
192
1920
1921
1922
1922180
1923
1924
1925
1926
1927
1928
1929
1930
1931
1932
1933
1934
1935
1936
1937
1938
1939
194
1940
1941
1942
1943
1944
1945
1946
1947
1948
1949
195
1950
1951
1952
1953
1954
1955
1956
1957
1958
1958995
1959
196
1960
1960291
1961
1962
1963
1964
1965
1966
1967
1968
1969
1970
1971
1972
1973
1974
1975
1976
1977
1978
1979
1980
1981
1982
1983
1984
1985
1986
1987
1988
1989
199
1990
1991
1992
1993
1994
1995
1996
1996673
1997
1998
1999
2
20
200
2000
2001
2002
2003
2004
20041006
2005
2006
20061002020356
20061003193224
2007
20070603044406
2008
20081029202605
2009
201
2010
2011
2012
20120918035650
20121225010332
2013
20130130144843
20130205210635
20130711072650
20130712213231
20130715161732
20130717065856
20130729214551
20130731113826
20130821150440
2014
2015
2016
20160302
20160304072534
20160304212516
20160304224318
20160305123636
20160307002452
2017
20170510180253
2018
20180224033250
20180225054229
2019
201906
202
2020
20200203161810
20200412151211
2021
20210509161754
2022
20220101012153
20220707174408
20220905131435
2025
2026
203
203000
204
2044340
205
2051015
206
207
2077701
208
21
210
210180
2108036
211
212
213
2135793
2136182
213750
214
216
217
218
22
220
2200
221
222
225
226
227
229
23
230
2303105
232
23241
233
234
2341614
235
237
238
239
24
240
2400
241
242
243
24333
245
246
247
248
25
250
2500
251
252
253
254
255
256
25750
25753
258
259
259221
26
260
2600
262
263
2638392
264
265
267
268
269
27
270
2700
271
273
274
275
276
276000
278
279
28
280
2800
281
282
284
285
285608883427
287
2876
288
289
29
290
291
292
294
295
296
297
298
299
3
30
300
3000
3000000
301
302
303
304
305
306
307
308
309
31
310
31052013
311
312
313
314
315
316
3166
317
318
32
320
3200
321
322
323
32379
324
326
327
329
33
330
333
335
336
338
339
34
340
341
343
344
345
346
348
3497
35
350
351
352
353
354
355
35756
358
36
360
3600
36100506
362
364
365
366838
367
37
370
371
375
376
378
38
380
381
384216
387
389
39
390
393
397
398
4
40
400
4000
40172
4039
404
405
407
408
409
41
414
415
416
419
42
420
422
423
424
425
426
43
430
433
4372
44
440
443
45
450
451
458
46
460
462
464
468
469
47
470
472
473
475
479
48
480
482
48200
485
486
488
49
490
492
495
5
50
500
5000
50000
502
508
51
512
516
52
520
521
524
528
53
530
533
537
538
539
54
540
549
55
550
551
552
56
566301
566838
568
57
570
574
575
57607
577
58
580
581
583
587
59
594
597
599
6
60
600
601
604
605
6074
609
61
610
612
62
620
625
6255
626
629
63
630
635
639
64
649
65
650
652
6556470
656
66
660
66072
665
668383669
67
67000
679
68
69
692
694
696
699
7
70
700
71
712
715
716
72
720
725
73
731
733
735
74
740
742
743
748
75
750
751
7546
76
761
762
766
768
77
771
7720
78
786
79
790
7908
8
80
800
8000
80002709
802
81
814
8166
82
8264
828
829
83
84
840
8438
846
85
850
85109
86
860
861
862
863
87
876
88
880
89
894
89422
9
90
900
902
904
908
91
91030
911
9143
91730
92
921
925
93
934078
936
94
940
94609
946297
95
96
960
962
963
9639
9649
9679
97
970
973
975
978
98
9800
9806
99
991
9965
998
99947
:
;
<
=
>
?
@
\
^
_
`
a
aa
ab
abad
abadan
abadanlıg
abag
abakan
abat
abay
abaydın
abba
abbas
abbaz
abbazov
abbey
abc
abdinazimov
abdulka
abdulla
abduqodir
abdurahim
abdussattar
abeba
abel
abelisaurid
abelisauridae
abelisaurus
abernethy
abeyasinghe
abir
about
aboutfifa
above
abraziya
abreu
abroylı
abroyı
absolyut
abstrakcionizm
abstrakt
abu
abuja
abum
abxaziya
abzac
abzacqa
abzal
abzallıg
abzallıqları
abıray
abırayg
abıraylı
abırayın
abıroylı
abıroyı
ac
academic
academy
acanthocarpa
access
accessdate
accession
acq
act
action
ad
ada
adal
adali
adam
adambo
adamda
adamdar
adamdardı
adamdi
adamdı
adamdın
adamg
adamgershilik
adamgershilikke
adami
adamlar
adamlarda
adamlardan
adamlardi
adamlardin
adamlardı
adamlardın
adamlarg
adamları
adamların
adamlarına
adamlarının
adamlıq
adamnan
adamnin
adamnın
adams
adamzat
adamzattın
adamı
adamın
adamına
adan
adana
adasıp
aday
addis
adebiyatlar
adebiyatı
adi
administraciya
administraciyası
administraciyasının
administrativ
administrativlik
administratori
administratorı
adobe
adolf
adonis
adres
adresi
adresler
adriatika
advanced
advokatlar
advokatlıq
adı
ae
aero
aerodrom
aerokosmikaliq
aeronavtika
aeroport
aeroporti
aeroporttın
aeroportı
af
afc
afg
afganistan
afina
afinada
afinanın
afonso
africa
african
afrig
afrika
afrikada
afrikadag
afrikalıqlar
afrikanı
afrikanın
afrikası
afrikasında
after
aftidan
afur
ag
again
agamemnon
agamemnonnın
agash
age
agency
agentligi
agentliginin
agentlik
agentlikleri
ages
agglyutinativlik
agitatsiyalıq
agnetha
agony
agrar
agree
aguiar
aguila
aguilar
ah
ahal
ahimiyetli
ahmad
ahmed
ahvaz
ai
aida
ain
airbus
aires
airoport
airoporti
airoportlar
airoportlari
airport
airways
aitjanov
aiwız
ajeptewir
ajiniyaz
ajirata
ajralıp
ajratiladi
ajratıladı
ajuda
ajuran
ajıraladı
ajıralmas
ajıralmaytug
ajıralıp
ajıratıladı
ajıratılg
ajıratılıp
ajıratıp
ajıratıw
ak
akademigi
akademik
akademikalıq
akademiyada
akademiyaliq
akademiyalıq
akademiyasi
akademiyası
akademiyasın
akademiyasında
akademiyasının
akaki
akciova
akent
akk
akkad
akkadcha
akkra
akkumulyator
akropol
aksaray
aksiyaların
aksiyalarının
akson
aksonlari
akt
aktiv
aktivler
aktivlerdin
aktivleri
aktivligi
aktli
aktrisa
aktrisalar
aktrisanın
aktrisası
aktsion
aktsioner
aktsionerlerdin
aktsionerlik
aktsiya
aktsiyalar
aktsiyalardı
aktsiyalardın
aktual
aktuallıq
aktyor
aktyorlar
aktyorlardın
aktyorlıq
aktyorı
aktyubinsk
akustikalıq
al
ala
alaba
alabalıq
alabama
alabına
alabında
alabının
aladi
aladı
alag
alain
alako
alam
alaman
alamiz
alan
alang
alanlar
alanın
alanıp
alanıw
alap
alapları
alaqanına
alar
alardın
alari
alarindag
alarsan
aları
aların
alarına
alarınan
alarında
alarındag
alarının
alasha
alasız
alatug
alatın
alautra
alaw
alawdı
alawı
alawın
alawınan
alawında
alawındag
alayhi
alayıq
alba
alban
albaniya
albanlar
albashir
albens
albergarianing
albert
alberto
albom
albomi
albomini
albomlar
albomları
albrecht
albukerke
album
albuquerque
albuquerqueni
albuquerquening
albus
aldag
aldap
aldi
aldimizg
aldin
aldina
alding
aldı
aldıg
aldıjuan
aldıkitob
aldılar
aldılarharvnb
aldılarp
aldın
aldına
aldınan
aldında
aldındag
aldından
aldıng
aldınnan
aldırıp
aldıveb
aleksandr
aleksandrovskiyge
alex
alexander
alexandre
alexiou
alfa
alfaviti
alfred
alfredo
alg
algan
algarvedailynews
algarves
algebra
algoritm
algoritmi
algoritmlar
ali
alice
alif
alifbesi
alighieri
alim
alimjan
alinadi
alindi
aling
alip
alis
alisher
alislap
aliw
aliwg
aliwi
aliwshi
aliya
aljir
all
alla
allag
allah
allahqa
allahta
allahtan
allahtın
allamuratova
allanazarov
allanazarovtın
allaniyaz
allanın
allap
allardın
allataala
allayar
allen
allies
allim
allimi
allimler
allimlerdin
allimlik
allpages
allyuvial
allıq
alma
almade
almadi
almadı
almag
almagach
almali
almaota
almaptı
almaqshı
almas
almasa
almasadı
almasinuvi
almaslap
almastan
almastırılıwın
almastırıw
almasıg
almasınıp
almasıp
almasıw
almasıwı
almasıwına
almati
almaty
almatı
almatıda
almaw
almay
almaydi
almaydı
almayman
almaymiz
almaytug
almaz
almazdın
almeri
almeyda
almeydadan
almeydaning
almurt
alniyazov
alo
alom
alonso
alor
alp
alpamıs
alpinizm
alpıs
alsa
alsan
alsaq
alsha
alshınbay
also
alt
altar
altay
altayda
alternativ
alti
altin
alto
altı
altın
altınay
altınaydın
altındı
altınko
altınnan
altınnın
altınshı
alumni
alva
alvares
alvaro
alves
alw
alyaska
alyga
alyuminiy
alı
alıg
alılardın
alım
alımdardın
alımlar
alımlardın
alımları
alımlarının
alımnın
alımp
alımı
alın
alına
alınadı
alınatug
alınbag
alınbaydı
alındı
alındıharvnb
alıng
alınıp
alınıwı
alınıwına
alıp
alıq
alıqlar
alıqlardı
alıqları
alıqtı
alıs
alısqa
alısta
alıstag
alıstan
alısı
alısının
alıu
alıw
alıwda
alıwdan
alıwdı
alıwdın
alıwg
alıwlar
alıwshı
alıwshılıq
alıwı
alıwın
alıwına
alıwında
am
ama
aman
amanbay
amangeldi
amaniyazov
amazon
ambar
ambardan
ambardın
ambarg
ambarlar
ambarının
ameliy
america
american
americas
amerika
amerikada
amerikadag
amerikadan
amerikag
amerikali
amerikaliq
amerikalı
amerikalıq
amerikanin
amerikanı
amerikanın
amerikası
amfiteatr
amin
aminokislota
aminokislotalar
amir
amiwda
amiwdarya
amman
amor
amore
ampiyonlar
amsterdam
amudarinskaya
amudarya
amudaryanın
amudaryo
amur
amxorlıq
amz
amı
amın
an
ana
anadan
anadı
anag
analitikalıq
analiz
analizlew
analog
analıq
analıqtın
anam
anan
ananı
ananın
anaqtag
anar
anasha
anasi
anası
anasına
anasınan
anasının
anatoliy
anatomik
anatomiya
anatomiyası
anatomlar
anaw
anchieta
ancient
ancite
and
anda
andag
andaliwsiya
andalus
andan
anday
anderson
andijan
andorra
andrade
andre
andrea
andres
andrew
andrey
android
andy
andı
andıg
andın
ane
anevrizmlari
ang
angel
angela
angeles
angelina
angels
angidrid
anglichan
anglishan
angliya
angliyada
angliyag
angliyalı
angliyalıq
angliyanin
angliyanı
angliyanın
anglo
anglya
anglyada
anglyadag
angola
angolada
angolade
angolanı
angugoog
angus
anharvnb
anhttp
anhttps
ani
animals
anin
aninan
aniq
aniqlang
aniw
aniy
anjeles
anjelina
anji
ankara
ankitob
anklavlarida
anklavlarni
anlar
anlardı
anlardın
anlarg
anları
anların
anlarında
anlarının
anlig
anlıg
anlıqdan
anlıqların
anlıqtan
anlıqı
anman
ann
anna
annan
annaqul
annaquldın
anne
anneksiya
announce
announces
annual
annın
ano
anorganikalıq
anri
ansambl
ansambli
ansambllar
ansfn
ansha
anshı
anstan
ant
antaliya
antalya
antananarivo
antananarivu
antarktida
antarktidası
antarktidasın
antarktidasında
antarktika
antarktikada
antarktikag
antarktikanın
antarktikasınan
antay
antenna
anthocarpa
antigua
antik
antil
anto
antonim
antonio
antropogen
antropologiya
antropologiyalıq
antverpende
anveb
anzhi
anı
anıg
anım
anın
anına
anınan
anında
anınday
anınsha
anıq
anıqladı
anıqlag
anıqlama
anıqlaması
anıqlanadı
anıqlanbag
anıqlandı
anıqlang
anıqlanıwshı
anıqlap
anıqlaw
anıqlawda
anıqlawshı
anıqlawı
anıqlawısh
anıqlaydı
anıqlıg
anıqlıq
anıqlıqtag
anısh
anıw
ao
ap
apa
apag
aparatın
aparg
aparıp
aparıw
aparıwdiharvnb
apat
apatshılıg
apatı
apelsin
aperta
apj
apollo
apollon
apostol
apostrof
appag
appaq
apparat
apparatlar
apparatlardı
apparatları
apparattın
apparatı
apparatının
appiah
apple
applications
approved
approx
aprel
aprelde
aprelge
aprelida
april
aps
aq
aqbas
aqda
aqi
aqilli
aqirg
aqiri
aqirin
aqirina
aqirinda
aqları
aqlarında
aqlay
aqlıg
aqlıq
aqlıqları
aqlıqların
aqlıqqa
aqlıqta
aqlıqtag
aqlıqtın
aqmaq
aqmola
aqqala
aqqan
aqsaqal
aqsh
aqsha
aqshadan
aqshag
aqshalar
aqshalay
aqsham
aqshamı
aqshanı
aqshanın
aqshaxang
aqshda
aqshdag
aqshga
aqshil
aqshning
aqshqa
aqshta
aqshtın
aqshıl
aqshılıq
aqsu
aqtan
aqtarıp
aqtaw
aqto
aqtuba
aquinas
aqıbet
aqıbetde
aqıbeti
aqıbetinde
aqıbetler
aqıbetleri
aqıbetlerin
aqıl
aqıldı
aqıldın
aqılg
aqılgo
aqıllı
aqılı
aqılımen
aqılıy
aqır
aqırap
aqıret
aqırg
aqırlarına
aqırlarında
aqırı
aqırın
aqırına
aqırınan
aqırında
aqırındag
aqıylıq
ar
ara
arab
arablar
arablardın
arabsha
arabstan
arabtar
arabtın
arabıstan
arabıstanı
arabıstanının
arada
aradan
aradi
aradı
arag
arago
aragon
aral
aralag
aralap
aralarında
aralas
aralasadı
aralasg
aralaspası
aralasqan
aralastı
aralastırg
aralastırıladı
aralastırılg
aralastırılıp
aralastırıp
aralasıp
aralasıwı
aralasıwınan
aralboyı
aralda
araldın
aralg
arali
aralig
araliginda
araliq
araliqta
arallı
aralıg
aralına
aralıq
aralıqlarg
aralıqqa
aralıqta
aralıqtan
aralıqtı
araq
araqlar
araqlı
araqqa
araqta
araqtan
araqtı
araqtın
arar
arasi
arasinda
arasindag
arası
arasına
arasınan
arasında
arasındag
arasından
aratug
arba
arbanın
arbasının
arbor
arc
arca
archil
archilgan
architecture
archive
archivedate
archives
archiveurl
ardaqlı
ardi
ardı
are
areas
arena
arezli
arezsiz
arg
argentina
argentinada
argentinanın
arguin
ari
ariari
arifmetika
ariladi
arilatug
arildi
arilg
ariliwi
arip
aripov
ariq
aristokrat
aristotel
aristoteldin
ariw
ariwg
ariwina
ariwshi
ariy
arizona
arktika
arma
armada
armadasining
armag
armalar
armalarda
armalardı
armalardın
armaları
armaların
armalarınan
armalarında
armalarının
armalı
arman
armanlar
armanı
armanın
arması
armasın
armasında
armasının
armatura
armaturasi
armaydı
armeniya
armiya
armiyada
armiyag
armiyasi
armiyasin
armiyası
armiyasına
armiyasının
armstrong
armyan
arn
arnalg
arnalıp
arnap
arnaw
arnawli
arnawlı
arnayı
arnold
arpa
arpanet
arqa
arqada
arqadag
arqadan
arqag
arqali
arqalı
arqalına
arqalında
arqasinda
arqası
arqasında
arqasındag
arqaw
arqılı
arrı
arrıbay
arrıbaydı
arrılar
arrılardın
arrılıq
arrının
arsenal
arsenyeva
arsha
arsinoe
art
artadı
arteriyası
arthur
arti
article
articles
articulo
artip
artiq
artist
artisti
artqı
arts
artta
arttı
arttıradı
arttırg
arttırılg
arttırıp
arttırıw
artı
artına
artınan
artında
artındag
artıp
artıq
artıqmash
artıqmashlı
artıqmashlıg
artıqsha
artıw
artıwshılıq
arxaika
arxeologik
arxeologiya
arxeologiyalıq
arxeologlar
arxey
arximed
arximedke
arximedtin
arxipelag
arxipelagi
arxipelagini
arxipelagının
arxitektor
arxitektorlar
arxitektorlıg
arxitektorlıq
arxitektorı
arxitektura
arxitekturalıq
arxitekturanı
arxitekturasi
arxitekturası
arxitekturasına
arxiv
arxivlang
arxivlendi
arxivsana
arxivurl
arza
arzalar
arzan
arzası
arzı
arzımas
arzımbet
arzıw
arı
arıla
arıladı
arılatug
arıldı
arılg
arılıp
arılıwı
arın
arıp
arıq
arıslan
arıslanbay
arıslanday
arısının
arıw
arıwda
arıwdan
arıwdiharvnb
arıwdı
arıwdın
arıwg
arıwlar
arıwshı
arıwshılar
arıwxan
arıwı
as
asa
asadı
asan
asap
asar
asatug
asbap
asda
asdı
asfalt
ash
asha
ashadı
ashamaylı
ashamaylılar
ashar
ashardın
ashgabat
ashgate
ashilg
ashiq
ashitqi
ashko
ashlar
ashlıq
ashlıqtan
ashqan
ashqannan
ashqı
ashrafiy
ashsazlıq
ashshı
ashtan
ashti
ashtı
ashtıharvnb
ashtın
ashurbanipal
ashxabad
ashxabadta
ashxobod
ashıeology
ashıg
ashıladı
ashıldı
ashılg
ashılıp
ashılıw
ashılıwlar
ashılıwları
ashılıwı
ashılıwın
ashılıwına
ashılıwınan
ashıp
ashıq
ashıqlar
ashıqlıg
ashıqlıq
ashıw
ashıwda
ashıwg
ashıwlı
ashıwı
asi
asia
asian
asinda
asir
asiradi
asirde
asirdegi
asirdin
asirdın
asirler
asirlerde
askari
askarlar
askarlari
askeriy
askerlerdin
askerleri
askerlerin
aslam
aslamı
asmara
aso
asosiy
asoslari
asp
aspa
aspadı
aspag
aspan
aspanda
aspandag
aspang
aspannan
aspannın
aspay
aspaydı
aspects
aspera
aspirantura
aspiranturada
aspiranturasında
aspx
asqan
asqar
asqazan
asr
asraw
asrga
asrgacha
assambleya
assambleyası
assambleyasında
asset
assetdetail
assets
assigns
association
assotsiatsiyasi
assotsiatsiyası
assr
assurologlar
astam
astana
astara
astarlı
aste
asteroidlar
asti
astinda
aston
astragalina
astraxan
astrazeneca
astronom
astronomiya
astronomiyada
astronomiyalıq
astronomlar
astı
astın
astına
astınan
astında
astındag
astıng
asunsion
ası
asıg
asın
asına
asınan
asında
asındag
asının
asıp
asıq
asıqtı
asıra
asıradı
asırandı
asıratug
asıraw
asırdı
asırg
asıriladı
asırıladı
asırıldı
asırılg
asırılmaqta
asırılıp
asırılıwı
asırıp
asırıw
asırıwda
asırıwdı
asırıwg
asırıwshı
asırıwı
asıwı
at
ata
atacama
atadag
atadan
atadi
atadı
atag
atajan
atajanov
ataksiya
atala
ataladi
ataladı
atalar
atalatug
ataldi
ataldı
atalg
atalgan
ataluvchi
atalıp
atalıq
atalıwshi
atalıwshı
atalıwı
atama
atamadag
atamalar
atamaları
atamaların
atamalarınan
atamalı
atamanın
atamasi
ataması
atamasın
atamasına
atamasınan
atamasında
atamasındag
atamasının
atan
atanaq
ataniyazova
atanın
atanıp
atap
ataq
ataqlardı
ataqları
ataqların
ataqli
ataqlı
ataqlısı
ataqqa
atasi
atası
atasın
atasına
atasının
atatu
ataw
atawda
atawdag
atawdan
atawdı
atawdın
atawg
atawi
atawinda
atawlar
atawlarda
atawlardan
atawlardı
atawlardın
atawlari
atawları
atawların
atawlarına
atawlarında
atawlarının
atawlıdan
atawı
atawıde
atawın
atawına
atawında
atawının
atawısh
atay
ataydı
ataydılar
ataymız
atdan
atdı
atdılar
aterosklerozi
atg
athletic
athletics
ati
atildi
atin
atina
atindag
atir
atirapinda
atirapindag
atirg
atlanadı
atlanta
atlantic
atlantika
atlantikalıq
atlar
atlardı
atlarg
atlari
atları
atların
atlarına
atlarının
atlas
atletika
atletiko
atli
atlı
atlıq
atmosfera
atmosferada
atmosferalıq
atmosferanın
atom
atomic
atomlar
atomlardi
atomlardın
atomnın
atomı
atos
atoy
atp
atqa
atqan
atqanda
atqansha
atqara
atqaradi
atqaradı
atqaratug
atqardı
atqarg
atqariwshi
atqarıladı
atqarılatug
atqarılıwı
atqarıp
atqarıw
atqarıwshı
atqarıwshılar
atqarıwshıları
atqarıwshılıg
atqarıwı
atqarıwındag
atqishlar
atrapinda
atrof
atrofida
atta
attack
attan
attar
atti
attı
attın
atug
atı
atıladı
atılg
atılıp
atım
atımdı
atımen
atın
atına
atınan
atındag
atının
atıp
atır
atıraw
atırg
atırıp
atıwshı
atız
au
audi
audio
audit
auditoriya
auditoriyag
auditoriyası
augasiler
august
aurobay
aus
australia
author
auto
autocar
autodesk
automaker
automobile
automobiles
automotive
autonews
autoreview
autos
auır
av
avangard
avar
ave
aveiro
avenir
avenue
avenyu
avenyudan
avenyuveb
avesto
avgust
avgusta
avgustda
avgustde
avgustin
avgustta
avgusttan
avgustında
avhub
aviaciya
aviakompaniyalarinin
aviator
aviatsiya
avis
avstraliya
avstraliyalıq
avstraliyanın
avstriya
avstriyalı
avstriyanın
avstroneziya
avto
avtobus
avtoka
avtomabiller
avtomagistral
avtomagistrali
avtomat
avtomatik
avtomatikalıq
avtomobil
avtomobildi
avtomobildin
avtomobilem
avtomobili
avtomobilin
avtomobiline
avtomobiller
avtomobillerdi
avtomobillerge
avtomobilleri
avtomobillerin
avtomobillerinde
avtomobillerinen
avtomobillerinin
avtomobilsazlıq
avtomobilsozlik
avtonom
avtoportret
avtoportreti
avtor
avtordın
avtori
avtorlar
avtorlardın
avtorları
avtorlarının
avtorlıg
avtorlıq
avtorı
avtosalonida
avtosport
avtostradalarg
avtovaz
avtovokzal
avvalgi
aw
awa
awards
awasha
awashalardı
awda
awdaradı
awdardı
awdarg
awdarma
awdarmalar
awdarmaları
awdarmalaw
awdarmashı
awdarması
awdarıladı
awdarılg
awdarılıp
awdarılıwına
awdarıp
awdarıw
awdarıwg
awdın
awg
awhal
awhalg
awhalı
awhalın
awhalına
awi
awil
awillari
awir
awiriwi
awlanadı
awlang
awlaq
awları
awlarının
awlaw
awmag
awqam
awqami
awqamindag
awqaminin
awqamları
awqamlas
awqamliq
awqamliqqa
awqamnın
awqamı
awqamın
awqamına
awqamında
awqamının
awqat
awqatlanadı
awqatlanıp
awqatlanıw
awqatlanıwdı
awqatlar
awqatliq
awqatqa
awqattan
awqattı
awriw
awrıw
awrıwdan
awshilar
awshı
awshılar
awshısı
awzi
awzın
awzınan
awzında
awı
awıl
awılda
awıldag
awıldan
awıldın
awıldıq
awılg
awıllar
awıllarda
awılları
awılların
awıllıq
awılı
awılın
awılına
awılında
awılındag
awılının
awında
awır
awırg
awırlıg
awırlıq
awırmanlıg
awırıw
awırıwg
awırıwı
awırıwınan
awıspalı
awıstırıw
awısıq
awız
awızbirshilik
awızbirshilikte
awızbirshilikti
awızdan
awızdın
awızeki
awızg
awızsha
awızshasına
awızında
axamaniyler
axbarat
axborot
axill
axios
axmad
axmata
axmed
axmet
axmetov
axun
axura
ay
ayag
ayamaytug
ayan
ayanıshlı
ayapbergen
ayaq
ayaqlar
ayaqlarda
ayaqları
ayaqların
ayaqlarına
ayaqlarının
ayaqlıda
ayaqshaları
ayaqta
ayaqtan
ayat
ayattar
ayawsız
ayaz
aybar
aybek
aybergenov
aybo
aybu
ayda
aydag
aydalıw
aydan
aydap
aydar
aydardı
aydarı
aydaw
aydawshı
aydawshılar
aydawshıları
ayday
aydos
aydostın
aydı
aydın
ayg
aygu
ayi
ayimbetov
ayin
ayina
ayinan
ayinda
ayinin
ayirim
ayjamal
ayjan
aylamw
aylana
aylanadi
aylanadı
aylanatug
aylanba
aylandi
aylandı
aylandıharvnb
aylandılar
aylandırdı
aylandırg
aylandırılg
aylandırıw
aylandırıwdı
aylang
aylanisina
aylanisqa
aylanisqaiye
aylantırdı
aylantırg
aylantırildi
aylantırıladı
aylantırılg
aylanıp
aylanıs
aylanısqa
aylanısı
aylanıw
aylanıwı
aylanıwın
aylar
aylarda
aylardı
aylarina
aylarinda
ayları
aylarına
aylarınan
aylarında
ayli
aylı
aylıq
aylıqlar
aymag
aymaq
aymaqg
aymaqlar
aymaqlarda
aymaqlardan
aymaqlardı
aymaqlardın
aymaqlarg
aymaqları
aymaqların
aymaqlarına
aymaqlarında
aymaqlarındag
aymaqliq
aymaqlıq
aymaqqa
aymaqta
aymaqtag
aymaqtan
aymaqtı
aymaqtın
aymog
aymoqdan
aymoqdir
aymoqlari
aymurzaev
ayna
aynaladı
aynalar
aynaldı
aynalg
aynalı
aynalıp
aynalısatug
aynasının
aynıwı
aypara
ayqulaq
ayqulash
ayqın
ayqınlanıwshı
ayqınlap
ayqınlawısh
ayqınlawıshlar
ayqınlıg
ayralıq
ayrat
ayratker
ayratkeri
ayratkerleri
ayratı
ayres
ayri
ayrilg
ayrim
ayriqsha
ayriqshalıg
ayrı
ayrılıp
ayrım
ayrımları
ayrıqsha
ayrıqshalıg
ayrıqshalıqlarg
aysha
ayshiliq
aysholpan
ayt
ayta
aytadı
aytaman
aytamız
aytar
aytarlıqtay
aytatug
aytayın
aytbay
aytgan
ayti
aytiladi
aytiliwi
aytip
aytiwinsha
aytjan
aytmatov
aytmurat
aytoldı
aytpag
aytqan
aytqanda
aytqanday
aytsa
aytsam
aytsan
aytsaq
ayttı
ayttırıp
aytug
aytıla
aytıladı
aytılatug
aytıldı
aytılg
aytılmaydı
aytılsa
aytılıp
aytılıw
aytılıwda
aytılıwı
aytılıwına
aytılıwınsha
aytım
aytımlar
aytıp
aytıs
aytıslar
aytısları
aytısqan
aytıstın
aytısı
aytısıw
aytıw
aytıwdı
aytıwg
aytıwlarına
aytıwshı
aytıwı
aytıwına
aytıwınsha
ayyemgi
ayı
ayımbetov
ayımbetova
ayımjamal
ayımxan
ayın
ayına
ayınan
ayında
ayınlıq
ayının
ayıp
ayıplı
ayırbaslaw
ayırmashılıg
ayırmashılıq
ayırılıp
ayırım
ayırımlang
ayırımları
ayırıp
ayırısıw
ayırıw
ayıw
az
aza
azag
azaladı
azalap
azamat
azamatlar
azamatları
azamatlıq
azan
azanda
azang
azap
azat
azatliq
azatlıq
azayadı
azaydı
azayg
azaytadı
azaytıw
azaytıwg
azayıp
azayıwı
azdan
azdın
azerbaydjan
azerbayjan
azg
azia
aziq
aziya
aziyada
aziyadag
aziyadan
aziyag
aziyamenen
aziyanin
aziyanı
aziyanın
azlar
azlardı
azlardın
azları
azların
azlarının
azlı
azmaz
azor
azot
azraq
azshiliq
azı
azıg
azının
azıq
azıqlanadı
azıqlanatug
azıqlıq
azıraq
aındag
b
ba
baa
baba
babaları
babalarımız
babaların
babalarının
babam
baban
babası
babel
babur
baburnama
baby
babylonian
babylonischen
babı
babına
babında
bach
back
backend
badamday
badatına
badaxshan
baden
badminton
badruddin
badxiz
bae
bafta
bag
bagama
baha
bahada
bahadag
bahadır
bahadırova
bahag
bahaladı
bahalanadı
bahalandi
bahalandı
bahalang
bahalanıp
bahalap
bahalar
bahalardın
bahalari
bahalarinin
bahaları
bahalaw
bahalawda
bahalawg
bahalaydı
bahalı
bahani
bahasa
bahasi
bahasin
bahası
bahasın
bahasının
bahodurshoh
bahram
bahsda
bahsli
bai
baja
bajıxana
bakalavr
bakalavriat
baker
bakka
bakteriya
bakteriyalar
baktriya
baku
bal
bala
balag
balalar
balalardı
balalardın
balalarg
balaları
balalarım
balaların
balalarının
balalıg
balalıq
balam
baland
balansi
balansina
balanı
balanın
balar
balasi
balası
balasın
balasına
balasının
baldag
balenciaga
balenciaganın
balet
baleti
balg
balig
baliq
baliqshiliq
balkan
balkar
balkariya
balkenende
ball
ballada
balpaq
balqan
baltabay
baltik
baltıq
baltır
baluba
balx
balzam
balı
balıq
balıqchiliklarining
balıqlar
balıqlarda
balıqlardın
balıqlari
balıqshı
balıqshılar
balıqshılıq
balıqtın
band
bandar
bandini
bandundu
bangkok
bangladesh
bangui
bank
banki
banking
bankinin
bankler
banklerdin
bankleri
banklik
banknot
bankoktan
bankrot
bankrotlik
bankruptcy
bankten
bankti
banktin
bantu
bantular
bap
bapta
baptan
baptista
baqa
baqalar
baqanın
baqi
baqlanadı
baqlap
baqlaw
baqlawı
baqlaydı
baqqan
baqshada
baqsı
baqsılar
baqsılardın
baqsılarının
baqsının
baqsıshılıq
baqsısı
baqtriya
baqılaws
baqırg
bar
bara
baraban
barabar
baradi
baradı
barakat
baraman
barar
barasan
baratirg
baratug
baratırg
baratırıp
barbados
barbara
barbarossa
barber
barbuda
barcelona
barcha
barclays
barda
bardi
bardı
bardıchesworth
bardıharvnb
barek
barelyef
barg
bari
bariju
barilatug
barip
baris
barisi
barito
barli
barlig
barliq
barlıg
barlıq
barma
barmadiharvnb
barmag
barmaqlı
barmaqta
barmaqtın
barmaytug
barneo
barokko
barpa
barqulla
barrel
barry
bars
barsa
barselona
barselonanın
bartolomeo
bartolomeu
barveb
barxatnaya
barı
barıladı
barıldı
barılg
barılıp
barın
barınsha
barıp
barıs
barısı
barısın
barısında
barıw
barıwda
barıwdiharvnb
barıwdı
barıwg
barıwshı
barıwı
bas
basadı
basatug
base
bashkir
bashkirlerde
bashkortostan
bashqurt
bashqurtıstan
basi
basilip
basin
basina
basinan
basinda
basip
bask
baskakov
basketbol
basladi
basladı
basladıharvnb
basladılar
basladıveb
baslag
baslaması
baslamaydi
baslanadi
baslanadı
baslanatug
baslandi
baslandı
baslang
baslanip
baslaniwi
baslaniwina
baslanıp
baslanıwiy
baslanıwı
baslanıwın
baslanıwına
baslanıwınan
baslanıwında
baslap
baslaptı
baslar
baslari
baslarinda
basları
baslarına
baslarınan
baslarında
baslaw
baslawg
baslawshı
baslawshılar
baslawshılarının
baslawshısı
baslawısh
baslaydi
baslaydı
basli
baslig
baslı
baslıg
baslıq
baslıqlıg
baslısı
baspa
baspada
baspadan
baspag
baspalar
baspana
baspanasız
baspaso
baspası
baspasında
baspasının
baspaxana
basqa
basqada
basqadan
basqag
basqalar
basqalarda
basqalardan
basqalardı
basqalardın
basqalarg
basqaları
basqalarınan
basqan
basqanı
basqanın
basqaradi
basqaradı
basqaratug
basqardi
basqardı
basqarg
basqargan
basqariladi
basqariw
basqariwshi
basqarmasi
basqarması
basqarmasının
basqarws
basqarıladı
basqarılatug
basqarıp
basqarıw
basqarıwda
basqarıwdı
basqarıwdın
basqarıwg
basqarıwshı
basqarıwshısı
basqarıwshıı
basqarıwı
basqarıwındag
basqasha
basqası
basqasının
basqishi
basqınshıları
basqınshılarınan
basqınshılıg
basqınshılıq
basqısh
basqıshda
basqıshları
basqıshlarında
basqıshlı
basqıshpa
basqıshqa
basqıshta
basqıshı
basqıshın
basqıshına
basqıshında
basra
basseyn
basseyndi
basseyni
basseynleri
basshilig
basshiliginda
basshiliq
basshisi
basshı
basshılar
basshıları
basshılarının
basshılıg
basshılıq
basshısı
basta
bastag
bastan
bastiliya
bastı
bastın
bastırıladı
bastırılg
bastırıp
bastırıw
bası
basıdanoq
basıladı
basıldı
basılg
basılımnın
basılımı
basılıp
basılıwı
basım
basımshalıq
basımı
basımın
basın
basına
basınan
basında
basındag
basının
basıp
basıw
batalin
bataysk
baths
bati
batis
batisda
batisdan
batisinda
batista
bator
battery
batıl
batıp
batır
batırdın
batırg
batırlar
batırları
batırlıg
batırlıq
batırıp
batıs
batısda
batısdan
batısqa
batısta
batıstag
batıstan
batısı
batısında
batısındag
bavariya
baw
bawır
bawırlas
bawırlawshılar
bawırsaq
baxadir
baxitbek
baxreyn
baxtiyar
baxtı
baxtın
baxıt
baxıtbek
baxıtlı
baxıtqa
baxıtsız
bay
bayan
bayanat
bayanatına
bayanatında
bayani
bayanlama
bayanlanadı
bayanlap
bayanlaw
bayanlawdan
bayanlawısh
bayanlawıshı
bayanlaydı
bayanı
bayazid
baydan
baydın
bayern
baylag
baylanadı
baylang
baylani
baylanis
baylanisli
baylanıs
baylanısadı
baylanıslar
baylanıslardan
baylanıslardı
baylanısları
baylanısların
baylanıslarının
baylanıslı
baylanıslılıg
baylanısqa
baylanısqan
baylanısta
baylanıstı
baylanıstıradı
baylanıstıratug
baylanıstırdı
baylanıstırg
baylanıstırıp
baylanıstırıw
baylanısı
baylanısın
baylanısınan
baylanısıp
baylap
baylar
baylardın
baylıg
baylıq
baylıqlardın
baylıqları
bayqag
bayqaladı
bayqara
bayqaymız
bayrag
bayram
bayramda
bayramladı
bayramlar
bayramlarda
bayramı
bayraq
bayraqdar
bayraqdori
bayraqlarının
bayraqtı
bayron
baysın
bayt
bayıp
bayıttı
bayıtıw
bayıwlı
baza
bazag
bazal
bazalt
bazalıq
bazar
bazarbay
bazarda
bazardin
bazardı
bazardın
bazarg
bazari
bazarinda
bazarlar
bazarlarda
bazarları
bazarlıq
bazarı
bazarın
bazarına
bazarında
bazarındag
bazarının
bazasi
bazası
bazasın
bazasına
bazasınan
bazasının
bazda
bazi
bazı
bazıbir
bazıda
bb
bbc
bc
bd
bden
bdimurat
bdiraman
bdiraxman
bdiraxmanov
be
beach
beas
beast
beatles
becky
become
bedil
bee
beethoven
before
begavan
bege
begim
begimov
begimovtın
beginnings
begis
begjan
begler
begshanov
behili
behind
beijing
bek
bekabad
bekbawlov
bekbergenov
bekimbetov
bekitilgen
bekkem
bekkemlengen
bekkemlenip
bekkemlep
bekkemlew
bekkemlewdegi
bekkemlewge
bekmuxammed
bekniyazova
bel
belarus
belarusiya
belbew
belbewi
beldar
beldeme
beldew
belek
belesedi
belesiwdi
belge
belgi
belgiledi
belgilegen
belgilenbegen
belgilendi
belgilenedi
belgilenedı
belgilenetug
belgilengen
belgilenip
belgileniwi
belgilep
belgiler
belgilerdi
belgilerdin
belgilerge
belgileri
belgilerin
belgilerinin
belgilew
belgilewde
belgilewge
belgilewshi
belgileydi
belgileytug
belgili
belginen
belginin
belgisi
belgisin
belgisiz
belgiya
belgiyanın
belgrad
belgrade
beli
beliktin
beliz
bell
belles
bellesiwlerde
belok
beloklar
belorus
belorussiya
belsendi
belsendilik
belsene
beltaw
belyaev
bemaraxa
ben
benedetto
benedicta
benen
bengal
benin
benjamin
benz
benzin
benzinli
ber
beradi
berber
berdaq
berdaqtı
berdaqtın
berdax
berdi
berdiharvnb
berdikitob
berdimurat
berdimuratov
berdimurattın
berdin
berdiyangiliklar
berdı
bere
beredi
berediler
beredı
berek
bereket
beremen
beren
berer
beretug
bergamo
bergei
bergen
bergende
bergeni
bergeninen
bergstro
beri
berildi
berildiharvnb
beriledi
beriletug
berilgen
berilgenharvnb
berilgeninen
berilgenlik
berilip
beriliw
beriliwi
beriliwinde
berilmegen
berilmekte
berilmeydi
berin
berinde
berindegi
berip
beripti
beriu
beriw
beriwde
beriwden
beriwdi
beriwdin
beriwge
beriwi
beriwin
beriwine
beriwinshe
beriwleri
beriwshi
beriwshilerdin
beriwshinin
berk
berli
berlin
berlinetta
berman
bermasliklar
berme
bermegen
bermek
bermekte
bermen
bermesten
bermewge
bermeydi
bermeytug
bernackiy
berse
bersen
bertone
bertozzi
beruniy
bes
besew
besh
beshdan
beshik
beshikli
besik
besinde
besinshi
best
besten
bet
beta
betamab
bethell
bethencourt
beti
betin
betinde
betindegi
betine
betinen
betinin
betinshe
betke
betlar
betler
betlerde
betlerdi
betleri
betlerin
betlerinde
betlerine
betlik
beton
betten
better
betti
between
bey
beydi
beyedi
beyetug
beygen
beyim
beyimlesiw
beyimlesken
beyip
beyiw
beyiwi
beyiwine
beynew
beyog
beyond
beyrut
beysbol
beytedi
beytiledi
beytip
beytiw
beytiwdin
beyttiriledi
bez
bezelgen
bezeniw
bezep
bezetilgen
bezew
bezewi
bezewler
bezewleri
bf
bg
bh
bham
bhoop
bi
bib
bibliografiyalıq
bibliya
bibullaev
bicycle
bid
bieber
big
bigenc
bijapur
bijapurilar
bil
bilan
bilbao
bildi
bildirdi
bildire
bildiredi
bildiretin
bildiretug
bildirgen
bildiriledi
bildirip
bildiriw
bildiriwgen
bildiriwi
bildiriwshi
bildirse
bile
biledi
bilek
bilemiz
biler
bileti
biletin
biletine
biletug
bilezik
bilg
bilgen
bilgenin
bilik
bilim
bilimdi
bilimge
bilimi
bilimimen
bilimin
bilimine
biliminin
bilimlendiriw
bilimler
bilimlerdi
bilimli
bilimnin
bilimsiz
bilinedi
bilip
biliw
biliwde
biliwdi
biliwge
biliwgen
biliwi
bill
billboard
billion
bilmegen
bilmes
bilmey
bilmeydi
bilmeytug
bilogiya
bilqasım
bilsin
bilws
bin
binar
binarystorageitem
binde
bine
binen
binese
binomio
binshe
bintan
bio
biogen
biografiya
biografiyası
biologik
biologiya
biologiyalıq
biologiyanın
biologiyası
biologlar
biometrik
bioplastics
biosfera
bioximiya
bioximiyalıq
bioximiyası
bip
bir
biradarları
biraq
biraqta
biraz
birdan
birde
birden
birdey
birek
birese
birew
birewden
birewdi
birewdin
birewge
birewi
birewin
birewinde
birewinin
birewler
birewlerdi
birewleri
birg
birge
birgelikde
birgelikli
birgelikte
birgelkili
biri
biridir
birigedi
birigip
birigiwi
birigiwine
birigiwinen
birikken
birikpe
birikpegen
birikpeler
birikpeleri
birikpelerine
birikpelerinen
birikpeli
birikpesi
birikpesinen
birikti
biriktirilgen
biriktirip
biriktiriwshi
birim
birimlep
birin
birinchi
birinde
birine
birinen
birinin
birinsh
birinshi
birinshiden
birinshiler
birinshilerden
birinshiligi
birinshisi
birinshı
biriw
birjasi
birjasinin
birjola
birlamchi
birlemshi
birleniwshi
birlerine
birlesedi
birlesiwi
birlesiwinen
birlesken
birlespe
birlespei
birlespeinde
birlespeler
birlespeleri
birlespeshi
birlespeshileri
birlespesi
birlespesinde
birlespesinin
birlesti
birlestirdi
birlestiredi
birlestiretug
birlestirgen
birlestiriledi
birlestirilgen
birlestirip
birlestiriw
birlestiriwshi
birligi
birligin
birliginde
birligine
birliginin
birlik
birlikler
birlikleri
birliklerin
birlikte
birliktin
birma
birmingem
birmingham
birneshe
birotala
birpara
birqansha
birquday
birshilik
birsiz
birth
birtutas
bisau
bishkek
bisi
bissau
bit
biw
biy
biyaat
biyaatı
biyat
biyati
biyatlı
biyatqa
biyatta
biyattag
biyattan
biyattanıw
biyattanıwlıq
biyattı
biyattın
biyatı
biyatın
biyatına
biyatının
biybaha
biybixan
biyday
biydi
biydin
biye
biyg
biygu
biyi
biyik
biyikligi
biyiklik
biyiklikke
biyiklikte
biyiy
biykar
biykarg
biykarlaw
biyler
biyleri
biyligi
biyma
biyn
biypul
biyqararlıqtı
biyta
biytanıs
biz
bizde
bizden
bizdi
bizdin
bizge
bizin
bizler
bizlerdin
bizlerge
biznes
biznesi
biznesin
bizness
biznessi
biznesti
bla
black
blackpool
blackwell
blebi
bleu
blica
blog
bloger
blogerler
bloglar
bloglarda
blogs
blogı
blok
blood
bloomberg
blue
blues
bmi
bmsh
bmshnın
bmt
bmtga
bmtning
bmw
bn
bnp
bo
bob
bobil
bobilde
bobildin
bobilga
bobur
boburiy
boburiylar
boburiylarden
boccaccio
boccoli
body
bog
bogota
boiss
bojador
bojlarni
bojligining
boks
boksit
bol
bola
boladi
boladı
boladıhttps
bolajaq
bolaman
bolar
bolarma
bolarsan
bolasan
bolatug
bolatın
boldi
boldı
boldıharvnb
boldım
boldıq
boldıveb
boleginde
boleslav
boleslavda
bolg
bolgan
bolgar
bolgariya
bolgariyada
boli
bolib
bolili
bolim
boliminde
bolinedi
bolinip
bolip
boliviya
boliwi
boliwin
boliwina
boljadi
boljag
boljap
boljaw
boljawg
boljawlar
boljaydı
bolma
bolmadi
bolmadı
bolmag
bolmas
bolmasa
bolmastan
bolmasın
bolmawi
bolmawı
bolmay
bolmaydi
bolmaydı
bolmaytug
bolmıs
bolmıstın
bolp
bolsa
bolsada
bolsalar
bolsan
bolsaq
bolshevikler
bolsın
bolwı
bolınıp
bolıp
bolıptı
bolıs
bolıslıg
bolıstın
bolıuı
bolıw
bolıwda
bolıwdan
bolıwdı
bolıwg
bolıwı
bolıwın
bolıwına
bolıwınan
bolıwında
bolıwının
boma
bombardimon
bombay
bonapart
bond
bongo
book
books
boom
boost
booth
bor
border
borges
boris
born
borsıq
bortında
bos
bosag
bosan
bosang
bosap
bosatıp
bosfor
boshchligidagi
boshli
boslıg
boslıq
bosna
bosnia
bosnii
bosniya
bosniyalıq
bosqichlari
boss
bostan
boston
botanika
both
botken
botsvana
botswana
bow
bowery
boxer
boy
boyajian
boyan
boyaw
boyawshı
boyi
boyinsha
boyitdi
boykot
boylap
boylari
boyları
boylarına
boylarında
boylarındag
boylı
boys
boysundirishni
boysınadı
boysındırılg
boysınıwshı
boyı
boyın
boyına
boyınan
boyında
boyındag
boyınsha
boz
bozataw
bp
br
brad
brahms
bramante
brand
bratislava
braun
brauzer
brauzerdin
brauzeri
brauzerler
bravo
brayım
brazil
braziliya
braziliyada
braziliyadın
braziliyag
braziliyalıq
braziliyalıqlar
braziliyani
braziliyanı
braziliyanın
brazilwood
breaking
brega
brek
bremen
brend
brendi
brendiga
brendlari
breton
bretton
brian
bridge
brief
brigada
briggs
britan
britaniya
britaniyada
britaniyadag
britaniyag
britaniyalıq
britaniyanın
britannica
britanya
britanyada
britanyadag
britanyag
britanyani
britanyanin
british
britney
brittaniya
brittaniyani
brno
broadway
bronza
brookings
brooklyn
brothers
brown
browning
browser
brrp
brudzinskiy
bruney
bruno
bruxelles
bryant
bryussel
bu
bucharica
budapesht
budda
buddizm
buddizmnin
buenos
bug
bugatti
bugun
bui
build
building
buisa
bujumbura
bukavu
bul
bulaq
bulaqlar
bular
bularda
bulardan
bulardi
bulardı
bulardın
bularg
bulgaria
bulletin
bulman
bulmanda
bulmanlardı
bulshiq
bulshıq
bult
bumin
bund
bunda
bundag
bundan
bunday
bundesliga
buni
bunin
buning
bunnan
bunyodkor
bunı
bunın
burak
buray
bureau
burg
burga
burin
buring
burjuaziya
burkina
burkitovich
burni
burniga
burning
burnini
burrows
bursa
burshaq
burundi
burılatug
burılıs
burın
burında
burıng
burınları
burınnan
burısh
bus
bush
business
businessweek
but
butakov
butan
butun
buve
buwaz
buwi
buwın
buwında
buwınlar
buwınlardan
buwınlarında
buwınlı
buwını
buwınında
buxara
buxarada
buxaradag
buxarag
buxarest
buxari
buxgalter
buxgalteriya
buxgalteriyalıq
buxoroning
buyra
buyrek
buyrektin
buyrıg
buyrıq
buys
buyım
buyımlar
buyımlardı
buyımları
buyımların
buyımlarının
buyımı
buyırdı
buyırg
buyırtpa
buz
buzadı
buzba
buzbaw
buzdiharvnb
buzg
buzib
buzip
buzwdan
buzıladı
buzıldı
buzılg
buzılıp
buzılıwlar
buzılıwları
buzılıwı
buzılıwına
buzıp
buzıw
bw
bxarata
by
byron
byudjet
byudjeti
byurosının
bı
bıg
bılay
bılg
bınat
bır
bıraq
bırı
bırıktırıwshı
c
ca
caesar
calendar
calgary
california
call
called
calling
cambridge
camilleri
camp
campus
can
canarias
canary
cantando
canto
cao
cape
capella
capital
caps
car
caratanana
career
carlos
carolyn
carracks
carrefour
carrozzeria
cars
casa
casanatense
casemiro
casino
castello
castle
castro
cat
catedra
category
cb
cbc
cbs
cc
cctv
cdn
ce
cell
cement
cen
cennin
census
center
centner
central
centre
century
ceo
cerebellar
cerebellaris
cerebelli
cerebellum
ceriya
ceriyalari
ceriyali
ceriyasi
cerma
cervantes
cex
cexlarda
cf
cgpm
ch
cha
chad
chag
chain
chairman
challenge
champions
championship
championships
champs
chan
change
channel
chaotic
chap
chaplin
chapter
charities
charles
charlz
chast
chastota
chastotada
chastotalı
chaucer
chaul
chavag
chay
chayqab
chechen
chek
chekindiblack
chelsea
chelyabinsk
chem
chemical
chemistry
chempion
chempionat
chempionatda
chempionati
chempionatini
chempionatining
chempionatlar
chempionatlari
chempionatları
chempionatta
chempionatı
chempionatında
chempionatındag
chempionatının
chempionlar
chempionler
chempionligina
chempionlikti
chempionlıg
chempionı
chempiyonlar
chendu
chernogoriya
chester
chevak
chevrolet
chex
chexiya
chexoslovakiya
chexoslovakiyada
chexov
chi
chicago
chicagobooth
chikago
child
chili
chilidin
chimkent
chin
china
chinese
chinetti
chiqardi
chiqarish
chiqqan
chiqquncha
chitor
chjan
chlenom
cho
chowk
chris
christ
christian
christmas
christopher
chronology
chrysler
chukovskiy
chumhurii
chung
chupik
church
churuk
chırshıq
ci
cia
cifrlı
cilindr
cilindrler
cilindrli
cim
cin
cingi
cingilerdin
cinnamon
cio
cirkul
citation
cite
cities
citizen
citoplazma
city
citygroup
civic
civilization
civilizatsiyası
cl
cla
claim
clara
class
climbing
clio
close
closure
club
cm
cme
cn
cnn
co
coast
coates
cobalt
cobar
cobiss
cocoon
code
codice
coelho
cohen
cole
collection
colo
colombia
colombo
colombonın
colonial
colonies
color
columbia
columbusdın
com
come
commercial
commission
commons
communications
como
company
competition
competitions
computer
comunidad
comveb
con
concepcio
concept
concert
concorde
condemns
condo
congo
conmebol
construction
content
continent
continue
continuum
contretemps
control
cooper
corbusier
cornell
coronel
corporation
corrado
correia
correo
corriere
corse
corte
cortico
cosmo
costa
council
countries
county
coupe
courrier
couturier
couturierdin
covid
coward
cplp
cream
create
credit
crisis
crispin
cristiano
cristoforo
croatia
crop
cropped
cruz
cs
css
cu
cultural
culture
cunami
cunha
cuny
cup
curbed
curitiba
curt
curto
customs
cut
cv
cw
cx
cycling
cz
czech
czn
cıgan
d
da
dabi
dabılov
dac
dad
dadra
dag
daga
dager
dagerotipiya
dagi
dagu
dahomey
daily
daimler
daiwıssız
dajibekova
dakar
dakka
dala
dalada
dalalar
dalan
dalat
dalatlı
dalatsız
dalatsızlıq
dali
dalillengen
dam
daman
damashq
damcho
dame
damlab
damlanadi
damtovoq
damtovoqni
dan
dana
danadan
danag
danalar
danaları
danalıg
danalıq
danasi
danası
dane
danege
daniel
daniela
daniya
danmark
danq
dans
dante
danıshpan
danıshpanlarının
danıshpanlıq
daqasında
dar
dara
daramat
darda
dardag
darg
dari
darildi
darinda
darlama
darlamalar
darlamaları
darlamaların
darlaması
darlang
darlar
darları
darların
darlarında
darlaw
darlıq
darwazabanlar
darwin
darya
daryası
darı
darımbet
darın
darına
darında
darındag
darının
darısı
das
dashoguz
daslep
dass
dasturxang
data
date
datxanalar
daus
david
davis
davlat
davra
daw
dawa
dawager
dawaların
dawam
dawami
dawaminda
dawamlılıg
dawamı
dawamında
dawamıy
dawiri
dawirinin
dawis
dawisin
dawlar
dawlardı
dawletxoja
dawletyarbek
dawletyarbektin
dawıl
dawıs
dawıslar
dawıslardın
dawısları
dawıslı
dawıslılar
dawısqa
dawıssız
dawıstı
dawısı
dawıtko
daxlar
day
dayda
daydan
daydi
daydı
daydın
dayg
daylar
daylarda
daylardı
daylarg
dayları
dayların
days
daytona
dayı
dayıları
dayılı
dayın
dayına
dayınan
dayında
dayının
dayısı
dayısının
db
dc
dd
dden
ddet
ddeti
ddetin
ddetinen
ddetke
ddetli
ddette
ddi
ddinen
de
dead
deadlink
deal
deals
death
deb
debiy
debiyat
debiyati
debiyatlar
debiyatlardın
debiyatqa
debiyatshı
debiyatta
debiyattag
debiyattanıw
debiyattı
debiyattın
debiyatı
debiyatımız
debiyatımızda
debiyatın
debiyatına
debiyatınan
debiyatında
debiyatındag
debiyatının
debyut
dec
december
declaration
declares
dedi
deeringothamnus
default
defeat
defender
defensive
defis
deflyaciya
degen
degende
degendey
degendi
degenge
degeni
degenimiz
degenler
degennin
degenshe
degi
dehli
dekabr
dekabrde
dekabrden
dekabrge
dekabrinde
dekabrinen
dekan
dekanı
dekart
dekarttin
deklaratsiya
deklaratsiyası
deklaratsiyasın
dekolonizatsiya
dekorativ
del
delegated
delegatsiyasi
deler
delerdin
deli
delimitativ
delinedi
delinquents
delitsh
delivers
dell
della
delle
deltası
deltasında
dem
demde
demek
demen
demin
demio
demleme
demlemeni
demlemesi
demlenedi
demlew
demografiyalıq
demokrat
demokratik
demokratiya
demokratiyalıq
demokratiyasının
demontaj
den
denbay
dendrit
dendritik
dendritlari
dene
denede
deneden
denedin
denege
deneler
denelerden
denelerdi
denelerdin
denelerge
deneleri
denelerin
denelerinin
deneli
deneni
denenin
denesi
denesin
denesinde
denesine
denesinin
dengizi
deni
denis
deniy
deniyat
deniyati
deniyatlardı
deniyatqa
deniyattı
deniyattın
deniyatı
deniyatın
deniyatına
deniyatının
densawlıg
dentifikatorlar
denwaterfalls
denıyat
denıyatı
dep
depardieu
departamenti
department
departure
dependability
depli
deponentlerdin
deportivo
depozitariy
depte
depti
deputat
deputatları
deputatı
depyut
depyutini
der
derbikler
deregi
derek
derekler
dereklerde
dereklerdi
dereklerge
derekleri
dereklerinde
derekti
derlik
des
descobrimentos
dese
desedi
desek
desem
desen
desf
deshti
design
desktop
destination
destiny
det
detail
details
detde
detdegi
deti
detiy
detler
detlerdi
detlerin
detlerine
detroit
detsimetr
dette
dettegi
dettegide
deutsch
deutsche
deutscher
deutschland
dev
development
devices
devid
devis
devon
dewir
dewır
dey
deydi
deyin
deyingi
deyip
deymiz
dezintegratsionnie
dfb
dfbe
dfr
di
dia
dialekt
dialekti
dialektika
dialektinde
dialektler
dialektleri
dialektlerine
dialektlik
dialektologiyalıq
dialektologiyası
dialog
dialoglar
diametri
diamond
diamonstein
diana
diapazonında
diari
diario
diary
dias
diasning
dicaprio
dickens
dico
dictionary
did
dida
didaktikalıq
die
diego
diesel
differensial
diffie
dificitligi
digirman
digital
dik
diktator
diktatura
dikti
dil
dilaram
dilbar
dilerlik
dili
dillik
dilliktin
dilmash
dilmashları
dilmashlıq
dilsizlik
dilsizlikke
dilwar
dilwarlardı
dim
dimgi
dimna
din
dina
dinamik
dinamika
dinamikada
dinamikalıq
dinamikası
dinamikasın
dinamo
dinastiyası
dinastiyasın
dinastiyasının
dindi
dinge
dini
dinin
dininde
dinine
dininin
diniy
dinler
dinnin
dino
dinos
dinozavrlar
dio
diogo
dionis
dior
diordın
diplom
diplomat
diplomatik
diplomatiya
diplomatiyalıq
diplomın
diplopiya
diputacio
dir
dirbay
dirdan
dirde
direct
director
directory
direktor
direktori
direktorlar
direktorı
direktorının
direti
diretinin
diretli
dirge
diri
dirijyor
dirijyorı
dirin
dirine
dirip
dirlandi
dirlengen
dirleri
dirli
dis
discoveries
discovery
disk
diskografiya
diskografiyası
disney
display
diss
dissertaciyasın
dissertatsiya
dissertatsiyasın
distance
district
diu
diuda
diuga
diversas
dividend
dividendler
divina
division
diviziyası
diviziyasının
diy
diydar
diyerli
diyqan
diyqanlar
diyqanlardın
diyqanlarg
diyqanları
diyqannın
diyqanshiliq
diyqanshılıq
diyse
diyseler
diyselerdi
diyselerdin
diyseleri
diyseni
diysesi
diywal
diywaldın
diywali
diywallar
diywallarda
diywallardın
diywalları
diywallarına
diywallarının
diywalı
diyxan
diyxanshiliq
diyxanshılıq
diz
dizartriya
dizayn
dizayner
dizayneri
dizaynerlik
dizayni
dizbegi
dizbegindegi
dizbegine
dizbeginen
dizbeginin
dizbegleri
dizbek
dizbekleri
dizbeklerinde
dizbeklerine
dizbeklerinen
dizbeklerinin
dizbeklesip
dizbeklesiwinen
dizbekti
dizege
dizel
dizim
dizimge
dizimi
dizimin
diziminde
dizimine
dizimler
dizimnen
dizip
dj
dja
djakomo
django
djibouti
djon
djordj
dk
dkw
dl
dm
dmitriy
dnepr
dnevnik
dnk
do
doc
docent
docenti
docs
document
dod
dodge
dodoma
does
dog
doha
doi
dokladina
doktor
doktori
doktorlıq
doktorı
dolgi
dolkart
doll
dollar
dollardan
dollardı
dollarg
dollarlıq
dolları
dolların
dollarına
dom
domalaq
domen
domeni
domenleri
domestic
dominant
dominik
dominika
don
donador
donal
donald
donato
doncaster
donetsk
dong
dongshan
dono
donoligini
donor
dont
doors
dortmund
dos
doshumova
doshım
doslar
dosları
doslarına
doslıg
doslıq
doslıqtı
dosnazarov
dospanov
dostoyevskiy
dostup
dostı
dostın
dostısı
dotsent
double
douglas
dow
down
download
dq
dr
drama
dramalıq
draması
dramatik
dramaturg
dramaturgi
dramaturgiya
dramaturgiyası
dramaturgiyasının
dramaturgler
dramaturgleri
dramaturglerinin
drayver
dream
drezden
drezner
dri
drz
ds
dsc
dtu
du
dualizm
duarte
duayt
dubai
dubay
dublin
dubrovac
duelde
dug
duglas
duignan
dumaloq
dun
duna
dunav
dunay
dunya
dunyada
dunyadag
dunyadan
dunyag
dunyanin
duo
duomo
dur
durst
durıs
dus
dushanbe
dushpan
dushpang
dushpanlar
dushpanlardın
dushpanları
dushpanların
dushpanlarına
dushpanlıq
dushpannan
dushpannin
dushpanı
dushshı
dushyanta
dutch
dutra
duwa
duwtar
duwtardı
duwtardın
duz
duzedi
duzgen
duzildi
duzilgen
duzilisi
duzip
duzlı
duzlılıg
duzı
dvb
dvd
dvigatel
dvigatelden
dvigateldin
dvigateli
dvigatelin
dvigatelinen
dvigateller
dvigatelleri
dvigatelli
dvigatellı
dw
dx
dyakonov
dybvig
dynamics
dyuden
dyuym
dz
dzyudo
dı
dıbıs
dıbıstar
dım
dın
dıqqat
dıqqatqa
dıqqatın
dır
dıyqanshılıq
dıyxan
dıyxanshılıq
də
e
ea
eads
early
earn
east
eastern
eat
eb
ebrsh
ec
echinata
echo
ecma
economia
economic
economics
economy
ecotec
ed
eddington
ede
edi
ediakariy
edige
edigege
edigenin
ediharvnb
edihttps
edik
edil
edim
edimetcalf
edin
edinburg
edirne
edison
edisonnin
edit
edition
editions
editor
editors
ediveb
edo
eds
edu
edvard
edward
ee
eed
eedc
eesti
ef
effektiv
efiopiya
efiopiyag
efiopiyalıiston
efiopiyalılar
efiopiyalıqlardı
efiopiyamenen
efir
efirde
efirden
efirga
efirge
efiyopia
eftalitler
eftaliyler
eftallar
egat
eger
egerde
egey
egiledi
egilgen
egin
eginler
eginlerdi
eginleri
eginlerine
egipet
egipetke
egipettin
egisin
egislik
egiw
egiz
eglandulosa
ego
eguide
eguides
egypt
egypte
egyptian
ehir
eight
einem
einstein
ek
eken
ekenin
ekenine
ekenler
ekenligi
ekenligin
ekenligine
ekenliginen
ekensen
ekewden
ekewi
ekewide
ekewin
ekewinin
eki
ekige
ekilemshi
ekilik
ekinshi
ekinshiden
ekinshisi
ekinshisine
ekinshisinin
ekinshı
ekipaj
ekipajlarning
ekipajı
ekki
ekkinshi
ekologik
ekologiya
ekologiyalıq
ekonomik
ekonomika
ekonomikada
ekonomikadag
ekonomikag
ekonomikalar
ekonomikalardin
ekonomikaliq
ekonomikalıq
ekonomikanin
ekonomikanın
ekonomikasi
ekonomikasin
ekonomikasina
ekonomikasinda
ekonomikasinin
ekonomikası
ekonomikasın
ekonomikasında
ekonomikasının
ekonomist
ekonomistler
ekonomıkalıq
ekononikasina
ekran
ekrang
ekranı
ekshembi
ekskavator
ekskovator
ekskovatorlar
ekspediciya
ekspediciyalar
ekspediciyalardı
ekspediciyaları
ekspediciyanı
ekspediciyası
ekspediciyasın
ekspediciyasında
ekspeditsiya
ekspeditsiyalar
eksperimental
eksponat
eksponatlar
eksport
eksporti
eksportlar
ekspozitsiya
ektke
ekvador
ekvator
ekvatorda
ekvatordan
ekvatordı
ekvatorial
ekzibishion
ekzogen
el
elaeagnus
elam
elamliklar
elatlar
elattın
elatı
elde
eldegi
elden
eldi
eldin
ele
electric
electronics
elede
elegant
elege
elektr
elektricheskiy
elektrik
elektroliz
elektromagnit
elektromagnitlik
elektromobili
elektron
elektronika
elektrosensor
elektrotexnika
element
elementdin
elementi
elementlar
elementler
elementlerden
elementlerdi
elementlerdin
elementlerge
elementleri
elementlerin
elementlerinde
elementlerinen
elements
elena
elevated
elge
eli
eliklew
eliklewdi
eliklewish
elimdi
elimiz
elimizde
elimizge
elin
elinde
eline
elinin
eliriwi
eliud
eliw
elizabeth
elkann
eller
ellerde
ellerdin
ellerge
elleri
ellerim
ellerinde
ellerine
ellerinen
ellerinin
ellik
ellikler
elliklerdin
elliklerge
ellikqala
ellin
elmanov
elmina
elmira
elmurat
elmuratov
elshi
elshiler
elshisi
elshixonasi
elvis
em
emal
emaldan
embergenov
emenouchi
emes
emesligi
emesligin
emi
emigraciyadan
emigrantlardı
emir
emissions
emissiya
emitent
emitentine
emitentke
emitenttin
emiziwshiler
emlew
emlewde
emlewge
emlewxana
emlewxanada
emmanuil
emotsional
empire
emshek
en
encyclopedia
encyclopædia
end
endi
endogen
ene
enemy
enenin
energetic
energetik
energetika
energetikası
energiya
energiyag
energiyanın
energiyası
energiyasına
energya
eng
engels
engine
engineering
engizilgen
engiziliwi
engiziw
england
english
eni
eniklopediyası
enisey
enni
enrique
enshi
enshisin
ensiklopediyasi
ensiklopediyası
ensiz
enters
entertainment
enzo
eoarxey
eon
eonı
eonının
ep
epiderma
epikalıq
epilepsiya
epilogda
episkop
episkoptın
epos
eposta
epıtelıy
er
era
eramizg
eramızdan
eramızdın
eramızg
erası
erasında
erasının
erda
erdog
erejep
erekshe
eresek
erevan
ergashib
erickson
erie
erigen
erik
erin
erinlik
erinnin
erip
erise
erisedi
erishilgan
erisildi
erisilgen
erisip
erisiw
erisiwge
erisken
eriskennen
eristi
eristiharvnb
eristikitob
eristilarharvnb
eristiler
eritiwshi
eritpe
eritreya
eriydi
eriytug
erjetip
erk
erke
erkek
erkekler
erki
erkin
erkinligi
erkinligin
erkinlik
erler
erli
erligi
erlikleri
ernasheva
ernazar
ernazardın
ernazarg
ernest
erodes
eroziya
erpolat
erte
ertede
erteden
ertegi
ertek
ertekler
erteklerde
erteklerdin
erteklerge
ertekleri
ertekti
ertektin
erten
ertesi
ertip
erusalim
es
esa
esabat
esabatlar
esabatı
esabinan
esabinda
esabı
esabın
esabına
esabınan
esabında
esabının
esap
esaplab
esapladi
esapladı
esaplag
esaplamag
esaplanadi
esaplanadı
esaplanadıharvnb
esaplanar
esaplanardiharvnb
esaplanatug
esaplanbaydı
esaplandi
esaplang
esaplanip
esaplansa
esaplanıp
esaplanıw
esaplanıwı
esaplap
esaplarg
esaplaw
esaplawg
esaplawlar
esaplaydi
esaplaydı
esapqa
esapta
esaptan
esaptın
esbay
escort
ese
esege
eselenip
eseli
esemurat
esemuratova
esen
esenbaeva
esengeldi
eseptelinedi
eseptew
esh
eshbay
eshek
eshki
esi
esigi
esik
esikler
esim
esimderi
esimderin
esimderine
esimin
esin
esinde
esine
esinin
esip
esitedi
esitemiz
esitildi
esitiledi
esitilgen
esitip
esitiw
esitken
esittirisler
esittiriw
esittiriwdi
esittiriwdin
esittiriwge
esittiriwi
esittiriwler
esittiriwlerdi
esiw
esjan
eske
eskek
eskertiw
eskertti
eski
eskis
esko
eslep
esletedi
esletpeler
espan
esperanto
esperantoca
espn
espresso
essensial
esta
estadio
estakadali
estate
este
esteligi
esteligin
estelik
estelikler
esteliklerden
esteliklerdi
estelikleri
esteliklerin
esteliklerinen
esteliklerinin
estelikti
esteliktin
estelle
estetikalıq
estiano
estin
eston
estoniya
estr
estrada
esxil
et
eta
etchells
etdi
etdiharvnb
etdilar
etdilarharvnb
etdiler
etdimetcalf
ete
etedi
etediler
etediveb
etedı
eteginde
eteklerinde
etemiz
eter
etetug
etext
ethiopian
ethnologue
eti
etik
etika
etikalıq
etikası
etildi
etiledi
etilediharvnb
etiletindi
etiletug
etilgan
etilgen
etilgenin
etilgeninen
etilgennen
etilip
etiliwi
etiliwin
etiliwinde
etiliwine
etilmegen
etilmeydi
etilse
etimologiya
etimologiyasi
etimologiyası
etin
etip
etipti
etirip
etish
etiw
etiwde
etiwden
etiwdi
etiwgan
etiwge
etiwgen
etiwi
etiwin
etiwine
etiwinen
etiwleri
etiwshi
etizm
etken
etkende
etkendey
etkeni
etkenin
etkeninen
etkenler
etkenligin
etkil
etler
etleri
etli
etmis
etnik
etnikalıq
etniykalıq
etnogenezi
etnografik
etnografiyalıq
etnografiyası
etnografıya
etnolog
etnonim
etnonimi
etnonimin
etnonimler
etnonimleri
etnos
etnoslar
etpegen
etpekshi
etpekte
etpes
etpewi
etpeydi
etpeytug
etse
etsen
etti
ettien
ettirdi
ettirdiharvnb
ettiredi
ettirgen
ettiriledi
ettirilgenharvnb
ettirip
ettiriw
ettiveb
ettore
etw
eucs
euler
eur
euro
europe
european
eurycarpa
ev
event
events
ever
everest
evergrande
evertiq
everton
evertonfc
every
evgeniy
evklid
evolyutsiya
evrafraziyanin
evraziya
evrey
evreyler
evro
evroaziya
evrog
evropa
evropada
evropadag
evropadan
evropag
evropalı
evropalılar
evropalıq
evropalıqlar
evropamenen
evropani
evropanin
evropanın
evroppa
ew
ewdi
ewi
ex
example
exhibit
expansion
explorationsv
explorer
explosion
export
express
extra
extremum
ey
eydi
eye
eyfel
eygen
eyip
eyiw
eyiwi
eytirdi
eytirilgen
eytirw
eytiw
eytiwdi
eytiwge
ezilip
eziwlik
eziwshilerdi
f
fa
fabia
fabriciano
fabrika
fabrikalarda
fabrikaları
fabrikası
facebook
facility
faciyalar
fact
factfinder
factorial
facts
faculty
fadin
fado
fagundesga
failures
fairbank
fakt
faktlar
faktler
faktlerdi
faktlerdin
faktli
faktor
faktoriya
faktorlar
faktorlardın
faktorları
fakultet
fakulteti
fakultetihttps
fakultetin
fakultetinde
fakultetine
fakultetinin
fakultetlararo
fakultetler
fakultetleri
false
fame
familia
familiyası
family
famosa
fanda
fanerozoy
fantaziya
fanıy
faoliyat
faq
far
farer
farfor
farg
farhad
farid
farmacevtik
farmacevtika
farmacevtikaliqo
farmasevtik
farmatsevtika
farıssha
fashistler
fashistlerdin
fashizim
faso
fast
fastest
father
favorit
favoritning
fawsl
fayl
fayllar
fayllardı
fayzabad
fayzobod
fazalı
fazıl
fazılov
fb
fc
fca
fd
fde
fdr
fe
features
featuring
februar
february
federaciya
federaciyası
federal
federasiyasının
federation
federativ
federatsiya
federatsiyaga
federatsiyasi
federatsiyası
federatsiyasının
federer
fee
feleton
feletonda
feletonnın
felicia
felicias
felipe
femme
fenerbahc
fenomen
feodal
feodallar
feodallıq
fera
ferdawsiy
ferdinand
ferg
fergana
ferguson
ferma
fermer
ferna
fernandes
fernandesni
fernando
fernao
ferrari
ferrariga
ferrarilar
ferrarilarda
ferrarining
ferry
fest
festivali
festivalida
fevral
fevralda
fevraldan
fevralde
fevralında
feyil
feyildin
feyilge
feyiller
feyilli
ff
fg
fi
fiat
fibonachchi
fidiy
fidji
field
fifa
fifaning
fifth
figura
fiji
fikir
fiksator
fil
filadelfiya
filarmoniyası
file
filei
filename
files
filiali
filialı
filialında
filialının
filipe
filipening
filipp
filippin
filippinni
fillips
film
filmde
filmdi
filmi
filminde
filminin
filmlarida
filmler
filmlerde
filmlerdi
filmlerge
filmleri
filmografiya
films
filolog
filologiya
filologiyasi
filologiyası
filopator
filosof
filosofiya
filosofiyag
filosofiyalıq
filosofiyanin
filosofiyanın
filosofiyası
filosofiyasın
filosofiyasının
filosoflar
filosofları
filosofı
filtrden
filyali
fin
final
finalda
finals
finalında
finance
financial
finans
finanslanadi
finansliq
finanslıq
finlandiyag
finlandiyani
finlyandiya
finnish
fiorella
fire
firm
firma
firmalar
firmalardin
firmalardın
firmaları
firmanın
firması
firmasının
first
fisch
fiva
five
fixation
fiy
fizigi
fizik
fizika
fizikalıq
fizikanın
fizikasi
fizikası
fizikler
fizikleri
fiziologik
fiziologikalıq
fiziologiya
fiziologiyalıq
fizuliy
fk
flag
flagin
flagman
flagmani
flamengo
flanagan
flash
flatiron
fleeteurope
flocculonodular
floors
flora
florentsiya
florentsiyada
flores
florida
flot
floti
flotların
flotı
flotın
flotının
flowers
floyd
fm
fmagellanfilippinga
fmagellanmenen
foetida
foetidissima
foga
folkerts
folklend
folklor
folklordag
folklordın
folklorg
folklorlıq
folklorı
folklorın
folklorına
folklorının
fon
fond
fonda
fondi
fondinin
fondlar
fondları
fondı
fondın
fondında
fondının
fonema
fonetika
fonetikalıq
font
fontan
fonında
food
football
for
forbes
ford
fordga
fordham
fordning
forgotten
form
forma
formada
formadag
formag
formalar
formalarda
formalardan
formalardın
formaları
formaların
formalarında
formalarının
formalı
formant
formanı
formanın
formasi
forması
formasın
formasına
formasında
formasındag
formasının
formatları
formatı
formatında
formula
fort
fortepiano
fortress
fortune
forum
forvard
foto
fotograf
fotografiya
fotografiyasının
fotografı
fotosintez
fotosu
fotoxabarshısı
found
foundation
fpeople
fr
frac
frakiy
frameless
fran
franc
france
franch
franchayzing
francis
francisco
francishek
franciskodag
franciya
franciyada
franciyag
franciyanın
francuz
francuzsha
frank
franka
frankfurt
franklar
franklin
frankofoniya
frankoniya
frans
fransisko
fransiya
fransiyadan
fransiyag
fransiyalı
fransiyani
fransuz
fransuzlar
fransuzlarga
fransuzlarni
fransuzlarning
fransuzsha
frantsiya
frantsiyada
frantsiyadan
frantsiyanin
frantsiyanın
frantsuz
franz
frazeologik
fred
freddie
frederick
frederik
fredrik
free
freference
french
freyd
fridrix
frigiy
frik
froilan
from
front
frontera
frontier
frontqa
frontta
fs
ft
ftimes
ftrump
ftse
fu
fuera
fujian
full
fullpage
funafuti
function
fund
fundamental
funkcional
funkcionalliq
funkciyaların
funkciyasi
funkciyasina
funksional
funksiya
funksiyalar
funksiyalarda
funksiyaların
funksiyası
funktsional
funktsionallıq
funktsiya
funktsiyalardı
funktsiyaları
funktsiyası
funt
funtti
fusaro
fut
futb
futbol
futbolo
futbolshi
futbolshisi
futbolshı
futbolshılar
futbolshısı
futbolı
futbolının
futuna
fwww
fwyc
fyi
fyodor
fz
fınal
g
ga
gabala
gabon
gaborone
gabriel
gagarin
gagauziya
gagawız
gaiti
galaktika
galatasaray
galeote
galereya
galereyasi
galereyası
galileo
galiley
galisiya
gallereya
gallereyasında
galleriya
galleys
galliya
gama
gamadın
gambiya
gamburg
game
games
gaming
gamkergik
gamma
gamzatov
gan
gana
gandi
gang
ganimed
ganjaviy
gann
gannibal
gapga
garber
garci
garden
gari
garvard
gary
gaspar
gastrol
gastrollarda
gates
gation
gatvik
gavana
gavri
gayana
gaz
gazdi
gazeta
gazetada
gazetag
gazetalar
gazetalarda
gazetalardın
gazetaları
gazetalarında
gazetanın
gazetasi
gazetasinda
gazetası
gazetasına
gazetasında
gazetasının
gazette
gazetteer
gaziantep
gazifikatsiyasi
gb
ge
gebfvcbcluc
gedey
geely
gege
gegemonligini
gejir
gekkel
gektar
gektardı
gel
gelawdewosga
gelek
gelekler
geleklerin
gelekli
geler
geleri
gelle
gellesin
gemiparez
gemiplegiya
gemorragik
gen
gende
gene
general
generallinks
generation
generativ
generator
genetik
genetikalıq
genge
genje
genjebay
genjemuratov
genler
genleri
genotsid
genri
genrix
genrixga
genrixning
genuya
genuyalik
genyika
geo
geodeziya
geoekologiyalıq
geoffrey
geogr
geografik
geografiya
geografiyalıq
geografiyasi
geografiyası
geographic
geol
geolog
geologiya
geologiyalıq
geologlar
geomatics
geometriya
geometriyalıq
georg
george
georges
geosinklinal
geosistema
geosistemalardın
geoxronologiya
geoxronologiyalıq
gepard
ger
gerbi
gerbine
gerbish
gerbishlerden
gerbishten
geregi
geregin
gereginde
geregine
gerip
german
germaniya
germaniyada
germaniyadan
germaniyag
germaniyanin
germaniyanın
germany
germanya
germen
gernsi
gertsegovina
gertsegovinada
gertsegovine
gertsog
gerxard
ges
gesetz
geshir
geshirdi
gesi
gesin
get
gewde
gewdelerdin
gewek
gey
geybir
geyde
geyne
geypara
geyparalar
geyparaları
gezde
gezeginde
gezek
gezekles
gezekpe
gezekte
gezinde
gezleme
gezlemeden
gezlemeleri
gezlemenin
gezlerinde
gezlesedi
gezlesip
gezlesken
gfr
gg
ghostarchive
gi
gibraltar
gibrid
gidrodinamika
gidrologiya
gidrometeorologiya
gidrosfera
gidrostatika
gidrouzel
giga
gigafactory
gigant
gil
gilbert
gilem
gilemge
gilemler
gilemshe
gilen
gilestiriw
gilgen
gilik
gilisisler
gilkiy
gilt
gim
gimalay
gimeler
gimesi
gimn
gimni
gimninin
gin
gina
gindi
ginge
gingi
ginler
ginness
gioconda
giorgi
giovanni
gip
giperbola
gipotoniya
gipouloux
girew
girewli
girl
girme
girmeler
girne
git
gitara
gitler
giulio
giwi
giya
giz
giza
gizeh
gje
glabra
glas
glasgow
glaxosmithkline
glazgo
glazgoda
glenn
global
globalsportsarchive
globe
globus
globusta
globustın
gloria
gloriya
glycyrrhiza
gm
gmail
gmbh
gn
gnome
gnu
go
goa
goaga
goamenen
goani
goaning
god
goda
goddard
goes
goethe
gogh
gogol
gol
gold
golden
golds
golf
golini
golland
gollandiya
gollandiyanın
gollandlar
gollar
golın
gomer
gomes
gomesga
gomez
gomindan
gonc
gonduras
gondvana
gone
gonkong
gonkongdın
gonneville
gonsales
gontscharovii
good
goodwin
google
gordon
gorizontal
gorkiy
gorkiydin
gormom
gormonlar
gotika
gov
governance
government
goyasda
gp
gq
gr
grace
gradus
gradusqa
graf
grafik
grafika
grafikalıq
grafikası
grafikasına
grafit
graham
gramm
grammatik
grammatika
grammatikalıq
grammatikası
grammli
gran
granada
grand
grande
granit
granti
gravitatsiya
gray
great
greatest
greciya
green
greenwood
grek
grekiston
grekler
greklerdin
grekshe
grenada
grenadin
grenlandiya
grenlandiyanı
gretsiya
gretsiyada
grid
grig
grigoriy
gripp
gripptin
groningen
grosso
group
grubu
grunt
gruppa
gruppag
gruppalar
gruppalarda
gruppalarg
gruppaları
gruppanın
gruppası
gruppasına
gruyter
gruzin
gruzinshe
gruziya
gs
gsf
gsm
gsr
gst
gsx
gt
gtb
gto
gts
gu
guam
guanabara
guanare
guanchjou
guangxi
guangzhou
guardian
gubadag
gubernator
gubernatori
gubernatorlıg
gubernatorı
gudzon
guez
gugenotlar
guid
guide
guinea
guinness
gujarat
gujarati
gujaratilar
gujaratlar
gul
guldirsin
gullep
gumanistlik
gumanitar
gumanitarnie
gumbaz
gunnılar
guruh
guruhi
gusakov
gusenitsalı
gustav
gutenberg
gutenbergtin
guterrish
guwalıq
guwası
gv
gvardiya
gvardiyasi
gvatemala
gvianası
gvineya
gvineyade
gvineyani
gvineyası
gwangju
gyote
gı
h
ha
haberleri
hadal
hafiz
hakluyt
hal
halatta
halatına
halda
halg
hall
halo
halqa
halqın
halın
halına
halında
halıq
halıqtın
ham
hamal
hammurabi
hammurapi
hammurapining
hamro
hamza
hamzanın
han
hande
hangzhou
haniyfa
haq
haqida
haqiyqiy
haqqi
haqqinda
haqqindag
haqqında
haqqındag
haqı
haqılı
haqını
haqısın
haqıyqat
haqıyqatlar
haqıyqatlıg
haqıyqatlıq
haqıyqatlıqqa
haqıyqatlıqtı
haqıyqatlıqtın
haqıyqattı
haqıyqatında
haqıyqıy
har
haram
harbir
hard
hareketlendiriwshi
harid
harvard
harvnb
harzada
has
hasan
hasası
hasla
hasıl
hat
havzasi
haw
hawa
hawada
hawadan
hawag
hawani
hawanı
hawanın
hawareaktiv
hawası
hawaz
hawazı
hayal
hayaldın
hayalg
hayali
hayallar
hayallardın
hayallarg
hayalları
hayallarının
hayalı
hayalın
hayalınan
hayalının
hayitov
hayran
hayttan
haywan
haywanat
haywanatlar
haywanlar
haywanlarda
haywanlardan
haywanlardı
haywanlardın
haywanlarg
haywanları
haywanlarında
hayyam
hazirde
hazirgi
hc
he
head
hear
heart
heaven
hedgehog
helena
hell
hellas
helle
hello
help
henri
henry
her
herald
here
herring
herzegovina
hesh
heshbir
heshkim
heshqanday
heshqashan
het
hi
high
hijriy
hikaya
hikayatlar
hikayatlarda
hikayatta
hikmetli
hilalov
hildebrandt
himiyetli
hind
hindiqıtay
hindistan
hindistanda
hindistannın
hindistanın
hindlar
hindlarning
hindlerdin
hindstan
hindstang
hindstannan
hindstanı
hindu
hindukush
hiroshima
hisakazu
historia
historic
historical
histories
history
historyenglandf
hitrow
hits
hiyle
hiylesi
hl
hm
hmet
hmiyet
hmiyeti
hmiyetin
hmiyetine
hmiyetinin
hmiyetke
hmiyetli
ho
hodder
hof
hoffman
hoi
hokkey
holding
holi
hollywood
hollywoodda
holy
home
homepage
homila
homo
honey
honoured
honours
honra
hook
horch
host
hosting
hotel
hotels
house
houses
hovandi
how
hoz
hp
hr
hrem
hsbc
htb
htm
html
htmlveb
htmlwebarxiv
http
https
hu
huang
hub
hudson
hududida
hue
hugo
hujim
hujimi
hujum
hukimet
hukimeti
hukimetke
humenin
humoyun
huntington
huquq
huquqiy
huquqıy
huqıq
huqıqlar
huqıqlarg
huqıqları
huqıqların
huqıqlı
huqıqqa
huqıqtanıw
huqıqtı
huqıqtın
huqıqı
huqıqın
huqıqına
huqıqıy
hushi
hushning
huvala
huw
hwray
hy
hybrid
hydrogen
hyundai
hz
həzil
i
ia
iaa
ial
iauliai
ib
iba
ibarat
ibaratlıg
iberiya
iberiyaning
ibljcc
ibm
ibn
iborat
iboratdir
ibr
ibragimov
ibrahim
ibrayim
ibrayım
ibrohim
icao
ice
ichki
iconica
id
ida
idagi
idan
ideal
ideografiya
ideologiyalıq
idestam
ideya
ideyalar
ideyalardı
ideyaları
ideyaların
ideyalarına
ideyalıq
ideyanı
ideyanın
ideyası
ideyasın
idioadaptaciya
idrukbn
idustre
ie
ierusalim
ierusalimde
ierusalimdi
iezuit
iezuitlar
ig
iga
igor
ih
ii
iii
ijara
ijarag
ijarası
ijodi
ijodida
ijroiya
ijtimoiy
ik
ikiston
ikki
ikkovi
ikonoskop
ikramlılıq
ikramlıq
iktas
il
ila
ilahiy
ilaj
ilajlar
ilajlarda
ilajlardı
ilajlari
ilajları
ilajların
ilajsız
ilajı
ilajında
ilat
ilayıq
ildi
ile
iledi
ilg
ilgek
ilgeri
ilgerilemeli
ilgeshek
ilham
ili
iliada
iligi
ilik
ilim
ilimde
ilimdi
ilimge
ilimi
iliminde
ilimine
iliminin
ilimiy
ilimler
ilimleri
ilimlerinin
ilimnin
ilimpa
ilimpaz
ilimpazdın
ilimpazlar
ilimpazlardın
ilimpazlarg
ilimpazları
ilimpazı
ilip
ilis
ilisi
iliske
iliw
iliwge
iliwlerdin
iliwlerge
illanilmasa
illestiriw
illew
illikler
illiklerden
illiklerge
illikleri
illiriy
illustrated
illyustrator
ilmaqta
ilmiy
ilohiy
ilw
ilya
ilıwı
ilə
im
ima
image
images
imaki
imam
imaq
imarat
imaratlar
imaratları
imaratların
imaratlarınan
imaratlarının
imaratta
imarattı
imarattın
imaratın
imdb
imen
imf
img
imi
imidj
imka
imkan
imkaniyat
imkaniyatları
imkaniyatı
imkaniyatın
imkaniyatına
imkanın
imla
imlari
imlası
imma
immanuel
imom
impaz
impazi
impaziveb
impazı
imperator
imperatori
imperatorı
imperial
imperiya
imperiyalarida
imperiyani
imperiyaning
imperiyanın
imperiyasi
imperiyasimenen
imperiyasini
imperiyasinin
imperiyasining
imperiyası
imperiyasına
imperiyasının
import
importshisi
improvizator
impuls
impulslar
impulslarini
impulslarni
impulsleri
imzaladı
imzolab
imzoladi
imzolangan
imzolanishi
in
ina
inan
inauguracion
inayat
inc
incheon
ind
inda
indag
inde
indegi
independen
independence
independent
index
india
indian
indiana
individ
individleri
individual
indiya
indiyada
indiyade
indiyadın
indiyag
indiyaga
indiyanın
indon
indonesia
indonez
indoneziya
indoneziyada
indoneziyaden
indoneziyanın
induizm
industrial
industriyasi
industry
ine
inen
infante
inferno
inflata
info
infobase
infografika
infografikasi
informacio
informacion
informaciya
informaciyalar
informaciyalardı
informaciyalıq
informaciyanı
informatika
information
informatsion
informatsiya
informatsiyanın
infuzoriyalar
ing
ingibirlovchi
ingl
inglis
inglisshe
ingliz
inglizshe
ini
inin
ining
inisi
inistitutı
injener
injeneri
injenerler
injenerleri
injenerligi
injenerlik
injil
inlari
inner
innovciyalıq
inquiry
insan
insandı
insang
insaniy
insaniyat
insaniyattın
insanlar
insanlardan
insanlardın
insannin
insannın
insanıylıq
inshi
inside
insidethegames
inspektor
instagram
instagramda
institut
institute
instituti
institution
institutlarina
institutlarinin
institutları
institutqa
institutta
instituttı
instituttın
institutı
institutın
institutına
institutında
institutının
instruktor
insult
int
intalı
intel
intellektual
intensiv
intention
inter
interfax
interfeysine
interfutbol
interlingue
intermediation
internaciya
international
internationale
internatta
internet
internetdegi
internetge
internette
internettegi
internettin
interneyronlar
interracial
interval
intervallar
intervenciya
intervyu
intervyudın
intildi
intimacy
intonaciya
intonatsiyası
intruder
inu
invasion
investitsiya
investitsiyalang
investitsiyalar
investitsiyalari
investitsiyalarinin
investitsiyaları
investitsiyalıq
investments
investor
io
ioann
iordaniya
ios
iosif
ip
ipa
ipga
iplas
ipo
iprage
ipv
iq
iqt
iqtisodiyot
ir
irak
iran
irannın
iraq
irat
irdi
ire
iredi
irek
iret
iretinde
iri
irilew
irina
irisi
irkilis
irkinish
irkip
irlan
irlandiya
irlandiyada
irma
irmey
irmoqlari
irot
irrigatsiya
is
isaak
isadora
isbilermen
isbilermenler
isbilermenlik
isbn
isda
isenbedi
isenbeydi
isendi
isenedi
isener
isengen
isenim
isenimdi
isenimge
isenimi
isenimli
isenimsiz
iseniwinshe
isfaxan
ish
ishek
ishemik
isher
ishi
ishimlik
ishimlikler
ishin
ishinde
ishindegi
ishine
ishinen
iship
ishiw
ishke
ishken
ishkerilew
ishki
ishlab
ishlash
ishndegi
ishpey
ishqı
ishse
ishte
ishten
ishteyi
isi
isik
isimli
isin
isinda
isine
isinin
isip
iskandar
iskandariya
iske
iskender
isker
iskeri
iskerligi
iskerligin
iskerliginde
iskerligine
iskerliginin
iskerlik
iskusstvo
iskusstvosı
islam
islamg
islamic
island
islandiya
islands
isledi
islegen
islemekte
islemeydi
islendi
islenedi
islengen
islenip
isleniw
isleniwi
islep
islepti
isler
islerde
islerden
islerdi
islerge
isleri
islerin
islerinde
islerine
isles
islese
islesiw
islesiwdi
islesiwdin
isletedi
isletiledi
isletiletug
isletilgen
isletilingen
isletiliwi
isletip
isletiw
isletiwedi
isletken
islew
islewde
islewden
islewdi
islewge
islewi
islewin
islewine
islewshi
isley
isleydi
isleydı
isleytug
islik
islikte
isliktegi
ism
ismayıl
ismi
iso
isp
ispan
ispaniya
ispaniyada
ispaniyag
ispaniyaga
ispaniyalıq
ispaniyanin
ispaniyanın
ispanlar
ispanlarning
ispansha
isqa
isshi
issi
issiliq
issn
issue
issıllıq
ista
istan
istanbul
istanbuldag
istanbuldın
istaw
iste
istehkomlari
isten
isterdi
isterge
isti
istiklal
istilası
istilosidan
istin
istiraxat
iston
istoriya
it
ital
italia
italian
italiya
italiyada
italiyaliq
italiyalı
italiyalıq
italiyan
italiyanın
italya
italyada
italyan
italyansha
itc
itibar
itibarg
itibarlı
itibarın
itibarına
itimal
its
ittifoqi
itu
iupac
iv
ivan
ivane
ivitib
ivitilgan
ivitma
iw
iwge
iwi
ix
ixetuan
ixetuanlar
ixtiyoriga
iy
iya
iydalarin
iye
iyedi
iyeledi
iyelegen
iyelendi
iyelenedi
iyelengen
iyelep
iyeleri
iyelerine
iyelerinen
iyelerinin
iyelew
iyelewde
iyelewge
iyelewi
iyelewine
iyeleydi
iyeleytug
iyeligi
iyelik
iyeliketti
iyelledi
iyellegen
iyelleydi
iyerarxiyalıq
iyesi
iyesileri
iyesin
iyesine
iyesinin
iyesiuz
iyesiz
iyezuit
iygilikli
iyin
iyis
iyjan
iykemlesiwi
iykemlesken
iymek
iyne
iynelikler
iyrek
iyshan
iyt
iytermelegen
iyul
iyulda
iyuldan
iyulde
iyuldiki
iyuldın
iyuliga
iyulinda
iyun
iyunda
iyunde
iyung
iyunnan
iyunında
iz
izbasqanov
izbe
izbedi
izd
izdan
izdanie
izdatel
izde
izden
izdi
izdin
izertlengen
izertleniwi
izertlep
izertlew
izertlewde
izertlewge
izertlewin
izertlewinde
izertlewler
izertlewlerdi
izertlewlerdin
izertlewleri
izertlewlerin
izertlewlerine
izertlewshi
izertlewshiler
izertlewshilerdin
izertlewshilerinin
izertlewshisi
izertleydi
izertleytug
izetbegovich
izga
izge
izi
izilar
izin
izinde
izindegi
izine
izinen
izinin
izinın
izistan
izistanda
izlegen
izleniw
izlep
izler
izlerde
izleri
izlerin
izlew
izlewge
izleydi
izli
izlig
izligi
izlik
izlikte
izrail
izshi
izshiler
izshileri
izshisi
izsiz
izstan
izuzzu
izzertlew
izzertlewler
izzet
j
ja
jaba
jabayı
jabrid
jabıladı
jabılg
jabıq
jabısqaq
jabıw
jack
jackie
jackson
jacksonms
jacob
jae
jag
jaguar
jahan
jahon
jak
jakarta
jala
jalair
jalal
jalan
jalawshılarg
jalg
jalilabad
jallang
jallanıp
jalp
jalpaq
jalpi
jalpı
jalqaw
jalqı
jalt
jalın
jalındı
jalınlı
jama
jamal
jaman
jamanlar
jamanliq
jamanlıq
jamanshıg
jambas
jambıl
james
jamiyetlik
jamoalar
jamılg
jan
jana
janapay
janapaylar
janapayları
janar
janbazona
jane
janede
janeiro
janeyro
janeyroga
jang
jangda
jangga
jangida
jani
janibekov
janilg
janlanıw
janlardın
janlı
janlıq
jannın
janr
janrda
janrdag
janrdin
janrdı
janrdın
janrg
janrlar
janrlarda
janrlardan
janrlardın
janrları
janrların
janrlarına
janrlarınan
janrlarının
janrlıq
janrı
janrın
janrında
janrının
jansız
jantaq
jantasıw
jantasıwı
january
janı
janılg
janım
janın
janına
janında
janındag
janıp
janıw
jap
japa
japalaq
japan
japanese
japaq
japaqov
japasının
japtın
japıraq
japıraqlar
japıraqları
japıraqlı
japıraqtan
japıraqtın
jaq
jaqi
jaqin
jaqinı
jaqladı
jaqlag
jaqları
jaqpas
jaqqa
jaqsi
jaqsiliq
jaqsinin
jaqsiraq
jaqsı
jaqsılap
jaqsılaw
jaqsılawg
jaqsılaydı
jaqsılıq
jaqsının
jaqsıraq
jaqsısı
jaqta
jaqtan
jaqtiliq
jaqtı
jaqtılandıriw
jaqtılıq
jaqtılıqqa
jaqtın
jaqın
jaqında
jaqınlastırıw
jaqınlasıp
jaqınlıg
jaqınnan
jaqını
jaqınında
jaqınındag
jar
jaradar
jaradarlıg
jarag
jaralang
jaralg
jaralı
jaramaydı
jaramlı
jaramsız
jaraq
jaraqat
jaraqatlang
jarasa
jarasadı
jaratadı
jaratdı
jaratilg
jaratiw
jaratqan
jarattı
jarattıharvnb
jaratws
jaratıladı
jaratıldı
jaratılg
jaratılıp
jaratılıstar
jaratılıstardı
jaratılıstarg
jaratılıwma
jaratılıwı
jaratıp
jaratıw
jaratıwda
jaratıwdan
jaratıwdı
jaratıwg
jaratıwshı
jaratıwshıları
jaratıwshısı
jarayanı
jardeminde
jariliw
jariyalag
jariyalamay
jariyalaydi
jarliliq
jarlı
jarlıg
jarlıqları
jarma
jarqın
jarshı
jarshılar
jartı
jarılg
jarılıp
jarılıw
jarılıwdı
jarıp
jarıq
jarıqqa
jarıs
jarıslar
jarıslarda
jarıslarında
jarıslarının
jarısqa
jarısta
jarıstan
jarısı
jarısında
jas
jasadi
jasadı
jasag
jasaladi
jasaladı
jasalatug
jasalg
jasalma
jasama
jasap
jasar
jasaw
jasawda
jasawdı
jasawdın
jasawg
jasawshı
jasawshılar
jasawı
jasawın
jasay
jasaydi
jasaydı
jasaytug
jasda
jasil
jasinda
jasirin
jaslar
jaslarbap
jaslardı
jaslardın
jaslarg
jasları
jaslarınan
jaslarında
jaslarının
jaslayinan
jaslayınan
jaslig
jaslı
jaslıg
jaslıgınan
jaslıq
jasnap
jasorat
jasqa
jasta
jastag
jastan
jası
jasıl
jasın
jasına
jasınan
jasında
jasırın
jasırıng
jasırınsha
jasırıp
jasırıw
jat
jatadı
jataqxanasın
jatatug
jatqan
jatqızılg
jatsa
jatıp
jatır
jatırg
java
javascript
javaxishvili
jaw
jawadi
jawadı
jawaharlal
jawg
jawin
jawinger
jawingerler
jawingerleri
jawingerlik
jawiz
jawlap
jawsa
jawza
jawın
jawınger
jawıngerlik
jawınlı
jawını
jawıp
jawız
jaxsi
jaxsı
jay
jayawardenepura
jaydın
jaydırıw
jayg
jayip
jaylag
jaylanadı
jaylar
jaylardın
jaylarg
jayları
jaylarına
jaylarının
jaylasadı
jaylasip
jaylasiwi
jaylasqan
jaylasqanharvnb
jaylasqanlıg
jaylasqanveb
jaylasqanınan
jaylastirilg
jaylastırdı
jaylastırıladı
jaylastırılg
jaylastırılıp
jaylastırıw
jaylastırıwda
jaylasıp
jaylasıw
jaylasıwg
jaylasıwı
jaylasıwın
jaylasıwına
jaylaw
jaylawdilarharvnb
jaylawdılar
jaylawlar
jaylawım
jaysha
jayı
jayıla
jayıladı
jayılg
jayılıp
jayın
jayında
jayıp
jayıq
jayıwg
jaz
jaza
jazadi
jazadı
jazalag
jazalaw
jazasi
jazasin
jazasın
jazasına
jazatug
jazba
jazbag
jazbası
jazda
jazdi
jazdı
jazdım
jazdın
jazg
jazi
jazilg
jazip
jaziw
jaziwi
jaziwinsha
jaziwshi
jaziwshilar
jaziwshisi
jazlanadi
jazsa
jazwımen
jazı
jazıla
jazıladı
jazılatug
jazıldı
jazılg
jazılmag
jazılwı
jazılıp
jazılıw
jazılıwı
jazılıwınsha
jazında
jazıp
jazıptı
jazıqsız
jazıw
jazıwda
jazıwdan
jazıwdı
jazıwdın
jazıwg
jazıwlar
jazıwlardı
jazıwları
jazıwlı
jazıwshı
jazıwshılar
jazıwshıları
jazıwshılarının
jazıwshılıq
jazıwshının
jazıwshısı
jazıwı
jazıwın
jazıwına
jazıwında
jazıwındag
jazıwınsha
jbu
jcedc
jd
jdan
jde
jdk
je
jean
jeddi
jedel
jeep
jeff
jegde
jegen
jek
jeke
jekelestiriw
jekennen
jekke
jekki
jekson
jel
jelerinin
jeli
jeliwshi
jelke
jem
jemiriliw
jemiriliwi
jemisi
jemisli
jemtigin
jen
jeneva
jenil
jenisbek
jenkins
jep
jepti
jer
jerais
jerda
jerde
jerdegi
jerden
jerdi
jerdin
jerge
jergilikli
jergilikti
jeri
jerigi
jerik
jerin
jerinde
jerindegi
jerine
jerinen
jerinin
jerlegen
jerlenedi
jerlengen
jerler
jerlerde
jerlerdegi
jerlerden
jerlerdi
jerlerdin
jerlerdın
jerlerge
jerleri
jerlerin
jerlerinde
jerlerine
jerlerinen
jerlerinin
jerlesimiz
jerleslik
jerlew
jerli
jersey
jese
jesi
jesus
jet
jete
jetedi
jeteklep
jetekshi
jetekshileri
jetekshilik
jetekshisi
jeterli
jetetug
jeti
jetiasar
jetik
jetilgen
jetilisip
jetilisiwine
jetilisken
jetilistirilip
jetilistiriw
jetim
jetinshi
jetip
jetisip
jetiskenligi
jetiskenlik
jetiskenliklerge
jetiskenlikleri
jetiskenliklerin
jetiskenliklerinen
jetispewshiligi
jetispewshilik
jetistiredi
jetistirgen
jetistirilgen
jetistiriw
jetisuw
jetiw
jetiwi
jetiwine
jetken
jetkengodinho
jetkeredi
jetkeriledi
jetkerip
jetkeriw
jetkezdi
jetkezip
jetkilikli
jetkinshek
jetkiziledi
jetkizip
jetkiziw
jetpey
jetpeydi
jetpis
jetpista
jetschgo
jetse
jetti
jetw
jew
jewge
jeydi
jeylo
jeyms
jez
jezde
jgfnbkhg
ji
jib
jiberdi
jiberdiharvnb
jiberdiler
jiberedi
jiberetug
jiberganlaridan
jibergen
jiberildi
jiberildiharvnb
jiberildiyangiliklar
jiberiledi
jiberiletug
jiberilganida
jiberilgen
jiberip
jiberiw
jiberiwge
jiberiwi
jig
jigerli
jigirma
jigirmadan
jigirmalanshı
jigit
jigitke
jigitler
jigitlerdi
jigitlerdin
jigitleri
jigitti
jigittin
jihatdan
jik
jikistan
jikistanda
jikstan
jil
jild
jilda
jildag
jildan
jilde
jildin
jildın
jilg
jilga
jilgi
jili
jilidag
jilik
jilina
jilinda
jilisi
jillar
jillarda
jillardag
jillardan
jillari
jilları
jilliq
jilliqtin
jim
jimge
jimi
jimler
jimleri
jimlerin
jimlerine
jimmy
jimny
jimuratov
jin
jinisiy
jiniyaz
jiniyazdın
jintao
jio
jip
jipek
jipekten
jipten
jiriybe
jiriybege
jiriybeler
jiriybeleri
jiriybeli
jiriybesi
jiriybesin
jiriybesinde
jirobankler
jisim
jismoniy
jitov
jitovtın
jivopis
jiwan
jiyar
jiyde
jiydeli
jiyek
jiyeklengen
jiyemurat
jiyen
jiyenbay
jiyendi
jiyenge
jiyeni
jiyennin
jiyi
jiyini
jiynaw
jiyrenshe
jizn
jizzaq
jizzax
jizzaxta
jj
jjet
jjeti
jjetke
jjetler
jjetlerde
jjetlerdi
jjetleri
jjetlerin
jjetlerinde
jjetli
jjetlilik
jjetti
jjettin
jk
jkg
jmo
jnu
jo
joa
joao
joba
jobalar
jobaları
jobaların
jobalastırılg
jobası
jobs
jofre
jog
johann
johannes
johansens
john
join
joint
jokovich
jol
jola
jolaq
jolawshi
jolawshı
jolawshılar
jolbarıs
jolda
joldan
joldas
joldasları
joldası
joldasın
joldasının
joldı
joldın
jolg
joli
jolie
jolin
jolinda
jolla
jollanba
jollanbanı
jollanbasın
jollar
jollarda
jollardan
jollardi
jollardı
jollardın
jollarg
jollari
jolları
jolların
jollarına
jollarında
jollarınin
jollarının
jolmurza
jolı
jolın
jolına
jolınan
jolında
jolındag
jolının
jomartlıq
jomartqan
jome
jon
jonas
jonava
jones
jons
joq
joqarg
joqari
joqarida
joqarı
joqarıda
joqarıdag
joqarıdan
joqarıg
joqarılaw
joqarılıg
joqarısı
joqarısına
joqarısınan
joqdur
joqlaw
joqlıg
joqotgani
joqqa
joqtıg
jorg
jorge
jorj
jose
joseph
joshı
journal
journalism
journals
jovanni
joy
joybar
joybardın
joybarlar
joybarları
joybarlarınan
joybarlastırılg
joybarlawtirayotgani
joybarlawtirdilar
joybarı
joylashtirildi
jozef
jp
jpeg
jpg
jpn
jqb
jr
jre
js
jstor
ju
juan
jubatıw
jubay
jubaylarg
juda
jug
juk
juldiz
juldizlar
julduz
juldız
juldızdı
juldızdın
juldızi
juldızl
juldızlar
juldızlardın
juldızlarg
juldızları
juldızlarına
juldızlı
juldızsha
juldızı
juldızım
julia
julius
july
juma
jumag
jumamuratov
jumanazarov
jumaniyazov
jumbaq
jumbaqlar
jumis
jumisi
jumisqa
jumisshi
jumisshilar
jumissizliq
jumissizliqtin
jumsaladı
jumsalatug
jumsaq
jumsaqlıg
jumsawı
jumıs
jumıslar
jumıslardı
jumısları
jumısların
jumıslarına
jumıslarında
jumıslarının
jumısqa
jumısshı
jumısshılar
jumısshısı
jumıstan
jumıstı
jumıstın
jumısı
jumısın
jumısına
jumısında
jumısının
june
jung
junior
jup
juplasi
juplıq
jupqa
juqa
juqpalı
jur
jurek
jurer
juretug
jurgen
juriwshi
jurnal
jurnalda
jurnali
jurnalist
jurnalisti
jurnalistika
jurnalistikag
jurnalistikanın
jurnalistikası
jurnalistler
jurnalistlerge
jurnalistlik
jurnalisttin
jurnallar
jurnallarda
jurnallarında
jurnalı
jurnalında
jurnalının
jurt
jurtqa
jurttın
jurtı
jurtın
jurtına
jurtınan
jurtında
justin
juvenile
juventus
juwabı
juwabın
juwan
juwap
juwapan
juwapker
juwapkerlik
juwapkerlikti
juwapkershilik
juwapkershilikti
juwaplar
juwaplı
juwaptan
juwmag
juwmaq
juwmaqladi
juwmaqladı
juwmaqlag
juwmaqlanadı
juwmaqlanbag
juwmaqlandi
juwmaqlang
juwmaqlap
juwmaqlawshı
juwmaqqa
juwsan
juwıladı
juwılg
juwılıp
juwınıw
juwıp
juwırg
juwırıp
juwırıw
juwıw
juzege
juzi
juzlik
jvm
jıg
jıl
jılan
jılanlar
jılap
jılaydı
jıld
jılda
jıldag
jıldam
jıldan
jılde
jıldin
jıldı
jıldın
jıldırım
jılferdinand
jılg
jılga
jılgacha
jılgan
jılge
jılgi
jıli
jıljıdı
jıljıytug
jıll
jılla
jıllar
jıllarda
jıllardag
jıllardan
jıllardın
jıllarg
jıllarga
jıllari
jılları
jıllarına
jıllarınan
jıllarında
jıllarındag
jıllarının
jıllda
jılldan
jıllik
jıllı
jıllıg
jıllılıq
jıllına
jıllıq
jıllıqta
jıllıqtın
jılnamalarında
jılqı
jılt
jılı
jılına
jılınan
jılında
jılısıwı
jın
jınayat
jınayatlardı
jınayatshılıq
jınayatshılıqqa
jınayatshılıqtı
jınayatshılıqtın
jınayatshının
jınayattın
jınsı
jınıs
jınıslar
jınısları
jınıslarının
jınıslı
jınıssız
jıqqan
jır
jıraw
jırawdan
jırawdın
jırawlar
jırawları
jırawlarının
jırawı
jırlag
jırlanadı
jırlar
jırları
jırların
jırlarının
jırlaw
jırlawg
jırlaydı
jırshısı
jırtqısh
jırtqıshlar
jırı
jıyekli
jıynadı
jıynag
jıynaladı
jıynaldı
jıynalg
jıynalıp
jıynalısta
jıynalısı
jıynalısında
jıynang
jıynap
jıynaq
jıynaqlarda
jıynaqları
jıynaqtın
jıynaw
jıynawg
jıynaydı
jıyındısı
jıyıntıg
jıyını
k
ka
kaba
kabardino
kabel
kabineti
kabo
kabral
kabriolet
kabul
kadrlar
kadrlardı
kafe
kafedra
kafedrası
kafedrasın
kafedrasında
kafedrasının
kahraman
kair
kak
kakao
kakauridze
kaklik
kala
kaldash
kale
kaledoniya
kalendar
kalendarı
kalendarında
kali
kaliforniya
kalikutga
kalimantan
kalinin
kaliningrad
kaltsiy
kalvinistlari
kamal
kamalov
kambag
kambodja
kamen
kamera
kamerag
kameraları
kamerası
kamerun
kamilleri
kampala
kampaniyası
kampuchea
kan
kanada
kanadada
kanadag
kanadalıq
kanadanın
kanal
kanaldın
kanallar
kanallardı
kanallarg
kanalları
kanalshalar
kanalı
kanalına
kanalının
kananga
kanberra
kancler
kancleri
kand
kandidat
kandidati
kandidatin
kandidatlıq
kandidatı
kang
kanlar
kanları
kann
kanoe
kant
kanton
kanttin
kanı
kanına
kanında
kao
kapellasında
kapillyarlar
kapital
kapitaldı
kapitaldın
kapitali
kapitalistlik
kapitalizmnin
kapitalı
kapitalın
kapitalının
kapitan
kapitanı
kapitel
kapsula
kapsulasi
kapusta
kapı
kar
karakalpak
karakalpakiya
karakalpaks
karakalpakskiy
karakalpakskom
karakalpakskoy
karakalpakstan
karakalpakstana
karakas
karam
karargaxlari
karargaxlarina
karavellaning
karavellarga
karaxanidler
karbon
karbonat
kardariy
kareliya
kareya
kargan
karib
karim
karimov
karimovtın
karinform
karl
karloman
karlos
karluklar
karmana
karnelian
karolin
karolina
karolus
karst
karta
kartada
kartag
kartalar
kartalarda
kartalardan
kartalardı
kartalardın
kartalarg
kartaları
kartasi
kartası
kartasında
kartaz
karte
karter
kartinalar
kartnama
kartochka
kartografiya
kartoshka
karving
karxanasi
karyerasi
karyerası
kasai
kasansay
kasb
kasip
kaspiy
kaspiyge
kastiliya
katalan
katalog
kataloniya
katarina
katarxey
kategoriya
kategoriyası
kategoriyasına
katekana
katexinlar
kathmandu
katolik
katot
katta
kattaqo
katya
kauchuk
kaunas
kaur
kavkaz
kavkazda
kavkazdag
kavkazg
kavlab
kayenna
kaynozoy
kazakhstan
kazakstankyrgyzs
kazan
kazaxstan
kazaxstandın
kdo
ke
kegeyli
kegeylinin
keklik
kel
kelbetin
kelbetlik
keldi
keldiharvnb
keldikitob
keldiler
keldilerharvnb
keldim
kele
keledi
kelemiz
keler
keleshegi
keleshegine
keleshek
keleshekke
keleshekte
keleshektegi
kelesi
keletug
kelgen
kelgende
kelgenharvnb
kelgenin
kelgenine
kelgenler
kelgenligi
kelgennen
kelib
kelige
kelin
kelinbekte
kelindi
kelinedi
kelinge
kelingen
kelini
kelininin
kelinip
kelinler
kelinnin
kelinshek
kelinshekke
kelinshekler
kelip
kelisilgen
kelisim
kelisimi
kelisimine
kelisimler
kelisimleri
kelisip
kelisiwi
kelisiwler
kelisiwshilik
kelisken
kelispewshilik
kelispewshilikler
keliw
keliwden
keliwdi
keliwge
keliwgen
keliwi
keliwin
keliwine
keliwinen
keliwinin
keliwshi
kelmegen
kelmekte
kelmes
kelmese
kelmesten
kelmewi
kelmeydi
kelse
kelspewshilik
kelt
kelte
keltirdi
keltiredi
keltiremiz
keltirgen
keltirildi
keltiriledi
keltirilgen
keltirip
keltiriw
keltiriwge
keltiriwi
keltiriwshi
keltirw
kelıp
kem
kemal
kemasini
kembridj
kembriy
kembriyaldı
kemde
keme
kemede
kemeler
kemelerge
kemeleri
kemelerin
kemelerinde
kemelerindegi
kemelerine
kemelerinin
kemenin
kemesazlıq
kemesi
kemesine
kemesinin
kemeydi
kemeyedi
kemeyip
kemeytiw
keminde
kemiriwshiler
kemiriwshilerden
kemis
kemnen
kempir
kemrek
kems
kemshilik
kemshilikler
kemshiliklerdi
kemshilikleri
ken
keneges
kenes
kenigsberg
keniya
kennet
kenshek
kenshilik
kent
kenti
kenya
kepilligi
kepillik
kepillikli
kepkir
keprende
kepshe
kepter
keptiriledi
kepulauan
ker
kerala
keralatourism
keramika
kerder
kerderler
kerege
keregi
keregishe
kerek
kerekli
kerekligi
kerekligin
kerekligini
kereksen
kereksiz
keri
kerilip
keriliwshenligi
kerisinshe
kernig
kerr
kes
kese
kesek
kesel
keselligi
keselliginde
keselliginin
kesellik
kesellikler
keselliklerdi
keselliklerdin
kesellikleri
keselliklerin
keselliklerinde
keselliktin
kesent
kesesine
kesewo
kesh
keshe
keshedi
keship
keshirdi
keshiredi
keshirgen
keshirip
keshiriw
keshirmeleri
keshiwdi
keshke
keshken
keshki
keshlew
keshte
keshti
kesi
kesiledi
kesilgen
kesilisken
kesimi
kesin
kesinen
kesinin
kesip
kesirtke
kesirtkeler
kesirtkenin
kesiw
keskin
kespe
keste
kestege
kestelengen
kestesi
kestesinde
kesı
ket
kete
ketedi
ketekke
keter
ketermen
ketetug
ketib
ketip
ketipti
ketiw
ketiwden
ketiwge
ketiwgen
ketiwi
ketiwin
ketiwine
ketiwinen
ketken
ketkende
ketkendiharvnb
ketkeninde
ketkeninen
ketkenligin
ketkenlikten
ketkennen
ketmay
ketpey
ketpeydi
ketrin
ketse
ketsen
ketti
kettilarharvnb
kevin
kevinnin
kewil
kewilashar
kewildegi
kewilden
kewilge
kewilli
kewip
kewli
kewlim
kewlin
kewlinen
key
keyin
keyinde
keying
keyinge
keyingi
keyingisi
keyininen
keyinirek
keyinlew
keyinshelik
keynen
keyninde
keynine
keyp
keypni
keyptaun
keyptaunge
kez
kezde
kezen
kg
khorezm
ki
kia
kib
kibi
kidaritler
kiev
kigali
kige
kikvit
kil
kildi
kili
killer
killeri
killerin
killerine
killerinen
killerinin
killigi
killik
killikleri
kilogramm
kilogrammg
kilogrammnan
kilometr
kilometrdi
kilometrge
kilxanaları
kilxanası
kim
kimdar
kimdarlar
kimdarlıg
kimdarı
kimde
kimdi
kimdir
kimet
kimeti
kimetin
kimetine
kimetinin
kimetke
kimetler
kimetlik
kimetten
kimetti
kimettin
kimge
kimi
kimiyat
kimiyati
kimiyatqa
kimiyattı
kimiyattın
kimiyatı
kimiyatın
kimler
kimleri
kimlerinin
kimligin
kimlik
kimnin
kimran
kimranlıg
kimranlıq
kimsenin
kimshiligi
kimshilik
kimyat
kimyo
kimyoviy
kinematika
kinematografiya
kineskop
kinetika
king
kingston
kino
kinofilm
kinofilmler
kinofilmnin
kinoteatr
kinoteatrg
kinshasa
kinshasada
kinshasadagi
kionga
kiongadan
kipchoge
kipling
kipr
kiprdi
kiprdin
kir
kira
kirar
kirarlanatug
kirarlanbas
kirarlang
kirarlanıp
kirarlanıwı
kiraverishdagi
kirdi
kirdiarchivedate
kire
kiredi
kiredı
kirek
kirektin
kiretin
kiretug
kireyge
kirg
kirgen
kirgenin
kirgizdi
kirgizdijan
kirgizdiveb
kirgizdiyangiliklar
kirgize
kirgizedi
kirgizgen
kirgizildi
kirgizilgen
kirgizip
kirgiziw
kirgiziwde
kirgiziwge
kirgiziwin
kirgizstan
kiribati
kiril
kirilde
kirill
kirimi
kirip
kiripke
kiriptin
kiris
kirisedi
kirish
kirisiw
kirisiwden
kirisiwinde
kiristi
kirita
kiritedi
kiritiledi
kiritilgan
kiritilgen
kiritilgennen
kiritiliwi
kiritip
kiritiw
kiritiwge
kiritken
kiritpegen
kiriw
kiriwi
kiriwin
kiriwshi
kirkal
kirov
kirpikli
kirpiksheler
kirt
kirti
kirtlerinin
kiryakov
kis
kisangani
kishi
kishigirim
kishilew
kishiligine
kishipeyillik
kishirek
kishkene
kisi
kisiden
kisiler
kisinin
kiske
kislorod
kislota
kislotalar
kislotası
kiss
kistan
kiste
kistegi
kisten
kitab
kitabi
kitabinda
kitabı
kitabın
kitabına
kitabında
kitabının
kitap
kitaplar
kitaplardı
kitaplardın
kitaplarin
kitapları
kitapların
kitaplarında
kitapqa
kitapta
kitaptag
kitaptan
kitaptı
kitaptın
kitapxana
kitapxanag
kitapxanalar
kitapxanasi
kitapxanası
kitapxanasında
kitapı
kitay
kitayda
kitaydın
kitob
kits
kitts
kivu
kiyatır
kiyatırg
kiyatırıp
kiyetug
kiyev
kiygen
kiyik
kiyiletug
kiyim
kiyimi
kiyimler
kiyimlerdi
kiyimleri
kiyimlerin
kiyimlerinin
kiyip
kiyiw
kiyiz
kiymeshek
kjp
kk
kke
kkreporter
kl
klapanlar
klasika
klaslarda
klasqa
klass
klassifikaciyalang
klassik
klassikalıq
klassikaning
klassikleri
klasslar
klassları
klasslarında
klassqa
klası
klasına
klasında
klaus
klement
klen
klengen
klennin
kleopatra
kleopatraning
klep
kler
kletka
kletkada
kletkadan
kletkalan
kletkalar
kletkalardan
kletkalardın
kletkalarg
kletkalari
kletkaları
kletkalarınan
kletkalarının
kletkalı
kletkalılar
kletkalılardın
kletkanın
kletkasi
kletkasında
klew
kli
klient
klientler
klientlerge
klienttin
klim
klima
klimat
klimati
klimatqa
klimatı
klin
klinika
klinikalıq
klinikasi
klippan
klonik
klub
klubas
klubdın
klubg
klubi
klubinda
klubinin
klublar
klublardın
klublari
klublarinin
klubları
klublarının
klubqa
klubtag
klubtın
klubı
klubına
klubında
klubının
km
kmagan
kmet
knickerbockers
kniga
knin
know
knyaz
ko
koaksiyal
kobinese
kobinshe
kod
koda
kodeks
kodeksi
kodeksinin
kodekske
kodi
kodiaq
kodifikatsiyalang
kodlar
kodları
kodlaw
kodı
kodın
koeffiytsiyenti
kofe
koffi
kognitiv
kogyo
kojurov
kok
kolibri
kollam
kollaterallar
kolledj
kolledjda
kolledji
kolledjine
kolledjleri
kolledjlerinin
kollektiv
kollektor
kolodka
kolombo
koloniallıq
koloniya
koloniyag
koloniyalar
koloniyalardın
koloniyalarg
koloniyalarini
koloniyaları
koloniyaların
koloniyalarınan
koloniyalarının
koloniyalıq
koloniyanı
koloniyanın
koloniyası
koloniyasına
kolonizatorlar
kolonizatorlarg
kolonizatorları
kolonizatorlik
kolonizatorlikke
kolonizatorliktin
kolonizatorlıg
kolorado
kolumb
kolumbiya
kolumbiyalıq
kolxoz
kolxozdın
kolxozında
koma
komand
komanda
komandag
komandalar
komandalarda
komandalardı
komandaları
komandalıq
komandanı
komandasi
komandasina
komandasinda
komandası
komandasına
komandasında
komandasının
komandiri
komandirligi
komandirligidegi
kombinatı
komediya
komediyashı
komediyasi
komediyası
komediyasında
kometa
komissari
komissiya
komissiyalar
komissiyasi
komissiyası
komitet
komiteti
komitetinde
komitetinin
komitetleri
komitettin
kommercialliq
kommerciya
kommerciyalıq
kommersant
kommertsiyalıq
kommuna
kommunikaciya
kommunikatsiya
kommunist
kommunistlar
kommunistlari
kommunistlik
kommunizm
komor
kompaniya
kompaniyag
kompaniyalar
kompaniyalardın
kompaniyalari
kompaniyalarida
kompaniyalarina
kompaniyaları
kompaniyalarının
kompaniyanin
kompaniyanı
kompaniyanın
kompaniyasi
kompaniyasinin
kompaniyası
kompaniyasın
kompaniyasına
kompaniyasınan
kompaniyasında
kompaniyasının
kompanya
kompanyalardin
kompartiyasi
kompensatsiya
kompesaciya
kompleks
kompleksi
kompleksin
kompleksine
kompleksinin
kompleksler
komplekslerinin
kompleksli
komponent
komponenti
komponentleri
kompoziciya
kompozitor
kompozitorlar
kompozitorları
kompozitorlıq
kompozitorı
kompozitsiyalıq
kompozitsiyasın
kompyuter
kompyuterde
kompyuterdin
kompyuterge
kompyuterler
kompyuterleri
komsomol
komsomolları
kon
konfederasiyalar
konfederatsiyasi
konferenciya
konferenciyası
konferenciyasında
konferensiya
konfet
konflikt
konfliktler
konfrenciyada
konfrensiyasida
kong
kongo
kongress
kongressi
kongressinde
koni
konkret
konsensus
konsepsiyası
konsert
konserva
konservatoriyasının
konsolidatsiya
konstantin
konstituciya
konstituciyalıq
konstituciyası
konstitusiyasına
konstitutsiya
konstruksiyaları
konstruktiv
konstruktorlar
konsul
kontent
kontentni
kontinent
kontinental
kontinentallı
kontinenti
kontinentinde
kontinentindegi
kontinentinin
kontinentler
kontinentleri
kontinenttin
kontrabandasining
kontrakt
kontseptsiyası
konus
konvenciya
konvent
konventsiya
konventsiyada
konventsiyag
konvertatsiyalanatug
konveyerde
konya
koordinatalar
koordinatsiya
kop
kopengagen
kopernik
kopshilik
kor
kora
korea
korealıq
koreya
koreyada
koreyani
koreyanın
koreys
korgen
koridor
korinf
koroli
korollıg
korollıq
korollıqtı
korolı
koror
korporativ
korporatsiya
korporatsiyalar
korporatsiyalardın
korporatsiyanın
korporatsiyasi
korporatsiyası
korpus
korshinskyi
kort
kortesleri
kos
kosmik
kosmikaliq
kosmos
kosmosda
kosmoslıq
kosmosqa
kosovo
kosta
kostava
kot
kotte
kovatok
kovatokni
kovilha
kovlab
kovshlı
koylek
koyıladı
koza
kp
kpe
kpeden
kpelegen
kpelep
kpeler
kpesi
kpss
kr
krajina
krakov
kran
krase
krasnodar
krasnoyarsk
krater
kratoska
kraus
kredit
kreditlik
kreditor
kreol
kriminologiya
krishtianu
kristian
krit
kriteryalarg
kritik
kritika
kritikalıq
krizis
krizisa
krizisi
kriziske
krizisqa
krizistan
krokodil
krossga
krossover
krossoverini
krossoverlar
ks
kshiyel
ksip
ksiz
ksra
ktas
kte
ktew
kti
ktin
ktirdi
ku
kuala
kub
kuba
kubik
kubogi
kubogin
kubogina
kubogı
kubogın
kubogına
kubogında
kubogının
kubometr
kuk
kumanan
kumul
kun
kunde
kunga
kungacha
kunge
kuni
kunine
kunxoja
kunya
kupasi
kupe
kupros
kurash
kurd
kure
kurortı
kurs
kurslar
kursı
kursın
kusheyip
kusheytiwine
kushi
kushine
kushli
kushonlar
kutaisi
kuveyt
kuwait
kuxendiz
kuzestan
kuzida
kuznetsov
kuzov
kv
kvadrat
kvadrillion
kvant
kvartal
kvartalda
kvartalinda
kvartalindag
kvartirasi
kvartirası
kvasiny
kvt
kwa
kxdr
kyiv
kyoto
kyuri
kz
kı
l
la
lab
label
laborant
laboratoriya
laboratoriyasında
labrador
lach
lacuna
lada
ladi
ladilar
ladle
lady
ladı
lag
laga
lagi
lak
lal
lala
lalshılıq
lamalı
lamaydı
lan
lanadi
lanadı
land
landau
landmarks
landshaft
landshaftlar
lang
langan
language
languages
lanib
lanka
lankadagi
lantau
lanıp
lanıw
lanıwda
lao
laos
lap
lapsan
laq
laqabı
laqap
laqapı
laqqa
laqqı
lar
lara
larda
lardan
lardi
lardı
lardın
larg
large
largest
lari
laridan
larining
larni
larouche
ları
ların
larına
larında
larının
las
laser
last
lası
lat
latadi
latadı
lateral
latest
lati
latin
latpa
latpalanadı
latpasın
latqan
latug
latvijas
latviya
latın
latınnın
latınsha
latıw
latıwshı
laun
laureati
laureatı
laurin
lava
lavas
lavrador
lavraziya
law
lawaziminda
lawazımlarda
lawazımların
lawazımlarında
lawazımlı
lawazımı
lawazımın
lawazımına
lawazımınan
lawazımında
lawda
lawlarda
lawshı
lawshılar
lawshılardı
lawshılarg
lawshısı
lawı
lawında
lawının
laxim
lay
layat
layatdın
layati
layatin
layatinda
layatinin
layatlar
layatlarda
layatlari
layatlarinan
layatları
layatların
layatlarında
layatqa
layattın
layatı
layatın
layatına
layatınan
layatında
layatındag
layatının
laydı
laydın
layg
laymız
layouts
laysha
laytug
lazer
lazhaber
lazım
lbent
lbette
lbil
lbu
ld
lda
ldallıq
lde
ldegi
lden
ldey
ldi
ldin
ldir
ldirgi
ldirsin
ldı
le
lead
league
lebap
led
ledi
lee
leeds
left
legen
legendalar
legendaları
legeninen
legi
legin
legind
leginde
legindegi
legindegı
legine
leginen
leginin
legınde
lek
lekan
lekciyası
lekin
lekke
leklegen
leklengen
leklenip
lekleniw
lekleniwi
lekler
leklerdin
leklerge
lekleri
leklerin
leklerinde
leklerinen
leklerinin
lekshe
leksheler
leksheleri
leksika
leksikalıq
leksikologiya
leksikologiyası
lekten
lektin
lektor
lel
lem
lemans
lemde
lemdegi
lemdi
leme
lemeler
lemge
lemi
lemin
leminde
lemindegi
lemine
leminen
leminin
lemler
lemlerdi
lemlerdin
lemli
lemnen
lemnin
lemos
lempir
lemut
len
lenedi
lenetug
lengen
lenin
leningrad
leningradda
leningradti
leninnin
leninshi
lennon
lense
lent
lenta
lentligi
lentlik
lentlikde
lentlikke
lentlikte
leo
leonard
leonardo
leone
leonega
leonel
leopold
leopoldina
lep
lepbergen
lepesov
lepidota
ler
lerde
lerden
lerdi
lerdin
lerge
leri
lerin
lerinde
lerindegi
lerine
lermontov
lermontovtın
les
lese
lesen
lesi
lesin
lesine
leske
lesleri
lesli
lesoto
leste
lestirilgen
lestiriw
let
leupp
lev
levante
levine
lew
lewdi
lewge
lewi
lewin
lewleri
lews
lewshi
lewshinin
lex
lexington
leybovic
leydi
leyland
leytenant
leytug
lfc
lg
lgach
lgan
lge
lgen
lgenler
lgenligin
lgennen
lgenshe
lgi
lgiler
lgileri
lgilerin
lgili
lginshilikke
lgisi
lgisin
lgisinde
li
lia
lib
liberal
liberiya
library
libretto
librevil
licenziya
licenziyalandırıw
licey
lichinkaları
lichinkalı
lichinkası
lider
liderlari
lietuva
life
lig
liga
ligada
ligalarının
ligasi
ligası
ligasında
ligasının
light
ligi
ligin
lik
likasi
like
likke
likler
liklerge
likleri
likte
likterden
liktin
lil
lili
lillengen
lillep
liller
lillerdin
lillew
lim
lima
limde
limdin
limge
limi
limin
liminde
limindegi
limine
liminen
liminin
limited
limiy
limleme
limlemeni
limler
limlerden
limlerdi
limlerge
limleri
limlerin
limlerinde
limlerine
limlerinen
limlerinin
limli
limnen
limnin
limon
limpazlar
limshesi
lin
linate
linbeydi
linde
lindi
lindileri
lindl
line
linedi
linedı
linegrey
lingen
lingua
linguistics
lingva
lingvistika
lingvistikalıq
linin
linip
liniw
liniwi
liniwin
liniwinde
liniyalari
liniyasi
liniyasida
liniyasini
link
linkin
linkoln
linux
linyalarin
lionel
lip
lipbe
lipbede
lipbedegi
lipbege
lipbeni
lipbesi
lipbesin
lipbesinde
lipbesindegi
lipbesine
lipbesinen
lipbesinin
lipin
liplese
liplesedi
liplesip
liplesiw
liplesiwi
liplesiwinde
liplesiwine
liplesken
lipleskenligin
liplesti
liplestiriw
liplestiriwde
liq
liquidity
lirik
lirika
lirikalıq
lirizm
liro
lisa
lisboa
lish
lisi
lisip
lissabon
lissabonda
lissabondagi
lissabonde
lissabonden
lissabonga
lissabonni
list
listan
listanlıg
listanlıq
liste
listiriliwi
listiriw
listiriwdi
listiriwge
listiriwi
listiriwleri
lisulıw
literatura
litosfera
litota
litr
litrli
litsenzion
litsenziyalaw
litseyler
litseylerı
litva
litvanin
livan
live
livejournal
liverpool
liverpul
living
liviya
liw
liwge
liwi
liwlab
liwlaydilar
liwmat
liwmatlar
liwmatlarg
liwshi
lixtenshteyn
liy
liyma
liymat
liymatları
liymatı
liymatın
liymatına
liymatının
liysher
liz
liza
lj
ljan
lk
lke
lkek
lkekler
lkeler
lkelerde
lkelerden
lkeleri
lkem
lkemdin
lkemge
lkemi
lkeminin
lkemizde
lkemizdegi
lkemler
lkemlerde
lkemlerdin
lkemleri
lkemlerin
lkemlerinen
lkemlerinin
lkemlesken
lkemlestiredi
lkemlestirgen
lkemlestirgeni
lkemlestirildi
lkemlestiriledi
lkemlestirilgen
lkemlestirilip
lkemlestiriliwi
lkemlestiriw
lkemlestiriwde
lkemlestiriwdin
lkemlestiriwge
lkemlestiriwshi
lkemlestiriwshisi
lkemnin
lken
lkeni
lkenin
lkenirek
lkenler
lkenlerdin
lkenlerge
lkenleri
lkenlew
lkenligi
lkenliginde
lkennen
lkenın
lkese
lkesi
lkesinde
lkesinin
lkesı
lketanıw
lketanıwlıq
lkeyip
lki
lkiler
lkili
lkim
lkin
lkine
lkinin
lkishek
lkke
lklik
lkshilik
lkti
lktin
ll
llanbalar
llaneros
llari
lle
llegen
llep
lleqashan
ller
llerde
llerdi
llerdin
lleri
llerinde
lleydi
lli
llibek
llik
lliler
lliyar
lloyd
lloyds
lm
lma
lmalar
lmalarning
lmb
lme
lmeleri
lmenin
lmes
lmesi
lmo
lmurat
lnara
lni
lo
loai
lobez
lobi
lobiya
lobus
lobıya
lobıyalı
local
location
lochisi
loco
log
logika
logikalıq
logo
logolari
logos
logotipi
lokal
lokomotiv
lomonosov
london
londonda
londondag
londonnan
londonnin
lonely
long
longrid
lopes
lopo
lopuxin
lord
lordi
lorens
lorenzo
los
lost
lot
lotin
louis
louvre
love
lpeshlep
lpg
lqar
lqorg
lren
ls
lshem
lshemdegi
lshemi
lshemleri
lshemlerin
lshemlerinin
lshemli
lshenedi
lsheri
lsherlengen
lshew
lsheytug
lsiz
lt
ltd
ltirdi
ltirdiler
ltiredi
ltiretin
ltirildi
ltiriledi
ltirilgen
ltirilishini
ltirip
ltiriw
ltiriwge
ltorres
ltskog
lu
luanda
lubumbashi
ludacris
lug
lui
luidji
luis
luisning
luka
lukas
lum
lumatlar
lumatlarg
lumatlarina
lumpur
lumumba
lunacharskiy
lusaka
luso
luvr
luvrda
luxury
lv
lwidag
ly
lyan
lyga
lynk
lyublyana
lyudovik
lyuksemburg
lyusiya
lziyba
lı
lıdı
lıg
lında
lınıp
lıp
lıq
lıqqa
lıqta
lıqtan
lıqtı
lıw
lıwmat
lıwmatlar
lıwmatlarda
lıwmatlardan
lıwmatlardi
lıwmatlardı
lıwmatlardın
lıwmatlarg
lıwmatları
lıwmatların
lıwmatlarına
lıwmatlarınan
lıwmatlı
lıwmatqa
lıwmattı
lıwmatı
lıwmatına
m
ma
maanyan
mac
macao
macau
macedonica
macintosh
macmillan
madagascar
madagasikara
madagaskar
madagaskarda
madagaskardag
madagaskardın
madaniyat
made
madeniy
madeniyat
madeniyatı
madeyra
madeyrada
madina
madison
madjah
madonna
madonnası
madrid
maestre
mag
magazine
magaziner
magellan
magia
magical
magistr
magistral
magistratura
magnit
magnus
mahal
mahayana
mahmud
mahmudov
mahoney
mahqalalarinin
mail
main
maiwsım
maiwsımında
majar
majlis
majungasaurinae
makao
makaode
makaodın
makaonı
makedon
makedoniya
makedonskiy
makes
makhachkala
makhsus
makkah
makroekonomikalıq
makroskopik
maks
maksimal
mal
malabo
maladec
malag
malagasi
malagasy
malakka
malavi
malay
malayziya
maldiv
maldives
maldı
maldın
male
malekandathil
malg
malgash
mali
malibu
malika
malikasi
mallar
mallardı
mallardın
malları
malov
malpensa
malta
maluku
malum
malı
malın
maman
mamanlıg
mamanlıqtag
mamleket
mamleketinin
mamleketler
mamleketlerdin
mamleketleri
mamleketlik
mamlekettin
mamluk
mamluklar
mamıq
man
management
manama
manat
manax
manbasi
manchester
manda
mandarin
mandatqa
mandela
manduning
manevr
mang
manga
manhattan
manila
manje
manjur
manjurlar
manjurlardın
manlang
manlanıp
manning
mannoia
mans
mansur
mansız
manuel
manufacturing
manufaktura
manufakturasi
manxetten
mao
map
maplandia
maps
maqal
maqala
maqalada
maqalag
maqalalar
maqalaları
maqalanı
maqalası
maqalasında
maqallar
maqbarasi
maqluq
maqset
maqseti
maqsetin
maqsetinde
maqsetine
maqsetke
maqsetler
maqsetlerde
maqsetlerdi
maqsetleri
maqsetlerin
maqsetlerinde
maqsetlerine
maqsetlerinen
maqsetlerinin
maqsetli
maqsetov
maqsette
maqtanısh
maqtap
maqtaw
maqtaydı
maqtumqulı
maqul
maqullaw
marafon
maranello
marat
marathon
marauder
marc
marcel
march
marco
marduk
marg
margaret
margo
margolt
margus
marguzar
marhum
mari
maria
mariana
maribor
marie
marina
marino
mario
mariya
marjan
marjorie
mark
markalı
markası
marketing
markets
markionne
markionni
marko
marks
marksizm
marley
marmar
marokashdagi
marokko
maromokotro
marques
marr
mars
marsel
marshall
marshrut
marshrutlı
mart
marta
martda
marte
martha
martin
martov
martta
marttan
martım
martında
marumukutru
mary
mas
maselen
maseru
mashaqatlı
mashina
mashinalar
mashinalardi
mashinalardı
mashinalardın
mashinalari
mashinaları
mashinaların
mashinalarında
mashinanı
mashinasazlik
mashinasazlıq
mashinasi
mashinasin
mashinasozlik
mashinası
mashinasına
mashqala
mashqalalar
mashqalalardi
mashqalalardı
mashqalalarg
mashqalaları
mashqalalarına
mashqalalı
mashqalani
mashqalanı
mashqalanın
mashqalası
mashqalasın
mashqalasına
mashın
mask
maskat
maskatni
maslasqan
maslastırılg
maslenn
mason
massa
massachusets
massaget
massagetler
massaları
massalıq
massası
massasının
masshtablı
masshtabta
masshtabı
masshtabına
mastabı
mat
mata
matadi
matches
matchschedule
matematigi
matematik
matematika
matematikag
matematikalıq
matematikanın
matematikler
material
materialdın
materialistlik
materiallar
materiallardan
materiallardı
materiallardın
materiallari
materialları
materialların
materialliq
materiallıq
materialı
materiginde
materiginin
materik
materikler
materiklerdin
materikte
materiktin
materiya
materiyanın
mathbb
mathbf
mathew
matiz
matlab
mator
matrix
matsuda
matsushita
matteo
matthew
maveranaxr
mavlonov
mavrikiy
mavritaniya
max
maxabbat
maxabbatpen
maxabxarata
maxim
maxmud
maxset
maxsus
may
mayatnik
mayatnikli
mayd
mayda
maydalang
maydaları
maydan
maydanda
maydandı
maydang
maydani
maydanlar
maydanlardı
maydanlardın
maydanları
maydanların
maydanlarında
maydanlarının
maydannan
maydansha
maydanshaları
maydanshasın
maydanı
maydanın
maydanına
maydanınan
maydanında
maydanındag
maydanının
mayi
maykl
maylar
mayların
maylarınan
maylı
maymıl
maynda
mayotta
mayqı
maysaranın
mayı
mayın
mayında
maz
mazalı
mazar
mazarlar
mazarı
mazda
mazdaning
mazmun
mazmundag
mazmundı
mazmung
mazmunlı
mazmunı
mazmunın
mazmunına
mazmunında
mb
mbabane
mbag
mbbs
mbetniyazova
mbetov
mbez
mbile
mbuji
mc
mcalister
mclaren
mda
mde
mdh
mdx
me
mealac
mean
mebel
mecca
med
medal
medaldı
medaldın
medali
medallar
medallardı
medallarınan
medals
medalı
medalın
media
medial
mediastore
medicina
medicinada
medicinalıq
meditsina
medrese
medreseler
medreselerı
medresesi
medresesinde
medresesine
medresesı
meduzalar
medvedev
meetings
mega
megi
megzes
mehir
mehta
meissner
mek
mekeme
mekemeler
mekemelerdin
mekemeleri
mekemelik
mekemesi
mekka
mekke
mekkeda
meklesedi
meklesiw
mekshi
meksika
mektebi
mektebin
mektebinde
mektebine
mektebinin
mektep
mektepke
mektepler
mekteplerde
mekteplerdın
mektepleri
mekteplerinde
mekteplerinin
mektepte
mektepti
mekteptin
mektesip
mel
melania
melayu
melburn
meldal
meldar
meldarg
meldarlardan
meldarlardı
meldarlardın
meldarlarg
meldarları
melde
meldegi
mele
melge
meli
meliy
meliyat
meliyatqa
meliyatı
meliyatın
meller
mellerdi
mellerin
melodiya
mem
member
members
membres
memleket
memleketlik
memlekettik
memorial
memory
men
mende
mendegi
mendegidey
mendegiler
mendegilerden
mendegilerdi
mendegishe
mendeleev
mendes
mene
menejeri
menen
menende
menenoq
meneses
menge
mengi
meni
menin
meninde
menledi
menlep
menlewi
menlewine
menleydi
menmen
menshik
menshikdori
menshikli
mensis
mercedes
merche
mercury
mereke
merekede
merekege
merekelerde
merekenin
mergen
meri
meridian
meridianda
meridiannan
merilin
merina
merinalardın
merkel
merkuriy
meshit
meshiti
meshitte
mesopotamiya
messi
mesto
mesut
met
metabolizm
metafora
metal
metall
metallar
metalldan
metallica
metalllar
metallsazlıq
metallurgiya
metamorfoz
metan
metcalf
meteor
meteorit
meteoritler
meteorittin
meteorlar
meteorlardın
meteorologiya
metin
metlife
metod
metodikalıq
metodikası
metodist
metodlarina
metodların
metonimiya
metr
metrden
metrdi
metrdin
metrge
metrli
metro
metropolitan
metropoliten
metropoliya
metrosı
mexanik
mexanika
mexanikalıq
mexanikanın
mexanikler
mexanizm
mexanizmi
mexanizmler
mexico
mexiko
mexmed
mey
meyildin
meyli
meysnerdin
mezgil
mezgilli
mezoproterozoy
mezozoy
mg
mgts
mi
mib
michael
michelangelo
michigan
mickey
mico
microsoft
microsystems
middle
midtown
mifologiya
mifologiyalıq
migraciya
miguel
mike
mikrometr
mikron
mikroneziya
mil
mila
milan
milanda
milano
milanın
mildiratib
milege
milgen
milion
military
militsiya
miliyard
mille
millenia
miller
millet
milleti
milletin
milletler
milletlerara
milletlerdin
milletli
milletshilik
millettin
milliard
milliarddan
milliardqa
millimetr
millimetrli
million
milliong
millionlap
millionnan
millisekund
milliy
milliyon
miloddan
miloshevich
milya
mimansa
min
mina
minaday
minaj
minaning
minar
minara
minaralar
minarası
minarlar
minarı
minas
minayım
mine
mineral
minerallar
mineralogiya
minez
minezlemesi
ming
mingen
minh
mini
minimal
minip
ministirligi
ministr
ministri
ministrigordon
ministrler
ministrleri
ministrligi
ministrliginde
ministrliginin
ministrlik
minlar
minlarda
minlarga
minledi
minlemekte
minlengen
minleydi
minnesota
minnetin
minnetleme
minnetlemeleri
minnetlemelerin
minnetlemelerinen
minnetlemeni
minnetlemesi
minnetlemesin
minnetleri
minnetli
minsiz
minsk
minskte
mint
minut
minuta
minutag
minutta
mioklonik
mir
mira
mirbayani
mirbayanlıq
mirbayanı
mirbeau
mirbek
mirbektin
mirde
mirdegi
mirden
mirdi
mirdin
mirge
miri
mirin
mirinde
mirindegi
mirine
mirinen
mirinin
mirlik
mirlikleri
mirror
mirxan
mirxannın
mirziyoyev
mis
misal
misali
misalig
mish
mishel
misli
misr
miss
mission
missioneri
missionerlari
missionerlik
missisipi
mississippi
missiyaga
missiyalari
misten
mistletoe
mit
mitinde
miting
mitsubishi
mitsui
miw
miwda
miwdarya
miwdaryanın
mixail
mixalkov
mixed
mixxat
miy
miyacha
miyachada
miyachadagi
miyachadan
miyachaga
miyachani
miyachaning
miyachasi
miyada
miyadagi
miyaga
miyani
miyasar
miyasining
miyassar
miyde
miydin
miyet
miyeti
miyetin
miyetinde
miyetinin
miyetke
miyetler
miyetlik
miyetshiligi
miyetshiligine
miyetshiliginin
miyetshilik
miyetshilikke
miyette
miyettegi
miyetti
miyettin
miyi
miyinlaganharvnb
miyinledi
miyinlegen
miyinlenedi
miyinlengen
miyinlep
miyinlew
miyinlewge
miyinlewshi
miyinleydi
miyinleytug
miyman
miymanlari
miymanxana
miymanxanasi
miymanxanası
miynat
miynet
miyneti
miynetin
miynetinde
miynetke
miynetkesh
miynetkeshler
miynetkeshlerdi
miynetkeshleri
miynetkeshlerinin
miynetler
miynetlerdin
miynetleri
miynetlerin
miynetlerinde
miynetten
miynetti
miynettin
miynlenedi
miynlengen
miynlew
miynleydi
miyras
miyraslar
miyraslardı
miyrasları
miyrasxorları
miyrasxorlıg
miyrasxorlıq
miyrasxorı
miyrasxorına
miyrası
miyrasın
miyrasının
miyrigu
miyshe
miyshege
miysheni
miyshenin
miyshesinin
miywe
miyweler
miywelerge
miyweleri
miyweli
miywesi
miyzan
mizdakxan
mizraxi
mk
mkin
mkinbe
mkinligi
mkinligin
mkinshiligi
mkinshiligin
mkinshiligine
mkinshilik
mkinshilikler
mkinshiliklerge
mkinshilikleri
mkinshilikti
ml
mlada
mledar
mlegen
mleket
mleketde
mleketdin
mleketi
mleketimiz
mleketimizde
mleketin
mleketinde
mleketine
mleketinen
mleketinin
mleketke
mleketler
mleketlerde
mleketlerden
mleketlerdi
mleketlerdin
mleketlerge
mleketleri
mleketlerin
mleketlerinde
mleketlerindegi
mleketlerine
mleketlerinen
mleketlerinin
mleketlik
mleketlikler
mleketshilik
mleketshunoslik
mlekette
mlekettegi
mleketten
mleketti
mlekettin
mlengen
mln
mlng
mlnliq
mlnnan
mlrd
mlrdi
mlrdliq
mlrdqa
mlrdti
mlər
mm
mme
mmege
mmenin
mmesi
mmesin
mmesinde
mn
mo
mobil
mobile
moda
modal
modalar
modallıq
moddiy
mode
model
modelde
modeldi
modeli
modelin
modelinen
modeller
modellerdi
modellerdin
modelleri
modellerin
modellerinde
modellerine
modellerı
modellestiriw
modern
modernizm
modifikatsiyaları
modulyatsiya
mogadisho
moires
mol
moldaviya
moldova
molecular
molekula
molekulalar
molekulaları
molekulalarının
molekulası
molekulyar
molibden
molie
molla
molukka
molukkaga
molukkani
molyer
moment
mon
mona
monako
monarx
monarxiya
monarxiyalar
monarxiyasining
monarxlari
monarxlarning
monaxları
mondial
mong
mongol
mongoliya
mongollar
monitoring
monjita
monna
monografiya
monolog
monopollashtirish
monreal
monshaqlar
montaj
monte
montevideo
montezemolo
montserrat
monument
monumental
monumenti
monıtor
monıtorın
mor
moral
more
morfeması
morfologik
morfologiya
morfologiyalıq
morgan
moris
morits
morning
morris
morrison
morrisons
morsbi
mortlıg
mosfera
mosh
moshe
moskva
moskvada
moskvadag
moskvag
moskvani
mosque
most
mota
moto
motor
motorlarin
motorlı
motors
motortrader
motosikl
mototsikl
mountain
mouse
moxsimon
moy
moydodir
moyi
moynaq
moynoq
moynı
moynın
moynına
moyın
moyınlang
mozaika
mozambik
mozambikde
mozambikni
mozambiktegi
mozart
mozarttin
mp
mperiyasının
mpi
mpj
mq
mr
mrc
ms
msb
mshetov
msn
msnbc
msri
mt
mta
mtp
mtrk
mtv
mu
muallif
muang
mucho
mudam
mudamı
muddetke
mug
muhabbat
muhabbatnama
muhabbattı
muhabbattın
muhabbatı
muhammad
muhammed
muharrir
muhim
muhitni
muhri
muizza
mulk
mulkka
mulkni
mulktin
mulozimlar
multfilmlar
multi
multimedia
mumbai
mumbay
mumkin
mun
muna
munasa
muncha
mundial
munisipalitet
munitsipal
munı
muqaddes
muqag
muqrin
mur
murabba
murad
murap
murat
muratbay
murdoch
muretov
murın
murındıq
musa
musaev
musaevtın
musamman
musar
museo
museum
mush
mushketlari
music
musician
musilmanlar
musiqa
muskat
muskulları
muslim
muslima
muso
musson
mussonli
mussonlı
mustafa
mustang
musulman
musulmanlar
musulmanlardın
musulmanları
musxelishvili
musılman
musılmandardın
musılmanlar
musılmanlardın
musılmannın
muwapiq
muwapıq
muwapıqlastırılgan
muwapıqlastırıw
muwapıqlıg
muwsa
muxabbat
muxabbatqa
muxalles
muxammed
muxammes
muxammet
muz
muzdan
muzey
muzeyde
muzeydin
muzeyge
muzeyi
muzeyinde
muzeyinin
muzeyler
muzeylerdin
muzeyleri
muzeylerı
muzika
muzikag
muzikali
muzikalı
muzikalıq
muzikanin
muzikashı
muzikasi
muzlar
muzlı
muzlıqlar
muzıka
muzıkalı
muzıkalıq
muzıkashı
muzıkası
muzıkasın
muzıkasının
mvt
mwmi
mwsli
mwsnad
mx
my
myanma
mystery
myung
myunxen
mı
mıltıq
mın
mına
mınaday
mınanday
mınanı
mınaw
mının
mırabad
mırjıq
mırjıqtın
mırza
mırzanın
mırzasho
mıs
mısal
mısallar
mısallarda
mısallardan
mısalı
mısh
mısr
mısır
mısırda
mısırdag
mıwda
mıy
mıymanxana
mıymanxanalar
mıymanxanası
mıyı
mıyıq
n
na
nab
nabira
nabokov
nabıt
nachal
nacional
nada
nadan
nadurıs
nag
nagar
nagasaki
nagoya
nairobi
najvplivnejs
nalg
nalısh
nama
namag
namalar
namalardı
namalari
namaları
namaların
namalarınan
namangan
naması
namaz
name
names
namibia
namibiya
namıs
namısı
namısın
nan
nankin
nanobo
nanometr
nanotexnologiya
nanuli
napoleon
napoli
naq
naqi
naqtaws
naqıl
naqıllar
nar
narayan
narazı
narazılıg
narazılıq
narik
narikti
nariktin
narod
narodov
nart
nartlar
narın
nasa
nasafiy
nashriyot
nashriyotchi
nasoz
nasroniylari
nasırov
nasırıy
nat
natalia
natas
natasha
natijali
nation
national
nations
natiyjesinde
natli
nato
natriuretik
natriy
natsistler
natural
nature
nauki
nauru
navaiy
navigatsiya
navo
nawa
nawayi
nawayı
nawayının
nawqas
nawqasda
nawqaslar
nawqastı
nawqastın
nawrız
nawrızbaev
naxxunte
nayaka
naychasi
naydigan
nayman
naz
nazariyasın
nazarxan
nazlımxan
nchen
ncipe
nd
nda
ndag
nde
ndegi
ndekli
ndekliler
ndelik
ndelikli
nden
ndew
ndi
ndia
ndijan
ndirgi
ndirgileri
ndirgisi
ndiris
ndirisi
ndirisin
ndirisinin
ndiriske
ndirislik
ndiriste
ndiristin
ndiriw
ndiriwshi
ndiriwshiler
ndiriwshileri
ndiriwshisi
ndiriwshisinin
ndiya
ndiyag
ndiz
ndizgi
ndizi
ndoneziya
ndı
ndın
ne
neandertal
neapol
near
nears
nec
necha
nede
neden
nedi
need
needed
nefron
nefronlar
nefronlardin
neft
neftdi
neftdin
neftni
neftti
nege
negiz
negizg
negizgi
negizi
negizin
negizinde
negizinen
negotiations
neighborhoods
neke
nekelesiw
neker
nekerler
nekerlerdin
nekerlerge
nekerleri
nekerlerinin
nekerlik
nekesine
nekropol
nektar
neler
nelerdi
neleri
nelikten
nelis
nelisi
nelisinde
nelisine
nelisler
neliste
nelisti
nelson
neltirilgen
neltiriw
nem
nemec
nemese
nemets
nemetsler
nemis
nemisler
nemisshe
nen
neni
nenin
neocerebellum
neogen
neolit
neoproterozoy
nepal
neptun
ner
nerde
nerdi
nerdin
nerge
nergen
neri
nerin
nerinde
nerine
nerinin
nerleri
nerment
nermentler
nermentshilik
nermentshiliktin
neru
nerudın
nerv
nervier
nervlerinin
nerı
neshe
neshshe
nesi
nesinde
nesine
nesip
nesiye
nesiyelik
nestor
net
netscape
network
neutral
nevada
never
nevis
nevrologik
nevs
new
newfoundland
newfoundlandda
newitt
news
newsbank
newscentre
newsid
newspaper
newspapers
newton
newy
newyartcity
next
neydey
neymar
neyron
neyronlar
neyronlardin
neyronları
nfa
nfapp
ng
nge
ngelek
ngelekli
ngen
ngi
ngil
ngir
nglis
ngliya
nhk
ni
nia
nibek
nica
nicholas
nicolas
nide
nidegi
niderlandiya
niderlandiyanın
niderlandlar
niemann
nieps
nietullaev
nige
nigeler
nigelerdi
nigelesken
nigeligi
nigeligin
nigelik
nigelikler
nigelikleri
niger
nigeriya
nigesi
night
nijniy
nik
nikaragua
nike
nikel
niki
nikitina
nikkei
nikola
nikolay
nikosiya
nil
nilerde
nilerdi
nileri
nilerin
nili
nilik
nim
nimdarlig
nimdarlı
nimdarlıg
nimdi
nimen
nimi
nimin
nimler
nimlerde
nimlerden
nimlerdi
nimlerdin
nimleri
nimlerin
nimlerinin
nimli
nimnen
nimnin
nimsherek
nin
ninde
nine
ninen
ning
ningbo
nini
ninin
ninth
nio
nip
nis
nisbati
nishapur
nishi
nisi
nisin
nisinde
nisindegi
nisine
nisinen
niske
nislerdi
nisleri
nissan
niste
nisten
nisti
nit
nitzshe
nitzshenin
niue
niversal
niversitet
niversitetinde
niy
niya
niyanın
niyası
niyat
niyatın
niyaziy
niyet
niyetin
niyetinde
niyetli
niygeler
niygelerdi
niygelesken
nizam
nizamiy
nje
njel
njelengen
njellengen
njellesip
njenerler
njesine
nji
njil
njumanlar
njıl
nk
nl
nla
nlab
nlar
nları
nler
nlerde
nlerden
nlerdi
nlerdin
nlerge
nleri
nlerimizde
nlerin
nlerinde
nlerinin
nlesip
nlesligi
nleslik
nli
nligi
nlik
nliler
nljellengen
nm
nmpi
nmu
nn
nna
nnen
nnet
nnetinde
nnetke
nnetletiw
nnette
nnetten
nni
nnin
nning
nnın
no
nobay
nobel
nobiogen
nobleman
nobrega
node
noe
noemi
nog
nogay
nokia
nokis
nom
nomer
nomerden
nomeri
nomerinin
nomerler
nomerleri
nomi
nomiga
nominaciyasında
nominal
nominalına
nominalınan
nominatsiyalari
nominatsiyasi
noqat
noqati
noqatlar
noqatlarında
noqatlı
noqatı
nord
nordic
nordrhein
norma
normal
normalar
normalarg
normaları
normalarına
normasi
norması
normativ
north
northern
northvolt
norton
norvegiya
nost
nosti
not
nota
note
notes
notre
nova
novak
november
novgorod
novi
novo
novosibirsk
novosti
now
noyabr
noyabrde
noyabrden
noyabrdın
noyabrinde
noyabrinen
np
npgallery
nps
nqu
nr
nris
ns
nsan
nsf
nsh
nsha
nshi
nshıg
nsiz
nspi
nsu
nt
nter
nternet
ntervyu
nti
ntler
ntleri
ntlik
ntsc
ntuwdı
nu
nuclear
nucleus
nueva
nuevo
nukus
number
numbers
nunivak
nunsiaturasiga
nupedia
nur
nurabulla
nuraddin
nurata
nuratdinovich
nuri
nuristan
nurlanıw
nurlar
nurları
nurlarınan
nurmagomedov
nurman
nurmuxammedov
nurpeysov
nurtas
nurı
nurımbetov
nurının
nusantara
nusqa
nusqada
nusqadan
nusqalarda
nusqaları
nusqası
nusqasın
nusqasınan
nusqasında
nusqasının
nuvolari
nuwas
nv
nxoja
ny
nya
nyada
nyadag
nyadan
nyag
nyalıq
nyani
nyanin
nyanı
nyanın
nyası
nyasın
nyasına
nyasınan
nyasında
nyasındag
nyc
nycgo
nyct
nypress
nyregion
nytimes
nyu
nyutonnın
nz
nzil
nzili
nı
nıldı
nın
nıp
nıql
nıs
nıshanları
nıshanı
nıshanına
nıy
nızam
nızamchiligi
nızamda
nızamg
nızamlar
nızamlarda
nızamlardı
nızamlardın
nızamlarg
nızamlari
nızamları
nızamların
nızamlarına
nızamlarının
nızamlı
nızamlılıg
nızamlılıqları
nızamlıqların
nızamnın
nızamshılıg
nızamshılıq
nızamsız
nızamı
nızamına
nızamının
nızanov
o
oa
oak
oazis
oazisi
oazisinde
ob
oba
obekti
obektiv
obektivlik
obektlerdi
obektlerin
obekttin
obiekt
oblastlıq
oblastı
oblastının
obligatsiya
obligatsiyalar
obligatsiyalardı
obligatsiyalardın
obligatsiyalarinin
obligatsiyaları
obligatsiyaların
obligatsiyanın
oblis
oblisi
oblisinin
oblislari
obraz
obrazlar
obrazlardı
obrazları
obrazların
obrazlı
obrazı
obrazın
obrazında
observer
obyekt
obyekti
obyektiv
obyektler
obyektlerdin
obyektleri
oc
ocagames
occitan
ocean
oceania
ochamayli
ocherk
ocherki
ocherkler
ocherkleri
ocherkte
ochko
ochkolar
oct
octave
octavia
october
od
oda
odag
odagi
odan
odbornecasopisy
odessa
odio
of
off
office
official
officialresultbook
offitsial
oficerleri
oficial
ofis
ofisi
ofislari
oftobruya
og
ogan
ogg
ogranichen
oguz
oguzler
oh
ohmynews
oid
okean
okeani
okeaninin
okeaniya
okeaniyada
okeaniyadag
okeanlar
okeanları
okeannın
okeanı
okeanın
okeanına
okeanında
okeanındag
okeanının
okrugi
okrugindag
okrugine
oks
oksford
oksidleniw
oksitan
oktavia
oktavian
oktaviya
oktavolateral
oktyabr
oktyabrda
oktyabrde
oktyabrden
oktyabrida
okus
oky
ol
olar
olarda
olardag
olardan
olardi
olardin
olardı
olardın
olarg
olay
old
ole
olhanense
olimpiada
olimpiya
olimpiyada
oliva
oliveira
oliy
olja
oljaları
ollar
olmus
olo
oltbreg
olympic
olympics
olıstan
om
oman
omar
ombudsm
omir
omirinin
ommaga
omon
omırtqa
omırtqalı
omırtqalılar
on
ona
onada
onda
ondag
ondan
ondatra
onday
ondiris
one
onegin
onepage
oni
oniani
onim
onin
onlag
onlap
onlayn
online
onnan
onnanda
ons
onsha
onshelli
ontepa
ontogenez
onu
onı
onın
onınshı
ooi
oops
opat
opatınan
opel
open
openserver
opera
operacion
operag
operalari
operalarinan
operalarinda
operanin
operasi
operası
operasında
operations
operativ
operative
operatsion
operatsiya
operatsiyalar
operatsiyalardı
operatsiyalardın
operatsiyaları
operatsiyaların
operetta
opinio
opinion
opium
opt
optika
optikalıq
oq
oqadi
oqi
oqidi
oqig
oqip
oqiw
oqiwdi
oqiwg
oqqa
oqshı
oqı
oqıdı
oqıg
oqıladı
oqımag
oqımıslı
oqıp
oqıtıp
oqıtıw
oqıtıwdın
oqıtıwg
oqıtıwshı
oqıtıwshılar
oqıtıwshıları
oqıtıwshısı
oqıw
oqıwdı
oqıwdın
oqıwg
oqıwshı
oqıwshılar
oqıwshılardı
oqıwshılardın
oqıwshılarg
oqıwshıları
oqıwshılarına
oqıwshılarınan
oqıwshılarının
oqıwshının
oqıwshısı
oqıwı
oqıwın
oqıy
oqıydı
oqıytug
or
oracle
oradan
oral
oraladı
oralg
oramal
orang
orap
oraq
oratorlıq
oray
orayg
orayi
orayinda
oraylar
oraylardan
oraylardin
oraylari
orayları
orayların
oraylarına
oraylarınan
oraylasqan
orayliq
oraylıq
orayı
orayın
orayına
orayınan
orayında
orayındag
orayından
oraz
oraza
orazbay
orb
orbita
orbitası
orda
ordaniya
ordası
orden
ordendin
ordeni
ordenin
ordeninin
ordenler
ordenleri
ordennin
order
ordovik
ordu
oreiro
orenburg
orfografiyalıq
org
organ
organik
organikalıq
organisation
organization
organizm
organizmde
organizmdi
organizmge
organizmler
organizmlerde
organizmlerden
organizmlerdi
organizmlerdin
organizmnin
organlar
organlardan
organlardı
organlarg
organlarga
organları
organlarının
organı
organının
ori
oriental
orig
original
orin
orinda
orindag
orindi
oring
orinlari
orinlarindag
orinlasqan
oris
orkestr
orkestri
orlean
orman
ormuzni
ornadı
ornalasadı
ornalasqan
ornalastirdi
ornalastı
ornalastırıw
ornatdiharvnb
ornatdı
ornatg
ornatildi
ornatildiharvnb
ornatqan
ornattı
ornatıladı
ornatıldı
ornatılg
ornatılıwı
ornatıp
ornatıw
ornatıwg
orndag
orni
ornin
ornina
ornı
ornın
ornına
ornınan
ornında
ornının
oro
orozco
orphanides
orqali
orta
ortada
ortadag
ortag
ortalarinda
ortalarına
ortalarınan
ortalarında
ortalarından
ortalig
ortaliq
ortalıg
ortalıq
ortalıqqa
ortalıqta
ortalıqtan
ortalıqtı
ortalıqtın
ortang
ortaq
ortasha
ortasinda
ortası
ortasına
ortasınan
ortasında
ortasındag
orubs
orxon
orın
orınbasarı
orınbay
orında
orınday
orındı
orıng
orınlag
orınlanadı
orınlanatug
orınlang
orınlanıwı
orınlanıwına
orınlap
orınlar
orınlarda
orınlardag
orınlardan
orınlardı
orınlardın
orınlarg
orınları
orınlarına
orınlarınan
orınlarında
orınlarının
orınlaw
orınlawg
orınlawshı
orınlawı
orınlaydı
orınlaytug
orınlı
orınnan
orınsız
orını
orıs
orıslar
orıslardın
orıssha
orıstar
os
osaka
oscar
osetiya
osh
oshag
oshaq
oshaqlar
oshaqtan
oshga
osiwi
oskar
oslo
osman
osmaniye
osmanlı
osmanlılar
osmanlılardın
ostani
osı
ot
otau
otaw
otedi
otello
otemuratov
other
otirg
otirip
otkizedi
otlaqlı
otlı
otqa
otryadı
otryadına
ott
otta
ottava
ottomans
otvetstvenniy
otın
otır
otıradı
otırar
otıratug
otırdı
otırg
otırıp
otırıqshı
otırıw
otırıwshı
otız
ouida
our
out
ouzb
over
overseas
ovozni
owner
oxford
oxir
oxirgi
oy
oya
oyanıp
oyanıw
oyanıwı
oyatatug
oyatdı
oyatqan
oyda
oyg
oyi
oyin
oyinda
oyinlar
oyinlari
oyinsha
oyinshisi
oyladi
oyladı
oylag
oylanadı
oylang
oylanıp
oylap
oylar
oyları
oyların
oylaw
oylawı
oylaydı
oylayman
oylı
oynadinewitt
oynadı
oynag
oynaladi
oynaladı
oynalatug
oynalıwı
oynap
oynaw
oynay
oynaydi
oynaydı
oynaydıharvnb
oynaytug
oypatlıg
oypatlıqlar
oypatlıqları
oypatlıqlarında
oypatlıqta
oyshıl
oyshılı
oyılg
oyın
oyında
oyındı
oyıng
oyınlar
oyınlarda
oyınlardı
oyınlardın
oyınlariga
oyınları
oyınların
oyınlarına
oyınlarında
oyınlarının
oyınnan
oyınnın
oyınsha
oyınshı
oyınshılar
oyınshılardan
oyınshılardı
oyınshılardın
oyınshıları
oyınshıq
oyınshıqlar
oyınshısı
oyını
oyının
oyınına
oyınında
oyıp
oyıq
oz
oza
ozar
ozinin
oziy
p
pa
paabo
pablo
pace
pacey
pacific
pada
padana
page
pages
pago
paketin
pakistan
pakistannın
paksa
paksha
pal
palace
palanga
palapan
palatası
palau
palaw
palawda
palawdan
palawdı
palawdın
palawg
palawı
paleoarxey
paleogen
paleogeografiya
paleolit
paleontologiya
paleoproterozoy
paleozoy
paleozoydın
palermo
palestr
palgrave
paliz
pall
pallidiflora
palm
palma
palwan
palwandı
palwanlar
palwanova
palyak
palyaklar
palımbetov
palız
pamir
pan
panama
panamerika
panasonic
pandemiyası
paneli
paneve
pangeya
panj
panorama
panynj
papalikning
papası
papercut
papua
paqal
paqalı
paqsa
paqır
para
parabola
parade
paradigm
paragraf
paragrafg
paragraflar
paraguay
paragvay
parallel
paramaribo
parametrlerin
paramore
parapapua
parasat
paraxatshılıq
parazit
parfiya
parij
parijda
parijdan
parijde
parijdegi
parijg
parijge
paris
pariteti
park
parkini
parkı
parlament
parlamentar
parlamenti
parlamentine
parlamentinin
parole
parom
parq
parqı
parqın
parra
parsı
parsılar
parsısha
part
partial
partida
partiya
partiyaları
partiyalıq
partiyasi
partiyasinin
partiyası
partiyasının
partizanlarni
partlaw
party
partyasi
parıq
parıqlanadı
parıqlanıwshı
parıqlanıwı
parıqlı
pas
pasaytirdi
paslı
pasport
passajir
passajirlarg
passajirler
passivlesken
paster
pastlab
pat
patent
patentleri
path
pati
patriotlıq
patsha
patshag
patshah
patshahi
patshahning
patshalar
patshaları
patshalig
patshalıg
patshalıq
patshanı
patshanın
patshasi
patshası
patshasının
patshaına
pattar
pattardı
pattardın
pattarmen
pattarın
pattarına
pattaw
pattawg
patın
patına
paul
paulina
paulmier
paulo
pauluni
pavel
pavitt
pavonia
paxratdinov
paxsa
paxta
paxtakor
paxtashılıq
pay
payda
paydalana
paydalanadı
paydalanatug
paydalandı
paydalang
paydalaniletug
paydalansa
paydalanıla
paydalanıladı
paydalanılatug
paydalanıldı
paydalanılg
paydalanılıp
paydalanıp
paydalanıw
paydalanıwdi
paydalanıwdı
paydalanıwg
paydalanıwshı
paydalanıwshılar
paydalanıwshılarg
paydalanıwshıları
paydalanıwshılarına
paydalanıwshına
paydalanıwı
paydali
paydalı
paydanın
paydası
paydasın
paydasına
paydasız
paydaynni
payg
pays
paytaxt
paytaxtda
paytaxti
paytaxtlar
paytaxtları
paytaxttan
paytaxttı
paytaxtı
paytaxtın
payıtlar
payıtlarda
payıtqa
payıtta
payıtında
payız
payızı
payızın
paz
pdar
pdf
pdfs
pdfwebarxiv
pe
pearson
pecheneg
pechenegler
pecheneglerdin
ped
pedagog
pedagogik
pedagogika
pedagogikali
pedagogikaliq
pedagogikalıq
pedogogikalıq
pedro
pedtexnikum
pedtexnikumdı
peduchilishesin
pedunculi
pek
pekin
pekinge
pellicone
pen
penen
penin
pennsylvania
pensilvaniya
pensiyag
penza
people
peoples
peptid
peptidi
peptidining
peptidlar
per
percy
perde
perdeler
perderte
perdesi
pereira
pererab
pereshel
peri
perio
perishte
perishteka
perishtekaga
perishtekani
perishteler
periyzat
perm
pero
perpendikulyar
perse
persian
persiya
personaj
personajlar
personajlardın
personal
perspective
perspektivalı
peru
perugino
peruginonın
perzent
perzenti
perzentinin
perzentler
perzentleri
perzentli
perzentlik
perzentti
perzenttin
pes
pesa
pesada
pesalar
pesaları
pesanın
pesası
pesasında
peshana
pesi
pete
peter
peterburg
peterburgqa
peterburgta
petit
petr
petrarka
petro
petrovsk
peyil
peyzaj
pfk
pg
phase
phd
philadelphia
philip
philly
phone
php
phra
pi
pianino
pianist
piano
picasso
pick
pickett
pid
pierre
pieta
pietro
pifagor
pikap
pikir
pikirde
pikirden
pikirdi
pikirge
pikiri
pikirin
pikirine
pikirinen
pikirinshe
pikirler
pikirlerdi
pikirleri
pikirlerin
pikirlerine
pikirlew
pikirlewi
pikometr
pikrine
pil
pilipinas
pilis
pille
pilleshilik
pilsen
pin
pinen
pingvin
pininfarina
pink
pintoning
pinyin
piotr
pir
piramida
piramidalar
piramidasınnan
pirazov
pirc
pireney
pires
pirjanov
pirk
pirma
pirniyazov
pis
pisateli
pishadi
pishen
pishgach
pishguncha
pishinleri
pisirgen
pisiriledi
pisirilgen
pisiriw
pisken
piskom
piste
piter
pitim
pitimge
pitimler
pitimleri
pitirgen
pitken
pitkennen
pitkerdi
pitkeredi
pitkergen
pitkergennen
pitkerilgen
pitkerip
pitkern
pitt
pittsburgh
pivo
piwayi
piwayı
piwayıg
piyada
piyaz
piyazdı
piyazov
piza
pjaqlılar
pke
pkilikli
pl
place
places
plagiat
plan
plandın
planeta
planetalar
planetamız
planetamızda
planetamızdag
planetamızg
planetanın
planetar
planetası
plang
plant
plantatsiya
plar
plastidalar
plastik
plastmassa
plastmassadan
plata
platform
platforma
platformag
platformaga
platformasi
platina
plato
platoda
platon
platonnin
platonın
play
player
players
plaza
plazma
plazmid
plazmidler
please
plegen
plep
pler
plerde
plerdegi
plerden
plerdi
plerdin
plerge
pleri
plerin
plerine
plerinen
pley
pligi
plik
plis
plitalar
plitaları
plov
plovdiv
plug
plus
plutarxtın
pluton
plyaji
plyonka
pm
pmu
pnevmatik
png
pnom
po
pochta
podkast
podkasting
podolski
podryadchigi
poema
poemada
poemalar
poemalarda
poemaları
poemaların
poeması
poemasın
poemasında
poetikalıq
poezd
poezdlarin
poeziya
poeziyag
poeziyalıq
poeziyanı
poeziyanın
poeziyası
poeziyasın
poeziyasına
poeziyasında
poeziyasındag
poeziyasının
points
pokrishka
pol
polat
policiya
policiyası
policy
poligrafiya
poliklinika
polimer
polineziya
polislar
politexnika
political
politics
politik
politika
politsiya
politsiyası
polkının
polo
polsha
polshag
polshalı
polshanin
polshanın
poltava
polyak
polyus
polyuslar
pomidor
pomidorning
pompei
pompey
ponce
ponse
pontevedra
pontifex
pontineus
ponting
pop
popolo
popular
population
populyaciya
por
porlı
porodaları
porsıq
port
portal
porter
porti
portlar
portları
portların
portlarına
porto
portqa
portrait
portret
portreti
portretin
portretlar
portugal
portugaliga
portugaliya
portugaliyadan
portugaliyag
portugaliyaga
portugaliyalı
portugaliyalıq
portugaliyalıqlar
portugaliyalıqlardı
portugaliyalıqlardın
portugaliyalıqlarg
portugaliyalıqtı
portugaliyanı
portugaliyanın
portugallar
portugallardan
portugallardin
portugallarga
portugallarni
portugallarning
portugallikni
portugals
portugalsha
portugue
portuguesa
portuguese
portı
portın
portına
portında
portının
post
posti
postini
postlari
postnatal
posts
potencialı
potenciyalina
potensiallarının
potentsial
potentsialın
potter
pound
povest
povesti
povestler
povestleri
povesttin
power
powerful
poyas
poyasları
poyastın
poyası
poyezd
poyezdlar
poziciyag
poziciyanı
poziciyasi
poziciyasin
pozitsiyasi
pozitsiyasining
pozitsiyası
pp
ppf
pq
pr
pradesh
prag
praga
prague
praguepost
pravax
pravoslav
pre
predmet
predmetlerdi
predsedatel
prefekturalardin
prefekturalari
prefekturalarinin
prefekturasi
premacy
premer
premier
premyer
premyerasi
prens
presence
present
presentations
president
presidential
press
pressreader
pressrelease
pretoriya
prezident
prezidenta
prezidenti
prezidentinicolas
prezidentinin
prezidentler
prezidentleri
prezidentlik
prezidentlikke
prezidenttin
prezidiumının
pri
prices
primera
prince
princip
principi
principine
principler
prinsipi
prinston
print
printing
printsip
printsipi
printsiplar
printsipleri
printsiplerin
prior
prisida
pritchett
private
prix
prize
pro
probe
probkasimon
problemalarına
probnp
procent
procenti
procentke
procesi
procesin
procesinde
procesler
proceslerdi
proceslerdin
procesleri
process
processinde
processler
product
production
prodyuser
prodyuserler
proekt
proekti
proektlestiriw
prof
professional
professor
professorlardın
professorı
profilaktika
profile
profili
prognoz
prognozlar
program
programma
programmalar
programmalardı
programmalarg
programmaları
programmaların
programmalastırıw
programmalıq
programmanı
programmanın
programması
programmasın
programmasına
programmasının
progressiv
project
projects
prokurori
prolog
properties
protected
protection
proterozoy
proterozoydın
protocol
protokolı
protokolının
prototipi
protsent
protsentli
protsesi
protsess
protsessi
protsessinde
protsessler
protsesslerdin
protsessleri
provinces
provinciyası
provinsiya
provinsiyalarga
provinsiyalari
provinsiyalarınan
provinsiyasi
provinsiyasının
proza
prozaik
prozalıq
prozasında
prportal
pru
ps
psan
psana
psanag
psanalar
pshik
pshiligi
pshiligin
pshiliginde
pshiligine
pshilik
pshilikke
pshilikti
pshiliktin
psi
psixik
psixologiya
psixologiyalıq
pt
pta
pte
ptege
ptegen
ptegi
pteligi
ptelik
pten
pteri
ptesine
pti
ptin
ptolemey
pu
pub
public
publication
publications
publicistika
publicistikalıq
publicity
publique
published
publisher
publishers
publishing
publitsistik
publitsistika
publitsistikalıq
pudun
puerto
puga
pul
puldı
puldın
pulg
pullar
pulı
pune
punkt
punkti
punktleri
punktlerin
punktlerinin
punktı
puq
puqara
puqaralar
puqaralardın
puqaralarg
puqaraları
puqaralıg
puqaralıq
puqaralıqtı
puqarası
puqarasız
puqta
purkinye
pursh
pushkin
pushkinnin
puta
putag
putalar
putaqshalar
putin
puw
puwları
puxaralar
puxaralıq
puxtalıg
px
pxenyan
pyesa
pyesaları
pyesaların
pyotr
python
pıl
pında
pıshaq
pıshaqlar
pıshıg
pıshıq
pıshıqtın
pıskende
pısıqlawısh
pısıqlawıshqa
pısıqlawıshı
pısırıw
pıtıran
q
qa
qabag
qaban
qabaq
qabaqlar
qabariq
qabasan
qabat
qabatlı
qabatqa
qabatı
qabatın
qabi
qabil
qabilasi
qabul
qabulov
qabusnama
qabıg
qabıl
qabılladı
qabıllag
qabıllandı
qabıllandıharvnb
qabıllang
qabıllap
qabıllaw
qabıllawı
qabıllawın
qabıq
qabıqdumba
qabıqlog
qabıqloqning
qabıqta
qabıqtag
qabıqtın
qabırg
qabırshaqlar
qad
qadag
qaddes
qadimgi
qadimnen
qag
qaharman
qaharmanlar
qaharmanlardın
qaharmanları
qaharmanlarınan
qaharmanlarının
qaharmanlıq
qaharmanlıqları
qaharmannın
qaharmanı
qahhor
qahira
qahraman
qahramani
qahramanlarsha
qal
qala
qalada
qaladag
qaladan
qaladi
qaladı
qalag
qalalar
qalalarda
qalalardan
qalalardin
qalalardı
qalalardın
qalalarg
qalalari
qalalarinda
qalaları
qalalarına
qalalarınan
qalalarında
qalalarının
qalali
qalalıq
qalani
qalanin
qalanı
qalanın
qalaq
qalarlıq
qalasa
qalasha
qalashası
qalashasında
qalasi
qalasina
qalasinan
qalasinda
qalasindag
qalasinin
qalası
qalasın
qalasına
qalasınan
qalasında
qalasındag
qalasından
qalasınin
qalasının
qalatug
qalay
qaldi
qaldirdi
qaldirg
qaldı
qaldıg
qaldıharvnb
qaldıjurnal
qaldım
qaldın
qaldıq
qaldıqları
qaldıradı
qaldırdiharvnb
qaldırdilar
qaldırdı
qaldırg
qaldıriladi
qaldırıp
qaldırıw
qaldırıwdı
qalg
qalila
qallibek
qalliyevich
qallı
qalmadı
qalmag
qalmaq
qalmastan
qalmaw
qalmawı
qalmay
qalmaydı
qalnazar
qalpag
qalpaq
qalqan
qalqannın
qalsa
qalta
qaltırawlar
qalın
qalıng
qalıp
qalıptı
qalıs
qalıw
qalıwdı
qalıwı
qalıwın
qalıwına
qalıwınan
qam
qamal
qamap
qamaqqa
qamaqxanada
qamaqxanag
qamarı
qamatıp
qamawg
qamog
qamrovi
qamsizlandiriwdin
qamtiydi
qamtıg
qamtılg
qamtıp
qamtıy
qamtıydı
qamıs
qamıslıqlar
qamıstan
qan
qana
qanalaslar
qanat
qanatları
qanatlı
qanatı
qanday
qandayda
qandekliler
qandı
qandın
qang
qaniyaz
qanjıg
qanliko
qanlı
qanlıko
qansha
qanshama
qanshasın
qanshelli
qanshellilik
qansuh
qant
qantamirlar
qantomirlar
qantomirlarining
qanı
qap
qapa
qaplag
qaplan
qaplang
qaplap
qaplaw
qaplaydı
qaptal
qaptalına
qaptalınan
qaptalında
qaptalındag
qapı
qapılı
qaq
qaqpaq
qaqpaqtı
qar
qara
qarabaxanaları
qarabel
qarag
qaraganda
qarajan
qarako
qaraladı
qaralama
qaraldi
qaraldı
qaralıp
qarama
qaramag
qaramal
qaramastan
qaramay
qaran
qarang
qarao
qarap
qarapayım
qaraqalpag
qaraqalpaq
qaraqalpaqfilm
qaraqalpaqlar
qaraqalpaqlarda
qaraqalpaqlardag
qaraqalpaqlardı
qaraqalpaqlardın
qaraqalpaqsha
qaraqalpaqstan
qaraqalpaqstanda
qaraqalpaqstandag
qaraqalpaqstang
qaraqalpaqstani
qaraqalpaqstanli
qaraqalpaqstanlı
qaraqalpaqstannın
qaraqalpaqstanı
qaraqalpaqtın
qaraqshılar
qaraqshıları
qaraqshılıq
qaraqshılıqları
qaraqum
qaraqus
qarar
qararları
qararı
qaras
qarasa
qarasaq
qarasaqta
qarashay
qarasları
qaraslı
qarastan
qarası
qarata
qaratadı
qarataw
qaratb
qaratdilarharvnb
qaratdı
qaratilg
qaratqan
qaratıladı
qaratıldı
qaratılg
qaratılıp
qaratıp
qaratıw
qaratıwdı
qaratıwg
qaratıwına
qaraw
qarawdın
qarawg
qarawlar
qarawında
qarawındag
qaraxaniyler
qaray
qaraydı
qaraytırıw
qarday
qarejettin
qarissi
qarjı
qarjıları
qarjıların
qarlardın
qarlıg
qarmag
qarnı
qarori
qarqalpaq
qarshi
qarshıg
qarsi
qarsiliq
qarsı
qarsılas
qarsılası
qarsılıq
qarsılıqlar
qarsılıqlardı
qarsılıqları
qarsılıqqa
qarsısında
qartayg
qartaysada
qarım
qarın
qarındas
qarındası
qarındasın
qarınlar
qarınlarında
qarıydar
qarıydarg
qarıydarlar
qarıydarlarg
qarız
qarızdar
qarızdı
qarızg
qarızlar
qarızlardan
qarızları
qarızı
qarızın
qas
qash
qashadı
qashag
qashan
qashanda
qashannan
qasharman
qashg
qashiw
qashqada
qashqadarya
qashqan
qashqar
qashqariy
qashqın
qashqınlar
qashtı
qashıp
qashıq
qashıqlıqta
qashıqlıqtag
qasi
qasimov
qasinda
qasiyeti
qasiyetleri
qasqır
qasıg
qasım
qasımov
qasın
qasına
qasınan
qasında
qasındag
qasıq
qasıqtan
qatag
qatal
qatan
qatar
qatara
qatarda
qatardag
qatardan
qatarg
qatarina
qatarinda
qatarlar
qatarlardı
qatarları
qatarlarında
qatarlarının
qatarlı
qatarı
qatarın
qatarına
qatarınan
qatarında
qate
qatlam
qatlamda
qatlamdı
qatlami
qatlamlar
qatlamlardı
qatlamları
qatlamların
qatlamlarınan
qatlamlarında
qatlamnan
qatlamı
qatlamın
qatlamında
qatnadı
qatnap
qatnas
qatnasa
qatnasadı
qatnasatug
qatnasdı
qatnasdılar
qatnasi
qatnasinda
qatnasiqlardi
qatnasiqlari
qatnasiwshisi
qatnaslar
qatnaslardı
qatnaslardın
qatnaslari
qatnaslarinin
qatnasları
qatnasların
qatnaslarının
qatnaslı
qatnaspag
qatnaspaydı
qatnasqan
qatnasqani
qatnasqanveb
qatnasta
qatnasti
qatnastı
qatnastıveb
qatnası
qatnasın
qatnasında
qatnasıp
qatnasıqlar
qatnasıqlardı
qatnasıqlardın
qatnasıqları
qatnasıqların
qatnasıqlarının
qatnasıw
qatnasıwda
qatnasıwg
qatnasıwları
qatnasıwshı
qatnasıwshılar
qatnasıwshılarg
qatnasıwshısı
qatnasıwshısına
qatnasıwı
qatnasıwın
qatnasıwında
qatnasıwındag
qatnawı
qatnaydi
qatnaydı
qatti
qattı
qatı
qatılmas
qatılmaslıg
qatınastı
qatınlar
qatıp
qatıqulaq
qatısına
qawipli
qawipsiz
qawipsizligi
qawipsizligin
qawipsizlik
qawipten
qawpinde
qawın
qawıs
qay
qayda
qaydan
qayg
qayipbergenov
qaynab
qaynag
qaynap
qaynatib
qaynatiladi
qaynatilgan
qaynatıw
qaynawına
qaynay
qaynoq
qayrat
qayratdinov
qaysar
qaysarlıg
qaysı
qaysısı
qayta
qaytadan
qaytadi
qaytadı
qaytalamaydı
qaytalanıp
qaytaldan
qaytaradı
qaytarıp
qaytarıw
qaytip
qaytis
qaytpag
qaytqan
qaytti
qayttı
qaytıp
qaytıs
qaytıw
qaytıwdı
qaytıwg
qayıl
qayım
qayın
qayıpnazarov
qayıq
qayıqları
qayır
qayırqom
qayırqomlıq
qayıs
qaza
qazag
qazan
qazanda
qazandı
qazandın
qazang
qazanganidan
qazannan
qazaq
qazaqda
qazaqlar
qazaqlarda
qazaqlardın
qazaqsha
qazaqstan
qazaqstanda
qazaqstandag
qazaqstang
qazaqstannin
qazaqstannın
qazaqstanın
qazaqtar
qazaqtın
qazayaqli
qazayaqlı
qazayog
qazib
qazilma
qazilmalar
qazilmalardi
qazini
qazip
qazsport
qazı
qazılg
qazılmalardan
qazıp
qazıspaları
qazıw
qazıwda
qazıwg
qazıwmalar
qazıwshı
qazıwshılardın
qazıwı
qb
qf
qi
qil
qiladi
qildi
qilg
qiling
qiliw
qiliwi
qilsa
qimbatli
qip
qipchoq
qira
qirg
qirib
qirq
qis
qisi
qismi
qisqa
qisqardi
qisqarg
qisqartip
qisqasha
qistin
qitay
qitayda
qitaydag
qitaydin
qitaydın
qitayg
qitaysha
qiyat
qiyin
qiyli
qiyratti
qiz
qizi
qizig
qizil
qizilorda
qkoda
qli
qlı
qlımı
qmpi
qmu
qo
qobiq
qobiqning
qoblan
qoblannın
qobız
qog
qohiraden
qol
qola
qolaverdiharvnb
qolay
qolayli
qolaylı
qolaylıqlar
qolaysiz
qolaysız
qolda
qoldan
qoldanwg
qoldanıladı
qoldawlı
qoldawlılar
qoldı
qoldın
qolg
qolga
qolinda
qoljazba
qoljazbalar
qoljazbaların
qolla
qollag
qollana
qollanadı
qollanatug
qollanba
qollang
qollaniladi
qollanilatug
qollaniwshi
qollanıla
qollanıladı
qollanılatug
qollanıldı
qollanılg
qollanılmaydı
qollanılsa
qollanılıp
qollanılıwı
qollanılıwın
qollanıw
qollanıwda
qollanıwshı
qollanıwı
qollap
qolma
qoltıg
qoltıq
qoltıqi
qoltıqidın
qoltıqı
qoltıqına
qoltıqında
qoltıqındag
qoltıqının
qolı
qolın
qolına
qolınan
qolında
qolındag
qon
qonadı
qonaq
qonaqlar
qonaqqa
qong
qonuniyatlari
qonıp
qonıs
qonıslasadı
qonıslasqan
qonıslıqları
qonıw
qopal
qoparıp
qoqand
qor
qora
qorako
qoraqalpog
qoraqalpoq
qoraqalpoqlar
qoraz
qorg
qorqaq
qorqın
qorqınıs
qorqınıshlı
qorqıp
qorqıt
qorshag
qorshalg
qorshap
qorı
qorıqxana
qorıqxanalar
qorıqxanası
qos
qosa
qosadı
qosdı
qosi
qosig
qosilg
qosilgan
qosimsha
qosimshasin
qosiq
qosiqlar
qosiqlari
qosiqshi
qosiqshilar
qospa
qospag
qospaqta
qosqan
qosqanda
qosqandı
qostamg
qostanay
qosti
qostı
qosw
qoswdın
qosıbay
qosıg
qosıladı
qosılatug
qosıldı
qosılg
qosılıp
qosılıw
qosılıwı
qosılıwın
qosılıwına
qosılıwınan
qosımsha
qosımshalar
qosımshalardı
qosımshalardın
qosımshaların
qosımshası
qosımta
qosımtalar
qosımtalardın
qosımtaları
qosımtalı
qosımtanın
qosımtası
qosıp
qosıq
qosıqiy
qosıqlar
qosıqlarda
qosıqlardan
qosıqlardı
qosıqlardın
qosıqlarg
qosıqları
qosıqların
qosıqlarına
qosıqlarınan
qosıqlarında
qosıqlarındag
qosıqlarının
qosıqqa
qosıqshı
qosıqshılar
qosıqshıları
qosıqshılıq
qosıqshısı
qosıqta
qosıqtı
qosıqtın
qosıw
qosıwdı
qosıwg
qosıwı
qotar
qovurib
qovuriladi
qovurilganidan
qoy
qoya
qoyadı
qoyamız
qoyan
qoyatug
qoybaq
qoydan
qoydi
qoydı
qoydıharvnb
qoyg
qoyi
qoyilg
qoylı
qoymag
qoymastan
qoymaw
qoymay
qoyqırılg
qoysa
qoysan
qoyıladı
qoyılatug
qoyıldı
qoyılg
qoyılıp
qoyılıw
qoyılıwı
qoyımshılıg
qoyıp
qoyıptı
qoyıw
qoyıwdı
qoyıwg
qoyıwı
qoz
qozaq
qozdı
qozg
qozoqlar
qozı
qq
qqa
qr
qsetinde
qsetti
qsettin
qsh
qsha
qshi
qt
qtadı
qti
qu
quad
qual
qualification
qualifier
quarterly
qub
quba
qubba
qubilislardi
qubilislari
qubla
qublada
qubladag
qubladan
qublag
qublasinda
qublası
qublasında
qublasındag
qublaında
qublaındag
qubılıs
qubılıslar
qubılıslardı
qubılıslardın
qubılıslarg
qubılıstın
qubılısı
quda
qudag
qudalarg
qudanın
quday
qudaydın
qudayg
qudaylar
qudayları
qudaylıq
qudayı
qudireti
qudiretti
qudıreti
qudıyar
que
queen
queenstag
query
question
quickfacts
quiero
quilon
qul
qulag
qulan
qulap
qulaq
qulaqqa
qulash
qulashi
qulg
qulinlaydi
qullar
qullarni
qullarning
qullası
qulmurat
qulpı
qulqı
qulqın
quls
qulshılıq
qulı
qulıq
qum
qumar
qumardı
qumardın
qumlar
qumlı
qumlıqları
qumsheker
qumshekerqamishning
qumıq
qun
qunanbay
quni
qunlı
qunt
qunı
quote
qur
qura
quradi
quradı
quradıharvnb
qurag
qural
quraladı
quralg
qurallanıw
qurallar
qurallardan
qurallardı
quralları
quralların
qurallarına
qurallarında
qurallarının
qurallı
quralı
quralıp
quram
qurama
quramali
quramalı
quramg
qurami
quramina
quraminda
quramindag
quramlıq
quramı
quramın
quramına
quramınan
quramınd
quramında
quramındag
quramının
quran
quranda
quranı
qurap
qurawshı
quraydi
quraydı
quraysh
quraytug
qurban
qurbanbaev
qurbanbay
qurbangu
qurbaniyaz
qurbaniyazdın
qurbanov
qurbanı
qurdi
qurdiharvnb
qurdilar
qurdilarharvnb
qurdı
qurg
quri
qurildi
qurilg
qurilis
qurilish
qurilishi
qurip
quritiladi
quriw
qurt
qurtlar
qurtı
qurulg
qurultay
qurultoyi
quruq
qurı
qurıladı
qurıldı
qurılg
qurılma
qurılmalar
qurılmaları
qurılıp
qurılıs
qurılısları
qurılısı
qurılısına
qurılısında
qurılısındag
qurılıwı
qurıp
qurısın
qurıtılg
qurıw
qurıwda
qurıwdın
qurıwı
qus
qusag
qusda
qushag
quslar
quslardan
quslardin
quslardı
quslardın
qusları
qustan
qustay
qustı
qustın
qusı
qusıw
qut
qutadg
qutlı
qutlımurat
qutlımuratov
qutqarıwg
qutı
qutılıp
qutılıw
quuıp
quw
quwadı
quwanadı
quwang
quwanısh
quwanıshlı
quwat
quwatladi
quwatlag
quwatlanatug
quwatlandı
quwatlang
quwatlanmadi
quwatlap
quwatlaw
quwatlawg
quwatlawshı
quwatlaydı
quwatlı
quwatı
quwatın
quwdalawg
quwg
quwip
quwrap
quwwatlı
quwıp
quwırshaq
quwırılg
quwırıw
quwıslıg
quy
quyadı
quyar
quyarlıg
quyash
quyashlı
quyashqa
quyashtag
quyashtan
quyashtın
quyg
quyiladi
quyilib
quyiliwi
quyilsa
quyma
quyrıg
quyrıq
quyıladı
quyıp
qı
qıdırbay
qıdırdı
qıdırg
qıdırıw
qıl
qıla
qıladı
qılaplıq
qılar
qılatug
qılatın
qıldı
qılg
qılsa
qılsan
qılw
qılwdag
qılınadı
qılıng
qılınıp
qılıp
qılıq
qılısh
qılıshbazlıq
qılıshın
qılıw
qılıwda
qılıwdiharvnb
qılıwdı
qılıwdın
qılıwg
qımbat
qımbatlı
qımbatqa
qımbatı
qın
qıp
qıpshaq
qıpshaqlar
qıpshaqlardın
qır
qırap
qıraq
qırg
qırları
qırlı
qırq
qırı
qırım
qırımtatarsha
qırıq
qıs
qısq
qısqa
qısqalıq
qısqardı
qısqarg
qısqartirdi
qısqartirilgan
qısqarıp
qısqarıwı
qısqarıwına
qısqasha
qısqı
qıssa
qıssalar
qıssaları
qıssası
qıssaxan
qıssaxanlıq
qısta
qıstırg
qıstırıp
qısı
qısılıw
qısım
qısımı
qısıp
qısıw
qıtay
qıtayda
qıtaydag
qıtaydan
qıtaydı
qıtaydın
qıtayg
qıtaylılar
qıtaylıq
qıtaylıqlar
qıtaylıqlardı
qıtaysha
qıtt
qıtıw
qıya
qıyal
qıyalıy
qıyamet
qıyar
qıyas
qıyat
qıylı
qıynalg
qıynalıp
qıysıq
qıyın
qıyınshılıq
qıyınshılıqlar
qıyınshılıqlardı
qıyınshılıqlarg
qıyınshılıqları
qıyınshılıqların
qız
qızarg
qızargach
qızarganda
qızarguncha
qızargunicha
qızarib
qızartirib
qızarıp
qızdan
qızdı
qızdın
qızdırılg
qızdırıw
qızg
qızketken
qızlar
qızlardı
qızlardın
qızlarg
qızları
qızlarıdan
qızlarınan
qızlarının
qızı
qızıg
qızıl
qızılgu
qızılo
qızılqum
qızım
qızın
qızına
qızıq
qızıqlı
qızıqqan
qızıqtıradı
qızıqıp
r
ra
rabad
rabat
rabbılıq
rabg
rac
race
racing
radan
radar
radial
radio
radioaktiv
radioaktivlik
radioda
radioelektronika
radioesittiriw
radiog
radiokanalında
radiorele
radiosi
radiosida
radiostanciya
radiostansiya
radiosı
radiotexnika
radiusı
radiy
radsch
rae
rafael
ragon
rahmon
railroad
railway
rainbow
rajapbay
rajput
rak
raketa
raketalar
raketanın
raladi
ralgan
rama
ramaly
ramasamy
ramat
ramatlar
ramatlardın
ramatlı
ramattın
ramatı
ramazan
ramzi
ramziy
ran
randa
ranger
ranking
rannın
raphael
raphaeldi
raphaeldin
rapid
rapide
rapidning
raq
rard
ras
rasi
rasmiy
rasmıy
rassomlar
rasul
rası
rat
ration
ratları
ratsional
ratı
raufboyeva
raundi
rawaj
rawajlana
rawajlanadı
rawajlanatug
rawajlanbag
rawajlandi
rawajlandı
rawajlandırdı
rawajlandırg
rawajlandırıp
rawajlandırıw
rawajlandırıwda
rawajlandırıwdın
rawajlandırıwg
rawajlang
rawajlaniw
rawajlaniwg
rawajlaniwi
rawajlanıp
rawajlanıw
rawajlanıwda
rawajlanıwdın
rawajlanıwg
rawajlanıwlastırılgan
rawajlanıwı
rawajlanıwın
rawajlanıwına
rawajlanıwında
rawajlanıwındag
rawajlanıwının
rawanlıg
rawanlıq
raxibi
raxim
raxip
raxmanov
raxmanovtın
raxmet
ray
raya
rayat
rayatı
rayatın
rayatına
rayi
raykov
rayon
rayonda
rayondag
rayondan
rayong
rayoni
rayoninda
rayoninin
rayonlar
rayonlarg
rayonlari
rayonlarinan
rayonlarinda
rayonları
rayonlarına
rayonlarında
rayonlarındag
rayonlarının
rayonlıq
rayonnın
rayonı
rayonın
rayonına
rayonınan
rayonında
rayonındag
rayonının
rayxan
rayı
rayına
raza
razi
razimbetov
razvedka
razvitie
razı
razılıg
rbir
rbiri
rbiya
rbiyalanadı
rbiyalandı
rbiyalang
rbiyalanıp
rbiyalap
rbiyalaw
rbiyalawg
rbiyalıq
rbiyanın
rbiyashı
rbiyası
rbiyasına
rca
rcal
rd
rda
rdar
rdarı
rdayım
rde
rdegi
rdek
rdem
rdemdi
rdemi
rdemin
rdeminde
rdemlesedi
rdemshi
rdemshileri
rdemshisi
rden
rdi
rdikar
rdim
rdin
rdiske
rdoba
rdı
rdın
re
read
reading
reagan
reaksiya
reaksiyalar
reaktiv
real
realestate
realistlik
realizm
rear
rebecca
rebek
recent
recep
recessiya
recessiyadan
recessiyag
record
records
recto
red
redakciyası
redakciyasının
redaktor
redaktordın
redaktori
redaktoriyati
redaktoriyatining
redaktorlıq
redaktorı
redaktsiya
redalyc
redi
rediska
ref
refereesu
reference
referendum
reflekslari
refleksleri
reforma
reformalar
reformashılar
refpearson
refuge
refugees
regali
rege
regel
regen
regi
regia
regime
regin
regine
region
regional
regionda
regiondag
regioni
regionin
regioninde
regionlarda
regionları
regionlarının
regionlıq
regions
regionı
registration
regulationsfu
reikyavik
reje
rejede
rejedegi
rejege
rejeleri
rejelestirgen
rejelestirilgen
rejelestiriwler
rejeli
rejeni
rejesi
rejesin
rejesinde
rejesine
rejesinen
rejesinin
rejet
rejetler
rejetlerdi
rejetleri
rejetlerin
rejim
rejimi
rejimin
rejiminde
rejisser
rejisserı
rejissor
rejissura
rejissyor
rek
rekburuni
reke
reket
reketdegi
reketdi
reketi
reketin
reketinde
reketine
reketinen
reketinin
reketke
reketlenedi
reketlenip
reketleniw
reketleniwshi
reketler
reketlerde
reketlerdi
reketlerdin
reketlerge
reketleri
reketlerin
reketlerine
reketlerini
reketlerinin
reketshen
reketsiz
rekette
rekettegi
reketti
rekettin
reklama
rekler
reklerde
rekleri
reklerin
rekli
rekord
rekordini
rekordlar
rekordlariga
rektin
rektori
rektorlari
relations
release
releases
reli
relyef
relyefi
remaining
rembrandt
remix
remixes
remiz
remnants
remont
remontlap
remontlaw
remurat
ren
renault
rene
renessans
rep
repdarları
repdarların
repdarı
repden
repertuarın
repi
repin
repinde
repindegi
repine
repinen
repinin
repinnen
repke
repleme
repler
replerdin
replerge
repleri
replerin
replerine
replerinin
report
reportaj
reportajlar
reports
repressiya
repte
reptegi
repten
reptin
repu
republic
republika
rer
res
resdiharvnb
resdilarkitob
resdiler
research
researchgate
resedi
reshi
reshova
resi
resimi
resin
resinin
resip
resiw
resiwde
resiwge
resizlik
reske
resken
resler
reslerde
reslerdi
resleri
resmiy
reso
resog
resolution
resorts
respiwbliyka
respiwbliykalıq
respiwbliykanın
respiwbliykasının
response
respublika
respublikada
respublikag
respublikalar
respublikaları
respublikalarında
respublikalıq
respublikamız
respublikamızda
respublikamızdag
respublikamızdın
respublikanın
respublikashılar
respublikasi
respublikasinda
respublikasindag
respublikasinin
respublikası
respublikasın
respublikasına
respublikasınan
respublikasında
respublikasındag
respublikasının
resshen
reste
resteler
resteni
restenin
resti
restin
restoranlar
results
resurs
resurslar
resurslardan
resurslardı
resurslardın
resurslari
resursları
resursların
resurslarına
resurslarınan
resı
ret
retdinov
rete
retedi
reti
retildi
retiledi
retilgen
retilip
retiliwi
retinde
retindegi
retip
retiw
retiwi
retiwine
retiwshi
retiwshiligi
retiwshiligin
retiwshiliginde
retiwshiligindegi
retiwshiligine
retiwshiliginin
retiwshilik
retiwshinin
retiwshisi
retken
retlenedi
retlenip
retlestiriwshi
retlik
retpe
retpeler
retpeleri
retpelerin
retpelerinde
retpelerinin
retpesi
retpesinde
retpesinin
retrieved
retsenziya
retsenziyanın
retti
retug
return
returns
reuters
revealed
reveals
revenant
review
revizor
revolution
revolyuciya
revolyuciyadan
revolyuciyalıq
revolyuciyashı
revolyuciyası
revolyuciyasının
revolyutsiya
revolyutsiyadan
revolyutsiyalıq
revolyutsiyasi
revolyutsiyası
rewriting
rey
reyn
reytin
reyting
reytinginde
reyunyon
rez
rezerford
rezerv
rezervi
rezi
rezidenciyası
rezina
rezli
rezsiz
rezsizligi
rezsizligin
rezsizligine
rezsizliginin
rezsizlik
rezsizlikke
rezsizlikti
rezsizliktin
rf
rg
rgb
rge
rgen
rgende
rgeninde
rgenish
rgenishke
rgenlerinde
rgensh
rgezbe
rgezbeler
rgezmesinde
rgil
rgin
rginde
rginge
rgisi
rgiz
rgizbeler
rgizbelerde
rgizbesi
rgizdi
rgizedi
rgizetug
rgizgen
rgizildi
rgiziledi
rgizilgen
rgiziw
rgiziwshi
rgv
rh
rha
rhal
rhead
ri
ria
riaa
rib
ribaev
ribaevtın
ribi
ribin
rica
richard
ricklefs
ridus
rieffel
rifleri
riga
rige
right
rigoletto
rik
rika
riko
riler
riletug
rilgan
rilgen
rilik
rilip
rim
rimde
rimdegi
rimge
rimlikler
rimliler
rimnin
rin
rinbeydi
rind
rinde
rindegi
rindi
rine
rinedi
rinen
rinetug
ringen
rinin
rinip
rinis
rinisi
rinisin
rinisinde
rinisindegi
rinisinden
rinisine
riniske
rinisler
rinislerde
rinislerdi
rinislerdin
rinislerge
rinisleri
rinislerin
rinisli
riniste
rinistegi
rinisti
riniwi
rinli
rio
rip
ripler
riplerdin
ripleri
riplerinen
riplerinin
ripten
riptin
ris
rise
rish
rishge
rishli
rishni
rishten
risi
risida
risin
risip
risk
rist
risten
rita
riteriai
ritiledi
ritiw
ritm
ritmlilik
ritmlilikke
river
rivojlanish
riw
riwden
riwdi
riwge
riwi
riwimizge
riwin
riwine
riwshi
riwshiler
rixana
riy
riya
riyad
riyaladı
riyaladıkitob
riyaladılarharvnb
riyalag
riyalana
riyalanadı
riyalandı
riyalang
riyalanıp
riyalaw
riyalaydı
riyalaydıveb
riyar
riydin
riyip
riym
riyp
riypi
riyplenedi
riyplew
riyx
riyxiy
riyxı
riyxıy
rizde
rize
rizi
rizli
rizliler
rk
rkar
rkdeniye
rkem
rkemlew
rkemligi
rkemlik
rkesh
rki
rkim
rkini
rkistan
rkistanda
rkistang
rkistannan
rkistannın
rkit
rkiw
rkiy
rkiya
rkiyada
rkiyadag
rkiyanin
rkiyanın
rkke
rkler
rklerdin
rkmen
rkmenbas
rkmenistan
rkmenistanda
rkmenistandag
rkmenistanin
rkmenistannın
rkmenistanın
rkmenler
rkmenlerde
rkmenlerdin
rkmenstan
rkshe
rkstan
rkte
rktin
rl
rlandiya
rledi
rlegen
rlen
rleniw
rler
rlerden
rlerdi
rlerdin
rlerge
rleri
rlerin
rlerinde
rlerine
rlerinen
rlerinin
rli
rligi
rligin
rlik
rliligi
rliman
rlishe
rlı
rm
rma
rman
rmanda
rmandi
rmanları
rmanların
rmanı
rmanına
rme
rmedim
rmegen
rmekshi
rmekte
rmeli
rmese
rmesiz
rmet
rmeti
rmetin
rmetine
rmetke
rmetlew
rmetli
rmetti
rmey
rmi
rn
rnashildiharvnb
rnekli
rnirler
rnirlerı
rnın
ro
road
roadster
robert
roberto
rock
rocky
rodiniya
rodri
rodrigo
rodrigues
rodriguez
roge
roger
rogerio
roi
rok
rol
roland
roldi
role
roli
rolik
rolin
rolinde
roll
rolling
rolls
rom
roma
roman
romanda
romandı
romanlar
romanları
romannın
romantik
romantikalıq
romantizm
romanus
romanı
romanın
romanında
rome
romeo
ron
ronald
ronaldo
ronaldoga
ronaldoning
ronaldu
rooney
rosario
rossiya
rossiyada
rossiyag
rossiyalıq
rossiyanin
rossiyanın
rotary
rotor
rotorlı
roubini
roud
roulinson
roundi
roundı
routledge
rover
row
rowling
royal
royce
royse
rp
rpe
rpi
rq
rqanday
rquez
rqulla
rqır
rr
rre
rrege
rreler
rreleri
rrende
rresi
rrin
rriw
rs
rsatilgan
rsatuv
rsatuvlar
rsatuvlarni
rse
rseden
rsege
rseler
rselerdi
rselerdin
rselerge
rsen
rseni
rsetdi
rsete
rsetedi
rsetedı
rsetetug
rsetildi
rsetiledi
rsetilgen
rsetiliwi
rsetilmegen
rsetip
rsetiw
rsetiwde
rsetiwdi
rsetiwdin
rsetiwge
rsetiwi
rsetiwine
rsetiwinshe
rsetiwler
rsetiwlerdin
rsetiwleri
rsetiwlerin
rsetiwshi
rsetken
rsetkish
rsetkishi
rsetkishke
rsetkishler
rsetkishlerden
rsetkishlerge
rsetkishleri
rsetkishten
rsetkishti
rsetpekte
rsetpeler
rsetpesi
rsetse
rsetti
rsetuvi
rsetuvlar
rsetıw
rsfsr
rsh
rshe
rshembi
rshiligi
rss
rsı
rt
rta
rtasha
rtda
rte
rtebe
rtebege
rtebein
rtebeine
rtebesi
rtelik
rtep
rtesi
rtew
rtewi
rtewinin
rti
rtibi
rtibin
rtibinde
rtik
rtiklerden
rtin
rtinshi
rtinshisi
rtip
rtipke
rtipli
rtipsiz
rtipte
rtipti
rtke
rtku
rtkul
rtler
rtlerdi
rtleri
rtlerin
rtlershe
rtlesiw
rtlesiwge
rtlesiwi
rtlesiwinde
rtli
rtligi
rtlik
rtlı
rtma
rtmu
rtmuyush
rtmuyushler
rtnama
rtnamada
rtnamag
rtnamalar
rtnamaları
rtnamanın
rtnaması
rtnamasın
rtnamasına
rtnamasında
rtnamasının
rttemberg
rtti
rtu
rtın
ru
ruanda
rubayı
rubrikalar
rug
ruhdagi
ruhı
ruled
rum
rumin
ruminiya
rumıniya
runtime
rupert
rupi
ruqsat
rur
rus
ruslar
russell
russha
russhada
russia
russian
russias
russiasupplychain
rustam
rutherford
ruw
ruwdan
ruwdın
ruwları
ruwlarının
ruwx
ruwxanıy
ruwxın
ruwxında
ruwxıy
ruwxıylıq
ruwınan
rux
ruxsat
ruxsatsız
ruxta
rv
rw
rwan
rwanda
rwaz
rwaza
rwazası
rwish
rx
rxana
rxanag
rxanalar
rxanalarda
rxanalardan
rxanalardın
rxanalarg
rxanaları
rxanalarının
rxananı
rxananın
rxanası
rxanasına
rxanasında
ry
rya
ryada
ryadan
ryag
ryalar
ryalarda
ryalardan
ryalardın
ryaları
ryalarında
ryalarının
ryam
ryanı
ryanın
ryasi
ryası
ryasın
ryasına
ryasınan
ryasında
ryasının
rzde
rziya
rı
rın
rınd
rındı
rıtsar
rıw
rıwshı
s
sa
saadiy
saat
saatlar
saatları
saatlıq
saatqa
saatsha
saatına
sabadell
sabag
sabanlarsha
sabaq
sabaqlar
sabaqları
sabaqlig
sabaqliqlar
sabaqlıg
sabaqlıq
sabaqlıqlar
sabarlıq
sabirabad
sabit
saburova
sabı
sabın
sabıq
sabır
sabıw
sacred
sada
sadaq
sadıq
sadıqlıq
safaviyler
safida
sag
saggs
saginbay
sahara
sahifasi
sahra
sahralarda
sahrası
saidov
sainsbury
saint
sak
saka
saklar
saklardin
saks
sal
sala
saladi
saladı
salafi
salamanca
salamanka
salamat
salamatlıg
salar
salası
salasın
salasında
salasındag
salat
salatug
salazar
saldamlı
saldat
saldi
saldı
saldıharvnb
saldım
sale
sales
salg
sali
salig
saling
saliq
saliqqa
salistirg
salistirmali
salma
salmag
salmalar
salmaq
salmaqli
salmaqlı
salmaqlılıq
salmaqlılıqtın
salmas
saloni
salqın
salqınlaw
salt
saltanat
saltanatli
saltanatlı
saltanatı
salvador
salvadorni
salı
salıg
salınadı
salınatug
salındı
salındılaryosaburo
salıng
salını
salınıp
salıp
salıq
salıqlar
salıqlardı
salıqqa
salıstırg
salıstırmalı
salıstırılg
salıstırılıp
salıstırıp
salıstırıw
salıstırıwiy
salıstırıwlanatug
salıw
salıwdı
salıwdın
salıwg
salıwshı
salıwshılardın
salıwshıları
salıwshılarının
salıwshısı
samal
samaldın
samalg
samallar
samalı
samaniyler
samarkand
samarqand
samarqandcha
samarqandqa
samarqandtag
sambo
same
sammit
sammiti
sammitke
sammitler
sammitte
samo
samoa
samolyot
samolyotlar
samolyotı
samsung
samuel
san
sana
sanaa
sanaat
sanaatda
sanaati
sanaatida
sanaatlarin
sanaatları
sanaatlıq
sanaatta
sanaattın
sanaatı
sanaatının
sanag
sanaladi
sanaladı
sanalg
sanalgan
sanalı
sanama
sananin
sananın
sanap
sanaq
sanasi
sanasın
sanasına
sanasında
sanasının
sanatoriya
sanaw
sanda
sandı
sandıg
sanfrecce
sang
sani
saninin
sank
sankt
sanlar
sanları
sanlı
sanlıq
sanoat
sanskrit
sant
santa
santander
santi
santiago
santimetr
santisekund
santos
santımetr
sanı
sanıc
sanın
sanına
sanınan
sanında
sanının
sap
sapa
sapalı
sapar
saparda
saparg
saparlardı
saparların
saparlarında
saparmyrat
saparnama
saparov
saparı
saparına
sapası
sapasın
saplastırılıwı
saplastırıw
sapta
saqallı
saqibi
saqlag
saqlanadı
saqlanatug
saqlanbaqta
saqlang
saqlanıp
saqlanıw
saqlanıwı
saqlanıwına
saqlap
saqlaw
saqlawda
saqlawdı
saqlawg
saqlawshı
saqlawshıg
saqlawı
saqlaydı
saqlaytug
saqna
saqnag
saqıyna
sar
sara
saraevo
saragosa
sarah
saralaw
saratan
saratov
saray
saraydan
saraydı
sarayg
sarayları
sarayı
sarayın
sarayına
sarayında
sarg
sari
sariplanatug
sariq
sarkadalılar
sarkozi
sarkozy
sarlavha
sarmat
sarmatlar
saroy
sarplanıwı
sarqıramadag
sarqıramalar
sarqıramaları
sarqıramanın
sarqıraması
sart
sarı
sarıbay
sarıgu
sarımsaq
sarımsaqlı
sarımsaqpiyoz
sarıqamıs
sasaniyler
sat
satbaev
satbay
satip
satira
satiralıq
satirik
satiw
satqan
saturn
satıladı
satılatug
satılg
satılıwı
satılıwın
satıp
satıq
satıw
satıwdı
satıwg
satıwlar
satıwshı
saudiya
savanna
savitskiy
saw
sawal
sawap
sawash
sawashinda
sawashlar
sawashlarda
sawashlardan
sawashta
sawat
sawatlı
sawatsız
sawatı
sawatın
sawda
sawdada
sawdag
sawdager
sawdagerler
sawdagerlerden
sawdagerlerdi
sawdagerlerdin
sawdagerleri
sawdagerlerinin
sawdanin
sawdanı
sawdanın
sawdasi
sawdasina
sawdası
sawdasın
sawdasına
sawdasında
sawdasının
sawg
sawlatlı
sawlelendiriw
sawliqti
sawlıg
sawlıqtı
sawıp
saxara
saxaranın
saxi
saxna
saxnada
saxnag
saxnalastırdı
saxnalastırg
saxnasına
saxnasında
say
saya
sayada
sayalı
sayaman
sayan
sayatxan
sayaxat
sayaxatda
sayaxatlar
sayaxatlarg
sayaxatları
sayaxatshı
sayaxatshılar
sayaxatshıları
sayaxatshısı
sayaxatta
sayaxatı
sayaxatını
sayg
saylag
saylanadi
saylanadı
saylandi
saylandı
saylang
saylap
saylar
saylaw
saylawda
saylawdan
saylawg
saylawlar
saylawlarda
saylawlarında
saylawlarının
saylawında
saylaydı
sayligi
says
sayt
saytda
sayti
saytida
saytidagi
saytinda
saytlar
saytlarda
saytlardı
saytlarg
saytta
sayttın
saytı
saytına
saytında
sayın
sayıpov
sayız
sayızlıg
saz
saza
sazan
sazawar
sazende
sazendeler
sazi
sazları
sazların
sazlaw
sazlı
sb
sbap
sbaplar
sbapları
sbs
sc
scaglietti
scala
scene
scheil
schools
schwartz
science
sciences
scientific
scoperta
scorpion
scott
scribner
scuderia
sdi
se
sea
search
seas
season
seat
sebastia
sebastian
sebastyan
sebeb
sebebi
sebebin
sebebinen
sebep
sebepinen
sebepler
sebeplerge
sebepleri
sebeplerin
sebeplerinen
sebepli
sebeplı
sebepshi
sebepshisi
sebepten
sebetshe
sec
secam
second
secret
sect
sector
sedan
sedanlar
sedi
segiz
segizinshi
segment
sehir
sek
seki
sekichilaridan
sekiles
sekirip
sekishige
sekretar
seksen
seksewil
sektor
sektorg
sektori
sektorinin
sektorın
sektorında
sektorının
sekund
sekundada
sekundına
sel
seldjukler
sele
selege
seleler
selelerde
selelerdi
selelerdin
selelerge
seleleri
selelerin
selelerine
selen
selena
seleni
selenin
selesi
selesin
selesinde
selesine
selfi
selgen
selim
sell
sells
seloda
sem
sement
semeru
semiz
semserler
semyasında
semyasının
sen
senat
senatı
senderdi
senegal
seni
senim
senimi
senin
senior
sensor
sent
sentiyabrde
sentyabr
sentyabrde
sentyabrden
sentyabrinde
sentyabrine
sentyabrinen
senw
sepib
sepiladi
sepligindegi
seplik
september
sequeira
ser
serb
serbiya
serbiyada
serbiyadan
serbiyanın
serblar
serblarning
serdin
serekeev
sergey
serhetabat
seri
series
serigi
serik
serikler
serisi
seriya
seriyası
serjant
serra
serraoni
sertifikat
server
service
serxio
ses
sesi
sesine
sesler
seslerdi
seslerdin
seslerinin
sesli
seslik
sessiyasında
sesten
sesti
sestin
set
sete
setken
setser
setug
seul
seuta
seutanı
seviliya
sevilya
sexo
sey
seychelles
seyedi
seyfulg
seyil
seyip
seyiwde
seyshel
seytjanov
seytnazarov
seytov
sezar
sezbedi
sezdi
sezedi
sezgen
seziledi
sezilerli
sezilip
sezim
sezimi
sezimin
sezimler
sezimlerdi
sezimlerge
sezimleri
sezimlerin
sezip
seziw
seziwi
seziwshen
seziwshi
sezonda
sezonın
sezonında
sezuvchi
sf
sfandiyar
sferik
sfn
sfry
sfryu
sg
sguazzini
sh
sha
shaba
shabandozlar
shabayın
shabdal
shabıs
shabıw
shabıwılchiligi
shabıwıllarınan
shabıwılshılar
shabıwılshıları
shabıwılı
shad
shadlı
shafeliginde
shag
shahar
shahri
shahrisabz
shahzoda
shakespeare
shakespearedin
shakira
shakuntala
shala
shalbar
shalg
shalı
sham
shama
shamada
shamadag
shamalanadı
shamalar
shamalarg
shamalas
shamalıq
shamash
shamasi
shaması
shamasına
shamasında
shamshetdin
shamshetov
shamsul
shamuratov
shamuratova
shamuratovtın
shan
shandun
shang
shanghai
shaniyaz
shanxay
shap
shapan
shaqaları
shaqalarına
shaqapları
shaqapshaları
shaqası
shaqiradi
shaqları
shaqqan
shaqqanlıq
shaqıradı
shaqırdı
shaqırg
shaqırtıp
shaqırıladı
shaqırılg
shaqırılıp
shaqırım
shaqırıp
shaqırıq
shaqırıw
shar
shara
sharalar
sharap
sharası
sharayat
sharayatlar
sharayatlarda
sharayatlarg
sharayatları
sharayatların
sharayatta
sharayatın
sharayatında
sharda
share
sharinin
sharof
sharpen
sharq
sharqiy
sharsimon
shartnama
sharwa
sharwalar
sharwashiliq
sharwashılıg
sharwashılıq
sharwashılıqta
sharı
sharın
sharındag
sharının
shash
shashpo
shashta
shashtı
shashın
shashına
shashıw
shassi
shassilarning
shastry
shatır
shauamız
shauıp
shavkat
shawlıqları
shawqım
shawqımlı
shawıp
shax
shaxabshaları
shaxlar
shaxmat
shaxnama
shaxnamanın
shaxrisabz
shaxruq
shaxs
shaxslar
shaxslardın
shaxslarg
shaxsqa
shaxstın
shaxsın
shaxzada
shaxı
shay
shaya
shayan
shayir
shayqus
shaytan
shayxontohur
shayı
shayıq
shayır
shayırdı
shayırdın
shayırg
shayırlar
shayırlardı
shayırlardın
shayırları
shayırlarınan
shayırlarının
shayırlıq
shayırshılıq
shayırı
shdan
she
sheber
sheberi
sheberleri
sheberlerinin
sheberligi
sheberligin
sheberlik
shede
shedegi
sheden
shedevr
shedi
sheet
shegara
shegaralang
shegaralar
shegaralardı
shegaralardın
shegaraları
shegaraların
shegaralarına
shegaralarında
shegaralas
shegaralasadı
shegaralasqan
shegaralasıp
shegaranı
shegarasi
shegarası
shegarasın
shegarasına
shegarasınan
shegarasında
shege
shegi
shegirtke
shejire
shejiresi
shejiresinde
shek
sheke
shekem
shekemgi
sheker
sheki
shekke
sheklenbegen
sheklengen
sheklep
sheklew
sheklewge
sheksiz
shekspir
shekspirdin
sheler
shelerde
sheleri
shell
shemirshek
shen
shenin
shep
shepke
shepte
sher
sheraz
sheraziy
sherbet
sherdin
sheregi
shereginde
shereginen
sherek
sherg
sheri
sherigi
sherik
sheriklik
sheriklikte
sheriklikti
shermende
shernazar
sherniyaz
shernogoriya
sherobod
shertek
shertetug
shertip
shertiw
shertıw
sheshe
sheshek
sheshen
sheshenlik
sheshildi
sheshiledi
sheshiliwi
sheshim
sheshimge
sheshimi
sheshimin
sheshimine
sheshiminen
sheshimlerin
sheship
sheshiw
sheshiwde
sheshiwdi
sheshiwge
sheshiwshi
shesi
shesinde
shet
shetinde
shetindegi
shetine
shetke
shetlep
shetleri
shetlerine
shetsinde
shette
shetten
shevchenko
shevchenkonın
shew
shewi
shexiya
sheybani
sheydi
sheyedi
sheygen
sheyip
sheyiwi
sheyl
sheytip
sheytiw
sheytiwi
sheytti
sheyx
shga
shi
shidan
shift
shig
shigip
shigit
shikay
shili
shilik
shiliq
shiller
shimbay
shimbra
shin
shine
shinin
shinshi
shinshiden
shinshisi
ship
shipovnik
shiqqan
shiqqani
shiqti
shirak
shiraz
shire
shiresi
shirildi
shiriledi
shirilgen
shirin
shirip
shiriw
shirket
shirketi
shirketler
shirkew
shirkewde
shirkewi
shirkewinde
shirkewine
shirkewler
shirkey
shirkeyler
shirkeylerdi
shiw
shiwi
shiy
shiye
shiyki
shiyrin
shiyrinnen
shiyshe
shkaf
shkara
shkaralanadı
shkaralaydı
shke
shken
shkende
shkerleri
shki
shler
shlerdi
shlerdin
shleri
shlerin
shlerine
shlerinin
shli
shlyuz
shlı
shmu
shmuyeshin
shni
sho
shoh
shohi
shohira
shokolad
shokoladtin
sholpan
shomanay
shop
shopan
shopanlar
shopen
shopping
shoq
shoqmarıp
shoqındırılg
shora
shotland
shotlandiya
shotlandiyada
shotlandiyalı
shotlandiyanin
shotlandiyanın
shou
show
shows
shozılg
shpe
shpeli
shpeliler
shpelinchilarni
shpelis
shpelı
shpenshiler
shpes
shqipe
shri
shrift
shsiz
shsizlenip
sht
shtab
shtamg
shtamm
shtat
shtati
shtatlar
shtatlarda
shtatlardag
shtatlari
shtatları
shtatlarında
shtatlarının
shtatı
shtatında
shtatındag
shtatının
shten
shti
shtml
shu
shuanyudaa
shubert
shubha
shubhaları
shubhasız
shug
shuhrat
shumlarg
shuqır
shuqırlıg
shuqırlıql
shust
shutruk
shv
shved
shvetsiya
shvetsiyanın
shveycariya
shveysariya
shveytsariya
shveytsariyada
shveytsariyanın
shwishleri
shymkent
shı
shıbın
shıdamay
shıdamlı
shıdamlılıg
shıdamlılıq
shıdap
shıg
shıjıg
shılaiw
shılardın
shılpıq
shılpıqtın
shılıq
shımbay
shımbaydag
shımbaydın
shımbayg
shımkent
shımshıq
shın
shıng
shınjır
shınjırg
shınjırlar
shınjırlı
shınlıg
shınlıq
shınıg
shınında
shıpaker
shıpakeri
shıpakerler
shıq
shıqpag
shıqpaydı
shıqqan
shıqqanda
shıqqanlıg
shıqqannan
shıqqanı
shıqqanında
shıqsa
shıqsam
shıqtı
shıqtıjurnal
shırag
shırashılar
shıray
shıraylı
shırshıq
shıyshe
si
siam
siamlarning
sibet
sibeti
sibetin
sibetler
sibetlerdin
sibette
sibetti
sibi
sibinde
sibine
sibir
sibirde
sibirden
sibirdin
side
sidik
sie
sierra
sifatida
sign
signal
signaldı
signallar
signallardı
signalları
signalların
signalı
signalın
signalına
signing
signs
sikli
siklli
sil
silge
sili
silkiniw
silkiniwler
silli
sillik
siltemeler
siltese
siltew
siltewi
siltewler
silur
silva
silver
silverstone
sim
sima
simbollıq
simbolı
simfoniya
simi
simligi
simlik
simlikler
simliklerde
simliklerden
simliklerdi
simliklerdin
simliklerge
simlikleri
simliktin
simmetrik
simon
simple
simpson
simvol
simvolı
sin
sina
sinapslar
sinaptik
sinapus
sinay
since
sincouwaan
sind
sinde
sindegi
sindi
sindiredi
sindiretug
sindiriledi
sindirip
sindiriw
sindiriwinde
sindiriwshi
sindirme
sindirmeci
sindromi
sine
sinedi
sinekdoxa
sinemiz
sinetug
sinf
singapur
singen
singh
single
singli
singlisi
sinigi
sinigin
sinigine
sinik
sinikler
siniklerge
sinikleri
siniklerin
siniklerinin
sinikli
siniksiz
sinikte
siniledi
sinip
siniw
siniwge
sino
sinonim
sinonimler
sinshilik
sintaksis
sintaksisi
sintaksislik
sintaktik
sintetik
sintez
sintezi
sintiredi
sinxron
sip
sipatinda
sipatında
sipke
sipler
siplesi
siplik
siprage
sipti
siqib
sir
sira
sirda
sirdarya
sirdaryo
sirde
sirdegi
sirden
sirdi
sirdin
siredi
sirese
siretli
siretug
sirge
sirgen
siri
sirildi
siriledi
sirilgen
sirilip
siriliwi
sirim
sirin
sirinde
sirindegi
sirine
sirinen
sirinin
sirip
siriw
siriwdi
siriwge
siriwshi
siriya
siriyanın
sirkesi
sirlendiriwshi
sirler
sirlerde
sirlerdegi
sirlerden
sirlerdin
sirlerdinde
sirlerge
sirleri
sirlerin
sirlerine
sirli
sirlik
sirshen
sirt
sirtindag
sirtqi
sirtta
sistema
sistemada
sistemadan
sistemag
sistemalar
sistemalarda
sistemalardın
sistemalari
sistemaları
sistemalarında
sistemalarındag
sistemalı
sistemanı
sistemanın
sistemasi
sistemasin
sistemasina
sistemasinan
sistemasinin
sisteması
sistemasın
sistemasına
sistemasınan
sistemasında
sistemasındag
sistemasının
sistine
site
sites
siti
sitsiliya
sity
sityda
siurana
sivakumar
sivas
siw
siwdi
siwdin
siwge
siwi
siwin
siwine
siwinin
siwshi
sixth
siyaqli
siyaqlı
siyasat
siyasati
siyasatin
siyasatshı
siyasatshılar
siyasattı
siyasatı
siyasatın
siyasatına
siyasatının
siyasiy
siyasıy
siyat
siyatlaw
siyatına
siyeti
siyetin
siyetine
siyetke
siyetler
siyetlerdi
siyetlerge
siyetleri
siyetlerin
siyetlerine
siyetlerinen
siyetlerinin
siyetli
siylig
siyliqlandi
siyliqlari
siyrek
siz
sizdin
sizge
sizig
sizilmada
sizin
siziq
sizlik
sj
sk
skala
skalyar
skameyka
skandinav
skandinaviya
ske
skelet
skeleti
sken
skende
skender
skene
skeneler
skenelerden
skeneleri
skenelestirilgen
skenelew
sker
skerdi
skeriy
skerler
skerleri
skerlerin
skinlikke
skleroz
skoda
skodaning
skodas
skopye
skripka
skripkashı
skulptor
skyactiv
skyline
skype
sl
sla
slaha
slam
slamabad
slami
slamnan
slandiya
slave
slavyan
slavyanskiy
slebinde
slep
slepki
sli
sliginde
slik
slobodan
slovak
slovakiya
sloven
slovenia
sloveniya
sloveniyada
sloveniyalıq
sloveniyanın
slovenlar
slovenshe
slovenskie
slow
slık
sm
smayıl
smile
smit
smith
smithsonian
smithsonianmag
smittin
smiy
smiylestiriledi
smiylestirilmegen
smm
sms
smıy
sn
snawiy
snell
snickers
so
soares
soatov
sobor
soborı
sobre
sobıq
soccer
soccerway
sochi
social
socialistlik
socialliq
sociallıq
socie
society
sociyalliq
socıallıq
sodan
sofiya
sofokl
sofokles
soft
software
sog
sogd
sogda
sogdiana
sogdiyanalilar
sokotra
sokotrani
sokrat
sol
sola
solar
solardan
solardin
solardın
solay
solayda
solayınsha
sold
soldat
solg
solid
solidarity
solinadi
solingach
solo
solomon
solqım
solutions
somal
somali
son
sonda
sondan
sonday
sonet
sonetlerin
song
soni
sonin
sonli
sonlıqtan
sonnan
sonra
sons
sonsha
sonshalıq
sonshama
sonshelli
sony
sonı
sonıda
sonımen
sonın
sopaq
sopor
soppaslı
soqlıg
soqpag
soqpaq
soqpaqları
soqqi
soqır
sora
sorag
soranıp
soranıwın
sorap
soraptı
sorastırıw
soraw
sorawg
sorawlar
sorawlardı
sorawlarg
sorawları
soraydı
sorbonna
sorko
sorlıg
sort
sortı
sortıgations
sortıgator
sorıwshı
sostav
sot
sotila
sotilgan
sotsial
sotsialisticheskaya
sotsialistik
sotsialliq
sotsiallıq
sotsiologiya
sotsiologiyalıq
sotsiyalliq
source
sousa
sousaning
south
southcn
southern
souza
sovedlerdin
sovet
soveti
sovetinin
sovetler
sovetskaya
sovremennom
soylu
soyuzı
soyılg
soyıp
soz
sozi
sozilg
sozlerdin
sozlik
sozıladı
sozılg
sozılmalı
sozılın
sozılıp
sozılıwı
sp
spa
space
spain
span
spaniya
spaniyada
spaniyalı
spaniyalıq
spaniyanin
spaniyanın
spark
sparta
spartak
spat
spatında
spayk
spayklar
speaking
spears
special
species
speed
spektakli
spektakline
spektakller
spektakllerdi
spekte
speydi
spider
spielvogel
spikeri
spin
spinocerebellum
spirim
spirimler
spirimlik
spiy
spolec
sponsorlang
sponsorı
sporalılar
sport
sportin
sportqa
sports
sportshı
sportshılar
sporttın
sportı
sportın
sportıngda
spotted
spring
springer
spyder
sq
sqa
sqarg
sqari
squad
squamulosa
square
sri
ss
ssa
sse
sshetlerin
ssi
ssilka
sssr
sssrda
sssrdın
ssuda
st
sta
stadion
stadionda
stadioni
stadionida
stadionları
stadionı
stadionında
stadium
stadt
stage
stake
stal
stalin
stalingrad
stan
stanbul
stanciya
standa
standag
standart
standartlar
standartlardı
standartlarg
standartları
standartların
standartlarına
standartı
standı
stanford
stanislavskiy
stanlar
stanlarda
stanlardag
stanlardı
stanlardın
stanları
stanların
stanlarında
stannın
stanoksazlıq
stansiya
stansiyag
stansiyanın
stansiyasi
stansiyası
stansted
stantsiya
stantsiyasi
stantsiyası
stanza
stanze
stanı
stanın
stanında
stanındag
stanının
stapleton
star
stars
start
startap
stat
state
states
static
statika
statikalıq
station
statistics
statistika
statistikalıq
statistikası
statue
status
statusına
statyasında
stavkasi
stavkasinin
stavkası
stavkasına
ste
stefano
stela
stelada
stelaga
stelani
stelaning
stelanın
stelik
stem
stemligi
stemligin
stemlik
stemlikke
sten
stenford
step
ster
steri
sterli
sterling
sterreich
stesi
steve
sti
stil
stilde
stildin
stili
stilin
stilinde
stiline
stilinin
stillik
stimulı
stin
stinde
stindegi
stine
stinen
stingi
stinler
stinleri
stinligi
stinlik
stinlikke
stirt
stirtte
stki
stlep
stm
stokgolm
stokgolmdag
stol
stomatologiya
stone
store
stores
stories
story
str
stradale
stranits
stranitsi
strategiyalıq
strategiyası
strategiyasına
stratosfera
stream
street
streets
streetscapes
streettag
streitfeld
strit
strle
struktura
strukturag
strukturalar
strukturaları
strukturalıq
strukturası
strukturasının
stu
stubs
student
studenti
studentler
studentlerdi
studentleri
studentlik
studies
studio
studiya
studiyaliq
studiyası
stul
stur
sturi
stvo
su
sua
suahili
sub
subektinin
subekvatorial
subetnos
submarine
subrahmanyam
subregion
subregionı
substantsiya
subtropik
subtropikalıq
subway
subyekt
sud
sudamericano
sudan
sudanda
sudi
sudinın
sudqa
sudtın
sudı
sudına
sudının
suez
sufizm
suhrab
suicide
sulayman
suleyman
sulfat
suliw
sulla
sultan
sultanligi
sultanlıg
sultanlıgınan
sultannın
sultanov
sultanı
sulıw
sum
sumatra
sumitomo
summa
summadan
summalar
summası
summasın
summer
summit
sun
sunda
sune
sung
sunny
suomi
super
superb
superfast
superior
superkar
superkari
superkontinent
superkubogina
superkubogı
superligasinin
supermajorlar
suppy
sur
suratga
suray
surface
surgen
surildi
surinam
survey
surxanda
surxondaryo
susaytirishiga
sut
sutemizuvchilar
sutemizuvchilarda
sutka
sutkalıq
suv
suvaysh
suveren
suverenitet
suvereniteti
suverenitetin
suverenitetti
suverenli
suverenliitetning
suw
suwda
suwdag
suwdan
suwdin
suwdı
suwdın
suwenli
suwg
suwi
suwiq
suwlar
suwlarda
suwlardın
suwları
suwlarınan
suwlarında
suwlarının
suwlı
suwon
suwpı
suwret
suwreti
suwretin
suwretlab
suwretlegen
suwretlengen
suwretler
suwretlerdi
suwretleytug
suwretti
suwsızlıqtan
suwı
suwın
suwınan
suwında
suwının
suwıq
suwıqqa
suwıqshılıq
suwırıp
suyek
suyeklerdi
suyekleri
suyekli
suyikli
suyıq
suyıqlıg
suyıqlıq
suza
suzaga
suziladi
suzuki
sv
svante
svazilend
svetlana
swbxanahw
swnan
sxema
sxemasi
sxeması
sxemasına
sxematik
syerra
sync
system
systems
syucyuan
syujet
syujeti
syujetke
syujetler
syujetlerdi
syujetleri
syujetlik
syurix
sı
sıdıq
sıg
sılas
sım
sımbattı
sımlar
sımsız
sın
sına
sınap
sınaq
sınaqlar
sınaqlarda
sınaqtan
sınd
sında
sındırıp
sıng
sınnın
sınshıl
sınshılar
sının
sınıq
sınıqları
sıp
sıpa
sıpat
sıpatlama
sıpatlap
sıpatlar
sıpatlarının
sıpatlawshı
sıpatlı
sıpatqa
sıpatı
sıpatına
sıpatında
sıpatındag
sıpıra
sıqılda
sır
sırda
sırdaryanın
sırg
sırların
sırlasıw
sırlı
sırt
sırtda
sırtqa
sırtqı
sırtqıl
sırtta
sırttan
sırtı
sırtınan
sırtında
sırılg
sırın
sısı
sıw
sıy
sıyaqlı
sıyaqlılar
sıyaqlılardın
sıydıra
sıylasıq
sıylasıqlı
sıylıg
sıylıq
sıylıqlanadı
sıylıqlandı
sıylıqlang
sıylıqlanıwı
sıylıqlar
sıylıqlardı
sıylıqları
sıylıqlarınan
sıylıqlaw
sıylıqlaydı
sıylıqqa
sıylıqtı
sıylıqtın
sıylıqı
sıylıqın
sıylıqına
sıyqırlı
sıyınıw
sıyınıwxonalar
sıyınıwxonalarini
sıyınıwxonalarning
sıyınıwxonasi
sızg
sızıg
sızılg
sızılma
sızılmalı
sızıq
sızıqlar
sızıqları
sızıqların
sızıqlarının
sızıqlı
sızıqsha
sızıqta
sızıw
t
ta
taala
taalanın
taba
tabadi
tabadı
tabag
taban
tabaq
tabaqqa
tabar
tabiladi
tabilg
tabis
tabiw
tabiwi
tabiyatı
tabiyg
tabiyiy
table
tabriz
tabw
tabıladi
tabıladı
tabıldı
tabılg
tabılmag
tabılsa
tabılıp
tabılıwı
tabıp
tabıs
tabıslar
tabıslarg
tabısları
tabıslı
tabısqa
tabısı
tabısın
tabıw
tabıwdı
tabıwg
tabıwı
tachira
tadjikistan
tadı
tag
tahmin
tahminan
tahminiga
tahrir
tailand
tailor
taipei
taj
tajik
tajikistan
tajikshe
tajikstan
tajliklerin
tajı
takashi
take
takekoshi
taken
takina
taking
taksi
taksiler
taksim
taksonlar
tal
talabı
talabın
talabına
talabınan
taladı
talan
talant
talantlı
talantı
talantın
talantının
talap
talaplar
talaplarg
talapları
talapların
talaplarına
talaptı
talaq
talas
talashni
talaslar
talasqan
talay
taliya
taliyada
taliyadag
taliyanın
talks
tallaw
tallest
tallin
tallıq
talma
talqini
talqılaw
talshıqlar
talshıqlardan
talshıqlardı
talshıqlarg
talshıqları
talshıqlarınan
talshıqlı
talwas
tam
tama
tamam
tamamladi
tamamladı
tamamlag
tamamlanadı
tamamlandi
tamamlandı
tamamlang
tamamlanıldı
tamamlanılıwı
tamamlap
tamamlaydı
tamao
tamaoni
tamaq
tamaqları
tamaqlarınan
tamara
tamasha
tamashago
tambovskogo
tamdı
tamg
tamillar
tamiyinleydi
tamoi
tamoio
tamoioga
tamshi
tamır
tamırg
tamırları
tamırı
tamırınan
tan
tana
tananarive
tandırdı
tanegashimaga
tangdaui
tani
tanilg
taniqli
tanitti
tank
tanli
tansıqbaev
tanzaniya
tanıg
tanıla
tanıldı
tanılg
tanılıp
tanımal
tanımalı
tanıp
tanıqlı
tanıs
tanısadı
tanısamız
tanıstıradı
tanıstırdı
tanıstırdılar
tanıstırıp
tanıstırıw
tanısıp
tanıtadı
tanıttı
tanıw
tao
tap
tapics
tapildi
tappasan
tapqa
tapqan
tapqanı
tapqırlıg
tapsa
tapsiriliwin
tapsıradı
tapsırdiharvnb
tapsırdı
tapsırg
tapsırig
tapsırmaların
tapsırmanı
tapsırıladı
tapsırıldı
tapsırılg
tapsırılıwı
tapsırıp
tapsırıw
tapsırıwdan
tapsırıwg
taptarı
tapti
taptı
taptılar
taq
taqaladı
taqatlı
taqiqilandi
taqır
taqıwalıq
taqıya
taqıyatas
tar
tara
taradı
tarag
taraj
taraldı
taralg
taralıp
tarap
taraq
taraqqiy
taratqan
taraw
tarawda
tarawdag
tarawdın
tarawi
tarawinda
tarawlar
tarawlarda
tarawlarg
tarawlari
tarawları
tarawların
tarawlarına
tarawlarında
tarawlarındag
tarawı
tarawın
tarawına
tarawında
tarawındag
tarawının
tarelka
tarepinen
targ
targa
tarix
tarixi
tarixiy
tarixıy
tariyx
tariyxan
tariyxchilar
tariyxda
tariyxga
tariyxi
tariyxiy
tariyxqa
tariyxshı
tariyxshılar
tariyxshılardın
tariyxshısı
tariyxta
tariyxtan
tariyxı
tariyxın
tariyxına
tariyxınan
tariyxında
tariyxındag
tariyxının
tariyxıy
tarizli
tark
tarkibida
tarları
tarlı
tarmag
tarmaq
tarmaqlar
tarmaqlarda
tarmaqlardı
tarmaqlarg
tarmaqlari
tarmaqları
tarmaqların
tarmaqlarında
tarmaqlı
tarmaqqa
tarmaqtag
tarmoqdan
tarmoqdir
tarmoqlar
tarnowskie
taro
tarqaladı
tarqaldı
tarqalg
tarqalıp
tarqalıw
tarqalıwı
tarqalıwına
tarqap
tarqatqan
tarqatıladı
tarqatılg
tarqatıp
tarqatıw
tarqatıwdın
tarqatıwshı
tarragona
tars
tartadı
tartarlıq
tartatug
tartdı
tartg
tartgach
tarti
tartip
tartiw
tartqan
tartsa
tarttı
tartyuf
tartıladi
tartıladı
tartılatug
tartıldı
tartılg
tartılgach
tartımlı
tartıp
tartıs
tartıslar
tartıslarg
tartısları
tartıslı
tartısıw
tartıw
tartıwda
tarı
tarıyx
tarıyxı
tarıyxıy
tas
tasbaqa
tasbaqalar
tasdiqlash
tashawız
tashkent
tashkentde
tashkentdegi
tashkentke
tashkentte
tashkenttegi
tashkil
tashqari
tasi
tasir
tasirinde
tasladı
tasladılar
taslag
taslanadı
taslandı
taslang
taslanıp
taslap
taslaq
taslar
taslardan
taslardı
taslardın
tasları
taslaw
taslaydı
taslı
tasmag
taspolattın
tasqa
tasqın
tastan
tastap
tastı
tastın
tastıyıqladı
tastıyıqladıharvnb
tastıyıqlandi
tastıyıqlandiharvnb
tastıyıqlang
tastıyıqlap
tastıyıqlaw
tastıyıqlawshı
tastıyıqlaydı
tastıyıqlaytug
tasvir
tası
tasında
tasının
tasıp
tasıw
tasıwda
tasıwshı
tasıydı
tat
tata
tatar
tatarlar
tatarstan
tatra
tatımlıq
tatımlıqlar
tatıu
tauris
tausch
tavar
taw
tawardın
tawda
tawdın
tawg
tawi
tawinin
tawlar
tawlarda
tawlardag
tawlardan
tawlardın
tawlarg
tawlari
tawlarinin
tawları
tawlarınan
tawlarında
tawlarının
tawlı
tawlıq
tawsildi
tawsılg
tawsılıp
tawsılıwın
tawxi
tawı
tawına
tawınan
tawının
tawıp
tawıq
tawıqlar
tawısıwı
tawısıwının
taxiyatas
taxonomie
taxt
taxta
taxtako
taxtalardı
taxtaları
taxtda
taxtdan
taxtga
taxtqa
taxttan
taxtı
taxtın
tay
tayag
tayaq
tayaqtan
tayar
tayarlag
tayarlanadı
tayarlanatug
tayarlandi
tayarlang
tayarlanıp
tayarlanıw
tayarlap
tayarlaw
tayarlawda
tayarlawdan
tayarlawdın
tayarlawg
tayarlaydı
tayarlaytug
tayarliq
tayarlıq
tayland
taylor
taypa
taypada
taypin
taypinler
tayvan
tayyip
tayın
tayınladi
tayınlanadı
tayınlandi
tayınlandı
tayınlang
tayınlaydı
taz
taza
tazabag
tazadan
tazalang
tazalanıp
tazalap
tazalaw
tazalawshı
tazalıg
tazio
tazını
tbilisi
tbol
tc
tcp
td
tdi
tdiler
tdq
tdı
te
tea
team
teams
teatr
teatrda
teatrdın
teatrg
teatri
teatrida
teatrlar
teatrlari
teatrları
teatrı
teatrına
teatrında
teatrının
tebriz
technical
technology
technologyinworl
teda
tedi
tegen
tegis
tegislengen
tegislenip
tegisligi
tegisliginde
tegisliginin
tegislik
tegislikler
tegisliklerde
tegisliklerdi
tegislikleri
tegislikten
tegler
tehran
tek
teke
tekg
tekgini
tekislik
tekserilip
tekserip
tekseriw
tekst
teksti
tekstin
tekstinde
tekstler
tekstlerdin
tekstli
tekstte
tekstti
teksttin
tekte
tektonik
tel
tele
telebaslawshı
telefeleton
telefeletonnın
telefon
telefonlar
telefonları
telefonı
telegraf
telegram
telegraph
teleintervyu
telejurnalist
telejurnalistika
telejurnalistikanın
telekanal
telekanalda
telekanali
telekanallar
telekanallarda
telekanalı
telekanalında
telekanalının
telekinoproektor
teleko
telekom
telekommunikatsiya
teleradio
teleradiobag
teleradiokompaniyasi
teleradiokompaniyası
teleradiokompaniyasında
telereportaj
telereportajda
telereportajdın
telerge
telesa
telesholıwdın
teletamashago
teletamashagoylerge
teletsentri
televedeniye
televidenie
televideniede
televideniedin
televidenienin
televideniesi
televideniesinde
televideniesinin
televideniyanı
televideniye
television
televiziyalıq
televizor
televizordın
televizorlar
televizorlardı
televizorlarg
televizorının
teli
telstar
telw
tem
tema
temada
temadag
temag
temalar
temanı
teması
temasın
temasına
temasında
tematikalıq
tematikası
temeki
temekı
temir
temirbaev
temirden
temirjol
temis
temperatura
temperaturanın
temperaturasi
temperaturası
tempest
tempi
temur
temurdin
temurdın
temuriy
temuriylar
temuriyler
ten
tenerife
teng
teniyaz
teniyazov
tenizi
tennis
tennisi
tennisshi
tennisshiler
tentek
teologiya
teoriya
teoriyalar
teoriyaları
teoriyalıq
teoriyasi
teoriyası
teoriyasın
teoriyasında
teoriyasının
tep
tepaga
tepasida
tepasiga
teplovoz
tepov
tepovtın
teppek
ter
terakt
terbenbes
terdi
tere
teredi
teregi
teregin
tereginin
terek
terekler
tereklerde
tereklerdi
tereklerdin
terekleri
terektin
teren
tergew
teri
terige
terildi
teriledi
terilgen
terilgende
terilip
terilis
terilisi
terilisin
teriliske
terilisshi
terilisshiler
teriliste
terilisten
teriliwi
teriluvchi
terim
terin
terip
teris
terisi
terisin
terisine
terisinen
teriw
term
terme
termelep
termeler
termi
termin
terminal
termini
terminler
terminleri
terminnin
terminologiya
terminologiyası
terms
ternate
terrace
terrakota
terretoriyası
territoriya
territoriyaları
territoriyalıq
territoriyası
territoriyasına
territoriyasında
territory
terrorshı
tes
tesco
tesh
tesigi
tesik
tesiktas
tesiw
tesiz
teskeri
tesla
test
testarossa
tet
tetcherdin
tetug
tetum
tetun
tew
texas
texnik
texnika
texnikag
texnikalıq
texnikanın
texnikası
texnikasında
texnikum
texnikumın
texnikumına
texnikumında
texnologik
texnologiya
texnologiyalar
texnologiyalardı
texnologiyalardın
texnologiyalarg
texnologiyalari
texnologiyaları
texnologiyaların
texnologiyalıq
texnologiyasi
texnologiyası
texnologiyasın
texnologiyasınan
text
teydi
tez
tezden
tezirek
tezlestirgen
tezletti
tezligi
tezligine
tezlik
tezlikte
tezliktin
tgbn
th
thai
than
thangasseri
that
the
theater
theatre
thefa
theguardian
their
them
then
theoretic
theory
there
they
things
third
this
thomas
thousand
three
thrift
through
thumb
thumbnail
ti
tianjin
tibbiy
tibet
tidende
tig
tigilgen
tigip
tigiw
tigiwshilik
tik
tikkeley
tiklab
tikladiharvnb
tikladithomas
tiklendi
tiklenedi
tiklenetug
tiklenganidan
tiklengen
tikleniw
tikleniwi
tikleniwshi
tiklew
tiklewge
tikleydi
tiktok
til
tilde
tildegi
tilden
tildi
tildin
tiledi
tilegi
tilek
tilekke
tileklerin
tilekleslik
tilekti
tilep
tilesen
tilew
tilewbay
tilewmuratov
tilge
tilgen
tili
tiliga
tilim
tilin
tilinde
tilindegi
tiline
tilinen
tilinin
tilip
till
tilla
tillaxan
tillaxannın
tiller
tillerde
tillerdegi
tillerden
tillerdi
tillerdin
tillerge
tilleri
tillerin
tillerinde
tillerine
tillerinen
tillerinin
tillerinnen
tilles
tilli
tilmegen
tilshi
tilshiler
tilsimli
tim
timallıqlar
timati
time
times
timoji
timor
timorlıqlardın
timur
tin
tinde
tine
tinen
tini
tinine
tinish
tinishliq
tinligi
tinligin
tinlik
tip
tipi
tipidagi
tipik
tipindegi
tipleri
tipli
tiplik
tipo
tipti
tir
tira
tiragi
tirajı
tirana
tirap
tirapinda
tirapiyasi
tiraplarında
tiraptag
tirapı
tirapın
tirapına
tirapında
tirapındag
tiraxtur
tirek
tirep
tiri
tirik
tiriltetin
tirishiligi
tirishiliginde
tirishiliginin
tirishilik
tirishiliktin
tirkelgen
tirkeme
tirkewish
tirkewishler
tiroksin
tis
tishqan
tishsimon
tisi
tisqari
tisqarida
titanik
titirew
title
tito
tiw
tiwde
tiwdi
tiwg
tiwge
tiwgen
tiwgenin
tiwi
tiwin
tiwine
tiwishe
tiwshi
tiwshiligi
tiwshilik
tiya
tiyasın
tiyedi
tiyesili
tiygen
tiygizdi
tiygizedi
tiygizetug
tiygizgen
tiyip
tiyis
tiyisinshe
tiyisli
tiyisliligi
tiyisliligin
tiyisti
tiyiw
tiyiwi
tiyiwlaganini
tiyj
tiyje
tiyjede
tiyjeler
tiyjeleri
tiyjelerin
tiyjelerine
tiyjeli
tiyjeni
tiyjesi
tiyjesinde
tiyjesine
tiyjesinen
tiyka
tiykar
tiykarda
tiykarg
tiykari
tiykarin
tiykarinan
tiykarinda
tiykarlan
tiykarlanadı
tiykarlang
tiykarlangan
tiykarlanip
tiykarlanıp
tiykarlap
tiykarları
tiykarların
tiykarlawshisi
tiykarshisi
tiykarshısı
tiykarı
tiykarın
tiykarına
tiykarınan
tiykarında
tiykarındag
tiykarının
tiymegen
tiyse
tjanov
tjednik
tk
tken
tkende
tkendegi
tkeninde
tkenjan
tkenligi
tkennen
tkenveb
tkerdi
tkeredi
tkergen
tkergenin
tkerildi
tkeriledi
tkeriletug
tkerilgen
tkerilip
tkeriliwi
tkeriliwin
tkeriliwine
tkerip
tkeriw
tkeriwden
tkeriwdi
tkeriwge
tkeriwshen
tkeriwshi
tkermelewge
tkil
tkilley
tkinshi
tkir
tkirligi
tkirws
tkizdi
tkizedi
tkizgen
tkizgish
tkizgishler
tkiziledi
tkiziletug
tkizilgen
tkiziliwi
tkizip
tkiziw
tl
tld
tler
tlerdın
tlerge
tleri
tlerin
tli
tlik
tm
tmd
tmish
tmishte
tmishtegi
tmuratov
tn
tne
tnk
tnknın
to
tobago
tobıq
today
tog
togo
togı
tohur
tok
tokelau
tokio
tokiyo
tokyo
tokıo
toldı
toldırılg
tolg
toliq
tolqın
tolqınlar
tolqınları
tolqını
tolstov
tolstoy
toltırıp
toltırıw
tolı
tolıbay
tolıg
tolıp
tolıq
tolıqlawısh
tolıqlıg
tolıqlıq
tolıqqonli
tolıqtırıp
tolısıp
tom
tomas
tome
tomenlegen
tomli
tomlıg
tomlıq
tomonidan
tomsk
tomı
tomında
ton
tonga
toni
tonik
tonirovka
tonna
tonnadan
tonnag
tonnani
tonusi
tony
tool
top
topalan
topar
topardag
topardın
toparg
topari
toparina
toparlar
toparlardın
toparlarg
toparları
toparlasıp
toparı
toparın
toparına
toparınan
toparında
toparının
topgu
topiraq
toplag
toplam
toplamdı
toplami
toplamları
toplamların
toplamnan
toplamı
toplamın
toplamına
toplamında
toplang
toplanıp
toplap
toplar
toplaw
toplaydı
topografiyalıq
topologiya
toppdoma
topraq
topraqlar
topraqları
topraqlı
toptı
topılısı
topırag
topıraq
topıraqlar
topıraqqa
topıraqqala
topıraqta
topıraqtın
toq
toqimashiliq
toqpolat
toqsan
toqtadı
toqtalıp
toqtamıs
toqtap
toqtatdi
toqtatdilar
toqtatildi
toqtatilmasa
toqtatqan
toqtattı
toqtatıw
toqtawsız
toqtaydı
toqıladı
toqılatug
toqılg
toqıma
toqımalar
toqımashılıq
toqıması
toqımasının
toqıw
tor
torabı
toran
torang
tordesillas
tordesilyas
torg
torli
tormor
toronto
torı
tosattan
tosfera
toshkent
toshqulov
tosqınlıq
tosqınlıqlardı
tosınarlı
tosınnan
tosınnanlı
tosıq
totalitar
totı
totınama
tour
touring
tourismharvnb
tournament
tournaments
tovar
tovardin
tovarlar
tovarlardin
tovarlardı
tovarlari
tovarları
tovarların
tovarlarının
tovarı
tower
towns
toxaristan
toxarlar
toy
toyda
toydan
toydı
toydın
toyg
toylar
toylarda
toyların
toyo
toyota
toyı
toyın
toyınadı
toyında
tozaqta
tp
tpegende
tpey
tq
tqa
tqan
tr
tra
trabzon
trade
tragediya
tragediyalıq
train
trakto
traktor
traktorlar
traktorları
traktorshı
traktı
traleybus
tramp
tramvay
trans
transactions
transfer
transfiguratsiya
transformator
transit
translation
transliteraciyası
transmitter
transmitterlar
transnatsional
transport
transporti
transportlıq
transportı
transpozon
transpozonlar
tranzit
trast
trası
tre
treece
trek
tremonti
trener
treneri
trenerler
trenerı
triangle
trias
tributo
trick
trigonometriya
trikotaj
trillion
trinidad
trio
triphylla
tripoli
tristau
triumph
triy
trk
trolleybus
tromb
tropik
tropikalıq
tropikası
troposfera
troposferanın
troya
trubkasi
trump
trumpchicagohotel
trumpfortlauderdalehotel
trumpintl
trumpplaza
trumpsl
trumpsohohotel
trumptaj
trumptın
trumpwaikikihotel
truppa
truppasi
truppasın
truppasının
ts
tsar
tse
tser
tsereteli
tshi
tshiler
tsiganlar
tsikli
tsikllardı
tsingy
tsiyad
tsiyanın
tsiyatsıyalarının
tsiz
tsunami
tt
tta
ttai
tte
tteki
tti
ttiharvnb
ttin
tu
tuamasina
tubalawshılıq
tubi
tubiga
tudjman
tufarelli
tug
tulg
tulpar
tulpardin
tumanida
tumanlarida
tumaris
tumaristin
tumsıg
tun
tundra
tungus
tunika
tunis
tunmen
tuproqshunoslik
tuqım
tuqımlar
tuqımnan
tuqımı
tuqımın
tur
tura
turadi
turadı
turaev
turan
turaq
turaqlı
turaqlılıg
turaqlılıq
turar
turardı
turarjaylardin
turarlı
turatug
turatın
turde
turdi
turdı
turg
turi
turin
turipti
turismo
turistlerdin
turistlik
turiwi
turiwsh
turizm
turk
turkcha
turkey
turkish
turkistan
turkiston
turkiy
turkiya
turkiyada
turkiyag
turkiyanın
turkmen
turkmenistan
turkmenistandag
turkmenstan
turkulusbudun
turkum
turlari
turlerinin
turli
turman
turmay
turmaydı
turmis
turmıs
turmıslıq
turmısqa
turmısta
turmıstag
turmıstan
turmıstı
turmıstın
turmısı
turmısımızda
turmısın
turmısına
turmısınan
turmısında
turmısındag
turmısının
turnir
turnirda
turnirde
turniri
turnirida
turnirında
turnovo
turpayı
tursa
tursan
turtkul
turı
turıladı
turılatug
turım
turıp
turıptı
turıw
turıwshı
turıwı
tus
tusedi
tushdi
tushunmovchilik
tusinik
tusip
tusken
tusti
tut
tutadı
tutas
tutasadı
tutasmag
tutasqan
tutastırıwshı
tutasıp
tutatug
tuting
tutiniw
tutqan
tutqinina
tutqinlardi
tutqın
tutqıng
tuttı
tutıladı
tutıldı
tutılg
tutınıw
tutıp
tutıw
tuuılg
tuuısqan
tuva
tuvalu
tuw
tuwadı
tuwar
tuwdıradı
tuwdıratug
tuwdırdı
tuwg
tuwilg
tuwma
tuwra
tuwrag
tuwrali
tuwralı
tuwri
tuwridan
tuwrı
tuwrıdan
tuwrılap
tuwrılıq
tuwrısında
tuwrısındag
tuwıladı
tuwıldı
tuwılg
tuwılgan
tuwılganlar
tuwılıp
tuwılıw
tuwılıwı
tuwıp
tuwıs
tuwısqa
tuwısqan
tuwısqanları
tuwısqanlıg
tuwısına
tuwıw
tuyag
tuyg
tuyilgan
tuz
tuzdi
tuzib
tuzildi
tv
tvhvh
tvorchestvosı
twain
twenty
twickenham
twitchett
twitter
twmay
two
twralı
twılmag
twıstıq
tximpxu
tyan
tyanshan
tyias
type
types
typus
tyurgeshler
tz
tzi
tı
tıg
tılg
tılqpen
tılsa
tılıq
tımsal
tımsallar
tımsalliqlar
tımsalliqlari
tın
tınettin
tınımsız
tınıq
tınısh
tınıshlantıratug
tınıshlıg
tınıshlıq
tınıshlıqtı
tıp
tırnag
tırnalar
tırnaq
tırnaqgu
tırnaqları
tırnaqtın
tırqıshı
tırıqshı
tırısadı
tırıspa
tıs
tıshqan
tıshqanda
tıshqanlar
tıshqanlarda
tısqarı
tısqarıda
tısqarına
tıyanaqlı
tıykar
tıykarlanıp
tıyılıw
tıyım
tıyıslı
u
ua
uaqıtta
ubaydullaev
uch
uchicago
uchrashdiharvnb
uchun
ucoz
udayına
uefa
ufa
ufc
uff
ug
uganda
uglerod
uglevodorodlar
ugor
ui
uilks
uilyam
uimbldon
uk
ukrain
ukraina
ukrainada
ukrainag
ukrainalıq
ukrainanın
ukraine
ukrainlar
ukrainsha
ukrayina
ul
ulaanbaatar
ulam
ulama
ulamaları
ulan
ules
ulesi
ulesine
ulg
uli
uliwma
uliwmaliq
ulk
ulken
ulkenligi
ullar
ulları
ulli
ullı
ullılıg
ulomov
ulperi
uls
ulsan
ult
ultimatumga
ultimatumi
ultlıq
ulttıq
ulug
uluwma
ulysses
ulı
ulıg
ulın
ulının
ulıq
ulıqtawmen
ulıqtıg
ulıqtıq
ulısı
ulısının
ulıwma
ulıwmalasqan
ulıwmalastırılg
ulıwmalastırıw
ulıwmalıq
um
umar
umarov
umm
umr
umtıladı
umtıldı
umtılıp
umtılıw
umtılıwdın
umumiy
umumjahon
umıtpaw
umıtılg
umıtılıp
un
unamlı
unamsiz
unamsız
unatqan
und
under
une
unesco
unesconing
ung
unikal
uning
union
unit
unitar
united
unitedning
unitedworldwrestling
unity
univ
universal
universiade
universiteit
universitet
universiteta
universiteti
universitetida
universitetidın
universitetin
universitetinde
universitetindegi
universitetine
universitetinen
universitetinin
universitetler
universitetleri
universitetlerinde
universitette
universitetti
universitettin
universitetı
university
unix
unlv
unti
unveils
uollis
uord
up
update
updated
upload
uploads
upon
uppsala
upright
uqipliliqlar
uqsag
uqsap
uqsas
uqsaslıg
uqsaslıq
uqsatıp
uqsawdan
uqsaydı
uqsaytug
uqıbı
uqıbına
uqıbının
uqıp
uqıplı
uqıplılıg
uqıpı
ur
ura
uradi
uradı
ural
uralensis
uran
uranı
urbanizaciya
urbanplanning
urbino
urdı
urdıveb
urer
urg
uri
urib
urip
uris
urisi
urisinan
urisinda
urisqa
urista
uristan
uristi
uristin
url
urlang
urlap
urlaw
urlawı
urlim
urlım
urpag
urshıq
urug
uruguay
urugvay
uruj
urumbaev
uruwlar
urı
urıladı
urılg
urılıp
urılıw
urındı
urınıslar
urınısları
urıp
urıq
urıs
urısda
urıslar
urıslarda
urısları
urıslarına
urıslarınan
urısqa
urısta
urıstan
urıstın
urısı
urısına
urısınan
urısında
urısındag
urısının
urısıp
urıw
urıwlar
urıwlardın
urıwlarg
urıwları
urıwlarının
urıwı
urıwınan
urıwındag
urıwının
us
usa
usag
usap
usaq
usaqlap
usas
use
usefiles
ush
usha
ushadı
ushi
ushin
ushinda
ushinshi
uship
ushiradi
ushları
ushlı
ushqan
ushqanda
ushqır
ushqıshlar
ushrag
ushraydı
ushraytug
ushten
ushtı
ushun
ushı
ushın
ushına
ushında
ushının
ushıp
ushıradı
ushırag
ushıramaydı
ushırap
ushırasa
ushırasadı
ushırasatug
ushıraspaydı
ushırastı
ushırasıp
ushırasıw
ushırasıwda
ushırasıwdın
ushırasıwları
ushırasıwı
ushırasıwında
ushıratadı
ushıratamız
ushıratıw
ushıratıwg
ushırawı
ushıraydı
ushıraytug
ushırma
ushıw
ushıwlar
ushıwlarg
usi
usil
usilay
usinday
uslag
uslap
uslaw
uslaydı
usman
usta
ustalardın
ustaları
ustap
ustası
ustavlıq
ustavta
ustavı
ustavına
ustaz
ustazi
ustazlardan
ustazları
ustazlıq
ustazı
ustem
ustemlik
usti
ustida
ustinde
ustine
ustirt
usı
usıg
usıl
usılar
usılardan
usılarg
usılay
usılayınsha
usılda
usıldan
usıldın
usıllar
usıllarda
usıllardı
usılları
usılların
usıllarına
usılı
usılın
usılına
usılınan
usılında
usılındag
usınadı
usında
usınday
usıng
usınnan
usınıladı
usınıldı
usınılg
usının
usınıs
usınıslar
usınıslardı
usınısları
usınısı
usınısına
ut
utc
utemuratov
uteniyazova
utqan
uttı
utılg
utıp
utıs
utısları
uuid
uvays
uwlı
uwteqnngcle
uww
uy
uya
uyalatatın
uyalı
uyar
uyası
uyat
uyg
uyine
uyqas
uyqaslıq
uyqaslıqqa
uyqasqa
uyqasıp
uyqi
uyqlap
uyqı
uyrenedi
uyreniledi
uyreniwshi
uyshiliktin
uyushtirdilar
uyushtirishga
uyım
uz
uzag
uzaq
uzaqda
uzaqlasıp
uzaqliqta
uzaqlıg
uzaqlıqda
uzaqlıqta
uzaqta
uzaqtan
uzatmalar
uzatıla
uzatıladı
uzatılatug
uzatıldı
uzatılg
uzatılıp
uzatılıwshı
uzatılıwı
uzatıp
uzatıw
uzatıwdı
uzatıwdın
uzatıwg
uzbekistan
uzboy
uzdi
uzin
uzinfocom
uzinlig
uzinligi
uziy
uzlar
uznama
uzor
uzun
uzın
uzınlıg
uzınlıq
uzınlıqta
uzınlıqtag
uzınlıqtı
uzınına
v
va
vaduts
vagon
vagonlar
vahidov
vakal
vakayama
vakuumda
valenciana
valensiya
valeriy
valle
vallenato
valley
value
valyuta
valyutası
van
vankuver
vanuatu
vanya
var
variable
variantlarda
variantları
variantı
variantın
varshava
vasco
vashington
vaslav
vassaliga
vatikan
vatikanda
vatikandag
vavilon
vavilonda
vaxsh
vaykiki
vayna
vcr
ve
veb
vec
vedalar
vedalıq
vegas
vegetaciya
vegetativ
vehicle
veksel
vekselde
vekseldi
vekseldin
vekseller
vektor
vela
veliko
vella
velosiped
velosipedin
velosipedler
ven
vena
vene
veneciya
veneciyalı
venera
veneranın
venesuela
venetsiyaliklarning
venezuela
venger
vengriya
vengriyag
vengriyalıq
ventilyator
venues
vera
verde
verdi
vergilius
verlag
vernadskiy
vernet
verona
vers
versailles
versal
versionid
versiya
versiyag
versiyalar
versiyaları
versiyasi
versiyası
versiyasın
vert
vertikal
vertolyot
vest
vesti
vestibulyar
vestnik
veterans
veteranı
vez
vezaliy
vi
via
viale
vice
vich
victoria
vida
videniyesi
video
videolar
vidi
vientiane
vietnam
view
viewed
vigna
vigo
vii
viii
vijayanagar
viktor
viktoriya
vilgelm
village
villagevoice
vilnius
viloyati
vincent
vinchi
vinci
vino
vinsent
vinti
virgin
virtual
virus
viruslar
viruslarg
visente
visenteni
vishnu
vision
visitors
vit
vita
vitalis
vitamin
vitse
vivaldi
vivo
vizantiya
vizual
vjesnik
vl
vladamir
vladimir
vladimirovich
vo
voce
vodafone
vodorod
vody
voice
voices
voie
voight
voiturette
vokal
vokalchi
vokzal
vol
voleybol
volfgang
volfram
volga
volgograd
volkov
volkovning
volkswagen
volkswagenag
volume
volumes
volvo
vom
von
voronej
voyage
voyvodina
vr
vrach
vrash
vrier
vrk
vs
vsu
vt
vu
vuds
vulkan
vulkanlar
vulpes
vv
vw
vwcorp
vyetnam
vyurtemberg
vz
və
w
wa
wade
wag
wagon
wahiy
wakilleri
wal
walayat
walayati
walayatlar
walayatı
walayatının
wales
walk
walker
wall
wallace
walls
walt
walter
wankel
wanted
waq
waqit
waqitda
waqitlari
waqitsha
waqitta
waqittag
waqittan
waqittin
waqiya
waqiyada
waqiyalar
waqt
waqta
waqti
waqtinda
waqtı
waqtın
waqtınan
waqtında
waqtındag
waqtınin
waqtınsha
waqtınshalıq
waqtının
waqıt
waqıtda
waqıtlar
waqıtlarda
waqıtlardag
waqıtlardan
waqıtlarg
waqıtları
waqıtlarınan
waqıtlarında
waqıtqa
waqıtsha
waqıtta
waqıttag
waqıttan
waqıttı
waqıttın
waqıtı
waqıtında
waqıya
waqıyag
waqıyalar
waqıyalardan
waqıyalardı
waqıyalardın
waqıyalarg
waqıyaları
waqıyaların
waqıyalarına
waqıyalarının
waqıyanı
waqıyanın
waqıyası
war
wargs
warhol
warsaw
warszawa
was
washington
wası
wat
watan
watandarliq
watandarlıq
watandı
watani
watanı
watanım
watanın
watanına
watch
watched
waterside
watt
wayne
wayran
waz
waziypasi
waziypası
wazıypa
wazıypalar
wazıypalardı
wazıypalardın
wazıypaları
wazıypaların
wazıypalarında
wazıypanı
wazıypası
wazıypasın
wazıypasına
wazıypasında
wbe
wbet
wbeti
wbetinde
wbetke
wbetler
wbette
wbettegi
wbettin
wc
wcfl
wcturkey
wdi
we
web
webarxiv
webcitation
websayt
websayti
websaytı
website
week
weights
wekel
wel
welay
wele
welemen
welgisi
wellington
wels
welsta
wenderi
wenderligidegi
wenderlik
were
weri
werner
wesek
wesker
weskerler
west
western
westfalen
weter
weteri
wez
wezov
wg
wharf
wharfta
what
whatsapp
wheeler
when
white
whiteway
who
wi
wide
width
wien
wiener
wigan
wiganathletic
wij
wiki
wikikitap
wikimedia
wikipedia
wikipediada
wikipedialar
wikipedianin
wikiqoyma
wiley
wilhelm
will
willem
william
wilson
wim
wimi
wimler
wimlerde
wimlerden
wimlerdin
wimlerge
wimleri
wimlerinin
wimlik
win
windows
windowstın
winius
wins
wip
wipi
wipli
wipsizligi
wipsizligin
wipsizligine
wipsizlik
wir
wiraq
wirde
wirdegi
wirden
wirdi
wirdin
wiredegi
wirge
wiri
wirin
wirinde
wirindegi
wirine
wirinen
wirinin
wirler
wirlerde
wirlerdegi
wirlerden
wirlerdi
wirlerdin
wirlerge
wirleri
wirlerinde
wirlik
wirxan
wishte
with
within
without
wiy
wiyat
wiyatlar
wiyatlardın
wiz
wizi
wizinde
wizinin
wjar
wkele
wl
wlad
wladdan
wladlar
wladlarg
wladları
wladlarına
wladlarınan
wladlarının
wladqa
wladtan
wladı
wladının
wlelendirdi
wlelendiredi
wlelendirgen
wlelendirilgen
wlelendirip
wlelendiriw
wlelendiriwde
wlelendiriwge
wlelendiriwi
wlelendiriwshi
wlelenedi
wlelengen
wleleniwi
wlesi
wlet
wletbay
wletnazarov
wletov
wli
wlik
wliye
wma
wmetli
wmetsiz
wmetsizlikke
wo
wog
wol
wolar
wolardi
wolardın
wolf
wolfsburg
women
womens
woni
wonin
wonnanda
wonın
wood
woods
worayi
wordpress
work
working
works
world
worldcup
worldwar
worta
worıs
wp
wpi
wpir
wqaraev
wqaraevtın
wr
wran
wre
wrestlers
wrestling
wret
wreti
wretin
wretinin
wretke
wretlegen
wretlenedi
wretlengen
wretlenip
wretlep
wretler
wretlerde
wretlerdi
wretleri
wretlerin
wretlerinde
wretlew
wretlewde
wretlewdin
wretlewge
wretlewgen
wretleydi
wretleytug
wretli
wretshi
wretshiler
wretshilerdin
wretshileri
wretshilerinin
wretshilik
wretshinin
wretshisi
wrettegi
wretti
wrettin
wri
wright
wscc
wshan
wshe
wshi
wsim
wsimde
wsimge
wsimi
wsiminde
wsiminin
wsimler
wsimleri
wsimlerinde
wsimlerinin
wsimlik
wsimnen
wsj
wsl
wspr
wu
www
wı
wırınde
x
xa
xabar
xabarda
xabardar
xabardı
xabardın
xabarladı
xabarlaniwinsha
xabarlar
xabarlardı
xabarları
xabarlarına
xabarlaw
xabarlawinsha
xabarlı
xabarovsk
xabarshı
xabarshılar
xabarshısı
xabarı
xabarın
xabib
xadi
xali
xalifa
xalil
xalila
xalimov
xaliq
xaliqaraliq
xaliqlar
xaliqlardin
xaliqlari
xaliqti
xaliqtin
xaliyfa
xalmurat
xalq
xalqabad
xalqara
xalqaraliq
xalqaralıq
xalqaro
xalqi
xalqinin
xalqlar
xalqqa
xalqı
xalqımız
xalqımızda
xalqımızdın
xalqımızg
xalqın
xalqına
xalqınan
xalqında
xalqının
xalıq
xalıqaralıq
xalıqlar
xalıqlarda
xalıqlardan
xalıqlardı
xalıqlardın
xalıqlarg
xalıqları
xalıqlarına
xalıqlarında
xalıqlarının
xalıqlinizm
xalıqlıg
xalıqlıq
xalıqqa
xalıqta
xalıqtan
xalıqtı
xalıqtın
xam
xammurapi
xammurapining
xamsa
xamsada
xan
xanag
xanalı
xanası
xanchjou
xandı
xandıg
xang
xanim
xanlardın
xanlarının
xanlıg
xanlıq
xanlıqqa
xannan
xannın
xanoy
xanzada
xanı
xanım
xanının
xarakter
xarakterge
xarakteri
xarakterin
xarakterine
xarakteristikaları
xarakteristikası
xarakterlenedi
xarakterler
xarakterli
xaritasi
xasan
xat
xatker
xatkeri
xatqa
xatı
xaveli
xavi
xavier
xaykel
xayriddin
xayriddindi
xazirgi
xbox
xe
xelsinki
xf
xi
xian
xianfan
xii
xiii
xillin
ximigi
ximik
ximiya
ximiyali
ximiyaliq
ximiyalıq
ximiyası
ximiyasın
xirat
xiratqa
xirillab
xirosima
xirurgiya
xit
xitoy
xiv
xiva
xix
xiyol
xiywa
xiywada
xiywadag
xiywag
xiywanın
xizmet
xizmeti
xizmetin
xizmetkeri
xizmetkerleri
xizmetler
xizmetlerdin
xizmetlerge
xizmetleri
xizmetlerinin
xizmette
xj
xjr
xk
xkr
xlorofill
xn
xo
xochlarni
xoja
xojabekke
xojalig
xojaliq
xojalıg
xojalıq
xojalıqları
xojalıqlarında
xojalıqtın
xojanazarova
xojaniyazov
xojanın
xojeli
xomdam
xoni
xor
xorasan
xorda
xordi
xorezm
xorezmde
xorezmdi
xorezmge
xorezmiy
xorezmliler
xorezmnin
xorezmshahlar
xorezmshaxlar
xorvat
xorvatiya
xorvatiyanın
xorvatlar
xorxe
xos
xose
xosh
xoshametlew
xoshametleydi
xotun
xozirda
xq
xram
xramdi
xristian
xristianlar
xronologiyalıq
xronologiyasi
xtf
xtiologiya
xu
xuan
xubilay
xudojnigi
xudojnik
xun
xurrem
xusayn
xv
xvf
xvi
xvii
xviii
xx
xxi
xxii
xzmetler
xısıraw
xızm
xızmet
xızmeti
xızmetin
xızmetinde
xızmetindegi
xızmetine
xızmetinen
xızmetinin
xızmetker
xızmetkeri
xızmetkerler
xızmetkerleri
xızmetkerlerine
xızmetler
xızmetlerdi
xızmetlerge
xızmetleri
xızmetlerin
xızmette
xızmettegi
xızmetti
xəm
y
ya
yad
yadlap
yadlar
yadqa
yadro
yadrog
yadrolar
yadroları
yadrolarına
yadrolıq
yadronın
yadrosı
yadrosının
yadta
yadtan
yadı
yadına
yadında
yag
yagodin
yaguar
yahoo
yak
yaki
yakobson
yakonov
yaks
yaksart
yakı
yale
yalg
yama
yamaika
yamasa
yamayka
yan
yana
yanczi
yang
yangi
yangiliklar
yangon
yani
yanv
yanvar
yanvarda
yanvardan
yanvardin
yanvardın
yanvarınan
yanvarında
yanın
yaounde
yapon
yaponiya
yaponiyada
yaponiyag
yaponiyalıq
yaponiyani
yaponiyanin
yaponiyanın
yaponlardan
yaponya
yaqıp
yar
yaramazan
yaramazannın
yaranlar
yari
yarim
yarimaralinin
yariminda
yarmarka
yarus
yarygin
yarım
yarımatawı
yarımshar
yarımsharda
yarımsharlar
yarımsharında
yarımı
yarımın
yarımına
yarımınan
yarımında
yarının
yas
yash
yashab
yashadılar
yashaydilar
yashirib
yasht
yassawiy
yat
yatar
yava
yaxshi
yazik
yazike
yazıke
yb
yd
yda
yde
ydi
ydin
ydirip
ydı
ydın
ye
year
years
yedi
yegi
yegin
yeginen
yeginin
yego
yek
yeki
yekler
yeklerdin
yekleri
yeklerin
yeklerinen
yekten
yekti
yektin
yel
yeldin
yelenedi
yeler
yelge
yelizaveta
yeller
yellow
yemen
yemgi
yemgı
yen
yene
yeni
yenin
yenisey
yep
yer
yeri
yerniyazov
yerusalim
yesaplanadi
yesh
yeshdagi
yeshi
yeshli
yeshlik
yeshlikler
yeshliklerden
yesi
yesili
yesjan
yeski
yetdi
yeti
yetip
yetti
yetug
yeu
yevro
yevropa
yevropada
yew
yewdin
yewi
yg
yge
ygede
ygelerinde
ygen
ygesi
ygfcc
yi
yib
yicha
yig
yikli
yiklisi
yil
yilda
yildan
yilde
yildın
yilga
yilgan
yilgi
yili
yillar
yillarda
yilveb
yim
yin
yinde
yindegi
yine
yinen
yini
yinin
yinip
yinlarida
yinshe
yip
yir
yirin
yis
yit
yiw
yiwshilik
yiz
yizli
ykel
ykeli
ykeller
ykelleri
ykenbe
ykes
ykeslesiw
ykesligin
ykeslik
ykimli
yl
yla
yle
ylegen
ylegende
ylek
ylekler
ylektin
ylendi
ylendiriw
ylenedi
ylengen
yleniw
yleniwge
ylep
yler
ylerde
ylerdi
ylerdin
ylerge
yleri
ylerinde
ylese
ylesedi
ylesedı
ylesetug
ylesip
ylesiw
ylesiwde
ylesiwler
ylesiwshi
ylesiwshiler
ylesiwshilerdin
ylew
ylewde
ylewi
ylewshi
ylewshiler
ylewshilerdin
ylewshileri
ylewshinin
yleydi
yleyin
yleytug
yli
ym
ymag
yme
ymegenge
ymese
yn
yne
ynek
ynekleri
yneklerin
yo
yod
yog
yojıldi
yoki
yonuv
york
yorkdagi
yorktag
yorktın
yosh
yost
yotuvchi
you
young
your
youth
youtube
ypg
yqawıs
yregi
yrek
yrekler
yreklerdin
yren
yrendi
yrendiharvnb
yrenedi
yrener
yrenetug
yrengen
yrenildi
yreniledi
yreniletug
yrenilgen
yrenilip
yrenilmegen
yrenip
yreniw
yreniwden
yreniwdi
yreniwge
yreniwi
yreniwshi
yretedi
yretiw
yretiwshi
yrewishtin
yri
yrik
ys
ysin
ysindirilgandi
ysundirib
yt
ytan
yten
ytip
ytkeni
yu
yuan
yugnak
yugnakiy
yugo
yugoslaviya
yugoslaviyanın
yugoslavskogo
yul
yulinadi
yuliy
yumor
yumorlıq
yun
yunan
yunanstan
yunesko
yuneskonın
yunon
yunonlar
yunus
yup
yupik
yupiter
yupiterdin
yura
yuridika
yuridikaliq
yuridikalıq
yurisdiktsiyasi
yurisdiktsiyası
yurist
yuritilayotgan
yurt
yusip
yusup
yusupov
yusupova
yusupovich
yusupovtın
yutinish
yuventus
yuz
yuzning
yyemgi
yyemginen
yyemgisi
yyemnen
yı
yıladı
yın
yınd
yınsh
yınsha
yırım
z
za
zablotska
zadarski
zag
zaglavie
zahiriddin
zair
zajnab
zal
zalar
zalardı
zalardın
zalarg
zalari
zaları
zaların
zalarının
zallari
zalları
zalsburg
zalı
zalıg
zalım
zalımlar
zalında
zaman
zamanag
zamanago
zamanagoy
zamanda
zamandı
zamang
zamanlarda
zamanlardan
zamanlarg
zamanlas
zamanlasları
zamanlası
zamannan
zamannın
zamanı
zamanında
zamanının
zamarrigi
zamarriqlar
zamarriqlarga
zamarriqlari
zamarrıq
zamaxshariy
zambiya
zamira
zan
zanın
zapasina
zapaslari
zapasti
zapatero
zapiski
zaptalwına
zaqatala
zaqım
zar
zara
zarafshan
zardabı
zardusht
zardushttın
zardushtıylıq
zarhal
zarip
zaro
zarodısh
zaryadi
zaryadlı
zarı
zarın
zasi
zası
zasının
zat
zatlar
zatlardag
zatlardan
zatlardi
zatlardı
zatlardın
zatlarg
zatlari
zatları
zatların
zatlı
zatlıg
zatlıq
zatqa
zattan
zatti
zattin
zattı
zattın
zatı
zaveta
zavod
zavoddan
zavodlar
zavodları
zavodlarında
zavodqa
zavodta
zavodı
zavodın
zavodında
zayalang
zaynap
zayıbı
zayıl
zb
zbe
zbek
zbekistan
zbekistanda
zbekistandag
zbekistannın
zbekiston
zbekistonda
zbekler
zbeklerdin
zbekshe
zbekstan
zbekstanda
zbekstandag
zbekstande
zbekstang
zbekstanlıq
zbekstannan
zbekstannın
zben
zde
zdegi
zdemir
zden
zder
zdi
zdin
ze
zealand
zedi
zege
zegi
zegin
zeimoto
zeit
zek
zekleri
zekten
zektin
zel
zelandiya
zelandiyada
zelandiyanın
zelden
zen
zeni
zenit
zep
zeplengen
zeplentirgen
zeppelin
zer
zerbayjan
zerbayjanda
zerbayjannın
zerbayjansha
zerde
zerger
zergerlik
zerine
zesinen
zetiledi
zetilgen
zetip
zetiw
zetiwshi
zevs
zey
zeyi
zeyinli
zeyler
zeytun
zg
zge
zgen
zgerdi
zgeredi
zgergen
zgerip
zgeris
zgerisi
zgeriske
zgerisler
zgerislerde
zgerislerdi
zgerislerdin
zgerislerge
zgerisleri
zgerislerin
zgerissiz
zgeriw
zgeriwi
zgeriwin
zgeriwine
zgeriwshen
zgeriwshi
zgeriwshili
zgermeli
zgermes
zgermeydi
zgermeytug
zgerte
zgertildi
zgertilgen
zgertip
zgertirdi
zgertirildi
zgertirilgen
zgertirip
zgertiriw
zgertiw
zgertiwge
zgertiwi
zgertiwler
zgertken
zgeshe
zgeshelenedi
zgesheligi
zgesheligin
zgesheligine
zgeshelik
zgeshelikke
zgeshelikler
zgesheliklerdi
zgesheliklerge
zgeshelikleri
zgesheliklerin
zgesheliklerine
zgi
zh
zho
zhuanginda
zi
zia
zig
zik
zika
zikir
zil
zildi
ziledi
ziletug
zilgen
zilgennen
zilik
zilip
zilis
zilisi
zilisin
zilisinde
zilisine
zilisinin
ziliske
ziliwi
zim
zimbabve
[...]
