!
"
#
##0
##1
##10
##11
##12
##13
##14
##15
##16
##17
##18
##19
##2
##20
##21
##22
##23
##24
##25
##26
##27
##28
##29
##3
##30
##31
##32
##33
##34
##35
##36
##37
##38
##39
##4
##40
##41
##42
##43
##44
##45
##46
##47
##48
##49
##5
##50
##51
##52
##53
##54
##55
##56
##57
##58
##59
##6
##60
##61
##62
##63
##64
##65
##66
##67
##68
##69
##7
##70
##71
##72
##73
##74
##75
##76
##77
##78
##79
##8
##80
##81
##82
##83
##84
##85
##86
##87
##88
##89
##9
##90
##91
##92
##93
##94
##95
##96
##97
##98
##99
$
%
&
'
(
)
*
+
,
-
.
/
0
00
000
0001
0002
001
004
01
02
029
03
033
035
04
047
048
05
06
07
071
078
08
09
0905
098
0989
1
10
100
1000
10000
100000
1003
101
1016
102
1022
103
1038
104
105
1050
1051
1054
106
1066
107
1070
1073
1077
108
1080
1086
1089
109
1091
1092
11
110
1100
1107
111
1113
1116
1118
1119
112
1121
1125
113
1130
1133
1139
114
1140
1149
115
1152
116
1169
117
1173
1175
1179
118
119
1190
1192
1194
1195
1198
12
120
1200
1202
1203
1204
1206
121
1214
1216
1217
1218
122
1220
1221
1223
1225
123
1230
1232
1238
124
125
1250
1257
1258
1259
126
1262
1266
1268
127
1270
1272
1274
1275
1277
128
1280
1282
1284
1285
1289
129
1294
1295
1296
1297
1298
1299
13
130
1300
13000
1302
1303
1304
1305
1306
1309
131
1310
1312
1313
1314
132
133
1334
1335
1336
1338
1339
134
1340
1341
1342
1343
1344
1346
1347
1348
1349
135
1350
1352
1353
1354
1355
136
1362
1366
137
1371
1372
1378
138
1380
1382
1383
1384
1388
139
1399
14
140
1400
1401
1406
141
1410
1414
1415
1418
1419
142
1420
1428
143
1432
1434
1436
144
1441
1442
1443
1444
1445
1447
1448
145
1450
1453
1455
1457
1458
146
1460
1464
1465
147
1470
1475
1476
1478
148
1480
1481
1483
1484
1485
1487
1488
1489
149
1490
1491
1492
1493
1494
1495
1496
1497
1498
1499
15
150
1500
1501
1502
1503
1504
1505
1506
1507
1508
1509
151
1510
1511
1512
1513
1514
1515
1516
1518
1519
152
1520
1521
1522
1523
1524
1525
1526
1528
1529
153
1530
1531
1532
1533
1534
1535
1536
1537
1539
154
1540
1541
1542
1543
1545
1547
1548
1549
155
1550
1551
1552
1553
1554
1555
1557
1558
1559
156
1560
1561
1563
1564
1565
1566
1567
1568
1569
157
1570
1571
1572
1573
1575
1576
1577
1578
158
1580
1582
1583
1584
1585
1587
1588
1589
159
1590
1591
1593
1594
1595
1596
1597
1599
16
160
1600
1601
1603
1604
1605
1607
1608
1609
161
1610
1611
1612
1613
1615
1616
1617
1618
1619
162
1620
1621
1622
1624
1625
1626
1629
163
1630
1633
1635
1636
1638
164
1640
1644
1645
1646
1648
165
1650
1652
1653
1654
1656
1657
1658
1659
166
1663
1664
1665
1666
1667
1668
1669
167
1670
1671
1672
1675
1676
168
1680
1682
1683
1684
1685
1687
169
1690
1692
1693
1694
1697
17
170
1700
1701
1702
1703
1704
1705
1706
1707
171
1710
1711
1713
1714
1715
1716
172
1720
1722
1723
1724
1725
1727
1728
1729
173
1730
1731
1732
1734
1735
1736
1737
1738
1739
174
1740
1742
1743
1745
1746
1747
1748
1749
175
1750
1751
1752
1753
1754
1755
1756
1757
1758
1759
176
1760
1761
1762
1763
1764
1765
1766
1767
1768
1769
177
1770
1771
1772
1773
1774
1775
1776
1777
1778
1779
178
1780
1781
1782
1783
1784
1785
1786
1787
1788
1789
179
1790
1791
1792
1793
1794
1795
1796
1797
1798
1799
18
180
1800
18000
1801
1802
1803
1804
1805
1806
1807
1808
1809
181
1810
1811
1812
1813
1814
1815
1816
1817
1818
1819
182
1820
1821
1822
1823
1824
1825
1826
1827
1828
1829
183
1830
1831
1832
1833
1834
1835
1836
1837
1838
1839
184
1840
1841
1842
1843
1844
1845
1846
1847
1848
1849
185
1850
1851
1852
1853
1854
1855
1856
1857
1858
1859
186
1860
1861
1862
1863
1864
1865
1866
1867
1868
1869
187
1870
1871
1872
1873
1874
1875
1876
1877
1878
1879
188
1880
1881
1882
1883
1884
1885
1886
1887
1888
1889
189
1890
1891
1892
1893
1894
1895
1896
1897
1898
1899
19
190
1900
1901
1902
1903
1904
1905
1906
1907
1908
1909
191
1910
1911
1912
1913
1914
1915
1916
1917
1918
1919
192
1920
1921
1922
1923
1924
1925
1926
1927
1928
1929
193
1930
1931
1932
1933
1934
1935
1936
1937
1938
1939
194
1940
1941
1942
1943
1944
1945
1946
1947
1948
1949
195
1950
1951
1952
1953
1954
1955
1956
1957
1958
1959
196
1960
1961
1962
1963
1964
1965
1966
1967
1968
1969
197
1970
1971
1972
1973
1974
1975
1976
1977
1978
1979
198
1980
1981
1982
1983
1984
1985
1986
1987
1988
1989
199
1990
1991
1992
1993
1994
1995
1996
1997
1998
1999
2
20
200
2000
2001
2002
2003
2004
2005
2006
2007
2008
2009
201
2010
2011
2012
2013
2014
2015
2016
2017
2018
2019
202
2020
2021
2022
2023
2025
203
204
205
206
207
208
2082
209
21
210
2100
211
212
213
214
2144
215
216
217
218
2180
219
2197
22
220
221
222
223
224
225
226
227
228
229
23
230
2300
231
232
233
234
235
237
238
239
2390
24
240
241
242
243
244
2448
245
246
247
248
249
25
250
2500
25000
251
252
253
254
255
256
257
258
259
26
260
261
262
263
265
266
267
268
269
27
270
2700
2706
271
272
273
274
275
276
277
278
279
28
280
281
282
283
284
285
286
287
288
289
29
290
291
292
293
294
295
296
297
298
299
3
30
300
3000
30000
301
302
303
304
305
306
307
308
309
31
310
3100
311
312
313
314
315
316
317
318
319
32
320
3200
321
322
323
324
325
326
327
328
329
33
330
331
332
333
334
335
336
337
338
339
34
340
341
342
343
344
345
346
347
348
349
35
350
3500
351
352
353
354
355
356
357
358
359
36
360
3600
361
362
363
364
365
366
367
368
37
370
371
375
376
377
379
38
380
3800
381
382
383
384
385
386
387
388
389
39
390
391
392
393
394
395
396
397
398
399
4
40
400
4000
40000
402
403
404
405
408
409
4092
41
410
41000
411
412
415
416
418
42
420
4200
421
422
423
425
426
427
428
43
430
431
432
433
434
44
440
4400
445
447
45
450
4500
451
452
453
454
455
456
458
459
4592
46
460
4600
461
47
470
472
473
474
476
478
479
48
480
481
482
483
486
489
49
490
494
495
496
498
499
5
50
500
5000
50000
503
504
505
506
507
508
509
51
510
515
518
519
52
520
522
524
525
529
53
535
536
54
540
541
542
545
546
547
55
550
553
555
56
560
562
563
564
565
566
569
57
570
572
574
58
580
581
584
588
59
590
598
6
60
600
6000
604
61
610
615
616
617
618
62
623
625
628
63
630
631
632
639
64
640
641
645
646
65
650
652
655
66
660
6600
667
67
670
68
680
683
686
69
690
691
697
7
70
700
7000
701
706
707
71
711
715
716
717
72
725
726
73
730
732
735
736
74
742
747
748
75
750
753
754
758
759
76
760
767
768
77
770
772
777
78
780
79
790
791
796
797
8
80
800
8000
801
809
81
813
814
816
817
82
820
825
827
83
830
833
834
84
840
841
842
848
849
85
850
851
852
853
86
860
861
86164
864
86400
87
870
872
874
875
879
88
880
8848
886
889
89
893
896
899
9
90
900
9000
91
913
917
919
92
922
925
927
929
93
930
935
936
937
938
94
940
95
950
96
960
961
963
965
967
97
970
975
9770213
978
9781403917232
9781403938695
979
98
980
985
986
988
99
990
997
999
:
;
<
=
>
?
@
\
^
_
`
a
aa
aalto
aare
aari
aaron
ab
abaci
abadan
abanduna
abandunatu
abastanza
abate
abati
abba
abbaghja
abbandona
abbandonu
abbanduna
abbandunata
abbandunate
abbandunati
abbandunatu
abbanduneghja
abbandunendu
abbanduno
abbandunonu
abbas
abbasidi
abbassatu
abbastanza
abbate
abbati
abbattutu
abbatucci
abbazia
abbazie
abbe
abbey
abbi
abbia
abbondanza
abbozzi
abbozzu
abbraccia
abbreviazione
abbrilǝ
abbriviatu
abbriviazioni
abbundante
abbundanti
abbundanza
abbundanzi
abc
abd
abdica
abdicazioni
abe
abel
aberdeen
abezza
abies
abile
abili
abilita
abilmente
abissale
abissali
abissu
abita
abitante
abitanti
abitata
abitate
abitati
abitativa
abitativi
abitativu
abitatu
abitazione
abitazioni
abitenti
abituatu
abitudina
abitudine
abitudini
ables
aboriginal
abortivum
abortu
about
abraham
abrei
abruzzese
abruzzesi
abruzzo
abruzzu
absidale
abside
absidi
absinthium
abu
abuliscia
abulizione
abundante
abundanti
abundanza
abusu
abyad
ac
aca
acade
academia
academy
acaia
acamanti
acanthaceae
acanthias
acanthus
acantu
acb
acca
accada
accade
accademia
accademica
accademichi
accademici
accademicu
accadi
accadia
accadicu
accaduta
accadutu
accalaccia
accalacciatu
accant
accantu
accapita
accarezza
accasa
accasu
accatta
accattu
acceca
acceda
accede
acceghi
acceleratu
accelerazione
accende
accenna
accentata
accenti
accentu
accerta
accertata
accesi
accessi
accessibile
accessibili
accessu
accesu
accetta
accettatu
accia
acciacca
acciaccatu
acciaghju
acciai
acciaio
acciaiu
acciarinu
acciau
accica
accidentale
accidente
accidenti
accilerazione
accima
accindendu
accinelli
accinta
accintu
accipiter
accipitridae
accissibuli
accitta
accittata
accittati
accittatu
accittazione
accittevuli
accitto
accizioni
accoglia
accoglie
accoglii
accolta
accolti
accoltu
acconcia
accoppia
accorda
accordani
accordi
accordu
accorsi
accortu
accosta
accresce
accrescia
accriditati
accriscimentu
accrisciutu
accuglienza
accumpagna
accumpagnanu
accumpagnata
accumpagnate
accumpagnati
accumpagnatu
accumulatu
accumulazione
accumulu
accuncia
accunciati
accunciatu
accunsentu
accuntentani
accupa
accupanti
accupata
accupatu
accupava
accupavani
accupavanu
accupazioni
accupendu
accupiamentu
accupo
accuppia
accuppiamenti
accuppiamentu
accuratezza
accurdata
accurdatu
accurta
accusa
accusati
accusativu
accusatu
accusi
aceddi
aceddu
acella
acelli
acellu
acer
aceraceae
aceras
aceri
acertula
acertule
acertulone
acertuloni
aceru
acetosella
acetu
ach
ache
achei
acheniu
acheson
achi
achille
achillea
achilli
achiu
achjappa
achmatova
achyranthes
aciartula
acide
acidu
acinonyx
aciti
acitu
aconcagua
acqua
acquaghjolu
acquale
acquariu
acquatella
acquatica
acquatichi
acquavita
acquaviva
acque
acquedottu
acqui
acquidottu
acquisizioni
acquista
acquistani
acquistata
acquistati
acquistatu
acquistete
acquisti
acquisto
acquistu
acrilicu
acronimu
acropula
acrostici
acrosticu
act
actes
actinopterygii
action
actor
acu
acughji
acula
acule
aculeata
aculeatum
aculeatus
aculi
acustica
acuta
acute
acutezza
acuti
acutu
ad
ada
adalbertu
adam
adamellu
adams
adamu
adatta
adattamentu
adattata
adattati
adattatu
adattazione
adattendu
adatti
adattu
adda
addevi
addevu
addii
addirizza
addirizzate
addirizzatu
addisperu
addispiratu
addistradore
addistratu
addistrendu
additivi
additivu
addiu
addivamentu
addivati
addivatu
addivavani
addizione
addizioni
addo
addoru
addossu
addrizza
addurmenta
addurminta
ade
adecec
adeguatu
adelaide
adelasia
aden
adenauer
aderenti
aderisce
aderiscia
adesioni
adeste
adi
adiabatica
adiacenti
adiantum
adichi
adieux
adige
adiratu
adler
administrative
administrazione
adolf
adolfo
adolfu
adolph
adolphe
adomian
adonis
adopra
adopranu
adoremus
adorna
adorno
adoru
adotta
adrastea
adria
adriano
adrianu
adriatica
adriaticu
adrien
adrittura
adroni
adsit
adulescenza
aduliscenza
adulta
adulti
adultu
adumbrate
adumbrati
aduniscenu
adunite
adupra
adupranu
aduprata
aduprate
aduprati
adupratu
aduprendu
adura
adurnate
adurnati
adurnatu
adutta
aduttata
aduttatu
aduttivi
aduttivu
adutto
aduzzioni
adventist
adventures
adygea
ae
aegagrus
aendi
aerea
aerei
aereu
aereus
aeria
aerie
aerii
aeronautica
aeroporti
aeroportu
aerudromu
aeruporti
aeruportu
aestivalis
aestivus
aeternam
aetnensis
aevi
afa
affacca
affaccata
affaccia
affacciani
affaires
affannatu
affanni
affannu
affare
affari
affascinanti
affascinatu
affattu
affendi
afferma
affermani
affesta
affesu
affetti
affettu
affianca
affiancani
affiancatu
affiancu
affida
affidabili
affidata
affidatu
affidete
affidevule
affidevuli
affido
affilata
affina
affinch
affine
affini
affinis
affinita
affiora
affirma
affirmata
affirmatu
affirmava
affirmazione
affirmazioni
affirmendu
affirmo
affissa
affitta
affittati
affittatu
affitti
affittu
affiuramenti
affiuranti
affleck
affluente
affluenti
afflussi
afflussu
affoca
affonda
affondamentu
affreschi
affrescu
affronta
affrontani
affrunta
affruntamentu
affruntatu
affrunto
affuca
affundamentu
affundatu
affurtu
afghanistan
afi
africa
african
africana
africani
africanu
africo
afrikaans
afrodite
afrudita
after
afuna
ag
again
agaminnonu
agaricaceae
agaricales
agaricomycetes
agaricus
agata
agatoclia
age
agenori
agente
agenti
agenzia
agenzie
ager
aggeliki
agghjesu
agghju
aggiornati
aggius
aggju
agglumeratu
agglumerazione
agglumerzione
aggrandimenti
aggrandimentu
aggregatu
aggressione
aggressiva
aggrigata
aggrigati
aggrigazione
aggrissiva
aggrissori
aggronda
aggrottu
aggrunda
aggrundati
aggrundendu
agguanta
agguanto
aghi
aghja
aghjaccina
aghjaccini
aghjaccinu
aghjacciu
aghjacenti
aghjalesi
aghje
aghjenti
aghjettivi
aghjettivu
aghji
aghjia
aghjini
aghjittivi
aghjittivu
aghjiunghjendu
aghjiunte
aghjola
aghjone
aghju
aghjunghja
aghjunghje
aghjunghjendu
aghjunghjenu
aghjunghji
aghjunghjia
aghjunghjini
aghjunta
aghjunte
aghjunti
aghjuntu
aghjusta
aghjustamentu
aghjustata
aghjustate
aghjustati
aghjustatu
agile
agios
agir
agisce
agisci
agiscia
aglia
agliana
aglientu
agliu
agnedda
agneddi
agneddu
agnelli
agnellu
agnez
agnona
agnone
agnonu
agnosticisimu
agnus
agora
agostini
agostino
agostu
agra
agraria
agriate
agricula
agriculi
agricultori
agricultura
agriculu
agrigentu
agrippa
agrumi
agrumu
aguilera
agultu
agunia
agustinu
ah
ahmadiyya
ahmed
ahtisaari
ai
aia
aiaccini
aiaccinu
aiacciu
aiace
aiaci
aiani
aiguabarreig
ain
aio
aipo
air
airbnb
airbus
aires
airline
airlines
airport
airways
airy
ais
aise
aisme
aisne
aiton
aitona
aiuta
aiutara
aiutata
aiutate
aiutati
aiutatu
aiuti
aiuto
aiutu
aix
ajaccio
ajkovskij
ajpg
ak
akademia
akihito
akira
al
ala
alabama
alacant
alain
alalia
alan
alandu
alanu
alare
alari
alaria
alarma
alaska
alaskey
alata
alaternus
alati
alatu
alazraqui
alba
albanesa
albanese
albanesi
albani
albania
albanu
albaru
albedu
alberghi
albergu
albert
alberta
albertacce
alberti
albertini
alberto
albertu
alberu
albiana
albiazul
albicilla
albida
albidus
albin
albitreccia
albitru
albrecht
albret
albu
albucciu
album
albumi
albuquerque
albus
alcala
alcaloidi
alchimia
alchimista
alchimisti
alci
alcibiade
alcolicu
alcollu
alcorisa
alcu
alcudina
alcudine
alcun
alcuna
alcune
alcuni
alcunu
aldehuelas
aldila
aldilonda
aldo
aldu
ale
aleatoria
aleatorie
aleatorii
alegra
alegre
alegri
alegria
alegru
alejandro
aleksandr
alemagna
alemani
alemanicu
alemanu
alementi
aleph
aleria
alesandri
alesani
alesaninco
alesanincu
alesiu
alessandra
alessandria
alessandro
alessandru
alex
alexander
alexandre
alfa
alfabeticu
alfabettu
alfabetu
alfedena
alfeu
alfie
alfonsi
alfonso
alfonsu
alfred
alfredo
algaghjola
algaiola
alge
algebra
algebrica
algebricamente
algebriche
algebrichi
algeri
algeria
algerianu
algherese
algheru
alghi
algiria
algoritmi
algoritmu
alguere
alguritmi
alguritmu
ali
aliaga
alianza
alias
aliatoria
aliatoriu
alic
alicarnassu
alice
aliconu
alien
aliens
alighieri
align
alignbars
aligrezza
alimagna
alimania
alimannu
alimantatu
alimantazioni
alimanu
alimentare
alimentari
alimentazione
alimenteghjanu
alimenti
alimentu
aliminta
alimintare
alimintari
alimintata
alinei
aliot
alisgiani
alismataceae
alismatales
alissandria
alistair
alisu
alittori
aliva
alive
alivi
alivu
alizioni
alizzioni
all
alla
allah
allan
allarga
allargamentu
allargata
allargate
allargatu
allata
alle
alleanza
alleate
alleati
alleatu
allegri
allegria
alleguria
allen
allenamentu
alleva
allevatu
allevu
allianza
allianzi
alliata
alliati
alliatu
alligator
alligorica
alligoricu
alligurii
allinatori
alliniamentu
allinianu
alliniati
alliscia
allium
alloca
alloghja
alloghju
allongani
allor
allora
alloru
allotrichum
allotropi
allucamenti
allucati
allucinazioni
alludi
allughja
allughjava
alluminiu
allungamentu
allungata
allungati
allungatu
allungendu
alluntana
alluntanati
alluntanatu
alluntanendu
alluntano
allusioni
alluvioni
alluviunali
alma
almanacco
almanaccu
almanach
almancu
almeida
almenu
alminu
almulente
alnus
alo
aloe
aloeaceae
alom
alone
alonu
alosa
alpa
alpana
alpane
alpay
alpe
alpha
alphabet
alphonse
alpi
alpina
alpine
alpini
alpinismu
alpinu
alpinum
alpron
alsazia
alsazianu
alsinoides
alt
alta
altaghje
altamente
altamenti
altare
altari
altaru
altavilla
alte
alter
alterna
alternanza
alternati
alternativa
alternative
alternativu
alterne
alterni
altezza
altezze
altezzi
althing
alti
altiani
altipiani
altipianu
altirazioni
altirnanza
altirnativa
altirnativi
altirnendu
altissimi
altissimu
altitudina
altitudinale
altitudine
altitudini
altitutine
altkirch
alto
altore
altori
altr
altra
altre
altrettanti
altrettantu
altri
altrimente
altrimenti
altro
altronde
altrondi
altru
altrui
altu
altupiani
altupianu
altura
alture
alturi
aluetu
alvaro
alvernia
alverniate
alveulare
alvin
alvitu
always
alypum
alza
alzachena
alzata
alzate
alzati
alzatoghja
alzatu
alzelli
alzendu
alzetu
alzi
alzo
alzu
alþingi
am
ama
amacu
amadei
amadeu
amadeus
amai
amaia
amaii
amalfi
amanda
amandula
amanduli
amandulu
amani
amanita
amanitaceae
amante
amanti
amanza
amara
amarani
amaranthaceae
amaranthus
amarantu
amarascu
amare
amarezza
amari
amaria
amaru
amaryllidaceae
amata
amate
amatori
amatu
amaury
amava
amazona
amazonas
amazone
amazoni
amb
ambasciadori
ambasciata
ambasciatore
ambianza
ambiegna
ambientale
ambientali
ambientalista
ambientalisti
ambiente
ambienti
ambigua
ambiguita
ambiintali
ambitu
ambiu
ambizione
ambizioni
ambiziosu
amboise
ambrose
ambrosi
amburgo
ame
amedeo
amelia
amemu
amen
amende
amenti
america
american
americana
americane
americani
americanismi
americans
americanu
americanus
americhe
americhi
amerindiani
amessi
amesti
ameti
ameto
ami
amica
amichevule
amichi
amici
amicizia
amicu
amiens
amiragliu
ammad
ammaghjatu
ammaistra
ammalatu
ammanati
ammaniti
ammansu
ammantillata
ammazzatu
amme
ammenda
ammenta
ammentu
ammessa
ammetta
ammetti
amministra
amministrata
amministrativa
amministrativamente
amministrativamenti
amministrative
amministrativi
amministrativu
amministratori
amministratu
amministrava
amministrazione
amministrazioni
amminta
ammira
ammiragliu
ammiratori
ammirazioni
ammissa
ammissione
ammissioni
ammissu
ammoniacu
ammonios
ammoniu
ammonta
ammorcia
ammubulamentu
ammuccia
ammurabi
ammutinamentu
amor
amore
amori
amorosa
amour
ampara
ampararete
amparatu
amparera
amparetini
ampaza
ampezzu
amphibia
ampia
ampiamente
ampiamenti
ampie
ampiezza
ampii
ampiu
amplexifolius
ampriani
ampsaga
ampugnani
amraphel
amsterdam
amu
amuletu
amulius
amuri
amurosa
amurosi
amurosu
amurrita
amurriti
amy
an
ana
anacamptis
anacardiaceae
anacletu
anagni
anali
analisa
analisi
analistu
analitica
analitiche
analitichi
analiza
analizata
analizatu
analoga
analoghi
analogu
analugamenti
analugia
analugii
analysis
analytics
ananus
anas
anassagora
anassimandru
anastacia
anastasia
anatolia
anatolica
anatolichi
anatolicu
anatomia
anatulia
anatumia
anc
anca
anch
anche
anchi
anchusa
anciclupedia
anciclupidia
ancien
ancienne
ancient
ancona
ancora
ancu
ancura
ancurata
and
anda
andai
andalie
andalusia
andalusu
andamentu
andata
andate
andati
andatu
andatura
andava
andavani
andavanu
ande
andemu
andendu
andere
anderlecht
andersen
anderson
andi
andini
andinu
ando
andorra
andre
andrea
andreana
andreani
andreas
andreessen
andrew
andri
andria
andrii
androgeu
andromeda
andu
andy
aneddi
aneddu
anela
anelli
anellu
anemone
anfibi
anfibii
anfibiu
anfidamanti
anfura
anfuri
ang
angara
ange
angel
angeles
angeli
angelica
angelika
angelini
angelique
angelo
angels
angers
anggun
anghiari
anghjone
anghjula
anghjulele
anghjuli
anghjulu
angio
angioina
angioini
angioino
angioinu
angiuina
angiuini
angiuinu
angle
angli
anglicana
anglicanu
anglismi
anglo
anglocorsu
anglona
anglonormannu
anglu
anglusassona
anglusassoni
anglusassonu
angnula
angnulu
angola
angui
anguilla
angulare
angulari
anguli
angulo
angulu
angunia
angus
angustifolia
anh
ani
anidridi
anima
animale
animali
animalia
animals
animata
animati
animation
animatu
animazione
animazioni
anime
animi
animu
anjou
ankara
ann
anna
annali
annant
annanta
annantu
annas
annata
annate
annati
annatu
anne
annega
annessa
annessi
annessione
annessu
annette
anni
annibale
annie
annienta
annissioni
anniversariu
annivirsariu
anno
annona
annosi
annosu
annotazioni
annu
annua
annualamenti
annuale
annuali
annui
annularis
annulla
annullata
annuncia
annunciatu
annunciava
annuncio
annunzia
annunziata
annunziatu
annunzii
annunzio
annunziu
annutata
annutatu
annǝ
anogramma
anonima
anonimu
anori
another
anquetin
ans
ansa
ansaldu
ansara
anser
ansieta
ant
antagunismu
antartica
antartichi
antarticu
antartide
antartidi
ante
antenati
antenatu
antenna
antenori
anteriore
anteriori
anthemis
anthericum
anthologie
anthon
anthony
anthropophorum
anthus
anthyllis
anti
antica
anticamente
anticamenti
anticarri
anticarru
anticarruli
antiche
antichi
antichissima
antichissime
antichissimi
antichissimu
antichita
anticidenti
anticipa
anticipati
anticipeghja
anticipendu
anticipu
anticlide
antico
anticorsu
anticu
anticunfurmisti
antifrancesa
antigalizianu
antigli
antiglie
antigua
antiidrugenu
antimateria
antimoniu
antinati
antinatu
antiochia
antioco
antipapa
antiparticula
antiprutoni
antiprutonu
antiquariu
antiquitates
antiquite
antiriori
antisanti
antiurariu
anto
antofagasta
antoine
antologia
antomolugia
anton
antone
antoneddu
antonelli
antonetti
antoni
antonia
antonini
antonino
antoninu
antonio
antoniu
antonu
antra
antri
antropologia
antru
antrupulugia
antulugia
antunettu
antunietta
antuninu
antunumasia
anu
anumalia
anumalii
anvers
anversa
anzi
anziana
anziane
anziani
anzianu
anziche
anzituttu
ao
aosta
aostu
ap
apa
aparta
apartamenti
aparti
apartu
apartura
aparturi
ape
aperta
aperte
aperti
apertu
apertura
aperture
aphyllum
apiaceae
apiales
apiaster
apiazzetta
apicultura
apidae
apifera
apis
apo
apocrifi
apodemus
apodidae
apollinaire
apollo
apollodoru
apollonio
apollu
apostoli
apostuli
apostulu
app
appa
appacia
apparatu
apparechi
apparechji
apparechju
apparente
apparentemente
apparenti
apparenza
appari
apparia
appariatu
apparintamente
apparintamenti
apparisce
appariscenu
apparisci
appariscia
appariscini
apparizione
apparizioni
apparsa
apparsu
appartamenti
appartamentu
appartena
appartene
appartenendu
appartenente
appartenenu
appartenghi
apparteni
appartenia
appartenini
appartenti
appartinendu
appartinente
appartinenti
appartinenza
appartinia
appeddu
appellativu
appellazione
appellu
appena
appendici
appennina
appenninicu
appenninu
appesa
appia
appiano
appianu
appiattu
appicca
appiccata
appiccicata
appiddativu
appieca
appiega
appiettu
appiicata
appiicati
appiicatu
appiicazione
appiicazioni
appinninu
appinza
appinzapalu
apple
applica
applicata
applicati
applicazione
applicazioni
applichendu
applico
appo
appoghja
appoghjanu
appoghjiu
appoghju
apportu
apposta
appostu
appressu
apprezzata
apprizziata
apprizziati
apprizziatu
apprizzievuli
approcci
approcciu
approdani
approdi
approdu
appronta
approvata
apprupriati
apprupriatu
apprussimanti
apprussimativa
apprussimativamente
apprussimativamenti
apprussimazione
appruvata
appruvatu
appruvazioni
appruvvisiunamentu
appughjata
appughjatu
appughjavani
appughjendu
appuntamentu
appunti
appuntidda
appuntu
appurtatu
appurtendu
apra
aprada
apradata
apradati
apradatu
apradavani
apradavanu
apradendu
apre
aprendu
aprenu
apri
apria
apricciani
april
aprile
aprili
aprirunu
aprodani
aprosio
aprutium
apugeu
apuleiu
apulica
apulugia
apus
apustolica
aqaba
aqua
aquae
aquarius
aquifoliaceae
aquila
aquilegia
aquino
aquinu
aquisgrana
aquitania
ar
ara
araba
arabe
arabi
arabia
arabica
arabicu
arabicum
arabu
araceae
arachnida
arachnitiformis
aragna
arago
aragona
aragone
aragonesa
aragonese
aragonesi
aragunesa
aragunese
aragunesi
aragunesu
araldica
araldicu
aramaicu
aran
aranci
arancina
arancini
arancinu
aranciu
aranea
araneola
aranese
araneus
aranth
arara
arari
arasu
arato
aratu
aratura
aratusa
arawak
arba
arbacea
arbaghjolu
arbaghju
arbi
arbitrariu
arbitronu
arbitru
arbor
arborea
arborescens
arburatura
arburea
arburescente
arbureti
arburetti
arburettu
arburi
arburu
arbusti
arbustu
arbutus
arc
arca
arcadia
arcadiu
arcaica
arcaichi
arcaicu
arcatella
arcatelle
arcati
arch
archaeolacerta
archaeology
arche
archelocu
archeologa
archeologhi
archeologia
archeologiche
archeologicu
archera
archeri
archeuloghi
archeulogica
archeulogiche
archeulogichi
archeulogicu
archeulogu
archeulugia
archi
archimede
archimedi
archipelagu
archita
architecture
architetta
architettata
architetti
architettonichi
architettonicu
architettu
architettura
architetturale
architetture
architittonica
architittonichi
architittonicu
architittura
archititture
archititturi
archittitura
archiuloghi
archiulogica
archiulogichi
archiulogicu
archiulogu
archiulugia
archive
archives
archivescu
archivi
archivie
archivii
archivio
archivistu
archiviu
arci
arcibabbone
arcidiacunu
arcidiocesi
arciduca
arcipelaghi
arcipelagu
arcita
arcivescu
arcivescuvatu
arcivescuvu
arco
arctan
arctica
arcu
arcusgi
arcutangenti
ardara
ardea
ardita
arditu
arduu
are
area
areale
arechja
arechje
arechji
aree
aregno
aregnu
arena
arethusa
arezzo
arezzu
argentella
argentina
argentinu
argentu
arghja
arghjentu
arghjetu
arghjintariu
arghjintina
arghjintini
arghjintinu
arghjusta
argina
argiope
argolica
argonne
argu
argumenti
argumentu
argumintazioni
argunauti
argutifolius
argyropelecus
arhizus
ari
aria
ariadne
ariale
ariali
arianna
arias
arice
arici
aricia
arida
aride
aridi
aridu
arie
aries
arii
arimitu
ariosto
ariostu
arisarum
aristide
aristodemu
aristolochia
aristolochiaceae
aristotele
aristoteli
aristotelis
aristucratica
aristucrazia
aritim
aritmetica
aritmetiche
aritmetichi
arizona
arkansas
arles
arm
arma
armamenti
armand
armando
armandu
armata
armate
armati
armatu
armatura
arme
armena
armeni
armenia
armeniaca
armenu
armeria
armi
armin
armistiziu
armoiries
arms
armunia
armuraccia
army
arnaldo
arnarson
arnese
arnesi
arnestu
arno
arnoglossus
arnold
arnoldo
arnone
arnoux
arnu
aroi
aronofsky
around
arpa
arpege
arpino
arpitanu
arrabbiatu
arradicatu
arranghja
arras
array
arre
arreca
arrecina
arrega
arregistratu
arremba
arrese
arresta
arrestati
arrestatu
arrestu
arretta
arrica
arricata
arricatu
arricchisce
arricchisci
arricchiscia
arrighi
arrighjistrata
arrighjistrati
arrighjunata
arrighjunati
arrigoni
arrigonii
arrigu
arrigula
arrimbata
arrio
arrisica
arrista
arristati
arristatu
arristendu
arrittu
arriva
arrivanu
arrivata
arrivati
arrivatu
arrivo
arrivolta
arrivu
arrizza
arron
arrori
arrostu
arrow
arru
arruba
arrubata
arrubatu
arrubecciu
arrulati
arrusti
arruvina
arruvinata
arsenal
art
artabotrys
arte
artefatti
artemidi
artemisia
arthi
arthropoda
arthur
arti
artica
artichi
artichjoccu
article
articles
articu
articulatum
articulazione
articulazioni
articuleghja
articuli
articulu
artie
artificiale
artificiali
artifizi
artifiziale
artifizieri
artifizieru
artifiziosa
artifiziu
artigianale
artigianatu
artigiani
artigliaria
artiglieria
artilleri
artiodactyla
artisgianali
artisgianatu
artisgiani
artisgianu
artist
artista
artiste
artisti
artistica
artistiche
artistichi
artisticu
artistu
artois
artri
arts
artǝ
arum
arumatica
arumatichi
arumaticu
arumenu
arvense
arvensis
arzachena
arzilla
arzillosi
arzillosu
as
asamina
asamini
asatta
asattamenti
asburghjcu
asburgu
ascanio
ascella
ascendente
ascendenza
ascension
ascensione
ascesa
asch
aschese
ascinsioni
ascinzioni
ascissa
ascissi
asciutta
asciutti
asciuttu
asciuva
asclepiadaceae
asclepiu
ascoltu
ascosu
ascra
ascrive
ascu
asculta
ascultate
ascultatu
asdrubale
asempii
asempiu
asercita
asercitata
asercitu
asfissianti
asgiata
asgiu
ashkenaziti
asia
asiago
asiagu
asiatica
asiatichi
asiaticu
asiddha
asiliu
asimetricu
asimov
asimplari
asinara
asinau
asini
asintotica
asinu
asinus
asio
asistini
asparagales
asparagus
aspera
aspessu
aspetta
aspettava
aspetti
aspettu
asphodelus
aspira
aspiranti
aspirazioni
aspissu
aspitta
aspittate
aspittatu
aspittava
aspittendu
aspleniaceae
asplenium
aspra
aspre
aspressu
asprettu
aspri
assa
assaghji
assaghju
assai
assaigs
assalta
assalti
assaltu
assam
assamblea
assassin
assassinati
assassination
assassinatu
assassini
assassiniu
assassinu
asse
assedii
assediu
assegnato
assemblea
assemblei
assensiu
assente
assenti
assenza
asserzione
assettu
assi
assia
assiccamentu
assicura
assicurata
assicuratu
assicureghjanu
assicurendu
assicuro
assicuronu
asside
assidiata
assidiatu
assidio
assigna
assignata
assignati
assignatu
assignazione
assimilabili
assimilata
assimilati
assimilatu
assimilazione
assimilazioni
assioma
assiomi
assira
assiria
assiru
assisi
assista
assiste
assistendu
assistente
assistenti
assistenza
assisti
assistia
assistutu
assiumaticu
asso
associati
association
associatu
associazione
associu
assoltu
assoluta
assolutu
assolve
assorbimentu
assu
assuan
assucendu
assucia
assuciata
assuciate
assuciati
assuciativa
assuciatu
assuciazione
assuciazioni
assughjitta
assuliati
assuluta
assulutamenti
assuluti
assulutisimu
assulutu
assuma
assume
assumendu
assumenu
assumesse
assumi
assumidda
assumiglia
assumigliani
assumiglianu
assunse
assunsi
assunta
assunti
assuntu
assunzione
assunzioni
assurbimentu
assurbitu
assurdu
asta
astarte
astenosfera
asteraceae
asterales
asterismu
asti
astinsioni
astiroidi
astori
astra
astragalus
astratta
astratti
astrattu
astre
astri
astrolabiu
astrologhi
astronomi
astronomia
astronomie
astronumia
astronumu
astru
astrunomi
astrunomica
astrunomichi
astrunomicu
astrunomu
astrunumia
astu
asturia
asturiana
asturiani
asturianu
astuti
astutu
at
ata
atacama
atalanta
atbara
atea
ateisimu
atena
atene
ateni
ateniesi
aternu
atgm
athene
athyrium
ati
atina
atinate
atinesa
atinesi
atipica
atlanta
atlanti
atlantic
atlantica
atlantichi
atlanticu
atlas
atle
atleti
atletismu
atletu
atmosfera
atmosferica
atmosferiche
atmusfera
atmusferica
atmusferichi
atomi
atomica
atomiche
atomichi
atomicu
atomu
atona
atoni
atra
atricapilla
atroce
atroci
atropa
ats
attacca
attaccamentu
attaccante
attaccanti
attaccanu
attaccata
attaccati
attaccatu
attacchi
attacco
attaccu
attala
attalla
attalus
atteddu
atteghjamenti
atteghjiamentu
attelli
attellu
attempa
attenta
attentatu
attenzione
attesa
attesta
attestanu
attestata
attestatu
attestazione
atti
attica
atticu
attigni
attimi
attimpatu
attimu
attindibilita
attinzione
attinzioni
attira
attirani
attirendu
attiro
attista
attistata
attistati
attistatu
attitudina
attitudine
attiva
attivamente
attivamenti
attive
attivi
attivista
attivita
attivu
attonzu
attore
attori
attornu
attratti
attrattu
attraversa
attraversatu
attraversu
attravirsata
attravirsati
attravirsatu
attravirsendu
attravirso
attrazzata
attrazzati
attrazzi
attrazzione
attrazzioni
attrazzu
attribuisce
attribuiscendu
attribuisci
attribuiscia
attribuiscini
attribuita
attribuiti
attribuito
attribuitu
attributi
attribuzione
attribuzioni
attrice
attu
attuale
attuali
attualita
attualmente
attualmenti
attundata
attundate
attundati
attundatu
attundulatu
atturchjata
au
aubulidi
auccia
auccianesi
audaci
audde
audi
audibile
auditivi
audouinii
audrey
auf
aufidena
augurava
augurendu
auguri
auguriu
august
augusta
auguste
augustea
augusteu
augustin
augustine
augusto
augustu
augustus
aujourd
auld
aumenta
aumentani
aumentatu
aumentendu
aumentu
auminta
aumintatu
aumintendu
auminto
aurasia
aurea
auriculata
auriga
aurillac
auropa
auropea
auropeanu
auropei
auropeu
aurora
aurore
aurupea
aurupei
aus
ausiliarii
ausiliariu
auspici
aussi
austen
austera
austere
austerita
austerlitz
austeru
austin
austinu
australe
australi
australia
australian
australiana
australiani
australianu
australis
austri
austria
austriaca
austriache
austriachi
austriaci
austriacu
austru
austu
autanticita
autentichi
autenticu
authority
authorized
auto
autobiografia
autoblinda
autobus
autoclavi
autoctone
autoctoni
autoctonu
autodidattu
automatic
automatica
automaticamente
automobile
autonoma
autonome
autonomi
autonomia
autonomistu
autonomu
autonuma
autonumia
autore
autori
autorisazioni
autorita
autoritariu
autorizati
autorizatu
autorizazione
autostrada
autres
autrice
auts
autubiugrafia
autubiugrafica
autuctona
autuctunia
autudirittori
autugrafa
autumatica
autumobili
autun
autunnu
autunoma
autunomi
autunomu
autunumia
auturita
auturitrattu
auturizati
auturnu
auvers
aux
av
ava
aval
avale
avali
avambracciu
avampostu
avanguardia
avantaghji
avantaghju
avanti
avanza
avanzanu
avanzarunu
avanzata
avanzate
avanzati
avanzatu
avanzendu
avanzu
avapessa
avara
avaraghju
avarani
avare
avarebbe
avaremu
avareti
avari
avaria
avariani
avarianu
avaristi
avaru
avatara
ave
avea
avemu
avena
avendu
avenimenti
aventi
aventinu
aventure
aventures
aver
avera
averanu
avere
averebbe
averi
averia
averianu
aversa
aversione
avery
aves
avesse
avessi
avete
aveti
aveva
avevanu
avezzanu
avi
avia
aviani
avianu
aviatori
aviazione
aviazioni
avicii
avifauna
avignone
avii
avila
avio
avis
avissi
avissini
avisti
aviu
aviv
avocat
avocatu
avogari
avoriu
avretu
avria
avril
avucati
avucatu
avuti
avutu
avvena
avvene
avveni
avvenimenti
avvenimentu
avvenne
avventu
avventura
avventure
avvenuta
avvera
avversari
avversarii
avversariu
avversita
avvezzi
avvia
avviata
avvicina
avvicinamentu
avvicinanu
avvicinati
avvicinatu
avvicinava
avvicinendu
avvicino
avvigni
avvilanata
avvinimenti
avvinimentu
avviniti
avvinta
avvintura
avvinuta
avvinuti
avvinutu
avvio
avvirati
avviratu
avvirsarii
avvirsariu
avvirtimentu
avvisa
avvisi
avvisu
avvizza
avvucati
avvucatu
award
awards
away
awe
axel
ayacucho
ayelet
aythya
az
azardu
azerbaighjan
aziah
azienda
azilonu
azione
aznavour
azoricum
azotu
azov
azurra
azzana
azzaru
azzione
azzioni
azziunaria
azzizzati
azzizzatu
azzori
azzuffu
azzurra
b
ba
babba
babbi
babbone
babbu
babel
babilonia
babiluniana
babiluniani
babilunianu
babo
baby
baccala
bacchus
bacco
baccu
bach
bachi
bacia
bacili
bacillus
bacini
bacinu
bacio
baciocchi
back
bacon
bad
bada
badaracco
badda
baddata
baddi
baddu
baden
badesi
badge
badia
baga
bagdad
baghdad
baghi
baglioni
bagna
bagnaghja
bagnani
bagnata
bagnati
bagnatu
bagnava
bagnendu
bagni
bagno
bagnu
bagu
bah
bahamas
bahia
bahr
baia
baidawi
baii
baikal
bailey
bain
bainzu
baiunetta
baja
bajkal
bajo
baker
bal
bala
balagna
balanina
balanini
balaninu
balares
balcani
balcanica
balcaniche
balcanu
balcona
balcone
balconu
balculu
baldacchinu
baldellia
bale
baleare
baleares
baleari
balearicu
balena
baleni
balia
baliari
balisgia
balistreri
ball
balla
ballad
ballads
ballate
balle
balli
ballinu
ballo
ballu
ballunetti
ballunettu
balogna
balsamu
balsuranu
baltichi
balticu
baltimora
balzac
bambin
bambini
bambino
bambinu
bamboo
banach
banana
banca
banche
banchetti
banchettu
banchi
banchieri
bancomer
bancu
band
banda
bandana
bande
bandera
bandere
bandi
bandiera
banditi
banditu
bando
bang
bangladesh
bank
banks
banu
baptiste
baptistere
bar
bara
barack
baracucca
baracuccu
barato
barba
barbada
barbados
barbaghju
barbara
barbareschi
barbari
barbaria
barbariche
barbarossa
barbaru
barbatus
barberino
barbicaghja
barbieri
barbigliuli
barbizon
barbossa
barbouri
barbuda
barbutu
barca
barcaghju
barcellona
barcelona
barche
barchetta
barchi
barcilona
barcino
bardata
bardi
bardot
bareine
bargello
bargude
bari
baricentru
bariju
barili
barinholtz
barisone
bariu
barker
barlia
barnes
barngarla
barocca
barocche
barocchetto
barocchi
barocco
baroccu
baron
barona
baronali
barone
baroni
baronia
baronu
baroque
barovero
barquq
barra
barrage
barras
barrata
barrati
barre
barrea
barred
barrejada
barretta
barretti
barri
barriera
barry
barth
bartoli
bartolini
bartolo
bartolomeo
bartoloni
bartolu
bartulumea
bartulumeu
barunale
bas
basa
basale
basali
basaltichi
basaltu
basamenti
basamentu
basanta
basanu
basata
basate
basati
basatu
basava
baschiccia
basciccia
basco
bascu
base
baseball
basendu
basendusi
basgiata
basgiate
basgiu
basi
basichi
basidiomycetes
basidiomycota
basile
basilea
basilica
basilicata
basin
basins
baso
bass
bassa
basse
basshunter
bassi
bassiccia
bassista
bassistu
bassorah
bassu
bassupianu
bassurilievi
bassurilievu
basta
bastani
bastanza
bastardu
baste
bastelica
bastelle
basterga
bastevule
basti
bastia
bastiacce
bastiacci
bastiaccia
bastiacciu
bastiais
bastianu
bastien
bastilicacci
bastilicaccia
bastimenti
bastimentu
bastione
bastioni
bastona
bastone
bastonu
bastunati
bataille
batelli
batellu
bateman
bath
bathgate
batimetria
batista
batman
batrachi
batraciens
batt
batta
battagli
battaglia
battaglie
battaglione
battaglioni
battaglionu
batte
batteddi
battelli
battellu
battendu
battenu
batteria
batterista
battesimo
battesimu
battesti
battestini
batteza
battezimu
battezzatu
batti
battifocu
battini
battista
battisteriu
battisteru
battisti
battiza
battizata
battizatu
battu
battuta
battuti
battutu
battye
batu
bau
baugh
bauhaus
baumann
bausch
bava
bavedda
baveddu
bavella
bavellu
baviera
bay
bayer
bayern
bayesiani
bazzicone
bazzoni
bba
bbc
bbenu
bbi
bbva
bc
bch
bd
bdlc
be
beach
beagle
beall
beast
beata
beatles
beatu
beaucarnea
beauharnais
beautiful
beauvoir
beaux
bec
becca
beccu
beck
beckett
bed
beda
bedda
beddanova
beddi
beddu
beddula
bedriagae
beduina
beduini
beduinu
bee
beethoven
bef
before
begin
begins
bei
beie
beienu
bel
belasco
bele
belfast
belfort
belga
belgica
belgiche
belgichi
belgicu
belgio
belgradu
belgude
believe
belize
bell
bella
belladona
belladonna
belle
bellerofonte
bellerofonti
belles
bellezza
belli
bellica
bellicu
belligeranti
bellini
bellissima
bello
bellu
bellula
belmonte
belo
belt
belushi
belvedere
belvideri
bema
ben
bench
benche
benchi
benda
bene
benedetta
benedetti
benedettina
benedettini
benedetto
benedettu
benedicti
benedittini
benefica
beneficu
benefiziu
benevento
beneventu
benfica
bengala
bengell
beni
benifizieghjani
benin
bening
benista
benivulenti
benjamin
bennett
benoi
bensi
benvinuta
benz
benzat
beozia
beppe
ber
beranos
berbara
berbari
berbaru
berberi
berberidaceae
berberis
berberu
bercaghju
berchidda
berenguer
berenices
berg
bergamasca
bergamo
bergamu
bergen
berger
beriev
bering
berisha
berkeley
berlin
berlinu
berlusconi
berna
bernadotte
bernard
bernardini
bernardo
bernardu
bernhard
bernie
bernin
bernini
berryman
bersaghji
bersaghju
bersaglieri
bertocchini
bertola
bertoleoni
bertolonii
bertrand
berzelius
bes
besanc
bessemer
best
bestia
bestiame
bestie
bestii
beta
betlemme
betulaceae
between
beuzia
bevincu
bey
beylerbey
beyond
bg
bh
bhaskara
bhutan
bi
bia
biada
biagio
bianca
biancarelli
bianche
bianchi
bianchiccia
bianchicciu
bianco
biancofiore
biancone
bianconi
biancu
biasgiu
biasi
biatu
bibbia
bibbiuteca
bibbona
bibi
biblichi
biblicu
bibliografia
biblioteca
bibliothe
bibliotheken
bibliugrafia
bibliuteca
bibliutecariu
biccattu
biccazzu
bicchina
bicchisgia
bicentenaria
bicentenariu
bicicletta
bicolor
biconichi
biconicu
bicromia
biddezza
biddissima
biddissimi
biden
bidimensiunale
bido
bidunati
biehn
bielorussia
bielorussiu
bien
bienne
bientina
biera
bierra
biffendu
biflorum
bifolia
big
biglieti
biglietti
bigliettu
bigornu
biguglia
bihar
bii
biiettiva
biiettivi
biitoghja
bij
bilancia
bilanciu
bilhe
bilia
bilivert
bill
billancourt
billboard
billezza
billicu
billy
bilzesi
bin
binaria
binariu
binh
binominale
binomiu
binumiali
binuminale
binuminali
biobi
biodiversita
biografia
biografu
biography
biologia
biologicu
biolugia
biolugu
biondu
biota
bioti
biotu
bip
birgu
birmani
birmania
birmanu
birmingham
bis
bisarcio
biscotti
biscottu
biscutella
bise
bisegna
bisenzio
bisesta
bisesti
bisestile
bisestu
bisettrici
bisinchi
bisizzioni
bislingua
bislingui
bismarck
bismutu
bisogna
bisogni
bisognu
bisonti
bissau
bistiamu
bisughje
bit
bitola
bitter
biu
biugafia
biugrafi
biugrafia
biugrafichi
biugrafii
biugrafu
biulogica
biulogicu
biulugia
biunivoca
bivanda
bivincu
biz
bizantina
bizantini
bizantinu
bizzicu
bjo
bk
black
blackbeard
blackburn
blackwell
blah
blaise
blake
blanc
blancheflor
blanchett
blas
blason
blasone
blasonu
blechnaceae
bleeker
bletchley
bleu
blica
blindati
blocchi
bloccu
bloch
blog
bloggu
blogu
blond
blondy
blood
blu
blucca
bluccata
bluccati
bluccatu
blue
blues
blunt
bmw
bnf
bo
board
boat
bob
bobbi
bobby
bobcat
boca
bocca
boccaccio
boccacciu
boccaciu
boccala
boccapanzula
bocche
bocchi
boce
boch
bochum
boci
bocognano
bodda
boddi
body
boeing
boethii
boeziu
boga
bogart
bogota
bohr
boi
boia
boiardo
boie
boii
bois
boiss
boiu
boivin
bola
bolchevik
boletaceae
boletales
boletus
bolivia
bolla
bolle
bolma
bologna
bolscevicu
bolsena
bolu
bolyai
bomba
bombardo
bombe
bombus
bombyliflora
bompiani
bon
bona
bonanno
bonanova
bonaparte
bonassa
bonaventura
bonavita
bonbucconi
bond
bone
bonelli
bonfigliu
bonger
bonghjornu
bongiorni
boni
bonifacinu
bonifacio
bonifaciu
bonifatu
bonifaziu
bonn
bonnet
bonomi
bonu
bonus
book
books
boom
boot
bora
boraginaceae
borbone
bordeaux
border
bordi
bordu
boreale
borghese
borghetti
borghi
borgia
borgo
borgognone
borgu
borinage
born
bornholm
borromeu
borromini
borsa
borse
bortigiadas
boru
borutta
bos
bosa
bosch
boschi
bosco
boscu
bosforu
bosnia
bosone
bosoni
boss
boston
bot
botanica
botanichi
botanicu
botanique
botanistu
botazuana
both
bother
botnia
botrychium
botrytis
botta
botte
bottega
botti
botticella
botticelli
bottom
bottoni
bouches
bouchet
boug
bouguereau
boulevard
boulmer
boulogne
bourdain
bourg
bourgeois
boushaki
bovidae
bowie
box
boxe
boxing
boy
boyer
boyle
boys
boziu
bozzi
br
bra
brabant
brabante
bracce
bracci
braccia
braccigrossu
bracciu
brad
bradbury
bradley
brady
bragg
brahe
brahma
brahmagupta
brahms
brama
bramante
bramata
bramu
branata
branca
branche
branco
brancoli
brandar
brando
brandon
brandona
brandonu
brandu
braninchi
brant
branu
braque
brasile
brasileira
brasili
brasilia
brasiliana
brasiliani
brasilianu
brassica
brassicaceae
brathwaite
brattee
braun
brav
bravi
bravona
bravone
bravu
brazzaville
brcp
bre
breakfast
brehm
brendan
brenna
brennan
brennu
brescia
breslau
brest
bretagna
brettagnica
brettone
brettoni
breuer
breve
brevetti
brevettu
brevi
brevu
brew
briaca
briachina
briacu
brian
briand
bric
bridge
bridges
bridget
bridgetown
brien
brienne
briganti
brigata
bright
brigitte
brillante
brillanti
brimley
brindisi
brinna
briofite
brionu
briq
brisen
bristol
brit
brita
britagna
britannia
britannica
britanniche
britannichi
britannici
britannicu
british
brittagna
brittania
brittannicu
brittonicu
briuna
brivamenti
brivettu
brixton
brizzi
broad
brocciu
broccu
brocculu
broderick
brodu
brody
broglie
brokeback
bromu
bronzu
brooklyn
brooks
brosnan
brot
brothers
brown
brownianu
browning
brownlow
bru
bruce
bruga
bruges
brughi
brugu
bruma
brumariu
bruna
brune
brunei
brunetta
bruni
bruno
brunswick
brunu
brunzu
bruscu
brusgere
brusgia
brusgianu
brusgiata
brusgiate
brusgiati
brusgiatu
brusgio
brusticu
brutali
bruto
brutta
bruttu
brutus
bruxelles
bryan
bs
bside
bu
bubani
bubble
bucarest
bucca
buccata
buccati
buccelli
buccentone
buccheri
bucchi
bucci
buccone
bucconu
buchanan
buchja
bucia
buciarda
buciardi
buciuleddi
buck
buckland
bucolica
bucolichi
bucugna
budapest
buddenti
buddha
buddisimu
buddista
budduso
budget
budiccioni
budoni
buena
buenos
bufala
bufali
buffetta
buffonu
bufona
bufonu
bugghju
buggiano
buggiu
bughja
bughje
bughji
bughjonu
bughju
bugiardu
buglossa
bugnu
buini
bula
bulanti
bulata
bulbi
bulbocodium
bulbu
bulgaria
bulgaru
bulivia
buliviani
bull
bulla
bullente
bulletin
bulletinu
bullettinu
bullini
bullitinu
bullock
bullore
bulogna
bulscevichi
bultigghjata
bulu
bumbarda
bumbardamenti
bumbardamentu
bumbardatu
bumbardo
bundesla
bunifazincu
bunifaziu
bunta
buon
buonaparte
buonarroti
buonǝ
burbone
burboni
burbonica
burboniche
burbonicu
burchini
burdeddu
burdon
bureale
bureali
bureau
buren
burgess
burghese
burghesi
burghesia
burghesu
burghisia
burgogna
buriali
buriati
buriazia
buridanu
burkhard
burkina
burla
burlington
burm
burmese
burned
burns
burnt
burocrati
burocratica
burqa
burra
burro
burton
burundi
busca
buscagliolu
buscemi
buscheto
buschi
buscosa
buscu
bush
business
busoni
bussola
bussu
busta
bustanicu
bustu
but
butanica
butanicu
butanistu
buteo
buti
butler
buttature
butteca
butteghe
butteglia
butter
button
buttone
buuren
buvidi
buxaceae
buxus
buyers
buzaiu
buzz
by
c
ca
caan
cabaret
cabbia
cabinda
cabinettu
cable
cabo
cabral
cabrera
caca
cacadori
cacatu
caccaru
caccavu
caccia
cacciadora
cacciadore
cacciadori
cacciagrande
cacciata
cacciate
cacciati
cacciatore
cacciatori
cacciatu
caccighja
caccighjati
caccighjeghja
cacciu
cachoeira
cactaceae
cacuminali
cada
cadastru
cadaveri
cadaveru
cadde
caddi
cade
cadente
cadenu
cadenza
cadi
cadice
cadini
cadmu
cadore
cadorna
caduta
caduti
cadutu
caelis
caerdydd
caere
caeruleus
caesar
caesarea
caesaris
cafe
caffe
cage
caghendu
caghjini
caghjuna
caghjunata
caghjunati
caghjunatu
caghjuneghja
caghjunendu
caghjuno
cagione
cagiunata
cagiunatu
cagliari
caglina
cagna
cagnacci
cagnacciu
cagnanu
cagnetta
cahiers
cai
caiano
caifassu
caio
cairu
caisra
caius
cajamarca
cala
calabra
calabrese
calabria
calabru
calacuccia
calais
calamaru
calamintha
calamita
calanca
calanche
calanchi
calangianus
calasanziu
calasima
calata
calatu
calca
calcagna
calcagnu
calcalcalini
calcaria
calcarie
calcarii
calcariu
calcatoghju
calceolus
calchas
calchi
calchiadunu
calchissia
calci
calciadore
calcina
calcio
calciu
calcosa
calcula
calculata
calculati
calculatrici
calculatu
calculeghja
calculevule
calculevuli
calculi
calculu
calcutta
calda
caldane
caldani
caldanu
caldara
caldareddu
calde
caldi
caldu
cale
caledonia
calenda
calendariu
calenzana
calepina
calgary
cali
calibru
calice
calici
caliciu
calicotome
calicut
calidonia
calidris
caliduniana
califfatu
califfu
california
calindariu
calinzana
calinzanincu
call
calle
called
callerucciu
callimacu
calling
callistu
calma
calmazzo
calmi
calmu
calo
calore
calori
calotta
caltabellotta
caltanissetta
calura
calvariu
calvese
calvi
calvia
calvin
calypso
calze
calzi
calzoni
calzu
calzunetti
calzunettu
cam
camara
camargo
camari
camba
cambendu
cambia
cambiallu
cambiamenti
cambiamentu
cambiani
cambianu
cambiaso
cambiata
cambiatu
cambiendu
cambio
cambiu
cambogia
cambre
cambricum
cambridge
came
cameddu
camellu
camelopardalis
camera
camerata
camere
camerino
cameron
camerone
camerun
cami
camii
camilla
camille
camillo
camino
caminu
camisgetta
camisgia
camisgimerdosu
cammeddi
cammeddu
cammina
cammini
cammino
camminu
camosci
camosciu
campa
campagna
campagne
campagni
campagnola
campagnole
campagnoli
campagnolu
campaign
campamentu
campana
campanaria
campane
campanella
campanelle
campanellu
campani
campania
campanile
campanili
campanu
campanula
campanulaceae
campatu
campava
campavanu
campbell
campendu
campestra
campestri
campestris
campetti
campi
campidanese
campidanesu
campidogliu
campiglia
campile
campinas
campionati
campionatu
campione
campioni
campionu
campitellu
campiunamentu
campiunati
campiunatu
campo
campoloru
camporeale
campos
campu
campubassu
campuccia
campuli
campulori
campuloru
campumoru
campus
campusantu
camus
camusciara
can
cana
canada
canadese
canadesi
canadian
canadiana
canadianu
canaghja
canal
canale
canali
canard
canarelli
canari
canarie
canariensis
canarii
canavaghja
canavese
cancaru
cancella
cancer
cand
canda
candel
candela
candelle
candelu
candia
candidati
candidatu
candidatura
candidum
candiscia
candita
canditi
canditura
candu
cane
canea
canes
canfora
cani
canidi
canina
canindeyu
caninu
canis
canna
cannabina
cannavacciu
canne
cannedda
cannella
cannelle
cannes
cannetu
canni
cannicci
canniccioni
cannigione
cannochjali
cannone
cannoni
cannonu
cano
canoa
canoe
canofula
canone
canoni
canonica
canonichi
canonici
canonicu
canorus
canova
cansa
canta
cantabria
cantadora
cantadore
cantadori
cantani
cantante
cantanti
cantanu
cantara
cantare
cantarini
cantarinu
cantaru
cantata
cantate
cantatrice
cantatu
cantautrice
cantava
canteghja
canteghji
cantelmo
cantelmu
cantendu
cantera
canterbury
canterina
cantharellus
canti
canticu
cantieri
cantieru
cantina
cantine
cantini
canto
cantolao
canton
cantona
cantone
cantoni
cantonu
cantor
cantori
cantu
cantuneri
canu
canyon
canzona
canzone
canzoni
canzuneri
canzuneru
canǝ
caos
cap
capa
capace
capaci
capacita
capaldi
capanna
capanne
capanni
capannori
cape
capedda
capeddi
capeddu
capella
capellanus
capelli
capellu
capensis
capet
capi
capibiancu
capicciuttendu
capicorsu
capicursina
capicursinu
capiddera
capifila
capilavoru
capillare
capillus
capilocu
capilocuabitanti
capimachja
capinera
capineru
capipartiti
capisce
capisci
capiscia
capiscitoghja
capiscu
capital
capitala
capitale
capitali
capitalisimu
capitalistu
capitanata
capitanati
capitani
capitanu
capiteddu
capitelli
capitellu
capiti
capitu
capitula
capitule
capituli
capitulini
capitulo
capitulu
capizzoni
capo
capochjula
capoliveri
caporettu
caporossi
cappa
capparis
cappatu
cappedda
cappeddi
cappeddu
cappella
cappelle
cappelli
cappellina
cappellu
cappelluccia
cappiatu
cappona
cappone
capponu
cappuccini
capra
capraia
capre
capreolata
capreolus
caprera
caprese
capresi
capretti
caprettu
capri
capricciu
capricho
capricornu
caprifogliu
caprifoliaceae
caprimulgidae
caprimulgus
caprioli
capriolu
caproni
capsicum
capsula
captain
capu
capua
capuana
capula
capunanzi
capunanzu
capurali
caput
capuzzina
capǝ
car
cara
carabina
caracale
caracas
caracutellu
caracutu
caraffa
caragnani
caragutu
caraibi
caraibica
caraibichi
caraibicu
caraminuticcia
caramusa
caran
carattari
carattaristica
carattaristichi
carattaristicu
carattarizata
carattarizati
carattarizatu
carattarizeghja
carattarizeghjani
carattarizo
carattaru
carattere
caratteri
caratteristica
caratteristiche
caratteristichi
caratteristicu
caratterizata
caratterizate
caratterizatu
caratterizeghja
caratterizo
caratteru
carattiristica
carattiristichi
caravaggio
caravana
caravone
carbentus
carbini
carbo
carbone
carboni
carbonica
carboniu
carbonu
carbuccesi
carbuccia
carbunati
carbunatu
carburante
carburanti
carca
carcanu
carcharhiniformes
carche
carcheto
carchetu
carchi
carcopino
carcu
carcupinu
cardaghja
cardalina
cardano
cardi
cardiaca
cardiacu
cardiff
cardinale
cardinali
cardinalita
carditu
cardona
cardozo
cardu
carducci
carduelis
cardui
cardunculus
care
carenza
carestia
caretta
cargeghe
cargese
carghjaca
carghjese
carghjesi
cargo
cari
caria
caribe
carica
caricati
cariche
carichi
caricu
cariddi
carina
carissimu
caristia
caristie
carita
carl
carla
carlin
carlinu
carlo
carlos
carlotta
carlotti
carlu
carmen
carmide
carmine
carna
carnaccia
carnali
carnate
carne
carnivali
carnivora
carnivori
carnosa
carnot
carnute
caro
carocci
carogna
carol
carolina
caroline
caroll
carols
caronte
caronti
carota
carpaticu
carpazi
carpenters
carpi
carpinetu
carpobrotus
carracci
carraghju
carrara
carre
carrel
carrey
carri
carrie
carrieghjani
carriera
carroll
carrozzu
carru
carrughji
carrughju
carrulu
carsichi
carsu
cart
carta
cartaghjina
cartaghjinesi
cartagine
cartaginese
cartaginesi
carte
cartel
carter
carthusiana
carti
carticasi
cartilaghjine
cartilaghjini
cartisiani
cartisianu
cartledge
cartografu
cartone
cartonu
cartoon
cartucciu
cartugrafia
cartula
cartwright
caru
carulina
carulu
cary
caryophyllaceae
caryophyllales
caryophyllata
cas
casa
casabianca
casacconi
casaccuni
casaglione
casaglionu
casalabriva
casalatticu
casalduni
casale
casali
casalonga
casalta
casaluna
casalvieri
casama
casamacciuli
casamattonu
casamentu
casanova
casanu
casata
casate
casati
casatorra
casatu
casca
cascani
cascanu
cascata
cascati
cascatu
casce
caschendu
caschi
casci
cascia
casciano
cascina
casciona
cascistretta
cascittoni
casco
cascu
case
casella
caselle
casentino
caserma
caserne
caserta
cases
casetta
casevechje
casey
casgi
casgione
casgiu
cash
casi
casinca
casino
casinum
caso
casole
casone
casonu
caspe
caspiu
cassandra
cassano
cassar
cassianu
cassinesi
cassini
cassinu
cassioides
cassoulet
casta
castagna
castagne
castagnete
castagnetu
castagni
castagniccia
castagnina
castagnine
castagninu
castagnola
castagnu
castaldu
castanea
caste
castedda
casteddu
castel
castell
castella
castellacquese
castellaneta
castellani
castellare
castellarese
castelle
castelli
castellina
castello
castellu
castellucciu
castelnaudary
castelnuovo
castelsardo
castelsardu
casterman
castheddu
casti
casticu
castiddanesu
castifau
castighi
castiglia
castiglianu
castiglion
castiglione
castiglioni
castigu
castineta
castirla
castita
castle
castor
castra
castrazioni
castro
castu
casu
casuals
casualties
cat
catacombi
catala
catalana
catalani
catalans
catalanu
catalettu
catalina
catalizatore
cataloghi
catalogna
catalogne
catalogu
catalogue
catalunia
catalunya
catanga
catania
catanzaru
catarazza
catarazzina
cataru
catarzu
catastaghji
catastaghju
catastrofa
cate
cateau
cateddi
cateddu
catedra
catedral
catedrala
catedrale
catedrali
categoria
categorie
categuria
categurie
catello
catellu
catena
catenacciu
catene
cateni
caterina
caterpillar
cateru
cateti
catetu
cathe
cathedral
cathedrale
catherine
catholic
catiguria
catiguriali
catigurii
catigurisazioni
catinacciu
cato
catodichi
catodu
catolica
catolichi
catolici
catolicu
cattedrale
cattedrali
cattidrale
cattidrali
cattiva
cattive
cattivita
cattivu
cattolica
cattolichi
cattolicu
cattulicesimu
cattura
catturanu
catturata
catturate
catturati
catturatu
catturo
catulicismu
cauca
caucasian
caucasica
caucasichi
caucasicu
caucasiu
caucasu
caught
caulinaires
cauria
causa
causali
causalita
causata
causati
causatu
cause
causendu
causi
cav
cava
cavacciole
cavaddaria
cavaddata
cavaddi
cavaddina
cavaddu
cavaglieri
cavalcatura
cavaliere
cavalieri
cavallaghju
cavalleria
cavalli
cavallina
cavallo
cavallu
cave
cavellu
caverna
caverni
caviali
cavichjolu
caviezel
caviglioli
cavita
cavone
cavru
cavu
caxton
cazzi
cazzu
cb
cbd
cc
cca
cchisu
cchiu
cchiǝ
cci
cciula
cciuli
ccm
cconi
ccu
ccula
ccuni
cd
cdcasa
cdot
cdots
ce
ceara
cebu
ceca
cecca
ceccaldi
ceccarelli
ceccu
ceche
cechi
ceci
cecil
cecina
ceciu
cecrope
cecu
ceda
cedant
cedduli
cede
cedi
cedini
cedric
cedru
ceduta
celavu
cele
celebra
celebrata
celebratu
celebravanu
celebrazione
celebrazioni
celebre
celebreghjanu
celebri
celebrita
celebru
celeste
celesti
celestinu
celestu
celi
celibri
cell
cella
cellini
cellula
cellule
celsius
celti
celtic
celtica
celtiche
celtichi
celticu
celu
cem
cena
cenhinen
cennari
cennere
cenni
cennu
censimentu
censore
censu
cent
centauri
centauru
centenariu
center
centesimi
centimetri
centimi
centinaie
centinare
central
centrale
centrali
centre
centri
centro
centru
centrumeridiunale
centu
centuliri
centunari
centuri
centurione
century
cenu
cepa
cepaea
cephalantera
cephalanthera
cephalus
ceppa
ceppi
ceppu
cera
ceramica
ceramiche
ceramichi
ceramicu
cerasus
ceratina
cerbaru
cerbellu
cerberus
cerbicale
cerca
cercandu
cercani
cercanu
cercis
cercu
ceremonie
cerere
cereri
ceres
ceri
cerigo
cerimonia
ceriu
cern
cerretani
cerro
certa
certaldo
certamente
certamenti
certe
certezza
certi
certificazione
certosa
certu
cerva
cervantes
cerveteri
cervi
cervidae
cervidi
cervione
cervioni
cervu
cervus
cesar
cesare
cesarea
cesari
cesariu
cesaru
cese
cesena
cesi
cessa
cessione
cetacei
cetara
cetera
ceterach
ceti
cetona
cette
cettii
cetu
ceuta
ceylan
cf
cfr
ch
cha
chabot
chajmata
chamberlain
chamorchis
champagne
champion
champions
championship
chan
chance
chandler
change
changed
channel
chansons
chante
chapelle
chapiteau
chaplin
char
charadrius
charleroi
charles
charlie
charlotte
charpentier
charter
chase
chasers
chateau
chaucer
chauchat
chauliodus
che
ched
chekhov
chelidonichthys
chelsea
chemin
chemistry
chen
chenille
chenopodiaceae
cher
chera
cherbourg
cherchji
cherchju
chere
cheri
cheronea
cherse
chersi
chersini
chertu
chesky
chester
cheta
chetta
chevet
chew
cheyenne
chez
chi
chiamato
chiamo
chiana
chianni
chiano
chianti
chiara
chiaravalle
chicago
chiddu
chien
chiesa
chiesina
chieti
child
children
chile
chilean
chilien
chilimangiaru
chilla
chilo
chilometri
chilomitri
chilomitru
chilugrammi
chilugrammu
chimborazu
chimbote
chimera
chimica
chimicamente
chimiche
chimichi
chimicu
china
chinensis
chinesa
chinese
chinesi
chinesu
chinghi
chio
chirac
chirendu
chirgu
chironu
chirurgia
chirurgu
chisa
chistu
chitarra
chitarre
chitarrista
chitarristu
chitta
chittatu
chiudi
chiunqua
chiusa
chiusi
chj
chjaccula
chjachjari
chjama
chjamani
chjamanu
chjamata
chjamate
chjamati
chjamatu
chjamava
chjamavani
chjamavanu
chjamemu
chjamendu
chjami
chjamo
chjamu
chjappa
chjappeddi
chjappella
chjappi
chjappona
chjapponu
chjappu
chjara
chjaramente
chjaramenti
chjarasgi
chjarasgiu
chjare
chjarezza
chjari
chjarine
chjaru
chjassi
chjassu
chjatra
chjavari
chjave
chjavette
chjavi
chje
chjeccula
chjede
chjerchji
chjerchju
chjesa
chjese
chjina
chjinatu
chjocca
chjodi
chjodu
chjoma
chjosa
chjoscu
chjose
chjosi
chjostru
chjosu
chjuca
chjucareddi
chjuche
chjuchi
chjucu
chjuda
chjude
chjudi
chjudia
chjudini
chjughi
chjumi
chjurlinu
chjusa
chjuse
chjuseddi
chjusella
chjusi
chjustreddi
chjusu
chjusura
chlorantha
chloris
chloropus
chm
cho
chocolate
choisir
chondrichthyes
chordata
choses
chris
christ
christe
christi
christian
christianity
christina
christmas
christoph
christophe
christopher
christus
chron
chrysaetos
chrysanthemum
chuck
church
churchill
churriguerescu
chœur
chǝ
chə
ci
cia
ciabattonu
ciad
ciaffu
cialamella
ciamannaccia
ciambugliu
ciane
cianoacrilatu
ciarbeddu
ciarbellu
ciarbicali
ciarri
ciascuna
ciascunu
ciattoni
ciavatti
ciba
cibarius
ciberattacchi
cibi
cibu
ciccone
cicculata
cicerana
cicero
cicerone
cichorium
ciciaronu
cicilia
ciciliana
ciciliani
cicilianu
cicli
ciclica
ciclichi
ciclicu
cicloni
ciclopi
ciclu
ciconia
cicreu
ciculanu
cicuta
cicutarium
ciditini
cidutu
cie
ciel
cielo
ciffri
ciffru
cifra
cifri
cifru
cignala
cignale
cignali
cignu
cile
cilena
cilene
cilenu
cilesta
cilesti
cilestu
cili
cilia
cilibra
cilibrata
cilibrati
cilibratu
cilibrazione
cilibrazioni
cilibreghja
cilicia
ciliegia
ciliegie
cilindrica
cilindrichi
cilindricu
cilindru
cima
cime
cimentu
cimi
cimiez
cimiterii
cimiteriu
cina
cinarca
cinarchesi
cinca
cincu
cinema
cinematografica
cinematograficu
cinematugra
cinematugraficu
cineraria
cinerea
cinese
cinetica
cinghjali
cini
cinnaronu
cinnerone
cinodapistoia
cinquant
cinquanta
cinquantina
cinque
cinquecentu
cinqui
cinquicentu
cinsura
cinta
cintinariu
cintrale
cintrali
cintralita
cintrata
cintratu
cintu
cintunara
cintunari
cintura
cio
ciocci
cioccia
ciocciu
ciociaru
cioe
cioglu
cionca
cioncu
ciosi
ciotta
ciottu
ciottuli
ciottulu
cipes
cipolla
cippu
cipressu
cipria
ciprianu
cipriota
cipru
cipullinu
circ
circa
circadori
circatu
circhendu
circi
circionu
circo
circonda
circondani
circondanu
circondi
circondu
circucentru
circuiti
circuitu
circula
circulara
circulare
circulari
circularia
circulazione
circulazioni
circuleghja
circuli
circulu
circumfarenza
circumfarenzi
circundante
circundariu
circundata
circundati
circundatu
circundendu
circunflessu
circunnavigazioni
circunvicina
circunvicini
circus
circuscritta
circuscrizzione
circustante
circustanti
circustanza
circustanze
circustanzi
cirene
ciriaco
cirillu
cirimonia
cirimonie
cirimonii
ciriola
cirneu
cirnu
ciro
cironi
cirru
cirrus
cirta
cirtamenti
cirtezza
cirtezzi
ciru
cisalpina
cisalpinu
cismontanu
cismonte
cismonti
cismontincu
cismuntanu
cismunticu
cismuntincu
cispra
cissatu
cisso
cistaceae
cistarra
cistercense
cistercensi
cisterna
cisterne
cistus
cit
cita
citadella
citadelle
citadina
citadine
citadini
citadinu
citai
citani
citata
citate
citatedda
citatella
citati
citatina
citatini
citatinu
citatu
citazione
citazioni
cite
citemu
cites
cities
cito
citra
citroe
citronu
citrullus
citrus
citta
cittadinanza
cittadini
cittatina
cittatinanza
citti
city
ciucciarella
ciudad
ciudda
ciuffe
ciuffi
ciuintu
ciutat
ciuvodda
civetta
civica
civicu
civile
civili
civilisazione
civilisazioni
civilizazioni
civilta
civita
civitas
civitate
civitella
ck
ckstu
cl
cla
clair
claire
clandestini
clani
clanu
clara
clarendon
clark
clarke
clarkson
clary
clash
class
classa
classamentu
classata
classatu
classe
classes
classi
classic
classica
classical
classicamente
classiche
classichi
classicu
classifica
classificata
classificate
classificati
classificatu
classificava
classificazione
classificazioni
classifiche
classificheghja
classiques
claude
claudia
claudio
claudiu
clausura
clav
cle
clear
clematis
clematitis
clement
clemente
clementi
clementina
clementine
clemer
clen
cleopatra
cleopatre
cleru
cleveland
clevsi
cliccate
cliente
clienti
clift
clifton
clima
climatiche
climatichi
climaticu
climenti
climi
climu
cling
clinica
clinton
clive
clocks
clooney
cloru
cloruru
close
cloud
club
clube
clubs
clung
cluny
clyde
cm
cn
cnidu
cnn
cnossu
cnrs
co
coa
coach
coalition
coast
coautori
cobalt
cobaltu
cobar
coburn
coccothraustes
coccu
coce
cochlearia
cochlearioides
cocia
coco
cocos
coda
codda
coddani
coddi
coddipianu
coddu
code
codi
codibianca
codice
codici
codifurciula
codirossu
codizennula
coe
coelebs
coeloglossum
coetzee
coeur
cofundatore
coghinas
coghja
coghju
cogli
coglia
coglie
coglii
coglini
cognomen
cohen
col
cola
colazione
colchidi
cold
coldplay
cole
colin
coll
colla
collabora
collage
collanu
collar
collara
collaris
colle
collection
college
collegium
collelongu
collesalvetti
colli
collins
collision
collu
colmar
colmu
colo
coloane
colomba
colombani
colombano
colombia
colombo
colombu
colon
coloni
colonia
coloniale
colonica
colonie
colonna
colonne
colonnes
color
colorado
coloradu
colore
colori
colors
colour
colpa
colpi
colpitu
colpu
colt
coltelli
colti
coltu
coluber
colubridae
coluche
columba
columbaghju
columbanu
columbia
columbianu
com
coma
comandante
comandu
combatte
combattenti
combattimenti
combattimentu
combinator
comburente
combustibile
come
comedia
comente
comenti
comes
comet
comic
comica
comics
comicu
coming
cominium
comino
cominu
comita
comite
comiti
comitium
comix
comme
commedia
common
commons
commonwealth
communes
communis
communistu
como
comore
comosum
compagni
compagnie
company
comparsa
compia
compie
compii
compiti
compitu
compiu
comple
complete
completes
compone
comporta
comportamenti
compositore
composizione
composta
compra
compru
compton
compunenti
compusizioni
computaziunale
comscore
comte
comu
comuna
comune
comuni
comunicazioni
comunita
con
conca
concacaf
concepcio
concepcion
conception
concerti
concerto
concetti
concettu
concezione
concia
conciliu
condivi
conducibilita
cone
conegliano
conferenza
configurazione
confraternita
conger
conghjuntivu
congiuntivo
congo
congressu
congruenti
congruenza
congu
coni
conica
coniche
conichi
connecticut
connectilis
connections
connery
connor
conomie
conomique
conomistes
conopsea
conquista
conquistadores
conquistadori
conrad
conradiae
conscie
consecutivi
consequenze
conserva
conservatoire
conservatore
consideratu
consigli
consiste
consolazione
consomazione
consommazione
consonante
constant
consula
consulatu
consule
consuli
consulta
consultatu
consulte
consulu
conta
contact
contani
contanu
conte
conteni
contenuti
contenutu
contes
conti
continentale
continuatu
contr
contra
contrabandisti
contraforti
contramisura
contraparti
contrappusizione
contrariforma
contrattaccu
contro
controffensiva
controlu
contru
contruversa
contruversia
contruversu
contu
conu
convenzione
cook
cool
coolidge
cooper
coorte
copa
copenaghen
copernicu
coperta
coperto
copia
copie
copii
coppa
coppia
coppie
coppii
coppiu
coppola
coppu
copre
coprenu
copri
coprini
copyleft
copyright
cor
cora
coranu
corax
corazzati
corbaccio
corbacho
corbara
corbi
corbin
corbu
corbusier
corcia
corciu
corda
cordata
corde
cordero
cordi
cordigera
cordillera
cordova
cordu
core
corea
coreanu
corfu
cori
corintu
coriophora
cormon
corn
cornamusa
corne
corneille
cornelia
cornelio
cornelis
cornelius
cornell
corner
cornice
corniche
cornu
corona
coronel
coronidi
corpi
corpilonghi
corporation
corps
corpu
corpus
corra
corradinu
corradu
corre
correa
correlate
correnu
corri
corrosione
corru
corsa
corscia
corse
corsematin
corsenetinfos
corses
corsi
corsica
corsicae
corsican
corsicana
corsicanus
corsicis
corsicum
corsicus
corsipedia
corso
corsu
corta
corte
corti
cortina
cortona
cortu
coru
corvidae
corvini
corvus
cory
coryphaena
cos
cosa
cosacchi
cosaccu
cosce
coscia
cose
cosgrove
cosi
cosiddetta
cosiddettu
cosimo
cosmichi
cossu
costa
costae
costantinopuli
costantinu
coste
costeri
costi
costia
costituzionale
costituzione
costner
costoli
costruzione
costu
costume
cot
coti
cotone
cotru
cotta
cottafavi
cotte
cottu
cotula
cotuli
coturnix
coufficialita
cough
coulomb
count
counties
country
county
coupe
cour
cours
court
couverte
cova
covalente
covani
covid
cow
coward
coyote
cp
cr
cracuvia
crambe
cranberries
cranston
crantz
crassulaceae
crataegus
crateru
cratilu
crdp
cre
crea
creani
creanu
creata
create
creati
creative
creativita
creatore
creatori
creatu
creazione
creber
creda
crede
credenu
credenza
credenze
credi
creditu
credo
credu
creed
crema
cremera
cremlinu
cremona
crena
crenilabrus
crenu
creo
creolu
crepa
cresce
crescente
crescenu
crescenza
crescenzo
cresci
crescia
crescini
crescita
cresciutu
cresia
cressicda
cressida
cresta
creste
cresti
cresu
creta
cretaceu
cretica
creticum
creticus
creu
crews
crf
cri
cria
criata
criate
criati
criativu
criatori
criatu
criatura
criaturi
criaturu
criazione
criazioni
cridendu
cridenti
cridenza
cridenze
cridenzi
cridete
cridia
cridiani
cridibuli
criditi
criduta
cridutu
criendu
crimea
criminale
criminali
crimine
crimini
criminu
crio
cripa
cripta
crisa
crisaore
criscente
criscenti
crisciti
crisciuta
crisciutu
criseyde
crisi
crisogono
crispa
cristaddisazioni
cristal
cristalli
cristallina
cristiana
cristiane
cristianesimu
cristiani
cristianisimu
cristianismu
cristiano
cristianu
cristina
cristinacce
cristo
cristofalo
cristofani
cristofanu
cristofaru
cristu
crisustomu
criteri
criterii
criteriu
critesa
critesi
crithmum
critica
criticata
criticatu
critiche
critichi
criticu
crizia
cro
croata
croate
croati
croatu
croazia
crocata
croce
croci
crocus
crodinu
crodo
croix
crollu
crommioni
cromu
cromusomi
cronaca
cronache
cronachi
cronica
cronistu
cronu
cronulugia
cropped
cross
crosta
crowe
cruatu
cruazia
cruces
crucetta
cruci
cruciale
cruciali
cruciata
cruciate
cruciati
crucichja
crucifissata
crucifissioni
crucifissu
crucivia
cruda
crude
crudeli
crudelta
crudu
cruenta
cruise
cruna
crunette
crunulogica
crunulogichi
crunulogicu
crunulugia
crusca
cruscaglia
crustacei
cruz
cruzinu
crying
cryptogramma
cs
ctesia
ctor
cu
cuaiuta
cualizati
cualizione
cualizioni
cuasgi
cuazzione
cuba
cube
cubi
cubiti
cubitu
cubu
cuccagna
cuccheddu
cucchi
cuccu
cuccuruzzu
cucera
cuchjara
cuchjaronu
cucin
cucina
cucini
cucinu
cuckoo
cuculidae
cuculus
cucurbita
cucurbitaceae
cucuruzzu
cudali
cudda
cuddata
cuddendu
cuddetta
cuddina
cuddinari
cuddini
cuduminiu
cuefficenti
cuefficienti
cuenca
cuentos
cuerente
cuerenti
cuerenza
cuesioni
cuesivu
cuesmes
cuffia
cugina
cuginu
cuglia
cuglione
cugnatu
cugnoculu
cugnomatu
cugnome
cugnomi
cugnomu
cugnumata
cugnumatu
cui
cuincida
cuincidi
cuincidini
cuinvolse
cula
culebra
culi
culinaria
culioli
culla
cullaburatu
cullaburazione
cullaburazioni
cullana
cullane
cullassu
cullata
cullaterale
cullati
cullatu
cullava
cullega
cullegamenti
cullegamentu
cullegani
cullegate
culleghi
culleghji
culleghju
cullegiata
cullegiu
cullegu
cullendu
culletta
cullettani
cullettivita
cullettivu
cullezzione
culliga
culligamenti
culligamentu
culligata
culligati
culligatu
culligava
cullighendu
cullina
cullinare
cullinari
culline
cullittati
cullittivamente
cullittivamenti
cullittivita
cullizzione
cullizzioni
cullizziunistu
culloca
cullocani
cullocanu
culluca
cullucata
cullucate
cullucati
cullucatu
cullucazione
cullucazioni
culluchendu
culluchera
culluco
culluconu
culmina
culminante
culminava
culmine
culmineghja
culminighja
culminu
culomba
culombia
culombu
culombula
culoni
culonia
culoniale
culonie
culonii
culonna
culonne
culonni
culonu
culore
culori
culostra
culpabilita
culpevuli
culpi
culpisce
culpisci
culpita
culpitu
culte
cultedda
culteddi
culteddu
cultella
cultelli
cultellu
culti
cultiva
cultivata
cultivate
cultivati
cultivatori
cultivatu
cultivazione
cultivazioni
cultiveuli
cultu
cultuale
cultuali
cultura
cultural
culturale
culturali
culture
cultures
culturi
culu
culumbelle
culumbia
culumbinu
culuneddu
culunellu
culunia
culuniale
culuniali
culunialismu
culunie
culunisazione
culunisazioni
culuniza
culunizata
culunizatu
culunizazione
culunizeghja
culurata
culurazione
culurazioni
culurita
culuritu
culussali
cum
cuma
cumana
cumanda
cumandamentu
cumandante
cumandata
cumandatariu
cumandatu
cumandi
cumandu
cumani
cumanu
cumbatta
cumbatte
cumbattendu
cumbattenti
cumbatti
cumbattia
cumbattimenti
cumbattimentu
cumbattuta
cumbattuti
cumbattutu
cumbina
cumbinata
cumbinati
cumbinatu
cumbinazione
cumbinazioni
cumbustione
cume
cumed
cumedia
cumedianti
cumencia
cumenciani
cumenciu
cumestibili
cumi
cumidiola
cumincendu
cumincetini
cumincia
cumincianu
cuminciatu
cuminciava
cumincio
cumincionu
cuminu
cumissariati
cumitatu
cummanda
cummandante
cummandanti
cummandata
cummandati
cummandatu
cummandu
cummedia
cummedie
cummedii
cummediola
cummemorazione
cummemurativa
cummenti
cummentu
cummerci
cummerciale
cummerciali
cummerciante
cummercianti
cummerciu
cummetta
cummimura
cummimurazioni
cumminazione
cummintadori
cummirciali
cummircianti
cummissariamentu
cummissariu
cummissione
cummissioni
cummissu
cummodore
cummossu
cummu
cummuna
cummunita
cummunu
cummutativa
cumpagna
cumpagni
cumpagnia
cumpagnie
cumpagnu
cumpania
cumparativu
cumparazione
cumparazioni
cumpare
cumpari
cumparisce
cumparisci
cumparsa
cumparsi
cumpassu
cumpati
cumpatibile
cumpatta
cumpatti
cumpensi
cumpetente
cumpetenze
cumpetitivita
cumpetizione
cumpetizioni
cumpiara
cumpiendu
cumpiettu
cumpii
cumpiimentu
cumpilatu
cumpilazioni
cumpitenti
cumpitenza
cumpitenze
cumpitenzi
cumpitu
cumplementu
cumplessa
cumplesse
cumplessi
cumplessita
cumplessivu
cumplessu
cumpletamente
cumpletta
cumplettamente
cumpletti
cumplettu
cumpletu
cumplicata
cumplimenti
cumplimintarii
cumplimintariu
cumplissita
cumplitamenti
cumplitamentu
cumplittamente
cumplittamenti
cumplittata
cumplittatu
cumplottu
cumpona
cumpone
cumponenu
cumponi
cumponini
cumporta
cumportamentu
cumportani
cumportanu
cumpositore
cumposta
cumposte
cumpostelle
cumposti
cumpostu
cumpra
cumprati
cumpratu
cumprende
cumprendente
cumprendenu
cumprendeva
cumprendi
cumprendia
cumprendini
cumprendonu
cumpresa
cumprese
cumpresi
cumpressa
cumpresu
cumpriensioni
cumprindendu
cumprindenti
cumprindia
cumprinsioni
cumprissione
cumpro
cumprumessu
cumpuleddi
cumpuleddu
cumpunente
cumpunenti
cumpunia
cumpunimenti
cumpurta
cumpurtamenti
cumpurtamentu
cumpurtatu
cumpurtava
cumpurtendu
cumpusitore
cumpusitori
cumpusitrice
cumpusizione
cumpusizioni
cumputaziunali
cumu
cumuli
cumulu
cumulus
cumuna
cumunale
cumunali
cumunamente
cumunamenti
cumune
cumunemente
cumuni
cumunica
cumunicatu
cumunicazione
cumunicazioni
cumunimenti
cumunisimu
cumunista
cumunisti
cumunistu
cumunita
cumunque
cumunu
cun
cuncattedrale
cuncava
cunceda
cuncede
cuncentra
cuncentrani
cuncentrazione
cuncentrichi
cuncepimentu
cuncepita
cuncepitu
cuncerna
cuncernani
cuncernanu
cuncernendu
cuncerti
cuncertu
cuncessa
cuncesse
cuncessi
cuncessione
cuncessioni
cuncessu
cuncetti
cuncettu
cuncezzio
cuncezzione
cunchiglia
cunchiglie
cunchjuda
cunchjude
cunchjudi
cunchjusu
cunciliu
cuncintramenti
cuncintramentu
cuncintrata
cuncintrati
cuncintratu
cuncintrazioni
cuncipi
cuncipimentu
cuncipita
cuncipiti
cuncipitore
cuncipitu
cuncirnava
cuncirnendu
cuncissioni
cuncizzioni
cuncludi
cuncludia
cuncludissi
cunclusi
cunclusione
cunclusioni
cunclusu
cuncolta
cuncolti
cuncorsi
cuncorsu
cuncreta
cuncurdanza
cuncurdatu
cuncurrente
cuncurrenza
cundanna
cundannati
cundannatu
cundita
cundite
cunditu
cundivida
cundividi
cundizione
cundizioni
cundiziunali
cundiziunata
cundiziunatu
cundotta
cundotte
cundottu
cunduce
cunduci
cunducia
cundussi
cundutta
cundutti
cunduttieri
cunduttieru
cunduttore
cunduttori
cunduttu
cunduzioni
cuneo
cuneu
cunfarenza
cunfarenzi
cunfederazione
cunfederazioni
cunferendu
cunferenza
cunferi
cunferitu
cunferma
cunfermani
cunfessa
cunfessione
cunfida
cunfidati
cunfidenza
cunfigurazione
cunfigurazioni
cunfina
cunfinante
cunfinanti
cunfinati
cunfine
cunfinente
cunfini
cunfinu
cunfirma
cunfirmata
cunfirmatu
cunfirmete
cunfittura
cunflitti
cunflittu
cunfluenza
cunfluisce
cunfluisci
cunfluiscia
cunfluiscini
cunfonda
cunfonde
cunformu
cunfortu
cunfratelli
cunfraterna
cunfraterni
cunfraternita
cunfronti
cunfrontu
cunfrunta
cunfruntatu
cunfurmamenti
cunfurmazioni
cunfurmita
cunfusa
cunfusi
cunfusione
cunfusioni
cunfusu
cunfuta
cungettura
cunghjuca
cunghjugazioni
cunghjunghje
cunghjunghji
cunghjunta
cunghjuntivu
cunghjuntu
cunghjunzione
cunghjunzioni
cunghjura
cungittura
cungregazione
cungressu
cungruenti
cungruenza
cuniatura
cunigliuli
cunisciutu
cunnessa
cunnesse
cunnessi
cunnessione
cunnessu
cunniscendu
cunniscenza
cunniscenze
cunniscenzi
cunnisciti
cunnisciuta
cunnisciute
cunnisciuti
cunnisciutu
cunnissioni
cunnobbi
cunnosce
cunnoscenu
cunnosci
cunnoscia
cunnoscu
cunnuscenza
cunnuscete
cunnusci
cunnuscia
cunnusciuta
cunnusciutu
cunnutazioni
cunquista
cunquistadore
cunquistadori
cunquistanu
cunquistata
cunquistati
cunquistatu
cunquiste
cunquistendu
cunquisti
cunquisto
cunsacra
cunsacrata
cunsacrati
cunsacratu
cunsacro
cunsapevolezza
cunscienza
cunsecutivi
cunsegna
cunseguente
cunseguenza
cunseguenze
cunsensi
cunsensu
cunsenti
cunsequenza
cunsequenze
cunserva
cunservani
cunservata
cunservate
cunservativa
cunservatore
cunservatori
cunservatoriu
cunservatu
cunservazione
cunsidara
cunsidarata
cunsidarati
cunsidaratu
cunsidarava
cunsidarazioni
cunsidareghja
cunsidareghjani
cunsidaremu
cunsidarendu
cunsidarevuli
cunsidaro
cunsidera
cunsiderabilmente
cunsideranu
cunsiderata
cunsiderate
cunsiderati
cunsideratu
cunsiderava
cunsideravanu
cunsiderazione
cunsidereghja
cunsidereghjanu
cunsiderendu
cunsiderevule
cunsigli
cunsiglia
cunsigliatu
cunsigliere
cunsiglieri
cunsiglieru
cunsiglii
cunsiglio
cunsigliu
cunsigna
cunsignatu
cunsiguenti
cunsiquenza
cunsiquenzi
cunsirva
cunsirvanti
cunsirvata
cunsirvati
cunsirvatori
cunsirvatoriu
cunsirvatrici
cunsirvatu
cunsirvava
cunsirvazione
cunsirvazioni
cunsirvendu
cunsirvo
cunsiste
cunsistente
cunsistenti
cunsistenu
cunsistenza
cunsisteva
cunsisti
cunsistia
cunsola
cunsonante
cunsonanti
cunsorte
cunsorti
cunsulatu
cunsulazione
cunsulida
cunsulidamentu
cunsulta
cunsultatu
cunsultazione
cunsuma
cunsumata
cunsumati
cunsumatu
cunsumu
cunsunante
cunsunanti
cunsunantica
cunta
cuntabilita
cuntadini
cuntaminazione
cuntaminazioni
cuntarunu
cuntata
cuntate
cuntati
cuntatti
cuntattu
cuntatu
cuntava
cuntea
cuntemporaneamente
cuntemporaneu
cuntempu
cuntempuranea
cuntempuranee
cuntempuranei
cuntempuraneu
cuntena
cuntendu
cuntene
cuntenente
cuntenenu
cunteni
cuntenini
cuntenta
cuntenti
cuntentu
cuntenute
cuntenuti
cuntenutu
cuntera
cunteri
cuntessa
cuntestatu
cuntesti
cuntestu
cunti
cuntigue
cuntimplazioni
cuntimpuranea
cuntimpuranei
cuntimpuraneu
cuntimpuranii
cuntimpuraniu
cuntinendu
cuntinentale
cuntinentali
cuntinente
cuntinenti
cuntingenti
cuntinia
cuntiniani
cuntinidori
cuntinintali
cuntinous
cuntinua
cuntinuamenti
cuntinuarunu
cuntinuatu
cuntinuava
cuntinuazione
cuntinuazioni
cuntinue
cuntinueghja
cuntinueghjani
cuntinueghjanu
cuntinuendu
cuntinuera
cuntinui
cuntinuita
cuntinuo
cuntinuta
cuntinuti
cuntinutu
cuntinuu
cuntinuum
cuntistata
cuntistatu
cuntornu
cuntorri
cuntra
cuntradizione
cuntradizioni
cuntraforte
cuntraria
cuntrariamente
cuntrariamenti
cuntrarii
cuntrariu
cuntrasta
cuntrastata
cuntrastendu
cuntrasti
cuntrastu
cuntratti
cuntrattu
cuntrazzioni
cuntribui
cuntribuisce
cuntribuiscenu
cuntribuisci
cuntribuiscini
cuntribuitu
cuntributi
cuntributu
cuntribuzione
cuntribuzioni
cuntrolla
cuntrollu
cuntru
cuntruffensiva
cuntrulla
cuntrullata
cuntrullati
cuntrullatu
cuntrullava
cuntruversa
cuntu
cunuscenza
cunvaliscenza
cunvarsazioni
cunvegnu
cunvene
cunveni
cunventu
cunvenzione
cunverghjini
cunversione
cunverta
cunvessa
cunvesse
cunvezzione
cunvince
cunvincia
cunvinienti
cunvinienza
cunvinsi
cunvinta
cunvintu
cunvinzione
cunvinzioni
cunvinziunali
cunvirgente
cunvirgenza
cunvirghjenza
cunvirsione
cunvirsioni
cunvittiva
cunvivenza
cunvizzioni
cunvucheghja
cunzidiratu
cuorta
cup
cuparchjata
cuparchjulu
cuparta
cuparti
cupartu
cupartura
cuperta
cuperte
cuperti
cupertu
cupertura
cupia
cupiati
cupidonu
cupidu
cupola
cupoli
cuppa
cuppe
cuppetti
cuppioli
cuppiolu
cuppulata
cuppulate
cuprendu
cuprendula
cupressaceae
cupri
cupria
cura
curaddu
curaghjosu
curaghju
curagiu
curallini
curallu
curanu
curata
curati
curatori
curatorii
curatu
curava
curazzati
curbara
curbina
curbini
curdigliera
curdogliu
cure
curea
cureanu
curella
curi
curial
curie
curili
curinziu
curiosi
curiosita
curious
curisti
curitiba
curiusita
curnice
curnochjulu
curnutu
curolla
curona
curone
curpettirossa
curpurali
curpurazione
curra
currachji
currachjina
curradinu
currazzamenti
currazzamentu
curreghja
currelate
currente
currentemente
currenti
curretta
currettamenti
curretti
currettu
curridore
curridori
currieri
currilati
currilazioni
currintamenti
currisponda
currisponde
currispondendu
currispondente
currispondenti
currispondenu
currispondenza
currispondi
currispondini
currisposi
currispundente
currispundenti
currispundenza
currispundia
currotta
curry
cursa
cursari
cursichella
cursu
cursus
curtalina
curteccia
curteghju
curtichjatu
curtile
curtili
curtinese
curtinesi
curtis
curtǝ
curu
curunali
curunata
curva
curve
curvi
curzio
cusack
cusano
cuscenti
cuscenza
cuscini
cuscinu
cuscione
cuscionu
cusco
cuscrittu
cuscuta
cusecanti
cusgia
cusgitura
cusi
cusiddetta
cusiddette
cusiddettu
cusidditta
cusidditti
cusiddittu
cusine
cusinu
cusmugrafia
cusmulogichi
cusmulugia
cuspirazione
cuspirazioni
cussi
custa
custantamenti
custante
custanti
custantinopuli
custantinu
custanza
custata
custatata
custatazioni
custati
custatta
custattatu
custellazione
custera
custi
custiddazioni
custiera
custiere
custieri
custighjava
custighjeghjani
custituendu
custituenti
custitui
custituirianu
custituisce
custituiscenu
custituisci
custituiscia
custituiscini
custituita
custituite
custituiti
custituitu
custitutivi
custituzione
custituzioni
custituziunale
custituziunali
custodii
custodiu
custosi
custretta
custretti
custrettu
custringhjara
custringhjendu
custrinsi
custrintu
custrui
custruisce
custruisci
custruiscia
custruiscini
custruita
custruite
custruiti
custruitini
custruitu
custruttibili
custruttore
custruttori
custruzzione
custruzzioni
custudiscia
custuditi
custume
custumi
custumu
cut
cutangenti
cuthbert
cutidiana
cutidiani
cutidianu
cutler
cutona
cutone
cutonu
cutratu
cutrura
cuttesce
cuttighjata
cuttulesi
cuttuli
cuupirazioni
cuurdinata
cuurdinate
cuurdinati
cuvasina
cuvata
cuvate
cuvatura
cuvier
cuzina
cuzza
cv
cviii
cx
cyanistes
cygnus
cymodocea
cymodoceaceae
cymru
cynara
cynoglossum
cynthia
cypripedium
cyrnos
cyrus
cystopteris
cytinus
cytisus
cœur
cǝ
cǝnǝ
cə
d
da
dacca
dacci
daci
dacia
dacorumenu
dactylis
dactylorhiza
daddy
dae
daenerys
dagan
dai
daily
dakota
dal
dalai
dalam
dale
dali
dalila
dall
dalla
dallas
dalli
dallu
dalma
dalmata
dalmatu
dalmazia
dalton
dam
dama
damascu
damasonium
damasti
dame
damianu
damon
damski
dan
dana
danae
danai
danaide
dananzi
danao
danaos
danari
danaru
dance
danced
dances
danes
danesch
danese
danesh
danesi
danesu
dangerous
dani
daniel
daniele
danielle
danilo
danimarca
danni
dannighjata
dannu
danny
dans
dante
danti
danton
danu
danubiu
danza
danzica
dao
dapartuttu
dapertuttu
daphne
dapoi
dapprima
dar
dara
dardaneddi
dardani
dardu
daremu
daretu
dargaud
darie
dario
dariu
dark
darkgrey
darling
darmstadt
darwin
dary
das
dasyatidae
dasyatis
dasycarpa
data
database
datani
datanu
datata
datate
datati
datatu
datazione
datazioni
date
dateformat
datendu
datevule
datevuli
dati
dativu
datu
datura
daucus
daugavpils
dava
davalos
davant
davante
davanti
dave
davia
david
davide
davidi
davidson
davies
davis
davy
dawn
day
days
daziu
dc
dcl
dd
ddani
ddu
de
dea
deacon
dead
deaf
dean
death
debbie
debbiti
debita
debiti
debitori
debitu
deblaize
deborah
debule
debuli
debussy
debut
debuta
debuttatu
decadimentu
decamerone
decca
dece
decembre
decenni
decennii
deci
decide
decima
decimale
decimali
decime
decimi
decimu
decina
decine
decippa
decisa
decise
deciseru
decisione
decisiva
decisive
decisu
declinazione
declinu
decorativa
decorativi
decorazioni
decori
decoru
decretu
decumanu
decurata
decurate
decurati
decuratu
decurazione
deda
dedalu
dedekind
dedi
dedica
dedicata
dedicati
dedicatu
dedico
dedita
dee
deep
deezen
default
deficitu
defini
definisce
definiscia
definiscini
definita
definite
definitely
definiti
definitiva
definitivamente
definitivu
definitu
definizione
definizioni
defunti
defuntu
deg
degli
degna
degne
degni
degnu
deh
dei
deianira
deifobe
deimos
del
delaugerre
delaware
delegati
delfi
delfini
delfinu
delforge
delft
delhi
deliberatamente
delimitatu
delitzsch
dell
della
delle
delli
dellu
delon
delphinium
delta
demandt
demetra
demi
democratic
democratica
demofonti
demografia
demografica
demolizione
demone
demucratica
demucrazia
demugrafia
demugrafica
demugraficu
den
denaru
dendrocopos
dendroides
dendu
denhaut
denis
denise
deniz
denominazione
densa
dense
densi
densita
densu
dentatum
dente
denti
denticulata
dentru
denuminazione
denzel
deo
deorum
deportivo
depositiu
depp
depressione
depuis
deputati
der
dera
derain
derek
derisione
deriva
derivanti
derivanu
derivata
derivate
derivatu
derivaux
derivazione
deriveghja
deriveghjanu
des
desanti
descartes
description
descrittu
descrive
descrizione
descrizzione
descrizzioni
desde
desequilibriu
deserti
desertu
desf
desfa
desidarosu
desiderata
desideriu
design
designa
designanu
designatu
designendu
designer
desinenza
desinenze
dessi
destinata
destinate
destinati
destinatu
destinazione
destino
destinu
destra
detagli
detagliu
detail
dete
detenu
determina
determinativi
determinatu
deti
detini
detroit
detta
dette
detti
detto
dettu
deu
deum
deus
deuteriu
deutsch
deutschland
deux
dev
devastatu
deve
devenu
devi
devianu
devil
devillers
devini
devinu
devito
devonu
devota
devoto
devu
dewahl
dharma
di
dia
diacritichi
diagramma
diagrammi
diagunale
diagunali
dialects
dialettale
dialettali
dialetti
dialettica
dialetticu
dialetto
dialettu
dialittali
dialoghi
dialogo
dialogu
dialogue
diamante
diamanti
diamantu
diametru
diamitru
diamond
diana
diane
dianella
dianthus
diasistema
diasistemu
diaspora
diauli
diavula
diavule
diavuli
diavulu
diaz
dibattimentu
dibattiti
dibattitu
dibattuta
dibbita
dibulezza
dibulezzi
dica
dicada
dicadenza
dicadimentu
dicaprio
diccionari
dice
dicembre
dicembri
dicendu
dicennii
dicenniu
dicennove
dicennovi
dicenove
dicenu
dicesima
dicesimi
dicesimu
dicessetti
dich
dichjara
dichjaranu
dichjarata
dichjarati
dichjaratu
dichjarava
dichjarazione
dichjarazioni
dichjarendu
dichjaro
dici
dicia
dicianu
diciara
dicida
dicide
dicidenu
dicidi
dicidini
dicina
dicine
dicini
diciossetti
diciottu
dicisa
dicisamenti
dicise
dicisi
dicisini
dicisioni
dicisiva
dicisivi
dicisivu
dicisu
dick
dickens
diclama
diclinu
dicori
dicoru
dicretu
dicriscente
dicrittazioni
dictionary
dictionnaire
dictons
dicu
dicura
dicurati
dicurativi
dicurazione
dicurazioni
dicǝ
diddicatu
didica
didicata
didicati
didicatu
didicheghja
didico
didier
diduci
diducia
die
dieci
dieckmann
diede
diederu
diedi
diego
dies
dieta
dietru
dieu
difatti
difenda
difende
difendidori
difensiva
difensive
difensivi
difensivu
difensore
difesa
difese
difesi
difesu
difetti
difettu
diffarente
diffarenti
diffarenza
diffarenzi
diffarinziali
diffarinziazioni
diffarisci
diffariscini
differamente
differente
differentemente
differenti
differenza
differenze
differenzia
differenziabile
differenziale
differenziazione
differisce
differiscenu
diffetti
difficile
difficili
difficilmente
difficiulamenti
difficiule
difficiuli
difficulta
diffirinziazioni
diffonda
diffonde
diffondenu
diffusa
diffuse
diffusi
diffusione
diffusioni
diffusu
difindidori
difiniscendu
difinisci
difiniscia
difinita
difiniti
difinitiva
difinitivamenti
difinitivu
difinitu
difinizioni
difizzioni
difurmazioni
diga
dighi
dighja
dighjunu
digia
digital
digitale
digitalis
dignalocu
dignita
dignitat
digradazioni
digramma
dii
dila
dilatata
dilega
dilettanti
dilettu
diliga
diligata
diligati
diligatu
dilighendu
dilimitata
dilimitatu
dilimiteghja
diliriu
dilittosa
dill
dilla
dillicata
dilluviu
dimarchja
dimensione
dimensioni
dimensiunale
dimentica
dimezzamentu
diminsioni
diminuisce
diminuisci
diminuiscia
diminuiscini
diminuita
diminuitu
diminutivu
diminuzioni
dimissioni
dimmi
dimonia
dimoniu
dimora
dimostra
dimostrani
dimostrativu
dimostrazioni
dimu
dimucratica
dimucratichi
dimucraticu
dimucrazia
dimucrazii
dimugrafia
dimugrafica
dimugraficu
dimurfisimu
dimustra
dimustrata
dimustrativi
dimustratu
dimustrazione
dimustrazioni
dimustrendu
dimustro
din
dina
dinamica
dinamiche
dinamichi
dinamicu
dinamo
dinamu
dinari
dinaru
dinastia
dinastii
dinger
dino
dinsamenti
dinsita
dintorni
dinu
dinuminata
dinuminati
dinuminatore
dinuminatori
dinuminatu
dinuminazione
dinuminazioni
dinuncia
dinunciatu
dio
diocese
diocesi
diodoru
diodoto
diofantu
diogene
dioica
diomede
dion
dione
dionigi
dionisiu
dionisu
dionomachia
dionysos
dioscorea
dioscoreaceae
dip
dipartamentu
dipartamintali
dipartimentale
dipartimenti
dipartimentu
dipende
dipendenu
dipendi
dipendia
diphasiastrum
diphylla
dipindenti
dipindenza
dipindia
dipinti
dipintu
diplodus
diploma
diplomaticu
diplomatu
diplomu
diplumatica
diplumatichi
diplumaticu
dipo
dipoi
dipolu
dipona
dipone
dipositi
dipositu
diposta
diposte
diposti
dipostu
diprissioni
dipsacales
dipulare
dipulari
dipurtazione
dipurtazioni
dipusizioni
diputati
diputatu
diqua
dir
dirac
dire
direction
diretta
direttamente
dirette
diretti
direttiva
direttivu
direttore
direttu
direzione
direzzione
dirham
diri
dirige
dirigente
dirigenti
dirighja
dirighje
dirighjenti
dirighji
dirighjita
dirighjiti
dirighjitu
diritta
dirittamente
dirittamenti
diritti
dirittiva
dirittori
dirittoriu
dirittu
diriva
dirivaria
dirivata
dirivati
dirivatu
dirivazioni
diriveghja
diriveghjani
dirivighja
dirizzioni
dis
disabitata
disabitati
disaccordu
disastrosa
disastrosi
disastru
discendente
discendenti
discendenza
discepuli
discepulu
discerna
dischetti
dischettu
dischi
discindenti
discindenza
disciplina
disciplinari
discipline
disciplini
discoglossidae
discoglossus
discografi
discografia
discorsi
discorso
discorsu
discreta
discrete
discreti
discretu
discriminazione
discrissi
discritta
discritte
discritti
discrittiva
discrittivi
discrittivu
discrittu
discriva
discrive
discrivendu
discrivenu
discrivi
discrivia
discrivini
discrizioni
discrizzione
discrizzioni
discu
discuglossu
discugrafi
discugrafia
discugraficu
discuntinuita
discussione
discussioni
discuta
discute
discutendu
discuti
discutita
disegna
disegni
disegnu
diserta
diserti
disertica
disertichi
disertu
diserzioni
disfatta
disfatti
disfuristazioni
disgrazia
disgraziata
disgraziati
disgregazione
disgrigazione
disgrigazioni
disguasti
disidarava
disigna
disignadori
disignata
disignatu
disignava
disignavani
disignendu
disimpiegu
disinenza
disinformazione
disingannu
disintegra
disintegrendu
disliveddu
dismurfisimu
disney
diso
disoccupazione
disordini
dispari
disparu
dispersi
dispersione
dispersioni
dispersu
dispettu
dispiace
dispiazza
dispone
disponi
dispositu
disposizione
disposizioni
disposta
disposte
disposti
dispostu
disprezza
disprezzu
disprizzata
dispunendu
dispuniani
dispunibile
dispunibili
dispunibilita
dispunibule
dispusitivi
dispusitivu
dispusizione
dispusizioni
disputa
disputi
disqus
disse
dissegni
dissegnu
dissi
dissignadore
dissuada
distaccamentu
distaccu
distachya
distante
distanti
distanza
distanze
distanzi
distentifolium
distica
distilleria
distinata
distinati
distinatu
distinazioni
distingua
distingue
distinguendu
distingui
distinguini
distinta
distinte
distinti
distintivi
distintivu
distintu
distinu
distinzione
distinzioni
distretti
distrettu
distribuisce
distribuita
distribuiti
distribuitu
distribution
distribuzione
distribuzioni
district
distritti
distrittu
distrughja
distrughje
distrughjendu
distrughjenu
distrutta
distrutte
distrutti
distruttu
distruzzione
distruzzioni
disturbatu
disturbendu
disuguali
disugualita
disunori
disunorizeghja
disusu
dit
dita
ditagliu
ditali
ditarmina
ditarminanti
ditarminata
ditarminati
ditarminativi
ditarminatu
ditarminazioni
ditarmino
dite
ditermina
diterminata
diterminatu
ditermineghja
ditermineghjanu
diterrane
ditettori
diti
ditinia
ditinutu
ditions
ditonu
ditrunizatu
ditta
dittagli
dittagliata
dittagliatu
dittagliu
dittatore
dittatura
ditti
dittonghi
dittongu
dittrichia
dittu
ditu
diu
diufantea
diuretichi
diussidu
divan
divaria
divariani
divariu
divastazioni
divasto
dive
divene
divenne
divenneru
diventa
diventani
diventanu
diventata
diventate
diventati
diventatu
diventava
diventendu
diventera
diventeranu
diventete
diventetenu
diventi
divento
divergente
diverghjini
diversa
diverse
diversi
diversita
divertimentu
divi
divia
diviani
diviazione
divida
divide
dividendu
dividenu
dividi
dividini
divina
divinazione
divinazioni
divini
divinita
divinta
divintani
divintara
divintarani
divintata
divintati
divintatu
divintava
divintendu
divinto
divinu
divisa
divise
divisi
divisibile
divisibili
divisio
division
divisione
divisioni
divisori
divisu
divorziu
divota
divurati
divuratu
divurendu
divurzio
divuta
divuti
divutu
dixie
dizionario
diziunari
diziunariu
dizz
dizziuna
dizziunarii
dizziunariu
dj
djalili
djebel
djimsiti
dla
dlu
dm
dmca
dna
dniepr
do
doc
doctor
docu
documentazione
documenti
documents
documentu
doda
dodeci
dodicesima
dodicesimu
dodici
dog
dogana
doge
dohrn
dohrnii
doisneau
dolce
dolcezza
dolci
doli
dollari
dolmen
dolomie
dolorosa
dolu
dom
dome
domenico
domestici
domesticu
domesticus
domine
dominici
dominio
dominique
dominum
domu
domus
don
dona
donald
donatello
donato
donatu
donbass
donetsk
dong
doni
donjon
donna
donne
donni
donovan
donu
donzelli
door
doors
dop
dopo
doppia
doppie
doppiu
doppu
dopu
dopuguerra
dopumeziornu
dor
dora
dorcus
dordogna
dore
doria
doricu
doris
dorlan
dorma
dorme
dormi
dormu
dorota
dorset
dos
dossu
dota
dotadas
dotate
dots
dotti
douard
doublement
doug
dougie
douglas
dourif
douze
dove
dover
dovunque
dovuta
down
downes
downs
doyle
dp
dpr
dr
draco
dracone
draconi
draconu
draghi
dragon
dragone
dragoni
dragonu
drake
drale
drama
dramaturgu
drami
dramma
drammatica
drammatichi
drammaticu
drapeau
drappu
drasticamenti
draw
drawing
draws
dreadlocks
dream
drent
drenthe
drentu
dresda
dresden
dressel
drew
dreyfuss
dribbling
drintu
dritta
dritte
dritti
drittu
drizza
dropping
dru
druce
drum
drums
druso
dryopteridaceae
dryopteris
dscf
du
duale
duali
dualita
duarte
dubbia
dubbiti
dubbitu
dubbiu
dublin
dublinu
dubuffet
duca
ducale
ducati
ducatu
duchessa
duchi
ducumentata
ducumenti
ducumentu
ducumintata
ducumintati
ducumintatu
ducumintazioni
dudecaedri
dudley
due
duellu
duff
dugana
duhamel
dui
duicentu
duie
duii
duisburg
duke
dulcezza
dulci
dulcis
dulcissima
duline
dullari
dulore
dulori
dum
dumanda
dumandatu
dumandava
dumandavanu
dumande
dumandendu
dumandi
dumando
dumandu
dumane
dumani
dumas
dume
dumenica
dumeniche
dumenicu
dumestica
dumestichi
dumfries
dumina
duminante
duminanti
duminanza
duminata
duminate
duminati
duminatu
duminazione
duminazioni
dumineghja
dumineghjanu
duminendu
duminii
duminiu
dumont
dumort
dunata
dunatu
dunazione
dunazioni
duncan
dund
dunde
dundee
dundi
dune
dunendu
duni
dunkerque
dunlop
dunn
duno
dunqua
dunque
duo
duomo
duplicazioni
duplice
duppiendu
dura
duramenti
duran
durant
durante
duranti
duranu
durara
durata
durati
duratu
durazzo
durazzu
dure
durente
durenti
durera
durevule
durezza
durghi
durgu
durham
duri
durieui
durmendu
durmi
duro
dursale
dursali
durst
duru
dusadh
dust
dutata
dutati
dutatu
dutens
duttore
duttori
duttrina
duttrine
duttrini
dutturatu
dutturizia
duurstede
duv
duva
duvall
duve
duvendu
duvera
duvere
duveri
duveria
duvete
duvia
duvianu
duvimu
duvissi
duvite
duviti
duvitini
duvu
duvuta
duvute
duvuti
duvutu
dvd
dwight
dyck
dyckiana
dying
dylan
dz
dzior
dǝ
də
e
ea
each
eagle
eagles
earhart
early
earth
eartha
east
eastern
eaton
eau
ebanu
ebbe
ebbenu
ebberu
ebbi
ebbica
ebbichi
ebbini
ebert
ebner
ebraica
ebraicu
ebre
ebrea
ebrei
ebreiu
ebreu
ebride
ebro
ebru
ebulus
ec
ecc
eccellente
eccellenti
eccellenza
eccentricu
eccessi
eccessiva
eccessivamente
eccessivi
eccessivu
eccessu
eccettu
eccezione
eccezioni
eccezzione
eccezzioni
eccezziunale
eccezziunali
eccica
eccittuatu
eccituatu
eccizziunalamenti
ecclesia
ecclesiae
ecclesiastica
ecclesiastiche
ecclesiastichi
ecclesiasticu
ecclissa
eccu
echidna
echium
echo
eclittica
eclogue
eco
ecolugia
economia
economica
economiche
economichi
economicu
economisti
economistu
econumia
econumistu
ecu
ecuador
ecuba
eculogicu
eculugia
ecunomica
ecunomiche
ecunomichi
ecunomicu
ecunumetria
ecunumia
ecunumica
ecunumicamente
ecunumichi
ecunumistu
ecunumitria
ecusistema
ecusistemi
ed
edd
edda
eddi
eddie
eddu
eden
edes
edgar
edge
edgerly
edicions
edicula
edie
edifica
edificata
edificati
edificatu
edifici
edificiu
edifizii
edifiziu
ediliziu
edimburgu
edinburgh
edipu
edirne
edison
edisud
editata
editio
edition
editions
editore
editori
editorial
editrice
edituriale
edizione
edizioni
edmondu
edmonton
edmund
edouard
eds
edu
eduard
eduardo
education
educativa
educativu
educatu
educazione
educazioni
educorsica
edward
edwards
edwin
ee
eea
eeta
ef
efestu
efesu
effect
effeti
effets
effetti
effettiva
effettivi
effettivu
effettu
effettua
effettuo
efficace
efficacemente
efficaci
efficienti
efficienza
effigia
effittiva
effittivamente
effittivamenti
effittua
effittuata
effittuati
effittuatu
effittueghja
effittueghjani
efialti
efrem
egan
egei
egeiu
egemunia
egeria
egeu
eghji
eghjttu
egida
egitto
egittu
egiziana
egiziani
egizianu
egizziana
egizziani
egizzianu
eglise
eglises
egloga
egloghi
eglwys
ego
egretta
ei
eiffel
ein
einaudi
eindhoven
eine
einfu
einstein
eintracht
eis
eisenhower
eiu
eius
ek
ekaterinoslav
el
elaburata
elaburati
elaburatu
elaburazioni
elaburendu
elam
elamu
elana
elaphus
elasticita
elata
elatior
elba
elbani
elbla
elbu
eldini
elea
eleatica
electa
elefante
elefanti
eleganti
eleghje
elegia
eleison
elementare
elementari
elementaria
elementarii
elemente
elementi
elementu
elena
elenchi
elencu
eleno
eletrica
eletricita
eletta
eletti
elettori
elettra
elettrica
elettricamente
elettriche
elettrichi
elettricu
elettrochimica
elettrone
elettroni
elettronica
elettroniche
elettronichi
elettronicu
elettrostaticu
elettru
elettrumagnetica
elettrumagnetiche
elettrumagneticu
elettu
eleusi
eleusini
eleva
elevata
elevati
elevatu
elevazione
elevi
elevu
elezzione
eli
elia
elias
elicone
elighjibilita
elimina
eliminata
eliminati
eliminatu
eliminazione
elimineghja
eliminendu
elinor
eliomys
elisa
elisabeth
elisabetha
elisabetta
elisha
elittricista
elittricita
elittroni
elittronu
eliu
elizabeth
ell
ella
elle
ellehammer
elleni
ellenica
ellenichi
ellenicu
ellenistica
ellerata
elli
ellice
ellinistica
ellinisticu
ellisse
ellissi
ellissica
ellittica
ellittichi
ellitticu
ellu
elmi
elmu
elogiatu
eloquentia
els
elsa
else
elsevier
elungazioni
eluquenza
elvetica
elyomis
em
emanuele
embargu
emberiza
emblema
emblematica
emblematicu
emblemi
emera
emerge
emergente
emergenu
emergenza
emerghjini
emersi
emersione
emerson
emersu
emesa
emessa
emesse
emessi
emessu
emette
emettenu
emetti
emettidore
emettini
emi
emigra
emigranti
emigrati
emigratu
emigrazione
emigrazioni
emil
emile
emilia
emilianu
emilio
emiliu
emily
eminem
eminentamenti
eminenti
emirati
emise
emisferu
emissariu
emissione
emissioni
emma
emmanuel
emmanuelle
emmy
emperado
empie
empirica
empiuta
empiutu
empoli
emu
emuzione
emuzioni
emys
en
encelade
enciclopedia
enciclupedi
enciclupedia
encore
encyclopaedia
encyclopedia
encyclopædia
end
ende
endemica
endemichi
endemicu
endemisimi
endemismi
endemismu
endless
endymion
enea
eneide
eneidi
energetica
energetichi
energeticu
energia
energie
enesc
eneuliticu
enfance
enfasi
enfield
england
engler
english
enher
enigma
enimma
enna
ennesima
ennio
enorma
enorme
enormi
enormu
enotria
enrichment
enrico
enrique
ens
ente
entertainment
entita
entra
entrambe
entrambi
entranu
entrarunu
entrata
entrate
entrati
entratu
entrava
entre
entrevista
entri
entrini
entro
entru
entu
entusiasmu
enuncia
enunciati
enunciatu
enver
eo
eolica
eolie
eonavieganu
eonilo
ep
ephe
ephedra
ephedraceae
epica
epicentru
epiche
epichi
epicu
epicurea
epicureu
epidauru
epidemia
epidemie
epifania
epifaniu
epigea
epigrafe
epigrafi
epigrafia
epigrammi
epimeteu
epinephelus
epipactis
epipogium
episodii
episodiu
epistemologia
epistula
epitafiu
epitetu
epitome
epoca
eponimu
epops
epos
eppo
eppoi
epps
eppuri
eppuru
epuca
epupea
equadori
equatore
equatori
equatoriale
equaturiale
equaturiali
equazione
equazioni
equestru
equidae
equidistanti
equilateri
equilateru
equilibratu
equilibrii
equilibriu
equilibru
equinoziu
equipa
equipaggiu
equipaghju
equipamentu
equisetaceae
equisetales
equisetopsida
equisetum
equivalente
equivalenti
equivalenza
equivali
equus
er
era
eraclitu
eradicazioni
erami
eramu
erani
eranu
erasmo
erasmu
erasure
erate
erati
eratostene
eratosteni
erba
erbacea
erbacee
erbaghjolu
erbalonga
erbalunga
erbe
erbivori
ercu
erculu
ere
erecta
erede
eredi
eredita
ereditarie
ereditariu
ereditatu
eredito
eretta
eretti
erettu
ergo
eri
eric
erica
ericaceae
ericales
erich
eridano
erie
eris
eritrea
erlach
ermafrodita
ermafroditi
ermafrudita
ermes
erminiu
ermita
ermitage
ermolao
ernest
ernesto
ernst
erode
erodi
erodium
erodotu
erodutu
eroe
eroi
eroica
eroicu
eroidi
erone
eros
erotichi
eroticu
erroneamente
errore
errori
ersa
ersilie
ersinchi
ertu
eru
eruditi
eruditu
erudutea
eruina
erula
erusione
erusioni
eruzione
eruzioni
eruzzione
eryngium
erythronium
erzegovina
es
esagunale
esalta
esaltendu
esatta
esattamente
esatte
esattu
esca
escalier
escarp
esce
escenu
escher
eschig
eschilu
esci
escia
escinzialamenti
escinziali
esciuta
esciuti
esciutu
esclude
escludendu
escludi
esclusa
esclusi
esclusione
esclusiva
esclusivamente
esclusivamenti
esclusivu
esclusu
escorial
escriscenza
escu
esculapiu
esculenta
escursioni
escursionisimu
ese
esecutivu
esecuzione
esecuzioni
esedra
esempi
esempii
esempio
esempiu
esemplari
esemplarii
esercita
esercitatu
eserciteghja
eserciti
esercitu
esercizii
eserciziu
esgle
eshnunna
esi
esigenza
esigenzi
esighjenza
esiliati
esiliatu
esiliu
esima
esimplare
esimplari
esimu
esiodu
esioni
esista
esistanu
esiste
esistente
esistenti
esistenu
esistenza
esisti
esistia
esistini
esistonu
esistutu
esita
esiti
esito
esitu
esodiu
esopu
esotichi
espacu
espagnole
espagu
espan
espansi
espansione
espansioni
espansiunismu
espe
esperanto
esperidi
esperienza
esperit
esperti
espinosa
esplicativu
esplicita
esplicitamenti
esplicite
esplicitu
espluratori
espona
espone
esponi
esportatore
esposta
esposti
espostu
espressione
espressioni
espressu
esprime
esprissione
esprissioni
esprit
espulsi
espulsione
espulsioni
espunente
espunenti
espunenziale
espuninziali
espurtazione
espurtazioni
espusizione
espusizioni
essa
essais
essari
essaru
essay
essays
esse
essendu
essential
essenza
essenze
essenziale
essenziali
essenzialmente
essere
esseri
esseru
essex
essezza
essi
essinziali
essman
essoche
est
esta
estadio
estampes
estaol
estara
estaru
estasi
estate
este
estelle
estense
estensione
esteri
esteriore
esterna
esterne
esterni
esterno
esternu
esteru
estesu
estetica
esteticu
estevez
estiano
estimi
estimu
estinsione
estinsioni
estinta
estintu
estinzione
estinzioni
estiva
estivi
estivu
estonia
estraiia
estratta
estratti
estrattu
estrazione
estrazioni
estrazzioni
estrema
estremadura
estremamente
estremamenti
estremegnu
estremi
estremita
estremu
estru
estu
estunia
eswatini
eszett
et
eta
etanolu
etc
ete
eterna
eterni
eternita
eternu
ethnologue
eti
etica
etichetta
etichi
eticu
etienne
etimologia
etimologicamente
etimologie
etimolugia
etimulogicu
etimulugia
etimulugii
etiopi
etiopidi
etiulogica
etiupia
etna
etnia
etnica
etnichi
etnicu
etnologia
etnugrafia
etnugrafichi
etnugraficu
etra
etruria
etrusca
etruscan
etruscans
etrusche
etruschi
etrusco
etruscu
etrusculugia
etrusker
ettari
etten
ettiopia
ettori
ettu
eu
eubea
eucalyptus
euclide
euclidea
euclidei
euclideu
euclidiana
euclidianu
eud
euge
eugene
eugenia
eugenio
euler
eulero
euleru
euphorbia
euphorbiaceae
euproctus
eurasia
eurasiana
eurasiatica
eures
euriali
euripidi
euristeu
euro
eurodeputatu
europa
europaea
europaeus
europe
europea
european
europeanu
europee
europei
europeu
euros
eurostat
euru
euruasiatica
eurupea
euscorpius
eusebio
eusebiu
ev
eva
evacua
evacuata
evacuazione
evan
evangelicu
evanghjelichi
evanghjelistu
evans
evapurazioni
eve
evelyn
evenimenti
eventi
eventuale
eventualmente
ever
everest
everhard
every
everybody
everyone
everything
evic
evidente
evidenti
evidenza
evidenze
evidenzi
evidintamenti
evil
evintuali
evisa
evita
evitari
evitendu
evo
evoca
evoluatu
evolution
evolutu
evoluzione
evu
evucheghja
evuchendu
evuluatu
evuluzione
evuluzioni
evvenimenti
evvenimentu
evviva
ex
exaltata
executive
exi
exiit
expansa
expectancy
explorations
express
expression
expressions
extra
exuatini
eye
eyed
eyes
eyjafjallajo
ez
eɪ
f
fa
fabaceae
fabales
fabbri
fabbrica
fabbricanti
fabbricati
fabbricatu
faber
faberge
fabiani
fabianu
fabio
fabliauss
fabre
fabrica
fabricanu
fabricazione
fabricazioni
fac
facade
facce
faccette
facci
faccia
facciali
facciata
facciate
facciu
face
facebook
facendu
facenu
facere
faceva
faci
facia
faciani
facianu
facii
facile
facili
facilita
facilmente
facini
faciulamenti
faciule
faciuli
faciulita
faculta
facultativu
faddimentu
faddita
faenza
fagaceae
fagales
fagec
faglia
fagundes
fagus
fahrenheit
fai
faiete
faii
faire
fait
faith
faiu
fala
falangia
falani
falasorma
falata
falate
falati
falatu
falchetti
falchettu
falcia
falcinedda
falco
falcone
falconidae
falcu
falde
faldi
falendu
falera
faletti
falgu
falkland
fall
falla
fallimenti
fallimentu
falling
fallisce
falls
fallu
falsa
false
falsi
falsu
falzu
fama
fame
fami
famidda
famiddi
famigli
famiglia
famigliali
famigliare
famigliari
famiglie
famiglii
familia
familiale
familiali
familiar
familiare
familiari
family
famitu
famosa
famose
famosi
famosu
famous
famǝ
fan
fana
fanale
fanali
fanellu
fanga
fanghi
fangosi
fangu
fanning
fannu
fans
fantasia
fantasimu
fantasma
fantastica
fantasy
fanteria
fanti
fantina
fanu
fappani
far
fara
farabi
faraghju
farai
farani
faraona
fare
faremu
farfa
farfalla
farfalle
fargo
fari
faria
farianu
farina
farinole
farisei
farmer
farnese
faro
farraghju
farragut
farrandu
farrata
farru
farruviaria
farruviarii
fasa
fasce
fasci
fascia
fascinu
fascismu
fascista
fasciu
fase
fasgioli
fasgiolu
fasgiulini
fasi
faso
fassi
fast
fastidiu
fatale
fatali
fatata
fatatu
fate
father
fati
fatica
fatiga
fatih
fatta
fatte
fatti
fattoghje
fattore
fattori
fattu
fattura
fatu
fauci
fauna
faune
faunistica
faunisticu
faure
faustina
fausto
faustulus
faut
fauves
fauvisimu
fava
favale
favalelli
favalellu
favi
favilla
favor
favore
favori
favula
favule
favuli
favurendu
favurevule
favurevuli
favuri
favurisce
favurita
favuriti
favuritu
favurizeghja
favǝ
fayo
fazzioni
fazzoletti
fbc
fc
fe
fears
feat
feature
febbraio
febbraiu
febres
february
fecatu
fece
fecenu
feci
fecia
fecini
fecinu
fecondazione
fede
fedele
federal
federale
federali
federata
federatu
federazione
federazioni
federiccu
federico
federicu
fedi
fedonu
fedra
fedro
fedru
feed
feels
feet
feigumfossen
felce
feldman
feldspati
felge
feli
felice
felicetu
felici
felicita
felidae
felini
felis
felix
feltrinelli
femina
femine
femini
feminicci
feminiccia
feminicciu
feminile
feminili
femininu
femme
femminile
femminili
femu
femund
fendu
fenestrelle
feng
fenici
fenicia
feniciu
feno
fenomeni
fenomenu
fenu
fenumeni
fenumenu
fer
fera
feranu
ferdinand
ferdinando
ferdinandu
feremu
ferentes
ferguson
feri
ferina
ferisce
ferisci
ferita
ferite
feriti
feritoghja
feritu
ferma
fermamente
fermani
fermanu
fermat
fermata
fermate
fermati
fermi
fermioni
fermo
fermu
ferna
fernand
fernande
fernando
feroce
feroci
ferraghjettu
ferraghju
ferrandi
ferrante
ferrara
ferrari
ferrell
ferrer
ferrera
ferrero
ferrette
ferri
ferringule
ferro
ferromagnetichi
ferroviaria
ferrovie
ferru
ferruginea
ferti
fertile
fertili
fertilita
fertu
ferula
ferulae
ferulaghja
fes
fesch
fessi
fest
festa
feste
festi
festighja
festighjatu
festighjeghja
festival
festivale
festivita
festo
festuca
feti
fetta
fette
fetti
fetu
feu
feudale
feudali
feudatari
feudi
feudu
fevraghju
ff
fg
fi
fiacculi
fiadone
fiamma
fiamme
fiammetta
fiammi
fiamminga
fiammingu
fianchi
fianco
fiancu
fiandra
fiandre
fiandri
fiara
fiare
fiasca
fiascatu
fiascu
fiat
fiatu
fibonacci
fibra
fibrenu
fibrosu
fibuli
fica
ficaghja
ficaghjola
ficaniedda
ficarolo
ficateddu
ficatellu
ficca
fiche
fichi
fico
ficonda
ficu
ficundita
ficus
fida
fidalma
fidanzata
fiddola
fiddoli
fiddolu
fide
fidele
fideles
fideli
fidelta
fidesz
fidia
fiducia
field
fiera
fiere
fieri
fieru
fiesolano
fiesole
fifa
fiffi
fiffina
fifth
fig
figa
figarella
figarelli
figari
figatellu
fighjia
fighjolu
fighjula
fighting
figi
figli
figlia
figliastru
figlie
figlii
figliola
figliole
figlioli
figliolu
figliu
figlǝ
figura
figurani
figuranu
figurazioni
figure
figures
figuretta
figurette
figuri
fikr
fil
fila
filadelfia
filamenti
filari
filatteriu
file
filepath
filetta
fili
filicaghja
filicaghju
filicastrella
filici
filicone
filicopsida
filidi
filignanu
filippi
filippine
filippini
filippinu
filippo
filippu
filisdei
filisdeu
filitosa
filius
filix
fille
fillion
fillmore
film
filmettu
filmi
films
filmu
filmugrafia
filo
filocolo
filone
filonu
filosofi
filosofia
filosofica
filosofiche
filosoficu
filosofu
filostrato
filosufi
filosufia
filtra
filtru
filu
filulugia
filusofica
filusofichi
filusoficu
filusufia
fin
fina
final
finale
finalemente
finali
finalistu
finalita
finalmente
finalmenti
finamenti
finanza
finanzamentu
finanze
finanzia
finanziamenti
finanziaria
finanziarie
finanziarii
finanziariu
finch
finche
finchi
fine
finegan
finendu
finestra
finestre
fineu
finezza
fini
finia
finis
finisce
finiscenu
finischi
finisci
finiscia
finisciaria
finiscini
finiscinu
finissi
finisti
finita
finite
finiti
finitini
finitu
finlandese
finlandia
finnichi
finnmark
fino
finochjarola
finochju
finomini
finominu
fintantu
fintascenzia
fintascienza
finti
finu
finuchjaghja
finuchjarola
finuchjarole
finusellu
finz
fioccu
fior
fiora
fioravante
fiordi
fiordu
fiore
fiorella
fiorentina
fiorentine
fiorentino
fiori
fiorio
fiorisi
fire
firenza
firenze
firma
firmamentu
firmara
firmata
firmati
firmatu
firmava
firmendu
firmeti
firmetini
firmo
first
firtilita
firulaghja
firulinu
firventi
fisca
fiscale
fiscali
fiscalita
fischer
fish
fisher
fisica
fisicamente
fisiche
fisichi
fisicu
fisionumia
fisiulogichi
fisiulugia
fissa
fissata
fissati
fissatu
fissazioni
fissi
fissione
fissu
fist
fistivali
fistivita
fistona
fistulosus
fitta
fittili
fitzgerald
fium
fiuma
fiumaltu
fiumara
fiumare
fiume
fiumi
fiumiceddu
fiumicelli
fiumicellu
fiuminale
fiumorbu
fiumu
fiura
fiurali
fiure
fiurentina
fiurentini
fiurentinu
fiurenza
fiurenzu
fiuri
fiurintina
fiurintini
fiurintinu
fiurisce
fiurisci
fiurita
fiuriti
fiuritu
fiuritura
five
fizzione
fjordi
fju
fla
flag
flamengo
flammarion
flammula
flash
flavia
flavio
flaviu
flavius
flegrei
fleming
flesh
flessione
fleurs
flickr
flight
flix
flnc
flnks
floire
flora
flore
florent
flori
floriana
florida
florio
floristicu
flotta
flower
flowers
floyd
flumen
flumendosa
fluoru
fluristiche
flussi
flussu
fluttiglia
fluviale
fluviali
flying
flynn
fm
fmi
fo
foata
focalizata
foce
focea
focei
fochi
foci
focu
foggia
foghjianu
fogle
fogli
foglia
foglie
foglii
fogliole
fogliu
foi
fois
fola
folcloru
fole
foley
foli
folk
folklore
folla
follett
fomentarius
fomes
fonda
fondachi
fondamentale
fondation
fondatori
fondazione
fondi
fondu
fonema
fonetica
fonetiche
fonetichi
foni
fonografu
fontaine
fontainebleau
fontaines
fontana
fonte
fontemoing
fonti
fontsize
fonulogichi
fonzi
food
foot
football
for
fora
forbes
forbici
forca
force
forche
forchi
forci
forcioli
forcu
ford
foreign
forest
foresta
foreste
forever
foreziense
forficula
forget
fori
forisportam
fork
forli
forma
formale
formani
formanu
formatu
formazione
forme
formes
formi
formula
formulazione
formule
formuli
fornari
forni
forno
fornu
foro
forrest
forru
forsa
forse
forsi
fort
fortaleza
forte
fortezza
forti
fortino
forton
fortune
foru
forward
forza
forze
forzi
foscolo
fosfuru
fossa
fosse
fossi
fosso
fossu
foto
fotografia
fotograficu
fotografie
fotografu
fotone
fotoni
fotosintesi
fouille
foundation
four
fourr
fox
foxworthy
fr
fra
frac
fracassu
fragifera
fragile
fragili
fragilis
fragole
framanti
frame
frameless
frammenti
frammentu
fran
franc
franca
francaci
france
frances
francesa
francesca
franceschi
franceschini
francesco
francescu
francese
francesi
francesu
francfort
franchi
francia
francianu
francis
franciscani
franciscanu
francisci
francisco
franciscorsa
franciscu
franck
franco
francocunteese
francofuna
francois
francombat
francoprovenzale
francorsu
francu
francuforte
frank
frankenheimer
frankfurt
franklin
franquista
frans
franz
fraquinto
frasa
frasca
frase
fraser
frasi
frassetu
frassitani
frassu
frastagliati
frate
frateddi
frateddu
fratellanza
fratelli
fratello
fratellu
fratercula
fraternitat
fratesca
frati
fratrie
frattale
frattantu
frattempu
frattura
fraula
fraxinus
frazzione
frazzioni
frazziunamentu
frazziunaria
frazziunarii
frazziunata
fre
frebba
frecce
frecci
freccia
fred
freddu
frederic
frederick
fredericu
frediano
free
freedom
fregata
freiburg
french
frensk
frenu
frequenta
frequente
frequenti
frequenza
frequenze
fresca
fresche
freschi
frescu
freta
freti
fretu
freud
frewer
friburgu
fricativa
friday
fried
friedhelm
friedrich
frigi
frigia
fringilla
fringillidae
friquenta
friquentanu
friquenti
friquenza
friquintata
friquintati
friquintatu
friquintazioni
frisca
frisch
friscura
frisgiu
frisone
frissoghja
fritelle
fritillaria
fritta
frittata
fritte
frittelle
fritti
frittu
fritu
fritz
friulanu
friuli
frivaghju
frolla
from
fronda
fronde
frondi
frondosa
frondosus
front
fronte
fronti
frontman
fronton
frontons
frosinone
frost
fru
fruit
frumentu
frundamu
frunduti
frundutu
fruntali
frunti
fruntiera
fruntiere
fruntieri
fruntone
frusinone
frusta
frutescens
frutta
frutteti
frutti
fruttiferu
fruttu
fu
fuata
fubbe
fubbenu
fubbi
fubbini
fucaccia
fucare
fucense
fuchsii
fucichja
fuciflora
fucilazioni
fucile
fucili
fucinu
fucone
fuconu
fuculaghji
fuculaghju
fuculari
fuego
fueguini
fuentes
fuga
fughja
fughje
fughjenu
fughji
fughjita
fughjitu
fugit
fuglioli
fulcu
fulgens
fulgetu
fulighjine
full
fulmine
fulminente
fulmini
fuma
fumaccia
fumana
fumaria
fumarole
fume
fumi
fumu
funda
fundadore
fundale
fundali
fundamentale
fundamentali
fundamenti
fundamentu
fundamintali
fundata
fundate
fundati
fundatore
fundatori
fundatu
fundazione
fundazioni
fundendu
fundillu
funditura
fundivu
fundo
fundonu
fundu
fune
funebre
funebri
funemi
funerali
funerarii
funerariu
funes
funetica
funeticamente
funetichi
funeticu
funghi
fungi
fungu
funi
funirariu
funnies
funtana
funtanaccia
funtane
funtanedda
funtaneddi
funtanella
funtani
funu
funulugia
funzi
funziona
funzionale
funzionari
funzione
funzioni
funziunali
funziunalita
funziunamentu
funziunarii
funziunariu
funziuneghja
funzu
furana
furca
furcata
furchetta
furchi
furcina
furciolu
furcone
furconu
furesta
fureste
furesti
furestiera
furestieru
furfanti
furia
furiani
furiosu
furlong
furma
furmagliu
furmaiani
furmalamenti
furmale
furmali
furmalmente
furmata
furmate
furmati
furmatu
furmatusi
furmava
furmavani
furmavanu
furmazione
furmazioni
furmendu
furmicula
furmidevuli
furmo
furmula
furmulata
furmulati
furmulatu
furmuli
furnaci
furne
furneddu
furni
furnilla
furnisce
furniscendu
furniscenu
furnisci
furniscia
furniscini
furnita
furnitu
furonu
furtamente
furtamenti
furte
furtezza
furtezze
furti
furtificata
furtificati
furtificatu
furtificazione
furtificazioni
furtifico
furtinu
furtissimi
furtu
furtuna
furtunati
furtunatu
furunu
furza
furzamentu
furzata
furzati
furzatu
furzendu
furzo
fus
fusa
fusca
fuscus
fusi
fusina
fusione
fusioni
fusse
fussenu
fussetti
fussi
fussile
fussili
fussini
fussinu
fuster
fusti
fustu
fusu
futi
futoni
futonu
futta
futterman
futugrafia
futuna
futura
future
futuri
futuro
futuru
futusfera
fuzza
fǝbbrarǝ
g
ga
gabbianu
gabin
gable
gabone
gabriel
gabriela
gabriele
gabrielli
gachet
gaddura
gadduresa
gadduresi
gadduresu
gae
gaelica
gaelicu
gaels
gaeta
gaetano
gaffori
gaga
gage
gagea
gaghju
gagnon
gai
gainey
gainsbourg
gaio
gaiu
gaius
galactites
galadriel
galant
galassia
galassie
galassii
galasso
galatea
galatticu
galaxy
galeano
galenu
galera
galere
galeria
galganoi
galien
galilea
galilei
galileo
galileu
galipedia
galizia
galiziana
galiziani
galizianu
gall
gallagher
gallardo
gallaria
gallarii
galleria
gallerie
gallery
galles
gallese
gallesi
galletti
galli
gallia
gallica
gallicu
gallighjanti
gallighjendu
gallimard
gallina
gallinago
gallinaro
gallinaru
galline
gallinula
gallipoli
gallipuli
galliu
gallizzanti
gallo
galloitalico
gallorumanzu
gallu
gallura
gallurese
gallus
galois
gama
gamba
gambaraghju
gambaru
gambia
game
games
gamisans
gamma
ganci
gand
gandhi
gandia
gandolfini
gandon
gange
ganimedi
ganzirri
gara
garand
garante
garanti
garantiscendu
garantisci
garantiscia
garantita
garantitu
garanzie
garbage
garber
garbo
garci
garcia
garcilaso
garden
gardini
gareth
garfield
gargalu
gargano
gargareni
gari
garibaldi
garipova
garland
garlin
garofalo
garona
garrulus
garry
garten
garu
gary
garzanti
garzetta
garðar
gas
gasi
gasose
gasosi
gasosu
gaspa
gaspard
gaspe
gasperini
gaspi
gaston
gastone
gastronomia
gastronumia
gastrunumia
gasu
gate
gativu
gatling
gatta
gatti
gattiva
gattivi
gattivu
gattu
gattubardu
gattucciu
gatu
gaudi
gauguin
gaul
gauss
gavdos
gavignanu
gavin
gavino
gavinu
gay
gaza
gazette
gc
gd
gdynia
gdzie
ge
gea
gebbia
gedichte
gel
gemellata
gemini
gen
gena
genari
genaru
genc
gendarmi
gene
genealogia
genealugia
genera
general
generalamenti
generale
generali
generalisazione
generalisazioni
generalita
generalitat
generalizata
generalizati
generalizatu
generalmente
generalmenti
generation
generatu
generazione
generazioni
generi
genericamenti
genericu
generosu
generu
genesi
genesis
genetic
genetica
geneticamente
genetichi
genetics
geneticu
geneva
genevie
geni
genisi
genista
genitivu
genitori
geniu
gennargenteus
gennargentu
gennaria
gennaro
gennaru
genova
gens
gentiana
gentianaceae
gentianales
gentile
gentili
gentilis
gentilman
gentlemen
genua
genucilia
genuva
genuvesa
genuvese
genuvesi
genziana
geo
geodesia
geoff
geoffrey
geofite
geografi
geografia
geografica
geograficu
geographic
geoidu
geologia
geologica
geolugia
geometrica
geometrichi
georg
george
georges
georgia
georgiche
georgichi
ger
geraint
gerais
gerald
geranium
gerard
gerbert
geremia
gerente
gerenti
germa
germain
germania
germanica
germaniche
germanichi
germanicu
germanofuni
germany
gerolamo
geronimi
geronimo
gerrit
gertrude
gerusalemma
ges
geschichte
gestazione
gestione
gestu
gesu
get
getty
geugrafia
geugrafica
geugraficu
geumetrica
geumetriche
geumetrichi
geumitria
geumitrie
geyser
geysir
ggantija
ggi
ggǝ
gh
ghana
ghani
ghar
ghazal
gherardesca
gherardi
gherardini
gherardo
ghetto
ghi
ghibelline
ghigi
ghil
ghiornu
ghira
ghirlandaio
ghisoni
ghisunaccia
ghj
ghja
ghjacara
ghjacari
ghjacarina
ghjacaru
ghjaccettu
ghjacci
ghjacciai
ghjacciaiu
ghjacciale
ghjacciali
ghjacciati
ghjacciu
ghjace
ghjacendu
ghjaci
ghjaciaria
ghjaciarii
ghjaciariu
ghjaciazione
ghjaciazioni
ghjacimenti
ghjacimentu
ghjacintu
ghjacomu
ghjacubini
ghjacumoni
ghjacumu
ghjaddi
ghjaddicu
ghjaddina
ghjaddinedda
ghjaddineddi
ghjaddu
ghjalina
ghjalla
ghjalletta
ghjallicu
ghjallina
ghjallinetta
ghjallu
ghjamba
ghjambi
ghjambifini
ghjandaghja
ghjandi
ghjandule
ghjanu
ghjappone
ghjapponese
ghjappunese
ghjara
ghjarghje
ghjaseppu
ghjasippina
ghjasonu
ghjastema
ghjastimatu
ghjatta
ghjatti
ghjattu
ghjavilottu
ghje
ghjenaru
ghjene
ghjenerale
ghjenerali
ghjeneralmente
ghjeneri
ghjenesi
ghjennaghju
ghjennaiu
ghjennaru
ghjenneru
ghjente
ghjenti
ghjentra
ghjentri
ghjenuva
ghjenuvese
ghjenuvesi
ghjeorghja
ghjeorghje
ghjera
ghjerarchie
ghjerbi
ghjerm
ghjermana
ghjermania
ghjermanica
ghjermaniche
ghjermanicu
ghjerra
ghjerundiu
ghjerusalemma
ghjerusalemme
ghjesa
ghjesgi
ghjesgia
ghjesia
ghjesu
ghjesuiti
ghjetta
ghjetti
ghjettu
ghjibilterra
ghjigantesca
ghjiganteschi
ghjigantescu
ghjiganti
ghjilata
ghjilormu
ghjilosi
ghjina
ghjinepara
ghjineparu
ghjinestra
ghjinevra
ghjinirali
ghjinnaghju
ghjinochji
ghjinochju
ghjintili
ghjinuvesa
ghjinuvese
ghjinuvesi
ghjinuvesu
ghjira
ghjirandulata
ghjirata
ghjiratu
ghjirolmu
ghjiru
ghjirundiu
ghjise
ghjiseppu
ghjitta
ghjittati
ghjittatu
ghjitto
ghjo
ghjobba
ghjoca
ghjocanu
ghjochi
ghjocu
ghjolitti
ghjorghju
ghjorna
ghjorni
ghjornu
ghjova
ghjovana
ghjovane
ghjovani
ghjovanni
ghjovanu
ghjove
ghjovi
ghjoviti
ghjovitu
ghju
ghjuacchinu
ghjuca
ghjucadore
ghjucadori
ghjucata
ghjucati
ghjucatoghju
ghjucatore
ghjucatori
ghjucatu
ghjucendu
ghjuchendu
ghjuco
ghjucosi
ghjuda
ghjudaica
ghjudaisimu
ghjudaismu
ghjudea
ghjudei
ghjudeia
ghjudeiu
ghjudesmu
ghjudeu
ghjudica
ghjudicali
ghjudicamentu
ghjudicata
ghjudicati
ghjudicatu
ghjudice
ghjudici
ghjudiziaria
ghjudiziariu
ghjudiziu
ghjugna
ghjugne
ghjugni
ghjugno
ghjugnu
ghjulia
ghjulianu
ghjuliu
ghjumenta
ghjumenti
ghjummeddu
ghjuncaghju
ghjunchetu
ghjuncu
ghjunghja
ghjunghje
ghjunghjendu
ghjunghjenu
ghjunghji
ghjunghjianu
ghjunghjini
ghjunghjissi
ghjunghju
ghjungni
ghjungnini
ghjungnu
ghjunoni
ghjunsani
ghjunse
ghjunsi
ghjunsini
ghjunta
ghjunte
ghjunti
ghjuntu
ghjura
ghjuramentu
ghjuratu
ghjuria
ghjuridica
ghjuridiche
ghjuridicu
ghjuridizione
ghjurisdizione
ghjurisprudenza
ghjuristi
ghjuristu
ghjurnale
ghjurnali
ghjurnalista
ghjurnalisti
ghjurnalistu
ghjurnata
ghjurnate
ghjuru
ghjuseppe
ghjust
ghjusta
ghjustamenti
ghjusti
ghjustifica
ghjustificazione
ghjustificazioni
ghjustificheghja
ghjustinianu
ghjustizia
ghjustu
ghjuti
ghjuva
ghjuvan
ghjuvanetta
ghjuvanile
ghjuvanili
ghjuvanna
ghjuvannali
ghjuvanni
ghjuvanotti
ghjuvanottu
ghjuvantu
ghjuvatu
ghjuvava
ghjuveddi
ghjuveddu
ghjuvelli
ghjuvellina
ghjuventu
ghjuvnotti
ghost
ghurnati
gi
gia
giacobetti
giacomo
giacubina
giadda
giaddi
giaddicci
giaddicciu
giaddu
giafferi
giaini
gialla
giallastre
giallastru
gialle
gialli
giallu
giamaica
giamaicanu
giambattista
gian
giancarlo
giandarmi
gianfranco
gianni
giannutri
giansily
giant
giants
giappone
giapponese
giapponu
giappunesa
giappunese
giappunesi
giappunesu
giardinari
giardini
giardinu
gibbs
gibilterra
gibson
gibuti
gica
gicu
gide
gif
gigante
giganti
giggs
gigi
giglio
gigliu
gigolo
gil
gilbert
gilberto
gilda
gilles
gillio
gime
gimli
gine
ginerale
ginevra
ginirali
gino
gioacchino
giocose
gioia
gioie
giomitri
gion
giordano
giorgetti
giorgia
giorgio
giorni
giorno
giornu
giotto
giovan
giovana
giovani
giovanna
giovanni
giovannino
giovannoni
giovanu
giovoni
gira
girafone
giraglia
girandulata
girandulate
giranu
girata
giratoghju
girendu
girl
girolamo
girolata
girona
giru
gisserot
gistazione
gistione
gistioni
gistisce
gistiscia
gistita
gistitu
giucentricu
giuconda
giucondu
giudea
giudici
giuelli
giugnu
giugrafi
giugrafia
giugrafica
giugraficamenti
giugrafichi
giugraficu
giulia
giuliani
giuliano
giulio
giuliu
giulogica
giulogichi
giulugia
giulugicamenti
giumetrica
giumetrichi
giumetricu
giumitria
giumitrii
giungla
giunti
giurdanu
giurnale
giurnali
giuseppe
giuseppi
giusta
giustificazione
giustiniani
giustino
giusto
giuvanni
giuvanotte
giuvencu
giuventu
give
giza
gje
gl
glaciali
glandarius
glasgow
glauca
glauci
glaucu
gleason
glen
glenn
gli
glia
glis
glise
glisenti
glises
gliu
global
globale
globe
globu
globularia
globulariaceae
globulariu
glomerata
glomma
gloria
glory
glosse
glover
glubalamenti
glubale
glubali
gluoni
glutinosa
glǝ
glə
gmelin
gmelini
gn
gna
gnaccara
gne
gneo
gnidium
gnomone
gnu
gnulu
go
goa
goal
goccia
god
goda
godal
gode
godfery
godferyi
godi
gods
goes
goethe
goffa
goffredo
goffu
gogh
goia
going
gol
gola
gold
goldbach
golden
goldthwait
gole
golfi
golfu
goli
golia
golu
gomes
gomma
goncourt
gondula
gondule
gonduliere
gone
gonfienti
gonfii
gong
gonza
gonzalez
gonzalo
good
goodbye
gooding
goodman
goodyera
google
goran
gord
gordon
gordy
gore
goreski
gorgia
gorgona
gorgonio
gori
gorizia
goro
gorshin
gortina
goscinny
gosu
got
gotica
gotichi
goticu
gottfried
gough
gould
goupil
gourgaud
gouv
gouverneurs
gov
governatore
government
gozo
gozu
gr
gra
grace
graculus
gradi
gradini
gradisca
grado
gradu
gradualamenti
gradualmente
graduate
grafi
grafia
grafica
graficamente
grafiche
grafichi
graficu
grafitu
grafu
graham
grain
grammar
grammatica
grammaticale
grammaticali
grammaticu
grammer
grammi
gran
grana
granada
granaghjolu
granata
granatu
granatum
granchi
granci
grand
grande
grandezza
grandezze
grandezzi
grandi
grandissima
grandmaison
granduca
granducatu
granduchessa
graneddi
graneddu
granelli
granellu
granita
granitica
granitichi
graniticu
granitu
granitula
granja
granone
granonu
grant
granu
granulazioni
granuli
grappa
grass
grassa
grassi
grassu
grati
gratisi
gratta
gratu
gratuiti
gratuitu
gravamente
gravare
grave
graveolens
gravi
gravina
gravisca
gravita
gravitaziunale
gravitaziunali
gravitoni
gravona
gray
graz
grazia
graziani
grazie
grazii
graziosa
građanski
gre
great
greatest
greca
grecale
greche
grechi
greci
grecia
grecisimi
grecu
greda
greek
green
greenberg
greenwich
greenwood
gregale
gregor
gregorianu
gregoriu
gregorovius
gregory
gregurianu
gren
grendi
grenoble
greta
greuter
greva
greve
grevi
grevu
gri
gricali
grida
gridcolor
griddi
griddu
gridendu
gridi
gridu
griffiths
griffoni
grifola
grifoni
grighjoni
grigioni
grigoriu
grillo
grillu
grimaldi
grisge
grisgi
grisgia
grisgicciu
grisgiu
grohl
groncu
groot
groove
gropius
grossa
grosse
grosseto
grossetu
grossi
grosso
grossu
grotta
grotte
grotto
group
groupe
grover
gru
grugnulu
gruinlandia
gruppate
gruppi
gruppu
grus
grussetu
gruttelle
gruttescu
gruyter
gu
guadagna
guadagnanu
guadagnatu
guadagni
guadalajara
guadalone
guadalupa
guadelli
guadellu
guagnese
guagnesi
guagnu
guai
guaina
guaine
guanti
guarda
guardanu
guardate
guardava
guardavanu
guardi
guardia
guardianu
guarguale
guari
guarino
guaritu
guarnigione
guarnigioni
guascona
guascone
guasgi
guasi
guastalla
guatemala
guatru
guayaquil
gudi
gudia
guditi
gueda
guedes
guelfa
guelfucci
guernsey
guerra
guerre
guerrero
guerri
guerriera
guerriere
guerrieri
guerriglia
guetta
guez
guffezza
guggi
guglielmi
guglielmo
guglielmu
gui
guida
guidata
guidati
guidatu
guide
guidi
guido
guidoni
guidu
guilin
guillaume
guillermo
guinea
guitar
gujarat
gula
gulf
gulosus
gump
gun
gunale
gune
guniumetrica
guniumetrichi
gurdianu
gurgona
gurgoni
guss
gustaf
gustav
gustave
gustavo
gustu
guvarnadori
guverna
guvernadore
guvernadori
guvernata
guvernatore
guvernatori
guvernatu
guverni
guvernu
guvirna
guvirnata
guvirnati
guvirnatu
guy
guyana
guðmundur
gvs
gwent
gwlad
gwynedd
gwyneth
gyatso
gyi
gyllenhaal
gymnadenia
gymnocarpium
gypaetus
gło
h
ha
haber
habitat
hachette
had
hade
hadith
hafez
haggis
hahn
hai
haiti
hajduk
haju
hakone
hal
hale
haley
haliaeetus
haliaetus
halimifolium
halimium
hall
halo
hals
hamilton
hammer
hampshire
han
hangul
hani
hanin
hanja
hanks
hanna
hannah
hanno
hannover
hannu
hanoi
hans
hansen
hanu
happy
harbour
hard
hardesty
harding
hardwick
hargitay
harley
harmattan
harold
harrelson
harris
harrison
harry
hart
hartert
harvard
harvey
has
hasan
hat
hatchet
hathaway
haut
haute
hautes
have
havel
haven
haw
hawaii
hawthorne
hayden
haydn
haye
hayek
hayes
hc
hd
he
head
healy
heart
hearts
heat
heath
heathen
heather
heaven
heavy
heavyweight
hebe
hebrew
hector
hedberg
heidelberg
height
heilbronn
hein
heine
heinrich
heisenberg
helen
helena
helgakviðha
helianthemum
helichrysum
helicodiceros
helix
hell
hella
helleborine
helleborus
hello
hemigymnus
hemingway
hen
henderson
hendrik
henri
henricus
henriette
henrik
henriksen
henry
hepburn
her
herakles
heraklion
herba
herbert
hercules
here
herengracht
herge
herman
hermann
hermanni
hermanniae
hermes
herminium
hero
herodotus
heroes
herrera
herschel
hesse
het
hetman
heure
hey
hf
hi
hiberno
hic
hicks
hidalgo
hierophis
high
higher
highlands
highwayman
hilary
hilbert
hill
hills
him
himalaia
himalaya
himantoglossum
hindenburg
hindi
hindu
hinny
hip
hippasus
hippocampus
hiram
hircinum
his
hispaniolensis
hist
histo
histoire
historia
historical
historique
historiques
history
histrix
hit
hitler
hits
hl
hm
hmasphut
hms
hnameh
ho
hoc
hoepli
hoffman
hofkirche
hohenstaufen
hoi
hokkaido
hokusai
holbrook
hollande
hollywood
holman
holodomor
holosericea
holy
hom
home
homo
homobasidiomycetes
honduras
hong
hongwu
honolulu
honore
honorum
honthorst
hook
hooligan
hooliganisimu
hooligans
hools
hoornik
hoover
hop
hope
hopes
hopkins
hora
horatio
horizonte
horn
horowitz
horrible
horvitz
hoskins
hospiton
hot
hotel
houghton
hound
hour
hours
house
how
howard
hrouchevsky
hrung
htm
html
http
https
hu
hubble
huberta
hudgens
hudson
huesca
hugh
hughes
hugo
hugot
hui
hultrum
humain
human
humbert
humberto
hume
hundingsbana
hundred
hunger
hunley
hunt
hunter
hunting
huperzia
huron
huss
hussein
hut
huys
hyacinthus
hybrid
hybridity
hydnum
hydra
hydrozoa
hye
hyla
hymns
hyoscyamus
hypericum
hyperligamu
hyperwerks
hypocistis
i
ia
iain
ian
iani
iaroslav
iati
ib
ibar
iberia
iberica
ibericu
iberioides
iberu
ibiza
iblea
ibn
ibrahim
ibridazione
ibridi
ibridu
ic
icarly
icaru
icarus
ice
iceberg
iceland
ich
ichi
ichnusae
ick
icona
icunugrafia
id
ida
idaho
idantichi
idantifica
idantificata
idantificati
idantificatu
idantificazioni
idantita
idarni
idda
iddi
iddu
ide
idea
ideale
ideali
ideas
idee
idei
identiche
identichi
identifica
identificanu
identificata
identificati
identificatu
identificazione
identita
identity
ideogramma
ideologia
ideulugia
idhlig
idilliaca
idioma
idiomi
idra
idraulicu
idravvio
idrazina
idrica
idricu
idrogenu
idrografia
idrologica
idrologicu
idrotermale
idrugenu
idrugrafia
idrugrafica
idrugraficu
idulatria
idulu
ie
ieddi
ier
ierarchia
ieri
ies
if
ig
igh
ign
ignacio
ignazio
ignaziu
ignea
ignee
ignei
ignora
ignurante
ignuranza
igor
ih
ihs
ii
iid
iie
iii
iiiu
iiu
ijssel
ik
il
ilaria
ilariu
ile
ilex
iliadi
ilic
ill
illa
ille
illeg
illegali
illimitatu
illinois
illirici
illiricu
illu
illuminazione
illuminisimu
illuminista
illusione
illustra
illustrata
illustrati
illustration
illustratu
illustrazione
illustrazioni
illustre
illustri
illyricum
ils
ilya
im
ima
image
imageria
images
imagesize
imaghjina
imaghjine
imaghjini
imagina
imaginaria
imaginariu
imaginazione
imaginazioni
imagine
imagineghja
imagini
imbagatu
imbarca
imbarcati
imbarcatu
imbarcazione
imbarcazioni
imbarcu
imbardatu
imbellisce
imbernu
imboccu
imbrancamentu
imbrugliatu
imbrutta
imbuccatura
imbuffata
imbuscata
imbutu
imdb
imdina
imelda
imera
imita
imitati
imitazioni
imitendu
immacolata
immaculata
immacule
immaghjni
immagine
immagini
immediata
immediatamente
immediatamenti
immediatu
immensa
immensi
immensu
immersione
immigrati
immigrazione
immigrazioni
imminente
immissarii
immissariu
immobili
immurtali
immurtalita
imola
impara
imparanu
imparatu
imparera
imparfettu
imparfizzioni
imparintati
imparsunali
impastu
impatrunisce
impatti
impattu
impaurit
impavimentu
impedisce
impegna
impegnate
impegnatu
impegnu
imperadore
imperator
imperatore
imperatori
imperatrice
imperi
imperial
imperiale
imperiali
imperiu
impero
imperu
impiantatu
impianti
impiantu
impiastru
impicca
impiccati
impidisce
impidisci
impidiscia
impiditu
impiega
impiegata
impiegate
impiegati
impiegatu
impieghendu
impieghi
impiegu
impigna
impignati
impignatu
impigno
impiiga
impiigata
impiigati
impiigatu
impiratori
impitta
impituosu
implementatu
implemintazioni
implica
implicata
implicati
implicatu
implicazioni
implicheghja
implicheghjani
implichendu
impona
impone
imponi
imporsi
importa
importante
importanti
importanza
imposi
impositi
impositu
impossible
imposta
imposti
impostu
imprenditore
impresa
impresariu
imprese
impresi
impressa
impressione
impressiunante
impressiunisimu
impresta
impricisata
imprighjuna
imprighjunati
imprighjunatu
imprimerie
imprisariu
imprissioni
imprissiunatu
imprissiunista
imprissiunisti
improda
improdanu
improdu
impronta
impronte
impronti
imprubabili
impruda
imprudata
imprudate
imprudati
imprudatu
imprudava
imprudavani
imprudendu
imprudo
impruneta
imprutta
impruvisadori
impruvisatore
impruvisu
impullinazione
impullinazioni
impulsu
impunendu
impunente
impunenti
impuri
impurtanta
impurtante
impurtanti
impurtantissima
impurtantu
impurtanza
impurtata
impurtati
impurtatu
impurtazione
impurtazioni
impuru
impusizione
impussibile
impussibili
impussibilita
impussibuli
impussissa
imu
in
ina
inaccessibile
inaccessibili
inalienabili
inalza
inalzo
inan
inascultata
inaspittata
inaugurale
inaugurata
inauguratu
inaugurazione
inaugureghja
inaugurendu
inc
incagna
incalcu
incantesimi
incantu
incapace
incapaci
incapacita
incarceratu
incarica
incaricata
incaricati
incaricatu
incaricheghja
incarico
incaricu
incarna
incarnata
incarnatu
incarnazione
incastulatu
incatinati
incatinatu
incausa
incausata
incausati
incausatu
incauseghja
incausendu
incauso
ince
incendii
incendiu
incentru
incerta
incertezza
incerti
incertu
inchetu
inchiesta
inchiesti
inchjarimentu
inchjerchju
inchjirchja
inchjostru
inchjuda
inchjude
inchjudendu
inchjudenu
inchjudi
inchjudini
inchjusu
inchjuvata
incida
incidenti
incidenza
incinnarazioni
incinta
incipit
incirca
incisa
incisi
incisione
incisioni
incita
inclinata
inclinati
inclinatu
inclinazioni
include
includendu
includenu
includi
includia
inclusa
incluse
inclusi
inclusu
incodda
inconnu
inconnue
incontra
incontru
incorpora
incorporata
incorpuratu
increment
incrementu
incrociatori
incrociu
incruciatori
incu
incubacea
incuccia
incudda
incudine
incumpatibilita
incumpiita
incun
incunabula
incunabuli
incunabulu
incuntra
incuntrariu
incuntro
incuntru
incunvinienti
incuraghjisci
incuraghjiti
incuragisce
incurpurata
incurpuratu
incurpurazione
incursione
incursioni
incurunata
incurunatu
incurunazioni
incuruno
incurva
incurvati
incurvation
incurvatura
ind
inda
indagacions
indagine
indarnu
indarru
inde
indebulimentu
indefinitu
indegna
independence
independente
independenza
indetta
indettu
index
indi
india
indian
indiana
indianapolis
indiane
indiani
indianu
indiavulate
indica
indicaria
indicata
indicati
indicativu
indicatore
indicatori
indicatu
indicava
indicazione
indicazioni
indicheghja
indicheghjani
indicheghjanu
indichendu
indici
indie
indigena
indigeni
indigenu
indigestione
indignazioni
indii
indipendente
indipendenti
indipendentista
indipendentisti
indipendentistu
indipendenza
indipindente
indipindenti
indipindenza
indira
indiretta
indirettu
indirittamenti
indirizza
indirizzata
indiscriminata
indispinsevule
indistinguibili
indistintu
inditarminativi
indittu
individua
individuale
individuali
individuata
individuati
individuatu
individui
individuu
indivisibile
indivisibili
indizii
indiziu
indo
indoauropeani
indoeuropea
indoeuropeane
indoeuropee
indonesia
indossa
indrentu
indu
induauropea
induauropeu
induaurupea
indubbiamenti
induce
inducia
induisimu
indunesia
indunesiana
indunisianu
indus
indussi
industria
industriale
industriali
industrialisazione
industrialisazioni
industrie
industrii
indutta
induttu
induv
induva
induve
induvinedda
induvinu
ine
inefficaci
inerti
inesistente
inestricabili
inevitevule
infantaria
infante
infanteria
infatti
infcor
inferenza
inferenzi
inferinziali
inferiore
inferiori
infernali
inferni
infernu
infiammatore
infilarata
infilarati
infine
infini
infinita
infinitamente
infinite
infinitesimale
infinitesimali
infiniti
infinitu
infiriori
infiuriscenza
infiuriscenzi
inflammabile
inflazione
infligera
inflighjendu
inflighji
inflitta
inflitte
inflitti
influence
influente
influenti
influenza
influenzata
influenzatu
influenze
influenzi
influinza
influinzata
influinzati
influinzatu
influssi
influssu
informa
informatica
informaticu
information
informazione
informazioni
infos
infrarossi
infrarossu
infrastrutture
infrastrutturi
infruttuosi
infty
infurcatura
infuria
infuriatu
infurma
infurmali
infurmati
infurmatica
infurmatichi
infurmaticu
infurmatu
infurmazione
infurmazioni
ing
ingaghjata
ingaghjati
ingaghjatu
inganna
ingannati
ingannatu
inganni
ingannu
ingegnere
ingegneri
ingegneria
ingegneru
ingenera
ingenerati
ingenieria
ingenieru
ingenioso
ingerenza
inghilterra
inghjenna
inghjennatu
inghjinaratu
inghjinareghjani
inghjinirati
inghjinireghja
inghjinirendu
inghjinnatu
inghjinno
inghjiru
inghjo
inghjotte
inghjuliati
inghjulie
inghjuria
inghjustamenti
inghjustizia
inginieri
ingiru
inglesa
inglese
inglesi
inglesu
ingliterra
ingloba
inglubata
inglubati
inglubatu
ingo
ingranda
ingrandata
ingrassa
ingrata
ingratu
ingredienti
ingres
ingressu
ingridienti
ingrossu
ingrussamentu
inguerni
inguernu
inguinamentu
inguirnali
ingutuppa
ini
iniittiva
ininterrotta
ininterruttamente
inizia
inizialamenti
iniziale
iniziali
inizialmente
inizialmenti
iniziata
iniziativa
iniziative
iniziativi
iniziatu
iniziazione
iniziazioni
inizio
iniziu
inn
innalzani
innamora
innamoru
innamura
innamurata
innamurati
innamuratu
innamuro
innantu
innanzi
innanzu
inni
innisca
inno
innocenzu
innu
innucente
innucenzu
innumerevuli
innumerevulmente
innuvazione
innuvazioni
inoltre
inoltri
inossidabile
inossidabili
inox
inparfettu
inpn
inquant
inquantu
inquilanu
inquinamentu
inquisitori
inquisizione
inrap
insalata
inscritta
insecta
insectifera
insediamenti
insediamentu
insee
insegna
insegnamentu
insegnante
insegnatu
insegni
inseme
insemi
insemu
inserita
inseritu
insetti
insettu
insicurezza
inside
insidia
insidiamenti
insidiamentu
insieme
insigna
insignamenti
insignamentu
insignanti
insignatu
insigno
insin
insinamenti
insinaturi
insinu
insirisce
insirita
insiriti
insiritu
insiste
insisti
insistutu
insolitu
inspirata
inspirati
inspiratu
inspirazione
inspirazioni
inspirendu
instabili
instabilita
instabulita
installazione
installonu
instant
instapaper
instaura
instaureghja
institut
institute
instituto
insu
insubre
insuccessu
insufficenti
insufficienti
insulare
insulari
insularis
insurrezzione
insurrizioni
int
intagliadori
intantu
intardisci
intaressa
intaressi
intaressu
intarissa
intarissanti
intarissata
intarissatu
intarisso
intarmidiariu
intarplanitariu
intarprita
intarpritata
intarpritati
intarpritatu
intarpritazioni
intarramentu
intarratu
intarroga
intarrompi
intarrottu
intarsizioni
intarsizzioni
intarstiddari
intarvalli
intarvallu
intarvena
intarveni
intarventi
intarventu
intarvista
intasta
intatta
inte
integra
integrale
integrali
integralita
integralmente
integrata
integratu
integrazione
integrita
inteivvistha
intellettuale
intellettuali
intelligent
intelligenza
intellighjenza
intempiamentu
intenda
intende
intendendu
intendi
intensa
intensi
intensifico
intensita
intensu
intenti
intentu
intenzione
inter
intera
interamente
interazzione
interazzioni
intercontinentale
interdettu
interdisce
interditu
interdizzione
interessa
interessante
interessanti
interessatu
interesse
interessi
interessu
interferenza
interi
interiamente
interior
interiore
interiori
interissatu
interjectum
interliga
interlingua
interlingue
intermedia
intermediu
intermidiarii
interna
internamentu
international
internationale
internatu
internazionale
internaziunale
internaziunali
interne
internet
interni
interno
internu
interpretata
interpretatu
interpretazione
interpretazioni
interpreti
interpritate
interpritatu
interpritazione
interpriteghja
interrilazione
interroga
interromania
interrugatu
intersizzioni
interstellar
interu
intervallu
intervene
intervensenu
interventi
interventisti
interventu
intervenzione
intervista
intervucalica
intesa
intesi
intesu
inti
inticciu
intiera
intiere
intieri
intieru
intigra
intigrali
intigrata
intigratu
intigrazioni
intillettu
intillettuali
intimu
intimuritu
intinzioni
intiriamenti
intirvaddati
intitulata
intitulatu
intitulazioni
into
intoppu
intorno
intornu
intraduci
intraduttu
intramonti
intrappula
intrappulati
intraprende
intraprese
intrapresi
intrata
intrate
intrati
intrattene
intratteni
intrattenimentu
intrei
intreia
intreiu
intrendu
intrevu
intri
intria
intriani
intricciata
intricciati
intrinseca
intritini
introdotta
introduce
introduction
introdussini
introdutta
introdutte
introdutti
introduttu
introduzione
introitu
intrudotta
intruduce
intruducendu
intruducia
intrudussi
intrudutta
intrudutti
intruduttu
intruduzione
intruduzioni
intruduzzione
intrusioni
intruta
intruti
intrutu
intuitivu
intuttu
intybus
inu
inula
inultre
inumazione
inundati
inundazione
inundazioni
inutile
inutule
inutuli
inv
invade
invadiscinu
invadita
invaditu
invalides
invarianti
invasi
invasione
invasioni
invasore
invasori
invasu
invece
invechja
inveci
inventa
inventariu
inventata
inventatu
inventore
invenzione
invenzioni
invernale
inverness
invernu
inversa
inversi
inversione
inversu
invertebrati
investi
investimenti
investimentu
investisce
investitori
investitura
investment
invia
inviata
inviate
inviati
inviatu
invicta
invicti
invidia
invinta
invintariu
invintata
invintati
invintatu
invintore
invintori
invinzione
invinzioni
invio
invirnali
invirnata
invirtibrati
invisibile
invisibili
invistimentu
invistitu
invita
invitata
invitati
invitatu
invito
invitu
inviu
involucru
invuca
invucatu
invucazioni
invucheghja
inziccaturi
inzuccherata
io
iolcu
ion
ionesco
ioni
ionia
ionica
ionichi
ionicu
ionie
ionisazione
ioniu
ionizzazione
iotapata
iowa
ip
ipa
iperattivu
iperbolica
iperbolicu
ipercumplessi
iperreali
iperuraniu
iphone
ipl
ipo
ipochilu
ipocuristicu
ipogea
ipogeu
ipotese
ipotesi
ippia
ippolita
ippolitu
ippona
ippucrena
ippucrene
iprage
ipsa
ipugei
iputenusa
iputesa
iputesi
iputetica
iputeticu
iputizeghja
ir
ira
iraccu
irachenu
irae
iran
iraniani
iranianu
iranu
iricolor
iridaceae
iris
irish
irlanda
irlandese
irlandesu
iron
ironica
irraghjamentu
irraziunale
irraziunali
irredente
irregulare
irregulari
irregularis
irrigazioni
irrigulari
irunia
irving
irwin
is
isa
isaac
isabel
isabella
isaevic
isbagliu
isbn
iscendu
ischia
isci
iscia
isciuta
isciuti
isciutu
iscozia
iscritta
iscritte
iscrittu
iscrive
iscrivi
ise
isempiu
isernia
isie
iska
isla
islam
islamica
islamichi
islamicu
islamu
island
islanda
islandesa
islandese
islandesi
islandesu
islands
isles
ismael
iso
isocrate
isoetaceae
isoetes
isola
isolacciu
isole
isonzo
isonzu
isotopi
isotopu
isotupi
isotupu
ispagna
ispanica
ispira
ispiradori
ispirata
ispirati
ispiratu
ispirazione
ispirazioni
ispiro
israel
israele
israeli
israelianu
israeliti
israiliana
israiliani
israilianu
iss
issa
isse
issi
issu
issue
issǝ
ist
ista
istallazione
istanbul
istanti
istanza
istas
istate
istati
istatina
istatini
istitui
istituita
istituiti
istituitu
istituto
istitutu
istituzionale
istituzione
istituzioni
istituziunali
istmu
istoria
istrada
istria
istriana
istriutu
istrorumenu
istu
isula
isulacciu
isulamentu
isulana
isulane
isulani
isulanu
isulata
isulate
isulati
isulatu
isule
isuledda
isuletta
isuli
isulimpichi
isulotti
isulottu
isumorfu
isumurfismu
isusceli
isutopica
isutopichi
isvizzara
it
ita
itaca
italchjanu
italia
italiae
italian
italiana
italiane
italiani
italiano
italianu
italica
italiche
italichi
italicu
italicum
italo
italofoni
italu
italy
itasca
item
iteru
itg
iti
itinerarii
itinerariu
its
ittiti
ittitu
itu
itunes
iu
iucn
iugoslava
iugoslavia
iulia
iunizati
iunusfera
ius
iv
iva
ivan
ivana
ivanu
iviu
ivo
ivrea
ivu
ix
ixu
iz
ize
izzard
j
ja
jabal
jabr
jack
jackie
jackson
jacob
jacoba
jacobson
jacoby
jacopo
jacopone
jacques
jae
jagger
jaime
jake
jaleel
jamain
james
jameson
jan
jane
janeane
janeiro
janine
january
japonicus
jardin
jardine
jared
jason
jaure
java
javier
jawaharlal
jay
jaysus
jaza
jazz
jc
je
jealousy
jean
jeanmonod
jeff
jefferson
jeffrey
jemaine
jenkins
jenner
jennette
jennifer
jennings
jenny
jeremy
jerome
jerry
jersey
jesgia
jesse
jessica
jest
jestem
jesu
jesus
jet
jete
jeter
jetzt
jeune
jeuner
jeux
jevons
jewish
jh
jim
jimmy
jiroux
jkd
jo
joa
joan
jobs
joe
joel
joey
joffre
johan
johann
johanna
johannes
johansson
john
johnny
johnson
joker
joles
jon
jonathan
jones
jonny
jopek
jordan
jorge
jornu
jose
joseba
josep
joseph
josh
jostedalsbreen
joudi
joule
jour
jourdain
journal
jovi
jovian
jovis
joy
joyce
jpeg
jpg
jr
ju
juan
jubatus
judex
judo
judy
juifs
jules
julia
julian
julie
julien
julio
julius
july
jun
juncaceae
junceum
juncus
june
jung
jungle
juniperus
juno
juornǝ
jupiter
just
justify
jutland
juvenal
juventus
jya
k
ka
kaaris
kabocha
kaddish
kafka
kagera
kaiser
kaiserliche
kal
kale
kali
kalliste
kamala
kamchatka
kanal
kane
kansas
kant
kantner
kara
karajan
karakorum
karambit
karate
karen
karl
karlsruhe
karma
kars
kasem
kashmir
kassel
kassiti
kasuga
kate
kath
katherine
katt
katy
kauffmann
kaufman
kaup
kavner
kazakhstan
kazimierz
ke
keane
keanu
keaton
keaveney
kebab
kebir
kee
keegan
kegan
kehr
keith
kellerman
kellner
kelly
kelsey
kelu
kelvin
kemal
kempler
ken
kendall
kendrick
kennedy
kenneth
kent
kentucky
kenya
kepler
kepleru
kevin
key
keyes
keynes
keynesianisimu
keys
kg
khaldoun
khaldu
khaldun
khaled
khan
kharkov
khartoum
khartum
khary
khatib
khmer
khuong
khwarizmi
ki
kibo
kick
kickboxing
kid
kiefer
kiel
kiev
kievianu
kilimanjaro
kill
kills
kilo
kilomitri
kilomitru
kim
kin
kind
king
kingdom
kinshasa
kinto
kirche
kirchner
kiss
kit
kita
kitchener
kitt
kj
kjosfossen
klaus
klein
klez
klincksieck
km
knight
knopfler
know
ko
koch
kolkata
kolonka
konarski
kong
konghou
konghu
konrad
kor
kore
korsika
kosovo
koteas
kowalski
krasnodar
kratt
kraussiana
kreutz
krimi
kris
kristofferson
kruger
krupp
kruta
ku
kubad
kuiter
kull
kung
kunis
kunsilli
kuratowski
kuri
kuro
kurpfalz
kurt
kvinnafossen
kyiv
kylix
kyoto
kyrie
l
la
laa
labbri
labbru
labeddu
labellu
labeouf
labirintu
laboratoriu
labridae
labrinae
labrus
labs
laburatorii
laburatoriu
laca
lacatu
lace
lacerta
lacertidae
lacon
lactarius
lactea
lacuna
lacuscurtius
lacustri
lade
ladinu
ladislao
ladislau
ladone
ladruncellu
lady
laeken
laelia
laerzio
laerziu
laetiporaceae
laetiporus
laetitia
laffille
laga
laghi
lagna
lagnanza
lagni
lagnu
lago
lagraulas
lagrime
lagu
laguna
lagurus
lahlou
laicu
lake
laki
lalalla
lalalleru
lalanne
lalleru
lam
lama
lamaghja
lamaghjonu
lamarque
lambata
lambert
lamberto
lame
lamenti
lamentu
lametti
lami
lamiaceae
lamiales
lamine
lampa
lampani
lampanti
lampanu
lampata
lampati
lampatu
lampedusa
lampendu
lampi
lampo
lampu
lampuga
lana
lance
lanceulata
lanceulati
lanci
lancia
lanciafiamme
lancianu
lanciata
lanciati
lanciatu
lancie
lancio
lanciu
land
landanu
landau
landi
landna
landsgemeinde
landsturm
landu
landwehr
lane
lanfranchi
lang
lange
language
languages
langue
lani
lanius
lanka
lannister
lanterna
lanterni
lanu
lanughjina
lanza
lanzoni
laomedonti
laos
laparedda
lapis
lapiti
lapponica
lar
lardu
larenzu
laretu
larga
largamente
largamenti
large
larghe
larghezza
larghi
largu
lari
larici
laricio
lariciu
laridae
larione
larissa
lariu
larnaca
larry
larsa
larter
larus
las
lascemu
lascendu
lascia
lasciandu
lasciani
lascianu
lasciata
lasciate
lasciati
lasciatu
lasciava
lasciavanu
lascio
lascionu
lasciu
laser
lassa
lasso
last
lastra
lastri
lat
late
latenti
laterale
laterali
lateran
lateranu
laterna
laterza
lathyrus
lati
latifolia
latin
latina
latine
latini
latinisazioni
latinoamericanu
latinu
latirali
latiralmente
latitudina
latitudine
latitudini
latri
latrodectus
latru
lattaghja
lattaghjolu
lattaredda
latte
lattea
latti
lattonu
latu
laudes
laudi
laugh
laura
lauraceae
laurea
laurent
lauria
laurus
lausanne
lausberg
laut
lauter
lautner
lautrec
lava
lavandula
lavanu
lavasina
lavativu
lavatoghju
lavatu
lave
lavezzi
lavezzu
lavi
lavighju
lavigne
lavinium
lavis
lavisu
lavora
lavoratori
lavori
lavoru
lavu
lavuradori
lavuranti
lavurata
lavurazione
lavurazioni
law
lawrence
laws
laxiflora
laye
layer
layu
lazarettu
lazaru
laziale
laziali
lazio
laziu
lb
lbin
lc
lcini
lcinu
ldǝ
le
lea
lead
leader
league
leah
leandri
leaning
learned
leary
lebbii
lebbiu
lebecciu
lebel
lebesgue
leca
lecca
lecce
lecci
leccia
leccinum
lechi
leclerc
lecoin
leconte
leda
ledger
lee
left
leftrightarrow
lega
legale
legali
legami
legate
legatu
legazia
lege
legend
legenda
legendaria
legendarie
legendariu
legende
legera
legge
leghe
leghja
leghje
leghji
legione
legioni
legislative
legislativu
legislatore
legislazione
legna
legni
legnu
leguizamo
legumi
lei
leia
leiani
leibniz
leicestershire
leida
leigh
leikanger
leipzig
leitmotiv
lelle
lelletta
lembu
lemma
lemmi
lemno
len
lena
lengua
lenin
lennon
lenny
lenta
lentibulariaceae
lentini
lentiscus
lentu
lenza
lenze
lenzolu
leo
leon
leonard
leonardo
leonardu
leone
leonelli
leonello
leonese
leonesi
leonetti
leonhard
leoni
leonid
leonida
leonoro
leonu
leopardi
leopoldo
leopoli
lepidoptera
lepista
lepru
leptophylla
lepus
leq
lerna
les
lesja
lesses
lessical
lessicale
lessicali
lessicu
lessiculugia
lessing
lessons
lesta
lester
lestri
lestrigoni
lestru
lestu
let
lethal
lethwei
letia
letizia
leto
letsie
letta
lettara
lettari
letter
lettera
letteraria
letterarie
letterariu
letteratura
lettere
letterman
letteron
letti
lettonia
lettore
lettu
lettunia
lettura
leunardu
leurs
lev
leva
levante
levantu
levi
levine
levra
levrault
levu
lewis
lewisohn
lex
lexical
lez
lezioni
lezotu
lfr
lg
lgica
li
lia
liami
liamone
liamu
liani
liata
liati
liatu
liava
lib
libanu
libara
libarata
libarati
libaratu
libarazioni
libareghja
libarendu
libari
libarta
libaru
libecciu
liber
libera
liberal
liberale
liberali
liberalisimu
liberamente
liberata
liberatore
liberatu
liberazione
libereghja
liberi
liberia
liberta
libertadores
liberte
liberty
liberu
libia
libicu
libor
libra
librairie
libraria
library
libre
libretti
librettu
libri
libro
libru
lica
licaoni
licci
licei
liceiu
license
licenza
licenzia
licenziati
licenziatu
licenzie
liceu
licheni
licinio
licofrone
licore
licori
licu
licuru
lidi
lidia
lidii
lidiu
lie
liechtenstein
liegi
lien
liendu
lieutenant
life
liffey
liga
ligali
ligame
ligamentu
ligami
ligamu
ligata
ligate
ligati
ligatu
ligenda
ligende
ligeru
liggi
lighe
lighjenda
lighjendi
lighjeri
lighjete
lighjindaria
lighjindariu
lighjiramenti
lighjislativu
lighjislatori
lighjislazioni
lighjittimita
lighjittimu
light
lightgrey
lights
ligittima
ligna
lignamu
lignitu
lignosa
ligue
ligumi
ligura
ligure
liguri
liguria
liguru
ligustica
like
lila
liliaceae
liliales
liliopsida
lilium
lille
lima
limassol
limba
limbara
limbosperma
limea
limenitis
limita
limitata
limitati
limitatu
limitazioni
limite
limiteghja
limitendu
limiti
limitrofi
limitu
limodorum
limoges
limon
limone
limoniu
limonium
limonu
limosa
limosinu
limpia
limu
lince
linci
lincoln
linda
lindell
lindsey
lindumane
lindumani
lindustriali
line
linea
lineare
lineari
linee
linegrey
linen
linga
linghi
lingu
lingua
linguadocianu
linguaghji
linguaghjiu
linguaghju
linguagiu
linguanostra
lingue
lingui
linguista
linguisti
linguistic
linguistica
linguistiche
linguistichi
linguistici
linguistics
linguisticu
linguistu
linguizzetta
linia
liniari
linie
linii
link
linkin
linnaeanum
linnaeus
linne
linneu
linteau
lintel
linticulari
linu
linux
linz
linzolu
lio
lion
liona
lione
lionel
lionesu
lioni
lionu
lipari
liparis
lipsia
liquida
liquidu
liquitu
lira
lire
liri
lirica
liriche
liriopi
lis
lisa
lisandrina
lisandru
lisbona
lisce
lisci
liscia
lisciu
lisciva
lisle
lissabon
lissandru
lissicali
list
lista
liste
listening
listera
listessa
listesse
listessi
listessu
listi
listincu
listinu
lisula
litarnu
literaria
literarii
literariu
literatura
lithgow
liti
litica
liticanti
litichi
litiu
litoral
litovsk
litri
littarati
littaratura
litte
litteralmente
litteraria
litterarie
litterarii
litterariu
litteratura
littica
littiralamenti
littiratura
little
littori
littura
litturale
litturali
litturi
lituania
lituanu
liturale
liturali
liturgia
liturgica
liturgicu
litusfera
liu
liunardu
liv
livakovic
livante
livanti
livantu
live
liveddi
liveddu
livelli
livellu
livente
liverpool
livesi
livi
livia
lividus
liviu
livorno
livornu
livre
livrea
liwe
lix
liza
lizioni
lizzioni
ll
lla
llanelli
llau
llaut
llauti
llauts
lle
llegenda
ller
lli
llibres
llica
llosa
lloyd
llu
lluberas
llywelyn
llǝ
lm
lo
lobachevsky
lobi
lobu
loca
locale
locazione
loch
lochi
locke
loco
locu
locudoru
locusantu
locutori
locuzioni
loda
lodi
lodovico
lodu
loeselii
lofoten
log
loggia
loghi
loghja
loghje
logica
logichi
logicu
logo
logos
logotipu
logu
logudorese
logudoresu
logudoru
loguduresu
logusantu
loira
loire
loiret
loiri
loisel
lojac
lokali
lolghi
lombarda
lombardi
lombardia
lombardo
lombardu
lomellini
lomellino
lonchitis
london
londra
long
longa
longhe
longhi
longicornu
longifolia
longitudina
longitudinale
longitudine
longobardi
longu
longubardi
longwood
lonicera
lonzu
look
lope
lopez
lopigna
lord
lordi
lorena
lorenese
lorentz
lorenz
lorenzana
lorenzi
lorenzo
lorenzu
loretu
loriani
loro
loru
los
losange
lost
lota
lotta
lottanu
lotte
lotti
lotu
lou
louis
louise
louisiana
lour
louvre
lovato
love
lovecraft
lover
loves
lovia
lovitz
lovvia
low
lowe
lowell
lower
lowlands
loxia
loxodonta
loyola
lozzi
lp
lr
lt
ltd
lu
lubbu
lubiana
lublin
luc
luca
lucale
lucali
lucalisazione
lucalisazioni
lucalita
lucalizata
lucalizati
lucalizazione
lucalmente
lucanidae
lucanu
lucanus
lucas
lucca
lucchesi
lucchesu
lucciana
lucciardi
luccicanti
luccioni
luce
luceat
lucerna
lucetta
luci
lucia
luciana
luciani
luciano
lucianu
lucicanti
lucie
lucien
lucio
luciu
lucius
lucky
lucrezia
lucu
lucumonu
lucutori
luda
luddu
ludendorff
ludes
ludi
ludovico
ludovicu
ludwig
lugdunum
lughjamentu
lughjetti
lugicamenti
lugistichi
lugiziali
lugliano
lugliu
lugu
luguduresu
lui
luicciana
luiggi
luighj
luigi
luino
luis
luisa
luisiana
lukas
luke
lumaca
lumbarda
lumbardi
lumbardia
lumbardu
lume
lumi
luminosa
luminosi
luminosu
luminusita
lumio
lumiu
lumu
luna
lunaria
lunch
lune
lunga
lungamenti
lungarina
lungarine
lungarini
lungarinu
lunghe
lunghezza
lunghezze
lunghezzi
lunghi
lunghignano
lungitudina
lungitudine
lungoni
lungu
lungubardi
lungura
luni
luntana
luntananza
luntani
luntanu
luogosanto
luonghǝ
lupa
lupercale
lupi
lupinu
lupo
lupu
lupus
lupǝ
lurago
luras
lurenzu
lurettu
luri
lus
lusignoli
lusitanu
lussemburghese
lussemburgu
lussu
lussuosi
luster
lustrati
lutea
luteranesimu
luteus
lutra
lutta
luttisciamentu
lux
luzzi
luzzipeu
lviv
lwo
lycoperdon
lycopodiaceae
lycopodiophyta
lycopodiopsida
lydia
lydnevi
lyndon
lynx
lyra
lythraceae
lǝ
lə
m
ma
maastricht
mabo
mac
maca
macau
maccaone
maccarona
macchi
macchiaroli
macchie
macchina
macchine
macchini
macdonald
maceddu
macedonia
macedorumenu
machaon
machete
machine
machja
machjavelli
machje
machji
macidonia
macina
macinaghju
maciste
mackenzie
macknight
macleod
macmillan
macri
macro
macroeconomia
macrolepiota
mactan
maculata
mad
madagascar
madagascara
madalena
madama
madame
madamicella
maddalena
maddie
made
madeira
madera
madia
madison
madona
madonna
madrasa
madre
madrelingua
madrid
madridi
madrigali
madunnetta
madunuccia
maesta
maestosa
maestra
maestracci
maestre
maestri
maestria
maestru
maffia
maga
magazeni
magazenu
magazine
magazini
magazinu
magdalena
magellanu
magghju
maggio
maggior
maggiore
maggiori
maghjali
maghjatu
maghjina
maghjine
maghjior
maghjiore
maghjiu
maghjonu
maghjori
maghju
maghjuramenti
maghreb
magi
magia
magic
magica
magichi
magicu
magione
magioranza
magiore
magiori
magistrali
magistrates
magistrati
magistratu
magistratura
magistrature
magiurdomu
magiurita
magma
magmatica
magmatichi
magna
magnanimu
magnatu
magnesiu
magnetica
magnetichi
magneticu
magnetosfera
magni
magnifica
magnifichi
magnificu
magnitude
magnitudina
magnitudine
magnoliophyta
magnoliopsida
magnu
magnum
magona
magra
magrebu
magri
magru
magu
magumettu
magumetu
magunella
maguy
magydaris
mah
mahal
mahatma
mahon
mai
maia
maigret
mail
main
mainarde
maine
mainstream
maio
maiore
maiori
maire
mais
maison
maista
maistosi
maistrali
maiuranza
maiuscula
majalis
majella
majeure
majo
major
majǝ
make
maksimir
mal
mala
malacca
malacedda
malaceddu
malacella
maladetta
maladettu
maladetu
maladi
maladisci
maladizioni
maladizzioni
malaparte
malaria
malaspina
malati
malatia
malatie
malatii
malatu
malaui
malavita
malaxis
malaysia
malba
malcolm
male
maleditu
maledizione
malefichi
malesia
malet
malgradu
malherbe
mali
maliacu
malick
malidizioni
maligni
malincunia
malizia
malleulare
mallorca
malma
malmignattu
malta
maltempu
maltesa
maltese
maltesi
maltesu
malthus
malti
maltin
malu
malumore
malva
malvaghji
malvaghju
malvu
malǝ
mama
mambrini
mameli
mamilianu
mamma
mammalia
mammaso
mammazia
mamme
mammi
mammiferi
mammiferu
mammona
man
mana
manata
manaus
manc
manca
mancani
mancanti
mancanu
mancanza
mancata
mancati
mancatu
mancava
mancha
manchendu
manchester
manchon
mancinelli
mancini
mancinu
manco
mancu
manda
mandai
mandaiani
mandarina
mandarini
mandata
mandati
mandatu
mande
mandel
mandela
mandili
mandiraja
mando
mandria
mandrie
mandrii
mandulinu
mane
maneghja
manen
manera
manere
maneri
manetta
manfredi
manfredonia
manga
manganese
manganesi
manganu
manghja
manghjanu
manghjareccia
manghjarecciu
manghjatu
manghjava
manghjo
manghǝ
mangna
mangnatu
mangni
mangnonu
mani
manica
manichi
manicu
manicura
manicure
manie
manifattura
manifestanti
manifestazione
manifestazioni
manifesteghja
manifestu
manifistazioni
manifisteghja
maniglia
manila
manipula
manipulazioni
manitoba
manlio
mann
manna
mannara
mannheim
mannoia
mannu
mannucci
manoach
manoel
manovra
manovre
manovri
mans
mansa
mansella
mansi
manson
mansu
manteddu
mantellu
mantena
mantene
mantenendu
mantenenu
manteni
mantenimentu
mantenini
mantenuta
mantenuti
mantenutu
mantinendu
mantini
mantinimentu
mantiniti
mantinuta
mantinuti
mantinutu
mantis
mantova
mantovano
mantu
manu
manuale
manuali
manuel
manufatti
manuscritti
manuscrittu
manuvrava
manǝ
maona
maori
map
mapa
mappa
mapsto
mar
maracaibo
marana
maratona
maratu
maravigli
maraviglia
maraviglie
marbeuf
marc
marca
marcanti
marcantili
marcanu
marcanzii
marcara
marcata
marcate
marcati
marcatu
marcatura
marcature
marcedda
marceddu
marcel
marcella
marcellesi
marcelli
marcello
marcellu
marcelo
march
marche
marchendu
marchese
marchesi
marchesu
marchetti
marchi
marchighjanu
marchini
marchja
marchjadori
marchjatu
marchjava
marchji
marchjo
marcia
marciana
marco
marconi
marcu
marcuri
marduk
mare
marea
maredda
maree
mareghju
marei
marek
marena
marengo
maresciallu
marescialu
margaret
margarita
marge
margherita
marghjini
marginale
marginatus
margine
margona
margonu
margot
marguerite
mari
maria
mariana
mariani
marianna
marianni
mariano
marianu
marie
marietta
marietti
marignana
marilyn
marin
marina
marinacciu
marinare
marinarescu
marinari
marine
marinella
marini
marinu
marinum
marinus
mario
mariola
marione
marisciale
marisciali
mariscialu
marita
maritarraniu
maritata
maritate
maritatu
mariteddu
mariti
maritima
maritimum
maritimus
marito
marittima
marittime
marittimi
marittimo
marittimu
maritu
mariu
marius
marjorie
mark
marketing
marlene
marley
marlon
marmara
marmaru
marmeri
marmeru
marmotta
marna
marne
maroccu
marone
maronita
marrone
marronu
marry
mars
marsala
marsamxett
marseglia
marseille
marshall
marsi
marsica
marsicana
marsicanu
marsiglia
marsolino
marta
martagon
marte
marteddu
martellu
marti
martial
martianus
martin
martini
martinica
martino
martinsen
martinu
martire
martiri
martiriu
martiru
martti
martyrum
marx
marxalle
mary
maryland
maryse
marziale
marziali
marziana
marziu
marzu
marzulina
marzulinu
marzǝ
mas
mascara
mascaratu
mascardi
mascari
mascarone
mascate
masch
maschera
mascherinu
maschile
maschili
maschinenghjewehr
maschio
maschiu
maschji
masci
mascione
masciu
mascula
masculinu
masgera
masgere
masgiolu
masimu
mason
mass
massa
massachusetts
massacrati
massacratu
massacri
massacru
massalia
masse
massena
massesili
massesilu
massey
massi
massiani
massicci
massiccia
massicciu
massili
massilu
massima
massimamente
massime
massimi
massimu
massinissa
master
masterplan
masters
masticu
mastuncellu
masudi
masuri
matalena
match
matema
matematica
matematiche
matematichi
matematicu
mateo
mater
materia
materiale
materiali
materie
materna
materni
maternu
mathbb
mathbf
mathe
mathematica
mathematics
mathieu
mathop
mathrm
mati
matin
matina
matinata
matinati
matique
matiriali
matisse
mato
matra
matrale
matrali
matre
matri
matricariifolium
matrice
matrici
matrimonii
matrimoniu
matt
matta
matte
mattea
mattei
matteiu
matteo
matteu
matthew
matthias
mattia
matticci
matticciosa
matticciu
mattina
mattona
matura
maturazione
maturi
maturita
maturu
mau
maumettu
maure
maurice
mauritania
mauritanica
mauritius
mauriziu
mauro
maurras
mauru
maus
mausole
mausoleu
mausuleu
mauve
mavka
max
maxia
maxim
maxima
maximilian
maximus
maxwell
may
maya
maybe
maynard
mayor
mays
mazel
mazelgenevie
mazza
mazzarino
mazze
mazzeri
mazzerisimu
mazzola
mazzone
mazzu
mazzulina
mazzulu
mba
mbara
mbox
mbuli
mbulu
mbǝ
mc
mccaffrey
mccann
mccartney
mcclurg
mcconaughey
mcconnell
mccurdy
mcdonald
mcdowell
mcgrath
mcgraw
mchale
mckinley
mclos
mcmahon
mcshane
mdina
me
mea
meandri
meaney
measure
mecca
meccanica
meccanicu
meccanismi
meccanismu
meccanizati
meceniu
meckel
med
meda
medaglia
medaglione
meddu
medea
medelli
medi
media
mediana
mediante
medianu
mediateca
mediatori
medica
medichi
medici
medicina
medicinale
medicinali
medicine
medico
medicu
medie
medieval
medievale
medievali
medievu
medii
mediivali
medik
medina
medita
meditarrania
meditarranii
meditarraniu
mediterranea
mediterranean
mediterranei
mediterrania
mediterranie
mediterranii
mediterraniu
meditterraniu
mediu
mediuevu
medu
medusa
mefite
mega
megalithic
megaliti
megalitichi
megan
megara
meghju
meglenorumenu
meglio
megliu
mehmet
mei
meia
meiji
meitner
meiu
meißen
mel
mela
melanesia
melanocephala
melanura
melba
melbourne
mele
meleagris
melfa
melfi
meli
melissa
melita
melite
melki
mello
mellut
melo
meloni
meloria
melqart
melu
meludiosu
membra
membre
membri
membru
memoria
memorial
memorie
memories
memphis
men
mena
mendoza
mene
menelau
meni
mennula
mensili
mensola
ment
menta
mentale
mente
mentha
menti
mentitu
mentre
mentri
ments
menu
menziesii
menzione
meo
meotidi
mequina
mequinenza
mer
mera
merca
mercante
mercanti
mercantile
mercati
mercator
mercatu
mercenarii
mercey
merci
mercoriu
mercurii
mercuriu
merda
merdosu
meredith
merendera
merger
mergus
meri
meria
mericanu
meridiana
meridiane
meridianu
meridionale
meridionali
meridionalis
meridione
meridiunale
meridiunali
merimee
meriti
meritu
merleau
merlinu
merlu
merluzzu
meropidae
merops
merre
merri
merria
merru
merry
merthyr
mertinu
meru
merula
merulu
merusaglia
mes
mesa
mescia
mese
mesembryanthemum
mesi
meskimen
messa
messageri
messaggeru
messagiu
messe
messi
messia
messicana
messicanu
messico
messicu
messier
messina
messinianu
messu
mesta
mesuputamia
mesuputamica
mesuputamichi
meta
metafisica
metafunia
metal
metalli
metalliche
metallichi
metallicu
metallu
metanu
metapontu
metempsicosi
meteo
meteore
meteoroide
meteorologia
metode
metodi
metodulugia
metri
metrica
metriche
metro
metropolitan
metropolitana
metropuli
metropulitana
metru
metrupulitana
metrupulitanu
metta
mette
mettendu
mettenu
metti
mettia
mettilu
mettini
metudi
metudu
metz
meu
mev
mexicanu
mexico
mey
meyrignac
mez
meza
mezaluna
mezana
mezanotte
mezanotti
mezaretta
mezavita
mezi
meziornu
mezu
mezupunente
mezupunenti
mezz
mezzana
mezzi
mezzogiorno
mezzu
mg
mhnt
mi
mia
miami
mica
micaeli
micaelli
micalassu
micalona
micca
miccanica
miccanichi
miccanicu
miccanisimi
miccanisimu
micene
micenia
micenii
miceniu
michael
michahellis
michalopoulos
michel
michelangeli
michelangelo
michelanghjulu
michelanu
michele
micheli
michelle
michiel
michigan
michoaca
mick
mickiewicz
micro
microchip
microgravita
microme
microphylla
microsoft
micrunesia
mid
midaglia
middi
middle
middlesex
midfielder
midi
midiana
midiazione
midievu
midland
midlands
midnight
midwest
mie
mifsud
mighele
might
migli
migliaia
migliaie
migliaii
miglior
migliora
miglioramenti
migliore
migliori
migliu
migliura
migliuramenti
migliuramentu
migliurata
migliuratu
mignani
migne
mignoculi
migrans
migratori
migrazione
migrazioni
miguel
mihrimah
mike
mikes
mikhail
miklo
mila
milaghja
milan
milanesia
milano
milanu
milanzana
milazzo
mile
milelli
milena
miles
miletu
miley
miliardarii
miliardariu
miliardi
miliardu
milic
milione
milioni
milionu
militant
militante
militanti
militara
militare
militaresca
militareschi
militarescu
militari
militarmente
militaru
milizia
milizie
mill
milla
millante
mille
milleliri
millennii
millenniu
miller
millet
milliardi
millimitri
millione
millioni
millions
milo
milonga
milton
milu
milvi
milvu
milvus
milwaukee
mimas
mimoria
mimorii
mimuriali
min
mina
minacce
minacci
minaccia
minacciata
minacciate
minacciati
minacciatu
minacciava
minaccio
minadori
minangkabau
minaria
minas
minatori
minatu
mind
mine
minera
minerale
minerali
mineralogicu
mineraria
minerarie
minerarii
minerariu
minere
mineria
minerva
minestra
ming
minh
mini
miniato
miniatura
miniconi
miniere
minieri
minilau
minima
minimi
minimiza
minimu
minimus
minirali
ministeriali
ministeru
ministra
ministri
ministru
minnana
minneapolis
minnesota
mino
minoica
minoicu
minor
minorca
minore
minori
minority
minossu
minotauru
mintali
mintrastu
mintucciu
mintuva
mintuvata
mintuvate
mintuvati
mintuvatu
mintuveghja
minuranza
minuranze
minuranzi
minuritaria
minuritarie
minuritarii
minusculi
minusculu
minuta
minute
minuti
minutu
minzione
minzioni
minziuna
minziunata
minziunati
minziunatu
minziuneghja
minziuneghjani
mio
mioceni
miollis
miomu
mique
mira
miraculi
miraculosa
miraculu
miraflores
miranda
mirandese
mirandesu
mirbeau
mire
miretani
miri
miriam
miridianu
miridiunale
miridiunali
miro
mirria
mis
mischia
mischiata
mischiatu
mischii
mischinu
mischiu
mischju
mise
miserere
miseria
misericordia
miserie
miserii
misfidenti
misgia
misincu
misogina
misoginu
miss
missa
missaghjeri
missaghji
missaghju
misse
misseri
missi
missia
missiavu
missili
missina
mission
missione
missioni
mississippi
missiunariu
missouri
missu
mista
misteri
misteriosa
misteriosu
misteru
mistery
misti
mistica
mistiche
mistichi
misticisimu
misticu
mistiere
mistieri
mistieru
mistiriosa
mistral
mistu
misura
misurani
misuranu
misurata
misurate
misurati
misuratu
misurava
misurazioni
misure
misurendu
misuri
mit
mita
mitale
mitali
mitalli
mitallurgia
mitamorfichi
mitamurfisimu
mitamurfosa
mitamurfosi
mitch
mitchell
mithra
mithraeum
miti
mitica
miticu
mitiga
mitiurulogichi
mito
mitochondrial
mitologia
mitolugia
mitra
mitragliatrice
mitragliatrichi
mitragliatrici
mitragliosa
mitragliose
mitreu
mitta
mittelalter
mittendu
mitti
mittia
mittiani
mittiticciu
mitu
mitudulugia
mitugrafi
mitulogia
mitulogica
mitulogichi
mitulogicu
mitulugia
miu
mix
mizana
mjøsa
mk
mls
mm
mmari
mmǝna
mmǝnǝ
mn
mnisma
mnt
mo
mobile
mobili
mobilitazione
mobuli
mocci
mod
moda
modalita
moddi
mode
modellu
modena
modern
moderna
moderne
modernu
modi
modifica
modifier
modigliani
modu
modulu
moench
moghul
moglia
moglie
mogliu
mohamed
mohammad
mohammadian
moi
moines
moires
moita
moitinchi
moivre
mol
mola
molare
moldavia
moldavu
molecule
moli
molibdenu
molinier
molisanu
molise
moll
molla
molle
mollis
molluschi
molluscu
molo
molotov
molta
molte
molti
moltifau
moltissimi
moltke
moltu
molu
molucchi
moly
moma
moment
momentu
mommsen
mon
mona
monachesimu
monachi
monachus
monaci
monaco
monacu
monarcas
monarchia
monasteri
monasteru
moncada
monda
mondadori
monde
mondi
mondiale
mondo
mondu
monegascu
monegros
monet
moneta
money
monfalcone
mongula
monguli
mongulia
mongulu
monica
monie
moniteur
monna
monnier
monogramma
monoica
monroe
mons
monsieur
monsignore
monsignori
monspeliensis
monsterman
monsters
mont
monta
montagui
montaigne
montalba
montale
montana
montanus
montatticu
monte
montecassinu
montecatini
montegrossu
montel
monteleone
montem
montemaio
montenegru
montepulciano
monterrey
montes
montesoro
montesoru
monteverdi
montevideo
montgomery
monti
montibus
monticellu
monticola
monticristu
montifringilla
montilati
montinegru
montis
montmartre
montparnasse
montpellier
montre
montserrat
monuflora
monum
monumentale
monumenti
monuments
monumentu
moon
moore
mora
moracchini
morale
morali
moralia
morat
morati
morddeich
mordi
more
moreau
morelia
morenu
morfologia
morfulugia
morgan
morgenstern
morghi
morgu
mori
moriani
moriano
morini
morio
moris
morisii
morlaccu
morning
moro
morosaglia
morra
morricone
morrison
morse
morsi
morsiglia
morsu
mort
morta
morte
mortella
morti
mortillet
morto
mortu
mortula
moru
mosa
mosaica
mosaicu
mosca
moscati
moscerini
moschatum
mosche
moschettu
moschi
mosciani
mosconi
mose
moser
mossa
mosse
mossi
mossu
most
mostra
mostrani
mostranu
mostratu
mostri
mostru
mostu
mota
motacilla
motacillidae
motbis
mother
moti
motive
motivi
motivu
moto
motti
motto
mottu
motu
moulouya
mountain
mova
move
movi
movie
movini
moya
moyen
moz
mozambicu
mozart
mozza
mozzu
mp
mpanu
mpaza
mpiu
mps
mq
mr
ms
msdalen
msvo
mt
mtsho
mu
muay
mubilisazioni
mubilita
mubilizo
mucale
muccichile
muccichili
muccicosu
much
muchja
muchji
muchju
mucho
mudalita
mudaratamenti
mudarati
mudedda
mudeddi
mudeddu
mudeli
mudella
mudelli
mudellu
mudern
muderna
muderne
muderni
mudernita
mudernu
mudesta
mudeste
mudesti
mudestu
mudiddisazioni
mudifica
mudificata
mudificatu
mudifiche
mudifichendu
mudiglione
mudiglioni
mudulazioni
muerta
mufraggi
muga
mugatu
mughettu
mughja
mugil
mugliuccia
mugnone
muh
muhammad
mujica
mukhtas
mula
muldavia
muleculare
mulhouse
mulinacciu
mulinaru
mulineddu
mulini
mulino
mulinu
mulise
mullizzo
mullus
mulluschi
mulone
multa
multedo
multiceps
multifidus
multinaziunale
multiple
multiplicandu
multiplicata
multiplicativa
multiplicativu
multiplicatu
multiplicazione
multiplicazioni
multiplice
multiplichendu
multiplici
multissimu
multitudina
multitudine
mulu
mulus
mumbai
mumenti
mumentu
mummificatu
mun
munaci
munadi
munaia
munarchia
munarchicu
munarcu
munasteri
munasteru
munasticu
mundani
mundi
mundiale
mundiali
mundo
mundu
mundus
munegasca
munegascu
muneta
munetaria
munete
muneti
mungolia
munich
municipal
municipale
municipales
municipali
municipalita
municipii
municipiu
municipium
munimenta
munimenti
munimentu
munita
munitu
munizione
munizioni
munn
munsignore
munta
muntagna
muntagne
muntagnera
muntagni
muntagnola
muntagnole
muntagnoli
muntagnolu
muntagnosa
muntagnose
muntagnosi
muntagnosu
muntana
muntaninu
muntanti
muntati
muntatu
muntenegru
muntera
muntese
muntesu
munticellu
muntichji
muntona
muntoni
muntonu
muntosa
muntose
muntosi
muntosu
munumenti
munumentu
munumintali
muoni
muonicu
muonu
muqa
muqaddimah
mur
mura
muracciole
murad
muraena
muraenidae
muraglia
muraglie
murale
murali
muralis
muralistu
muralmente
murara
muraria
murarie
murasaki
murat
murate
muratinchi
murato
muratu
muratura
muraturi
murcia
murcigona
mureaux
murella
murena
murendu
murenichi
murenti
muresca
murfulogicu
murfulugia
muri
muriani
muricciu
muridae
muriel
murillo
murina
murire
murlo
murone
murray
murrina
mursiglia
murta
murtali
murtalita
muru
murzu
mus
musa
musca
muscari
muscatu
muscendu
muschea
muschettu
muschi
musciatu
muscicapa
muscicapidae
muscivorus
muscu
musculu
muse
musei
museiu
museo
museu
museum
musi
music
musica
musicale
musicali
musicante
musicanti
musiche
musiculugia
musimon
musnier
mussiu
mussolini
mustafa
mustela
mustelidae
mustelus
mustra
mustratu
mustrendu
mustro
mustruosi
mustruosu
musu
musulamni
musuleu
musulmana
musulmane
musulmani
musulmanu
muta
mutamenti
mutamentu
mutata
mutatu
mutazioni
mute
muti
mutivata
mutivazioni
mutivi
mutivu
muto
mutore
mutori
muttos
mutu
mutua
muvendu
muvimenti
muvimentu
muvra
muvre
muvredda
muvrella
muvri
muvrini
muvronu
muzza
mx
my
myagrum
myanmar
myctophum
myers
mykelti
mykhai
myotis
myoxidae
myrtaceae
myrtales
myrtus
mystery
mythology
mǝ
mǝri
n
na
naas
nabokov
nabulione
nabulionichi
nabulionicu
nabulionu
nacional
nacque
nacqui
nacu
nadez
nag
naghe
nagu
nahhunte
nai
naiade
naiadi
nail
naipaul
naisson
nait
naked
nam
name
namibia
namur
nan
nancy
nang
nanna
nannara
nannari
nanni
nannula
nant
nanta
nantu
nanz
nanzi
nanzu
naper
napier
napole
napoleon
napoleone
napoleoniche
napoli
napuleo
napuleone
napuleoniche
napuletana
napuletane
napuletanu
napuli
napulione
napulionu
napulitana
napulitanu
nara
naracu
narbaturi
narciso
narcissisimu
narcissu
narcissus
nari
narra
narrata
narrativa
narrativi
narrativu
narratu
narrava
narrazioni
naruhito
nasa
nasal
nasale
nasali
nasce
nascenti
nascenu
nascetti
nasci
nascia
nascini
nascisti
nascita
nascite
nasciti
nasconde
nascondi
nascosi
nascosti
nascostu
nascǝ
nassau
nasser
nassu
nasu
nat
nata
natale
natalecciu
natalellu
natalensis
natali
natalia
natalie
natalis
natalǝ
nate
nathalia
nathalie
nathan
nati
national
nationale
nations
nativa
native
nativi
nativita
nativu
nato
natrix
natu
natura
naturae
natural
naturalamenti
naturale
naturali
naturalis
naturalista
naturalistica
naturalistichi
naturalisticu
naturalistu
naturalizata
naturalizatu
naturalmente
nature
naturelle
naturelles
naufragati
naufraghju
naufrago
nauru
navale
navali
navarra
navarrese
navata
navate
nave
navi
naviga
navigabili
naviganti
navigatore
navigatori
navigazione
navigazioni
navighevuli
navo
navy
naxos
nazareth
nazca
nazi
nazianzenu
nazionale
nazione
nazioni
nazireatu
nazismu
nazista
naziunale
naziunali
naziunalisimu
naziunalismu
naziunalista
naziunalisti
naziunalistu
naziunalita
nazlı
nazza
nb
nbrunn
ncavo
nchen
nchez
ncia
ncipe
nd
nda
nde
nder
ndez
ndi
ndrangheta
ndǝ
ne
neapolis
near
neath
nebbia
nebbio
nebbiu
nebiu
nebraska
nebulosa
necessaria
necessariamente
necessarie
necessarii
necessariu
necessita
necessiteghja
necromanzia
necropola
necropoli
necropuli
necrupoli
ned
nederlandese
needle
neerlandese
nef
nega
negativa
negative
negativi
negativu
neglecta
neglectum
negoziati
negra
negroni
negru
neguzia
nehru
nei
neil
neill
nel
nell
nella
nelle
nelson
nemiche
nemichi
nemici
nemico
nemicu
nemmancu
nemmenu
nencia
nentru
neoborbonici
neoclassicu
neolatine
neonu
neotinea
neottia
neottolemo
nepal
nepeta
nepita
neq
ner
nera
nerazzurri
nere
nereidi
neri
nero
nerone
neronu
neru
nervatura
nervature
nes
nesca
nesce
nessun
nessuna
nessunu
net
netrebko
netta
nettamente
netti
nettu
nettuniu
nettunu
network
neu
neuburbonicu
neucha
neuhoff
neuimpressiunisimu
neulitica
neuliticu
neulugisimu
neumann
neunati
neunatu
neutrale
neutrali
neutralisti
neutralita
neutre
neutri
neutrini
neutrinu
neutrone
neutroni
neutru
neuzilandesa
neuzilandesi
neva
nevada
nevado
neve
never
nevi
neville
nevis
new
newark
newhart
newport
news
newton
next
ney
nez
ng
nga
ngc
nge
ngel
ngeles
nghjulu
nghǝ
ngnani
nh
nhat
ni
nia
nibulosa
nibulosi
nic
nica
nicaragua
niccia
niccolo
nice
nicea
niche
nichel
nichellu
nichi
nichja
nichjani
nichjata
nicholas
nicholson
nicissaria
nicissariamenti
nicissarii
nicissariu
nicissita
nicissiteghja
nick
nickele
nickelodeon
nicky
nicola
nicolai
nicolas
nicoli
nicolo
nicosia
nicropuli
nicu
nicula
niculaiu
niculau
niculo
nida
nidi
nidicali
nidificazione
nidificazioni
nidificheghja
nidu
nidus
nie
niebo
niedda
nieddu
niella
niellu
niels
niemeyer
niente
nienti
nietzsche
nieuwe
niga
nigaglioni
nigativa
nigatu
nigella
niger
nigeria
night
nights
nigra
nigris
nigritella
nigrum
niguziati
nii
nika
nikiu
nikola
nikolai
nikolaj
nil
nile
nilu
nima
nimica
nimiche
nimichi
nimicu
nimu
nin
nina
nine
ninfa
ninfale
ninfe
ninfi
nini
ninna
ninnani
ninni
ninnuli
nino
ninu
nio
niolu
nipote
nipoti
nippur
niricciu
niro
nirvana
nisbet
nisciun
nisciuna
nisciunu
nissuna
nissunu
nisun
nisuna
nisunu
nisus
nittamenti
niue
niulinchi
niulincu
niuliticu
nivalis
nivalonu
nivaro
nivellu
nivi
nivincu
nivosa
nivosi
nivuli
nivulosu
nivulu
nixon
nizza
nizzardu
njic
nkele
nmm
nn
nnari
nnicu
nnqvist
nnǝ
no
nobel
nobile
nobili
nobilis
nobis
noble
nobles
nocca
noce
noci
nociu
noctua
nodi
nodosa
nodu
noe
noemi
noi
noia
noir
nois
noise
nola
nolan
nolte
nom
noma
nomab
nomadi
nome
nomen
nomi
nomina
nominativu
nominato
nominatu
noms
nomu
nomuff
non
nona
nonarabi
nonche
none
noneuclidea
nonostante
nonostanti
nonu
nonustante
nonustanti
nonza
nora
norberg
nord
nordafrica
nordafricani
nordamerica
nordamericanu
nordeste
nordestu
nordica
nordicu
nordu
norduccidintali
nordupunente
nordupunenti
nordurientali
norduvestu
norfolk
nori
norma
normal
normale
norman
normandu
normannu
norme
normi
noronha
norrese
norrington
norte
north
northern
norton
norvegicus
nos
nosci
noscia
nosciu
noster
nostra
nostre
nostri
nostro
nostros
nostru
nostrum
nostu
nostus
not
nota
note
notes
notevole
notevolmente
nothing
noti
notice
notoj
notpetya
notre
notte
notti
notu
nouhen
noume
nous
nouveau
nouveaux
nouvelle
nova
novamente
novara
nove
novela
novella
novembre
novi
novicentu
novu
now
nozione
nozze
nozzi
nsson
nt
nta
ntani
ntgen
nther
ntra
nu
nuances
nuaru
nubiliari
nubilta
nucariu
nucenti
nucenza
nuceta
nuchis
nuchisi
nuciolu
nucleare
nucleari
nuclei
nucleoni
nucleu
nuclidi
nuda
nudda
nudeddi
nudi
nudo
nudu
nuenen
nueva
nuevo
nuit
nuits
nuli
null
nulla
nulle
nullu
nulu
numa
numadi
numarali
numari
numarosa
numarose
numarosi
numarosu
numaru
numarusissimi
numata
number
numedalsla
numerale
numerali
numeratore
numerazione
numeri
numerica
numerichi
numericu
numerosa
numerose
numerosi
numerosu
numeru
numi
numica
numichi
numicu
numida
numidi
numidia
numina
numinale
numinali
numinata
numinati
numinativu
numinatu
numinazione
numinclatura
numineghja
numinendu
numino
numitor
nun
nunc
nunda
nunustante
nunzia
nunziante
nunziata
nunziola
nunziu
nuorese
nuoru
nuova
nuovo
nuptiis
nuracu
nuraga
nuragica
nuragichi
nuragicu
nuragu
nurmalamenti
nurmale
nurmali
nurmalmente
nurmana
nurmandi
nurmandia
nurmandu
nurmane
nurmani
nurmannu
nurmanu
nurrica
nurvegesa
nurvegese
nurvegesu
nurvegia
nurvigesa
nurvigesi
nurvigesu
nustalgicu
nustrale
nustrali
nuta
nutabili
nutaghjola
nutaghjole
nutaghjoli
nutaru
nutata
nutati
nutatu
nutazione
nutazioni
nutevulamenti
nutevule
nutevuli
nutizia
nutizie
nutizii
nutrimenti
nutrimentu
nutrisce
nutriscenu
nutrisci
nutriscia
nutriscini
nutritu
nuts
nuttata
nutturna
nutturni
nutturnu
nuturieta
nuva
nuvale
nuvanta
nuvara
nuvedda
nuveddi
nuveddu
nuvella
nuvelle
nuvelli
nuvellu
nuvembre
nuvembri
nuvenariu
nuvesimu
nuvita
nuwa
nuwas
nuzione
nuzioni
nuzziale
ny
nycteris
nycticorax
nyi
nyman
nymphalidae
nza
nzia
nǝ
nǝn
nǝsciunǝ
nə
nən
o
oasi
oasis
oates
obama
obbiettivi
obbligati
obbligatu
obbligu
obertenghi
oberto
obesita
obfa
obiettivi
obiettivu
oblada
oblast
obligatu
obovatum
obra
obres
observatoire
oc
occagnanu
occasione
occasioni
occasiunale
occasiunali
occasiunalmente
occhji
occidental
occidentale
occidentali
occidente
occitana
occitane
occitania
occitanicu
occitanu
occorre
occorri
occorse
occupa
occupanti
occupanu
occupata
occupate
occupati
occupatu
occupava
occupazione
occupendu
occupo
ocde
ocean
oceani
oceania
oceanica
oceaniche
oceanichi
oceanicu
oceanu
ochja
ochjatana
ochji
ochjigrisgiu
ochjirossa
ochjone
ochju
ochre
ochruros
ocra
octave
october
octogesa
oculata
ocymoides
od
odense
oder
odessa
odia
odinu
odio
odissea
odisseu
odiu
odora
odoratissima
odoratu
odore
odori
odorus
odu
oe
oedekerk
oelandicum
oenanthe
of
off
offenbach
offensiva
offensivu
offerta
offertu
offesa
offesi
office
official
officiale
officialmente
officina
officinale
officinalis
offizii
offiziu
offra
offre
offrenu
offri
offrini
offrita
offriti
ofride
og
oga
ogetti
ogettu
oggetti
oggettu
oggi
oghje
oghjeghjornu
oghjetti
oghji
oghjinca
oghjinchi
oghjincu
oghuz
ogigia
ogilvie
ogliastru
ogliu
ogn
ogni
ognun
ognuna
ognunu
ognunǝ
ognǝ
ogre
ogulnia
oh
ohio
ohiu
oi
oil
oinochoe
ois
oise
oiseaux
oitanicu
ojos
oklahoma
oksana
ol
olanda
olandese
olandesi
olbia
olcani
old
oldman
olea
oleaceae
olearacea
oleracea
oleraceus
oletta
oli
oligarchi
oligarchicu
olii
olimpia
olimpiade
olimpiadi
olimpichi
olimpicu
olimpu
oliu
oliva
olivella
oliver
oliverotto
olivetu
olivie
olivier
olivieri
olla
ollagnier
olmelli
olmeta
olmi
olmia
olmitese
olmo
olmu
ologique
olona
oltr
oltre
oltremare
oltremodu
oltretomba
oltri
oltripassa
oltripassatu
oltritomba
olympia
omagi
omagiu
omancu
omar
ombra
ombre
ombri
ombria
ombrone
omega
omerichi
omericu
omerta
omeru
omessa
omeumorfi
omeumorfu
omeumurfismu
omi
omid
omini
omnia
omnium
omogeneu
omonima
omonimu
oms
omu
omusissualita
on
onca
once
onda
onde
ondi
ondici
one
onepage
onesti
online
only
onnivoru
ono
onomatopea
onomatopee
onopteris
onore
onori
ons
ont
ontario
ontariu
onu
op
opara
opare
opari
ope
opel
open
opera
operaiu
operativu
operatore
operatori
operazione
operazioni
operculu
opere
ophile
ophioglossaceae
ophioglossales
ophioglossum
ophiuchus
ophrys
opi
opinion
opinione
opinu
opizzo
opoldville
opole
oppone
opposini
opposizione
opposta
opposte
opposti
oppostu
oppunendu
oppure
oppuri
oppurtuna
oppurtuni
oppurtunita
oppurtunu
oppuru
oppusizione
oppusizioni
optatu
optimates
optimist
optimum
opulenza
opuntia
opuscula
opzione
or
ora
oraculi
oraculu
oral
orale
oramai
orange
oratoire
oratore
oratori
oratoria
oratoriu
orazio
orazioni
oraziu
orba
orbicularis
orbis
orbita
orbitale
orbite
orbiti
orca
orcade
orchestra
orchidaceae
orchidea
orchidee
orchinu
orchis
orcia
orcu
orda
order
ordina
ordinali
ordinanza
ordinaria
ordinatore
ordinatori
ordinatu
ordine
ordineghja
ordini
ordino
ore
orechje
orefice
oregon
oreiro
orel
oreopteris
orezza
orfana
orfeu
org
organi
organiche
organisation
organisazione
organismi
organismu
organiza
organizata
organizate
organizatu
organizazione
organizeghja
organizeghjanu
organizo
organu
orgoglio
orgogliu
ori
oribe
orie
orient
oriental
orientale
orientali
orientalis
orientamentu
orientata
orientate
orientation
orientazione
oriente
orienti
orighjne
orighjni
origin
original
originale
originali
originaria
originarie
originarii
originariu
origine
originel
origini
origins
oriolus
orion
orione
orionis
oristano
oriu
orizonti
orizuntale
orizuntali
orlando
orlandu
orle
orleans
orlu
ormai
ormi
ormuz
ornamenti
ornano
ornanu
ornata
ornetu
ornithogalum
oro
orobicu
orosei
orozco
orrendu
orria
orribili
orriu
orrori
ors
orsa
orsay
orsi
orsini
orsinu
orson
orsoni
orsu
orsucci
ortale
orte
orti
orticoni
ortigara
ortiporiu
ortiz
orto
ortodossa
ortodossi
ortografia
ortografica
orton
ortona
ortu
ortucentru
ortuclasiu
ortudossa
ortudossi
ortudossu
ortudussia
ortugrafia
ortustati
ortustatu
oru
orugrafia
orvieto
orvietu
orzella
orzu
os
osamu
osani
osanna
osasco
osatu
osca
oscar
oscari
oschiri
oscilla
oscillazione
oscu
oscura
oscuramentu
oscurita
oscuru
osinno
osiris
oslavia
oslofjord
oslu
osment
osmosi
osmunda
ospedale
ospidale
ospita
ospitalieri
ospitalita
ospitata
ospiti
ossa
ossacutu
osse
osserva
osservanu
osservata
osservatu
osservazione
ossi
ossia
ossidante
ossidanti
ossidazione
ossidendu
ossidi
ossidiana
ossificazione
ossigenu
ossirincu
ossirva
ossirvata
ossirvate
ossirvati
ossirvatoriu
ossirvatu
ossirvazione
ossola
ossu
osta
ostacolu
ostaculi
ostaculu
ostaig
osteria
ostia
ostie
ostile
ostilita
ostiliu
ostriconi
osu
ot
otan
other
otranto
otrantu
otta
ottana
ottanta
ottava
ottave
ottavi
ottaviani
ottaviano
ottavianu
ottawa
ottena
ottene
ottenendu
otteni
ottenimentu
ottense
ottensi
ottensini
ottenuta
ottenuti
ottenutu
ottesimu
ottica
ottima
ottimi
ottimiza
ottimu
ottinuta
ottinuti
ottinutu
otto
ottobre
ottocorre
ottomani
ottomanu
ottu
ottucentu
ottumana
ottumani
ottumanu
ottunariu
ottusi
ottusu
otus
ou
oude
oudezijds
our
ouro
out
outside
ouvea
ova
ovale
ovali
ovata
ovatus
ove
over
overdubs
overline
ovest
ovi
ovidiu
ovis
ovitu
ovu
ovveru
oxalis
oxford
oxley
oxyrrhynchos
oz
ozdural
ozieri
ozonu
p
pa
pablo
pabo
pacca
pacchettu
pacchistanu
paccial
pacciaredda
pace
pacenzia
pacha
pachistan
pachuca
paci
pacifica
pacifichi
pacificu
pacifistu
pacino
padana
padanu
paddaghju
paddina
padova
padovani
padovano
padre
padri
padru
padula
padulana
padulatu
padule
padulella
paduli
padulu
padus
paduva
paduvanu
paeonia
paeoniaceae
paesa
paesani
paese
paesi
paesu
pag
paga
pagamentu
pagana
pagani
paganu
pagata
pagatu
page
pagellus
pages
paghje
paghjella
paghjelle
paghji
paghjola
paghju
pagina
pagine
pagini
paglia
pagliaghju
paglietta
pai
pain
paine
painting
pais
paisaghji
paisaghju
paisana
paisane
paisaneria
paisani
paisanu
paisley
paisoli
paisolu
paix
pakistan
pal
pala
palace
paladinu
palais
palasca
palatale
palatali
palatina
palatinu
palau
palazo
palazu
palazzi
palazzo
palazzu
paldiski
pale
palemon
paleocristiana
paleocristianu
palermu
palesa
palestina
palestrina
paletta
paleuliticu
palgrave
pali
paliri
palisa
palle
palleca
pallens
pallida
pallidi
pallidu
pallidus
pallo
pallottino
palma
palmata
palme
palmentu
palmesani
palmi
palmu
palmucci
palomino
paltrow
palu
paludosa
palustre
palustris
pamfile
pampana
pampasgiolu
pamphilus
pamplona
pan
panama
panatteria
panca
pancheraccia
pancone
pancratium
pancrazio
pancraziu
pandare
pandion
pandit
pandolfu
pandora
pane
panettiere
pani
panicala
panicu
paniculatum
panneddu
pannelli
pannellu
panni
pannu
panorama
panoramio
panormitana
pantaloni
pantera
panterina
pantheon
panthera
pantherina
pantone
panurama
panza
panǝ
paola
paoletti
paoli
paolina
paolo
paolu
paomia
papa
papachjonu
papale
papali
paparia
papatu
papavaru
papaver
papaveraceae
papers
papi
papilio
papilionacea
papiri
papiru
pappa
pappu
papua
par
para
parabula
paracquella
paradigma
paradigmi
paradise
paradisi
paradiso
paradisu
paradossi
paradossu
paraffina
paragonu
paragrafu
paraguay
paraguna
paragunata
paragunatu
paraguneghja
paragunendu
paragunevule
paragunevuli
paralizatu
parallela
parallelamenti
parallele
paralleli
parallelipipedus
parallelogrammi
parallelu
parallelugramma
parametri
parametrica
parametrichi
parametru
paramore
parana
paraso
parassiti
parata
paravia
parc
parce
parch
parche
parcheghju
parchi
parcio
parcizzioni
parcorra
parcorsi
parcorsu
parcu
parcurrendu
parcussione
parditerra
pardus
pare
parecchj
parechje
parechji
paredda
parens
parente
parentesi
parenti
parenu
parenzu
parera
pareta
parete
pareti
pareto
pareva
parfetta
parfetti
parfettu
parfittamenti
parfumati
pari
paria
parianu
parichji
paridae
paride
paridi
parietaria
pariggi
parighj
parighji
parighjina
parighjini
parighjinu
parigi
parigina
parini
parintedda
paris
parisot
parita
park
parker
parking
parkinson
parl
parla
parlamentare
parlamentu
parlami
parlamintare
parlamintari
parlani
parlanti
parlanu
parlara
parlata
parlate
parlati
parlatu
parlava
parle
parlemu
parlendu
parlu
parma
parmenidi
parmetta
parmetti
parmettini
parmissi
parmissini
parmissu
parmittendu
parmittia
parmittindu
parmutazioni
parnici
paro
parochja
parochje
parola
parole
paroli
parolla
parolle
parolli
parpena
parpindiculari
parricidiu
parrocchiale
pars
parsefuna
parsistenti
parsona
parsone
parsoni
parsonne
parsunaghji
parsunaghju
parsunali
parsunalita
parsunificati
parsuvitatu
part
parta
parte
partementales
partenariatu
partenarii
partendu
partenone
partenu
partenupeu
partenza
parteo
partesi
parteu
parti
partia
particeddi
participa
participanti
participatu
participavani
participazione
participazioni
participeghja
participeghjani
participeghjanu
participendu
participiu
participo
particola
particolare
particula
particular
particularamenti
particulare
particulari
particularita
particularmente
particularmenti
particule
particuli
partigiani
partimala
partinellu
partini
partisce
partita
partitanti
partite
partiti
partitu
partizione
partners
partu
partunu
partusgiatu
partuti
partutu
party
paru
paruchjale
paruchjali
parulla
parulle
parulli
parus
parva
parveni
parviflora
parvinuta
parvinuti
parvinutu
parzialamenti
parziale
parziali
parǝ
pas
pascal
pasci
pascia
pasciali
pascual
pascula
pasculi
pasculu
pascura
pasha
pasifae
pasmanter
pasqua
pasquale
pasquali
pasqualini
passa
passaggiu
passaghjeri
passaghji
passaghju
passani
passanti
passanu
passara
passaru
passata
passate
passatempi
passati
passatu
passava
passavanu
passchendaele
passe
passendu
passer
passera
passerella
passeridae
passeriformes
passerottu
passi
passione
passioni
passionis
passiunatu
passiva
passo
passonu
passu
passuna
passy
pasta
pastinaca
pastinaccia
pastinacea
pastinu
pastore
pastori
pastricciola
pastu
pasturale
pasturali
pasturecce
pasturecci
pastureccia
pasturecciu
pasturellu
pasturizia
pasvikelva
paswan
pat
patagonichi
patagunia
pate
patella
patellu
pater
paterna
paterni
paternita
paternostru
paternu
path
pati
patina
patio
patitu
pato
patre
patri
patria
patriarca
patriarcali
patriarcatu
patriarche
patrick
patrimoine
patrimonii
patrimoniu
patriotti
patriottu
patrizi
patrizia
patriziani
patriziu
patrona
patrone
patroni
patronu
patrunale
patrunali
patrunatu
patte
patti
pattighja
patton
pattone
pattu
pattunate
patula
pauciflora
paul
paula
pauli
paulina
paulinu
paulo
paulu
paura
paure
pausania
pavia
pavimentu
pavonu
paxton
payne
pays
payton
paz
pazienti
pazienza
pazzi
pazzia
pazzu
pb
pc
pdf
pe
peace
peak
peaks
peano
pearce
pearl
pearson
peas
peccados
peccai
peccatu
pechino
pechinu
peci
pecita
pecitella
pecten
peculiarita
pecura
pecure
pecuri
ped
peda
peddi
pede
pedi
pedicorti
pedicroce
pedicure
pedigrisgiu
pedipartinu
pedorezza
pedreros
pedro
peer
peet
pegasi
pegasu
peghju
pel
pela
pelagichi
pelagii
pelasgi
pelau
peleu
peli
pelia
pelignu
pellanzica
pellaro
pelle
pellegrini
pelliccia
peloponnesu
pelopunnesu
peloro
pelu
pelz
pen
pena
penale
penali
penalita
penas
pendente
pendi
pendice
pendichi
pendita
pendite
penditi
pendula
pene
penelope
penetra
peni
peninsula
peninsulare
penisula
penitenti
penitenza
penn
penna
penne
penni
pennsylvania
pensa
pensamentu
pensani
pensanu
pensate
pensati
pensatu
pensava
pense
pensendu
penseru
pensu
penta
pentadicasinca
pentecontere
pentesilea
pentone
people
pepe
pepo
peppard
pepper
peppu
per
pera
peracci
percentuale
percettore
perch
perche
perchi
perciformes
percio
percival
percorre
percorsi
percorsu
percussione
percy
perda
perde
perdenu
perdera
perdere
perdi
perdicula
perdingulina
perdini
perdita
perdite
perditi
perdona
perdonamus
perdone
perdono
perdonu
perduna
perdura
perduta
perdutu
pere
peregrinus
pereira
perelli
perenne
perenni
perennu
peretti
perfect
perfettamente
perfetti
perfettu
perfida
perfidu
perfinu
perfoliata
performance
perfugas
pergamu
pergola
pergusa
peri
peric
pericle
pericli
periculosu
periculu
perieliu
periferia
periferica
perifeti
perifiriche
perifirichi
perifrasticu
perigal
perimetru
period
periodi
periodica
periodichi
periodicu
periodu
perisci
perissodactyla
perittione
periudi
periudicamente
periudu
perkins
perla
perlatum
permanente
perme
permessu
permette
permettendu
permettenu
permettia
permittendu
pernice
pero
perosa
perpetua
perpetuu
perpindiculari
perrin
perry
pers
persa
perse
persecuzione
perseguiteghjanu
perseidi
perseiu
perseru
perseus
pershing
persi
persia
persiana
persiani
persianu
persica
persichi
persicu
persinu
persiste
persistente
persona
personalita
personas
persone
persu
persunaghji
persunaghju
persunagi
persunagiu
persunale
persunali
persunalita
pertantu
perth
pertinente
peru
peruggia
perugia
perusia
peruvianu
pervene
pes
pesa
pesada
pesante
pesaro
pesca
pescara
pescarola
pescasseruli
pescatore
pesce
pesche
pesci
pescia
pesciu
pesciucane
pesciucani
pescusolidu
pesi
peso
pesos
pessoa
pesta
pesu
peta
petali
pete
peter
petersburg
petersen
petine
petit
petite
petkovic
petra
petrabugnu
petralba
petrarca
petrarchae
petrarcu
petre
petri
petricaghje
petricaghju
petrignani
petroliu
petrone
petronia
petrosu
petru
petruburgu
petrucci
pettibianchi
pettibiancu
pettini
pettinu
pettirossu
pettirussu
pettu
peucedanum
peugeot
peut
pez
pezza
pezze
pezzi
pezzu
pfeiffer
pffer
pfs
pg
ph
pha
phaedra
phalacrocoracidae
phalacrocorax
phane
phare
pharos
pharum
phasianidae
phe
phegopteris
phi
phil
philadelphia
philbin
philip
philippe
phill
philologiae
philosophia
philosophy
phineas
phobos
phoce
phocidae
phoenicea
phoenicurus
phoenix
phonology
photo
photogen
photographic
php
phrixos
phyllis
phylum
phytolaccaceae
pi
pia
piace
piacenu
piacenza
piacere
piaceri
piacevuli
piaci
piacia
piaggi
piaghja
piaghje
piaghji
pialaghini
pian
piana
pianamente
pianamenti
piancona
piane
pianellu
pianeta
pianete
pianeti
piani
pianificazioni
pianistu
piano
pianoforte
pianosa
pianottuli
pianottulu
pianta
piantati
piantatu
piantazione
piantazioni
piante
pianti
piantolu
pianu
pianuforte
pianura
pianure
pianuri
piatta
piattaforma
piattaforme
piattaformi
piattata
piattati
piatti
piattu
piave
piazza
piazzali
piazzanu
piazzata
piazzate
piazzati
piazzatu
piazze
piazzendu
piazzetta
piazzi
piazzili
piazzola
piazzole
pib
pibine
pica
picasso
piccardu
piccati
piccatori
piccatu
picce
piccia
piccioli
picciolu
piccioni
piccionu
picciulate
picciulati
piccola
piccolo
piccu
piccula
piccule
picculi
picculu
picea
pichilemu
pichja
pichjarine
pichjaronu
pichjettu
pichji
pichjone
pichju
pichjulati
pichjulatu
picidae
piciniscu
picitosa
pickering
picoides
picridium
picris
picroides
pictes
pictum
pictures
picuraghju
pidda
pidicutu
pidini
pidochji
pidochju
pidu
pie
piece
piedi
piedicroce
pieds
piega
pieghi
piegne
piegni
piemonte
piemontese
piemonti
piemuntese
pien
piena
pienamenti
piene
pienghje
pienghjendu
pienghji
piengu
pieni
pieno
pienti
pienu
pier
pierce
pierluigi
piero
pierre
pierson
pieru
pieta
pieter
pietra
pietralba
pietre
pietri
pietro
pietru
pietruburgu
pietrugradu
pievana
pievane
pieve
pievegenevie
pievi
pifana
pifania
pig
pigafetta
pigghia
pighja
pighjola
pighjolu
pighjuramentu
pigli
piglia
pigliani
piglianu
pigliara
pigliata
pigliate
pigliati
pigliatu
pigliava
pigliavanu
piglie
pigliemu
pigliendu
piglii
piglio
piglionu
pigliu
pigna
pignata
pignatta
pignatte
pignatti
pignottule
pignottuli
pignu
pignuttella
piiga
piigate
piigatu
pila
pilame
pilar
pilastri
pilastru
pilatu
pilegrinagiu
pilera
piligrinaghju
piligrini
pillars
pilliccia
pillow
pilone
piloni
pilonu
pilosa
pilosi
pilosu
pilota
pilotu
pilupunnesu
piluta
pimort
pin
pina
pinaceae
pinal
pinales
pinareddu
pinarellu
pinboard
pincionu
pindaru
pindenti
pindenza
pindenzi
pindini
pine
pinea
pineta
pinete
pineti
pinetra
pinghja
pinghji
pinguicula
pini
pinina
pinisula
pinitinziariu
pinitra
pinitrati
pink
pinna
pinnachji
pinneddi
pinneddu
pinnuleddi
pinnuti
pinnutu
pino
pinophyta
pinopsida
pins
pinsa
pinsadori
pinsamenti
pinsamentu
pinsatu
pinsava
pinsavani
pinsendu
pinseri
pinseru
pinsioni
pinterest
pinti
pinticosti
pintonu
pintu
pintura
pinu
pinus
pinzalone
pinzi
pinzu
pinzuta
pinzuti
pinzutu
pio
piobbi
piobbu
piobu
pioggia
piogia
piogiula
piola
piombu
pioneer
piopu
piordo
piosse
piova
piove
piovi
pip
pipa
pippa
piracci
piralzu
piramida
piramidi
pirata
pirataria
pirate
pirateria
pirati
piratu
pirdendu
pirdia
pirdutamenti
pirelli
pirenei
piri
piriodica
piriodicu
pirituu
piriudu
pirmanenti
pirmanenza
pirmanintamenti
pirotecnichi
pirotta
pirro
pirsiana
pirsiani
pirturbazione
pirturbazioni
pirvirsioni
pirǝ
pisa
pisana
pisane
pisani
pisano
pisanti
pisanu
pisati
pisatu
pisava
pisca
piscadori
piscariae
pisci
piscia
piscina
piscine
piscu
pisellu
pisendu
pisessi
pisi
pisistrati
pisolithus
pissarro
pista
pistacia
piste
pistellu
pisti
pistoia
pistoiese
pistola
pistole
pisum
pit
pitagora
pitagorica
pitagorichi
pitagoricu
pitali
pitcher
pitizioni
pitretu
pitrificati
pitrifichechja
pitroliu
pitrusedda
pitt
pittau
pittavinu
pitte
pitteu
pittoni
pittore
pittori
pittsburgh
pittura
pitturali
pitture
pitturi
piu
piuconi
piugoni
piulacona
piulacone
piulaconi
piulaconu
piuleddu
piuma
piumaghju
piumbatoghji
piumbatoghju
piumbatu
piumbinu
piumbonu
piume
piumi
piune
piupeta
piupetta
piutostu
piuttostu
piuvana
piuvanaccia
piuvane
piuvanu
piuvaro
piuvi
piuvia
piuviosi
piuviosu
piuviti
pizarro
pizza
pizzi
pizzica
pizzone
pizzu
pl
pla
placca
placche
placchi
place
placitu
plagiuclasiu
plan
planck
planet
planeta
planetaria
planitaria
planitarii
planitariu
planoise
plant
plantae
plantaginaceae
plantagineum
plantarum
plante
plantes
plaque
plasma
plastic
plastica
plasticu
plata
platani
platanthera
platanu
plate
plathantera
platinu
platone
platonica
platonichi
platonicu
platonu
plava
play
playboy
player
plaza
please
pleasence
plebania
plebe
plebiscitu
pleshette
pleurotaceae
pleurotus
plice
plinianu
pliniu
plk
plotarea
plotdata
plumbaginaceae
plummer
plur
plurale
plurali
plus
plutarcu
pluto
plutone
plutoni
plutonichi
plutonu
plutunisimu
pluvialis
pm
pmatrix
png
pnici
pnrc
po
poaceae
pobbe
poca
poche
pochi
pocu
podarcis
podarse
podarsi
poddu
podesta
podgora
podgorica
podiceps
podolia
poe
poehler
poema
poems
poesia
poesie
poeta
poggi
poggio
poggiu
poghje
poghji
poghju
poi
poiche
poings
point
poir
poitier
pola
polacca
polacchi
polaccu
poldech
pole
poleis
polesine
poletti
poli
polibio
policardi
police
policy
poligunale
poligunali
poliguni
polinumiale
poliottu
polis
polish
politecnicu
politica
political
politiche
politichi
politicu
politique
poliziano
polk
pollan
pollici
pollione
pollock
pollon
polonia
polpa
polpu
polsu
poltu
polu
polvara
polvari
polvera
polvere
polydor
polygonaceae
polygonatum
polygonum
polypodiaceae
polypodiales
polypodiophyta
polypodiopsida
polypodium
polystichum
polytechnique
poma
pomelo
pomerania
pomi
pompa
pompei
pompeo
pompeu
pompidou
pompiliu
pompilius
pomponio
pomu
pona
poncin
pone
poni
pont
ponte
pontefice
pontefici
pontelagoscuro
ponti
pontica
pontifex
pontificia
pontificiu
pontii
pontu
ponty
ponu
pony
ponziu
pool
pop
pope
popolari
popolo
popov
populare
populares
populari
populata
population
populatu
populazione
populazioni
populazzione
populi
populonia
populu
populus
poque
por
porchi
porci
porcu
porga
porghje
pori
pork
porphyrio
porri
porru
port
porta
portaboci
portakal
portal
portale
portandu
portani
portant
portanu
portarunu
portatu
porte
porter
porti
porticu
portiere
portivechju
portman
porto
portogallu
portoghese
portoghesi
portonaccio
portrait
portu
portufarraiu
portugallu
portughese
portughesi
portugnol
portugue
portulaca
porturicanu
porzana
porzione
pos
posa
pose
poseidon
poseidonu
posi
posidonia
posidoniaceae
positiva
positrone
positroni
positroniu
posizione
posizioni
possa
possede
possi
possibile
possibili
possini
possinu
possonu
possu
post
posta
poste
posthudo
posti
posto
postu
postulatu
postvucalica
potassiu
pote
potens
potentini
poti
potiorek
potter
pouance
pouillon
poulter
pound
pour
poussin
povara
povari
povaru
povera
poveri
poverta
poveru
pow
powell
power
pozza
pozzi
pozzo
pozzu
pp
ppen
ppm
ppǝ
pr
pra
practica
practice
pracuratori
pracuri
pradesh
prado
praecox
praetexta
prag
praga
pran
pranzu
prata
pratarolu
pratendi
pratendini
pratensis
pratesi
prati
pratica
praticamente
praticamenti
praticanti
praticata
praticate
praticatu
pratiche
praticheghja
praticheghjanu
pratichi
praticu
pratique
prato
pratt
pratu
pratuline
pratulini
prayon
pre
precede
precedente
precedentemente
precedenti
precedenza
preceduta
precedutu
precidente
precipitazione
precipito
precisa
precisamente
precisi
precisione
precisu
precursore
precursori
preda
predaghjina
predatore
predatori
prede
predecessore
predi
predica
predicazione
predilettu
predittori
predizzione
predizzioni
predominiu
preesistente
preesistenti
pref
prefaziu
preferenza
preferi
preferisce
preferita
preferitu
prefettu
prefettura
prefetture
prefigura
prefissu
prega
preghera
preghere
preghjudizii
preghjudiziu
pregiu
pregu
preistoria
preistorica
preistorichi
preistoricu
prematuratamente
premia
premie
premier
premiere
premii
premissa
premissi
premiu
prende
prendere
prendi
prends
preoccupazione
preparatu
preparazione
preparazioni
prepon
prepositura
prepusitura
prerumana
pres
presa
presbiteriu
presca
prescott
prese
present
presenta
presentanu
presentati
presentatore
presentatu
presentava
presentazione
presente
presenti
presenu
presenza
presenze
preseru
presi
president
presidente
presidenti
presidenza
presidenziale
presidiu
presini
press
pressione
presso
pressu
presta
prestazione
prestazioni
prestigiosa
prestigiu
prestiti
prestitu
presto
prestu
presu
presunta
preta
prete
pretende
preti
preto
pretoriu
prettamente
pretu
prevalente
prevalentemente
prevalenza
prevede
prevedeva
prevene
previdendu
previsione
prevista
previstu
preziosa
preziose
prezzi
prezzu
pri
priaccupatu
priaccupazioni
priambulu
priamu
prica
pricantula
pricauzioni
price
pricedi
priceduta
pricedutu
pricidente
pricidenti
pricidenza
pricidintamenti
priciduta
pricipitazione
pricipitazioni
pricisa
pricisamente
pricisamenti
priciseghja
pricisi
pricisioni
pricisu
pricoci
priculi
priculosa
priculose
priculosi
priculosu
priculu
pricursori
pridatori
pride
pridgeon
pridica
pridicatori
pridicheghja
pridicissori
pridittiva
prifaziu
priferenza
priferisce
priferiscenu
priferitu
prifettu
prifirendu
prifirisci
priga
prighera
prigheri
prigheti
prighieri
prighjo
prighjone
prighjoni
prighjuneri
prigiatu
prigio
prigione
prigiunere
prigiuneri
prigiuneru
priliva
prim
prima
primamenti
primaria
primarie
primarii
primariu
primatu
primaturamenti
primavera
prime
primera
primi
primiatu
primiera
primissima
primitiva
primitive
primitivi
primitivu
primo
primordiale
primordiali
primrose
primu
primura
primurdiale
primurdiali
prince
princeps
princeton
princip
principalamente
principalamenti
principale
principali
principalmente
principati
principato
principatu
principe
principessa
principi
principia
principiani
principianu
principiata
principiatu
principiava
principiendu
principii
principio
principis
principiu
principles
principu
prinuragicu
prionace
priori
pripara
priparata
priparati
priparava
priparavani
priparazione
priparazioni
priparo
prisbiteriu
prisco
priscu
prisedente
prisenta
prisentani
prisentanu
prisentazione
prisente
prisenti
prisenza
prisenzi
prisenziale
priserva
prisidente
prisidenti
prisinta
prisintata
prisintati
prisintatu
prisintazioni
prisintendu
prisinto
prisirva
prisirvatu
prissione
prissioni
pristaticci
pristazioni
pristigiosu
pristigiu
prisumibilamenti
prisunzioni
priteritu
pritesta
pritestu
pritindenti
priurita
priva
privalenti
privali
privalini
privalintamenti
privata
private
privati
privatu
priveda
privede
privedi
privena
privenzione
privi
prividia
prividibuli
privilegi
privilegii
privilighja
privisioni
privista
privisti
privistu
privo
privostu
privu
prix
priziosi
priziosu
prnc
pro
probabile
probabilmente
probabilmenti
probbia
probbii
probbiu
problematica
problemi
procchio
proceedings
procera
procida
proclamatu
procusti
prodotta
prodottu
produce
producenu
productions
produtta
produtte
produtti
produttiva
produttivi
produttore
produttori
produttrice
produttu
produzione
produzzione
proeuropeu
prof
professione
professiunale
professor
professore
profilo
profilu
profittu
profondezza
profumati
profunda
program
programma
progressi
progressiva
progressive
project
projet
prolificu
prolugu
promossi
promuzione
proneo
pronta
pronti
prontu
pronumi
pronuncia
pronuncianu
pronunciata
pronunciate
pronunciation
pronunciatu
pronunzia
pronunziata
pronunziate
pronunziatu
propia
propii
propiu
proporzione
propositu
propri
propria
proprie
proprieta
proprii
propriu
prosa
prosecuzione
prosper
prospero
prosperu
prossima
prossime
prossimi
prossimu
protagora
proto
protocolli
protoculture
protu
protuvillanuviana
prova
provani
provanu
prove
provence
provenza
provenzale
proverbes
provi
providence
province
provincia
provincialis
provisional
provoca
provocatu
provoco
provu
prru
prua
prubabilamente
prubabilamenti
prubabile
prubabili
prubabilita
prubabilmente
prubabilmenti
prubbiamenti
prubita
prubitaria
prubitarii
prubitariu
prublema
prublematica
prublemi
prublemu
pruceda
prucede
prucedi
prucessi
prucessio
prucessione
prucessu
prucidimenti
prucidimentu
prucidura
pruciduri
prucissio
prucissione
prucissioni
pruclama
pruclamata
pruclamatu
pruclamazioni
pruclamo
prudenza
prudotti
prudottu
pruduce
pruducendu
pruducenu
pruduci
pruducia
pruducini
prudutta
prudutti
pruduttivi
pruduttivita
pruduttivu
pruduttore
pruduttori
pruduttu
pruduzione
pruduzioni
pruduzzione
pruduzzioni
prufanu
prufessione
prufessiunale
prufessiunali
prufessore
prufeta
prufeti
prufetica
prufetti
prufettu
prufetu
prufezia
prufilu
prufissione
prufissioni
prufissiunale
prufissiunali
prufissore
prufissori
prufitendu
prufitizo
prufitta
prufittatu
prufittendu
prufitti
prufittonu
prufittu
prufonda
prufonde
prufondi
prufondu
prufundamenti
prufundezza
prufundi
prufundita
prugetti
prugettu
prughjetti
prughjettu
prughjinitura
prugittatu
prugna
prugni
prugramma
prugrammazione
prugrammazioni
prugrammi
prugrammu
prugressa
prugressi
prugressistu
prugressu
prugrissione
prugrissiva
prugrissivamente
prugrissivamenti
prugrissivu
pruibisce
pruibiti
pruibitu
pruiettili
pruiettiva
pruiezione
prulificu
prulogu
prulungamentu
prumaticcia
prumessi
prumessu
prumeteu
prumettu
pruminenza
prumisi
prumissa
prumissu
prumittendu
prummetti
prummissa
prummissu
prumossa
prumossi
prumova
prumove
prumuntoriu
prumunutoriu
prumutori
prumuzione
prunella
prunelli
prunes
prunomi
prunomu
prunu
prununcia
prununciani
prununciata
prununciatu
prununcio
prununzia
prununzieghja
prunus
prunuzia
prupaga
prupaganda
prupagazione
prupia
prupizia
prupiziu
prupona
prupone
pruponi
pruponini
pruposi
prupositi
prupositu
pruposta
pruposte
pruposti
prupostu
prupria
prupriamente
pruprieta
pruprietarii
pruprietariu
prupuni
prupunia
prupurzione
prupurzioni
prupurziunali
prusegue
prusegui
pruserpina
pruspera
prusperita
pruspittiva
prussia
prussiana
prussiani
prussianu
prussima
prussimita
prustaferesi
prustituta
prutagonista
prutagonisti
prutagonistu
prutagunista
prutagunisti
prutagunistu
pruteghja
pruteghje
pruteine
prutesta
prutestante
pruteste
prutetta
prutette
prutetti
prutettore
prutettrice
prutettu
prutetturatu
prutezzione
prutistanti
prutittori
prutittrici
prutizzione
prutizzioni
prutone
prutoni
prutonu
prutotipu
prutucollu
pruva
pruvata
pruvatu
pruvatura
pruvaturi
pruvendu
pruvene
pruvenendu
pruvenenti
pruvenenu
pruveni
pruvenia
pruvenienti
pruvenini
pruvenza
pruvenzale
pruvenzali
pruverbi
pruverbii
pruverbiu
pruvince
pruvinci
pruvincia
pruvinciale
pruvinciali
pruvincie
pruvinendu
pruvinente
pruvinenti
pruvinienza
pruvinissi
pruvinzali
pruvirbiali
pruvisoria
pruvisoriu
pruvista
pruvisti
pruvistu
pruvo
pruvuca
pruvucata
pruvucate
pruvucati
pruvucatu
pruvucheghja
pruvucheghjani
pruvuchendu
pruvuco
pruvve
pruvverbiu
ps
pseudoacacia
pseudonimu
pseudorchis
pseudotsuga
pseudu
psiche
psicologia
psiculoghja
psiculogichi
psiculogicu
psiculugia
psycho
pt
pteridaceae
pteridium
pteridophyta
pteris
ptolemea
pu
pub
pubblica
pubblicata
pubblicati
pubblicatu
pubblicazione
pubblicheghja
pubblico
pubblicu
pubescens
public
publica
publicamente
publicanu
publicata
publicate
publicati
publication
publications
publicatu
publicazione
publicazioni
publiche
publicheghja
publichi
publicita
publicitariu
publico
publics
publicu
publique
published
publisher
publiu
pudara
pudaria
pudariani
puddinu
pudditrata
puddonu
pude
pudemu
pudendu
pudenu
pudera
puderanu
pudere
puderi
puderia
puderianu
pudesta
pudete
pudeti
pudi
pudia
pudiani
pudianu
pudissi
pudutu
puema
puemi
puerto
puesia
puesie
pueta
pueti
puetica
puetiche
puetichi
pueticu
puf
puffinus
pugacheva
pughjale
pughjatu
pughjilatu
pughjola
pughjolu
pugilatu
puglia
puglie
pugliese
pugnali
pugni
pugnu
puisia
puisii
puiss
puitessa
pula
pulacca
pulacciu
pularia
pularie
pularii
pularita
pulariu
pule
puleghju
pulemica
pulemiche
pulemichi
pulenda
pulenta
pulgi
pulgia
puli
pulicaria
pulicroma
puliedri
puligunale
puliguni
puligunu
pulinesia
pulinomii
pulinomiu
pulita
pulitica
puliticamente
puliticamenti
puliticante
puliticanti
pulitiche
pulitichi
pulitici
puliticu
pulitu
pulizia
pulizza
pull
pullinu
pulmoni
pulmonu
pulonia
pultronu
puluidali
pulv
pulvariccia
pulverosu
pulverulentum
puma
pumas
pumata
pumelu
pumonte
pumonti
pumontincu
pumpeiu
pumpelmu
pumuntincu
punctatum
punendu
punente
punenti
puni
punia
punica
punichi
punicu
punicum
puniscia
puniti
punitini
punitiva
punitu
[...]
