!
"
#
##0
##1
##10
##11
##12
##13
##14
##15
##16
##17
##18
##19
##2
##20
##21
##22
##23
##24
##25
##26
##27
##28
##29
##3
##30
##31
##32
##33
##34
##35
##36
##37
##38
##39
##4
##40
##41
##42
##43
##44
##45
##46
##47
##48
##49
##5
##50
##51
##52
##53
##54
##55
##56
##57
##58
##59
##6
##60
##61
##62
##63
##64
##65
##66
##67
##68
##69
##7
##70
##71
##72
##73
##74
##75
##76
##77
##78
##79
##8
##80
##81
##82
##83
##84
##85
##86
##87
##88
##89
##9
##90
##91
##92
##93
##94
##95
##96
##97
##98
##99
$
%
&
'
(
)
*
+
,
-
.
/
0
00
000
01
02
03
035
04
048
05
06
07
08
09
1
10
100
1000
10000
100000
101
102
103
104
105
106
1066
107
108
109
1091
1092
11
110
1100
1107
111
1113
1119
112
113
1130
1133
1139
114
115
116
117
118
119
1195
12
120
1200
121
122
123
1230
1238
124
125
1250
126
1268
127
1275
128
1282
1284
129
1296
1298
13
130
1300
1303
1304
1306
131
1312
1314
132
133
134
1349
135
1350
1352
136
1366
137
138
1380
1388
139
14
140
1400
1401
141
1419
142
1428
143
1434
144
1442
1443
1447
1448
145
1458
146
1464
147
1475
1476
1478
148
1480
1484
1487
1488
1489
149
1490
1491
1492
1494
1495
1496
1498
1499
15
150
1500
1501
1502
1503
1504
1505
1506
1507
151
1510
1511
1512
1513
1516
1519
152
1520
1521
1522
1524
1525
1528
1529
153
1530
1531
1532
1534
1535
1536
1537
154
1540
1541
1542
1545
1547
1548
1549
155
1550
1551
1552
1553
1554
1555
1557
1558
1559
156
1560
1563
1564
1565
1566
1567
157
1570
1571
1572
1575
158
1580
1582
1584
1585
1588
1589
159
1590
1591
1593
1594
1596
1597
1599
16
160
1600
1603
1604
1608
1609
161
1610
1611
1615
1616
1617
1618
1619
162
1620
1621
1622
1625
1626
163
1635
1638
164
1644
165
1656
1659
166
1666
167
168
1683
1685
169
1694
17
170
1700
1703
1704
1705
1706
1707
171
1710
1713
1714
1715
172
1720
1723
1724
1725
1727
1728
1729
173
1730
1731
1732
1734
1735
1736
1737
1738
1739
174
1740
1742
1745
1746
1747
175
1750
1753
1755
1756
1757
1758
176
1760
1761
1763
1764
1765
1766
1767
1768
1769
177
1770
1771
1772
1774
1775
1776
1777
1778
1779
178
1780
1782
1783
1784
1785
1787
1788
1789
179
1790
1791
1792
1793
1794
1795
1796
1797
1798
1799
18
180
1800
1801
1802
1803
1804
1805
1806
1807
1808
1809
181
1810
1811
1812
1813
1814
1815
1816
1817
1818
1819
182
1820
1821
1822
1823
1824
1825
1826
1827
1828
1829
183
1830
1831
1832
1833
1834
1835
1836
1837
1838
1839
1840
1841
1842
1843
1844
1845
1846
1848
1849
185
1850
1851
1852
1853
1854
1855
1856
1857
1858
1859
186
1860
1861
1862
1863
1864
1865
1866
1867
1868
1869
187
1870
1871
1872
1873
1874
1875
1876
1877
1878
1879
188
1880
1881
1882
1883
1884
1885
1886
1887
1888
1889
189
1890
1891
1892
1893
1894
1895
1896
1897
1898
1899
19
190
1900
1901
1902
1903
1904
1905
1906
1907
1908
1909
191
1910
1911
1912
1913
1914
1915
1916
1917
1918
1919
192
1920
1921
1922
1923
1924
1925
1926
1927
1928
1929
193
1930
1931
1932
1933
1934
1935
1936
1937
1938
1939
194
1940
1941
1942
1943
1944
1945
1946
1947
1948
1949
195
1950
1951
1952
1953
1954
1955
1956
1957
1958
1959
196
1960
1961
1962
1963
1964
1965
1966
1967
1968
1969
197
1970
1971
1972
1973
1974
1975
1976
1977
1978
1979
198
1980
1981
1982
1983
1984
1985
1986
1987
1988
1989
199
1990
1991
1992
1993
1994
1995
1996
1997
1998
1999
2
20
200
2000
2001
2002
2003
2004
2005
2006
2007
2008
2009
201
2010
2011
2012
2013
2014
2015
2016
2017
2018
2019
202
2020
2021
2022
2023
203
204
205
206
207
208
209
21
210
2100
211
212
214
2144
215
216
217
218
219
22
220
221
222
223
224
225
226
227
228
229
23
230
2300
231
232
233
234
235
237
238
239
24
240
241
242
243
244
245
246
247
248
249
25
250
2500
251
252
253
254
255
256
257
258
259
26
260
261
262
263
265
266
267
268
269
27
270
2700
2706
271
272
273
274
275
276
279
28
280
281
282
283
284
285
286
287
288
289
29
290
291
292
293
295
296
297
298
299
3
30
300
3000
30000
301
304
305
306
307
308
309
31
310
311
312
313
314
315
316
317
318
319
32
320
321
322
323
324
325
326
327
328
329
33
330
331
332
333
334
335
336
337
338
339
34
340
341
342
343
344
345
346
347
348
349
35
350
3500
351
352
353
354
355
356
357
358
36
360
3600
361
362
363
364
365
368
37
371
375
376
379
38
380
381
383
384
385
386
387
388
389
39
390
395
396
397
398
399
4
40
400
4000
402
403
404
405
4092
41
410
411
412
415
418
42
420
422
425
426
427
428
43
430
431
433
434
44
440
447
45
450
451
453
455
456
46
47
470
476
479
48
480
481
486
489
49
490
496
499
5
50
500
5000
506
507
509
51
515
518
519
52
520
521
525
529
53
535
54
540
541
545
546
547
55
550
56
560
564
565
569
57
570
58
580
581
59
590
598
6
60
600
6000
604
61
610
618
62
623
628
63
631
639
64
641
642
645
65
650
66
67
670
671
68
683
686
69
691
697
7
70
700
7000
701
707
71
711
715
717275677
72
73
730
74
75
750
753
76
768
77
777
78
780
79
790
791
8
80
800
8000
81
813
814
816
82
820
827
83
830
833
84
848
85
850
85822
86
861
864
87
870
874
875
88
89
9
90
900
91
9102
92
93
930
94
95
950
96
962
963
965
97
970
975
978
98
980
985
99
:
;
<
=
>
?
@
[
\
]
^
_
`
a
aa
aare
aari
ab
aba
abadan
abajo
abandunatu
abate
abba
abbaghja
abbaghju
abbaglia
abbagliula
abbandona
abbandonu
abbanduna
abbandunata
abbandunate
abbandunati
abbandunatu
abbanduneghja
abbandunendu
abbanduno
abbas
abbasidi
abbassa
abbasta
abbastanza
abbate
abbatta
abbatte
abbatucci
abbazia
abbazie
abbe
abbi
abbia
abbozzu
abbraccia
abbracciatu
abbracciu
abbreviationem
abbreviazione
abbreviazioni
abbriviatu
abbriviazioni
abbrustula
abbulighja
abbundante
abbundanti
abbundanza
abc
abcasu
abd
abe
abel
aberdeen
abi
abierta
abies
abili
abilita
abissali
abissu
abita
abitante
abitanti
abitata
abitati
abitatu
abitazione
abitazioni
abitente
abitenti
abitu
abitua
abituatu
abitudina
abitudine
abitudini
aboriginal
abortivum
about
abrac
abraham
abrei
abril
abrir
abrira
abruzzese
abruzzo
abruzzu
abside
absidi
abu
abundante
abundanti
abuso
abusu
abusus
ac
acade
academia
academy
acamanti
acantu
acca
accade
accademia
accademichi
accademicu
accadi
accadicu
accaduta
accadutu
accant
accantu
accata
accatta
accattadore
accattadori
accattari
accattatore
acceda
accede
acceder
accende
accentata
accenti
accentu
acceptare
accertata
acceso
access
accessdate
accessi
accessibile
accesso
accessu
accetta
accia
acciaghju
acciai
acciaio
acciaiu
acciarinu
accidente
accidenti
accinese
accinesu
accinta
accintu
acciones
accipiter
accipitridae
accitta
accittata
accittatu
accittazione
accittazioni
accitto
accizioni
accoglia
accoglie
accoglii
accolta
accolti
accoltu
acconcia
accoppia
accorda
accordi
according
accordu
accorsi
accortu
accosta
accresce
accuglienza
accumpagna
accumpagnanu
accumpagnata
accumpagnati
accumpagnatu
accumulu
accunsentu
accupa
accupata
accupatu
accupava
accupazioni
accupiamentu
accupo
accuppia
accuppiamentu
accuratezza
accurdatu
accusa
accusativu
accusatu
accusi
aceddi
aceddu
acella
acelli
acellu
aceptar
aceras
acerca
acertula
acertulone
acertuloni
aceru
acetosella
acetu
ache
achei
achi
achille
achillea
achilli
achiu
aciartula
acide
acidezza
acidita
acidu
acioli
aconcagua
acqua
acquale
acquariu
acquatella
acquatica
acquatichi
acquavita
acquaviva
acque
acqui
acquidottu
acquista
acquistata
acquistatu
acquistu
acro
acronimu
acronymum
acropula
acrostici
acrosticu
act
acta
action
actionem
active
actividad
actividades
activities
activo
activos
actual
actualizar
actualmente
acu
acuerdo
acula
acule
acustica
acuta
acuti
acutu
ad
ada
adam
adams
adangme
adatta
adattamentu
adattata
adattati
adattatu
adattazione
adattu
add
adda
addevu
addirizza
addistratu
addition
additional
addiu
addiva
addivatu
addizioni
addo
addoru
addossu
addulurati
addurmenta
ade
adecec
adelaide
adelasia
adema
aden
aderiscia
adi
adiacenti
adiantum
adieux
adige
adir
adjectivum
adjectivus
adjetivo
administrazione
admisio
adolf
adolfo
adolfu
adolphe
adopra
adoremus
adorno
adoru
adotta
adriano
adrianu
adriaticu
adrien
adrizzu
ads
adu
adulta
adulti
adultu
adumbrate
adumbrati
adupra
aduprata
aduprate
aduprati
adupratu
aduprendu
adutta
aduttata
aduttatu
aduttivu
adutto
aduzzioni
adv
adverbium
ae
aerea
aeria
aerii
aeronautica
aeroporti
aeroportu
aeruportu
aestivalis
aeternam
afa
afar
affacca
affaccata
affaccia
affacciani
affanni
affannu
affare
affari
affcom
afferma
affesta
affesu
affida
affidata
affidatu
affidevuli
affido
affinch
affinis
affinita
affirma
affirmata
affirmatu
affirmazione
affirmazioni
affirmendu
affirmo
affitta
affittati
affittu
affleck
affluente
affluenti
afflussu
affonda
affreschi
affrescu
affronta
affrunta
affruntatu
affrunto
affunda
affundamentu
afghanistan
afi
afiliados
africa
africana
africani
africanu
africo
afrihili
afrikaans
afrudita
after
afuna
afurismu
ag
again
agaminnonu
agaricus
agata
age
agenori
agente
agenti
agenzia
ager
aggettivu
agghia
agghjesu
agghju
aggius
aggju
agglumeratu
agglumerazione
aggregationem
aggrigata
aggronda
aggrundendu
aghi
aghja
aghjaba
aghjaccina
aghjaccini
aghjaccinu
aghjacciu
aghjacenti
aghjalesi
aghje
aghjenti
aghjettivu
aghji
aghjini
aghjittivu
aghjiunghjendu
aghjola
aghjone
aghju
aghjunghja
aghjunghje
aghjunghjendu
aghjunghjenu
aghjunghji
aghjunghjini
aghjunta
aghjunti
aghjuntu
aghjusta
aghjustatu
agisce
agisci
agiscia
aglia
agliana
aglientu
agliu
agnedda
agneddi
agneddu
agnelli
agnellu
agnellus
agnona
agnonu
agnosticisimu
agnus
agostini
agostino
agosto
agostu
agostus
agraria
agre
agregatu
agregazione
agriate
agricula
agriculi
agricultori
agricultura
agriculu
agrigatu
agrigazioni
agrigentu
agrippa
agrumi
agrumu
agua
agultu
agustinu
ah
ahora
ai
aia
aiaccini
aiaccinu
aiacciu
aiace
aiani
aid
aigle
aigua
aiguabarreig
aio
air
airbnb
aire
aires
airline
airlines
airport
ais
aise
aiti
aiton
aitona
aiuta
aiutara
aiutati
aiutatu
aiuti
aiuto
aiutu
aix
ajaccio
ak
akademia
akan
al
ala
alabama
alain
alalia
alan
alandu
alanu
alare
alari
alaska
alata
alati
alatu
alba
albanesa
albanese
albanesi
albanesu
albania
albanu
albaru
albedu
alberghi
albergu
albero
albert
alberta
albertacce
alberti
albertini
alberto
albertu
alberu
albiana
albitreccia
albitru
albret
albucciu
album
albus
alcaloidi
alchimia
alchimisti
alcollu
alcu
alcudina
alcudine
alcun
alcuna
alcune
alcuni
alcunu
aldila
aldo
ale
aleatorii
alegra
alegre
alejandro
aleksandr
alema
alemagna
alemani
alemannu
alemanu
aleph
aleria
alesandri
alesani
alessandra
alessandria
alessandro
aleutinu
alex
alexander
alexandre
alfa
alfabetu
alfedena
alfeu
alfonsi
alfonso
alfonsu
alfred
alfredo
algaghjola
alge
algebra
algebrica
algebriche
algebrichi
algeri
algeria
algerianu
algherese
algheru
alghi
algo
algoritmu
algu
alguien
alguna
algunas
algunos
alguritmi
alguritmu
ali
aliados
alianza
alianzas
aliatoria
aliatoriu
alicarnassu
alice
aliconu
alien
alighieri
alimagna
alimania
alimannu
alimantazioni
alimanu
alimentazione
alimenti
alimentu
alimintari
alinei
alisgiani
alissandria
aliva
alivetu
alivi
alivu
alizzioni
all
alla
allah
allan
allarga
allargamentu
allargata
allargatu
alle
alleanza
alleate
alleati
alleatu
allegria
allen
allenamentu
alleva
allevare
allevu
alli
allianza
allianzi
alliati
alliatu
alligator
alliniati
alliscia
allium
alloghju
allor
allora
alloru
alluminiu
allungamentu
allungata
allungatu
alluntana
alluntanati
alluntanatu
allusioni
alluviunali
alma
almanacco
almanaccu
almanach
almancu
almaza
almenu
alminu
alnus
aloe
alone
alors
alpana
alpane
alpe
alpha
alphabet
alphonse
alpi
alpina
alpini
alpinu
alpinum
alpron
alrededor
alsazia
alsazianu
alsinoides
also
alt
alta
altaghje
altamenti
altar
altare
altari
altavilla
alte
alterna
alternativa
alternative
alternativu
altezza
altezze
altezzi
althing
alti
altiani
altipiani
altirnanza
altirnativa
altirnativi
altirnendu
altitudina
altitudine
altitudini
altkirch
alto
altore
altori
altr
altra
altre
altrettantu
altri
altrimente
altrimenti
altro
altronde
altrondi
altru
altu
altupiani
altupianu
altura
alture
alturi
aluetu
aluminium
alverniate
alvitu
always
alza
alzachena
alzata
alzati
alzetu
alzi
alzu
am
ama
amai
amaia
amandola
amandula
amanduli
amandulu
amani
amante
amanti
amara
amaranthus
amarantu
amarascu
amare
amarezza
amargo
amari
amaricu
amaru
amata
amate
amatori
amatu
amava
amazon
amazonas
amazoni
ambasciata
ambiegna
ambientale
ambientali
ambiente
ambienti
ambiguita
ambitu
ambizione
ambizioni
ambrose
ambrosi
ame
amen
america
american
americana
americane
americani
americanu
americhe
americhi
amessi
ameti
ameto
ami
amica
amichi
amici
amicizia
amico
amicu
amiens
amiragliu
ammad
ammaistra
ammalatu
ammansu
ammazzatu
ammenta
ammentu
ammigliura
amministra
amministrativa
amministrativamenti
amministrative
amministrativi
amministrativu
amministrazione
amministrazioni
ammira
ammiragliu
ammiratori
ammirazioni
ammissu
ammorcia
ammuccia
ammurabi
among
amor
amore
amorem
amori
amount
amour
ampara
amparatu
amparera
ampaza
ampia
ampiamente
ampiamenti
ampiezza
ampii
ampiu
ampriani
ampugnani
amsterdam
amu
amuri
amurosa
amurosi
amurosu
amurriti
an
ana
anacamptis
anagni
anali
analisa
analisi
analitica
analiza
analoga
analoghi
analogu
analugii
analysis
analytics
ananus
anas
anassimandru
anatolia
anatolica
anatolichi
anatolicu
anatomia
anatulia
anatumia
anc
anca
anch
anche
anchi
anchusa
anciclupedia
anciclupidia
ancien
ancinu
ancona
ancora
ancu
and
anda
andai
andalusia
andalusu
andamentu
andare
andata
andate
andati
andatu
andatura
andava
andavani
andavanu
ande
andemu
andendu
anderson
andes
andi
ando
andorra
andre
andrea
andreani
andreas
andrew
andri
andria
androgeu
andromeda
andy
aneddi
aneddu
anelli
anellu
anfibii
anfibiu
anfuri
ange
angel
angeles
angeli
angelica
angelini
angelique
angelo
angers
anggun
anghjula
anghjuli
anghjulu
angio
angioina
angioini
angioinu
angiuini
anglensis
anglo
anglona
anglu
anglusassone
anglusassoni
anglusassonu
angnula
angola
angui
anguilla
angulari
anguli
angulo
angulu
angunia
angustifolia
anh
ani
anima
animal
animale
animalem
animali
animals
animata
animati
animation
animatu
animazione
animazioni
anime
animi
animu
ann
anna
annali
annant
annantu
annas
annasa
annata
annate
annati
annatu
anne
annega
annessi
annessu
anni
annibale
annie
annissioni
anniversariu
annivirsariu
anno
annosi
annosu
annu
annua
annuale
annuali
annui
annuiosu
annuncia
annunciatu
annunziatu
annunzio
annunziu
annus
annǝ
anogramma
anonima
anori
another
ans
answer
ant
antartide
antartidi
ante
antenati
antenatu
anterior
anteriore
anteriores
anteriori
antes
anthericum
anthologie
anthony
anthyllis
anti
antica
anticamente
anticamenti
anticarri
antiche
antichi
antichissima
antichissimi
antichissimu
antichita
anticorsu
anticu
antigli
antiglie
antigua
antiidrugenu
antimateria
antimoniu
antinati
antinatu
antiochia
antioquia
antipapa
antiparticula
antiprutoni
antiprutonu
antiriori
antisanti
antiurariu
anto
antoine
antologia
anton
antone
antonetti
antoni
antonia
antonimu
antonini
antonino
antoninu
antonio
antoniu
antonu
antra
antri
antropologia
antru
antucula
antulugia
antunettu
antuninu
antunumasia
antwoord
anu
anual
anumalii
anversa
any
anything
anzi
anziana
anziane
anziani
anzianu
anziche
aosta
aostu
ap
apa
apache
aparece
aparecera
aparta
apartamenti
aparti
apartu
apartura
aparturi
ape
apem
aperta
aperte
aperti
apertu
apertura
aperture
aphorismos
apiaceae
apifera
apis
apj
apk
apl
apm
apo
apocrifi
apollodoru
apollonio
apollu
apostuli
apostulu
apoyar
apoyo
app
appa
apparechji
apparechju
apparente
apparenti
apparenza
appari
appariatu
apparintamenti
apparisce
appariscenu
apparisci
appariscia
appariscini
apparizione
apparizioni
apparsa
apparsu
appartamentu
appartene
appartenendu
appartenente
appartenenu
apparteni
appartenini
appartenti
appartinendu
appartinenti
appartinenza
appartinia
appeddu
appellativu
appellu
appena
appendici
appenninicu
appenninu
appesa
appianu
appiattu
appicca
appiccata
appiccicata
appieca
appiettu
appiicata
appiicati
appiicatu
appiicazione
appiicazioni
appinninu
appinza
apple
applica
applicable
applicata
application
applicazione
applicazioni
applichendu
apply
appoghja
appoghju
apportu
apposta
appostu
appressu
apprizziata
apprizziatu
approcciu
appronta
approved
apprunta
apprupriati
apprussimativa
apprussimativamenti
apprussimazione
appruvata
appruvazioni
appruvvisiunamentu
appuntu
apr
apra
aprada
apradata
apradati
apradatu
apradavani
apradendu
apre
aprendu
aprenu
apri
apria
apricciani
april
aprile
aprili
aprilis
aprobacio
apuleiu
apus
apustolica
apw
aqua
aquellas
aquellos
aqui
aquila
aquilegia
aquino
aquinu
aquisgrana
aquitania
aquivalente
ar
ara
araba
arabe
arabi
arabia
arabica
arabicu
arabu
araceae
aragna
arago
aragona
aragone
aragonese
aragunesa
aragunese
aragunesi
aragunesu
araldica
aramaicu
aran
aranci
arancinu
aranciu
araneola
arara
arari
aratu
aratusa
arauca
arawak
arba
arbacea
arbaghju
arbi
arbiddara
arbitrariu
arbitru
arbor
arborea
arborescens
arbori
arbre
arburea
arburescente
arburetti
arburettu
arburi
arburu
arbusti
arbustu
arc
arca
arcadia
arcaica
arcaichi
arcaicu
arcati
archaeolacerta
archaeology
arche
archeologia
archeologicu
archera
archeuloghi
archeulogica
archeulogiche
archeulogichi
archeulogicu
archeulogu
archeulugia
archi
archimede
archipelagu
architecture
architettata
architetti
architettonicu
architettu
architettura
architetturale
architittonica
architittonichi
architittonicu
architittura
archiuloghi
archiulogica
archiulogichi
archiulogicu
archiulogu
archiulugia
archive
archives
archivi
archivie
archivii
archivio
archiviu
archivo
archivos
arcibabbone
arcidiacunu
arcidiocesi
arciduca
arcipelaghi
arcipelagu
arcivescu
arctan
arcu
arcusgi
ardara
arditu
are
area
areale
areas
arechja
arechje
arechji
aree
aregnu
arena
arezzu
argentina
argentinu
argentu
arghja
arghjentu
arghjetu
arghjintina
arghjusta
argo
argone
argonu
argu
argumenti
argumentu
argunauti
argutifolius
aria
ariali
arianna
arice
arici
aricia
aride
aridi
arie
arii
arimitu
arisarum
aristolochia
aristotele
aristoteli
aristotelis
aristucratica
aristucrazia
aritmetica
aritmetiche
aritmetichi
arizona
arkansas
arles
arm
arma
armamenti
armand
armata
armate
armati
armatu
armatura
arme
armena
armeni
armenia
armeniaca
armenu
armi
armistiziu
arms
armunia
armuraccia
army
arnese
arnesi
arnestu
arno
arnold
arnoux
aroi
aromaticu
around
arpa
arpege
array
arre
arreca
arrega
arregistratu
arremba
arresta
arrestatu
arrestu
arri
arriba
arrica
arricata
arricatu
arricciula
arrighi
arrighjunata
arrighjunati
arrigoni
arrigonii
arrigu
arrio
arrisica
arrista
arristatu
arrittu
arriva
arrivati
arrivatu
arrivo
arrivolta
arrivu
arrivulta
arrizza
arrori
arru
arruba
arrubatu
arrubecciu
arrussi
arrusti
arruvina
arruvinata
art
arte
artemidi
artemisia
arthi
arthur
arti
artica
artichjoccu
article
articles
articu
articulazione
articulazioni
articuli
articulu
articulus
artificiale
artificiali
artifizi
artifizieru
artigianale
artigianatu
artigiani
artigliaria
artiglieria
artisgianatu
artist
artista
artiste
artisti
artistica
artistiche
artistichi
artisticu
artistu
artlibre
arts
arum
arumenu
arvense
arvensis
arzachena
arzilla
arzillosi
as
asamblea
asamina
asamini
asarciziu
asatta
asattamenti
asattu
asburgu
ascanio
ascedda
ascella
ascension
ascensione
ascesa
asch
aschese
ascinsioni
ascinzioni
ascissa
ascissi
asciutta
asciuttu
asciuva
asclepiu
ascoltu
ascra
ascu
asculta
ase
asempii
asempiu
asercita
asercitu
aserciziu
asgiata
asgiu
ashkenaziti
asi
asia
asiago
asiatica
asiatichi
asiaticu
asiliu
asimov
asinara
asinau
asini
asinu
asistentes
ask
asked
asociacio
asociado
asociados
asparagus
aspessu
aspetta
aspetti
aspettu
asphodelus
aspira
aspissu
aspitta
aspittatu
aspittava
aspittori
aspleniaceae
asplenium
aspra
aspressu
asprettu
asprezza
aspri
aspru
assa
assaghji
assaghju
assai
assalti
assaltu
assam
assamblea
assamese
assamesu
assassinatu
assassiniu
assassinu
assediu
assegnato
assemblea
assemblei
assente
assenti
assenza
assettu
assi
assia
assicura
assicuratu
assicurendu
asside
assignati
assignatu
assimilatu
assioma
assiomi
assiria
assiru
assista
assistance
assiste
assistenti
assistenza
assisti
asso
association
associatu
associazione
associu
assoluta
assolutu
assu
assuan
assuciata
assuciati
assuciativa
assuciatu
assuciazione
assuciazioni
assuliati
assuluta
assulutamenti
assuluti
assulutu
assuma
assume
assumendu
assumi
assumiglia
assumigliani
assumiglianu
assunsi
assunta
assunti
assuntu
assunzione
assurbimentu
asta
asteraceae
asteroide
asti
astiroidi
astra
astratta
astrattu
astre
astri
astrolugia
astronomi
astronomia
astronumia
astru
astrunomi
astrunomica
astrunomichi
astrunomicu
astrunomu
astrunumia
astu
asturia
asturiana
asturiano
asturianu
astuti
astutu
at
ata
atacama
atalanta
atbara
atea
ateisimu
atena
atene
ateni
ateniesi
atgm
athyrium
ati
atina
atinesa
atinesi
atla
atlanta
atlanti
atlantic
atlantica
atlantichi
atlanticu
atlas
atle
atleti
atmosfera
atmusfera
atmusferica
atmusferichi
atomi
atomica
atomicu
atomu
atona
atribuciones
atricapilla
atroce
attacca
attaccante
attaccanti
attaccanu
attaccata
attaccati
attaccatu
attacchi
attacco
attaccu
attalla
atteddu
attempa
attention
attentu
attenzione
attesa
attesta
attestanu
attestata
atti
attica
atticu
attigni
attimpa
attimu
attindibilita
attinzione
attinzioni
attira
attiro
attistata
attistatu
attitude
attitudina
attitudine
attiva
attivi
attivista
attivita
attivu
attore
attori
attornu
attrattu
attraversa
attraversatu
attraversu
attravirsata
attravirsatu
attravirsendu
attrazzati
attrazzu
attribuisce
attribuisci
attribuiscia
attribuita
attribuiti
attribuitu
attributi
attribuzione
attribuzioni
attrice
attu
attuale
attuali
attualita
attualmente
attualmenti
attundati
attundatu
au
aubulidi
auccia
auccianesi
audde
audi
audio
auditivu
audrey
auguriu
august
augusta
auguste
augustea
augustin
augusto
augustu
augustus
aujourd
aumenta
aumentatu
aumentu
auminta
aumintatu
aumintendu
aunque
aurea
auropa
auropea
auropei
auropeu
aurora
aurupea
aus
ausiliaria
auspici
aussi
austerlitz
austin
austinu
australe
australi
australia
australiana
australiani
australianu
austria
austriaca
austriachi
austriaci
austriacu
austru
austu
autanticita
autenticu
auto
automa
automatic
automatica
automaticamente
automobile
autonoma
autonome
autonomia
autonomistu
autonomu
autonuma
autor
autore
autori
autoridad
autorita
autorizatu
autorizazione
autostrada
autres
autrice
autubiugrafia
autumnus
autunnu
autunoma
autunumia
auturita
auturnu
aux
av
ava
aval
avale
avali
avambracciu
avantaghji
avantaghju
avanti
avanza
avanzata
avanzati
avanzatu
avanzendu
avanzu
avapessa
avara
avare
avareti
avari
avaria
avariani
avarianu
avaristi
avaru
ave
avea
avec
avemu
avendu
avenimenti
aventi
aventinu
aventure
aventures
aver
averages
averanu
avere
averebbe
averi
averia
averianu
avesse
avessi
avete
aveti
aveva
avevanu
avi
avia
aviani
avianu
avicellus
avifauna
avio
avione
avis
avissi
avissini
avisti
aviv
avoir
avoriu
avretu
avril
avucatu
avuti
avutu
avvena
avvene
avveni
avvenimentu
avventu
avventura
avventure
avvenuta
avverbiu
avversariu
avvezzi
avvicina
avvicinamentu
avvicino
avvilanata
avvinimenti
avvinimentu
avviniti
avvintura
avvinuta
avvio
avvirsarii
avvirsariu
avvisu
avvizza
avvucatu
award
awards
away
ayuda
ayudar
az
azardu
azerbaighjan
azeru
azilonu
azione
azoricum
azotu
azov
azzana
azzione
azzioni
azzori
azzurra
aʃ
b
ba
baba
babba
babbi
babbu
babilonia
babiluniana
babiluniani
babilunianu
baby
baccala
baccu
bach
bacia
bacillus
bacini
bacinu
back
bad
bada
badda
baddi
baddu
baden
badesi
badge
baga
bagdad
baghdad
baghi
bagna
bagnata
bagnati
bagnatu
bagni
bagno
bagnu
bagu
bah
bahamas
bahia
baia
baii
baiji
baikal
bainville
bainzu
baja
bajkal
bajo
baker
bal
bala
balagna
balanina
balanini
balaninu
balcani
balcanica
balco
balcone
balconu
balculu
baldellia
baleare
baleari
balearicu
balena
bali
baliari
balinese
balinesu
balistreri
ball
balla
balle
ballinu
ballo
ballu
balogna
balsamu
baltichi
balticu
bambini
bambinu
ban
banach
banca
bancaria
banchetti
banchettu
banchieri
banco
bancomer
bancu
band
banda
bandana
bande
bandera
bandi
banditi
banditu
bando
bang
bangladesh
bank
bantu
baptiste
bar
bara
barack
baracuccu
barba
barbada
barbados
barbaghju
barbara
barbareschi
barbari
barbaru
barbatus
barberino
barbossa
barbutu
barca
barcaghju
barcellona
barcelona
barche
barchetta
barchi
barcilona
bardi
bardot
baretta
bargude
bari
barili
barisone
barlia
barnes
barocca
baroccu
barona
barone
baroni
baronu
baroque
barquq
barra
barrata
barre
barrea
barred
barretta
barrettali
barretti
barri
barry
bartoli
bartolo
bartolomeo
bartolu
bas
basa
basale
basaltichi
basamentu
basata
basate
basati
basatu
baschiccia
basco
bascu
base
based
basendu
basgia
basgiata
basgiu
basi
basilea
basilica
basilicata
basin
bassa
basse
bassi
bassiccia
bassista
bassistu
bassorah
bassu
bassupianu
bassurilievu
basta
bastani
bastante
bastardu
bastare
baste
bastelica
basti
bastia
bastiacci
bastiaccia
bastiacciu
bastiais
bastianu
bastilicaccia
bastimenti
bastimentu
bastione
bastioni
bastone
bastonu
bat
batalla
batellu
bateman
bath
batista
batman
batrachi
batraciens
batt
batta
battagli
battaglia
battaglie
battaglioni
batte
batteddi
battelli
battellu
battendu
batteria
batterista
battesti
battestini
battezimu
batti
battifocu
battini
battista
battisteru
battisti
battizatu
battu
battuta
battuti
battutu
batu
baumann
bava
bavedda
baveddu
bavella
bavellu
baviera
bay
bazzicone
bazzoni
bba
bbc
bbenu
bbva
bc
bd
be
beach
beast
beatles
beatu
beau
beaucarnea
beauharnais
beautiful
beauvoir
beaux
bec
because
becca
beccazza
beccu
beck
beckett
bed
bedda
beddanova
beddi
beddu
beddula
bedriagae
beduina
beduini
bee
been
before
begin
beie
beienu
bel
belasco
bele
belga
belghju
belgica
belgichi
belgicu
belgio
belgradu
belgude
believe
bell
bella
belladonna
belle
bellezza
belli
bellini
bello
bellu
bellula
belmonte
belo
below
belt
belvideri
ben
bench
benche
benchi
bene
benedetta
benedetti
benedettini
benedetto
benedettu
benefiziu
beneventu
bengala
bengalese
bengali
beni
benin
benista
benjamin
benoi
benos
bensi
benvenutu
benvinuta
benz
beozia
ber
berbari
berbaru
berberi
berberis
berberu
berenices
beretta
berg
bergamo
bergamu
berger
berilliu
bering
berisha
berkeley
berlin
berlinu
berlusconi
berna
bernard
bernardini
bernardo
bernardu
bernhard
bernini
bersaghju
berti
bertocchini
bertoleoni
bertolonii
bertrand
best
bestia
bestiame
bestie
bestii
beta
betlemme
better
between
bevincu
beyond
bg
bhutan
bhutanese
bhutanesu
bi
bia
biada
biagio
bian
bianca
biancarelli
bianche
bianchi
bianchicciu
bianco
biancone
bianconi
biancu
biasgiu
biatu
bibbia
bibbiuteca
bibere
biblichi
biblicu
biblioteca
bibliothe
bibliuteca
bicca
biccattu
biccazza
biccazzina
biccazzu
bicchina
bicchisgia
biddezza
biddissima
bido
bidunati
bie
biehn
bielorussia
bielorussu
bien
bienes
biera
bierra
biflorum
bifolia
big
biglietti
bigornu
biguglia
bihar
bii
biiettiva
bilanciu
bilia
bill
billboard
billy
bin
binaria
binariu
bingalesu
bini
binomiu
binumiali
bio
biobi
biodiversita
biografia
biography
biologia
biolugia
biolugu
bionda
biondu
bios
biota
biotu
bip
bir
bird
birmania
birmanu
birmingham
bis
biscotti
biscottu
biscutella
bisegna
bisesta
bisesti
bisestile
bisestu
bisettrici
bisgiu
bisinchi
bislingua
bismarck
bisogna
bisogni
bisognu
bissau
bistiamu
bitter
biu
biugrafia
biugrafii
biugrafu
biulogica
biulogicu
biulugia
biunivoca
biuta
bivincu
bizantina
bizantini
bizantinu
bizzicu
bja
bjo
bju
black
blackbeard
blackwell
blaise
blanc
blanca
blanche
blanco
blasone
bleeker
blica
blico
blicos
blocchi
bloccu
bloch
blog
bloggu
blond
blood
blu
blucca
bluccatu
blue
blues
bmw
bnf
bo
board
bob
bobby
boca
bocca
boccacciu
boccaciu
boccala
bocche
bocchi
boce
boci
bodda
boddi
body
boeziu
boga
bogota
boi
boia
boiardo
boie
boii
boiss
boiu
bokma
bol
boletus
boli
bolivia
bolla
bolle
bologna
bolsena
bomba
bombo
bombus
bombyliflora
bompiani
bon
bona
bonanno
bonaparte
bonaventura
bonbucconi
bond
bone
bonelli
bonfigliu
bonghjornu
bongiorni
boni
bonifacio
bonifaciu
bonifatu
bonifaziu
bonu
bonus
book
books
boom
boraginaceae
borbone
bordeaux
bordi
bordu
boreale
borghese
borghetti
borghi
borgia
borgo
borgu
born
bornholm
borsa
borse
bortigiadas
boru
bosch
boschi
bosco
boscu
bosforu
bosnia
bosoni
boss
boston
bot
botanica
botanicu
botanique
botanistu
botazuana
both
bother
boto
botrychium
botta
botte
botti
botticelli
bouchet
boulevard
boulmer
boushaki
boxe
boxing
boy
boyaca
boyer
boys
boziu
br
bra
brabant
brac
bracce
bracci
braccia
bracciu
brad
bradley
brahe
brahma
brahmagupta
brama
bramante
bramu
branata
branca
branche
branco
brancoli
brandonu
brandu
branu
brasil
brasile
brasili
brasilia
brasiliana
brasiliani
brasilianu
brassicaceae
brattee
braun
bravone
bravu
bre
break
breakfast
brehm
brendan
brenna
brennu
brescia
brest
bretagna
breton
bretone
brettagnica
brettone
breuer
breve
brevemente
brevetti
brevettu
brevi
bri
briacu
brian
brien
brienne
brigata
bright
brigitte
brillanti
brindisi
brionu
britagna
britannia
britannica
britanniche
britannichi
britannicu
british
britonu
brittagna
brittania
brittannicu
briu
brivettu
brizzi
broad
brocciu
broccu
brokeback
bronzu
brown
browning
bru
bruce
brugu
bruna
brune
brunetta
bruni
bruno
brunu
brunza
brunzu
brusgi
brusgia
brusgiata
brusgiatu
brusticu
brutali
brutta
bruttu
bruvettu
bruxelles
bryan
brɛ
bside
bu
buca
bucca
buccata
buccati
buccelli
buccentone
bucchi
bucci
bucconu
buchja
buchjula
bucia
buciuleddi
bucolichi
bucugna
budapest
buddenti
buddisimu
budget
budoni
buena
buenavista
buenos
buffetta
buffonu
bufona
bugghju
bughja
bughji
bughju
bugia
bugiardu
buglossa
bugnu
bula
bulbi
bulbocodium
bulbu
bulgaria
bulgaru
buli
bulica
bulivia
bullente
bulletin
bulletinu
bullini
bullitinu
bullore
bulogna
bultigghjata
bulu
bumbarda
bunifazincu
bunifaziu
bunta
buon
buonaparte
buonarroti
buonǝ
bur
burbone
burchini
bureali
burghesia
burgogna
buriati
buridanu
burkina
burla
burm
burns
burra
bursa
bursieru
burton
burundi
bus
busca
buscagliolu
buscar
buscu
busniacu
bussola
bussu
busta
bustanicu
bustu
but
butanica
butanicu
buteo
buti
button
buzaiu
by
bɔ
bɛ
c
ca
cabbia
cabinettu
cabo
cabrera
caca
cacadore
cacadori
cacatore
cacatu
caccia
cacciadore
cacciadori
cacciata
cacciati
cacciatu
caccighja
caccighjeghja
cacciu
cachoeira
cada
cadaveri
cadaveru
caddi
cade
cadente
cadenza
cadi
cadini
cadmu
cadorna
caduta
caduti
cadutu
caelum
cafe
caffe
cage
caghendu
caghjuna
caghjunata
caghjunatu
caghjuneghja
caghjunendu
cagione
cagiunata
cagliari
caglina
cagna
cagnacci
cagnacciu
cagnanu
cagnetta
cahiers
cai
caifassu
cairu
cal
cala
calabrese
calabresu
calabria
calacuccia
calais
calamaghju
calamaru
calamita
calanca
calanche
calanchi
calangianus
calasanziu
calasima
calata
calatu
calca
calcagna
calcagnu
calcaria
calcarie
calcarii
calcariu
calcatoghju
calchi
calchissia
calci
calcina
calcio
calciu
calcosa
calcula
calculatrici
calculeghja
calculevule
calculevuli
calculi
calculu
calcutta
calda
caldane
caldareddu
caldas
calde
caldi
caldu
cale
caledonia
calenda
calendario
calendariu
calenzana
calepina
cali
calice
caliciu
calicut
calidad
calidonia
califfatu
califfu
california
calindariu
calinzana
calinzanincu
call
calle
called
callimacu
callistu
callu
calma
calmu
calore
calori
calotta
caltanissetta
calura
calvese
calvi
calvia
calvin
calypso
calze
calzi
calzoni
calzu
cam
camara
camaratu
camari
camba
cambia
cambiamenti
cambiamentu
cambianu
cambiar
cambiata
cambiatu
cambiendu
cambio
cambios
cambiu
cambre
cambridge
came
cameddu
camera
camere
cameron
camerun
cami
camii
camillo
camilo
caminu
camisgia
camisgimerdosu
cammeddi
cammeddu
cammina
camminu
camosci
camosciu
campa
campagna
campagne
campagni
campagnola
campagnoli
campagnolu
campan
campana
campane
campanella
campani
campania
campanile
campanili
campanu
campanula
campatu
campava
campavanu
campendu
campestris
campi
campidanese
campidanesu
campidanu
campidogliu
campile
campinas
campionati
campionatu
campione
campioni
campionu
campitellu
campiunamentu
campiunati
campiunatu
campo
campoloru
campos
campu
campuli
campulori
campuloru
campumoru
campus
campusantu
camus
camusciara
can
canada
canadese
canadesi
canadesu
canadiana
canadianu
canal
canale
canales
canali
canarelli
canarese
canaresu
canari
canarie
canarii
canavaghja
canavese
cancaru
cancella
cancellieri
cancidda
cancilla
cand
canda
candela
candelle
candelu
candia
candidati
candidatu
candidatura
candita
canditi
canditura
candu
cane
canes
cani
canina
caninu
canis
canna
canne
cannedda
cannella
cannelle
cannes
cannetu
canni
canniccioni
cannone
cannonu
cano
canofula
canonica
canonichi
canonici
canonicu
cansa
canta
cantadora
cantadore
cantadori
cantani
cantante
cantanu
cantara
cantare
cantarinu
cantata
cantate
cantatrice
cantatu
cantautrice
cantava
canteghji
cantelmu
cantendu
canterbury
canterina
canti
cantidad
cantieri
cantieru
cantina
canto
canton
cantona
cantone
cantoni
cantonu
cantor
cantori
cantu
canu
canyon
canzona
canzone
canzoni
canzuneri
canzuneru
cap
capace
capaci
capacidades
capacita
capanna
capanni
capannori
cape
capeddi
capeddu
capella
capelli
capellu
capi
capibiancu
capicorsu
capicursinu
capiddera
capiddi
capidduta
capiddutu
capifila
capilavoru
capillera
capillus
capilluta
capillutu
capilocu
capimachja
capinera
capineru
capisce
capisci
capiscia
capiscu
capital
capitala
capitale
capitali
capitalisimu
capitalistu
capitani
capitanu
capiteddu
capitelli
capitellu
capitu
capituli
capitulu
capizzoni
caporettu
caporossi
cappa
cappedda
cappeddi
cappeddu
cappella
cappelle
cappellina
cappellu
cappelluccia
cappona
cappone
capponu
capra
capraia
capre
caprera
capretti
caprettu
capri
caprifogliu
caprifoliaceae
capriolu
capsula
capu
capua
capula
capunanzi
capunanzu
caput
capuzzina
capǝ
caqueta
car
cara
caracteres
caracutellu
caracutu
caraffa
caragnani
caraibi
caraibica
caraibicu
caramusa
carassiti
carattari
carattaristica
carattaristichi
carattarizata
carattarizati
carattarizatu
carattarizeghja
carattaru
caratteri
caratteristica
caratteristiche
caratteristichi
caratteristicu
caratterizata
caratterizatu
caratterizeghja
caratteru
carattiristichi
caravaggio
caravone
carbini
carbone
carbonica
carboniu
carbonu
carbuccia
carbunatu
carca
carchetu
carchi
carcopino
carcu
carcupinu
card
cardalina
cardi
cardiff
cardinale
cardinali
cardinalita
cardu
carduelis
cardui
cardunculus
care
carenza
carestia
caretta
carezza
cargese
carghjaca
carghjese
carghjesi
cargo
cari
carica
caricu
cariddi
carina
caristia
carita
carl
carla
carlinu
carlo
carlos
carlu
carmen
carmide
carmine
carna
carnaccia
carnali
carne
carni
carnivali
caro
carolina
carols
caronte
caronti
carota
carpazi
carpi
carpinetu
carrara
carrea
carrega
carrera
carri
carriera
carru
carrughji
carrughju
carsu
carta
cartaghjina
cartaghjinesi
cartagine
cartaginese
cartaginesi
carte
carter
cartes
carti
carticasi
cartisianu
cartonu
cartula
caru
carulina
carulu
cary
cas
casa
casabianca
casacconi
casaglione
casaglionu
casalabriva
casale
casali
casalonga
casalta
casaluna
casalvieri
casama
casamacciuli
casamattonu
casanare
casanova
casanu
casata
casate
casati
casca
cascata
cascati
cascatu
casce
casci
cascia
cascina
casciubu
casco
case
casella
caselle
caserta
cases
casetta
casevechje
casey
casgione
casgiu
cash
casi
casinca
caso
casone
casos
caspiu
cassandra
cassano
cassini
casta
castagna
castagne
castagnete
castagnetu
castagni
castagniccia
castagnina
castagnine
castagninu
castagnola
castagnu
castaldu
castan
castanea
caste
castedda
casteddu
castel
castella
castellacquese
castellare
castelli
castellina
castello
castellu
castellucciu
castelnuovo
castelsardo
casticu
castifau
castighi
castiglia
castiglianu
castiglione
castiglioni
castineta
castirla
castita
castle
castra
castro
casu
casuals
cat
catacomba
catacombi
catagnu
catala
catalan
catalana
catalano
catalanu
catalettu
catalina
catalogna
catalogu
catalogue
catalunia
catalunya
catania
catarru
cataru
catarzu
catastaghji
catastaghju
cateau
cateddi
cateddu
catedra
catedral
catedrala
catedrale
categori
category
categuria
categurie
catello
catellu
catena
catenacciu
catene
cateni
cateri
caterina
cateti
catetu
catherine
catiguria
catigurii
catinacciu
cato
catolica
catolichi
catolici
catolicu
cattedrale
cattidrale
cattidrali
cattiva
cattivita
cattivu
cattolica
cattolichi
cattolicu
cattura
catturati
catturatu
cauca
caucasica
caucasicu
caucasiu
caucasu
caught
cauria
causa
causatu
cause
causendu
causi
cav
cava
cavacciole
cavaddaria
cavaddi
cavaddina
cavaddu
cavaliere
cavalieri
cavalieru
cavalleria
cavalli
cavallina
cavallu
cave
caverna
cavichjolu
caviglioli
cavita
cavru
cavu
cavulu
caz
cazzi
cazzu
cb
cc
cca
cchisu
cchiu
cchiǝ
cci
cciula
cciuli
ccu
ccula
ccuni
cd
cdot
ce
cebolla
cebu
cebuanu
ceca
cecca
ceccaldi
ceccarelli
ceccu
cecenu
cechi
cecilia
cecina
cecu
ceda
cedant
cede
cedi
celavu
cele
celebra
celebrata
celebrate
celebratu
celebrazione
celebrazioni
celebre
celebri
celebru
celeste
celesti
celestinu
celi
cellule
celti
celtic
celtica
celtiche
celticu
celu
cen
cena
cennari
cennere
cenni
cennu
censimentu
cent
centauri
centauru
center
centesimi
centimetri
centimi
centinaie
centinare
central
centrale
centrali
centre
centri
centro
centru
centu
centuliri
centuri
centurione
century
cepaea
cephalanthera
ceppa
ceppi
ceppu
cer
cera
ceramica
ceramichi
cerasus
ceratina
cerbaru
cerbellu
cerberus
cerca
cercani
cercanu
cercu
cerere
cereri
ceres
ceri
cerimonia
cern
cerro
certa
certaldo
certamente
certamenti
certe
certi
certificatu
certu
cerva
cerveteri
cervi
cervione
cervioni
cervu
cervus
ces
cesar
cesare
cesarea
cesari
cesariu
cesaru
cese
cesi
cessa
cetacei
cetara
cetera
cetu
ceylan
cf
cfr
cgi
ch
cha
chabot
chamberlain
champagne
champions
championship
chance
chandler
change
channel
channels
chansons
chante
chaplin
chapter
chapters
charlas
charles
charlie
charlotte
charset
chase
chat
chaux
che
cher
chera
cherchju
chere
cheri
cheronea
chersi
chertu
chesky
chestnut
cheta
chete
chetta
chetu
cheveux
cheyenne
chi
chia
chiamo
chiana
chianti
chiaravalle
chiaru
chicago
chidda
chiddu
chiesa
chieti
children
chile
chilean
chilimangiaru
chilla
chilo
chilometri
chilomitri
chilomitru
chimera
chimica
chimiche
chimichi
chimicu
china
chinensis
chinesa
chinese
chinesi
chinesu
chinghi
chio
chirac
chirendu
chirghisu
chirgu
chiricahua
chironu
chirurgu
chisa
chistu
chitarra
chitarre
chitarrista
chitarristu
chitta
chiunqua
chiusa
chiusi
chj
chja
chjaccula
chjachjari
chjama
chjamani
chjamanu
chjamata
chjamate
chjamati
chjamatu
chjamava
chjamavani
chjamavanu
chjamemu
chjamendu
chjami
chjamo
chjamu
chjappa
chjappeddi
chjappona
chjapponu
chjappu
chjara
chjaramente
chjaramenti
chjarasgi
chjarasgiu
chjare
chjari
chjaru
chjassu
chjatra
chjavari
chjave
chjavi
chje
chjeccula
chjerchju
chjesa
chjese
chjina
chjinatu
chjoccula
chjodi
chjodu
chjoma
chjosa
chjose
chjosi
chjostru
chjosu
chju
chjuca
chjuche
chjuchi
chjucu
chjuda
chjude
chjudi
chjughi
chjumi
chjurlinu
chjusa
chjuse
chjuseddi
chjusi
chjustreddi
chjusu
chjusura
chlewey
chm
choco
chorus
chris
christe
christi
christian
christina
christmas
christophe
christopher
chu
chuck
church
churchill
chǝ
chə
ci
cia
ciaffu
cialamella
ciamannaccia
ciambugliu
ciarbeddu
ciarbellu
ciarbicali
ciascunu
ciavatti
ciba
cibu
cicala
cicerone
ciciaronu
cicilia
ciciliana
cicilianu
cicli
cicloni
ciclu
ciconia
cicuta
cido
cidutu
cie
ciel
cielo
ciffri
ciffru
cifri
cigala
cignale
cignali
cignu
cil
cile
cilena
cilenu
cilesta
cilesti
cilestu
cili
cilibra
cilibrata
cilibratu
cilibrazione
cilibrazioni
cilibreghja
cilindrica
cilindricu
cilindru
cima
cime
cimi
cimiterii
cimiteriu
cin
cina
cinarca
cinarchesi
cinca
cinema
cinematografica
cinematograficu
cinese
cinesu
cini
cinnaronu
cinquant
cinquanta
cinquantina
cinque
cinquecentu
cinqui
cinquicentu
cinta
cintinariu
cintrale
cintrali
cintrata
cintu
cintunara
cintunari
cio
cioccia
ciocciu
cioe
cioglu
cioncu
ciosi
ciotta
ciottulu
cipolla
ciprianu
cipru
circ
circa
circadori
circatu
circhendu
circi
circo
circonda
circondani
circondi
circondu
circuitu
circulare
circulari
circulazione
circulazioni
circulu
circumfarenza
circundariu
circundata
circundati
circundatu
circundendu
circunnavigazioni
circus
circuscritta
circuscrizzione
circustanti
circustanzi
ciri
ciriaco
cirimonia
cirimonii
ciriola
cirneu
cirnu
ciro
cirrus
cirtamenti
cirtezza
cirtificatu
ciru
cism
cismontanu
cismonte
cismonti
cismontincu
cismuntanu
cismunticu
cismuntincu
cispra
cissa
cisterna
cistus
cit
cita
citadella
citadinu
citata
citate
citatedda
citatella
citati
citatina
citatini
citatinu
citatu
citazione
citazioni
cites
cities
citra
citroe
citrone
citronu
citrus
citta
cittadinanza
cittadini
cittatinanza
city
ciu
ciucciarella
ciudad
ciuvasciu
ciuvodda
civetta
civicu
civile
civili
civilisazione
civilisazioni
civilta
civita
civitas
civitella
civodda
ckstu
cl
cla
clair
claire
clanu
clara
clarendon
clark
clarke
claro
clash
class
classa
classamentu
classata
classatu
classe
classes
classi
classic
classica
classiche
classichi
classicu
classifica
classificata
classificate
classificati
classificatu
classificazione
classificazioni
classifiche
claude
claudia
claudiano
claudio
claudiu
clausura
cle
clematitis
clemente
clementina
cleru
cleveland
clic
clicca
cliente
clientes
clienti
clima
climate
climatichi
climaticu
climenti
climi
climu
clinica
clive
cloak
cloru
close
club
clubs
clyde
cm
cn
cnica
cnossu
cnrs
co
coach
coast
coats
coautori
cocciula
coccothraustes
coce
cocia
coda
codda
coddani
coddu
code
codibianca
codice
codici
codificacio
codizennula
coeur
cofundatore
coggia
coghinas
coghja
coghju
cogli
coglia
coglie
coglii
cognome
cohen
col
cola
colazione
colchidi
cold
coldplay
cole
colegio
colin
coll
colla
collanu
colle
college
collegium
collesalvetti
colli
collins
collu
colmu
colo
coloane
colomba
colombani
colombano
colombia
colombian
colombiana
colombiano
colombianos
colombu
colon
coloni
colonia
colonica
colonna
colonne
colorado
coloradu
colore
colpa
colpi
colpu
coltelli
colti
coltu
coluber
columbaghju
columbia
columbianu
com
coma
comandante
comandu
combattimenti
combustibile
come
comentario
comentarios
comentaron
comente
comento
comes
comics
comicu
comino
cominu
comite
comiti
comme
commedia
common
commons
commonwealth
commune
communes
communis
communistu
communities
community
como
comore
compagnie
company
compartir
comperare
competencia
competencias
compia
compie
compii
compitu
compiu
comple
completa
complete
completes
compone
comporta
compositore
composta
compra
comprar
compru
compton
comu
comuna
comune
comuni
comunicacio
comunidad
comunita
con
conca
concacaf
concepcio
concerto
concetti
concettu
concordia
concurso
condivi
conectar
conectarse
conexio
conference
configuracio
conghjuntivu
congo
congruenti
congruenza
congu
coni
conica
conichi
connect
connecticut
connery
connor
conocer
conocimiento
conomie
conomique
conquista
conrad
conscie
conseguir
consejo
conservatoire
consideratu
considering
consiste
consomazione
consonante
constitucio
consulta
consulte
consulu
conta
contact
contactar
contacto
contactos
contacts
contani
contanu
contar
conte
contenido
contenidos
content
contenuti
contenutu
contest
contests
conti
continuacio
continuatu
contr
contra
contrario
contrasen
contrattaccu
contro
control
contru
contruversa
contu
conu
convenzione
convocatoria
cook
cooper
cooperation
coordinacio
coordinador
coordinadores
coorte
cop
copa
copenaghen
copernicu
copia
copie
copii
coppa
coppia
coppie
coppii
coppiu
coppola
copre
coprenu
copri
coprini
copyleft
copyright
cor
cora
coranu
corazzati
corbi
corbu
corcia
corciu
corda
cordata
corde
cordero
cordi
cordigera
cordillera
cordu
core
corea
coreanu
corfu
cori
corintu
coriophora
corn
corne
corneille
cornelio
corner
cornicu
cornu
corona
coronidi
corpi
corpilonghi
corps
corpu
corpus
corra
corradinu
corre
correnu
correo
correos
correr
correspondiente
correspondientes
corri
corru
corsa
corscia
corse
corsematin
corsenetinfos
corses
corsi
corsica
corsican
corsicana
corsicanus
corsicis
corsicus
corsipedia
corso
corsu
corta
corte
corti
cortu
coru
corvus
cos
cosa
cosas
cosce
coscia
cose
cosi
cosiddetta
cosiddettu
cossu
cost
costa
costae
costantinu
coste
costi
costia
costituzione
costoli
costu
cot
cota
coti
cotone
cotta
cottu
cotuli
coturnix
count
country
county
court
cova
cover
cp
cracuvia
crateru
crdp
cre
crea
creacio
creada
creanu
crear
creata
create
creati
creative
creatore
creatori
creatu
creazione
creda
crede
credenu
credenza
credenze
credi
creditu
credo
credu
cree
crema
cremona
crena
creo
creolu
crepa
cresce
crescenza
crescenzo
cresci
crescia
crescini
crescita
cresciutu
cresia
cresta
creste
cresu
creta
cretica
creticum
creticus
creu
cri
cria
criata
criati
criatori
criatu
criatura
criaturi
criaturu
criazione
criazioni
cridenza
cridenze
cridia
cridiani
criduta
cridutu
criendu
crimea
criminale
criminali
criminu
crio
cripa
cripta
crisa
criscente
criscenti
crisciti
crisciutu
crisi
crispa
cristaddisazioni
cristal
cristallina
cristiana
cristiane
cristianesimu
cristiani
cristianisimu
cristiano
cristianu
cristina
cristinacce
cristo
cristofani
cristofaru
cristu
crisustomu
criteri
criterii
criterios
criteriu
critesi
critica
criticatu
critiche
critichi
criticu
crizia
cro
croata
croate
croati
croatu
croazia
croce
croci
crocus
crodo
croix
crollu
cromu
cromusomi
cronaca
cronache
cronachi
cronica
cronistu
cronu
cross
crosta
cruatu
cruazia
crucem
crucetta
cruci
crucia
cruciali
cruciata
crucichja
crucifissioni
crucifissu
cruda
crudeli
crudelta
crudu
cruna
crunulugia
crusca
crustacei
cruz
cryptogramma
cs
ctanos
ctor
cu
cua
cuadro
cual
cuales
cualizione
cualizioni
cualquier
cualquiera
cuando
cuba
cubi
cubiti
cubitu
cubu
cuccagna
cuccheddu
cucchi
cuccu
cuccuruzzu
cuchjara
cuchjarone
cuchjaronu
cucin
cucina
cucini
cucinu
cuculus
cucurbita
cucurbitaceae
cudda
cuddata
cuddetta
cuddina
cuddinari
cuddini
cuefficienti
cuenca
cuenta
cuentas
cuerenti
cuesioni
cuginu
cuglia
cuglione
cugnatu
cugnocolu
cugnomatu
cugnome
cugnomi
cugnomu
cugnumata
cugnumatu
cui
cuincidi
cul
cula
culi
culioli
culla
cullaburatu
cullaburazione
cullaburazioni
cullana
cullane
cullatu
cullava
cullega
cullegani
culleghi
culleghju
cullegiu
cullendu
cullettivita
cullettivu
cullezzione
culliga
culligamenti
culligamentu
culligata
culligati
culligatu
culligava
cullighendu
cullina
cullinare
culline
cullittivita
cullizzioni
culloca
cullocanu
culluca
cullucata
cullucati
cullucatu
culluco
culmina
culmine
culmineghja
culminighja
culo
culomba
culombia
culombu
culombula
culoni
culonia
culonie
culonii
culonna
culonne
culonni
culore
culori
culos
culostra
culpi
culpisce
culpita
culpitu
culte
culteddi
cultella
cultelli
cultellu
culti
cultiva
cultivata
cultivate
cultivati
cultivatu
cultivazioni
cultu
cultura
cultural
culturale
culturales
culturali
culture
cultures
culturi
culu
culumbia
culuneddu
culunellu
culuniale
culuniali
culunie
culunisazione
culunisazioni
culunizata
culunizatu
culurazione
culurazioni
culurita
culuritu
cum
cuma
cumanda
cumandante
cumandata
cumani
cumbatta
cumbatte
cumbattenti
cumbatti
cumbattimenti
cumbattimentu
cumbattuta
cumbattutu
cumbinazione
cumbinazioni
cumbustione
cume
cumedia
cumencia
cumenciani
cumenciu
cumi
cumidiola
cumincetini
cumincia
cuminciatu
cuminciava
cumincio
cuminu
cumitatu
cummanda
cummandante
cummandanti
cummandata
cummandati
cummandu
cummedia
cummedie
cummenti
cummentu
cummerci
cummerciale
cummerciali
cummerciante
cummercianti
cummerciu
cummirciali
cummircianti
cummissariu
cummissione
cummissioni
cummissu
cummu
cummuna
cummunita
cummutativa
cumpagna
cumpagni
cumpagnia
cumpagnie
cumpagnu
cumparativu
cumparazione
cumpare
cumpari
cumparisci
cumparsa
cumpassu
cumpatibile
cumpatta
cumpetizione
cumpetizioni
cumpiendu
cumpiimentu
cumpitenzi
cumplementu
cumplessa
cumplesse
cumplessi
cumplessu
cumpletamente
cumpletta
cumplettamente
cumpletti
cumplettu
cumpletu
cumplicata
cumplimenti
cumplimiento
cumplimintariu
cumplir
cumplissita
cumplitamenti
cumplittamente
cumplittamenti
cumplittata
cumplittatu
cumplottu
cumpona
cumpone
cumponenu
cumponi
cumponini
cumporta
cumportamentu
cumportani
cumportanu
cumpositore
cumposta
cumposte
cumposti
cumpostu
cumpra
cumpradore
cumpradori
cumpratore
cumpratu
cumprende
cumprendenu
cumprendi
cumprendia
cumprendini
cumpresa
cumprese
cumpresi
cumpresu
cumprindendu
cumprindenti
cumprindia
cumpuleddu
cumpunente
cumpunenti
cumpunia
cumpunimenti
cumpurta
cumpurtamenti
cumpurtamentu
cumpurtendu
cumpusitore
cumpusitori
cumpusizione
cumpusizioni
cumu
cumulus
cumuna
cumunale
cumunali
cumunamente
cumunamenti
cumune
cumunemente
cumuni
cumunica
cumunicazione
cumunicazioni
cumunista
cumunistu
cumunita
cumunque
cumunu
cun
cuncava
cuncede
cuncentra
cuncepimentu
cuncepitu
cuncerna
cuncernani
cuncernanu
cuncernendu
cuncerti
cuncertu
cuncessa
cuncessi
cuncessu
cuncetti
cuncettu
cuncezzio
cuncezzione
cunchiglia
cunchiglie
cunchjudi
cunciliu
cuncintramentu
cuncintrati
cuncintratu
cuncintrazioni
cuncipita
cuncipiti
cuncipitu
cuncirnendu
cuncissioni
cuncizzioni
cunclusi
cunclusioni
cunclusu
cuncorsi
cuncorsu
cuncurrenza
cundanna
cundannati
cundannatu
cundinamarca
cundita
cundizione
cundizioni
cundiziunali
cundotta
cundottu
cunduce
cunduci
cunducia
cundussi
cundutta
cundutti
cunduttieri
cunduttore
cunduttori
cunduttu
cuneu
cunfarenza
cunfederazione
cunfederazioni
cunferenza
cunferma
cunfessa
cunfida
cunfidenza
cunfigurazione
cunfigurazioni
cunfina
cunfinanti
cunfine
cunfini
cunfinu
cunfirma
cunfirmata
cunfirmatu
cunflitti
cunflittu
cunfluenza
cunfluiscini
cunfonde
cunfortu
cunfraterna
cunfraternita
cunfronti
cunfrontu
cunfrunta
cunfurmazioni
cunfurmita
cunfusa
cunfusi
cunfusione
cunfusioni
cunfusu
cungettura
cunghjugazioni
cunghjunghji
cunghjunta
cunghjuntivu
cunghjuntu
cunghjunzione
cunghjunzioni
cungittura
cungregazione
cungressu
cungruenti
cungruenza
cunigliuli
cunnessa
cunnessi
cunnessione
cunnessu
cunniscendu
cunniscenza
cunniscenze
cunniscenzi
cunnisciuta
cunnisciute
cunnisciuti
cunnisciutu
cunnissioni
cunnosce
cunnoscenu
cunnosci
cunnoscia
cunnoscu
cunnuscenza
cunnuscete
cunnusci
cunnusciuta
cunnusciutu
cunquista
cunquistadori
cunquistata
cunquistati
cunquistatu
cunquisti
cunquisto
cunsacra
cunsacrata
cunsacrati
cunsacratu
cunsacro
cunseguente
cunseguenza
cunseguenze
cunsensu
cunsequenza
cunsequenze
cunserva
cunservani
cunservativa
cunservatoriu
cunservatu
cunservazione
cunsidara
cunsidarata
cunsidarati
cunsidaratu
cunsidarazioni
cunsidareghja
cunsidareghjani
cunsidarendu
cunsidarevuli
cunsidera
cunsiderata
cunsiderate
cunsiderati
cunsideratu
cunsideravanu
cunsiderazione
cunsidereghja
cunsidereghjanu
cunsiderendu
cunsiderevule
cunsigli
cunsiglia
cunsigliatu
cunsigliere
cunsiglieri
cunsiglieru
cunsiglii
cunsigliu
cunsignatu
cunsiguenti
cunsiquenza
cunsiquenzi
cunsirva
cunsirvata
cunsirvati
cunsirvatoriu
cunsirvatu
cunsirvazione
cunsirvazioni
cunsirvo
cunsiste
cunsistenti
cunsistenza
cunsisti
cunsistia
cunsola
cunsonanti
cunsorte
cunsorti
cunsulida
cunsulta
cunsultatu
cunsuma
cunsumata
cunsumu
cunsunante
cunsunanti
cunta
cuntate
cuntati
cuntatti
cuntattu
cuntatu
cuntava
cuntea
cuntempla
cuntemplazione
cuntempuranea
cuntempuranei
cuntempuraneu
cuntendu
cuntene
cuntenenu
cunteni
cuntenini
cuntenta
cuntenti
cuntentu
cuntenuti
cuntenutu
cuntera
cuntesti
cuntestu
cuntimpla
cuntimplazione
cuntimplazioni
cuntimpuranea
cuntimpuranei
cuntimpuraneu
cuntinendu
cuntinentale
cuntinente
cuntinenti
cuntingenti
cuntinia
cuntinintali
cuntinua
cuntinuamenti
cuntinuatu
cuntinuava
cuntinue
cuntinueghja
cuntinueghjani
cuntinueghjanu
cuntinuendu
cuntinui
cuntinuita
cuntinuo
cuntinuta
cuntinuti
cuntinutu
cuntinuu
cuntistata
cuntornu
cuntradizione
cuntraria
cuntrariamente
cuntrariamenti
cuntrarii
cuntrariu
cuntrasta
cuntrasti
cuntrastu
cuntrattu
cuntrazzioni
cuntribui
cuntribuisce
cuntribuisci
cuntribuiscia
cuntribuitu
cuntributi
cuntributu
cuntribuzioni
cuntrolla
cuntrollu
cuntru
cuntrulla
cuntrullata
cuntrullati
cuntrullava
cuntu
cunuscenza
cunvarsazioni
cunvene
cunveni
cunventu
cunvenzione
cunverta
cunvessa
cunvezzione
cunvince
cunvinsi
cunvintu
cunvinzione
cunvinzioni
cunvinziunali
cunvizzioni
cuota
cuotas
cup
cuparchjata
cuparchju
cuparta
cuparti
cupartu
cupartura
cuperchjata
cuperchju
cuperchjulu
cuperta
cuperte
cuperti
cupertu
cupia
cupidu
cupola
cuppa
cuppe
cuppetti
cuppioli
cuppiolu
cuppulata
cuppulate
cuprendu
cupri
cur
cura
curaghjosu
curaghju
curagiu
curallu
curanu
curata
curati
curatorii
curatu
curbara
curdigliera
curdu
cure
curea
cureanu
curi
curie
curiosita
curitiba
curiusita
curnice
curnutu
curolla
curona
curone
curpettirossa
curpulenza
curra
currachji
currazzamentu
currente
currenti
curretta
currette
currettu
curridore
curridori
currieri
currilati
currilazioni
currisponda
currisponde
currispondenti
currispondenu
currispondi
currispondini
currispundente
currispundenti
currispundenza
currispundia
cursa
cursu
cursus
curteccia
curteghju
curtichjatu
curtinese
curtǝ
curu
curva
curve
cusano
cuscenti
cuscenza
cuscinu
cuscione
cuscionu
cuscrittu
cuscuta
cusgera
cusi
cusiddettu
cusidditta
cusidditti
cusiddittu
cusinu
cusmeticu
cusmugrafia
cuspirazione
cuspirazioni
cussi
custantamenti
custante
custanti
custantinopuli
custantinu
custanza
custatazione
custatazioni
custatta
custellazione
custera
custi
custiddazioni
custiera
custiere
custieri
custituenti
custitui
custituisce
custituiscenu
custituisci
custituiscia
custituiscini
custituita
custituite
custituiti
custituitu
custituzione
custituzioni
custituziunali
custodiu
custretta
custretti
custrettu
custringhjendu
custrinsi
custrui
custruisce
custruisci
custruiscia
custruita
custruite
custruiti
custruitu
custruttori
custruzzione
custruzzioni
custudiscia
custuditi
custumi
custumu
cutangenti
cutidiana
cutidianu
cutone
cutrura
cuttesce
cuttighjata
cuttulesi
cuttuli
cuupirazioni
cuurdinate
cuurdinati
cuvasina
cuvata
cuvier
cuzza
cvn
cygnus
cymodocea
cynara
cynoglossum
cyrnos
cyrus
cytinus
cytisus
cǝ
cǝnǝ
cə
d
da
dacca
dacia
dactylorhiza
daenerys
dai
dakota
dal
dalai
dalam
dale
dali
dalila
dall
dalla
dallas
dallu
dalmazia
dama
damascu
damasonium
damasti
dame
damianu
dan
danai
danaide
dananzi
danao
danari
dance
dane
danesch
danese
danesh
danesi
danesu
dani
daniel
danimarca
danni
dannighjata
dannu
dans
dante
danti
danu
danubiu
danza
danzica
dao
dapertuttu
dapoi
dar
dara
dardaneddi
dardu
dare
daremu
daretu
dari
dariu
dark
darwin
das
dasyatis
data
database
datanu
datata
datati
datatu
datazione
datazioni
date
datendu
datevuli
dati
datos
datu
datum
daucus
dava
davante
davanti
dave
davia
david
davide
davidi
davis
davy
dawn
day
days
dc
dcl
ddani
ddu
de
dea
dead
deaf
death
debajo
debe
deben
debera
deberi
debes
debido
debiti
debitu
debule
debuli
debut
debuttatu
decca
dece
decem
december
decembre
deci
decide
decima
decimale
decimali
decina
decine
decir
decisa
decisio
decisione
decisiones
decisu
declinazione
declinu
decori
decoru
decretu
decurata
decuratu
decurazione
deda
dedalu
dedicata
dedicati
dedicatu
dedico
dee
deep
defecto
defini
definicio
definir
definire
definisce
definiscia
definiscini
definita
definite
definiti
definitionem
definitiva
definitivamente
definitivu
definito
definitu
definizione
definizioni
defunti
defuntu
degli
degna
degni
degnu
deh
dei
deianira
dejar
del
delaugerre
delaware
delegati
delfi
delfini
delfinu
delforge
delhi
delimitatu
delitzsch
dell
della
delle
delli
dellu
delta
dema
demetra
demi
democratica
demofonti
demucrazia
den
dendrocopos
dendu
denis
deniz
densa
dense
densi
densita
densu
dentariu
dente
denti
denticulata
dentro
dentru
denuminazione
deo
department
deportes
deportivo
depressione
depuis
der
derecho
derechos
derek
deriva
derivanti
derivata
derivate
derivatu
derivaux
derivazione
deriveghja
deriveghjanu
des
desanti
desarrollar
desarrollo
descartes
describe
description
descrive
descrizzione
desde
deseas
desertu
desf
desfa
desideriu
design
designa
designanu
designatu
designer
despue
destinati
destinatu
destinazione
destino
destinu
destra
detagli
dete
determina
determinatu
deti
detini
detroit
detta
dette
detti
detto
dettu
deum
deus
deutsch
deux
deve
development
devenu
devi
devil
devillers
devini
devinu
devota
devu
dezu
dharma
di
dia
diagunale
diagunali
dialettale
dialettali
dialetti
dialettica
dialetticu
dialetto
dialettu
dialoghi
dialogo
dialogu
diamanti
diamantu
diamitru
diana
dianthus
diaspora
diauli
diavule
diavuli
diavulu
diaz
dibattitu
dibbita
dica
dicadenza
dicamente
dicas
diccionari
dice
dicembre
dicembri
dicendu
dicennii
dicenniu
dicennove
dicennovi
dicenu
dicesimu
dicessette
dicessetti
dicha
dichas
dichjara
dichjaranu
dichjarata
dichjaratu
dichjarava
dichjarazione
dichjarazioni
dichjaro
dicho
dichos
dici
dicia
diciannovi
dicianu
diciassetti
dicida
dicide
dicidi
diciembre
dicina
dicine
dicini
diciottu
dicisi
dicisini
dicisioni
dicisiva
dicisivu
dicisu
diciula
dick
dickens
diclinu
dico
dicoru
dicretu
dictionary
dictionnaire
dictons
dicu
dicurati
dicurativi
dicurazioni
did
didica
didicata
didicati
didicatu
didico
didier
diduci
diducia
die
dieci
diego
diegusjaimes
dies
dieta
dieu
dif
difatti
difenda
difende
difensivu
difensore
diferentes
difesa
difese
difesi
difesu
difetti
difettu
diffarenti
diffarenza
diffarenzi
diffarinziali
different
differente
differenti
differenza
differenze
differenziale
difficile
difficiule
difficiuli
difficulta
diffonda
diffonde
diffusa
diffuse
diffusi
diffusione
diffusioni
diffusu
difi
difini
difinisce
difiniscendu
difinisci
difiniscia
difinita
difiniti
difinitivamenti
difinitu
difinizione
difinizioni
difusio
diga
dighi
dighja
dighjunu
digia
digital
dignalocu
dignita
digo
digradazioni
dii
dila
dilega
dilettanti
diligata
diligati
diligatu
dilimitata
dilimitatu
dill
dilla
dilluviu
dimarchja
dimensione
diminsioni
diminuisce
diminuisci
diminuiscini
diminuitu
diminutivu
diminuzioni
dimissioni
dimmi
dimoniu
dimora
dimostra
dimostrani
dimucratica
dimucratichi
dimucrazia
dimucrazii
dimugrafica
dimugraficu
dimurfisimu
dimustra
dimustrata
dimustrativi
dimustrativu
dimustratu
dimustrazione
dimustrazioni
dimustrendu
dimustro
din
dina
dinamica
dinamichi
dinamo
dinari
dinaru
dinastia
dinero
dino
dinsamenti
dinsita
dintariu
dintorni
dinu
dinuminata
dinuminatore
dinuminatu
dinuminazione
dinuminazioni
dinuncia
dinunciatu
dio
diocese
diocesi
diodoru
diogene
dion
dione
dionigi
dionisu
dionomachia
dionysos
dipartamentu
dipartimentale
dipartimenti
dipartimentu
dipende
dipendenu
dipendi
dipendia
dipindia
dipinti
dipintu
diploma
diplomaticu
diplomu
diplumatica
diplumatichi
diplumaticu
dipo
dipoi
dipona
dipositi
dipositu
dipostu
diprissioni
dipusizioni
diputati
diputatu
dir
dirac
dire
direccio
directamente
direction
directivo
director
diretta
direttamente
diretti
direttiva
direttore
direttu
direzione
direzzione
diri
dirige
dirighje
dirighjenti
dirighji
dirighjita
dirighjiti
dirighjitu
diritta
dirittamente
dirittamenti
diritti
dirittori
dirittoriu
dirittu
diriva
dirivaria
dirivata
dirivati
dirivatu
dirivazioni
diriveghja
dirivighja
dirizzioni
dirradicatu
dis
disabitata
disastru
disc
discendente
discendenti
discepuli
discepulu
dischettu
dischi
discindenti
discindenza
disciplina
discipline
disciplini
discoglossus
discorra
discorre
discorsi
discorsu
discreta
discretu
discriminazione
discritta
discritte
discritti
discrittiva
discrittivi
discrittivu
discrittu
discriva
discrive
discrivendu
discrivi
discrivini
discrizzioni
discu
discuglossu
discugraficu
discuntinuita
discursu
discusio
discusiones
discussione
discussioni
discuti
discutio
disegni
disegnu
disen
diserti
disertica
disertichi
disertu
disfa
disfatta
disfattu
disgrazia
disgraziata
disgrigazioni
disguasti
disigna
disignata
disignatu
disignava
dismurfisimu
disney
diso
disordine
disordini
dispari
disparu
dispersioni
dispettu
dispiace
displaystyle
dispona
dispone
disponi
disponible
disponibles
disposizione
disposta
disposte
disposti
disprezza
disprezzu
disprizza
dispunibile
dispunibili
dispusitivu
dispusizione
dispusizioni
dispusizzioni
disputa
disqus
disse
dissegnu
disserta
dissertazione
dissi
dissirtazioni
distaccamentu
distaccu
distachya
distante
distanti
distanza
distanze
distanzi
distina
distinata
distinati
distinatu
distinazioni
distingua
distingue
distingui
distinguini
distinta
distinte
distinti
distintivu
distintu
distinu
distinzione
distinzioni
distrettu
distribucio
distribuita
distribuiti
distribuitu
distribuzione
distribuzioni
distritti
distrittu
distrughja
distrughje
distrutta
distrutte
distrutti
distruttu
distruzzione
distruzzioni
disturbatu
disugualita
disusu
dit
dita
ditagliu
ditali
ditarmina
ditarminanti
ditarminata
ditarminatu
dite
ditermina
ditermineghja
diterrane
diti
ditions
dito
ditta
dittagli
dittagliata
dittagliatu
dittagliu
ditti
dittonghi
dittongu
dittu
ditu
diu
diussidu
divaria
divarsita
divartimentu
divene
divenne
diventa
diventani
diventanu
diventata
diventate
diventati
diventatu
diventendu
diventera
divento
diversa
diverse
diversi
diversita
diverta
diverte
divertimentu
divi
divia
diviani
divida
divide
dividendu
dividi
dividini
divina
divini
divinita
divinta
divintara
divintarani
divintata
divintati
divintatu
divintendu
divinto
divinu
divirtimentu
divisa
divise
divisi
divisibili
divisione
divisioni
divisori
divisu
divorziu
divota
divuta
divutu
diwu
dix
dizionario
diziunariu
dizz
dizziunariu
dj
dja
dju
dla
dlu
dna
do
doc
doctor
docu
documentazione
documenti
documentos
documentu
dodeci
dodicesimu
dodici
dog
doge
dohrnii
doi
doisneau
dolce
dolci
doli
dollari
dolu
domenico
domesticus
domine
dominici
dominio
dominique
dominum
domu
don
dona
donacio
donaciones
donald
donar
donato
donde
dong
doni
donjon
donna
donne
donni
donu
door
doors
dop
dopo
doppia
doppiu
dopu
dopuguerra
dor
dori
doria
doris
dorlan
dorma
dorme
dormi
dormire
dormu
dos
dossu
dota
douard
douglas
dove
down
downs
dr
dracone
dragon
dragonu
drama
dramaturgu
drami
drammatica
drammaticu
drappu
draw
dream
drent
drentu
dresda
drintu
dritta
dritti
drittu
dru
dryopteridaceae
dryopteris
du
duarte
dubbia
dubbiti
dubbitu
dublin
dublinu
duca
ducale
ducatu
duchessa
ducumenti
ducumentu
ducumintata
ducumintazioni
dudas
due
duellu
dugnunu
dui
duie
dulcezza
dulci
dullari
dulore
dulori
dumanda
dumandatu
dumandavanu
dumande
dumandi
dumando
dumandu
dumane
dumani
dumas
dume
dumenica
dumenicu
dumestichi
dumina
duminanti
duminanza
duminata
duminatu
duminazione
duminazioni
dumineghja
duminii
duminiu
dunatu
duncan
dund
dunde
dundee
dundi
duni
duno
dunqua
dunque
duo
duomo
dura
duran
durant
durante
duranti
duranu
durata
duratu
durazzo
durazzu
dure
durente
durevule
durezza
durghi
durgu
duri
durieui
during
durmendu
durmi
durmitoriu
duro
dursale
dursali
duru
dut
dutata
dutati
dutatu
duttore
duttori
duttrina
duttrine
dutturatu
duv
duva
duve
duvere
duveri
duveria
duvete
duvia
duvianu
duvissi
duvite
duviti
duvu
duvuta
duvute
duvuti
duvutu
dvd
dylan
dz
dzjɔnɛ
dǝ
dɔrɛ
də
dɛ
dɛzɛ
dʒu
dʒɛ
e
ea
each
eagle
early
earth
east
eastern
eau
ebbe
ebbenu
ebbi
ebbica
ebbichi
ebbini
ebraica
ebraicu
ebre
ebrea
ebrei
ebreu
ebride
ebro
ebru
ecc
eccellente
eccellenti
eccellenza
eccezione
eccezzione
eccezzioni
eccezziunale
eccezziunali
eccica
eccittuatu
eccituatu
eccizziunalamenti
ecclesia
ecclesiae
ecclesiastica
ecclesiastichi
ecclesiasticu
ecclissa
eccu
echidna
echium
echo
eclittica
eclogue
econo
economia
economica
economiche
economicu
economisti
economistu
econumia
ecu
ecuador
eculugia
ecunomica
ecunomiche
ecunomichi
ecunomicu
ecunumetria
ecunumia
ecusistemi
ed
edd
edda
eddi
eddie
eddu
eden
edgar
edge
edicio
edicions
edifica
edificata
edificati
edificatu
edifici
edificiu
edifizii
edifiziu
edimburgu
edipu
edirne
edison
edisud
editar
edition
editions
editor
editore
editores
editori
editorial
editors
editrice
edizione
edizioni
edmondu
edmonton
edmund
edouard
eds
edu
eduardo
educacio
education
educativa
educativu
educazione
educazioni
edward
edwards
edwin
eeta
efectos
efesu
effect
effetti
effettiva
effettivi
effettivu
effettu
effettua
efficace
efficaci
efficienti
efficienza
effittivamenti
effittua
effittuata
effittuati
effittuatu
effittueghja
efforts
efialti
egei
egeiu
egemunia
egeu
egida
egittu
egiziana
egiziani
egizianu
egizziana
egizziani
egizzianu
eglises
egloga
egloghi
ego
ei
ein
einaudi
eine
einstein
eintracht
eis
eiu
eius
ejecucio
ejemplo
ejemplos
ejercicio
ek
el
elaburata
elaburati
elaburatu
elaburazioni
elam
elaphus
elata
elba
elbani
elbu
elea
eleccio
electa
electro
elefante
elefanti
eleganti
eleghje
elegir
eleison
elementari
elementaria
elementarii
elementi
elements
elementu
elena
elencu
eletta
eletti
elettra
elettrica
elettriche
elettricu
elettronica
elettronichi
elettronicu
elettu
eleva
elevata
elevati
elevatu
elevi
elevu
elezzione
elias
elimina
eliminata
eliminatu
eliminazione
elisa
elisabeth
elisabetta
elittricita
elittroni
elittronu
eliu
elizabeth
ell
ella
elle
ellenica
elli
ellinistica
ellinisticu
ellisse
ellissi
ellissica
ellittica
ellittichi
ello
ellos
ellu
elmi
elmu
els
elsa
else
eluquenza
em
emanuele
embargo
emberiza
emblema
emblematica
emblematicu
emera
emerge
emergenza
emerghjini
emersi
emersu
emessu
emette
emetti
emigrati
emigratu
emigrazione
emilia
emilianu
emilio
emily
emirati
emisferu
emissariu
emissione
emissioni
emma
emmanuel
emmy
emperado
empezar
empia
empie
empiutu
emu
emuzione
emuzioni
emys
en
enciclopedia
enciclupedia
enclos
encontrar
encontrara
encore
encourage
encuentra
encuentran
encuentren
encuentro
encuentros
encuesta
encuestas
encyclopedia
encyclopædia
end
ende
endemica
endemichi
endemicu
endorse
endymion
enea
eneide
eneidi
energia
enero
enfoque
engage
england
english
enigma
enlace
enlaces
enna
enorma
enorme
enormi
enormu
enough
enrico
enrique
ens
ente
entertainment
entidad
entidades
entita
entonces
entra
entrambi
entrar
entrata
entrate
entratu
entre
entri
entro
entru
entusiasmu
enunciati
enunciatu
enver
envi
enviar
eo
eolica
eolie
ep
ephe
ephedra
epica
epicentru
epiche
epichi
epicu
epidemia
epifania
epifaniu
epigrafia
epinephelus
epipactis
episodii
episodiu
epitetu
epoca
eponimu
epops
epos
eppo
eppoi
eppuri
eppuru
epuca
equatore
equatori
equatoriale
equaturiale
equaturiali
equazione
equazioni
equilateri
equilateru
equilibriu
equilibru
equinoziu
equipaggiu
equipaghju
equipo
equisetum
equivalente
equivalenti
equivalenza
equivali
equus
er
era
eraclitu
erami
eramu
erani
eranu
erasmu
erati
erba
erbacea
erbaghjolu
erbalonga
erbalunga
erbe
erculu
ere
erede
eredi
eredita
ereditatu
eres
eretta
eretti
erettu
ergo
eri
eric
erica
erich
eridano
erie
eris
eritrea
ermafrodita
ermes
erminiu
ermitage
ernest
ernesto
ernia
erodi
erodium
erodotu
erodutu
eroe
eroi
erone
eros
errore
ersa
eru
eruditi
erudutea
erula
erusione
erusioni
eruzione
eruzioni
erzegovina
es
esa
esame
esamina
esas
esatta
esattamente
esattezza
esattu
esca
esce
eschig
eschilu
esci
escia
escinzialamenti
escinziali
esciuta
esciuti
esciutu
esclamazione
esclamazioni
escludendu
esclusa
esclusivamente
esclusivamenti
escoba
escobar
escopa
escri
escribe
escribir
escuela
esculapiu
ese
esecutivu
esecuzioni
esempi
esempii
esempiu
esemplari
esemplarii
esercita
eserciti
esercitu
eserciziu
eshnunna
esi
esigenzi
esiliati
esiliatu
esiliu
esimplare
esimplari
esimu
esiodu
esioni
esista
esistanu
esiste
esistente
esistenti
esistenu
esistenza
esisti
esistia
esistini
esistonu
esistutu
esiti
esito
esitu
eso
esopu
esos
espacio
espan
espansione
espansioni
espe
especial
espera
esperanto
esperantu
esperar
esperidi
esperit
esplicitu
espluratori
esponi
esposta
esposti
espostu
espressione
espressioni
espressivu
espressu
esprime
esprissione
esprissioni
esprit
espulsi
espulsione
espulsioni
espunenti
espusizioni
essa
essari
essaru
essays
esse
essendu
essential
essenza
essenziale
essenziali
essenzialmente
essere
esseri
essezza
essinziali
essoche
est
esta
establecer
estado
estados
estamos
estar
estara
estaru
estas
estate
estatuto
estatutos
este
esteban
estensione
esteri
esterna
esterni
esternu
esteru
estetica
estimi
estimu
estinsione
estinsioni
estinta
estinzione
estinzioni
estiva
estivi
estivu
esto
estone
estonia
estos
estratti
estrattu
estrazioni
estrema
estremamente
estremamenti
estremi
estremita
estremu
estru
estu
estudiantes
et
eta
etc
ete
eterna
eternita
eternu
ethnologue
eti
etica
etima
etimologia
etimologicamente
etimulugia
etiopi
etiopia
etiupia
etna
etnia
etnica
etnichi
etnicu
etra
etruria
etrusca
etruscans
etrusche
etruschi
etruscu
ettari
ettiopia
ettori
ettu
etymologia
eu
eubea
eucalyptus
euclide
euclidea
euclideu
euclidiana
eud
euge
eugenio
euler
eulero
euphorbia
euproctus
eurasia
euripidi
euristeu
euro
europa
europaeus
europe
europea
european
europee
europei
europeu
euros
euru
eurupea
evacuata
evans
evapurazioni
even
evenimenti
event
eventi
evento
eventos
events
eventualmente
everest
everyone
evidente
evidenti
evidenza
evidintamenti
evintuali
evisa
evita
evitar
evitendu
evoluatu
evolution
evoluzione
evucheghja
evuluzione
evuluzioni
evvenimenti
evvenimentu
ex
exaltata
examen
excepcio
exi
existe
existen
expect
expenses
experience
expingere
express
expression
expressions
extra
extraordinario
extre
exuatini
eye
eyes
ez
f
fa
fabaceae
fabbrica
faberge
fabiani
fabianu
fabio
fabrica
fabricazione
fabricazioni
fac
facci
faccia
facciali
facciata
facciate
facciu
face
facebook
facendu
facenu
faceva
faci
facia
faciani
facianu
facile
facilita
facilmente
facini
faciulamenti
faciule
faciuli
faciulita
faculta
facultativu
faddimentu
fagec
fagus
fai
faiete
faii
fair
faire
fait
faith
faiu
fala
falani
falasorma
falata
falati
falatu
falchetti
falcinedda
falcinella
falco
falcone
falcu
falendu
falgu
fall
falla
fallecimiento
fallimentu
falling
falsa
falsi
falsu
falzu
fama
fame
fami
famidda
famiddi
famigli
famiglia
famigliali
famigliare
famiglie
famiglii
familiari
family
famitu
famosa
famose
famosi
famosu
famǝ
fan
fanale
fanali
fanga
fangu
fannu
fanta
fantasia
fantastica
fanteria
fanti
fantina
fanu
fappani
far
fara
farabi
faraghju
faraona
fare
faremu
farfalla
farfalle
fargo
fari
faria
farina
faro
faroe
faroese
faroesu
farraghju
farrandu
farru
fasa
fasce
fasci
fascia
fascista
fasciu
fase
fasgianu
fasgioli
fasgiolu
fasgiulini
fasi
faso
fassi
fast
fastidiosu
fastidiu
fat
fatali
fate
father
fati
fatica
fatih
fatta
fatte
fatti
fattoghje
fattore
fattori
fattu
fattura
fatu
fauna
faunistica
faustina
favale
favalellu
favilla
favor
favore
favori
favula
favule
favuli
favurevule
favurevuli
favuri
favuriti
favuritu
favǝ
fc
fe
feature
febbraiu
febrero
februarius
february
fecatu
fece
fecenu
fecha
fechas
feci
fecia
fecini
fecinu
fede
federal
federale
federali
federatu
federazione
federazioni
federiccu
federico
federicu
fedi
fedra
feedback
feel
fegatu
felce
felge
feli
felice
felicetu
felici
felidae
felini
felipe
felis
felix
feltrinelli
femina
femine
femini
feminicci
feminiccia
feminicciu
feminile
feminili
femininu
femme
femminile
femminili
femu
fendu
fenestrelle
fenici
fenicia
feniciu
feno
fenomeni
fenomenu
fenu
fenumeni
fer
fera
ferdinand
ferdinando
ferdinandu
feremu
ferentes
ferguson
ferire
ferisce
ferisci
feriscia
ferita
ferite
feriti
feritu
ferma
fermani
fermanu
fermat
fermi
fermo
fermu
ferna
fernande
fernando
feroce
feroci
ferraghjettu
ferraghju
ferrandi
ferrante
ferrara
ferrari
ferrer
ferri
ferringule
ferro
ferru
fertile
fertili
fertilita
ferula
ferulaghja
fes
fessi
festa
feste
festi
festighjeghja
festival
festivale
festivita
festo
feti
fetta
fetu
feu
feudale
feudali
feudi
feudu
fevraghju
few
fg
fi
fia
fiacca
fiaccu
fiadone
fiamma
fiammetta
fiammi
fiamminga
fiammingu
fianchi
fiancu
fiandra
fiandre
fiara
fiasca
fiascu
fiat
fiatu
fibonacci
fibra
fibrenu
fibuli
fica
ficaghja
ficaghjola
ficateddu
ficatellu
ficca
fiche
fichi
fico
ficos
ficu
ficus
fida
fiddola
fiddoli
fiddolu
fide
fideli
fidelta
fidi
fidia
fidighja
field
fiera
fiere
fieri
fieru
fiesole
fifa
fiffi
fiffina
fifth
fig
figa
figarella
figari
fighja
fighjanu
fighjolu
fighjula
fighting
figi
figli
figlia
figlie
figlii
figlio
figliola
figliole
figlioli
figliolu
figliu
figlǝ
figura
figurani
figuranu
figure
figuretta
figurette
figuri
fil
fila
filamenti
filari
file
filetta
fili
filicaghja
filicastrella
filici
filicone
filippi
filippine
filippini
filippinu
filippo
filippu
filisdei
filitosa
filius
filix
fill
fille
film
filmi
filmu
filo
filonu
filosofi
filosofia
filosofica
filosoficu
filosofu
filostrato
filosufi
filosufia
filosufu
filtra
filtru
filu
filusofica
filusofichi
filusoficu
filusufia
fin
fina
final
finale
finali
finalita
finalizacio
finalizado
finalmente
finalmenti
financial
finanza
finanzamentu
finanze
finanziaria
finanziarii
finanziariu
finch
finche
finchi
fine
finegan
finendu
fines
finestra
finestre
fini
finisce
finiscenu
finischi
finisci
finiscia
finish
finissi
finita
finite
finiti
finitu
finlandese
finlandesu
finlandia
fino
finochju
finomini
finominu
fintascienza
fintu
finu
finuchjarola
fio
fioccu
fior
fiora
fiordi
fiordu
fiore
fiorentino
fiori
fiorucci
fire
firenza
firenze
firisce
firiscia
firma
firmado
firmara
firmata
firmati
firmatu
firmava
firmendu
firmeti
firmetini
firmo
first
firtilita
firulinu
fisca
fiscale
fish
fisher
fisica
fisiche
fisichi
fisicu
fissa
fissata
fissati
fissatu
fissu
fist
fitzgerald
fium
fiuma
fiumaltu
fiume
fiumi
fiumiceddu
fiumicelli
fiumicellu
fiuminale
fiumorbu
fiumu
fiure
fiurentinu
fiurenza
fiurenzu
fiuri
fiurintinu
fiurisce
fiurisci
fiuriscia
fiurita
fiuritu
fiuritura
five
fizzione
fju
flags
flash
flavio
flaviu
fle
fleurs
flexibilidad
flnc
flor
flora
flore
flori
florida
flotta
flumendosa
flussi
flussu
fluviali
fly
fo
foata
foce
focea
focei
fochi
foci
focu
focus
fodda
foddu
foggia
fogli
foglia
foglie
foglii
fogliole
fogliu
foi
fois
fola
fole
foli
folia
folk
folla
following
fomentarius
fomento
fonda
fondamentale
fondation
fondazione
fondi
fondos
fondu
fonetica
fontaine
fontainebleau
fontana
fonte
fonti
fonzi
food
foot
football
for
fora
forbici
forca
force
forchi
forci
forcioli
forcu
ford
foreign
forest
foreste
forever
fori
forli
forma
formani
formanu
formato
forme
formi
formula
formule
formuli
forni
fornu
forru
forsa
forse
forsi
fort
fortaleza
forte
forti
fortino
foru
forza
forze
forzi
fossa
fosse
fossi
fosso
fossu
foto
fotografi
fotografia
fotografie
fotografu
fotos
fou
found
foundation
four
fox
fozza
fr
fra
frac
frage
fragifera
fragili
framanti
frammenti
frammentu
fran
franc
franca
france
frances
francesa
francesca
franceschi
franceschini
francesco
francescu
francese
francesi
francesu
franchi
francia
francis
franciscanu
francisco
franciscu
franck
franco
francombat
francu
francuforte
frank
frankfurt
franklin
franz
fraquinto
frasa
frasca
frase
frasi
frassetu
frassitani
frassu
frastagliati
frate
frateddi
frateddu
fratellanza
fratelli
fratello
fratellu
frater
fratesca
frati
frattempu
frattura
fraula
fraxinus
frazzione
frazzioni
frazziunata
fre
frebba
frecci
freccia
fred
freddie
freddu
frederic
frederick
free
freedom
fregata
frequente
frequenti
frequenza
fresca
fresche
freschi
frescu
freta
freti
fretu
freud
fri
friburgu
frica
friday
friedhelm
friedrich
friendly
fringillidae
friquenta
friquenti
friquenza
friquintati
friquintatu
frisciana
frisgiu
frisone
fritillaria
fritta
frittata
frittu
fritu
fritz
friulanu
friuli
frivaghju
from
fronda
fronde
frondi
frondosus
front
fronte
fronti
frontman
frosinone
fru
frumentu
frunduti
fruntali
fruntiera
fruntiere
fruntieri
fruntone
frusinone
frusta
frustu
frutta
frutteti
frutti
fruttu
fu
fuata
fubbe
fubbenu
fubbi
fubbini
fucare
fuciflora
fucile
fucili
fucinu
fucone
fuconu
fuculaghju
fuculari
fue
fuego
fuente
fuentes
fuera
fuerte
fuga
fughja
fughje
fughji
fughjita
fughjitu
fula
fulgetu
fulighjine
full
fulminente
fuma
fumaccia
fume
fumu
fun
funa
funciones
funda
fundacio
fundadore
fundale
fundali
fundamentale
fundamentali
fundamenti
fundamentu
fundamintali
fundata
fundatore
fundatori
fundatu
fundazione
fundazioni
fundillu
funding
funditura
fundo
fundonu
fune
funebri
funemi
funerali
funerarii
funerariu
funes
funetica
funetichi
funeticu
funghi
fungu
funi
funtana
funtanaccia
funtane
funtanella
funtani
funu
funziona
funzionale
funzione
funzioni
funziuna
funziunamentu
funziunarii
funziunariu
funzu
furca
furchetta
furchi
furcina
furciolu
furcone
furesta
fureste
furesti
furestiera
furestieru
furfanti
furia
furiani
furiosu
furma
furmagliu
furmale
furmali
furmalmente
furmata
furmate
furmati
furmatu
furmatusi
furmava
furmavanu
furmazione
furmazioni
furmendu
furmicula
furmo
furmulata
furmuli
furni
furnilla
furnisce
furniscenu
furnisci
furniscia
furnita
furnitu
furonu
furtamenti
furtezza
furtificata
furtificati
furtificatu
furtificazione
furtificazioni
furtuna
furtunatu
furunu
furzata
furzatu
fusca
fusi
fusina
fusione
fusioni
fusse
fussenu
fussetti
fussi
fussili
fussini
fussinu
fusti
fustu
fusu
futugrafia
futuna
futura
future
futuri
futuro
futuru
futusfera
fuzza
fǝbbrarǝ
g
ga
gabbianu
gabone
gabriel
gabriele
gabrielli
gachet
gadd
gaddura
gadduresa
gadduresi
gadduresu
gae
gaelica
gaelicu
gaeta
gaetano
gaffori
gagea
gaghju
gai
gaio
gaiu
gal
gala
galadriel
galant
galassia
galassie
galassii
galatticu
galaxy
galeano
galego
galera
galeria
galilei
galileo
galileu
galipedia
galizia
galiziana
galiziani
galizianu
gallardo
gallaria
gallarii
galleria
gallery
galles
gallese
gallesi
gallesu
galletti
galli
gallia
gallica
gallimard
gallina
galline
gallinula
gallo
gallorumanzu
gallu
gallura
gallurese
gallus
galois
gama
gamba
gambia
game
gamisans
gamma
ganadoras
ganadores
ganar
ganci
gand
gandhi
gange
ganu
gara
garage
garand
garanti
garantiscia
garantita
garantizar
garasgiu
garci
garcia
garcilaso
garfield
gargalu
gargano
garibaldi
garland
garrulus
garu
gary
garzanti
gas
gasi
gaspard
gaston
gastos
gastronomia
gastrunumia
gasu
gativu
gatling
gatta
gatti
gattiva
gattivi
gattivu
gattu
gattubardu
gattucciu
gatu
gaudi
gauguin
gauss
gavignanu
gavin
gavino
gavinu
gay
gc
gd
ge
gebbia
gemellata
gemini
gen
genaru
genas
gendarmi
gene
genealogia
genera
general
generalamenti
generale
generali
generalisazione
generalisazioni
generalizatu
generalmente
generar
generazione
generazioni
generi
genericu
generu
genes
genesi
genesis
genetic
genetica
geneticamente
genetichi
geneva
genevie
genista
genitori
geniu
gennaria
gennaro
gennaru
genova
gens
gente
gentile
gentili
gentilis
genua
genuva
genuvese
genuvesi
geoffrey
geogra
geografia
geologia
geologica
geometria
georg
george
georges
georgia
ger
gerais
gerbert
gerente
germain
germania
germanica
germaniche
germanichi
germanicu
gerolamo
geronimi
geronimo
gerosa
gerusalemma
geschichte
gestione
gestu
gesu
get
geugrafia
geugrafica
geugraficu
geumetrica
geumetriche
geumetrichi
geumitria
geumitrie
gh
ghana
ghani
ghazal
ghe
gherardesca
gherardi
ghil
ghisoni
ghisunaccia
ghitta
ghj
ghja
ghjacari
ghjacaru
ghjacci
ghjacciai
ghjacciali
ghjacciu
ghjaci
ghjaciazione
ghjaciazioni
ghjacimenti
ghjacimentu
ghjacintu
ghjacomu
ghjacumu
ghjadda
ghjaddicu
ghjaddina
ghjaddinedda
ghjaddu
ghjalla
ghjalletta
ghjallina
ghjallinetta
ghjallu
ghjamba
ghjambi
ghjanda
ghjandaghja
ghjandi
ghjannucciu
ghjanu
ghjappone
ghjapponese
ghjappunese
ghjappunesu
ghjara
ghjardinu
ghjaseppu
ghjasippina
ghjasonu
ghjastema
ghjastima
ghjastimatu
ghjatta
ghjatti
ghjattu
ghje
ghjenerale
ghjeneralmente
ghjennaghju
ghjennaiu
ghjente
ghjenti
ghjentra
ghjentri
ghjenuva
ghjenuvese
ghjenuvesi
ghjeorghja
ghjera
ghjermana
ghjermania
ghjerundiu
ghjerusalemma
ghjerusalemme
ghjesa
ghjesgi
ghjesgia
ghjesia
ghjesu
ghjesuiti
ghjetta
ghjettu
ghjeu
ghjeurghjanu
ghji
ghjibilterra
ghjigantescu
ghjiganti
ghjilata
ghjilbertese
ghjilbertesu
ghjilormu
ghjinepara
ghjineparu
ghjinestra
ghjinnaghju
ghjinochju
ghjinuvesa
ghjinuvese
ghjinuvesi
ghjinuvesu
ghjira
ghjiratu
ghjirolmu
ghjiru
ghjirundiu
ghjise
ghjiseppu
ghjitta
ghjittatu
ghjitto
ghjo
ghjobba
ghjoca
ghjocanu
ghjochi
ghjocu
ghjorghju
ghjorna
ghjorni
ghjornu
ghjova
ghjovana
ghjovane
ghjovani
ghjovanni
ghjovanu
ghjove
ghjovi
ghju
ghjuca
ghjucadore
ghjucadori
ghjucata
ghjucati
ghjucatoghju
ghjucatore
ghjucatori
ghjucatu
ghjucendu
ghjucosi
ghjuda
ghjudaica
ghjudaisimu
ghjudea
ghjudei
ghjudeia
ghjudeiu
ghjudeu
ghjudica
ghjudicali
ghjudicamentu
ghjudicati
ghjudicatu
ghjudice
ghjudici
ghjudiziariu
ghjudiziu
ghjuellu
ghjugna
ghjugne
ghjugni
ghjugnu
ghjuiellu
ghjulia
ghjulianu
ghjuliu
ghjumenta
ghjumenti
ghjuncaghju
ghjunchetu
ghjuncu
ghjunghja
ghjunghje
ghjunghjendu
ghjunghjenu
ghjunghji
ghjunghjini
ghjunghju
ghjungni
ghjungnu
ghjunsani
ghjunse
ghjunsi
ghjunsini
ghjunta
ghjunti
ghjuntu
ghjura
ghjuramentu
ghjuratu
ghjuridica
ghjuridicu
ghjuridizione
ghjuristu
ghjurnale
ghjurnali
ghjurnalista
ghjurnalistu
ghjurnata
ghjurnate
ghjuru
ghjuseppe
ghjusta
ghjusti
ghjustifica
ghjustificazione
ghjustinianu
ghjustizia
ghjustu
ghjuva
ghjuvan
ghjuvanetta
ghjuvanna
ghjuvannali
ghjuvanni
ghjuvanotti
ghjuvanottu
ghjuvantu
ghjuvatu
ghjuvava
ghjuveddi
ghjuvellina
ghjuventu
ghjuvevule
ghjuvevuli
ghost
gi
gia
giacobetti
giacomo
giadda
giaddi
giaddicci
giaddicciu
giaddu
giafferi
gialla
giallastru
gialle
gialli
giallu
giamaica
gian
giandarmi
gianfranco
gianni
giannutri
giansily
giant
giappone
giapponese
giapponu
giappunesa
giappunese
giappunesi
giappunesu
giardini
giardinu
gibbs
gibilterra
gica
gif
gift
gigante
giganti
gigi
giglio
gigliu
gil
gilbert
gilda
gilles
gina
ginas
gine
ginerale
ginestra
ginevra
ginirali
ginnastica
gino
gio
gioacchino
giocose
giografia
gioia
gioie
giomitri
giomitria
giomitru
giorgetti
giorgi
giorgia
giorgio
giorno
giornu
giovani
giovanna
giovanni
giovannoni
giovanu
giovoni
gira
giraffa
giraglia
girandulata
girendu
girl
girolamo
giru
gistione
gistioni
gistiscia
gistita
giu
giuconda
giudicelli
giudici
giueddu
giuellu
giugnu
giugrafi
giugrafia
giugrafica
giugraficamenti
giugrafichi
giugraficu
giuieddu
giuiellu
giulia
giuliano
giulianu
giulio
giuliu
giulogica
giulugicamenti
giumetrica
giumetrichi
giumitria
giurdanu
giurnale
giurnali
giuseppe
giuseppi
giusta
giustiniani
giuvanotte
giuvencu
giuventu
give
gl
glaciali
glam
glandarius
glasgow
glauci
gle
glen
gli
glia
glis
glise
glises
gliu
global
globale
globe
globu
globulariu
glomerata
gloria
glubalamenti
glubale
glubali
glutinosa
glǝ
glə
gmelin
gmelini
gn
gna
gnaccara
gne
gni
gnomone
gnu
gnulu
go
goa
goal
goals
gobbu
gobierno
god
goda
gode
godfery
godi
gods
goes
goffredo
goffu
gogh
goia
gol
gola
gold
goldbach
golden
gole
golfi
golfu
goli
golia
golu
gondula
gondule
gone
gonza
gonzalo
good
goodbye
google
gordon
gordy
gore
goreski
goro
got
gotica
goticu
gottfried
goupil
gouv
gov
gozo
gozu
gr
gra
grace
gracias
graculus
gradi
gradu
gradualamenti
grafi
grafia
grafica
grafichi
graficu
grafo
graham
grama
grammar
grammatica
grammaticali
grammi
gran
grana
granaccia
granada
granaghjolu
granata
granatu
granchi
granci
grand
grande
grandezza
grandi
grandmaison
granduca
granducatu
graneddi
graneddu
granelli
granellu
granita
granitica
granitichi
granitu
granitula
granone
grant
grants
granu
grappa
gras
grass
grassa
grassi
grassu
grati
gratisi
gratta
gratuita
grave
gravi
gravita
gravitaziunale
gravitaziunali
gravona
gray
graz
grazia
graziani
grazie
grazii
građanski
gre
great
greca
greche
grechi
greci
grecia
greco
grecu
greek
green
greenwood
gregale
gregorianu
gregoriu
gregorovius
gregory
gregurianu
gren
grendi
grenoble
greuter
greva
grevi
gri
grida
griddi
gridendu
grighjoni
grigioni
grigoriu
grimaldi
grisge
grisgi
grisgia
grisgicciu
grisgiu
grogna
grohl
groncu
groppa
gros
grossa
grosse
grosseto
grossetu
grossi
grosso
grossu
grotta
grotte
group
groups
grove
gru
gruenlandesu
gruenlandia
grugnulu
gruinlandia
grupo
grupos
gruppi
gruppu
grus
grussetu
grussezza
gruyter
gsebas
gu
gua
guadagna
guadagnatu
guadagni
guadalajara
guadalupe
guadelli
guagnese
guagnesi
guagnu
guai
guaina
guaine
guaini
guaitellajl
guajira
guanti
guarani
guarda
guardi
guardia
guardianu
guarguale
guarnigione
guarnigioni
guascone
guasgi
guasi
guatemala
guatru
guaviare
guayaquil
gue
guelfucci
guer
guerciu
guerra
guerre
guerri
guerriera
guerrieri
guerriglia
guetta
guez
guglielmi
guglielmo
guglielmu
gui
guida
guidata
guidati
guidatu
guide
guido
guidoni
guidu
guila
guillaume
guillermo
guinea
gula
gulosus
gun
gunale
gune
guniumetrica
guniumetrichi
gurdianu
gurgona
gurgoni
guri
gustav
gustave
gustavo
gustu
guvarnadori
guverna
guvernadore
guvernatore
guvernatori
guverni
guvernu
guvirna
guvirnatu
guy
gvs
gyatso
gyi
gymnadenia
gymnocarpium
gypaetus
gło
h
ha
haber
habere
habitat
hablantes
hablar
hablo
habra
hace
hacer
hacerlo
haciendo
hafez
hagan
hahn
hai
haiti
hajduk
hall
hamilton
hampshire
han
hand
hangul
hani
hanja
hanks
hanno
hannu
hanoi
hans
hansen
hanu
happy
hara
harbour
hard
harold
harris
harrison
harry
hart
hartert
harvard
has
hast
hasta
hat
haute
have
hawaianu
hawaii
hay
haya
hayan
haye
hayek
haz
he
head
heart
hearts
heat
heath
heaven
heavy
heavyweight
hebrew
hecho
hector
heidelberg
heilbronn
heine
helen
helena
helianthemum
helichrysum
helix
hell
helleborine
helleborus
hello
help
hemingway
hen
henri
henry
hepburn
her
herba
herbert
hercules
here
heritage
herman
hermann
hermanni
hermanniae
hermes
hero
herodotus
herrera
herschel
hesse
hi
hic
hierophis
high
higher
highlands
hilbert
hill
himalaia
himalaya
hindi
hindu
hip
hippocampus
his
hispania
hispaniolensis
histo
histoire
historia
historical
historique
historiques
history
histrix
hitler
hits
hizo
hl
hms
ho
hoc
hohenstaufen
hoi
hollywood
holosericea
home
homo
honduras
hong
hongwu
honolulu
honore
honthorst
hook
hooligan
hop
hope
hopes
hora
horas
horizonte
horn
hospiton
hot
hotel
houghton
hour
house
how
howard
htm
html
http
https
hu
hubble
hudson
hugh
hughes
hugo
hui
huila
human
humberto
hume
hundred
hunley
hunt
hunting
huron
hussein
huys
hydra
hyoscyamus
hypocistis
i
ia
ian
iani
ib
iberica
ibero
iberoconf
iberocoop
ibn
ibridazione
ibridi
ibridu
ic
icarly
icaru
icarus
ice
iceberg
ich
icunugrafia
id
ida
idaho
idantichi
idantifica
idantificata
idantificati
idantificatu
idantificazioni
idantita
idda
iddi
iddu
ide
idea
ideale
ideali
ideas
idee
idei
identifica
identificata
identificatu
identificazione
identita
idioma
idiomas
idiomi
ido
idra
idravvio
idricu
idrogenu
idrugenu
idrugrafica
idrugraficu
ie
iel
ierarchia
ieri
if
ign
ignazio
ignaziu
ignei
ignora
ignorato
ignota
ignurante
ignuranti
ignuranza
igual
ihs
ii
iii
iiiu
iiu
il
ilaria
ile
ilex
iliadi
ill
illa
illimitatu
illinois
illirici
illum
illustra
illustrata
illustrazioni
illustre
illustri
ils
ilustrar
ilustrativa
im
ima
imagen
images
imaghjina
imaghjine
imaghjini
imagina
imaginaria
imaginariu
imagine
imagini
imbagatu
imbarca
imbarcazione
imbarcazioni
imbarcu
imbianca
imbiancata
imbiancatu
imbja
imboccu
imbuccatura
imbuffata
imbuffatu
imbuscata
imbutu
imdb
imita
immaculata
immagini
immediata
immediatamente
immediatamenti
immediatu
immensa
immensu
immigrati
immigrazione
immigrazioni
immobili
immurtali
immurtalita
impact
impalidi
impara
imparatu
imparfettu
impatrunisce
impattu
impavimentu
impedisce
impegna
impegnu
imperatore
imperatori
imperatrice
imperi
imperiale
imperiali
imperiu
imperu
impianti
impiantu
impiastru
impicca
impiccati
impidisce
impidiscia
impiditu
impiega
impiegata
impiegate
impiegati
impiegatu
impieghi
impiegu
impigna
impignati
impignatu
impiigata
impiigati
impiigatu
impiratori
impita
impitta
implica
implicati
implicatu
implicheghja
implicheghjani
implichendu
impona
impone
importa
important
importante
importantes
importanti
importanza
imposi
impositi
impositu
impossible
imposta
impostu
imprenditore
impresa
impresariu
imprese
impresi
impressiunante
impresta
imprighjuna
imprighjunati
imprighjunatu
imprissioni
improda
improve
impruda
imprudata
imprudate
imprudati
imprudatu
imprudava
imprudendu
imprudo
impruneta
impruvisadori
impruvisu
impullinazione
impulsu
impunente
impunenti
impurtanta
impurtante
impurtanti
impurtantu
impurtanza
impurtata
impurtati
impurtatu
impussibile
impussibili
impussibilita
impussibuli
imputente
imputenti
imu
in
ina
inalza
inari
inauguratu
inc
incantu
incapace
incapaci
incarica
incaricata
incaricati
incaricatu
incaricu
incarna
incarnata
incatari
incatariscia
incatarri
incausa
incausata
incausati
incausatu
incauseghja
incausendu
incendii
incendiu
incerta
incertezza
incertu
inchiesta
inchjarimentu
inchjina
inchjirchja
inchjuda
inchjude
inchjudendu
inchjudenu
inchjudi
inchjudini
incidenti
incinnarazioni
incinta
incirca
incisa
incisioni
inclina
inclinati
inclinazioni
include
includendu
includenu
incluir
incluirte
inclusa
incluse
inclusi
incluso
inclusu
incluye
incluyendo
inconnu
inconnue
incontru
increase
incrociatori
incrociu
incu
incubacea
incuccia
incudine
incun
incunabuli
incunabulu
incuntrariu
incuragisce
incurpurata
incursioni
incurunatu
incurunazioni
incurvati
ind
indarnu
inde
independente
indettu
index
indi
india
indian
indiana
indiane
indiani
indianu
indica
indicata
indicati
indicativu
indicatori
indicatu
indicazione
indicazioni
indice
indicheghja
indicheghjani
indichendu
indici
indie
indigena
indigeni
indigenous
indii
indipendente
indipendenti
indipendentista
indipendentisti
indipendentistu
indipendenza
indipindente
indipindenti
indipindenza
indiretta
indirettu
indirizzu
indittu
individua
individual
individuale
individuali
individualmente
individui
individuu
indiziu
indo
indoauropeani
indoeuropeane
indonesia
indossa
indrentu
indu
induauropeu
induaurupea
induisimu
indunesia
indunesiana
indunesianu
indunisianu
indus
industria
industriale
industriali
industrie
industrii
induttu
induv
induva
induve
induvina
induvinedda
induvinella
induvinu
ine
inesattezza
inesattu
infantaria
infantino
infatti
infcor
inferenza
inferinziali
inferiore
inferiori
infermu
inferni
infernu
infiammatore
infilarata
infilarati
infine
infini
infinita
infinitamente
infinitesimali
infiniti
infinitu
infiriori
infirmaria
infirmita
infiuriscenza
inflazione
influenti
influenza
influenzata
influenzatu
influenze
influenzi
influinza
influinzata
influinzati
influinzatu
influssi
influssu
info
inform
informa
informacio
informatica
information
informazioni
informe
informes
infos
infrarossu
infrastrutturi
infty
infurcatura
infurma
infurmatica
infurmatu
infurmazione
infurmazioni
ing
inganna
inganni
ingannu
ingegnere
ingegneria
ingenieru
inghilterra
inghjenna
inghjennatu
inghjinaratu
inghjinireghja
inghjiru
inghjo
ingiru
ingle
inglesa
inglese
inglesi
inglesu
ingliterra
ingodda
ingolle
ingrandata
ingrassa
ingrata
ingratu
ingresar
ingressu
ingridienti
ingrisgi
ingrisgia
ingrossu
inguerni
inguernu
inguinamentu
inguirnali
inicial
iniciar
iniciativas
inicio
inizia
inizialamenti
iniziale
iniziali
inizialmente
iniziata
iniziativa
iniziative
iniziativi
iniziatu
iniziazioni
inizio
iniziu
inn
innamora
innamoru
innamura
innamurati
innamuratu
innamuro
innantu
innanzi
innanzu
inni
innisca
inno
innocenzu
innu
innucente
innucenzu
innuvazione
innuvazioni
inoltre
inoltri
inossidabile
inox
inparfettu
inquantu
inrap
insalata
insee
insegna
insegnamentu
insegni
inseme
insemi
insemu
inseritu
insetta
insetti
insettu
insidiamenti
insidiamentu
insieme
insigna
insignamenti
insignamentu
insignanti
insignatu
insigno
insin
insinamenti
insirita
insiriti
insita
insitta
inspirata
inspiratu
inspirazione
inspirazioni
instagram
installazione
instituciones
institut
institute
instituto
instrucciones
insu
insufficiente
insufficienti
insulare
insulari
insularis
insuppurtevule
insuppurtevuli
insurance
int
intantu
intardisci
intaressa
intaressi
intaressu
intarghjizzioni
intarissanti
intarissatu
intarnaziunali
intarplanitariu
intarprita
intarpritata
intarpritatu
intarpritazioni
intarramentu
intarratu
intarruga
intarsizioni
intarsizzioni
intarstiddari
intarvalli
intarvallu
intarventi
intarventu
intarvista
intatta
integra
integrado
integrale
integralita
integrata
integrazione
integrita
intellettuale
intellettuali
intelligent
intelligenza
intellighjenza
intende
intendevi
intendi
intensa
intensi
intensita
intensu
intentu
intenzione
inter
interazzione
interazzioni
intercontinentale
interdisce
interditu
interdizzione
intere
interesados
interessa
interessante
interessatu
interessi
interessu
interghjezzione
interghjizzione
interiamente
interiore
interjectum
interlingua
interlingue
intermedia
interna
internacional
internal
international
internationale
internatu
internazionale
internaziunale
internaziunali
interne
internet
interni
internu
interpreta
interpretatu
interpretazione
interpreti
interpritazione
interpriteghja
interromania
interruga
intersizzioni
interu
interventi
interventu
intervista
intesa
intesi
intesu
inti
intieri
intieru
intigrali
intigrata
intigrazioni
intillettu
intillettuali
intimu
intinzioni
intiriamenti
intirnatu
intitulata
intitulatu
into
intorno
intornu
intraduttu
intransitivu
intraprende
intrapresi
intrata
intrati
intratteni
intreccia
intrei
intreia
intreiu
intrendu
intri
intria
intriccia
intricciata
introduction
introdutta
introdutte
introduttu
introduzione
introitu
intruducendu
intrudussi
intrudutta
intruduzione
intruduzioni
intruduzzione
intrusioni
intrutu
intuttu
inu
inundazione
inundazioni
inutile
inutuli
inv
invade
invalidu
invasi
invasione
invasioni
invasori
invece
invechja
inveci
inventa
inventariu
inventata
inventatu
inventore
invenzione
inverness
invernu
inversa
inversi
inversu
invertebrati
investimentu
investitori
investitura
invia
inviata
inviati
inviatu
invichja
invidia
invintariu
invintatu
invintori
invinzione
invinzioni
invio
invirnali
invirnata
invirtibrati
invita
invitati
invitatu
invite
invitu
inviu
invucazioni
inziccaturi
io
iolcu
ion
ionia
ionicu
ionie
ioniu
iowa
ip
ipa
iperbolica
iperbolicu
iperreali
ipl
ipogeu
ipotesi
ippolitu
ippucrena
ippucrene
ipsa
iputenusa
iputesa
iputesi
ir
ira
iraccu
irae
iran
iranianu
iranu
irc
irlanda
irlandese
irlandesu
iron
irraghjamentu
irraziunale
irraziunali
irregulare
irregulari
irregularis
irrigazioni
irrigulari
irunia
irwin
is
isa
isaac
isabel
isabella
isbagliu
isbn
ischia
isci
iscia
isciuta
isciuti
isciutu
iscritta
iscrittu
iscrivi
ise
isempiu
isernia
isie
isla
islam
islamica
islamichi
islamicu
islamu
island
islanda
islandesa
islandese
islandesi
islandesu
islands
iso
isocrate
isoetes
isola
isolacciu
isole
isonzo
isonzu
ispagna
ispanica
ispettore
ispira
ispirata
ispirati
ispiratu
ispirazione
ispirazioni
ispiro
israel
israele
israeli
israiliani
israilianu
iss
issa
isse
issi
issu
issue
ist
ista
istallazione
istanbul
istanti
istate
istati
istatina
iste
istitui
istituita
istituitu
istitutu
istituzione
istituzioni
istmu
istoria
istrada
istria
istu
isula
isulacciu
isulamentu
isulana
isulane
isulani
isulanu
isulata
isulate
isulati
isulatu
isule
isuli
isulotti
isulottu
isumorfu
isumurfismu
isusceli
it
ita
itaca
italia
italiae
italian
italiana
italiane
italiani
italiano
italianu
italica
italichi
italicu
italicum
italu
item
iti
itineraries
itinerarii
its
iu
iucn
iugoslava
iugoslavia
iunizati
iv
iva
ivan
iviu
ivo
ivu
ix
ixu
j
ja
jabr
jack
jackie
jackson
jacob
jacopo
jacopone
jacques
jae
jaime
jake
james
jan
jane
janeiro
janine
january
jardin
jared
jason
java
jawaharlal
jay
jazz
je
jean
jeanmonod
jeff
jefferson
jeffrey
jenkins
jennifer
jennings
jeremy
jerry
jersey
jesse
jest
jesu
jet
jeu
jeune
jeuner
jeux
jewish
jicarilla
jim
jo
joan
jocus
joe
joel
joey
johann
johannes
john
johnny
johnson
join
jon
jonathan
jones
jonny
jordan
jorge
jornu
jose
joseba
joseph
josh
joule
jour
journal
jovi
jovis
jpg
jr
ju
juan
juanes
judex
judy
jul
jules
julia
julian
julie
julio
julius
july
jun
juncus
june
jung
jungere
junio
juniperus
juno
junto
jurado
jurados
juri
just
justos
juventus
jya
k
ka
kabocha
kaiser
kala
kalaallisut
kalliste
kana
kanal
kane
kansas
kant
kara
karakorum
karambit
karate
karl
kashmir
kasuga
kata
kate
katu
kazaku
kazimierz
ke
keane
keep
keith
kelly
kemal
ken
kenia
kennedy
kenneth
kent
kentucky
kepler
kepleru
kevin
key
keynes
keynesianisimu
keys
kg
khaldoun
khaldu
khaldun
khan
khartoum
khartum
khatib
khuong
khwarizmi
ki
kick
kickboxing
kid
kiefer
kiel
kiev
kilimanjaro
kill
kilo
kilomitri
kim
kin
kind
king
kingdom
kinshasa
kiribati
kiru
kiss
kit
klaus
klein
klincksieck
km
knight
know
ko
koch
kolkata
kolonka
konarski
kong
konghou
konghu
kopete
kore
korsu
kosovo
kreutz
kri
ku
kuiter
kulu
kuratowski
kuri
kurt
kyiv
kyrie
kıs
kɛ
l
la
labbri
labbru
labbrutu
labellu
laberintu
labirintu
labor
laburatoriu
lac
laca
lacatu
lacon
lacrima
lactea
lacuna
lacus
lacustri
ladinu
ladislau
lado
ladru
lady
laerzio
laga
laghi
lagna
lagni
lagnu
lago
lagu
laguna
lagurus
lahlou
lake
lalalla
lalalleru
lalleru
lam
lama
lamaghja
lamaghjonu
lamb
lambata
lambert
lamberto
lame
lamenti
lamentu
lametti
lamiaceae
lampa
lampanti
lampata
lampati
lampatu
lampi
lampuga
lan
lana
lanceulati
lanci
lancia
lancianu
lanciati
lanciatu
lancio
lanciu
land
landi
landsgemeinde
lanfranchi
lang
language
languages
langue
lani
lanka
lannister
lanterna
lanterni
lanu
lanughjina
lanza
laomedonti
laos
lapiti
lappone
lapponica
lar
lardu
larenzu
laretu
larga
largamente
largamenti
large
larghe
larghezza
larghi
largu
lari
larici
laricio
lariciu
larione
larry
larsa
larus
larɛ
las
lascendu
lascia
lasciacorra
lasciacorre
lasciani
lascianu
lasciata
lasciate
lasciati
lasciatu
lasciava
lascio
lasciu
lassa
last
lastra
lat
lata
laterale
laterali
lateranu
laterza
lati
latin
latina
latine
latini
latinu
latirali
latitudina
latitudine
latitudini
latri
latrodectus
latru
lattaghja
lattaghjolu
lattaredda
latte
latti
lattonu
latu
lau
laudes
laura
laurea
laurent
lausanne
lava
lavanu
lavasina
lavatoghju
laveddu
lavellu
lavezzi
lavezzu
lavi
lavighju
lavora
lavori
lavoru
lavu
lavurazioni
law
lawrence
laxiflora
lazarettu
lazaru
laziale
laziali
lazio
laziu
lcani
le
lead
leader
league
leandri
learned
learning
leary
least
lebbiu
lebel
leca
lecca
lecce
lecci
leccia
leclerc
lectura
lee
leer
lefebvre
left
leftrightarrow
lega
legal
legale
legales
legalmente
legatu
lege
legenda
legendaria
legendariu
legende
legge
leghe
leghja
leghje
leghji
legione
legislacio
legislativu
legislazione
legna
legnu
lei
leia
leibniz
leigh
leipzig
lelle
lelletta
lembu
lemma
len
lengua
lenguas
lennon
lenta
lentiscus
lentu
lenza
lenze
leo
leonard
leonardo
leonardu
leone
leonello
leonese
leoni
leonida
leopoli
lepru
leptophylla
lepus
leq
lerna
les
lessicali
lessicu
lestri
lestru
lestu
let
lethwei
letia
letizia
leto
letta
lettara
lettari
lettera
letteraria
letterariu
letteratura
lettere
letteron
letti
lettone
lettonia
lettore
lettu
lettura
leunardu
lev
leva
levante
level
levi
levra
levrault
lewis
ley
lez
lezu
lezzione
lgica
li
lia
liami
liamone
liamu
liata
liati
liatu
libanu
libara
libarazioni
libarendu
libari
libarta
libaru
libecciu
liber
libera
liberale
liberali
liberamente
liberata
liberatore
liberatu
liberazione
liberi
liberia
liberta
liberte
liberu
libia
libicu
libor
libra
librairie
libraria
library
libre
libreri
libres
librettu
libri
libro
libros
libru
lica
licci
liceiu
licence
licencia
license
licenza
licenzia
liceu
licuru
lidia
lido
lidu
lie
liechtenstein
liegi
lien
lieu
life
liga
ligame
ligami
ligata
ligate
ligati
ligatu
ligenda
ligende
liggi
lighjenda
lighjendi
lighjeri
lighjindariu
lighjislatori
lighjittimu
light
lights
ligna
lignamu
ligue
ligumi
ligura
ligure
liguri
liguria
liguru
like
lila
liliaceae
lilium
lima
limba
limbara
limbosperma
limburghese
limburghesu
limea
limenitis
limita
limitata
limitati
limitatu
limite
limiteghja
limiti
limitrophe
limitrophes
limitu
limodorum
limone
limoniu
limonium
limonu
limpia
lin
lina
lince
lincoln
linda
lindumane
lindumani
line
linea
lineare
lineari
linee
linga
lingu
lingua
linguadocianu
linguaghji
linguaghju
linguagiu
lingue
lingui
linguista
linguisti
linguistic
linguistica
linguistiche
linguistichi
linguisticu
linguistu
linguizzetta
linia
liniari
linie
linii
link
linnaeus
linne
linneu
linu
linux
lio
lion
lione
lionel
lionu
lipan
lipari
lipsia
liquida
liquidacio
liquidu
liquitu
lira
lire
liri
lirica
lis
lisa
lisandru
lisbona
liscia
lisciva
lissicali
list
lista
listados
listam
liste
listera
listessa
listesse
listessi
listessu
listincu
listinu
listo
lit
literaria
literariu
literatura
liti
litica
litri
litte
litteralmente
litteraria
litterarie
litterarii
litterariu
litteratura
littiralamenti
littiratura
little
littori
littu
littura
litturale
litturali
lituania
lituanu
liturali
liturgicu
litusfera
liu
liunardu
liv
liva
livante
livanti
live
liveddi
liveddu
livelli
livellu
livente
livesi
livia
lividus
liviu
livorno
livornu
livre
lix
liza
lizioni
lizzione
lizzioni
ljanu
ll
lla
llamado
llegar
llego
ller
llevar
lli
lloyd
llu
llǝ
lm
lo
lobi
lobu
loca
local
locale
locales
located
locazione
loch
lochi
locu
locudoru
locusantu
locutori
locuzioni
loda
lodi
lodovico
lodu
lofoten
log
loghi
loghja
loghje
logica
logichi
logicu
logistic
logo
logos
logotipu
logu
logudorese
logudoresu
logudoru
logusantu
loi
loira
loiri
lombarda
lombardi
lombardia
lombardo
lombardu
lomellini
london
londra
long
longa
longhe
longhi
longicornu
longifolia
longitudina
longu
lonzu
look
lopez
lopigna
lord
lorena
lorenz
lorenzi
lorenzo
lorenzu
loretu
loriani
loro
loru
los
losange
lost
lot
lota
lotta
lotti
lou
louis
louise
louisiana
louvre
love
lover
loves
lovia
low
lowlands
loyola
lozzi
lp
lt
ltd
lu
lubbu
luc
luca
lucale
lucali
lucalisazione
lucalisazioni
lucalita
lucalizata
lucalmente
lucanus
lucca
lucchesi
lucchesu
lucchini
lucciana
lucciardi
luccicanti
luce
lucerna
lucetta
luci
lucia
luciani
luciano
lucianu
lucie
lucien
lucio
luciu
lucius
lucrezia
lucro
lucutori
luda
ludatu
luddu
ludovico
ludwig
luego
lugar
lugares
lugiziali
lugliu
lugu
luguduresu
lui
luiggi
luigi
luis
luisa
luisfege
lumaca
lumbarda
lumbardia
lumbardu
lume
lumi
luminosa
luminosi
luminosu
luminusita
lumiu
lumu
luna
lunaria
lune
lunga
lungarina
lungarine
lungarini
lungarinu
lunghezza
lunghezze
lunghezzi
lunghi
lungitudina
lungoni
lungu
lungura
luni
luntana
luntananza
luntani
luntanu
luogosanto
luonghǝ
lupa
lupi
lupini
lupinu
lupu
lupus
lupǝ
luras
lurenzu
luri
lus
lusazianu
lussemburghese
lussemburghesu
lussemburgu
lussu
lutea
lutta
lux
lviv
lwo
lynx
lǝ
lə
lɛ
lɛzɛ
m
ma
maastricht
mac
maca
maccaone
maccarona
macchina
macchini
macdonald
macedone
macedonia
machine
machja
machjavelli
machje
macidonia
macina
macinaghju
mackenzie
macrolepiota
mactan
maculata
madagascar
madagascara
madalena
madama
madame
madamicella
maddalena
maddie
made
madera
madia
madonna
madre
madrid
madunuccia
maestosa
maestra
maestracci
maestre
maestri
maestria
maestru
maffia
maga
magazini
magazinu
magdalena
magellanu
maggio
maggior
maggiore
maggiori
maghjali
maghjina
maghjine
maghjior
maghjiore
maghjiu
maghjonu
maghjori
maghju
maghjuramenti
maghreb
magi
magia
magic
magica
magichi
magiore
magiori
magistrati
magistratu
magma
magmatica
magna
magnamentu
magnesiu
magnetica
magnetichi
magneticu
magnetosfera
magnifica
magnificu
magnitude
magnitudina
magnitudine
magnu
magnum
magra
magranchjinu
magri
magru
magu
magumettu
magumetu
magunella
magydaris
mai
mail
mailing
main
mainarde
maine
maio
maiore
maiori
maire
mais
maison
maistrali
maiuranza
maiuscula
majalis
majella
major
majǝ
make
mal
mala
malacedda
maladetta
maladettu
maladizzioni
malaria
malaspina
malati
malatia
malatie
malatii
malatu
male
malese
malesia
malesu
malgradu
mali
malidizioni
malincunia
malizia
mallorca
malma
malmignattu
malta
maltesa
maltese
maltesi
maltesu
malthus
malti
maltratta
maltrattamentu
malu
malva
malvaghju
malvu
malǝ
mama
mamilianu
mamma
mammaso
mamme
mammi
mammiferi
mammiferu
mammona
man
manager
manata
manaus
manc
manca
mancani
mancante
mancanti
mancanu
mancanza
mancata
mancatu
mancava
mancese
mancesu
mancha
manchester
mancini
mancinu
mancu
manda
mandai
mandarina
mandata
mandati
mandatu
mande
mandel
mandili
mando
mandrii
mandulinu
mane
manejo
manen
manera
manere
manetta
manfredi
manga
manghja
manghjamentu
manghjanu
manghjarecciu
manghjatu
manghjava
mangia
mangna
mangnamentu
mangnatu
mangnonu
mani
manica
manicu
manicure
manifestazione
manifestu
manifistazioni
maniglia
manila
manipulazioni
manna
mannese
mannesu
mannu
mano
manoach
manovra
manovre
mansi
mansu
manteddu
mantellu
mantena
mantene
mantener
manteni
mantenini
mantenuta
mantenutu
mantinendu
mantinimentu
mantinuta
mantinuti
mantova
mantu
manu
manuale
manuali
manualmente
manuel
manus
manuscritti
manuscrittu
maori
mappa
mar
mara
marana
maratona
maraviglia
marbeuf
marc
marca
marcanti
marcata
marcate
marcati
marcatore
marcatu
marcedda
marceddu
marcel
marcella
marcellesi
marcelli
marcello
marcellu
marcelo
march
marche
marchese
marchesi
marchesu
marchetti
marchi
marchini
marchja
marchjadori
marcia
marciana
marco
marconi
marcu
marculella
marcuri
mare
marea
maredda
marei
marena
margarita
marge
margherita
marghjini
marginale
margine
margona
margonu
mari
maria
mariana
mariani
marianni
mariano
marianu
marie
marietta
marignana
marin
marina
marinacciu
marinare
marinari
marine
marini
marinu
marinum
mario
mariola
marisciale
mariscialu
marita
maritarraniu
maritata
maritatu
mariteddu
mariti
maritima
maritimum
maritimus
marito
marittima
marittimi
marittimo
marittimu
maritu
mariu
marius
mark
marketing
marley
marmara
marmaru
marmeru
marna
maroccu
marodda
marolla
marrone
marronu
mars
marseglia
marshall
marshallese
marshallesu
marsi
marsica
marsicanu
marsiglia
marta
marte
marteddu
martellu
marti
martin
martini
martinica
martino
martinu
martire
martiriu
martis
marx
marxalle
mary
maryland
marziale
marziali
marzo
marzu
marzulina
marzulinu
marzǝ
mas
mascara
mascaratu
mascari
mascarone
mascherinu
maschile
maschili
maschio
maschiu
maschji
maschju
masci
mascione
masciu
mascula
masculinu
masgiolu
masimu
mass
massa
massachusetts
massacru
masse
massesili
massi
massiani
massicci
massiccia
massicciu
massili
massima
massime
massimi
massimu
massinissa
master
matalena
match
matema
matematica
matematiche
matematichi
matematicu
mater
materia
material
materiale
materiali
materie
materna
maternu
mathbb
mathbf
mathe
mathematica
mathematics
mathieu
mathrm
matin
matina
matinati
matique
matiriali
matisse
mato
matra
matrali
matre
matri
matrice
matrici
matrimonii
matrimoniu
matt
matta
matte
mattei
matteiu
matteo
matteu
matthew
mattia
matticciu
mattina
matura
maturazione
maturi
maturita
mau
maurice
mauritania
mauritanica
mauritius
mauriziu
mauro
mausoleu
mausuleu
max
maxia
maxim
maxima
maximus
maxwell
may
maya
maybe
mayo
mayor
mayori
mazel
mazza
mazze
mazzeri
mazzerisimu
mazzola
mazzone
mazzulina
mazzulu
mb
mba
mbara
mbǝ
mc
mccartney
mcdonald
mdina
me
mea
measure
measures
mecca
meccanica
meccanicu
med
meda
medaglione
meddu
medea
medelli
media
mediante
medica
medichi
medici
medicina
medicine
medicu
medida
medie
medieval
medievale
medievali
medievu
medii
mediivali
medina
medio
medios
medita
meditarrania
meditarranii
meditarraniu
mediterranea
mediterranean
mediterrania
mediterranie
mediterranii
mediterraniu
meditterraniu
mediu
medu
medusa
meet
meeting
mega
megalithic
megaliti
megalitichi
megara
meghju
meglio
megliu
mehmet
mei
meia
meiji
meiu
mejor
mejorar
mejores
mel
mela
melanocephala
melbourne
mele
melfa
meli
melitensis
melki
meloria
melu
members
membra
membre
membri
membru
mement
memoria
men
mencionaron
menciono
meni
mennula
menor
menos
mensaje
mensajes
mensola
ment
menta
mentale
mente
menti
mentre
mentri
menu
menziesii
mequinenza
mer
merca
mercado
mercante
mercantile
mercati
mercatu
mercenarii
merci
mercoriu
mercuriu
mercury
merda
merdosu
merendera
merger
meri
meria
mericanu
meridiana
meridianu
meridionale
meridionali
meridionalis
meridiunale
meridiunali
merita
meritu
merleau
merluzzu
mero
merre
merri
merria
merru
merry
meru
merula
merusaglia
mes
mesa
mescalero
mese
mesi
messa
messageri
messaggiu
messaghju
messagiu
messe
messi
messia
messicana
messicanu
messicu
messier
messina
messu
mesuputamia
met
meta
metafisica
metal
metalli
metallo
metallu
metodi
metodulugia
metri
metrica
metro
metropolitana
metropulitana
metru
metrupulitana
metta
mette
mettendu
mettenu
metti
mettilu
mettini
metudi
metudu
metz
meu
mev
mexicanu
mexico
mez
meza
mezana
mezanotte
mezanotti
mezaretta
mezi
meziornu
mezu
mezupunente
mezupunenti
mezz
mezzana
mezzi
mezzu
mg
mi
mia
miami
mica
micaeli
micalona
micca
miccanica
miccanichi
miccanicu
miccanisimu
micenia
michael
michahellis
michel
michelangeli
michelangelo
michelanghjulu
michele
micheli
michelle
michiel
michigan
mick
mickiewicz
mico
micos
microsoft
micrunesia
mid
middi
middle
midi
midiana
mie
miembro
miembros
mientras
mighele
migli
migliaia
migliaie
migliaii
miglior
migliore
migliori
migliu
migliura
migliuramentu
mignoculi
migrans
migratori
migrazione
migrazioni
miguel
mike
mikhail
mila
milaghja
milan
milano
milanu
mile
miles
miletu
miliardariu
miliardi
milione
milioni
milionu
militante
militanti
militara
militare
militaresca
militareschi
militarescu
militari
militaru
milizie
mill
milla
millante
mille
milleliri
millennii
millenniu
miller
milliardi
millimitri
millioni
millones
milo
milonga
milu
milvi
milvu
milvus
mimoria
mimorii
min
mina
minacce
minaccia
minacciata
minacciate
minacciati
minacciatu
minacciava
minadori
minas
minatori
mind
mine
minera
minerale
minerali
minerarie
minerarii
minerariu
minere
minerva
minestra
ming
minh
mini
miniato
miniconi
minieri
minima
minimi
minimu
minirali
ministerio
ministeru
ministri
ministru
minnana
minnanna
minnannona
minnanona
minnesota
mino
minoica
minoicu
minor
minorca
minore
minori
minority
minossu
minotauru
mintali
mintrastu
mintuva
mintuvata
mintuvate
mintuvati
mintuvatu
mintuveghja
minuranza
minuranze
minuranzi
minuritaria
minuritarie
minuritarii
minusculi
minuta
minute
minuti
minutu
minzione
minzioni
minziuna
minziunata
minziunati
minziunatu
minziuneghja
mio
mique
mira
miraculi
miraculu
miraflores
miranda
mirar
mirbeau
mirc
miri
miridianu
miridiunale
miridiunali
mirita
miro
mis
mischia
mischiata
mischiatu
mischinu
mischiu
mischju
mise
miseria
miseriam
misericordia
miserii
misgia
misgiu
misincu
mismo
mismos
miss
missa
missaghjeri
missaghji
missaghju
misse
missi
missiavone
missiavonu
missiavu
missili
missina
missing
mission
missione
missioni
mississippi
missouri
missu
mista
misteri
misteriosu
misteru
misti
mistica
mistiche
mistichi
misticu
mistiere
mistieri
mistral
mistu
misura
misurani
misuranu
misurata
misurati
misuratu
misurava
misurazioni
misure
misurendu
misuri
mit
mita
mitamurfosi
mitch
mitchell
mite
mites
mithra
miti
mitica
miticu
mitra
mitragliatrice
mitragliatrici
mitragliosa
mitreu
mitta
mittelalter
mittendu
mittiani
mitu
mitudulugia
mitulogica
mitulogichi
mitulogicu
mitulugia
miu
mizana
mm
mmari
mmiru
mmuru
mmǝna
mo
mobile
mobili
mobuli
mocci
moccia
mod
moda
moddi
mode
modellu
modelo
modern
moderna
moderne
modernu
modi
modificacio
modificar
modigliani
modo
modu
moglia
moglie
moi
moines
mois
moita
moitinchi
mol
mola
moldavia
molinier
molise
moll
molla
molle
molluschi
molluscu
molta
molte
molti
moltifau
moltu
molu
molucchi
moment
momento
momentu
mommsen
mon
mona
monachi
monacu
moncada
monda
mondadori
monde
mondi
mondiale
mondo
mondoloni
mondu
money
monguli
mongulia
mongulu
monitorear
monnier
monroe
mons
monsieur
monsignore
monsignori
monspeliensis
mont
monta
montana
montanus
monte
montecassinu
montegrossu
montem
montemaio
montenegru
monterrey
montes
montesoru
montevideo
montgomery
month
monti
montibus
monticellu
monticola
monticristu
montpellier
montre
montserrat
monum
monumenti
monumento
monumentos
monuments
monumentu
moon
moore
mora
moracchini
morale
morales
morda
morde
mordi
more
moreau
morelia
morenu
morgan
morghi
morgu
mori
moriani
moriano
morini
morio
morire
moris
morisii
morning
moro
morra
morrison
morse
morsi
morsu
mort
morta
morte
morti
morto
mortu
moru
mosaica
mosca
moschatum
mosche
moschi
mose
mossa
mossu
most
mostra
mostrani
mostranu
mostri
mostru
mostu
motbis
mother
motivi
moto
motti
motto
mottu
motu
mountain
mova
move
movement
movi
movimiento
movini
moyen
mozambicu
mozart
mozza
mozziconacci
mozzu
mpanu
mpaza
mq
mr
msg
mt
mtsho
mu
mucale
muccichile
muccichili
muccicosu
muchas
muchji
muchju
mucho
muchos
mudalita
mudeddi
mudeddu
mudella
mudelli
mudellu
muderna
muderne
muderni
mudernita
mudernu
mudesta
mudestu
mudifica
mudificata
mudificatu
muga
mughja
muhammad
muito
mula
muldavia
mulinacciu
mulineddu
mulini
mulino
mulinu
mulise
mulone
multedo
multifidus
multimedia
multiplicazione
multiplicazioni
multiplichendu
multiplici
mulu
mumenti
mumentu
mun
munaci
munacia
munadi
munarchia
munarchicu
munasteri
munasteru
mundi
mundiale
mundiali
mundo
mundu
munegascu
muneta
muneti
munich
municipal
municipale
municipali
municipalita
municipalities
municipios
municipiu
munimenti
munimentu
munizione
munizioni
munsignore
muntagna
muntagne
muntagnera
muntagni
muntagnola
muntagnole
muntagnoli
muntagnolu
muntagnosa
muntagnosu
muntaninu
muntanti
muntera
muntese
muntesu
munticellu
muntichji
muntona
muntoni
muntosa
muntose
muntosi
muntosu
munumenti
munumentu
munumintali
muoni
muonu
muqaddimah
mur
mura
muracciole
murad
muraena
muraglia
muraglie
murale
murali
muralis
muraria
murat
muratu
murella
murena
murendu
muresca
murfulugia
muri
muricciu
muriel
murire
murlo
murone
murray
murrina
mursica
mursiglia
murta
murtali
muru
murzu
mus
musa
musca
muscari
muscatu
muschea
muschettu
muscia
musciatu
muscivorus
muscu
musculina
musculu
muse
musei
museiu
museo
museos
museu
museum
musi
music
musica
musicale
musicali
musicante
musicanti
musiche
musiculugia
musimon
mussiu
must
mustaccia
mustafa
mustelidae
mustra
mustratu
mustrendu
mustro
mustruosu
musu
musuleu
musulmana
musulmane
musulmani
musulmanu
muta
mutamenti
mutata
mutatu
mutivi
mutivu
mutore
mutori
mutu
muvimenti
muvimentu
muvra
muvre
muvredda
muvrella
muvri
muvrini
muvronu
muy
muzza
mx
my
myanmar
mystery
mythology
mǝ
mǝri
mɔ
mɛ
n
na
nabulione
nabulionichi
nabulionicu
nabulionu
nacimiento
nacional
nacionales
nacque
nacqui
nacu
nada
nadie
nadu
nagu
nai
naiadi
nalɛ
nam
name
namibia
nan
nancy
nang
nanna
nannara
nannari
nanni
nannula
nant
nanta
nantu
nanz
nanzi
nanzu
napole
napoleon
napoleone
napoli
napuleo
napuleone
napuletana
napuletanu
napuli
napulione
napulitana
napulitanu
narbaturi
narbu
narciso
narcissisimu
narcissu
nari
narin
narra
narrata
narrativi
narrativu
narratu
narrazioni
narvu
nasa
nasale
nasali
nasce
nascenu
nascetti
nasci
nascia
nascini
nascita
nascosti
nascǝ
nassu
nasu
nat
nata
natale
natalellu
natali
natalicio
natalie
natalis
natalǝ
nate
nathan
nati
nation
national
nationale
nativa
native
nativi
nativita
nativu
nato
natrix
natu
natura
naturae
natural
naturalamenti
naturale
naturales
naturaleza
naturali
naturalis
naturalistu
naturalizata
naturalizatu
naturalmente
nature
naturelles
naufraghju
nauru
nauruanu
navaho
navajo
navale
navali
navarra
navata
navate
nave
navi
naviga
naviganti
navigatore
navigatori
navigazione
navigazioni
navighevuli
navy
nazi
nazione
nazioni
nazista
naziunale
naziunali
naziunalismu
naziunalista
naziunalisti
naziunalistu
naziunalita
nazlı
nazza
nchez
ncia
nd
nda
ndani
nde
ndebele
nder
ndez
ndose
ndrangheta
ndǝ
ne
nea
neapolis
near
nebbia
nebbiu
nebraska
nebulosa
nec
necesariamente
necesario
necesidad
necessaria
necessariamente
necessariu
necessita
necropoli
necropuli
ned
nederlandese
need
needed
neerlandese
nega
negativa
negative
negativi
negativu
neglecta
negra
negru
nehru
neil
nel
nell
nella
nelle
nelson
nemiche
nemichi
nemici
nemicu
nemmenu
nentru
neoborbonici
neotinea
nepal
nepalese
nepeta
nepita
neq
ner
nera
nerazzurri
nerbu
nere
nereidi
neri
neru
nervatura
nervu
nervus
nes
nesca
nesce
nessunu
net
nete
netta
nettu
nettuniu
nettunu
network
neu
neucha
neuf
neuhoff
neuliticu
neunatu
neutrali
neutralita
neutri
neutrinu
neutroni
neutru
neuzilandesa
neva
nevada
nevado
neve
nevi
new
news
newton
next
nez
nezu
nfasis
ng
nga
ngc
nghǝ
ngnani
nhat
ni
nia
nibulosa
nibulosi
nica
nicamente
nicaragua
niccia
niccolo
nice
nicea
niche
nichel
nichi
nichja
nicholas
nicholson
nicissaria
nicissariamenti
nicissarii
nicissariu
nicissita
nick
nickelodeon
nickserv
nicky
nico
nicola
nicolai
nicolas
nicoli
nicolo
nicu
nicula
niculaiu
niculau
niculo
nidi
nidicali
nidificazione
nidificazioni
nidificheghja
nidu
nie
niedda
nieddu
niente
nienti
nietzsche
niga
nigaglioni
niger
nigeria
nighjeria
night
nights
nigra
nigris
nigritella
nigrum
nikola
nile
nilu
nima
nimicu
nimo
nimu
nin
nine
ninfa
ninfe
ninfi
ningu
ninguna
nini
ninna
ninnani
ninni
nino
ninu
nio
niolu
nipalesu
nipote
nipoti
niri
niricciu
nisciun
nisciuna
nisciunu
nissuna
nissunu
nisun
nisuna
nisunu
nittamenti
niulinchi
niulincu
niuliticu
nivacciula
nivalis
nivaro
nivellu
nivi
nivosa
nivuli
nivulu
nizza
nkele
nn
nnari
nniri
nnula
nnǝ
no
nobel
nobile
nobili
nobilis
nobis
nocca
noce
noci
noctem
nodi
nodosa
nodu
noe
noemi
noi
nois
nom
noma
nomab
nomadi
nombre
nombres
nome
nomen
nomi
nomina
nominato
nominatu
nomu
nomuff
non
none
nonostanti
nonustante
nonustanti
nonza
nora
nord
nordafrica
nordeste
nordestu
nordica
nordu
nordupunente
nordupunenti
norfolk
nori
norma
normal
norman
normas
norme
norrese
norte
north
norton
nos
nosci
noscia
nosciu
nosotros
nostra
nostre
nostri
nostro
nostru
nostrum
not
nota
note
notes
noti
notice
notre
notte
notti
notu
nouhen
noun
nous
nouveau
nouvelle
nova
novamente
novara
nove
novedades
novella
novem
november
novembre
novi
novicentu
noviembre
novu
now
nozze
nozzi
nt
nta
ntgen
ntico
nu
nuaru
nubiliari
nubilta
nucariu
nuceta
nuchisi
nuciolu
nucleare
nucleari
nuclei
nucleu
nuda
nudda
nudi
nudu
nuestra
nuestras
nuestro
nuestros
nueva
nuevas
nuevo
nuevos
nui
nuit
nuli
nulla
nullu
nulu
numarali
numari
numarose
numarosi
numaru
numata
number
numerale
numeri
numerica
numerichi
numericu
numero
numerose
numerosi
numerosu
numeru
numi
numica
numichi
numicu
numidi
numidia
numina
numinale
numinali
numinata
numinati
numinatu
numinazione
numinclatura
numineghja
numino
numu
nun
nunc
nunca
nunda
nunziata
nunziu
nuoru
nuova
nuovo
nuracu
nuragica
nuragicu
nuragu
nurmalamenti
nurmale
nurmali
nurmalmente
nurmana
nurmandi
nurmandia
nurmani
nurmannu
nurvegesu
nurveghja
nurveghjese
nurveghjesu
nurvegia
nurvigesi
nustrale
nuta
nutadore
nutadori
nutaghjola
nutaghjole
nutaghjoli
nutaru
nutata
nutati
nutatore
nutatu
nutazione
nutazioni
nutevulamenti
nutevule
nutevuli
nutizia
nutizie
nutizii
nutrimenti
nutrimentu
nutrisce
nutrisci
nutriscia
nutritu
nuttata
nutturni
nutturnu
nuva
nuvale
nuvanta
nuvara
nuvedda
nuveddi
nuveddu
nuvella
nuvelle
nuvelli
nuvellu
nuvembre
nuvembri
nuwa
nuzione
nuzioni
ny
nyi
nynorsk
nza
nǝ
nǝn
nən
nɛzɛ
o
oasi
obama
obbligu
oberto
obesita
obiettivi
obiettivu
objetivos
objeto
oblast
obligaciones
obovatum
obra
obras
obres
observatoire
obtener
oc
ocana
occagnanu
occasione
occasioni
occidentale
occidente
occitan
occitana
occitania
occitanicu
occitanu
occorre
occorri
occupa
occupanu
occupata
occupati
occupatu
occupazione
occupendu
occupo
ocean
oceani
oceania
oceanica
oceaniche
oceanicu
oceanu
ochja
ochjatana
ochji
ochjigrisgiu
ochjirossa
ochju
oclc
ocra
oct
octave
october
octubre
ocymoides
od
oder
odessa
odinu
odissea
odisseu
odiu
odora
odore
odori
odu
oe
of
off
offensiva
offerta
offertu
offesa
office
official
officiale
officiali
officialmente
officinalis
offiziu
offra
offre
offri
offrini
offriti
oficial
ofride
og
ogetti
ogettu
oggettu
oggi
oghje
oghjetti
oghji
oghjinca
oghjinchi
oghjincu
ogliastru
ogliu
ogn
ogni
ognun
ognuna
ognunu
ognǝ
oh
ohio
oi
oil
ois
oise
oiseau
oiseaux
ojo
oklahoma
ol
ola
olanda
olandese
olbia
olcani
old
oldman
oletta
olii
olimpia
olimpiade
olimpiadi
olimpichi
olimpicu
olimpu
oliu
oliva
olive
oliver
olivetum
olivier
olivieri
olla
ollagnier
olmeta
olmi
olmo
olmu
olona
oltre
oltri
oltritomba
olympia
omagiu
omancu
omar
ombra
ombria
omericu
omerta
omeru
omessa
omeumorfi
omeumorfu
omeumurfismu
omi
omini
omnium
omonima
omonimu
omu
on
onb
once
onda
onde
ondeci
ondi
ondici
one
onesta
online
only
ono
onoma
onopteris
onore
onori
ont
ontario
ontariu
onu
op
opara
opare
opari
opcio
ope
opel
open
opera
operatore
operazione
operazioni
operculu
opere
ophioglossaceae
ophioglossum
ophiuchus
ophrys
opi
opinione
opoldville
opole
oppone
opposizione
opposta
opposte
opposti
oppostu
oppure
oppuri
oppurtunita
oppuru
oppusizione
oppusizioni
or
ora
oraculu
oral
orale
oramai
orange
oratoire
oratori
oratoriu
orazio
orba
orbicularis
orbita
orbiti
orchestra
orchidaceae
orchidea
orchidee
orchis
orcu
orda
orden
order
ordina
ordinali
ordinanza
ordinaria
ordinarias
ordinarios
ordinatore
ordinatu
ordine
ordineghja
ordini
ordino
ore
orechje
oreopteris
orezza
orfeu
org
organi
organisation
organisazione
organise
organismi
organismu
organiza
organizacio
organizado
organizadores
organizata
organization
organizations
organizatu
organizazione
organize
organized
organizeghjanu
organizing
organu
orgogliu
ori
orie
orient
oriental
orientale
orientali
orientalis
orientata
orientate
oriente
orienti
orighjne
origin
original
originale
originali
originaria
originarie
originariu
origine
originel
origini
orion
orione
orionis
oriu
orizonti
orizuntali
orlando
orlandu
orle
orleans
orlu
ormai
ormi
ormuz
ornamenti
ornano
ornanu
ornata
ornetu
ornithogalum
oro
orriu
orrori
ors
orsa
orsi
orsini
orsinu
orsoni
orsu
orsucci
ortale
orte
orti
orticoni
ortiporiu
orto
ortogra
ortografia
orton
ortu
ortudossu
ortugrafia
oru
orzu
os
osani
osasco
oscar
oscari
oscilla
oscu
oscura
oscurita
oscuru
osinno
oslu
osmunda
oso
ospidale
ospita
ospiti
ossa
osse
osserva
osservatu
osservazione
ossi
ossia
ossidi
ossigenu
ossirincu
ossirva
ossirvati
ossirvatoriu
ossirvatu
ossirvazione
osso
ossola
ossu
ostaculu
osteria
ostia
ostilita
ostrica
ostrice
ostriconi
ot
otan
other
others
otorgadas
otra
otras
otro
otros
otta
ottana
ottanta
ottava
ottave
ottavi
ottavianu
ottena
ottene
otteni
ottense
ottensi
ottenuta
ottenutu
ottica
ottima
ottimi
ottimu
ottinuti
ottinutu
otto
ottobre
ottomani
ottomanu
ottu
ottucentu
ottumana
ottumani
ottumanu
ottunariu
ottusu
ou
our
out
ova
ovale
ovali
ove
over
overline
ovest
ovi
ovidiu
ovis
ovitu
ovu
ovveru
oxford
oxyrrhynchos
oz
oziosu
oziu
p
pa
pablo
pacchistanu
pace
pachistan
pachuca
paci
pacifica
pacificu
padana
padanu
padda
padovani
padovano
padre
padru
padula
padulana
padulatu
padule
padulella
paduli
padulu
paduva
paeonia
paese
paesi
paesu
pag
paga
pagamentu
pagani
paganu
pagatu
page
pages
paghjella
paghjelle
paghji
paghjina
paghjola
paghju
pagina
pagine
pagini
paglia
pagliaghju
pago
pagos
pai
pain
paisaghji
paisaghju
paisana
paisane
paisani
paisanu
paisoli
paisolu
paix
pakistan
pal
paladinu
palasca
palatali
palatina
palatinu
palau
palauanu
palazzi
palazzo
palazzu
pale
palermu
palesa
palestina
palestrina
paletta
paleuliticu
pali
palidu
palleca
pallens
pallida
pallidu
pallidus
pallo
pallone
pallottino
palma
palmata
palme
palmeiras
palmentu
palmi
palmu
palu
paludosa
palustre
palustris
pampasgiolu
pan
panama
panca
pancheraccia
pancratium
pancraziu
pandicina
pandolfi
pandolfu
pane
pani
panicala
paniculatum
panneddu
pannelli
pannellu
panni
pannu
panorama
pantaloni
pantera
panthera
pantone
panza
panǝ
paoletti
paoli
paolina
paolo
paolu
paomia
papa
papale
paparone
paparonu
papatu
papaver
papers
papi
papiamentu
papilio
papilionacea
papiri
papiru
pappa
par
para
parabola
parabula
paracquella
paradise
paradiso
paradisu
paradossi
paradossu
paraffina
paragonu
paragrafu
paraguay
paraguna
paragunata
paragunatu
paraguneghja
paragunevule
paragunevuli
parallela
parallelamenti
parallele
paralleli
parallelu
parametri
parametro
parametru
parana
parasu
parata
parce
parch
parche
parchi
parcio
parcorsi
parcorsu
parcu
parcurrendu
parcussione
pare
parechje
parechji
parente
parenti
parenu
pareta
parete
pareti
pareto
parfetta
parfettu
parfittamenti
pari
paria
parianu
parichji
paride
parietaria
pariggi
parighj
parighji
parighjinu
parigi
parigina
parini
parintedda
paris
parita
park
parker
parkinson
parl
parla
parlaccia
parlamentu
parlamintare
parlamintari
parlani
parlanti
parlanu
parlata
parlate
parlati
parlatu
parlava
parlemu
parlendu
parma
parmenidi
parmetta
parmetti
parmettini
parmissi
parmissu
parmittendu
parmittia
parmutazioni
parnice
parnici
paro
parochja
parochje
parodda
parola
parole
paroli
parolla
parolle
parpena
parpindiculari
parque
parquet
pars
parsefuna
parsistenti
parsona
parsone
parsoni
parsonne
parsunaghji
parsunaghju
parsunali
parsunalita
part
parta
parte
partenarii
partendu
partenu
partenza
partesi
parteu
parti
partia
participa
participacio
participante
participantes
participanti
participants
participar
participara
participate
participation
participatu
participazione
participazioni
participeghja
participeghjanu
participiu
participo
particula
particular
particularamenti
particulare
particulari
particularita
particularmente
particularmenti
particule
particuli
partimala
partinellu
partini
partir
partisce
partita
partite
partiti
partitu
partu
partutu
party
paru
paruchjale
parulla
parulli
parveni
parviflora
parzialamenti
parziale
parziali
pas
pasa
pasado
pasce
pasci
pascia
pasciali
pasculu
pasifae
paso
pasos
pasqua
pasquale
pasquali
pasqualini
pass
passa
passaghjeri
passaghji
passaghju
passani
passanti
passanu
passata
passate
passatempi
passati
passato
passatu
passava
passe
passendu
passer
passera
passerottu
passi
passione
passioni
passionis
passiunatu
passiva
passivu
passo
passu
passula
password
past
pasta
pastasciuta
pastasciutta
paste
pastecca
pastinacea
pastini
pastore
pastori
pastricciola
pastu
pasturale
pasturali
pastureccia
pasturecciu
pasturizia
paswan
pat
patagunia
patata
patella
patellu
pater
paterna
paterni
paternostru
paternu
pati
patitu
patre
patri
patria
patriarca
patrick
patrimoine
patrimonio
patrimoniu
patriotti
patriottu
patrizia
patriziu
patrocinadores
patrona
patrone
patroni
patronu
patte
patti
pattone
pattu
patula
paul
paula
pauli
paulina
paulo
paulu
paura
pausa
pausania
pavia
pavimentu
pavone
pavonu
pays
paz
pazienti
pazienza
pazzi
pazzia
pc
pdf
pe
peace
peak
pearl
pearson
peccatu
pechino
pecita
pecitella
pecura
pecure
pecuri
ped
peda
peddi
pede
pedi
pedicorti
pedicroce
pedigrisgiu
pedipartinu
pedir
pedro
peg
pegasu
peghju
pel
pela
pelasgi
pelau
peli
pelia
pelle
peloponnesu
pelopunnesu
peloro
pelu
pen
pena
penale
penali
penalita
penas
pendente
pendi
pendichi
pendita
pendite
penditi
pene
penetra
peni
peninsula
peninsulare
penisula
penitenti
penn
penna
penne
penni
pennsylvania
pensa
pensani
pensanu
pensare
pensatu
pensava
pensendu
penser
penseru
pensu
penta
pente
pentone
people
pepper
peppu
pequen
per
pera
percentuale
perch
perche
perchi
percorre
percorsu
percussione
percy
perda
perde
perdere
perdi
perdicula
perdita
perdite
perditi
perdono
perduta
perdutu
pere
pereira
perelli
peretti
perfect
perfettamente
perfettu
perfinu
performance
perfugas
pergusa
peri
pericle
periculosu
periculu
perieliu
periferia
perimetru
perio
periodi
periodichi
periodo
periodu
perire
perisce
perisci
periscia
periudi
periudu
perkins
perla
permanente
permessu
permette
permettenu
permita
permitan
permite
permitir
permittendu
pernice
pero
perosa
perpetua
perro
perry
pers
persa
perse
persecuzione
perseidi
perseiu
perseus
persi
persia
persiana
persiani
persianu
persica
persichi
persicu
persinu
persona
personas
persone
personna
personne
persu
persunaghji
persunaghju
persunagi
persunale
persunali
persunalita
pertantu
perth
peru
perugia
pes
pesa
pesante
pesca
pescasseruli
pesce
pesci
pescia
pesciu
pesciucane
pesciucani
pescusolidu
pesi
peso
pesos
pessoa
pesta
pestan
pesu
peta
petali
pete
peter
petit
petite
petra
petrabugnu
petralba
petrarca
petrarchae
petrarcu
petre
petri
petricaghju
petrignani
petroliu
petrone
petrosu
petru
petruburgu
pettibianchi
pettibiancu
pettirossu
pettirussu
pettu
peugeot
peut
pez
pezza
pezze
pezzi
pezzu
pfeiffer
pffer
pfs
pg
ph
phane
pharum
phasianidae
phi
phil
philadelphia
philip
philippe
philosophia
phobos
phoenix
photo
photographic
photos
php
pi
pia
piace
piacenu
piacenza
piaceri
piaci
piaga
piaghja
piaghje
piaghji
pialaghini
pian
piana
piane
pianellu
pianeta
pianete
pianeti
piani
pianificazioni
pianistu
piano
pianosa
pianottuli
pianta
piantatu
piantazione
piante
pianti
piantolu
pianu
pianuforte
pianura
pianure
pianuri
piatta
piattaforma
piattaformi
piattata
piatti
piattu
piave
piazza
piazzali
piazzata
piazzate
piazzati
piazzatu
piazze
piazzendu
piazzetta
piazzi
piazzili
piazzola
piazzole
pib
pibine
pica
picasso
picca
piccardu
piccatu
picce
piccia
piccioli
picciolu
piccola
piccolo
piccu
piccula
piccule
picculi
picculu
pichja
pichjaronu
pichjettu
pichji
pichjone
pichju
piciniscu
picondria
picridium
picroides
pictured
pictures
picuraghju
pida
pidda
pide
pidgin
pidochju
pidu
pie
piece
piedi
pieds
piega
piegna
piegne
piegni
piegu
piemonte
piemontese
piemonti
piemuntese
piemuntesu
pien
piena
piene
pienghja
pienghje
pienghjendu
pieni
pientu
pienu
pier
pierce
pierluigi
piero
pierre
pieru
pieta
pieter
pietra
pietralba
pietraserena
pietre
pietri
pietro
pietru
pievana
pievane
pieve
pievi
pifana
pifania
pigafetta
pighja
pighjola
pighjolu
pigli
piglia
pigliani
piglianu
pigliara
pigliata
pigliate
pigliati
pigliatu
pigliendu
piglii
piglio
piglionu
pigna
pignata
pignatta
pignatti
pignu
piiga
pila
pilame
pilastri
pilastru
pilatu
pilone
pilonu
pilosu
pilota
pilotu
pilu
pilupunnesu
pimort
pin
pinaceae
pinareddu
pincionu
pindaru
pindenti
pindenza
pindenzi
pine
pinghja
pinghji
pinguicula
pini
pinisula
pinitra
pinitrati
pink
pinna
pinneddu
pinnuleddi
pinnutu
pino
pins
pinsa
pinsadori
pinsamenti
pinsamentu
pinsatu
pinsava
pinsendu
pinseri
pinseru
pinsione
pinsioni
pinsiunariu
pinterest
pinti
pinticosti
pintu
pintura
pinu
pinus
pinzalone
pinzi
pinzu
pinzuta
pinzuti
pinzutu
pio
piobbu
piobetta
piobu
piogiula
piombu
pioneer
piopu
piosse
piova
piove
piovi
pipa
pippa
piracci
piramida
piramidi
pirata
pirataria
pirate
pirati
piratu
pirdendu
pirdutamenti
pirenei
piri
piriculu
piriodica
piriscia
pirituu
piriudu
pirmanenti
pirmanenza
pirotecnichi
pirsiana
pirsiani
pirturbazioni
pirvirsioni
pirǝ
pisa
pisana
pisane
pisani
pisanti
pisanu
pisati
pisava
pisca
piscadori
pisci
piscia
piscine
piscu
pisellu
pisi
pisolithus
pista
pistacia
piste
pistoia
pistola
pistole
pisu
pisum
pit
pitagora
pitagorica
pitagoricu
pitali
pitcairn
pitcairnese
pitcairnesu
pitizioni
pitretu
pitroliu
pitrusedda
pitt
pittirussu
pittore
pittori
pittsburgh
pittura
pitturali
pitture
pitturi
piu
piulacona
piulaconi
piulaconu
piuma
piumaghju
piumbatoghji
piumbinu
piumbone
piumbonu
piume
piumi
piupetta
piuttostu
piuvana
piuvanu
piuvaro
piuvi
piuvia
piuviosu
piuviti
pizza
pizzica
pizzone
pja
pl
pla
placca
placche
placchi
place
places
placidu
placitu
plan
planet
planeta
planning
plant
planta
plantarum
plante
plantes
plantilla
plasma
plastic
plasticu
plata
platanthera
platanu
platinu
platone
platonica
platonichi
platonicu
platonu
play
plaza
please
plebania
pleshette
pli
plice
pliniu
plurale
plurali
plus
plutarcu
pluton
plutone
plutonu
pm
png
pnici
pnrc
po
pobbe
poblacio
poca
poche
pochi
poco
pocu
podamos
podarcis
podarse
podarsi
poddu
pode
podemos
poder
podesta
podgorica
podra
podri
poesia
poesie
poeta
poggio
poggiu
poghjolu
poghju
poi
poiche
poings
point
points
poir
pola
polacca
polacchi
polaccu
poleis
polesine
poletti
poli
police
policy
poligunali
polinumiale
poliottu
polis
politica
politiche
politicu
politique
pollici
polonia
polpa
poltu
polu
polvara
polvari
polvera
polvere
polverosu
polygonatum
polypodium
polystichum
poma
pompa
pompei
pompeo
pompidou
pomu
pona
poncin
pone
poner
poni
pont
ponte
ponti
pontica
pontificia
ponty
ponu
ponziu
pop
popolari
populare
populari
populata
population
populazione
populazioni
populazzione
populi
populonia
populu
populus
poque
por
porchi
porci
porcu
porga
porque
porri
porru
port
porta
portakal
portal
portale
portani
portanu
portatu
porte
porter
porti
portivechju
porto
portoghese
portrait
portu
portufarraiu
portugallu
portughese
portughesi
portugnol
portugue
posa
pose
poseidon
poseidonu
posi
posible
posibles
posidonia
positroniu
posizione
posizioni
possa
possi
possibile
possini
possonu
possu
post
posta
poste
posti
postu
potenciales
potential
potentially
poti
potter
pouance
pour
povar
povara
povari
povaru
povera
poveri
poverta
poveru
power
pozza
pozzi
pozzo
pozzu
pp
ppǝ
pr
pra
practica
pradesh
prado
praga
pranzu
prata
pratarolu
pratensis
pratesi
prati
pratica
praticamente
praticamenti
praticanti
praticata
praticatu
pratiche
pratichi
praticu
pratu
pratuline
pratulini
prayon
pre
precede
precedente
precedenti
preceduta
precedutu
precisa
precisamente
precisu
preda
predatori
prede
predi
predicatu
predilettu
predominiu
preesistente
prefaziu
prefettu
prefettura
prefissu
prega
preghera
preghjudiziu
pregu
pregunta
preguntas
preistoria
preistorica
preistorichi
preistoricu
premiere
premii
premio
premios
premissa
premiu
prende
prendi
preoccupazione
preparatu
preparazione
prepositura
prepusizione
prerumana
pres
presa
presbiteriu
presca
prese
presenta
presentanu
presentar
presentazione
presente
presentes
presenti
presenza
presenze
presi
presidente
presidenti
presidenza
presidenziale
presidiu
presini
press
pressu
presta
prestazione
prestiti
prestitu
presto
prestu
presu
presunta
presupuesto
preta
prete
pretende
preti
preto
prevalentemente
prevista
previstu
preziosa
prezzi
prezzu
pri
priamu
pricantula
price
pricidenti
pricidintamenti
pricipitazioni
pricisa
pricisamenti
priciseghja
pricisi
pricisioni
pricisu
priculosa
priculosu
priculu
pricursori
pridatori
pridgeon
pridicatu
pridicissori
prifaziu
priferenza
priferisce
prifettu
prifirendu
priga
prighera
prigheti
prighjo
prighjone
prighjuneri
prigio
prigione
prigiunere
prigiuneri
prigiuneru
prima
primaria
primarii
primariu
primatu
primavera
prime
primer
primera
primes
primi
primiatu
primitiva
primitivi
primitivu
primo
primu
primura
primurdiali
princeps
princeton
principal
principalamenti
principale
principali
principalmente
principati
principatu
principe
principessa
principi
principia
principianu
principiata
principiatu
principiava
principiendu
principii
principio
principiu
principles
principu
priori
priorities
pripara
priparata
priparava
priparazione
pripusizioni
prisenta
prisentani
prisentanu
prisente
prisenti
prisenza
prisenziale
prisidente
prisidenti
prisinta
prisintatu
prisintazioni
prisintendu
prisinto
prisirva
prissione
prissioni
pristaticci
pristazioni
pristigiu
pritestu
priurita
priva
privado
privalenti
privali
privalini
privalintamenti
privata
private
privati
privatu
privatus
prive
priveda
privedi
privenzione
prividia
privisioni
privistu
privostu
privu
prize
prizes
priziosi
priziosu
prnc
pro
probable
probablement
probablemente
probbia
probbii
probbiu
problem
problema
problemas
problemi
procera
proceso
process
proclamatu
produce
producenu
productions
produtta
produtte
produtti
produttore
produttori
produttrice
produttu
produzione
produzzione
prof
profesores
professiunale
professor
professore
profilu
program
programa
programma
progress
progressive
project
projects
promenades
promote
promoting
promover
pronta
pronti
prontu
pronuncia
pronunciata
pronunciate
pronunciation
pronunciatu
pronunciazione
pronuntiationem
pronunzia
pronunziata
pronunziatu
propia
propii
propiu
propone
proponer
proposal
propositu
propri
propria
proprie
proprieta
propriu
propuesta
prosa
prosper
prosperu
prossima
prossimi
prossimu
protagora
protegida
proto
protu
prova
prove
provence
provenzale
proverbes
provi
provide
providence
providencia
province
provincia
provincialis
provoco
proyecto
proyectos
prruci
pru
prua
prubabilamente
prubabilamenti
prubabile
prubabili
prubabilita
prubabilmente
prubbiamenti
prubita
prubitarii
prubitariu
prublema
prublematica
prublemi
prublemu
prucede
prucedi
prucessi
prucessio
prucessione
prucessu
prucidimentu
prucidura
pruciduri
prucissio
prucissione
prucissioni
pruclama
pruclamata
pruclamatu
pruclamo
prudenza
prudottu
pruduce
pruducendu
pruducenu
pruduci
pruducia
pruducini
prudutta
prudutti
pruduttivita
pruduttore
pruduttori
pruduttu
pruduzzione
pruduzzioni
prufanu
prufessiunale
prufessiunali
prufessore
prufeta
prufettu
prufezia
prufilu
prufissione
prufissiunali
prufissore
prufissori
prufitta
prufittendu
prufittu
prufonda
prufonde
prufondi
prufondu
prufundamenti
prufundezza
prufundita
prugetti
prugettu
prughjetti
prughjettu
prugna
prugramma
prugrammazione
prugrammi
prugressi
prugressu
prugrissiva
prugrissivamenti
prugrissivu
pruibisce
pruibitu
pruiettiva
prulungamentu
prumessu
prumeteu
prumissu
prummetta
prummette
prummetti
prumova
prumove
prumuntoriu
prumuzione
prunelli
prunome
prunomi
prunomu
prunu
prununcia
prununciata
prununciatu
prununciazione
prununciazioni
prununzia
prununziazioni
prunus
prunuzia
prupaganda
prupia
prupizia
prupo
prupona
prupone
pruponi
pruposi
prupositu
pruposta
pruposti
prupostu
prupria
pruprieta
pruprietarii
pruprietariu
prupurzione
prupurzioni
prusegue
prusegui
pruserpina
prusperita
pruspittiva
prussia
prussiana
prussiani
prussimita
prustaferesi
prustituta
prutagonista
prutagonistu
prutagunisti
pruteghja
pruteghje
prutetta
prutette
prutetti
prutettore
prutettu
prutezzione
prutistanti
prutittori
prutizzione
prutizzioni
pruva
pruvata
pruvatu
pruvene
pruvenendu
pruvenenti
pruveni
pruvenini
pruvenza
pruvenzale
pruverbi
pruverbii
pruverbiu
pruvince
pruvinci
pruvincia
pruvinciali
pruvincie
pruvinendu
pruvinenti
pruvinienza
pruvinzali
pruvista
pruvo
pruvuca
pruvucatu
pruvucheghja
pruvuchendu
pruvuco
ps
pseudonimu
psicologia
psiculogicu
psycho
pt
pteridaceae
ptolemea
pu
pub
pubblica
pubblicatu
pubblico
pubblicu
public
publica
publicacio
publicar
publicata
publicate
publicati
publicatu
publicazione
publicazioni
publiche
publicheghja
publichi
publicita
publico
publicu
publique
publisher
publiu
puce
pudaria
pudariani
puddinu
pudditrata
pude
pudemu
pudendu
pudere
puderi
puderia
puderianu
pudesta
pudete
pudeti
pudia
pudiani
pudianu
pudissi
pudutu
pueblo
pueda
puedan
puedas
puede
pueden
puedes
puedo
puema
puemi
puerto
puesia
puesie
pueta
pueti
puetica
pueticu
pughjale
pughjilatu
pughjola
pughjolu
pugilatu
puglia
pugliese
pugni
pugnu
puisia
puisii
puitessa
pula
pulacciu
pulaccu
pularia
pularii
pularita
pulariu
puleghju
pulemica
pulenta
pulgi
pulgia
puli
pulicaria
puligunu
pulinesia
pulinomii
pulita
pulitica
puliticamente
puliticamenti
puliticante
puliticanti
pulitiche
pulitichi
puliticu
pulizia
pulizza
pulonia
pulsa
pultronu
puluidali
pulvariccia
pulverosu
pum
puma
pumas
pumata
pumelu
pumonte
pumonti
pumontincu
pumpelmu
pumuntincu
punendu
punente
punenti
puni
punia
punica
punichi
punicu
punisce
puniscia
punitu
punizione
punizioni
punk
punta
punte
puntefice
punteghju
puntettu
punti
puntificali
puntificiu
punto
puntos
puntu
puntuatu
puntuazione
puntura
puo
pup
pupolazione
puppa
puppatula
puppona
puppusgia
puppusgiula
pupulamentu
pupulare
pupulari
pupularita
pupulata
pupulati
pupulatu
pupulazione
pupulazioni
pupulosa
pur
pura
puramente
purcaghji
purcaghju
purcastri
purcellu
purcile
purcileddi
purcili
purcina
pure
purezza
purgatoriu
puri
purpose
purpurea
purpurinu
purrione
purta
purtadori
purtali
purtanti
purtata
purtate
purtati
purtatu
purtava
purtavani
purtavanu
purteddu
purtellu
purtendu
purtichju
purto
purtone
purtonu
purtroppu
purtugallu
purtughese
purtughesu
puru
purveddi
purzioni
pusa
puseidonu
pusitiva
pusitivi
pusitivu
pusitoni
pusitonu
pusizione
pusizioni
pusiziunali
pusseda
pussede
pussedi
pussedini
pussessu
pussibile
pussibili
pussibilita
pussibule
pussibuli
pussidendu
pussidia
pussidiani
pussidimenti
pussidimentu
pussutu
pusteriore
pustiriore
pustiriori
put
puta
putassiu
putente
putenti
putenza
putenze
putenzi
putenziale
puter
putere
puteri
puti
putumayo
puvarta
puverta
puzza
pyramidalis
pyrenaica
pyrrhocorax
pǝ
pɔna
pɔnɛ
pɛ
q
qim
qs
qu
qua
quad
quadranti
quadratu
quadri
quadrilateru
quadru
quaglia
qual
qualch
qualche
qualchi
qualchissia
qualcosa
quale
qualessa
qualessi
qualessu
quali
qualifica
qualificati
qualificatu
qualificazione
qualita
quality
qualla
qualsiasi
qualunqua
qualunque
qualvoglia
quand
quandi
quando
quandu
quang
quannu
quannǝ
quannə
quant
quanta
quante
quanti
quantica
quantita
quantu
quantunqua
quantunque
quaranta
quarantina
quarci
quaresima
quarrata
quarta
quarti
quartiere
quartieri
quartieru
quartu
quarzu
quasgi
quasi
quasquara
quassu
quaternariu
quatrata
quatrati
quatratu
quatre
quatri
quatru
quattordeci
quattordici
quattro
quattru
quatuor
que
quebec
queda
queen
quel
quell
quella
quelle
quelli
quello
quellu
quelqu
quem
quenza
quercetu
querci
quercitellu
querciu
quercus
queremos
querini
quessa
quesse
quessi
quessu
quest
questa
queste
questi
questione
questions
questo
questu
qui
quici
quick
quidd
quidda
quiddi
quiddu
quien
quienes
quilicu
quilla
quillu
quince
quinci
quindeci
quindi
quindici
quinta
quintero
quintu
quiribati
quissa
quissi
quissu
quist
quista
quisti
quistione
quistioni
quistiuna
quistu
quivu
quo
quota
quote
quuzienti
r
ra
rabat
rabbia
rabu
raccoglia
raccoglie
raccolta
raccolti
raccoltu
racconti
rachidi
racoglia
racolta
racolti
racoltu
raconti
racontu
racso
rada
radaru
radiante
radianti
radica
radicalamenti
radicale
radicali
radice
radiche
radichi
radio
radiohead
radiu
radu
raf
rafael
raffaele
raffaelli
raffalli
raffigurazioni
raffinata
ragazza
raghji
raghjone
raghjoni
raghju
raghjunamentu
raghjunghje
raghjunghjibuli
raghjuntu
ragione
ragioni
ragna
ragnola
ragnu
ragnucalabronu
ragruppati
ragruppendu
rai
rain
rale
ralement
ralph
rama
rame
rami
ramificata
ramificatu
raminta
ramo
ramolino
ramos
rampale
rampali
ramsay
ramu
ramulosus
ramus
ran
randy
ranedda
rangata
range
ranghi
rangu
ranh
ranking
rankings
ranochja
ranochji
ranunculaceae
ranunculoides
ranunculus
rap
rapaci
rapaghju
rapale
rapid
rapida
rapidamente
rapidamenti
rapidu
rapimentu
rapita
rapiti
rapitu
raportu
rappelle
rapper
rapporta
rapporti
rapportu
rappresenta
rapprisenta
rapprisentani
rapprisintanti
rapprisintativa
rapprisintatu
rapprisintazioni
rapresenta
rapresentanu
rapresentatu
raprisenta
rapunculus
rara
raramente
raramenti
rard
rare
rari
rarissima
rarissimu
raru
ras
rasenna
rasna
rason
rastafari
rasu
rat
rate
ratifica
ratificata
ratificatu
ration
rattu
rattus
rature
raven
raw
rawson
ray
rayados
raymond
raza
razi
raziunale
raziunali
razo
razones
razza
razzismu
razzoli
rbara
rbini
rbol
rburi
rca
rchb
rd
rdini
rdoba
rdǝ
rdə
re
rea
reach
read
reagan
real
reale
reali
realita
realizacio
realizadore
realizar
realizatore
realizatu
realizazione
realta
reame
reazione
rebus
reca
recensement
recente
recentemente
recenti
recherche
recibir
recientes
reciproca
reciprocu
recita
reconocimiento
record
records
recreazione
recruit
recuadro
recursos
red
redazioni
redazzione
redazzioni
redes
reducta
reed
reedition
ref
reference
referendum
referenza
referire
regalis
regards
regenza
reggello
reggio
reggiu
reghjimenti
reghjimentu
reghjone
regia
regime
regina
regio
regiomontano
regional
regione
regioni
regista
registrada
registrado
registrati
registratu
registrazione
registro
regiunale
regiunali
reglamento
regnante
regni
regno
regnu
regnum
regula
regulamentu
regulare
regulari
regularmente
regule
reguli
reichardia
reigns
reis
relacio
relacionadas
relacionados
relativa
relativamente
relative
relativi
relativita
relativu
relazione
relazioni
relevancia
relevant
relighjoni
religion
religione
religioni
religiosa
religiose
religiosi
religiosu
reliquie
relitti
relittu
remu
remux
ren
rena
renault
rencontre
renda
rende
rendenu
rendi
rene
reni
rennu
renosu
renu
renucci
reparata
repeating
repens
report
repositorio
representante
reptiles
repu
repubblica
republic
republica
request
requested
requiem
requisitos
rer
res
resa
rese
research
reserve
reservoir
resi
residenti
residenza
resina
resiste
resistente
resistenza
resolucio
resources
respirazione
responder
responsabilidades
respuesta
resta
restanu
resti
resto
restonica
restu
resu
results
resumen
resurezione
ret
reta
retali
rete
reti
retoques
retorica
retroflexus
retta
rettangulu
retti
rettili
rettore
rettu
return
reunio
reuniones
reuters
revenge
revenue
review
reviews
revincu
revisar
revolution
revoluzione
rex
rey
reykjavi
rez
rezensionen
rezu
rfc
rgala
rgano
rgya
rho
rhode
rhodes
rhoeas
rhyton
ri
ria
riacquistu
riali
rialisazioni
rialita
rializa
rializata
rializati
rializatu
rializeghja
rializo
rialmente
rialmenti
rialtu
riame
riami
riamu
riassuma
riassuntu
riazzione
riazzioni
riba
ribarroja
ribba
ribbi
ribeddi
ribeddu
ribelli
ribellione
ribera
riberbula
ribombu
ribuccatu
ribugli
ribustu
ric
rica
ricacciatu
ricantu
ricardo
ricava
ricca
ricche
ricchezza
ricchi
ricchissima
ricci
riccia
ricciu
ricciula
ricciulata
ricciulatu
riccu
rice
ricente
ricenti
ricerca
ricerche
ricerchi
ricette
riceva
riceve
ricevi
ricevutu
rich
richard
richardson
richesse
richiesta
richiesti
richiestu
richjama
richjamatu
richt
richter
ricintamenti
ricintu
ricita
ricivendu
ricivi
riciviti
ricivutu
riclama
rico
ricodda
ricoddani
ricolla
ricollanu
ricolta
ricopre
ricorda
ricordani
ricordi
ricordu
ricorsu
ricriazioni
ricu
ricuccata
ricudda
ricuddanti
riculla
ricumandatu
ricumpensa
ricumpinsa
ricunniscenza
ricunnisci
ricunniscimentu
ricunnisciuta
ricunnisciuti
ricunnisciutu
ricunnosce
ricunnoscenu
ricunnosci
ricunnoscia
ricunnuscimentu
ricunnusciuta
ricunnusciutu
ricunquista
ricupera
ricuperatu
ricurda
ricurdata
ricurdatu
ricurdendu
ricusa
ricusatu
ricuso
ricustruita
ricustruitu
ricustruzzione
ricustruzzioni
rida
ridatta
ridattori
ridattu
ridazzioni
ride
ridere
ridi
ridiculu
ridighja
ridley
ridrizza
riduce
riducendu
riduci
riducia
ridutta
ridutti
riduttu
riduzioni
ried
riedizione
riemann
riemanniana
riempia
riempie
rientra
riesce
riesci
riescia
riescini
riescita
riesciutu
rifarenza
rifarisce
rifariscia
rifatta
rifattu
riferenza
riferi
riferimenti
riferimentu
riferisce
riferisci
riferiscia
rifiri
rifirimenti
rifirimentu
rifirisce
rifirisci
rifiriscia
rifiuta
rifiutatu
rifiutu
rifle
riflessa
riflessi
riflessione
rifletta
riflette
rifletti
riflissioni
riforma
riforme
riformi
rift
rifughja
rifughjo
rifughju
rifugi
rifugiu
riga
rigalu
righjimentu
righjina
righjini
righjone
righjoni
righjonu
righjunghja
righjunghje
righjunghjendu
righjunghji
righjunghjini
righjunsi
righjunta
righjuntu
right
rightarrow
rights
rigimu
rigina
rigione
rigioni
rigistrata
rigistrazione
rigiunale
rigiunali
rignanti
rigoni
rigore
rigressu
rigrissioni
riguarda
riguardanti
riguardanu
riguardu
rigulare
rigulari
rigularmente
rigurosu
rii
riiscendu
riisci
riiscini
rilativa
rilativamenti
rilativi
rilativu
rilazione
rilazioni
rilevu
rilievi
rilievu
rilighjoni
riligione
riligioni
riligiosa
riligiose
riligiosi
riligiosu
rim
rima
rimana
rimane
rimanente
rimanenti
rimanini
rimarca
rimarchevule
rimarchevuli
rimborsu
rime
rimediu
rimessa
rimetta
rimette
rimori
rimorsu
rimotu
rimpiazza
rimpiazzamentu
rimpiazzata
rimpiazzati
rimpiazzatu
rimpiazzendu
rimprovaru
rimproveru
rimpruvara
rimpruvera
rimpruvira
rin
rina
rinaghju
rinaldi
rinasce
rinascenza
rinascimentale
rinascimentu
rinascita
rinatu
rinchjusi
rinchjusu
rindendu
rinesi
rinforzi
rinforzu
rinfurza
rinfurzamentu
rinfurzatu
ring
ringrazia
rinnovu
rinnuva
rinnuvamentu
rinose
rinosi
rinosu
rinucciu
rinumata
rinumati
rinumatu
rinuncia
rinvia
rio
riode
riparata
ripartizione
ripartizioni
riparu
ripeta
ripete
ripiglia
ripiglianu
ripigliaria
ripigliatu
ripigliu
ripituta
riporta
riposa
riposani
riposu
ripprisenta
ripprisentanu
ripprisinta
ripprisintanti
ripprisintata
ripprisintati
ripprisintatu
ripprisintava
ripprisintazione
ripprisintazioni
ripprisintendu
ripresa
riprese
ripresi
ripresu
riprisenta
riprisentanu
riprisinta
riprisintati
riprisintativu
riprisintatu
riprisintendu
riproduce
riproduzione
ripruduzioni
ripubblica
ripubblicana
ripublica
ripublicana
ripublicata
ripubliche
ripurta
ripurtata
ripurtati
ripurtatu
ripusa
ris
risa
risaltu
risanamentu
risaralda
risata
riscalda
riscaldamentu
risciutu
rise
risede
risedi
riserva
riservata
riservatu
riserve
riservi
risi
risichi
risicu
risidenti
risidenza
risidi
risirvata
risirvatu
risistenza
risks
risoltu
risoluzione
risolva
risolve
risorsa
risorse
risorzi
risparmia
risparmiu
rispeta
rispetta
rispettivamente
rispettive
rispettivi
rispettu
rispinghja
rispinghje
rispinta
rispira
rispiru
rispittati
rispittivamente
rispittivamenti
rispittivi
risponda
risponde
rispondi
rispose
risposi
risposta
rispostu
rispunsabilita
rispunsevule
rispunsevuli
ristampa
ristaurata
ristaurazioni
risto
ristoranti
ristretti
ristrettu
ristrizzioni
risturanti
risturazione
risu
risulta
risultanu
risultati
risultatu
risuluzioni
rit
rita
ritardu
ritena
ritene
riteni
ritenini
ritenutu
riti
riticeddu
ritimu
ritinuta
ritira
ritirata
ritiratu
ritiro
ritiru
ritmica
ritmu
ritondu
ritoni
ritonu
ritorica
ritorna
ritorno
ritornu
ritratti
ritrattu
ritrova
ritrovanu
ritruva
ritruvamenti
ritruvamentu
ritruvata
ritruvate
ritruvati
ritruvatu
ritta
rittangulari
rittanguli
rittangulu
ritti
rittori
rittu
rittʃu
ritu
rituale
rituali
riturno
riu
riunione
riunioni
riunisce
riuniscenu
riuniti
riunitu
riusci
riva
rivages
rivale
rivali
rivalita
rivaritu
rive
rivela
rivendica
rivendicazione
rivene
riveni
riventosa
river
rivi
rivie
riviera
rivilatu
rivindica
rivisioni
rivista
riviste
rivisti
rivolta
rivolte
rivolti
rivoltu
rivoluzione
rivulta
rivultati
rivuluzione
rivuluzioni
rivuluziunaria
rivuluziunariu
rizomi
rizomu
rizzanesi
rizzanesu
rizzoli
riʃʃa
riʃʃɛ
rk
rl
rm
rmeru
rmine
rmitu
rn
rnǝ
ro
road
rob
roba
robba
robert
robertiana
roberto
robertson
robin
robinia
robinson
rocca
roccapina
rocce
rocchi
rocci
roccia
roccu
rocher
rock
rockas
rocks
rocky
rococo
rod
roda
rodanu
rode
rodi
rodolfo
rodri
rodriguez
rogelio
roger
roglianu
rogna
rol
role
roll
rolli
rolling
rollins
rollu
rolu
roma
romagna
romagnolu
romaine
roman
romana
romance
romane
romanes
romani
romania
romanica
romaniz
romano
romanticu
romanu
romanza
romanze
rombu
rome
romeo
romieu
romolini
romolo
rompa
rompe
romulu
ron
ronald
ronaldo
ronchi
roncu
ronda
rondina
rood
rooney
roosevelt
ropa
rosa
rosazia
roscio
rose
rosetta
rosi
rospu
ross
rossa
rosse
rossi
rossius
rosso
rossu
rostam
rostinu
rota
rotgesii
rotica
rotta
rotterdam
rottu
rotunda
rouen
rouge
rousseau
routledge
rouy
rovere
rowan
roy
royal
royce
rozi
rozu
rquez
rra
rranu
rsa
rsi
rsica
rster
rsu
rt
rta
rttemberg
rtǝ
ru
ruanda
ruandese
ruandesu
rubens
rubertu
rubra
rucchetta
rucciosa
rucciose
rucciosi
rucciosu
ruderi
rudolf
rue
rugby
rugeru
rughjeru
rughjone
rughjoni
rughjonu
ruglianu
rugosa
ruine
ruisseau
ruiz
rule
rules
rum
ruma
rumagna
rumana
rumanciu
rumane
rumanescu
rumani
rumania
rumanica
rumaniche
rumanichi
rumanicu
rumanizzazione
rumantica
rumanu
rumanza
rumanze
rumanzi
rumanzieru
rumanzu
rumbu
rumenu
rumenzuli
rumex
run
rundinedda
rundona
rundonu
rupicapra
rurale
rurali
rus
rusariu
rusazia
ruscus
rusetta
rusignolu
rusiu
ruspa
ruspu
russa
russell
russi
russia
russicci
russiccia
russicciu
russii
russiu
russu
russura
rustaghja
rustinu
rusulatu
rusulini
rusulinu
rut
ruta
rutali
rutazione
rutazioni
rutherford
rutondu
ruttura
ruvina
ruvinata
ruvine
ruvini
ruza
ruzunu
ruzzica
rvulu
ry
ryan
røst
rǝ
rǝmanǝ
rɛ
rɛzɛ
s
sa
sabatu
sabbia
saber
sabina
sabine
sabini
sabinu
saccheddhu
sacchetta
sacchettu
sacchi
sacchighjata
saccu
sacirdutessa
sacra
sacramentu
sacri
sacrifica
sacrifico
sacrifizii
sacrifiziu
sacru
saetta
saflieni
saga
sagdeg
saggi
sagittariu
sagittarius
sagone
sagra
sahaquiel
sahara
sai
saint
sainte
sajor
sala
salama
salamandra
salamina
salamu
salariu
salata
salazar
sale
salem
salentinu
salentu
salernu
salgetu
sali
salicaceae
salicetu
saliciu
salini
salinita
salisb
salisburgu
saliva
salma
salmi
salomone
saloni
salottu
salpo
salt
salta
salteriu
salti
saltu
salusio
saluta
salute
salutu
saluzzo
salva
salvador
salvatica
salvatiche
salvatichi
salvaticu
salvatore
salvatu
salve
salvezza
salvi
salvini
salvo
salvu
salzmannii
sam
sambucu
sambucucciu
sambucus
sambule
sameri
sameru
samirini
sammartinu
samoa
samperu
sampieru
sample
sampolu
samuanu
samuel
san
sana
sanctus
sandoval
sandro
sandǝ
sanfourche
sangre
sangru
sangue
sangui
sanguina
sanguinari
sanguinosa
sanguinosi
sani
sannazaro
sanni
sanniti
sans
sanscritu
sansonu
sant
santa
santacroce
santacroci
santacruz
santander
santelli
santi
santiago
santificatu
santini
santissima
santiuccia
santo
santoni
santonu
santos
santu
santuarii
santuariu
santucci
santucciu
sanu
sao
saone
sapara
sapare
sapari
sape
sapemu
sapendu
sapere
sapia
sapianu
sapienti
sapienza
sapiutu
saponaria
sapore
sapori
sappiutu
saputu
sar
sara
saraceni
saraciniscu
saraghju
saragozza
sarah
sarajevo
sarani
saranu
saravelli
sarchjatu
sarcofagu
sarda
sarde
sardegna
sardi
sardigna
sardinia
sardo
sardu
sardus
sare
sarebbe
saremu
sareti
sari
saria
sariani
sarianu
saristi
sarkozy
sarocchi
sarpe
sarpi
sarra
sarracini
sarratu
sarrionandia
sarrula
sarte
sartinese
sartinesu
sartre
sas
sascia
sasciatu
sass
sassa
sassaresa
sassarese
sassaresu
sassari
sassone
sassoni
sassonia
sassu
sat
satanassu
satelliti
satellitu
satiri
satiru
sativa
sativum
saturday
saturnu
saudita
sauli
save
savelli
saveriu
saving
savoia
savona
savone
savonu
savviezza
savviu
say
sba
sbaglia
sbagliu
sbandonu
sbarabattula
sbarca
sbarcanu
sbarco
sbarcu
sbiecu
sbiota
sbirri
sbirru
sbiuta
sbocca
sc
sca
scacchi
scaccia
scaffu
scafulata
scafulatu
scagli
scaglia
scaglie
scagliola
scagna
scagni
scagnu
scala
scalda
scaldamentu
scale
scaledda
scali
scalinata
scalinati
scalini
scalone
scalza
scalzi
scalzu
scambia
scambiatu
scambii
scambiu
scanciolu
scandalu
scandinava
scandinavi
scandinavia
scandula
scannata
scannu
scapatu
scappa
scappati
scappinu
scappo
scapuli
scar
scarpi
scarpu
scarsa
scarsi
scarsita
scarta
scarti
scartu
scata
scatinatu
scatino
scatula
scava
scavalca
scavata
scavatu
scavi
sce
sceccu
scedda
sceglia
sceglie
sceglini
scelsi
scelta
scelti
sceltu
scema
scemu
scena
scenariu
scende
scendi
sceni
scentifica
scentifiche
scentifichi
scentificu
scenza
scenze
scenzi
scesi
scettru
sch
scheda
schelatru
schemi
schengen
schersa
schersi
schersu
scherzu
schi
schiassula
schiava
schiavi
schiavitu
schiavu
schincu
schirzanti
schjaffu
schmidt
schneider
school
schult
schultes
schumpeter
schwa
schwartz
schwarze
sci
scia
sciacciata
sciacciatu
sciagura
scianca
sciancu
scianza
sciappa
sciappapetra
science
sciences
scientifica
scientifiche
scientificu
scienza
scienze
scienzi
scilla
scimia
scimiu
sciocchi
sciri
sciroccu
sciroppu
sciu
sciuglimentu
sciuppettu
sciuppuleddu
scizia
sco
scoddi
scoddu
scogli
scogliu
scola
scolca
scole
scoli
scolopax
scolymus
sconosciuto
scontr
scontra
scontrani
scontranu
scontri
scontru
scop
scopa
scoparia
scoparius
scope
scopi
scoppia
scoppiu
scopra
scopre
scoprenu
scopri
scopu
scor
score
scornaboi
scornu
scorpius
scorra
scorre
scorri
scorru
scorsi
scorsu
scotland
scots
scott
scottish
scottorum
scozia
screen
scri
scrianzatu
scriptus
scrisse
scrissi
scritta
scritte
scritti
scrittore
scrittori
scrittrice
scrittrici
scrittu
scrittura
scritture
scriva
scrivana
scrivani
scrivanu
scrive
scrivendu
scrivi
scrivia
scrizzione
scrizzioni
scrizzula
scrofa
scu
scudeddu
scudella
scudi
scudu
scuffia
scugliera
scugliere
scuglieri
scula
sculari
scularu
sculasticu
sculpita
sculpitu
scultati
scultore
scultori
scultura
sculture
sculturi
scumparsa
scumpartuti
scumpiitu
scuncertina
scunfighja
scunfissi
scunfitta
scunfitti
scunfittu
scunnisciuta
scunnisciuti
scunnisciutu
scuntra
scuntrate
scuntratu
scuntro
scupaghjola
scupaghju
scupame
scupamena
scuparta
scuparti
scupartu
scupatu
scuperta
scuperte
scuperti
scupertu
scupinu
scupri
scupridore
scupridori
scupritore
scura
scurda
scure
scuri
scurpionu
scurrendu
scurtica
scuru
scusa
scuzzese
scuzzesi
scuzzesu
se
sea
seaborg
sean
seanza
search
seattle
sebastia
sebastian
sebastianu
sebbene
sebbi
sec
secca
secche
secchi
seccio
seccu
secoli
secolu
second
seconda
secondi
seconds
secondu
secret
secretario
secretariu
seculi
seculu
secunda
secundarii
secundariu
secundu
secundum
secunnu
sedda
sede
sedeci
sedi
sedia
sedici
sedii
sedimenti
sedini
sediu
sedum
see
seed
seezer
segna
segni
segnu
segonda
segondu
segre
segu
segue
seguente
seguenti
segui
seguir
seguita
seguitanu
seguitata
seguitatu
seguito
seguitu
sei
sela
selaginella
selecciona
seleccionar
seleccionas
select
selected
selgiuchidi
selim
sella
sellerio
selva
selvatica
selvatichi
selvaticu
sem
semana
semanas
semantica
sembra
semi
semifinale
semifinali
seminariu
semitica
semplice
semplicemente
semplici
sempre
sempri
semu
sen
senatore
senatu
seneca
senegallu
seni
senna
sennen
sensi
sensibili
senso
sensu
senta
sente
sentenu
senti
sentimenti
sentimentu
sentire
sentu
senu
senz
senza
sepali
separa
separatu
seppia
septem
september
septiembre
sepultura
sequenza
sequestra
ser
sera
serafini
seranu
serapias
serapicamptis
serate
serbia
serbu
serena
serge
sergei
sergio
seri
seria
serianu
serie
series
serii
seriu
sermanu
sero
serpens
serpentini
serpina
serpu
serra
serraghju
serravalle
serriera
sersi
seru
serva
serve
server
servi
servia
service
servicio
servicios
servidor
servidores
servini
servitu
servizii
serviziu
servutu
ses
sesio
sessanta
sessi
sessile
sessu
sessuale
sessualita
sesta
sesto
sestu
set
seta
sete
seth
seti
setiferum
sette
settefrati
settembre
settentrionale
settentriunale
settentriunali
setti
setticentu
settima
settimana
settimu
settinariu
settore
settori
seul
seven
sevi
sevinfora
sex
seychelles
sezione
sezzione
sfa
sfaci
sfarente
sfarenti
sfassa
sfattu
sfera
sferica
sfericu
sfida
sfingi
sfocia
sfonda
sforza
sforzi
sforzu
sfronda
sfrutta
sfruttamentu
sfruttati
sfruttatu
sfruttendu
sfughja
sfunda
sfundata
sfurza
sgaghja
sgia
sgiani
sgio
sgiu
sgranfia
sgrinfia
sgruppata
sguardu
sgui
sguizzera
sha
shakespeare
shakira
shalom
share
sharps
shaw
she
sheen
shelley
sheppard
sherman
shiraz
shogunatu
short
should
show
si
sia
siam
sian
sianu
siat
siberia
sibirianu
sic
sica
sicca
siccati
sicche
sicchina
siccomu
siccu
siche
sicilia
siciliae
siciliana
siciliani
sicilianu
sicilie
sico
siconda
siconde
sicondi
sicondu
sicreta
sicreti
sicretu
sicritariu
sicu
sicula
siculari
siculu
siculus
sicundaria
sicundarii
sicundariu
sicundu
sicura
sicuramente
sicuramenti
sicurezza
sicuri
sicuru
siddha
side
sidimenti
sido
siducia
sie
siempre
siena
siendo
sient
sierra
sieye
sighi
siglo
sigma
sigmenti
sigmentu
sigmund
sign
signa
signac
signala
signalata
signalatu
signaletica
signali
signatu
significa
significati
significativa
significativamente
significativi
significativu
significatu
significava
significheghja
significhendu
signor
signora
signore
signori
signuria
signurie
siguaci
sigue
siguendu
siguente
siguenti
siguiente
siguientes
siguramente
sii
siini
silbermann
silenziu
silicei
siliceu
silicia
siliciu
silicon
silla
sillaba
sillabazione
sillabazioni
sillabe
silva
silvani
silvarecciu
silvestre
silvestru
silvia
silvio
sim
sima
simana
simane
simbianzi
simbolicu
simbolu
simbrava
simbuli
simbulizeghja
simbulu
simeoni
simi
simia
similar
similares
similarita
simile
simili
similitudina
similitudini
simitria
simmitria
simon
simone
simoni
simonpoli
simonu
simple
simplemente
simplice
simplici
simplicia
simpliciamente
simpliciamenti
simplicita
simpliciu
simplifica
simu
simuli
sin
sinai
sinan
sinatori
sinceru
sindromu
sine
sinema
sinfonia
sing
singapore
singhjari
single
sings
singulare
singulari
singulu
sini
sinistra
sinistru
sinno
sino
sinonimi
sinonimo
sinonimu
sintassa
sintenza
sintesi
sinteticu
sinti
sintia
sintimenti
sintimentu
sintineddi
sinu
sinucellu
sio
siont
sipara
siparata
siparatamenti
siparati
siparatu
siparazione
siparazioni
sipari
sipoltu
sippuri
sipulturi
siquenza
sir
siracusa
siracusana
sirata
sire
sirena
sirga
siria
sirinatu
sirintini
sirvi
sirvia
sirvizii
sirviziu
sis
sischese
siscu
sismicu
sismu
sissanta
sissuale
sissuali
sistema
sistematica
sistematicu
sistemi
sistemu
sistina
sistini
sistru
sit
sita
sitcom
site
siti
sitio
sitios
sito
sittanta
sitte
sittembre
sittembri
sittentriunale
sittentriunali
sittimana
sittimani
sittimbrinu
sittintriunali
sittore
sittori
situ
situata
situate
situati
situatu
situazione
situazioni
situe
situeghja
siviglia
size
sizioni
sizzioni
sjɔnɛ
ska
ski
skin
skorba
sku
sky
slava
slavu
slovacchia
slovenia
slow
sluvacchia
sluvaccu
sluvenia
sluvenu
small
smarita
smentica
smeralda
sminteca
smintica
sminticati
sminticatu
sminuendu
smiralda
smith
smlv
snow
snp
so
sobat
sobre
soca
soccia
social
sociale
sociales
sociali
sociaru
socie
societa
society
socio
sociologia
socios
socrati
socu
soda
sodiu
soffia
soffiu
soffre
sofia
software
sogni
sognu
sogu
soi
soia
soii
soiu
sol
sola
solamente
solamenti
solanaceae
solanum
solar
solare
solaris
solcu
solda
soldi
soldu
sole
solenzara
soli
solicitud
solida
solidi
solidu
solimanu
solis
solita
solitarius
solitu
solli
sollu
solo
solu
soluzione
somalia
somalu
some
somma
somme
sommi
son
sona
sonate
sonda
sone
song
songs
soni
sonnu
sono
sont
sonu
sony
soo
sophie
sopr
sopra
sopracigliu
soprannomu
sopranome
sopranomi
sopranomu
sopranu
soprattuttu
sopratuttu
sopravviventi
sopravvivenza
sopravvivutu
soprusciu
sor
sora
sorbi
sorbu
sorda
sordi
sordu
sorge
sorghje
sorghji
sori
soria
soriu
sorru
sorta
sorte
sorti
sortito
sos
sott
sotta
sotto
sottu
sottudiscipline
sottufamiglia
sottugruppu
sottuinsemu
sottulinia
sottumarina
sottumarini
sottumarinu
sottumessu
sottumette
sottumissi
sottupostu
sottusp
sottuspezia
sottuspezie
sottuspezii
sottustanti
sottutrupicali
soul
sound
source
sources
sous
south
sovrani
spa
space
spada
spadda
spaddi
spadi
spadice
spagna
spagnola
spagnole
spagnoli
spagnolo
spagnolu
spagnulu
spain
spalla
spalle
spanish
spanna
spannata
spapersi
spara
sparghje
sparghji
spargi
sparidae
sparisce
spariscenu
sparisci
spariscia
sparita
spariti
sparitu
sparizione
sparizioni
sparrow
sparse
sparsu
sparta
spartani
sparte
spartenu
spartera
sparti
spartiacqua
spartu
spartuta
spartutu
spassighjata
spassu
spata
spaventu
spaziale
spaziali
spazii
spaziu
spazza
spazzola
spazzula
spazzuletta
spe
speak
spechju
special
speciale
specialita
specializati
specialmente
specie
species
specific
specifica
specifiche
specifichi
specificu
speculazione
speculum
spedizione
spegna
spegne
spencer
spenghja
spenghje
spentu
spera
speranza
speranze
sperate
sperienza
sperimenti
sperimentu
sperimintali
spertu
spesa
spese
spesi
spessa
spessu
spettaculu
spettru
spezia
spezie
spezii
spezza
sphegodes
spi
spiaghja
spiaghje
spiaghji
spicant
spicca
spiccata
spiccati
spiccu
spichji
spichju
spicialamenti
spiciale
spiciali
spicialisti
spicialistu
spicialita
spicializati
spicifica
spicifichi
spicificu
spiculi
spiculu
spidali
spider
spidizioni
spiduchja
spiega
spiegazione
spiga
spigna
spigne
spigni
spiiga
spiigazione
spiigazioni
spila
spin
spina
spine
spinedda
spinghja
spinghje
spinghji
spini
spinitriculu
spinola
spinosa
spinosu
spinta
spinti
spintu
spinu
spira
spiral
spirale
spirali
spiranthes
spiranza
spirendu
spirienza
spirit
spiriti
spiritu
spirituale
spirituali
spissore
spissori
spissu
spittaculari
spittaculu
spiziale
splendida
split
splura
splurazioni
splusioni
spo
sponda
sponde
spondi
spore
spori
sport
sporta
sporti
sporting
sportiva
sportivu
sports
sportu
sposa
sposi
sposta
sposu
spressione
sprima
sprimati
sprimatu
spring
springer
springfield
springs
spris
sprissione
sprissioni
sprissivu
sprone
sproni
spronu
spu
spunta
spuntanea
spuntera
spurtellu
spurtiva
spurtivi
spusa
spusata
spusati
spusatu
spusedda
spusella
spuso
spusta
spustamenti
spustamentu
sputa
sputica
sputicamenti
sputichi
sputicu
sq
sqrt
squadra
squadre
squadri
squadru
square
squatina
squatra
squatre
sr
sri
ss
ssa
ssari
sse
ssi
ssia
ssicu
ssimi
ssini
ssiti
ssiu
ssl
ssp
ssu
ssǝ
st
sta
stabat
stabile
stabili
stabilimenti
stabilimentu
stabilini
stabilisce
stabilisci
stabiliscia
stabilita
stabiliti
stabilitu
stabuli
stabuliscia
stacca
stachys
stadi
stadii
stadiu
stadium
staff
staghjone
staghjoni
staghju
staghjunali
stagione
stagioni
stagni
stagnu
stai
stalinu
stalla
stallanu
stallata
stallati
stallatu
stallazione
stamane
stami
stampa
stamparia
stampata
stampati
stampatu
stamperia
stampi
stampu
stan
stanca
stancia
stancu
stand
standard
stani
stanisław
stanley
stanta
stantara
stantare
stantari
stantarolu
stanu
stanza
stanze
stanzi
star
stark
starnuta
stars
startup
stasera
stata
statale
statali
state
states
stati
statistica
statistichi
statisticu
stato
statu
statua
statue
statuetti
statui
statunitense
statunitensi
statura
status
statutu
stava
stavani
stavanu
stazione
stazioni
stazzi
stazzona
stazzoni
stazzu
ste
steatoda
stedda
steddi
steel
stefan
stefanelli
stefania
stefano
stefanu
stein
steinhaus
stela
stella
stellatum
stelle
stellu
stem
stemma
stende
stendi
stendini
stendu
stenu
stephen
sterile
sterili
steriore
sterling
stern
sternuti
sterpa
stesa
stese
stesi
stessa
stesse
stessi
stesso
stessu
stesu
steti
steve
steven
stevens
stevenson
stewart
sti
stia
stica
sticas
sticchitu
stico
sticu
stidda
stiddari
stige
stile
stili
still
stilu
stima
stimadori
stimata
stimati
stimatu
stindia
stindiani
stinza
stiriori
sto
stocafissu
stoccafissu
stoccolma
stock
stomacu
stone
stones
stop
stoppa
storia
storica
storicamente
storiche
storichi
storico
storicu
storie
stories
storii
storti
stortu
story
stra
strabone
strabonu
stracci
strada
stradale
stradali
strade
stradeddu
stradelli
stradellu
stradi
stradona
stradone
stradoni
stradonu
straits
strana
straniera
straniere
stranieri
stranu
strappa
strasbourg
strasburgu
strascina
strascinu
strategia
strategic
strategica
strategicu
strategie
strategy
strati
stratta
strattu
stratu
straurdinaria
straurdinarii
straurdinariu
stream
street
strega
streptopus
stresemann
stress
stretta
strettamente
strette
stretti
strettu
strigni
stringhje
stringiamci
strinti
strisce
strisci
striscia
strittamente
strittamenti
strittone
strittonu
stroppia
stru
structure
strufetta
strughje
struisce
struiscia
struitu
strumentale
strumenti
strumentu
strup
struppia
struppiatu
struthiopteris
struttura
strutturali
strutturatu
strutture
strutturi
struzzione
struzzioni
struzzu
stu
stuart
stucchi
studente
studenti
studi
studia
studianti
studiata
studiati
studiatu
studie
studieghja
studienti
studies
studii
studio
studios
studiosi
studiu
study
stuff
stughjanti
stumacati
stupa
sturditu
sturicamente
sturicamenti
sturiugrafia
sturneddi
sturneddu
sturnus
stuvigli
stuvigliu
su
sua
suaredda
suartellu
suaveolens
suazo
sub
subaffittu
suban
subcuntinenti
subduzioni
subfusca
subi
subida
subidas
subir
subisci
subiti
subitu
subrana
subsidenza
subsp
substratu
subvenite
succedda
succede
succedi
success
successful
successi
successione
successiva
successivamente
successivamenti
successive
successivi
successivu
successore
successori
successu
succissioni
succissiva
succissivi
succissivu
succissori
succorri
succorsu
succotrina
succursali
suceta
such
suchja
suchju
suciale
suciali
sucialista
sucialistu
sucieta
sucita
suciulugia
sucre
sud
suda
sudafrica
sudamerica
sudamericana
sudan
suddacaro
suddivisa
suddivisi
suddivisione
suddivisioni
suddivisu
sudeste
sudestu
sudore
sudori
sudu
suduccidintali
sudupunente
sudupunenti
suduriintali
suduvestu
sue
suez
suffia
sufficente
sufficienti
suffissu
suffisticati
suffraghju
suffrenzi
sufisti
sufistu
sughjetti
sughjettu
sughjirisci
sughjiriscini
sughjiritu
sughjorni
sughjornu
sui
suicidiu
sul
sula
sulaghju
sulamente
sulamenti
sulare
sulari
sularia
sularii
sulariu
suldati
suldatu
sule
sulenni
sulennita
suli
sulidarita
sulinzara
sulitarii
sulitariu
sulitudina
sulitudine
sulitudini
sull
sulla
sullivamentu
sulonu
sultan
sultana
sultantu
sultanu
sulu
suluzioni
sulǝ
sum
sumalia
sumatra
sumenti
sumera
sumere
sumeri
sumeru
sumiglianza
sumiglianzi
summazioni
summita
sun
sunatu
sunday
sundgau
sunetti
sunettu
sung
suniteghja
sunt
suo
supara
suparatu
supareghja
suparficia
super
supera
superficia
superficiale
superficie
superior
superiore
superiori
superlativu
superman
supernova
supirficiali
supiriori
supiriurita
suppa
supplementu
supplemintarii
suppona
suppone
supponi
support
supporta
supportu
supposta
suppostu
suppurta
suppurtevule
suppurtevuli
supra
suprana
supranacciu
supranu
suprattuttu
suprema
supremu
sur
sura
surbudda
suredda
sureddi
surella
surelle
surgente
surghjente
surghjenti
surghjia
surpresa
surrida
surride
surtita
survey
surviglia
surviglianza
sus
susa
susan
suscitatu
susini
suspetta
suspetti
suspettu
suspira
suspiri
sustantivi
sustantivu
sustanza
sustanzialamenti
sustanziale
sustanziali
sustegnu
sustena
sustene
sustenenu
susteni
sustenini
sustenitori
sustensi
sustenutu
sustenza
sustinendu
sustinia
sustinidori
sustintamentu
sustinuta
sustinuti
sustinutu
sustitui
sustituisce
sustituita
sustituitu
sustratu
sutherland
suttana
suttanacciu
suttanu
suttarranii
suttarraniu
suttile
suttili
suttraendu
suttrattu
suttrazzioni
suttu
suvara
suvari
suvente
suventi
suveria
suvi
suvietica
suvietichi
suvieticu
suvita
suvitani
suvitanu
suvitata
suvitate
suvitati
suvitatu
suvitendu
suvito
suvitonu
suvrani
suvranita
suvranu
suzanne
svedesa
svedese
svedesu
svegliu
svela
svelani
svetonio
svevi
svevia
svevu
svezia
svi
svidese
svidesu
svila
svilatu
svilo
sviloppa
sviloppani
svilupa
sviluppa
sviluppani
sviluppanu
sviluppata
sviluppate
sviluppati
sviluppatu
sviluppi
sviluppo
svilupponu
sviluppu
svizzara
svizzari
svizzera
svizzeri
svizzeru
svoglie
svolse
svolsi
svolta
svolti
svoltu
sw
swaen
swahili
swann
sweet
sydney
sylvatica
sylvestris
sylvia
synonimu
system
systema
szkoła
sǝ
sǝnǝ
sə
sɛ
t
ta
tabaccu
tabella
tabla
table
tabucchi
tac
tacca
tacche
tacchi
tace
tacia
tacitu
tadda
taddei
tadescu
taekwondo
tafona
tafoni
tafonu
tafunata
tafunatu
tag
taghjicu
tagli
taglia
tagliacarne
tagliafarru
tagliata
tagliatu
tagliu
tagliuti
tailandese
taiwan
take
tal
talabeddu
talamoni
talasani
talaveddu
talavelli
talavellu
talcahuano
tale
talenti
talentu
tales
tali
taliana
taliane
taliani
talianu
talk
talla
tallanu
talleres
tallone
talvolta
tam
tama
tamant
tamanta
tamantu
tambie
tamil
tampiratura
tampiraturi
tan
tana
tandu
tang
tanganica
tangenti
tango
tangsudu
tannini
tant
tanta
tantazioni
tante
tanti
tanto
tantu
tanu
tanuta
tanzana
tanzania
tappa
tappe
tappi
tappu
tar
tarantedda
tarantinu
taranto
tarantu
taravesa
taravesu
taravu
tarda
tarde
tardi
tardiva
tardivu
tardu
tareas
tarentola
targaryen
tarifa
tariq
tarmina
tarminali
tarminata
tarmineghja
tarmineghjani
tarmini
tarminulugia
tarpea
tarpeia
tarquinia
tarquiniu
tarra
tarragnata
tarramuti
tarraniu
tarranoa
tarranu
tarratufula
tarrazza
tarreni
tarrenu
tarri
tarritorii
tarritoriu
tarrituriali
tarrori
tarski
tartaghjine
tartagine
tartaru
tarxien
tasca
tasmania
tassa
tassi
tassu
tassulu
tasterista
tastiera
tastiere
tat
tata
tatari
tataru
tatius
tatto
tattone
tatua
tatuaghju
tau
taubate
taula
tauonu
taurus
tavacu
tavagna
tavera
tavignanu
taviu
tavula
tavulara
tavule
tavuli
tavulone
taylor
tazio
tbol
tchebourkina
te
team
teatrale
teatri
teatro
teatru
tebani
tebi
tecchju
techju
technology
tecnica
tecniche
tecnichi
tecnicu
tecnolo
tecnologicu
tecnulugia
tecu
tecum
ted
tedesca
tedesche
tedeschi
tedescu
teghja
teghje
teguli
tel
tela
telamonu
tele
telefunini
telegram
telescopii
telescopiu
televisione
televisioni
televisiva
teli
tell
telti
tem
tema
temas
tematica
teme
tement
temi
temperatura
tempi
tempia
tempii
tempio
tempiu
template
temple
tempo
temps
tempu
tempurale
tempus
temu
ten
tena
tenda
tende
tendenu
tendenza
tendi
tendini
tendonu
tendra
tene
tenemos
tenente
tenenu
tener
tenere
tenga
tengan
tengu
teni
tenia
teniendo
tennessee
tenta
tentaculi
tentativi
tentativu
tentazione
tento
tenuta
tenutu
teologu
teoria
teorichi
teoricu
teorie
tepali
teppa
teppe
teppner
ter
teramu
teresa
termale
terme
termi
termica
termichi
termicu
terminale
terminate
terminator
terminatu
termine
termineghja
termini
terminu
termopili
terra
terracotta
terraferma
terraghjola
terrain
terrains
terramotu
terramuti
terramutu
terranea
terrania
terraniu
terranova
terrazza
terre
terreni
terrenu
terrestra
terrestre
terrestri
terri
terribile
terribuli
terrier
territori
territoriale
territoriali
territorii
territorio
territoriu
territuriale
terrore
terry
tersch
terza
terzetti
terzi
terziariu
terzine
terzini
terzu
tes
tesa
tese
teseiu
tesi
tesorero
tesoru
tessa
tessi
tessile
test
testa
testamentu
teste
testi
testimone
testimonianza
testimunianze
testo
testu
testudo
testughjine
teti
tetraedru
tetti
tettonica
tettoniche
tettu
teudoru
teurema
teuria
teurie
tevere
texas
text
texto
textstyle
teɖɖu
th
tha
thai
thailandese
thailandesu
thailandia
than
thanks
that
the
their
them
themistocles
then
theo
theodor
theodore
theory
there
thesaurus
these
theta
they
thibault
thiers
thin
thing
think
third
this
tho
thomas
thompson
thomson
those
three
through
thuillier
thymus
ti
tia
tiadoru
tianu
tiatru
tibaru
tiberina
tiberiu
tiberu
tibetanu
tica
ticamente
ticas
tichju
ticino
ticinu
tico
ticos
ticu
tie
tiempo
tiene
tienen
tienes
tienne
tierra
ties
tifonu
tighjaccia
tigliolu
tigliu
tigna
tigre
tigres
tigri
tigru
til
tilatica
tilburg
tiliguerta
tim
timari
time
timendu
times
timeu
timi
timia
timonu
timor
timothy
timparata
timparati
timperata
timperate
timperatura
timperature
timpesta
timpesti
timpurale
timpurali
timur
tin
tina
tindenza
tinendu
tinente
tinenti
tinghja
tinghje
tinia
tino
tinori
tinsioni
tinta
tinti
tintin
tintu
tintura
tinu
tinus
tinuta
tinuti
tinutu
tion
tipi
tipica
tipicamente
tipicamenti
tipiche
tipichi
tipicu
tipo
tipografia
tippu
tipu
tipulugia
tira
tirannu
tirata
tirati
tiratu
tiresa
tirreni
tirrenia
tirrenica
tirrenichi
tirrenu
tirsu
tiru
tirulu
tisana
tisgia
tisgiu
tisoru
tissitura
tissuti
tissutu
tista
tistamentu
tistimonii
tistimoniu
tistimunianza
tistimunianze
tistimunianzi
tistimunieghja
titani
titanic
titanu
title
tito
titolo
tittonica
tittu
titu
titulares
titulari
tituli
titulu
titus
tiugunia
tiulugia
tiurema
tiuremi
tiuria
tiurii
tiwu
tizza
tizzone
tizzonu
tja
tlemcen
tn
to
tobago
tocca
tocchi
toccu
tod
toda
todas
todda
todi
todo
todos
toga
togae
toi
toia
toile
toiu
tokiu
tokugawa
tokyo
tola
toledo
tolga
tolima
tolomeo
tolomeu
tolosa
tom
toma
tomar
tomasi
tomasu
tomba
tombe
tombi
tombu
tome
tominu
tommaseo
tommaso
tommasu
tommy
tomorrow
tomu
tonda
tonde
tondi
tondo
tondu
tonga
tongu
toni
tonne
tonni
tonnu
tonti
tontu
tonu
tony
top
topa
topi
toponimi
toponimu
toponyme
toppe
topu
tor
torah
torce
torchitorio
torci
torcia
tordulu
torelli
tori
torinese
torino
torinu
torna
tornei
torneu
torni
tornu
toronto
torra
torre
torres
torri
torta
tortu
tortuga
toru
toscana
toscani
toscanu
toscu
tossa
tossica
tossichi
total
totale
totus
touch
toulouse
tour
tours
tous
tout
town
towns
tozza
tr
tra
trabajar
trabajo
tracce
tracci
traccia
trachinus
tracia
tracy
trad
tradimentu
traditional
traditori
traditu
tradizione
tradizioni
tradiziunalamenti
tradiziunale
tradiziunali
tradiziunalmente
traduccio
traduce
traducia
traducir
traduction
tradutta
tradutti
traduttori
traduttu
traduzione
traduzioni
traduzzione
traduzzioni
traffichi
trafficu
tragedia
traghetti
tragicu
tragone
trai
tralonca
trama
tramindui
tramonta
tramontu
tramuntana
tramuta
tramuto
tranquillu
transettu
transitivu
transitu
transizione
transizioni
transporte
trapani
trapassatu
trapeziu
trascina
trascorsi
trascrizzione
trascrizzioni
trasferi
trasferimentu
trasferisce
trasferitu
trasfirimentu
trasfirita
trasfiritu
trasforma
trasformo
trasfurma
trasfurmata
trasfurmati
trasfurmatu
trasfurmazione
trasfurmazioni
trasfurmendu
trasfurmo
trasladaron
traslitterazione
trasmetta
trasmette
trasmissione
trasparenza
trasporti
trasportu
traspurta
traspurtata
traspurtati
traspurtava
trastevere
tratados
tratta
trattamenti
trattamentu
trattanu
trattati
trattatu
trattava
tratti
trattu
traunatu
trava
travadda
travaddadori
travaddu
travagli
travaglia
travagliadore
travagliadori
travagliati
travagliatore
travagliatu
travagliava
travagliendu
travaglii
travaglio
travagliu
trave
travel
travers
traversa
traversata
traversu
travi
travirsa
travirsata
travirsatu
travirsendu
travis
travisagna
travu
tre
treccani
tredeci
tredecimguttatus
tredici
tree
trema
tremindu
tremindui
tremula
trent
trenta
trentino
trentinu
trentu
trenu
tres
trezeni
tri
tria
triangulare
triangulari
trianguli
triangulu
triangulum
tribbiu
tribu
tribuna
tribunale
tributariu
tributu
trichomanes
trick
tridenti
trieste
trifogliu
trifogliulu
trigunumetrica
trigunumetrichi
trigunumitria
trilugia
trima
trimenda
trimente
trimenti
trinacria
trinca
trincea
trincee
trinidad
trinita
trintina
trionfu
triple
triplice
triplici
tris
trista
triste
tristu
trivulu
tro
troglodytes
troi
troia
troiani
troianu
trois
tromba
trombi
tronca
troncu
tronu
tropicu
troppa
troppu
trova
trovani
trovanu
trove
trovi
trovu
troy
tru
true
trump
trunca
trupicale
trupicali
truppa
truppe
truppi
trutta
truva
truvata
truvati
truvatu
truvava
truvavani
truvemu
truvendu
truvo
ts
tsa
tsjɔni
tsjɔnɛ
tta
ttir
ttiri
ttu
ttǝ
tu
tua
tuani
tubinga
tucca
tucchendu
tucco
tucidide
tuda
tudes
tudor
tufone
tufu
tughe
tula
tulipa
tulliu
tulo
tulos
tulu
tumasgiu
tumba
tumbatu
tumbi
tuminu
tumulu
tuna
tunalita
tundosa
tundra
tunica
tunisi
tunisia
tunnara
tunnellu
tuntia
tuo
tupi
tupinu
tuponimi
tuponimu
tupou
tupugrafia
tupulogichi
tupulogicu
tupulugia
tupunimia
tur
tura
turca
turchi
turchia
turchina
turchine
turchini
turchinu
turcu
turdus
turghja
turing
turinu
turisimu
turismu
turisti
turistica
turistichi
turisticu
turkewich
turkmenistan
turkmenu
turmentu
turn
turnatu
turner
turneu
turnu
turra
turratu
turrente
turrenti
turritana
turritanu
turritopsis
turro
turuidali
tus
tusatu
tuscana
tuscani
tuscanu
tusu
tut
tutalamenti
tutale
tutali
tutalita
tutalmente
tutela
tutorial
tutt
tutta
tuttavia
tutte
tutti
tutto
tuttu
tuttǝ
tuvalu
tuvaluanu
tv
twenty
twist
twitter
twitterf
two
ty
type
typha
tyrsenoi
tǝ
tə
tɛ
tʃ
tʃa
tʃi
tʃɛ
u
ua
uanl
ubbligatu
ubi
ubicacio
ubliu
uccasioni
uccasiunalamenti
ucciani
uccida
uccide
uccidendu
uccidentale
uccidentali
uccidenti
uccidi
uccidintali
uccisi
uccisu
uccupata
uceani
uceania
uceanica
uceanichi
uceanicu
uceanu
ucellu
uchjata
ucraina
ucrainiana
ucrainiane
ucrainiani
ucrainianu
ucrainu
ucrania
udine
udissea
ue
uefa
uffensiva
uffensive
ufficialamenti
ufficiale
ufficiali
ufficialmente
ufficialmenti
uffiziale
uffizii
uffiziu
uffrendu
uffri
ufridi
uganda
uggettivi
ughjetti
ughjettu
ughjincu
ugliastru
ugna
ugni
ugnunu
ugo
ugone
ugu
uguale
uguali
ugualita
uia
uk
ul
ula
ulam
ulandese
ulandesi
ulandesu
uli
ulisse
ulissi
uliva
ulivu
ulmetu
ulmiccia
ultima
ultimata
ultime
ultimi
ultimo
ultimu
ultiriore
ultiriori
ultiriuramenti
ultra
ultramuntanu
umaghju
umana
umane
umani
umanita
umanu
umbe
umberto
umbra
umbri
umbria
umicidiu
umidita
umidu
umile
umita
umite
umiti
umitu
umlaut
umonima
umonimu
un
una
unam
unas
uncinu
und
undata
under
underground
undicinariu
une
unepochi
unesco
ungarese
ungaresu
ungaria
ungarica
ungarichi
ungaricu
ungherese
ungheria
unghia
unghie
unghja
unghje
uni
unica
unicamente
unicamenti
unichi
unicu
unifica
unificatu
unificazione
uniforma
uniformu
unio
union
unione
unioni
unisce
unisci
uniscia
uniscini
unita
unitaria
unitariu
unite
united
uniti
unitu
univ
univarsita
universal
universale
universalmente
universidad
universidade
universita
universitaria
universitarie
universitarii
universitariu
universite
university
universu
univirsali
unni
uno
untu
unu
unum
uocchiǝ
uomo
up
uparatori
uparazioni
upinioni
upload
uploaded
upon
upponi
upposta
uppostu
uppsala
upulasca
upupa
ur
ura
uragani
uraganu
urali
uraniu
uranu
uratori
urbalaconu
urbana
urbani
urbanistica
urbanisticu
urbanu
urbe
urbinu
urbitali
urchidea
urchidee
urchidei
urcinu
urdinamentu
urdinariu
urdinata
urdinatori
urdinatu
urdinendu
urdino
urdu
urganisazione
urganisazioni
urganismu
urganiza
urganizata
urganizati
urganizatu
urganizazione
urganizeghja
urganizzatu
uri
urientale
urientali
uriente
urienti
urighjina
urighjinaria
urighjinariamenti
urighjinarii
urighjinariu
urighjine
urighjini
urighjna
urighjne
uriginale
uriginali
uriginaria
uriginarii
uriginariu
urigine
urigini
uriintali
uriintalizanti
uriintamentu
uriintata
url
urmai
urna
urnamentu
urnanu
urni
ursa
ursae
urss
ursus
urtaca
urticapra
urticellu
urtolu
uru
uruguai
uruguay
urzatu
us
usa
usani
usanu
usanza
usanze
usanzi
usar
usara
usarse
usata
usate
usati
usatu
usava
usavanu
uscillazioni
uscita
usd
use
used
usendu
user
usi
using
uso
usos
uspidali
uspiteghja
ussacuti
ussidiana
ussigenu
ussirva
ussirvata
ussirvati
ussirvatu
ussirvazioni
ussuariu
ustaria
ustilita
ustulata
usu
usuario
usuarios
ut
utah
utc
utet
utf
utile
utilidad
utilisazione
utilisazioni
utilita
utiliza
utilizanu
utilizar
utilizata
utilizati
utilizatore
utilizatori
utilizatu
utilizendu
utilizzatu
utrecht
uttaedru
uttanta
uttar
uttena
uttene
utteni
uttinendu
uttobre
uttrove
uttrovi
utule
utuli
uva
uvali
uvestu
uziosu
v
va
vacanza
vacanze
vacanzi
vacca
vacche
vacchi
vacu
vada
vadagna
vaddi
vadellu
vadina
vadine
vadini
vadone
vadu
vagabondi
vagari
vaghjimali
vaghjimu
vai
val
valchirie
valdu
vale
valencia
valentinu
valentu
valenza
valenzianu
valeriu
valery
valetta
valette
vali
valida
validita
valido
validu
valincu
valle
vallecalle
valledoria
vallerustie
vallerutonda
valletta
valley
valli
vallica
vallincu
vallone
vallu
valor
valore
valori
valparai
valse
value
valuta
valutazione
valǝ
van
vanatu
vandali
vanes
vangeli
vangelu
vanghjelii
vanghjeliu
vangonu
vani
vanie
vanita
vannina
vannu
vanta
vantaghju
vantu
vanu
vapore
vapori
var
vara
varca
varcanu
vardi
vardia
varese
vargogna
varguale
vari
varia
variabile
variabili
variabilita
variante
varianti
varianza
varias
variation
variazione
variazioni
varie
varieghja
varieghjani
varieghjanu
variendu
variente
varieta
varievule
varievuli
varii
variita
varios
variu
varma
varmi
varmicosu
varmintinu
varsavia
varsovia
varu
varunque
vasari
vasca
vasco
vasculaires
vascularii
vasi
vasta
vasti
vastu
vasu
vaticanu
vattelapesca
vaud
vaux
ve
vecchia
vecchini
vecchio
vecchja
vecchju
veces
vechja
vechjaia
vechje
vechji
vechju
vecu
ved
veda
vede
vedenu
vedi
vedini
vedu
veduta
veduva
vega
vegas
vegetale
vegetali
vegetazione
vegetazioni
veghi
veghja
vegu
veiculi
veiculu
veio
veiu
vel
vela
velari
velho
veli
velia
veloce
velocita
velone
velu
velucita
velvet
ven
vena
venachese
venaco
venacu
venara
venatici
venda
vende
vendetta
vendi
vendita
vendite
vendutu
vene
venendu
venenu
venera
venere
veneri
veneris
veneta
venetu
venetus
venezia
venezuela
venga
venghi
vengu
veni
venianu
venice
venini
venire
venite
veniva
vennari
venne
venneri
venneru
venni
vense
vensi
vent
venta
ventana
venti
ventiseri
ventre
ventri
ventu
venue
venus
venuti
venutu
venzolasca
ver
vera
veracci
veramente
veramenti
veranu
verb
verbale
verbali
verbascum
verbi
verbu
verbum
vercelli
verciu
verde
verdese
verdi
verdun
verga
vergalella
verghjina
verghjini
verghju
vergine
vergogna
veri
verifica
verificar
verita
verlag
vermont
vernacula
verne
verona
veronese
veronica
verra
versaglia
versailles
versante
versi
versini
versio
version
versione
versioni
verso
versu
vertebrati
verticale
vertice
vertici
veru
verusimilamenti
verve
very
vescamu
veschi
vescovatu
vescu
vescuvati
vescuvatu
vespa
vespaghju
vespasianu
vespru
vesta
vestfalia
vesti
vestiti
vesuviu
vetriccia
vetru
vetta
vetti
vettori
vetulonia
vez
vezzani
vi
via
viaggiu
viaghja
viaghjadore
viaghjadori
viaghjatori
viaghjatu
viaghji
viaghjo
viaghju
viale
viana
viburnum
vicalvi
vicara
vicariu
vicata
vice
vicenda
vicende
vicendi
vicente
vicepresidente
vicere
vichinghi
vichipedi
vichjaia
vichjoni
vicia
vicina
vicinante
vicinanti
vicinanza
vicinatu
vicine
vicini
vicinu
vicire
viciversa
vico
vicopisano
victor
victoria
vicu
vida
vidara
vidare
vidaremu
vidari
vidata
vidati
vidatu
viddalba
viddanu
vide
videndu
video
videos
videte
videu
vidi
vidia
vidimu
vidiri
vidissi
viditi
vido
viduvali
vie
viejo
viene
vieni
vienna
viet
vietjet
vietnam
vietnamese
vietnamesu
vietnamita
vietnamu
vieux
vigata
vigate
vigente
vighja
vighjaneddu
vigila
vigna
vignale
vignali
vigne
vigni
vignola
vignole
vigore
vigori
vii
viii
viiiu
viiu
vilanosa
vilanosu
vilenosu
vilenu
vilfredo
villa
villafranca
village
villaghju
villanova
villanueva
villanuviana
villanuviani
villanuvianu
villar
villard
villas
villavallelonga
ville
villetta
villi
villosa
viloci
vilucita
vin
vince
vincendu
vincensini
vincensiu
vincent
vincente
vincentellu
vincenti
vincenu
vincenzo
vincenzu
vincere
vinci
vincia
vincidori
vinciguerra
vincite
vincitore
vincitori
vincuta
vinde
vindemia
vindetta
vindica
vindutu
vinendu
vinezia
vingt
vingtie
vini
vinia
viniratu
viniziani
vinni
vino
vinsi
vint
vinta
vintesimu
vinti
vintina
vintinovi
vintu
vinu
vinuta
vinuti
vinutu
vinǝ
viola
viole
violetta
violi
vipara
vir
virdicci
virdicciu
virdulina
virdura
virghjiliu
virghjina
virghjliu
virgiliu
virgin
virginia
virgo
viri
viride
viridicita
viridiflavus
viridis
virifica
virificheghjani
virita
virsante
virsanti
virsettu
virsione
virsioni
virticali
virtu
virtual
viru
vis
visa
vischju
viscivorus
visconti
viscosa
viscosu
viscuvatu
visibile
visibili
visibilita
visibuli
visione
visioni
visita
visitadori
visitata
visitati
visitatu
visite
viso
vispaghju
vissi
vissutu
vista
viste
visti
vistighe
vistighi
vistiti
vistitu
vistu
vistucula
vistura
vistuti
vistutu
visu
visuale
visuali
vita
vitale
vitali
vitalita
vite
viteddu
vitelli
vitellozzo
vitellu
viti
vitriola
vitriolu
vittichju
vittima
vittime
vittimi
vittoria
vittorie
vittorii
vittorio
vittoriu
vittura
vitture
vitturiali
vitturiosa
vitturistica
vitu
viu
viulaccia
viulenta
viulente
viulenti
viulenza
viulenze
viuletti
viulinu
viva
vivace
vivaci
vivariu
vive
viventi
vivenu
vivere
viveri
vivi
vivia
viviani
vivini
vivo
vivu
viziu
vizzani
vizzavona
vladimir
vlado
vo
voca
vocabolario
vocali
voce
voceri
voceru
voci
vociaru
voga
vogli
voglia
voglie
voglii
vogliu
voi
voices
voir
voivudatu
vol
vola
volante
volcanu
vole
volen
volenu
volga
volgare
voli
volini
volkswagen
voll
volonta
volpaghjola
volpe
volpi
vols
volsci
volse
volsi
volta
voltaire
volte
volterra
volti
volto
voltu
volu
volume
voluntario
voluntarios
volunteer
volunteers
volver
vomeracea
von
vos
vosci
vostra
vostri
vostru
vota
votacio
votar
voti
voto
votu
vous
voyage
voyager
vs
vu
vucabulariu
vucale
vucali
vucalicu
vul
vula
vulcani
vulcanica
vulcanichi
vulcanicu
vulcanu
vulci
vule
vulemu
vulendu
vulete
vulgare
vulgari
vulgaris
vulgatum
vuli
vulia
vuliani
vulianu
vulinta
vulissi
vulpes
vulpi
vulsuta
vulsutu
vulta
vultata
vultati
vultatu
vultendu
vultisgiatori
vulto
vulturnu
vulu
vulume
vulumi
vulumu
vulunta
vuluntariamenti
vulute
vulutu
vunak
vuoto
vurria
vuru
vuta
vutatu
vutera
vutivi
vuvuzela
vv
vǝ
vǝrǝ
vǝtǝ
w
wa
wahl
wales
walk
walker
wall
wallis
walonu
walras
walt
walter
want
wapedia
war
warren
was
washington
water
watson
watts
way
wayne
we
weather
web
website
wedge
weechat
weierstrass
well
wellington
were
werner
west
whale
what
when
where
which
while
white
whitehead
who
why
wide
wied
wiki
wikiencuentro
wikilibros
wikimedia
wikimediaco
wikimediacolombia
wikimedians
wikimedistas
wikinoticias
wikipedia
wikipedias
wikipedistas
wikivacaciones
wikiviajes
wikivoyage
wikizziunariu
wiktionary
wild
wilhelm
will
willd
willem
william
williams
willie
willmott
wilson
wind
windows
winners
winter
wisconsin
with
within
without
wka
wlm
wmco
wmf
wo
wolf
wolfgang
woman
wonder
wood
woodard
woods
word
work
working
works
world
would
wp
wright
wu
wwe
www
wylie
wyoming
wælcyrge
x
xalomonu
xavier
xi
xico
xii
xiii
xiiiimu
xiiiu
xiiu
ximo
xiu
xiv
xivu
xix
xixsimu
xixu
xon
xu
xv
xvi
xviesimu
xvii
xviii
xviiiu
xviiu
xviu
xvu
xx
xxi
xxu
xxv
xxvi
xxviii
xxx
xxxiv
y
ya
year
years
yemen
yes
yi
yo
yoko
york
yoruba
you
young
your
youtube
ypres
yuan
yves
z
za
zaccaria
zafranu
zagabria
zagreb
zalana
zambia
zammit
zampa
zampe
zampi
zanne
zappa
zar
zaru
zarzelli
ze
zealand
zecca
zecchi
zeit
zelanda
zelu
zemeckis
zenonu
zeppi
zeppu
zerbi
zerga
zerger
zeri
zero
zeru
zeta
zeus
zevacu
zhuang
zi
zia
zicavu
ziddonu
zifula
ziglia
zigliara
zii
zilanda
zilia
zimbabue
zimbrunuti
zinu
zinzala
zinzali
zio
ziqqurat
zirubia
zita
zitedda
ziteddi
ziteddu
zitella
zitelle
zitelli
zitellina
zitellu
zitiddina
zitta
zittu
zittula
zittule
ziu
zo
zocculu
zola
zolfanu
zolfaru
zolfu
zona
zone
zoni
zonza
zoolugia
zoppu
zoza
zozza
zquez
zu
zuani
zuc
zucca
zuccadore
zuccadori
zuccaru
zuccata
zuccati
zucche
zuccheru
zucchetta
zuckermann
zuffu
zulu
zundert
zur
zurigu
zza
zzera
zzeru
zzica
zzula
zǝ
zə
{
|
}
~
¡
£
¥
ª
«
®
¯
°
±
²
³
´
µ
·
º
»
½
¿
×
ß
æ
ð
÷
ø
þo
ħ
ı
ŋ
œ
œil
ǝ
ɐ
ɑ
ɒ
ɔ
ɔrɛ
ɖ
ə
ɛ
ɡ
ɤ
ɪ
ɲ
ɲa
ɹ
ɻ
ɾ
ʃ
ʊ
ʋ
ʌ
ʏ
ʒ
ʦ
ʧ
ʰ
ʲ
ʻ
ʼ
ʾ
ʿ
ˈ
ˌ
ː
ˠ
ˤ
̀
́
̂
̃
̄
̆
̇
̈
̉
̊
̌
̓
̔
̛
̣
̦
̧
̨
̩
̪
̮
̯
̸
͂
ͅ
͡
α
αι
β
γ
γος
δ
ε
ει
ζ
η
θ
ι
κ
και
λ
λο
μ
μα
με
μη
ν
να
νη
νομα
ντι
ξ
ο
π
πα
πο
ρ
ργο
ς
σ
τ
τη
του
τω
υ
φ
φι
φορισμο
χ
ω
ϕ
а
в
и
море
о
ְ
ִ
ַ
ָ
ֹ
ּ
ׁ
א
ה
י
ל
מ
פ
ש
ת
ا
الجبر
ب
بن
د
ر
ع
ك
ل
م
محمد
ن
و
ي
َ
ُ
ِ
ّ
ْ
ٓ
ٔ
ٕ
ं
ग
त
द
ध
न
प
भ
म
य
ल
स
ा
ि
ी
्
ত
া
ા
་
ག
ད
ཕ
མ
ཛ
ར
ལ
ི
ུ
ེ
ྒ
ྣ
ྱ
ྷ
င
စ
န
မ
ာ
ု
ေ
ံ
္
်
ြ
ជ
ព
រ
ា
ី
ុ
្
​
‎
–
—
―
‘
’
“
”
†
•
…
‰
′
″
‼
⁡
€
™
ℵ
→
↔
↦
↷
⇒
⇔
∂
∈
∑
−
∓
∗
∘
∞
∧
∩
∪
∫
∼
≈
≤
≥
⋅
⋯
③
④
⑦
─
►
☉
☽
☾
♀
♂
⯓
ⴰ
ⴱ
ⴷ
ⴻ
ⵉ
ⵍ
ⵎ
ⵏ
ⵔ
ⵖ
ⵜ
ⵢ
ⵣ
⺀
⺄
⺆
⺈
⺊
⺌
⺕
⺝
⺸
⺼
⿰
⿱
⿲
⿳
⿴
⿵
⿶
⿷
⿸
⿹
⿺
⿻
〢
コ
ユ
㇁
㇂
㇄
㇇
㇈
㇉
㇓
㐁
㐄
㐅
㐌
㐫
㐬
㐭
㐮
㐱
㑒
㒵
㒸
㒼
㓁
㓞
㔾
㕛
㕣
㖾
㘝
㚅
㚇
㚔
㚘
㝉
㝡
㝴
㝵
㞋
㞢
㞷
㠩
㠭
㠯
㡀
㡭
㡿
㢲
㢴
㣇
㣺
㥯
㪅
㫄
㫐
㫒
㫺
㬅
㬎
㬥
㬰
㲋
㳄
㷠
㸒
㸚
㸦
㼌
㼲
㽞
㿟
䀠
䂞
䍃
䏍
䒑
䖍
䖒
䖝
䖵
䙴
䚻
䜌
䝿
䡛
䧹
䪞
一
丁
丂
七
丄
丅
丆
万
丈
三
上
下
丌
不
与
丏
丐
丑
专
且
丕
世
丘
丙
业
东
丞
丢
丣
两
严
並
丨
丩
个
丫
丬
中
丮
丰
丱
串
丵
丶
丷
丸
丹
为
主
丽
丿
乀
乂
乃
久
乆
乇
么
义
之
乌
乍
乎
乏
乐
乑
乔
乖
乗
乘
乙
乚
乛
乜
九
乞
也
习
乡
乳
乾
亀
亅
了
亇
予
争
事
二
亍
于
亏
亐
云
互
亓
五
井
亘
亚
亜
亞
亟
亠
亡
亢
交
亥
亦
产
亨
亩
享
京
亭
亮
亯
亰
亲
亳
亶
亷
人
亻
亼
亾
仁
今
介
仌
从
仐
仑
仒
仓
仕
他
付
仝
代
令
以
任
企
伊
伏
伐
休
会
伯
但
位
何
佘
余
作
佥
使
來
侈
侌
侖
侯
侵
便
保
俞
信
修
倉
倍
候
倠
備
僉
僕
儿
兀
允
兂
元
兄
充
兆
兇
先
光
兊
克
兌
免
兑
兒
兓
兔
党
兜
兟
入
全
兩
兪
八
公
六
兮
兰
共
关
兵
其
具
典
兹
兼
冀
冂
冃
冄
内
冈
冉
冊
冋
册
再
冎
冏
冐
冒
冓
冖
冗
冘
军
农
冝
冡
冥
冫
冬
冷
几
凡
凢
凵
凶
凷
凸
凹
出
函
凾
刀
刁
刂
刃
刄
刅
分
切
刍
刑
刕
刖
列
刘
则
初
別
利
别
到
制
刺
則
削
剌
前
剡
剽
劉
力
功
加
劦
助
劫
劳
劵
勃
勇
勉
勒
動
務
勞
勤
勹
勺
勻
勾
勿
匀
匂
包
匆
匈
匊
匋
匍
匕
化
北
匚
匝
匡
匪
匱
匸
匹
区
医
匽
匿
區
十
卂
千
卄
卅
卆
升
午
卉
半
卌
华
卑
卒
卓
单
卖
南
卜
卝
卞
占
卡
卢
卣
卤
卦
卩
卪
卬
卯
印
危
即
却
卵
卷
卸
卻
厂
厃
厄
历
厈
厉
厌
厓
厘
厚
原
厤
厥
厨
厭
厲
厶
厷
厸
去
厼
厽
叀
参
參
叅
又
叉
及
友
双
反
叐
发
叒
叔
叕
取
受
叚
叜
叟
口
古
句
另
叩
只
召
可
台
叱
史
右
叵
号
司
叹
吂
各
吅
合
吉
吊
吋
同
名
后
吏
向
吕
君
吝
吞
否
含
启
吳
吴
吹
吾
呂
呆
呈
告
员
呙
周
命
咅
和
咎
咠
咢
咨
咸
咼
哀
品
哉
員
哥
哲
唐
商
啇
問
啚
啬
啻
善
喜
喬
單
喿
嗇
噩
嚴
囊
囗
囘
囙
囚
四
回
囟
因
囧
囬
困
囱
囷
固
国
圂
圅
國
圍
圓
土
圡
圣
圥
在
圭
地
圶
圼
坐
坒
坚
坴
垂
垔
垚
埀
埋
城
埶
執
基
堂
堅
堆
堇
堯
塞
墨
壘
士
壬
壯
声
壳
壴
壹
壺
壽
夂
处
夅
夆
备
夊
夋
夌
复
夏
夒
夕
外
夗
夘
多
夜
夢
大
夨
天
太
夫
夬
夭
央
失
夲
头
夷
夸
夹
夻
夾
奂
奄
奇
奈
奉
奎
奏
奐
契
奓
奔
奚
奞
奠
奢
奥
奭
女
奴
奻
好
如
妄
妙
妟
妥
妻
妾
姑
委
姜
威
娄
婁
婴
嬰
嬴
子
孑
孔
孕
孖
字
存
孚
孛
孝
孟
季
孤
学
孫
孱
學
宀
宁
宂
它
宅
宇
守
安
宋
完
宏
宓
宗
官
定
宛
宜
宝
客
宣
室
宮
宰
害
家
容
宾
宿
寄
寅
密
富
寒
察
寧
審
寫
寬
寮
寸
对
寺
寻
寽
対
寿
封
尃
射
将
將
專
尉
尊
尋
尌
對
小
少
尒
尓
尔
尖
尗
尚
尞
尢
尣
尤
尧
尨
尭
就
尸
尹
尺
尻
尼
尽
尾
尿
局
居
屈
屋
屎
屏
屑
展
屖
屚
属
屠
屡
屬
屮
屯
屰
山
屵
屾
岁
岂
岑
岡
岩
岳
岸
峯
島
崇
崑
崔
崖
崙
崩
嵬
嶲
巂
巛
川
州
巟
巠
巢
巤
工
左
巧
巨
巩
巫
差
己
已
巳
巴
巷
巸
巽
巾
巿
帀
市
布
希
帚
帛
帝
带
師
席
帶
常
干
平
年
幵
并
幷
幸
幺
幻
幼
幽
幾
广
広
庄
床
底
店
庚
府
度
庫
庭
庶
康
庸
廉
廌
廛
廣
廩
廴
延
廷
建
廾
廿
开
弁
弃
弄
弇
弋
式
弓
弔
引
弗
弘
弜
弟
弥
弦
弱
張
強
强
彊
彌
彎
彐
彑
当
彔
录
彖
彗
彡
形
彥
彦
彧
彭
彳
役
彼
往
待
律
徒
得
徙
從
復
微
徳
徵
心
忄
必
忌
忍
志
忝
忠
忩
快
念
忽
忿
思
怠
急
怱
恆
恒
恩
恭
息
悉
患
悤
悲
悶
惠
惡
惢
愁
愈
意
愛
感
慈
慧
慮
憂
憲
應
戀
戈
戉
戊
戋
戌
戍
戎
成
我
戒
戔
或
戚
戠
戢
截
戲
戶
户
戹
戼
戾
房
所
扁
扇
手
扌
才
打
托
执
承
折
拉
拜
拿
掌
推
提
摩
支
攴
攵
收
攸
改
放
政
敄
敏
敕
敖
敗
敝
敞
敢
散
敦
敫
敬
数
敷
數
斂
文
斉
斊
斗
斤
斥
斩
斬
斯
新
方
於
施
斿
旁
旋
族
无
旡
既
旣
日
旦
旧
旨
早
旬
旱
旲
时
旾
昆
昇
昌
昍
明
昏
易
昔
昗
昜
星
春
昬
是
昱
昴
昷
時
晃
晋
晏
普
景
晶
智
暑
暴
曇
曩
曰
曲
曳
更
曷
書
曹
曼
曾
替
最
朁
會
月
有
朋
服
朔
朕
朗
望
朝
木
朩
未
末
本
札
朮
术
朱
朵
朶
朿
杀
杏
杜
束
条
来
東
杲
杳
松
析
林
枚
果
枝
枲
枼
某
柔
查
柬
柰
柴
栗
桀
桑
桼
梁
條
梟
梨
棘
棠
棥
森
楚
業
楽
榮
樂
樊
欠
次
欣
欮
欲
欶
欽
款
歆
歇
歛
止
正
此
步
武
歨
歪
歮
歯
歰
歲
歴
歷
歸
歹
歺
死
殳
段
殷
殸
殹
殺
殻
殿
毋
毌
母
每
毒
比
毕
毚
毛
毳
氏
氐
民
气
氣
水
氵
氶
氷
永
氺
氾
求
汝
汞
江
沃
沓
沙
沝
泉
法
波
泣
泥
泰
洛
洪
活
派
流
浦
浪
浮
海
淡
淮
清
渚
渠
湯
滿
漸
火
灬
灭
灰
灵
灷
炅
炎
炏
炗
炙
炭
為
烈
烏
烝
焉
無
焦
焱
然
煞
熊
熏
燕
營
燮
爪
爫
爭
爯
爰
爱
爲
爵
父
爻
爽
爾
爿
片
牙
牚
牛
牜
牟
牢
牧
牪
牽
犀
犬
犭
犮
狂
狄
狊
独
狺
猋
猒
猪
献
獻
玄
率
玉
王
玟
玨
现
珎
班
琴
瑟
瑩
瓜
瓦
甘
甚
生
産
用
甫
甬
田
由
甲
申
电
甶
男
甸
甹
画
甾
畀
界
畏
畐
留
畜
畟
畢
畧
畨
番
畫
異
畱
當
畺
畾
疊
疋
疌
疑
疒
疾
癶
癸
癹
登
發
白
百
皀
皃
的
皆
皇
皋
皐
皕
皮
皷
皿
盃
盆
盇
盈
益
盍
盎
监
盒
盖
盛
盡
監
盤
盧
目
直
相
盾
省
眇
眉
看
眔
眞
真
眷
眼
眾
着
睘
睪
睿
瞏
瞢
瞿
矍
矛
矞
矢
矣
知
矦
短
石
破
碎
磊
磨
示
礻
礼
社
祟
票
祭
禀
禁
禸
禹
禺
离
禽
禾
禿
秀
秃
秉
秋
科
秝
秦
移
稟
穀
穌
穴
究
穹
空
穿
突
窄
窒
立
竒
竜
竝
竟
章
童
竹
笑
笠
筆
等
答
箕
算
箜
箴
節
篌
篤
篭
米
粉
粛
粟
粤
粦
粲
糞
糸
糹
系
約
納
素
索
紫
累
細
絜
絫
絲
維
綿
縣
繇
纍
纟
缶
网
罒
罔
罕
罗
罙
罡
罢
罪
署
罷
羅
羊
羌
羍
美
羔
羕
羗
羞
羡
羣
群
義
羲
羸
羽
翁
翏
習
翕
翟
翠
翼
老
耂
考
者
耆
而
耎
耑
耒
耳
耴
耶
耷
聂
聊
聖
聚
聶
聿
肀
肃
肅
肉
肖
肙
肥
肩
肯
育
肴
胃
背
胡
胥
能
脊
脩
膚
臣
臤
臧
自
臬
臭
臯
臱
至
致
臺
臼
臽
臾
臿
舀
舂
舄
與
興
舉
舌
舍
舛
舜
舞
舟
般
艮
良
色
艸
艹
艾
芒
芔
芬
芮
花
芳
芺
芻
苔
苗
苟
若
苦
英
茶
茸
荅
草
荒
荣
荼
莆
莧
莫
莽
菆
菊
菐
華
萬
落
葉
著
葛
董
葵
蒙
蒦
蒼
蓋
蓬
蓺
蔑
蔡
蕉
蕭
薄
薛
薦
薰
藍
藏
藥
蘭
虍
虎
虐
虒
虔
處
虖
虗
虘
虚
虛
虜
虞
虫
虽
蚤
蚩
蜀
蜜
蟲
蠡
血
行
衍
衛
衣
衤
表
衮
衰
袁
袞
褭
褱
襄
襾
西
覀
要
覃
見
規
覓
覧
親
覽
见
角
解
言
訁
訇
計
詞
詹
語
誩
諸
讠
词
谷
豆
豈
豊
豐
豕
豖
豙
象
豦
豩
豪
豸
貇
貝
貞
貟
負
貢
貧
貪
貫
責
貳
貴
買
費
賁
資
賈
賏
賓
賔
賛
賞
賢
賣
質
賴
贊
贝
贡
责
贯
贲
贵
赖
赞
赤
赦
走
越
足
路
蹇
身
躬
車
軍
軎
軟
輦
车
辛
辜
辟
辥
辰
辱
農
辵
辶
边
达
过
近
连
迷
追
退
送
逆
逐
通
速
造
逢
連
逮
進
遀
遂
過
道
達
遣
適
遷
遺
邊
邑
邕
那
邦
邪
郎
部
郭
都
鄉
酉
酋
配
酓
釆
采
里
重
野
量
金
釒
錢
钅
長
镸
长
門
閃
閉
開
閏
閑
閒
間
閔
閵
閻
闌
门
间
闷
阑
阜
阝
阿
降
陳
隆
隊
隋
隡
隨
隱
隶
隹
隺
隻
隼
隽
难
雀
雁
集
雈
雋
雍
雐
雔
雙
雚
雜
雝
離
難
雨
雩
雪
雲
零
雷
需
霍
霜
霝
霞
霸
靈
靑
青
非
靡
面
靣
革
韋
韓
韦
韭
韯
韱
音
頁
頃
項
須
頗
頡
頻
顛
页
風
风
飛
飞
食
飠
養
饣
首
香
馬
馮
駦
马
骨
高
髟
鬥
鬯
鬲
鬼
魚
魯
鮮
鱼
鲁
鳥
鳳
鸟
鹵
鹿
麃
麗
麥
麦
麻
黃
黄
黍
黎
黑
黒
黨
黹
黽
黾
鼎
鼓
鼠
鼻
齊
齋
齐
齒
齿
龍
龙
龜
龟
龠
龰
龱
龴
龵
龶
龷
龸
龹
者
艹
ﺍ
ﺎ
ﻟ
ﻠ
ﻤ
﻿
？
🜨
𠀁
𠀃
𠀆
𠀉
𠀎
𠀐
𠁁
𠁣
𠂆
𠂇
𠂈
𠂉
𠂊
𠂋
𠂎
𠂒
𠂔
𠂛
𠂡
𠂢
𠂤
𠂬
𠂭
𠂹
𠃊
𠃋
𠃌
𠃍
𠃎
𠃑
𠃓
𠃔
𠃜
𠄌
𠄎
𠄠
𠄢
𠆢
𠆥
𠇍
𠈌
𠌵
𠓜
𠔉
𠔥
𠔼
𠔽
𠔿
𠕀
𠕁
𠕋
𠘧
𠘨
𠙻
𠙼
𠚏
𠚒
𠚤
𠚪
𠣏
𠤎
𠤕
𠥓
𠦄
𠦑
𠦝
𠧒
𠧗
𠧪
𠩺
𠪚
𠫓
𠫔
𠫤
𠬛
𠬝
𠬞
𠬢
𠬤
𠬶
𠮛
𠮦
𠮷
𠯑
𠱠
𠳮
𠷎
𡈼
𡉀
𡉵
𡌥
𡍮
𡏳
𡕒
𡕩
𡕰
𡖅
𡗗
𡗜
𡘆
𡘤
𡧱
𡨄
𡩧
𡬠
𡭽
𡰣
𡰥
𡰪
𡰯
𡰱
𡷈
𡸁
𡿨
𡿩
𡿪
𡿺
𢀖
𢀛
𢀩
𢁙
𢆉
𢆰
𢆶
𢇁
𢇇
𢉖
𢌬
𢌿
𢏚
𢑑
𢑚
𢖻
𢙣
𢛳
𢦏
𢦒
𢧵
𢼄
𢾕
𣁋
𣄼
𣅀
𣅽
𣍘
𣎳
𣎵
𣏋
𣏼
𣗥
𣥂
𣥖
𣦵
𣦼
𣧄
𣪊
𣪠
𣬉
𣳾
𣶒
𤇾
𤊽
𤐫
𤓰
𤔔
𤕨
𤣩
𤰇
𤰔
𤰞
𤴓
𤴔
𤽄
𥁑
𥁕
𥃦
𥃩
𥃭
𥇡
𥑟
𥘅
𥘈
𥝢
𥫗
𥱡
𦈢
𦉪
𦉬
𦉼
𦍌
𦍒
𦎧
𦐇
𦓔
𦔮
𦘒
𦙃
𦚏
𦣝
𦣞
𦣻
𦥑
𦥔
𦥯
𦨉
𦭝
𦰩
𧆞
𧈧
𧘇
𧰨
𧴪
𧴮
𧵩
𧾷
𨸏
𨾴
𩙿
𩠐
𩫏
𩵋
𪉷
𪜀
𪟽
𪠲
𪩲
𫇦
𫔭
𫜸
𫝀
𫠣
𫠩
𫢉
𫥞
𫩏
𫩠
𫪡
𫲽
𫶧
𬀷
𬐘
𬗌
𬙙
𬛸
𬜯
𬟩
𬯁
𬴘
𬺻
𬼉
𬼖
𭀰
𭁈
𭁨
𭅰
𭑈
𭕄
𭗼
𭤨
𭥫
𭻾
𮅕
𮊿
𮍌
𮍏
𮓗
𮥼
𮧮
廾
𰀁
𰀄
𰀈
𰀉
𰀕
𰀠
𰀡
𰀢
𰀪
𰁜
𰃮
𰆊
𰆘
𰋙
𰕎
𰢴
𰧭
𰯲
07--
66--
95--
a--
aa--
ab--
aband--
abbra--
abbri--
abbu--
abbut--
abd--
abe--
abi--
abu--
ac--
acci--
accin--
accri--
accu--
accumu--
accun--
accur--
acer--
ach--
acro--
act--
acu--
ad--
add--
addis--
addri--
addur--
ade--
adi--
adjec--
admini--
adu--
adv--
adven--
ae--
af--
affe--
affet--
affi--
affian--
affit--
affu--
ag--
aggr--
aggre--
aggri--
aggru--
ah--
ai--
ak--
al--
ala--
albi--
ale--
alex--
algi--
ali--
all--
alli--
allu--
allun--
alti--
alu--
alze--
am--
ama--
ambas--
ame--
ami--
ammu--
amu--
an--
ana--
analu--
anghju--
angiu--
angli--
anglo--
ant--
antag--
anti--
anto--
anu--
ap--
ape--
aphy--
apli--
apo--
app--
appa--
appen--
appriz--
appro--
appu--
appur--
apro--
ar--
ara--
arc--
arca--
archi--
arcu--
ario--
arist--
arm--
arma--
arran--
arre--
arri--
arti--
aru--
aryab--
arzi--
as--
asbur--
ascen--
ascin--
asi--
asoc--
assassi--
assi--
assiuma--
assu--
astro--
at--
ato--
atti--
attra--
attraz--
au--
aure--
aus--
ausilia--
auto--
autoc--
autu--
autuc--
av--
ave--
avi--
avver--
avvi--
avvir--
ay--
az--
azzi--
b--
ba--
bab--
babi--
bal--
bali--
ban--
bar--
barba--
baroc--
bas--
basci--
bat--
bau--
be--
bel--
bellero--
ben--
bene--
beni--
ber--
bersa--
bi--
bib--
bid--
bien--
big--
bil--
bin--
bio--
bir--
birth--
bis--
biu--
ble--
bo--
boi--
bol--
bon--
bona--
boni--
bor--
bot--
bou--
boul--
bour--
boz--
br--
bra--
bre--
bri--
bron--
bru--
bu--
bucc--
bud--
buf--
bug--
bul--
buni--
bur--
bus--
but--
butte--
buy--
c--
ca--
cad--
cada--
caesa--
cal--
cala--
cali--
cam--
cambo--
can--
cance--
cand--
cap--
capi--
cappu--
capri--
car--
cara--
carbu--
carbur--
card--
caro--
cartu--
cas--
casa--
casci--
casgia--
castel--
casti--
castid--
casu--
cat--
catal--
catas--
cau--
cav--
cavad--
cay--
cc--
ce--
cel--
cen--
cer--
ces--
cet--
ch--
cha--
cham--
chau--
che--
cher--
chi--
chia--
chilu--
chj--
chja--
chjapp--
chjir--
ci--
cia--
ciat--
cicc--
cicca--
ciccare--
cie--
cin--
cinematu--
cio--
cir--
circun--
cisalp--
cister--
cit--
cita--
ciu--
cl--
cla--
cle--
cn--
co--
coali--
cognos--
col--
colu--
com--
con--
condi--
consi--
contra--
cor--
cos--
cou--
cran--
cre--
cri--
crittu--
cro--
cru--
cu--
cud--
cul--
culi--
culle--
culpe--
cum--
cumbine--
cumme--
cummi--
cumpl--
cumpli--
cun--
cunce--
cuncirn--
cuncl--
cuncur--
cundiziu--
cunf--
cunfi--
cunni--
cunsape--
cunsi--
cuntim--
cuntra--
cunve--
cunvir--
cunzi--
cup--
cur--
cura--
curna--
curre--
curri--
cusci--
cusid--
cust--
custo--
cut--
cuti--
cutti--
cy--
d--
da--
dab--
dal--
dan--
dar--
darm--
dasy--
de--
dea--
deb--
debi--
del--
delib--
demo--
democ--
demu--
demuc--
den--
depe--
des--
desar--
di--
dia--
dibu--
dice--
dici--
did--
die--
dif--
diffi--
dila--
diminu--
din--
dina--
dinu--
dio--
diparti--
dis--
disas--
disc--
dise--
disposi--
diu--
diver--
divu--
do--
docu--
dolo--
don--
dona--
dor--
dot--
dou--
doub--
dr--
du--
dub--
dul--
dulu--
dume--
duo--
dupp--
dura--
dut--
dy--
dz--
dǝ--
dɔ--
dɛ--
dʒ--
e--
ea--
eb--
ecc--
ecl--
ecu--
ed--
edu--
ef--
efec--
effi--
ei--
el--
elab--
ele--
elec--
elegi--
elem--
elet--
elettri--
eli--
elle--
em--
embra--
emer--
emi--
en--
ence--
end--
enun--
eo--
ep--
epi--
equi--
er--
era--
erato--
ere--
eri--
ermafru--
eru--
es--
escl--
esclusi--
esi--
esoti--
espe--
espli--
est--
et--
eti--
etimu--
etno--
etnu--
eu--
euclid--
euse--
evalua--
evanghje--
every--
evu--
ex--
excel--
exi--
expl--
expli--
f--
fa--
fab--
fac--
fad--
fal--
fan--
far--
fat--
fau--
fauni--
faz--
fazzo--
fe--
feb--
feld--
fer--
fet--
feu--
fi--
fia--
fidu--
figa--
figh--
fil--
fili--
filica--
fin--
fina--
fino--
finta--
finu--
fir--
flam--
fle--
flo--
flu--
fo--
fon--
fonet--
for--
fos--
fou--
fr--
fra--
frazziu--
fre--
fri--
fru--
fu--
fue--
ful--
fuma--
fun--
funi--
fur--
furm--
furn--
furt--
g--
ga--
gab--
gal--
gallo--
gan--
gani--
gar--
gari--
gas--
gau--
ge--
gen--
gene--
gennar--
geo--
ger--
gey--
gh--
ghja--
ghjar--
ghje--
ghji--
ghju--
gi--
gia--
gian--
giard--
gib--
gil--
gio--
giorn--
giu--
giurd--
gl--
go--
gon--
gor--
got--
gr--
gra--
gramm--
grava--
gre--
gri--
gro--
gru--
grut--
gu--
gua--
gui--
guja--
gwy--
h--
ha--
hab--
habi--
har--
hawa--
he--
hel--
hen--
her--
herak--
hi--
his--
ho--
hoff--
hol--
hor--
hu--
hy--
i--
ia--
ib--
ic--
id--
ident--
idro--
ie--
ied--
ign--
il--
im--
imbr--
imma--
immi--
impi--
impli--
impri--
impro--
impru--
impu--
impulli--
in--
ina--
inaugu--
inc--
incas--
incastu--
inchi--
inclu--
incor--
incre--
incur--
inde--
indi--
indo--
indu--
ine--
inf--
infiz--
infli--
influ--
infra--
ing--
ingen--
ingh--
inghj--
inghjin--
inghjinare--
inglu--
ingran--
inic--
inn--
inqui--
insi--
inspe--
insta--
institu--
int--
intar--
inter--
inti--
intrap--
intrat--
introd--
intru--
intrudu--
intu--
inu--
inuma--
inv--
inven--
inver--
io--
ip--
iperi--
ippo--
ipu--
ir--
is--
isch--
ish--
iso--
istitu--
it--
ita--
italu--
iti--
iu--
iunisa--
iv--
j--
ja--
je--
jo--
ju--
jud--
k--
ka--
ke--
kel--
kell--
kh--
kha--
ki--
kir--
ko--
kon--
kra--
kru--
ku--
kwɛ--
kɔ--
l--
la--
laber--
laby--
lac--
laeti--
lam--
lan--
lance--
lar--
lat--
lau--
lava--
lavu--
le--
lec--
legis--
les--
let--
lexi--
lez--
li--
licc--
lig--
lighjis--
ligit--
limo--
lis--
lit--
litur--
liv--
ll--
lla--
lo--
loi--
lou--
lt--
lu--
lub--
luc--
luccia--
luci--
lugu--
lumi--
lus--
luz--
ly--
m--
ma--
mac--
mach--
macro--
mag--
magi--
magni--
mai--
main--
mal--
mala--
mamb--
man--
mane--
mani--
manu--
mar--
mare--
mari--
mas--
mau--
maz--
mb--
mc--
me--
med--
mediter--
mei--
mel--
men--
mer--
meri--
mes--
mesuput--
met--
meta--
meteuru--
mi--
micro--
microphy--
mid--
midi--
migra--
mik--
min--
mini--
mintu--
mis--
mit--
mitu--
mm--
mo--
modi--
moha--
mol--
mon--
mone--
monot--
mont--
monte--
mor--
motac--
movi--
mu--
mubi--
mul--
mult--
multil--
multiplic--
mun--
mune--
mur--
mura--
mus--
mut--
muti--
my--
n--
na--
nai--
nar--
nasco--
natha--
nau--
nd--
ne--
nec--
nego--
ner--
nes--
neu--
neubur--
new--
ng--
ni--
nie--
nigu--
nn--
no--
nob--
non--
nor--
nord--
norve--
nos--
note--
nou--
nt--
nu--
nucen--
numer--
nun--
nur--
nurve--
nurvi--
nǝ--
nɔ--
o--
ob--
oc--
occi--
occiden--
och--
od--
off--
offic--
og--
oi--
ol--
oligar--
oltri--
om--
omb--
omu--
on--
one--
onni--
ono--
op--
opi--
or--
ora--
ore--
orgog--
ori--
oro--
orri--
orsa--
ortho--
ortu--
os--
ossi--
ostac--
ot--
otto--
ou--
out--
ova--
oz--
p--
pa--
pacci--
paci--
pag--
pai--
pal--
pam--
pan--
panc--
pani--
pante--
par--
para--
parla--
pars--
parsu--
paru--
pas--
past--
pat--
pay--
pe--
pec--
pecca--
ped--
pedi--
peg--
pel--
pen--
per--
peri--
perifi--
peru--
pet--
ph--
phy--
pi--
pia--
pian--
piana--
pic--
picci--
piddi--
pign--
pile--
pilli--
pin--
pio--
piog--
pir--
pisti--
pit--
pitag--
pitri--
pitrica--
piu--
piz--
pl--
pla--
plan--
pli--
plu--
pm--
po--
pol--
poli--
poly--
pom--
pon--
pop--
por--
poten--
pp--
pr--
pra--
pre--
preci--
pri--
prici--
prifi--
privile--
pro--
produ--
prof--
promo--
prote--
protec--
proto--
protu--
pru--
prudu--
prufi--
prugi--
pruie--
prumati--
prumm--
prumu--
prutag--
prute--
prutu--
ps--
pseud--
psic--
pu--
pub--
pughju--
pulemi--
puli--
pum--
pup--
pur--
pusse--
puste--
puz--
py--
pǝ--
q--
qua--
quad--
quat--
que--
qui--
quin--
quo--
r--
ra--
rab--
racco--
rad--
radi--
radiu--
raf--
raffa--
rag--
raggrupp--
rai--
ram--
rami--
ramm--
ran--
rap--
rapur--
ras--
rat--
raz--
razzi--
rd--
re--
real--
reb--
rece--
reci--
reconoc--
reden--
ree--
ref--
reg--
regi--
reli--
ren--
repu--
requi--
res--
respo--
resu--
ret--
reti--
ri--
ria--
ric--
rica--
ricu--
ridi--
rido--
ridu--
riga--
righji--
rigi--
rigu--
rigula--
riint--
rili--
rim--
rimus--
rin--
rina--
rinasci--
ringhju--
rinu--
rinun--
rio--
ripe--
riper--
ripp--
ris--
rispe--
rispl--
rispu--
ristabi--
rit--
riu--
riuni--
rivi--
rivol--
rivoluzio--
rivoluziu--
riz--
rizo--
ro--
rocca--
rot--
rou--
row--
rru--
rt--
ru--
rucchis--
rug--
rum--
run--
rundin--
rupes--
rus--
rut--
rǝ--
rɔ--
rɛ--
s--
sa--
sacc--
sacche--
sal--
salu--
sam--
sambu--
san--
sanc--
santa--
sar--
sat--
sau--
sba--
sbe--
sc--
sca--
scar--
sce--
sch--
schje--
sci--
scia--
scif--
sco--
scola--
scor--
scru--
scu--
sculp--
scum--
scun--
scur--
scy--
scǝ--
sdru--
se--
sea--
sec--
sei--
sem--
semi--
sen--
sene--
sept--
ser--
set--
sfa--
sfu--
sha--
shi--
sho--
si--
sidimin--
silen--
sim--
simet--
simon--
sin--
sipp--
sir--
sis--
ska--
sko--
smar--
smil--
so--
sof--
sofo--
sol--
soli--
son--
sopra--
sor--
sos--
sottu--
sou--
spa--
span--
spar--
spargu--
spe--
spet--
spetta--
spi--
spii--
spirim--
spitta--
spl--
splind--
spo--
spu--
spurt--
sq--
squa--
st--
sta--
stall--
star--
ste--
sti--
sto--
stra--
stri--
stru--
stu--
su--
suare--
sub--
subrane--
suc--
succ--
sud--
suf--
suffi--
sughji--
sui--
sul--
sula--
suli--
sum--
sumi--
sun--
sunad--
super--
supp--
supple--
sur--
sus--
sut--
sve--
svi--
svilupp--
sw--
sy--
syl--
sɔ--
t--
ta--
tac--
tad--
tal--
tam--
tan--
tar--
tat--
tau--
te--
tecn--
tele--
tem--
ten--
tenth--
teod--
ter--
terze--
tes--
th--
ti--
tic--
tie--
til--
tim--
tin--
tipp--
tipu--
tira--
tisti--
tiu--
to--
tol--
tor--
toz--
tra--
traba--
trage--
tran--
trans--
tras--
trat--
tre--
tri--
trib--
tro--
tron--
tru--
ts--
tu--
tuber--
tumb--
tupu--
tur--
turbu--
tus--
tut--
tw--
ty--
tɛ--
u--
ua--
ub--
ubbi--
ubliga--
uc--
uffi--
ug--
ul--
umb--
umi--
un--
unani--
undice--
une--
unga--
uni--
uo--
up--
ur--
ura--
urga--
urgani--
uri--
urna--
us--
usa--
use--
ut--
utili--
uva--
v--
va--
vacci--
val--
vale--
van--
var--
ve--
veget--
vel--
ven--
ver--
vet--
vi--
via--
vibra--
vic--
videu--
vik--
vil--
vin--
vir--
viri--
vis--
vita--
viu--
vivi--
vo--
vol--
volu--
vos--
vu--
vuca--
vucaz--
vul--
vǝ--
w--
wa--
war--
wat--
we--
web--
wel--
wiki--
wil--
win--
wo--
wɔ--
x--
xi--
xx--
y--
ya--
z--
za--
zam--
zan--
ze--
zer--
zi--
zimb--
zimmer--
zin--
zir--
zo--
zu--
zuc--
zur--
ħ--
ɔ--
ɾ--
ʃ--
ʒ--
β--
γ--
δ--
ζ--
θ--
κ--
λ--
λα--
μ--
ο--
π--
ρ--
σ--
τ--
χ--
ا--
--0
--00
--1
--2
--3
--4
--5
--6
--7
--8
--9
--a
--aca
--ace
--aceae
--acio
--aconi
--acu
--ad
--ado
--adore
--adunu
--ae
--ai
--ain
--al
--ale
--ali
--am
--amente
--amenti
--an
--ana
--and
--ane
--ani
--ano
--anu
--anza
--ar
[...]
