!
"
#
##a
##aa
##ab
##ac
##ad
##ae
##af
##ag
##ah
##ai
##aj
##ak
##al
##am
##an
##ao
##ap
##aq
##ar
##as
##at
##au
##av
##aw
##ax
##ay
##az
##b
##ba
##bb
##bc
##bd
##be
##bf
##bg
##bh
##bi
##bj
##bk
##bl
##bm
##bn
##bo
##bp
##bq
##br
##bs
##bt
##bu
##bv
##bw
##bx
##by
##bz
##c
##ca
##cb
##cc
##cd
##ce
##cf
##cg
##ch
##ci
##cj
##ck
##cl
##cm
##cn
##co
##cp
##cq
##cr
##cs
##ct
##cu
##cv
##cw
##cx
##cy
##cz
##d
##da
##db
##dc
##dd
##de
##df
##dg
##dh
##di
##dj
##dk
##dl
##dm
##dn
##do
##dp
##dq
##dr
##ds
##dt
##du
##dv
##dw
##dx
##dy
##dz
##e
##ea
##eb
##ec
##ed
##ee
##ef
##eg
##eh
##ei
##ej
##ek
##el
##em
##en
##eo
##ep
##eq
##er
##es
##et
##eu
##ev
##ew
##ex
##ey
##ez
##f
##fa
##fb
##fc
##fd
##fe
##ff
##fg
##fh
##fi
##fj
##fk
##fl
##fm
##fn
##fo
##fp
##fq
##fr
##fs
##ft
##fu
##fv
##fw
##fx
##fy
##fz
##g
##ga
##gb
##gc
##gd
##ge
##gf
##gg
##gh
##gi
##gj
##gk
##gl
##gm
##gn
##go
##gp
##gq
##gr
##gs
##gt
##gu
##gv
##gw
##gx
##gy
##gz
##h
##ha
##hb
##hc
##hd
##he
##hf
##hg
##hh
##hi
##hj
##hk
##hl
##hm
##hn
##ho
##hp
##hq
##hr
##hs
##ht
##hu
##hv
##hw
##hx
##hy
##hz
##i
##ia
##ib
##ic
##id
##ie
##if
##ig
##ih
##ii
##ij
##ik
##il
##im
##in
##io
##ip
##iq
##ir
##is
##it
##iu
##iv
##iw
##ix
##iy
##iz
##j
##ja
##jb
##jc
##jd
##je
##jf
##jg
##jh
##ji
##jj
##jk
##jl
##jm
##jn
##jo
##jp
##jq
##jr
##js
##jt
##ju
##jv
##jw
##jx
##jy
##jz
##k
##ka
##kb
##kc
##kd
##ke
##kf
##kg
##kh
##ki
##kj
##kk
##kl
##km
##kn
##ko
##kp
##kq
##kr
##ks
##kt
##ku
##kv
##kw
##kx
##ky
##kz
##l
##la
##lb
##lc
##ld
##le
##lf
##lg
##lh
##li
##lj
##lk
##ll
##lm
##ln
##lo
##lp
##lq
##lr
##ls
##lt
##lu
##lv
##lw
##lx
##ly
##lz
##m
##ma
##mb
##mc
##md
##me
##mf
##mg
##mh
##mi
##mj
##mk
##ml
##mm
##mn
##mo
##mp
##mq
##mr
##ms
##mt
##mu
##mv
##mw
##mx
##my
##mz
##n
##na
##nb
##nc
##nd
##ne
##nf
##ng
##nh
##ni
##nj
##nk
##nl
##nm
##nn
##no
##np
##nq
##nr
##ns
##nt
##nu
##nv
##nw
##nx
##ny
##nz
##o
##oa
##ob
##oc
##od
##oe
##of
##og
##oh
##oi
##oj
##ok
##ol
##om
##on
##oo
##op
##oq
##or
##os
##ot
##ou
##ov
##ow
##ox
##oy
##oz
##p
##pa
##pb
##pc
##pd
##pe
##pf
##pg
##ph
##pi
##pj
##pk
##pl
##pm
##pn
##po
##pp
##pq
##pr
##ps
##pt
##pu
##pv
##pw
##px
##py
##pz
##q
##qa
##qb
##qc
##qd
##qe
##qf
##qg
##qh
##qi
##qj
##qk
##ql
##qm
##qn
##qo
##qp
##qq
##qr
##qs
##qt
##qu
##qv
##qw
##qx
##qy
##qz
##r
##ra
##rb
##rc
##rd
##re
##rf
##rg
##rh
##ri
##rj
##rk
##rl
##rm
##rn
##ro
##rp
##rq
##rr
##rs
##rt
##ru
##rv
##rw
##rx
##ry
##rz
##s
##sa
##sb
##sc
##sd
##se
##sf
##sg
##sh
##si
##sj
##sk
##sl
##sm
##sn
##so
##sp
##sq
##sr
##ss
##st
##su
##sv
##sw
##sx
##sy
##sz
##t
##ta
##tb
##tc
##td
##te
##tf
##tg
##th
##ti
##tj
##tk
##tl
##tm
##tn
##to
##tp
##tq
##tr
##ts
##tt
##tu
##tv
##tw
##tx
##ty
##tz
##u
##ua
##ub
##uc
##ud
##ue
##uf
##ug
##uh
##ui
##uj
##uk
##ul
##um
##un
##uo
##up
##uq
##ur
##us
##ut
##uu
##uv
##uw
##ux
##uy
##uz
##v
##va
##vb
##vc
##vd
##ve
##vf
##vg
##vh
##vi
##vj
##vk
##vl
##vm
##vn
##vo
##vp
##vq
##vr
##vs
##vt
##vu
##vv
##vw
##vx
##vy
##vz
##w
##wa
##wb
##wc
##wd
##we
##wf
##wg
##wh
##wi
##wj
##wk
##wl
##wm
##wn
##wo
##wp
##wq
##wr
##ws
##wt
##wu
##wv
##ww
##wx
##wy
##wz
##x
##xa
##xb
##xc
##xd
##xe
##xf
##xg
##xh
##xi
##xj
##xk
##xl
##xm
##xn
##xo
##xp
##xq
##xr
##xs
##xt
##xu
##xv
##xw
##xx
##xy
##xz
##y
##ya
##yb
##yc
##yd
##ye
##yf
##yg
##yh
##yi
##yj
##yk
##yl
##ym
##yn
##yo
##yp
##yq
##yr
##ys
##yt
##yu
##yv
##yw
##yx
##yy
##yz
##z
##za
##zb
##zc
##zd
##ze
##zf
##zg
##zh
##zi
##zj
##zk
##zl
##zm
##zn
##zo
##zp
##zq
##zr
##zs
##zt
##zu
##zv
##zw
##zx
##zy
##zz
$
%
&
'
(
)
*
+
,
-
.
/
0
00
000
001
01
02
03
035
04
047
048
05
0515
06
07
071
078
08
09
090
098
0a
0b
0c
0d
0e
0f
0g
0h
0i
0j
0k
0l
0m
0n
0o
0p
0q
0r
0s
0t
0u
0v
0w
0x
0y
0z
1
10
100
1000
10000
100000
101
1016
102
103
104
105
106
1066
107
1070
1073
1077
108
1080
1089
109
1091
1092
11
110
1100
1107
111
1113
1119
112
1121
113
1130
1133
1139
114
1149
115
1152
116
117
1173
118
119
1190
1195
12
120
1200
1202
1203
1206
121
1214
1217
1218
122
1220
123
1230
1238
124
125
1250
1258
1259
126
1268
127
1275
128
1280
1282
1284
129
1296
1297
1298
1299
13
130
1300
1303
1304
1306
131
1312
1314
132
133
134
1343
1344
1349
135
1350
1352
1353
1354
136
1366
137
1372
1378
138
1380
1382
1383
1388
139
14
140
1400
1401
141
1419
142
1420
1428
143
1434
144
1442
1443
1444
1447
1448
145
1450
1453
1458
146
1464
147
1470
1475
1476
1478
148
1480
1484
1485
1487
1488
1489
149
1490
1491
1492
1494
1495
1496
1497
1498
1499
15
150
1500
1501
1502
1503
1504
1505
1506
1507
1508
151
1510
1511
1512
1513
1515
1516
1519
152
1520
1521
1522
1523
1524
1525
1526
1528
1529
153
1530
1531
1532
1534
1535
1536
1537
1539
154
1540
1541
1542
1545
1547
1548
1549
155
1550
1551
1552
1553
1554
1555
1557
1558
1559
156
1560
1561
1563
1564
1565
1566
1567
1568
1569
157
1570
1571
1572
1573
1575
1577
158
1580
1582
1584
1585
1588
1589
159
1590
1591
1593
1594
1595
1596
1597
1599
16
160
1600
1601
1603
1604
1608
1609
161
1610
1611
1612
1615
1616
1617
1618
1619
162
1620
1621
1622
1624
1625
1626
1629
163
1635
1636
1638
164
1643
1644
1648
165
1652
1656
1659
166
1665
1666
1668
1669
167
1676
168
1683
1684
1685
169
1692
1694
17
170
1700
1702
1703
1704
1705
1706
1707
171
1710
1713
1714
1715
1716
172
1720
1722
1723
1724
1725
1727
1728
1729
173
1730
1731
1732
1734
1735
1736
1737
1738
1739
174
1740
1742
1743
1745
1746
1747
175
1750
1751
1753
1754
1755
1756
1757
1758
1759
176
1760
1761
1762
1763
1764
1765
1766
1767
1768
1769
177
1770
1771
1772
1773
1774
1775
1776
1777
1778
1779
178
1780
1781
1782
1783
1784
1785
1786
1787
1788
1789
179
1790
1791
1792
1793
1794
1795
1796
1797
1798
1799
18
180
1800
1801
1802
1803
1804
1805
1806
1807
1808
1809
181
1810
1811
1812
1813
1814
1815
1816
1817
1818
1819
182
1820
1821
1822
1823
1824
1825
1826
1827
1828
1829
183
1830
1831
1832
1833
1834
1835
1836
1837
1838
1839
184
1840
1841
1842
1843
1844
1845
1846
1847
1848
1849
185
1850
1851
1852
1853
1854
1855
1856
1857
1858
1859
186
1860
1861
1862
1863
1864
1865
1866
1867
1868
1869
187
1870
1871
1872
1873
1874
1875
1876
1877
1878
1879
188
1880
1881
1882
1883
1884
1885
1886
1887
1888
1889
189
1890
1891
1892
1893
1894
1895
1896
1897
1898
1899
19
190
1900
1901
1902
1903
1904
1905
1906
1907
1908
1909
191
1910
1911
1912
1913
1914
1915
1916
1917
1918
1919
192
1920
1921
1922
1923
1924
1925
1926
1927
1928
1929
193
1930
1931
1932
1933
1934
1935
1936
1937
1938
1939
194
1940
1941
1942
1943
1944
1945
1946
1947
1948
1949
195
1950
1951
1952
1953
1954
1955
1956
1957
1958
1959
196
1960
1961
1962
1963
1964
1965
1966
1967
1968
1969
197
1970
1971
1972
1973
1974
1975
1976
1977
1978
1979
198
1980
1981
1982
1983
1984
1985
1986
1987
1988
1989
199
1990
1991
1992
1993
1994
1995
1996
1997
1998
1999
1a
1b
1c
1d
1e
1f
1g
1h
1i
1j
1k
1l
1m
1n
1o
1p
1q
1r
1s
1t
1u
1v
1w
1x
1y
1z
2
20
200
2000
2001
2002
2003
2004
2005
2006
2007
2008
2009
201
2010
2011
2012
2013
2014
2015
2016
2017
2018
2019
202
2020
2021
2022
203
204
205
206
207
208
209
21
210
2100
211
212
213
214
2144
215
216
217
218
219
22
220
221
222
223
224
225
226
227
228
229
23
230
2300
231
232
233
234
235
237
238
239
2390
24
240
241
242
243
244
245
246
247
248
249
25
250
2500
251
252
253
254
255
256
257
258
259
26
260
261
262
263
264
265
266
267
268
269
27
270
2700
2706
271
272
273
274
275
276
277
278
279
28
280
281
282
283
284
285
286
287
288
289
29
290
291
292
293
294
295
296
297
298
299
2a
2b
2c
2d
2e
2f
2g
2h
2i
2j
2k
2l
2m
2n
2o
2p
2q
2r
2s
2t
2u
2v
2w
2x
2y
2z
3
30
300
3000
30000
301
302
303
304
305
306
307
308
309
31
310
311
312
313
314
315
316
317
318
319
32
320
321
322
323
324
325
326
327
328
329
33
330
331
332
333
334
335
336
337
338
339
34
340
341
342
343
344
345
346
347
348
349
35
350
3500
351
352
353
354
355
356
357
358
359
36
360
3600
361
362
363
364
365
367
368
37
370
371
375
376
379
38
380
3800
381
383
384
385
386
387
388
389
39
390
392
393
394
395
396
397
398
399
3a
3b
3c
3d
3e
3f
3g
3h
3i
3j
3k
3l
3m
3n
3o
3p
3q
3r
3s
3t
3u
3v
3w
3x
3y
3z
4
40
400
4000
402
403
404
405
4092
41
410
411
412
415
416
418
42
420
421
422
423
425
426
427
428
43
430
431
433
434
44
440
445
447
45
450
451
452
453
454
455
456
46
460
47
470
474
476
478
479
48
480
481
486
489
49
490
494
495
496
499
4a
4b
4c
4d
4e
4f
4g
4h
4i
4j
4k
4l
4m
4n
4o
4p
4q
4r
4s
4t
4u
4v
4w
4x
4y
4z
5
50
500
5000
506
507
508
509
51
515
518
519
52
520
521
525
529
53
535
54
540
541
542
545
546
547
55
550
555
56
560
563
564
565
566
569
57
570
574
58
580
581
59
590
598
5a
5b
5c
5d
5e
5f
5g
5h
5i
5j
5k
5l
5m
5n
5o
5p
5q
5r
5s
5t
5u
5v
5w
5x
5y
5z
6
60
600
6000
604
61
610
612
615
616
617
618
62
623
628
63
631
632
639
64
641
642
645
65
650
652
66
67
670
671
68
680
683
686
69
691
697
6a
6b
6c
6d
6e
6f
6g
6h
6i
6j
6k
6l
6m
6n
6o
6p
6q
6r
6s
6t
6u
6v
6w
6x
6y
6z
7
70
700
7000
701
7013
706
707
71
711
715
716
717275677
72
73
730
735
74
742
748
75
750
753
754
759
76
768
77
770
775
777
78
780
79
790
791
796
7a
7b
7c
7d
7e
7f
7g
7h
7i
7j
7k
7l
7m
7n
7o
7p
7q
7r
7s
7t
7u
7v
7w
7x
7y
7z
8
80
800
8000
809
81
813
814
816
82
820
827
83
830
833
84
841
848
849
85
850
853
85822
86
861
864
87
870
874
875
88
880
886
89
899
8a
8b
8c
8d
8e
8f
8g
8h
8i
8j
8k
8l
8m
8n
8o
8p
8q
8r
8s
8t
8u
8v
8w
8x
8y
8z
9
90
900
91
913
92
929
93
930
94
940
95
950
9525608
96
960
962
963
965
97
970
975
9770213
978
979
98
980
985
99
997
999
9a
9b
9c
9d
9e
9f
9g
9h
9i
9j
9k
9l
9m
9n
9o
9p
9q
9r
9s
9t
9u
9v
9w
9x
9y
9z
:
;
<
=
>
?
@
[
[CLS]
[MASK]
[PAD]
[SEP]
[UNK]
\
]
^
_
`
a
a0
a1
a2
a3
a4
a5
a6
a7
a8
a9
aa
aaron
ab
aba
abadan
abanduna
abandunatu
abate
abati
abba
abbaghja
abbaghju
abbaglia
abbagliula
abbandona
abbandonu
abbanduna
abbandunata
abbandunate
abbandunati
abbandunatu
abbanduneghja
abbandunendu
abbanduno
abbas
abbasidi
abbassa
abbassatu
abbasta
abbastanza
abbate
abbatta
abbatte
abbatucci
abbazia
abbazie
abbe
abbey
abbi
abbia
abbozzu
abbraccia
abbracciatu
abbraccio
abbracciu
abbreviationem
abbreviazione
abbreviazioni
abbrilǝ
abbriviatu
abbriviazioni
abbrustula
abbulighja
abbundante
abbundanti
abbundanza
abc
abcasu
abd
abdica
abdicazioni
abe
abeja
abel
aberdeen
abi
abies
abile
abili
abilita
abissali
abissu
abita
abitante
abitanti
abitata
abitati
abitatu
abitazione
abitazioni
abitente
abitenti
abitu
abitua
abituatu
abitudina
abitudine
abitudini
aboriginal
abortivum
about
abraham
abrei
abril
abruzzese
abruzzo
abruzzu
abside
absidi
abu
abulizione
abundante
abundanti
abuso
abusu
abusus
ac
academia
academy
acamanti
acantu
acca
accada
accade
accademia
accademica
accademichi
accademicu
accadi
accadicu
accaduta
accadutu
accalaccia
accant
accantu
accarezza
accasa
accasu
accata
accatta
accattadore
accattadori
accattari
accattatore
accattu
acceda
accede
accende
accenna
accentata
accenti
accentu
acceptare
acceptation
accerta
accertata
accesi
access
accessdate
accessi
accessibile
accesso
accessu
accesu
accetta
accettatu
accia
acciaghju
acciai
acciaio
acciaiu
acciarinu
accidente
accidenti
accinese
accinesu
accinta
accintu
accipiter
accipitridae
accissibuli
accitta
accittata
accittati
accittatu
accittazione
accittazioni
accitto
accizioni
accoglia
accoglie
accoglii
accolta
accolti
accoltu
acconcia
accoppia
accorda
accordi
accordu
accorsi
accortu
accosta
accresce
accrisciutu
accuglienza
accumpagna
accumpagnanu
accumpagnata
accumpagnati
accumpagnatu
accumulu
accunciatu
accunsentu
accupa
accupani
accupata
accupatu
accupava
accupazioni
accupiamentu
accupo
accuppia
accuppiamentu
accuratezza
accurdatu
accusa
accusativu
accusatu
accusi
aceddi
aceddu
acella
acelli
acellu
aceras
acertula
acertulone
acertuloni
aceru
acetosella
acetu
ache
achei
acheniu
achi
achille
achillea
achilli
achiu
achmatova
aciartula
acide
acidezza
acidita
aciditatem
acido
acidu
acioli
acitu
aconcagua
acqua
acquaghjolu
acquale
acquariu
acquatella
acquatica
acquatichi
acquavita
acquaviva
acque
acqui
acquidottu
acquista
acquistata
acquistati
acquistatu
acquisto
acquistu
acronimo
acronimu
acronymum
acropula
acrostici
acrosticu
act
actes
action
actionem
actitudinem
acu
acughji
acula
acule
aculi
acustica
acuta
acuti
acutu
ad
ada
adam
adams
adamu
adangme
adatta
adattamentu
adattata
adattati
adattatu
adattazione
adattu
adcaptare
adda
addevani
addevi
addevu
addirizza
addirizzate
addistratu
addiu
addiva
addivati
addivatu
addizioni
addo
addoru
addossu
addrizza
addulurati
addurmenta
addurminta
ade
adecec
adelaide
adelasia
aden
aderiscia
adi
adiacenti
adieux
adige
adjectif
adjective
adjectivum
adjectivus
adjetivo
adju
administrazione
adolf
adolfo
adolfu
adolphe
adopra
adopranu
adoremus
adorno
adoru
adotta
adriano
adrianu
adriatica
adriaticu
adrien
adrizzu
adulta
adulti
adultu
adumbrati
adunite
adupra
aduprata
aduprate
aduprati
adupratu
aduprendu
adurnatu
adutta
aduttata
aduttatu
aduttivu
adutto
aduzzioni
adv
adventures
adverbio
adverbium
ae
aendi
aequalem
aequalis
aere
aerea
aerii
aeronautica
aeroporti
aeroportu
aeruportu
aestivalis
aestivus
aeternam
aetnensis
af
afa
afar
affacca
affaccata
affaccia
affacciani
affaires
affanni
affannu
affare
affari
affattu
afferma
affesta
affesu
affetti
affettu
affiancatu
affida
affidata
affidatu
affidevuli
affido
affinch
affinita
affirma
affirmata
affirmatu
affirmazione
affirmazioni
affirmendu
affirmo
affitta
affittati
affittatu
affitti
affittu
affiuranti
affluente
affluenti
afflussu
affoca
affonda
affreschi
affrescu
affronta
affrunta
affruntatu
affrunto
affunda
affundamentu
afghanistan
afi
aforismo
africa
african
africana
africani
africanu
africanus
africo
afrihili
afrikaans
afrudita
after
afurismu
ag
aga
again
agaminnonu
agaricus
agata
age
agenori
agente
agenti
agenzia
ager
aggettivu
agghjesu
agghju
aggittivu
aggius
aggju
agglumeratu
agglumerazione
agglumerzione
aggregationem
aggrigata
aggronda
aggrunda
aggrundendu
aghi
aghja
aghjaba
aghjaccina
aghjaccini
aghjaccinu
aghjacciu
aghjacenti
aghjalesi
aghjenti
aghjettivi
aghjettivu
aghji
aghjini
aghjittivi
aghjittivu
aghjiunghjendu
aghjola
aghjone
aghju
aghjunghja
aghjunghje
aghjunghjendu
aghjunghjenu
aghjunghji
aghjunghjini
aghjunta
aghjunti
aghjuntu
aghjusta
aghjustatu
agir
agisce
agisci
agiscia
aglia
agliana
aglientu
agliola
agliu
agnedda
agneddi
agneddu
agnelli
agnellu
agnellus
agnona
agnonu
agnosticisimu
agnus
agora
agostini
agostino
agosto
agostu
agostus
agra
agraria
agregatu
agregazione
agriate
agricula
agriculi
agricultori
agricultura
agriculu
agrigatu
agrigazioni
agrigentu
agrippa
agrumi
agrumu
agua
aguila
agultu
agustinu
ah
ahmad
ahmed
ai
aia
aiaccini
aiaccinu
aiacciu
aiace
aiaci
aiani
aigle
aigua
aiguabarreig
ain
aio
aipo
air
airbnb
aire
aires
airline
airlines
airport
aiti
aiton
aitona
aiuta
aiutara
aiutati
aiutatu
aiuti
aiuto
aiutu
aix
aj
ajaccio
ak
akademia
akan
akihito
al
ala
alabama
alain
alalia
alan
alandu
alanu
alare
alari
alarma
alaska
alata
alaternus
alati
alatu
alba
albanesa
albanese
albanesi
albanesu
albania
albanu
albaru
albedu
alberghi
albergu
albero
albert
alberta
albertacce
alberti
albertini
alberto
albertu
alberu
albiana
albida
albin
albitreccia
albitru
albret
albu
albucciu
album
albus
alcaloidi
alchimia
alchimista
alchimisti
alcudina
alcudine
alcun
alcuna
alcune
alcuni
alcunu
aldila
aldo
ale
aleatorii
alegra
alegre
alegru
alejandro
aleksandr
alemagna
aleman
alemani
alemanicu
alemannu
alemanu
alementi
aleph
aleria
alesandri
alesani
alesaninco
alesanincu
alessandra
alessandri
alessandria
alessandro
aleutinu
alex
alexander
alexandre
alfa
alfabeticu
alfabeto
alfabetu
alfedena
alfeu
alfonsi
alfonso
alfonsu
alfred
alfredo
algaghjola
algebra
algebrica
algebriche
algebrichi
algeri
algeria
algerianu
algherese
algheru
alghi
algoritmi
algoritmu
algueres
alguritmi
alguritmu
ali
alianza
aliatoria
aliatoriu
alicarnassu
alice
aliconu
alien
aliens
alighieri
aligrezza
alimagna
alimania
alimannu
alimantazioni
alimanu
alimentare
alimentazione
alimenti
alimentu
aliminta
alimintari
alinei
alisgiani
alissandria
aliva
alive
alivetu
alivi
alivu
alizzioni
all
alla
allah
allan
allarga
allargamentu
allargata
allargatu
allata
alle
alleanza
alleate
alleati
alleatu
allegri
allegria
allen
allenamentu
alleva
allevare
allevatu
allevu
alliance
allianza
allianzi
alliata
alliati
alliatu
alligator
alligoricu
allinatori
alliniamentu
alliniati
alliscia
allium
alloca
alloghju
allor
allora
alloru
allughja
alluminiu
allungamentu
allungata
allungatu
alluntana
alluntanati
alluntanatu
alluntano
allusioni
alluvioni
alluviunali
alma
almanacco
almanaccu
almanach
almancu
almazan
almenu
alminu
alnus
alo
aloe
alone
alors
alpana
alpane
alpe
alpha
alphabet
alphonse
alpi
alpina
alpine
alpini
alpinu
alpron
alsazia
alsazianu
alsinoides
also
alt
alta
altaghje
altaica
altamenti
altar
altare
altari
altaru
altavilla
alte
alterna
alternativa
alternative
alternativu
altezza
altezze
altezzi
althing
alti
altiani
altipiani
altipianu
altirazioni
altirnanza
altirnativa
altirnativi
altirnendu
altissimi
altissimu
altitudina
altitudine
altitudini
altkirch
alto
altore
altori
altr
altra
altre
altrettanti
altrettantu
altri
altrimente
altrimenti
altro
altronde
altrondi
altru
altrui
altu
altupiani
altupianu
altura
alture
alturi
aluetu
aluminio
aluminium
alvaro
alvernia
alverniate
alvitu
always
alza
alzachena
alzata
alzati
alzetu
alzi
alzu
am
ama
amadei
amadeu
amaia
amaii
amandola
amandula
amanduli
amandulu
amani
amante
amanti
amar
amara
amaranthus
amarantu
amarascu
amare
amarezza
amargo
amari
amaria
amaricu
amaritia
amaru
amata
amate
amatori
amatu
amava
amazonas
amazoni
amb
ambasciadori
ambasciata
ambasciatore
ambiegna
ambientale
ambientali
ambientalisti
ambiente
ambienti
ambiguita
ambitu
ambizione
ambizioni
ambiziosu
ambrose
ambrosi
ame
amen
amer
america
american
americana
americane
americani
americanu
americanus
americhe
americhi
amessi
amesti
ameti
ameto
ami
amica
amichevule
amichi
amici
amicizia
amico
amicu
amiens
amiragliu
amiricanu
amis
ammaistra
ammalatu
ammansu
ammazzatu
ammenta
ammentu
ammigliura
amministra
amministrata
amministrativa
amministrativamenti
amministrative
amministrativi
amministrativu
amministratori
amministrazione
amministrazioni
ammira
ammiragliu
ammiratori
ammirazioni
ammissioni
ammissu
ammoniacu
ammonta
ammorcia
ammuccia
ammurabi
amor
amore
amorem
amori
amorosa
amour
ampara
amparatu
amparera
ampaza
ampia
ampiamente
ampiamenti
ampie
ampiezza
ampii
ampiu
ampriani
ampugnani
amsterdam
amu
amulius
amuri
amurosa
amurosi
amurosu
amurriti
an
anacamptis
anacletu
anagni
anali
analisa
analisi
analitica
analiza
analizata
analizatu
analoga
analoghi
analogu
analugamenti
analugii
analysis
analytics
ananus
anas
anassagora
anassimandru
anastacia
anatolia
anatolica
anatolichi
anatolicu
anatomia
anatulia
anatumia
anc
anca
anch
anche
anchi
anchusa
anciclupedia
anciclupidia
ancien
ancienne
ancinu
ancona
ancora
ancu
and
anda
andaia
andaiami
andalien
andalusia
andalusu
andamentu
andare
andata
andate
andati
andatu
andatura
andava
andavani
andavanu
andemu
andendu
andersen
anderson
andi
andini
ando
andorra
andre
andrea
andreani
andreas
andres
andreucci
andrew
andria
androgeu
andromeda
andy
ane
aneddi
aneddu
anelli
anellu
anemone
anfibii
anfibiu
anfidamanti
anfuri
ange
angel
angeles
angeli
angelica
angelini
angelo
angers
anggun
anghjula
anghjuli
anghjulu
angio
angioina
angioini
angioinu
angiuini
anglensis
anglicana
anglicanu
anglo
anglona
anglu
anglusassone
anglusassoni
anglusassonu
angnula
angnuli
angnulu
angola
anguidia
anguilla
angulari
anguli
angulo
angulu
angunia
angustifolia
anh
ani
anidridi
anima
animal
animale
animalem
animali
animals
animata
animati
animation
animatu
animazione
animazioni
anime
animi
animu
ann
anna
annali
annant
annanta
annantu
annas
annasa
annata
annate
annati
annatu
anne
annega
annessa
annessi
annessione
annessu
annette
anni
annibale
annie
annissioni
anniversariu
annivirsariu
anno
annosi
annosu
annu
annua
annuale
annuali
annui
annuiosu
annulla
annuncia
annunciatu
annunzia
annunziata
annunziatu
annunzio
annunziu
annus
annǝ
ano
anonima
anori
another
ans
ansieta
ant
antartica
antarticu
antartide
antartidi
ante
antenati
antenatu
antenni
anteriore
anteriori
anthericum
anthologie
anthony
anthyllis
anti
antica
anticamente
anticamenti
anticarri
antiche
antichi
antichissima
antichissimi
antichissimu
antichita
anticipa
anticipeghja
anticorsu
anticu
antifrancesa
antigalizianu
antigli
antiglie
antimoniu
antinati
antinatu
antiochia
antipapa
antiquariu
antiriori
antisanti
antiurariu
anto
antoine
antologia
anton
antona
antone
antonetti
antoni
antonia
antonimo
antonimu
antonini
antonino
antoninu
antonio
antoniu
antonu
antra
antri
antropologia
antru
antrupulugia
antucula
antulugia
antunettu
antuninu
antunumasia
antwoord
anu
anumalii
anversa
anzi
anziana
anziane
anziani
anzianu
anziche
ao
aosta
aostu
aout
ap
apa
apache
aparta
apartamenti
aparti
apartu
apartura
aparturi
ape
apem
aperta
aperte
aperti
apertu
apertura
aperture
aphorismos
aphyllum
apiaceae
apiaster
apiazzetta
apicula
apifera
apis
apj
apk
apl
apm
apocrifi
apodidae
apollinaire
apollo
apollodoru
apollonio
apollu
apostoli
apostuli
apostulu
app
appa
apparatu
apparechji
apparechju
apparente
apparenti
apparentia
apparenza
appari
apparia
appariatu
apparintamente
apparintamenti
apparisce
appariscenu
apparisci
appariscia
appariscini
apparizione
apparizioni
apparsa
apparsu
appartamentu
appartena
appartene
appartenendu
appartenente
appartenenu
apparteni
appartenia
appartenini
appartenti
appartinendu
appartinenti
appartinenza
appartinia
appeddu
appellativu
appellu
appena
appendici
appenninicu
appenninu
appesa
appianu
appiattu
appicca
appiccata
appiccicata
appiddativu
appieca
appiega
appiettu
appiicata
appiicati
appiicatu
appiicazione
appiicazioni
appinninu
appinza
appinzapalu
apple
applica
applicata
application
applicationem
applicazione
applicazioni
applichendu
appoghja
appoghju
apportu
apposta
appostu
appressu
apprizziata
apprizziatu
approcci
approcciu
approdi
appronta
apprunta
apprupriati
apprupriatu
apprussimativa
apprussimativamente
apprussimativamenti
apprussimazione
appruvata
appruvatu
appruvazioni
appruvvisiunamentu
appughjendu
appuntamentu
appunti
appuntu
appurtatu
appurtendu
apr
apra
aprada
apradata
apradati
apradatu
apradavani
apradendu
apre
aprendu
aprenu
apres
apri
apria
apricciani
april
aprile
aprili
aprilis
aptitudinem
apuleiu
apulugia
apus
apustolica
apw
aq
aqua
aquarius
aquila
aquilegia
aquino
aquinu
aquisgrana
aquitania
aquivalente
ar
ara
arab
araba
arabbu
arabe
arabi
arabia
arabica
arabicu
arabicus
arabo
arabu
araceae
arachnitiformis
aragna
arago
aragon
aragona
aragone
aragones
aragonesa
aragonese
aragunesa
aragunese
aragunesi
aragunesu
araldica
aramaicu
aran
aranci
arancinu
aranciu
araneola
aranese
arara
arari
aratu
aratusa
arawak
arba
arbaghju
arbi
arbiddara
arbitrariu
arbitru
arbol
arbor
arborea
arborescens
arbori
arbre
arburatura
arburea
arburescente
arburetti
arburettu
arburi
arburu
arbusti
arbustu
arc
arca
arcadia
arcaica
arcaichi
arcaicu
arcati
archaeolacerta
archaeology
archelocu
archeologia
archeologicu
archera
archeri
archeuloghi
archeulogica
archeulogiche
archeulogichi
archeulogicu
archeulogu
archeulugia
archi
archimede
archipelagu
architecture
architettata
architetti
architettonicu
architettu
architettura
architittonica
architittonichi
architittonicu
architittura
archittitura
archiuloghi
archiulogica
archiulogichi
archiulogicu
archiulogu
archiulugia
archive
archivi
archivie
archivii
archivio
archiviu
arci
arcibabbone
arcidiacunu
arcidiocesi
arciduca
arcipelaghi
arcipelagu
arcivescu
arcsin
arctan
arctic
arcu
arcusgi
ardara
arditu
are
area
areale
arechja
arechje
arechji
aree
aregnu
arena
arethusa
arezzo
arezzu
argentina
argentinu
argentu
arghja
arghjentu
arghjetu
arghjintariu
arghjintina
arghjusta
argo
argolica
argon
argone
argonu
argu
argumenti
argumentu
argunauti
argutifolius
aria
ariale
ariali
arianna
arice
arici
aricia
arida
aride
aridi
arie
arii
arimitu
ariostu
arisarum
aristide
aristotele
aristoteli
aristotelis
aristucratica
aristucrazia
aritmetica
aritmetiche
aritmetichi
arizona
arkansas
arles
arm
arma
armamenti
armand
armata
armate
armati
armatu
armatura
arme
armee
armena
armeni
armenia
armeniaca
armenu
armi
armistiziu
armitu
armunia
armuraccia
army
arnaldo
arnese
arnesi
arnestu
arno
arnold
arnoux
arnu
aroi
aromaticu
arpa
arpege
arpitanu
arradicatu
array
arreca
arrega
arregistratu
arremba
arresta
arrestatu
arrestu
arrica
arricata
arricatu
arricchiscia
arricciula
arrighi
arrighjistrata
arrighjistrati
arrighjunata
arrighjunati
arrigoni
arrigonii
arrigu
arrio
arrisica
arrista
arristatu
arrittu
arriva
arrivati
arrivatu
arrivo
arrivolta
arrivu
arrivulta
arrizza
arrori
arru
arruba
arrubatu
arrubecciu
arrussi
arrusti
arruvina
arruvinata
arruzzica
arsenal
art
arte
artefatti
artemidi
artemisia
arthicuru
arthur
arti
artica
artichjoccu
article
articles
articu
articulazione
articulazioni
articuleghja
articuli
articulu
articulus
artificiale
artificiali
artifizi
artifiziale
artifizieri
artifizieru
artifiziu
artigianale
artigianatu
artigiani
artigliaria
artiglieria
artisgianatu
artist
artista
artiste
artisti
artistica
artistiche
artistichi
artisticu
artistu
artlibre
artri
arts
artǝ
arumatica
arumaticu
arumenu
arvensis
arvulu
aryabhata
arzachena
arzilla
arzillosi
as
asamina
asamini
asarciziu
asatta
asattamenti
asattu
asburgu
ascanio
ascedda
ascella
ascension
ascensione
ascesa
asch
aschese
ascinsioni
ascinzioni
ascissa
ascissi
asciutta
asciutti
asciuttu
asciuva
asclepiu
ascoltu
ascosu
ascra
ascu
asculta
asempii
asempiu
asercita
asercitu
aserciziu
asfodelo
asgiata
asgiu
ashkenaziti
asia
asiago
asiatica
asiatichi
asiaticu
asiliu
asimov
asimplari
asinara
asinau
asini
asinu
asociacion
asparagus
aspessu
aspetta
aspetti
aspettu
asphodelus
aspira
aspirazioni
aspissu
aspitta
aspittatu
aspittava
aspittendu
aspittori
aspra
aspressu
asprettu
asprezza
aspri
aspru
assa
assaghji
assaghju
assai
assalta
assalti
assaltu
assam
assamblea
assamese
assamesu
assassin
assassinatu
assassini
assassiniu
assassinu
assediu
assegnato
assemblea
assemblei
assente
assenti
assenza
assettu
assi
assia
assicura
assicurata
assicuratu
assicureghjanu
assicurendu
asside
assidio
assignati
assignatu
assimilatu
assioma
assiomi
assiria
assiru
assista
assiste
assistente
assistenti
assistenza
assisti
assistia
assiumaticu
asso
associati
association
associatu
associazione
associu
assoluta
assolutu
assu
assuan
assuciata
assuciati
assuciativa
assuciatu
assuciazione
assuciazioni
assuliati
assuluta
assulutamenti
assulutu
assuma
assume
assumendu
assumi
assumidda
assumiglia
assumigliani
assumiglianu
assunsi
assunta
assunti
assuntu
assunzione
assunzioni
assurbimentu
assurdu
asta
asteraceae
asterismu
asteroide
asti
astiroidi
astra
astragalus
astratta
astratti
astrattu
astre
astri
astrolugia
astronomi
astronomia
astronumia
astronumu
astru
astrunomi
astrunomica
astrunomichi
astrunomicu
astrunomu
astrunumia
astu
asturia
asturiana
asturiano
asturianu
astuti
astutu
asǝnǝ
asənə
at
ata
atacama
atalanta
atbara
atea
ateisimu
atena
atene
ateni
ateniesi
atgm
athens
atina
atinesa
atinesi
atlanta
atlanti
atlantic
atlantica
atlantichi
atlanticu
atlas
atleti
atletico
atmosfera
atmusfera
atmusferica
atmusferichi
atomi
atomica
atomo
atomu
atomus
atona
atricapilla
atroce
attacca
attaccante
attaccanti
attaccanu
attaccata
attaccati
attaccatu
attacchi
attacco
attaccu
attalla
atteddu
attelli
attempa
attentatu
attention
attentionem
attentu
attenzione
attesa
attesta
attestanu
attestata
atti
attica
atticu
attigni
attimpa
attimu
attindibilita
attinzione
attinzioni
attira
attirani
attiro
attistata
attistati
attistatu
attitude
attitudina
attitudine
attiva
attivamente
attivi
attivita
attivu
attonzu
attore
attori
attornu
attratti
attrattu
attraversa
attraversatu
attraversu
attravirsata
attravirsatu
attravirsendu
attrazzati
attrazzu
attribuisce
attribuisci
attribuiscia
attribuiscini
attribuita
attribuiti
attribuitu
attributi
attribuzione
attribuzioni
attrice
attu
attuale
attuali
attualita
attualmente
attualmenti
attundatu
au
aubulidi
auccia
auccianesi
audde
audi
audio
auditivu
audouinii
audrey
auf
auguriu
august
augusta
auguste
augustea
augusteu
augustin
augusto
augustu
augustus
aujourd
auliva
aumenta
aumentatu
aumentu
auminta
aumintatu
aumintendu
aur
aurea
auriga
aurillac
auropa
auropea
auropeanu
auropei
auropeu
aurora
aurupea
ausiliaria
auspici
aussi
austerlitz
austin
austinu
australe
australi
australia
australiana
australiani
australianu
australis
austria
austriaca
austriachi
austriaci
austriacu
austru
austrunesiana
austu
autanticita
autenticu
autoblinda
autoctoni
autodidattu
automatic
automatica
automaticamente
automobile
autonoma
autonome
autonomia
autonomistu
autonomu
autonuma
autonumia
autore
autori
autorisazioni
autorita
autorizati
autorizatu
autorizazione
autostrada
autres
autu
autubiugrafia
autumatica
autumnus
autunnu
autunoma
autunumia
auturita
auturnu
auvers
aux
av
ava
aval
avale
avali
avambracciu
avanguardia
avantaghji
avantaghju
avanti
avanza
avanzanu
avanzata
avanzate
avanzati
avanzatu
avanzendu
avanzu
avapessa
avara
avaraghju
avarani
avare
avareti
avaria
avariani
avarianu
avaristi
avaru
avatara
ave
avea
avec
avemu
avendu
avenimenti
aventi
aventinu
aventures
aver
avera
averages
averanu
avere
averebbe
averi
averia
averianu
avesse
avessi
avesta
avete
aveti
aveva
avevanu
avi
avia
aviani
avianu
avicellus
avicii
avifauna
avio
avion
avione
avis
avissi
avissini
avisti
aviu
aviv
avogari
avoir
avoriu
avretu
avria
avril
avucatu
avuti
avutu
avvena
avvene
avveni
avvenimenti
avvenimentu
avventu
avventura
avventure
avvenuta
avvera
avverbiu
avversariu
avvezzi
avvicina
avvicinamentu
avvicinendu
avvicino
avvigni
avvilanata
avvinimenti
avvinimentu
avviniti
avvinta
avvintura
avvinuta
avvio
avviratu
avvirsarii
avvirsariu
avvirtimentu
avvisu
avvizza
avvucati
avvucatu
avǝtǝ
aw
award
awards
away
ax
axilla
ay
az
azardu
azerbaighjan
azeri
azeru
azienda
azilonu
azione
azote
azotu
azov
azzana
azzione
azzioni
azzori
azzurra
aʃ
b
b0
b1
b2
b3
b4
b5
b6
b7
b8
b9
ba
baba
babba
babbi
babbone
babbu
babilonia
babiluniana
babiluniani
babilunianu
baccala
baccu
bach
bacia
bacillus
bacini
bacinu
baciocchi
back
bad
bada
badda
baddata
baddi
baddu
baden
badesi
badge
badia
badu
baga
bagdad
baghdad
baghi
baglioni
bagna
bagnani
bagnata
bagnati
bagnatu
bagnava
bagni
bagno
bagnu
bagu
bahamas
bahia
bahr
baia
baii
baikal
bailey
bain
bainville
bainzu
bajkal
bajo
baker
baku
bal
bala
balagna
balanina
balanini
balaninu
balares
balcani
balcanica
balcon
balcona
balcone
balconu
balculu
baleare
baleares
baleari
balearicu
balena
baleni
bali
balia
baliari
balinese
balinesu
balistreri
ball
balla
ballad
ballads
ballare
ballen
balli
ballinu
ballo
ballu
balogna
balsamu
baltichi
balticu
baltimora
bambin
bambini
bambinu
ban
banach
banca
banchetti
banchettu
banchi
banchieri
bancomer
bancu
band
banda
bandana
bande
bandera
bandi
banditi
banditu
bando
bang
bangladesh
bank
banks
bantu
banu
baptiste
bar
bara
barack
baracocca
baracucca
baracuccu
barba
barbada
barbados
barbaghju
barbara
barbareschi
barbari
barbaria
barbarossa
barbaru
barbatus
barberino
barbossa
barbutu
barca
barcaghju
barcellona
barcelona
barche
barchetta
barchi
barcilona
bardi
bardot
baretta
bargello
bargude
bari
baricentru
barili
barisone
bark
barlia
barnes
barngarla
barocca
barocchetto
barocchi
baroccu
barona
barone
baroni
baronia
baronu
baroque
barquq
barra
barras
barrata
barrati
barrea
barred
barretta
barrettali
barretti
barri
barriera
barry
bartoli
bartolo
bartolomeo
bartoloni
bartolu
bartulumeu
bas
basa
basale
basaltichi
basamentu
basata
basate
basati
basatu
basc
baschiccia
basco
bascu
base
basendu
basgia
basgiani
basgiata
basgiu
basi
basichi
basilea
basilica
basilicata
basin
baskiru
basque
bassa
basse
basshunter
bassi
bassiccia
bassista
bassistu
basso
bassorah
bassu
bassupianu
bassurilievu
basta
bastani
bastardu
bastare
bastelica
bastelle
basterga
bastia
bastiacce
bastiacci
bastiaccia
bastiacciu
bastiais
bastianu
bastilicacci
bastilicaccia
bastimenti
bastimentu
bastione
bastioni
bastone
bastonu
bat
batelli
batellu
bateman
bath
batista
batman
batrachi
batraciens
batt
batta
battagli
battaglia
battaglie
battaglione
battaglioni
batte
batteddi
battelli
battellu
battendu
batteria
batterista
battesimu
battesti
battestini
battezimu
batti
battifocu
battini
battista
battisteru
battisti
battizata
battizatu
battre
battu
battuere
battuta
battuti
battutu
baucia
bauhaus
baumann
bava
bavedda
baveddu
bavella
bavellu
baviera
bay
bayer
bayern
bazzicone
bazzoni
bb
bbc
bbva
bc
bd
bdlc
be
beach
beast
beatles
beatu
beau
beaucarnea
beauharnais
beautiful
beauvoir
beaux
beber
bec
becca
beccazza
beccu
beckett
bed
bedda
beddanova
beddi
beddu
beddula
bedriagae
beduina
beduini
bee
beethoven
before
begin
beie
beienu
bel
belasco
belem
belga
belghju
belgica
belgichi
belgicu
belgiu
belgradu
belgude
believe
belize
bell
bella
belladonna
belle
bellerofonte
bellezza
belli
bellicu
bellini
bello
bellu
bellula
belmonte
belo
belt
belvedere
belvideri
bema
ben
bench
benche
benchi
benda
bene
benedetta
benedetti
benedettini
benedetto
benedettu
benefiziu
beneventu
benfica
bengal
bengala
bengalese
bengali
beni
benista
benivulenti
benjamin
benoit
bensi
benvenutu
benvinuta
benz
beozia
ber
berbari
berbaru
berberi
berberis
berberu
bercaghju
berchidda
berenices
beretta
berg
bergamo
bergamu
berger
berilio
berilliu
bering
berisha
berkeley
berlin
berlinu
berlusconi
berna
bernadotte
bernard
bernardini
bernardu
bernhard
bernini
berreta
berretum
berrios
bersaghju
berti
bertocchini
bertoleoni
bertolonii
bertrand
beryllus
berzelius
best
bestia
bestiame
bestie
bestii
beta
betlemme
between
beuzia
bevincu
bf
bg
bh
bharat
bhutan
bhutanese
bhutanesu
bi
bia
biada
biagio
bian
bianca
biancarelli
bianche
bianchi
bianchicciu
bianco
biancofiore
biancone
bianconi
biancu
biasgiu
biatu
bibbia
bibbiuteca
bibbona
bibere
biblicu
biblioteca
bibliotheca
bibliotheque
bibliugrafia
bibliuteca
bicca
biccattu
biccazza
biccazzina
biccazzu
bicchina
bicchisgia
bicicletta
biddezza
biddissima
bido
bidunati
biehn
bielorussia
bielorussu
bien
bientina
biera
bierra
biflorum
bifolia
big
biglietti
bigliettu
bigornu
biguglia
bihar
bii
biiettiva
biitoghja
bilancia
bilanciu
bilia
bill
billboard
billezza
billy
bin
binaria
binariu
bingalesu
binh
bini
binomiu
binu
binumiali
bio
biobio
biodiversita
biografia
biography
biologia
biologica
biolugia
biolugu
bionda
biondu
bios
biota
biotu
bip
bir
bird
birkirkara
birmania
birmanu
birmingham
birretum
bis
biscotti
biscottu
biscutella
bisegna
bisenzio
bisesta
bisesti
bisestile
bisestu
bisettrici
bisgiu
bisinchi
bislingua
bismarck
bisogna
bisogni
bisognu
bisonti
bistiamu
bisughje
bitter
biu
biugrafia
biugrafii
biugrafu
biulogica
biulogicu
biulugia
biunivoca
biuta
bivincu
bizantina
bizantini
bizantinu
bizzicu
bj
bja
bjork
bju
bk
bl
black
blackbeard
blackwell
blaise
blanc
blanca
blanco
blasone
bleeker
bletchley
bleu
blind
blocchi
bloccu
bloch
blog
bloggu
blond
blondy
blood
blu
blucca
bluccata
bluccatu
blue
blues
bm
bmw
bn
bnf
bo
board
bob
bobby
boca
bocca
boccacciu
boccaciu
boccala
bocche
bocchi
boce
boci
bodda
boddi
body
boethii
boeziu
boga
bogota
boi
boia
boiardo
boie
boii
bois
boiss
boiu
boivin
bokmal
boletus
bolivia
bolla
bolle
bologna
bolsena
bolu
bolyai
bom
bomba
bombo
bombus
bombyliflora
bompiani
bon
bona
bonanno
bonanova
bonaparte
bonaventura
bonbon
bonbucconi
bond
bone
bonelli
bonfigliu
bonghjornu
bongiorni
boni
bonifacio
bonifaciu
bonifatu
bonifaziu
bonnet
bonu
bonus
book
books
boom
boraginaceae
borbone
bordeaux
bordi
bordu
boreale
borghese
borghetti
borghi
borgia
borgo
borgu
born
bornholm
borsa
borse
bortigiadas
boru
borutta
bos
bosch
boschi
bosco
boscu
bosforu
bosnia
boss
boston
botanica
botanicu
botanique
botanistu
bother
botta
botte
botti
botticelli
bouchet
boulevard
boulmer
boulogne
bourrienne
bowie
box
boxe
boxes
boxing
boy
boyer
boys
boziu
bp
bq
br
bra
brabant
brabante
brac
bracce
bracci
braccia
braccio
bracciu
bradbury
bradley
brahe
brahma
brahmagupta
brahmasphutasiddhanta
brama
bramante
bramu
bran
branata
branca
branche
branco
brancoli
brando
brandonu
brandu
braninchi
branu
brasil
brasile
brasili
brasilia
brasiliana
brasiliani
brasilianu
brassica
brassicaceae
brattee
braun
bravone
bravu
bre
break
breakfast
brebis
brehm
brendan
brenna
brennu
brescia
brest
bretagna
breton
bretone
brettone
breuer
breve
brevetti
brevettu
brevi
brevu
bri
briaca
briacu
brian
briand
brien
brienne
brigata
bright
brigitte
bril
brillanti
brindisi
brionu
briq
britagna
britannia
britannica
britanniche
britannichi
britannicu
british
britonu
brittagna
brittania
brittannicu
briu
brivettu
brizzi
broad
brocciu
broccu
brocculu
broderick
brokeback
bromu
bronzu
brothers
brown
browning
bru
bruce
bruga
brugu
brumariu
bruna
brune
brunetta
bruni
bruno
brunu
brunza
brunzu
brusgi
brusgia
brusgiata
brusgiatu
brusticu
brutali
brutta
bruttu
bruvettu
bruxelles
bryan
brɛ
bs
bt
bu
bubani
buca
bucca
buccata
buccati
buccelli
buccentone
buccheri
bucchi
bucci
buccone
bucconu
buchja
buchjula
bucia
buciuleddi
bucolica
bucolichi
bucugna
budapest
buddenti
buddisimu
budduso
budoni
buena
buenos
bufala
buffetta
buffonu
bufona
bufonu
bugghju
buggiano
buggiu
bughja
bughji
bughju
bugia
bugiardu
buglossa
bugnu
bula
bulanti
bulbocodium
bulbu
bulgaria
bulgaru
buli
bulica
bulivia
bull
bulla
bullente
bulletin
bulletinu
bullini
bullitinu
bulogna
bultigghjata
bulu
bumbardamenti
bundeslander
bunifazincu
bunifaziu
bunta
buon
buonaparte
buonarroti
buonǝ
bur
burbone
burchini
burger
burghese
burghesia
burgogna
buriali
buriati
buriazia
buridanu
burla
burm
burmese
burns
burocrati
burra
bursa
bursieru
burton
burundi
busca
buscagliolu
buscheto
buschi
buscosa
buscu
bush
busniacu
bussola
bussu
bustanicu
bustu
but
butanica
butanicu
buteo
buti
buttone
buy
buzaiu
bv
bw
bx
by
bz
bɔ
bɛ
c
c0
c1
c2
c3
c4
c5
c6
c7
c8
c9
ca
cabbia
cabinettu
cable
cabo
caca
cacadore
cacadori
cacatore
cacatu
caccavu
caccia
cacciadore
cacciadori
cacciani
cacciata
cacciate
cacciati
cacciatori
cacciatu
caccighja
caccighjeghja
cacciu
cachoeira
cacuminali
cada
cadaveri
cadaveru
caddi
cade
cadente
cadenza
cadi
cadini
cadmu
cadorna
caduta
caduti
cadutu
caelum
caere
caesar
caffe
cage
caghendu
caghjini
caghjuna
caghjunata
caghjunatu
caghjuneghja
caghjunendu
cagione
cagiunata
cagiunatu
cagliari
caglina
cagna
cagnacci
cagnanu
cahiers
caiano
caifassu
cairu
cal
cala
calabra
calabrese
calabresu
calabria
calacuccia
calais
calamaghju
calamaru
calamita
calanca
calanche
calanchi
calangianus
calasanziu
calasima
calata
calatu
calca
calcagna
calcagnu
calcaria
calcarie
calcarii
calcariu
calcatoghju
calchi
calchissia
calci
calcina
calcinaghju
calcio
calciu
calcosa
calcula
calculatrici
calculatu
calculeghja
calculevule
calculevuli
calculi
calculu
calculus
calcutta
calda
caldane
caldareddu
calde
caldi
caldu
cale
caledonia
calenda
calendario
calendariu
calende
calenzana
calepina
cali
calibru
calice
calici
caliciu
calicotome
calicut
calidonia
calidris
califfatu
califfu
california
calindariu
calinzana
calinzanincu
call
calle
called
callimacu
calling
callistu
callu
calma
calmi
calmu
calore
calori
calotta
caltabellotta
caltanissetta
calura
calvariu
calvese
calvi
calvia
calvin
calze
calzi
calzoni
calzu
calzunettu
cam
camara
camaratu
camari
camba
cambia
cambiamenti
cambiamentu
cambiani
cambianu
cambiata
cambiatu
cambiendu
cambio
cambiu
camboghja
cambresis
cambridge
came
cameddu
camellu
camelopardalis
camelus
camera
camerata
camere
cameron
camerun
cami
camii
camillo
camina
camino
caminu
camisgetta
camisgia
camisgimerdosu
cammari
cammeddi
cammeddu
cammina
camminu
camosci
camoscio
camosciu
campa
campagna
campagne
campagni
campagnola
campagnoli
campagnolu
campaign
campana
campanaria
campane
campanella
campanelle
campani
campania
campanile
campanili
campanu
campanula
campatu
campava
campavanu
campendu
campestra
campestris
campi
campidanese
campidanesu
campidanu
campidogliu
campile
campinas
campionati
campionatu
campione
campioni
campionu
campitellu
campiunamentu
campiunati
campiunatu
campo
campoloru
campos
campu
campuli
campulori
campuloru
campumoru
campusantu
camus
camusciara
can
canada
canadese
canadesi
canadesu
canadian
canadiana
canadianu
canal
canale
canali
canapa
canarelli
canarese
canaresu
canari
canarie
canarii
canavaghja
canavese
cancaru
cancella
cancellare
cancellieri
cancer
cancidda
cancilla
cand
canda
candela
candelle
candelu
candia
candidati
candidatu
candidatura
candita
canditi
canditura
candu
cane
canes
cani
canidi
canina
caninu
canis
canna
canne
cannedda
cannella
cannelle
cannes
cannetu
canni
canniccioni
cannigione
cannone
cannoni
cannonu
canoa
canofula
canonica
canonichi
canonici
canonicu
canova
cansa
canta
cantadora
cantadore
cantadori
cantani
cantante
cantanu
cantara
cantare
cantarinu
cantata
cantate
cantatore
cantatrice
cantatu
cantava
canteghji
cantelmu
cantendu
cantera
canterbury
canterina
canti
canticu
cantieri
cantieru
cantina
cantine
canto
cantolao
canton
cantona
cantone
cantoni
cantonu
cantor
cantori
cantu
canyon
canzona
canzone
canzoni
canzuneri
canzuneru
canǝ
cap
capace
capaci
capacita
capaldi
capanna
capanni
capannori
cape
capeddi
capeddu
capella
capelli
capellu
capensis
capi
capibiancu
capicorsu
capicursinu
capiddera
capiddi
capidduta
capiddutu
capifila
capilavoru
capillera
capilluta
capillutu
capilocu
capimachja
capinera
capineru
capisce
capisci
capiscia
capiscu
capital
capitala
capitale
capitali
capitalisimu
capitalistu
capitanata
capitani
capitanu
capiteddu
capitelli
capitellu
capiti
capitu
capituli
capitulu
capizzoni
capo
capoliveri
caporettu
caporossi
cappa
cappatu
cappedda
cappeddi
cappeddu
cappella
cappelle
cappellina
cappellu
cappelluccia
cappiatu
cappona
cappone
capponu
cappuccini
capra
capraia
capre
caprera
capresi
capretti
caprettu
capri
caprifogliu
caprifoliaceae
capriolu
capsula
capu
capua
capula
capunanzi
capunanzu
caput
capuzzina
capǝ
car
cara
caracas
caracutellu
caracutu
caraffa
caragnani
caragutu
caraibi
caraibica
caraibichi
caraibicu
caramusa
carassiti
carattari
carattaristica
carattaristichi
carattaristicu
carattarizata
carattarizati
carattarizatu
carattarizeghja
carattaru
carattere
caratteri
caratteristica
caratteristiche
caratteristichi
caratteristicu
caratterizata
caratterizatu
caratterizeghja
caratteru
carattiristichi
caravaggio
caravana
caravone
carbini
carbone
carbonica
carboniu
carbonu
carbuccia
carbunatu
carca
carche
carchetu
carchi
carcopino
carcu
carcupinu
cardaghja
cardalina
cardi
cardiacu
cardiff
cardinale
cardinali
cardinalita
cardu
carducci
carduelis
cardui
cardunculus
care
carenza
carestia
caretta
carezza
cargese
carghjaca
carghjese
carghjesi
cargo
cari
caribe
carica
carichi
caricu
cariddi
carissimu
caristia
caristie
carita
carl
carla
carlinu
carlo
carlos
carlotti
carlu
carmen
carmide
carmine
carna
carnali
carne
carnem
carni
carnivali
carnot
caro
carol
carolina
caroline
carols
caronte
caronti
carota
carpazi
carpenters
carpi
carpinetu
carracci
carrara
carre
carrea
carrega
carri
carriera
carroll
carrozzu
carru
carrughji
carrughju
carruli
carsu
carta
cartaghjina
cartaghjinesi
cartagine
cartaginese
cartaginesi
carte
cartel
carter
carti
carticasi
cartisianu
cartonu
cartoon
cartula
cartwright
caru
carulina
carulu
cary
casa
casabianca
casacconi
casaccuni
casaglione
casaglionu
casalabriva
casalatticu
casale
casali
casalonga
casalta
casaluna
casalvieri
casamacciuli
casamattonu
casamentu
casanova
casanu
casata
casate
casati
casca
cascani
cascanu
cascata
cascati
cascatu
casce
casci
cascia
casciano
cascina
cascistretta
cascittoni
casciubu
casco
cascu
case
casella
caselle
caserta
cases
casetta
casevechje
casgi
casgiu
cash
casi
casinca
casino
caso
casole
casone
caspe
caspiu
cassandra
cassano
cassini
cassinu
casta
castagna
castagne
castagnete
castagnetu
castagni
castagniccia
castagnina
castagnine
castagninu
castagno
castagnola
castagnu
castaldu
castanea
caste
castedda
casteddu
castel
castella
castellacquese
castellare
castellarese
castellaru
castelle
castelli
castellina
castello
castellu
castellucciu
castellum
castelnaudary
castelnuovo
castelsardo
castelsardu
castheddu
casticu
castiddanesu
castifau
castighi
castiglia
castiglianu
castiglion
castiglione
castiglioni
castigu
castineta
castirla
castita
castle
castra
castro
casu
casuals
cat
catacomba
catacombi
catacumba
catagnu
catala
catalan
catalana
catalani
catalano
catalanu
catalao
catalettu
catalina
catalogna
catalogu
catalogue
catalunia
catalunya
catania
catanzaru
catarazza
catarru
cataru
catarzu
catastaghji
catastaghju
catch
cateau
cateddi
cateddu
catedra
catedral
catedrala
catedrale
catedrali
categoria
categorie
category
categuria
categurie
catello
catellu
catena
catenacciu
catene
cateni
cateri
caterina
caterna
cateti
catetu
cathedrale
catherine
catiguria
catiguriali
catigurii
catinacciu
catolica
catolichi
catolici
catolicu
catta
cattedrale
cattedrali
cattidrale
cattidrali
cattiva
cattivita
cattivu
cattolica
cattolichi
cattolicu
cattura
catturati
catturatu
catturo
caucasica
caucasicu
caucasiu
caucasu
caught
cauria
causa
causalita
causatu
cause
causendu
causi
cav
cava
cavacciole
cavaddaria
cavaddata
cavaddi
cavaddina
cavaddu
cavaglieri
cavaliere
cavalieri
cavalieru
cavalleria
cavalli
cavallina
cavallo
cavallu
cave
cavellu
cavendish
caverna
caverni
caviglioli
cavita
cavru
cavu
cavulu
caz
cazzi
cazzu
cb
cc
cchiu
cci
ccm
ccu
cd
cdot
ce
cebolla
cebu
cebuanu
ceca
cecca
ceccaldi
ceccarelli
ceccu
cecenu
cechi
cechia
cecina
cecu
ceda
cedant
cede
cedi
cedric
cedru
cel
celavu
cele
celebra
celebrata
celebratu
celebrazione
celebrazioni
celebre
celebri
celebru
celeste
celesti
celestinu
celi
celibri
celine
cell
cellula
cellule
celti
celtic
celtica
celtiche
celticu
celu
cen
cena
cennari
cennere
cenni
cennu
censimentu
cent
centauri
centauru
center
centesimi
centimetri
centimi
centinaie
centinare
central
centrale
centrali
centre
centri
centro
centru
centu
centuliri
centuri
centurione
century
cep
cepaea
cephalanthera
ceppa
ceppu
cer
cera
ceramica
ceramiche
ceramichi
cerasus
ceratina
cerbaru
cerbellu
cerberus
cerbicale
cerca
cercani
cercanu
cercis
cercu
cerebellum
ceremonie
cerere
cereri
ceri
cerigo
cerimonia
ceriu
cern
cerro
certa
certaldo
certamente
certamenti
certe
certi
certificatu
certificazione
certu
cerva
cervantes
cervellum
cerveteri
cervi
cervidi
cervione
cervioni
cervu
cervus
ces
cesar
cesare
cesarea
cesari
cesariu
cesaru
cesena
cessa
cessare
cetacei
cetara
cetera
cetona
cette
cetu
ceuta
ceylan
cezanne
cf
cfr
cg
ch
cha
chabot
chamberlain
champagne
champions
championship
chance
chandler
change
channel
chansons
chante
chaplin
charles
charlie
charlotte
chase
chateau
chaux
che
check
chei
chelsea
chemistry
chen
cher
chera
chercher
cherchju
chere
cheri
cheronea
chersi
chertu
chesky
chestnut
cheta
chete
chetta
chetu
cheveux
cheyenne
chi
chiamato
chiamo
chiana
chianni
chianti
chiara
chiaravalle
chiaru
chicago
chidda
chiddi
chiddu
chiesa
chiesina
chieti
children
chile
chilean
chilimangiaru
chillan
chilo
chilometri
chilomitri
chilomitru
chilugrammi
chilugrammu
chimera
chimica
chimiche
chimichi
chimicu
china
chinensis
chinesa
chinese
chinesi
chinesu
chinghi
chiovǝ
chirac
chirendu
chirghisu
chirgu
chiricahua
chironu
chirurgia
chirurgu
chisa
chistu
chitarra
chitarre
chitarrista
chitarristu
chitta
chittatu
chiunqua
chiusa
chiusi
chj
chja
chjaccula
chjachjari
chjama
chjamani
chjamanu
chjamata
chjamate
chjamati
chjamatu
chjamava
chjamavani
chjamavanu
chjamemu
chjamendu
chjami
chjamo
chjamu
chjappa
chjappeddi
chjappona
chjapponu
chjappu
chjara
chjaramente
chjaramenti
chjarasgi
chjarasgiu
chjare
chjarezza
chjari
chjaru
chjassi
chjassu
chjatra
chjavari
chjave
chjavi
chje
chjeccula
chjerchju
chjesa
chjese
chjina
chjinatu
chjoccula
chjodi
chjodu
chjoma
chjosa
chjose
chjosi
chjostru
chjosu
chju
chjuca
chjucareddi
chjuche
chjuchi
chjucu
chjuda
chjude
chjudi
chjudia
chjughi
chjumi
chjurlinu
chjusa
chjuse
chjuseddi
chjusella
chjusi
chjustreddi
chjusu
chjusura
chlorantha
chm
chorus
chris
christe
christi
christian
christina
christmas
christophe
christopher
christus
chu
chuck
church
churchill
chǝ
chə
ci
cia
ciad
ciaffu
cialamella
ciamannaccia
ciambugliu
ciarbeddu
ciarbellu
ciarbicali
ciarri
ciascuna
ciascunu
ciattoni
ciavatti
ciba
cibi
cibo
cibu
cicada
cicala
cicero
cicerone
cichorium
ciciaronu
cicilia
ciciliana
ciciliani
cicilianu
cicli
ciclicu
cicloni
ciclu
ciconia
cicreu
cicuta
cidutu
cie
ciel
cielo
ciendǝ
ciffri
ciffru
cifra
cifri
cigala
cigliu
cignala
cignale
cignali
cignu
cile
cilena
cilenu
cilesta
cilesti
cilestu
cili
cilibra
cilibrata
cilibratu
cilibrazione
cilibrazioni
cilibreghja
cilindrica
cilindricu
cilindru
cima
cime
cimi
cimiterii
cimiteriu
cin
cina
cinarca
cinarchesi
cinarcu
cinca
cincu
cinema
cinematografica
cinematograficu
cinematugraficu
cinese
cinesu
cinnaronu
cinodapistoia
cinquant
cinquanta
cinquantina
cinque
cinquecentu
cinqui
cinquicentu
cinta
cintinariu
cintrale
cintrali
cintrata
cintu
cintunara
cintunari
cintura
cio
cioccia
ciocciu
cioe
cioglu
cioncu
ciosi
ciotta
ciottuli
ciottulu
cipolla
cippu
ciprianu
cipru
circ
circa
circadori
circatu
circhendu
circi
circo
circonda
circondani
circondi
circondu
circucentru
circuiti
circuitu
circulari
circulazione
circulazioni
circuleghja
circulu
circumfarenza
circumfarenzi
circundariu
circundata
circundati
circundatu
circundendu
circunnavigazioni
circus
circuscritta
circuscrizzione
circustanti
circustanza
circustanzi
cirene
ciriaco
cirillu
cirimonia
cirimonii
ciriola
cirneu
cirnu
ciro
cironi
cirrus
cirtamenti
cirtezza
cirtificatu
ciru
cism
cismontanu
cismonte
cismonti
cismontincu
cismuntanu
cismunticu
cismuntincu
cispra
cissa
cissatu
cistarra
cisterna
cistus
cit
cita
citadella
citadinu
citata
citate
citatedda
citatella
citati
citatina
citatini
citatinu
citatu
citazione
citazioni
cites
cities
cito
citra
citroen
citrone
citronu
citrus
citta
cittadinanza
cittadini
cittatinanza
city
ciu
ciucciarella
ciudad
ciudda
ciuintu
ciutat
ciuvasciu
ciuvodda
civetta
civicu
civile
civili
civilisazione
civilisazioni
civilta
civita
civitas
civitella
civodda
cj
ck
cl
clair
claire
clanu
clara
clarendon
clark
clarke
clash
clasico
class
classa
classamentu
classata
classatu
classe
classes
classi
classic
classica
classical
classiche
classichi
classicu
classifica
classificata
classificate
classificati
classificatu
classificazione
classificazioni
classifiche
claude
claudia
claudiano
claudio
claudiu
clausura
clear
clematis
clement
clemente
clementi
clementina
clementine
clemenza
cleru
cleveland
clicca
clienti
clima
climate
climatichi
climaticu
climenti
climi
climu
clinica
clive
cloru
close
cloud
club
clube
clubs
clung
clyde
cm
cn
cnossu
cnrs
co
coach
coast
coautori
cocciula
coccothraustes
coccu
coce
cocia
coda
codda
coddani
coddi
coddu
code
codibianca
codice
codici
codifurciula
codirossu
codizennula
coeur
cofundatore
coggia
coghinas
coghja
coghju
cogli
coglia
coglie
coglii
coglini
cognome
cognomen
cohen
coin
col
cola
colazione
colchidi
cold
coldplay
colin
coll
colla
collanu
collara
collaris
colle
college
collegium
collesalvetti
colli
collins
collu
colmu
colo
coloane
colomba
colombani
colombano
colombia
colombu
colon
coloni
colonia
colonica
colonie
colonna
colonne
colorado
coloradu
colore
colour
colpa
colpi
colpu
colt
coltelli
colti
coltu
coluber
coluche
columba
columbaghju
columbanu
columbia
columbianu
com
coma
comandante
comandu
combats
combatte
combattimenti
combinator
comburente
combustibile
come
comente
comes
comic
comica
comics
comicu
coming
cominium
comino
cominu
comite
comiti
comme
commedia
common
commons
commonwealth
commune
communes
communis
communistu
como
comosum
compagnie
company
comparsa
comperare
compia
compie
compii
compiti
compitu
compiu
complete
completement
completes
compone
comporta
compositore
composta
composto
compra
comprar
compru
compton
comte
comu
comuna
comune
comuni
comunita
con
conca
concacaf
concepcion
concerto
concetti
concettu
condivi
conducta
conferenza
confraternita
confuciu
conghjuntivu
congiuntivo
congruenti
congruenza
congu
conica
conichi
connecticut
connery
connor
conopsea
conquista
conrad
conradiae
consciencia
consecutivi
conservation
conservatoire
consideratu
consiste
consomazione
consommazione
consonante
consula
consulatu
consuli
consulta
consultatu
consulte
consulu
conta
contact
contani
contanu
conte
contemplare
contemplationem
conteni
content
contenuti
contenutu
conti
continuatu
contr
contra
contraforti
contrariforma
contrario
contrattaccu
contro
control
controlu
contru
contruversa
contruversia
contu
conu
convenzione
cook
cool
cooper
cooperculum
coorte
copa
copenaghen
copernicu
copia
copie
copii
coppa
coppia
coppii
coppiu
coppola
coppula
copre
coprenu
copri
coprini
copyleft
copyright
cor
coranu
corazzati
corbi
corbin
corbu
corbusier
corcia
corciu
corda
cordata
corde
cordero
cordi
cordigera
cordillera
cordoba
cordu
core
corea
coreanu
corfu
cori
corintu
coriophora
corn
corne
corneille
cornelio
cornelis
cornelius
cornell
corner
cornicu
cornu
corona
coronel
coronidi
corpi
corpilonghi
corpo
corps
corpu
corpus
corra
corradinu
corradu
corre
correa
correct
correnu
correr
corri
corru
corsa
corscia
corse
corsematin
corsenetinfos
corses
corsi
corsica
corsican
corsicana
corsicanus
corsicis
corsicus
corsipedia
corso
corsu
corta
corte
corti
cortona
cortu
coru
corvus
cos
cosa
cosce
coscia
cose
cosi
cosiddetta
cosiddettu
cossu
costa
costae
costantinu
coste
costi
costia
costituzionale
costituzione
costoli
costu
costumi
cot
cote
coti
cotone
cotta
cotte
cottu
cotule
cotuli
coturnix
count
country
county
couper
cour
court
cova
coyote
cp
cq
cr
cracuvia
cranston
crantz
crateru
crdp
cre
crea
creanu
creata
create
creati
creatore
creatori
creatu
creazione
creda
crede
credenu
credenza
credenze
credere
credi
creditu
credo
credu
cree
creed
crema
cremera
cremlinu
cremona
crena
crenu
creo
creolu
crepa
cresce
crescente
crescenza
crescenzo
crescere
cresci
crescia
crescini
crescita
cresciutu
cresia
cressida
cresta
creste
cresu
creta
cretaceu
cretica
creticum
creticus
creu
cri
cria
criata
criate
criati
criatori
criatu
criatura
criaturi
criaturu
criazione
criazioni
cridendu
cridenza
cridenze
cridia
cridiani
criduta
cridutu
criendu
crimea
criminale
criminali
criminu
crio
cripa
cripta
crisa
crisaore
criscente
criscenti
crisciti
crisciuta
crisciutu
crisi
crispa
cristaddisazioni
cristal
cristallina
cristiana
cristiane
cristianesimu
cristiani
cristianisimu
cristiano
cristianu
cristina
cristinacce
cristobal
cristofani
cristofanu
cristofaru
cristu
crisustomu
criteri
criterii
criteriu
critesi
critica
criticata
criticatu
critiche
critichi
criticu
crizia
cro
croata
croate
croati
croatu
croazia
croce
croci
crocus
croix
crollu
cromu
cronaca
cronache
cronachi
cronica
cronistu
cronu
cross
crosta
cruatu
cruazia
crucem
crucetta
cruci
crucia
cruciali
cruciata
cruciati
crucichja
crucifissioni
crucifissu
cruda
crudeli
crudelta
crudu
cruenta
cruna
crunulugia
crusca
cruscaglia
crustacei
cruz
cruzinu
cs
ct
cu
cualizati
cualizione
cualizioni
cuba
cubi
cubiti
cubitu
cubu
cuccagna
cuccheddu
cucchi
cuccu
cuccuruzzu
cucera
cuchjara
cuchjarone
cuchjaronu
cucin
cucina
cucini
cucinu
cuculus
cucurbita
cudda
cuddata
cuddendu
cuddetta
cuddina
cuddinari
cuddini
cuefficenti
cuefficienti
cuenca
cuentos
cuerenti
cuesioni
cuffia
cuginu
cuglia
cuglione
cugnatu
cugnocolu
cugnoculu
cugnomatu
cugnome
cugnomi
cugnomu
cugnumata
cugnumatu
cui
cuincidi
cul
cula
culebra
culinaria
culioli
culla
cullaburatu
cullaburazione
cullaburazioni
cullana
cullane
cullata
cullatu
cullava
cullega
cullegani
culleghi
culleghju
cullegiu
cullendu
culletta
cullettivita
cullettivu
cullezzione
culliga
culligamenti
culligamentu
culligata
culligati
culligatu
culligava
cullighendu
cullina
cullinare
culline
cullittivamenti
cullittivita
cullizzione
cullizzioni
culloca
cullocani
cullocanu
culluca
cullucata
cullucati
cullucatu
culluco
culmina
culmine
culmineghja
culminighja
culminu
culo
culomba
culombia
culombu
culombula
culoni
culonia
culoniale
culonie
culonii
culonna
culonne
culonni
culore
culori
culostra
culpabilita
culpevuli
culpi
culpisce
culpisci
culpita
culpitu
culte
cultedda
culteddi
cultella
cultelli
cultellu
culti
cultiva
cultivata
cultivate
cultivati
cultivatu
cultivazione
cultivazioni
cultu
cultura
cultural
culturale
culturali
culture
cultures
culturi
culu
culumbia
culuneddu
culunellu
culunese
culunesu
culuniale
culuniali
culunie
culunisazione
culunisazioni
culunizata
culunizatu
culurazione
culurazioni
culurita
culuritu
cum
cuma
cumanda
cumandante
cumandata
cumandatariu
cumandatu
cumandi
cumandu
cumani
cumbatta
cumbatte
cumbattenti
cumbatti
cumbattia
cumbattimenti
cumbattimentu
cumbattuta
cumbattutu
cumbinazione
cumbinazioni
cumbustione
cume
cumedia
cumencia
cumenciani
cumenciu
cumi
cumidiola
cumincetini
cumincia
cuminciatu
cuminciava
cumincio
cumincionu
cuminu
cumitatu
cummanda
cummandante
cummandanti
cummandata
cummandati
cummandatu
cummandu
cummedia
cummedie
cummedii
cummediola
cummenti
cummentu
cummerci
cummerciale
cummerciali
cummerciante
cummercianti
cummerciu
cummimura
cummirciali
cummircianti
cummissariu
cummissione
cummissioni
cummissu
cummu
cummuna
cummunita
cummunu
cummutativa
cumpagna
cumpagni
cumpagnia
cumpagnie
cumpagnu
cumpania
cumparativu
cumparazione
cumpare
cumpari
cumparisce
cumparisci
cumparsa
cumparsi
cumpassu
cumpatibile
cumpatta
cumpetitivita
cumpetizione
cumpetizioni
cumpiendu
cumpii
cumpiimentu
cumpilazioni
cumpitenti
cumpitenzi
cumpitu
cumplementu
cumplessa
cumplesse
cumplessi
cumplessu
cumpletamente
cumpletta
cumplettamente
cumpletti
cumplettu
cumpletu
cumplicata
cumplimenti
cumplimintariu
cumplissita
cumplitamenti
cumplittamente
cumplittamenti
cumplittata
cumplittatu
cumplottu
cumpona
cumpone
cumponenu
cumponi
cumponini
cumporta
cumportamentu
cumportani
cumportanu
cumpositore
cumposta
cumposte
cumposti
cumpostu
cumpra
cumpradore
cumpradori
cumpratore
cumpratu
cumprende
cumprendenu
cumprendeva
cumprendi
cumprendia
cumprendini
cumpresa
cumprese
cumpresi
cumpresu
cumprindendu
cumprindenti
cumprindia
cumprinsioni
cumpuleddu
cumpunente
cumpunenti
cumpunia
cumpunimenti
cumpurta
cumpurtamenti
cumpurtamentu
cumpurtatu
cumpurtendu
cumpusitore
cumpusitori
cumpusizione
cumpusizioni
cumu
cumuli
cumulu
cumulus
cumuna
cumunale
cumunali
cumunamente
cumunamenti
cumune
cumunemente
cumuni
cumunica
cumunicatu
cumunicazione
cumunicazioni
cumunimenti
cumunista
cumunisti
cumunistu
cumunita
cumunque
cumunu
cun
cuncava
cuncede
cuncentra
cuncentrani
cuncepimentu
cuncepita
cuncepitu
cuncerna
cuncernani
cuncernanu
cuncernendu
cuncerti
cuncertu
cuncessa
cuncesse
cuncessi
cuncessu
cuncetti
cuncettu
cuncezzio
cuncezzione
cunchiglia
cunchiglie
cunchjudi
cunciliu
cuncintramenti
cuncintramentu
cuncintrati
cuncintratu
cuncintrazioni
cuncipi
cuncipita
cuncipiti
cuncipitu
cuncirnendu
cuncissioni
cuncizzioni
cuncludi
cunclusi
cunclusioni
cunclusu
cuncorsi
cuncorsu
cuncurrente
cuncurrenza
cundanna
cundannati
cundannatu
cundita
cundizione
cundizioni
cundiziunali
cundotta
cundottu
cunduce
cunduci
cunducia
cundussi
cundutta
cundutti
cunduttieri
cunduttieru
cunduttore
cunduttori
cunduttu
cuneu
cunfarenza
cunfederazione
cunfederazioni
cunferenza
cunferi
cunferma
cunfessa
cunfessione
cunfida
cunfidenza
cunfigurazione
cunfigurazioni
cunfina
cunfinanti
cunfine
cunfinente
cunfini
cunfinu
cunfirma
cunfirmata
cunfirmatu
cunflitti
cunflittu
cunfluenza
cunfluiscini
cunfonde
cunfortu
cunfraterna
cunfraterni
cunfraternita
cunfronti
cunfrontu
cunfrunta
cunfurmazioni
cunfurmita
cunfusa
cunfusi
cunfusione
cunfusioni
cunfusu
cungettura
cunghjuca
cunghjugazioni
cunghjunghje
cunghjunghji
cunghjunta
cunghjuntivu
cunghjuntu
cunghjunzione
cunghjunzioni
cunghjura
cungittura
cungregazione
cungressu
cungruenti
cungruenza
cunigliuli
cunisciutu
cunnessa
cunnessi
cunnessione
cunnessu
cunniscendu
cunniscenza
cunniscenze
cunniscenzi
cunnisciuta
cunnisciute
cunnisciuti
cunnisciutu
cunnissioni
cunnosce
cunnoscenu
cunnosci
cunnoscia
cunnoscu
cunnuscenza
cunnuscete
cunnuscia
cunnusciuta
cunnusciutu
cunquista
cunquistadore
cunquistadori
cunquistata
cunquistati
cunquistatu
cunquisti
cunquisto
cunsacra
cunsacrata
cunsacrati
cunsacratu
cunsacro
cunsapevolezza
cunsecutivi
cunsegna
cunseguente
cunseguenza
cunseguenze
cunsensi
cunsensu
cunsequenza
cunsequenze
cunserva
cunservani
cunservativa
cunservatore
cunservatori
cunservatoriu
cunservatu
cunservazione
cunsidara
cunsidarata
cunsidarati
cunsidaratu
cunsidarava
cunsidarazioni
cunsidareghja
cunsidareghjani
cunsidarendu
cunsidarevuli
cunsidera
cunsideranu
cunsiderata
cunsiderate
cunsiderati
cunsideratu
cunsiderava
cunsideravanu
cunsiderazione
cunsidereghja
cunsidereghjanu
cunsiderendu
cunsiderevule
cunsigli
cunsiglia
cunsigliatu
cunsigliere
cunsiglieri
cunsiglieru
cunsiglii
cunsigliu
cunsignatu
cunsiguenti
cunsiquenza
cunsiquenzi
cunsirva
cunsirvata
cunsirvati
cunsirvatoriu
cunsirvatu
cunsirvazione
cunsirvazioni
cunsirvendu
cunsirvo
cunsiste
cunsistenti
cunsistenza
cunsisti
cunsistia
cunsola
cunsonante
cunsonanti
cunsorte
cunsorti
cunsulatu
cunsulida
cunsulta
cunsultatu
cunsultazione
cunsuma
cunsumata
cunsumatu
cunsumu
cunsunante
cunsunanti
cunta
cuntabilita
cuntata
cuntate
cuntati
cuntatti
cuntattu
cuntatu
cuntava
cuntea
cuntempla
cuntemplazione
cuntempuranea
cuntempuraneu
cuntena
cuntendu
cuntene
cuntenenu
cunteni
cuntenini
cuntenta
cuntenti
cuntentu
cuntenuti
cuntenutu
cuntera
cuntesti
cuntestu
cuntimpla
cuntimplazione
cuntimplazioni
cuntimpuranea
cuntimpuranei
cuntimpuraneu
cuntimpuranii
cuntinendu
cuntinentale
cuntinentali
cuntinente
cuntinenti
cuntingenti
cuntinia
cuntinintali
cuntinua
cuntinuamenti
cuntinuani
cuntinuatu
cuntinuava
cuntinuazioni
cuntinue
cuntinueghja
cuntinueghjani
cuntinueghjanu
cuntinuendu
cuntinui
cuntinuita
cuntinuo
cuntinuta
cuntinuti
cuntinutu
cuntinuu
cuntinuum
cuntistata
cuntistatu
cuntornu
cuntra
cuntradizione
cuntradizioni
cuntraria
cuntrariamente
cuntrariamenti
cuntrarii
cuntrariu
cuntrasta
cuntrasti
cuntrastu
cuntrattu
cuntrazzioni
cuntribui
cuntribuisce
cuntribuiscenu
cuntribuisci
cuntribuiscia
cuntribuitu
cuntributi
cuntributu
cuntribuzioni
cuntrolla
cuntrollu
cuntru
cuntrulla
cuntrullata
cuntrullati
cuntrullava
cuntu
cunuscenza
cunvarsazioni
cunvene
cunveni
cunventu
cunvenzione
cunverghjini
cunverta
cunvessa
cunvesse
cunvezzione
cunvince
cunvincia
cunvinsi
cunvintu
cunvinzione
cunvinzioni
cunvinziunali
cunvirsioni
cunvizzioni
cuore
cup
cuparchjata
cuparchju
cuparchjulu
cuparta
cuparti
cupartu
cupartura
cuperchjata
cuperchju
cuperchjulu
cuperta
cuperte
cuperti
cupertu
cupia
cupidu
cupola
cupoli
cuppa
cuppe
cuppioli
cuppiolu
cuppulata
cuppulate
cuprendu
cupri
cur
cura
curaddu
curaghjosu
curaghju
curagiu
curallu
curanu
curata
curati
curatori
curatorii
curatu
curbara
curbina
curdigliera
curdogliu
curdu
cure
curea
cureanu
curella
curi
curie
curiosita
curitiba
curiusita
curnice
curnutu
curolla
curona
curone
curpettirossa
curpulenza
curpurali
curpurazione
curra
currachji
currachjina
currazzamenti
currazzamentu
currente
currenti
currere
curretta
currette
currettu
curridore
curridori
currieri
currilati
currilazioni
currisponda
currisponde
currispondenti
currispondenu
currispondi
currispondini
currispundente
currispundenti
currispundenza
currispundia
currotta
cursa
cursari
cursu
cursus
curteccia
curteghju
curtichjatu
curtili
curtinese
curtinesi
curtǝ
curu
curunali
curva
curve
cusano
cuscenti
cuscenza
cuscini
cuscinu
cuscione
cuscionu
cuscrittu
cuscuta
cusecanti
cusgera
cusgia
cusi
cusiddette
cusiddettu
cusidditta
cusidditti
cusiddittu
cusinu
cusmeticu
cusmugrafia
cuspirazione
cuspirazioni
cussi
custa
custantamenti
custante
custanti
custantinopuli
custantinu
custanza
custatazione
custatazioni
custatta
custellazione
custera
custi
custiddazioni
custiera
custiere
custieri
custituendu
custituenti
custitui
custituia
custituisce
custituiscenu
custituisci
custituiscia
custituiscini
custituita
custituite
custituiti
custituitu
custituzione
custituzioni
custituziunali
custodii
custodiu
custretta
custretti
custrettu
custringhjendu
custrinsi
custrui
custruisce
custruisci
custruiscia
custruita
custruite
custruiti
custruitu
custruttore
custruttori
custruzzione
custruzzioni
custudiscia
custuditi
custumi
custumu
cutangenti
cutidiana
cutidiani
cutidianu
cutona
cutone
cutonu
cutrura
cuttesce
cuttighjata
cuttulesi
cuttuli
cuupirazioni
cuurdinate
cuurdinati
cuvasina
cuvata
cuvate
cuvier
cuzza
cv
cw
cx
cy
cygnus
cymru
cynara
cynoglossum
cypripedium
cyrnos
cyrus
cytinus
cytisus
cz
cǝ
cə
d
d0
d1
d2
d3
d4
d5
d6
d7
d8
d9
da
dacca
dacci
daci
dacia
dactylis
dactylorhiza
dae
daenerys
dai
dakota
dal
dalai
dalam
dali
dalila
dall
dalla
dallas
dallu
dalmatu
dalmazia
dama
damascu
damasonium
damasti
dame
damianu
damon
dan
danai
danaide
dananzi
danao
danaos
danari
danaru
dance
danes
danesch
danese
danesh
danesi
danesu
dangerous
dani
daniel
daniellu
danilo
danimarca
danni
dannighjata
dannu
danny
dans
dante
danti
danu
danubiu
danza
danzica
dao
dapartuttu
dapertuttu
dapoi
dar
dara
dardaneddi
dardani
dardu
dare
daremu
daretu
dario
dariu
dark
darwin
das
dasycarpa
data
database
datanu
datata
datati
datatu
datazione
datazioni
date
datendu
datevuli
dati
dativu
datu
daucus
dava
davant
davante
davanti
dave
davezies
davia
david
davide
davidi
davies
davis
davy
dawn
day
days
db
dc
dcl
dd
de
dea
deacon
dead
deaf
dean
death
debere
debiti
debitu
deblaize
deborah
debule
debuli
debut
debuttatu
decamerone
decca
dece
decem
december
decembre
deci
decide
decima
decimale
decimali
decina
decine
decisa
decise
decisione
decisiva
decisu
declinazione
declinu
decori
decoru
decretu
decurata
decuratu
decurazione
deda
dedalu
dedekind
dedi
dedica
dedicata
dedicati
dedicatu
dedico
dee
deep
default
deficitu
defini
definire
definisce
definiscia
definiscini
definita
definite
definiti
definitionem
definitiva
definitivamente
definitivu
definito
definitu
definizione
definizioni
defunti
defuntu
degli
degna
degni
degnu
deh
dei
deianira
deja
dejeuner
del
delaugerre
delaware
delegati
delfi
delfini
delfinu
delforge
delft
delhi
delimitatu
delitzsch
dell
della
delle
delli
dellu
delphinium
delta
demandt
demetra
demi
democratic
democratica
demofonti
demucratica
demucrazia
den
denaru
dendrocopos
dendroides
dendu
denis
denise
deniz
densa
dense
densi
densita
densu
dentariu
dente
denti
dentru
denuminazione
denzel
deorum
deportivo
depressione
depuis
deputati
der
derek
deriva
derivanti
derivata
derivate
derivatu
derivaux
derivazione
deriveghja
deriveghjanu
des
desanti
descartes
description
descrive
descrizzione
desequilibriu
desertu
desf
desfa
desideriu
design
designa
designanu
designer
desiree
desset
destinata
destinati
destinatu
destinazione
destino
destinu
destiny
destra
detagli
dete
determina
determinativi
determinatu
deti
detini
detroit
detta
dette
detti
detto
dettu
deum
deus
deutsch
deux
devanagari
deve
devenu
devi
devil
devillers
devini
devinu
devota
devu
dewahl
dezu
df
dg
dh
dharma
di
dia
diagramma
diagrammi
diagunale
diagunali
dialects
dialettale
dialettali
dialetti
dialettica
dialetticu
dialetto
dialettu
dialittali
dialoghi
dialogo
dialogu
diamanti
diamantu
diamitru
diamond
diana
dianthus
diaspora
diauli
diavula
diavule
diavuli
diavulu
diavǝrǝ
diaz
dibattimentu
dibattitu
dibbita
dibulezza
dica
dicada
dicadenza
dicaprio
diccionari
diccionario
dice
dicembre
dicembri
dicendu
dicennii
dicenniu
dicennove
dicennovi
dicenu
dicesimu
dicessette
dicessetti
dich
dichjara
dichjaranu
dichjarata
dichjarati
dichjaratu
dichjarava
dichjarazione
dichjarazioni
dichjaro
dici
dicia
diciannovi
dicianu
diciara
diciassetti
dicida
dicide
dicidi
dicina
dicine
dicini
dicinu
diciottu
dicisa
dicisi
dicisini
dicisioni
dicisiva
dicisivu
dicisu
diciula
dick
dickens
diclinu
dicori
dicoru
dicretu
dicrittazioni
dictionary
dictionnaire
dictons
dicu
dicura
dicurati
dicurativi
dicurazioni
dicǝ
didica
didicata
didicati
didicatu
didicheghja
didico
didier
diduci
diducia
die
dieci
diego
dies
dieta
dieu
dif
difatti
difenda
difende
difendidori
difensive
difensivi
difensivu
difensore
difesa
difese
difesi
difesu
difetti
difettu
diffarente
diffarenti
diffarenza
diffarenzi
diffarinziali
diffarinziazioni
differente
differentemente
differenti
differenza
differenze
differenziale
difficile
difficili
difficiule
difficiuli
difficulta
diffonda
diffonde
diffusa
diffuse
diffusi
diffusione
diffusioni
diffusu
dificil
difini
difinisce
difiniscendu
difinisci
difiniscia
difinita
difiniti
difinitiva
difinitivamenti
difinitivu
difinitu
difinizione
difinizioni
diga
dighi
dighja
dighjunu
digia
digital
digitalis
dignalocu
dignita
dignitat
digradazioni
dii
dila
dilega
dilettanti
diliga
diligata
diligati
diligatu
dilimitata
dilimitatu
dilimiteghja
dill
dilla
dilluviu
dimarchja
dimensione
dimentica
diminsioni
diminuisce
diminuisci
diminuiscini
diminuitu
diminutiva
diminutivu
diminuzioni
dimissioni
dimmi
dimoniu
dimora
dimostra
dimostrani
dimucratica
dimucratichi
dimucraticu
dimucrazia
dimucrazii
dimugrafica
dimugraficu
dimurfisimu
dimustra
dimustrata
dimustrativi
dimustrativu
dimustratu
dimustrazione
dimustrazioni
dimustrendu
dimustro
din
dina
dinamica
dinamiche
dinamichi
dinamo
dinari
dinaru
dinastia
dinastii
diner
dino
dinsita
dintariu
dintorni
dinu
dinuminata
dinuminati
dinuminatore
dinuminatu
dinuminazione
dinuminazioni
dinuncia
dinunciatu
dio
diocese
diocesi
diodoru
diogene
diomede
dion
dione
dionigi
dionisu
dionomachia
dionysos
dipartamentu
dipartimentale
dipartimenti
dipartimentu
dipende
dipendenti
dipendenu
dipendi
dipendia
diphylla
dipindenti
dipindenza
dipindia
dipinti
dipintu
diploma
diplomaticu
diplomatu
diplomu
diplumatica
diplumatichi
diplumaticu
dipo
dipoi
dipona
dipone
dipositi
dipositu
diposta
diposti
dipostu
diprissioni
dipulari
dipusizioni
diputati
diputatu
diqua
dir
dire
direction
diretta
direttamente
diretti
direttiva
direttore
direttu
direzione
direzzione
dirige
dirighja
dirighje
dirighjenti
dirighji
dirighjita
dirighjiti
dirighjitu
diritta
dirittamente
dirittamenti
diritti
dirittiva
dirittori
dirittoriu
dirittu
diriva
dirivaria
dirivata
dirivati
dirivatu
dirivazioni
diriveghja
diriveghjani
dirivighja
dirizzioni
dirradicatu
dis
disabitata
disabitati
disaccordu
disastrosa
disastrosi
disastru
discendente
discendenti
discepuli
discepulu
dischettu
dischi
discindenti
discindenza
disciplina
discipline
disciplini
discoglossus
discorra
discorre
discorsi
discorso
discorsu
discreta
discrete
discretu
discriminazione
discrissi
discritta
discritte
discritti
discrittiva
discrittivi
discrittivu
discrittu
discriva
discrive
discrivendu
discrivi
discrivia
discrivini
discrizzioni
discu
discuglossu
discugraficu
discuntinuita
discurrere
discursu
discussione
discussioni
discuti
disegni
disegnu
diserta
diserti
disertica
disertichi
disertu
disfa
disfatta
disfattu
disgrazia
disgraziata
disguasti
disigna
disignata
disignatu
disignava
disignendu
disimpiegu
disingannu
dismurfisimu
disney
disordine
disordini
dispari
disparu
dispersi
dispersione
dispersioni
dispettu
dispiace
dispiazza
displaystyle
dispona
dispone
disponi
disposizione
disposta
disposte
disposti
disprezza
disprezzu
disprizza
dispunendu
dispunia
dispunibile
dispunibili
dispusitivi
dispusitivu
dispusizione
dispusizioni
dispusizzioni
disputa
disqus
disse
dissegni
dissegnu
disserta
dissertazione
dissi
dissirtazioni
distaccamentu
distaccu
distante
distanti
distanza
distanze
distanzi
distina
distinata
distinati
distinatu
distinazioni
distingua
distingue
distingui
distinguini
distinta
distinte
distinti
distintivi
distintivu
distintu
distinu
distinzione
distinzioni
distrettu
distribuita
distribuiti
distribuitu
distribuzione
distribuzioni
distritti
distrittu
distrughja
distrughje
distrutta
distrutte
distrutti
distruttu
distruzzione
distruzzioni
disturbatu
disugualita
disusu
dita
ditagliu
ditali
ditarmina
ditarminanti
ditarminata
ditarminati
ditarminatu
ditarminazioni
dite
ditermina
ditermineghja
diti
ditinutu
ditonu
ditta
dittagli
dittagliata
dittagliatu
dittagliu
dittatore
ditti
dittonghi
dittongu
dittu
ditu
diu
diufantea
diussidu
divaria
divariu
divarsita
divartimentu
divene
divenne
divenneru
diventa
diventani
diventanu
diventata
diventate
diventati
diventatu
diventendu
diventera
divento
divergente
diversa
diverse
diversi
diversita
diverta
diverte
divertimentu
divertimentum
divi
divia
diviani
divida
divide
dividendu
dividi
dividini
divina
divinazioni
divini
divinita
divinta
divintara
divintarani
divintata
divintati
divintatu
divintendu
divinto
divinu
divirtimentu
divisa
divise
divisi
divisibile
divisibili
division
divisione
divisioni
divisori
divisu
divorziu
divota
divuta
divutu
diwu
dix
dizionario
diziunariu
dizz
dizziunariu
dj
dja
djebel
djimsiti
dju
dk
dl
dla
dlu
dm
dn
dna
dniepr
do
doc
doctor
docu
document
documentazione
documenti
documentu
dodeci
dodicesimu
dodici
dog
doge
doi
doisneau
dolce
dolci
doli
dollari
dolmen
dolorosa
dolu
domenico
domesticus
domine
dominici
dominio
dominique
dominum
domu
don
dona
donald
donato
donatu
donde
dong
doni
donjon
donna
donne
donni
donu
door
doors
dop
dopo
doppia
doppiu
doppu
dopu
dopuguerra
dor
dora
dorcus
dordogna
dori
doria
doricu
doris
dorlan
dorma
dorme
dormi
dormire
dormu
dos
dossu
dota
dotadas
dotti
doug
douglas
douze
dove
dover
dovunque
dovuta
down
downs
dp
dq
dr
draco
dracone
dragon
dragonu
drake
drama
dramaturgu
drami
dramma
drammatica
drammaticu
drappu
draw
dreadlocks
dream
drent
drentu
dresda
dressel
drintu
dritta
dritte
dritti
drittu
drizza
ds
dt
du
duale
duarte
dubbia
dubbiti
dubbitu
dubbiu
dublin
dublinu
duca
ducale
ducatu
duchessa
ducumentata
ducumenti
ducumentu
ducumintata
ducumintazioni
dudecaedri
due
duellu
duero
dugana
dugnunu
dui
duicentu
duie
duii
duke
dulcezza
dulci
dullari
dulore
dulori
dum
dumanda
dumandatu
dumandavanu
dumande
dumandendu
dumandi
dumando
dumandu
dumane
dumani
dumas
dume
dumenica
dumeniche
dumenicu
dumestica
dumestichi
dumfries
dumina
duminanti
duminanza
duminata
duminati
duminatu
duminazione
duminazioni
dumineghja
duminendu
duminica
duminii
duminiu
dumont
dun
dunata
dunatu
dunazione
dunazioni
duncan
dund
dunde
dundee
dundi
dune
duni
dunn
duno
dunqua
dunque
duo
duomo
duplicazioni
dura
duran
durant
durante
duranti
duranu
durata
duratu
durazzo
durazzu
dure
durente
durevule
durezza
durghi
durgu
durham
duri
durmendu
durmi
durmitoriu
duro
dursale
dursali
duru
dust
dut
dutata
dutati
dutatu
duttore
duttori
duttrina
duttrine
duttrini
dutturatu
dutturizia
duv
duva
duve
duvendu
duvera
duvere
duveri
duveria
duvete
duvia
duvianu
duvissi
duvite
duviti
duvitini
duvuta
duvute
duvuti
duvutu
dv
dvd
dw
dwyer
dx
dy
dylan
dz
dzjanu
dzjɔnɛ
dǝ
dɔrɛ
də
dɛ
dɛzɛ
dʒia
dʒu
dʒɛ
e
e0
e1
e2
e3
e4
e5
e6
e7
e8
e9
ea
each
eagle
early
earth
east
eastern
eau
eb
ebbe
ebbenu
ebbi
ebbica
ebbichi
ebbini
ebner
ebraica
ebraicu
ebre
ebrea
ebrei
ebreu
ebride
ebro
ebru
ec
ecc
eccellente
eccellenti
eccellenza
eccessiva
eccessu
eccezione
eccezioni
eccezzione
eccezzioni
eccezziunale
eccezziunali
eccica
eccittuatu
eccituatu
eccizziunalamenti
ecclesia
ecclesiae
ecclesiastica
ecclesiastichi
ecclesiasticu
ecclissa
eccu
echidna
echium
eclittica
eclogue
eco
ecole
economia
economica
economiche
economichi
economicu
economie
economique
economistes
economisti
economistu
econumia
ecu
ecuador
ecuba
eculogicu
eculugia
ecunomica
ecunomiche
ecunomichi
ecunomicu
ecunumetria
ecunumia
ecunumica
ecunumichi
ecusistema
ecusistemi
ed
edd
edda
eddi
eddie
eddu
eden
edes
edgar
edge
edicions
edifica
edificata
edificati
edificatu
edifice
edifici
edificiu
edifizii
edifiziu
edimburgu
edipu
edirne
edison
edisud
editio
edition
editions
editore
editori
editorial
editrice
edizione
edizioni
edmond
edmondu
edmonton
edmund
edouard
eds
edu
eduardo
education
educativa
educativu
educatu
educazione
educazioni
edward
edwards
edwin
ee
eea
eeta
ef
efestu
efesu
effect
effetti
effettiva
effettivi
effettivu
effettu
effettua
efficace
efficaci
efficienti
efficienza
effittiva
effittivamenti
effittua
effittuata
effittuati
effittuatu
effittueghja
efialti
eg
egei
egeiu
egemunia
egeu
eghji
eghjizianu
egida
egittu
egiziana
egiziani
egizianu
egizziana
egizziani
egizzianu
eglise
eglises
egloga
egloghi
ego
eh
ei
eiffel
ein
einaudi
eine
einstein
eintracht
eis
eiu
eius
ej
ek
el
elaburata
elaburati
elaburatu
elaburazioni
elam
elaphus
elata
elatior
elba
elbani
elbu
elea
electa
elefante
elefanti
eleganti
eleghje
eleison
elementari
elementaria
elementarii
elementi
elements
elementu
elena
elenchi
elencu
eletrica
eletta
eletti
elettori
elettra
elettrica
elettriche
elettricu
elettroni
elettronica
elettronichi
elettronicu
elettu
eleusi
eleva
elevata
elevati
elevatu
elevi
elevu
elezzione
elia
elias
elicone
elimina
eliminata
eliminatu
eliminazione
elisa
elisabeth
elisabetta
eliseo
elittricita
eliu
elizabeth
ell
ella
elle
ellenica
ellenichi
ellenistica
elli
ellinistica
ellinisticu
ellisse
ellissi
ellissica
ellittica
ellittichi
ellitticu
ellu
elmi
elmu
els
elsa
else
elsevier
elungazioni
eluquenza
em
emanuele
embargu
emberiza
emblema
emblematica
emblematicu
emblemi
embrace
emera
emergenza
emerghjini
emersi
emerson
emersu
emessu
emette
emetti
emigra
emigrati
emigratu
emigrazione
emil
emile
emilia
emilianu
emilio
emiliu
emily
emirati
emisferu
emissariu
emissione
emissioni
emma
emmanuel
emmanuelli
emmy
emperado
empia
empie
empiutu
empoli
emu
emuzione
emuzioni
emys
en
enciclopedia
enciclupedia
enclos
encore
encyclopedia
encyclopædia
end
endemica
endemichi
endemicu
endemique
endemismu
endymion
enea
eneide
eneidi
energia
energie
england
english
enigma
enimma
enna
ennio
enorma
enorme
enormi
enormu
enough
enrico
enrique
entertainment
entita
entra
entrambi
entrata
entrate
entrati
entratu
entre
entri
entria
entro
entru
entusiasmu
enunciati
enunciatu
enver
eo
eolica
eolie
ep
ephe
epica
epicentru
epiche
epichi
epicu
epidauru
epidemia
epidemie
epifania
epifaniu
epigrafia
epinephelus
epipactis
epipogium
episodii
episodiu
epistemologia
epistula
epitetu
epitome
epoca
eponimu
epops
epoque
epos
eppo
eppoi
eppuri
eppuru
epuca
epupea
eq
equadori
equatore
equatori
equatoriale
equaturiale
equaturiali
equazione
equazioni
equilateri
equilateru
equilibriu
equilibru
equinoziu
equipa
equipaggiu
equipaghju
equivalente
equivalenti
equivalenza
equivali
equus
er
era
eraclitu
eradicazioni
erami
eramu
erani
eranu
erasmu
erasure
erati
eratosteni
erba
erbacea
erbaghjolu
erbalonga
erbalunga
erbe
erculu
ere
erede
eredi
eredita
ereditarie
ereditatu
eredito
eretta
eretti
erettu
ergo
eri
eric
erica
erich
ericius
eridanos
erie
erignac
erik
eris
eritrea
ermafrodita
ermafroditi
ermes
erminiu
ermitage
ernest
ernesto
ernia
ernst
erodi
erodium
erodotu
erodutu
eroe
eroi
erone
eros
errore
ersa
ersinchi
eru
eruditi
erudutea
erula
erusione
erusioni
eruzione
eruzioni
erzegovina
es
esame
esamina
esatta
esattamente
esattezza
esattu
esca
esce
eschig
eschilu
esci
escia
escinzialamenti
escinziali
esciuta
esciuti
esciutu
esclama
esclamazione
esclamazioni
escludendu
esclusa
esclusi
esclusiva
esclusivamente
esclusivamenti
esclusivu
esclusu
escorial
esculapiu
ese
esecutivu
esecuzione
esecuzioni
esempi
esempii
esempiu
esemplari
esemplarii
esercita
eserciti
esercitu
eserciziu
eshnunna
esigenza
esigenzi
esiliati
esiliatu
esiliu
esimplare
esimplari
esimu
esiodu
esioni
esista
esistanu
esiste
esistente
esistenti
esistenu
esistenza
esisti
esistia
esistini
esistonu
esistutu
esiti
esito
esitu
esodiu
esopu
espacu
espana
espanol
espansione
espansioni
espece
esperantu
esperidi
esperienza
esperit
esplicitamenti
esplicitu
espluratori
espone
esponi
esportatore
esposta
esposti
espostu
espressione
espressioni
espressivu
espressu
esprime
esprissione
esprissioni
esprit
espulsi
espulsione
espulsioni
espunenti
espurtazione
espusizioni
essa
essari
essaru
essay
essays
esse
essendu
essential
essenza
essenziale
essenziali
essenzialmente
essere
esseri
esseru
essezza
essinziali
essoche
est
esta
estaru
estasi
estate
este
estelle
estensione
esteri
esterna
esterni
esternu
esteru
estesu
estetica
esteticu
estimi
estimu
estinsione
estinsioni
estinta
estinzione
estinzioni
estiva
estivi
estivu
estone
estonia
estratti
estrattu
estrazione
estrazioni
estrema
estremamente
estremamenti
estremi
estremita
estremu
estru
estu
et
eta
etang
etanolu
etaru
etat
etc
ete
eterna
eternita
eternu
ethnologue
eti
etica
etichetta
etienne
etima
etimologia
etimologicamente
etimulogicu
etimulugia
etimulugii
etiopi
etiopia
etiupia
etna
etnia
etnica
etnichi
etnicu
etnologia
etra
etre
etruria
etrusca
etruscans
etrusche
etruschi
etruscu
etrusculugia
ettari
ettori
ettu
etudes
etymologia
eu
eubea
eucalyptus
euclide
euclidea
euclidei
euclideu
euclidiana
euclidianu
eud
eugene
eugenio
euler
eulero
euphorbia
euproctus
eurasia
euripidi
euristeu
euro
eurodeputatu
europa
europaea
europaeus
europe
europea
european
europeanu
europee
europei
europeu
euros
euru
eurupea
eusebio
ev
eva
evacua
evacuata
evacuazione
evans
evapurazioni
evariste
evenimenti
eventi
eventuale
eventualmente
everest
everybody
everyone
everything
evidente
evidenti
evidenza
evidintamenti
evintuali
evisa
evita
evitendu
evoluatu
evolution
evoluzione
evu
evucheghja
evuluzione
evuluzioni
evvenimenti
evvenimentu
evviva
ew
ex
exaltata
examen
exercitium
exi
exire
expingere
express
expression
expressionem
expressions
extreme
extremement
ey
eye
eyes
ez
f
f0
f1
f2
f3
f4
f5
f6
f7
f8
f9
fa
fabaceae
fabbrica
fabbricati
fabbricatu
faberge
fabiani
fabianu
fabio
fabrica
fabricazione
fabricazioni
fabules
fac
facce
facci
faccia
facciali
facciata
facciate
facciu
face
facebook
facendu
facenu
facere
faceva
faci
facia
faciani
facianu
facies
facii
facil
facile
facili
facilita
facilmente
facini
faciulamenti
faciule
faciuli
faciulita
faculta
facultativu
faddimentu
faenza
fagaceae
fagec
fagus
fai
faiete
faii
fair
faire
fait
faith
faiu
fal
fala
falani
falasorma
falata
falati
falatu
falchetti
falchettu
falcinedda
falcinella
falco
falcone
falcu
falendu
falgu
fall
falla
fallimenti
fallimentu
falling
fallu
falsa
false
falsi
falso
falsu
falzu
fama
fame
fami
famidda
famiddi
famigli
famiglia
famigliali
famigliare
famiglie
famiglii
familiali
familiari
famille
family
famitu
famosa
famose
famosi
famosu
famǝ
fan
fanale
fanali
fanellu
fanga
fangu
fanno
fannu
fantasia
fantastica
fantastico
fantasticu
fantasy
fanteria
fanti
fantiglioli
fantina
fanu
fappani
far
fara
farabi
faraghju
farani
faraona
fare
faremu
farfalla
farfalle
fargo
fari
faria
farina
farnese
faro
faroe
faroese
faroesu
farraghju
farrandu
farrata
farru
fasa
fasce
fasci
fascia
fascinu
fascismu
fascista
fasciu
fase
fasgianu
fasgioli
fasgiolu
fasgiulini
fasi
fassi
fast
fasti
fastidiosu
fastidiu
fat
fatali
fate
father
fati
fatia
fatica
fatigatu
fatta
fatte
fatti
fattoghje
fattore
fattori
fattu
fattura
fatu
fauci
fauna
faunistica
faunisticu
faustina
fausto
faustulus
fava
favale
favalellu
favilla
favor
favore
favori
favula
favule
favuli
favurendu
favurevule
favurevuli
favuri
favuriti
favuritu
favǝ
fayon
fazzioni
fb
fc
fd
fe
feature
febbraiu
febres
februarius
february
fecatu
fece
fecenu
feci
fecia
fecini
fecinu
fede
fedele
federal
federale
federali
federation
federatu
federazione
federazioni
federiccu
federico
federicu
fedi
fedra
fee
fegatu
felce
felge
feli
felice
felicetu
felici
felidae
felini
felis
felix
feltrinelli
femina
femine
femini
feminicci
feminiccia
feminicciu
feminile
feminili
femininu
femme
femminile
femminili
femmǝna
femu
fendu
fenestrelle
fenici
fenicia
feniciu
fenomeni
fenomenu
fenu
fenumeni
fer
fera
feranu
ferdinand
ferdinando
ferdinandu
feremu
ferentes
ferguson
feri
ferire
ferisce
ferisci
feriscia
ferita
ferite
feriti
feritu
ferla
ferma
fermani
fermanu
fermat
fermata
fermi
fermo
fermu
fernand
fernande
fernandez
fernando
feroce
feroci
ferraghjettu
ferraghju
ferrandi
ferrante
ferrara
ferrari
ferrer
ferrera
ferrette
ferri
ferringule
ferro
ferroviaria
ferru
ferruginea
ferrum
fertile
fertili
fertilita
fertu
ferula
ferulaghja
fes
fesch
fessi
festa
feste
festi
festighjeghja
festival
festivale
festivita
festo
fetes
feti
fetta
fette
fetu
feudale
feudali
feudi
feudu
fevraghju
ff
fg
fh
fi
fia
fiacca
fiaccu
fiacculi
fiadone
fiamma
fiamme
fiammetta
fiammi
fiamminga
fiammingu
fianchi
fiancu
fiandra
fiandre
fiara
fiare
fiasca
fiasco
fiascu
fiat
fiatu
fibonacci
fibrenu
fibuli
fica
ficaghja
ficaghjola
ficaniedda
ficarolo
ficateddu
ficatellu
ficca
fiche
fichi
ficu
ficundita
ficus
fida
fiddola
fiddoli
fiddolu
fidele
fideles
fideli
fidelta
fides
fidesz
fidi
fidia
fidighja
field
fiera
fiere
fieri
fieru
fiesole
fifa
fiffi
fiffina
fig
figa
figarella
figari
figatellu
fighja
fighjanu
fighjia
fighjolu
fighjula
fighting
figli
figlia
figliastru
figlie
figlii
figlio
figliola
figliole
figlioli
figliolu
figliu
figlǝ
figura
figurani
figuranu
figurazioni
figure
figuretta
figurette
figuri
fil
fila
filari
file
filetta
fili
filicaghja
filicastrella
filici
filicone
filippi
filippine
filippini
filippinu
filippo
filippu
filisdei
filitosa
filius
fill
fille
film
filmettu
filmi
films
filmu
filocolo
filone
filonu
filosofi
filosofia
filosofica
filosofiche
filosoficu
filosofu
filostrato
filosufi
filosufia
filosufu
filtra
filtru
filu
filusofica
filusofichi
filusoficu
filusufia
fimmina
fin
fina
final
finale
finalemente
finali
finalita
finalmente
finalmenti
finanza
finanzamentu
finanze
finanziaria
finanziarii
finanziariu
finch
finche
finchi
fine
finegan
finendu
finestra
finestre
finezza
fini
finia
finis
finisce
finiscenu
finischi
finisci
finiscia
finisciaria
finiscini
finish
finissi
finita
finite
finiti
finitu
finlandese
finlandesu
finlandia
fino
finochju
finomini
finominu
finta
fintascenzia
fintascienza
fintu
finu
finuchjaghja
finuchjarola
finusellu
finz
fio
fioccu
fior
fiora
fiordi
fiordu
fiore
fiorentina
fiorentino
fiori
fir
fire
firenza
firenze
firisce
firiscia
firma
firmara
firmata
firmati
firmatu
firmava
firmendu
firmeti
firmetini
firmo
first
firtilita
firulaghja
firulinu
fisca
fiscale
fish
fisher
fisica
fisiche
fisichi
fisicu
fissa
fissata
fissati
fissatu
fissi
fissu
fist
fistulosus
fitta
fitzgerald
fiu
fium
fiuma
fiumaltu
fiumara
fiume
fiumi
fiumiceddu
fiumicelli
fiumicellu
fiuminale
fiumorbu
fiumu
fiure
fiurentinu
fiurenza
fiurenzu
fiuri
fiurintinu
fiurisce
fiurisci
fiuriscia
fiurita
fiuriti
fiuritu
fiuritura
five
fizzione
fj
fju
fk
fl
flamengo
flash
flavia
flavio
flaviu
fleurs
flickr
flnc
flora
flore
florem
flori
florida
flotta
flower
floyd
flumendosa
fluoru
flussi
flussu
fluviale
fluviali
fly
flying
fm
fn
fo
foata
foce
focea
focei
fochi
foci
focu
focus
fodda
foddu
foggia
fogli
foglia
foglie
foglii
fogliu
fogu
foi
fois
fola
folcloru
fole
foli
folia
folk
folklore
folla
follett
fomentarius
fond
fonda
fondachi
fondamentale
fondation
fondazione
fondi
fondu
fonetica
fontaine
fontainebleau
fontana
fonte
fonti
fonzi
food
foot
football
for
fora
forbici
forca
force
forche
forchi
forci
forcioli
forcu
ford
foreign
forest
foresta
forever
forget
fori
forli
forma
formale
formani
formanu
forme
formi
formula
formulazione
formule
formuli
fornari
forni
forno
fornu
forrest
forru
forsa
forse
forsi
forster
fort
fortaleza
forte
fortezza
forti
fortino
fortis
foru
forza
forze
forzi
fosfuru
fossa
fosse
fossi
fosso
fossu
foto
fotografia
fotografie
fotografu
fotosintesi
fou
foundation
four
fourr
fox
fozza
fp
fq
fr
fra
frac
fracassu
fragili
framanti
frammenti
frammentu
fran
franca
francais
francaise
france
frances
francesa
francesca
franceschi
franceschini
francesco
francescu
francese
francesi
francesu
franchi
francia
francis
franciscani
franciscanu
francisci
francisco
franciscu
franck
franco
francois
francoise
francombat
francu
francuforte
frank
frankfurt
franklin
franz
fraquinto
frasa
frasca
frase
fraser
frasi
frassetu
frassitani
frassu
frastagliati
frate
frateddi
frateddu
fratellanza
fratelli
fratello
fratellu
frater
fraternitat
fratesca
frati
fraticelli
frattempu
frattura
fraula
fraxinus
frazzione
frazzioni
frazziunaria
frazziunata
frebba
frecce
frecci
freccia
fred
freddo
freddu
frederic
frederick
free
freedom
fregata
french
frenu
frequenta
frequente
frequenti
frequenza
freres
fresca
fresche
freschi
frescu
freta
freti
fretu
freud
fri
fricativa
fricdus
friday
friddu
fried
friedhelm
friedrich
frigia
frigidus
fringilla
fringillidae
friquenta
friquenti
friquenza
friquintati
friquintatu
frisca
frisciana
friscura
frisone
frissoghja
fritelle
fritillaria
fritta
frittata
fritte
frittelle
fritti
frittu
fritu
fritz
friulanu
friuli
frivaghju
frolla
from
fronde
frondosus
front
fronte
fronti
frontman
frosinone
frumentu
frunduti
fruntali
fruntiera
fruntiere
fruntieri
fruntone
frusinone
frusta
frustu
frutta
frutteti
frutti
fruttu
fs
ft
fu
fuata
fubbe
fubbenu
fubbi
fubbini
fucense
fucichja
fuciflora
fucile
fucili
fucinu
fucone
fuconu
fuculaghju
fuculari
fuego
fuga
fughja
fughje
fughjenu
fughji
fughjita
fughjitu
fulgetu
fulighjine
full
fulmine
fulminente
fumaccia
fumana
fumaria
fume
fumi
fumu
fun
funa
funda
fundadore
fundale
fundali
fundamentale
fundamentali
fundamenti
fundamentu
fundamintali
fundata
fundate
fundatore
fundatori
fundatu
fundazione
fundazioni
fundendu
fundillu
funditura
fundo
fundonu
fundu
funebre
funebri
funemi
funerali
funerarii
funerariu
funes
funetica
funetichi
funeticu
funghi
fungu
funi
funtana
funtanaccia
funtane
funtanedda
funtanella
funtani
funu
funzi
funziona
funzionale
funzione
funzioni
funziuna
funziunalita
funziunamentu
funziunarii
funziunariu
funziuneghja
funzu
fur
furana
furca
furcata
furchi
furcina
furciolu
furcone
furesta
fureste
furesti
furestiera
furestieru
furfanti
furia
furiani
furiosu
furlan
furma
furmagliu
furmale
furmali
furmalmente
furmata
furmate
furmati
furmatu
furmatusi
furmava
furmavanu
furmazione
furmazioni
furmendu
furmicula
furmidevuli
furmo
furmula
furmulata
furmuli
furne
furneddu
furni
furnilla
furnisce
furniscendu
furniscenu
furnisci
furniscia
furnita
furnitu
furonu
furtamenti
furtezza
furti
furtificata
furtificati
furtificatu
furtificazione
furtificazioni
furtuna
furtunatu
furunu
furza
furzata
furzati
furzatu
fusca
fuscus
fusi
fusina
fusione
fusioni
fusse
fussenu
fussetti
fussi
fussile
fussili
fussini
fussinu
fuster
fusti
fustu
fusu
futbol
futi
futta
futugrafia
futura
future
futuri
futuro
futuru
futusfera
fuzza
fv
fw
fx
fy
fz
fǝbbrarǝ
g
g0
g1
g2
g3
g4
g5
g6
g7
g8
g9
ga
gabbianu
gabriel
gabriele
gabrielli
gachet
gad
gadd
gaddura
gadduresa
gadduresi
gadduresu
gadu
gaelica
gaelicu
gaels
gaeta
gaetano
gafas
gaffori
gagea
gaghju
gaio
gaiu
gaius
gal
galadriel
galant
galassia
galassie
galassii
galatticu
galaxies
galaxy
galeano
galego
galera
galeria
galilei
galileo
galileu
galipedia
galizia
galiziana
galiziani
galizianu
gall
gallardo
gallaria
gallarii
galleria
gallery
galles
gallese
gallesi
gallesu
galletti
galli
gallia
gallica
gallimard
gallina
gallinaro
gallinaru
galline
gallinula
gallipuli
gallo
gallorumanzu
gallu
gallura
gallurese
gallus
galois
gama
gamba
game
games
gamisans
gamma
ganci
gand
gandhi
gange
ganu
gara
garage
garand
garantiscia
garantita
garasgiu
garbage
garcia
garcilaso
garfield
gargalu
gargano
garibaldi
garland
garona
garrulus
gary
garzanti
garðar
gas
gasi
gasosu
gaspard
gasperini
gaston
gastronomia
gastrunumia
gasu
gat
gativu
gatling
gatta
gatti
gattiva
gattivi
gattivu
gattu
gattubardu
gattucciu
gatun
gaudi
gauguin
gauss
gavdos
gavignanu
gavin
gavino
gavinu
gay
gb
gc
gd
ge
gea
gebbia
gemellata
gemini
gen
genari
genaru
gendarmi
gene
genealogia
genealugia
genera
general
generalamenti
generale
generali
generalisazione
generalisazioni
generalitat
generalizata
generalizati
generalizatu
generalmente
generalmenti
generazione
generazioni
genere
generi
genericamenti
genericu
generosu
generu
genesi
genesis
genetic
genetica
geneticamente
genetichi
genetics
geneva
geneve
genevieve
geni
genista
genitori
geniu
gennaio
gennargentu
gennaria
gennaro
gennaru
genova
gens
gente
gentiana
gentile
gentili
gentilis
genua
genuva
genuvesa
genuvese
genuvesi
geoffrey
geografia
geografica
geologia
geologica
geolugia
geometria
georg
george
georges
georgia
gerais
gerald
gerard
gerbert
geremia
gerente
germain
german
germania
germanica
germaniche
germanichi
germanicu
germano
gerolamo
geronimi
geronimo
gerosa
gerusalemma
geschichte
gestione
gestu
gesu
get
geugrafia
geugrafica
geugraficu
geumetrica
geumetriche
geumetrichi
geumitria
geumitrie
geyser
gf
gg
ggantija
gh
ghana
ghar
ghazal
ghe
gherardesca
gherardi
ghi
ghia
ghibelline
ghil
ghiornu
ghisoni
ghisunaccia
ghitta
ghj
ghja
ghjacara
ghjacari
ghjacarina
ghjacaru
ghjacci
ghjacciai
ghjacciaiu
ghjacciali
ghjacciu
ghjace
ghjaci
ghjaciarii
ghjaciariu
ghjaciazione
ghjaciazioni
ghjacimenti
ghjacimentu
ghjacintu
ghjacomu
ghjacumu
ghjadda
ghjaddi
ghjaddicu
ghjaddina
ghjaddinedda
ghjaddu
ghjagaru
ghjalina
ghjalla
ghjalletta
ghjallicu
ghjallina
ghjallinetta
ghjallu
ghjamba
ghjambi
ghjanda
ghjandaghja
ghjandi
ghjannucciu
ghjappone
ghjapponese
ghjappunese
ghjappunesu
ghjara
ghjardinu
ghjargala
ghjaseppu
ghjasippina
ghjasonu
ghjastema
ghjastima
ghjastimatu
ghjatta
ghjatti
ghjattu
ghjavanese
ghjavanesu
ghje
ghjemba
ghjen
ghjenerale
ghjeneralmente
ghjennaghju
ghjennaiu
ghjente
ghjenti
ghjentra
ghjentri
ghjenuva
ghjenuvese
ghjenuvesi
ghjeorghja
ghjera
ghjerbi
ghjermana
ghjermania
ghjermanica
ghjermanicu
ghjerundiu
ghjerusalemma
ghjerusalemme
ghjesa
ghjesgi
ghjesgia
ghjesia
ghjesu
ghjesuiti
ghjetta
ghjettu
ghjeu
ghjeurghjanu
ghji
ghjibilterra
ghjigantesca
ghjigantescu
ghjiganti
ghjilata
ghjilbertese
ghjilbertesu
ghjilormu
ghjilosi
ghjineparu
ghjinestra
ghjinnaghju
ghjinochju
ghjinuvesa
ghjinuvese
ghjinuvesi
ghjinuvesu
ghjira
ghjirata
ghjiratu
ghjirolmu
ghjiru
ghjirundiu
ghjise
ghjiseppu
ghjitta
ghjittatu
ghjitto
ghjo
ghjobba
ghjoca
ghjocani
ghjocanu
ghjochi
ghjocu
ghjolitti
ghjorghju
ghjorna
ghjorni
ghjornu
ghjova
ghjovana
ghjovane
ghjovani
ghjovanni
ghjovanu
ghjove
ghjovi
ghju
ghjuca
ghjucadore
ghjucadori
ghjucata
ghjucati
ghjucatoghju
ghjucatore
ghjucatori
ghjucatu
ghjucendu
ghjuchendu
ghjucosi
ghjuda
ghjudaica
ghjudaisimu
ghjudea
ghjudei
ghjudeia
ghjudeiu
ghjudeu
ghjudica
ghjudicali
ghjudicamentu
ghjudicati
ghjudicatu
ghjudice
ghjudici
ghjudiziariu
ghjudiziu
ghjuellu
ghjugna
ghjugne
ghjugni
ghjugnu
ghjuiellu
ghjulia
ghjulianu
ghjuliu
ghjumenta
ghjumenti
ghjummeddu
ghjun
ghjuncaghju
ghjunchetu
ghjuncu
ghjunghja
ghjunghje
ghjunghjendu
ghjunghjenu
ghjunghji
ghjunghjini
ghjunghju
ghjungni
ghjungnu
ghjunsani
ghjunse
ghjunsi
ghjunsini
ghjunta
ghjunte
ghjunti
ghjuntu
ghjura
ghjuramentu
ghjuratu
ghjuridica
ghjuridicu
ghjuridizione
ghjurisdizione
ghjuristi
ghjuristu
ghjurnale
ghjurnali
ghjurnalista
ghjurnalistu
ghjurnata
ghjurnate
ghjuru
ghjuseppe
ghjusta
ghjusti
ghjustifica
ghjustificazione
ghjustificazioni
ghjustinianu
ghjustizia
ghjustu
ghjuva
ghjuvan
ghjuvanetta
ghjuvanna
ghjuvannali
ghjuvanni
ghjuvanotti
ghjuvanottu
ghjuvantu
ghjuvatu
ghjuvava
ghjuveddi
ghjuveddu
ghjuvellina
ghjuventu
ghjuvevule
ghjuvevuli
ghost
gi
gia
giacobbi
giacobetti
giacomo
giacomoni
giadda
giaddi
giaddicci
giaddicciu
giaddu
giafferi
gialla
giallastru
gialle
gialli
giallu
giamaica
giamaicanu
gian
giandarmi
gianfranco
gianluca
gianni
giannutri
giansily
giant
giappone
giapponese
giapponu
giappunesa
giappunese
giappunesi
giappunesu
giardini
giardinu
gibbs
gibilterra
gibson
gif
gigante
giganti
gigi
giglio
gigliu
gil
gilbert
gilberto
gilda
gilles
ginerale
ginestra
ginevra
ginirali
ginnastica
gino
gioacchino
giocose
giografia
gioia
gioie
giomitri
giomitria
giomitru
giorgetti
giorgi
giorgia
giorgio
giorni
giorno
giornu
giotto
giovan
giovana
giovani
giovanna
giovanni
giovannoni
giovanu
giovoni
gira
giraffa
giraglia
girandulata
giranu
girare
giravanu
girendu
girl
girolamo
giru
gisserot
gistione
gistioni
gistiscia
gistita
giu
giuconda
giudicelli
giudici
giueddu
giuelli
giuellu
giugnettu
giugnu
giugrafi
giugrafia
giugrafica
giugraficamenti
giugrafichi
giugraficu
giuieddu
giuiellu
giulia
giuliano
giulianu
giulio
giuliu
giulogica
giulogichi
giulugicamenti
giumetrica
giumetrichi
giumitria
giunti
giurdania
giurdanu
giurnale
giurnali
giuseppe
giuseppi
giusta
giustificazione
giustiniani
giustino
giusto
giuvanotte
giuvencu
giuventu
give
giza
gj
gk
gl
glaciali
glandarius
glasgow
glauci
glaucu
gle
glen
gli
glia
glio
glis
gliu
globale
globe
globu
globulariu
glomerata
gloria
glory
glubalamenti
glubale
glubali
glutinosa
glǝ
glə
gm
gmelin
gmelini
gn
gna
gnaccara
gne
gnomone
gnu
go
goa
goal
goat
gobbu
goccia
god
goda
gode
godfery
godi
gods
goes
goethe
goffa
goffredo
goffu
gogh
goias
gol
gola
gold
goldbach
golden
gole
golfi
golfu
goli
golia
golu
gomez
gomma
gondula
gondule
gonduliere
gone
gonzalez
gonzalo
good
goodbye
google
gordon
gordy
gore
goreski
gorgonio
gorizia
gormaz
got
gotica
goticu
gottfried
gould
goupil
gouv
gov
government
gozo
gozu
gp
gq
gr
gra
grace
gracia
graculus
gradi
gradu
gradualamenti
graduate
graecus
grafi
grafia
grafica
grafichi
graficu
graham
gramatica
grammaire
grammar
grammatica
grammaticali
grammaticu
grammi
gran
grana
granaccia
granada
granaghjolu
granata
granatu
granchi
granci
grand
grande
grandezza
grandezzi
grandi
grandissima
grandmaison
granduca
granducatu
graneddi
graneddu
granelli
granellu
granita
granitica
granitichi
graniticu
granitu
granitula
granone
grant
granu
grappa
gras
grass
grassa
grassi
grassu
grati
gratisi
gratta
gratuitu
grave
gravi
gravita
gravitaziunale
gravitaziunali
gravona
gray
graz
grazia
graziani
grazie
grazii
građanski
gre
great
greatest
grec
greca
greche
grechi
greci
grecia
greco
grecu
greek
green
greenwich
greenwood
gregale
gregor
gregorianu
gregoriu
gregorovius
gregory
gregurianu
gren
grendi
grenoble
greta
greuter
greva
grevi
gri
grida
griddi
gridendu
gridi
gridu
grighjoni
grigioni
grigoriu
grillo
grimaldi
grisge
grisgi
grisgia
grisgicciu
grisgiu
grogna
grohl
groncu
groot
gropius
groppa
gros
grossa
grosse
grosseto
grossetu
grossi
grosso
grossu
grotta
grotte
group
groupe
grove
gru
gruenlandesu
gruenlandia
grugnulu
gruinlandia
gruppate
gruppi
gruppu
grus
grussetu
grussezza
gruttelle
gruyter
gs
gt
gu
gua
guadagna
guadagnatu
guadagni
guadalajara
guadelli
guagnese
guagnesi
guagnu
guai
guaina
guaitellajl
guangxi
guanti
guarani
guarda
guardate
guardi
guardia
guardianu
guarguale
guarnigione
guarnigioni
guascone
guasgi
guasi
guatemala
guatru
guayaquil
gudia
guelfa
guelfucci
guell
guer
guerciu
guerra
guerre
guerrero
guerri
guerriera
guerrieri
guerriglia
guetta
guglielmi
guglielmo
guglielmu
gui
guida
guidata
guidati
guidatu
guide
guidi
guido
guidoni
guidu
guilin
guillaume
guillermo
guinea
gujarat
gula
gulf
gump
gun
gunale
gunfia
guniumetrica
guniumetrichi
gunther
gurdianu
gurgona
gurgoni
guss
gustav
gustave
gustavo
gustu
guvarnadori
guverna
guvernadore
guvernatore
guvernatori
guverni
guvernu
guvirna
guvirnati
guvirnatu
guy
guyana
gv
gvs
gw
gx
gy
gyatso
gyi
gymnadenia
gypaetus
gz
h
h0
h1
h2
h3
h4
h5
h6
h7
h8
h9
ha
habere
habitantem
habitat
habitudinem
hades
hafez
hahn
hai
haiti
hajduk
hal
hall
halo
hamilton
hammer
hampshire
han
hand
handicap
hangul
hani
hanja
hanks
hannah
hanno
hannu
hanoi
hans
hansen
hanu
happy
harbour
hard
harmattan
harold
harrelson
harris
harrison
harry
hart
hartert
harvard
harvey
has
hasan
hask
hat
haut
haute
hautes
have
haw
hawaianu
hawaii
hawthorne
haye
hayek
hb
hc
hd
he
head
heart
hearts
heat
heath
heaven
heavy
heavyweight
hebrew
hector
hegel
heidelberg
heilbronn
heine
heinrich
helen
helena
helianthemum
helichrysum
helix
hell
helleborine
helleborus
hello
help
hemingway
hen
hendrik
henri
henry
hepburn
her
herakles
herba
herbert
hercules
here
herge
herman
hermann
hermanni
hermanniae
hermes
hernia
hero
herodotus
heroes
herrera
herschel
hesse
hf
hg
hh
hi
hic
hierophis
high
higher
highlands
hilaire
hilbert
hill
him
himalaia
himalaya
hindi
hindu
hip
hippocampus
hiram
his
hispania
hispaniolensis
histoire
historia
historica
historical
historique
historiques
history
hit
hitler
hits
hj
hk
hl
hm
hms
hn
ho
hoc
hodie
hohenstaufen
hoi
hokkaido
hollande
hollywood
holodomor
holosericea
hombre
home
homo
honduras
honey
hong
hongwu
honolulu
honore
honthorst
hook
hooligan
hooliganisimu
hools
hop
hope
hopes
hopkins
hora
horizonte
horn
horse
hospiton
hot
hotel
houghton
hound
house
how
howard
hp
hq
hr
hs
ht
htm
html
http
https
hu
hubble
hudson
hugh
hughes
hugo
hugot
hui
human
humbert
humberto
hume
hundred
hunley
hunt
huron
hussein
huys
hv
hw
hx
hy
hyacinthus
hybrid
hydra
hyele
hymns
hyoscyamus
hyperwerks
hypocistis
hz
i
i0
i1
i2
i3
i4
i5
i6
i7
i8
i9
ia
ian
iavi
ib
ibar
iberia
iberica
ibericu
ibid
ibn
ibrahim
ibridazione
ibridi
ibridu
ic
icarly
icaru
icarus
iceberg
iceland
ich
ichnusae
ick
icunugrafia
id
ida
idaho
idantichi
idantifica
idantificata
idantificati
idantificatu
idantificazioni
idantita
idda
iddi
iddu
idea
ideale
ideali
ideas
idee
idei
identifica
identificata
identificatu
identificazione
identita
ideulugia
idi
idioma
idiomi
ido
idra
idravvio
idrica
idricu
idrogenu
idrugenu
idrugrafica
idrugraficu
ie
ieddu
ier
ierarchia
ieri
if
ig
ign
ignazio
ignaziu
ignei
ignora
ignorato
ignota
ignurante
ignuranti
ignuranza
ih
ihs
ii
iii
iiiu
iiu
ij
ik
il
ilaria
ile
ilex
iliadi
ill
illa
illeg
illegali
illimitatu
illinois
illirici
illu
illum
illustra
illustrata
illustrazioni
illustree
illustri
ils
im
ima
images
imaghjina
imaghjine
imaghjini
imagina
imaginaria
imaginariu
imaginazione
imaginazioni
imagine
imagineghja
imagini
imbagatu
imbarca
imbarcazione
imbarcazioni
imbarcu
imbardatu
imbernu
imbianca
imbiancata
imbiancatu
imbja
imboccu
imbuccatura
imbuf
imbuffata
imbuffatu
imbulighja
imbuscata
imbutu
imdb
imdina
imera
img
imita
immaculata
immagine
immagini
immediata
immediatamente
immediatamenti
immediatu
immensa
immensu
immigrati
immigrazione
immigrazioni
immissarii
immobili
immurtali
immurtalita
impalidi
impara
imparatu
imparfettu
impatrunisce
impattu
impavimentu
impedisce
impegna
impegnatu
impegnu
imperator
imperatore
imperatori
imperatrice
imperi
imperiale
imperiali
imperiu
imperu
impianti
impiantu
impiastru
impicca
impiccati
impidisce
impidisci
impidiscia
impiditu
impiega
impiegata
impiegate
impiegati
impiegatu
impieghi
impiegu
impigna
impignati
impignatu
impiigata
impiigati
impiigatu
impiratori
impita
impitta
implere
implica
implicati
implicatu
implicheghja
implicheghjani
implichendu
impona
impone
imponi
importa
importante
importanti
importanza
imposi
impositi
impositu
imposta
impostu
imprenditore
impresa
impresariu
imprese
impresi
impressione
impressiunante
impresta
imprighjuna
imprighjunati
imprighjunatu
imprissioni
imprissiunisti
improda
improdanu
improdu
impronta
impruda
imprudata
imprudate
imprudati
imprudatu
imprudava
imprudendu
imprudo
impruneta
impruvisadori
impruvisatore
impruvisu
impullinazione
impullinazioni
impulsu
impunente
impunenti
impurtanta
impurtante
impurtanti
impurtantissima
impurtantu
impurtanza
impurtata
impurtati
impurtatu
impurtazioni
impussibile
impussibili
impussibilita
impussibuli
imputente
imputenti
imu
in
inalza
inalzo
inan
inari
inauguratu
inc
incantesimi
incantu
incapace
incapaci
incarica
incaricata
incaricati
incaricatu
incaricheghja
incarico
incaricu
incarna
incarnata
incarnatu
incastulatu
incatari
incatariscia
incatarri
incausa
incausata
incausati
incausatu
incauseghja
incausendu
incauso
incendii
incendiu
incerta
incertezza
incerti
incertu
inchiesta
inchiesti
inchjarimentu
inchjerchju
inchjina
inchjirchja
inchjostru
inchjuda
inchjude
inchjudendu
inchjudenu
inchjudi
inchjudini
incidenti
incinnarazioni
incinta
incipit
incirca
incisa
incisioni
incita
inclina
inclinare
inclinati
inclinatu
inclinazioni
include
includendu
includenu
includi
includia
inclusa
incluse
inclusi
inclusu
inconnu
inconnue
incontru
incrementu
incrociatori
incrociu
incu
incubacea
incuccia
incudine
incun
incunabuli
incunabulu
incuntrariu
incuntro
incunvinienti
incuragisce
incurpurata
incursione
incursioni
incurunatu
incurunazioni
incurvati
incurvatura
ind
inda
indagine
indarnu
inde
independente
indettu
index
indi
india
indian
indiana
indiane
indiani
indianu
indica
indicata
indicati
indicativu
indicatore
indicatori
indicatu
indicava
indicazione
indicazioni
indice
indicheghja
indicheghjani
indicheghjanu
indichendu
indici
indie
indigena
indigeni
indii
indipendente
indipendenti
indipendentista
indipendentisti
indipendentistu
indipendenza
indipindente
indipindenti
indipindenza
indiretta
indirettu
indirittamenti
indirizzu
indittu
individua
individuale
individuali
individuati
individui
individuu
indizii
indiziu
indo
indoauropeani
indoeuropeane
indoeuropee
indonesia
indossa
indrentu
indu
induarabu
induauropeu
induaurupea
indubbiamenti
induce
induisimu
indunesia
indunesiana
indunesianu
indunisianu
indus
industria
industriale
industriali
industrie
industrii
induttu
induv
induva
induve
induvina
induvinedda
induvinella
induvinu
inesattezza
inesattu
infantaria
infanteria
infantino
infatti
infcor
inferenza
inferenzi
inferinziali
inferiore
inferiori
infermu
inferni
infernu
infiammatore
infilarata
infine
infini
infinita
infinitamente
infinitesimali
infiniti
infinitu
infiriori
infirmaria
infirmita
infiuriscenza
inflazione
influence
influente
influenti
influenza
influenzata
influenzatu
influenze
influenzi
influinza
influinzata
influinzati
influinzatu
influssi
influssu
info
informa
informatica
information
informazione
informazioni
infrarossu
infrastrutture
infrastrutturi
infty
infurcatura
infuria
infuriatu
infurma
infurmati
infurmatica
infurmatichi
infurmatu
infurmazione
infurmazioni
ing
ingaghjati
ingaghjatu
inganna
inganni
ingannu
ingegnere
ingegneria
ingenera
ingenieru
inghilterra
inghjenna
inghjennatu
inghjinaratu
inghjinireghja
inghjinirendu
inghjiru
inghjo
inghjustizia
ingiru
ingles
inglesa
inglese
inglesi
inglesu
ingliterra
ingodda
ingolfr
ingolle
ingrandata
ingrassa
ingrata
ingratu
ingressu
ingridienti
ingrisgi
ingrisgia
ingrossu
inguerni
inguernu
inguinamentu
inguirnali
inizia
inizialamenti
iniziale
iniziali
inizialmente
inizialmenti
iniziata
iniziativa
iniziative
iniziativi
iniziatu
iniziazioni
inizio
iniziu
injertar
inn
innalzani
innamora
innamoru
innamura
innamurata
innamurati
innamuratu
innamuro
innantu
innanzi
innanzu
inni
innisca
inno
innocenzi
innocenzu
innu
innucente
innucenzu
innuvazione
innuvazioni
inoltre
inoltri
inossidabile
inox
inparfettu
inpn
inquantu
inquilanu
inquinamentu
inrap
insalata
insee
insegna
insegnamentu
insegnatu
insegni
inseme
insemi
insemu
inserita
inseritu
insetta
insetti
insettu
insidia
insidiamenti
insidiamentu
insieme
insigna
insignamenti
insignamentu
insignanti
insignatu
insigno
insin
insinamenti
insinaturi
insinu
insirita
insiriti
insita
insitare
insitta
inspirata
inspirati
inspiratu
inspirazione
inspirazioni
instabilita
installazione
instant
institut
institute
instituto
insu
insufficiente
insufficienti
insulare
insulari
insularis
insuppurtevule
insuppurtevuli
insurrezzione
insurrizioni
int
intantu
intardisci
intaressa
intaressi
intaressu
intarghjizzioni
intarissa
intarissanti
intarissatu
intarnaziunale
intarnaziunali
intarplanitariu
intarprita
intarpritata
intarpritatu
intarpritazioni
intarramentu
intarratu
intarruga
intarsizioni
intarsizzioni
intarstiddari
intarvalli
intarvallu
intarveni
intarventi
intarventu
intarvista
intasta
integra
integrale
integralita
integrata
integratu
integrazione
integrita
inteivvistha
intellettuale
intellettuali
intelligence
intelligent
intelligenza
intellighjenza
intenda
intende
intendevi
intendi
intensa
intensi
intensita
intensu
intenti
intentu
intenzione
inter
intera
interazzione
interazzioni
intercontinentale
interdisce
interditu
interdizzione
interessa
interessante
interessatu
interesse
interessi
interessu
interferenza
interghjezzione
interghjizzione
interi
interiamente
interiectionem
interiore
interjectionem
interlingua
interlingue
intermedia
intermediu
interna
international
internationale
internatu
internazionale
internaziunale
internaziunali
interne
internet
interni
internu
interpreta
interpretatu
interpretazione
interpretazioni
interpreti
interpritate
interpritatu
interpritazione
interpriteghja
interrogare
interromania
interruga
intersizzioni
interu
intervene
interventi
interventu
interview
intervista
intesa
intesi
intesu
intieri
intieru
intigra
intigrali
intigrata
intigrazioni
intillettu
intillettuali
intimu
intinzioni
intiriamenti
intirnatu
intitulata
intitulatu
into
intorno
intornu
intraduttu
intransitivu
intraprende
intraprese
intrapresi
intrare
intrata
intrati
intrattene
intratteni
intreccia
intrei
intreia
intreiu
intrendu
intrevu
intri
intria
intriccia
intricciata
intritini
introduction
introdutta
introdutte
introdutti
introduttu
introduzione
introitu
intruducendu
intrudussi
intrudutta
intruduzione
intruduzioni
intruduzzione
intrusioni
intruta
intruti
intrutu
intuttu
inu
inula
inultre
inumazione
inundazione
inundazioni
inutile
inutule
inutuli
inv
invade
invadita
invalidu
invarianti
invasi
invasione
invasioni
invasori
invasu
invece
invechja
inveci
inventa
inventariu
inventata
inventatu
inventore
invenzione
inverness
invernu
inversa
inversi
inversu
invertebrati
investimentu
investitori
investitura
invia
inviata
inviate
inviati
inviatu
invichja
invidia
invintariu
invintatu
invintori
invinzione
invinzioni
invio
invirnali
invirnata
invirtibrati
invita
invitati
invitatu
invito
invitu
inviu
invucatu
invucazioni
inziccaturi
inzuccherata
io
iolcu
ion
ionia
ionicu
ionie
ioniu
iowa
ip
ipa
iperbolica
iperbolicu
iperreali
iphone
ipl
ipogeu
ipotesi
ippolita
ippolitu
ippona
ipprissioni
ippucrena
ippucrene
ipsa
iputenusa
iputesa
iputesi
iputetica
iq
ir
ira
iraccu
irachenu
irae
iran
iraniani
iranianu
iranica
iranu
iricolor
irlanda
irlandese
irlandesu
iron
ironica
irraghjamentu
irraziunale
irraziunali
irregulare
irregulari
irregularis
irrigazioni
irrigulari
irunia
irwin
is
isaac
isabel
isabella
isbagliu
isbn
ischia
ischritta
isci
iscia
isciuta
isciuti
isciutu
iscozia
iscritta
iscrittu
iscrive
iscrivi
isempiu
isernia
isie
iska
isla
islam
islamica
islamichi
islamicu
islamu
island
islanda
islandesa
islandese
islandesi
islandesu
islands
isles
iso
isocrate
isola
isolacciu
isole
isonzo
isonzu
ispagna
ispanica
ispettore
ispira
ispirata
ispirati
ispiratu
ispirazione
ispirazioni
ispiro
israel
israele
israeli
israelianu
israiliani
israilianu
iss
issa
isse
issi
issu
issue
issǝ
ist
ista
istallazione
istanbul
istanti
istanza
istate
istati
istatina
istatini
iste
istitui
istituita
istituiti
istituitu
istituto
istitutu
istituzionale
istituzione
istituzioni
istituziunali
istmu
istoria
istrada
istria
istriutu
istrorumenu
istu
isula
isulacciu
isulamentu
isulana
isulane
isulani
isulanu
isulata
isulate
isulati
isulatu
isule
isuledda
isuletta
isuli
isulotti
isulottu
isumorfu
isumurfismu
isusceli
it
ita
itaca
italia
italiae
italian
italiana
italiane
italiani
italiano
italianu
italica
italichi
italicu
italicum
italu
item
iteru
itinerarii
its
iu
iucatorem
iucn
iugoslava
iugoslavia
iulius
iunizati
iv
iva
ivan
ivanu
iviu
ivo
ivrea
ivu
iw
ix
ixu
iy
iz
j
j0
j1
j2
j3
j4
j5
j6
j7
j8
j9
ja
jabr
jack
jackie
jackson
jacob
jacopo
jacopone
jacques
jae
jaime
jake
jambe
james
jamma
jan
jane
janeiro
janine
january
jardin
jared
jason
java
jawaharlal
jaza
jazz
jb
jc
jd
je
jean
jeanmonod
jeff
jefferson
jeffrey
jenkins
jennifer
jennings
jeremy
jerome
jerry
jersey
jessica
jest
jesus
jet
jeune
jevons
jewish
jf
jg
jh
ji
jicarilla
jim
jiroux
jj
jk
jkd
jl
jm
jn
jo
joan
jocus
joe
joel
joey
johann
johanna
johannes
john
johnny
johnson
jon
jonathan
jones
jonny
jordan
jorge
jornu
jornum
jose
joseba
josep
joseph
josh
joudi
joule
jour
jourdain
journal
jovi
jovis
jozef
jp
jpg
jq
jr
js
jt
ju
juan
juanes
jucatorem
judex
judo
judy
juifs
jules
julian
julie
julien
julio
julius
july
juncus
june
jung
jungere
jungle
juno
juornǝ
jurnata
just
juventus
jv
jw
jx
jy
jya
jz
k
k0
k1
k2
k3
k4
k5
k6
k7
k8
k9
ka
kabocha
kadzior
kaiser
kal
kala
kalaallisut
kalliste
kana
kane
kansas
kant
kara
karakorum
karate
karen
karl
karlsruhe
kashmir
kasuga
kata
kate
katu
kaup
kazaku
kazimierz
kb
kc
kd
ke
keane
kebab
keep
keith
kelly
kemal
ken
kennedy
kenneth
kent
kentucky
kenya
kepler
kepleru
kevin
keynes
keynesianisimu
keys
kf
kg
kh
khaldoun
khaldun
khan
khartoum
khartum
khatib
khuong
khwarizmi
ki
kibo
kick
kickboxing
kid
kiel
kiev
kilimanjaro
kill
kilo
kilomitri
kilomitru
kim
kind
king
kingdom
kinshasa
kiribati
kiss
kit
kj
kk
kl
klaus
klein
klincksieck
km
kn
knight
know
ko
koch
kolkata
kolonka
komi
konarski
kong
konghou
konghu
konrad
kore
korsu
kosovo
kp
kq
kr
kratt
kreutz
kri
krimi
kru
kruta
ks
kt
ku
kuiter
kulu
kunkele
kuratowski
kuri
kurt
kv
kw
kx
ky
kyoto
kyrie
kz
kıs
kɔ
kɛ
l
l0
l1
l2
l3
l4
l5
l6
l7
l8
l9
la
laa
lab
labbri
labbru
labbrutu
labeddu
labellu
laberintu
labirintu
laboratory
laburatoriu
labyrinthus
lac
laca
lacatu
lacepede
lacerta
lacon
lacrima
lactea
lacuna
lacus
lacustri
lada
ladin
ladino
ladinu
ladislau
lado
ladone
ladru
ladu
lady
laelia
laerzio
laerziu
laga
laghi
lagna
lagni
lagnu
lago
lagu
laguna
lagurus
laicu
lake
lalalla
lalalleru
lalleru
lam
lama
lamaghja
lamaghjonu
lamb
lambata
lambert
lamberto
lame
lamenti
lamentu
lametti
lami
lamiaceae
lampa
lampani
lampanti
lampata
lampati
lampatu
lampedusa
lampi
lampo
lampuga
lan
lana
lance
lanci
lancia
lanciani
lancianu
lanciata
lanciati
lanciatu
lancio
lanciu
land
landi
landsgemeinde
lane
lanfranchi
lang
language
languages
langue
lanius
lanka
lannister
lanterna
lanterni
lanu
lanughjina
lanza
laomedonti
laos
lap
lapa
laparedda
laparola
lapiti
lapon
lappone
lapponica
lar
lardu
larenzu
laretu
larga
largamente
largamenti
large
larghe
larghezza
larghi
largu
lari
larici
laricio
lariciu
larione
lariu
larry
larsa
larus
larɛ
las
lascendu
lascia
lasciacorra
lasciacorre
lasciani
lascianu
lasciata
lasciate
lasciati
lasciatu
lasciava
lascio
lasciu
lassa
last
lastra
lat
lata
laterale
laterali
lateranu
laterza
lati
latifolia
latin
latina
latine
latini
latinisazioni
latino
latinu
latinus
latirali
latitudina
latitudine
latitudini
latri
latrodectus
latru
lattaghja
lattaghjolu
lattaredda
latte
lattea
latti
lattonu
latu
lau
laudes
laudi
laugh
laura
laurea
laurent
lausanne
lava
lavanda
lavande
lavani
lavanu
lavare
lavasina
lavatoghju
lavatu
laveddu
lavellu
lavezzi
lavezzu
lavi
lavighju
lavisu
lavora
lavoratori
lavori
lavoru
lavu
lavurazioni
law
lawrence
laxiflora
layun
lazarettu
lazaru
laziale
laziali
lazio
laziu
lb
lc
ld
le
lead
leader
league
leandri
leary
lebbii
lebbiu
lebel
lebesgue
leca
lecca
lecce
lecci
leccia
leccinum
lechi
leclerc
lectionem
lectura
led
lee
lefebvre
left
leftrightarrow
leg
lega
legale
legatu
legazia
lege
legend
legenda
legendaria
legendariu
legende
legere
legge
leghe
leghja
leghje
leghji
legione
legislativu
legislazione
legna
legnu
lei
leia
leibniz
leida
leigh
leipzig
lelle
lelletta
lembu
lemma
lemmi
lemno
len
lena
lenga
lengua
lennon
lenta
lentini
lentiscus
lentu
lenza
lenze
lenzolu
leo
leon
leonard
leonardo
leonardu
leone
leonelli
leonello
leones
leonese
leonetti
leoni
leonida
leonu
leopoldville
leopoli
lepru
lepus
leq
lerna
les
lessicali
lessicu
lestrigoni
lestrigune
lestru
lestu
let
lethwei
letia
letizia
leto
letta
lettara
lettari
lettera
letteraria
letterariu
letteratura
lettere
letteron
letti
letto
lettone
lettonia
lettore
lettu
lettura
leunardu
lev
leva
levante
levi
levine
levra
levrault
lewis
lexical
lezu
lezzione
lf
lg
lh
li
lia
liami
liamone
liamu
liani
liata
liati
liatu
libanese
libanu
libara
libarazioni
libarendu
libari
libarta
libaru
libecciu
liber
libera
liberal
liberale
liberali
liberalisimu
liberamente
liberata
liberatore
liberatu
liberazione
liberi
liberta
libertadores
liberte
liberty
liberu
libia
libicu
libor
libra
librairie
libraria
library
libre
librettu
libri
libro
libru
licaoni
licci
liceiu
licence
license
licenza
licenzia
licenzie
liceo
liceu
licore
licori
licuru
lidi
lidia
lidii
lie
liechtenstein
liegi
lien
lieu
lieutenant
life
liga
ligame
ligamentu
ligami
ligata
ligate
ligati
ligatu
ligenda
ligende
liggi
lighjenda
lighjendi
lighjeri
lighjete
lighjindaria
lighjindariu
lighjislatori
lighjislazioni
lighjittimita
lighjittimu
light
lights
ligna
lignamu
lignitu
ligue
ligumi
ligura
ligure
liguri
liguria
liguru
like
lila
liliaceae
lilium
lim
lima
limba
limbara
limburghese
limburghesu
limburgu
limea
limenitis
limita
limitata
limitati
limitatu
limitazioni
limite
limiteghja
limiti
limitrophe
limitrophes
limitu
limodorum
limon
limone
limoniu
limonium
limonu
limosinu
limpia
lin
lina
lince
linci
lincoln
linda
lindo
lindumane
lindumani
line
linea
lineare
linee
linga
lingua
linguadocianu
linguaghji
linguaghju
linguagiu
lingue
lingui
linguista
linguisti
linguistic
linguistica
linguistiche
linguistichi
linguistics
linguisticu
linguistu
linguizzetta
linia
liniari
linie
linii
link
linnaeus
linne
linneu
linticulari
linu
linux
linz
lio
lioli
lion
liona
lione
lionel
lioni
lionu
lip
lipan
lipari
liparis
lipsia
liquida
liquidu
liquitu
lira
lire
liri
lirica
liriopi
lis
lisa
lisandria
lisandru
lisbona
liscia
lisciu
lisciva
lissicali
list
lista
listam
liste
listening
listera
listessa
listesse
listessi
listessu
listincu
listinu
lisula
lit
literaria
literariu
literatura
liti
litica
litovsk
litri
littarati
littaratura
litteralement
litteralmente
litteraria
litterarie
litterarii
litterariu
litteratura
litterature
littica
littiralamenti
littiratura
little
littori
littu
littura
litturale
litturali
lituania
lituanu
liturale
liturali
liturgica
liturgicu
litusfera
liu
liunardu
liv
liva
livante
livanti
live
liveddi
liveddu
livelli
livellu
livente
liverpool
livesi
livia
lividus
liviu
livorno
livornu
livre
livrea
liza
lizioni
lizzione
lizzioni
lj
ljanu
lk
ll
lla
lli
lloyd
llu
llywelyn
lm
ln
lo
lobachevsky
lobi
loca
locale
locazione
loch
lochi
locke
loco
locu
locudoru
locusantu
locutori
locuzioni
loda
lodi
lodovico
lodu
loeselii
lofoten
log
loghi
loghja
loghje
logica
logichi
logicu
logo
logos
logotipu
logu
logudorese
logudoresu
logudoru
logusantu
loira
loiri
loisel
lojac
lokali
lombarda
lombardi
lombardia
lombardo
lombardu
lomellini
london
londra
long
longa
longhe
longhi
longicornu
longifolia
longitudina
longitudinale
longu
lonzu
look
lopez
lopigna
lord
lordi
lorena
lorenz
lorenzana
lorenzi
lorenzo
lorenzu
loretu
loriani
loro
loru
los
losange
lost
lota
lotta
lotte
lotti
lotu
lou
louis
louise
louisiana
louvre
love
lover
loves
lovia
low
lowe
lowlands
loyola
lozzi
lp
lq
lr
ls
lt
ltd
lu
lubbu
lublin
luc
luca
lucale
lucali
lucalisazione
lucalisazioni
lucalita
lucalizata
lucalmente
lucanu
lucanus
lucca
lucchesi
lucchesu
lucchini
lucciana
lucciardi
luccicanti
luce
luceat
lucere
lucerna
lucetta
luci
lucia
luciana
luciani
luciano
lucianu
lucicanti
lucie
lucien
lucio
luciu
lucius
lucrezia
lucu
lucutori
luda
ludatu
luddu
ludendorff
ludovico
ludovicu
ludwig
lugar
lugiziali
lugliu
lugu
luguduresu
lui
luiggi
luigi
luis
luisa
luisiana
lumaca
lumbarda
lumbardi
lumbardia
lumbardu
lume
lumen
lumi
luminosa
luminosi
luminosu
luminusita
lumiu
lumu
luna
lunae
lune
lunga
lungarina
lungarine
lungarini
lungarinu
lunghezza
lunghezze
lunghezzi
lunghi
lungitudina
lungoni
lungu
lungura
luni
luntana
luntananza
luntani
luntanu
luogosanto
luonghǝ
lupa
lupercale
lupi
lupini
lupinu
lupo
lupu
lupus
lupǝ
luras
lurenzu
luri
lusazia
lusazianu
lusitanu
lussemburghese
lussemburghesu
lussemburgu
lussu
lutea
luteus
lutta
lux
luzzipeu
lv
lviv
lw
lwow
lx
ly
lydnevi
lynx
lyra
lz
lǝ
lə
lɛ
lɛzɛ
m
m0
m1
m2
m3
m4
m5
m6
m7
m8
m9
ma
maastricht
mac
maca
maccaone
maccarona
macchi
macchie
macchina
macchini
macdonald
maceddu
macedone
macedonia
machine
machja
machjavelli
machje
machji
macidonia
macina
macinaghju
mackenzie
macmillan
macrolepiota
mactan
maculata
madagascar
madalena
madama
madame
madamicella
maddalena
maddie
made
madeira
madera
madia
madison
madona
madonna
madre
madrid
madridi
madrigali
madunnetta
madunuccia
maestosa
maestra
maestracci
maestre
maestri
maestria
maestro
maestru
maffia
maga
magazeni
magazini
magazinu
magellanu
maggio
maggior
maggiore
maggiori
maghjali
maghjina
maghjine
maghjior
maghjiore
maghjiu
maghjonu
maghjori
maghju
maghjuramenti
maghreb
magi
magia
magic
magica
magichi
magicu
magione
magioranza
magiore
magiori
magistrati
magistratu
magistratura
magiurita
magma
magmatica
magmatichi
magna
magnamentu
magnesiu
magnetica
magnetichi
magneticu
magnetosfera
magnifica
magnifichi
magnificu
magnitude
magnitudina
magnitudine
magnu
magnum
magra
magranchjinu
magrebu
magri
magru
magu
magumettu
magumetu
magunella
magydaris
mahatma
mai
mail
main
mainarde
maine
maio
maiore
maiori
maire
mais
maison
maistrali
maiuranza
maiuscula
majalis
majella
major
majǝ
make
mal
mala
malacca
malacedda
malaceddu
maladetta
maladettu
maladi
maladizioni
maladizzioni
malaparte
malaria
malaspina
malati
malatia
malatie
malatii
malatu
malcolm
male
malese
malesia
malesu
malgradu
mali
malidizioni
maligni
malincunia
malizia
mallorca
malma
malmignattu
malta
maltesa
maltese
maltesi
maltesu
malthus
malti
maltin
maltratta
maltrattamentu
malu
malva
malvaghju
malvu
malǝ
mama
mamilianu
mamma
mammaso
mammazia
mamme
mammi
mammiferi
mammiferu
mammona
man
manata
manaus
manc
manca
mancani
mancante
mancanti
mancanu
mancanza
mancata
mancatu
mancava
mancese
mancesu
mancha
manchester
mancia
mancini
mancinu
manciu
manco
mancu
manda
mandaiani
mandarina
mandata
mandati
mandatu
mandavanu
mande
mandel
mandicare
mandili
mando
mandria
mandriale
mandrie
mandrii
manducare
mandulinu
mane
maneghja
manen
manera
manere
maneri
manetta
manfredi
manga
manganesi
manganu
manghja
manghjamentu
manghjanu
manghjarecciu
manghjatu
manghjava
manghjo
manghǝ
mangia
mangiare
mangna
mangnamentu
mangnani
mangnatu
mangnonu
mani
manica
manicu
manifestanti
manifestazione
manifestu
manifistazioni
maniglia
manila
manipula
manipulazioni
manna
mannese
mannesu
mannheim
mannu
mano
manoach
manovra
manovre
mansi
mansu
manteddu
mantellu
mantena
mantene
mantenendu
manteni
mantenini
mantenuta
mantenutu
mantinendu
mantinimentu
mantinuta
mantinuti
mantova
mantu
manu
manuale
manuali
manuel
manufatti
manus
manuscritti
manuscrittu
manǝ
mao
maona
maori
mappa
mapsto
mar
marana
maratona
maratu
maravigli
maraviglia
maraviglie
marbeuf
marc
marca
marcanti
marcata
marcate
marcati
marcatu
marcedda
marceddu
marcel
marcella
marcellesi
marcelli
marcello
marcellu
marcelo
march
marche
marchendu
marchese
marchesi
marchesu
marchetti
marchi
marchighjanu
marchini
marchja
marchjadori
marchjava
marcia
marciana
marco
marconi
marcu
marculella
marcuri
marduk
mare
marea
maredda
mareghju
marei
marena
margarita
marge
margherita
marghjini
marginale
margine
margona
margonu
marguerite
mari
maria
mariana
mariani
marianna
marianni
mariano
marianu
marie
marietta
marignana
marin
marina
marinacciu
marinare
marinari
marine
marini
marino
marinu
mario
mariola
maris
marisciale
marisciali
mariscialu
marita
maritarraniu
maritata
maritatu
mariteddu
mariti
maritima
maritimum
maritimus
marito
marittima
marittimi
marittimo
marittimu
maritu
mariu
marius
marjorie
mark
marketing
marley
marlon
marmara
marmaru
marmeru
marna
maroccu
marodda
marolla
marquez
marrone
marronu
marry
mars
marseglia
marseille
marshall
marshallese
marshallesu
marsi
marsica
marsicanu
marsiglia
marta
marte
marteddu
martellu
marti
martin
martini
martinica
martino
martinu
martire
martiriu
martiru
martis
marx
mary
maryland
marziale
marziali
marzo
marzu
marzulina
marzulinu
marzǝ
mas
mascara
mascaratu
mascardi
mascari
mascarone
maschera
mascherinu
maschile
maschili
maschio
maschiu
maschji
maschju
masci
mascione
masciu
mascula
masculinu
masimu
mass
massa
massachusetts
massacru
masse
massesili
massi
massiani
massicci
massiccia
massicciu
massili
massilu
massima
massimamente
massime
massimi
massimu
massinissa
master
masters
mastuncellu
matalena
match
matematica
matematiche
matematichi
matematicu
mater
materia
materiale
materiali
materie
materna
materni
maternu
math
mathbb
mathbf
mathematica
mathematics
mathematique
mathieu
mathrm
matin
matina
matinati
matiriali
matisse
matra
matrali
matre
matri
matrice
matrici
matrimonii
matrimoniu
matt
matta
matte
mattea
mattei
matteiu
matteo
matteu
matthew
mattia
matticci
matticciu
mattina
mattona
matura
maturazione
maturi
maturita
maturu
mau
maumettu
maurice
mauritania
mauritanica
mauritius
mauriziu
mauro
mauru
mausoleu
mausuleu
max
maxia
maxim
maxima
maximus
maxwell
may
maya
maynard
mayor
mazel
mazza
mazzarino
mazzeri
mazzerisimu
mazzerisme
mazzola
mazzone
mazzulina
mazzulu
mb
mba
mbara
mc
mccartney
mcdonald
mcmahon
md
mdina
me
mea
measure
mecca
meccanica
meccaniche
meccanicu
meceniu
med
meda
meddu
medea
medi
media
mediateca
medica
medichi
medici
medicina
medicine
medico
medicu
medie
medieval
medievale
medievali
medievu
medii
mediivali
medina
medita
meditarrania
meditarranii
meditarraniu
mediterranea
mediterranean
mediterranee
mediterrania
mediterranie
mediterranii
mediterraniu
meditterraniu
mediu
mediuevu
medu
medulla
medusa
mega
megalithic
megaliti
megalitichi
megara
meghju
meglenorumenu
meglio
megliu
meglǝ
mehmet
mei
meia
meiji
meiu
mel
mela
melanocephala
melbourne
mele
melfa
meli
melita
melitensis
melki
meloni
meloria
melu
membra
membre
membri
membru
meme
memoria
memoriam
memorie
memory
men
mena
mendoza
menelau
mennula
mensola
menta
mentale
mente
mentha
menti
mentre
mentri
menu
meo
mequinenza
mer
merca
mercante
mercanti
mercantile
mercati
mercatu
mercenarii
merci
mercoriu
mercuri
mercurio
mercuriu
mercury
merda
merdosu
mere
merendera
merger
meria
mericanu
meridiana
meridiane
meridianu
meridionale
meridionali
meridionalis
meridiunale
meridiunali
merimee
merita
meritare
meritu
merleau
merluzzu
merops
merre
merri
merria
merru
merry
mertinu
merula
merusaglia
mes
mesa
mescalero
mese
mesi
messa
messageri
messaggeru
messaggiu
messaghju
messagiu
messagium
messe
messi
messia
messicana
messicanu
messico
messicu
messier
messina
messu
mesuputamia
mesuputamica
mesuputamichi
met
meta
metafisica
metal
metalli
metalliche
metallo
metallu
metanu
meteo
meteore
meteoroide
metodi
metodulugia
metri
metrica
metro
metropolitana
metropuli
metropulitana
metru
metrupulitana
metta
mette
mettendu
mettenu
metti
mettia
mettilu
mettini
mettǝ
metudi
metudu
metz
meu
mexicanu
mexico
mez
meza
mezana
mezanotte
mezanotti
mezaretta
mezi
meziornu
mezu
mezupunente
mezupunenti
mezz
mezzana
mezzi
mezzu
mf
mg
mh
mi
mia
miami
micaeli
micaelli
micalona
micca
miccanica
miccanichi
miccanicu
miccanisimu
micenia
michael
michahellis
michel
michelangeli
michelangelo
michelanghjulu
michele
micheli
michelle
michiel
michigan
mick
mickiewicz
microgravita
microphylla
microsoft
micrunesia
mid
middi
middle
midi
midiana
mie
miel
mighele
migli
migliaia
migliaie
migliaii
miglior
migliora
migliore
migliori
migliu
migliura
migliuramentu
mignoculi
migrans
migratori
migrazione
migrazioni
miguel
mihrimah
mike
mikhail
miklos
mila
milaghja
milan
milanesia
milano
milanu
milazzo
miles
miletu
miliardariu
miliardi
miliardu
milione
milioni
milionu
militante
militanti
militara
militare
militaresca
militareschi
militarescu
militari
militarmente
militaru
milizie
mill
milla
mille
milleliri
millennii
millenniu
miller
millet
milliardi
millimitri
millione
millioni
milo
milonga
milu
milvi
milvu
milvus
mimoria
mimorii
min
mina
minacce
minacci
minaccia
minacciata
minacciate
minacciati
minacciatu
minacciava
minaccio
minadori
minangkabau
minaria
minas
minatori
minatu
minera
minerale
minerali
mineraria
minerarie
minerarii
minerariu
minere
minerva
minestra
ming
minh
mini
miniato
miniconi
minieri
minima
minimi
minimu
minirali
ministeru
ministri
ministru
minnana
minnanna
minnannona
minnanona
minneapolis
minnesota
mino
minoica
minoicu
minor
minorca
minore
minori
minossu
minotauru
mintali
mintrastu
mintuva
mintuvata
mintuvate
mintuvati
mintuvatu
mintuveghja
minuranza
minuranze
minuranzi
minuritaria
minuritarie
minuritarii
minusculi
minuta
minute
minuti
minutu
minzione
minzioni
minziuna
minziunata
minziunati
minziunatu
minziuneghja
minziuneghjani
mio
mira
miraculi
miraculosa
miraculu
miraflores
miranda
mirandese
mirbeau
mire
miri
miridianu
miridiunale
miridiunali
mirita
miro
mirria
miru
mis
mischia
mischiata
mischiatu
mischinu
mischiu
mischju
mise
miseria
miseriam
misericordia
miserie
miserii
misgia
misgiu
misincu
miss
missa
missaghjeri
missaghji
missaghju
missaticum
misse
missi
missia
missiavone
missiavonu
missiavu
missili
missina
missing
missione
missioni
mississippi
missouri
missu
mista
misteri
misteriosu
misteru
misti
mistica
mistiche
mistichi
misticisimu
misticu
mistiere
mistieri
mistieru
mistiriosa
mistral
mistu
misura
misurani
misuranu
misurata
misurati
misuratu
misurava
misurazioni
misure
misurendu
misuri
mit
mita
mitalli
mitamurfisimu
mitamurfosi
mitch
mitchell
mites
mithra
miti
mitica
miticu
mitra
mitragliatrice
mitragliatrici
mitragliosa
mitragliose
mitreu
mitta
mittelalter
mittendu
mittia
mittiami
mittiani
mitu
mitudulugia
mitugrafi
mitulogica
mitulogichi
mitulogicu
mitulugia
mix
mizana
mj
mk
ml
mm
mn
mo
mobile
mobili
mobilitazione
mobuli
mocci
moccia
mod
moda
moddi
mode
modellu
modena
modern
moderna
moderne
modernu
modi
modigliani
modu
moench
moghul
moglia
moglie
mohamed
mohammad
moi
moines
mois
moita
moitinchi
mol
mola
moldavia
molecule
molibdenu
molinier
molise
moll
molla
molle
molluschi
molluscu
molta
molte
molti
moltifau
moltu
molu
molucchi
moly
moment
momentu
mommsen
mon
mona
monachi
monacia
monaco
monacu
monarchia
monasteru
moncada
monda
mondadori
monde
mondi
mondiale
mondo
mondoloni
mondu
money
monguli
mongulia
mongulu
monica
monna
monnier
monoica
monroe
mons
monsieur
monsignore
monsignori
monspeliensis
mont
monta
montale
montana
montanus
monte
montecassinu
montecatini
montegrossu
monteleone
montem
montemaio
montenegru
montepulciano
monterrey
montes
montesoro
montesoru
montevideo
montgomery
monti
montibus
monticellu
monticola
monticristu
montinegru
montpellier
montreal
montserrat
monum
monumenti
monuments
monumentu
moon
moore
mor
mora
moracchini
morale
morda
morde
mordi
more
moreau
morelia
morenu
morgan
morghi
morgu
mori
moriani
morianinchi
moriano
morini
morio
morire
moris
morisii
morning
moro
morra
morrison
morse
morsi
morsu
mort
morta
morte
morti
mortillet
morto
mortu
mortula
mortǝ
moru
morǝ
mosaica
mosca
moschatum
mosche
moschi
mose
mossa
mossi
mossu
most
mostra
mostrani
mostranu
mostri
mostru
mostu
motacilla
motbis
mother
moti
motivi
motorhead
motti
motto
mottu
motu
mountain
mova
move
movi
movimento
movini
moyen
mozambicu
mozart
mozza
mozziconacci
mozzu
mp
mq
mr
ms
mt
mtsho
mu
muay
mubilita
mucale
mucceus
muccichile
muccichili
muccicosu
muchja
muchji
muchju
mudalita
mudaratamenti
mudeddi
mudeddu
mudeli
mudella
mudelli
mudellu
muderna
muderne
muderni
mudernita
mudernu
mudesta
mudesti
mudestu
mudifica
mudificata
mudificatu
mudifiche
mudiglioni
muerta
mufraggi
muga
mughettu
mughja
muhammad
muito
mula
muldavia
muleculare
mulhouse
mulinacciu
mulinaru
mulineddu
mulini
mulino
mulinu
mulise
muller
mulone
multedo
multifidus
multilingue
multimediale
multinaziunale
multiplicativu
multiplicatu
multiplicazione
multiplicazioni
multiplichendu
multiplici
mulu
mumbai
mumenti
mumentu
mun
munacia
munadi
munarchia
munarchicu
munarcu
munasteri
munasteru
munasticu
mundi
mundiale
mundiali
mundu
mundus
munegasca
munegascu
muneta
muneti
munich
municipale
municipali
municipalita
municipiu
munimenti
munimentu
munizione
munizioni
munoz
munsignore
munta
muntagna
muntagne
muntagnera
muntagni
muntagnola
muntagnole
muntagnoli
muntagnolu
muntagnosa
muntagnosu
muntaninu
muntanti
muntati
muntera
muntese
muntesu
munticelli
munticellu
muntichji
muntona
muntoni
muntonu
muntosa
muntose
muntosi
muntosu
munumenti
munumentu
munumintali
muqaddimah
mur
mura
muracciole
murad
muraena
muraglia
muraglie
murale
murali
muralis
murat
muratinchi
muratu
murcia
murella
murena
murendu
murenichi
murenti
muresca
murfulugia
muri
muriani
muricciu
muriel
murina
murire
murlo
murone
murray
murrina
mursica
mursiglia
murta
murtali
muru
murzu
mus
musa
musca
muscari
muscendu
muschea
muschettu
muschi
muscia
musciatu
muscicapidae
muscle
muscu
musculina
musculu
musculus
muse
musees
musei
museiu
museo
museu
museum
musi
music
musica
musicale
musicali
musicante
musicanti
musiche
musiculugia
musimon
mussiu
mussolini
mustaccia
mustafa
mustela
mustelidae
mustra
mustratu
mustrendu
mustro
mustruosu
musu
musuleu
musulmana
musulmane
musulmani
musulmanu
muta
mutamenti
mutamentu
mutata
mutatu
mute
mutivata
mutivi
mutivu
muto
mutore
mutori
mutu
muvimenti
muvimentu
muvra
muvre
muvredda
muvrella
muvri
muvrini
muvronu
muy
muzza
mv
mw
mx
my
myagrum
myanmar
myotis
myrtus
mystery
mythology
mz
mǝ
mǝri
mɑ
mɔ
mɛ
n
n0
n1
n2
n3
n4
n5
n6
n7
n8
n9
na
nabulione
nabulionichi
nabulionicu
nabulionu
nacional
nacque
nacqui
nadezda
nadu
naiadi
naisson
najdi
nali
nalɛ
nam
name
namibia
nan
nancy
nang
nanna
nannara
nannari
nanni
nant
nanta
nantu
nanz
nanzi
nanzu
napoleon
napoleone
napoli
napuleo
napuleone
napuletana
napuletanu
napuli
napulione
napulitana
napulitanu
narbu
narciso
narcissisimu
narcissu
nari
narju
narra
narrata
narrativi
narrativu
narratu
narrava
narrazioni
narvu
nasa
nasale
nasali
nasce
nascenu
nascere
nascetti
nasci
nascia
nascini
nascisti
nascita
nasconde
nascosti
nascǝ
nasser
nassu
nasu
nata
natale
natalellu
natali
natalie
natalis
natalǝ
natatorem
nate
nathan
nati
nation
national
nationale
nationem
nativa
native
nativi
nativita
nativu
nato
natrix
natu
natura
naturae
natural
naturalamenti
naturale
naturali
naturalis
naturalistica
naturalistichi
naturalisticu
naturalistu
naturalizata
naturalizatu
naturalmente
nature
naturel
naturelles
naufraghju
naufrago
nauru
nauruanu
navaho
navajo
navale
navali
navarra
navata
navate
nave
navi
naviga
naviganti
navigatore
navigatori
navigazione
navigazioni
navighevuli
navo
navy
nazareth
nazi
nazionale
nazione
nazioni
nazista
naziunale
naziunali
naziunalismu
naziunalista
naziunalisti
naziunalistu
naziunalita
nazza
nb
nc
nd
nde
ndebele
ndrangheta
ne
neapolis
near
nebbia
nebbiu
nebraska
nebula
nebulosa
nec
necessaria
necessariamente
necessarii
necessariu
necessita
neck
necromanzia
necropoli
necropuli
ned
nederlandese
neerlandese
nega
negativa
negative
negativi
negativu
neglecta
negra
negro
negroni
negru
nehru
nei
neil
nel
nell
nella
nelle
nelson
nemiche
nemichi
nemici
nemico
nemicu
nemmancu
nemmenu
nenti
nentru
neoborbonici
neoborbonico
neoclassicu
neolatine
neonu
neotinea
neottia
nepal
nepalese
nepeta
nepita
neptune
neq
nera
nerazzurri
nerbu
nere
nereidi
neri
nero
nerone
neru
nervu
nervus
nesca
nesce
nessun
nessuna
nessunu
net
netta
nettu
nettuniu
nettunu
neu
neuburbonicu
neuf
neuhoff
neulatine
neuliticu
neumann
neunatu
neutrale
neutrali
neutralita
neutri
neutroni
neutru
neva
nevada
neve
nevi
neville
nevǝ
new
newark
newport
news
newton
next
ney
nez
nezu
nf
ng
ngc
nh
nhat
ni
nibulosa
nibulosi
nicaragua
niccia
niccolo
nice
nicea
nichel
nichja
nicholas
nicholson
nicissaria
nicissariamenti
nicissarii
nicissariu
nicissita
nick
nickelodeon
nicky
nicola
nicolai
nicolas
nicoli
nicolo
nicosia
nicropuli
nicula
niculaiu
niculau
niculo
nida
nidi
nidicali
nidificazione
nidificazioni
nidificheghja
nidu
nidus
nie
niedda
nieddu
niels
niendǝ
niente
nienti
nietzsche
niga
nigaglioni
nigativa
nigatu
niger
nighjeria
night
nigra
nigris
nigritella
nigrum
nikola
nikolai
nikolaj
nil
nile
nilu
nimicu
nimu
nina
nine
ninfa
ninfale
ninfe
ninfi
ninna
ninnani
ninni
nino
ninu
niolu
nipalesu
nipote
nipoti
niricciu
nisciun
nisciuna
nisciunu
nissuna
nissunu
nisun
nisuna
nisunu
nittamenti
niulinchi
niulincu
niuliticu
nivacciula
nivalis
nivalonu
nivaro
nivellu
nivem
nivi
nivosa
nivuli
nivulu
nixon
nizza
nj
nk
nl
nm
nn
no
nobel
nobile
nobili
nobilis
nobis
noble
nocca
noce
noci
nociu
noctem
nodi
nodu
noe
noel
noemi
noi
nois
nola
nom
noma
nomab
nomadi
nombre
nome
nomen
nomi
nomina
nominato
nominatu
nomu
nomuff
non
nonche
nonostante
nonostanti
nonustante
nonustanti
nonza
nora
nord
nordafrica
nordafricani
nordeste
nordestu
nordica
nordicu
nordu
nordupunente
nordupunenti
norfolk
nori
norma
normal
normale
norman
norme
normi
noronha
norrese
norte
north
northern
norton
norway
nos
nosci
noscia
nosciu
nostra
nostre
nostri
nostro
nostru
nostrum
not
nota
note
notes
nothing
noti
notice
notre
notte
notti
nottǝ
notu
nouhen
noumea
noun
nous
nouveau
nouvelle
nov
nova
novamente
novara
nove
novela
novella
novem
november
novembre
novi
novicentu
novu
now
nozze
nozzi
np
nq
nr
ns
nt
nu
nuaru
nubiliari
nubilta
nucariu
nucenza
nuceta
nuchis
nuchisi
nuciolu
nucleare
nucleari
nuclei
nucleu
nuda
nudda
nudi
nudo
nudu
nuenen
nueva
nuevo
nui
nuit
nuits
nuli
nulla
nullu
nulu
numa
numarali
numari
numarosa
numarose
numarosi
numarosu
numaru
numata
number
nume
numerale
numerali
numerazione
numeri
numerica
numerichi
numericu
numero
numerosa
numerose
numerosi
numerosu
numeru
numica
numichi
numicu
numida
numidi
numidia
numignulu
numina
numinale
numinali
numinata
numinati
numinatu
numinazione
numinclatura
numineghja
numino
nun
nunc
nunda
nunzia
nunziante
nunziata
nunziola
nunziu
nuoru
nuova
nuovo
nuracu
nuragica
nuragicu
nuragu
nurmalamenti
nurmale
nurmali
nurmalmente
nurmana
nurmandi
nurmandia
nurmani
nurmannu
nurmanu
nurrica
nurvegesa
nurvegesu
nurveghja
nurveghjese
nurveghjesu
nurvegia
nurvigesa
nurvigesi
nurvigesu
nustalgicu
nustrale
nustrali
nuta
nutabili
nutadore
nutadori
nutaghjola
nutaghjole
nutaghjoli
nutaru
nutata
nutatore
nutatu
nutazione
nutazioni
nutevulamenti
nutevule
nutevuli
nutizia
nutizie
nutizii
nutrimentu
nutrisce
nutriscenu
nutrisci
nutriscia
nutritu
nuttata
nutturna
nutturni
nutturnu
nuvale
nuvanta
nuvara
nuvedda
nuveddi
nuveddu
nuvella
nuvelle
nuvelli
nuvellu
nuvembre
nuvembri
nuvenariu
nuvesimu
nuvita
nuwas
nuzione
nuzioni
nv
nw
nx
ny
nynorsk
nz
nǝ
nǝn
nǝsciunǝ
nən
nɛ
nɛzɛ
o
o0
o1
o2
o3
o4
o5
o6
o7
o8
o9
oa
oasi
oasis
ob
obama
obbligu
obertenghi
oberto
obesita
obfa
obiettivi
obiettivu
oblast
obligatu
obra
obres
observatoire
obtinere
oc
ocana
occagnanu
occasione
occasioni
occhji
occidental
occidentale
occidentali
occidente
occitan
occitana
occitane
occitania
occitanica
occitanicu
occitano
occitanu
occorre
occorri
occorse
occupa
occupanti
occupanu
occupare
occupata
occupate
occupati
occupatu
occupazione
occupendu
occupo
ocde
ocean
oceani
oceania
oceanica
oceaniche
oceanichi
oceanicu
oceanu
ochja
ochjatana
ochji
ochjigrisgiu
ochjirossa
ochju
oclc
ocra
octave
october
ocymoides
od
odense
oder
odessa
odeur
odinu
odissea
odisseu
odiu
odora
odore
odori
odorus
oe
of
off
offensiva
offerta
offertu
offesa
offesi
office
official
officiale
officiali
officialmente
officinalis
offiziu
offra
offre
offri
offrini
offrita
offriti
ofride
og
ogetti
ogettu
oggettu
oggi
oghje
oghjetti
oghji
oghjinca
oghjinchi
oghjincu
ogliastru
ogliu
ogn
ogni
ognun
ognuna
ognunu
ognunǝ
ognǝ
oh
ohio
oi
oil
oise
oiseau
oiseaux
oj
ojo
ok
oklahoma
ol
olanda
olandese
olandesi
olbia
olcani
old
oletta
olii
olimpia
olimpiade
olimpiadi
olimpichi
olimpicu
olimpu
oliu
oliva
olive
olivella
oliver
olivetu
olivetum
olivier
olivieri
olla
ollagnier
olmeta
olmi
olmia
olmiccia
olmitese
olmo
olmu
olona
oltramontanu
oltre
oltretomba
oltri
oltripassa
oltritomba
olympia
om
omagiu
omancu
omar
ombra
ombri
ombria
ombrone
omericu
omerta
omeru
omessa
omeumorfi
omeumorfu
omeumurfismu
omi
omini
omnia
omnium
omonima
omonimu
oms
omu
omusissualita
omǝ
on
onazam
once
onda
onde
ondeci
ondi
ondici
one
onepage
onesta
online
only
ono
onoma
onore
onori
ont
ontario
ontariu
onte
onu
oo
op
opara
opare
opari
opel
open
opera
operativu
operatore
operatori
operatorname
operazione
operazioni
operculu
opere
ophiuchus
ophrys
opi
opinione
opinu
opizzo
opole
oppone
opposizione
opposta
opposte
opposti
oppostu
oppure
oppuri
oppurtunita
oppuru
oppusizione
oppusizioni
oq
or
ora
oraculu
oral
orale
oramai
orange
oratoire
oratori
oratoriu
orazio
oraziu
orba
orbicularis
orbita
orbiti
orcade
orchidaceae
orchidea
orchidee
orchis
orcia
orcu
orda
order
ordina
ordinali
ordinanza
ordinatore
ordinatori
ordinatu
ordine
ordineghja
ordinem
ordini
ordino
ore
orechje
oregon
orezza
orfeu
org
organi
organisation
organisazione
organismi
organismu
organiza
organizata
organizate
organizatu
organizazione
organizeghjanu
organu
orgogliu
ori
orient
oriental
orientale
orientali
orientalis
orientamentu
orientata
orientate
orientazione
oriente
orienti
orighjne
origin
original
originale
originali
originaria
originarie
originarii
originariu
origine
originel
origini
origins
orion
orione
orionis
oriu
orizonti
orizuntali
orlando
orlandu
orleans
orlu
ormai
ormi
ormuz
ornamenti
ornano
ornanu
ornata
ornetu
ornithogalum
oro
orria
orribili
orriu
orrori
ors
orsa
orsi
orsic
orsini
orsinu
orsoni
orsu
orsucci
ortale
orte
orti
orticoni
ortiporiu
ortiz
orto
ortodossa
ortodossi
ortografia
ortografica
ortoli
orton
ortona
ortu
ortucentru
ortudossa
ortudossu
ortugrafia
oru
orvieto
orzu
os
osani
osasco
oscar
oscari
oschiri
oscilla
oscu
oscura
oscurita
oscuru
osinno
osiris
oslu
osmunda
ospidale
ospita
ospitalieri
ospiti
ossa
osse
osserva
osservatoriu
osservatu
osservazione
ossi
ossia
ossidi
ossidiana
ossigenu
ossirincu
ossirva
ossirvati
ossirvatu
ossirvazione
osso
ossola
ossu
ostacolu
ostaculi
ostaculu
osteria
ostia
ostilita
ostrica
ostrice
ostriconi
osu
ot
ota
otan
other
otiosus
otranto
otrantu
otta
ottana
ottanta
ottava
ottave
ottavi
ottaviani
ottavianu
ottavy
ottena
ottene
ottenendu
otteni
ottense
ottensi
ottensini
ottenuta
ottenutu
ottesimu
ottica
ottima
ottimi
ottimu
ottinuti
ottinutu
otto
ottobre
ottomani
ottomanu
ottu
ottucentu
ottumana
ottumani
ottumanu
ottunariu
ottusu
ou
our
out
ouvrage
ov
ova
ovale
ovali
ovata
ove
over
overline
ovest
ovi
ovidiu
ovis
ovitu
ovu
ovveru
ow
ox
oxford
oxyrrhynchos
oy
oz
ozieri
oziosu
oziu
ozonu
p
p0
p1
p2
p3
p4
p5
p6
p7
p8
p9
pa
pablo
pacchistanu
paccial
pace
pacenzia
pacheu
pachistan
pachuca
paci
pacifica
pacificu
pacifistu
padana
padanu
padda
padovani
padovano
padre
padru
padula
padulatu
padule
padulella
paduli
padulu
padus
paduva
paduvanu
paeonia
paesa
paesani
paese
paesi
paesu
pag
paga
pagamentu
pagana
paganelli
pagani
paganu
pagatu
page
pages
paghani
paghjella
paghjelle
paghji
paghjina
paghjola
paghju
pagina
pagine
pagini
paglia
pagliaghju
pain
painting
pais
paisaghji
paisaghju
paisana
paisane
paisani
paisanu
paisoli
paisolu
paix
pakistan
pal
pala
paladinu
palasca
palatali
palatina
palatinu
palau
palauanu
palazzi
palazzo
palazzu
pale
paleocristiana
palermu
palesa
palestina
palestrina
paletta
paleuliticu
palgrave
pali
palidu
paliri
palisa
palleca
pallens
pallida
pallidu
pallidus
pallo
pallone
pallottino
palma
palmata
palme
palmeiras
palmentu
palmesani
palmi
palmu
palu
paludosa
palustris
pampana
pampasgiolu
pan
panama
panca
pancheraccia
pancone
pancratium
pancraziu
pandicina
pandit
pandolfi
pandolfu
pandora
pane
panem
pani
panicala
paniculatum
panini
panneddu
pannelli
pannellu
panni
pannu
panorama
panormitana
pantaloni
pantera
panterina
pantheon
panthera
pantone
panza
panǝ
paoletti
paoli
paolina
paolini
paolo
paolu
paomia
papa
papale
papali
paparone
paparonu
papatu
papaver
papaveraceae
paper
papers
papi
papiamentu
papilio
papilionacea
papiri
papiru
pappa
papua
par
para
parabola
parabula
paracquella
paradigma
paradise
paradiso
paradisu
paradossi
paradossu
paragonu
paragrafu
paraguay
paraguna
paragunata
paragunatu
paraguneghja
paragunevule
paragunevuli
parallela
parallelamenti
parallele
paralleli
parallelipipedus
parallelu
parametri
parametro
parametru
paramore
parana
parassiti
parasu
parata
parce
parch
parche
parcheghju
parchi
parcio
parcizzioni
parcorra
parcorsi
parcorsu
parcu
parcurrendu
parcussione
pare
parecchj
parechje
parechji
parens
parente
parenti
parenu
parere
pareta
parete
pareti
pareto
parfetta
parfettu
parfittamenti
parfumati
pari
paria
parianu
parichji
paride
paridi
parietaria
pariggi
parighj
parighji
parighjinu
parigi
parigina
parini
parintedda
paris
parita
park
parker
parkinson
parl
parla
parlaccia
parlamentare
parlamentu
parlami
parlamintare
parlamintari
parlani
parlanti
parlanu
parlata
parlate
parlati
parlatu
parlava
parle
parlemu
parlendu
parlu
parma
parmenidi
parmetta
parmetti
parmettini
parmissi
parmissu
parmittendu
parmittia
parmutazioni
parnice
parnici
paro
parochja
parochje
parodda
parola
parole
paroli
parolla
parolle
parolli
parpena
parpindiculari
parquet
parrocchiale
pars
parsefuna
parsistenti
parsona
parsone
parsoni
parsonne
parsunaghji
parsunaghju
parsunali
parsunalita
part
parta
parte
partenariatu
partenarii
partendu
partenu
partenza
partesi
parteu
parthicurari
parti
partia
particeddi
participa
participanti
participatu
participazione
participazioni
participeghja
participeghjanu
participendu
participiu
participo
particolare
particula
particular
particularamenti
particulare
particulari
particularita
particularmente
particularmenti
particule
partido
partimala
partinellu
partini
partisce
partita
partitanti
partite
partiti
partitu
partners
partu
partutu
party
paru
paruchjale
paruchjali
parulla
parulli
parveni
parviflora
parvinuti
parzialamenti
parziale
parziali
parǝ
pas
pasa
pasce
pascere
pasci
pascia
pasciali
pascual
pasculu
pasha
pasifae
pasqua
pasquale
pasquali
pasqualini
pass
passa
passage
passaghjeri
passaghji
passaghju
passani
passanti
passanu
passaru
passata
passate
passatempi
passati
passato
passatu
passava
passavanu
passe
passendu
passer
passera
passero
passerottu
passi
passione
passioni
passionis
passiunatu
passiva
passivu
passo
passu
passula
past
pasta
pastasciuta
pastasciutta
pastecca
pastinacea
pastini
pastinu
pastore
pastori
pastricciola
pastu
pasturale
pasturali
pastureccia
pasturecciu
pasturizia
paswan
pat
patagonichi
patagunia
patata
patella
patellu
pater
paterna
paterni
paternita
paternostru
paternu
pati
patitu
patre
patri
patria
patriarca
patrick
patrimoine
patrimoniu
patriotti
patriottu
patrizi
patrizia
patriziu
patrona
patrone
patroni
patronu
patru
patte
patti
pattone
pattu
patula
pauciflora
paul
paula
paulina
paulinia
paulinu
paulo
paulu
paura
pausa
pausania
pausare
pause
pavia
pavimentu
pavone
pavonu
pays
paz
pazienti
pazienza
pazzi
pazzia
pazzu
pb
pc
pd
pdf
pe
peace
peak
pearl
pearson
peccatu
pechino
pecita
pecitella
pecora
pecura
pecure
pecuri
ped
peda
peddi
pede
pedi
pedicorti
pedicroce
pedigrisgiu
pedipartinu
pedorezza
pedro
pedru
pegasi
pegasu
peghju
pel
pela
pelagichi
pelasgi
peleu
peli
pelia
pellanzica
pelle
pelo
peloponnesu
pelopunnesu
peloro
pelu
pelz
pen
pena
penale
penali
penalita
penarol
penas
pendente
pendi
pendichi
pendita
pendite
penditi
pene
penetra
peni
peninsula
peninsulare
penisula
penitenti
penn
penna
penne
penni
pennsylvania
pensa
pensani
pensanu
pensare
pensatu
pensava
pensee
pensendu
penser
penseru
pensiero
pensu
penta
pente
pentesilea
pentone
people
pepper
peppu
per
pera
percentuale
perch
perche
perchi
percorre
percorsi
percorsu
percussione
percy
perda
perde
perdere
perdi
perdicula
perdita
perdite
perditi
perdono
perduta
perdutu
perdǝ
perdə
pere
pereira
perelli
peretti
perfect
perfettamente
perfettu
perfinu
perfugas
pergola
pergusa
peri
pericle
pericli
periculosu
periculu
periculum
perieliu
periferia
perimetru
periode
periodi
periodichi
periodu
perire
perisce
perisci
periscia
perittione
periudi
periudu
perkins
perla
permanente
permessu
permette
permettenu
permittendu
pernice
pero
perosa
perpetua
perro
perry
pers
persa
perse
persecuzione
persefona
perseidi
perseiu
perseus
persi
persia
persiana
persiani
persianu
persica
persichi
persicu
persinu
persona
personas
persone
personna
personne
persu
persunaghji
persunaghju
persunagi
persunagiu
persunale
persunali
persunalita
pertantu
perth
peru
perugia
pervene
pes
pesa
pesante
pesca
pescara
pescasseruli
pescatore
pesce
pesci
pescia
pesciu
pesciucane
pesciucani
pescusolidu
pesi
peso
pesos
pessoa
pesta
pesu
peta
petali
pete
peter
petersburg
petine
petit
petite
petr
petra
petrabugnu
petralba
petrarca
petrarcu
petre
petri
petricaghju
petrignani
petroliu
petrone
petrosu
petru
petruburgu
petruculu
pettibianchi
pettibiancu
pettirossu
pettirussu
pettu
peugeot
peut
pezza
pezze
pezzi
pezzu
pf
pfeiffer
pfs
pg
ph
phaedra
phalacrocorax
pharos
pharum
phasianidae
phi
phil
philadelphia
philip
philippe
philosophia
philosophy
phobos
phoceens
phoenix
phonology
photographic
php
phrase
phrixos
physica
pi
pia
piace
piacenu
piacenza
piaceri
piaci
piacia
piaga
piaggi
piaghja
piaghje
piaghji
pialaghini
pian
piana
pianamente
pianamenti
piane
pianellu
pianeta
pianete
pianeti
piani
pianificazioni
pianistu
piano
pianosa
pianottuli
pianta
piantati
piantatu
piantazione
piante
pianti
pianu
pianuforte
pianura
pianure
pianuri
piatta
piattaforma
piattaformi
piattata
piatti
piattu
piave
piazza
piazzali
piazzata
piazzate
piazzati
piazzatu
piazze
piazzendu
piazzetta
piazzi
piazzili
piazzola
piazzole
pib
pibine
picasso
picca
piccardu
piccati
piccatu
picce
piccia
piccioli
picciolu
picciulate
piccola
piccolo
piccu
piccula
piccule
picculi
picculu
pichja
pichjaronu
pichjettu
pichji
pichju
pichjulati
pichjulatu
piciniscu
picitosa
picondria
picridium
picroides
pictures
picuraghju
pid
pidda
pidochji
pidochju
pie
piece
pied
piedi
pieds
piega
piegna
piegne
piegni
piegu
piemonte
piemontese
piemonti
piemuntese
piemuntesu
pien
piena
piene
pienghja
pienghje
pienghjendu
piengu
pieni
pieno
pientu
pienu
pier
pierce
pierluigi
piero
pierre
pieru
pieta
pieter
pietra
pietralba
pietraserena
pietre
pietri
pietro
pietru
pietruburgu
pievana
pievane
pievanes
pievania
pievanie
pieve
pievi
pifana
pifania
pig
pigafetta
pighja
pighjola
pighjolu
pigli
piglia
pigliani
piglianu
pigliara
pigliata
pigliate
pigliati
pigliatu
pigliemu
pigliendu
piglii
piglio
piglionu
pigliu
pigna
pignata
pignatta
pignatti
pignu
piiga
pila
pilame
pilastri
pilastru
pilatu
pilegrinagiu
pilera
pillow
pilone
pilonu
pilosi
pilosu
pilota
pilotu
pilu
pilum
pilupunnesu
piluta
pimort
pin
pina
pinareddu
pincionu
pindaru
pindenza
pindenzi
pindini
pine
pinete
pinghja
pinghji
pinguicula
pini
pinisula
pinitra
pinitrati
pinna
pinneddu
pino
pins
pinsa
pinsadori
pinsamenti
pinsamentu
pinsatu
pinsava
pinsavani
pinsendu
pinseri
pinseru
pinsione
pinsioni
pinsiunariu
pinterest
pinti
pinticosti
pintonu
pintu
pinu
pinus
pinzalone
pinzi
pinzu
pinzuta
pinzutu
pio
piobbu
piobetta
piobu
pioghja
piogia
piogiula
piombu
pioneer
piopu
piosse
piova
piove
piovi
pip
pipa
pipare
pippa
piracci
piralzu
piramida
piramidi
pirata
pirataria
pirate
pirateria
pirati
piratu
pirdendu
pirdutamenti
pirelli
pirenei
piri
piriculu
piriodica
piriscia
pirituu
piriudu
pirmanenti
pirmanenza
pirotecnichi
pirsiana
pirsiani
pirturbazioni
pirvirsioni
pirǝ
pisa
pisana
pisane
pisani
pisante
pisanti
pisanu
pisati
pisava
pisca
piscadori
pisci
piscia
piscina
piscine
piscu
pisellu
pisendu
pisessi
pisi
pisistrati
pisolithus
pissarro
pista
pistacia
piste
pistoia
pistoiese
pistola
pistole
pisu
pisum
pit
pitagora
pitagorica
pitagorichi
pitagoricu
pitali
pitcairn
pitcairnese
pitcairnesu
pitizioni
pitretu
pitroliu
pitrusedda
pitt
pitte
pittirussu
pittore
pittori
pittsburgh
pittura
pitturali
pitture
pitturi
piu
piugoni
piulacona
piulaconi
piulaconu
piuma
piumaghju
piumbatoghji
piumbatoghju
piumbinu
piumbone
piumbonu
piume
piumi
piune
piupetta
piuttostu
piuvana
piuvanaccia
piuvanu
piuvaro
piuvi
piuvia
piuviosu
piuviti
pizza
pizzica
pizzone
pj
pja
pk
pl
pla
placca
placche
placchi
place
placidu
placitu
plagiuclasiu
plan
planet
planeta
planetaria
plangere
plant
planta
plantarum
plante
plantes
plasma
plastic
plasticu
plata
platanthera
platanu
plathantera
platinu
platone
platonica
platonichi
platonicu
platonu
play
plebania
pleshette
pli
pliniu
plu
plurale
plurali
plus
plutarcu
pluton
plutone
plutonu
pm
pn
png
pnici
pnrc
po
pobbe
poca
poche
pochi
poco
pocu
podarcis
podarse
podarsi
poddu
pode
podesta
podgora
podgorica
poesia
poesie
poeta
poetica
poggio
poggiu
poghje
poghji
poghjolu
poghju
poi
poiche
poings
point
pointe
poir
polacca
polacchi
polaccu
polanyi
poleis
polesine
poletti
poli
polibio
policardi
police
poligunali
polinumiale
poliottu
politecnicu
politica
political
politiche
politicu
politique
pollan
pollici
pollione
pollon
polonia
polpa
polpu
polska
polsu
poltu
polu
polvara
polvari
polvera
polverosu
polydor
polygonatum
poma
pomerania
pomi
pomme
pompa
pompei
pompeo
pompeu
pompidou
pomponio
pomu
pona
poncin
pone
poni
pont
ponte
pontefice
pontefici
pontelagoscuro
ponti
pontica
pontificia
ponty
ponu
pony
ponziu
pool
pop
pope
popolari
popolo
popov
populare
populari
populata
population
populatu
populazione
populazioni
populazzione
populi
populonia
populu
populus
por
porchi
porci
porcu
porga
porri
porru
port
porta
portaboci
portale
portani
portanu
portatu
porte
porter
porti
portivechjacciu
portivechju
porto
portoghese
portrait
portu
portufarraiu
portugallu
portughese
portughesi
portugnol
portugues
porzione
posa
pose
poseidon
poseidonu
posi
posidonia
positiva
posizione
posizioni
possa
possi
possibile
possini
possinu
possonu
possu
post
posta
poste
posthudorra
posti
posto
postu
potassiu
potere
poti
pouance
pour
povar
povara
povari
povaru
povera
poveri
povero
poverta
poveru
powell
power
pozza
pozzi
pozzo
pozzu
pp
pq
pr
pra
practica
pracuri
pradesh
prado
praga
pranzu
prascula
prata
pratarolu
pratesi
prati
pratica
praticamente
praticamenti
praticanti
praticata
praticate
praticatu
pratiche
praticheghja
pratichi
praticu
pratique
pratu
pratuline
pratulini
prayon
pre
precede
precedente
precedenti
preceduta
precedutu
precipitazione
precisa
precisamente
precisione
precisu
precursore
preda
predatori
prede
predi
predica
predicatu
predicazione
predilettu
predizzioni
predominiu
preesistente
preesistenti
prefaziu
preferenza
preferi
preferita
prefettu
prefettura
prefissu
prega
preghera
preghere
preghjudizii
preghjudiziu
pregu
preistoria
preistorica
preistorichi
preistoricu
premier
premiere
premii
premissa
premiu
prende
prendere
prendi
preoccupazione
preparatu
preparazione
prepositura
prepusizione
prerumana
pres
presa
presbiteriu
presca
prese
present
presenta
presentanu
presentare
presentatu
presentava
presente
presenti
presenza
presenze
presi
president
presidente
presidenti
presidenza
presidenziale
presidiu
presini
press
pressione
pressu
presta
prestazione
prestiti
prestitu
presto
prestu
presu
presunta
preta
prete
pretende
preti
preto
prevalente
prevalentemente
prevalenza
prevede
prevene
previstu
prevost
preziosa
preziose
prezu
prezzi
prezzu
pri
priaccupatu
priaccupazioni
priamu
pricantula
price
pricedi
pricedutu
pricidente
pricidenti
pricidenza
pricidintamenti
priciduta
pricipitazioni
pricisa
pricisamenti
priciseghja
pricisi
pricisioni
pricisu
priculi
priculosa
priculosi
priculosu
priculu
pricursori
pridatori
pride
pridgeon
pridica
pridicatu
pridicissori
prifaziu
priferenza
priferisce
prifettu
prifirendu
priga
prighera
prigheri
prigheti
prighieri
prighjo
prighjone
prighjoni
prighjuneri
prigio
prigione
prigiunere
prigiuneri
prigiuneru
prim
prima
primaria
primarii
primariu
primatu
primaturamenti
primavera
prime
primera
primes
primi
primitiva
primitivi
primitivu
primo
primu
primura
primurdiali
prince
princeps
princeton
principalamenti
principale
principali
principalmente
principati
principato
principatu
principe
principessa
principi
principia
principiani
principianu
principiata
principiatu
principiava
principiendu
principii
principio
principiu
principles
principu
printʃi
priori
pripara
priparata
priparava
priparazione
priparazioni
pripusizioni
prisbiteriu
prisenta
prisentani
prisentanu
prisentazione
prisente
prisenti
prisenza
prisenziale
priserva
prisidente
prisidenti
prisinta
prisintata
prisintati
prisintatu
prisintazioni
prisintendu
prisinto
prisirva
prissione
prissioni
pristaticci
pristazioni
pristigiu
prisumibilamenti
priteritu
pritestu
priurita
priva
privalenti
privali
privalini
privalintamenti
privata
private
privati
privatu
privatus
prive
priveda
privedi
privenzione
privi
prividia
privilegi
privilegii
privisioni
privista
privisti
privistu
privostu
privu
priziosi
priziosu
prnc
pro
probablement
probbia
probbii
probbiu
problem
problematica
problemi
procchio
procera
processu
proclamatu
produce
producenu
productions
produtta
produtte
produtti
produttore
produttori
produttrice
produttu
produzione
produzzione
prof
professiunale
professor
professore
profittu
programma
progressi
progressive
project
projet
prolificu
promenades
pronta
pronti
prontu
pronuncia
pronuncianu
pronunciata
pronunciate
pronunciation
pronunciatu
pronunciazione
pronuntiationem
pronunzia
pronunziata
pronunziatu
proof
propia
propii
propiu
proporzione
propositu
propri
propria
proprie
proprieta
proprio
propriu
prosa
prosper
prosperu
prossima
prossimi
prossimu
protagora
proto
protu
prova
prove
provence
provenzale
proverbes
provi
providence
province
provincia
provincialis
provoco
provu
prruci
pru
prua
prubabilamente
prubabilamenti
prubabile
prubabili
prubabilita
prubabilmente
prubabilmenti
prubbiamenti
prubita
prubitarii
prubitariu
prublema
prublematica
prublemi
prublemu
prucede
prucedi
prucessi
prucessio
prucessione
prucessu
prucidimenti
prucidimentu
prucidura
pruciduri
prucissio
prucissione
prucissioni
pruclama
pruclamata
pruclamatu
pruclamazioni
pruclamo
prudenza
prudotti
prudottu
pruduce
pruducendu
pruducenu
pruduci
pruducia
prudutta
prudutti
pruduttivita
pruduttivu
pruduttore
pruduttori
pruduttu
pruduzione
pruduzzione
pruduzzioni
prufanu
prufessiunale
prufessore
prufeta
prufetti
prufettu
prufezia
prufilu
prufissione
prufissiunali
prufissore
prufissori
prufitta
prufittendu
prufittu
prufonda
prufonde
prufondi
prufondu
prufundamenti
prufundezza
prufundi
prufundita
prugetti
prugettu
prughjetti
prughjettu
prugna
prugramma
prugrammazione
prugrammi
prugrammu
prugressi
prugressistu
prugressu
prugrissiva
prugrissivamenti
prugrissivu
pruibisce
pruibitu
pruiettili
pruiettiva
pruiezione
prulificu
prulungamentu
prum
prumessu
prumeteu
prumettu
prumissa
prumissu
prummetta
prummette
prummetti
prummissu
prumossa
prumova
prumove
prumuntoriu
prumutori
prumuzione
prunelli
prunome
prunomi
prunomu
prunu
prununcia
prununciata
prununciatu
prununciazione
prununciazioni
prununcio
prununzia
prununziazioni
prununzieghja
prunus
prunuzia
prupaganda
prupagazione
prupia
prupizia
prupona
prupone
pruponi
pruponini
pruposi
prupositi
prupositu
pruposta
pruposte
pruposti
prupostu
prupria
prupriamente
pruprieta
pruprietarii
pruprietariu
prupurzione
prupurzioni
prusegue
prusegui
pruserpina
pruspera
prusperita
pruspittiva
prussia
prussiana
prussiani
prussianu
prussimita
prustaferesi
prustituta
prutagonista
prutagonistu
prutagunista
prutagunisti
pruteghja
pruteghje
prutetta
prutette
prutetti
prutettore
prutettrice
prutettu
prutezzione
prutistanti
prutittori
prutittrici
prutizzione
prutizzioni
prutotipu
prutucollu
pruva
pruvata
pruvatu
pruvaturi
pruvendu
pruvene
pruvenendu
pruvenenti
pruvenenu
pruveni
pruvenini
pruvenza
pruvenzale
pruverbi
pruverbii
pruverbiu
pruvince
pruvinci
pruvincia
pruvinciali
pruvincie
pruvinendu
pruvinenti
pruvinienza
pruvinissi
pruvinzali
pruvisoria
pruvisoriu
pruvo
pruvuca
pruvucatu
pruvucheghja
pruvucheghjani
pruvuchendu
pruvuco
pruvvedi
pruvverbiu
ps
pseudo
pseudonimu
pseudorchis
psiche
psicologia
psiculogicu
psiculugia
psycho
pt
ptolemea
pu
pub
pubblica
pubblicata
pubblicati
pubblicatu
pubblicheghja
pubblico
pubblicu
public
publica
publicata
publicate
publicati
publicatu
publicazione
publicazioni
publiche
publicheghja
publichi
publicita
publico
publicu
publisher
publishing
publiu
puce
pudara
pudaria
pudariani
puddinu
pudditrata
puddonu
pude
pudemu
pudendu
pudenu
puderanu
pudere
puderia
puderianu
pudesta
pudete
pudeti
pudia
pudiani
pudianu
pudissi
pudutu
puema
puemi
puerto
puesia
puesie
pueta
pueti
puetica
pueticu
pughjale
pughjilatu
pughjola
pughjolu
pugilatu
puglia
pugliese
pugni
pugnitura
pugnu
puisia
puisii
puitessa
pula
pulacca
pulacciu
pulaccu
pularia
pularii
pularita
pulariu
puleghju
pulemica
pulenda
pulenta
pulgi
pulgia
pulicaria
puliedri
puligunu
pulinesia
pulinomii
pulita
pulitica
puliticamente
puliticamenti
puliticante
puliticanti
pulitiche
pulitichi
puliticu
pulitu
pulizia
pulizza
pulmonu
pulonia
pultronu
puluidali
pulv
pulvariccia
pulverosu
pulverulentum
pum
puma
pumas
pumata
pumelu
pumonte
pumonti
pumontincu
pumpeiu
pumpelmu
pumu
pumuntincu
punendu
punente
punenti
puni
punia
punica
punichi
punicu
punire
punisce
puniscia
puniti
punitu
punizione
punizioni
punk
punt
punta
punte
puntefice
punteghju
puntettu
punti
puntificali
puntificiu
puntini
puntu
puntuatu
puntuazione
puntura
puo
pup
pupa
pupolazione
puppa
puppatula
puppis
puppona
puppusgia
puppusgiula
pupulamentu
pupulare
pupulari
pupularita
pupulata
pupulati
pupulatu
pupulazione
pupulazioni
pupulosa
pur
pura
puramente
purcaghji
purcaghju
purcastri
purcellu
purcile
purcileddi
purcili
purcina
pure
purezza
purgatoriu
puri
purpurascens
purpurea
purpurinu
purrione
purta
purtadori
purtale
purtali
purtani
purtanti
purtantu
purtaria
purtata
purtate
purtati
purtatu
purtava
purtavani
purtavanu
purteddu
purtellu
purtendu
purtichju
purto
purtone
purtoni
purtonu
purtroppu
purtugallu
purtughesa
purtughese
purtughesu
puru
purveddi
purzione
purzioni
pusa
puseidonu
pusitiva
pusitivi
pusitivu
pusizione
pusizioni
pusiziunali
pusseda
pussede
pussedi
pussedini
pussessi
pussessu
pussibile
pussibili
pussibilita
pussibule
pussibuli
pussidendu
pussidia
pussidiani
pussidimenti
pussidimentu
pussutu
pusteriore
pustiriore
pustiriori
put
puta
putassiu
pute
putente
putenti
putenza
putenze
putenzi
putenziale
puter
putere
puteri
puti
puvarta
puverta
puzza
puzzinosu
pv
pw
px
py
pyramidalis
pyrenaica
pyrrhocorax
pz
pǝ
pǝgnata
pɔna
pɔnɛ
pɛ
q
q0
q1
q2
q3
q4
q5
q6
q7
q8
q9
qa
qadi
qb
qc
qd
qe
qf
qg
qh
qi
qim
qj
qk
ql
qm
qn
qo
qp
qq
qr
qs
qt
qu
qua
quad
quadranti
quadraticu
quadratu
quadri
quadrilateru
quadriviu
quadrivium
quadru
quae
quaglia
quagliula
qual
qualch
qualche
qualchi
qualchissia
qualcosa
quale
qualessa
qualessi
qualessu
quali
qualifica
qualificati
qualificatu
qualificazione
qualificheghja
qualita
qualla
qualsiasi
qualunqua
qualunque
qualvoglia
quam
quand
quandi
quando
quandu
quang
quannu
quannǝ
quannə
quant
quanta
quante
quanti
quantita
quanto
quantu
quantunqua
quantunque
quaranta
quarantina
quarci
quaresima
quarrata
quarta
quarti
quartiere
quartieri
quartieru
quarto
quartu
quarzu
quasgi
quasi
quasquara
quassu
quaternariu
quatrata
quatrate
quatrati
quatratu
quatre
quatri
quatru
quattordeci
quattordici
quattrinu
quattro
quattru
quattrucentu
quatuor
que
quebec
quechua
queen
quei
quel
quell
quella
quelle
quelli
quello
quellu
quellǝ
quelqu
quem
quendu
quenza
quercetu
querci
quercitellu
querciu
quercus
querini
quessa
quesse
quessi
quessu
quest
questa
queste
questi
questione
questo
questu
qui
quici
quick
quid
quidd
quidda
quiddi
quiddu
quiet
quilici
quilicu
quill
quilla
quillu
quimico
quinci
quindeci
quindi
quindici
quinque
quinta
quintana
quintu
quirico
quis
quissa
quissi
quissu
quist
quista
quisti
quistione
quistioni
quistiuna
quistu
quo
quod
quota
quuzienti
qv
qw
qx
qy
qz
r
r0
r1
r2
r3
r4
r5
r6
r7
r8
r9
ra
rabat
rabbia
raccoglia
raccoglie
raccolta
raccolti
raccoltu
racconti
racculta
race
racisme
racoglia
racolta
racolte
racolti
racoltu
racontas
raconti
racontu
rada
radaru
radiante
radianti
radiativa
radiatus
radica
radicalamenti
radicale
radicali
radice
radiche
radichi
radio
radiohead
radiu
radnoti
radu
raf
rafael
raffaele
raffaelli
raffalli
raffigurazioni
raffinata
raffritendu
ragazza
ragazzi
raghji
raghjo
raghjone
raghjoni
raghju
raghjunamentu
raghjunghje
raghjunghjibuli
raghjuntu
ragio
ragione
ragioni
ragna
ragni
ragnola
ragnu
ragnucalabronu
ragruppa
ragruppati
ragruppendu
ragusa
rain
rainier
raison
ralph
rama
rame
ramenta
ramenti
rami
ramificatu
ramificazione
ramificazioni
raminta
rammenta
ramolino
ramon
ramos
ramosus
rampale
rampali
ramsay
ramu
ramulosus
ramus
ran
randy
ranedda
rangata
range
ranghi
rangu
ranh
ranking
rankings
ranochja
ranochji
ranunculaceae
ranunculus
rap
rapaci
rapaghju
rapale
rapida
rapidamente
rapidamenti
rapide
rapids
rapidu
rapimenti
rapimentu
rapita
rapiti
rapitu
raporta
raporti
raportu
rappard
rappelle
rapper
rapporta
rapportani
rapporti
rapportu
rappresenta
rapprinsintata
rapprisenta
rapprisentani
rapprisentatu
rapprisintanti
rapprisintata
rapprisintativa
rapprisintatu
rapprisintazioni
rapresenta
rapresentanu
rapresentatu
rapresentazione
raprisenta
raprisentani
rapunculus
rara
raramente
raramenti
rare
rari
rarissima
rarissimu
raru
rasenna
rasna
rasoghju
rason
rastafari
rasu
rat
ratifica
ratificata
ratificatu
rationem
rattu
rattus
raven
raw
rawson
ray
rayados
raymond
raza
raziunale
raziunali
razza
razzismu
razzoli
rb
rc
rca
rchb
rd
re
rea
read
reagan
real
reale
reali
realita
realizadore
realizatore
realizatu
realizazione
realta
reame
reazione
rebbia
rebus
reca
recensement
recente
recentemente
recenti
recherche
reciproca
reciprocu
recita
recitare
record
records
recreazione
recurvata
red
redazioni
redazzione
redazzioni
reducta
reed
reedition
reeve
ref
reference
referendum
referenza
referire
referisce
regalis
regards
regem
regenza
reggae
reggello
reggio
reggiu
reghjimenti
reghjimentu
reghjonale
reghjonali
reghjone
reghjoni
reghjunali
regia
regime
regina
regio
regiomontano
regional
regionali
regione
regioni
regions
regista
registrati
registratu
registrazione
regiunale
regiunali
regna
regnante
regni
regno
regnu
regnum
regula
regulamenti
regulamentu
regulare
regulari
regularmente
regule
reguli
regulus
reich
reichardia
reigns
reilly
reis
relativa
relativamente
relative
relativi
relativita
relativu
relazione
relazioni
relighjoni
relighjosu
religion
religione
religioni
religiosa
religiose
religiosi
religiosu
reliquie
relitti
relittu
remu
remy
ren
rena
renault
rencontrees
rencontres
renda
rende
rendenu
rendi
rene
reni
renna
rennu
renosu
renu
renucci
reparata
repeating
repens
repertoriu
report
reppublica
reptiles
repubblica
republic
republica
republique
reputazione
requiem
resa
rese
research
reserve
reservoir
resi
residenti
residenza
resina
resiste
resistente
resistenza
respirazione
rest
resta
restanu
restaura
rester
resti
resto
restonica
restu
resu
resurezione
resurget
ret
reta
retali
rete
reti
retorica
retrieved
retta
rettangulu
retti
rettili
rettore
rettu
return
reus
reuters
revenge
review
revincu
revival
revolution
revoluzione
revue
rex
rey
reykjavik
rez
rezensionen
rezu
rezza
rf
rfc
rg
rgya
rh
rho
rhode
rhodes
rhoeas
rhyton
ri
ria
riacquistu
riada
riali
rialisazioni
rialita
rializa
rializadore
rializata
rializati
rializatu
rializeghja
rializo
rialmente
rialmenti
rialto
rialtu
riame
riami
riamu
riassuma
riassuntu
riattaccamentu
riazzione
riazzioni
riba
ribarroja
ribba
ribbi
ribeddi
ribeddu
ribelli
ribellione
ribera
riberbula
ribombu
ribuccatu
ribugli
ribustu
ric
rica
ricacciatu
ricade
ricadente
ricadenu
ricantu
ricardo
ricatu
ricava
ricavata
ricca
ricche
ricchezza
ricchi
ricchissima
ricci
riccia
ricciata
ricciolu
ricciu
ricciula
ricciulata
ricciulatu
riccu
rice
ricente
ricenti
ricerca
ricerche
ricerchi
ricetta
ricettaculu
ricette
riceva
riceve
ricevi
ricevuti
ricevutu
rich
richard
richards
richardson
richesse
richezza
richiede
richiesta
richiesti
richiestu
richjama
richjamatu
richt
richter
ricintamenti
ricintu
ricipienti
ricircadori
ricircati
ricita
ricivendu
ricivi
riciviti
ricivutu
rick
riclama
rico
ricodda
ricoddani
ricolla
ricollanu
ricolta
ricopre
ricorda
ricordani
ricordi
ricordu
ricorsu
ricriazioni
ricu
ricuccata
ricudda
ricuddanti
ricugnizioni
riculla
ricumandatu
ricumpensa
ricumpinsa
ricunniscendu
ricunniscenza
ricunnisci
ricunniscimentu
ricunnisciuta
ricunnisciute
ricunnisciuti
ricunnisciutu
ricunnissioni
ricunnosce
ricunnoscenu
ricunnosci
ricunnoscia
ricunnuscimentu
ricunnusciuta
ricunnusciutu
ricunquista
ricupara
ricuparta
ricupera
ricuperatu
ricuperta
ricurda
ricurdata
ricurdati
ricurdatu
ricurdendu
ricurrenza
ricusa
ricusatu
ricuso
ricustruita
ricustruitu
ricustruzzione
ricustruzzioni
ricusu
rida
ridatta
ridatti
ridattori
ridattu
ridazzioni
ride
ridere
ridi
ridiculu
ridighja
ridley
ridossu
ridrizza
riduce
riducendu
riduci
riducia
ridutta
ridutti
riduttu
riduzioni
ried
riedizione
riemann
riemanniana
riempia
riempie
rientra
riesce
riescenu
riesci
riescia
riescini
riescita
riesciutu
rifa
rifarenza
rifarisce
rifariscia
rifatta
rifattu
riferenza
riferi
riferighja
riferimenti
riferimentu
riferisce
riferisci
riferiscia
rifiri
rifirimenti
rifirimentu
rifirisce
rifirisci
rifiriscia
rifiuta
rifiutatu
rifiuti
rifiutu
rifle
riflessa
riflessi
riflessione
riflessioni
riflessu
rifletta
riflette
rifletti
riflissioni
riforma
riforme
riformi
rift
rifughja
rifughjo
rifughju
rifugi
rifugiu
riga
rigali
rigalu
rigettu
righjenti
righjenza
righjimentu
righjina
righjini
righjistrata
righjone
righjoni
righjonu
righjunghja
righjunghje
righjunghjendu
righjunghji
righjunghjini
righjunsi
righjunta
righjuntu
right
rightarrow
rigidu
rigimu
rigina
rigione
rigioni
rigistra
rigistrata
rigistrazione
rigiunale
rigiunali
rigna
rignanti
rigoni
rigore
rigressu
rigrissioni
riguarda
riguardani
riguardanti
riguardanu
riguardu
rigulamentu
rigularamenti
rigulare
rigulari
rigularmente
rigurosa
rigurosu
riiscendu
riisci
riiscini
rilativa
rilativamenti
rilativi
rilativu
rilazione
rilazioni
rileva
rilevu
rilievi
rilievu
rilighjoni
riligione
riligioni
riligiosa
riligiose
riligiosi
riligiosu
rim
rima
rimana
rimanda
rimandani
rimane
rimanente
rimanenti
rimanini
rimarca
rimarchevule
rimarchevuli
rimase
rimbaud
rimborsu
rime
rimediu
rimessa
rimetta
rimette
rimore
rimori
rimorsu
rimotu
rimpatriatu
rimpiazza
rimpiazzamentu
rimpiazzata
rimpiazzati
rimpiazzatu
rimpiazzendu
rimprovaru
rimproveru
rimpruvara
rimpruvera
rimpruvira
rina
rinaghju
rinaldi
rinasce
rinascenza
rinascia
rinascimentale
rinascimentu
rinascita
rinatu
rinchjusu
rindendu
rindia
rinesi
rinforzi
rinforzu
rinfurza
rinfurzamentu
rinfurzata
rinfurzatu
ring
ringrazia
rininca
rinnova
rinnovu
rinnuva
rinnuvamentu
rinose
rinosi
rinosu
rinucciu
rinumata
rinumati
rinumatu
rinuncia
rinvia
rinvivisce
rio
rioplatense
ripara
riparata
riparti
ripartizione
ripartizioni
riparu
ripeta
ripete
ripetizione
ripetutu
ripide
ripiglia
ripiglianu
ripigliaria
ripigliatu
ripigliendu
ripigliu
ripituta
ripituti
ripken
riporta
riposa
riposani
riposu
ripprisenta
ripprisentani
ripprisentanu
ripprisinta
ripprisintanti
ripprisintata
ripprisintati
ripprisintatu
ripprisintava
ripprisintavani
ripprisintazione
ripprisintazioni
ripprisintendu
ripprisinto
ripresa
riprese
ripresi
ripresini
ripressione
ripresu
riprisenta
riprisentanu
riprisinta
riprisintati
riprisintativu
riprisintatu
riproduce
riproduci
riproduzione
ripruduzioni
ripubblica
ripubblicana
ripublica
ripublicana
ripublicata
ripubliche
ripurta
ripurtata
ripurtati
ripurtatu
ripurtendu
ripusa
ris
risa
risale
risaltu
risanamentu
risata
riscalda
riscaldamentu
risciutu
riscontru
rise
risede
risedi
risenti
riserva
riservata
riservatu
riserve
riservi
risi
risica
risichi
risicu
risidenti
risidenza
risidia
risidianu
risirvata
risirvatu
risista
risistenza
risolta
risoltu
risoluzione
risolva
risolve
risorsa
risorse
risorze
risorzi
risparmia
risparmiata
risparmiu
rispechja
rispeta
rispetta
rispettivamente
rispettive
rispettivi
rispettu
rispinghja
rispinghje
rispinta
rispintu
rispira
rispiru
rispitta
rispittati
rispittendu
rispittivamente
rispittivamenti
rispittivi
risplende
risponda
risponde
rispondi
rispose
risposi
risposta
risposte
rispostu
rispunsabilita
rispunsevule
rispunsevuli
ristampa
ristanti
ristaurazioni
ristituzioni
risto
ristoranti
ristori
ristretti
ristrettu
ristrizzioni
risturanti
risturazione
risu
risulta
risultanti
risultanu
risultati
risultatu
risultendu
risuluzioni
risurrizioni
rit
rita
ritarda
ritardu
ritena
ritene
riteni
ritenini
ritenutu
riti
riticeddu
ritimu
ritinuta
ritinutu
ritira
ritirani
ritirata
ritiratu
ritiro
ritiru
ritmi
ritmica
ritmu
ritondu
ritoni
ritonu
ritorica
ritorna
ritorno
ritornu
ritratti
ritrattu
ritrova
ritrovanu
ritruva
ritruvamenti
ritruvamentu
ritruvata
ritruvate
ritruvati
ritruvatu
ritruvemu
ritruvo
ritta
rittangulari
rittanguli
rittangulu
ritti
rittori
rittu
rittʃu
ritu
rituale
rituali
riturna
riturno
riu
riunione
riunioni
riunisce
riuniscenu
riuniscia
riuniti
riunitu
riusci
riva
rivages
rivale
rivali
rivalita
rivaritu
rive
rivela
rivendica
rivendicazione
rivendicazioni
rivene
riveni
riventosa
river
rivi
riviera
riviere
rivila
rivilata
rivilatu
rivindica
rivinutu
rivisioni
rivista
riviste
rivisti
rivolta
rivolte
rivolti
rivoltu
rivoluzione
rivoluziunarii
rivulta
rivultati
rivuluzione
rivuluzioni
rivuluziunaria
rivuluziunariu
rizomu
rizzanesi
rizzanesu
rizzoli
riʃʃa
riʃʃɛ
rj
rk
rko
rl
rm
rms
rn
ro
road
rob
roba
robba
robert
robertiana
roberto
robertson
robertu
robin
robinia
robinson
robustu
rocca
roccapina
rocce
rocchi
rocci
roccia
rocco
roccu
rocher
rock
rocks
rocky
rococo
rod
roda
rodanu
rode
rodere
rodi
rodiu
rodolfo
rodrigo
rodriguez
roe
rogelio
roger
roglianu
rogna
rol
roll
rolland
rolli
rolling
rollins
rollu
rolu
rom
roma
romagna
romagnolu
romain
romaine
roman
romana
romance
romane
romanes
romanetti
romani
romania
romanica
romano
romanticu
romanu
romanza
romanze
romanzi
romanzo
rombu
rome
romeo
romero
romieu
romolini
romolo
rompa
rompe
romulu
ron
ronald
ronaldo
ronchi
roncu
ronda
rondina
rondu
rontgen
rood
room
rooney
roosevelt
ropa
ros
rosa
rosazia
roscio
rose
rosetta
rosi
rospu
ross
rossa
rosse
rossi
rossius
rosso
rossonoemi
rossu
rostam
rostinu
rosulu
rota
rote
rotgesii
rotica
rotte
rotterdam
rottu
rouen
rouge
rousseau
routledge
rouy
rovere
rowan
roy
royal
royce
roza
rozi
rozu
rp
rq
rr
rs
rt
rtu
ru
rua
ruanda
ruandese
ruandesu
ruben
rubens
rubertu
rubra
rucchetta
rucciosa
rucciose
rucciosi
rucciosu
ruckstuhl
ruderi
rudolf
rue
rufina
rugby
rugeru
ruggeru
rughjeru
rughjone
rughjoni
rughjonu
ruglianu
rugosa
ruine
ruisseau
ruiz
rules
rum
ruma
rumagna
rumana
rumanciu
rumane
rumanescu
rumani
rumania
rumanica
rumaniche
rumanichi
rumanicu
rumanizzazione
rumantica
rumantichi
rumanu
rumanza
rumanze
rumanzi
rumanzieru
rumanzo
rumanzu
rumbu
rumenu
rumenzuli
rumex
rumore
run
rundinedda
rundona
rundonu
rupicapra
rurale
rurali
rus
rusariu
rusazia
ruscus
rusetta
rush
rusignolu
rusiu
ruspa
ruspigliani
ruspu
russa
russell
russi
russia
russicci
russiccia
russicciu
russie
russii
russiu
russoi
russu
russura
rustaghja
rustem
rustinu
rusulatu
rusulini
rusulinu
rut
ruta
rutaceae
rutali
rutazione
rutazioni
rutenia
rutherford
rutondu
ruttura
ruvina
ruvinata
ruvinatu
ruvine
ruvini
ruza
ruzunu
ruzzica
rv
rw
rx
ry
ryan
rz
røst
rǝmanǝ
rɛ
rɛzɛ
s
s0
s1
s2
s3
s4
s5
s6
s7
s8
s9
sa
sabato
sabatu
sabbatu
sabbia
sabina
sabine
sabini
sabinu
saccargia
saccheddhu
saccheghju
sacchetta
sacchettu
sacchi
sacchighjata
saccifera
saccu
sacirdutessa
sacra
sacramentu
sacri
sacrifica
sacrifico
sacrifizii
sacrifiziu
sacrileghju
sacru
saddam
saecula
saetta
saflieni
saga
sagdeg
saggi
saggiatore
saggio
sagittariu
sagittarius
sagmarium
sagone
sagra
sagri
sagru
sahara
sai
saigo
saint
sainte
sal
sala
salam
salama
salamanca
salamandra
salamina
salamu
salariu
salata
salazar
sale
salem
salentinu
salentu
salernu
salge
salgetu
sali
salicaceae
salicetu
saliciu
salini
salinita
salisb
salisburgu
saliva
salle
salm
salma
salmi
salmo
salomone
saloniccu
salottu
salpo
salsa
salt
salta
salteriu
salti
saltu
salumoni
salusio
saluta
salutatu
salute
salutu
saluzzo
salva
salvador
salvaguardia
salvatica
salvatiche
salvatichi
salvaticu
salvator
salvatore
salvatu
salve
salvendu
salvezza
salvi
salvini
salvo
salvu
salzmannii
sam
sambucu
sambucucciu
sambucus
sambula
sambule
sameri
sameru
samirini
sammartinu
samo
samoa
samos
samperu
sampieru
sampolu
samuanu
samuel
san
sana
sanchez
sancta
sanctam
sancti
sanctis
sanctus
sandro
sandǝ
sanfourche
sangallo
sangavinacciu
sangre
sangru
sangue
sanguem
sangui
sanguina
sanguinari
sanguinosa
sanguinosi
sani
sanita
sannazaro
sanni
sanniti
sanniu
sans
sanscrita
sanscritu
sansonu
sant
santa
santacroce
santacroci
sante
santelli
santi
santiago
santificatu
santini
santisima
santissima
santissimu
santiuccia
santo
santoni
santonu
santos
santu
santuarii
santuariu
santucci
santucciu
sanu
sao
saone
sapara
sapare
sapari
sape
sapemu
sapendu
sapere
sapete
sapia
sapianu
sapienti
sapienza
sapiutu
saponaria
sapore
sappiutu
sapurita
saputu
sar
sara
saraceni
saraciniscu
saraghju
saragozza
sarah
sarai
sarajevo
sarani
saranu
saravelli
sarchjatu
sarcofagu
sarconu
sarda
sarde
sardegna
sardi
sardigna
sardinia
sardo
sardu
sardus
sare
sarebbe
saremu
sareti
sari
saria
sariani
sarianu
saristi
sarkozy
sarmati
sarocchi
sarothamnus
sarpe
sarpi
sarra
sarracini
sarratu
sarratura
sarrionandia
sarrula
sarte
sartinese
sartinesu
sartre
sas
sascia
sasciatu
sass
sassa
sassaresa
sassarese
sassaresu
sassari
sassone
sassoni
sassonia
sassu
sat
satanassu
satelliti
satellitu
satiri
satiru
sativa
sativum
sativus
satsuma
saturatu
saturnu
saudita
sauli
saumarium
saunders
saussure
sauvage
save
savelli
saveriu
saving
saviu
savoia
savona
savone
savonu
savviezza
savviu
say
saziu
sb
sba
sbaglia
sbagliu
sbandonu
sbarabattula
sbarca
sbarcani
sbarcanu
sbarco
sbarcu
sbc
sbiecu
sbiota
sbira
sbirri
sbirru
sbiuta
sbocca
sboccu
sbuccava
sc
sca
scacchi
scaccia
scaffu
scafulata
scafulatu
scaglia
scaglie
scagliola
scagna
scagni
scagnu
scala
scalda
scaldamentu
scaldata
scale
scaledda
scalenu
scali
scalinata
scalinati
scalini
scalone
scalu
scalza
scalzi
scalzu
scambia
scambiatu
scambii
scambiu
scanciolu
scandalu
scandinava
scandinavi
scandinavia
scandula
scanna
scannata
scannu
scapatu
scappa
scappati
scappinu
scappo
scapuli
scarpi
scarpu
scarsa
scarsi
scarsita
scarta
scarti
scartu
scartutipu
scata
scatinatu
scatino
scatula
scatule
scaturiscia
scava
scavalca
scavata
scavate
scavati
scavatu
scavi
scavu
sce
sceccu
scedda
sceglia
sceglie
sceglienu
sceglini
scelsi
scelta
scelti
sceltu
scema
scemu
scena
scenarii
scenariu
scende
scendi
scene
sceni
scentifica
scentifiche
scentifichi
scentificu
scenza
scenze
scenzi
scenziati
scesi
scettru
sch
scheda
scheiwiller
schelatru
schema
schemi
schengen
schersa
schersi
schersu
scherzu
schi
schiassula
schiava
schiavi
schiavitu
schiavu
schincu
schirzanti
schirzosu
schjaffu
schlieffen
schmidt
schneider
school
schult
schultes
schumpeter
schwa
schwartz
schwarze
schwarzenegger
sci
scia
sciaccia
sciacciata
sciacciatu
sciagura
sciamanisimu
scianca
sciancu
scianza
sciappa
sciappapetra
sciappata
sciarra
science
sciences
scientific
scientifica
scientifiche
scientifichi
scientificu
scienza
scienze
scienzi
sciffri
scigliendu
scilla
scimia
scimiu
sciocchi
sciolta
scipio
scipione
scipioni
sciroccu
sciroppu
sciti
sciu
sciuglimentu
sciuppettu
sciuppuleddu
sciva
scizia
scoddi
scoddu
scogli
scogliu
scola
scolastica
scolca
scole
scoli
scolopax
scolymus
scompii
sconosciuto
scontr
scontra
scontrani
scontranu
scontri
scontru
scop
scopa
scoparia
scoparius
scope
scopi
scopoli
scoppia
scoppiu
scopra
scopre
scoprenu
scopri
scopu
scopus
scor
score
scornaboi
scornu
scorpius
scorra
scorre
scorri
scorrini
scorru
scorsi
scorsu
scorza
scot
scotia
scotland
scots
scott
scottish
scottorum
scozia
scratch
scri
scrianzatu
scriptus
scrisse
scrissi
scritta
scritte
scritti
scrittore
scrittori
scrittrice
scrittrici
scrittu
scrittura
scritture
scriva
scrivana
scrivani
scrivanu
scrive
scrivendu
scrivenu
scrivi
scrivia
scriviti
scrizzione
scrizzioni
scrizzula
scrofa
scu
scudeddu
scudella
scudi
scudu
scuffia
scugliera
scugliere
scuglieri
sculari
scularu
sculasticu
sculpita
sculpitu
scultati
scultatu
scultore
scultori
scultura
sculture
sculturi
scumparsa
scumpartuti
scumpiitu
scumunica
scuncertina
scunfighja
scunfisse
scunfissi
scunfitta
scunfitti
scunfittu
scunnisciuta
scunnisciuti
scunnisciutu
scuntra
scuntrate
scuntratu
scuntro
scuntumatu
scuola
scupaghjola
scupaghju
scupame
scupamena
scuparta
scuparti
scupartu
scupatu
scuperta
scuperte
scuperti
scupertu
scupinu
scuppia
scupri
scupridore
scupridori
scupritore
scura
scurda
scure
scuri
scurpionu
scurrendu
scurtica
scuru
scusa
scutinu
scutum
scuz
scuzzese
scuzzesi
scuzzesu
sd
sdrughjini
se
sea
seaborg
sean
seanza
search
seattle
sebastian
sebastiano
sebastianu
sebbene
sec
secanti
secca
secche
secchi
seccu
secoli
secolu
second
seconda
seconde
secondi
secondo
seconds
secondu
secret
secretariu
secreti
seculi
seculu
secunda
secundarii
secundariu
secundu
secundum
secunnu
sed
seda
sedda
sede
sedeci
sedere
sedi
sedia
sedici
sedii
sedimenti
sedimintarie
sedini
sedintaria
sediu
sedum
see
seed
seezer
segg
segna
segnala
segnali
segni
segnu
segonda
segondu
segre
segue
seguente
seguenti
segui
seguita
seguitanu
seguitata
seguitatu
seguitendu
seguiti
seguito
seguitu
sei
seine
sejanus
sela
selecta
selena
selgiuchidi
selim
selizzioni
sella
sellerio
selva
selvatica
selvatichi
selvaticu
sem
semantica
sembianze
sembra
sembǝ
semi
semifinale
semifinali
semillante
seminariu
semitica
semplice
semplicemente
semplici
sempre
sempri
semu
sen
senatore
senatu
sendi
seneca
senegal
seni
senna
sennen
sensi
sensibile
sensibili
sensu
senta
sentarse
sente
sentenu
senti
sentia
sentimenti
sentimentu
sentire
sento
sentu
senu
senz
senza
sepali
separa
separati
separatu
sepe
seppia
septem
september
sepultura
sequenza
sequestra
ser
sera
serafini
seranu
serapias
serapicamptis
serate
serba
serbe
serbi
serbia
serbicus
serbu
sercha
serebbe
serena
serenatu
serge
sergei
sergio
seri
seria
serianu
serie
series
serii
seriu
sermanu
sero
serpens
serpentini
serpu
serra
serraghju
serravalle
serriera
sersi
seru
serva
serve
servi
servia
servianu
service
servini
servitu
servizii
serviziu
servutu
ses
sessanta
sessi
sessile
sessions
sessu
sessuale
sessuali
sessualita
sesta
sesto
sestu
set
seta
sete
seth
seti
settanta
sette
settefrati
settembre
settentrionale
settentriunale
settentriunali
setti
setticentu
settima
settimana
settimo
settimu
settinariu
settore
settori
settɛ
seul
seven
sevi
sevindentru
sevinfora
sex
sezione
sezzione
sezzioni
sf
sfa
sfaci
sfarente
sfarenti
sfarenza
sfassa
sfattu
sfavurevule
sfera
sfere
sferi
sferica
sfericu
sfida
sfinazzatu
sfingi
sfiroidu
sfocia
sfociani
sfonda
sfondamentu
sfondu
sformo
sforza
sforzi
sforzu
sfringuiddeghja
sfronda
sfrutta
sfruttamentu
sfruttati
sfruttatu
sfruttendu
sfucia
sfuga
sfughja
sfunda
sfundata
sfurza
sg
sgaghja
sgalabatu
sgia
sgio
sgiu
sgranfia
sgrinfia
sgruppata
sguardu
sguizzera
sh
shahnameh
shakespeare
shakira
shalom
sharps
shaw
she
sheen
shelley
sheppard
sherman
shetland
shiraz
shock
shogun
shogunatu
short
show
shuttleworth
si
sia
siam
siamu
sian
siani
sianu
siat
sibbula
siberia
sibirianu
sic
sicca
sicche
sicchina
siccomu
siccu
siche
sicilia
siciliae
siciliana
siciliani
sicilianu
sicilie
siconda
siconde
sicondi
sicondu
sicreta
sicreti
sicretu
sicritamenti
sicula
siculare
siculari
siculu
siculus
sicunda
sicundaria
sicundarii
sicundariu
sicundu
sicura
sicuramente
sicuramenti
sicurezza
sicuri
sicuru
siddhanta
side
sidimenti
sidimintarii
sidney
siducia
sie
siecle
siena
sient
sierra
siete
sieyes
sighi
siglo
sigma
sigmenti
sigmentu
sigmund
sign
signa
signac
signala
signalata
signalatu
signaletica
signali
signatu
signatura
significa
significati
significativa
significativamente
significativamenti
significative
significativi
significativu
significatu
significava
significheghja
significhendu
signor
signora
signore
signori
signu
signuria
signurie
sigourney
siguaci
siguendu
siguente
siguenti
sii
siini
silbermann
silent
silenziu
siliceu
silicia
siliciu
silicon
silla
sillaba
sillabazione
sillabazioni
sillabe
silva
silvani
silvarecciu
silver
silvestre
silvestru
silvia
silvio
sim
simana
simane
simbianzi
simbolica
simbolicu
simbolu
simbrava
simbuli
simbulicamenti
simbuliza
simbulizeghja
simbulu
simeoni
simetricu
simia
similarita
simile
simili
similitudina
similitudine
similitudini
simitria
simmitria
simon
simone
simoni
simonpoli
simonu
simplice
simplicemente
simplici
simplicia
simpliciamente
simpliciamenti
simplicio
simplicita
simpliciu
simplifica
simplificatu
simpsons
simu
simule
simuli
simultaneamente
sin
sinai
sinan
sinatori
sinceru
sindhi
sindromu
sine
sinema
sing
singalese
singapore
singhjari
single
sings
singula
singulare
singulari
singuli
singulu
sini
sinistra
sinistru
sinno
sinonimi
sinonimo
sinonimu
sintassa
sintendu
sintenza
sintesi
sintetica
sinteticu
sintetizzatore
sinti
sintia
sintimenti
sintimentu
sintineddi
sintite
sinu
sinucellu
sio
siont
sipara
siparata
siparatamenti
siparati
siparatu
siparazione
siparazioni
sipari
sipolti
sipoltu
sippidditi
sippuri
sipultura
sipulturi
siquenza
sir
siracusa
siracusana
sirata
sirena
sirenu
sirga
siria
sirinata
sirinatu
sirintini
sirvendu
sirvi
sirvia
sirvizii
sirviziu
sischese
siscu
sismicu
sismu
sismugrafu
sissanta
sissuale
sissuali
sissualita
sistema
sistematica
sistematichi
sistematicu
sistemi
sistemu
sistina
sistini
sistru
sit
sita
sitcom
site
sites
siti
sittanta
sittembre
sittembri
sittemmiru
sittentriunale
sittentriunali
sittimana
sittimani
sittimbrinu
sittintriunali
sittore
sittori
situ
situata
situate
situati
situatu
situazione
situazioni
situeghja
sivera
siviglia
six
sixto
sizioni
sizzioni
sj
sjɔ
sjɔnɛ
sk
ska
skin
skorba
skut
sky
skyphos
sl
slava
slavu
sleep
slovacchia
slovenia
slow
sluvacchia
sluvaccu
sluvenia
sluvenu
sm
small
smarita
smarrita
smarritu
smentica
smeralda
sminteca
smintica
sminticati
sminticatu
sminuendu
smiralda
smith
sn
snow
snp
snyder
so
sobat
sobre
soca
soccia
social
sociale
sociali
socialisti
socialistu
sociaru
societa
societe
society
socio
sociologia
sociology
sociu
socrati
socu
soda
sodiu
soffia
soffiani
soffiu
soffre
sofia
sofocle
software
sogni
sognu
sogu
soi
soia
soii
soiu
sol
sola
solamente
solamenti
solanaceae
solanum
solar
solare
solaris
solcu
solda
soldati
soldi
soldu
soldǝ
sole
solenzara
soli
solida
solidi
solidu
solimanu
solis
solita
solitarius
soliti
solitu
solitudinem
solli
sollu
solo
solstiziu
soltantu
solu
soluzione
soluzioni
solǝ
somalu
some
something
somma
somme
sommi
son
sona
sonate
sonchus
sonda
sondaghju
sondrio
sone
song
songs
soni
sonic
sonnii
sonniu
sonnu
sono
sonora
sont
sonu
sony
soo
sophie
sopr
sopra
sopracigliu
sopranaturali
soprannomu
sopranome
sopranomi
sopranomu
sopranu
soprapiu
sopraporta
soprapposti
soprappusizioni
soprattuttu
sopratuttu
sopravvissutu
sopravviva
sopravviventi
sopravvivenza
sopravvivi
sopravvivini
sopravvivutu
soprusciu
sor
sora
sorbi
sorbonne
sorbu
sorbus
sorda
sordi
sordu
sorge
sorghja
sorghje
sorghji
sori
soria
soriu
sorpresa
sorres
sorru
sorta
sorte
sorti
sortito
sos
sostantivo
sott
sotta
sotto
sottu
sottudiscipline
sottufam
sottufamiglia
sottugruppu
sottuinsemu
sottulinia
sottumarina
sottumarini
sottumarinu
sottumessu
sottumetta
sottumette
sottumissi
sottupostu
sottusp
sottuspezia
sottuspezie
sottuspezii
sottustanti
sottutitulu
sottutrupicali
souda
soul
sound
source
sous
south
sovrani
sp
spa
spacca
spaccata
space
spada
spadda
spaddi
spadi
spagna
spagnola
spagnole
spagnoli
spagnolo
spagnolu
spagnulu
spain
spalla
spalle
spanish
spanna
spannata
spanu
spanzotti
spapersi
spara
sparati
sparghja
sparghje
sparghji
spargi
sparidae
sparisce
spariscenu
sparisci
spariscia
sparita
sparite
spariti
sparitu
sparizione
sparizioni
sparrow
sparse
sparsu
sparta
spartani
sparte
spartenu
spartera
sparti
spartiacqua
spartiacque
spartimentu
spartium
spartu
spartuta
spartutu
spassighjata
spassu
spaventu
spaziale
spaziali
spazii
spaziu
spazza
spazzola
spazzula
spazzuletta
speak
spechju
special
speciale
specialita
specializa
specializati
specialmente
specie
species
specifica
specifiche
specifichi
specificu
speculazione
speculum
spedizione
spegna
spegne
speke
spencer
spenghja
spenghje
spenti
spentu
spera
speranza
speranze
sperate
sperienza
sperienze
sperimenti
sperimentu
sperimintali
spertu
spesa
spese
spesi
spessa
spessu
spettaculi
spettaculu
spettru
spezia
spezialmente
spezie
spezii
spezza
sphegodes
spi
spia
spiaghja
spiaghje
spiaghji
spica
spicca
spiccata
spiccati
spiccatu
spiccu
spichji
spichju
spicialamenti
spiciale
spiciali
spicialisti
spicialistu
spicialita
spicializati
spicifica
spicifichi
spicificita
spicificu
spiculi
spiculu
spidali
spider
spidizioni
spiduchja
spiega
spiegazione
spielberg
spiga
spigna
spigne
spigni
spiiga
spiigaria
spiigatu
spiigazione
spiigazioni
spila
spin
spina
spine
spinedda
spinghja
spinghje
spinghji
spini
spinitriculu
spinola
spinosa
spinta
spinti
spintu
spinu
spira
spiral
spirale
spirali
spiralis
spiranthes
spiranza
spiranze
spirendu
spirienza
spirienzi
spirimintati
spirit
spiriti
spiritu
spirituale
spirituali
spirtizia
spissore
spissori
spissu
spittaculari
spittaculu
spittatori
spiziale
spiziali
splendida
splendidi
splendore
splindenti
split
splura
splurazioni
splusioni
splusivi
splusivu
spo
sponda
sponde
spondi
sport
sporta
sporti
sporting
sportiva
sportivi
sportivu
sports
sportu
sposa
sposi
sposo
sposta
sposu
spressione
sprima
sprimati
sprimatu
sprime
spring
springer
springfield
springs
spris
sprissione
sprissioni
sprissivu
sprone
sproni
spronu
spu
spunta
spuntanea
spuntera
spuradicamenti
spurtellu
spurtiva
spurtivi
spusa
spusata
spusati
spusatu
spusedda
spusella
spuso
spusta
spustamenti
spustamentu
sputa
sputica
sputicamenti
sputichi
sputicu
sq
sqrt
squacquareghja
squadra
squadre
square
squatra
squatre
sr
sri
ss
ssa
sse
ssi
ssp
ssu
st
sta
stabat
stabile
stabili
stabilimenti
stabilimentu
stabilini
stabilisce
stabilisci
stabiliscia
stabilita
stabiliti
stabilitu
stabuli
stabuliscia
stacca
staccata
staccati
stachys
stadi
stadii
stadiu
stadium
stadt
staff
staffa
staghjone
staghjoni
staghju
staghjunali
stagione
stagioni
stagni
stagnu
stai
staia
stalinu
stalla
stallanu
stallata
stallati
stallatu
stallazione
stalletini
stallo
stam
stamane
stami
stamine
stampa
stamparia
stampata
stampati
stampatu
stamperia
stampi
stampu
stan
stanca
stancia
stancu
stand
standard
stani
stanislau
stanisław
stanley
stanta
stantara
stantare
stantari
stantarolu
stanu
stanza
stanze
stanzi
star
stare
stark
starnuta
stars
startup
stasera
stata
statale
statali
state
states
stati
statina
statistica
statistical
statistiche
statistichi
statisticu
stato
statu
statua
statue
statuetti
statui
statula
statunitense
statunitensi
statura
status
statutu
stava
stavani
stavanu
stazione
stazioni
stazona
stazzali
stazzi
stazzona
stazzoni
stazzu
ste
steatoda
stedda
steddhi
steddi
steel
stefan
stefanelli
stefano
stefanu
stein
steinhaus
stela
stella
stellare
stellatum
stelle
stellu
stemma
stenda
stende
stendi
stendini
stendu
stenu
stephane
stephanopoli
stephen
steppa
sterili
steriore
sterling
stern
sternuti
sterpa
stesa
stese
stesi
stessa
stesse
stessi
stesso
stessu
stesu
steti
steve
steven
stevens
stevenson
stewart
sti
stia
sticchitu
stidda
stiddari
stigi
stile
stili
stilizata
still
stilu
stima
stimadori
stimata
stimati
stimatu
stindia
stindiani
stintu
stinza
stiria
stiriori
stirling
sto
stocafissu
stoccafissu
stoccolma
stock
stockholm
stocu
stomacu
stonda
stone
stones
stop
stoppa
storia
storica
storicamente
storiche
storichi
storico
storicu
storie
stories
storii
storti
stortu
story
stra
strabone
strabonu
stracci
strada
stradale
stradali
strade
stradeddu
stradelli
stradellu
stradi
stradona
stradone
stradoni
stradonu
straits
strambu
strana
straniera
straniere
stranieri
stranu
strapiomba
strappa
strappo
strasbourg
strasburgu
strascina
strascinu
stratagema
stratega
strategia
strategica
strategicu
strategie
strati
stratta
stratti
strattu
stratu
straurdinaria
straurdinarii
straurdinariu
straziu
stream
street
strega
stresemann
stress
stretta
strettamente
strette
stretti
strettu
strigne
strigni
striker
stringhje
stringiamci
strinse
strinti
strisce
strisci
striscia
strittamente
strittamenti
strittone
strittoni
strittonu
strittu
strittǝ
stroppia
stru
structure
strufetta
strughje
struisce
struiscia
struitu
strumentale
strumenti
strumentu
strup
struppia
struppiatu
struttura
strutturali
strutturatu
strutture
strutturi
struzzione
struzzioni
struzzu
stu
stuart
stucchi
student
studente
studenti
studi
studia
studianti
studiata
studiati
studiatu
studie
studieghja
studiente
studienti
studies
studii
studio
studios
studiosi
studiu
study
stuff
stughjanti
stuicisimu
stumacati
stunanti
stupa
sturditu
sturicamente
sturicamenti
sturiugrafia
sturneddi
sturneddu
sturnus
stuvigli
stuvigliu
su
sua
suale
suara
suaredda
suarella
suartellu
suave
suaveolens
suazo
sub
subaffittu
subcuntinenti
subduzioni
subfusca
subi
subisce
subisci
subita
subitamente
subiti
subitu
subrana
subraneghjani
subsidenza
subsp
substantivo
substratu
subvenite
succedda
succede
succedi
succedini
succesi
successi
successione
successiva
successivamente
successivamenti
successive
successivi
successivu
successore
successori
successu
succissioni
succissiva
succissivi
succissivu
succissori
succorri
succorsu
succotrina
succursali
sucessu
suceta
suchja
suchju
suciale
suciali
sucialista
sucialisti
sucialistu
sucieta
sucita
suciulugia
sud
suda
sudafrica
sudafricanu
sudamerica
sudamericana
sudan
sudanesa
suddacaro
suddivisa
suddivisi
suddivisione
suddivisioni
suddivisu
sudeste
sudestu
sudore
sudori
sudu
suduccidintali
sudupunente
sudupunenti
suduriintali
suduvestu
sue
suez
suf
suffia
sufficente
sufficienti
suffissu
suffisticati
suffraghju
suffrenzi
sufisti
sufistu
sughjetta
sughjetti
sughjettu
sughjiri
sughjirimenti
sughjirisci
sughjiriscini
sughjiritu
sughjorna
sughjorni
sughjornu
sui
suicidiu
sul
sulaghju
sulamente
sulamenti
sulare
sulari
sularia
sularii
sulariu
sularu
suldati
suldatu
sulenni
sulennita
sulennu
suli
sulidarita
sulidifichendu
sulinzara
sulitarii
sulitariu
sulitudina
sulitudine
sulitudini
sulivu
sull
sulla
sullivamentu
sullu
sulonu
sulphur
sultana
sultantu
sultanu
suluzioni
sulǝ
sum
sumalia
sumatra
sumenti
sumera
sumere
sumeri
sumeru
sumiglianza
sumiglianze
sumiglianzi
suminatu
summazioni
summita
sun
sunate
sunatu
sunday
sundgau
sunetti
sunettu
sung
suniteghja
sunori
sunoru
sunt
suo
sup
supara
suparatu
supareghja
suparficia
suparficii
super
supera
superata
supercuntinenti
superficia
superficiale
superficie
superiore
superiori
superlativu
superman
supernova
supirficiali
supiriori
supiriurita
suppa
supplementarii
supplemintarii
suppliziu
suppona
suppone
supponi
supporta
supportu
supposta
suppostu
suppurta
suppurtevule
suppurtevuli
supra
suprana
supranacciu
supranatu
supraneghja
suprani
supranu
suprattuttu
supratuttu
suprema
supremazia
supremu
sur
sura
surbudda
surci
suredda
sureddi
surella
surelle
surgente
surghjente
surghjenti
surghjia
surpresa
surrey
surrida
surride
surrisu
surtita
surtiti
surtitu
surviglia
surviglianza
sus
susa
susan
suscitatu
suscito
sushi
susini
suspetta
suspetti
suspettu
suspira
suspiri
suspittatu
suspresa
sustantivi
sustantivu
sustanza
sustanzi
sustanzialamenti
sustanziale
sustanziali
sustegnu
sustena
sustene
sustenenu
susteni
sustenini
sustenitori
sustensi
sustenutu
sustenza
sustinendu
sustinia
sustinidori
sustintamentu
sustinuta
sustinuti
sustinutu
sustitui
sustituisce
sustituiscia
sustituita
sustituitu
sustratu
sutherland
sutras
suttana
suttanacciu
suttane
suttanu
suttarranii
suttile
suttili
suttraendu
suttrattu
suttrazzioni
suttu
suvara
suvari
suvariccia
suvente
suventi
suveria
suvi
suvietica
suvietichi
suvieticu
suvita
suvitani
suvitanu
suvitata
suvitate
suvitati
suvitatu
suvitendu
suvito
suvitonu
suvrana
suvrani
suvranita
suvranu
suzanne
sv
svedesa
svedese
svedesu
svegliu
svela
svelani
svelatu
svetonio
sveva
svevi
svevia
svevu
svezia
svidese
svidesi
svidesu
svila
svilatu
svilo
sviloppa
sviloppani
svilupa
sviluppa
sviluppani
sviluppanu
sviluppata
sviluppate
sviluppati
sviluppatu
sviluppendu
sviluppi
sviluppo
svilupponu
sviluppu
svizzara
svizzari
svizzera
svizzeri
svizzeru
svoglie
svolse
svolsi
svolta
svolti
svoltu
svulghjiani
sw
swaen
swahili
swann
swansea
sweet
switzerland
sword
sx
sy
sydney
sylvatica
sylvestris
sylvia
symonds
synonimu
system
systema
sz
szkoła
sztemon
sǝ
sə
sɛ
t
t0
t1
t2
t3
t4
t5
t6
t7
t8
t9
ta
tabaccu
tabella
table
tabucchi
tabula
tac
tacca
tacche
tacchi
tace
tacere
tacia
tacitu
tadda
taddei
taddeu
tadescu
taekwondo
tafona
tafoni
tafonu
tafunata
tafunatu
tag
tagalog
taghjicu
tagli
taglia
tagliacarne
tagliafarru
tagliata
tagliati
tagliatu
tagliendu
tagliu
tagliuti
tailandese
taiwan
take
tal
talabeddu
talamoni
talasani
talaveddu
talavelli
talavellu
talavu
talcahuano
talcini
tale
talenti
talentu
tales
tali
taliana
taliane
taliani
taliano
talianu
talk
talla
tallanu
talleyrand
tallone
talmenti
talvolta
tama
tamant
tamanta
tamantu
tamil
tampiratura
tampiraturi
tan
tana
tanchiccia
tandu
tandǝ
tang
tanganica
tangenti
tangeri
tango
tangsudu
tannini
tant
tanta
tantazioni
tante
tanti
tanto
tantu
tanu
tanuta
tanzania
tappa
tappe
tappi
tappu
tar
tarantedda
tarantinu
taranto
tarantu
taravesa
taravese
taravesu
taravu
tarda
tarde
tardi
tardiva
tardivi
tardivu
tardu
tarentola
targaryen
tarifa
tariq
tarmina
tarminali
tarminata
tarmineghja
tarmineghjani
tarmini
tarminulugia
tarpea
tarpeia
tarquinia
tarquiniu
tarra
tarragnata
tarramuti
tarraniu
tarranoa
tarranu
tarratufula
tarrazza
tarreni
tarrenu
tarri
tarritorii
tarritoriu
tarrituriali
tarrori
tarski
tartaghjine
tartagine
tartaglia
tartaru
tarxien
tasca
tasmania
tassa
tassi
tassu
tassulu
tasterista
tastiera
tastiere
tata
tatari
tataru
tatius
tattica
tatticu
tatto
tattone
tatua
tatuaghju
tau
taubate
taula
taurus
tausch
tavacu
tavagna
tavera
tavignanu
tavii
taviu
tavo
tavola
tavula
tavulara
tavule
tavuletti
tavuli
tavulinu
tavulone
taylor
tazio
tb
tc
tchebourkina
td
te
team
teatrale
teatri
teatro
teatru
tebani
tebi
tecchju
techja
techju
technology
tecnica
tecniche
tecnichi
tecnicu
tecnologica
tecnologicu
tecnulugia
tecu
tecum
tecumseh
ted
tedesca
tedesche
tedeschi
tedescu
teghja
teghje
teguli
tel
tela
telamonu
telefunini
telegrafia
telegrafu
telegraph
telescopiu
television
televisione
televisioni
televisiva
televisivi
teli
tell
telti
tem
tema
tematica
teme
temi
temperatura
temperature
tempi
tempia
tempii
tempio
tempiu
template
temple
tempo
temps
tempu
tempurale
tempus
temu
ten
tena
tenda
tende
tendenu
tendenza
tendi
tendini
tendonu
tene
tenendu
tenente
tenenu
tenere
tenga
tengu
teni
tenia
tennessee
tennica
tensione
tenta
tentativi
tentativu
tentazione
tento
tenuta
tenutu
teodoro
teologu
teoria
teorica
teorichi
teoricu
teorie
teppa
teppe
teppner
ter
teramu
teresa
termale
terme
termi
termica
termichi
termicu
terminale
terminate
terminator
terminatu
termine
termineghja
termini
terminu
terminus
termopili
terni
terra
terracotta
terrae
terraferma
terraghjola
terrain
terrains
terramotu
terramuti
terramutu
terrana
terranea
terranei
terrania
terranii
terraniu
terranova
terrazza
terre
terreni
terrenu
terrestra
terrestre
terrestri
terri
terribile
terribuli
terricciola
terrier
territori
territoriale
territoriali
territorii
territoriu
territuriale
terrore
terry
tersch
tertulla
terza
terzetti
terzi
terziariu
terzine
terzini
terzu
tes
tesa
tese
teseida
teseiu
tesi
tesori
tesoru
tessa
tessi
tessile
test
testa
testamentu
teste
testi
testimone
testimonianza
testimuneghja
testimunianze
testo
testu
testudo
testughjine
tete
teti
tetraedru
tetti
tettonica
tettoniche
tettu
teucru
teudoru
teulugia
teurema
teuria
teurie
tevere
texas
text
textstyle
teɖɖu
tf
tg
th
thai
thailandese
thailandesu
thailandia
than
that
the
theatre
their
thema
theme
themistocles
then
theo
theodor
theodore
theorie
theory
there
thesaurus
these
theta
they
thibault
thiers
thin
thing
this
tho
thomas
thompson
thomson
three
thriller
thrones
through
thuillier
thymus
ti
tia
tiadoru
tiana
tianu
tiatru
tibaru
tiberina
tiberiu
tiberu
tibetanu
tibi
tichju
ticino
ticinu
tie
tiembǝ
tiene
tierra
ties
tifonu
tighjaccia
tighjettu
tigliolu
tigliu
tigna
tigre
tigres
tigri
tigris
tigru
tilatica
tilburg
tiliguerta
tim
time
timendu
timeo
times
timeu
timi
timia
timissi
timizzolu
timonu
timor
timothy
timpanica
timpanu
timparata
timparati
timperate
timperatura
timperature
timpesta
timpeste
timpesti
timpiesu
timpurale
timpurali
timur
tin
tina
tinara
tindenza
tinendu
tinente
tinenti
tingere
tinghja
tinghje
tinia
tiniani
tino
tinori
tinsioni
tinta
tinti
tintin
tintu
tintura
tinu
tinus
tinuta
tinuti
tinutu
tio
tion
tipi
tipica
tipicamente
tipicamenti
tipiche
tipichi
tipicu
tipografia
tippu
tipu
tipulugia
tipulugii
tira
tirannia
tirannu
tirata
tirate
tirati
tiratu
tiratura
tiresa
tiresia
tiro
tirolo
tirreni
tirrenia
tirrenica
tirreniche
tirrenichi
tirrenu
tirsu
tiru
tirulu
tisana
tisgia
tisgiu
tisoru
tissitura
tissuti
tissutu
tista
tistamentu
tistimonii
tistimoniu
tistimunianza
tistimunianze
tistimunianzi
tistimunieghja
titani
titanic
titanu
title
tito
titolo
tittonica
tittu
titu
titulare
titulari
tituli
titulu
titus
tiugunia
tiulugia
tiurema
tiuremi
tiuria
tiuricamenti
tiurii
tiwu
tiziano
tizza
tizzone
tizzonu
tj
tja
tk
tl
tlemcen
tm
tn
to
tobago
tocca
tocchi
tocchisi
tocchisu
toccu
tod
today
todda
todi
toga
togae
toglie
toi
toia
toile
toiu
tokiu
tokugawa
tokyo
tola
toledo
tolle
tolomeo
tolomeu
tolosa
toltu
toluca
tom
toma
tomas
tomasi
tomasu
tomba
tombe
tombi
tombu
tome
tomei
tomi
tominu
tommaseo
tommaso
tommasu
tommy
tomorrow
tomu
ton
tonda
tonde
tondi
tondo
tondu
tonga
toni
tonne
tonni
tonnu
tonti
tontu
tonu
tony
top
topa
topffer
topi
toponimi
toponimia
toponimu
toponyme
toppe
topu
tor
torah
torce
torchitorio
torchitoriu
torci
torcia
tordulu
torelli
tori
torinese
torino
torinu
torna
tornanu
tornei
torneu
torni
tornu
toro
toronto
torra
torre
torres
torri
torta
tortu
tortuga
toru
toscana
toscani
toscanu
toscu
tossa
tossica
tossicu
tot
totale
totalmente
totus
touch
toulouse
tour
touring
tours
tous
tout
toutes
town
tozza
tp
tq
tr
tra
trabucinata
tracce
tracci
traccia
tracciatu
trachinus
tracia
tracy
trad
tradimentu
tradition
traditori
traditu
tradizione
tradizioni
tradiziunalamenti
tradiziunale
tradiziunali
tradiziunalmente
traduce
traducia
traducibili
traduction
traductionem
tradutta
tradutti
traduttori
traduttu
traduzione
traduzioni
traduzzione
traduzzioni
trafalgar
traffichi
trafficu
tragedia
traghetti
tragica
tragicu
tragone
trail
train
trainatu
tralonca
trama
tramandata
tramindui
tramonta
tramontu
tramula
tramuntana
tramuta
tramuto
tran
trani
tranquiddu
tranquillu
transettu
transitivu
transitu
transizione
transizioni
trapani
trapassatu
trapeziu
trascendente
trascina
trascorri
trascorsi
trascorsu
trascrizzione
trascrizzioni
trasferi
trasferimentu
trasferisce
trasferitu
trasfirimentu
trasfirita
trasfiritu
trasforma
trasformatu
trasformo
trasfurma
trasfurmata
trasfurmati
trasfurmatu
trasfurmazione
trasfurmazioni
trasfurmendu
trasfurmo
traslittaratu
traslitteratu
traslitterazione
trasmessu
trasmetta
trasmette
trasmissi
trasmissione
trasmissu
trasparenza
trasporti
trasportu
traspurta
traspurtata
traspurtati
traspurtava
trastevere
tratta
trattamenti
trattamentu
trattanu
trattati
trattatu
trattava
tratti
tratto
trattu
traunatu
trava
travadda
travaddadori
travaddu
travaghju
travagli
travaglia
travagliadore
travagliadori
travaglianu
travagliati
travagliatore
travagliatu
travagliava
travagliendu
travaglii
travaglio
travagliu
trave
travers
traversa
traversani
traversata
traversu
travi
travirsa
travirsata
travirsatu
travirsendu
travis
travisagna
travu
trazione
tre
treccani
trecci
treccia
tredeci
tredecimguttatus
tredici
tree
treglia
trema
tremindu
tremindui
tremula
trent
trenta
trentino
trentinu
trento
trentu
trenu
tres
trezeni
tri
tria
triangulare
triangulari
trianguli
triangulu
triangulum
tribbiera
tribbiu
tribu
tribuna
tribunale
tributariu
tributu
trick
tridentata
tridenti
trieste
trifida
trifogliu
trifogliulu
trigunumetrica
trigunumetrichi
trigunumitria
[...]
