!
"
#
##0
##1
##10
##11
##12
##13
##14
##15
##16
##17
##18
##19
##2
##20
##21
##22
##23
##24
##25
##26
##27
##28
##29
##3
##30
##31
##32
##33
##34
##35
##36
##37
##38
##39
##4
##40
##41
##42
##43
##44
##45
##46
##47
##48
##49
##5
##50
##51
##52
##53
##54
##55
##56
##57
##58
##59
##6
##60
##61
##62
##63
##64
##65
##66
##67
##68
##69
##7
##70
##71
##72
##73
##74
##75
##76
##77
##78
##79
##8
##80
##81
##82
##83
##84
##85
##86
##87
##88
##89
##9
##90
##91
##92
##93
##94
##95
##96
##97
##98
##99
$
%
&
'
(
)
*
+
,
-
.
/
0
00
000
001
002
003
004
007
01
011
02
03
04
05
06
07
08
09
1
10
100
1000
10000
101
1016
102
103
104
105
106
107
108
1080
109
11
110
1100
111
112
113
114
115
116
117
118
119
12
120
1200
121
122
123
124
125
1250
126
127
128
129
13
130
1300
131
132
133
134
135
1350
136
137
138
139
14
140
1400
141
142
143
1430
144
1440
145
1450
1453
146
1460
147
1470
148
1480
149
1490
1492
1493
1494
15
150
1500
1502
1503
151
1510
1512
1513
1515
1516
1517
1519
152
1520
1521
1522
1523
1524
1525
1526
1527
1528
1529
153
1530
1531
1532
1533
1534
1535
1536
1537
1538
1539
154
1540
1541
1542
1543
1544
1545
1546
1547
1548
1549
155
1550
1551
1552
1553
1554
1555
1556
1557
1558
1559
156
1560
1561
1562
1563
1564
1565
1566
1567
1568
1569
157
1570
1571
1572
1573
1574
1575
1576
1577
1578
1579
158
1580
1581
1582
1583
1584
1585
1586
1587
1588
1589
159
1590
1591
1592
1593
1594
1595
1596
1597
1598
1599
16
160
1600
1601
1602
1603
1604
1605
1606
1607
1608
1609
161
1610
1611
1612
1613
1614
1615
1616
1617
1618
1619
162
1620
1621
1622
1623
1624
1625
1626
1627
1628
1629
163
1630
1631
1632
1633
1634
1635
1636
1637
1638
1639
164
1640
1641
1642
1643
1644
1645
1646
1647
1648
1649
165
1650
1651
1652
1653
1654
1655
1656
1657
1658
1659
166
1660
1661
1662
1663
1664
1665
1666
1667
1668
1669
167
1670
1671
1672
1673
1674
1675
1676
1677
1678
1679
168
1680
1681
1682
1683
1684
1685
1686
1687
1688
1689
169
1690
1691
1692
1693
1694
1695
1696
1697
1698
1699
17
170
1700
1701
1702
1703
1704
1705
1706
1707
1708
1709
171
1710
1711
1712
1713
1714
1715
1716
1717
1718
1719
172
1720
1721
1722
1723
1724
1725
1726
1727
1728
1729
173
1730
1731
1732
1733
1734
1735
1736
1737
1738
1739
174
1740
1741
1742
1743
1744
1745
1746
1747
1748
1749
175
1750
1751
1752
1753
1754
1755
1756
1757
1758
1759
176
1760
1761
1762
1763
1764
1765
1766
1767
1768
1769
177
1770
1771
1772
1773
1774
1775
1776
1777
1778
1779
178
1780
1781
1782
1783
1784
1785
1786
1787
1788
1789
179
1790
1791
1792
1793
1794
1795
1796
1797
1798
1799
18
180
1800
1801
1802
1803
1804
1805
1806
1807
1808
1809
181
1810
1811
1812
1813
1814
1815
1816
1817
1818
1819
182
1820
1821
1822
1823
1824
1825
1826
1827
1828
1829
183
1830
1831
1832
1833
1834
1835
1836
1837
1838
1839
184
1840
1841
1842
1843
1844
1845
1846
1847
1848
1849
185
1850
1851
1852
1853
1854
1855
1856
1857
1858
1859
186
1860
1861
1862
1863
1864
1865
1866
1867
1868
1869
187
1870
1871
1872
1873
1874
1875
1876
1877
1878
1879
188
1880
1881
1882
1883
1884
1885
1886
1887
1888
1889
189
1890
1891
1892
1893
1894
1895
1896
1897
1898
1899
19
190
1900
1901
1902
1903
1904
1905
1906
1907
1908
1909
191
1910
1911
1912
1913
1914
1915
1916
1917
1918
1919
192
1920
1921
1922
1923
1924
1925
1926
1927
1928
1929
193
1930
1931
1932
1933
1934
1935
1936
1937
1938
1939
194
1940
1941
1942
1943
1944
1945
1946
1947
1948
1949
195
1950
1951
1952
1953
1954
1955
1956
1957
1958
1959
196
1960
1961
1962
1963
1964
1965
1966
1967
1968
1969
197
1970
1971
1972
1973
1974
1975
1976
1977
1978
1979
198
1980
1981
1982
1983
1984
1985
1986
1987
1988
1989
199
1990
1991
1992
1993
1994
1995
1996
1997
1998
1999
2
20
200
2000
2001
2002
2003
2004
2005
2006
2007
2008
2009
201
2010
2011
2012
2013
2014
2015
2016
2017
2018
2019
202
2020
2021
2022
2023
2024
2025
2026
203
2030
204
205
206
207
208
209
21
210
2100
211
212
213
214
215
216
217
218
219
22
220
2200
221
222
223
224
225
226
227
228
229
23
230
2300
231
232
233
234
235
236
237
238
239
24
240
2400
241
242
243
244
245
246
247
248
249
25
250
2500
251
252
253
254
255
256
257
258
259
26
260
2600
261
262
263
264
265
266
267
268
269
27
270
271
272
273
274
275
276
277
278
279
28
280
281
282
283
284
285
286
287
288
289
29
290
2905
291
292
293
294
295
296
297
298
299
3
30
300
3000
301
302
303
304
305
306
307
308
309
31
310
311
312
313
314
315
316
3166
317
318
319
32
320
321
322
323
324
325
326
327
328
329
33
330
331
332
333
334
335
336
337
338
339
34
340
341
342
343
344
345
346
347
348
349
35
350
3500
351
352
353
354
355
356
357
358
359
36
360
361
362
363
364
365
366
367
368
369
37
370
371
372
373
374
375
376
377
378
379
38
380
381
382
383
384
385
386
387
388
389
39
390
391
392
393
394
395
396
397
398
399
4
40
400
4000
401
402
403
404
405
406
407
408
409
41
410
411
412
413
414
415
416
417
418
419
42
420
421
422
423
424
425
426
427
428
429
43
430
431
432
433
434
435
436
437
438
439
44
440
441
442
443
444
445
446
447
448
449
45
450
4500
451
452
453
454
455
456
457
458
459
46
460
461
462
463
464
465
466
467
468
469
47
470
471
472
473
474
475
476
477
478
479
48
480
481
482
483
484
485
486
487
488
49
490
491
492
493
494
495
496
497
498
499
5
50
500
5000
501
502
503
504
505
506
507
508
509
51
510
511
512
513
514
515
516
517
518
52
520
521
522
523
524
525
527
528
529
53
530
531
533
534
535
536
538
539
54
540
55
550
553
555
56
560
565
57
570
575
58
580
583
585
59
590
6
60
600
6000
601
602
603
604
605
607
61
610
611
612
614
615
616
618
62
620
625
63
630
631
634
635
64
640
65
650
66
660
666
67
670
674
68
680
69
690
7
70
700
7000
707
71
710
711
72
720
727
73
730
737
74
740
747
75
750
76
760
767
77
770
777
78
780
79
8
80
800
8000
802
81
82
820
83
830
84
840
847
85
850
86
860
87
870
875
88
880
89
9
90
900
9000
91
911
92
93
94
940228
95
950
956
958
96
960
968
97
970
978
98
980
987
99
999
:
;
<
=
>
?
@
\
^
_
`
a
aa
aaa
aaro
aaron
aas
ab
aba
abad
abadesa
abadi
abajo
aban
abandona
abandonada
abandonadas
abandonado
abandonados
abandonan
abandonando
abandonar
abandonara
abandonaron
abandono
abanico
abarca
abarcaba
abarcan
abarcando
abarcar
abarco
abasi
abastecer
abastecimiento
abate
abatido
abba
abbas
abbey
abbott
abc
abd
abdicacio
abdomen
abdominal
abdul
abdullah
abe
abeja
abejas
abel
abelardo
aberdeen
abertura
aberturas
abierta
abiertamente
abiertas
abierto
abiertos
abigail
abismo
abjasia
able
abogaci
abogada
abogado
abogados
abogo
abolicio
abolio
abono
aborda
abordar
abordo
abori
aborigen
aborto
about
above
abra
abraham
abrams
abraza
abrazo
abre
abren
abreu
abreviada
abreviado
abreviatura
abri
abriendo
abrieron
abrigo
abril
abrio
abrir
abrirse
abruptamente
abs
absoluta
absolutamente
absoluto
absorbe
absorber
absorbida
absorbido
absorcio
abstencio
abstraccio
abstract
abstracta
abstracto
absuelto
absurdo
abu
abuela
abuelo
abuelos
abundan
abundancia
abundante
abundantes
abuso
abusos
ac
aca
acaba
acababa
acabada
acabado
acabados
acaban
acabando
acabar
acabara
acabari
acabaron
acabo
acacia
acad
acade
academia
academias
academic
academy
acantilado
acantilados
acapulco
acas
acaso
acb
accede
acceder
accedido
accedio
accesibilidad
accesible
accesibles
acceso
accesorios
accesos
access
accessed
accidentado
accidental
accidentalmente
accidente
accidentes
accio
accion
accionar
acciones
accionista
accionistas
account
ace
aceite
aceites
aceleracio
acelerado
acelerar
acelero
acento
acepcio
acepta
aceptaba
aceptable
aceptacio
aceptada
aceptadas
aceptado
aceptados
aceptan
aceptando
aceptar
aceptara
aceptaron
acepto
acequia
acerca
acercaba
acercamiento
acercan
acercar
acercaron
acercarse
acerco
acero
acervo
acevedo
acid
acidez
acierto
acio
aclamacio
aclamada
aclamado
aclara
aclarar
aclaro
aco
acoge
acoger
acogida
acogido
acogio
acomodada
acomodar
acompan
aconcagua
acondicionado
aconseja
aconsejo
acontecimiento
acontecimientos
acoplamiento
acorazado
acorazados
acordado
acordar
acordaron
acorde
acordeo
acordes
acordo
acos
acoso
acosta
acostumbra
acostumbrado
acre
acredita
acreditacio
acreditada
acreditado
acreditar
acreedor
acreedores
acres
acro
acroba
across
act
acta
actas
action
actitud
actitudes
activa
activacio
activado
activamente
activar
activas
active
actividad
actividades
activismo
activista
activistas
activo
activos
acto
actor
actores
actos
actrices
actriz
actu
actuaba
actuaban
actuacio
actuaciones
actuado
actual
actuales
actualidad
actualizacio
actualizaciones
actualizada
actualizado
actualizados
actualizar
actualmente
actuando
actuar
actuara
actuaron
actuo
acu
acua
acuarela
acuario
acude
acuden
acudi
acudieron
acudio
acudir
acueducto
acuerda
acuerdo
acuerdos
acui
acumula
acumulacio
acumulada
acumulado
acumulando
acumular
acumulo
acun
acusa
acusaba
acusacio
acusaciones
acusada
acusado
acusados
acusando
acusar
acusaron
acuso
ad
ada
adam
adams
adapta
adaptacio
adaptaciones
adaptada
adaptadas
adaptado
adaptados
adaptar
adaptarse
adapto
adas
add
ade
adecuacio
adecuada
adecuadamente
adecuadas
adecuado
adecuados
adela
adelaida
adelaide
adelanta
adelantado
adelantar
adelante
adelanto
adele
adema
ademas
aden
adentra
adentro
ades
adhesio
adhirio
adi
adiccio
adicio
adicional
adicionales
adicionalmente
adiciones
adida
adidas
adido
adidos
adiendo
adieron
adif
adio
adir
adjetivo
adjetivos
adjudicacio
adjudico
adjunta
adjunto
adler
administra
administracio
administracion
administraciones
administrada
administrado
administrador
administradores
administrados
administrar
administration
administrativa
administrativamente
administrativas
administrativo
administrativos
admira
admirable
admiracio
admirado
admirador
admiradores
admirar
admisio
admite
admiten
admitida
admitido
admitio
admitir
adn
ado
adobe
adolescencia
adolescente
adolescentes
adolf
adolfo
adonde
adopcio
adopta
adoptada
adoptadas
adoptado
adoptados
adoptan
adoptando
adoptar
adoptara
adoptaron
adoptivo
adopto
ador
adora
adoracio
adores
adornada
adornado
adorno
adornos
ados
adquiere
adquieren
adquirida
adquiridas
adquirido
adquiridos
adquiriendo
adquirieron
adquirio
adquirir
adquisicio
adquisiciones
adria
adrian
adriana
adriano
adscrita
adscrito
aduana
aduanas
adult
adulta
adultas
adulterio
adulto
adultos
advance
advanced
advenimiento
adventure
adventures
adversario
adversarios
adversas
adversos
advertencia
advertencias
advertido
advertir
advierte
advirtio
advocacio
adyacente
adyacentes
ae
aero
aerodina
aeroespacial
aeroli
aerona
aeronave
aeronaves
aeropuerto
aeropuertos
aew
af
afa
afc
afeccio
afecciones
afecta
afectaba
afectacio
afectada
afectadas
afectado
afectados
afectan
afectando
afectar
afectaron
afecto
afectos
affair
affairs
afganista
afgano
afganos
afi
aficio
aficionado
aficionados
afiliacio
afiliada
afiliadas
afiliado
afiliados
afilio
afines
afinidad
afirma
afirmaba
afirmaban
afirmacio
afirmaciones
afirmado
afirman
afirmando
afirmar
afirmaron
afirmo
afluencia
afluente
afluentes
aforo
afortunadamente
afp
africa
african
africana
africanas
africano
africanos
afrika
afrique
afro
afroamericana
afroamericano
afroamericanos
afrodita
afrontar
after
afuera
afueras
ag
aga
again
against
age
agencia
agencias
agency
agenda
agent
agente
agentes
ages
agilidad
agitacio
aglomeracio
agnes
ago
agoni
agora
agosto
agotado
agotamiento
agradable
agradables
agradecimiento
agrado
agraria
agrarias
agrario
agrega
agregada
agregado
agregados
agregan
agregando
agregar
agregaron
agrego
agresio
agresiones
agresiva
agresivo
agri
agricultor
agricultores
agricultura
agriculture
agrilus
agro
agronomi
agropecuaria
agropecuario
agrupa
agrupacio
agrupaciones
agrupadas
agrupados
agrupan
agrupar
agu
agua
aguada
aguardiente
aguas
aguascalientes
aguda
agudas
agudo
agudos
aguilar
aguilera
aguirre
aguja
agujas
agujero
agujeros
agusti
agustin
agustina
agustinos
ah
ahi
ahmad
ahmed
ahn
ahora
ahorrar
ahorro
ahorros
ahumada
ai
aid
aida
aim
aime
ain
air
airbus
aircraft
aire
aires
airline
airlines
airplay
airport
airways
ais
aise
aislada
aisladas
aislado
aislados
aislamiento
aislar
aix
aj
ajax
ajedrez
ajena
ajenas
ajeno
ajenos
ajo
ajusta
ajustado
ajustar
ajuste
ajustes
ak
aka
akal
aki
akira
al
ala
alaba
alabama
alabanza
alabo
alada
aladas
alado
alados
alah
alain
alajuela
alajuelense
alambre
alameda
alan
alando
alar
alarco
alargada
alargado
alarma
alaron
alas
alaska
alave
alba
albacete
alban
albane
albaneses
albania
albano
albany
albarraci
albedo
albedri
alberdi
alberga
albergaba
albergan
albergar
albergo
albergue
albert
alberta
alberti
alberto
albion
albo
albornoz
albrecht
album
albums
albuquerque
alca
alcaide
alcala
alcalde
alcaldes
alcaldesa
alcaldi
alcaloides
alcan
alcance
alcantarillado
alcanza
alcanzaba
alcanzada
alcanzado
alcanzan
alcanzando
alcanzar
alcanzara
alcanzari
alcanzaron
alcanzo
alcaraz
alcoho
alcohol
alcoholismo
alcorco
alcoy
aldea
aldeanos
aldeas
aldo
ale
aleacio
aleaciones
aleatoria
aleatorias
aleatorio
alec
aledan
alegando
alego
alegori
alegre
alegres
alegri
aleja
alejada
alejadas
alejado
alejados
alejamiento
alejandra
alejandri
alejandro
alejarse
alejo
aleksandr
alekse
alema
alemana
alemanas
alemanes
alemania
alentar
alento
alepo
alero
alerta
ales
alessandri
alessandro
aleta
aletas
alex
alexa
alexander
alexandra
alexandre
alexis
aleyrodidae
alf
alfa
alfabe
alfabetizacio
alfabeto
alfaguara
alfareri
alfaro
alfe
alfombra
alfombras
alfonsi
alfonso
alfred
alfredo
algarve
algas
algeciras
algo
algodo
algoritmo
algoritmos
algu
alguacil
alguien
algun
alguna
algunas
alguno
algunos
alhambra
ali
aliada
aliadas
aliado
aliados
alianza
alianzas
alias
alicante
alice
alicia
alien
alieni
aliento
align
alignbars
alimenta
alimentacio
alimentado
alimentan
alimentar
alimentaria
alimentarse
alimenticios
alimento
alimentos
alineacio
alineados
alio
alison
alisto
alive
aliviar
alivio
alizacio
all
alla
allan
alle
allegro
allen
allende
alli
alliance
allison
allmusic
alma
almace
almacena
almacenado
almacenados
almacenamiento
almacenar
almacenes
almagro
almas
almeida
almendra
almeri
almirantazgo
almirante
almodo
almora
almudena
almuerzo
alo
aloja
alojamiento
alojar
alone
alonso
alpes
alpha
alphonse
alpina
alpino
alqueri
alquiler
alquilo
alquimia
alrededor
alrededores
als
alsacia
alsina
also
alt
alta
altamente
altamira
altamirano
altar
altares
altas
altavoces
alte
alter
altera
alteracio
alteraciones
alterada
alterado
alterar
alterna
alternancia
alternando
alternas
alternativa
alternativamente
alternativas
alternative
alternativo
alternativos
alterno
alteza
alti
altiplano
altitud
altitudes
alto
altos
altura
alturas
alude
aludiendo
alumbrado
aluminio
alumna
alumnado
alumno
alumnos
alusio
alusiones
alva
alvarado
alvarez
alvear
alves
alvin
always
alza
alzado
alzamiento
alzheimer
alzo
am
ama
amaba
amable
amada
amadeo
amadeus
amado
amador
amalia
aman
amanda
amanecer
amante
amantes
amar
amarga
amargo
amargura
amarilla
amarillas
amarillento
amarillo
amarillos
amaro
amaru
amas
amateur
amaya
amazing
amazo
amazon
amazonas
amazoni
amazonia
amb
ambas
amber
amberes
ambicio
ambiciones
ambiciosa
ambicioso
ambientacio
ambientada
ambientadas
ambientado
ambientados
ambiental
ambientales
ambiente
ambientes
ambigu
ambigua
ambos
ambrose
ambrosio
ambulancia
amc
amd
ame
amelia
amenaza
amenazaba
amenazada
amenazadas
amenazado
amenazados
amenazando
amenazar
amenazas
amenazo
amente
america
american
americana
americanas
americano
americanos
americas
amerindios
ames
ametralladora
ametralladoras
ami
amiens
amiento
amiga
amigas
amigo
amigos
aminoa
amir
amistad
amistades
amistosa
amistoso
amistosos
amnisti
amo
amonestaciones
among
amor
amore
amores
amorosa
amoroso
amos
amour
amparo
amphibian
ampli
amplia
ampliacio
ampliaciones
ampliada
ampliado
ampliamente
ampliando
ampliar
ampliaron
amplias
amplio
amplios
amplitud
amsterdam
amurallado
amy
an
ana
anagrama
anal
anales
anali
analista
analistas
analiza
analizar
analizo
analo
analogi
analysis
anaranjado
anarqui
anarquismo
anarquista
anarquistas
anas
anastasia
anastasio
anato
anatolia
anatomi
anatomy
anaya
ancestral
ancestrales
ancestro
ancestros
ancha
anchas
ancho
anchor
anchos
anchura
anciana
anciano
ancianos
ancient
ancla
and
anda
andaba
andadura
andaluces
andaluci
andalusi
andaluz
andaluza
andando
andante
andar
ande
andenes
anders
andersen
anderson
andes
andina
andino
andinos
ando
andorra
andrade
andre
andrea
andreas
andrei
andres
andreu
andrew
andrews
andro
android
andu
andy
ane
anemia
anexa
anexio
anexo
anexos
anfibio
anfibios
anfiteatro
anfitrio
anfitriona
anfitriones
ang
ange
angel
angela
angeles
angelina
angelo
angels
angle
anglicana
anglo
anglosajo
anglosajona
angola
angostura
angular
angulo
angus
angustia
angustias
anhalt
anhelo
ani
anillo
anillos
anima
animacio
animaciones
animada
animadas
animado
animador
animadores
animados
animal
animales
animals
animar
animation
anime
animo
anita
aniversario
anjou
ankara
ann
anna
annales
annals
anne
annie
anniversary
anno
annotated
annual
ano
anochecer
anomali
anormal
anos
anota
anotacio
anotaciones
anotado
anotador
anotados
anotando
anotar
another
anoto
ans
anse
anselmo
ansi
ansiedad
ant
anta
antago
antagonista
antagonistas
antan
ante
antecedente
antecedentes
antecesor
antecesores
antemano
antena
antenas
antepasado
antepasados
antequera
anterior
anteriores
anterioridad
anteriormente
antes
anthology
anthony
anti
antiae
antibio
anticipacio
anticuerpos
antigu
antigua
antiguamente
antiguas
antiguo
antiguos
antillas
antioquen
antioqui
antioquia
antisemita
antisemitismo
antitanque
anto
antofagasta
antoine
antologi
anton
antoni
antonia
antonieta
antonino
antonio
antorcha
antropo
antropolo
antropologi
anual
anuales
anualmente
anuario
anulacio
anular
anulo
anuncia
anunciaba
anunciacio
anunciada
anunciado
anuncian
anunciando
anunciar
anunciaron
anuncio
anuncios
anuro
anverso
any
anza
anzas
anzoa
ao
ap
apa
apache
apagado
apago
aparato
aparatos
aparcamiento
apareamiento
aparece
aparecen
aparecer
aparecera
apareceri
apareci
aparecido
apareciendo
aparecieron
aparecio
aparente
aparentemente
aparezca
aparicio
apariciones
apariencia
apariencias
aparta
apartado
apartados
apartamento
apartamentos
aparte
apartheid
aparto
apasionado
ape
apeadero
apego
apelacio
apelaciones
apelativo
apellido
apellidos
apenas
apertura
aperturas
apetito
api
apical
aplastante
aplausos
aplica
aplicaba
aplicable
aplicables
aplicacio
aplicaciones
aplicada
aplicadas
aplicado
aplicados
aplican
aplicando
aplicar
aplicara
aplicarse
aplico
apo
apocali
apocalipsis
apodada
apodado
apoderado
apoderaron
apoderarse
apodero
apodo
apogeo
apollo
apolo
aporta
aportacio
aportaciones
aportado
aportan
aportando
aportar
aporte
aportes
aporto
aposento
aposto
apoya
apoyaba
apoyaban
apoyada
apoyadas
apoyado
apoyados
apoyan
apoyando
apoyar
apoyaron
apoyo
apoyos
app
apple
application
applied
approach
apre
aprecia
apreciable
apreciacio
apreciada
apreciado
aprecian
apreciar
aprecio
aprende
aprenden
aprender
aprendices
aprendido
aprendiendo
aprendio
aprendiz
aprendizaje
apresado
apresuro
april
aprista
aprobacio
aprobacion
aprobada
aprobadas
aprobado
aprobados
aprobar
aprobaron
aprobo
apropiacio
apropiada
apropiadas
apropiado
apropiados
aprovecha
aprovechado
aprovechamiento
aprovechan
aprovechando
aprovechar
aprovecharon
aprovecho
aprox
aproxima
aproximacio
aproximaciones
aproximada
aproximadamente
aproximado
aprue
aprueba
apta
aptitud
aptitudes
apto
aptos
apuesta
apuestas
apun
apunta
apuntado
apuntan
apuntando
apuntar
apuntes
apunto
apure
apuros
aquaman
aquarist
aquatab
aque
aquel
aquella
aquellas
aquello
aquellos
aqueme
aqui
aquila
aquiles
aquino
aquisgra
aquitania
ar
ara
arab
arabia
arado
arago
aragone
aragonesa
aragoneses
aragua
aramburu
arameo
aran
arana
aranceles
aranda
arango
aranjuez
aras
arau
araucani
arauco
araujo
araya
arbitraje
arbitral
arbitraria
arbitrio
arbo
arboleda
arboretum
arbusto
arbustos
arc
arca
arcade
arcadia
arcaico
arcas
arce
arch
archaeology
archer
archidio
archiduque
archie
archipie
architects
architecture
archivado
archive
archived
archives
archivo
archivos
arcilla
arco
arcos
arde
ardenas
ardiente
ardilla
ardor
are
area
arellano
arena
arenal
arenales
arenas
arenisca
arequipa
ares
arg
argel
argelia
argelino
argentina
argentinas
argentino
argentinos
argo
argos
args
argu
argumenta
argumentado
argumental
argumentan
argumentando
argumento
argumentos
ari
aria
arias
arica
ariel
aries
aris
arista
aristas
aristo
aristocra
aristocracia
aritme
arizona
arjona
ark
arkansas
arkham
arle
arlington
arm
arma
armada
armadas
armado
armados
armadura
armaduras
armamento
armand
armando
armar
armario
armas
armazo
arme
armenia
armenio
armenios
armin
armisticio
armo
armoni
arms
armstrong
army
arn
arnaldo
arne
arnold
aro
arol
aroma
aron
aros
around
arpa
arqueo
arqueolo
arqueologi
arquero
arqueros
arquidio
arquitecto
arquitectos
arquitectura
arquitecturas
arrabal
arraigo
arranca
arrancar
arranco
arranque
arrastra
arrastrado
arrastre
array
arrebato
arrecife
arrecifes
arregla
arreglado
arreglar
arreglista
arreglo
arreglos
arrendamiento
arrepentimiento
arrestado
arrestados
arresto
arriaga
arriba
arribaron
arribo
arrogante
arroja
arrojado
arrojar
arrojaron
arrojo
arrow
arroyo
arroyos
arroz
ars
arse
arsenal
art
arte
arteaga
artefacto
artefactos
artemisa
arteria
arterial
arterias
artes
artesanal
artesanales
artesani
artesano
artesanos
arthur
arti
article
articles
articulacio
articulaciones
articulado
articular
articulo
artificial
artificiales
artigas
artilleri
artillero
artilleros
artist
artista
artistas
artists
artro
arts
artu
arturo
aruba
arzobispado
arzobispo
arzobispos
as
asa
asado
asalto
asaltos
asamblea
asambleas
ascendencia
ascendente
ascender
ascendi
ascendido
ascendiendo
ascendieron
ascendio
ascensio
ascenso
ascensor
ascensores
ascensos
asciende
asco
ase
asedio
asegura
aseguraba
asegurada
asegurado
aseguran
asegurando
asegurar
aseguraron
asegurarse
aseguro
asemeja
asemejan
asentada
asentado
asentados
asentamiento
asentamientos
asentaron
asentarse
asento
asesina
asesinada
asesinadas
asesinado
asesinados
asesinar
asesinaron
asesinato
asesinatos
asesino
asesinos
asesor
asesora
asesoramiento
asesores
asesori
asfalto
asgard
ash
ashley
asi
asia
asian
asienta
asiento
asientos
asigna
asignacio
asignaciones
asignada
asignadas
asignado
asignados
asignar
asignatura
asignaturas
asigno
asilo
asime
asimilacio
asimismo
asiria
asirios
asiste
asisten
asistencia
asistencias
asistente
asistentes
asisti
asistida
asistido
asistiendo
asistieron
asistio
asistir
asma
asno
asocia
asociacio
asociaciones
asociada
asociadas
asociado
asociados
asocian
asociarse
asocio
asombro
asp
aspecto
aspectos
aspira
aspiracio
aspiraciones
aspirante
aspirantes
aspirar
aspx
assassin
assi
associated
associates
association
associazione
asta
asteraceae
asteroide
asteroides
astillero
astilleros
aston
astor
astorga
astra
astragalus
astral
astro
astrofi
astrologi
astronauta
astronautas
astrono
astronomi
astros
asturiana
asturiano
asturianos
asturias
asuka
asume
asumido
asumiendo
asumieron
asumio
asumir
asuncio
asunto
asuntos
at
ata
ataca
atacada
atacado
atacados
atacama
atacan
atacando
atacante
atacantes
atacar
atacaron
ataco
atado
atahualpa
atalaya
atanasio
ataque
ataques
atardecer
atari
atau
atc
ate
atei
atenas
atencio
atencion
atender
atendido
atendiendo
atenea
ateneo
ateniense
atenienses
atentado
atentados
atento
ateos
aterrizaje
aterrizar
aterrizo
athletic
ati
atiende
atl
atla
atlanta
atlante
atlantic
atlantis
atlas
atle
atleta
atletas
atletismo
atmo
atmosfe
ato
atocha
atolo
atp
atra
atraccio
atracciones
atractiva
atractivo
atractivos
atrae
atraer
atrai
atrajo
atrapa
atrapada
atrapado
atrapados
atrapar
atravesaba
atravesada
atravesado
atravesando
atravesar
atraveso
atraviesa
atraviesan
atrevido
atribucio
atribuciones
atribui
atribuida
atribuidas
atribuido
atribuidos
atribuir
atributo
atributos
atribuye
atribuyen
atribuyo
atrio
atrocidades
attack
atu
atuendo
atv
au
auckland
audax
audaz
audenaerde
audi
audicio
audiciones
audiencia
audiencias
audio
audiovisual
audiovisuales
auditori
auditorio
audrey
auf
aug
auge
augsburgo
august
augusta
auguste
augustin
augusto
augustus
aula
aulas
aumenta
aumentaba
aumentada
aumentado
aumentan
aumentando
aumentar
aumentara
aumentaron
aumento
aumentos
aun
aunque
aura
aurelio
aurora
aus
auschwitz
ausencia
ausente
ausentes
auspicios
austeridad
austin
austral
australia
australian
australiana
australianas
australiano
australianos
australis
austri
austria
austriaca
austriaco
austriacos
austro
austrohu
aute
autenticidad
author
authority
auto
autobiogra
autobiografi
autobu
autobuses
autodeterminacio
autodidacta
autogobierno
automa
automatizacio
automo
automotriz
automovili
automovilismo
autono
autonomi
autopista
autopistas
autopsia
autor
autora
autores
autori
autoridad
autoridades
autoritario
autoriza
autorizacio
autorizada
autorizadas
autorizado
autorizados
autorizar
autorizo
autorretrato
autos
autovi
auvernia
aux
auxiliar
auxiliares
auxilio
auxilios
av
ava
available
avalancha
avance
avances
avant
avanza
avanzaba
avanzada
avanzadas
avanzado
avanzados
avanzan
avanzando
avanzar
avanzaron
avanzo
avatar
avda
ave
avec
avellaneda
avena
avengers
avenida
avenidas
aventura
aventuras
aventurero
avenue
averi
averiguar
avery
aves
avi
aviacio
aviador
aviadores
aviation
avile
avin
avio
aviones
avisa
aviso
avisos
avispa
aviv
avn
avril
award
awards
away
ax
axel
axial
axioma
ay
aya
ayacucho
ayala
ayer
ayres
ayse
ayuda
ayudaba
ayudado
ayudan
ayudando
ayudante
ayudantes
ayudar
ayudara
ayudari
ayudarlo
ayudaron
ayudas
ayude
ayudo
ayuno
ayuntamiento
ayuntamientos
az
azan
azar
azerbaiya
azeri
aznar
azores
azotea
azteca
aztecas
azu
azucarera
azufre
azul
azulado
azulejos
azules
azur
b
ba
baba
babilonia
baby
bac
bacalao
bach
bachelet
bachiller
bachillerato
back
baco
bacon
bacteria
bacterias
bad
badajoz
badalona
baden
bado
bados
bae
baena
baeza
bafta
bagdad
bahamas
bahi
bahia
bahn
bai
baila
bailan
bailando
bailar
bailari
bailarina
bailarinas
bailarines
baile
bailes
bailey
baja
bajada
bajan
bajando
bajar
bajas
bajista
bajo
bajos
baker
baku
bal
bala
balada
baladas
balaguer
balance
balanza
balas
balboa
balca
balcanes
balcarce
balco
balcones
baldi
balduino
baldwin
balear
baleares
bali
ball
ballena
ballenas
ballester
ballesteros
ballet
balneario
balnearios
balo
balompie
baloncestista
baloncestistas
baloncesto
balonmanistas
balonmano
balsa
balsas
baltasar
baltimore
baluarte
bambu
bamos
ban
bana
banana
banca
bancada
bancaria
bancarias
bancario
bancarios
bancarrota
banco
bancos
band
banda
bandas
bandeja
bandera
banderas
bandido
bandidos
bando
bandos
banfield
bang
bangkok
banglade
bank
banks
banner
bano
banquero
banqueros
banquete
banquillo
banse
bantu
banu
baptiste
bar
bara
barack
barajas
barata
barato
baratos
barba
barbados
barbara
barbarroja
barber
barbera
barbero
barbosa
barc
barca
barcelo
barcelona
barcelone
barco
barcos
bardata
bare
bares
bari
bariloche
barinas
barker
barnes
barney
baro
baroja
baron
barones
baronesa
baroni
barquisimeto
barra
barracas
barral
barranca
barrancas
barranco
barrancos
barranquilla
barras
barre
barreiro
barrera
barreras
barreto
barrett
barrientos
barril
barriles
barrio
barrios
barro
barroca
barroco
barrocos
barros
barroso
barry
bart
bartolome
barton
bas
basa
basaba
basada
basadas
basado
basados
basal
basales
basan
base
baseball
based
bases
basi
basic
basil
basilea
basilio
basket
basketball
baso
bass
basta
bastante
bastantes
bastien
bastio
basto
basura
bat
bata
batalla
batallas
batallo
batallones
bate
bateo
bateri
baterista
bates
bath
batida
batio
batir
batista
batlle
batman
battista
battle
bau
bauer
bautismal
bautismo
bautista
bautizada
bautizado
bautizados
bautizo
baviera
baxter
bay
bayas
bayer
bayern
bayley
bayo
bayona
baza
bb
bbc
bbva
bc
bd
bdfa
bdfutbol
bditos
be
beach
beagle
bean
bear
bears
beast
beat
beata
beatificacio
beatles
beato
beatrice
beatriz
beaumont
beautiful
beauty
beaux
bebe
beber
bebida
bebidas
bec
beca
becas
becerra
beck
becker
beckett
becky
beda
bedford
bee
been
beer
beethoven
before
begin
beginning
behind
bei
beijing
being
beirut
beisbolistas
bel
bela
bele
belfast
belga
belgas
belgrado
belgrano
belice
believe
belisario
bell
bella
bellas
bellavista
belle
belleza
belli
bello
bellos
belmonte
belo
beltra
bemol
ben
benavente
benavides
bendicio
bendita
bene
benedetto
benedicto
beneficencia
beneficia
beneficiado
beneficiarios
beneficio
beneficios
beneme
benfica
bengala
bengali
beni
benigno
benito
benjami
benjamin
bennett
benny
benoit
benson
benth
benthic
benthos
bentley
bento
benton
benz
ber
bera
bereber
bereberes
berenguer
berg
berganti
bergen
berger
bergman
berkeley
berli
berlin
berliner
bermejo
bermu
bermudas
berna
bernabe
bernal
bernard
bernardino
bernardo
bernhard
bernie
bernstein
bero
berry
bert
berta
bertha
bertrand
besa
beso
besos
best
bestia
bestias
bet
beta
betancourt
beth
betis
beto
better
betty
between
beverly
bey
beyonce
beyond
bf
bi
bianca
bianchi
biatlo
bible
biblia
biblio
bibliogra
bibliografi
biblioteca
bibliotecario
bibliotecas
bica
bicas
bicentenario
bicicleta
bicicletas
bico
bicolor
bicos
biden
bielorrusia
bielorruso
bien
bienal
bienes
bienestar
bienvenida
bierzo
big
bil
bilateral
bilaterales
bilbao
biles
bilingu
bill
billboard
billete
billetes
billie
billones
billy
bilmente
bilo
bin
binaria
binario
bing
binomial
bio
biobi
biodiversidad
biodiversity
biogra
biografi
biographical
biographie
biography
biol
biolib
biolo
biologi
biological
biology
biomasa
biome
bioqui
biosfera
biotecnologi
bird
birdlife
birds
birmania
birmingham
birth
bis
bisexuales
bishop
bismarck
bit
bita
bitat
bitats
bito
bitos
bits
bizancio
bizantina
bizantino
bizantinos
bjo
bk
bl
bla
black
blackburn
blackwell
blade
blair
blake
blanc
blanca
blancas
blanche
blanco
blancos
blanda
blando
blandos
blas
blasco
blaso
blast
blazers
ble
blemente
bles
blica
blicamente
blicas
blico
blicos
blind
blindada
blindado
blindados
blindaje
bliss
block
blog
blogs
blogspot
blood
bloody
bloom
bloque
bloqueado
bloquear
bloqueo
bloques
blu
blue
blues
bluetooth
blume
bm
bmatrix
bmg
bmw
bo
boa
board
boat
bob
bobby
bobina
bobsleigh
boca
bocas
boceto
bocetos
boda
bodas
bodega
bodegas
body
boe
boeing
bogota
bohemia
boicot
bois
bol
bola
bolan
bolas
bolchevique
bolcheviques
bold
bolero
boleti
boleto
boletos
boli
bolivariana
bolivia
boliviana
boliviano
bolivianos
bolo
bologna
bolonia
bolos
bolsa
bolsas
bolsillo
bolso
bolt
bolton
bomb
bomba
bombardeo
bombardeos
bombardero
bombarderos
bombas
bombay
bombeo
bomberos
bombo
bon
bonaerense
bonanza
bonaparte
bond
bondad
bone
bones
bonifacio
bonificacio
bonilla
bonita
bonito
bonn
bonnie
bono
bonos
bonus
boogie
book
booker
books
boom
boone
booth
bor
bora
borbo
borda
bordado
bordados
borde
border
bordes
bordo
boreal
borg
borges
borgia
borgon
bori
boris
borja
born
borneo
borough
borra
borracho
borrador
borrar
borussia
bosch
bosco
bose
bosnia
bosque
bosques
boss
boston
bot
bota
botado
botanic
botanical
botany
botas
bote
botella
botellas
botes
boti
boto
botones
botsuana
bottom
boulevard
boulogne
bound
bowie
bowl
box
boxeador
boxeadores
boxeo
boy
boyaca
boyd
boyle
boys
boyz
bp
br
bra
brabante
brad
bradford
bradley
brady
braga
braganza
brahms
brain
bran
branch
branco
brand
brandeburgo
brandon
brandt
brasil
brasileira
brasilen
brasilia
bratislava
braulio
braun
brava
brave
bravo
bravos
bray
brazil
brazo
brazos
bre
break
breaking
brecha
brecht
bremen
brenda
brendan
brent
brescia
brest
bretan
breto
brett
breve
brevedad
brevemente
breves
bri
brian
brica
bricas
bricen
brico
brida
bridas
bride
bridge
bridges
brido
bridos
brief
brien
brigada
brigadas
brigadier
briggs
bright
brighton
brill
brilla
brillante
brillantes
brillo
brinda
brindan
brindar
brindo
bring
brio
brisa
brisbane
bristol
brita
britain
britania
britannica
british
britney
brito
britton
brno
bro
broadcasting
broadway
brock
broken
broma
bromas
bronce
bronx
bronze
brook
brooke
brooklyn
brooks
bros
brote
brotes
brother
brothers
brown
browne
browning
browser
bru
bruce
bruguera
bruja
brujas
brujeri
brujo
brun
brune
bruno
brunswick
bruscamente
bruselas
bruta
brutal
brutalidad
brutalmente
bruto
bryan
bryant
bs
bside
bt
bu
bucaramanga
bucarest
buceo
buchanan
buck
buckingham
bucks
bucle
buda
budapest
buddy
budismo
budista
budistas
buen
buena
buenas
buenaventura
buenavista
bueno
buenos
buey
bueyes
buffalo
buffy
bufo
building
buitre
bula
bulas
bulevar
bulgaria
bull
bullet
bulletin
bullets
bulls
bulnes
bulo
bulos
bulto
bun
bundesliga
bunny
buprestidae
buque
buques
burbuja
burbujas
burdeos
bureau
burgess
burgo
burgos
burgue
burguesa
burgueses
burguesi
burke
burkina
burla
burlas
burn
burning
burns
buro
burocra
burocracia
burro
bursa
burt
burton
burundi
bus
busca
buscaba
buscaban
buscado
buscador
buscan
buscando
buscar
buscara
buscaron
busco
buses
bush
business
bustamante
busto
bustos
but
buta
butler
butterfly
button
buzz
bwv
by
bye
byrne
byron
bytes
c
ca
cab
cabal
caballeri
caballero
caballeros
caballo
caballos
caban
cabaret
cabe
cabecera
cabeceras
cabellera
cabello
cabellos
cabeza
cabezas
cabezo
cabida
cabildo
cabildos
cabina
cabinas
cable
cables
cabo
cabos
cabra
cabral
cabras
cabrera
cacao
caceri
cache
cachemira
cacho
cachorros
cacique
caciques
cactus
cada
cadas
cadena
cadenas
cadencia
cadera
cadete
cadetes
cadillac
cae
caen
caer
caeri
caesar
caf
cafe
cafeteri
cage
cagliari
cai
caiga
caima
cairo
caixa
caja
cajamarca
cajas
cajo
cal
cala
calabaza
calabozo
calabria
calado
calahorra
calais
calatayud
calatrava
calavera
calca
calcio
calcula
calculado
calcular
calculo
calcuta
caldas
caldera
calderas
caldero
caldo
caledonia
calefaccio
calendario
calentamiento
calera
caleta
calgary
cali
calibre
calidad
calidades
caliente
calientes
califa
califato
califica
calificacio
calificaciones
calificada
calificado
calificados
calificar
califico
california
caligrafi
calixto
caliza
calizas
call
callao
calle
called
calleja
callejero
callejo
calles
callo
calma
calmar
calo
calor
calori
calpe
calvario
calvin
calvo
calzada
calzado
cam
cama
camacho
camaradas
camarera
camarero
camargo
camaro
camarones
camas
cambia
cambiado
cambian
cambiando
cambiar
cambiara
cambiari
cambiaron
cambio
cambios
camboya
cambridge
came
cameo
camera
cameron
cameru
camila
camilla
camille
camilo
camina
caminando
caminantes
caminar
caminata
camino
caminos
camio
camiones
camioneta
camisa
camisas
camiseta
camisetas
camp
campaign
campamento
campamentos
campan
campana
campanario
campanas
campania
campbell
campeche
campeo
campeona
campeonas
campeonato
campeonatos
campeones
campesina
campesinado
campesinas
campesino
campesinos
campillo
campin
campo
campos
campus
camus
can
canada
canadian
canadiense
canadienses
canal
canales
canaria
canarias
canario
canarios
canasta
canberra
cancelacio
cancelada
cancelado
cancelados
cancelar
cancelo
cancer
cancha
canchas
canciller
cancilleri
cancio
cancionero
canciones
cancu
candela
candelaria
candidata
candidatas
candidato
candidatos
candidatura
candidaturas
candy
canela
canelones
cangas
cangrejo
cangrejos
cani
cannabis
cannes
cannon
cano
canoa
canoas
canoeresults
canon
cansado
cansancio
canta
cantaba
cantabria
cantada
cantado
cantan
cantando
cantante
cantantes
cantar
cantares
cantata
cantatas
cantautor
cantautora
cantautores
cante
cantera
canteras
canterbury
cantidad
cantidades
canto
cantonal
cantones
cantor
cantores
cantos
canvas
canyon
cao
caos
cap
capa
capaces
capacidad
capacidades
capacitacio
caparazo
capas
capaz
capcom
cape
capella
capi
capilla
capillas
capita
capital
capitales
capitalismo
capitalista
capitalistas
capitan
capitana
capitanes
capitani
capitel
capiteles
capitol
capitolio
capitulacio
capitular
capitulo
capo
capricho
captacio
captain
captar
captura
capturada
capturado
capturados
capturando
capturar
capturaron
capturas
capturo
capuchinos
car
cara
carabanchel
carabineros
carabobo
caracas
caracol
caracoles
caracteres
caracteri
caracteriza
caracterizaba
caracterizacio
caracterizada
caracterizado
caracterizados
caracterizan
caracterizo
caras
caravana
carballo
carbo
carbon
carbonato
carbonell
carboni
carbono
carcasa
card
cardenal
cardenales
cardi
cardiff
cardinal
cardinals
cardo
cardona
cardoso
care
carece
carecen
carecer
careci
career
carencia
carente
cares
carey
carga
cargada
cargadas
cargado
cargador
cargados
cargamento
cargar
cargas
cargo
cargos
caribbean
caribe
cariben
caricatura
caricaturas
caridad
carin
carisma
carl
carla
carles
carlismo
carlista
carlistas
carlo
carlomagno
carlos
carlota
carmelita
carmelitas
carmelo
carmen
carmona
carnaval
carnavales
carne
carnegie
carnero
carnes
carni
carniceri
caro
carol
carolina
caroline
caros
carpa
carpenter
carpeta
carpinteri
carpintero
carpio
carr
carranza
carrasco
carren
carrera
carreras
carretas
carretera
carreteras
carrie
carril
carriles
carrillo
carrio
carro
carroceri
carroll
carros
carruaje
carruajes
cars
carson
carta
cartagena
cartagine
cartagineses
cartago
cartas
cartel
cartelera
carteles
carter
cartera
carto
cartogra
cartografi
cartoon
cartucho
cartuchos
cartuja
carvajal
carvalho
cas
casa
casablanca
casada
casadas
casado
casados
casal
casamiento
casanova
casar
casares
casaron
casarse
casas
cascada
cascadas
casco
cascos
case
caseri
casero
caseros
cases
casete
casey
cash
casi
casilla
casillas
casimiro
casino
casinos
casio
caso
casona
casos
caspio
cass
cassandra
cassidy
cassini
cast
casta
castan
castas
castel
castell
castellana
castellanas
castellano
castellanos
castello
castelo
castigado
castigar
castigo
castigos
castilla
castillo
castillos
casting
castle
castrillo
castro
casual
casualidad
casualmente
cat
cata
catala
catalana
catalanas
catalanes
catalina
catalizador
catalog
catalogada
catalogado
catalogo
catalogue
catalun
catalunya
catamarca
catania
catar
cataratas
catarina
catastro
cate
catecismo
catedra
catedral
catedrales
categori
category
cathedral
catherine
catholic
cato
catolicismo
catorce
cauca
cauce
cauces
caucho
caudal
caudales
caudillo
caudillos
causa
causaba
causada
causadas
causado
causados
causal
causan
causando
causante
causar
causaron
causas
cause
causo
cautiverio
cautivo
cautivos
cav
cava
cavaliers
cave
caverna
cavernas
cavidad
cavidades
cavildo
cayendo
cayera
cayeron
cayetano
cayo
caza
cazador
cazadores
cazar
cazas
cb
cba
cbs
cc
cd
cdc
cdot
cdota
cdotas
cdots
cdu
ce
cea
ceara
ceas
cebada
ceballos
cebolla
cech
cecil
cecilia
cecilio
cedar
cede
ceder
cedido
cediendo
cedio
cedro
cee
ceguera
ceiba
cejas
celaya
celda
celdas
celebra
celebraba
celebraban
celebracio
celebraciones
celebrada
celebradas
celebrado
celebrados
celebran
celebrando
celebrar
celebrara
celebraron
celebrarse
celebridad
celebridades
celebrity
celebro
celeste
celestes
celestial
celestino
celi
celia
cell
celo
celos
celosi
celoso
celso
celta
celtas
celtic
celtics
celular
celulares
celulosa
cementerio
cementerios
cemento
cen
cena
cenar
cenicienta
ceniza
cenizas
censada
censal
censo
censos
censura
census
cent
centavos
centenar
centenares
centenario
centeno
center
centi
centinela
centinelas
centra
centrada
centrado
central
centrales
centralizado
centran
centraron
centrarse
centre
centro
centroafricana
centroame
centroamericana
centroamericano
centroamericanos
centrocampista
centrocampistas
centros
centurio
century
ceo
ceos
cepa
cepas
cepeda
cer
cera
cerca
cercado
cercana
cercanas
cercani
cercano
cercanos
cerco
cerda
cerden
cerdo
cerdos
cereal
cereales
cerebral
cerebrales
cerebro
ceremonia
ceremonial
ceremoniales
ceremonias
ceres
cerezo
cero
ceroacero
cerrada
cerradas
cerrado
cerrados
cerrando
cerrar
cerraron
cerro
cerrojo
cerros
certa
certamen
certeza
certificacio
certificaciones
certificado
certificados
cervantes
cerveceri
cervera
cerveza
ces
cesa
cesado
cesar
cesare
cesarea
cesaro
cese
cesio
cesis
ceso
ceta
cetro
ceuta
cf
cfr
cgi
cgt
ch
cha
chacabuco
chacarita
chaco
chad
chaikovski
chain
chaleco
challenge
challenger
chama
chamber
chamberlain
chambers
chamorro
champagne
champan
champion
champions
championship
championships
chan
chance
chandler
chanel
chang
change
changes
channel
chao
chaos
chapa
chapel
chapelle
chaplin
chapman
chapter
chapultepec
chaquen
chaqueta
char
character
charcas
charente
charla
charlas
charles
charleston
charlie
charlotte
charly
chart
charts
chase
chasis
chat
chaves
che
checa
check
checklist
checo
checos
checoslovaquia
chef
chelo
chelsea
chem
chemical
chemistry
chen
cheng
cher
cherokee
cherry
chess
chester
chevalier
chevrolet
chez
chi
chiang
chiapas
chiba
chica
chicago
chicas
chicha
chico
chicos
chief
chiesa
chigan
chihuahua
child
children
chile
chilena
chilenas
chileno
chilenos
chilevisio
chili
chilla
chiloe
chimenea
chimeneas
chin
china
chinas
chinese
ching
chino
chinos
chip
chipre
chips
chira
chispa
chistes
chivas
chloe
cho
choco
chocolate
choi
choice
chopin
choque
choques
chorro
chris
christ
christi
christian
christie
christina
christine
christmas
christoph
christophe
christopher
chronicle
chronicles
chrysler
chrysomelidae
chu
chubut
chuck
chun
chung
chuquisaca
church
churchill
ci
cia
ciberne
cica
cicatrices
cicero
ciclismo
ciclista
ciclistas
ciclo
ciclones
ciclos
cico
cid
cida
cidas
cido
cidos
cie
ciega
ciegas
ciego
ciegos
cielo
cielos
cien
ciencia
ciencias
cienfuegos
cienti
ciento
cientos
cierra
cierran
cierre
cierta
ciertamente
ciertas
cierto
ciertos
ciervo
ciervos
cifra
cifrado
cifras
cifuentes
cigarrillos
cigu
cija
cil
ciles
cili
cilicia
cilindrada
cilindro
cilindros
cilmente
cima
cimas
cimen
cimientos
cimo
cin
cincinnati
cinco
cincuenta
cindy
cine
cineasta
cineastas
cinema
cinematogra
cinematografi
cines
cinta
cintas
cintura
cinturo
cinturones
cio
cipe
cipriano
circ
circa
circle
circo
circuito
circuitos
circula
circulacio
circulan
circular
circulares
circundante
circundantes
circunferencia
circunscripcio
circunscripciones
circunstancia
circunstancias
circunvalacio
circus
ciri
cirilo
ciro
cirugi
cirujano
cirujanos
cis
cisjordania
cisma
cisne
cisneros
cisterna
cit
cita
citada
citadas
citado
citados
citamente
citan
citando
citar
citas
cite
cities
cito
citoplasma
citos
citroe
citta
city
citypopulation
ciu
ciudad
ciudadana
ciudadani
ciudadano
ciudadanos
ciudadela
ciudades
civic
civil
civiles
civilizacio
civilizaciones
cj
ck
cl
cla
clado
clair
claire
clan
clandestina
clandestinidad
clandestino
clandestinos
clanes
clapton
clara
claramente
claras
clare
clarence
clari
claridad
clarinete
clark
clarke
claro
claros
clase
clases
clash
clasicismo
clasifica
clasificacio
clasificaciones
clasificada
clasificadas
clasificado
clasificados
clasifican
clasificando
clasificar
clasificaron
clasificarse
clasificatoria
clasificatorias
clasificatorio
clasifico
class
classic
classical
classics
classification
classifications
claude
claudia
claudio
claus
claustro
clausura
clave
claves
clavo
clavos
clay
clayton
cle
clear
clemencia
clemente
clements
cleo
cleopatra
cleos
clermont
clero
cleveland
cli
clica
clico
cliente
clientes
cliff
clifford
clima
climas
climate
clint
clinton
clio
clip
clippers
clips
clive
clock
cloffa
clon
clones
clope
cloro
cloruro
close
cloud
clown
club
clube
clubes
clubs
clyde
cm
cmll
cn
cne
cnica
cnicamente
cnicas
cnico
cnicos
cnido
cnidos
cnn
cnt
co
coa
coach
coahuila
coalicio
coaliciones
coast
coautor
coautori
cobarde
cobb
cobertura
cobo
cobos
cobra
cobrar
cobre
cobreloa
cobro
coburgo
coca
cocai
coccio
cochabamba
coche
coches
cochrane
cocido
cociente
cocina
cocinar
cocinas
cocinero
coco
cocodrilo
cocodrilos
code
codex
codicia
codificacio
codificada
codo
cody
coe
coeficiente
coeficientes
cofradi
cofre
cofundador
coge
coger
cogido
cogio
cognitiva
cognitivo
cohen
coherencia
coherente
cohesio
cohete
cohetes
coi
coincide
coinciden
coincidencia
coincidi
coincidiendo
coincidio
coincidir
col
cola
colabora
colaboracio
colaboraciones
colaborado
colaborador
colaboradora
colaboradores
colaborando
colaborar
colaboraron
colaboro
colapso
colas
colchagua
cold
cole
coleccio
colecciones
coleccionista
coleccionistas
colectiva
colectivamente
colectivas
colectividad
colectivo
colectivos
colega
colegas
colegiado
colegial
colegiata
colegio
colegios
coleman
coleo
coleoptera
colesterol
colgado
colgante
coli
colibri
colima
colin
colina
colinas
colindantes
coliseo
colisio
coll
collado
collar
collection
college
collette
collins
colmena
colo
coloca
colocaba
colocacio
colocada
colocadas
colocado
colocados
colocan
colocando
colocar
colocaron
colocarse
coloco
coloma
colombia
colombiana
colombianas
colombiano
colombianos
colombo
colon
colonia
colonial
coloniales
colonialismo
colonias
colonizacio
colonizadores
colonos
coloquial
coloquialmente
coloquio
color
coloracio
colorada
colorado
colores
colorido
colors
coloso
colt
columbia
columbus
columna
columnas
columnista
com
coma
comandada
comandado
comandados
comandancia
comandante
comandantes
comando
comandos
comarca
comarcal
comarcas
combat
combate
combates
combatiendo
combatiente
combatientes
combatio
combatir
combina
combinacio
combinaciones
combinada
combinadas
combinado
combinados
combinan
combinando
combinar
combino
combo
combustible
combustibles
combustio
come
comedia
comediante
comedias
comedor
comedy
comen
comendador
comendadores
comenta
comentado
comentando
comentar
comentario
comentarios
comentarista
comentaristas
comento
comenzaba
comenzaban
comenzado
comenzando
comenzar
comenzara
comenzari
comenzaron
comenzo
comer
comercial
comerciales
comercializa
comercializacio
comercializado
comercializar
comercialmente
comerciante
comerciantes
comerciar
comercio
comercios
comes
comestible
comestibles
cometa
cometas
comete
cometer
cometido
cometidos
cometieron
cometio
comi
comic
comicios
comics
comida
comidas
comido
comiendo
comienza
comienzan
comienzo
comienzos
comillas
coming
comisari
comisario
comisarios
comisio
comision
comisionado
comisionados
comisiones
comite
comitiva
command
commission
committee
commodore
common
commons
commonwealth
communaute
communes
communication
communications
community
como
comodidad
comodidades
comodoro
comp
compa
compacta
compacto
compactos
compan
companion
company
compara
comparable
comparables
comparacio
comparaciones
comparada
comparado
comparando
comparar
comparativa
comparative
comparo
comparte
comparten
comparti
compartida
compartidas
compartido
compartidos
compartiendo
compartieron
compartio
compartir
compases
compasio
compatibilidad
compatible
compatibles
compatriota
compatriotas
compendio
compensacio
compensar
competencia
competencias
competente
competentes
competi
competicio
competiciones
competidor
competidores
competir
competition
competitiva
competitividad
competitivo
compilacio
compilaciones
compilado
compilador
compite
compiten
compitiendo
compitieron
compitio
compleja
complejas
complejidad
complejo
complejos
complementa
complementar
complementaria
complementarias
complementario
complementarios
complemento
complementos
completa
completada
completado
completamente
completan
completando
completar
completaron
completas
complete
completo
completos
complex
complicaciones
complicada
complicado
complicidad
complot
complutense
compone
componen
componente
componentes
componer
componi
componiendo
comporta
comportamiento
comportamientos
composicio
composiciones
compositor
compositora
compositores
compostela
compra
comprada
comprado
comprador
compradores
comprados
comprando
comprar
compraron
compras
comprende
comprenden
comprender
comprendi
comprendida
comprendidas
comprendido
comprendidos
comprendiendo
comprendio
comprensio
compresio
comprimido
compro
comprobado
comprobar
comprobo
compromete
comprometi
comprometida
comprometido
comprometidos
comprometio
compromiso
compromisos
compuesta
compuestas
compuesto
compuestos
compuso
computacio
computacional
computador
computadora
computadoras
computadores
computer
comte
comu
comun
comuna
comunal
comunales
comunas
comune
comuneros
comunes
comunica
comunicaba
comunicacio
comunicaciones
comunicado
comunican
comunicar
comunicarse
comunico
comunidad
comunidades
comunio
comunismo
comunista
comunistas
comunitaria
comunitarias
comunitario
comunitarios
con
conan
concacaf
conce
concebida
concebido
concebir
concede
conceder
concedi
concedida
concedido
concedieron
concedio
concejal
concejales
concejo
concejos
concello
concentra
concentracio
concentraciones
concentrado
concentrados
concentran
concentrar
concentraron
concentrarse
concentro
concepcio
concepcion
concepciones
concept
concepto
conceptos
conceptual
conceptuales
concert
concertacio
concerto
concesio
concesiones
concha
conchas
concibe
concibio
conciencia
concierto
conciertos
conciliacio
conciliar
concilio
concluida
concluido
concluir
conclusio
conclusiones
concluye
concluyendo
concluyeron
concluyo
concord
concordancia
concordia
concreta
concretamente
concretar
concretas
concreto
concretos
concurrencia
concurrio
concurrir
concursante
concursantes
concurso
concursos
condado
condados
condal
conde
condecoracio
condecoraciones
condecorado
condecorados
condena
condenada
condenado
condenados
condenar
condenas
condeno
condensacio
condes
condesa
condestable
condicio
condicional
condiciones
conduccio
conduce
conducen
conduci
conducida
conducido
conducidos
conduciendo
conducir
conducta
conductas
conducto
conductor
conductora
conductores
conductos
condujeron
condujo
conecta
conectaba
conectada
conectadas
conectado
conectados
conectan
conectando
conectar
conectarse
conectividad
conecto
conector
conejo
conejos
conexio
conexiones
confeccio
confederacio
confederaciones
confederados
conference
conferencia
conferencias
confesar
confesio
confesiones
confeso
confesor
confi
confiable
confiado
confianza
confiar
confidencial
confiere
confiesa
configuracio
configuraciones
configurar
confinamiento
confio
confirma
confirmacio
confirmada
confirmado
confirmados
confirman
confirmando
confirmar
confirmaron
confirmo
conflict
conflicto
conflictos
confluencia
conforma
conformaban
conformacio
conformada
conformado
conforman
conformando
conformar
conformaron
conforme
conformidad
conformo
confrontacio
confunde
confundido
confundir
confundirse
confusa
confusio
confuso
conge
congelacio
congelado
conglomerado
congo
congregacio
congregaciones
congresional
congresista
congresistas
congreso
congresos
congress
coni
conicet
conjetura
conjuncio
conjunta
conjuntamente
conjuntas
conjunto
conjuntos
conlleva
conllevo
conmebol
conmemora
conmemoracio
conmemorar
conmemorativa
conmemorativo
conmigo
conmocio
connecticut
connection
connie
connor
cono
conoce
conocedor
conocemos
conocen
conocer
conocera
conoceri
conocerse
conoci
conocida
conocidas
conocido
conocidos
conociendo
conocieron
conocimiento
conocimientos
conocio
conos
conozca
conozco
conquista
conquistada
conquistado
conquistador
conquistadores
conquistados
conquistar
conquistaron
conquistas
conquisto
conrad
conrado
consagra
consagracio
consagrada
consagrado
consagro
consciencia
consciente
conscientes
conscientious
consecucio
consecuencia
consecuencias
consecuente
consecuentemente
consecutiva
consecutivas
consecutivo
consecutivos
consegui
conseguida
conseguido
conseguidos
conseguir
conseguiri
conseguirlo
consejera
consejeri
consejero
consejeros
consejo
consejos
consenso
consentimiento
conserva
conservaba
conservacio
conservada
conservadas
conservado
conservador
conservadora
conservadoras
conservadores
conservados
conservadurismo
conservan
conservando
conservar
conservaron
conservation
conservatorio
conservo
considera
consideraba
consideraban
considerable
considerablemente
considerables
consideracio
consideracion
consideraciones
considerada
consideradas
considerado
considerados
consideran
considerando
considerar
considerara
considerarlo
consideraron
considerarse
considere
considero
consigna
consigo
consigue
consiguen
consiguiendo
consiguiente
consiguieron
consiguio
consiste
consisten
consistencia
consistente
consistentes
consisti
consistio
consistorial
consistorio
consola
consolacio
consolas
consolida
consolidacio
consolidado
consolidar
consolido
consonancia
consonante
consonantes
consorcio
consorte
consortes
conspiracio
conspiradores
consta
constaba
constan
constancia
constant
constante
constantemente
constantes
constantine
constantino
constantinopla
constanza
constar
constelacio
constitucio
constitucion
constitucional
constitucionales
constituciones
constitui
constituida
constituidas
constituido
constituidos
constituir
constituirse
constituye
constituyen
constituyendo
constituyente
constituyentes
constituyeron
constituyo
construccio
construcciones
construction
constructiva
constructor
constructora
constructores
construi
construida
construidas
construido
construidos
construir
construirse
construye
construyen
construyendo
construyeron
construyo
consuelo
consulado
consular
consulta
consultada
consultado
consultar
consultas
consultivo
consulto
consultor
consultora
consultori
consume
consumen
consumi
consumido
consumidor
consumidores
consumir
consumo
contaba
contaban
contabilidad
contable
contactar
contacto
contactos
contado
contador
contados
contaduri
contagio
contaminacio
contaminantes
contando
contar
contara
contari
contaron
conte
contempla
contemplaba
contemplacio
contemplados
contemplar
contempora
contemporary
contencio
contencioso
contendiente
contendientes
contenedor
contenedores
contener
contenga
conteni
contenida
contenidas
contenido
contenidos
conteniendo
content
contenta
contento
conteo
contesta
contestacio
contestar
contesto
contexto
contextos
conti
contienda
contiene
contienen
contigo
contigua
contiguo
continental
continentales
continente
continentes
contingente
contingentes
continu
continua
continuaba
continuaban
continuacio
continuada
continuado
continuamente
continuando
continuar
continuara
continuari
continuaron
continuas
continuidad
continuo
continuos
conto
contorno
contornos
contra
contraataque
contrabajo
contrabando
contraccio
contradiccio
contradicciones
contrae
contraer
contrafuertes
contrai
contrajo
contralori
contraparte
contraposicio
contrapunto
contraria
contrariamente
contrarias
contrario
contrarios
contrarreloj
contrarrestar
contrasen
contrasta
contraste
contrastes
contrata
contratacio
contratada
contratado
contratados
contratantes
contratar
contrataron
contratista
contrato
contratos
contreras
contribucio
contribuciones
contribuido
contribuir
contribuye
contribuyen
contribuyendo
contribuyente
contribuyentes
contribuyeron
contribuyo
control
controla
controlaba
controlaban
controlada
controladas
controlado
controlador
controladores
controlados
controlan
controlando
controlar
controles
controversia
controversias
controvertida
controvertido
contundente
conveccio
convence
convencer
convencido
convencidos
convencio
convencional
convencionales
convenciones
convenido
conveniencia
conveniente
convenientes
convenio
convenios
convento
conventos
convergencia
conversacio
conversaciones
conversio
conversiones
conversos
converti
convertida
convertido
convertidos
convertir
convertira
convertiri
convertirlo
convertirse
conviccio
convicciones
conviene
convierta
convierte
convierten
convincente
convirtie
convirtiendo
convirtiera
convirtieron
convirtio
convivencia
convoca
convocada
convocado
convocados
convocar
convocatoria
convocatorias
convoco
convoy
convoyes
convulsiones
conway
cook
cooke
cool
cooper
cooperacio
cooperar
cooperativa
cooperativas
cooperativo
coord
coordenadas
coordina
coordinacio
coordinado
coordinador
coordinadora
coordinar
cop
copa
copas
cope
copenhague
copia
copiapo
copiar
copias
copiloto
coplas
coproduccio
copyright
coquimbo
cor
cora
coraje
coral
corales
corazo
corazon
corazones
corbeta
corbin
cord
cordero
cordillera
cordilleras
cordo
cordobe
cordobesa
cordones
cords
core
corea
coreana
coreano
coreanos
coreo
coreografi
corey
coria
corinthians
corinto
cork
cornejo
cornelio
cornelius
cornell
corner
cornisa
cornualles
coro
corola
corona
coronacio
coronada
coronado
coronas
coronavirus
coronel
coroneles
corono
coros
corp
corporacio
corporaciones
corporal
corporales
corporation
corporativa
corporativo
corps
corpus
corral
corrales
corre
correa
correccio
correcciones
correcta
correctamente
correcto
corredor
corredores
corregidor
corregimiento
corregimientos
corregir
correlacio
corren
correo
correos
correr
corresponda
correspondan
corresponde
corresponden
correspondencia
corresponder
corresponderi
correspondi
correspondiente
correspondientes
correspondio
corresponsal
corri
corrida
corridas
corrido
corridos
corriendo
corriente
corrientes
corrieron
corrio
corrosio
corrupcio
corrupto
corsario
corsarios
corso
corta
cortada
cortadas
cortado
cortando
cortar
cortas
corte
cortejo
cortes
cortesano
cortesi
cortez
corteza
cortina
cortinas
corto
cortometraje
cortometrajes
cortos
corun
cos
cosa
cosacos
cosas
cosecha
cosechas
cosecho
cosme
cosmo
cosmologi
cosmopolita
cosmos
costa
costado
costados
costarricense
costarricenses
costas
coste
costera
costeras
costero
costeros
costes
costilla
costillas
costo
costos
costosa
costoso
costumbre
costumbres
costura
cota
cotas
cotidiana
cotidianas
cotidiano
coto
cotton
could
council
count
country
county
coupe
course
court
courtney
cov
coventry
cover
covers
covid
cowboy
cowboys
cox
coyote
coyuntura
cp
cpu
cr
cra
cracovia
craig
crane
crash
crata
cratas
crates
crawford
crazy
cre
crea
creaba
creacio
creaciones
creada
creadas
creado
creador
creadora
creadores
creados
crean
creando
crear
creara
creari
crearon
crearse
creativa
creativas
creative
creatividad
creativo
creativos
crece
crecen
crecer
creci
crecidas
crecido
creciendo
creciente
crecientes
crecieron
crecimiento
crecio
credenciales
credibilidad
credo
cree
creed
creek
creemos
creen
creencia
creencias
creer
crei
crema
creo
crepu
crespo
cresta
crestas
creta
cretaceous
crew
creyendo
creyentes
creyeron
creyo
cri
criada
criado
criados
crianza
criar
criatura
criaturas
cricket
crime
crimea
crimen
criminal
criminales
crimson
crio
criolla
criollo
criollos
cripta
crisis
criso
cristal
cristales
cristalina
cristalino
cristia
cristian
cristiana
cristianas
cristiandad
cristianismo
cristiano
cristianos
cristina
cristo
criterio
criterios
critica
criticada
criticado
critical
criticando
criticar
criticaron
critico
critics
cro
croacia
croata
croatas
croix
croma
cromo
cromoso
cromosoma
cromosomas
cromwell
cronista
cronistas
crono
cronoestratigra
cronolo
cronologi
crosby
cross
crossover
crow
crown
cruce
cruceri
crucero
cruceros
cruces
crucial
crucificado
crucifijo
crucifixio
crucis
cruda
crudo
cruel
crueldad
crueles
cruise
crusta
cruz
cruza
cruzaba
cruzada
cruzadas
cruzado
cruzados
cruzan
cruzando
cruzar
cruzaron
cruzo
cry
crystal
cs
csi
csic
cska
css
ct
ctar
ctea
cteas
cteos
cter
ctica
cticamente
cticas
ctico
cticos
ctil
ctima
ctimas
ctona
ctonas
ctonos
ctor
ctrica
ctricas
ctrico
ctricos
cu
cua
cuaderno
cuadernos
cuadra
cuadrada
cuadradas
cuadrado
cuadrados
cuadrangular
cuadrangulares
cuadrante
cuadras
cuadrila
cuadrilla
cuadro
cuadros
cual
cuales
cualesquiera
cualidad
cualidades
cualquier
cualquiera
cuando
cuantas
cuanti
cuanto
cuantos
cuarenta
cuarentena
cuaresma
cuaro
cuarta
cuartas
cuartel
cuarteles
cuarteto
cuartetos
cuarto
cuartos
cuarzo
cuasi
cuatro
cuatrocientos
cuauhte
cuba
cubana
cubanas
cubano
cubanos
cube
cubierta
cubiertas
cubierto
cubiertos
cubo
cubos
cubre
cubren
cubri
cubriendo
cubrio
cubrir
cuchilla
cuchillo
cuchillos
cue
cuelga
cuello
cuenca
cuencas
cuenta
cuentan
cuentas
cuente
cuento
cuentos
cuerda
cuerdas
cuernavaca
cuerno
cuernos
cuero
cueros
cuerpo
cuerpos
cuervo
cuervos
cuesta
cuestas
cuestio
cuestiona
cuestionada
cuestionado
cuestionar
cuestiones
cuestiono
cueva
cuevas
cuida
cuidado
cuidados
cuidadosamente
cuidar
cula
culas
culata
culebra
culiaca
culmina
culminacio
culminando
culminante
culminar
culminaron
culmino
culo
culos
culpa
culpabilidad
culpable
culpables
culpo
cult
culta
cultiva
cultivada
cultivadas
cultivado
cultivan
cultivar
cultivo
cultivos
culto
cultos
cultura
cultural
culturales
culturalmente
culturas
culture
cum
cumberland
cumbia
cumbre
cumbres
cumpla
cumplan
cumple
cumplean
cumplen
cumpli
cumplido
cumplidos
cumpliendo
cumplieron
cumplimiento
cumplio
cumplir
cumplirse
cun
cuna
cundinamarca
cunningham
cuota
cuotas
cup
cupe
cupo
cupos
cura
curacio
curado
curador
curar
curas
curazao
cure
curia
curico
curiosa
curiosamente
curiosidad
curiosidades
curioso
curiosos
curling
current
curri
curry
cursar
cursiva
curso
cursos
curt
curtis
curva
curvas
curvatura
cusco
custodia
cut
cuta
cuya
cuyas
cuyo
cuyos
cuzco
cv
cw
cyborg
cycling
cynthia
cyprinidae
cypriniformes
cyrus
cz
d
da
daba
daban
dacia
dad
dada
dadas
daddy
dado
dados
daga
daget
dai
daily
daisy
dakar
dakota
dal
dale
dali
dallas
dalmacia
dalton
daly
dam
dama
damas
damasco
dame
damia
damian
damon
dan
dana
dance
dancing
dando
dane
danesa
daneses
danger
dangerous
dani
daniel
daniela
danielle
daniels
danilo
danny
dano
dans
dante
danubio
danza
danzas
daphne
dar
dara
dare
daredevil
dari
dario
dark
darkness
darle
darles
darling
darmstadt
darren
darse
darwin
daryl
das
dash
data
database
datacio
datada
datado
datan
date
dateformat
dates
dato
datos
daughter
dave
david
davidson
davies
davis
dawn
dawson
day
days
daytona
db
dc
dd
ddr
ddt
de
dea
dead
deal
dean
dear
deas
death
deba
debajo
deban
debate
debates
debe
debemos
deben
deber
debera
deberes
deberi
deberse
debes
debi
debia
debian
debida
debidamente
debidas
debido
debiendo
debiera
debieron
debilidad
debilidades
debilitado
debilitamiento
debilitar
debilito
debio
debo
deborah
debut
debuta
debutando
debutante
debutar
debuto
dec
decadencia
decano
decca
december
decena
decenas
decente
decepcio
deci
decide
deciden
decidi
decidida
decidido
decidiera
decidieron
decidio
decidir
decimal
decimos
decir
decirle
decirlo
decirse
decisio
decisiones
decisiva
decisivo
declara
declaraba
declaracio
declaraciones
declarada
declaradas
declarado
declarados
declaran
declarando
declarar
declararon
declare
declaro
declinacio
declino
declive
decoracio
decoraciones
decorada
decoradas
decorado
decorados
decorativas
decorativo
decorativos
decoro
decreta
decreto
decretos
dedica
dedicaba
dedicaban
dedicacio
dedicada
dedicadas
dedicado
dedicados
dedican
dedicar
dedicaron
dedicarse
dedicatoria
dedico
dedo
dedos
deduce
deducir
dee
deep
def
default
defecto
defectos
defender
defenderse
defendi
defendida
defendido
defendiendo
defendieron
defendio
defensa
defensas
defense
defensiva
defensivas
defensivo
defensivos
defensor
defensora
defensores
deficiencia
deficiencias
deficiente
defiende
defienden
define
definen
defini
definicio
definiciones
definida
definidas
definido
definidos
definio
definir
definirse
definitiva
definitivamente
definitivo
deforestacio
deformacio
degli
degradacio
dehesa
dei
deidad
deidades
deja
dejaba
dejaban
dejado
dejan
dejando
dejar
dejara
dejari
dejarlo
dejaron
dejarse
deje
dejen
dejo
del
dela
delante
delantera
delanteras
delantero
delanteros
delaware
delegacio
delegaciones
delegada
delegado
delegados
delfi
delfines
delgada
delgadas
delgado
delgados
delhi
delia
deliberadamente
deliberante
delicada
delicado
delicias
delimitacio
delimitada
delimitado
delincuencia
delincuente
delincuentes
delirio
delito
delitos
dell
della
delle
delos
dels
delta
deluxe
dem
dema
demanda
demandas
demando
demarcacio
demas
demasiada
demasiado
demencia
demetrio
demi
demo
democra
democracia
democracy
demogra
demografi
demolicio
demolida
demolido
demon
demoni
demonio
demonios
demora
demos
demostracio
demostraciones
demostrado
demostrando
demostrar
demostraron
demostro
demuestra
demuestran
den
dena
denis
denise
dennis
denomina
denominaba
denominacio
denominaciones
denominada
denominadas
denominado
denominados
denominan
denominar
denominarse
denomino
denota
densa
densamente
densidad
denso
densos
dental
dentro
denuncia
denunciado
denunciar
denunciaron
denuncias
denuncio
denver
deo
deos
departamental
departamentales
departamento
departamentos
department
depende
dependen
dependencia
dependencias
depender
dependera
dependi
dependiendo
dependiente
dependientes
depo
deportacio
deportados
deporte
deportes
deportista
deportistas
deportiva
deportivas
deportivo
deportivos
deposicio
depositado
depositados
depositario
depredador
depredadores
depresio
depresiones
depuesto
depuracio
der
derbi
derby
derecha
derechas
derecho
derechos
derek
deres
deriva
derivacio
derivada
derivadas
derivado
derivados
derivan
derivar
derivo
deroga
derogacio
derrame
derribado
derribar
derribo
derrocado
derrocamiento
derrocar
derroco
derrota
derrotada
derrotadas
derrotado
derrotados
derrotando
derrotar
derrotaron
derrotas
derroto
derrumbe
derrumbo
des
desacuerdo
desacuerdos
desafi
desafiar
desafio
desafortunadamente
desagradable
desagu
desamortizacio
desamparados
desaparece
desaparecen
desaparecer
desaparecida
desaparecidas
desaparecido
desaparecidos
desapareciendo
desaparecieron
desaparecio
desaparicio
desarme
desarrolla
desarrollaba
desarrollada
desarrolladas
desarrollado
desarrollador
desarrolladores
desarrollados
desarrollan
desarrollando
desarrollar
desarrollara
desarrollaron
desarrollarse
desarrollo
desarrollos
desastre
desastres
desato
desayuno
descalificacio
descalificado
descalzos
descansa
descansan
descansar
descanso
descarga
descargable
descargar
descargas
descartado
descartar
descartes
descarto
descendencia
descendente
descender
descendi
descendido
descendiendo
descendiente
descendientes
descendieron
descendio
descenso
descensos
descentralizacio
descentralizado
desciende
descienden
descomposicio
desconfianza
desconoce
desconocen
desconoci
desconocida
desconocidas
desconocido
desconocidos
desconocimiento
descontento
describe
describen
describi
describiendo
describieron
describio
describir
descripcio
descripciones
description
descriptiva
descrita
descritas
descrito
descritos
descubierta
descubiertas
descubierto
descubiertos
descubre
descubren
descubridor
descubriendo
descubrieron
descubrimiento
descubrimientos
descubrio
descubrir
descuento
descuido
desde
desden
dese
desea
deseaba
deseaban
deseada
deseado
desean
deseando
desear
desechos
desee
desembarcar
desembarcaron
desembarco
desemboca
desembocadura
desembocan
desembocar
desempate
desempen
desempleo
desencadeno
desengan
desenlace
deseo
deseos
desequilibrio
desercio
desert
desertores
desesperacio
desesperada
desesperado
desfavorable
desfile
desfiles
desgaste
desgracia
desgraciadamente
desgraciado
desgracias
deshacerse
desierto
desiertos
design
designa
designacio
designada
designadas
designado
designados
designar
designo
desigual
desigualdad
desigualdades
desiguales
desintegracio
desire
deslizamiento
desmond
desnivel
desnuda
desnudas
desnudo
desnudos
deso
desobediencia
desorden
despacho
despachos
despedida
despedido
despegar
despegue
despertar
desperto
despide
despidio
despido
despierta
desplaza
desplazado
desplazados
desplazamiento
desplazamientos
desplazarse
desplazo
desplegado
desplegar
desplego
despliegue
despoblado
despoblados
despojado
desprecio
desprende
desprendimiento
despue
despues
desta
destaca
destacaba
destacaban
destacable
destacables
destacada
destacadas
destacado
destacados
destacamento
destacan
destacando
destacar
destacaron
destacarse
destaco
deste
desterrado
destierro
destilacio
destina
destinada
destinadas
destinado
destinados
destino
destinos
destiny
destitucio
destituido
destreza
destruccio
destruction
destructor
destructores
destruida
destruidas
destruido
destruidos
destruir
destruye
destruyen
destruyendo
destruyeron
destruyo
desuso
desventaja
desventajas
desvi
desviacio
desviar
det
details
detalla
detallada
detalladas
detallado
detallados
detalle
detalles
deteccio
detecta
detectado
detectar
detective
detectives
detecto
detector
detencio
detenciones
detener
detenerse
detenida
detenidas
detenido
detenidos
deterioro
determina
determinacio
determinada
determinadas
determinado
determinados
determinan
determinante
determinantes
determinar
determinara
determinaron
determine
determino
detiene
detienen
detra
detractores
detrimento
detroit
detuvieron
detuvo
deuda
deudas
deudor
deus
deutsche
deutschen
deutscher
deutschland
deux
dev
deva
development
devenir
devil
devocio
devolucio
devolver
devolvio
devon
devoto
devotos
devuelto
devuelve
dewey
dexter
dez
df
dg
dh
dharma
dho
di
dia
diabetes
diablo
diablos
diabo
diagno
diagnosticado
diagonal
diagrama
diagramas
dial
diale
dialecto
dialectos
diamante
diamantes
diamond
diana
diane
diaria
diariamente
diarias
diario
diarios
diarrea
diary
dias
diaz
dibujado
dibujante
dibujantes
dibujar
dibujo
dibujos
dic
dica
dicamente
dicas
diccionario
diccionarios
dice
dicen
dices
dicha
dichas
dicho
dichos
dici
dicie
diciembre
diciendo
dick
dickens
dickinson
dico
dicos
dicta
dictada
dictado
dictador
dictadura
dictamen
dictamino
dictar
dictionary
dictionnaire
dicto
did
dida
dides
didier
die
diecinueve
dieciocho
diecise
diecisiete
diego
diente
dientes
diera
dieran
dieron
dies
diese
diesel
diestra
diestro
dieta
dietas
dieter
dietrich
diez
dif
diferencia
diferenciacio
diferenciadas
diferenciados
diferencial
diferenciales
diferencian
diferenciar
diferencias
diferente
diferentes
different
difi
dificulta
dificultad
dificultades
difiere
difieren
difundida
difundido
difundio
difundir
difunto
difuntos
difusio
diga
digestivo
digimon
digital
digitales
digitalmente
digna
dignidad
digno
dignos
digo
digos
dije
dijera
dijeron
dijo
dijon
dilema
diligencia
diligencias
dillon
diluvio
dime
dimensio
dimensiones
dimisio
dimitio
dimitir
dimitri
din
dina
dinamarca
dinamismo
dinamo
dinasti
dinero
dino
dinosaur
dinosaurio
dinosaurios
dinosaurs
dio
diocesano
diocleciano
diodoro
dion
dionisio
dios
diosa
diosas
dioses
diploma
diplomacia
diplomado
diplomas
diptera
dipterorum
diputacio
diputaciones
diputada
diputado
diputados
dique
diques
dir
dira
dire
direccio
direcciones
direct
directa
directamente
directas
direction
directiva
directivas
directivo
directivos
directo
director
directora
directores
directorio
directos
directrices
diri
dirige
dirigen
dirigencia
dirigente
dirigentes
dirigi
dirigida
dirigidas
dirigido
dirigidos
dirigie
dirigiendo
dirigieron
dirigio
dirigir
dirigirse
dirk
dirty
dis
disc
discapacidad
discapacitados
disci
disciplina
disciplinas
disco
discogra
discografi
discogs
discordia
discos
discoteca
discovery
discrecio
discrepancias
discreta
discreto
discriminacio
disculpa
disculpas
discurre
discurso
discursos
discusio
discusion
discusiones
discute
discuten
discutida
discutido
discutio
discutir
disease
disen
disertacio
disfraces
disfraz
disfrazado
disfruta
disfrutan
disfrutar
disfrute
disfruto
disgusto
disidente
disidentes
disminucio
disminuido
disminuir
disminuye
disminuyen
disminuyendo
disminuyo
disney
disolucio
disolver
disolvio
dispara
disparado
disparando
disparar
dispararon
disparo
disparos
dispersa
dispersas
dispersio
disperso
dispersos
display
dispone
disponen
disponer
disponga
disponi
disponibilidad
disponible
disponibles
disposicio
disposiciones
dispositivo
dispositivos
dispuesta
dispuestas
dispuesto
dispuestos
dispuso
disputa
disputaba
disputada
disputadas
disputado
disputados
disputan
disputando
disputar
disputara
disputari
disputaron
disputarse
disputas
disputo
disquera
dista
distal
distancia
distanciamiento
distancias
distante
distantes
distincio
distinciones
distingue
distinguen
distingui
distinguida
distinguido
distinguidos
distinguio
distinguir
distinguirse
distinta
distintas
distintiva
distintivo
distintivos
distinto
distintos
distorsio
distraccio
distrai
distribucio
distribuciones
distribuida
distribuidas
distribuido
distribuidor
distribuidora
distribuidores
distribuidos
distribuir
distribution
distribuye
distribuyen
distribuyo
district
distrital
distrito
distritos
disturbios
disuelta
disuelto
disueltos
disuelve
dita
ditas
dition
ditions
dito
ditos
diva
divas
divergencia
diversa
diversas
diversidad
diversificacio
diversio
diversity
diverso
diversos
divertida
divertido
divi
divide
dividen
dividi
dividida
divididas
dividido
divididos
dividiendo
dividieron
dividio
dividir
dividirse
divina
divinas
divinidad
divino
divinos
divisa
divisas
divisio
division
divisional
divisiones
divisoria
divorciaron
divorcio
divulgacio
dixo
dixon
diz
dj
djokovic
dk
dl
dlc
dm
dminton
dmitri
dn
dna
dney
do
doblada
dobladas
doblado
doblaje
doblar
doble
dobles
doblete
doc
doce
docena
docenas
docencia
docente
docentes
doctor
doctora
doctorado
doctoral
doctores
doctoro
doctrina
doctrinas
documenta
documentacio
documentada
documentado
documentados
documental
documentales
documento
documentos
documents
dodge
dodgers
does
dog
dogma
dogs
doha
doi
dolly
dolo
dolor
dolores
dolorosa
doloroso
dolos
dom
dome
domenico
domestica
domi
domicilio
domina
dominaba
dominacio
dominada
dominado
dominan
dominando
dominante
dominantes
dominar
domingo
domingos
dominic
dominica
dominical
dominicana
dominicano
dominico
dominicos
dominio
dominios
dominique
domino
domo
don
dona
donacio
donaciones
donada
donado
donados
donald
donante
donantes
donar
donato
doncella
doncellas
donde
done
dones
donetsk
dong
donkey
donna
donnell
dono
donoso
donovan
doo
doom
door
dopaje
dor
dora
dorada
doradas
dorado
dorados
doria
dorian
doris
dormi
dormido
dormir
dormitorio
dormitorios
dorotea
dorothy
dorsal
dorsales
dorso
dortmund
dos
doscientas
doscientos
dosel
dosis
dot
dota
dotacio
dotada
dotado
dotados
dotar
dote
dotes
doto
dots
douard
double
doug
douglas
dove
dover
down
download
downtown
doy
doyle
dp
dq
dr
dra
draft
drag
drago
dragon
dragones
dragons
drake
drama
dramas
dramaturgia
dramaturgo
dramaturgos
dre
dream
dreams
drenaje
dresde
drew
dreyfus
drica
drico
dricos
drive
driver
dro
droga
drogas
dromo
dromos
drones
drop
drug
drum
drums
druple
ds
dt
du
dual
dualidad
duarte
dub
duba
dubli
dublin
ducado
ducados
ducal
duck
duda
dudar
dudas
dudley
dudo
dudosa
dudoso
due
duelo
duelos
duen
duende
duerme
duero
dueto
duke
dula
dulce
dulces
dulo
dulos
dulzura
dumas
dumont
dunas
duncan
dunn
duo
duode
dupla
duplicado
duque
duques
duquesa
dura
duracio
duradera
duramente
duran
durand
durango
durante
durar
durara
durari
duraron
duras
durazno
dureza
durham
during
durmiendo
duro
duros
dust
dutch
duty
dux
dvd
dwight
dx
dylan
dynamics
dynamite
dynasty
dz
e
ea
eagle
eagles
earl
early
earth
east
eastern
easy
eau
ebert
ebro
ec
eca
ecas
echa
echado
echar
echeverri
echo
ecle
eclesia
eclipse
eco
ecolo
ecologi
ecologista
ecologistas
ecology
econo
economi
economic
economics
economista
economistas
economy
ecorregio
ecos
ecosistema
ecosistemas
ecuacio
ecuaciones
ecuador
ecuatorial
ecuatoriana
ecuatoriano
ecuatorianos
ecuestre
ecume
ecw
ed
eda
edad
edades
eddie
eddy
ede
eden
edgar
edgardo
edge
edicio
ediciones
edicions
edicto
edificacio
edificaciones
edificada
edificado
edificar
edificio
edificios
edifico
edimburgo
edinburgh
edison
edit
edita
editada
editadas
editado
editados
editar
editaron
edited
edith
edition
editions
edito
editor
editora
editores
editorial
editoriales
editors
edmond
edmonton
edmund
edmundo
edo
edos
eds
edu
eduard
eduardo
educacio
educacional
educada
educado
educador
educadores
educar
education
educativa
educativas
educativo
educativos
educo
edward
edwards
edwin
ee
ef
efe
efectiva
efectivamente
efectivas
efectividad
efectivo
efectivos
efecto
efectos
efectu
efectuada
efectuado
efectuar
efectuaron
efectuo
effect
effects
efi
eficaces
eficacia
eficaz
eficazmente
eficiencia
eficiente
eficientes
efigie
efrai
egan
egeo
egipcia
egipcias
egipcio
egipcios
egipto
ego
egoi
egresado
egresados
egreso
egypt
egyptian
eh
ehess
ei
eiffel
eight
ein
eine
einer
einstein
eisenhower
ej
eje
ejecucio
ejecuciones
ejecuta
ejecutada
ejecutadas
ejecutado
ejecutados
ejecutan
ejecutando
ejecutar
ejecutiva
ejecutivo
ejecutivos
ejecuto
ejemplar
ejemplares
ejemplo
ejemplos
ejerce
ejercen
ejercer
ejerci
ejercicio
ejercicios
ejercida
ejercido
ejerciendo
ejercio
ejes
ejido
ek
el
ela
elabora
elaboracio
elaborada
elaboradas
elaborado
elaborados
elaboran
elaborar
elaboro
elba
elche
ele
eleanor
eleccio
eleccion
elecciones
electa
election
elections
electo
elector
electorado
electoral
electorales
electores
electos
electra
electric
electricidad
electrificacio
electro
electromagne
electrones
electronic
elefante
elefantes
elegancia
elegante
elegantes
elegi
elegible
elegida
elegidas
elegido
elegidos
elegir
elektra
elemental
elementales
elementary
elemento
elementos
elena
elenco
eleva
elevacio
elevaciones
elevada
elevadas
elevado
elevados
elevan
elevar
eleven
elevo
elfos
eli
elias
elige
eligen
eligiendo
eligieron
eligio
elimina
eliminacio
eliminada
eliminadas
eliminado
eliminados
eliminan
eliminando
eliminar
eliminaron
elimination
eliminatoria
eliminatorias
elimino
eliot
elisa
elisabeth
eliseo
elite
eliza
elizabeth
elizalde
elizondo
ell
ella
ellas
elle
ellen
elles
elliot
elliott
ellis
ello
ellos
elmundo
eln
elo
elocuencia
elogiado
elogio
elogios
eloy
elpais
els
elsa
else
elton
elvira
elvis
em
emancipacio
emanuel
embajada
embajadas
embajador
embajadora
embajadores
embalse
embalses
embarazada
embarazadas
embarazo
embarcacio
embarcaciones
embarco
embargo
embarque
emblema
emblemas
emboscada
embrio
eme
emelec
emerge
emergencia
emergencias
emergente
emergentes
emergio
emerson
emes
emi
emigracio
emigrado
emigrantes
emigrar
emigraron
emigro
emil
emilia
emiliano
emilio
emily
eminem
eminente
eminentemente
emir
emirato
emiratos
emisio
emisiones
emisor
emisora
emisoras
emite
emiten
emiti
emitida
emitidas
emitido
emitidos
emitiendo
emitieron
emitio
emitir
emitirse
emma
emmanuel
emmy
emocio
emocional
emocionales
emocionante
emociones
empalme
empatado
empatados
empatando
empatar
empataron
empate
empates
empato
empen
emperador
emperadores
emperatriz
empero
empezaba
empezado
empezando
empezar
empezara
empezari
empezaron
empezo
empi
empieza
empiezan
empire
emplazamiento
emplea
empleaba
empleaban
empleada
empleadas
empleado
empleador
empleados
emplean
empleando
emplear
emplearon
emplearse
empleo
empleos
empre
emprende
emprender
emprendieron
emprendimiento
emprendio
empresa
empresaria
empresarial
empresariales
empresario
empresarios
empresas
empuja
empuje
empujo
empun
en
ena
enamora
enamorada
enamorado
enamorados
enamoro
enana
enanas
enano
enanos
encabezada
encabezado
encabezados
encabezar
encabezo
encaje
encanta
encantada
encantado
encantadora
encanto
encarcelado
encarcelados
encarcelamiento
encarga
encargaba
encargada
encargadas
encargado
encargados
encargan
encargaron
encargarse
encargo
encargos
encarna
encarnacio
encender
encendida
encendido
encerrada
encerrado
encerrados
enci
enciclope
enciclopedia
enciende
encierra
encierro
encima
encina
encinas
enclave
enclaves
encomendo
encomienda
encomiendas
encontra
encontraba
encontraban
encontrada
encontradas
encontrado
encontrados
encontramos
encontrando
encontrar
encontrara
encontrari
encontraron
encontrarse
encontre
encontro
encore
encuentra
encuentran
encuentre
encuentren
encuentro
encuentros
encuesta
encuestas
encyclopaedia
encyclopedia
encyclopædia
end
ende
endeavour
endesa
ending
endo
ene
eneas
enemiga
enemigas
enemigo
enemigos
enemistad
enemy
energe
energi
energy
enero
enfatiza
enferma
enfermedad
enfermedades
enfermera
enfermeras
enfermeri
enfermo
enfermos
enfoca
enfocada
enfocado
enfoque
enfoques
enfrenta
enfrentaba
enfrentaban
enfrentado
enfrentamiento
enfrentamientos
enfrentan
enfrentando
enfrentar
enfrentara
enfrentari
enfrentaron
enfrentarse
enfrente
enfrento
enfriamiento
engan
engels
engine
engineering
england
english
engloba
engranajes
enigma
enlace
enlaces
enlaza
enmarca
enmarcada
enmarcado
enmienda
enmiendas
eno
enojado
enojo
enorme
enormemente
enormes
enough
enri
enric
enrico
enrique
enriquecimiento
enriqueta
ensalada
ensamblaje
ensanche
ensayista
ensayistas
ensayo
ensayos
ense
enseguida
ensemble
ensen
ensenada
ensuen
entablar
entablo
ente
entender
entendera
entenderse
entendi
entendida
entendido
entendimiento
entendio
entera
enterado
enteramente
enterarse
enteras
entero
enteros
enterprise
enterrada
enterrado
enterrados
enterramiento
enterramientos
enterrar
entertainment
entes
entidad
entidades
entiende
entienden
entiendo
entierro
ento
entonces
entorno
entornos
entra
entraba
entraban
entrada
entradas
entrado
entramado
entran
entrando
entrar
entrara
entrari
entraron
entre
entrega
entregaba
entregada
entregadas
entregado
entregados
entregan
entregando
entregar
entregara
entregaron
entregarse
entregas
entrego
entreguerras
entrena
entrenado
entrenador
entrenadora
entrenadores
entrenados
entrenamiento
entrenamientos
entrenando
entrenar
entreno
entretanto
entretenimiento
entrevista
entrevistado
entrevistas
entrevisto
entro
entropi
entry
entusiasmo
entusiasta
entusiastas
enumera
enunciado
envejecimiento
envenenamiento
envergadura
envi
enviaba
enviada
enviadas
enviado
enviados
enviando
enviar
enviara
enviaron
envidia
envio
environment
environmental
envuelta
envuelto
envueltos
envuelve
enz
enza
enzima
enzimas
enzo
eo
eoceno
eol
ep
eparqui
epi
epic
epicentro
epidemia
epidemias
epidermis
epiro
episcopado
episcopal
episode
episodio
episodios
epo
eponimia
epopeya
eps
epsilon
equidad
equilibrado
equilibrio
equipada
equipadas
equipado
equipados
equipaje
equipamiento
equipamientos
equipo
equipos
equitacio
equivale
equivalencia
equivalente
equivalentes
equivocado
er
era
eran
erario
eras
erasmo
erc
ereccio
eres
ereva
eri
eric
erica
erich
erick
erie
erigida
erigido
erigio
erigir
erik
erika
eritrea
ermita
ermitan
ermitas
ernest
ernesto
ernst
ero
eros
erosio
erra
erradicacio
erradicar
errante
erro
error
errores
ers
erudito
eruditos
erupcio
erupciones
erwin
es
esa
esas
esbozo
esca
escala
escalada
escalante
escalar
escalas
escalera
escaleras
escalinata
escalo
escalones
escamas
escan
escandinavia
escapa
escapado
escapan
escapar
escaparon
escape
escapo
escarabajo
escarabajos
escaramuzas
escarlata
escasa
escasamente
escasas
escasez
escaso
escasos
esce
escena
escenario
escenarios
escenas
escenografi
escepticismo
eschmeyer
escipio
escisio
esclava
esclavas
esclavitud
esclavo
esclavos
escobar
escoce
escocesa
escoceses
escocia
escoger
escogida
escogido
escogidos
escogio
escola
escolar
escolares
escolta
escombros
esconde
esconderse
escondida
escondidas
escondido
escondite
escopeta
escorial
escorpio
escriba
escribano
escribe
escriben
escribi
escribiendo
escribieron
escribio
escribir
escrita
escritas
escrito
escritor
escritora
escritoras
escritores
escritorio
escritos
escritura
escrituras
escrutinio
escuadra
escuadrilla
escuadro
escuadrones
escucha
escuchaba
escuchado
escuchan
escuchando
escuchar
escucho
escuderi
escudero
escudo
escudos
escuela
escuelas
esculto
escultor
escultores
escultura
esculturas
ese
esencia
esencial
esenciales
esencialmente
esfe
esfera
esferas
esfuerzo
esfuerzos
esgrima
esgrimidores
eslalon
eslava
eslavo
eslavonia
eslavos
eslogan
eslovaco
eslovaquia
eslovenia
esloveno
esmalte
esmeralda
esmeraldas
esmirna
eso
esos
esote
esp
espa
espacial
espaciales
espacio
espacios
espada
espadan
espadas
espalda
espaldas
espan
espanto
espanyol
esparcimiento
esparta
espartero
esparza
espasa
espe
especi
especial
especiales
especialidad
especialidades
especialista
especialistas
especializa
especializacio
especializada
especializadas
especializado
especializados
especializo
especialmente
especias
especie
especies
especifica
especificacio
especificaciones
especificado
especifican
especificar
especta
espectacular
espectaculares
espectador
espectadores
espectral
espectro
espectros
especula
especulacio
especulaciones
espediente
espejo
espejos
espera
esperaba
esperaban
esperada
esperado
esperan
esperando
esperanto
esperanza
esperanzas
esperar
espero
espesa
espesor
espi
espiga
espina
espinal
espinas
espino
espinosa
espinoza
espionaje
espiral
espirales
espiritual
espirituales
espiritualidad
esple
esplendor
espn
esponja
esponta
espora
esporas
esporte
esposa
esposas
esposo
esposos
espuma
esquele
esqueleto
esqueletos
esquema
esquemas
esquerra
esqui
esquiadores
esquina
esquinas
esquivel
esquizofrenia
essays
essex
est
esta
estaba
estaban
estabilidad
estabilizacio
estabilizar
estable
establece
establecen
establecer
establecera
establecerse
estableci
establecida
establecidas
establecido
establecidos
establecie
estableciendo
establecieron
establecimiento
establecimientos
establecio
estables
establezca
estacio
estacional
estacionales
estacionamiento
estaciones
estadi
estadio
estadios
estadista
estado
estados
estadounidense
estadounidenses
estafa
estalla
estallar
estallido
estallo
estambres
estambul
estamos
estampa
estampas
estan
estancamiento
estancia
estancias
estanco
estandarte
estando
estanislao
estanque
estanques
estar
estara
estari
estas
estatal
estatales
estate
estatua
estatuas
estatura
estatus
estatuto
estatutos
este
esteban
estela
estelar
estelares
estelas
estella
estepa
estepas
ester
estereotipos
esterlinas
estero
esther
esti
estigma
estili
estilizado
estilo
estilos
estima
estimaba
estimacio
estimaciones
estimada
estimado
estiman
estimar
estimo
estimula
estimulacio
estimular
estipulado
estiria
estival
esto
estocolmo
estonia
estonio
estos
estoy
estrabo
estrada
estragos
estrasburgo
estrate
estrategia
estrategias
estrato
estratos
estre
estrecha
estrechamente
estrechas
estrecho
estrechos
estrella
estrellas
estrello
estrena
estrenada
estrenadas
estrenado
estreno
estrenos
estri
estribaciones
estribillo
estricta
estrictamente
estrictas
estricto
estro
estrofa
estrofas
estructura
estructurado
estructural
estructurales
estructuras
estu
estuario
estuco
estudia
estudiaba
estudiada
estudiado
estudiados
estudian
estudiando
estudiante
estudiantes
estudiantil
estudiantiles
estudiar
estudiaron
estudio
estudios
estudioso
estudiosos
estuviera
estuvieran
estuvieron
estuviese
estuviesen
estuvo
et
eta
etanol
etapa
etapas
etas
etc
etce
ete
eterna
eternal
eternamente
eternidad
eterno
ethan
eti
etimolo
etimologi
etiopi
etiqueta
etiquetado
etiquetas
etnia
etnias
etno
etnogra
etnografi
eu
eua
eucari
eucaristi
euge
eugen
eugene
eugenia
eugenio
eulalia
euler
eun
euphorbia
eurasia
eure
euri
euro
eurobasket
eurocopa
euroliga
europa
europe
europea
european
europeas
europeo
europeos
euros
eurovisio
eusebio
euskadi
euskal
euskera
eustaquio
ev
eva
evacuacio
evacuados
evacuar
evalu
evaluacio
evaluaciones
evaluar
evan
evange
evangelio
evangelios
evangelista
evangelizacio
evans
evaporacio
evaristo
evasio
eve
evelyn
even
evening
event
evento
eventos
events
eventual
eventualmente
ever
everest
everett
everton
every
everybody
everything
evic
evidence
evidencia
evidencias
evidente
evidentemente
evidentes
evil
evita
evitan
evitando
evitar
evito
evo
evoca
evolucio
evolucionado
evolucionando
evolucionar
evoluciono
evolution
evolutionary
evolutiva
evolutivo
ex
exa
exacta
exactamente
exactas
exactitud
exacto
exaltacio
examen
examina
examinado
examinar
examino
excavacio
excavaciones
excavado
exce
excelencia
excelente
excelentes
excentricidad
excepcio
excepcional
excepcionales
excepcionalmente
excepciones
excepto
exceptuando
excesiva
excesivamente
excesivo
exceso
excesos
exchange
excitacio
exclamo
excluido
excluidos
exclusio
exclusiva
exclusivamente
exclusivas
exclusividad
exclusivo
exclusivos
excluye
excluyendo
excmo
excursio
excursiones
excusa
exe
executive
exencio
exenta
exento
exentos
exeter
exfutbolista
exgobernador
exhaustiva
exhibe
exhiben
exhibicio
exhibiciones
exhibida
exhibido
exhibio
exhibir
exhibition
exige
exigen
exigencia
exigencias
exigente
exigi
exigiendo
exigieron
exigio
exigir
exiliado
exiliados
exiliarse
exilio
exista
existan
existe
existen
existencia
existente
existentes
existi
existido
existiendo
existieron
existio
existir
exitosa
exitosamente
exitosas
exitoso
exitosos
exjugador
exmiembro
exministro
exo
exp
expand
expande
expandido
expandio
expandir
expandirse
expansio
expectativa
expectativas
expedicio
expediciones
expediente
expedientes
expensas
experience
experiencia
experiencias
experimenta
experimentacio
experimentado
experimentados
experimental
experimentales
experimentan
experimentando
experimentar
experimentaron
experimento
experimentos
experta
experto
expertos
explanada
expli
explica
explicaba
explicacio
explicaciones
explicado
explican
explicando
explicar
explico
explora
exploracio
exploraciones
explorador
exploradores
explorar
explorer
exploro
explosio
explosiones
explosiva
explosivo
explosivos
explota
explotacio
explotaciones
explotar
exploto
expo
expone
exponen
exponencial
exponente
exponentes
exponer
exportacio
exportaciones
exportar
exposicio
exposiciones
expresa
expresaba
expresada
expresado
expresamente
expresan
expresando
expresar
expresaron
expresarse
expresidente
expresio
expresiones
expresionismo
expreso
express
expropiacio
expuesta
expuestas
expuesto
expuestos
expulsada
expulsado
expulsados
expulsar
expulsio
expulso
expuso
extended
extender
extenderse
extendi
extendida
extendidas
extendido
extendidos
extendie
extendiendo
extendieron
extendio
extensa
extensamente
extensas
extensio
extensiones
extenso
extensos
exterior
exteriores
exterminio
externa
externas
externo
externos
extiende
extienden
extincio
extinguido
extinguio
extinta
extintas
extinto
extintos
extra
extraccio
extracto
extractos
extradicio
extrae
extraer
extrai
extran
extranjera
extranjeras
extranjero
extranjeros
extraordinaria
extraordinariamente
extraordinarias
extraordinario
extraordinarios
extras
extrasolar
extrasolares
extraterrestre
extraterrestres
extravagante
extrema
extremadamente
extremadura
extremas
extreme
extremen
extremidad
extremidades
extremo
extremos
ey
eye
eyes
eyzaguirre
ez
ezequiel
f
fa
faber
fabia
fabio
fabra
fabrica
fabricacio
fabricada
fabricadas
fabricado
fabricados
fabrican
fabricante
fabricantes
fabricar
fabricaron
fabrico
faccio
facciones
face
facebook
faces
faceta
facetas
facey
fachada
fachadas
facial
faciales
facilidad
facilidades
facilita
facilitan
facilitando
facilitar
facilito
facility
facsi
factible
facto
factor
factores
factori
factory
factura
facultad
facultades
facundo
faga
fagas
fago
fagos
fair
fairy
faith
faja
fajardo
falange
falangistas
falco
falcon
falda
faldas
fall
falla
fallar
fallas
fallece
fallecer
fallecida
fallecido
fallecidos
fallecieron
fallecimiento
fallecimientos
fallecio
fallida
fallido
fallidos
falling
fallo
fallos
falls
falo
falsa
falsas
false
falsedad
falsificacio
falso
falsos
falta
faltaba
faltaban
faltan
faltando
faltar
faltas
falto
fama
fame
familia
familiar
familiares
familias
families
family
famosa
famosas
famoso
famosos
famous
fan
fana
fanero
fanes
fang
fanny
fano
fans
fanta
fantasi
fantasma
fantasmas
fantastic
fantasy
fao
far
farao
farc
fari
farm
farmace
farmacia
farmacolo
faro
faros
farrell
farsa
fascismo
fascista
fascistas
fase
fases
fashion
faso
fast
fat
fatal
fatales
fate
father
fatiga
fauna
faustino
fausto
favor
favorable
favorablemente
favorables
favorece
favorecer
favoreci
favorecido
favorecio
favores
favorita
favoritas
favorito
favoritos
faz
fbi
fc
fda
fe
fea
fear
feat
feature
features
featuring
feb
febrero
february
fecha
fechada
fechado
fechas
fecundidad
federacio
federaciones
federado
federados
federal
federales
federalismo
federation
federativa
federer
federico
feel
feeling
fei
felice
felices
feliciano
felicidad
feligreses
felipe
feliu
felix
feliz
felizmente
female
femenil
femenina
femeninas
femenino
femeninos
feminismo
feminista
feministas
femme
femmes
fender
feng
fenicios
fenner
feno
feo
fer
fera
feras
ferdinand
ferguson
feria
ferias
fermentacio
fermi
ferna
fernanda
fernandes
fernandez
fernando
fero
feroe
feros
feroz
ferrara
ferrari
ferreira
ferrer
ferrero
ferro
ferrocarril
ferrocarriles
ferrol
ferroviaria
ferroviarias
ferroviario
ferroviarios
ferry
fertilidad
fertilizantes
fervor
fest
festejo
festejos
festival
festivales
festividad
festividades
festivo
festivos
feto
feudal
feudales
feudo
fever
fez
ff
fhl
fi
fia
fiabilidad
fiable
fiables
fianza
fiat
fiba
fibra
fibras
fica
ficamente
ficas
ficcio
fice
fices
ficha
fichado
fichaje
fichajes
fichando
fichar
fichas
fichero
ficheros
ficho
ficit
fico
ficos
ficticia
ficticias
ficticio
ficticios
fiction
ficus
fide
fideicomiso
fidel
fidelidad
fiebre
fiel
field
fields
fieles
fielmente
fiera
fieras
fierro
fiesta
fiestas
fifa
fifth
fig
fight
fighter
fighters
fighting
figueras
figueroa
figura
figuraba
figuraban
figuran
figurar
figuras
figure
figuro
fija
fijacio
fijada
fijado
fijar
fijas
fijo
fijos
fil
fila
filadelfia
filamentos
filarmo
filas
file
files
filiacio
filial
filiales
filipina
filipinas
filipino
filipinos
filipo
filippo
filis
film
filmacio
filmada
filmado
filmaffinity
filmar
filme
filmes
filmo
filmografi
films
filo
filogene
filogenia
filologi
filos
filoso
filosofi
filtracio
filtrado
filtro
filtros
fin
fina
final
finale
finales
finalidad
finalista
finalistas
finaliza
finalizacio
finalizada
finalizadas
finalizado
finalizando
finalizar
finalizaron
finalizo
finalmente
finamente
financiacio
financiada
financiado
financial
financiamiento
financiar
financiera
financieras
financiero
financieros
financio
finanzas
finas
finca
fincas
find
fine
fines
finito
finlande
finlandesa
finlandeses
finlandia
finn
fino
finos
fio
fiona
fiordo
fire
firenze
firma
firmada
firmado
firmados
firman
firmando
firmantes
firmar
firmaron
firmas
firme
firmemente
firmes
firmeza
firmo
first
fis
fiscal
fiscales
fiscali
fiscalizacio
fischer
fisco
fish
fishbase
fisher
fishes
fisio
fisiolo
fisiologi
fisis
fisonomi
fitas
fito
fitogeogra
fitz
fitzgerald
five
fiyi
fk
fl
flaco
flag
flair
flamenca
flamenco
flamencos
flamengo
flanco
flancos
flandes
flanqueada
flanqueado
flash
flashback
flauta
flautas
flavia
flavio
flecha
flechas
fleming
fletcher
flexibilidad
flexible
flexibles
flexio
flight
flo
floor
flor
flora
floracio
floral
florales
florece
florecio
florence
florencia
florencio
florentino
flores
flori
florida
floridablanca
flota
flotante
flotantes
flotas
flotilla
flow
flower
flowers
floyd
flu
fluctuaciones
fluidez
fluido
fluidos
flujo
flujos
fluvial
fluviales
fluye
fly
flying
flynn
fm
fmi
fn
fo
focal
focas
foco
focos
focus
foix
folclo
folclore
foley
foli
folio
folk
folklo
folklore
follaje
folleto
folletos
fomenta
fomentar
fomento
fona
fonda
fondo
fondos
fone
fonemas
fono
fonos
fonseca
font
fontaine
fontana
fontsize
food
foot
football
footballdatabase
for
fora
foral
foramini
foraminifera
foraminiferal
foras
forbes
force
forces
ford
foreign
forense
forest
forestal
forestales
forever
forja
forjado
form
forma
formaba
formaban
formacio
formaciones
formada
formadas
formado
formados
formal
formales
formalmente
forman
formando
formar
formara
formari
formaron
formarse
formas
format
formation
formato
formatos
forme
former
formidable
formo
formosa
formula
formulacio
formular
foro
foros
forster
fort
fortalecer
fortalecimiento
fortalecio
fortaleza
fortalezas
forti
fortificacio
fortificaciones
fortificada
fortificado
fortuna
fortune
forum
forward
forza
forzada
forzadas
forzado
forzados
forzando
forzar
forzo
forzoso
fosa
fosas
fosfato
foso
foster
foto
fotogra
fotografi
fotogramas
fotones
fotos
found
foundation
four
fourth
fowler
fox
fr
fra
frac
fracasado
fracasaron
fracaso
fracasos
fraccio
fracciones
fractura
fracturas
fraga
fragata
fragatas
fragmentacio
fragmento
fragmentos
fraile
frailes
frame
frameless
framework
fran
franc
franca
france
frances
francesa
francesas
francesc
francesca
francesco
franceses
francia
francis
francisca
franciscana
franciscano
franciscanos
francisco
franck
franco
francos
francotirador
franja
franjas
frank
frankenstein
frankfurt
frankie
franklin
franquicia
franquicias
franquismo
franquista
franquistas
frans
franz
frase
fraser
frases
fraternidad
fraude
fray
fre
frecuencia
frecuencias
frecuente
frecuentemente
frecuentes
fred
freddie
freddy
frederic
frederick
free
freedom
freeman
freguesia
freguesias
frei
freire
frenado
frenar
french
frene
freno
frenos
frente
frentes
fresca
frescas
fresco
frescos
fresh
freshwater
fresno
freud
frey
fri
friburgo
frica
friccio
frida
friday
friedman
friedrich
friend
friends
frigori
frijol
frijoles
friso
frito
fritz
fro
from
frondizi
front
frontal
frontales
frontera
fronteras
fronteriza
fronterizas
fronterizo
fronterizos
frontier
fronto
frost
fructi
fruit
frustracio
frustrado
fruta
frutales
frutas
fruto
frutos
fry
fs
ft
fu
fue
fuego
fuegos
fuenlabrada
fuente
fuentes
fuera
fueran
fuere
fueren
fuero
fueron
fueros
fuerte
fuertemente
fuertes
fuerza
fuerzas
fuese
fuesen
fuga
fugas
fugaz
fugitivo
fugitivos
fugo
fui
fuimos
fuji
fujimori
fukuoka
full
fuller
fulton
fumar
fun
funcio
funciona
funcionaba
funcionaban
funcional
funcionales
funcionalidad
funcionamiento
funcionan
funcionando
funcionar
funcionario
funcionarios
funciones
funciono
function
fund
funda
fundacio
fundacional
fundaciones
fundada
fundadas
fundado
fundador
fundadora
fundadores
fundados
fundamental
fundamentales
fundamentalmente
fundamento
fundamentos
fundando
fundar
fundaron
fundicio
fundido
fundo
funeral
funerales
funeraria
funerarias
funerario
funerarios
funes
fungio
funk
furia
furioso
furor
fury
fuselaje
fusil
fusilado
fusilados
fusilamiento
fusileros
fusiles
fusio
fusiona
fusionado
fusionaron
fusionarse
fusiones
fusiono
futbol
futboli
futbolista
futbolistas
futebol
futsal
futura
futuras
future
futurista
futuro
futuros
fx
g
ga
gabinete
gabo
gabriel
gabriela
gabrielle
gaceta
gadafi
gado
gae
gaetano
gafas
gaga
gaia
gail
gais
gaita
gal
gala
galardo
galardonada
galardonado
galardonados
galardones
galas
galaxia
galaxias
galaxy
galdo
gale
galega
galera
galeras
galeri
galerie
gales
gali
galia
galicia
galilea
galileo
galindo
gallagher
gallardo
gallega
gallego
gallegos
gallery
galletas
gallimard
gallina
gallinas
gallo
gallos
galo
galos
galva
gama
gamarra
gamas
gambia
gamboa
game
gamecube
games
gamma
gan
gana
ganaba
ganada
ganadas
ganadera
ganaderi
ganadero
ganaderos
ganado
ganador
ganadora
ganadoras
ganadores
ganados
ganan
ganancia
ganancias
ganando
ganar
ganara
ganari
ganaron
ganarse
ganas
gancho
gandhi
gandi
gane
gang
gano
gante
gao
gap
gara
garage
garaje
garanti
garantiza
garantizar
garay
garce
garci
garcia
garcilaso
gard
garde
gardel
garden
gardens
gardner
garfield
garganta
garibaldi
garland
garona
garra
garras
garrett
garrido
garros
gary
garza
garzo
gas
gases
gasolina
gaspar
gastado
gastar
gastero
gasto
gaston
gastos
gastrono
gastronomi
gata
gate
gates
gato
gatos
gaucho
gaudi
gaulle
gavila
gavin
gaviota
gaviria
gay
gaza
gazette
gb
gc
ge
gear
gel
gema
gemas
gemela
gemelas
gemelo
gemelos
gen
gena
genaro
genas
gendarmeri
gender
gene
genealo
genealogi
genera
generacio
generaciones
generada
generadas
generado
generador
generadores
generados
general
generales
generali
generalidad
generalitat
generalizacio
generalizada
generalizado
generalmente
generan
generando
generar
generaron
generation
genero
generosa
generosidad
generoso
genes
genesis
genetic
genial
genio
genitales
geno
genocidio
genoma
genos
gens
gente
gentes
gentil
gentilhombre
gentilicio
genus
geo
geode
geoff
geoffrey
geofi
geogra
geografi
geographic
geolo
geologi
geological
geome
geometri
geopoli
georg
george
georges
georgetown
georgia
georgiana
georgiano
georgianos
ger
gerais
gerald
gerard
gerardo
gerencia
gerente
gerhard
germa
germain
german
germania
germano
germanos
germany
germen
gero
gerona
gerry
gertrudis
geschichte
gesellschaft
gesta
gestacio
gestapo
gestio
gestiona
gestionado
gestionar
gestiones
gesto
gestor
gestos
get
getafe
gets
gf
ghana
ghost
ghz
gi
gia
giacomo
gian
gianni
giant
giants
gibbs
gibraltar
gibson
gica
gicamente
gicas
gico
gicos
gida
gido
gigante
gigantes
gigantesca
gigantesco
gijo
gil
gilbert
gilberto
giles
gill
gilles
gime
gimen
gimna
gimnasia
gimnasio
gimnasta
gimnastas
gina
ginas
gine
ginebra
gino
giorgio
giovanni
gira
giran
girando
girar
giras
girl
girls
giro
girolamo
girona
giros
gitana
gitano
gitanos
gitos
giulio
giuseppe
give
gl
gla
glacial
glaciar
glaciares
gladys
glam
glasgow
glass
glee
glen
glenn
gli
glo
global
globales
globalizacio
globe
globo
globos
gloria
glorias
glorieta
gloriosa
glorioso
glory
gloucester
glu
gluco
glucosa
gluten
gm
gmbh
gmina
gnu
go
goa
gob
gobernaba
gobernacio
gobernada
gobernado
gobernador
gobernadora
gobernadores
gobernante
gobernantes
gobernanza
gobernar
goberno
gobierna
gobierno
gobiernos
gobiidae
goce
god
godofredo
godos
godoy
gods
godzilla
goes
goethe
gogh
goia
going
goku
gol
gold
goldberg
golden
goldman
goleada
goleador
goleadores
goles
goleta
golf
golfo
golpe
golpea
golpeado
golpeando
golpear
golpeo
golpes
goma
gomes
gomez
gon
gonc
gone
gong
gonna
gono
gonos
gonza
gonzaga
gonzales
gonzalez
gonzalo
good
goodbye
goodman
google
gor
gora
goras
gorda
gordo
gordon
gore
gorra
gorro
gospel
gosse
got
gota
gotas
gotemburgo
gotha
gotham
gottfried
gould
gov
government
goya
goza
gozaba
gozan
gozar
gozara
gozo
gp
gps
gr
gra
graba
grabacio
grabaciones
grabada
grabadas
grabado
grabador
grabadores
grabados
graban
grabando
grabar
grabaron
grabo
grace
gracia
gracias
graciela
grada
gradas
gradiente
grado
grados
gradua
graduacio
graduado
graduados
gradual
gradualmente
graduarse
graduo
graf
grafa
grafi
grafo
grafos
graham
gral
gram
grama
gramatical
grami
grammy
gramos
gran
granada
granadas
granaderos
granados
grand
grande
grandes
grandeza
grandi
granero
granito
granja
granjas
granjeros
grano
granollers
granos
grant
grasa
grasas
grasos
grass
gratis
gratitud
gratuita
gratuitamente
gratuitas
gratuito
gratuitos
grau
grava
grave
gravedad
gravemente
graves
gray
graz
gre
great
greatest
grecia
greco
grecorromana
gredos
greek
green
greene
greenwich
greenwood
greg
gregoriano
gregorio
gregory
gremial
gremio
gremios
grenoble
greta
grey
griega
griegas
griego
griegos
grieta
grietas
griffin
griffith
grimas
grimm
grin
gripe
gris
grisa
grises
grita
gritando
gritar
grito
gritos
grizzlies
gro
groenlandia
groove
grosor
gross
grosso
ground
group
groups
grove
growth
gru
gruesa
gruesas
grueso
gruesos
grun
grunge
grupal
grupo
grupos
gruta
gs
gt
gu
gua
guadalajara
guadalquivir
guadalupe
guadarrama
guadiana
guaira
guajira
guam
guanajuato
guante
guantes
guarani
guard
guarda
guardaba
guardado
guardaespaldas
guardameta
guardametas
guardan
guardar
guarde
guarderi
guardia
guardian
guardianes
guardias
guardiola
guardo
guarida
guarnicio
guarniciones
guatemala
guatemalteca
guatemalteco
guayana
guayaquil
guayas
gubernamental
gubernamentales
gubernatura
gue
guernica
guerra
guerras
guerre
guerrera
guerrero
guerreros
guerrilla
guerrillas
guerrillero
guerrilleros
gueto
guevara
guez
guggenheim
gui
guia
guiadas
guiado
guiados
guiar
guide
guido
guila
guilas
guillaume
guille
guillermo
guin
guinea
guinness
guio
guion
guiones
guionista
guionistas
guipu
guitar
guitarra
guitarras
guitarrista
guitarristas
gula
gules
gulf
gun
gundam
gunn
guns
gupta
guru
gus
gusano
gusanos
gusta
gustaba
gustan
gustari
gustav
gustave
gustavo
gusto
gustos
gutenberg
gutie
guy
guyana
guzma
gwen
gyo
h
ha
haas
hab
habana
habe
haber
haberla
haberle
haberlo
haberse
habi
habia
habian
habido
habie
habiendo
habilidad
habilidades
habilitacio
habilitado
habita
habitaba
habitaban
habitacio
habitaciones
habitada
habitadas
habitado
habitan
habitante
habitantes
habitar
habitaron
habitual
habituales
habitualmente
habla
hablaba
hablaban
hablada
hablado
hablamos
hablan
hablando
hablante
hablantes
hablar
hablaron
hable
hablo
habra
habri
habsburgo
hace
hacemos
hacen
hacendados
hacer
hacerla
hacerle
hacerlo
hacerlos
hacerse
haces
hacha
hachas
haci
hacia
hacie
hacienda
haciendas
haciendo
had
hada
hadas
hades
haga
hagan
hagen
hago
hahn
hai
haifa
haiti
haitiana
haitiano
hal
halco
halcones
hale
half
halifax
hall
halla
hallaba
hallaban
hallada
hallado
hallados
hallan
hallar
hallaron
hallarse
hallazgo
hallazgos
halle
hallo
halloween
halo
halterofilia
ham
hama
hambre
hambruna
hamburg
hamburgo
hamilton
hamlet
hammer
hammond
hampshire
hampton
han
hana
hancock
hand
handbook
hands
hangul
hank
hanna
hannah
hannover
hans
hansen
hapoel
happy
hara
harald
harbor
hard
hardcore
harding
hardware
hardy
hare
hari
harina
harlem
harley
harmony
haro
harold
harper
harriet
harris
harrison
harry
hart
hartford
harto
harvard
harvey
has
hasan
hassan
hasta
hastings
hat
hate
hato
have
haven
havre
hawa
hawaii
hawk
hawkins
hawks
hay
haya
hayan
hayden
haydn
hayes
haz
hazan
hb
hbo
hc
hd
he
head
health
heart
hearts
heat
heath
heather
heaven
heavy
heavyweight
hebrea
hebreo
hebreos
heces
hecha
hechas
hechicero
hechizo
hechizos
hecho
hechos
hecta
hector
hee
heel
heemstra
hegel
hegemoni
heidegger
heidelberg
height
heights
heinrich
heinz
heladas
helado
helados
hele
helechos
helen
helena
heleni
helfman
helico
helio
hell
hello
helmut
help
helsinki
hembra
hembras
hemeroteca
hemingway
hemisferio
hemorragia
hemos
hen
henao
henares
henderson
hendrix
henri
henrik
henrique
henry
hepa
hepatitis
hepburn
her
hera
heracles
heraclio
herald
heraldo
heras
herb
herba
herbario
herbert
herbi
here
heredado
heredera
heredero
herederos
heredia
herediano
hereditaria
hereditario
heredo
hereji
herencia
herida
heridas
herido
heridos
heritage
herman
hermana
hermanadas
hermanas
hermandad
hermandades
hermann
hermano
hermanos
herme
hermenegildo
hermes
hermosa
hermosas
hermosillo
hermoso
hermosos
hermosura
herna
hernando
hero
herodes
heroes
heroi
heroica
heroico
herradura
herramienta
herramientas
herrera
herrero
herreros
herzegovina
herzog
hesse
het
heteroge
hewitt
hexagonal
hey
hi
hice
hiciera
hicieran
hicieron
hiciese
hidalgo
hidden
hidra
hidro
hidrocarburos
hidroele
hidrogra
hidrografi
hidrolo
hidrologi
hielo
hierarchy
hierba
hierbas
hierro
higgins
high
higher
highway
higiene
higos
higuera
higueras
hija
hijas
hijo
hijos
hilario
hilda
hileras
hill
hillary
hills
hilo
hilos
hilton
him
himalaya
himmler
himno
himnos
hincapie
hinchada
hinchas
hindi
hindu
hinduismo
hinojosa
hip
hipertensio
hipo
hipote
hipoteca
hiriendo
hirio
hiroshi
hiroshima
his
hispa
hispana
hispania
hispano
hispanoame
hispanoamericana
hispanos
hist
histo
histoire
historia
historiador
historiadora
historiadores
historial
historias
historic
historical
historieta
historietas
historiogra
historiografi
historique
history
hit
hitchcock
hitler
hito
hitos
hits
hizo
hl
hler
hm
hms
ho
hoc
hocico
hockey
hoese
hoffman
hoffmann
hogan
hogar
hogares
hoguera
hohenzollern
hoi
hoja
hojas
hokkaido
hola
holanda
holande
holandesa
holandeses
hold
holden
holding
holdings
hole
holgui
holiday
holland
holly
hollywood
holmes
holocausto
holoceno
holotipo
holstein
holt
holy
hombre
hombres
hombro
hombros
home
homenaje
homenajes
homer
homero
homicidio
homicidios
homme
homo
homoge
homosexual
homosexuales
homosexualidad
honda
hondo
honduras
honduren
honestidad
honesto
honey
hong
hongo
hongos
honolulu
honor
honorable
honorario
honorarios
honores
honori
honorio
honoris
honra
honrado
honrar
hood
hook
hooker
hoon
hoover
hop
hope
hopkins
hora
horace
horacio
horaria
horario
horarios
horas
horca
horda
horizon
horizontal
horizontales
horizonte
horizontes
hormiga
hormigas
hormigo
hormona
hormonas
horn
hornacina
hornets
horno
hornos
horrible
horror
horse
horst
horta
hortalizas
hospicio
hospital
hospitalaria
hospitalario
hospitales
hospitalet
hospitalidad
host
hostil
hostiles
hostilidad
hostilidades
hot
hotel
hoteles
houghton
hour
house
houston
how
howard
howe
hoy
hoya
hoyo
hoyos
hoz
hp
hr
hrer
hrsg
hs
htm
html
http
https
hu
hua
huac
huancavelica
huancayo
huang
huatl
hubbard
huber
hubert
hubiera
hubieran
hubiere
hubieren
hubiese
hubiesen
hubo
hudson
hue
hueco
huecos
huelga
huelgas
huella
huellas
huelva
huerta
huertas
huerto
huertos
huesca
hueso
huesos
huestes
huevo
huevos
hugh
hughes
hugo
hui
huida
huido
huidobro
huila
huir
hulk
hull
human
humana
humanas
humani
humanidad
humanidades
humanismo
humanista
humanitaria
humanitario
humano
humanos
humberto
humboldt
hume
humedad
humedal
humedales
humildad
humilde
humildes
humillacio
humo
humor
humori
humorista
humoristas
humphrey
hundido
hundimiento
hundio
hungri
hunt
hunter
huntington
huraca
huracanes
hurricane
hurtado
huso
hussein
huye
huyen
huyendo
huyeron
huyo
hyde
hydra
hye
hymenoptera
hyo
hyun
hyundai
hz
i
ia
iaaf
ian
ias
ib
iba
iban
ibar
ibarra
ibe
iberia
ibero
iberoame
iberoamericana
iberoamericano
ibi
ibid
ibidem
ibiza
ibm
ibn
ibrahim
ic
ica
ice
ich
ichi
ichigo
ichthyology
ico
icon
icono
iconogra
iconografi
iconos
id
ida
idaho
ide
idea
ideado
ideal
ideales
ideas
idem
identidad
identidades
identifica
identificacio
identificada
identificadas
identificado
identificados
identifican
identificar
identificaron
identificarse
identifico
identity
ideo
ideolo
ideologi
idh
idioma
idiomas
ido
idol
ie
iec
ieee
ies
if
iga
iglesia
iglesias
ign
ignacio
ignora
ignorancia
ignorando
ignorar
igo
igor
igual
iguala
igualada
igualar
igualdad
iguales
igualmente
iguana
ii
iii
ik
il
ildefonso
ilegal
ilegales
ilegalmente
ilegi
iler
ili
ilimitada
ill
illinois
illustrated
iluminacio
iluminada
iluminado
ilusio
ilusiones
ilustra
ilustracio
ilustraciones
ilustrada
ilustrado
ilustrador
ilustrados
ilustrar
ilustre
ilustres
im
ima
image
imagen
images
imagesize
imagina
imaginacio
imaginar
imaginario
imdb
img
imita
imitacio
imitando
imitar
imp
impact
impacto
impactos
impar
imparcial
imparte
impartido
impartio
impartir
impedi
impedido
impedimento
impedir
imperativo
imperial
imperiales
imperialismo
imperio
imperios
impi
impide
impiden
impidiendo
impidieron
impidio
implacable
implantacio
implementacio
implementado
implementar
implemento
impli
implica
implicaba
implicacio
implicaciones
implicado
implicados
implican
implications
implico
impone
imponente
imponer
imponerse
imponi
importa
importacio
importaciones
importados
importancia
importante
importantes
importar
importe
imposibilidad
imposible
imposibles
imposicio
imprenta
impresa
impresas
imprescindible
impresio
impresionado
impresionante
impresionantes
impresiones
impreso
impresor
impresos
imprimio
imprimir
improbable
improvisacio
impuesta
impuestas
impuesto
impuestos
impulsa
impulsada
impulsadas
impulsado
impulsar
impulso
impulsor
impulsores
impulsos
impunidad
impusieron
impuso
imputado
imputados
in
ina
inactividad
inactivo
inala
inaugura
inauguracio
inaugurada
inauguradas
inaugurado
inaugurados
inaugural
inauguro
inc
inca
incapaces
incapacidad
incapaz
incas
incendio
incendios
incentivo
incentivos
incertidumbre
incidencia
incidente
incidentes
incienso
incierta
incierto
incipiente
inciso
incla
inclina
inclinacio
inclinada
inclinado
inclino
including
inclui
incluida
incluidas
incluido
incluidos
incluir
incluira
incluiri
inclusio
inclusive
incluso
incluye
incluyen
incluyendo
incluyeron
incluyo
inco
incompatible
incompleta
incompleto
incondicional
inconsciente
inconveniente
inconvenientes
incorpora
incorporacio
incorporada
incorporadas
incorporado
incorporados
incorporan
incorporando
incorporar
incorporaron
incorporarse
incorporo
incorrecta
incorrecto
increi
increment
incrementa
incrementado
incrementando
incrementar
incremento
incubacio
incumplimiento
incursio
incursiones
incursiono
ind
indefinida
indefinidamente
indefinido
indemnizacio
independence
independencia
independent
independentista
independentistas
independiente
independientemente
independientes
indeterminado
index
indi
india
indian
indiana
indias
indica
indicaba
indicaban
indicacio
indicacion
indicaciones
indicada
indicadas
indicado
indicador
indicadores
indicados
indican
indicando
indicar
indicaron
indicativo
indicio
indicios
indico
indie
indiferencia
indiferente
indignacio
indio
indios
indique
indirecta
indirectamente
indirecto
indiscutible
indispensable
indispensables
indistintamente
individual
individuales
individualmente
individuo
individuos
indo
indochina
indonesia
indonesio
induccio
induce
inducida
inducido
inducir
indudablemente
indulto
indumentaria
industria
industrial
industriales
industrializacio
industrias
industries
industry
indy
indycar
ine
inegi
inercia
inesperada
inesperadamente
inesperado
inestabilidad
inestable
inevitable
inevitablemente
inexistente
infame
infancia
infanta
infante
infanteri
infantes
infantil
infantiles
infarto
infeccio
infecciones
infecciosas
infectados
infeliz
inferior
inferiores
inferioridad
infernal
infiel
infierno
infiltracio
infinidad
infinita
infinitas
infinite
infinito
infinitos
infinity
inflacio
inflamacio
inflexio
inflorescencia
inflorescencias
influencia
influenciada
influenciado
influenciados
influencias
influido
influir
influjo
influye
influyen
influyente
influyentes
influyeron
influyo
info
informa
informaba
informacio
informaciones
informado
informal
informales
informan
informar
informaron
information
informativa
informativo
informativos
informe
informes
informo
infraccio
infracciones
infraestructura
infraestructuras
inframundo
infrarrojo
infty
ing
ingenieri
ingeniero
ingenieros
ingenio
ingenios
ingesta
inglaterra
ingle
inglesa
inglesas
ingleses
ingrediente
ingredientes
ingresa
ingresado
ingresan
ingresando
ingresar
ingresaron
ingreso
ingresos
ingrid
inherente
inherentes
inhibicio
inhibidores
inicia
iniciaba
iniciacio
iniciada
iniciadas
iniciado
iniciados
inicial
iniciales
inicialmente
inician
iniciando
iniciar
iniciara
iniciari
iniciaron
iniciarse
iniciativa
iniciativas
inicio
inicios
ininterrumpida
injusticia
injusto
inmaculada
inmaterial
inmediaciones
inmediata
inmediatamente
inmediatas
inmediato
inmediatos
inmensa
inmenso
inmersio
inmigracio
inmigrante
inmigrantes
inminente
inmo
inmobiliaria
inmobiliario
inmortal
inmortales
inmortalidad
inmueble
inmuebles
inmune
inmunidad
inn
innovacio
innovaciones
innovador
innovadora
innovadoras
innovadores
innsbruck
innumerables
ino
inocencia
inocencio
inocente
inocentes
inofensivo
inorga
inos
inoxidable
inquietud
inquietudes
inquilinos
inquisicio
inquisidor
ins
inscribio
inscripcio
inscripciones
inscrita
inscrito
inscritos
insecto
insectos
insee
inseguridad
insercio
inserta
insertar
inside
insigne
insignia
insignias
insignificante
insiste
insistencia
insistio
inso
inspeccio
inspector
inspectores
inspira
inspiracio
inspirada
inspiradas
inspirado
inspirados
inspiraron
inspiro
insta
instagram
instala
instalacio
instalaciones
instalada
instaladas
instalado
instalados
instalan
instalar
instalaron
instalarse
instalo
instancia
instancias
instanta
instante
instantes
instauracio
instauro
instinto
institucio
institucional
institucionales
instituciones
institut
institute
institution
instituto
institutos
instituyo
insto
instruccio
instrucciones
instructor
instruido
instrumentacio
instrumental
instrumentales
instrumento
instrumentos
insuficiencia
insuficiente
insuficientes
insular
insulina
insulto
insultos
insurgencia
insurgente
insurgentes
insurreccio
int
intacta
intacto
inte
integra
integracio
integrada
integradas
integrado
integrados
integral
integrales
integran
integrando
integrante
integrantes
integrar
integraron
integrarse
integridad
integro
intel
intelecto
intelectual
intelectuales
inteligencia
inteligente
inteligentes
intelligence
intencio
intenciones
intendencia
intendente
intendentes
intensa
intensamente
intensas
intensidad
intensifico
intensiva
intensivo
intenso
intensos
intenta
intentaba
intentaban
intentado
intentan
intentando
intentar
intentara
intentaron
intento
intentos
inter
interaccio
interacciones
interactiva
interactive
interactivo
interactu
interactuar
interamericana
interamericano
intercambiador
intercambiar
intercambio
intercambios
intercontinental
intercultural
intere
interes
interesa
interesada
interesadas
interesado
interesados
interesante
interesantes
interesarse
intereses
intereso
interestatal
interfaces
interfaz
interferencia
interferir
interina
interino
interior
interiores
intermedia
intermediario
intermediarios
intermedias
intermedio
intermedios
intermitente
interna
internacional
internacionales
internacionalmente
internado
internamente
internas
international
internationale
internet
interno
internos
interpreta
interpretaba
interpretacio
interpretaciones
interpretada
interpretadas
interpretado
interpretados
interpretan
interpretando
interpretar
interpretaron
interpreto
interrogatorio
interrumpe
interrumpida
interrumpido
interrumpio
interrumpir
interrupcio
interrupciones
interseccio
intervalo
intervalos
intervencio
intervenciones
intervenido
intervenir
interventor
interviene
intervienen
interview
intervinieron
intervino
intestinal
intestino
inti
intimidad
into
intolerancia
intoxicacio
intri
intriga
intrigas
intro
introduccio
introducciones
introduce
introducen
introducida
introducidas
introducido
introducidos
introduciendo
introducir
introduction
introdujeron
introdujo
intuicio
inu
inundacio
inundaciones
inusual
inusuales
inusualmente
inva
invadido
invadieron
invadio
invadir
invasio
invasion
invasiones
invasor
invasoras
invasores
invencible
invencio
inventado
inventario
invento
inventor
inventores
inventos
invernadero
invernal
inversa
inversio
inversiones
inversionistas
inverso
inversor
inversores
invertebrados
invertida
invertido
invertir
investido
investidura
investiga
investigacio
investigaciones
investigado
investigador
investigadora
investigadores
investigando
investigar
investigation
investigo
invicta
invicto
invierno
inviernos
invirtio
invisible
invisibles
invita
invitacio
invitada
invitadas
invitado
invitados
invitar
invito
invocar
involucra
involucrada
involucradas
involucrado
involucrados
involucran
involucro
inyeccio
io
ioc
ion
iones
ios
iowa
ip
iphone
ipni
iquique
iquitos
ir
ira
irak
iran
irani
iraq
iraqui
irarra
ire
ireland
irene
iri
irina
iris
irish
irlanda
irlande
irlandesa
irlandeses
irma
iro
iron
ironi
irregular
irregulares
irregularidades
irrigacio
irse
iru
irving
irwin
is
isa
isaac
isabel
isabella
isabelle
isai
isbn
isbol
ise
isidoro
isidro
isis
isla
islam
islamic
island
islande
islandia
islands
islas
isle
islen
islote
islotes
ismael
ismo
isnb
iso
israel
israeli
iss
issn
issue
issues
ist
ista
istas
istmo
it
ita
italia
italian
italiana
italianas
italiano
italianos
italo
italy
item
itf
itinerante
itinerario
itis
ito
its
itu
itunes
iturbide
itv
iu
iucn
ius
iv
iva
ivan
ivo
ivy
iwgp
ix
iz
izquierda
izquierdas
izquierdo
j
ja
jabali
jabo
jaca
jacinto
jack
jackie
jackson
jacob
jacobo
jacobs
jacqueline
jacques
jade
jae
jagger
jaguar
jaguares
jaime
jairo
jake
jakob
jalisco
jalo
jam
jama
jamaica
jamas
jame
james
jameson
jamie
jamo
jan
jane
janeiro
janet
jang
january
japan
japanese
japo
japone
japonesa
japonesas
japoneses
jaque
jar
jara
jarama
jaramillo
jardi
jardin
jardineri
jardinero
jardines
jared
jaro
jaros
jarrett
jarro
jason
jasper
jaula
jaume
java
javier
jay
jazz
je
jean
jeanne
jedi
jeep
jefa
jefatura
jefe
jefes
jeff
jefferson
jeffrey
jehova
jen
jena
jeneral
jenkins
jennifer
jennings
jenny
jens
jensen
jera
jerarqui
jeremy
jerez
jericho
jero
jerogli
jerome
jerry
jersey
jerusale
jerusalem
jesse
jessica
jessie
jesu
jesucristo
jesui
jesuita
jesuitas
jesus
jet
jets
jewish
jews
ji
jiang
jicamente
jico
jill
jim
jime
jimena
jimmy
jin
jinete
jinetes
jiro
jj
jo
joa
joachim
joan
joanna
joaqui
joaquim
joaquin
job
jockey
joe
joel
joey
johan
johann
johanna
johannes
johannesburgo
john
johnny
johns
johnson
johnston
joint
joker
jon
jonas
jonathan
jones
jong
jonrones
jons
joo
joon
jorda
jordan
jordania
jordi
jorge
jornada
jornadas
jos
jose
josef
josefa
josefina
josefo
josep
joseph
josh
joshua
josue
jota
journal
journey
joven
joy
joya
joyas
joyce
joyeri
jp
jpeg
jpg
jr
jstor
ju
jua
juan
juana
juanito
jubilacio
juda
judai
judas
judea
judi
judicial
judiciales
judith
judo
judoinside
judokas
judy
jueces
juega
juegan
juego
juegos
jueves
juez
jueza
jugaba
jugaban
jugabilidad
jugable
jugada
jugadas
jugado
jugador
jugadora
jugadoras
jugadores
jugados
jugando
jugar
jugara
jugari
jugaron
jugo
juguete
juguetes
juicio
juicios
jujuy
jul
jula
jules
julia
julian
juliana
juliano
julie
julien
juliet
julieta
juliette
julio
julius
july
jump
jun
june
jung
jungla
jungle
juni
junio
junior
juniors
juno
junta
juntamente
juntar
juntas
junto
juntos
jura
jurado
jurados
juramento
jurar
juri
jurisdiccio
jurisdiccional
jurisdicciones
jurisprudencia
jurista
juristas
juro
just
justa
justamente
justas
justice
justicia
justicialista
justifica
justificacio
justificar
justify
justin
justiniano
justino
justo
justos
juvenil
juveniles
juventud
juventudes
juventus
juzgado
juzgados
juzgar
juzgo
k
ka
kabul
kafka
kahn
kai
kaiser
kamen
kaminski
kan
kane
kang
kansas
kant
kappa
kara
karate
karen
karin
karina
karl
karla
karlsruhe
karma
kart
kassel
kate
katherine
kathleen
katie
kato
katy
katz
kawasaki
kay
kaza
kazajista
kb
kbs
kc
ke
keep
kei
keith
keller
kelly
ken
kendrick
kenia
kennedy
kenneth
kenny
kent
kentucky
kepler
kerala
kerr
kerry
kevin
kew
key
keynes
keys
kg
kgb
khan
khz
ki
kick
kid
kidd
kids
kiel
kiev
kill
killer
killing
kilo
kilogramos
kilome
kilos
kim
kimi
kind
king
kingdom
kings
kingston
kioto
kirby
kirchner
kirguista
kirk
kiss
kit
kitt
kitty
kk
klaus
klein
klub
km
kn
knicks
knight
knights
know
knowledge
known
knox
ko
kobayashi
kobe
koch
kombat
konami
konex
kong
konrad
korea
korean
kos
kosovo
kov
kr
kra
kraft
krai
kramer
krasnodar
krause
kremlin
ks
ku
kuala
kuba
kun
kung
kunst
kuntze
kurdos
kurt
kuwait
kv
kw
kyle
kylie
kyo
kyu
kyung
l
la
lab
laba
labas
label
laberinto
labio
labios
labor
laboral
laborales
laboratorio
laboratorios
laboratory
labores
laborista
labrada
labrador
labradores
lac
lacio
lactancia
ladera
laderas
ladies
ladislao
lado
lados
ladrillo
ladrillos
ladro
ladrones
lady
lafayette
laga
lagarto
lagartos
lago
lagos
laguna
lagunas
lai
laico
laicos
lake
lakers
lalo
lam
lama
lamar
lamas
lamb
lambayeque
lambda
lambert
lamenta
lamentable
lamentablemente
lamento
lamo
lamos
lan
lana
lancaster
lance
lanceoladas
lancha
lanchas
lancia
land
landa
lane
lang
lange
language
languages
languedoc
lanka
lantern
lanu
lanza
lanzada
lanzadas
lanzado
lanzador
lanzadores
lanzados
lanzamiento
lanzamientos
lanzan
lanzando
lanzar
lanzara
lanzari
lanzaron
lanzarote
lanzarse
lanzas
lanzo
lao
laos
lapso
lar
lara
laredo
lares
larga
largamente
largas
large
largo
largometraje
largometrajes
largos
larrai
larrea
larry
lars
larsen
larva
larvas
las
laser
lashley
lasso
last
lat
lata
latas
late
latente
later
lateral
laterales
lateralmente
lati
latin
latina
latinas
latino
latinoame
latinoamericana
latinoamericanas
latinoamericano
latinoamericanos
latinos
latitud
latitudes
lato
latorre
lau
laura
laureados
laureano
laurel
laureles
lauren
laurence
laurent
laurie
lausana
lautaro
lava
lavado
lavalle
lavar
law
lawrence
lawson
lay
layer
lazio
lazo
lazos
lb
lbum
lbumes
lc
lcd
lculo
lculos
ld
ldica
ldico
le
lea
lead
leader
league
leal
leales
lealtad
leandro
learning
leave
leb
leben
lebre
lebres
leccio
lecciones
leche
lecho
lector
lectores
lectura
lecturas
led
ledesma
lee
leeds
leer
left
leg
lega
legacy
legado
legal
legales
legalidad
legalizacio
legalmente
legane
legend
legendaria
legendario
legends
legi
legio
legion
legionarios
legiones
legislacio
legislador
legisladores
legislativa
legislativas
legislativo
legislativos
legislatura
legislaturas
legitimidad
lego
legua
leguas
legumbres
lei
leibniz
leicester
leiden
leigh
leipzig
leiva
lejana
lejanas
lejano
lejanos
lejos
lema
lemmon
lemos
len
lena
lengua
lenguaje
lenguajes
lenguas
lenin
leningrado
lennon
lennox
lenny
lenta
lentamente
lente
lentes
lento
lentos
leo
leon
leona
leonard
leonardo
leone
leonel
leones
leonesa
leonor
leopardo
leopold
leopoldo
leos
lepido
lepidoptera
lera
lerma
leroy
les
lesa
lesbianas
lesio
lesionado
lesiones
lesiono
leslie
lesnar
lester
let
letal
lethal
leticia
leto
letonia
letra
letrado
letras
letrista
letter
letters
lettres
leucemia
lev
leva
levadura
levanta
levantaba
levantada
levantado
levantamiento
levantamientos
levantan
levantando
levantar
levantaron
levantarse
levante
levanto
levas
leve
level
levemente
leves
levi
levin
levine
levy
lewis
lex
lexington
ley
leyenda
leyendas
leyendo
leyes
leyo
leyva
lez
lg
lgara
lgaro
lgaros
lgbt
lgebra
lgica
li
lia
liam
lib
libane
libe
liber
libera
liberacio
liberada
liberado
liberados
liberal
liberales
liberalismo
liberan
liberando
liberar
liberarse
liberia
libero
libertad
libertades
libertador
libertadora
libertadores
libertario
liberty
libia
libra
library
libras
libre
libremente
libreri
libres
libreto
libro
libros
lic
lica
licamente
licas
lice
licencia
licenciada
licenciado
licencias
licenciatura
licencio
liceo
lices
licitacio
lico
licor
licores
licos
lida
lidas
lidera
liderada
liderado
liderados
liderando
liderar
liderato
liderazgo
lidero
lidia
lidiar
lido
lidos
lie
liebre
liechtenstein
lieja
lienzo
lienzos
lies
life
liga
ligada
ligadas
ligado
ligados
ligamento
ligas
ligera
ligeramente
ligeras
ligero
ligeros
light
lightning
lights
ligue
liguilla
like
lil
lila
liliana
lille
lily
lim
lima
limbo
limen
limi
limita
limitaba
limitacio
limitaciones
limitada
limitadas
limitado
limitados
limitan
limitando
limitar
limited
limito
limo
limoges
limosna
limpia
limpiar
limpias
limpieza
limpio
lin
lina
linaje
linajes
linares
lince
lincoln
linda
lindl
lindo
lindsay
line
lineal
lineales
lineamientos
linear
lines
linfa
linfocitos
ling
lingu
linguistics
liniers
link
linnaeus
linneo
lino
linterna
linux
lio
lion
lionel
lions
liquidacio
lira
lis
lisa
lisandro
lisas
lisboa
lisis
liso
lisos
list
lista
listado
listados
listas
listo
listos
liszt
lit
lita
lite
literal
literalmente
literaria
literarias
literario
literarios
literary
literatura
literature
lites
litigio
litio
lito
litografi
litoral
litro
litros
litte
little
litu
lituana
lituania
lituano
liturgia
liu
liv
live
liverpool
lives
living
livingston
livio
livre
lix
liz
liza
ll
lla
llama
llamaba
llamaban
llamada
llamadas
llamado
llamados
llamamiento
llamamos
llaman
llamando
llamar
llamara
llamari
llamaron
llamarse
llamas
llamativo
llame
llamo
llana
llano
llanos
llantas
llanto
llanura
llanuras
llar
llave
llaves
llc
lle
llega
llegaba
llegaban
llegada
llegadas
llegado
llegados
llegamos
llegan
llegando
llegar
llegara
llegaran
llegari
llegaron
llegase
llego
llegue
lleguen
lleida
llena
llenado
llenar
llenas
lleno
llenos
ller
lleva
llevaba
llevaban
llevada
llevadas
llevado
llevados
llevan
llevando
llevar
llevara
llevari
llevarla
llevarlo
llevaron
llevarse
lleve
lleven
llevo
llez
llobregat
llora
llorando
llorar
llorente
lloro
llos
llosa
lloyd
llui
lluvia
lluvias
lluvioso
ln
lnb
lo
loa
lobo
lobos
loc
loca
local
locales
localidad
localidades
localiza
localizacio
localizaciones
localizada
localizadas
localizado
localizados
localizan
localizar
localmente
locas
lock
locke
lockheed
loco
locomotora
locomotoras
locos
locura
locutor
locutores
lodge
lodo
loeb
loeblich
log
loga
logan
logas
logi
logia
logic
logo
logos
logotipo
logra
lograba
lograda
logrado
logran
logrando
lograr
lograra
lograri
lograrlo
lograron
logre
logro
logron
logros
loi
loira
loire
lois
loja
loki
lola
lolita
loma
lomas
lombardi
lombardo
lomo
lon
lona
londinense
london
londres
lonely
long
longevidad
longitud
longitudes
longitudinal
longitudinales
look
looking
loop
lope
lopes
lopez
lor
lora
lorca
lord
lorena
lorenzo
lores
loreto
lori
loro
los
losa
losada
losas
lost
lot
lote
loteri
lotes
loto
lotus
lou
louis
louise
louisiana
louisville
lourdes
louvre
lov
lovaina
love
lovecraft
lover
lovers
low
lowe
lowell
lower
loyola
loza
lozano
lp
lpito
ls
lt
ltd
lter
ltica
ltico
lticos
ltima
ltimamente
ltimas
ltimo
ltimos
ltiple
ltiples
lu
lublin
luc
luca
lucas
lucca
luce
lucena
lucerna
lucero
luces
lucha
luchaba
luchaban
luchado
luchador
luchadora
luchadores
luchan
luchando
luchar
lucharon
luchas
lucho
luci
lucia
luciano
lucie
lucien
lucifer
lucio
lucky
lucrecia
lucro
lucy
ludovico
ludwig
luego
luftwaffe
lugano
lugar
lugaren
lugares
lugarteniente
luge
lugo
lui
luigi
luis
luisa
luisiana
luiz
luja
lujo
luka
luke
lula
lulas
lulu
luminosa
luminosidad
luminoso
luna
lunar
lunares
lunas
lund
lunes
luque
luterana
lutero
luther
luthor
luto
lux
luxemburgo
luz
luzo
lv
lvarez
lvaro
lveda
lver
lvez
lvora
lvula
lvulas
ly
lydia
lynch
lynn
lynx
lyon
m
ma
mabel
mac
macao
macarena
macarthur
macbeth
maccabi
macdonald
macedo
macedonia
macedonio
mach
machado
machi
machine
macho
machos
maci
macintosh
macizo
mack
mackenzie
macmillan
maco
macri
macro
mad
mada
madagascar
madame
madariaga
madas
made
madeira
madeleine
madera
maderas
madero
madison
madness
madonna
madoz
madrastra
madre
madres
madrid
madrigal
madrilen
madrina
madrugada
madura
maduracio
madurez
maduro
maduros
mae
maestra
maestranza
maestras
maestre
maestri
maestro
maestros
mafia
mag
magallanes
magazine
magdalena
magestad
maggie
magi
magia
magic
magisterio
magistrado
magistrados
magistral
magistratura
magma
magna
magnate
magne
magnesio
magneto
magni
magnitud
magnitudes
magno
magnolia
magnum
magnus
mago
magos
magreb
maguncia
maha
mahler
mahmud
maho
mahoma
mai
maia
maiden
mail
maillot
main
maine
mainstream
maipo
maipu
maison
maja
majestad
major
make
maker
making
makoto
mal
mala
malaca
malaguen
malaria
malas
malasia
malaui
malaya
malayo
malcolm
maldad
malden
maldicio
maldita
maldito
maldivas
maldonado
male
males
malestar
mali
malicia
maligno
malik
mall
malla
mallorca
malmo
malo
malone
malos
malta
maltrato
malus
malvada
malvado
malvados
malvinas
mama
mame
mami
mammal
mamposteri
man
mana
manada
management
manager
managua
manantial
manantiales
mancha
manchas
manchester
manchu
manchuria
manco
mancomunidad
manda
mandaba
mandada
mandado
mandamientos
mandar
mandari
mandaron
mandatario
mandato
mandatos
mande
mandi
mando
mandos
mandy
maneja
manejar
manejo
manera
maneras
manfred
manga
manganeso
mangas
manglares
mango
manhattan
mani
manifestacio
manifestaciones
manifestado
manifestantes
manifestar
manifestaron
manifesto
manifiesta
manifiestan
manifiesto
manila
maniobra
maniobras
manipulacio
manipular
manitoba
manizales
mann
manning
manny
mano
manolo
manos
manresa
manrique
mans
mansilla
mansio
manso
manson
manta
manteca
mantendra
mantendri
mantener
mantenerse
mantenga
manteni
mantenida
mantenido
mantenie
manteniendo
mantenimiento
mantequilla
mantiene
mantienen
mantis
manto
mantua
mantuvieron
mantuvo
manu
manual
manuales
manualmente
manuel
manuela
manufactura
manuscrito
manuscritos
many
manzana
manzanares
manzanas
manzano
mao
maori
map
mapa
mapas
maps
mapuche
mapuches
maqueta
maquetas
maquillaje
maquinaria
mar
mara
maracaibo
maracay
maradona
maran
maras
marato
maravedi
maravilla
maravillas
maravillosa
maravilloso
marbella
marc
marca
marcada
marcadas
marcado
marcador
marcadores
marcados
marcan
marcando
marcar
marcari
marcaron
marcas
marcel
marcela
marcelino
marcello
marcelo
march
marcha
marchaba
marchar
marcharon
marcharse
marchas
marche
marcho
marcia
marcial
marciales
marciano
marco
marcos
marcus
mare
marea
mareas
mares
marfil
margaret
margarita
marge
margen
marginacio
marginal
marginales
margot
margrave
marguerite
mari
maria
mariachi
marian
mariana
marianas
marianne
mariano
marido
maridos
marie
marihuana
marilyn
marin
marina
marinas
marine
marinero
marineros
marines
marinespecies
marino
marinos
mario
marion
marionetas
mariposa
mariposas
marisa
mariscal
mariscos
marismas
marisol
marius
mark
market
marketing
markus
marley
marne
marque
marques
marquesa
marquesado
marqueses
marriage
marro
marrones
marroqui
marruecos
mars
marsella
marsh
marshall
mart
marta
marte
martel
martes
martha
marti
martillo
martin
martina
martinez
martini
martinica
martino
martins
martirio
martorell
martos
marty
marvel
marvin
marx
marxismo
marxista
marxistas
mary
maryland
marzo
mas
masa
masacre
masacres
masas
mascota
mascotas
masculina
masculinas
masculino
masculinos
masi
masiva
masivas
masivo
masivos
mask
maso
mason
masoneri
masones
mass
massa
massachusetts
massacre
massimo
master
masterizacio
masters
mata
matadero
matado
matador
matamoros
matan
matando
matanza
matanzas
matar
matara
matarlo
mataro
mataron
matas
match
mate
matema
mateo
mateos
mater
materia
material
materiales
materialismo
materias
materna
maternidad
materno
math
mathbb
mathbf
mathcal
mathematical
mathematics
mathias
mathieu
mathrm
mati
matices
matilde
matinal
mato
matorral
matorrales
matos
matri
matrices
matriculo
matrimonial
matrimoniales
matrimonio
matrimonios
matrix
matriz
matt
matteo
matter
matthew
matthews
matthias
mauge
maule
maura
maurice
mauricio
mauritania
mauro
mausoleo
maverick
mavericks
max
maxi
maxim
maximiliano
maximus
maxwell
may
maya
mayagu
mayas
mayer
mayo
mayor
mayorazgo
mayordomo
mayores
mayori
mayoritaria
mayoritariamente
mayoritario
mayormente
mayu
maza
mazas
mazatla
mazda
mazo
mb
mba
mbar
mbito
mbitos
mbolo
mbolos
mbox
mbra
mbrico
mbulo
mc
mccarthy
mccartney
mccoy
mcdonald
mcgraw
mcintyre
mclaren
mcmahon
md
me
meca
mecanismo
mecanismos
mecenas
mecha
mecklemburgo
med
meda
medal
medalla
medallas
medallero
medallista
medallistas
medallo
medas
medelli
medes
medi
media
mediacio
mediada
mediador
mediados
medial
mediana
medianas
mediano
medianoche
medianos
mediante
medias
medical
medicamento
medicamentos
medicina
medicinal
medicinales
medicinas
medicine
medicio
mediciones
medida
medidas
medido
medieval
medievales
medina
medinaceli
medio
medioambiental
medioambientales
mediocampista
mediodi
medios
medir
meditacio
mediterra
medo
medos
medrano
medusa
meet
meeting
mega
megan
megaselia
mei
meiji
meji
mejillas
mejor
mejora
mejorada
mejorado
mejoramiento
mejorando
mejorar
mejoraron
mejoras
mejores
mejori
mejoro
mel
melanco
melancoli
melanie
melbourne
melchor
mele
melgar
melilla
melipilla
melissa
mella
melo
melodi
melodrama
melody
membrana
membranas
membresi
memo
memorable
memorables
memoria
memorial
memorias
memories
memory
memphis
men
mena
mencio
menciona
mencionada
mencionadas
mencionado
mencionados
mencionan
mencionar
menciones
menciono
mendes
mendiza
mendoza
mene
menem
menes
meneses
menester
meno
menor
menorca
menores
menos
mensaje
mensajeri
mensajero
mensajeros
mensajes
mensual
mensuales
ment
mental
mentales
mentalidad
mentalmente
mente
mentes
mentira
mentiras
mentor
menu
menudo
mer
mera
meramente
meras
mercader
mercaderes
mercaderi
mercado
mercados
mercadotecnia
mercanci
mercante
mercantes
mercantil
mercantiles
merced
mercedes
mercenario
mercenarios
mercer
mercosur
mercurio
mercury
mercy
merece
merecen
mereci
merecido
merengue
meridiano
meridional
meridionales
merindad
merino
merli
merlo
mero
meros
merry
mes
mesa
mesas
meses
meseta
mesetas
mesi
mesis
meso
mesoame
mesopotamia
message
messi
mestizaje
mestizo
mestizos
mestre
met
meta
metabo
metabolismo
metacritic
metafi
metal
metales
metallica
metalu
metalurgia
metamorfosis
metano
metas
metastasio
mete
meteorito
meteoro
meteorolo
meteorologi
meter
meterse
method
metido
metio
metodista
metodolo
metodologi
metro
metropolitan
metropolitana
metropolitanas
metropolitano
metropolitanos
metros
mets
metz
mexica
mexicali
mexican
mexicana
mexicanas
mexicano
mexicanos
mexicas
mexico
meyer
mez
meza
mezcla
mezclada
mezclado
mezclados
mezclan
mezclando
mezclar
mezclas
mezquita
mezquitas
mg
mgm
mhz
mi
mia
miami
mic
mica
micaela
micamente
micas
mice
michael
michaels
michel
michele
michelle
michigan
michoaca
mick
mickey
mico
micos
micro
micronesia
microondas
microorganismos
microsco
microscopio
microsoft
mics
mid
mida
middle
mide
miden
mides
midi
midland
midlands
midnight
mido
midway
mie
miedo
miel
miembro
miembros
mientras
mig
mighty
migracio
migraciones
migrantes
migratoria
migratorias
miguel
mijai
mika
mike
mikel
mil
mila
milagro
milagros
milagrosa
milan
milano
mile
milenio
miles
miley
mili
milicia
milicianos
milicias
milita
militancia
militante
militantes
militar
militares
militarmente
military
milito
milk
mill
milla
millar
millares
millas
millennium
miller
million
millo
millonario
millonarios
millones
mills
milo
milos
milton
milwaukee
mimi
min
mina
minaj
minas
mind
mindanao
mine
minera
mineral
minerales
mineras
mineri
minero
mineros
minerva
ming
minh
mini
miniatura
miniaturadeimagen
miniaturas
minimizar
miniserie
ministerial
ministerio
ministerios
ministra
ministro
ministros
ministry
minneapolis
minnesota
minogue
minor
minori
minorista
minoristas
minsk
minu
minuto
minutos
mio
miocardio
mioceno
miquel
mir
mira
miraba
miracle
mirada
miradas
mirador
miraflores
mirage
miramar
miran
miranda
mirando
mirar
miras
mire
miriam
miro
mirror
mis
misa
misas
miscela
miserable
miserables
miseria
misericordia
misil
misiles
misio
misionera
misionero
misioneros
misiones
misisipi
misma
mismas
mismo
mismos
miss
missing
mission
mississippi
missouri
mister
misterio
misterios
misteriosa
misterioso
mistral
misuri
mit
mitad
mitades
mitch
mitchell
mite
mites
mitin
mito
mitocondrial
mitolo
mitologi
mitos
mitra
mitre
mitsubishi
mix
mixta
mixtape
mixtas
mixto
mixtos
miz
mk
ml
mlb
mls
mm
mma
mn
mnibus
mo
mobile
mobiliario
moc
mocio
mocion
moctezuma
mod
moda
modales
modalidad
modalidades
modas
mode
model
modelado
modelo
modelos
models
moderacio
moderada
moderadamente
moderado
moderados
modern
moderna
modernas
moderne
modernidad
modernismo
modernista
modernizacio
modernizar
moderno
modernos
modesta
modesto
modifica
modificacio
modificaciones
modificada
modificadas
modificado
modificados
modificando
modificar
modifico
modo
modos
modulacio
modular
moe
mohamed
mohammad
mohammed
moi
moise
mojo
mol
mola
moldavia
molde
moldes
molduras
mole
molecular
moleculares
molesta
molestia
molestias
molesto
molie
molina
molino
molinos
molly
molusco
moluscos
moment
momenta
momento
momentos
momia
mon
mona
monaco
monagas
monarca
monarcas
monarqui
monasterio
monasterios
moncada
mondadori
monday
monde
mondo
moneda
monedas
monet
monetaria
monetario
money
mongol
mongoles
mongolia
monica
monitor
monitoreo
monitores
monja
monjas
monje
monjes
monkey
mono
monogra
monografi
monoplaza
monoplazas
monopolio
monos
monoti
monroe
monroy
mons
monsen
monsieur
monster
monsters
monstruo
monstruos
mont
monta
montada
montado
montados
montaje
montajes
montalba
montalvo
montan
montana
montaner
montano
montar
monte
monteagudo
montecarlo
montenegro
montero
monterrey
montes
montesinos
montevideo
montgomery
monthly
monti
montiel
montilla
monto
montoneros
montoya
montpellier
montreal
montserrat
montt
monument
monumental
monumentales
monumento
monumentos
monza
monzo
moody
moon
moore
mora
morada
morado
moradores
moral
morales
moralidad
moran
moravia
moraza
more
moreau
moreira
morelia
morelos
morena
moreno
morfolo
morfologi
morgan
mori
moribundo
morir
morira
moriri
moriscos
moritz
morning
moro
moros
morris
morrison
morro
morse
mort
mortal
mortales
mortalidad
mortero
morteros
morti
morton
mos
mosa
mosaico
mosaicos
mosca
moscas
moscoso
moscow
moscu
mosela
moses
mosquera
mosquitos
moss
most
mostra
mostraba
mostraban
mostrada
mostrado
mostrando
mostrar
mostrara
mostraron
mostrarse
mostro
mota
motagua
mote
mother
moti
motion
motivacio
motivaciones
motivada
motivado
motivo
motivos
moto
motocicleta
motocicletas
motociclismo
motogp
motor
motores
motors
motorsport
motos
motriz
mount
mountain
mouse
move
movement
mover
moverse
movi
movida
movido
movie
moviendo
movies
movilidad
movilizacio
movilizaciones
movilizar
movimiento
movimientos
movio
movistar
moya
moyle
moza
mozambique
mozart
mozo
mozos
mp
mpago
mpano
mpara
mparas
mph
mpica
mpicas
mpico
mpicos
mplice
mplices
mputo
mr
mrac
mrs
ms
msnm
msterdam
mt
mtv
mu
much
mucha
muchacha
muchachas
muchacho
muchachos
muchas
muchedumbre
muchi
mucho
muchos
muda
mudanza
mudaron
mudarse
mude
mudo
mueble
muebles
muelle
muelles
muera
muere
mueren
muerta
muertas
muerte
muertes
muerto
muertos
muestra
muestran
muestras
muestreo
mueve
mueven
muhammad
mui
mujer
mujeres
mujica
mula
mulas
mulder
muller
mulo
mulos
multa
multas
multi
multijugador
multimedia
multinacional
multinacionales
multiplicacio
multitud
multitudes
multiverso
mun
munch
mundi
mundial
mundiales
mundialista
mundialmente
mundo
mundodeportivo
mundos
munich
municio
municiones
municipal
municipales
municipalidad
municipalidades
municipio
municipios
munster
mur
mural
murales
muralla
murallas
murcia
murcie
murder
muriel
muriendo
murieron
murillo
murio
murmuro
muro
muros
murphy
murray
mus
musa
muscular
musculares
muse
museo
museos
museu
museum
music
musica
musical
musicales
musicalmente
musico
musik
musique
mussolini
must
mustafa
mustang
musulma
musulmana
musulmanas
musulmanes
mutacio
mutaciones
mutante
mutantes
mutua
mutuamente
mutuo
muy
mv
mvp
mw
mx
my
myanmar
myers
myspace
mysterio
mystery
myth
n
na
nac
nace
nacen
nacer
nach
nacho
naci
nacida
nacidas
nacido
nacidos
naciente
nacieron
nacimiento
nacimientos
nacio
nacion
nacional
nacionales
nacionalidad
nacionalidades
nacionalismo
nacionalista
nacionalistas
nacionalizacio
nacionalizado
nacionalizados
naciones
naco
nad
nada
nadador
nadadores
nadal
nadar
nadia
nadie
nadu
naga
nagano
nagasaki
nager
nagoya
nai
naipes
nakamura
naked
nam
name
names
namibia
namo
nan
nana
nancy
nanki
nano
nantes
nao
naomi
napoleo
napoli
napolitano
nara
naranja
naranjas
naranjo
narciso
narcotra
narin
nariz
narra
narracio
narraciones
narrador
narrativa
narrativas
narrativo
naruto
narva
nas
nasa
nasal
nasales
nascar
nash
nashville
nassau
nasser
nat
nata
natacio
natal
natalia
natalidad
natalie
natalya
natasha
nate
nathan
nathaniel
nation
national
nationale
nations
nativa
nativas
native
natividad
nativo
nativos
natura
natural
naturales
naturaleza
naturalismo
naturalista
naturalistas
naturalmente
nature
naturelle
naufragio
nava
naval
navales
navarra
navarrete
navarro
navarros
navas
nave
navegable
navegacio
navegador
navegando
navegante
navegantes
navegar
navego
naves
navi
navia
navidad
naviden
navy
nayarit
nazareno
nazaret
nazari
nazi
nazionale
nazis
nazismo
nba
nbc
nc
ncaa
ncash
ncbi
ncer
nces
ncfort
nchen
nchester
nchez
ncia
ncipe
ncipes
ncreas
nculo
nculos
nd
ndalo
ndalos
ndalus
ndar
ndares
nde
nder
ndez
ndice
ndices
ndico
ndida
ndido
ndo
ndola
ndolas
ndole
ndoles
ndolo
ndolos
ndome
ndonos
ndor
ndose
ndosele
ndote
ndrica
ndrico
ndrome
ndula
ndulas
ndulo
ndum
ne
nea
neal
neamente
near
neas
nebraska
nebre
nebulosa
nec
necaxa
necesaria
necesariamente
necesarias
necesario
necesarios
necesidad
necesidades
necesita
necesitaba
necesitaban
necesitados
necesitamos
necesitan
necesito
necro
ned
need
neerlande
neerlandesa
neerlandesas
neerlandeses
nega
negaba
negacio
negado
negar
negaron
negarse
negativa
negativamente
negativas
negativo
negativos
negligencia
nego
negociacio
negociaciones
negociar
negocio
negocios
negra
negras
negrete
negri
negrita
negro
negros
neil
neill
nel
neles
nelly
nelson
nen
neo
neocla
neogo
neoli
neos
neotropical
neozelande
nepal
neptune
neptuno
ner
neri
nero
neros
neruda
nervio
nervios
nerviosa
nervioso
nes
nesis
net
neta
netamente
netflix
netherlands
neto
nets
network
networks
neue
neuma
neumann
neumoni
neuque
neuro
neurolo
neuronal
neuronas
neutral
neutrales
neutralidad
neutro
neutrones
nevada
nevadas
nevado
never
neville
new
newark
newcastle
newell
newman
newport
news
newton
nexo
next
nez
nfasis
nfl
ng
nga
ngara
ngaras
ngaro
ngaros
ngc
ngel
ngela
ngeles
nger
ngora
nguez
ngulo
ngulos
nh
nhl
ni
nia
nic
nica
nicamente
nicanor
nicaragu
nicaragua
nicas
nice
nicea
nich
nicho
nicholas
nichols
nicholson
nichos
nick
nickelodeon
nicky
nico
nicola
nicolas
nicole
nicos
nida
nidas
nides
nido
nidos
nie
niebla
niega
niegan
nielsen
nieta
nieto
nietos
nietzsche
nieve
nieves
nigel
nigeria
night
nightmare
nights
nigo
nigos
nike
nikita
nikki
nikola
nikolai
nil
nilo
nima
nimas
nime
nimo
nimos
nin
nina
nine
ninfa
ninfas
ningu
ningun
ninguna
ninguno
ninja
nino
nintendo
nio
nior
nippon
nirvana
nis
nissan
nita
nito
nitro
nivel
niveles
nix
nixon
niz
niza
nj
nk
nl
nm
nme
nmente
nmi
nn
no
noah
nobel
nobiliario
nobiliarios
noble
nobles
nobleza
nocaut
noche
noches
nocio
nociones
nocturna
nocturnas
nocturno
nocturnos
nodo
nodos
noe
noel
nogales
noguera
noir
noise
nokia
nola
nolan
nom
noma
nomas
nombra
nombrada
nombradas
nombrado
nombrados
nombramiento
nombramientos
nombran
nombrando
nombrar
nombrara
nombraron
nombre
nombres
nombro
nomencla
nomenclator
nomenclatura
nominacio
nominaciones
nominada
nominado
nominados
nominal
nomo
nomos
non
nones
nor
nora
norberto
nord
nordeste
noreste
norfolk
noriega
norma
normal
normales
normalidad
normalizacio
normalmente
norman
normandi
normandos
normas
normativa
normativas
noroccidental
noroeste
nororiental
norris
norte
norteame
norteamericana
norteamericanas
norteamericano
norteamericanos
norten
north
northern
norton
noruega
noruego
noruegos
norwich
nos
nosotros
nostalgia
nostra
nostrand
not
nota
notable
notablemente
notables
notacio
notado
notar
notario
notas
note
notes
nothing
noticia
noticias
noticiero
notificacio
noto
notoc
notoria
notoriedad
notorio
notre
nottingham
nou
nous
nouveau
nouvelle
nov
nova
novak
novas
novato
novedad
novedades
novedoso
novel
novela
novelas
novelista
novelistas
november
novena
noveno
noventa
novi
novia
noviembre
novio
novios
novo
novoa
now
nr
nro
ns
nsa
nscrito
nsito
nster
nsul
nsula
nsulas
nsules
nt
nta
ntara
ntas
ntegramente
ntegro
nter
ntes
ntesis
nther
ntica
nticas
ntico
nticos
ntida
ntima
ntimamente
ntimo
ntimos
nto
ntoma
ntomas
ntos
ntra
ntras
ntrica
ntrico
ntricos
ntropo
nu
nube
nubes
nuca
nuclear
nucleares
nucleo
nuco
nudo
nudos
nueces
nuestra
nuestras
nuestro
nuestros
nueva
nuevamente
nuevas
nueve
nuevo
nuevos
nuez
nuggets
nula
nulidad
nulo
nulos
num
numancia
number
numbers
nume
numeracio
numerados
numero
numerosa
numerosas
numeroso
numerosos
numisma
nun
nunca
nuncio
nupcias
nur
nuria
nutricio
nutrientes
nw
nwa
nxt
ny
nyuge
nyuges
nz
o
oa
oak
oakland
oasis
oaxaca
ob
obama
obedece
obedecer
obediencia
obelisco
obesidad
obi
obispado
obispo
obispos
obituario
objeciones
objetiva
objetivo
objetivos
objeto
objetos
obliga
obligaba
obligacio
obligaciones
obligada
obligadas
obligado
obligados
obligan
obligando
obligar
obligaron
obligatoria
obligatorio
obligo
oboe
obra
obrador
obrar
obras
obrego
obrera
obreras
obrero
obreros
obsequio
observa
observacio
observaciones
observada
observado
observador
observadores
observados
observan
observancia
observando
observar
observaron
observarse
observatorio
observer
observo
obsesio
obsoleto
obsta
obstante
obstruccio
obtencio
obtendra
obtendri
obtener
obtenga
obteni
obtenida
obtenidas
obtenido
obtenidos
obteniendo
obtiene
obtienen
obtuvieron
obtuvo
obviamente
obvio
oca
ocampo
ocan
ocasio
ocasiona
ocasional
ocasionales
ocasionalmente
ocasiones
ocasiono
ocaso
occidental
occidentales
occidente
occitano
oce
ocea
ocean
oceani
och
ochenta
ocho
ochoa
ochocientos
ocio
oclc
oco
ocre
oct
octava
octavio
octavo
octavos
october
octogonal
octopus
octubre
ocular
oculta
ocultar
ocultas
oculto
ocultos
ocupa
ocupaba
ocupaban
ocupacio
ocupaciones
ocupada
ocupadas
ocupado
ocupados
ocupan
ocupando
ocupantes
ocupar
ocupara
ocupari
ocuparon
ocuparse
ocupo
ocurra
ocurre
ocurren
ocurrencia
ocurri
ocurrida
ocurrido
ocurridos
ocurrieron
ocurrio
ocurrir
oda
odebrecht
oder
odesa
odi
odia
odio
odisea
odo
odontologi
odos
odyssey
oea
oeste
of
ofc
ofensiva
ofensivas
ofensivo
oferta
ofertas
off
office
official
offs
oficial
oficiales
oficialista
oficialmente
oficina
oficinas
oficio
oficios
ofrece
ofrecen
ofrecer
ofreci
ofrecida
ofrecido
ofrecidos
ofrecie
ofreciendo
ofrecieron
ofrecimiento
ofrecio
ofrenda
ofrendas
og
oh
ohio
oi
oil
oir
ois
oise
ojeda
ojo
ojos
ok
okinawa
oklahoma
ol
ola
olaf
olas
olavarri
old
ole
oleada
oles
olga
oli
oligarqui
olimpia
olimpiada
olimpiadas
olimpo
oliva
olivar
olivares
oliveira
oliver
olivera
olivia
olivier
olivo
olivos
olla
olmedo
olmo
olmos
olo
olor
olos
olsen
olvida
olvidada
olvidado
olvidados
olvidar
olvido
olympia
olympic
olympique
om
oma
omar
omega
omisio
omni
oms
on
ona
once
onda
ondas
one
ones
ong
oni
online
only
ono
ontario
onthophagus
onu
oo
op
opcio
opcional
opciones
ope
opel
open
opening
opera
operaba
operaban
operacio
operacional
operaciones
operada
operado
operador
operadora
operadores
operados
operan
operando
operar
operation
operativa
operativas
operativo
operativos
operatorname
opero
opina
opinio
opinion
opiniones
opino
opio
opone
oponen
oponente
oponentes
oponerse
oponi
oporto
oportuna
oportunidad
oportunidades
oportuno
oposicio
oposiciones
opositor
opositora
opositores
opresio
optar
optaron
optimismo
optimista
optimizacio
optimizar
opto
opuesta
opuestas
opuesto
opuestos
opus
opusieron
opuso
or
ora
oracio
oraciones
orador
oradores
oral
orales
orange
oras
oratorio
orbe
orbita
orbital
orbitales
orchestra
orchidaceae
orden
ordena
ordenaba
ordenacio
ordenada
ordenadas
ordenado
ordenador
ordenadores
ordenados
ordenamiento
ordenando
ordenanza
ordenanzas
ordenar
ordenaron
ordeno
order
ordinaria
ordinarias
ordinario
ordinarios
ordo
ore
orego
oregon
oreja
orejas
orellana
orense
ores
orfanato
orfebreri
orfeo
org
orga
organismo
organismos
organista
organiza
organizaba
organizacio
organizaciones
organizada
organizadas
organizado
organizador
organizadores
organizados
organizan
organizando
organizar
organizaron
organizarse
organization
organizo
orgullo
orgulloso
ori
orial
oribe
oricon
orient
orientacio
orientaciones
orientada
orientadas
orientado
orientados
oriental
orientales
orientation
oriente
orificio
origen
origin
origina
originado
original
originales
originalidad
originalmente
originan
originaria
originariamente
originarias
originario
originarios
originaron
origino
origins
orihuela
orilla
orillas
orina
orinoco
orio
oriol
orion
orita
oritas
oriundo
orizaba
orlando
orleans
ornamentacio
ornamental
ornamentales
ornamentos
ornithology
ornito
ornitolo
oro
orografi
orozco
orquesta
orquestal
orquestas
orqui
orstom
ortega
ortiz
orto
ortodoxa
ortodoxas
ortodoxia
ortodoxo
ortodoxos
ortogra
ortografi
orton
oruro
os
osa
osaka
osas
osasuna
osborn
osborne
osbourne
oscar
oscila
oscilacio
oscilan
oscura
oscuras
oscuridad
oscuro
oscuros
osiris
oskar
oslo
osma
oso
osorio
osorno
osos
ospina
ostenta
ostentaba
ostento
osuna
osvaldo
oswald
oswaldo
otan
otero
other
otis
oto
otomana
otomanas
otomano
otomanos
oton
otorga
otorgaba
otorgada
otorgadas
otorgado
otorgados
otorgamiento
otorgan
otorgando
otorgar
otorgaron
otorgo
otra
otras
otro
otros
ottawa
otto
ou
ouest
our
out
ov
ova
oval
ovalle
ovario
oveja
ovejas
over
overline
ovidio
oviedo
owen
owens
own
oxford
oxi
oxidacio
oye
oyentes
oyo
oz
p
pa
pabello
pabellones
pablo
pac
pace
pacers
pacheco
pachuca
paci
paciencia
paciente
pacientes
pacific
pacificacio
pack
packard
paco
pactado
pacto
pactos
padece
padecer
padeci
padilla
padrastro
padre
padres
padrino
padro
padua
pag
paga
pagaba
pagaban
pagado
pagados
pagan
pagando
pagano
paganos
pagar
pagara
page
pages
pagina
pago
pagos
pags
pai
paige
pain
painting
pais
paisaje
paisajes
paisaji
paisajista
paja
pakista
pakistan
pakistani
pal
pala
palabra
palabras
palace
palacio
palacios
palais
palanca
palas
palatinado
palatino
palau
palazzo
pale
palencia
palenque
paleo
paleoli
paleonto
paleontolo
paleontologi
palermo
palestina
palestine
palestino
palestinos
paleta
pali
palio
pallacanestro
pallars
palm
palma
palmar
palmare
palmas
palmeiras
palmer
palmera
palmeras
palmira
palo
paloma
palomar
palomas
palomino
palos
pam
pamela
pampa
pampas
pamplona
pan
panaderi
panama
panamen
panamericana
panamericano
panamericanos
pancho
panda
pandemia
pandilla
pando
pandora
panel
paneles
panes
panora
panorama
panoramio
pantalla
pantallas
pantalo
pantalones
pantano
pantanos
panteo
pantera
panther
panzer
paola
paolo
papa
papado
papal
papas
pape
papel
papeles
paper
papers
papiro
papu
paquete
paquetes
par
para
paracai
paracaidistas
parada
paradas
parade
paradero
paradigma
paradise
parado
paradoja
paraguas
paraguay
paraguaya
paraguayo
paraguayos
parai
paraje
parajes
paralela
paralelamente
paralelas
paralelo
paralelos
parali
paramilitar
paramilitares
paramount
parana
parar
parc
parcela
parcelas
parche
parches
parcial
parciales
parcialmente
pardo
pare
parece
parecen
parecer
pareci
parecida
parecidas
parecido
parecidos
pareciera
parecio
pared
paredes
pareja
parejas
parentesco
pares
parezca
pari
paridad
pariente
parientes
paris
parisino
park
parker
parkinson
parks
parlamentaria
parlamentarias
parlamentario
parlamentarios
parlamento
parlamentos
parma
paro
parodia
parque
parques
parra
parrilla
parroquia
parroquial
parroquiales
parroquias
parsons
part
parte
parten
partes
parti
partial
particio
participa
participaba
participaban
participacio
participaciones
participado
participan
participando
participante
participantes
participar
participara
participari
participaron
participo
particular
particulares
particularidad
particularidades
particularmente
partida
partidaria
partidario
partidarios
partidas
partido
partidos
partiendo
partieron
partio
partir
partisanos
partitura
partituras
partners
parto
partos
party
pas
pasa
pasaba
pasaban
pasada
pasadas
pasado
pasados
pasaje
pasajero
pasajeros
pasajes
pasan
pasando
pasaporte
pasaportes
pasar
pasara
pasarela
pasari
pasaron
pascal
pasco
pascua
pascual
pase
pasen
paseo
paseos
paseriforme
pases
pasha
pasillo
pasillos
pasio
pasiones
pasiva
pasivo
pasivos
paso
pasos
pass
passion
past
pasta
pastel
pasteles
pastillas
pastizales
pasto
pastor
pastora
pastoral
pastoreo
pastores
pastos
pastrana
pat
pata
patada
patago
patagonia
patas
patata
patatas
pate
patente
patentes
paterna
paternidad
paterno
path
pati
patin
patinadores
patinaje
patines
patio
patios
pato
patolo
patologi
patos
patria
patriarca
patriarcado
patriarcal
patricia
patricio
patricios
patrick
patrimonial
patrimoniales
patrimonio
patrio
patriota
patriotas
patriotismo
patro
patrocinado
patrocinador
patrocinadores
patrocinio
patrona
patronal
patronales
patronato
patrones
patrono
patronos
patrulla
patrullas
patterson
patton
patty
pau
paul
paula
paulatinamente
paulina
pauline
paulino
paulista
paulo
pausa
pausanias
pautas
pavel
pavi
pavimento
pavo
pax
pay
payaso
payne
pays
paysandu
paz
pb
pbs
pc
pce
pcr
pd
pdf
pe
peace
peaje
peak
pearl
pearson
peatonal
pecado
pecados
peces
pecho
pechos
peci
peculiar
peculiares
pedago
pedagogi
pedal
pedani
pedazo
pedazos
pedestal
pedi
pedia
pedido
pedidos
pedir
pedirle
pedo
pedro
pedu
pegaso
peggy
peinado
peki
pela
pelaje
pelayo
pelea
peleando
pelear
peleas
peleo
peli
peligro
peligros
peligrosa
peligrosas
peligroso
peligrosos
pellegrini
pelo
peloponeso
pelos
pelota
pelotas
peloto
pen
pena
penal
penales
penalti
penaltis
penas
pendiente
pendientes
pene
penetra
penetracio
penetrar
penetro
penguin
peni
peninsular
peninsulares
penitencia
penitenciario
penn
pennsylvania
penny
pensaba
pensaban
pensado
pensador
pensadores
pensamiento
pensamientos
pensando
pensar
pensaron
pense
pensilvania
pensio
pension
pensiones
penso
penta
penu
peo
peones
people
peor
peores
pepa
pepe
pepper
pepsi
pequen
per
pera
peral
perales
peralta
peras
percepcio
percepciones
percibe
percibi
percibido
percibir
perciformes
percusio
percy
perdedor
perdedores
perder
perdera
perderi
perderse
perdi
perdida
perdidas
perdido
perdidos
perdie
perdiendo
perdiera
perdieron
perdio
perdo
perdona
pere
peregrinacio
peregrino
peregrinos
pereira
perenne
perennes
pereyra
perez
perfeccio
perfeccionamiento
perfect
perfecta
perfectamente
perfecto
perfil
perfiles
perforacio
performance
perfume
pergamino
peri
perico
perife
periferia
perio
period
periodi
periodicidad
periodismo
periodista
periodistas
periodo
periodos
periplo
perjudicial
perjudiciales
perjuicio
perjuicios
perkins
perla
perlas
permanece
permanecen
permanecer
permanecera
permaneceri
permaneci
permanecido
permaneciendo
permanecieron
permanecio
permanencia
permanente
permanentemente
permanentes
permiso
permisos
permita
permitan
permite
permiten
permiti
permitida
permitido
permitie
permitiendo
permitiera
permitieron
permitio
permitir
permitira
permitiri
pernambuco
pero
peronismo
peronista
peronistas
perpendicular
perpetua
perpetuo
perro
perros
perry
persa
persas
perse
persecucio
persecuciones
persegui
perseguido
perseguidos
perseguir
perseus
persia
persigue
persiguen
persiguiendo
persiguio
persiste
persistencia
persistente
persistentes
person
persona
personaje
personajes
personal
personales
personalidad
personalidades
personalmente
personas
perspectiva
perspectivas
perspective
perspectives
persuadir
pertenece
pertenecen
pertenecer
perteneci
pertenecido
perteneciente
pertenecientes
pertenecieron
pertenecio
pertenencia
pertenencias
perth
pertinente
pertinentes
perturbacio
peru
peruana
peruanas
peruano
peruanos
perugia
pesa
pesaba
pesada
pesadas
pesadilla
pesado
pesados
pesar
pesca
pescado
pescador
pescadores
pescados
pescar
pese
pesetas
peso
pesos
pesquera
pesquero
pestan
peste
pet
pete
peter
peters
petersburgo
peterson
peticio
peticiones
petit
petra
petro
petrolera
petroleras
petrolero
petroleros
petroli
peugeot
pez
pf
pg
ph
phane
phantom
phase
phi
phil
philadelphia
philip
philipp
philippe
philippine
philips
phillip
phillips
philosophical
philosophy
phoenix
phone
photo
php
phylogenetic
phylogeny
physical
physics
pi
pia
piadoso
piamonte
pianista
pianistas
piano
pianos
piazza
pib
pic
pica
picada
picado
picamente
picante
picardi
picas
picasso
pice
pichincha
pick
pico
picos
picto
picture
pictures
pida
pidal
pidamente
pidas
pide
piden
pides
pidie
pidiendo
pidieron
pidio
pido
pidos
pie
piece
piedad
piedra
piedras
piel
pieles
piensa
piensan
pienso
pier
pierce
pierda
pierde
pierden
pierna
piernas
piero
pierre
pies
pieter
pietro
pieza
piezas
pigmentos
pila
pilar
pilares
pilas
pilastras
pilot
piloto
pilotos
pilsen
pimentel
pimienta
pin
pina
pinacoteca
pinar
pinares
pine
pineda
pines
ping
pingu
pinilla
pink
pino
pinochet
pinos
pinta
pintada
pintadas
pintado
pintados
pintar
pinto
pintor
pintora
pintores
pintoresco
pintura
pinturas
pinus
pinyin
pinzo
pio
pioneer
pionera
pionero
pioneros
piotr
pipa
piper
pique
pira
piragu
piramidal
pirata
piratas
pirateri
pirates
pirineos
pisa
piscina
piscinas
pisco
piso
pisos
pista
pistas
pisto
pistola
pistolas
pistons
pit
pita
piter
pito
pitt
pittsburgh
piura
piz
pizarra
pizarro
pizza
pj
pk
pl
pla
placa
placas
place
placer
placeres
places
plaga
plagas
plan
plana
planas
plancha
planchas
planck
planea
planeaba
planeacio
planeada
planeado
planeamiento
planeando
planear
planeo
planes
planespotters
planet
planeta
planetario
planetas
planicie
planificacio
planificada
planificado
planificar
plano
planos
plant
planta
plantacio
plantaciones
plantar
plantarum
plantas
plantea
planteado
planteamiento
planteamientos
plantear
plantel
planteo
plantilla
plantillas
plantlist
plants
plasencia
plasma
plata
plataforma
plataformas
plate
plateado
platense
platillos
platino
platnick
plato
platos
play
playa
playas
playboy
player
players
playoff
playoffs
plays
playstation
plaza
plazas
plazo
plazos
please
plebe
plebiscito
pleistoceno
pleito
pleitos
plena
plenamente
plenipotenciario
plenipotenciarios
plenitud
pleno
plenos
plica
plicas
pliego
pliegues
plinio
plomo
plotarea
plotdata
pluma
plumaje
plumas
plural
pluralidad
plus
plutarco
pluto
plymouth
pm
pmatrix
pmid
png
pnv
po
poa
poblacio
poblacional
poblaciones
poblada
pobladas
poblado
pobladores
poblados
poblamiento
pobre
pobres
pobreza
poca
pocas
pocket
poco
pocos
podcast
pode
podemos
poder
poderes
poderi
poderosa
poderosas
poderoso
poderosos
podesta
podi
podia
podido
podio
podios
podo
podos
podra
podremos
podri
podria
poe
poema
poemario
poemas
poems
poesi
poeta
poetas
poetisa
poetry
point
points
poitiers
poitou
poke
pol
pola
polaca
polacas
polaco
polacos
polanco
polar
polares
polarizacio
pole
polen
poles
poli
polibio
police
polici
policial
policiales
policromada
policy
polideportivo
polilla
polinesia
polinizacio
polinomio
polinomios
polis
polite
politica
political
politics
polito
pollo
pollos
polluelos
polo
polonia
polos
polvo
poly
pomerania
pompeya
pompeyo
ponce
poncho
pondra
pondri
pone
ponen
poner
ponerlo
ponerse
ponferrada
ponga
poni
ponie
poniendo
poniente
pons
pont
ponte
pontevedra
ponti
pontificado
pontificia
pontificio
ponto
pony
pool
pop
popa
popaya
pope
popular
populares
popularidad
popularizo
popularmente
population
por
porcelana
porcentaje
porcentajes
porcio
porciones
porfirio
porno
pornogra
pornografi
poros
porque
porras
porsche
port
porta
portaaviones
portable
portada
portadas
portador
portadores
portal
portales
portando
portar
portavoz
porte
portela
porten
porter
porteri
portero
porteros
portillo
portland
porto
portocarrero
portrait
portsmouth
portuaria
portuarias
portugal
portugue
portuguesa
portuguesas
portugueses
porvenir
pos
posada
posadas
pose
posee
poseedor
poseen
poseer
posei
poseido
posesio
posesiones
posgrado
posguerra
posibilidad
posibilidades
posible
posiblemente
posibles
posicio
posiciona
posicionado
posicionamiento
posicionarse
posiciones
posiciono
position
positiva
positivamente
positivas
positivo
positivos
post
postal
postales
poste
postemporada
posteridad
posterior
posteriores
posterioridad
posteriormente
postes
postgrado
postre
postres
postula
postulado
postulados
postularse
postulo
postura
posturas
pot
potable
potasio
potencia
potencial
potenciales
potencialmente
potenciar
potencias
potente
potentes
potestad
potosi
potro
potsdam
potter
pour
powell
power
powers
poznan
pozo
pozos
pp
ppen
pr
pra
practica
practicaba
practicaban
practicado
practican
practicando
practicante
practicantes
practicar
practice
practico
prada
pradera
praderas
pradesh
prado
prados
praga
pragma
prairie
prat
prats
pratt
prd
pre
prea
precaria
precaucio
precauciones
precede
precedente
precedentes
precedida
precedido
preceptos
precio
precios
preciosa
preciosas
precioso
preciosos
precipitacio
precipitaciones
precisa
precisamente
precisas
precisio
preciso
precisos
precolombina
precoz
precursor
precursora
precursores
predecesor
predecesores
predecir
predicacio
predicador
predicadores
predicar
prediccio
predicciones
predio
predomina
predominan
predominante
predominantemente
predominantes
predominio
preescolar
prefacio
prefecto
prefectura
preferencia
preferencias
preferente
preferentemente
preferi
preferido
prefiere
prefieren
prefijo
prefirio
prego
pregrado
pregunta
preguntar
preguntas
pregunte
pregunto
prehispa
prehisto
prehistoria
prejuicios
prelado
preliminar
preliminares
preludio
prematura
prematuramente
premiada
premiado
premiados
premier
premio
premios
premisa
premisas
premium
prenda
prendas
prensa
prentice
preocupa
preocupacio
preocupaciones
preocupado
preocupados
preocuparse
prepara
preparaba
preparacio
preparaciones
preparada
preparadas
preparado
preparados
preparan
preparando
preparar
prepararon
prepararse
preparativos
preparatoria
preparo
prerrogativas
pres
presa
presas
presbi
presbiterio
prescripcio
presencia
presenciar
present
presenta
presentaba
presentaban
presentacio
presentaciones
presentada
presentadas
presentado
presentador
presentadora
presentadores
presentados
presentan
presentando
presentar
presentara
presentari
presentaron
presentarse
presente
presenten
presentes
presento
presents
preservacio
preservar
preside
presidencia
presidencial
presidenciales
president
presidenta
presidente
presidentes
presidida
presidido
presidio
presidir
presio
presionado
presionar
presiones
presiono
presley
preso
presos
press
presta
prestacio
prestaciones
prestado
prestados
prestan
prestando
prestar
prestigio
prestigiosa
prestigioso
prestigiosos
presto
preston
presume
presumiblemente
presunta
presuntamente
presunto
presuntos
presupuesto
presupuestos
prete
pretemporada
pretende
pretenden
pretendi
pretendiente
pretendientes
pretendio
pretensio
pretensiones
pretexto
pretty
prevalencia
preve
prevei
prevencio
prevenir
preventiva
previa
previamente
previas
previene
previo
previos
previsio
prevista
previstas
previsto
previstos
pri
price
pride
priest
prieto
prim
prima
primaria
primarias
primario
primarios
primas
primates
primavera
prime
primer
primera
primeramente
primeras
primero
primeros
primitiva
primitivas
primitivo
primitivos
primo
primoge
primordial
primos
prince
princesa
princesas
princess
princeton
principado
principal
principales
principalmente
principio
principios
principles
print
prior
priorato
priori
prioridad
prioridades
prisa
prisio
prisionero
prisioneros
prisiones
prisma
privacidad
privacio
privada
privadas
privado
privados
private
privatizacio
privilegiada
privilegiado
privilegio
privilegios
prix
prize
pro
proa
probabilidad
probabilidades
probable
probablemente
probada
probado
probar
problem
problema
problemas
probo
proc
proca
proceda
procede
proceden
procedencia
procedente
procedentes
proceder
procedera
procedi
procedimiento
procedimientos
procedio
proceedings
procesado
procesador
procesadores
procesados
procesal
procesamiento
procesar
procesio
procesional
procesiones
proceso
procesos
process
proclama
proclamacio
proclamada
proclamado
proclamar
proclamaron
proclamarse
proclamo
proco
procura
procurador
procuradores
procuraduri
procurando
procurar
prodigio
produccio
producciones
produce
producen
produci
producida
producidas
producido
producidos
producie
produciendo
producir
producira
produciri
producirse
production
productions
productiva
productivas
productividad
productivo
productivos
producto
productor
productora
productoras
productores
productos
products
produjeron
produjo
produzca
prof
profe
profeci
profesio
profesional
profesionales
profesionalismo
profesionalmente
profesiones
profesor
profesora
profesorado
profesores
professional
professor
profeta
profetas
profile
profunda
profundamente
profundas
profundidad
profundidades
profundizar
profundo
profundos
progenitor
program
programa
programacio
programada
programado
programador
programadores
programados
programas
progresio
progresista
progresistas
progresiva
progresivamente
progresivo
progreso
progresos
progress
prohi
prohibi
prohibicio
prohibiciones
prohibida
prohibidas
prohibido
prohibidos
prohibio
prohibir
project
proletariado
proli
proliferacio
prolonga
prolongacio
prolongada
prolongado
prolongo
promedia
promediando
promedio
promedios
promesa
promesas
promete
prometeo
prometi
prometida
prometido
prometio
prominente
prominentes
promo
promocio
promocional
promocionales
promocionar
promociones
promontorio
promotor
promotora
promotores
promover
promovida
promovido
promoviendo
promovio
promueve
promueven
promulgacio
promulgada
promulgo
prono
pronombre
pronombres
pronta
pronto
pronuncia
pronunciacio
pronunciada
pronunciado
pronunciamiento
pronunciar
pronuncio
propagacio
propaganda
properties
propia
propiamente
propias
propicio
propiedad
propiedades
propietaria
propietario
propietarios
propio
propios
propo
propone
proponen
proponer
proponi
proponiendo
proporcio
proporciona
proporcionaba
proporcionada
proporcionado
proporcionados
proporcional
proporcionan
proporcionando
proporcionar
proporcionaron
proporciones
proporciono
proposicio
proposiciones
propuesta
propuestas
propuesto
propuestos
propulsado
propulsio
propusieron
propuso
prosa
proseguir
prosigue
prosiguio
prosperidad
prospero
prosportstransactions
prostitucio
prostituta
prostitutas
protago
protagonismo
protagonista
protagonistas
protagoniza
protagonizada
protagonizado
protagonizar
protagonizo
proteccio
protection
protector
protectora
protectorado
protectores
protege
protegen
proteger
protegerse
protegi
protegida
protegidas
protegido
protegidos
protegiendo
protei
protesta
protestante
protestantes
protestantismo
protestar
protestas
protesto
proto
protocolo
protocolos
protones
prototipo
prototipos
provecho
provee
proveedor
proveedores
proveer
provei
provence
proveni
proveniente
provenientes
provenir
provenza
providence
providencia
providencias
proviene
provienen
province
provincia
provincial
provinciales
provincias
provisio
provisional
provisionales
provisionalmente
provisiones
provisorio
provisto
provoca
provocada
provocado
provocados
provocan
provocando
provocar
provocaron
provoco
proximidad
proximidades
proyeccio
proyecciones
proyecta
proyectada
proyectado
proyectar
proyectil
proyectiles
proyecto
proyectos
prudencia
prudente
prueba
pruebas
prusia
prusiana
prusiano
ps
psc
pseudo
pseudoscorpionida
psi
psico
psicoana
psicode
psicolo
psicologi
psiquia
psiquiatra
psiquiatri
psoe
psp
psula
psulas
psycho
psychology
pt
ptero
pteros
ptica
pticas
ptico
pticos
ptidos
ptima
ptimo
ptolomeo
pts
pu
pub
publ
public
publica
publicaba
publicacio
publicaciones
publicada
publicadas
publicado
publicados
publican
publicando
publicar
publicara
publicari
publicaron
publicarse
publication
publications
publicidad
publicitaria
publicitarias
publicitario
publicitarios
publico
publio
publique
published
publishers
publishing
pude
pudie
pudiendo
pudiera
pudieran
pudieron
pudiese
pudiesen
pudo
puebla
pueblo
pueblos
pueda
puedan
puede
pueden
puedes
puedo
puente
puentes
puerta
puertas
puerto
puertorriquen
puertos
pues
puesta
puestas
puesto
puestos
pueyrredo
puig
pujol
pula
pulas
pulgadas
pulgar
pulido
pulitzer
pulmo
pulmonar
pulmones
pulo
pulos
pulpa
pulso
puma
pumas
pun
puna
punch
punk
puno
punta
puntaje
puntarenas
puntas
puntero
punto
puntos
puntuacio
puntuaciones
puntual
puntuales
pura
puramente
puras
pure
pureza
purga
purgatorio
puri
purificacio
puro
puros
purple
pusiera
pusieron
puso
put
putin
putnam
puy
pwi
px
py
pyeongchang
python
q
qaeda
qi
qin
qing
qu
qua
quad
quae
qual
quality
quando
quanto
quantum
quarterly
quartet
quatre
quatro
que
quebec
quebrada
quebradas
quechua
queda
quedaba
quedaban
quedado
quedan
quedando
quedar
quedara
quedari
quedaron
quedarse
quede
queden
quedo
queen
queens
queensland
queer
queja
quejas
quel
quema
quemada
quemado
quemados
quemaduras
quemar
quemaron
quemo
quentin
quercus
quere
querella
queremos
querer
queri
querida
querido
queridos
queriendo
quesada
queso
quesos
quest
question
quet
quevedo
quez
qui
quiche
quick
quico
quida
quido
quidos
quie
quiebra
quien
quienes
quiera
quieran
quieras
quiere
quieren
quieres
quiero
quijote
quilla
quillota
quilmes
quin
quina
quinas
quince
quincena
quincy
quindi
quinientos
quinn
quinta
quintana
quintanilla
quintas
quintero
quinteto
quinto
quintos
quiro
quiroga
quiru
quisiera
quisieron
quiso
quita
quitado
quitar
quitarle
quiten
quito
quiza
quo
r
ra
rabe
rabes
rabi
rabia
rabino
rabo
race
racha
rachel
racial
raciales
racimos
racing
racional
racionales
racismo
racista
rada
radar
radares
radiacio
radial
radiales
radiante
radica
radicado
radical
radicales
radicalismo
radicalmente
radico
radio
radiodifusio
radiofo
radios
rae
raf
rafa
rafael
rafaela
rage
rahman
rai
raid
raiders
rail
railway
raimundo
rain
rainbow
rainer
raio
raja
rajoy
ral
rale
rally
ralph
ram
rama
ramal
ramales
ramas
rambla
rami
ramiro
ramo
ramon
ramona
ramos
rampa
ramsar
ramsay
ramse
ramsey
ran
rana
ranas
rancagua
rancho
rand
randall
randolph
random
randy
range
rangel
ranger
rangers
rangle
rango
rangos
ranking
rankings
ranura
raoul
rap
rapero
raperos
raphael
rapid
rapidez
rapids
rapto
raptors
raquel
rara
raramente
raras
rard
rare
raro
raros
ras
rascacielos
rase
rasgo
rasgos
raso
rastrear
rastro
rastros
rat
rata
ratas
rate
ratificacio
ratificado
ratifico
ratio
ration
rato
ratones
rau
raven
raw
rawson
rax
ray
raya
rayas
raymond
rayo
rayos
raza
razas
razo
razon
razonable
razonamiento
razones
rb
rbara
rbaro
rbaros
rbita
rbitas
rbitro
rbitros
rbol
rboles
rc
rca
rcd
rcega
rcel
rceles
rchb
rcito
rcitos
rcn
rcoles
rctv
rcules
rculo
rculos
rd
rda
rden
rdenas
rdenes
rdica
rdico
rdicos
rdida
rdidas
rdoba
rdova
re
rea
reabrio
reaccio
reacciona
reaccionar
reacciones
reacciono
reactivo
reactivos
reactor
reactores
read
reader
reading
ready
reagan
real
reales
realeza
realgm
realice
realicen
realidad
realidades
realismo
realista
realistas
reality
realiza
realizaba
realizaban
realizacio
realizada
realizadas
realizado
realizador
realizados
realizan
realizando
realizar
realizara
realizari
realizaron
realizarse
realizo
realmente
reanudar
reanudo
reaparece
reaparecio
reapertura
reas
reason
reban
rebautizada
rebautizado
rebeca
rebecca
rebel
rebelde
rebeldes
rebeldi
rebelio
rebeliones
rebelo
rebote
rebotes
rec
recae
recai
recarga
recaudacio
recaudado
recaudar
recaudo
recayo
recent
recepcio
receptor
receptores
recesio
receso
receta
recetas
rechaza
rechazada
rechazado
rechazados
rechazan
rechazando
rechazar
rechazaron
rechazo
reci
reciba
recibe
reciben
recibi
recibida
recibidas
recibido
recibidos
recibiendo
recibiera
recibieron
recibimiento
recibio
recibir
recibira
recibiri
recibo
reciclaje
recie
reciente
recientemente
recientes
recife
recinto
recintos
recipiente
recipientes
recital
recitales
reclama
reclamaba
reclamacio
reclamaciones
reclamado
reclamando
reclamar
reclamo
reclamos
reclusio
reclusos
recluta
reclutado
reclutados
reclutamiento
reclutar
reclutas
recluto
recoge
recogen
recoger
recogi
recogida
recogidas
recogido
recogidos
recogiendo
recogio
recoleccio
recolectar
recolectores
recoleta
recomendable
recomendacio
recomendaciones
recomendada
recomendado
recomendo
recomienda
recompensa
recompensas
reconciliacio
reconoce
reconocen
reconocer
reconoci
reconocible
reconocida
reconocidas
reconocido
reconocidos
reconociendo
reconocieron
reconocimiento
reconocimientos
reconocio
reconquista
reconstruccio
reconstruida
reconstruido
reconstruir
reconstruyo
recopa
recopilacio
recopilaciones
recopilar
recopilatorio
recopilatorios
record
recordaba
recordada
recordado
recordando
recordar
recording
recordings
recordo
records
recorre
recorren
recorrer
recorri
recorrido
recorridos
recorriendo
recorrio
recorte
recortes
recrea
recreacio
recrear
recreativa
recreativas
recreativo
recreo
recta
rectangular
rectangulares
rectas
recto
rector
rectores
rectori
rectos
recubrimiento
recuento
recuerda
recuerdan
recuerdo
recuerdos
recupera
recuperacio
recuperada
recuperado
recuperados
recuperando
recuperar
recuperaron
recuperarse
recupero
recurre
recurrente
recurrentes
recurrio
recurrir
recurso
recursos
red
redaccio
redactado
redactar
redacto
redactor
rede
redencio
redentor
redes
redisen
redistribucio
redonda
redondas
redondeada
redondeadas
redondeado
redondo
reduccio
reducciones
reduce
reducen
reduci
reducida
reducidas
reducido
reducidos
reduciendo
reducir
redujeron
redujo
reed
reeder
reedicio
reeditado
reef
reeleccio
reelecto
reelegido
reemplaza
reemplazada
reemplazadas
reemplazado
reemplazados
reemplazando
reemplazar
reemplazo
reencarnacio
reencuentro
reestructuracio
reeves
ref
refere
reference
referencia
referencias
referente
referentes
referi
referida
referidas
referido
referidos
referir
referirse
refiere
refieren
refinado
refineri
refirie
refirio
refleja
reflejaba
reflejada
reflejado
reflejan
reflejar
reflejo
reflejos
reflexio
reflexionar
reflexiones
reforma
reformada
reformado
reformar
reformas
reformista
reformistas
reformo
reforzada
reforzado
reforzar
reforzo
refrigeracio
refuerza
refuerzo
refuerzos
refugiado
refugiados
refugiarse
refugio
refugios
reg
regadi
regalado
regali
regalo
regalos
regan
regata
regatas
regatistas
regencia
regeneracio
regente
reggae
reggio
regi
regia
regidor
regidores
regimiento
regimientos
regina
regio
region
regional
regionales
regionalista
regiones
register
registra
registrada
registradas
registrado
registrados
registran
registrando
registrar
registraron
registro
registros
regla
reglamentacio
reglamentario
reglamento
reglamentos
reglas
regresa
regresaba
regresado
regresan
regresando
regresar
regresara
regresari
regresaron
regresio
regreso
regueto
regula
regulacio
regulaciones
regulada
regulado
regulador
regulan
regular
regulares
regularidad
regularmente
rehabilitacio
rehabilitado
rehe
rehenes
rehuso
rei
reich
reid
reigns
reilly
reims
reina
reinado
reinados
reinaldo
reinante
reinas
reinhold
reinicio
reino
reinos
reis
reivindicacio
reivindicaciones
reja
rejas
rela
relacio
relaciona
relacionada
relacionadas
relacionado
relacionados
relacionan
relacionar
relacionarse
relaciones
relajacio
relanzamiento
relata
related
relations
relativa
relativamente
relativas
relatividad
relativo
relativos
relato
relatos
release
relegado
relevado
relevancia
relevante
relevantes
relevo
relevos
relieve
relieves
religio
religion
religiones
religiosa
religiosas
religiosidad
religioso
religiosos
religious
reliquia
reliquias
relleno
rellenos
reloj
relojes
remake
remanente
remanentes
remata
rematada
rematado
remate
remberg
rembrandt
remedio
remedios
remember
remeros
remezclas
remite
remix
remixes
remo
remocio
remodelacio
remodelado
remolque
remonta
remontan
remontar
remos
remota
remotas
remoto
remotos
remover
remuneracio
ren
renacentista
renacentistas
renacimiento
renaissance
renal
renania
renato
renault
rencor
rendicio
rendido
rendimiento
rendimientos
rendir
rendirse
rene
renfe
rennes
reno
renombrada
renombrado
renombre
renombro
renovable
renovables
renovacio
renovada
renovado
renovar
renovo
renta
rentabilidad
rentable
rentas
renueva
renuncia
renunciado
renunciando
renunciar
renuncio
reo
reorganizacio
reorganizar
reorganizo
reos
rep
reparacio
reparaciones
reparar
reparo
reparte
reparten
repartidas
repartidos
repartir
reparto
repechaje
repeler
repente
repentina
repentinamente
repentino
repercusio
repercusiones
repertorio
repeti
repeticio
repeticiones
repetidamente
repetidas
repetido
repetidos
repetir
repite
repiten
repitiendo
repitio
replicacio
replico
repoblacio
report
reporta
reportado
reportaje
reportajes
reportaron
reporte
reporter
reportera
reportero
reporteros
reportes
reporto
reports
reposicio
repositorio
reposo
represa
represalia
represalias
representa
representaba
representaban
representacio
representacion
representaciones
representada
representadas
representado
representados
representan
representando
representante
representantes
representar
representara
representari
representaron
representativa
representativas
representativo
representativos
represento
represio
reprimir
reprise
reproduccio
reproducciones
reproduce
reproducen
reproducir
reproductiva
reproductor
reproductores
reptiles
repu
republic
republica
republicana
republicanas
republicano
republicanos
repuesto
repuso
reputacio
requena
requeri
requerida
requeridas
requerido
requeridos
requerimiento
requerimientos
requerir
requiem
requiera
requiere
requieren
requirio
requisito
requisitos
rer
res
resalta
resaltar
rescata
rescatado
rescatados
rescatar
rescate
rescato
rescue
rese
research
resen
resentimiento
reserva
reservada
reservado
reservados
reservas
reses
resguardo
reside
residen
residencia
residencial
residenciales
residencias
resident
residente
residentes
residi
residiendo
residio
residir
residual
residuales
residuo
residuos
resina
resistance
resiste
resistencia
resistencias
resistente
resistentes
resistio
resistir
resolucio
resolucion
resoluciones
resolver
resolvio
resonancia
resort
resorte
resources
respaldada
respaldado
respaldar
respaldo
respecta
respectiva
respectivamente
respectivas
respectivo
respectivos
respecto
respeta
respetable
respetado
respetando
respetar
respeto
respiracio
respirar
respiratoria
respiratorias
respiratorio
resplandor
responde
responden
responder
respondi
respondiendo
respondieron
respondio
responsabilidad
responsabilidades
responsable
responsables
respuesta
respuestas
resta
restablecer
restablecimiento
restablecio
restante
restantes
restauracio
restaurada
restaurado
restaurante
restaurantes
restaurar
restauro
restitucio
resto
restos
restrepo
restriccio
restricciones
restringida
restringido
restringir
resucitado
resuelta
resuelto
resuelve
resulta
resultaba
resultado
resultados
resultan
resultando
resultante
resultantes
resultar
resultara
resultari
resultaron
resulte
resulto
results
resume
resumen
resurgimiento
resurreccio
retablo
retablos
retaguardia
retencio
retener
reteniendo
reti
retina
retira
retirada
retiradas
retirado
retirados
retiran
retirar
retirara
retiraron
retirarse
retiro
reto
retoma
retomar
retomo
retorna
retornar
retorno
retos
retrasar
retraso
retrasos
retrata
retratado
retrato
retratos
retrieved
retro
retroalimentacio
retroceder
retroceso
retrospectiva
return
returns
retuvo
reu
reuni
reunida
reunidas
reunido
reunidos
reuniendo
reunieron
reunificacio
reunio
reunion
reuniones
reunir
reunirse
reus
reuters
rev
revancha
reve
revela
revelacio
revelaciones
revelada
revelado
revelan
revelando
revelar
revelaron
revelo
revenge
reverendo
reverso
revertir
revestimiento
review
reviews
revisada
revisado
revisar
revised
revisio
revision
revisiones
reviso
revista
revistas
revival
revivir
revo
revolucio
revolucionaria
revolucionarias
revolucionario
revolucionarios
revoluciones
revolution
revue
revuelta
revueltas
rex
rey
reyes
reyna
reynolds
rez
reza
rezar
rf
rfano
rfanos
rfc
rfef
rg
rgamo
rgano
rganos
rgb
rgen
rgenes
rgica
rgicamente
rgicas
rgico
rgicos
rhino
rho
rhode
rhodes
rhythm
ri
ria
riaa
riachuelo
riba
ribas
ribeiro
ribera
riberas
riberen
ric
rica
ricamente
ricardo
ricas
riccardo
ricci
rice
rich
richard
richards
richardson
richelieu
richie
richmond
richter
rick
ricky
rico
ricos
rida
ridas
ride
rider
rides
ridge
ridi
rido
ridos
rie
riego
rieles
riendas
riera
riesgo
riesgos
riff
rifle
rifles
riga
rige
rigen
right
rightarrow
rights
rigidez
rigo
rigor
rigos
rigurosa
riguroso
rihanna
ril
riley
rima
rin
rinco
rincones
rinde
rindieron
rindio
ring
ringo
rio
rioja
rios
riot
ripley
riquelme
riqueza
riquezas
ris
risa
risas
rise
rising
risk
rita
ritmo
ritmos
rito
ritos
ritter
ritu
ritual
rituales
ritus
riva
rivadavia
rival
rivales
rivalidad
rivalidades
rivas
river
rivera
rivero
rivers
riverside
rivie
riz
rjen
rk
rkov
rlos
rm
rmaco
rmacos
rmica
rmicas
rmico
rmicos
rmino
rminos
rmol
rmula
rmulas
rn
ro
roa
road
rob
roba
robadas
robado
robar
robbie
robbins
robert
roberta
roberto
roberts
robertson
robin
robinson
roble
robledo
robles
robo
robos
robot
robots
robusta
robusto
roca
rocas
rocha
roche
rochester
roci
rock
rockefeller
rocket
rockets
rocks
rocky
rococo
rocosa
rocosas
rocoso
rocosos
rod
roda
rodada
rodadas
rodado
rodaje
rodante
rodar
rodas
rodea
rodeaba
rodeaban
rodeada
rodeadas
rodeado
rodeados
rodean
rodeando
rodeo
rodgers
rodilla
rodillas
rodney
rodo
rodolfo
rodri
rodrigo
rodrigues
rodriguez
roe
roedor
roedores
roes
rogelio
roger
rogers
rogue
roh
rohan
roi
roig
roja
rojas
rojizo
rojo
rojos
rol
rola
roland
rolando
rolda
role
roles
rolf
roll
rolling
rollins
rollo
rollos
rolls
rom
roma
roman
romana
romanas
romance
romances
romani
romanizacio
romano
romanos
romanticismo
rome
romeo
romeri
romero
romo
rompe
rompecabezas
rompen
romper
rompiendo
rompieron
rompio
ron
ronald
ronaldo
ronda
rondas
rondo
ronnie
ronse
roo
roode
rookie
room
roosevelt
root
roots
ropa
ropas
roque
rory
ros
rosa
rosada
rosado
rosales
rosali
rosario
rosas
rose
rosello
rosen
rosenberg
rosendo
roses
rosita
ross
rossi
rossini
rosso
roster
rostov
rostro
rostros
rota
rotacio
rotaliida
rotas
roth
rothschild
roto
rotonda
rotor
rotos
rotten
rotundo
rotura
rouge
round
rousseau
route
routledge
rov
rover
rovers
rovira
row
roy
royal
royale
royals
royce
rozas
rp
rpatos
rpg
rpm
rprete
rpretes
rpura
rquez
rquica
rquico
rquicos
rr
rrafo
rrafos
rraga
rrea
rreas
rrez
rroco
rroga
rs
rsela
rsele
rselo
rsico
rss
rsssf
rsula
rt
rtaros
rtebras
rtel
rter
rtica
rticas
rtice
rtices
rtico
rticos
rtida
rtigo
rtil
rtiles
rtir
rtires
rttemberg
rtve
ru
ruanda
rube
ruben
rubens
rubi
rubia
rubin
rubio
rubro
ruby
rudolf
rudolph
rudy
rue
rueda
ruedas
ruego
rufino
rufo
rufus
rugby
rui
ruido
ruidos
ruina
ruinas
ruisen
ruiz
rule
rules
rum
rumana
rumani
rumania
rumano
rumanos
rumble
rumbo
rumor
rumores
run
runner
running
rupert
rupestre
rupestres
ruptura
rural
rurales
rus
rusa
rusas
rush
rusia
ruso
rusos
russell
russia
russian
russo
ruta
rutas
ruth
rutherford
rutina
ruy
rv
ry
ryan
ryder
ryo
ryu
s
sa
saa
saab
saavedra
saba
sabadell
sabana
sabanas
sabbath
sabe
sabemos
saben
saber
saberlo
sabes
sabi
sabia
sabido
sabiduri
sabiendo
sabina
sabino
sabio
sabios
sable
sabor
sabores
sabotaje
saboya
sabra
sabre
sabrina
saca
sacado
sacan
sacando
sacar
sacaron
sacerdocio
sacerdotal
sacerdote
sacerdotes
saco
sacos
sacra
sacramento
sacramentos
sacred
sacrificar
sacrificio
sacrificios
sacrista
sacristi
sacro
sad
saddle
sae
safety
saga
sagan
sagas
sage
sagrada
sagradas
sagrado
sagrados
sagrario
sagunto
sahagu
sahara
sai
said
sailor
saint
sainte
saints
sainz
sajones
sajonia
sakura
sal
sala
salada
saladino
salado
salamanca
salar
salarial
salario
salarios
salas
salazar
salcedo
saldan
saldo
saldra
saldri
sale
salem
salen
salerno
sales
salga
salgado
sali
salida
salidas
salido
saliendo
saliente
salientes
saliera
salieron
salinas
salio
salir
salisbury
salitre
salle
sally
salmo
salmos
salo
salome
salomo
salon
salones
salsa
salt
salta
saltando
saltar
salten
saltillo
salto
saltos
salud
saluda
saludable
saludo
salva
salvacio
salvado
salvador
salvadoren
salvaje
salvajes
salvamento
salvando
salvar
salvarse
salvatierra
salvatore
salve
salvo
salzburgo
sam
sama
samantha
samba
same
sami
sammy
samo
samoa
samper
samsung
samuel
samura
samurai
san
sana
sanabria
sanatorio
sanchez
sancho
sancio
sancionada
sancionado
sancionar
sanciones
sanciono
sancti
sand
sanders
sandoval
sandra
sandro
sandy
saneamiento
sang
sangre
sangrienta
sangriento
sangui
sanidad
sanitaria
sanitarias
sanitario
sanitarios
sankt
sanlu
sano
sanos
sans
sant
santa
santamari
santana
santander
santas
santi
santiago
santidad
santillana
santo
santos
santuario
santuarios
sanz
sao
saona
sap
sapiens
sapo
saprissa
saque
saqueada
saquearon
saqueo
saqueos
sar
sara
sarah
sarajevo
saravia
sarco
sares
sargento
sarmiento
sarria
sars
sarsfield
sas
sasa
sasha
sastre
sat
sata
satana
sate
satelital
satelitales
satellite
sati
satisfaccio
satisface
satisfacer
satisfactoria
satisfecho
sato
saturacio
saturday
saturn
saturnino
saturno
sau
sauce
sauces
saudi
saudita
saul
saunders
sauro
savage
save
saw
sawyer
saxo
saxofo
saxofonista
say
says
sazo
sb
sbs
sc
scala
scale
scalemajor
scaleminor
scar
scara
scarabaeidae
scaras
scene
schiller
schleswig
schmidt
schneider
scho
school
schools
schro
schu
schubert
schumacher
schumann
schuster
schwartz
sci
science
sciences
scientific
scooby
score
scotland
scott
scottish
scout
scouts
scream
screen
script
scriptstyle
scula
sculas
scully
sculo
sculos
sd
se
sea
seal
sean
search
seas
season
seat
seattle
sebastia
sebastian
sec
seca
secado
secano
secas
seccio
secciones
secesio
seco
second
secos
secrecio
secret
secreta
secretamente
secretari
secretaria
secretariado
secretario
secretarios
secretas
secreto
secretos
secrets
secta
section
sector
sectores
secuaces
secuela
secuelas
secuencia
secuencias
secuestrada
secuestrado
secuestrados
secuestrar
secuestro
secuestros
secular
seculares
secundaria
secundarias
secundario
secundarios
security
sed
seda
sede
sedes
sedimentos
see
seed
sefardi
seg
sega
segismundo
segmento
segmentos
segovia
segregacio
segu
segui
seguida
seguidamente
seguidas
seguido
seguidor
seguidores
seguidos
seguimiento
seguir
seguira
seguiri
segun
segunda
segundas
segundo
segundos
segura
seguramente
seguras
seguridad
seguro
seguros
sei
seine
seis
seiscientos
seiya
seiyu
sel
sele
seleccio
selecciona
seleccionada
seleccionadas
seleccionado
seleccionador
seleccionados
seleccionar
selecciones
selecciono
selected
selectiva
selectivo
selena
self
sellado
sello
sellos
selva
selvas
selyu
sema
semana
semanal
semanales
semanalmente
semanario
semanas
semblante
semblanza
semejante
semejantes
semejanza
semestre
semi
semia
semiautoma
semicircular
semifinal
semifinales
semilla
semillas
seminario
seminarios
semio
semos
sen
sena
senado
senador
senadora
senadores
sencilla
sencillamente
sencillas
sencillez
sencillo
sencillos
senda
sendai
sendas
senderismo
sendero
senderos
sendos
senegal
senior
seno
senor
senos
sensacio
sensaciones
sense
sensibilidad
sensible
sensibles
sensor
sensores
sensorial
sensual
sentada
sentado
sentados
sentai
sentarse
sentencia
sentenciado
sentencias
senti
sentido
sentidos
sentimental
sentimiento
sentimientos
sentir
sentirse
sento
seo
seos
sep
sepa
separa
separacio
separada
separadas
separado
separados
separan
separando
separar
separaron
separarse
separatistas
separo
sept
september
septentrional
septentrionales
septiembre
sepu
sepulcro
sepultado
sepultados
sepultura
sequi
ser
sera
serafi
serbia
serbio
serbios
sere
serena
serenidad
sereno
seres
serge
sergei
sergio
sergue
seri
seria
serial
seriamente
serias
serie
seriedad
series
serio
serios
serlo
sermo
sermones
serna
serpiente
serpientes
serra
serrani
serrano
server
servi
service
services
servicio
servicios
servida
servido
servidor
servidores
servidumbre
servir
servira
serviri
ses
sesenta
sesgo
sesio
sesion
sesiones
session
sessions
set
setenta
seth
setiembre
sets
seu
seudo
seung
seven
severa
severamente
severas
severidad
severo
severos
sevilla
sevillana
sevillano
sex
sexenio
sexo
sexos
sexta
sexto
sexual
sexuales
sexualidad
sexualmente
sexy
seychelles
seymour
sf
sfera
sforo
sg
sh
sha
shadow
shadows
shah
shake
shakespeare
shakira
shan
shane
shang
shangha
shanghai
shannon
shao
sharon
sharp
shaw
shawn
she
sheamus
sheffield
shelby
shell
shelley
shepherd
sheridan
sheriff
sherlock
sherman
shi
shield
shift
shin
shine
ship
shirley
shiva
sho
shock
shogunato
shop
shore
short
shot
should
show
shows
shtml
shu
si
sia
siberia
sic
sica
sicamente
sicas
sichuan
sicilia
sicilias
sico
sicos
sid
sida
side
sideru
sidi
sidney
sido
sidonia
sidra
sie
siembra
siemens
siempre
siena
siendo
sienta
siente
sienten
siento
sierra
sierras
siervo
siervos
siete
sig
siga
sigla
siglas
siglo
siglos
sigma
sigmund
sign
significa
significaba
significacio
significado
significados
significan
significando
significar
significari
significativa
significativamente
significativas
significativo
significativos
significo
signo
signos
signs
sigu
sigue
siguen
siguiendo
siguiente
siguientes
siguiera
siguieron
siguio
sil
sila
silence
silencio
silenciosa
silencioso
silent
siles
silesia
silicio
silla
sillares
sillas
silleri
sillo
silos
silueta
siluriformes
silva
silver
silvestre
silvestres
silvia
silvio
sim
sima
simas
simbad
simbo
simbolismo
simboliza
simbolizan
simbologi
sime
simeo
simetri
similar
similares
similitud
similitudes
simmons
simo
simon
simone
simos
simpa
simpati
simpatizantes
simple
simplemente
simples
simplicidad
simplificado
simposio
simpson
sims
simulacio
simular
simulium
simulta
sin
sina
sinagoga
sinai
sinaloa
sinatra
since
sinceridad
sincero
sinclair
sincronizacio
sindical
sindicales
sindicalista
sindicalistas
sindicato
sindicatos
sine
sinfo
sinfoni
sing
singapur
singer
singh
single
singles
singular
singulares
singularidad
siniestro
sino
sinonimia
sinopsis
sint
sinta
sintaxis
sinte
sintetizador
sintetizadores
sintiendo
sintieron
sintio
sintoni
sio
sion
siquiera
sir
siracusa
sirena
siri
siria
sirio
sirios
sirva
sirve
sirven
sirviendo
sirviente
sirvientes
sirvieron
sirvio
sis
sismicidad
sismo
siste
sistema
sistemas
sister
sisters
sit
sita
site
sitelink
sites
sitio
sitiodeciclismo
sitios
sito
sitos
situ
situa
situaba
situacio
situaciones
situada
situadas
situado
situados
situar
situarse
situo
six
sixth
sixto
size
sk
ska
sketch
sketches
ski
skin
skinner
skull
sky
sl
sla
slam
slater
slayer
sleep
slow
sm
smackdown
small
smart
smash
smica
smico
smicos
smile
smith
smiths
smithsonian
smo
sms
sn
snake
snow
snyder
so
soberana
soberani
soberano
soberanos
soberbia
soborno
sobornos
sobre
sobredosis
sobrenatural
sobrenaturales
sobrenombre
sobresale
sobresalen
sobresaliente
sobresalientes
sobrevive
sobreviven
sobrevivido
sobreviviente
sobrevivientes
sobrevivieron
sobrevivio
sobrevivir
sobrina
sobrino
sobrinos
soc
soccer
soccerway
sochi
social
socialdemo
sociales
socialismo
socialista
socialistas
socialmente
socie
sociedad
sociedades
societa
society
socio
socioecono
sociolo
sociologi
socios
socorro
soda
sodio
sofa
sofi
sofia
sofo
sofocar
sofos
soft
software
sois
soja
sol
sola
solamente
solana
solano
solar
solares
solas
soldado
soldados
soldadura
soldier
sole
soledad
solemne
solemnidad
soler
soles
soli
solicita
solicitada
solicitado
solicitando
solicitar
solicitaron
solicito
solicitud
solicitudes
solid
solidaria
solidaridad
solidario
solidez
solista
solistas
solitaria
solitario
solitarios
solo
solomon
solos
solowrestling
soltera
soltero
solteros
soluble
solucio
solucionar
soluciones
som
soma
somali
somalia
sombra
sombras
sombrero
sombreros
sombri
some
somerset
somete
someter
someterse
something
sometida
sometidas
sometido
sometidos
sometio
somme
somos
somoza
son
sonar
sonata
sonatas
sonda
soneto
sonetos
song
songs
sonia
sonic
sonido
sonidos
sonny
sono
sonora
sonoras
sonoro
sonrei
sonrisa
sons
sony
soo
sopa
sopas
sophia
sophie
soplo
soporta
soportan
soportar
soporte
soportes
soprano
sor
sora
sorbona
sorda
sordo
soria
soriano
sorprende
sorprendente
sorprendentemente
sorprendido
sorprendio
sorpresa
sorteo
sos
sosa
sospecha
sospechar
sospechas
sospechoso
sospechosos
sostener
sosteni
sostenibilidad
sostenible
sostenida
sostenido
sostenidos
sosteniendo
sostiene
sostienen
sostuvo
sotelo
soto
sotomayor
soul
sound
sounds
soundtrack
source
sources
sous
sousa
south
southampton
southern
southwest
souza
sovie
soviet
soy
soyuz
sp
spa
space
spacewatch
spain
spanish
spd
spears
spec
special
species
spectrum
sped
spedes
speed
spencer
spera
speras
spero
spi
spide
spider
spielberg
spike
spin
spinetta
spirit
split
spora
sport
sportando
sporting
sportiva
sportivo
sports
spot
spotify
spp
spring
springer
springfield
springs
sprint
spurs
sputnik
spy
sqrt
squad
square
squeda
squedas
squet
squetbol
squez
sr
sra
sri
ss
sseldorf
st
sta
stable
stacy
stade
stadium
staff
stafford
stage
stalin
stalingrado
stamo
stamos
stan
stand
standard
standing
stanford
stanley
star
stargate
stark
starr
stars
start
stas
stata
state
states
station
statistical
statistics
stats
status
stay
ste
steam
steel
steele
stefan
stefano
stegui
stein
steiner
stella
stenes
step
stephanie
stephen
stephens
ster
stereo
steres
sterling
stern
steve
steven
stevens
stevenson
stevie
stewart
sti
stica
sticamente
sticas
stico
sticos
stil
stiles
still
stima
sting
stirling
stito
sto
stock
stokes
stol
stola
stoles
stone
stones
stop
stor
store
storia
stories
storm
story
stos
straight
strand
strange
stranger
strauss
streaming
street
strike
string
strofe
strofes
strong
structure
sts
stu
stuart
studies
studio
studios
study
stuma
stumamente
stumo
stuttgart
style
styles
su
sua
suabia
suave
suavemente
suaves
sub
suba
subasta
subcampeo
subcampeona
subcampeonato
subconjunto
subcontinente
subdirector
subdivisio
subdivisiones
sube
suben
subespecie
subespecies
subfamilia
subge
subgrupo
subgrupos
subi
subida
subido
subiendo
subieron
subio
subir
sublevacio
sublevado
sublevados
sublime
submarina
submarino
submarinos
suboficiales
suborden
subordinado
subordinados
subsahariana
subsecretari
subsecretario
subsidiaria
subsidio
subsidios
subsiguiente
subsistencia
subsp
subsuelo
subteniente
subterra
subti
subtropical
subtropicales
suburbio
suburbios
subvencio
subvenciones
subyacente
sucede
suceden
suceder
sucedi
sucedido
sucediendo
sucedieron
sucedio
sucesio
sucesivamente
sucesivas
sucesivo
sucesivos
suceso
sucesor
sucesora
sucesores
sucesos
sucia
sucio
sucre
sucursal
sucursales
sud
suda
sudafricana
sudafricano
sudame
sudamericana
sudamericano
sudamericanos
sudeste
sudoeste
sudor
sue
sueca
suecia
sueco
suecos
suegro
sueldo
sueldos
suele
suelen
suelo
suelos
suelta
sueltas
suelto
sueltos
suen
suena
suero
suerte
suez
suffolk
suficiente
suficientemente
suficientes
sufijo
sufraga
sufragio
sufragios
sufre
sufren
sufri
sufrida
sufridas
sufrido
sufriendo
sufrieron
sufrimiento
sufrio
sufrir
sugar
sugerencia
sugerencias
sugeri
sugerido
sugerir
sugiere
sugieren
sugiriendo
sugirieron
sugirio
sui
suicida
suicidarse
suicidas
suicide
suicidio
suicidios
suicido
suit
suite
suites
suiza
suizo
suizos
sujecio
sujeta
sujetas
sujeto
sujetos
sul
sula
sulfato
sullivan
sulta
sultan
sultanato
sum
suma
sumaban
sumado
sumamente
suman
sumando
sumar
sumario
sumaron
sumarse
sumas
sumatra
sumergido
suministrar
suministro
suministros
sumisio
summary
summer
summers
summerslam
summit
sumo
sun
sundance
sunday
sunderland
sung
sunny
suns
sunset
sunshine
sunt
supe
super
supera
superaba
superacio
superada
superado
superan
superando
superar
superaron
superboy
supercopa
superfamilia
superficial
superficiales
superficie
superficies
supergirl
superhe
superintendencia
superintendente
superior
superiores
superioridad
superliga
superman
supermercado
supermercados
supernova
supero
superposicio
superso
superstar
supervisar
supervisio
superviso
supervisor
supervivencia
superviviente
supervivientes
suplemento
suplementos
suplente
suplentes
suplico
supo
supone
suponen
suponer
suponi
suponiendo
suposicio
support
suprema
supremaci
supremo
supresio
suprimida
suprimido
suprimio
suprimir
supuesta
supuestamente
supuestas
supuesto
supuestos
supusieron
supuso
sur
suramericanos
surco
surcoreana
surcoreano
surcos
suren
sureste
surf
surge
surgen
surgida
surgido
surgiendo
surgieron
surgimiento
surgio
surgir
surinam
suroeste
surrealismo
surrealista
surrey
survey
survival
survivor
sus
susan
susana
susceptible
susceptibles
suscito
suscribe
suscripcio
suscriptores
suscrito
suspender
suspendida
suspendido
suspendidos
suspendio
suspensio
suspenso
suspiro
sussex
sustancia
sustancial
sustanciales
sustancialmente
sustancias
sustantivo
sustantivos
sustentable
sustento
sustitucio
sustituciones
sustituida
sustituido
sustituidos
sustituir
sustituto
sustituye
sustituyendo
sustituyo
sustrato
sutherland
sutil
sutiles
sutra
sutton
suya
suyas
suyo
suyos
suzanne
suzuki
sv
svg
sw
swan
sweet
swift
swing
switch
sword
sydney
sylvia
symphony
syst
system
systema
systematic
systematics
systems
t
ta
tab
tabaco
tabasco
taberna
tabla
tablas
table
tablero
tables
taboada
tabu
tac
tacna
taco
tacto
tadeo
tae
taekwondo
taekwondodata
tag
tagle
tahiti
tai
taifa
tail
tailande
tailandia
taipe
taiwa
tajo
takahashi
take
takes
tal
tala
talavera
talbot
talca
talcahuano
tale
talent
talento
talentos
tales
talibanes
talk
talking
talla
tallada
talladas
tallado
tallados
tallas
taller
talleres
tallin
tallo
tallos
talo
talos
tam
tama
taman
tamara
tamaulipas
tamayo
tambie
tambien
tambo
tambor
tambores
tamil
tampa
tampico
tampoco
tan
tanaka
tanda
tandil
tang
tangente
tango
tangos
tania
tank
tanko
tano
tanos
tanque
tanques
tanta
tantas
tanto
tantos
tanzania
tao
taoi
tapa
tapas
tapia
tapices
tapiz
tapones
tappan
taquilla
tar
tara
tarapaca
tarazona
tarda
tardar
tarde
tardes
tardi
tardo
tarea
tareas
target
tarifa
tarifas
tarija
tarjeta
tarjetas
taro
tarragona
tarrasa
tarso
tartu
tas
tasa
tasas
task
tasmania
tata
tate
tatiana
tau
taurino
tauro
tauromaquia
taurus
taxi
taxis
taxo
taxon
taxones
taxono
taxonomi
taxonomic
taxonomy
tayikista
taylor
taza
tb
tbol
tc
td
tdt
te
tea
team
teams
tears
teatral
teatrales
teatro
teatros
teau
tebas
tec
tech
technical
techno
technologies
technology
techo
techos
tecla
teclado
teclados
teclas
teclista
tecno
tecnolo
tecnologi
tecto
ted
teddy
tedra
tedras
teen
tegucigalpa
tegui
tehera
teja
tejada
tejado
tejados
tejas
tejido
tejidos
tejo
tel
tela
telas
tele
telecinco
telecomunicaciones
telefe
telefilme
telefo
telefoni
telegra
telegrama
telegraph
telemundo
telenovela
telenovelas
teles
telescopio
telescopios
teleto
televisa
televisio
television
televisiva
televisivas
televisivo
televisivos
tell
telleldi
tello
telmo
telo
tem
tema
temas
temblor
teme
temer
temi
temiendo
temor
temores
temperamento
temperatura
temperaturas
tempestad
templadas
templado
templados
templarios
temple
templo
templos
tempo
temporada
temporadas
temporal
temporales
temporalmente
temprana
tempranas
temprano
tempranos
temps
temuco
ten
tena
tenaz
tendencia
tendencias
tendi
tendido
tendra
tendremos
tendri
tene
tenemos
tenencia
tener
tenerife
tenerse
tenga
tengan
tengo
teni
tenia
tenido
teniendo
teniente
tenientes
tenis
tenista
tenistas
tennessee
tennis
tenor
tenorio
tensa
tensio
tensiones
tensor
tenta
tentacio
tentativa
teo
teodoro
teodosio
teolo
teologi
teorema
teori
tephritidae
ter
tera
terape
terapia
terapias
tercer
tercera
terceras
tercero
terceros
terciario
tercio
terciopelo
tercios
terdam
tere
teres
teresa
termales
termas
termina
terminaba
terminacio
terminada
terminadas
terminado
terminados
terminal
terminales
terminan
terminando
terminar
terminara
terminari
terminaron
termine
termino
terminologi
termo
termodina
ternura
tero
teros
terra
terracota
terranova
terrateniente
terratenientes
terraza
terrazas
terre
terremoto
terremotos
terreno
terrenos
terrestre
terrestres
terrible
terribles
territorial
territoriales
territorio
territorios
terror
terrorismo
terrorista
terroristas
terry
tertulia
tertulias
teruel
tervuren
tes
tesalia
tesalo
tese
tesis
tesla
tesoreri
tesorero
tesoro
tesoros
test
testament
testamento
testi
testigo
testigos
testimonio
testimonios
tests
teto
tetos
tetua
teuto
tex
texas
texcoco
text
textcolor
textil
textiles
texto
textos
textual
textura
texturas
tez
tf
tfrac
th
tha
thai
thames
than
thanos
that
thatcher
the
theater
theatre
their
them
theme
then
theo
theodor
theodore
theory
there
these
theta
they
thierry
thing
things
think
third
this
thomas
thompson
thomson
thor
thought
thousand
thrash
threat
threatened
three
thriller
through
thumb
thumbnail
thunder
thys
ti
tiberio
tibetano
tibia
tiburo
tiburones
tic
tica
ticamente
ticas
tico
ticos
tido
tidos
tie
tiempo
tiempos
tienda
tiendas
tiende
tienden
tiene
tienen
tienes
tienne
tierna
tierno
tierra
tierras
tiffany
tiflis
tifo
tiger
tigers
tigo
tigre
tigres
tijuana
til
tiles
till
tillandsia
tim
tima
timas
timbre
time
timeaxis
times
timo
timor
timos
timoteo
timothy
tin
tina
tinieblas
tino
tinta
tinte
tintes
tinti
tinto
tip
tipo
tipogra
tipografi
tipologi
tipos
tira
tirada
tirado
tirador
tiradores
tirana
tirando
tirani
tirano
tirar
tiras
tiro
tirol
tiros
tiroteo
tirso
tita
titanes
titanic
titanio
titans
title
tito
titula
titulada
titulado
titular
titulares
titularidad
titulo
tiziano
tko
tlaxcala
tlc
tm
tmica
tmico
tn
tna
tnica
tnicas
tnico
tnicos
tnt
to
toba
tobago
tobias
tobillo
toby
toca
tocaba
tocaban
tocada
tocado
tocan
tocando
tocar
tocaron
toco
tocornal
toda
todas
todavi
today
todd
todo
todos
together
togo
toiso
tokai
tokio
tokugawa
tokyo
toledo
tolerancia
tolima
tolkien
tolosa
toluca
tom
toma
tomaba
tomaban
tomada
tomadas
tomado
tomados
toman
tomando
tomar
tomara
tomari
tomaron
tomarse
tomas
tomate
tomatoes
tome
tomen
tommy
tomo
tomorrow
tomos
ton
tonalidad
tonalidades
toneladas
tonga
toni
tonight
tono
tonos
tonto
tony
too
top
tope
topo
topogra
topografi
topolo
topologi
toponimia
topos
toque
toques
tor
tora
toreo
torero
toreros
tori
toribio
torino
tormenta
tormentas
tormento
tormes
torna
tornado
torneo
torneos
torno
toro
toronto
toros
torpe
torpedo
torpedos
torre
torrejo
torrente
torreo
torres
torreta
torsio
torso
tortosa
tortuga
tortugas
tortura
torturado
torturas
tos
tosca
toscana
toscano
total
totales
totalidad
totalmente
toto
tottenham
touch
toulouse
touma
tour
tournament
tours
tov
tovar
tower
town
township
toxicidad
toy
toyota
tp
tr
tra
trabaja
trabajaba
trabajaban
trabajado
trabajador
trabajadora
trabajadoras
trabajadores
trabajan
trabajando
trabajar
trabajaron
trabajo
trabajos
traccio
tracia
track
tracks
tracto
tractores
tracy
trad
trade
tradicio
tradicional
tradicionales
tradicionalista
tradicionalmente
tradiciones
tradition
traduccio
traducciones
traduce
traducida
traducidas
traducido
traducidos
traducir
traductor
traductora
traductores
tradujo
trae
traen
traer
tragedia
tragedias
trai
traicio
traicionado
traidor
traidores
trail
train
training
trajano
traje
trajeron
trajes
trajo
trama
tramas
tramitacio
tramo
tramos
trampa
trampas
trampoli
trance
tranquila
tranquilas
tranquilidad
tranquilo
trans
transaccio
transacciones
transactions
transatla
transbordador
transcripcio
transcurre
transcurrido
transcurrio
transcurso
transepto
transeu
transferencia
transferencias
transferida
transferido
transferidos
transferir
transfermarkt
transfirio
transforma
transformacio
transformaciones
transformada
transformado
transforman
transformar
transformarse
transformers
transformo
transge
transicio
transiciones
transilvania
transit
transitoria
transitorio
translated
translation
transmisio
transmisiones
transmisor
transmite
transmiten
transmiti
transmitida
transmitido
transmitidos
transmitio
transmitir
transparencia
transparente
transparentes
transport
transporta
[...]
