!
"
#
##0
##1
##10
##11
##12
##13
##14
##15
##16
##17
##18
##19
##2
##20
##21
##22
##23
##24
##25
##26
##27
##28
##29
##3
##30
##31
##32
##33
##34
##35
##36
##37
##38
##39
##4
##40
##41
##42
##43
##44
##45
##46
##47
##48
##49
##5
##50
##51
##52
##53
##54
##55
##56
##57
##58
##59
##6
##60
##61
##62
##63
##64
##65
##66
##67
##68
##69
##7
##70
##71
##72
##73
##74
##75
##76
##77
##78
##79
##8
##80
##81
##82
##83
##84
##85
##86
##87
##88
##89
##9
##90
##91
##92
##93
##94
##95
##96
##97
##98
##99
$
%
&
'
(
)
*
+
,
-
.
/
0
00
000
0004
0006
001
002
0022
00238
003
004
005
006
007
008
009
01
010
011
012
013
02
020
0210
0212
03
033
0362
04
05
0570
059
06
07
08
0896
09
1
10
100
1000
1001
1002
1007
101
1016
1017
102
1021
103
1038
104
105
106
107
1073
108
1080
1086
109
1093
1097
1098
1099
11
110
1100
1103
111
1111
112
1126
113
1130
1134
1136
114
115
116
117
1177
118
1186
119
12
120
1200
1204
121
122
123
124
125
1250
126
127
128
129
13
130
1300
131
132
133
134
135
1350
136
1365
137
1371
138
13894357
139
14
140
1400
141
142
143
144
1440
145
1450
1453
146
1460
147
1470
1471
1475
148
1480
149
1490
1492
1493
1499
15
150
1500
1503
151
1510
1512
1515
1516
1517
1519
152
1520
1521
1522
1523
1524
1525
1526
1527
1528
1529
153
1530
1531
1532
1533
1534
1535
1536
1537
1538
1539
154
1540
1541
1542
1543
1544
1545
1546
1547
1548
1549
155
1550
1551
1552
1553
1554
1555
1556
1557
1558
1559
156
1560
1561
1562
1563
1564
1565
1566
1567
1568
1569
157
1570
1571
1572
1573
1574
1575
1576
1577
1578
1579
158
1580
1581
1582
1583
1584
1585
1586
1587
1588
1589
159
1590
1591
1592
1593
1594
1595
1596
1597
1598
1599
16
160
1600
1601
1602
1603
1604
1605
1606
1607
1608
1609
161
1610
1611
1612
1613
1614
1615
1616
1617
1618
1619
162
1620
1621
1622
1623
1624
1625
1626
1627
1628
1629
163
1630
1631
1632
1633
1634
1635
1636
1637
1638
1639
164
1640
1641
1642
1643
1644
1645
1646
1647
1648
1649
165
1650
1651
1652
1653
1654
1655
1656
1657
1658
1659
166
1660
1661
1662
1663
1664
1665
1666
1667
1668
1669
167
1670
1671
1672
1673
1674
1675
1676
1677
1678
1679
168
1680
1681
1682
1683
1684
1685
1686
1687
1688
1689
169
1690
1692
1693
1694
1695
1696
1697
1698
1699
17
170
1700
1701
1702
1703
1704
1705
1706
1707
1708
1709
171
1710
1711
1712
1713
1714
1715
1716
1717
1718
1719
172
1720
1721
1722
1723
1724
1725
1726
1727
1728
1729
173
1730
1731
1732
1733
1734
1735
1736
1737
1738
1739
174
1740
1741
1742
1743
1744
1745
1746
1747
1748
1749
175
1750
1751
1752
1753
1754
1755
1756
1757
1758
1759
176
1760
1761
1762
1763
1764
1765
1766
1767
1768
1769
177
1770
1771
1772
1773
1774
1775
1776
1777
1778
1779
178
1780
1781
1782
1783
1784
1785
1786
1787
1788
1789
179
1790
1791
1792
1793
1794
1795
1796
1797
1798
1799
18
180
1800
1801
1802
1803
1804
1805
1806
1807
1808
1809
181
1810
1811
1812
1813
1814
1815
1816
1817
1818
1819
182
1820
1821
1822
1823
1824
1825
1826
1827
1828
1829
183
1830
1831
1832
1833
1834
1835
1836
1837
1838
1839
184
1840
1841
1842
1843
1844
1845
1846
1847
1848
1849
185
1850
1851
1852
1853
1854
1855
1856
1857
1858
1859
186
1860
1861
1862
1863
1864
1865
1866
1867
1868
1869
187
1870
1871
1872
1873
1874
1875
1876
1877
1878
1879
188
1880
1881
1882
1883
1884
1885
1886
1887
1888
1889
189
1890
1891
1892
1893
1894
1895
1896
1897
1898
1899
19
190
1900
1901
1902
1903
1904
1905
1906
1907
1908
1909
191
1910
1911
1912
1913
1914
1915
1916
1917
1918
1919
192
1920
1921
1922
1923
1924
1925
1926
1927
1928
1929
193
1930
1931
1932
1933
1934
1935
1936
1937
1938
1939
194
1940
1941
1942
1943
1944
1945
1946
1947
1948
1949
195
1950
1951
1952
1953
1954
1955
1956
1957
1958
1959
196
1960
1961
1962
1963
1964
1965
1966
1967
1968
1969
197
1970
1971
1972
1973
1974
1975
1976
1977
1978
1979
198
1980
1981
1982
1983
1984
1985
1986
1987
1988
1989
199
1990
1991
1992
1993
1994
1995
1996
1997
1998
1999
2
20
200
2000
2001
2002
2003
2004
2005
2006
2007
2008
2009
201
2010
2011
2012
2013
2014
2015
2016
2017
2018
2019
202
2020
2021
2022
2023
2024
2025
203
2030
204
205
206
207
208
209
21
210
2100
211
212
213
214
215
216
217
218
219
22
220
2200
221
222
223
224
225
226
227
228
229
23
230
2300
2307
231
232
233
234
235
236
237
238
239
24
240
2400
241
242
243
244
245
246
247
248
249
25
250
2500
251
252
253
254
255
256
257
258
259
26
260
2600
261
262
263
264
265
266
267
268
269
27
270
271
272
273
274
275
276
277
278
279
28
280
281
282
283
284
285
286
287
288
289
29
290
2905
291
292
293
294
295
296
297
298
299
3
30
300
3000
301
302
303
304
305
306
307
308
309
31
310
311
312
313
314
315
316
3166
317
318
319
32
320
321
322
323
324
325
326
327
328
329
33
330
331
332
333
334
335
336
337
338
339
34
340
341
342
343
344
345
346
347
348
349
35
350
3500
351
352
353
354
355
356
357
358
359
36
360
361
362
363
364
365
366
367
368
369
37
370
371
372
373
374
375
376
377
378
379
38
380
381
382
383
384
385
386
387
388
389
39
390
391
392
393
394
395
396
397
398
399
4
40
400
4000
401
402
403
404
405
406
407
408
409
41
410
411
412
413
414
415
416
417
418
419
42
420
421
422
423
424
425
426
427
428
429
43
430
431
432
433
4331
434
435
436
437
438
439
44
440
441
442
443
444
445
446
447
448
449
45
450
451
452
453
454
455
456
457
458
459
46
460
461
462
463
464
465
466
467
468
469
47
470
471
472
473
474
475
476
477
478
479
48
480
481
482
483
484
485
486
487
488
489
49
490
491
492
493
494
495
496
497
498
499
5
50
500
5000
501
502
503
504
505
506
507
508
509
51
510
511
512
513
514
515
516
517
518
519
52
520
521
522
523
524
525
526
527
528
529
53
530
531
532
533
534
535
536
537
538
539
54
540
541
542
543
544
545
546
547
548
549
55
550
551
552
553
554
555
556
557
558
559
56
560
561
562
563
565
566
567
568
569
57
570
571
573
574
575
576
577
579
58
580
581
582
583
584
585
586
587
589
59
590
591
592
593
595
596
597
598
599
6
60
600
6000
601
602
603
604
605
606
607
608
609
61
610
611
612
613
614
615
616
617
618
62
620
623
625
628
629
63
630
631
634
635
637
639
64
640
641
642
643
645
646
65
650
653
655
6582
66
660
664
666
667
669
67
670
671
674
675
679
68
680
684
688
69
690
691
697
7
70
700
7000
701
705
707
71
710
711
72
720
727
73
730
7358
737
74
740
747
75
750
757
76
760
767
77
770
774
777
78
780
787
79
8
80
800
8000
801
8018
802
807
808
81
810
82
820
8235
83
830
84
840
8423992543
8460014142
847
85
850
86
860
87
870
875
88
880
89
9
90
900
9000
91
910
911
92
93
94
940228
95
950
956
958
96
960
968
97
970
978
98
980
987
99
990
9972
999
:
;
<
=
>
?
@
[
\
]
^
_
`
a
aa
aaa
aaro
aaron
aas
ab
aba
abad
abadesa
abadi
abajo
aban
abandona
abandonada
abandonadas
abandonado
abandonados
abandonan
abandonando
abandonar
abandonara
abandonaron
abandono
abanico
abarca
abarcaba
abarcan
abarcando
abarcar
abastecer
abastecimiento
abate
abatido
abba
abbas
abbey
abbott
abc
abd
abdomen
abdominal
abdul
abdullah
abe
abeja
abejas
abel
abelardo
aber
aberdeen
abertura
aberturas
abierta
abiertamente
abiertas
abierto
abiertos
abigail
abismo
abjasia
able
abogaci
abogada
abogado
abogados
abolicio
aborda
abordar
abordo
abori
aborigen
aborto
about
above
abra
abraham
abrams
abraza
abrazo
abre
abren
abreu
abreviada
abreviado
abreviatura
abri
abriendo
abrieron
abrigo
abril
abrio
abrir
abrira
abrirse
abs
absoluta
absolutamente
absoluto
absorbe
absorber
absorbida
absorbido
absorcio
abstraccio
abstract
abstracta
abstracto
absuelto
absurdo
abu
abuela
abuelo
abuelos
abundan
abundancia
abundante
abundantes
abuse
abuso
abusos
ac
aca
acaba
acababa
acabada
acabado
acabados
acaban
acabando
acabar
acabara
acabari
acabaron
acabe
acabo
acacia
acad
acade
academia
academias
academic
academy
acantilado
acantilados
acapulco
acas
acaso
acb
accede
acceder
accedido
accedio
accesibilidad
accesible
accesibles
acceso
accesorios
accesos
access
accessed
accident
accidental
accidentalmente
accidente
accidentes
accio
accionar
acciones
accionista
accionistas
according
account
ace
aceite
aceites
aceleracio
acelerado
acelerar
acelero
acento
acepcio
acepta
aceptable
aceptacio
aceptada
aceptadas
aceptado
aceptados
aceptan
aceptando
aceptar
aceptaron
acepto
acera
acerca
acercaba
acercamiento
acercan
acercarse
acerco
acero
acervo
acevedo
acha
acid
acierto
acio
aclamacio
aclamada
aclamado
aclara
aclarar
aclaro
acm
aco
acoge
acoger
acogida
acogido
acogio
acomodada
acomodar
acompan
aconcagua
acondicionado
aconseja
aconsejo
acontecimiento
acontecimientos
acoplamiento
acorazado
acorazados
acordado
acordar
acordaron
acorde
acordeo
acordes
acordo
acos
acoso
acosta
acostumbrado
acre
acreditacio
acreditada
acreditado
acreditar
acreedor
acreedores
acres
acro
acroba
across
act
acta
actas
action
actitud
actitudes
activa
activacio
activamente
activar
activas
active
actividad
actividades
activismo
activista
activistas
activity
activo
activos
acto
actor
actores
actors
actos
actress
actrices
actriz
actu
actuaba
actuacio
actuaciones
actuado
actual
actuales
actualidad
actualizacio
actualizaciones
actualizada
actualizado
actualizados
actualizar
actualmente
actuando
actuar
actuara
actuaron
actuo
acu
acua
acuarela
acuario
acude
acuden
acudi
acudieron
acudio
acudir
acueducto
acuerda
acuerdo
acuerdos
acui
acumula
acumulacio
acumulada
acumulado
acumular
acumulo
acun
acusa
acusacio
acusaciones
acusada
acusado
acusados
acusaron
acusativo
acuso
ad
ada
adam
adams
adapta
adaptacio
adaptaciones
adaptada
adaptadas
adaptado
adaptados
adaptar
adaptarse
adaptation
adapto
adas
add
added
addison
address
adds
ade
adecuacio
adecuada
adecuadamente
adecuadas
adecuado
adecuados
adela
adelaida
adelaide
adelanta
adelantado
adelante
adelanto
adele
adema
ademuz
aden
adentra
adentro
ades
adhesio
adhirio
adi
adiccio
adicio
adicional
adicionales
adicionalmente
adiciones
adida
adidas
adido
adidos
adiendo
adieron
adif
adio
adir
adivinar
adjetivo
adjetivos
adjudicacio
adjudico
adjunta
adjunto
adler
administra
administracio
administraciones
administrada
administrado
administrador
administradores
administrar
administration
administrativa
administrativamente
administrativas
administrativo
administrativos
admira
admirable
admiracio
admirado
admirador
admiradores
admirar
admisio
admite
admiten
admitido
admitio
admitir
adn
ado
adobe
adolescencia
adolescente
adolescentes
adolf
adolfo
adonde
adopcio
adopta
adoptada
adoptadas
adoptado
adoptando
adoptar
adoptaron
adoptivo
adopto
ador
adora
adoracio
adores
adornada
adornado
adorno
adornos
ados
adquiere
adquieren
adquirida
adquiridas
adquirido
adquiridos
adquiriendo
adquirieron
adquirio
adquirir
adquisicio
adquisiciones
adria
adrian
adriana
adriano
adscrito
aduana
aduanas
adult
adulta
adultas
adulterio
adultfilmdatabase
adulto
adultos
advance
advanced
advances
advenimiento
adventure
adventures
adversario
adversarios
adversos
advertencia
advertencias
advertido
advertir
advierte
advirtio
advisory
advocacio
adyacente
adyacentes
ae
aero
aerodina
aeroespacial
aeroli
aerona
aeronave
aeronaves
aeropuerto
aeropuertos
aew
af
afa
afc
afecta
afectada
afectadas
afectado
afectados
afectan
afectando
afectar
afectaron
afecto
afectos
affair
affairs
afganista
afghanistan
afi
aficio
aficionado
aficionados
afiliacio
afiliada
afiliadas
afiliado
afiliados
afilio
afines
afinidad
afirma
afirmaba
afirmacio
afirmaciones
afirmado
afirman
afirmando
afirmar
afirmaron
afirmativo
afirmo
afluencia
afluente
afluentes
aforo
afortunadamente
afp
africa
african
africana
africanas
africano
africanos
afrika
afrique
afro
afroamericanos
afrontar
after
afuera
afueras
ag
aga
again
against
age
agencia
agencias
agency
agenda
agent
agente
agentes
agents
ages
agglutinated
agilidad
agitacio
aglomeracio
agnes
ago
agoni
agora
agosto
agotado
agotamiento
agradable
agradables
agradecimiento
agrado
agraria
agrarias
agrario
agreement
agrega
agregada
agregado
agregados
agregan
agregando
agregar
agregaron
agrego
agresio
agresiones
agresiva
agresivo
agri
agricultor
agricultores
agricultura
agricultural
agriculture
agrilus
agro
agropecuaria
agropecuario
agrupa
agrupacio
agrupaciones
agrupadas
agrupados
agrupan
agu
agua
aguado
aguardiente
aguas
aguascalientes
aguda
agudas
agudo
agudos
aguilar
aguilera
aguirre
aguja
agujas
agujero
agujeros
agusti
agustina
agustinos
ah
ahead
ahi
ahmad
ahmed
ahn
ahora
ahorrar
ahorro
ahorros
ai
aid
aida
aim
aime
ain
air
airbus
aircraft
aire
aires
airline
airlines
airplay
airport
airways
ais
aise
aislada
aisladas
aislado
aislados
aislamiento
aislar
aix
aj
ajax
ajedrez
ajena
ajenas
ajeno
ajenos
ajo
ajuntament
ajusta
ajustado
ajustar
ajuste
ajustes
ak
aka
akademie
akal
aki
akira
al
ala
alaba
alabama
alabanza
alabo
alada
aladas
alado
alados
alah
alain
alajuelense
alambre
alameda
alan
alando
alar
alarco
alarcos
alargada
alargado
alarma
alaron
alas
alaska
alave
alba
albacete
albaige
alban
albane
albania
albany
albarraci
albedo
alberdi
alberga
albergaba
albergan
albergar
albergo
albergue
albert
alberta
alberti
alberto
albin
albion
albo
albornoz
albrecht
album
albums
albuquerque
alca
alcaide
alcala
alcalde
alcaldes
alcaldesa
alcaldi
alcan
alcance
alcantarillado
alcanza
alcanzaba
alcanzada
alcanzado
alcanzan
alcanzando
alcanzar
alcanzara
alcanzari
alcanzaron
alcanzo
alcaraz
alcoba
alcoho
alcohol
alcoholismo
alcoy
aldea
aldeanos
aldeas
aldo
ale
aleacio
aleatoria
aleatorio
alec
aledan
alegando
alego
alegori
alegre
alegres
alegri
aleja
alejada
alejado
alejados
alejamiento
alejandra
alejandri
alejandro
alejarse
alejo
aleksandr
alekse
alema
alemana
alemanas
alemanes
alemania
alento
alepo
alero
alerta
ales
alessandro
aleta
aletas
alex
alexa
alexander
alexandra
alexandre
alexandria
alexis
aleyrodidae
alf
alfa
alfabe
alfabetizacio
alfabeto
alfaguara
alfareri
alfaro
alfe
alfombra
alfombras
alfonsi
alfonso
alfred
alfredo
algas
alge
algeciras
algo
algodo
algoritmo
algoritmos
algu
alguacil
alguien
algun
alguna
algunas
alguno
algunos
alhambra
ali
aliada
aliadas
aliado
aliados
alianza
alianzas
alias
alicante
alice
alicia
alien
alieni
aliento
aligned
alimenta
alimentacio
alimentado
alimentan
alimentar
alimentaria
alimentarse
alimenticios
alimento
alimentos
alineacio
alio
alison
alisto
alive
aliviar
alivio
alizacio
all
alla
allan
alle
allegro
allen
allende
aller
allgemeine
alli
alliance
allison
allkpop
allmovie
allmusic
alma
almace
almacena
almacenados
almacenamiento
almacenar
almacenes
almagro
almas
almeida
almendra
almeri
almirantazgo
almirante
almost
almudena
almuerzo
alo
aloe
aloja
alojamiento
alojar
alone
along
alonso
alpes
alpha
alphonse
alpina
alpine
alpino
alqueri
alquilar
alquiler
alquimia
alrededor
alrededores
als
alsacia
alsina
also
alt
alta
altamente
altamira
altamirano
altar
altares
altas
alte
alter
altera
alteracio
alteraciones
alterado
alterar
alterna
alternando
alternas
alternativa
alternativamente
alternativas
alternative
alternativo
alternativos
alterno
alteza
alti
altiplano
altitud
altitudes
alto
altos
altura
alturas
alude
aludiendo
alumbrado
aluminio
alumna
alumnado
alumni
alumno
alumnos
alusio
alva
alvarado
alvarez
alvear
alves
alvin
always
alza
alzamiento
alzheimer
alzo
am
ama
amaba
amable
amada
amadeo
amadeus
amado
amador
amalia
aman
amanda
amanecer
amante
amantes
amar
amarga
amargo
amargura
amarilla
amarillas
amarillento
amarillo
amarillos
amaro
amas
amat
amateur
amaya
amazing
amazo
amazon
amazonas
amazoni
amazonia
amb
ambas
ambassador
amber
amberes
ambicio
ambiciones
ambicioso
ambientada
ambientado
ambiental
ambientales
ambiente
ambientes
ambigu
ambos
ambrose
ambrosio
ambulancia
amc
amd
ame
amelia
amenaza
amenazaba
amenazada
amenazadas
amenazado
amenazando
amenazas
amenazo
amente
amer
america
american
americana
americanas
americano
americanos
americans
americas
amerindios
ames
ametralladora
ametralladoras
ami
amiento
amiga
amigas
amigo
amigos
aminoa
amir
amistad
amistades
amistoso
amistosos
amnisti
amo
among
amor
amore
amores
amorosa
amoroso
amos
amour
amp
amparo
amphibian
ampli
amplia
ampliacio
ampliada
ampliado
ampliamente
ampliando
ampliar
amplias
amplio
amplios
amplitud
amsterdam
amy
an
ana
anagrama
anahi
anal
anales
anali
analista
analistas
analiza
analizar
analo
analogi
analysis
anaranjado
anarqui
anarquismo
anarquista
anarquistas
anas
anastasia
anastasio
anato
anatolia
anatomi
anatomy
anaya
ancestral
ancestrales
ancestro
ancestros
ancha
anchas
ancho
anchos
anchura
anciana
anciano
ancianos
ancient
ancla
and
anda
andaba
andadura
andaluces
andaluci
andalusi
andaluz
andaluza
andan
andando
andante
andar
ande
andenes
anders
andersen
anderson
andersson
andes
andina
andino
ando
andorra
andrade
andre
andrea
andreas
andreeva
andrei
andres
andreu
andrew
andrews
andro
android
andu
andy
ane
anemia
anexio
anexo
anexos
anfibio
anfibios
anfiteatro
anfitrio
anfitriona
ange
angel
angela
angeles
angelina
angelo
angels
angle
anglicana
anglo
anglosajo
angola
angostura
angular
angulo
angus
angustia
angustias
anhalt
anhelo
ani
anillo
anillos
anima
animacio
animaciones
animada
animadas
animado
animador
animados
animal
animales
animals
animar
animated
animation
anime
animo
anita
aniversario
anjou
ankara
ann
anna
annales
annals
anne
anni
annie
anniversary
anno
annotated
announce
announced
announces
annual
ano
anoche
anochecer
anomali
anormal
anos
anota
anotacio
anotaciones
anotado
anotador
anotados
anotando
anotar
another
anoto
ans
anse
anselmo
ansi
ansia
ansiedad
ant
anta
antago
antagonista
antan
antarctic
ante
antecedente
antecedentes
antecesor
antemano
antena
antenas
antepasado
antepasados
antequera
anterior
anteriores
anterioridad
anteriormente
antes
anthaxia
anthology
anthony
anthropology
anti
antiae
antibio
anticipacio
anticuado
anticuerpos
antigu
antigua
antiguamente
antiguas
antiguo
antiguos
antillas
antioquen
antioqui
antioquia
antiquity
antisemitismo
antitanque
anto
antofagasta
antoine
antologi
anton
antoni
antonia
antonieta
antonino
antonio
antony
antorcha
antropo
antropolo
antropologi
anual
anuales
anualmente
anuario
anulacio
anular
anuncia
anunciaba
anunciacio
anunciada
anunciado
anuncian
anunciando
anunciar
anunciaron
anuncio
anuncios
anuro
anverso
any
anza
anzas
anzoa
ao
ap
apa
apache
apagado
apago
aparato
aparatos
aparcamiento
aparece
aparecen
aparecer
aparecera
apareceri
apareci
aparecido
apareciendo
aparecieron
aparecio
aparente
aparentemente
aparicio
apariciones
apariencia
apariencias
aparta
apartado
apartados
apartamento
apartamentos
aparte
apartheid
aparto
apasionado
ape
apeadero
apego
apelacio
apelaciones
apelativo
apellido
apellidos
apenas
apertura
apetito
api
aplausos
aplica
aplicable
aplicables
aplicacio
aplicaciones
aplicada
aplicadas
aplicado
aplicados
aplican
aplicando
aplicar
aplicara
aplicarse
aplico
apo
apocalipsis
apodado
apoderado
apoderarse
apodero
apodo
apogeo
apollo
apolo
aporta
aportacio
aportaciones
aportan
aportando
aportar
aporte
aportes
aporto
aposento
aposto
apoya
apoyaba
apoyaban
apoyada
apoyado
apoyados
apoyan
apoyando
apoyar
apoyaron
apoyo
apoyos
app
apple
application
applications
applied
apportionment
approach
apps
apr
apre
aprecia
apreciacio
apreciada
apreciado
aprecian
apreciar
aprecio
aprende
aprenden
aprender
aprendido
aprendiendo
aprendio
aprendiz
aprendizaje
apresado
apresuro
april
aprobacio
aprobada
aprobadas
aprobado
aprobados
aprobar
aprobaron
aprobo
apropiacio
apropiada
apropiadas
apropiado
apropiados
aprovecha
aprovechado
aprovechamiento
aprovechan
aprovechando
aprovechar
aprovecharon
aprovecho
aprox
aproxima
aproximacio
aproximaciones
aproximada
aproximadamente
aproximado
aprueba
aptitud
aptitudes
apto
aptos
apuesta
apuestas
apun
apunta
apuntado
apuntan
apuntando
apuntar
apuntes
apunto
aquarist
aquatab
aque
aquel
aquella
aquellas
aquello
aquellos
aqui
aquiles
aquino
aquitania
ar
ara
arab
arabia
arado
arago
aragone
aragonesa
aragoneses
aragua
aran
arana
aranda
arango
aranjuez
aras
arau
araucani
arauco
araujo
araya
arbitraje
arbitraria
arbo
arboleda
arbor
arboretum
arbusto
arbustos
arc
arca
arcade
arcadia
arcaico
arce
arch
archaeological
archaeology
arche
archer
archidio
archiduque
archie
archipie
architects
architectural
architecture
archiv
archivada
archivado
archive
archived
archives
archivo
archivos
arcilla
arco
arcos
arctic
arde
ardenas
ardeola
ardiente
ardilla
ardor
are
area
areas
arellano
arena
arenal
arenas
arenisca
arequipa
ares
arg
argel
argelia
argentina
argentinas
argentino
argentinos
argos
argu
argumenta
argumentan
argumentando
argumento
argumentos
ari
aria
ariana
arias
arica
ariel
arista
aristas
aristo
aristocra
aristocracia
aritme
arizona
arjona
ark
arkansas
arle
arm
arma
armada
armadas
armado
armados
armadura
armaduras
armamento
armand
armando
armar
armario
armas
arme
armed
armenia
armenian
armenio
armenios
armin
armisticio
armo
armoni
arms
armstrong
army
arn
arnaldo
arne
arnold
aro
arol
aroma
aron
around
arpa
arqueo
arqueolo
arqueologi
arquero
arqueros
arquidio
arquitecta
arquitecto
arquitectos
arquitectura
arrabal
arranca
arrancar
arranco
arranque
arrastra
arrastrado
arrastre
array
arrebato
arrecife
arrecifes
arregla
arreglado
arreglar
arreglista
arreglo
arreglos
arrendamiento
arrepentimiento
arrestado
arrestados
arresto
arriba
arribo
arrieta
arrogante
arroja
arrojado
arrojar
arrojo
arrow
arroyo
arroyos
arroz
ars
arse
arsenal
art
arte
arteaga
artefacto
artefactos
artemisa
arteria
arterial
arterias
artes
artesanal
artesanales
artesani
artesano
artesanos
arthur
arti
article
articles
articulacio
articulaciones
articular
articulo
artificial
artificiales
artigas
artikel
artilleri
artillero
artist
artista
artistas
artists
artro
arts
arturo
aruba
arxiv
arzobispado
arzobispo
as
asa
asado
asahi
asalto
asaltos
asamblea
asambleas
ascendencia
ascendente
ascender
ascendi
ascendido
ascendiendo
ascendieron
ascendio
ascensio
ascenso
ascensor
ascensores
ascensos
asciende
asco
ase
asedio
asegura
aseguraba
asegurado
aseguran
asegurando
asegurar
asegurarse
aseguro
asemeja
asentada
asentado
asentamiento
asentamientos
asentaron
asento
asesina
asesinada
asesinadas
asesinado
asesinados
asesinar
asesinato
asesinatos
asesino
asesinos
asesor
asesora
asesoramiento
asesores
asesori
asfalto
ash
ashley
ashton
asi
asia
asian
asienta
asiento
asientos
asigna
asignacio
asignada
asignadas
asignado
asignados
asignar
asignatura
asignaturas
asigno
asilo
asime
asimilacio
asimismo
asiria
asiste
asisten
asistencia
asistencias
asistente
asistentes
asisti
asistida
asistido
asistiendo
asistieron
asistio
asistir
ask
asma
asno
asocia
asociacio
asociaciones
asociada
asociadas
asociado
asociados
asocian
asocio
asombro
asp
aspecto
aspectos
aspects
aspira
aspiracio
aspiraciones
aspirante
aspirantes
aspirar
aspx
assassin
assault
assembly
assessment
associated
associates
association
asta
asteraceae
asteroide
asteroides
astillero
astilleros
aston
astor
astorga
astra
astragalus
astral
astro
astrofi
astrologi
astronauta
astronautas
astrono
astronomi
astronomical
astronomy
astrophysical
astrophysics
astros
astucia
asturiana
asturiano
asturias
asuka
asume
asumido
asumiendo
asumio
asumir
asuncio
asunto
asuntos
at
ata
ataca
atacada
atacado
atacados
atacama
atacan
atacando
atacante
atacantes
atacar
atacaron
ataco
atado
atahualpa
atalaya
ataque
ataques
atardecer
atari
atau
ate
atei
atenas
atencio
atender
atendiendo
atenea
ateneo
ateniense
atenienses
atentado
atentados
atento
aterrizaje
aterrizar
athens
athletic
athletics
ati
atiende
atl
atla
atlanta
atlante
atlantic
atlantis
atlas
atle
atleta
atletas
atletismo
atmo
atmosfe
atmospheric
ato
atocha
atolo
atomic
atp
atra
atraccio
atracciones
atractiva
atractivo
atractivos
atrae
atraer
atrai
atrajo
atrapada
atrapado
atrapados
atrapar
atravesaba
atravesada
atravesado
atravesando
atravesar
atraveso
atraviesa
atraviesan
atrevido
atribucio
atribuciones
atribui
atribuida
atribuidas
atribuido
atribuir
atributo
atributos
atribuye
atribuyen
atribuyo
atrio
atrocidades
attack
attacks
atu
atv
au
auch
auckland
audacia
audaz
audenaerde
audi
audicio
audiciones
audiencia
audiencias
audio
audiovisual
audiovisuales
auditori
auditorio
audrey
auf
aug
auge
augsburgo
august
augusta
auguste
augustin
augusto
augustus
aula
aulas
aumenta
aumentaba
aumentada
aumentado
aumentan
aumentando
aumentar
aumentara
aumentaron
aumento
aumentos
aun
aunque
aura
aurelio
aurora
aus
auschwitz
ausencia
ausente
ausentes
austin
austral
australia
australian
australiana
australiano
australianos
australis
austri
austria
austriaca
austriaco
austriacos
austrian
austriancharts
austro
austrohu
aute
autenticidad
author
authority
authors
auto
autobiogra
autobiografi
autobu
autobuses
autodeterminacio
autodidacta
automa
automo
automobile
automotriz
automovili
automovilismo
autono
autonomi
autopista
autopistas
autopsia
autor
autora
autores
autori
autoridad
autoridades
autoritario
autoriza
autorizacio
autorizada
autorizadas
autorizado
autorizados
autorizar
autorizo
autorreferencia
autorretrato
autos
autovi
autumn
auvernia
aux
auxiliar
auxiliares
auxilio
auxilios
av
ava
available
avance
avances
avant
avanza
avanzaba
avanzada
avanzadas
avanzado
avanzados
avanzan
avanzando
avanzar
avanzaron
avanzo
avatar
ave
avec
avellaneda
avena
avengers
avenida
avenidas
aventura
aventuras
aventurero
avenue
averi
averiguar
avery
aves
avi
aviacio
aviador
aviation
avibase
avile
avin
avio
aviones
aviso
avisos
aviv
avn
avril
award
awards
away
ax
axel
ay
aya
ayacucho
ayala
ayer
ayse
ayuda
ayudaba
ayudado
ayudan
ayudando
ayudante
ayudantes
ayudar
ayudara
ayudarlo
ayudaron
ayudas
ayude
ayudo
ayuno
ayuntamiento
ayuntamientos
az
azan
azar
azerbaijan
azerbaiya
azeri
aziz
aznar
azores
azotea
azteca
aztecas
azu
azufre
azul
azulado
azulejos
azules
azur
b
ba
baba
babel
babilonia
baby
bac
bach
bachelet
bachiller
bachillerato
back
background
baco
bacon
bacteria
bacterias
bactrocera
bad
badajoz
badalona
baden
bado
bados
bae
baena
baeza
bafta
bagdad
bahamas
bahi
bahia
bahn
bai
baila
bailando
bailar
bailari
bailarina
bailarines
baile
bailes
bailey
baillargeon
bailly
bails
baja
bajada
bajado
bajan
bajando
bajar
bajas
bajista
bajo
bajos
baker
baku
bal
bala
balada
baladas
balaguer
balance
balanza
balas
balboa
balca
balcanes
balco
balcones
baldi
baldwin
bale
balear
baleares
bali
ball
ballena
ballenas
ballester
ballesteros
ballet
balneario
balo
balompie
baloncestista
baloncesto
balonmano
balsa
baltasar
baltimore
baluarte
bambu
bamos
ban
bana
banana
banca
bancada
bancaria
bancarias
bancario
bancarrota
banco
bancos
band
banda
bandas
bandera
banderas
bandido
bandidos
bando
bandos
banfield
bang
bangkok
banglade
bank
banks
banner
bano
banquero
banquete
banquillo
banse
baptiste
bar
bara
barack
barajas
barata
barato
baratos
barba
barbados
barbara
barbarie
barbas
barber
barbera
barbero
barbosa
barc
barca
barcelo
barcelona
barco
barcos
bare
bares
bari
bariloche
barker
barlow
barnes
barney
baro
baroja
baron
barones
baronesa
baroni
barquisimeto
barr
barra
barracas
barral
barranca
barrancas
barranco
barrancos
barranquilla
barras
barre
barreiro
barrera
barreras
barreto
barrett
barrientos
barril
barriles
barrio
barrios
barro
barroca
barroco
barros
barroso
barry
bart
bartlett
bartolome
barton
bas
basa
basaba
basada
basadas
basado
basados
basadre
basal
basales
basan
base
baseball
based
bases
basi
basic
basil
basilea
basilio
basin
basis
basket
basketball
baso
basque
basques
bass
basta
bastante
bastantes
bastien
bastio
basto
basura
bat
bata
batalla
batallas
batallo
batallones
bate
bateo
bateri
baterista
bates
bath
batida
batio
batir
batista
batlle
batman
battista
battle
bau
bauer
bautismo
bautista
bautizada
bautizado
bautizados
bautizo
baviera
baxter
bay
bayas
bayer
bayern
bayo
bayona
baza
bb
bbc
bbva
bc
bd
bdfa
bdfutbol
bditos
be
beach
beagle
bean
bear
bears
beast
beat
beata
beatles
beato
beatrice
beatriz
beats
beaumont
beautiful
beauty
beaux
bebe
beber
bebida
bebidas
bec
beca
became
becas
because
becerra
beck
becker
beckett
becky
become
becomes
beda
bedera
bedford
bee
been
beer
beethoven
before
begin
beginning
begins
begon
behavior
behind
bei
beijing
being
beirut
beispiel
bel
bela
bele
belfast
belga
belgas
belgrado
belgrano
belice
believe
belisario
bell
bella
bellas
belle
belleza
belli
bello
bellos
belmonte
belo
belt
beltra
bemol
ben
benavente
benavides
bendicio
bendita
bendito
bene
benedetto
benedict
benedicto
beneficencia
beneficio
beneficios
beneme
benfica
bengala
bengali
beni
benigno
benito
benjami
benjamin
bennett
benny
benoit
benson
benth
benthic
benthos
bentley
bento
benton
benz
ber
bereberes
berenguer
berg
berganti
bergen
berger
bergman
berkeley
berli
berlin
berliner
bermejo
bermu
bermudas
berna
bernabe
bernal
bernard
bernardino
bernardo
bernhard
bernie
bernis
bernstein
bero
berry
bert
berta
bertha
bertrand
besa
besar
beso
besos
best
bestia
bestias
bet
beta
betancourt
beth
betis
beto
better
betty
between
beverly
bey
beyonce
beyond
bf
bi
bianca
bianchi
bibcode
bible
biblia
biblio
bibliogra
bibliografi
bibliography
biblioteca
bibliotecario
bibliotecas
bibliothe
bica
bicentenario
bicicleta
bicicletas
bico
bicolor
bicos
bid
biden
bieber
bielorrusia
bielorruso
bien
bienal
bienes
bienestar
bienvenida
bienvenido
bierzo
big
biggest
bigote
bil
bilateral
bilaterales
bilbao
bild
biles
bilingu
bill
billboard
billete
billetes
billie
billion
billones
billy
bilmente
bilo
bin
binaria
binario
bing
binomial
bio
biobi
biodiversidad
biodiversity
biogra
biografi
biografia
biographical
biographie
biography
biol
biolib
biolo
biologi
biological
biology
biome
bioqui
biosfera
biotecnologi
bird
birdlife
birds
birmania
birmingham
birth
birthday
bis
bisby
bishop
bismarck
bit
bita
bitat
bitats
bitcoin
bito
bitos
bits
biz
bizancio
bizantina
bizantino
bizantinos
bjo
bl
bla
blabbermouth
black
blackburn
blackpink
blackwell
blade
blair
blake
blanc
blanca
blancas
blanche
blanco
blancos
blanda
blando
blandos
blas
blasco
blaso
blast
ble
bles
blica
blicamente
blicas
blico
blicos
blind
blindada
blindado
blindados
blindaje
bliss
bloch
block
blog
blogs
blogspot
blood
bloody
bloom
bloomberg
bloomsbury
bloque
bloquear
bloqueo
bloques
blu
blue
blues
blume
bm
bmatrix
bmg
bmw
bne
bo
boa
board
boat
bob
bobadilla
bobby
boca
bocas
bocetos
boda
bodas
bodega
bodegas
body
boe
boeing
bogota
bohemia
boicot
bois
bol
bola
bolan
bolas
bolchevique
bolcheviques
bolero
boleti
boleto
boletos
boli
bolivariana
bolivia
boliviana
boliviano
bolivianos
bolo
bologna
bolonia
bolos
bolsa
bolsas
bolsillo
bolton
bomb
bomba
bombardeo
bombardeos
bombardero
bombarderos
bombas
bombay
bomberos
bombo
bon
bonaerense
bonanza
bonaparte
bond
bondad
bone
bones
bonet
bonifacio
bonilla
bonita
bonito
bonn
bonnie
bono
bonos
bonus
book
booker
books
boom
boone
boot
booth
bor
bora
borbo
borda
bordado
bordados
borde
border
bordes
bordo
borg
borges
borgon
bori
boris
borja
born
borneo
borough
borra
borracho
borrador
borrar
borussia
bosch
bosco
bose
bosnia
bosque
bosques
boss
boston
bot
bota
botado
botanic
botanical
botanique
botany
botas
bote
botella
botellas
botes
both
boti
boto
botones
botsuana
boulenger
boulevard
boulogne
bound
bourgoin
bow
bowie
bowl
box
boxeador
boxeo
boy
boyaca
boyd
boyle
boys
bp
br
bra
bracon
brad
bradford
bradley
brady
braga
braganza
brahms
brain
branch
branco
brand
brandeburgo
brandon
brandt
brasil
brasileira
brasileiro
brasilen
brasilia
bratislava
braulio
braun
brava
brave
bravo
bravos
bray
brazil
brazilian
brazo
brazos
bre
break
breaking
breaks
brecha
bremen
brenda
brendan
brennan
brent
brescia
brest
bretan
breto
breton
brett
breuning
breve
brevemente
breves
bri
brian
brica
bricas
bricen
brico
brida
bridge
bridges
brido
bridos
brief
brien
brigada
brigadas
brigadier
briggs
bright
brighton
brill
brilla
brillante
brillantes
brillo
brinda
brindan
brindar
brindo
bring
brings
brisa
brisbane
bristol
brit
brita
britain
britania
britannica
british
britney
brito
britton
brno
bro
broad
broadcast
broadcasting
broadway
brock
broken
broma
bromas
bronce
bronx
brook
brooke
brooklyn
brooks
bros
brote
brotes
brother
brothers
brown
browne
browning
browser
bru
bruce
bruguera
bruja
brujas
brujeri
brujo
brun
brune
bruno
brunswick
bruscamente
bruselas
bruta
brutal
brutalmente
bruto
bryan
bryant
bs
bside
bt
bts
bu
bucaramanga
bucarest
buceo
buch
buchanan
buck
buckley
bucks
bucle
buda
budapest
buddy
budismo
budista
budistas
buen
buena
buenas
buenaventura
buenavista
bueno
buenos
buey
bueyes
buffalo
buffy
bufo
build
building
buildings
built
buitre
bula
bulas
bulevar
bulgaria
bull
bullet
bulletin
bulls
bulnes
bulo
bulos
bulto
bun
bundesliga
bunny
buprestidae
buprestoidea
buque
buques
burbuja
burbujas
burdeos
bureau
burgess
burgo
burgos
burgue
burguesa
burgueses
burguesi
burke
burkina
burla
burlas
burn
burning
burns
buro
burocra
burocracia
burro
bursa
burt
burton
burundi
bury
bus
busca
buscaba
buscaban
buscado
buscador
buscan
buscando
buscar
buscara
buscaron
busch
busco
buses
bush
business
busque
bustamante
busto
bustos
but
buta
butler
butterfly
buy
buzz
bwv
by
bye
byrne
byron
bytes
byzantine
c
ca
cabal
caballeri
caballero
caballeros
caballo
caballos
caban
cabaret
cabe
cabecera
cabeceras
cabellera
cabello
cabellos
cabeza
cabezas
cabezo
cabi
cabida
cabildo
cabina
cabinet
cable
cables
cabo
cabos
cabra
cabral
cabras
cabrera
cacao
caceri
cache
cachemira
cacho
cachorros
cacique
caciques
cactus
cada
cadas
cadena
cadenas
cadera
cadete
cadetes
cadillac
cae
caen
caer
caesar
caf
cafe
cafeteri
cage
cagematch
cai
caiga
caima
cairo
caixa
caja
cajamarca
cajas
cajo
cal
cala
calabaza
calabozo
calabria
calado
calais
calatayud
calatrava
calavera
calca
calcio
calcula
calculado
calcular
calculo
calcuta
caldas
caldera
calderas
caldero
caldo
caldwell
caledonia
calefaccio
calendar
calendario
calentamiento
calera
caleta
calgary
cali
calibre
calidad
caliente
calientes
califa
califato
califica
calificacio
calificaciones
calificada
calificado
calificados
calificar
califico
california
calixto
caliza
call
calla
callao
calle
called
calleja
callejero
callejo
calles
callo
calls
calma
calmar
calo
calor
calori
calpe
calvario
calvin
calvo
calzada
calzado
cam
cama
camacho
camaradas
camarero
camargo
camaro
camas
cambia
cambiado
cambian
cambiando
cambiar
cambiara
cambiari
cambiaron
cambio
cambios
camboya
cambridge
came
cameo
camera
cameron
cameru
camila
camilla
camille
camilo
camina
caminando
caminantes
caminar
caminata
camino
caminos
camio
camiones
camioneta
camisa
camisas
camiseta
camisetas
camp
campaign
campamento
campamentos
campan
campana
campanario
campanas
campania
campbell
campeche
campeo
campeona
campeonato
campeonatos
campeones
campesina
campesinas
campesino
campesinos
campillo
campin
camping
campo
campos
camps
campus
camus
can
canada
canadian
canadiense
canadienses
canal
canales
canaria
canarias
canario
canarios
canasta
canberra
cancelacio
cancelada
cancelado
cancelar
cancelo
cancer
cancha
canchas
canciller
cancilleri
cancio
cancionero
canciones
cancu
candela
candelaria
candidata
candidatas
candidato
candidatos
candidatura
candidaturas
candy
canela
canelones
cangrejo
cangrejos
cannabis
cannes
cannon
cano
canoa
canoas
canoeresults
canon
cansado
cansancio
canta
cantaba
cantabria
cantada
cantado
cantan
cantando
cantante
cantantes
cantar
cantares
cantata
cantatas
cantautor
cantautora
cante
cantera
canteras
canterbury
cantidad
cantidades
canto
canton
cantonal
cantones
cantor
cantores
cantos
canyon
cao
caos
cap
capa
capaces
capacidad
capacidades
capacitacio
caparazo
capas
capaz
capcom
cape
capella
capi
capilla
capillas
capita
capital
capitales
capitalismo
capitalista
capitalistas
capitana
capitanes
capitani
capiteles
capitol
capitolio
capitulacio
capitular
capitulo
capo
capricho
caprichos
captacio
captain
captar
captura
capturada
capturado
capturados
capturar
capturaron
capturas
capturo
capuchinos
car
cara
carabidae
carabineros
carabobo
caracas
caracol
caracoles
caracteres
caracteri
caracteriza
caracterizacio
caracterizada
caracterizado
caracterizan
caracterizo
caras
caravana
carballo
carbo
carbon
carbonato
carbonell
carboni
carbono
card
cardenal
cardenales
cardi
cardiff
cardinal
cardiovascular
cardo
cardona
cardoso
care
carece
carecen
carecer
careci
career
carencia
cares
carey
carga
cargada
cargadas
cargado
cargador
cargados
cargar
cargas
cargo
cargos
caribbean
caribe
cariben
caricatura
caricaturas
caridad
carin
carisma
carl
carla
carles
carlismo
carlista
carlistas
carlo
carlomagno
carlos
carlota
carlton
carme
carmelitas
carmelo
carmen
carmesi
carmona
carnaval
carne
carnegie
carnero
carnes
carni
caro
carol
carolina
caroline
carolyn
caros
carpa
carpenter
carpeta
carpinteri
carpintero
carpio
carr
carranza
carrasco
carren
carrera
carreras
carretas
carretera
carreteras
carrie
carrier
carril
carriles
carrillo
carrio
carro
carroceri
carroll
carros
carruaje
cars
carson
carta
cartagena
cartagine
cartagineses
cartago
cartas
cartel
cartelera
carteles
carter
cartera
carto
cartogra
cartografi
cartoon
cartucho
cartuchos
cartuja
carvajal
carvalho
cas
casa
casablanca
casada
casadas
casado
casados
casal
casamiento
casanova
casar
casares
casaron
casarse
casas
cascada
cascadas
casco
cascos
case
caseri
casero
caseros
cases
casete
casey
cash
casi
casilla
casillas
casimiro
casino
casio
caso
casona
casos
cass
cassini
cast
casta
castan
castas
castel
castell
castellana
castellanas
castellano
castellanos
castello
castelo
castigado
castigar
castigo
castigos
castilla
castillo
castillos
casting
castle
castrillo
castro
casual
casualidad
cat
cata
catala
catalana
catalanas
catalanes
catalans
catalina
catalizador
catalog
catalogada
catalogado
catalogo
catalogue
catalun
catalunya
catamarca
catania
catar
cataratas
catarina
catastali
catastro
catch
cate
catecismo
catedra
catedral
catedrales
categori
cathedral
catherine
catholic
cato
catolicismo
catorce
cats
cauca
cauce
caucho
caudal
caudales
caudillo
caudillos
causa
causaba
causada
causadas
causado
causados
causal
causan
causando
causante
causar
causaron
causas
cause
causo
cautiverio
cautivo
cautivos
cava
cave
cavendish
caverna
cavernas
cavidad
cavidades
cayendo
cayeron
cayetano
cayo
caza
cazador
cazadores
cazar
cazas
cb
cba
cbc
cbs
cc
cd
cdc
cdmx
cdot
cdota
cdotas
cdots
cds
cdu
ce
cea
ceas
cebada
ceballos
cebolla
cebuano
cec
cech
cecil
cecilia
cecilio
cedar
cede
ceder
cedido
cedio
cedro
ceiba
cejas
celda
celdas
celebra
celebraba
celebraban
celebracio
celebraciones
celebrada
celebradas
celebrado
celebrados
celebran
celebrando
celebrar
celebrara
celebraron
celebrarse
celebration
celebridad
celebridades
celebrity
celebro
celeste
celestes
celestial
celestina
celestino
celi
celia
cell
cells
celo
celos
celoso
celso
celta
celtas
celtic
celtics
celular
celulares
cementerio
cementerios
cemento
cen
cena
cenar
cenicienta
ceniza
cenizas
censada
censal
censo
censos
censura
census
cent
centavos
centenar
centenares
centenario
centeno
center
centi
centinela
centra
centrada
centrado
central
centrales
centralizado
centran
centrarse
centre
centro
centroame
centroamericana
centroamericano
centroamericanos
centrocampista
centros
centuries
centurio
century
ceo
ceos
cepa
cepas
cepeda
cer
cera
cerambycids
cerca
cercado
cercana
cercanas
cercani
cercano
cercanos
cerco
cerda
cerden
cerdo
cerdos
cereal
cereales
cerebral
cerebrales
cerebro
ceremonia
ceremonial
ceremonias
ceres
cerezo
cero
ceroacero
ceros
cerrada
cerradas
cerrado
cerrados
cerrando
cerrar
cerraron
cerro
cerrojo
cerros
certa
certain
certamen
certeza
certificacio
certificaciones
certificado
certificados
certifications
cervantes
cerveceri
cervera
cerveza
ces
cesa
cesado
cesar
cesare
cese
cesio
cesis
ceso
cetro
ceuta
cf
cfr
cfrac
cg
cgi
ch
cha
chacabuco
chacarita
chaco
chad
chain
chaleco
challenge
challenger
challenges
chama
chamber
chamberlain
chambers
chamorro
champ
champagne
champan
champion
champions
championship
championships
chan
chance
chandler
chang
change
changed
changes
changing
channel
chao
chaos
chapa
chapel
chapelle
chaplin
chapman
chapter
chapultepec
chaqueta
char
character
characters
charcas
charge
charla
charlas
charles
charleston
charlie
charlotte
charly
chart
charts
chase
chasis
chat
chaves
che
checa
check
checklist
checo
checoslovaquia
chef
chelsea
chem
chemical
chemistry
chen
cheney
cheng
cher
cherry
cheryl
chess
chester
chevrolet
chez
chi
chiang
chiapas
chiba
chica
chicago
chicas
chicha
chicken
chico
chicos
chief
chiesa
chigan
chihuahua
child
children
chile
chilena
chilenas
chileno
chilenos
chili
chilla
chiloe
chimenea
chimeneas
chin
china
chinas
chinchilla
chinese
ching
chino
chinos
chip
chipre
chips
chira
chisholm
chispa
chistes
chivas
chloe
cho
choco
chocolate
choi
choice
chopin
choque
chorro
chris
christ
christi
christian
christianity
christie
christina
christine
christmas
christoph
christophe
christopher
chronicle
chronicles
chronology
chrysler
chrysomelidae
chu
chubut
chuck
chun
chung
chuquisaca
church
churchill
ci
cia
ciberne
cicero
ciclismo
ciclista
ciclistas
ciclo
ciclones
ciclos
cico
cid
cida
cidas
cido
cidos
cie
ciega
ciego
ciegos
cielo
cielos
cien
ciencia
ciencias
cienfuegos
cienti
ciento
cientos
cierra
cierran
cierre
cierta
ciertamente
ciertas
cierto
ciertos
ciervo
ciervos
cifra
cifrado
cifras
cifuentes
cigarrillos
cigu
cil
ciles
cili
cilindrada
cilindro
cilindros
cilmente
cima
cimas
cimen
cimientos
cimo
cin
cincinnati
cinco
cincuenta
cindy
cine
cineasta
cineastas
cinema
cinematogra
cinematografi
cines
cinta
cintas
cintura
cinturo
cio
cipe
cipriano
circ
circa
circle
circo
circuit
circuito
circuitos
circula
circulacio
circulan
circular
circulares
circundante
circundantes
circunferencia
circunscripcio
circunscripciones
circunstancia
circunstancias
circunvalacio
circus
ciri
cirilo
ciro
cirugi
cirujano
cis
cisjordania
cisma
cisne
cisneros
cisterna
cit
cita
citada
citadas
citado
citados
citamente
citan
citando
citar
citas
cite
cities
citizen
cito
citoplasma
citos
citroe
citta
city
citypopulation
ciudad
ciudadana
ciudadani
ciudadano
ciudadanos
ciudadela
ciudades
ciutat
civic
civil
civiles
civilizacio
civilizaciones
civilization
cj
ck
cke
cken
cl
cla
clado
claims
clair
claire
clan
clandestina
clandestinidad
clandestino
clanes
clapton
clara
claramente
claras
clare
clarence
clarendon
clari
claridad
clarin
clarinete
clark
clarke
claro
claros
clase
clases
clash
clasicismo
clasifica
clasificacio
clasificaciones
clasificada
clasificadas
clasificado
clasificados
clasifican
clasificando
clasificar
clasificaron
clasificarse
clasificatoria
clasificatorio
clasifico
class
classic
classical
classics
classification
classifications
claude
claudia
claudio
claus
claustro
clausura
clave
claves
clavo
clavos
clay
clayton
cle
clean
clear
clemencia
clement
clemente
clements
cleo
cleopatra
cleos
clermont
clero
cleveland
cli
clic
clica
click
clico
cliente
clientes
cliff
clifford
clima
climas
climate
clin
clinical
clint
clinton
clio
clip
clive
clock
cloffa
clon
clones
cloro
cloruro
close
cloud
club
clube
clubes
clubs
clyde
cm
cn
cne
cnica
cnicamente
cnicas
cnico
cnicos
cnido
cnn
cnt
co
coa
coach
coahuila
coalicio
coast
coautor
coautores
coautori
cobarde
cobertura
cobo
cobos
cobra
cobrar
cobre
cobro
coca
cocai
coccio
cochabamba
coche
coches
cochrane
cocido
cociente
cocina
cocinar
cocinas
cocinero
cocks
coco
cocodrilo
cocodrilos
code
codes
codex
codici
codicia
codificacio
codificada
codo
cody
coe
coeficiente
coeficientes
coffee
cofradi
cofre
cofundador
coge
coger
cogido
cogio
cognitiva
cognitivo
cohen
coherencia
coherente
cohesio
cohete
cohetes
coi
coincide
coinciden
coincidencia
coincidi
coincidiendo
coincidio
coincidir
col
cola
colabora
colaboracio
colaboraciones
colaborado
colaborador
colaboradora
colaboradores
colaborando
colaborar
colaboraron
colaboro
colapso
colas
cold
coldplay
cole
coleccio
colecciones
coleccionista
coleccionistas
colectiva
colectivamente
colectivas
colectividad
colectivo
colectivos
colega
colegas
colegial
colegiata
colegio
colegios
coleman
coleo
coleoptera
colgado
colgante
coli
colibri
colima
colin
colina
colinas
coliseo
colisio
coll
collaboration
collado
collar
collected
collection
collections
college
collette
collider
collins
colo
coloca
colocacio
colocada
colocadas
colocado
colocados
colocan
colocando
colocar
colocaron
colocarse
coloco
coloma
colombia
colombiana
colombianas
colombiano
colombianos
colombo
colon
colonia
colonial
coloniales
colonias
colonizacio
colonizadores
colonos
coloquial
coloquialmente
coloquio
color
coloracio
colorada
colorado
colores
colorido
colt
columbia
columbus
columna
columnas
columnista
com
coma
comandada
comandado
comandancia
comandante
comandantes
comando
comandos
comarca
comarcal
comarcas
combat
combate
combates
combatiendo
combatientes
combatio
combatir
combina
combinacio
combinaciones
combinada
combinadas
combinado
combinados
combinan
combinando
combinar
combustible
combustibles
combustio
come
comedia
comediante
comedias
comedor
comedy
comen
comendador
comenta
comentado
comentando
comentar
comentario
comentarios
comentarista
comentaristas
comento
comenzaba
comenzado
comenzando
comenzar
comenzara
comenzari
comenzaron
comenzo
comer
comercial
comerciales
comercializa
comercializacio
comercializado
comercializar
comercialmente
comerciante
comerciantes
comercio
comercios
comes
comestible
comestibles
cometa
cometas
cometer
cometido
cometidos
cometio
comi
comic
comicios
comics
comida
comidas
comido
comiendo
comienza
comienzan
comienzo
comienzos
comillas
coming
comisari
comisario
comisarios
comisio
comisionado
comisionados
comisiones
comite
comitiva
command
commander
comme
commentary
comments
commerce
commercial
commission
committee
commodore
common
commons
commonwealth
communaute
communes
communication
communications
communities
community
como
comodidad
comodidades
comodoro
comp
compa
compacta
compacto
compan
companion
company
compara
comparable
comparacio
comparaciones
comparada
comparado
comparar
comparative
comparativo
comparison
comparo
comparte
comparten
comparti
compartida
compartido
compartidos
compartiendo
compartieron
compartio
compartir
compartirigual
compases
compasio
compatibilidad
compatible
compatibles
compatriota
compatriotas
compendio
compensacio
compensar
competencia
competencias
competente
competentes
competi
competicio
competiciones
competidor
competidores
competir
competition
competitiva
competitividad
competitivo
compilacio
compilado
compilador
compite
compiten
compitiendo
compitieron
compitio
compleja
complejas
complejidad
complejo
complejos
complementa
complementar
complementaria
complementarias
complementario
complementarios
complemento
complementos
completa
completada
completado
completamente
completan
completando
completar
completaron
completas
complete
completo
completos
complex
complicaciones
complicada
complicado
complicidad
complot
complutense
compone
componen
componente
componentes
componer
componi
comporta
comportamiento
comportamientos
composicio
composiciones
composition
compositor
compositora
compositores
compostela
compra
comprada
comprado
comprador
compradores
comprar
compraron
compras
comprehensive
comprende
comprenden
comprender
comprendi
comprendida
comprendido
comprendidos
comprendiendo
comprendio
comprendo
comprensio
compresio
comprimido
compro
comprobado
comprobar
compromete
comprometida
comprometido
comprometidos
comprometio
compromiso
compromisos
compton
compuesta
compuestas
compuesto
compuestos
compuso
computacio
computacional
computador
computadora
computadoras
computadores
computer
computing
comte
comu
comun
comuna
comunal
comunales
comunas
comune
comunes
comuni
comunica
comunicaba
comunicacio
comunicaciones
comunicado
comunican
comunicar
comunicarse
comunico
comunidad
comunidades
comunio
comunismo
comunista
comunistas
comunitaria
comunitarias
comunitario
comunitarios
con
conaculta
conan
concacaf
conce
concebida
concebido
concebir
concede
conceder
concedida
concedido
concedio
concejal
concejales
concejo
concejos
concelho
concello
concentra
concentracio
concentraciones
concentrado
concentran
concentrar
concentrarse
concentro
concepcio
concepciones
concept
conceptid
concepto
conceptos
conceptual
concert
concertacio
concerto
concesio
concesiones
concha
conchas
concibio
conciencia
concierne
concierto
conciertos
conciliacio
conciliar
concilio
concluida
concluido
concluir
conclusio
conclusiones
concluye
concluyendo
concluyeron
concluyo
concordancia
concordia
concreta
concretamente
concretar
concretas
concreto
concretos
concurrencia
concurrir
concursante
concursantes
concurso
concursos
condado
condados
conde
condecoracio
condecoraciones
condecorado
condena
condenada
condenado
condenados
condenar
condenas
condeno
condes
condesa
condestable
condicio
condicional
condiciones
conduccio
conduce
conducen
conduci
conducida
conducido
conduciendo
conducir
conducta
conductas
conducto
conductor
conductora
conductores
conductos
condujeron
condujo
conecta
conectaba
conectada
conectadas
conectado
conectados
conectan
conectar
conectividad
conector
conejo
conejos
conexio
conexiones
confeccio
confederacio
confederaciones
confederados
conference
conferencia
conferencias
confesar
confesio
confesiones
confeso
confesor
confi
confiable
confiado
confianza
confiar
confidencial
confiere
confiesa
configuracio
configuraciones
configurar
confinamiento
confio
confirma
confirmacio
confirmada
confirmado
confirmados
confirman
confirmando
confirmar
confirmaron
confirmed
confirmo
confirms
conflict
conflicto
conflictos
confluencia
conforma
conformacio
conformada
conformado
conforman
conformando
conformar
conformaron
conforme
conformidad
conformo
confrontacio
confunde
confundido
confundir
confundirse
confusa
confusio
confuso
conge
conglomerado
congo
congregacio
congregaciones
congresional
congresista
congresistas
congreso
congresos
congress
coni
conicet
conjetura
conjugacio
conjuncio
conjunta
conjuntamente
conjunto
conjuntos
conlleva
conmebol
conmemora
conmemoracio
conmemorar
conmemorativa
conmemorativo
conmigo
conmocio
connecticut
connection
connie
connor
cono
conoce
conocemos
conocen
conocer
conocera
conocerse
conoci
conocida
conocidas
conocido
conocidos
conociendo
conocieron
conocimiento
conocimientos
conocio
conos
conozca
conozco
conque
conquest
conquista
conquistada
conquistado
conquistador
conquistadores
conquistar
conquistaron
conquistas
conquisto
conrad
conrado
consagra
consagracio
consagrada
consagrado
consagro
consciencia
consciente
conscientes
conscientious
consecucio
consecuencia
consecuencias
consecuente
consecuentemente
consecutiva
consecutivas
consecutivo
consecutivos
consegui
conseguido
conseguir
conseguiri
conseguirlo
conseil
consejera
consejeri
consejero
consejeros
consejo
consejos
consenso
consentimiento
conserva
conservaba
conservacio
conservada
conservadas
conservado
conservador
conservadora
conservadoras
conservadores
conservados
conservan
conservando
conservar
conservaron
conservation
conservatorio
conservo
considera
consideraba
consideraban
considerable
considerablemente
considerables
consideracio
consideraciones
considerada
consideradas
considerado
considerados
consideran
considerando
considerar
considerara
consideraron
considerarse
considere
considero
consigna
consigo
consigue
consiguen
consiguiendo
consiguiente
consiguieron
consiguio
consiste
consisten
consistencia
consistente
consistentes
consisti
consistio
consistorial
consistorio
consola
consolas
consolida
consolidacio
consolidado
consolidar
consolido
consonancia
consonante
consonantes
consorcio
consorte
conspiracio
conspiracy
conspiradores
consta
constaba
constan
constancia
constant
constante
constantemente
constantes
constantine
constantino
constantinopla
constanza
constar
constelacio
constitucio
constitucional
constitucionales
constituciones
constitui
constituida
constituido
constituir
constituirse
constitution
constituye
constituyen
constituyendo
constituyente
constituyentes
constituyeron
constituyo
construccio
construcciones
construction
constructor
constructora
constructores
construi
construida
construidas
construido
construidos
construir
construirse
construye
construyen
construyendo
construyeron
construyo
consuelo
consulado
consular
consulta
consultada
consultado
consultar
consultas
consulte
consultivo
consultor
consultora
consultori
consume
consumen
consumer
consumido
consumidor
consumidores
consumir
consumo
conta
contaba
contaban
contabilidad
contable
contact
contacto
contactos
contada
contado
contador
contados
contagio
contaminacio
contaminantes
contando
contar
contara
contaron
conte
contempla
contemplaba
contemplacio
contemplados
contemplar
contempora
contemporary
contencio
contenedor
contenedores
contener
conteni
contenida
contenidas
contenido
contenidos
conteniendo
content
contenta
contento
conteo
contest
contesta
contestacio
contestar
contesto
context
contexto
contextos
conti
contienda
contiene
contienen
contigo
contigua
contiguo
continental
continentales
continente
continentes
contingente
continu
continua
continuaba
continuaban
continuacio
continuada
continuado
continuamente
continuando
continuar
continuara
continuari
continuaron
continuas
continues
continuidad
continuo
continuos
conto
contorno
contornos
contra
contraataque
contrabajo
contrabando
contraccio
contract
contradiccio
contradicciones
contrae
contraer
contrafuertes
contrai
contrajo
contralori
contraparte
contraposicio
contrapunto
contraria
contrarias
contrario
contrarios
contrarreloj
contrarrestar
contrasen
contrasta
contraste
contrata
contratacio
contratada
contratado
contratados
contratar
contratista
contrato
contratos
contreras
contribucio
contribuciones
contribuido
contribuir
contribution
contributions
contribuye
contribuyen
contribuyendo
contribuyentes
contribuyeron
contribuyo
control
controla
controlaba
controlada
controladas
controlado
controlador
controladores
controlados
controlan
controlar
controles
controversia
controversial
controversias
controvertida
controvertido
contundente
conveccio
convence
convencer
convencido
convencio
convencional
convencionales
convenciones
conveniencia
conveniente
convenio
convenios
convention
convento
conventos
convergencia
conversacio
conversaciones
conversation
conversio
converti
convertida
convertido
convertidos
convertir
convertira
convertiri
convertirlo
convertirse
conviccio
convicciones
conviene
convierta
convierte
convierten
convirtie
convirtiendo
convirtiera
convirtieron
convirtio
convivencia
convoca
convocada
convocado
convocados
convocar
convocatoria
convoco
convoy
convulsiones
conway
cook
cooke
cool
cooper
cooperacio
cooperar
cooperativa
cooperativas
cooperativo
coord
coordenadas
coordinacio
coordinado
coordinador
coordinadora
coordinar
cop
copa
copas
cope
copenhague
copia
copiado
copiapo
copiar
copias
coplas
coproduccio
copy
copyright
coquimbo
cor
cora
coraje
coral
corales
corazo
corazon
corazones
corbeta
cord
cordero
cordillera
cordilleras
cordo
cordobe
cordobesa
cords
core
corea
coreana
coreano
coreanos
coreo
coreografi
corey
coria
corinto
cork
cornejo
cornelio
cornelius
cornell
corner
cornisa
cornualles
coro
corola
corona
coronacio
coronada
coronado
coronas
coronavirus
coronel
corono
coros
corp
corporacio
corporaciones
corporal
corporales
corporate
corporation
corporativa
corporativo
corps
corpus
corral
corrales
corre
correa
correas
correccio
correcciones
correcta
correctamente
correcto
corredor
corredores
corregidor
corregimiento
corregir
correlacio
corren
correo
correos
correr
corresponda
corresponde
corresponden
correspondencia
corresponder
correspondi
correspondiente
correspondientes
correspondio
corresponsal
corri
corrida
corridas
corrido
corriendo
corriente
corrientes
corrieron
corrio
corrosio
corrupcio
corsario
corsarios
corso
corta
cortada
cortadas
cortado
cortando
cortar
cortas
corte
cortejo
cortes
cortesano
cortesi
cortez
corteza
cortina
cortinas
corto
cortometraje
cortometrajes
cortos
corun
cos
cosa
cosacos
cosas
cosecha
cosechas
cosme
cosmo
cosmopolita
cosmos
cost
costa
costado
costados
costarricense
costas
coste
costera
costeras
costero
costeros
costes
costillas
costo
costos
costosa
costoso
costumbre
costumbres
costura
cota
cotidiana
cotidiano
coto
cotton
could
council
count
countries
country
county
coup
coupe
courier
course
court
courtney
cov
cover
coverage
covers
covid
cowboy
cox
coyote
cp
cpu
cr
cra
cracovia
craig
crane
crash
crata
cratas
crater
crates
crawford
crazy
crc
cre
crea
creacio
creaciones
creada
creadas
creado
creador
creadora
creadores
creados
cream
crean
creando
crear
creara
crearon
crearse
create
creation
creativa
creativas
creative
creatividad
creativo
creator
crece
crecen
crecer
creci
crecido
creciendo
creciente
crecientes
crecieron
crecimiento
crecio
credibilidad
credits
credo
cree
creed
creek
creemos
creen
creencia
creencias
creer
crees
crei
crema
creo
crepu
crespo
cresta
crestas
creta
cretaceous
crew
creyendo
creyentes
creyeron
creyo
cri
criada
criado
criados
crianza
criar
criatura
criaturas
cricket
crime
crimea
crimen
crimes
criminal
criminales
crimson
crio
criolla
criollo
criollos
cripta
crisis
criso
cristal
cristales
cristalina
cristia
cristian
cristiana
cristianas
cristiandad
cristianismo
cristiano
cristianos
cristina
cristo
criterio
criterios
critic
critica
criticada
criticado
critical
criticar
criticaron
critico
critics
critique
cro
croacia
croata
croatas
croatian
croix
croma
cromo
cromosoma
cromosomas
cromwell
cronista
cronistas
cronoestratigra
cronolo
cronologi
crosby
cross
crossing
crossover
crow
crown
cruce
cruceri
crucero
cruceros
cruces
crucial
crucificado
crucifijo
crucifixio
crucis
cruda
crudo
cruel
crueldad
crueles
cruise
crunchyroll
crusta
cruz
cruza
cruzada
cruzadas
cruzado
cruzados
cruzan
cruzando
cruzar
cruzaron
cruzo
cry
crystal
cs
csi
csic
ct
ctar
ctea
cteas
cteos
cter
ctica
cticamente
cticas
ctico
cticos
ctil
ctima
ctimas
ctona
ctonas
ctono
ctonos
ctor
ctrica
ctricas
ctrico
ctricos
cu
cua
cuaderno
cuadernos
cuadra
cuadrada
cuadradas
cuadrado
cuadrados
cuadrangular
cuadrangulares
cuadras
cuadrilla
cuadro
cuadros
cual
cuales
cualesquiera
cualidad
cualidades
cualquier
cualquiera
cuando
cuantas
cuanto
cuantos
cuarenta
cuarentena
cuaresma
cuaro
cuarta
cuartel
cuarteles
cuarteto
cuarto
cuartos
cuarzo
cuatro
cuatrocientos
cuauhte
cuba
cubana
cubano
cubanos
cube
cubierta
cubiertas
cubierto
cubiertos
cubo
cubre
cubren
cubri
cubriendo
cubrio
cubrir
cuchilla
cuchillo
cuchillos
cue
cuelga
cuello
cuenca
cuencas
cuenta
cuentan
cuentas
cuento
cuentos
cuerda
cuerdas
cuernavaca
cuerno
cuernos
cuero
cuerpo
cuerpos
cuervo
cuervos
cuesta
cuestio
cuestiona
cuestionado
cuestiones
cueto
cueva
cuevas
cuida
cuidado
cuidados
cuidadosamente
cuidar
cula
culas
culata
culebra
culmina
culminacio
culmino
culo
culos
culpa
culpabilidad
culpable
culpables
cult
culta
cultiva
cultivada
cultivadas
cultivado
cultivan
cultivar
cultivo
cultivos
culto
cultos
cultura
cultural
culturales
culturas
culture
cultures
cum
cumbia
cumbre
cumbres
cumpla
cumplan
cumple
cumplean
cumplen
cumpli
cumplido
cumpliendo
cumplimiento
cumplio
cumplir
cumplirse
cun
cuna
cundinamarca
cunningham
cuota
cuotas
cup
cupo
cupos
cura
curacio
curado
curador
curar
curas
curazao
cure
curia
curico
curiosa
curiosamente
curiosidad
curiosidades
curioso
curiosos
current
curri
curriculum
curry
cursar
cursiva
curso
cursos
curtis
curtiss
curva
curvas
curvatura
cusco
custodia
cut
cuta
cuya
cuyas
cuyo
cuyos
cuzco
cv
cw
cyborg
cycle
cycling
cyclone
cynthia
cyprinidae
cypriniformes
cyril
cyrus
cz
czech
d
da
daba
daban
dad
dada
dadas
daddy
dado
dados
daga
dagens
daget
dai
daily
daisy
dakar
dakota
dal
dale
dali
dallas
dalton
daly
dam
dama
damas
damasco
dame
damia
damian
damien
damon
dan
dana
dance
dancing
dando
dane
danesa
daneses
danger
dangerous
dani
daniel
daniela
danielle
daniels
danilo
dann
danny
dano
dans
dante
danubio
danza
danzas
daphne
dar
dara
dare
daredevil
dari
dario
dark
darkness
darle
darles
darling
darme
darmstadt
darren
darse
darwin
daryl
das
dash
dass
data
database
datacio
datada
datado
datan
date
dates
dato
datos
daughter
dave
david
davidson
davies
davis
dawn
dawson
day
days
daytona
daß
db
dc
dd
ddr
de
dea
dead
deadline
deadly
deal
dean
dear
deas
death
deba
debajo
deban
debate
debates
debe
debemos
deben
deber
debera
deberes
deberi
deberse
debes
debi
debida
debidamente
debidas
debido
debiendo
debiera
debieron
debilidad
debilitado
debilito
debio
debo
deborah
debut
debuta
debutando
debutar
debuto
debuts
dec
decade
decadencia
decano
decca
december
decena
decenas
decente
decepcio
deci
decide
deciden
decidi
decidida
decidido
decidieron
decidio
decidir
decimal
decimocuarta
decimoquinta
decimos
decir
decirle
decirlo
decirse
decisio
decision
decisiones
decisiva
decisivo
declara
declaraba
declaracio
declaraciones
declarada
declaradas
declarado
declarados
declaran
declarando
declarar
declararon
declaro
declinacio
declino
declive
decoracio
decoraciones
decorada
decoradas
decorado
decorados
decorativas
decorativo
decorativos
decoro
decreta
decreto
decretos
dedica
dedicaba
dedicaban
dedicacio
dedicada
dedicadas
dedicado
dedicados
dedican
dedicar
dedicaron
dedicarse
dedicatoria
dedico
dedo
dedos
deduce
deducir
dee
deep
def
default
defecto
defectos
defence
defender
defenderse
defendi
defendida
defendido
defendiendo
defendio
defensa
defensas
defense
defensiva
defensivas
defensivo
defensor
defensora
defensores
deficiencia
deficiencias
deficiente
defiende
defienden
define
definen
defini
definicio
definiciones
definida
definidas
definido
definidos
definio
definir
definition
definitiva
definitivamente
definitivo
deforestacio
deformacio
degli
degradacio
dehesa
dei
deidad
deidades
deja
dejaba
dejaban
dejado
dejan
dejando
dejar
dejara
dejari
dejarlo
dejaron
dejarse
deje
dejen
dejo
del
dela
delante
delantera
delanteras
delantero
delanteros
delaware
delegacio
delegaciones
delegada
delegado
delegados
deleite
delfi
delfines
delgada
delgadas
delgado
delgados
delhi
delia
deliberadamente
deliberante
delicada
delicadeza
delicado
delicias
delimitacio
delimitado
delincuencia
delincuente
delincuentes
delirio
delito
delitos
dell
della
delle
dello
delos
dels
delta
deluxe
dem
dema
demand
demanda
demandas
demando
demarcacio
demas
demasiada
demasiado
demencia
demetrio
demi
demo
democra
democracia
democracy
democratic
demogra
demografi
demolicio
demolida
demolido
demon
demonio
demonios
demora
demos
demostracio
demostraciones
demostrado
demostrando
demostrar
demostraron
demostro
demuestra
demuestran
den
dena
denis
denise
denmark
dennis
denomina
denominaba
denominacio
denominaciones
denominada
denominadas
denominado
denominados
denominan
denominar
denominarse
denomino
denota
densa
densamente
densidad
denso
densos
dental
dentro
denuncia
denunciado
denuncian
denunciar
denuncias
denuncio
denver
deo
deos
departamental
departamentales
departamento
departamentos
department
depeche
depende
dependen
dependencia
dependencias
depender
dependera
dependi
dependiendo
dependiente
dependientes
depo
deportacio
deportados
deporte
deportes
deportista
deportistas
deportiva
deportivas
deportivo
deportivos
depositado
depositados
depredadores
depresio
depression
depuesto
der
derbi
derby
derecha
derechas
derecho
derechos
derek
deres
deriva
derivacio
derivada
derivadas
derivado
derivados
derivan
derivar
derivo
derrame
derribado
derribar
derribo
derrocado
derrocamiento
derrocar
derroco
derrota
derrotada
derrotado
derrotados
derrotando
derrotar
derrotaron
derrotas
derroto
derrumbe
des
desacuerdo
desacuerdos
desafi
desafiar
desafio
desafortunadamente
desagradable
desagu
desambiguacio
desamortizacio
desamparados
desaparece
desaparecen
desaparecer
desaparecida
desaparecidas
desaparecido
desaparecidos
desapareciendo
desaparecieron
desaparecio
desaparicio
desarme
desarrolla
desarrollaba
desarrollada
desarrolladas
desarrollado
desarrollador
desarrolladores
desarrollados
desarrollan
desarrollando
desarrollar
desarrollara
desarrollaron
desarrollarse
desarrollo
desarrollos
desastre
desastres
desato
desayuno
descalificacio
descalzos
descansa
descansan
descansar
descanso
descarga
descargar
descargas
descarta
descartado
descartes
descarto
descendencia
descendente
descender
descendi
descendido
descendiendo
descendiente
descendientes
descendieron
descendio
descenso
descensos
descentralizacio
descentralizado
desciende
descienden
descomposicio
desconfianza
desconoce
desconocen
desconoci
desconocida
desconocidas
desconocido
desconocidos
descontento
describe
described
describen
describi
describiendo
describieron
describio
describir
descripcio
descripciones
description
descriptions
descriptiva
descriptivo
descrita
descritas
descrito
descritos
descubierta
descubiertas
descubierto
descubiertos
descubre
descubren
descubridor
descubriendo
descubrieron
descubrimiento
descubrimientos
descubrio
descubrir
descuento
descuido
desde
desden
dese
desea
deseaba
deseaban
deseada
deseado
desean
deseando
desear
deseas
desechos
desee
desembarcar
desembarco
desemboca
desembocadura
desembocar
desempate
desempen
desempleo
desencadeno
desengan
desenlace
deseo
deseos
desert
desesperacio
desesperada
desesperado
desfile
desfiles
desgaste
desgracia
desgraciadamente
desgraciado
desgracias
deshacerse
desierto
desiertos
design
designa
designacio
designada
designado
designados
designar
designo
desigual
desigualdad
desigualdades
desiguales
desintegracio
desire
deslizamiento
desmond
desnivel
desnuda
desnudo
desnudos
deso
desorden
despacho
despacio
despedida
despedido
despegar
despegue
despertar
desperto
despide
despidio
despido
despierta
desplaza
desplazado
desplazados
desplazamiento
desplazamientos
desplazarse
desplazo
desplegar
desplego
despliegue
despoblado
despoblados
desprecio
desprende
despue
despues
desta
destaca
destacaba
destacable
destacables
destacada
destacadas
destacado
destacados
destacamento
destacan
destacando
destacar
destacaron
destaco
desterrado
destierro
destinada
destinadas
destinado
destinados
destino
destinos
destiny
destitucio
destituido
destreza
destruccio
destruction
destructor
destructores
destruida
destruidas
destruido
destruidos
destruir
destruye
destruyen
destruyendo
destruyeron
destruyo
desusado
desuso
desventaja
desventajas
desvi
desviacio
desviar
det
details
detalla
detallada
detallado
detalle
detalles
deteccio
detecta
detectado
detectar
detective
detectives
detector
detencio
detenciones
detener
detenerse
detenida
detenido
detenidos
deterioro
determina
determinacio
determinada
determinadas
determinado
determinados
determinan
determinante
determinantes
determinar
determinara
determinaron
determine
determino
detiene
detienen
detra
detrimento
detroit
detuvieron
detuvo
deuda
deudas
deudor
deus
deutsch
deutsche
deutschen
deutscher
deutsches
deutschland
deux
dev
development
devenir
devil
devocio
devolucio
devolver
devolvio
devon
devoto
devotos
devuelto
devuelve
dexter
dez
df
dg
dh
di
dia
diabetes
diablo
diablos
diabo
diagno
diagonal
diagrama
diagramas
dial
diale
dialecto
dialectos
dialnet
diamante
diamantes
diamond
diamonds
diana
diane
diaria
diariamente
diarias
diario
diarios
diarrea
diary
dias
diaz
dibujado
dibujante
dibujar
dibujo
dibujos
dic
dica
dicamente
dicas
diccionario
diccionarios
dice
dicen
dices
dicha
dichas
dicho
dichos
dici
dicie
diciembre
diciendo
dick
dickens
dickinson
dico
dicos
dicta
dictado
dictador
dictadura
dictamen
dictar
dictionary
dictionnaire
dicto
did
dida
dides
didier
didn
die
diecinueve
dieciocho
diecise
diecisiete
died
diego
diente
dientes
diera
dieron
dies
diese
diesel
dieser
diestra
diestro
dieta
dieter
dietrich
diez
dif
diferencia
diferenciacio
diferenciadas
diferencial
diferenciales
diferencian
diferenciar
diferencias
diferente
diferentes
different
difi
dificulta
dificultad
dificultades
difiere
difieren
difundida
difundido
difundio
difundir
difunto
difuntos
difusio
diga
digas
digest
digestivo
digital
digitales
digitalizado
digna
dignidad
digno
dignos
digo
digos
dije
dijera
dijeron
dijo
dijon
dilema
diligencia
diligencias
dillon
diluvio
dime
dimensio
dimensional
dimensiones
diminutivo
dimisio
dimitio
dimitri
din
dina
dinamarca
dinamo
dinasti
dinero
dino
dinosaur
dinosauria
dinosaurio
dinosaurios
dinosaurs
dio
diocesano
diocese
diodoro
dion
dionisio
dios
diosa
diosas
dioses
diploma
diplomacia
diplomado
diptera
dipterorum
diputacio
diputada
diputado
diputados
dique
dir
dira
dire
direccio
direcciones
direct
directa
directamente
directas
direction
directiva
directivas
directivo
directivos
directo
director
directora
directores
directorio
directory
directos
directrices
diri
dirige
dirigen
dirigencia
dirigente
dirigentes
dirigi
dirigida
dirigidas
dirigido
dirigidos
dirigie
dirigiendo
dirigieron
dirigio
dirigir
dirigirse
dirk
dirty
dis
disaster
disc
discapacidad
disci
disciplina
disciplinas
disco
discogra
discografi
discography
discogs
discordia
discos
discoteca
discovery
discrecio
discrepancias
discreta
discretamente
discreto
discriminacio
disculpa
disculpas
discurre
discurso
discursos
discusio
discusiones
discussion
discute
discuten
discutido
discutir
disease
diseases
disen
disfraces
disfraz
disfrazado
disfruta
disfrutar
disfrute
disfruto
disgusto
disidentes
disminucio
disminuido
disminuir
disminuye
disminuyendo
disminuyo
disney
disolucio
disolver
disolvio
disorders
dispara
disparado
disparando
disparar
dispararon
disparo
disparos
dispersa
dispersas
dispersio
disperso
dispersos
display
displaystyle
dispone
disponen
disponer
disponi
disponibilidad
disponible
disponibles
disposicio
disposiciones
dispositivo
dispositivos
dispuesta
dispuestas
dispuesto
dispuestos
dispuso
disputa
disputaba
disputada
disputado
disputados
disputan
disputando
disputar
disputara
disputari
disputaron
disputarse
disputas
disputo
disquera
dista
distancia
distancias
distante
distantes
distincio
distinciones
distingue
distinguen
distingui
distinguida
distinguido
distinguidos
distinguio
distinguir
distinta
distintas
distintiva
distintivo
distintivos
distinto
distintos
distorsio
distraccio
distrai
distribucio
distribuciones
distribuida
distribuidas
distribuido
distribuidor
distribuidora
distribuidos
distribuir
distribution
distribuye
distribuyen
distribuyo
district
distrital
distrito
distritos
disturbios
disuelta
disuelto
disuelve
dit
dita
ditas
dition
ditions
dito
ditos
diva
divas
diversa
diversas
diversidad
diversio
diversity
diverso
diversos
divertida
divertido
divi
divide
dividen
dividi
dividida
divididas
dividido
divididos
dividieron
dividio
dividir
dividirse
divina
divinas
divine
divinidad
divino
divinos
divisa
divisas
divisio
division
divisional
divisiones
divisoria
divorciaron
divorcio
divulgacio
dixo
dixon
diz
dizionario
dj
djokovic
djvu
dk
dl
dm
dminton
dmitri
dn
dna
dney
do
doblado
doblaje
doblar
doble
dobles
doblete
doc
doce
docena
docenas
docencia
docente
docentes
docs
doctor
doctora
doctorado
doctoral
doctores
doctoro
doctrina
doctrinas
document
documenta
documentacio
documentada
documentado
documental
documentales
documentary
documento
documentos
documents
dodge
dodgers
dodson
does
dog
dogma
dogs
doha
doi
dollar
dolly
dolo
dolor
dolores
dolorosa
doloroso
dolos
dom
domain
dome
domenico
domestic
domi
domicilio
domina
dominaba
dominacio
dominada
dominado
dominan
dominante
dominantes
dominar
domingo
domingos
dominic
dominica
dominical
dominicana
dominicano
dominico
dominicos
dominio
dominios
dominique
domino
domo
don
dona
donacio
donaciones
donada
donado
donald
donante
donantes
donato
doncella
doncellas
donde
done
dones
donetsk
dong
donna
donne
donnell
dono
donoso
donovan
donsker
doo
doom
door
dopaje
dor
dora
dorada
doradas
dorado
dorados
doria
dorian
doris
dormi
dormido
dormir
dormitorio
dormitorios
dorna
dorotea
dorothy
dorsal
dorsales
dorso
dortmund
dos
doscientas
doscientos
dosis
dossier
dot
dota
dotacio
dotada
dotado
dotados
dotar
dote
dotes
doto
dots
douard
double
doubleday
doug
douglas
dove
dover
down
download
downtown
doy
doyle
dp
dq
dr
dra
draft
drag
drago
dragon
dragones
dragons
drake
drama
dramas
dramaturgia
dramaturgo
dream
dreams
drenaje
dresde
drew
drico
dricos
drive
driver
dro
droga
drogas
dromo
dromos
drop
drops
drug
drugs
drum
ds
dt
du
dua
dual
duarte
dub
duba
dubai
dubli
dublin
dubois
ducado
ducados
ducal
duck
duda
dudar
dudas
dudley
dudo
dudosa
dudoso
due
duelo
duelos
duen
duende
duerme
duero
dueto
duff
duffy
duke
dula
dulce
dulces
dulo
dulos
dulzura
dumas
dumont
dunas
duncan
dune
dunn
duo
duode
dupla
dupont
duque
duques
duquesa
dura
duracio
duradera
duramente
duran
durand
durango
durante
durar
durara
durari
duras
durch
dureza
durham
during
durmiendo
duro
duros
dust
dutch
dutchcharts
duty
dux
dvd
dw
dwight
dx
dylan
dynamics
dynasty
dz
e
ea
each
eagle
eagles
ear
earl
earliest
early
earth
earthquake
east
eastern
easy
eat
eau
ebert
ebird
ebro
ec
eca
ecas
echa
echado
echando
echar
echeverri
echo
ecle
eclesia
eclipse
eco
ecolo
ecologi
ecological
ecologista
ecology
econo
economi
economia
economic
economics
economist
economista
economistas
economy
ecorregio
ecos
ecosistema
ecosistemas
ecuacio
ecuaciones
ecuador
ecuatorial
ecuatoriana
ecuatoriano
ecuestre
ecume
ecw
ed
eda
edad
edades
eddie
eddy
ede
eden
edgar
edgardo
edge
edicio
ediciones
edicions
edicto
edificacio
edificaciones
edificada
edificado
edificar
edificio
edificios
edifico
edimburgo
edinburgh
edison
edit
edita
editada
editado
editados
editar
edited
edith
edition
editions
edito
editor
editora
editore
editores
editorial
editoriales
editors
edizioni
edmond
edmonton
edmund
edmundo
edo
edos
eds
edu
eduard
eduardo
educacio
educada
educado
educador
educar
education
educational
educativa
educativas
educativo
educativos
educo
edward
edwards
edwin
ee
eeuu
ef
efe
efectiva
efectivamente
efectivas
efectividad
efectivo
efectivos
efecto
efectos
efectu
efectuada
efectuado
efectuar
efectuo
efeme
effect
effects
efi
eficaces
eficacia
eficaz
eficiencia
eficiente
eficientes
efrai
egan
egeo
egg
egipcia
egipcio
egipcios
egipto
ego
egoi
egresado
egreso
egypt
egyptian
eh
ehess
ei
eight
ein
eine
einem
einen
einer
eines
einstein
eisenhower
ej
eje
ejecucio
ejecuciones
ejecuta
ejecutada
ejecutadas
ejecutado
ejecutados
ejecutan
ejecutar
ejecutiva
ejecutivo
ejecutivos
ejecuto
ejemplar
ejemplares
ejemplo
ejemplos
ejerce
ejercen
ejercer
ejerci
ejercicio
ejercicios
ejercida
ejercido
ejerciendo
ejercio
ejes
ejido
ek
el
ela
elabora
elaboracio
elaborada
elaboradas
elaborado
elaborados
elaboran
elaborar
elaboro
elaine
elba
elche
elder
eldiario
ele
eleanor
eleccio
elecciones
electa
election
elections
electo
elector
electorado
electoral
electorales
electores
electos
electra
electric
electricidad
electro
electromagne
electrones
electronic
electronics
elefante
elefantes
elegancia
elegans
elegante
elegantes
elegi
elegida
elegidas
elegido
elegidos
elegir
elemental
elementales
elementary
elemento
elementos
elements
elena
elenco
elespectador
eleva
elevacio
elevaciones
elevada
elevadas
elevado
elevados
elevan
elevar
eleven
elevo
elfos
eli
elias
elige
eligen
eligiendo
eligieron
eligio
elijah
elimina
eliminacio
eliminada
eliminadas
eliminado
eliminados
eliminando
eliminar
eliminaron
eliminatoria
eliminatorias
elimino
eliot
elisa
elisabeth
eliseo
elite
eliza
elizabeth
elizondo
ell
ella
ellas
elle
ellen
elles
ellie
elliot
elliott
ellis
ello
ellos
elmundo
eln
elo
elocuencia
elogiado
elogio
elogios
eloi
eloy
elpais
els
elsa
else
elsevier
elton
elvira
elvis
em
emancipacio
emanuel
embajada
embajadas
embajador
embajadora
embajadores
embalse
embalses
embarazada
embarazo
embarcacio
embarcaciones
embarco
embargo
embarque
embassy
emblema
emblemas
emboscada
embrio
eme
emelec
emerge
emergencia
emergencias
emergency
emergente
emergentes
emerson
emes
emi
emigracio
emigrantes
emigrar
emigraron
emigro
emil
emilia
emiliano
emilio
emily
eminem
eminente
eminentemente
emir
emiratos
emisio
emisiones
emisor
emisora
emisoras
emite
emiten
emiti
emitida
emitidas
emitido
emitidos
emitieron
emitio
emitir
emitirse
emma
emmanuel
emmy
emocio
emocional
emocionales
emocionante
emociones
emol
empalme
empatado
empatados
empatar
empate
empates
empato
empen
emperador
emperadores
emperatriz
empero
emperor
empezaba
empezado
empezando
empezar
empezara
empezaron
empezo
empi
empieza
empiezan
empire
emplazamiento
emplea
empleaba
empleada
empleadas
empleado
empleados
emplean
empleando
emplear
emplearon
emplearse
empleo
empleos
emporis
emprende
emprender
emprendimiento
emprendio
empresa
empresaria
empresarial
empresariales
empresario
empresarios
empresas
empuja
empuje
empujo
empun
en
ena
enamora
enamorada
enamorado
enamorados
enamoro
enana
enano
enanos
encabezada
encabezado
encabezados
encabezar
encabezo
encaje
encanta
encantado
encantador
encantadora
encanto
encarcelado
encarcelados
encarcelamiento
encarga
encargaba
encargada
encargadas
encargado
encargados
encargan
encargaron
encargo
encargos
encarna
encarnacio
encender
encendida
encendido
encerrada
encerrado
enci
enciclope
enciclopedia
enciende
encierra
encierro
encima
encina
encinas
enclave
encli
encomendo
encomienda
encontra
encontraba
encontraban
encontrada
encontradas
encontrado
encontrados
encontramos
encontrando
encontrar
encontrara
encontrari
encontraron
encontrarse
encontre
encontro
encore
encuentra
encuentran
encuentre
encuentren
encuentro
encuentros
encuesta
encuestas
encyclopaedia
encyclopedia
encyclopædia
end
ende
endesa
ending
endo
ends
ene
eneas
enemiga
enemigas
enemigo
enemigos
enemistad
enemy
energe
energi
energy
enero
enfatiza
enferma
enfermedad
enfermedades
enfermera
enfermeras
enfermeri
enfermo
enfermos
enfoca
enfocada
enfocado
enfoque
enfoques
enfrenta
enfrentaba
enfrentado
enfrentamiento
enfrentamientos
enfrentan
enfrentando
enfrentar
enfrentara
enfrentari
enfrentaron
enfrentarse
enfrente
enfrento
enfriamiento
eng
engan
engel
engels
engine
engineering
engineers
england
english
engloba
enicospilus
enigma
enix
enlace
enlaces
enlaza
enmarca
enmarcado
enmienda
enmiendas
eno
enojo
enorme
enormemente
enormes
enough
enri
enric
enrico
enrique
enriquecimiento
enriqueta
ensalada
ensamblaje
ensanche
ensayista
ensayo
ensayos
ense
enseguida
ensemble
ensen
ensenada
ensuen
ente
entender
entenderse
entendi
entendida
entendido
entendimiento
entendio
enter
entera
enterado
enteramente
enterarse
enteras
entero
enteros
enterprise
enterrada
enterrado
enterrados
enterramiento
enterrar
entertainment
entes
entidad
entidades
entiende
entienden
entiendo
entierro
ento
entonces
entorno
entornos
entra
entraba
entraban
entrada
entradas
entrado
entramado
entran
entrando
entrar
entrara
entrari
entraron
entre
entrega
entregada
entregadas
entregado
entregados
entregan
entregar
entregara
entregaron
entregas
entrego
entrena
entrenado
entrenador
entrenadores
entrenados
entrenamiento
entrenamientos
entrenar
entreno
entretanto
entretenimiento
entrevista
entrevistado
entrevistas
entrevisto
entro
entropi
entry
entusiasmo
entusiasta
entusiastas
enumera
envejecimiento
envenenamiento
envergadura
envi
enviaba
enviada
enviadas
enviado
enviados
enviando
enviar
enviara
enviaron
envidia
envio
environment
environmental
envuelta
envuelto
envueltos
envuelve
enz
enza
enzima
enzimas
enzo
eo
eoceno
eol
ep
eparqui
epi
epic
epicentro
epidemia
epidemias
epidermis
episcopal
episode
episodes
episodio
episodios
epo
epopeya
epsilon
epstein
equidad
equilibrio
equipada
equipadas
equipado
equipados
equipaje
equipamiento
equipo
equipos
equivale
equivalencia
equivalente
equivalentes
equivocado
er
era
eran
eras
erc
ercilla
ereccio
eres
eri
eric
erica
erich
erick
erigida
erigido
erigio
erik
erika
eriksson
erin
eritrea
ermita
ermitan
ermitas
ernest
ernesto
ernst
ero
eros
erosio
erra
erradicar
errante
erro
error
errores
ers
erudito
eruditos
erupcio
erupciones
erwin
es
esa
esas
esbozo
esc
esca
escala
escalada
escalante
escalar
escalas
escalera
escaleras
escalo
escalones
escamas
escan
escandinavia
escapa
escapado
escapan
escapar
escaparon
escape
escapo
escarabajo
escarabajos
escarlata
escasa
escasamente
escasas
escasez
escaso
escasos
esce
escena
escenario
escenarios
escenas
escenografi
escepticismo
eschmeyer
escipio
escisio
esclava
esclavas
esclavitud
esclavo
esclavos
escobar
escoce
escocesa
escoceses
escocia
escoger
escogida
escogido
escogidos
escogio
escola
escolar
escolares
escolta
escombros
esconde
esconderse
escondida
escondidas
escondido
escondite
escopeta
escorial
escorpio
escriba
escribano
escribe
escriben
escribi
escribiendo
escribieron
escribio
escribir
escrita
escritas
escrito
escritor
escritora
escritoras
escritores
escritorio
escritos
escritura
escrituras
escru
escrutinio
escuadra
escuadrilla
escuadro
escuadrones
escucha
escuchaba
escuchado
escuchan
escuchando
escuchar
escucho
escuderi
escudero
escudo
escudos
escuela
escuelas
esculto
escultor
escultores
escultura
esculturas
ese
esencia
esencial
esenciales
esencialmente
esfe
esfera
esferas
esfuerzo
esfuerzos
esgrima
eslalon
eslava
eslavo
eslavos
eslogan
eslovaco
eslovaquia
eslovenia
esloveno
esmalte
esmeralda
esmeraldas
eso
esos
esp
espa
espacial
espaciales
espacio
espacios
espada
espadan
espadas
espalda
espaldas
espan
espanto
espanyol
esparta
espasa
espe
especi
especial
especiales
especialidad
especialidades
especialista
especialistas
especializa
especializacio
especializada
especializadas
especializado
especializados
especializo
especialmente
especias
especie
especies
especifica
especificacio
especificaciones
especifican
especificar
especta
espectacular
espectaculares
espectador
espectadores
espectral
espectro
espectros
especulacio
especulaciones
espejo
espejos
espera
esperaba
esperaban
esperada
esperado
esperan
esperando
esperanto
esperanza
esperanzas
esperar
espero
espesa
espesor
espi
espiga
espigas
espina
espinal
espinas
espino
espinosa
espinoza
espionaje
espiral
espiritual
espirituales
espiritualidad
esple
esplendor
espn
esponja
esponta
espora
esporas
esporte
esposa
esposas
esposo
esposos
espuma
esqueleto
esqueletos
esquema
esquemas
esquerra
esqui
esquina
esquinas
esquivel
essay
essays
essen
essential
essex
est
esta
estaba
estaban
estabilidad
estabilizacio
estable
establece
establecen
establecer
establecera
establecerse
estableci
establecida
establecidas
establecido
establecidos
establecie
estableciendo
establecieron
establecimiento
establecimientos
establecio
estables
establezca
estacio
estacional
estacionales
estacionamiento
estaciones
estadi
estadio
estadios
estadista
estado
estados
estadounidense
estadounidenses
estafa
estallar
estallido
estallo
estambres
estambul
estamos
estampa
estampas
estan
estancia
estancias
estandarte
estando
estanislao
estanque
estanques
estar
estara
estari
estas
estatal
estatales
estate
estati
estatua
estatuas
estatura
estatus
estatuto
estatutos
este
esteban
estela
estelar
estelares
estella
estepa
ester
estereotipos
esterlinas
estero
esteve
esther
esti
estigma
estili
estilizado
estilo
estilos
estima
estimacio
estimaciones
estimada
estimado
estimar
estimo
estimulacio
estimular
estirpe
estival
esto
estocolmo
estonia
estonio
estos
estoy
estrabo
estrada
estragos
estrasburgo
estrate
estrategia
estrategias
estrato
estratos
estre
estrecha
estrechamente
estrechas
estrecho
estrechos
estrella
estrellas
estrello
estrena
estrenada
estrenado
estrenara
estreno
estrenos
estribaciones
estribillo
estricta
estrictamente
estrictas
estricto
estro
estrofa
estrofas
estructura
estructural
estructurales
estructuras
estu
estuario
estudia
estudiaba
estudiada
estudiado
estudiados
estudian
estudiando
estudiante
estudiantes
estudiantil
estudiantiles
estudiar
estudio
estudios
estudioso
estudiosos
estudis
estuve
estuviera
estuvieran
estuvieron
estuviese
estuvo
et
eta
etanol
etapa
etapas
etas
etc
etce
ete
eterna
eternal
eternamente
eternidad
eterno
ethan
ethics
ethnic
ethnologue
eti
etimolo
etimologi
etiopi
etiqueta
etiquetas
etnia
etnias
etnogra
etnografi
etwas
eu
eua
eucaristi
euge
eugen
eugene
eugenia
eugenio
eulalia
euler
eun
euphorbia
eur
eurasia
eure
euri
euro
eurobasket
eurocopa
eurogamer
europa
europapress
europe
europea
european
europeas
europeo
europeos
euros
eurovisio
eurovision
eus
eusebio
euskadi
euskal
euskera
eusko
ev
eva
evacuacio
evacuar
evalu
evaluacio
evaluaciones
evaluar
evaluation
evan
evange
evangelio
evangelios
evangelista
evangelizacio
evans
evaporacio
evaristo
evasio
eve
evelyn
even
evening
event
evento
eventos
events
eventual
eventualmente
ever
everardo
everest
everett
everton
every
everybody
everything
evic
evidence
evidencia
evidencias
evidente
evidentemente
evidentes
evil
evita
evitando
evitar
evito
evo
evoca
evolucio
evolucionado
evolucionando
evoluciono
evolution
evolutionary
evolutiva
evolutivo
ew
ex
exa
exacta
exactamente
exactas
exactitud
exacto
exaltacio
examen
examina
examinar
examino
example
excavacio
excavaciones
excavado
exce
excel
excelencia
excelente
excelentes
excelenti
excelsior
excentricidad
excepcio
excepcional
excepcionales
excepcionalmente
excepciones
excepto
exceptuando
excesiva
excesivamente
excesivo
exceso
excesos
exchange
excitacio
exclamo
excluido
excluidos
exclusio
exclusiva
exclusivamente
exclusivas
exclusive
exclusivo
exclusivos
excluye
excluyendo
excmo
excursio
excursiones
excusa
exe
executive
exento
exeter
exfutbolista
exhibe
exhiben
exhibicio
exhibiciones
exhibio
exhibir
exhibition
exhortatorio
exige
exigen
exigencia
exigencias
exigi
exigiendo
exigio
exigir
exiliado
exiliados
exiliarse
exilio
exista
existan
existe
existen
existencia
existente
existentes
existi
existido
existiendo
existieron
existio
existir
exit
exitosa
exitosamente
exitosas
exitoso
exitosos
exjugador
exministro
exo
exoplanet
exp
expand
expande
expandido
expandio
expandir
expansio
expansion
expectativa
expectativas
expedicio
expediciones
expediente
expedientes
expedir
expedition
expensas
experience
experiencia
experiencias
experiment
experimenta
experimentacio
experimentado
experimentados
experimental
experimentales
experimentan
experimentando
experimentar
experimento
experimentos
expert
experta
experto
expertos
explanada
expli
explica
explicaba
explicacio
explicaciones
explicado
explican
explicando
explicar
explico
explora
exploracio
exploraciones
explorador
exploradores
explorar
exploration
explorer
exploro
explosio
explosiones
explosiva
explosivo
explosivos
explota
explotacio
explotaciones
explotar
exploto
expo
expone
exponen
exponencial
exponente
exponentes
exponer
exportacio
exportaciones
exposicio
exposiciones
expresa
expresaba
expresada
expresado
expresamente
expresan
expresando
expresar
expresaron
expresarse
expresidente
expresio
expresiones
expreso
express
expression
expropiacio
expuesta
expuestas
expuesto
expuestos
expulsada
expulsado
expulsados
expulsar
expulsio
expulso
expuso
extended
extender
extenderse
extendi
extendida
extendidas
extendido
extendidos
extendie
extendiendo
extendieron
extendio
extensa
extensamente
extensas
extensio
extension
extensiones
extenso
extensos
exterior
exteriores
exterminio
externa
externas
externo
externos
extiende
extienden
extincio
extinguido
extinta
extinto
extra
extraccio
extracto
extractos
extradicio
extrae
extraer
extrai
extran
extranjera
extranjeras
extranjero
extranjeros
extraordinaria
extraordinariamente
extraordinarias
extraordinario
extraordinarios
extras
extrasolar
extrasolares
extraterrestre
extraterrestres
extravagante
extrema
extremadamente
extremadura
extremas
extreme
extremen
extremidad
extremidades
extremo
extremos
ey
eye
eyes
ez
ezequiel
f
fa
faa
faber
fabia
fabio
fabra
fabrica
fabricacio
fabricada
fabricadas
fabricado
fabricados
fabrican
fabricante
fabricantes
fabricar
fabricaron
fabrico
faccio
facciones
face
facebook
faces
faceta
facetas
facey
fachada
fachadas
facial
facilidad
facilidades
facilita
facilitan
facilitando
facilitar
facilito
facility
facsi
fact
factbook
factfinder
facto
factor
factores
factori
factory
facts
factura
facultad
facultades
facultativo
facundo
fadrique
faga
fagas
fago
fagos
fair
fairy
faith
faja
fajardo
falange
falco
falcon
falda
faldas
fall
falla
fallar
fallas
fallece
fallecer
fallecida
fallecido
fallecidos
fallecieron
fallecimiento
fallecio
fallen
fallida
fallido
falling
fallo
fallos
falls
falo
falsa
falsas
false
falsedad
falsificacio
falso
falsos
falta
faltaba
faltaban
faltan
faltar
faltas
falto
fam
fama
fame
familia
familiar
familiares
familias
families
family
famosa
famosas
famoso
famosos
famous
fan
fana
fanero
fanes
fang
fanny
fano
fans
fanta
fantasi
fantasma
fantasmas
fantastic
fantasy
fao
faq
far
fara
farao
farc
fari
farin
farm
farmace
farmacia
farmer
faro
faros
farrell
farsa
fasci
fascismo
fascista
fascistas
fase
fases
fashion
faso
fast
fat
fatal
fatales
fate
father
fatiga
fauna
faustino
fausto
favor
favorable
favorables
favorece
favorecer
favorecido
favorecio
favores
favorita
favoritas
favorite
favorito
favoritos
fax
fay
faz
fbi
fc
fda
fe
fea
fear
feat
feature
features
featuring
feb
febrero
february
fecha
fechaacceso
fechada
fechado
fechas
fecundidad
federacio
federaciones
federado
federal
federales
federalismo
federation
federativa
federativas
federer
federico
feel
feeling
fei
felice
felices
feliciano
felicidad
felipe
feliu
felix
feliz
felizmente
fellow
female
femenil
femenina
femeninas
femenino
femeninos
feminismo
feminist
feminista
feministas
femme
femmes
feng
fenner
feno
feo
fer
fera
feras
ferdinand
ferguson
feria
ferias
fermentacio
fermi
ferna
fernanda
fernandes
fernandez
fernando
fero
feroe
feros
feroz
ferrara
ferrari
ferreira
ferrer
ferrero
ferro
ferrocarril
ferrocarriles
ferrol
ferroviaria
ferroviarias
ferroviario
ferroviarios
ferry
fertilidad
fervor
fest
festejo
festejos
festival
festivales
festividad
festividades
festivo
festivos
feto
feudal
feudales
feudo
fever
fez
ff
fhl
fi
fia
fiabilidad
fiable
fianza
fiat
fiba
fibra
fibras
fica
ficamente
ficas
ficcio
fice
ficha
fichado
fichaje
fichajes
fichar
fichas
fichero
ficheros
ficho
ficit
fico
ficos
ficticia
ficticio
fiction
ficus
fide
fidel
fidelidad
fiebre
fiel
field
fields
fieles
fielmente
fiera
fieras
fierro
fiesta
fiestas
fifa
fifth
fig
figaro
fight
fighter
fighters
fighting
figueras
figueroa
figura
figuraba
figurado
figuran
figurar
figuras
figure
figures
figuro
fija
fijacio
fijada
fijado
fijar
fijas
fijo
fijos
fil
fila
filadelfia
filamentos
filarmo
filas
file
files
filiacio
filial
filiales
filipina
filipinas
filipino
filipinos
filipo
filippo
film
filmacio
filmada
filmado
filmaffinity
filmar
filme
filmes
filming
filmo
filmografi
films
filo
filogene
filologi
filos
filoso
filosofi
filtracio
filtrado
filtro
filtros
fin
fina
final
finale
finales
finalidad
finalista
finalistas
finaliza
finalizacio
finalizada
finalizado
finalizando
finalizar
finalizaron
finalizo
finally
finalmente
finals
finance
financiacio
financiada
financiado
financial
financiamiento
financiar
financiera
financieras
financiero
financieros
financio
finanzas
finas
finca
fincas
find
finds
fine
fines
finito
finland
finlande
finlandesa
finlandia
finn
fino
finos
fio
fiona
fiordo
fire
firefox
firenze
firma
firmada
firmado
firmados
firman
firmando
firmantes
firmar
firmaron
firmas
firme
firmemente
firmes
firmeza
firmo
first
fis
fiscal
fiscales
fiscali
fiscalizacio
fischer
fish
fishbase
fisher
fishes
fisio
fisiolo
fisiologi
fisis
fisonomi
fit
fitness
fito
fitz
fitzgerald
five
fiyi
fk
fl
fla
flaco
flag
flair
flamenca
flamenco
flamencos
flamengo
flanco
flancos
flandes
flash
flashback
flauta
flautas
flavia
flavio
flecha
flechas
fleet
fleming
fletcher
flexibilidad
flexible
flexibles
flexio
flight
flo
flood
floor
flor
flora
floracio
floral
florales
florece
florence
florencia
florencio
florentino
flores
florian
florida
flota
flotante
flotantes
flotas
flotilla
flow
flower
flowers
floyd
flu
fluidez
fluido
fluidos
flujo
flujos
fluvial
fluviales
fluye
fly
flying
flynn
fm
fmi
fn
fo
focal
focas
foco
focos
focus
foix
fol
folclo
folclore
foley
folha
foli
folio
folk
folklo
folklore
follaje
folleto
folletos
follow
following
fomentar
fomento
fonda
fondo
fondos
fone
fono
fonos
fonseca
font
fontaine
fontana
food
foot
football
footballdatabase
for
fora
foral
foramini
foraminifera
foraminiferal
foras
forbes
force
forces
ford
foreign
forense
forest
forestal
forestales
forever
forgotten
forja
forjado
form
forma
formaba
formaban
formacio
formaciones
formada
formadas
formado
formados
formal
formales
formalmente
forman
formando
formar
formara
formari
formaron
formarse
formas
format
formation
formato
formatos
forme
formen
former
formidable
formo
formosa
forms
formula
formulacio
formular
formulatv
foro
foros
forster
fort
fortalecer
fortalecimiento
fortaleza
fortalezas
forti
fortificacio
fortificaciones
fortificada
fortificado
fortuna
fortune
forum
forward
forza
forzada
forzado
forzados
forzar
forzo
forzoso
fosa
fosas
fosfato
foso
fossil
foster
foto
fotogra
fotografi
fotogramas
fotos
found
foundation
founder
four
fourth
fowler
fox
fr
fra
frac
fracasado
fracasaron
fracaso
fracasos
fraccio
fracciones
fractura
fracturas
fraga
fragata
fragatas
fragmentacio
fragmento
fragmentos
fraile
frailes
frame
framework
fran
franc
franca
france
frances
francesa
francesas
francesc
francesca
francesco
franceses
francia
francis
francisca
franciscana
franciscano
franciscanos
francisco
franck
franco
francos
francotirador
franja
franjas
frank
frankenstein
frankfurt
frankie
franklin
franqueza
franquicia
franquicias
franquismo
franquista
franquistas
frans
franz
frase
fraser
frases
fraternidad
frau
fraude
fray
fre
frecuencia
frecuencias
frecuente
frecuentemente
frecuentes
fred
freddie
freddy
frederic
frederick
free
freedom
freeman
freguesia
freguesias
frei
freire
frenar
french
frene
freno
frenos
frente
frentes
fresca
frescas
fresco
frescos
frescura
fresh
freshwater
fresno
freud
frey
fri
friburgo
frica
friccio
frida
friday
friedman
friedrich
friend
friends
frijol
friso
frito
fritz
fro
froese
frog
from
frondizi
front
frontal
frontales
frontera
fronteras
fronteriza
fronterizas
fronterizo
fronterizos
frontier
fronto
frost
frozen
fru
fructi
fruit
frustracio
frustrado
fruta
frutales
frutas
fruticultura
fruto
frutos
fry
fs
ft
fu
fue
fuego
fuegos
fuel
fuente
fuentes
fuera
fueran
fuere
fuero
fueron
fueros
fuerte
fuertemente
fuertes
fuerza
fuerzas
fuese
fuesen
fuga
fugaz
fugitivos
fugo
fui
fuimos
fuji
fujimori
fujiwara
full
fuller
fulton
fumar
fun
funcio
funciona
funcionaba
funcional
funcionales
funcionalidad
funcionamiento
funcionan
funcionando
funcionar
funcionario
funcionarios
funciones
funciono
function
functional
fund
funda
fundacio
fundacional
fundaciones
fundada
fundadas
fundado
fundador
fundadora
fundadores
fundamental
fundamentales
fundamentalmente
fundamento
fundamentos
fundando
fundar
fundaron
funde
fundicio
fundido
fundo
funeral
funerales
funeraria
funerario
funerarios
funes
fungi
fungio
funk
furia
furioso
furor
further
fury
fuselaje
fusil
fusilado
fusilados
fusileros
fusiles
fusio
fusion
fusiona
fusionaron
fusionarse
fusiono
futbol
futboli
futbolista
futbolistas
futebol
futon
futsal
futura
futuras
future
futuro
futuros
fx
g
ga
gabinete
gabo
gabriel
gabriela
gabriele
gabrielle
gaceta
gado
gae
gaetano
gafas
gaga
gaia
gaita
gal
gala
galardo
galardonada
galardonado
galardones
galas
galaxia
galaxias
galaxy
galdo
gale
galega
galera
galeras
galeri
galerie
gales
galia
galicia
galilea
galileo
galindo
gallagher
gallardo
gallega
gallegas
gallego
gallegos
gallery
galletas
gallimard
gallina
gallinas
gallo
gallos
galo
galos
galva
gama
gamarra
gamas
gambia
gamboa
game
gamecube
gamer
gamerankings
games
gamespot
gaming
gamma
gan
gana
ganaba
ganada
ganadera
ganaderi
ganadero
ganaderos
ganado
ganador
ganadora
ganadores
ganados
ganan
ganancia
ganancias
ganando
ganar
ganara
ganari
ganaron
ganarse
ganas
gancho
gandhi
gandi
gane
gang
gano
gante
gao
gaon
gap
gara
garaje
garanti
garantiza
garantizar
garay
garce
garci
garcia
garcilaso
gard
garde
gardel
garden
gardens
gardiner
gardner
garfield
garganta
garibaldi
garland
garona
garra
garras
garrett
garrido
garros
gary
garza
garzo
gas
gases
gasolina
gaspar
gastado
gastar
gastero
gasto
gaston
gastos
gastrono
gastronomi
gata
gate
gates
gateway
gato
gatos
gaucho
gaudi
gaulle
gavila
gavin
gaviota
gay
gaza
gazeta
gazette
gazetteer
gb
gbif
gc
ge
gea
gear
gel
gema
gemas
gemeinden
gemelas
gemelo
gemelos
gemma
gen
gena
genaro
genas
gendarmeri
gender
gene
genealo
genealogi
genealogy
genera
generacio
generaciones
generada
generadas
generado
generador
generadores
generados
general
generales
generali
generalidad
generalitat
generalizacio
generalizada
generalizado
generalmente
generan
generando
generar
generaron
generation
genero
generosa
generosidad
generoso
genes
genesis
genetic
genetics
genial
genio
genios
genitales
genitivo
genius
geno
genocide
genocidio
genoma
genome
genos
gens
gente
gentes
gentil
gentilicio
genus
geo
geoestadi
geoff
geoffrey
geofi
geogra
geografi
geografia
geographic
geographical
geography
geolo
geologi
geological
geology
geome
geometri
geopoli
georg
george
georges
georgetown
georgia
georgiana
georgiano
georgina
ger
gerais
gerald
gerard
gerardo
gerencia
gerente
gerhard
germa
germain
german
germania
germano
germany
germen
germoplasma
germplasm
gero
gerona
gerry
gertrudis
gerundio
geschichte
gesellschaft
gesta
gestacio
gestio
gestiona
gestionado
gestionar
gestiones
gesto
gestor
gestos
get
getafe
gets
getting
gf
gfdl
gfk
ghana
ghost
ghz
gi
gia
giacomo
gian
giancarlo
gianni
giant
giants
gibbs
gibraltar
gibson
gibt
gica
gicamente
gicas
gico
gicos
gida
gido
gift
gigante
gigantes
gigantesco
gijo
gil
gilbert
gilberto
giles
gill
gilles
gillespie
gime
gimen
gimna
gimnasia
gimnasio
gimnasta
gina
ginas
gine
ginebra
gino
giorgio
giovanni
gira
giran
girando
girar
giras
girl
girls
giro
girolamo
girona
giros
gisela
gitana
gitano
gitanos
gitos
giulio
giuseppe
give
given
gives
gl
gla
glacial
glaciar
glaciares
gladys
glasgow
glass
glee
glen
glenn
gli
glo
global
globales
globalizacio
globe
globo
globos
gloria
glorias
glorieta
gloriosa
glorioso
glory
glosario
gloucester
glover
glu
glucosa
gluten
gm
gmbh
gmina
gnu
go
goa
goal
gob
gobernaba
gobernacio
gobernada
gobernado
gobernador
gobernadora
gobernadores
gobernante
gobernantes
gobernar
goberno
gobierna
gobierno
gobiernos
gobiidae
goce
god
godofredo
godos
godoy
gods
godzilla
goes
goethe
gogh
goia
going
gol
gold
goldberg
golden
goldman
goldstein
goleada
goleador
goleadores
goles
goleta
golf
golfo
golpe
golpea
golpeado
golpear
golpeo
golpes
goma
gomes
gomez
gon
gonc
gone
gong
gonna
gono
gonos
gonza
gonzaga
gonzales
gonzalez
gonzalo
good
goodbye
goodman
google
gor
gora
goras
gorda
gordo
gordon
gore
gorra
gorro
gospel
gosse
got
gota
gotas
gotemburgo
gotha
gotham
goto
gottfried
gould
gov
government
governor
goya
goza
gozaba
gozan
gozar
gozo
gp
gps
gr
gra
graba
grabacio
grabaciones
grabada
grabadas
grabado
grabador
grabados
graban
grabando
grabar
grabaron
grabo
grace
gracia
gracias
graciela
graciosa
gracioso
grada
gradas
gradiente
grado
grados
gradua
graduacio
graduado
graduados
gradual
gradualmente
graduarse
graduo
graf
grafa
grafi
grafo
grafos
graham
gral
grama
gramatical
grammar
grammy
gramos
gran
granada
granadas
granaderos
granados
grand
grande
grandes
grandeza
grandezas
grandi
granero
granito
granja
granjas
grano
granos
grant
graphics
grasa
grasas
grasos
grass
gratis
gratitud
gratuita
gratuitamente
gratuito
gratuitos
grau
grava
grave
gravedad
gravemente
graves
gray
graz
gre
great
greater
greatest
grecia
greco
gredos
greece
greek
green
greene
greenwich
greenwood
greg
gregg
gregoriano
gregorio
gregory
gremio
gremios
grenoble
greta
grey
griega
griegas
griego
griegos
grietas
griffin
griffith
grima
grimas
grimes
grimm
grin
gripe
gris
grisa
grises
grita
gritando
gritar
grito
gritos
gro
groenlandia
groove
grosor
gross
grosso
ground
group
groups
grove
growing
growth
gru
gruesa
gruesas
grueso
gruesos
grun
grupo
grupos
gruta
gruyter
gs
gt
gu
gua
guadalajara
guadalquivir
guadalupe
guadarrama
guadiana
guaira
guajira
guam
guanajuato
guante
guantes
guapo
guarani
guard
guarda
guardaba
guardado
guardaespaldas
guardameta
guardan
guardar
guarde
guarderi
guardia
guardian
guardianes
guardias
guardiola
guardo
guarnicio
guarniciones
guatemala
guatemalteca
guatemalteco
guayana
guayaquil
guayas
gubernamental
gubernamentales
gubernatura
gue
guerra
guerras
guerre
guerrera
guerrero
guerreros
guerrilla
guerrillas
guerrillero
guerrilleros
guest
gueto
guevara
guez
guggenheim
gui
guia
guiadas
guiado
guiados
guiar
guide
guides
guido
guila
guilas
guild
guillaume
guille
guillermo
guin
guinea
guinness
guio
guion
guiones
guionista
guionistas
guipu
guisa
guitar
guitarra
guitarras
guitarrista
guitarristas
gula
gules
gulf
gun
gundam
gunn
guns
gupta
guru
gus
gusano
gusanos
gusta
gustaba
gustan
gustari
gustav
gustave
gustavo
gusto
gustos
gut
gutenberg
gutie
guy
guyana
guzma
gwen
gyo
h
ha
haas
hab
habana
habe
haben
haber
haberla
haberle
haberlo
haberse
habi
habia
habian
habido
habie
habiendo
habilidad
habilidades
habilitado
habita
habitaba
habitaban
habitacio
habitaciones
habitada
habitadas
habitado
habitan
habitante
habitantes
habitar
habitual
habituales
habitualmente
habla
hablaba
hablaban
hablada
hablado
hablamos
hablan
hablando
hablantes
hablar
hablaron
hable
hablo
habra
habri
habsburgo
hace
hacemos
hacen
hacer
hacerla
hacerle
hacerlo
hacerme
hacerse
haces
hacha
hachette
haci
hacia
hacie
hacienda
haciendas
haciendo
had
hada
hadas
hades
haga
hagan
hagen
hago
hahn
hai
haifa
hair
haiti
haitiana
haitiano
hal
halco
hale
half
halifax
hall
halla
hallaba
hallaban
hallado
hallados
hallan
hallar
hallaron
hallarse
hallazgo
hallazgos
halle
hallo
halloween
halo
halterofilia
ham
hama
hambre
hambruna
hamburg
hamburgo
hamilton
hamlet
hammer
hammond
hampshire
hampton
han
hana
hancinema
hancock
hand
handbook
handbuch
hands
hangul
hank
hanna
hannah
hannover
hans
hansen
happened
happy
hara
harald
harbor
harcourt
hard
hardcore
harding
hardware
hardy
hare
hari
harina
harlem
harley
harmony
haro
harold
harper
harpercollins
harriet
harris
harrison
harry
hart
hartford
hartmann
harto
harvard
harvey
has
hasan
hassan
hasta
hastings
hat
hate
haus
haut
haute
have
haven
hawa
hawaii
hawk
hawkins
hawks
hay
haya
hayan
hayas
hayden
haydn
hayes
haz
hazan
hb
hbo
hc
hd
he
head
heads
health
hear
heard
hearst
heart
hearts
heat
heath
heather
heaven
heavy
heavyweight
hebrea
hebreo
hebreos
heces
hecha
hechas
hechizo
hechizos
hecho
hechos
hecta
hector
hee
heel
heemstra
hegel
hegemoni
heidelberg
heidi
heights
heine
heinrich
heinz
heladas
helado
helados
held
hele
helechos
helen
helena
heleni
helfman
helico
helio
hell
heller
hello
helm
helmut
help
helsinki
hembra
hembras
hemeroteca
hemingway
hemisferio
hemorragia
hemos
hen
henares
henderson
hendrix
henri
henrik
henrique
henry
hepa
hepatitis
her
hera
heracles
herald
heraldo
heras
herb
herba
herbario
herbert
herbi
here
heredado
heredera
heredero
herederos
heredia
hereditario
heredo
hereji
herencia
herida
heridas
herido
heridos
herir
heritage
herman
hermana
hermanas
hermandad
hermandades
hermann
hermano
hermanos
herme
hermenegildo
hermes
hermosa
hermosas
hermosillo
hermoso
hermosos
hermosura
herna
hernandez
hernando
hero
herodes
heroes
heroi
heroica
heroico
herr
herradura
herramienta
herramientas
herrera
herrero
herreros
herzegovina
herzog
hesse
het
heteroge
heute
hexagonal
hey
hi
hice
hiciera
hicieran
hicieron
hiciese
hicimos
hicks
hidalgo
hidalgui
hidden
hidra
hidro
hidrocarburos
hidroele
hidrogra
hidrografi
hidrolo
hielo
hier
hierarchy
hierba
hierbas
hierro
higgins
high
higher
highland
highlights
highway
higiene
higo
higos
higuera
higueras
hija
hijas
hijo
hijos
hilario
hilary
hilda
hileras
hill
hillary
hills
hilo
hilos
hilton
him
himalaya
himmler
himno
himnos
hincapie
hinchada
hinchas
hindi
hindu
hinduismo
hinojosa
hip
hipero
hipertensio
hipo
hipote
hirio
hiroshi
hiroshima
his
hispa
hispana
hispania
hispanic
hispano
hispanoame
hispanoamericana
hispanos
hist
histo
histoire
historia
historiador
historiadora
historiadores
historial
historias
historic
historical
histories
historieta
historietas
historiogra
historiografi
historique
history
hit
hitchcock
hitler
hito
hitos
hitparade
hits
hizo
hk
hl
hler
hm
hms
hn
ho
hoc
hocico
hockey
hoese
hof
hoffman
hoffmann
hogan
hogar
hogares
hoguera
hoja
hojas
hokkaido
hola
holanda
holande
holandesa
holandeses
hold
holden
holding
holdings
hole
holgui
holiday
holland
holly
hollywood
holmes
holocaust
holocausto
holotipo
holstein
holt
holy
hombre
hombres
hombro
hombros
home
homenaje
homenajes
homer
homero
homicidio
homicidios
homme
homo
homoge
homosexual
homosexuales
homosexualidad
honda
hondo
honduras
honduren
honestidad
honesto
honey
hong
hongo
hongos
honolulu
honor
honorable
honorario
honorarios
honores
honori
honoris
honour
honra
honrada
honrado
honrar
hood
hook
hooker
hoon
hoover
hop
hope
hopkins
hora
horace
horacio
horaria
horario
horarios
horas
horca
horda
horizon
horizontal
horizontales
horizonte
horizontes
hormiga
hormigas
hormigo
hormona
hormonas
horn
hornacina
horno
hornos
horrible
horror
horse
horst
hortalizas
hos
hospital
hospitales
hospitalidad
host
hostil
hostiles
hostilidad
hostilidades
hot
hotel
hoteles
houghton
hour
hours
house
housing
houston
how
howard
howe
hoy
hoya
hoyo
hoyos
hoz
hp
hr
hrer
hrsg
hrvatske
hs
htm
html
http
https
hu
hua
huac
huancayo
huang
huatl
hub
hubbard
huber
hubert
hubiera
hubieran
hubiere
hubiese
hubiesen
hubo
hudson
hue
hueco
huecos
huelga
huelgas
huella
huellas
huelva
huerta
huertas
huerto
huertos
huesca
hueso
huesos
huevo
huevos
huffington
hugh
hughes
hugo
hui
huida
huido
huila
huir
hulk
hull
human
humana
humanas
humani
humanidad
humanidades
humanismo
humanista
humanitaria
humanitario
humano
humanos
humberto
humboldt
hume
humedad
humedal
humedales
humildad
humilde
humildes
humo
humor
humori
humorista
humphrey
hunde
hundido
hundimiento
hundio
hundred
hung
hungary
hungri
hunt
hunter
huntington
huraca
huracanes
hurricane
hurtado
huso
hussein
hutchinson
huye
huyen
huyendo
huyeron
huyo
hwang
hybrid
hyde
hydra
hye
hymenoptera
hyo
hyun
hz
i
ia
iaaf
ian
ias
iata
iau
ib
iba
iban
ibarra
ibe
iberia
ibero
iberoame
iberoamericana
iberoamericano
ibge
ibi
ibid
ibidem
ibiza
ibm
ibn
ibrahim
ic
ica
ice
iceland
ich
ichi
ichigo
ichneumon
ichthyology
ico
icon
icono
iconogra
iconografi
iconos
id
ida
idaho
ide
idea
ideado
ideal
ideales
ideas
identidad
identidades
identifica
identificacio
identificada
identificadas
identificado
identificador
identificados
identifican
identificar
identificaron
identificarse
identification
identifico
identity
ideo
ideolo
ideologi
idh
idioma
idiomas
ido
idol
idos
ie
iec
ieee
if
ifpi
iga
iglesia
iglesias
ign
ignacio
ignora
ignorado
ignorancia
ignorante
ignorar
igo
igor
igual
iguala
igualar
igualdad
iguales
igualmente
ihr
ihre
ihsi
ii
iii
ij
ik
il
ildefonso
ilegal
ilegales
ilegalmente
ilegi
iler
ili
ill
illa
illinois
illustrated
illustrations
iluminacio
iluminada
iluminado
ilusio
ilusiones
ilustra
ilustracio
ilustraciones
ilustrada
ilustrado
ilustrador
ilustrados
ilustrar
ilustre
ilustres
im
ima
image
imagen
images
imagina
imaginacio
imaginar
imaginaria
imaginario
imagine
imdb
imitacio
imitando
imitar
imp
impaciencia
impact
impacto
impactos
impar
imparcial
imparte
impartido
impartio
impartir
impedi
impedido
impedimento
impedir
imperativo
imperfecto
imperial
imperiales
imperialismo
imperio
imperios
impi
impide
impiden
impidiendo
impidieron
impidio
implacable
implantacio
implementacio
implementado
implementar
implemento
impli
implica
implicaba
implicacio
implicaciones
implicado
implicados
implican
implications
implico
impone
imponente
imponer
imponerse
imponi
importa
importaba
importacio
importaciones
importados
importancia
important
importante
importantes
importar
importe
imposibilidad
imposible
imposibles
imposicio
impr
imprenta
impresa
impresas
imprescindible
impresio
impresionado
impresionante
impresionantes
impresiones
impreso
impresor
impresos
imprimir
improbable
improvisacio
impuesta
impuestas
impuesto
impuestos
impulsa
impulsada
impulsadas
impulsado
impulsar
impulso
impulsor
impulsos
impunidad
impusieron
impuso
in
ina
inactivo
inah
inala
inaugura
inauguracio
inaugurada
inaugurado
inaugural
inauguro
inc
inca
incapaces
incapacidad
incapaz
incas
incendio
incendios
incentivos
incertidumbre
incidencia
incidente
incidentes
incienso
incierta
incierto
incipiente
inciso
incla
inclina
inclinacio
inclinada
inclinado
inclino
include
including
inclui
incluida
incluidas
incluido
incluidos
incluir
incluira
incluiri
inclusio
inclusive
incluso
incluye
incluyen
incluyendo
incluyeron
incluyo
inco
incompatible
incompleta
incompleto
incondicional
inconsciente
inconveniente
inconvenientes
incorpo
incorpora
incorporacio
incorporada
incorporado
incorporados
incorporan
incorporando
incorporar
incorporaron
incorporarse
incorporo
incorrecta
incorrecto
incredible
increi
incrementa
incrementado
incrementando
incrementar
incremento
incumplimiento
incursio
incursiones
incursiono
ind
indec
indefinidamente
indefinido
indemnizacio
independence
independencia
independent
independentista
independentistas
independiente
independientemente
independientes
index
indi
india
indian
indiana
indianapolis
indians
indias
indica
indicaba
indicacio
indicaciones
indicada
indicadas
indicado
indicador
indicadores
indican
indicando
indicar
indicaron
indicativo
indicios
indico
indie
indiferencia
indiferente
indignacio
indio
indios
indique
indirecta
indirectamente
indirecto
indiscutible
indispensable
indispensables
indistintamente
individual
individuales
individualmente
individuo
individuos
indo
indochina
indonesia
indonesio
induccio
induce
inducido
inducir
indudablemente
indulto
indumentaria
industria
industrial
industriales
industrializacio
industrias
industries
industry
indy
ine
inegi
inei
inercia
inesperada
inesperadamente
inesperado
inestabilidad
inestable
inevitable
inexistente
infame
infancia
infanta
infante
infanteri
infantes
infantil
infantiles
infarto
infeccio
infecciones
infectados
infeliz
inferior
inferiores
infernal
infiel
infierno
infinidad
infinita
infinitas
infinite
infinitivo
infinito
infinitos
infinity
inflacio
inflamacio
inflexio
inflorescencia
inflorescencias
influence
influencia
influenciada
influenciado
influenciados
influencias
influenza
influido
influir
influjo
influye
influyen
influyente
influyentes
influyeron
influyo
info
infobae
informa
informacio
informaciones
informado
informador
informal
informales
informan
informar
informaron
information
informativa
informativo
informativos
informe
informes
informo
infraccio
infraestructura
infraestructuras
inframundo
infty
ing
ingenieri
ingeniero
ingenieros
ingenio
ingenioso
ingesta
inglaterra
ingle
ingles
inglesa
inglesas
ingleses
ingrediente
ingredientes
ingresa
ingresado
ingresan
ingresando
ingresar
ingresaron
ingreso
ingresos
ingrid
inherente
inhibicio
inicia
iniciacio
iniciada
iniciado
inicial
iniciales
inicialmente
inician
iniciando
iniciar
iniciara
iniciaron
iniciarse
iniciativa
iniciativas
inicio
inicios
ininterrumpida
initiative
injusticia
injusto
inmaculada
inmaterial
inmediaciones
inmediata
inmediatamente
inmediato
inmediatos
inmensa
inmenso
inmersio
inmigracio
inmigrante
inmigrantes
inminente
inmo
inmobiliaria
inmobiliario
inmortal
inmortales
inmortalidad
inmueble
inmuebles
inmune
inmunidad
inn
inna
inner
innovacio
innovaciones
innovador
innovadora
innovadores
innovation
innsbruck
innumerables
ino
inocencia
inocencio
inocente
inocentes
inofensivo
inolvidable
inorga
inos
inquieto
inquietud
inquietudes
inquilinos
inquisicio
ins
inscribio
inscripcio
inscripciones
inscrita
inscrito
inscritos
insecta
insecto
insectos
insee
inseguridad
insercio
inserta
insertar
inside
insider
insigne
insignia
insignias
insignificante
insiste
insistencia
insistio
inso
inspeccio
inspector
inspira
inspiracio
inspirada
inspiradas
inspirado
inspirados
inspiraron
inspiro
instagram
instala
instalacio
instalaciones
instalada
instaladas
instalado
instalados
instalar
instalaron
instalarse
instalo
instancia
instancias
instanta
instante
instantes
instauracio
instinto
institucio
institucional
institucionales
instituciones
institut
institute
institution
instituto
institutos
instituyo
insto
instruccio
instrucciones
instructor
instrumentacio
instrumental
instrumentales
instrumento
instrumentos
insuficiencia
insuficiente
insular
insulina
insulto
insultos
insurgente
insurgentes
insurreccio
int
intacta
intacto
inte
integra
integracio
integrada
integradas
integrado
integrados
integral
integrales
integran
integrando
integrante
integrantes
integrar
integraron
integrarse
integrated
integridad
integro
intel
intelecto
intelectual
intelectuales
inteligencia
inteligente
inteligentes
intelligence
intencio
intenciones
intendencia
intendente
intensa
intensamente
intensas
intensidad
intensifico
intensiva
intenso
intensos
intenta
intentaba
intentaban
intentado
intentan
intentando
intentar
intentara
intentaron
intento
intentos
inter
interaccio
interacciones
interactiva
interactive
interactivo
interactu
interactuar
interamericana
interamericano
intercambiar
intercambio
intercambios
intercontinental
intercultural
intere
interesa
interesada
interesadas
interesado
interesados
interesante
interesantes
intereses
intereso
interest
interestatal
interface
interfaces
interfaz
interferencia
interim
interina
interino
interior
interiores
intermedia
intermediario
intermedias
intermedio
intermedios
intermitente
interna
internacional
internacionales
internacionalmente
internado
internamente
internas
international
internationale
internet
interno
internos
interpreta
interpretaba
interpretacio
interpretaciones
interpretada
interpretadas
interpretado
interpretados
interpretan
interpretando
interpretar
interpretaron
interpreto
interrogatorio
interrumpe
interrumpida
interrumpido
interrumpio
interrumpir
interrupcio
interrupciones
interseccio
intervalo
intervalos
intervencio
intervenciones
intervenido
intervenir
interviene
intervienen
interview
interviews
intervinieron
intervino
intestinal
intestino
intimidad
into
intolerancia
intoxicacio
intri
intriga
intrigas
intro
introduccio
introduce
introducen
introducida
introducidas
introducido
introducidos
introduciendo
introducir
introduction
introdujeron
introdujo
intuicio
inu
inundacio
inundaciones
inusual
inusuales
inva
invadido
invadieron
invadio
invadir
invasio
invasion
invasiones
invasoras
invasores
invencible
invencio
inventado
inventario
invento
inventor
invernadero
invernal
inversa
inversio
inversiones
inverso
inversor
inversores
invertebrados
invertida
invertido
invertir
investido
investidura
investiga
investigacio
investigaciones
investigado
investigador
investigadora
investigadores
investigando
investigar
investigation
investigo
investment
invicta
invicto
invierno
inviernos
invirtio
invisible
invisibles
invita
invitacio
invitada
invitado
invitados
invito
involucra
involucrada
involucradas
involucrado
involucrados
involucran
involucro
inyeccio
io
ioc
ion
iones
ios
iowa
ip
iphone
ipni
iquique
iquitos
ir
ira
irak
iran
irani
iraq
iraqui
ire
ireland
irene
iri
irina
iris
irish
irlanda
irlande
irlandesa
irlandeses
irma
iro
iron
ironi
irracional
irregular
irregulares
irregularidades
irresistible
irse
iru
irving
irwin
is
isa
isaac
isabel
isabella
isabelle
isai
isbn
isbol
ise
isidora
isidoro
isidro
isis
isla
islam
islamic
island
islande
islandia
islands
islas
isle
islen
islote
islotes
ismael
ismo
isnb
iso
israel
israeli
iss
issn
issue
issues
ist
ista
istas
istituto
istmo
isu
it
ita
italia
italian
italiana
italianas
italiani
italiano
italianos
italo
italy
item
iter
itf
ithaca
itinerante
itinerario
itis
ito
its
itu
itunes
iturbide
itv
iu
iucn
ius
iv
iva
ivan
ivo
ivy
iwgp
ix
iz
izquierda
izquierdas
izquierdo
j
ja
jabali
jabo
jaca
jacinta
jacinto
jack
jackie
jackson
jacob
jacobo
jacobs
jacoby
jacqueline
jacques
jade
jae
jagger
jaguar
jahre
jaime
jairo
jake
jakob
jalisco
jam
jama
jamaica
jame
james
jamie
jamo
jan
jane
janeiro
janet
jang
janos
january
janvier
japan
japanese
japo
japone
japonesa
japonesas
japoneses
jaque
jar
jara
jaramillo
jardi
jardin
jardineri
jardinero
jardines
jared
jaro
jaros
jason
jasper
jaula
jaume
java
javascript
javier
jay
jazeera
jazz
jc
je
jean
jeanne
jedi
jeep
jefa
jefatura
jefe
jefes
jeff
jefferson
jeffrey
jehova
jen
jena
jenkins
jenna
jennifer
jennings
jenny
jens
jensen
jeong
jera
jerarqui
jeremy
jerez
jericho
jero
jerogli
jerome
jerry
jersey
jerusale
jerusalem
jesse
jessica
jessie
jesu
jesucristo
jesui
jesuita
jesuitas
jesus
jet
jets
jewish
jews
ji
jiang
jico
jill
jim
jime
jimena
jimmy
jin
jinete
jinetes
jj
jm
jne
jo
joa
joachim
joan
joanna
joaqui
joaquim
joaquin
job
jobling
jobs
jockey
joe
joel
joey
johan
johann
johanna
johannes
johannesburgo
johansson
john
johnny
johns
johnson
johnston
join
joins
joint
joker
jon
jonas
jonathan
jones
jong
jonrones
joo
joon
jorda
jordan
jordania
jordi
jorge
jornada
jornadas
jornal
jose
josef
josefa
josefina
josep
joseph
josh
joshua
josiah
josue
jota
journal
journey
joven
joy
joya
joyas
joyce
joyeri
jp
jpg
jpl
jr
js
jstor
ju
jua
juan
juana
juanita
juanito
jubilacio
juda
judai
judas
judea
judge
judi
judicial
judiciales
judith
judo
judoinside
judy
jueces
juega
juegan
juego
juegos
jueves
juez
jueza
jugaba
jugaban
jugabilidad
jugable
jugada
jugadas
jugado
jugador
jugadora
jugadoras
jugadores
jugados
jugando
jugar
jugara
jugari
jugaron
jugo
juguete
juguetes
juicio
juicios
jujuy
jul
jula
jules
julia
julian
juliana
juliano
julie
julien
juliet
julieta
julio
julius
july
jump
jun
june
jung
jungla
jungle
juni
junio
junior
juniors
juno
junta
juntamente
juntar
juntas
junto
juntos
jupiter
jura
jurado
jurados
juramento
jurar
jurassic
juri
jurisdiccio
jurisdiccional
jurisdicciones
jurisprudencia
jurista
juristas
juro
just
justa
justamente
justas
justice
justicia
justicialista
justifica
justificacio
justificar
justin
justiniano
justino
justo
justos
juvenil
juveniles
juventud
juventudes
juventus
juzgado
juzgados
juzgar
k
ka
kabul
kadokawa
kafka
kahn
kai
kaiser
kamen
kaminski
kan
kane
kang
kann
kansas
kant
kaplan
kappa
kara
karate
karel
karen
karin
karina
karl
karla
karma
kart
kassel
kat
kate
katherine
kathleen
kathryn
kathy
katie
kato
katy
katz
kaufman
kawasaki
kay
kazajista
kb
kbs
kc
ke
keep
kei
keith
keller
kelly
kemp
ken
kendall
kendrick
kenia
kennedy
kenneth
kenny
kent
kentucky
kenya
kepler
ker
kerala
kernel
kerr
kerry
kevin
kew
key
keynes
keys
kg
khan
khz
ki
kick
kid
kids
kiel
kiev
kill
killed
killer
killing
kills
kilo
kilogramos
kilos
kim
kimberly
kind
king
kingdom
kings
kingston
kioto
kira
kirby
kirchner
kirguista
kirk
kiss
kit
kitchen
kitt
kitty
kk
kl
klaus
klein
km
kn
knicks
knight
knights
know
knowledge
known
knox
ko
kobayashi
koch
kodansha
kombat
konami
konex
kong
konrad
korea
korean
kos
kosovo
kov
kova
kr
kra
kraft
krai
kramer
krasnodar
krause
kremlin
kris
krishna
kristen
ks
kt
ku
kuba
kumar
kun
kung
kunst
kunth
kuntze
kurt
kuwait
kv
kw
kwon
ky
kyle
kylie
kyo
kyu
kyung
l
la
lab
laba
labas
label
laberinto
labernia
labio
labios
labor
laboral
laborales
laboratorio
laboratorios
laboratory
labores
laborista
labrador
labradores
lac
lada
ladera
laderas
ladies
ladislao
lado
lados
ladrillo
ladrillos
ladro
ladrones
lady
lafayette
laga
lagarto
lagartos
lago
lagos
laguna
lagunas
lai
laico
laicos
lake
lakers
lakes
lam
lama
lamar
lamas
lamb
lambda
lambert
lamenta
lamentable
lamentablemente
lamento
lamo
lamos
lan
lana
lanacion
lancaster
lance
lanceoladas
lancha
lanchas
lancia
land
landa
landmarks
lands
landscape
lane
lang
lange
langle
language
languages
langue
languedoc
lanka
lantern
lanu
lanza
lanzada
lanzadas
lanzado
lanzador
lanzados
lanzamiento
lanzamientos
lanzan
lanzando
lanzar
lanzara
lanzari
lanzaron
lanzarote
lanzarse
lanzas
lanzo
lao
laos
lapso
lar
lara
laredo
larepublica
lares
larga
largamente
largas
large
largest
largo
largometraje
largometrajes
largos
larousse
larrai
larrea
larry
lars
larsen
larson
larva
larvas
las
laser
lasso
last
lat
lata
latas
late
later
lateral
laterales
latest
lati
latin
latina
latinas
latino
latinoame
latinoamericana
latinoamericanas
latinoamericano
latinoamericanos
latinos
latitud
latitudes
lato
latorre
lau
launch
launches
laura
laureano
laurel
lauren
laurence
laurent
laurie
lausana
lautaro
lava
lavado
lavalle
lavar
lavigne
law
lawrence
laws
lawson
lay
lazo
lazos
lb
lbum
lbumes
lc
lculo
lculos
ld
ldica
ldico
ldots
le
lea
lead
leader
leaders
leadership
leading
leads
leaf
league
leal
leales
lealtad
leandro
learning
least
leave
leaves
leb
leben
lebre
lebres
leccio
lecciones
leche
lecho
lector
lectores
lectura
lecturas
lecture
led
ledesma
lee
leeds
leer
left
leg
lega
legacy
legado
legal
legales
legalidad
legalizacio
legalmente
legane
legend
legendaria
legendario
legends
legi
legio
legiones
legislacio
legislador
legisladores
legislativa
legislativas
legislativo
legislativos
legislatura
legislaturas
legitimidad
lego
legua
leguas
legumbres
lehmann
lei
leibniz
leicester
leiden
leigh
leipzig
leiva
lejana
lejanas
lejano
lejanos
lejislativos
lejos
lema
lemos
len
lena
lengua
lenguaje
lenguajes
lenguas
lenin
leningrado
lennon
lennox
lenny
lenta
lentamente
lente
lentes
lento
lentos
leo
leon
leona
leonard
leonardo
leone
leonel
leones
leonesa
leonid
leonor
leopold
leopoldo
leos
lepidoptera
leq
lera
lerma
leroy
les
lesa
lesbian
lesbianas
lesio
lesionado
lesiones
leslie
lesnar
less
lessons
lester
let
letal
leticia
leto
letonia
letra
letras
letter
letters
lettres
lev
leva
levadura
levanta
levantaba
levantada
levantado
levantamiento
levantan
levantando
levantar
levantaron
levantarse
levante
levanto
leve
level
levemente
leves
levi
levin
levine
levy
lewis
lex
lexikon
lexington
ley
leyenda
leyendas
leyendo
leyes
leyo
leyva
lez
lg
lgara
lgaro
lgaros
lgbt
lgebra
lgica
li
lia
liam
lib
libe
liber
libera
liberacio
liberada
liberado
liberados
liberal
liberales
liberalismo
liberan
liberar
liberation
liberia
libero
libertad
libertades
libertador
libertadora
libertadores
libertario
liberty
libia
libra
library
libras
libre
libremente
libreri
libres
libreto
libro
libros
libya
lic
lica
licas
lice
licencia
licenciada
licenciado
licencias
licenciatura
licencio
license
liceo
lices
licitacio
lico
licor
licos
lida
lidas
lidera
liderada
liderado
liderados
liderando
liderar
liderazgo
lidero
lidia
lidiar
lido
lidos
lie
liebe
liebre
liechtenstein
lieja
lienzo
lienzos
lies
life
lifetime
liga
ligada
ligadas
ligado
ligados
ligamento
ligas
ligera
ligeramente
ligeras
ligereza
ligero
ligeros
light
lightning
lights
ligne
ligue
liguilla
like
lil
lila
liliana
lille
lily
lim
lima
limbo
limen
limi
limita
limitaba
limitacio
limitaciones
limitada
limitadas
limitado
limitados
limitan
limitando
limitar
limited
limito
limits
limo
limosna
limpia
limpiar
limpias
limpieza
limpio
lin
lina
linaje
linajes
linares
lincoln
linda
lindl
lindo
lindsay
line
linea
lineal
lineales
lineamientos
linear
lines
linfa
linfocitos
ling
lingu
lingua
linguistics
liniers
link
links
linn
linnaeus
linnean
linneo
lino
linterna
linux
lio
lion
lionel
lions
lipa
liquidacio
lira
lis
lisa
lisandro
lisboa
lisis
liso
lisos
list
lista
listado
listados
listas
liste
listen
listing
listo
listos
liszt
lit
lita
lite
literal
literalmente
literaria
literarias
literario
literarios
literary
literatura
literature
lites
litigio
litio
lito
litografi
litoral
litro
litros
litte
little
littlefield
litu
lituania
lituano
liturgia
liu
liv
live
liverpool
lives
living
livingston
livio
livre
lix
liz
liza
lkerung
ll
lla
llama
llamaba
llamaban
llamada
llamadas
llamado
llamados
llamamiento
llamamos
llaman
llamando
llamar
llamara
llamari
llamaron
llamarse
llamas
llame
llamo
llana
llano
llanos
llantas
llanto
llanura
llanuras
llar
llave
llaves
llc
lle
llega
llegaba
llegaban
llegada
llegado
llegados
llegamos
llegan
llegando
llegar
llegara
llegari
llegaron
llegase
llego
llegue
lleguen
lleida
llena
llenar
llenas
lleno
llenos
ller
lleva
llevaba
llevaban
llevada
llevadas
llevado
llevados
llevan
llevando
llevar
llevara
llevari
llevarla
llevarlo
llevaron
llevarse
lleve
lleven
llevo
llez
llobregat
llora
llorando
llorar
llorente
lloro
llosa
lloyd
llui
lluvia
lluvias
lluvioso
ln
lnb
lo
loa
loan
lobo
lobos
loc
loca
local
locales
localidad
localidades
localities
localiza
localizacio
localizaciones
localizada
localizadas
localizado
localizados
localizan
localizar
localmente
locas
location
lock
locke
lockheed
loco
locomotora
locomotoras
locos
locuciones
locura
locus
locutor
lodge
lodo
loeb
loeblich
log
loga
logan
logas
logi
logia
logic
logo
logos
logotipo
logra
lograba
logrado
logran
logrando
lograr
lograra
lograri
lograrlo
lograron
logre
logro
logron
logros
loi
loira
loire
lois
loja
loki
lola
lolita
loma
lomas
lombardi
lombardo
lomo
lon
londinense
london
londres
lone
lonely
long
longitud
longitudes
longitudinal
longitudinales
look
looking
looks
loop
lope
lopes
lopez
lora
lorca
lord
lorena
lorenz
lorenzo
loreto
lori
loro
lorraine
los
losa
losada
lose
loss
lost
lot
lote
loteri
lotes
lotus
lou
louis
louise
louisiana
louisville
lourdes
louvre
lovato
love
lovecraft
lover
lovers
low
lowe
lowell
lower
loyola
loza
lozano
lp
lpito
lr
ls
lt
ltd
lter
ltica
ltico
ltima
ltimamente
ltimas
ltimo
ltimos
ltiple
ltiples
lu
luc
luca
lucas
lucca
luce
lucena
lucero
luces
lucha
luchado
luchador
luchadora
luchadores
luchan
luchando
luchar
lucharon
luchas
lucho
luci
lucia
luciana
luciano
lucie
lucien
lucifer
lucio
lucky
lucrecia
lucro
lucy
ludovico
ludwig
luego
luftwaffe
lugar
lugaren
lugares
lugarteniente
lugo
lui
luigi
luis
luisa
luisiana
luiz
luja
lujo
luka
luke
lula
lulas
lulu
lumbre
luminosa
luminosidad
luminoso
luna
lunar
lunares
lunas
lund
lunes
luque
luterana
lutero
luther
luthor
luto
lutz
lux
luxemburgo
luz
lv
lvarez
lvaro
lveda
lver
lvez
lvora
lvula
lvulas
lx
ly
lydia
lynch
lynn
lynx
lyon
lyrics
m
ma
mabel
mac
macao
macarena
macarthur
macbeth
macdonald
macedonia
macedonio
mach
machado
machi
machine
macho
machos
maci
macizo
mack
mackenna
mackenzie
macmillan
maco
macri
macro
mad
mada
madagascar
madame
madariaga
madas
made
madeira
madeleine
madera
maderas
madero
madison
madness
madonna
madoz
madrastra
madre
madres
madrid
madrigal
madrilen
madrugada
madura
maduracio
madurez
maduro
maduros
mae
maestra
maestras
maestre
maestri
maestro
maestros
mafia
mag
magallanes
magazine
magdalena
maggie
magi
magia
magic
magisterio
magistrado
magistrados
magistral
magistratura
magma
magna
magnate
magne
magnesio
magneto
magni
magnitud
magnitudes
magno
magnolia
magnum
magnus
mago
magos
maguncia
magyar
mahler
maho
mahoma
mai
maia
maiden
mail
main
maine
mainstream
maipo
maipu
mais
maison
maite
maja
majestad
major
make
maker
makes
making
makoto
mal
mala
malaguen
malaria
malas
malasia
malaya
malayo
malaysia
malcolm
maldad
malden
maldicio
maldita
maldito
maldonado
male
males
malestar
mali
malicia
maligno
malik
mall
malla
mallorca
malmo
malo
malone
malos
malta
maltrato
malvada
malvado
malvados
malvinas
mama
mame
mami
mammal
mammals
mamposteri
man
mana
manada
management
manager
managua
manantial
manantiales
mancha
manchas
manchester
manchu
manchuria
mancomunidad
manda
mandaba
mandado
mandar
mandari
mandatario
mandato
mandatos
mande
mandela
mandi
mando
mandos
maneja
manejar
manejo
manera
maneras
manfred
manga
mangas
manglares
mango
manhattan
mani
mania
manifestacio
manifestaciones
manifestado
manifestantes
manifestar
manifestaron
manifesto
manifiesta
manifiestan
manifiesto
manila
maniobra
maniobras
manipulacio
manipular
manizales
mann
manning
manny
mano
manolo
manos
manresa
manrique
manrupe
mans
mansilla
mansio
manso
manson
manta
manteca
mantendra
mantendri
mantener
mantenerse
mantenga
manteni
mantenida
mantenido
mantenie
manteniendo
mantenimiento
mantequilla
mantiene
mantienen
mantis
manto
mantua
mantuvieron
mantuvo
manu
manual
manuales
manualmente
manuel
manuela
manufactura
manuscrito
manuscritos
many
manzana
manzanares
manzanas
manzano
mao
maori
map
mapa
mapas
mapping
maps
mapuche
mapuches
maqueta
maquillaje
maquinaria
mar
mara
maracaibo
maradona
maran
maras
marato
maravedi
maravilla
maravillas
maravillosa
maravilloso
marbella
marc
marca
marcada
marcadas
marcado
marcador
marcadores
marcados
marcan
marcando
marcar
marcari
marcaron
marcas
marcel
marcela
marcelino
marcello
marcelo
march
marcha
marchar
marcharon
marcharse
marchas
marche
marcho
marcia
marcial
marciales
marciano
marco
marcos
marcus
mare
marea
mareas
mares
marfil
margaret
margarita
marge
margen
marginal
marginales
margot
margrave
marguerite
mari
maria
mariah
marian
mariana
marianas
marianne
mariano
marido
maridos
marie
marihuana
marilyn
marin
marina
marinas
marine
marinero
marineros
marines
marinespecies
marino
marinos
mario
marion
mariposa
mariposas
marisa
mariscal
mariscos
marismas
marisol
maritime
marius
mark
market
marketing
marko
marks
markus
marley
marne
marque
marques
marquesa
marquesado
marqueses
marriage
married
marro
marrones
marroqui
marruecos
mars
marsella
marsh
marshall
mart
marta
marte
martel
martes
martha
marti
martillo
martin
martina
martinez
martini
martinica
martino
martins
martirio
martorell
martos
marty
marvel
marvin
marx
marxismo
marxista
marxistas
mary
maryland
marzo
mas
masa
masacre
masacres
masas
mascota
mascotas
masculina
masculinas
masculino
masculinos
masi
masiva
masivas
masivo
masivos
mask
maso
mason
masoneri
mass
massa
massachusetts
massacre
massimo
massive
master
masterizacio
masters
mat
mata
matadero
matado
matador
matamoros
matan
matando
matanza
matanzas
matar
matara
matarlo
mataro
mataron
matas
match
matches
mate
matema
mateo
mateos
mater
materia
material
materiales
materialismo
materials
materias
materna
maternal
maternidad
materno
math
mathbb
mathbf
mathcal
mathematical
mathematics
mathieu
mathrm
mati
matices
matilda
matilde
mato
matorral
matorrales
matos
matri
matrices
matriculo
matrimonial
matrimonio
matrimonios
matrix
matriz
matt
matteo
matter
matthew
matthews
matthias
mauge
maule
maura
maurice
mauricio
mauritania
mauro
mausoleo
maverick
max
maxi
maxim
maximiliano
maximus
maxwell
may
maya
mayas
mayer
mayo
mayor
mayorazgo
mayordomo
mayores
mayori
mayoritaria
mayoritariamente
mayoritario
mayormente
mayu
maza
mazo
mb
mba
mbar
mbc
mbito
mbitos
mbolo
mbolos
mbox
mbra
mbrico
mbulo
mc
mccarthy
mccartney
mccoy
mcdonald
mcdowell
mcfarland
mcgraw
mcintyre
mclaren
mcmahon
md
me
mean
meaning
means
meca
mecanismo
mecanismos
mecenas
mecha
mechanics
mecklemburgo
med
meda
medal
medalla
medallas
medallista
medallistas
medas
medelli
medi
media
mediacio
mediados
mediana
medianas
mediano
medianoche
mediante
medias
medical
medicamento
medicamentos
medicina
medicinal
medicinales
medicinas
medicine
medicio
mediciones
medida
medidas
medido
medien
medieval
medievales
medina
medinaceli
medio
medioambiental
medioambientales
mediocampista
mediodi
medios
medir
meditacio
mediterra
mediterranean
medium
medo
medos
medrano
medusa
medvedev
meet
meeting
meets
meg
mega
megan
mehr
mei
meiji
mein
meji
mejillas
mejor
mejora
mejorada
mejorado
mejoramiento
mejorando
mejorar
mejoras
mejores
mejoro
mekong
mel
melanco
melancoli
melanie
melbourne
melchor
mele
melgar
melilla
melissa
mella
mello
melo
melodi
melodrama
melody
member
members
membrana
membranas
membresi
memo
memoirs
memorable
memorables
memoria
memorial
memoriam
memorias
memories
memory
memphis
men
mena
mencio
menciona
mencionada
mencionadas
mencionado
mencionados
mencionan
mencionar
menciones
menciono
mendes
mendiza
mendoza
mene
menem
menes
meneses
menester
meno
menor
menorca
menores
menos
mensaje
mensajero
mensajes
mensual
mensuales
ment
mental
mentales
mentalidad
mentalmente
mente
mentes
mentira
mentiras
mentor
menu
menudo
mer
mera
meramente
meras
mercader
mercaderes
mercaderi
mercado
mercados
mercanci
mercante
mercantes
mercantil
merce
merced
mercedes
mercenarios
mercer
mercosur
mercurio
mercury
mercy
merece
merecen
mereci
merecido
meredith
merengue
meridiano
meridional
meridionales
merindad
merino
merlo
mero
meros
merry
mes
mesa
mesas
meses
meseta
mesi
mesis
meso
mesoame
mesopotamia
message
messi
mestizo
mestizos
mestre
met
meta
metabo
metabolismo
metacritic
metadatos
metafi
metal
metales
metallica
metalu
metalurgia
metamorfosis
metano
metas
metastasio
metcalf
mete
meteorolo
meteorologi
meteorological
meter
meterse
method
methods
meti
metido
metio
metodista
metodolo
metodologi
metro
metropolitan
metropolitana
metropolitanas
metropolitano
metros
metz
mexicali
mexican
mexicana
mexicanas
mexicano
mexicanos
mexicas
mexico
meyer
meyrick
mez
meza
mezcla
mezclada
mezclado
mezclados
mezclan
mezclar
mezclas
mezquita
mezquitas
mg
mgm
mhz
mi
mia
miami
mic
mica
micaela
micamente
micas
mice
mich
michael
michaels
michel
michele
michelle
michigan
michoaca
mick
mickey
mico
micos
micro
microbiology
microondas
microorganismos
microsco
microscopio
microsoft
mics
mid
mida
middle
middleton
mide
miden
mides
midi
midlands
midnight
mido
mie
miedo
miel
miembro
miembros
mientras
mifflin
mig
might
mighty
migracio
migraciones
migrantes
migration
migratoria
migratorias
miguel
mijai
mika
mike
mikel
mil
mila
milagro
milagros
milagrosa
milan
milano
mildred
mile
milenio
miles
miley
mili
milicia
milicianos
milicias
milita
militancia
militante
militantes
militar
militares
militarmente
military
milito
milk
mill
milla
millar
millares
millas
millennium
miller
million
millo
millonario
millonarios
millones
mills
milo
milos
milton
milwaukee
mimi
min
mina
minaj
minas
mind
mindanao
mindat
mine
minera
mineral
minerales
mineras
mineri
minero
mineros
minerva
ming
minh
mini
miniatura
miniaturas
minimizar
mining
miniserie
ministe
minister
ministerial
ministerio
ministerios
ministra
ministro
ministros
ministry
minneapolis
minnesota
minogue
minor
minori
minotauro
minsk
minu
minute
minutes
minuto
minutos
mio
mioceno
miquel
mir
mira
miraba
miraban
miracle
mirada
miradas
mirador
miraflores
mirage
miralbes
miramar
miran
miranda
mirando
mirar
miras
mire
miriam
miro
mirror
mis
misa
misas
miserable
miserables
miseria
misericordia
misil
misiles
misio
misionera
misionero
misioneros
misiones
misisipi
misma
mismas
mismo
mismos
miss
missing
mission
mississippi
missouri
mister
misterio
misterios
misteriosa
misterioso
mistral
misuri
mit
mitad
mitch
mitchell
mite
mites
mito
mitolo
mitologi
mitos
mitra
mitre
mitsubishi
mix
mixed
mixta
mixtape
mixtas
mixto
mixtos
miz
mj
mk
ml
mlb
mls
mm
mma
mmajunkie
mn
mnibus
mo
mobile
mobiliario
moc
mocio
moctezuma
mod
moda
modales
modalidad
modalidades
modas
mode
model
modelado
modelo
modelos
models
moderacio
moderada
moderadamente
moderado
moderados
modern
moderna
modernas
moderne
modernidad
modernismo
modernista
modernizacio
moderno
modernos
modesta
modestia
modesto
modifica
modificacio
modificaciones
modificada
modificadas
modificado
modificados
modificar
modifico
modo
modos
modulacio
modular
moe
mohamed
mohammad
mohammed
moi
moires
moise
mojo
mol
mola
moldavia
molde
moldes
molduras
mole
molecular
moleculares
molesta
molestia
molesto
molie
molina
molino
molinos
molly
molusco
moluscos
moment
momenta
momento
momentos
momia
mon
mona
monaco
monagas
monarca
monarcas
monarqui
monasterio
monasterios
moncada
mondadori
monday
monde
mondo
moneda
monedas
monetaria
monetario
money
monforte
mongol
mongoles
mongolia
monica
monitor
monitoreo
monja
monjas
monje
monjes
monkey
mono
monogra
monografi
monoplaza
monopolio
monos
monoti
monroe
monroy
mons
monsen
monsieur
monster
monsters
monstruo
monstruos
mont
monta
montada
montado
montados
montaje
montajes
montalba
montalvo
montan
montana
montaner
montar
monte
monteagudo
montecarlo
montenegro
montero
monterrey
montes
montesinos
montevideo
montgomery
month
monthly
monti
montiel
monto
montoneros
montoya
montpellier
montreal
montserrat
montt
monument
monumental
monumentales
monumento
monumentos
monuments
monzo
moody
moon
moore
mora
morada
morado
moradores
moral
morales
moralidad
moran
moravia
moraza
more
moreau
moreira
morelia
morelos
morena
moreno
morfolo
morfologi
morgan
mori
moribundo
morir
morira
moriri
moriscos
moritz
morning
moro
moros
morphology
morris
morrison
morro
morse
mort
mortal
mortales
mortalidad
morte
mortero
morteros
morton
mos
mosaico
mosaicos
mosca
moscas
moscoso
moscow
moscu
mosela
moses
mosquera
mosquitos
moss
most
mostra
mostraba
mostraban
mostrada
mostrado
mostrador
mostrando
mostrar
mostrara
mostraron
mostrarse
mostro
mota
mote
mother
moti
motion
motivacio
motivado
motivo
motivos
moto
motocicleta
motocicletas
motociclismo
motogp
motor
motores
motors
motorsport
motos
motriz
mount
mountain
mountains
mouse
move
movement
mover
moverse
moves
movi
movida
movido
movie
moviendo
movies
movilidad
movilizacio
movimiento
movimientos
moving
movio
movistar
moya
moyle
moza
mozambique
mozart
mozilla
mozo
mozos
mp
mpago
mpano
mpara
mparas
mpetu
mph
mpica
mpicas
mpico
mpicos
mplice
mplices
mputo
mr
mrac
mrs
ms
msn
msnm
msterdam
mt
mtv
mu
much
mucha
muchacha
muchachas
muchacho
muchachos
muchas
muchedumbre
muchi
mucho
muchos
muda
mudanza
mudaron
mudarse
mude
mudo
mueble
muebles
muelle
muelles
muera
muere
mueren
muerta
muertas
muerte
muertes
muerto
muertos
muestra
muestran
muestras
muestreo
mueve
mueven
muhammad
mui
mujer
mujeres
mujica
mula
mulas
mulder
muller
mulo
mulos
multa
multas
multi
multijugador
multimedia
multinacional
multiple
multiplicacio
multitud
multitudes
mun
mundi
mundial
mundiales
mundialmente
mundo
mundodeportivo
mundos
munich
municio
municiones
municipal
municipales
municipalidad
municipalidades
municipality
municipio
municipios
mur
mural
murales
muralla
murallas
murcia
murcie
murder
muriel
muriendo
murieron
murillo
murio
murmuro
muro
muros
murphy
murray
mus
musa
musas
muscle
muscular
musculares
muse
museo
museos
museu
museum
museums
music
musica
musical
musicales
musicalmente
musicians
musico
musik
musique
muslim
mussolini
must
mustafa
musulma
musulmana
musulmanas
musulmanes
mutacio
mutaciones
mutante
mutantes
mutua
mutuamente
mutuo
muy
mv
mvp
mw
mx
my
myanmar
myers
myspace
mysterio
mystery
myth
mythology
n
na
nabla
nac
nace
nacen
nacer
nach
nacho
naci
nacida
nacido
nacidos
naciente
nacieron
nacimiento
nacimientos
nacio
nacion
nacional
nacionales
nacionalidad
nacionalidades
nacionalismo
nacionalista
nacionalistas
nacionalizacio
nacionalizado
naciones
naco
nad
nada
nadador
nadal
nadar
nadia
nadie
nadu
naga
nagasaki
nager
nai
nakamura
naked
nam
name
namebankid
named
names
namibia
namo
nan
nana
nancy
nano
nantes
nao
naomi
napoleo
napoli
napolitano
nara
naranja
naranjas
naranjo
narciso
narco
narcotra
narices
narin
nariz
narra
narracio
narraciones
narrador
narrativa
narrativas
narrative
narrativo
naruto
narva
nas
nasa
nasal
nasales
nascar
naselja
nash
nashville
nassau
nat
nata
natacio
natal
natalia
natalidad
natalie
natasha
nate
nathan
nathaniel
nation
national
nationale
nations
nativa
nativas
native
natividad
nativo
nativos
natl
nato
natur
natura
natural
naturales
naturaleza
naturalis
naturalista
naturalistas
naturalmente
nature
naturelle
naufragio
nava
naval
navales
navarra
navarrete
navarro
navarros
navas
nave
navegacio
navegador
navegando
navegante
navegantes
navegar
navego
naver
naves
navi
navia
navidad
naviden
navy
nayarit
nazareno
nazaret
nazari
nazi
nazionale
nazis
nazismo
nb
nba
nbc
nc
ncaa
ncbi
ncer
ncfort
nchen
nchester
nchez
ncia
ncipe
ncipes
nculo
nculos
nd
ndalo
ndalos
ndalus
ndar
ndares
nde
nder
ndez
ndice
ndices
ndico
ndida
ndido
ndigen
ndo
ndola
ndolas
ndole
ndoles
ndolo
ndolos
ndome
ndonos
ndor
ndose
ndosele
ndote
ndrica
ndrico
ndrome
ndula
ndulas
ndum
ne
nea
neal
neamente
near
neas
nebraska
nebre
nebulosa
nec
neca
necesaria
necesariamente
necesarias
necesario
necesarios
necesidad
necesidades
necesita
necesitaba
necesitaban
necesitamos
necesitan
necesitar
necesito
nech
necro
necul
ned
nederlandse
need
neerlande
neerlandesa
neerlandesas
neerlandeses
nega
negaba
negacio
negado
negar
negaron
negarse
negativa
negativamente
negativas
negativo
negativos
negligencia
nego
negociacio
negociaciones
negociar
negocio
negocios
negra
negras
negri
negrita
negro
negros
neil
neill
neira
nel
neles
nell
nella
nellie
nelly
nelson
nen
neo
neocla
neogo
neoli
neos
neotropical
neozelande
nepal
neptune
neptuno
ner
neri
nero
neros
neruda
nervio
nervios
nerviosa
nervioso
nes
nesis
net
neta
netflix
netherlands
neto
nets
network
networks
neue
neuma
neumann
neumoni
neuque
neural
neuro
neurolo
neuronas
neutral
neutralidad
neutro
neutrones
nevada
nevadas
nevado
never
neville
new
newark
newcastle
newell
newman
newport
news
newsletter
newspaper
newspapers
newsweek
newton
next
nez
nf
nfasis
nfl
ng
nga
ngara
ngaro
ngaros
ngc
ngel
ngela
ngeles
nger
ngora
nguez
ngulo
ngulos
nh
nhc
nhl
ni
nia
nic
nica
nicamente
nicanor
nicaragu
nicaragua
nicas
nice
nich
nicho
nicholas
nichols
nicholson
nichos
nicht
nick
nickelodeon
nicki
nicky
nico
nicola
nicolas
nicole
nicolson
nicos
nida
nidas
nides
nido
nidos
nie
niebla
niega
niegan
nielsen
nieta
nieto
nietos
nietzsche
nieve
nieves
nigel
niger
nigeria
night
nightmare
nights
nigo
nih
nike
nikita
nikki
nikola
nikolai
nilo
nilsson
nima
nimas
nime
nimo
nimos
nin
nina
nine
nineteenth
ninfa
ninfas
ningu
ninguna
ninguno
ninja
nino
nintendo
nio
nior
nippon
nirvana
nis
nissan
nita
nito
nitro
nivel
niveles
nix
nixon
niz
niza
nj
nk
nl
nm
nme
nmente
nmi
nnen
no
noaa
noah
nobel
nobiliario
nobiliarios
noble
nobles
nobleza
nobody
nocaut
noch
noche
noches
nocio
nociones
nocturna
nocturnas
nocturno
nocturnos
nodo
nodos
noe
noel
nogales
noguera
noir
noise
nokia
nola
nolan
nom
noma
nomas
nombra
nombrada
nombradas
nombrado
nombrados
nombramiento
nombramientos
nombran
nombrando
nombrar
nombraron
nombre
nombres
nombro
nomencla
nomenclator
nomenclatura
nomenclature
nominacio
nominaciones
nominada
nominado
nominados
nominal
nominations
nominativo
nominees
nomo
nomos
non
nones
nor
nora
norberto
nord
nordeste
noreste
norfolk
noriega
norma
normal
normales
normalidad
normalizacio
normalmente
norman
normandi
normandos
normas
normativa
noroccidental
noroeste
nororiental
norris
norte
norteame
norteamericana
norteamericanas
norteamericano
norteamericanos
norten
north
northern
northwest
norton
noruega
noruego
noruegos
norway
norwegian
norwich
nos
nosotras
nosotros
nostalgia
nostra
nostrand
not
nota
notable
notablemente
notables
notacio
notado
notar
notario
notas
note
notes
nothing
noti
notice
notices
noticia
noticias
noticiero
notificacio
noto
notoria
notoriedad
notorio
notre
nottingham
nou
nous
nouveau
nouvelle
nouvelles
nov
nova
novak
novas
novato
novedad
novedades
novel
novela
novelas
novelista
november
novena
noveno
noventa
novi
novia
noviembre
novio
novios
novo
now
np
npr
nr
nro
ns
nsa
nscrito
nsito
nster
nsul
nsula
nsules
nt
nta
ntara
ntas
ntegramente
nter
ntes
ntesis
nther
ntica
nticas
ntico
nticos
ntida
ntima
ntimamente
ntimo
ntimos
nto
ntoma
ntomas
ntos
ntra
ntrica
ntrico
ntropo
nu
nube
nubes
nuca
nuclear
nucleares
nucleo
nuco
nudo
nudos
nueces
nuestra
nuestras
nuestro
nuestros
nueva
nuevamente
nuevas
nueve
nuevo
nuevos
nuez
nula
nulidad
nulo
nulos
num
numancia
number
numbers
nume
numeracio
numerados
numero
numerosa
numerosas
numeroso
numerosos
numisma
nun
nunca
nuncio
nuova
nuovo
nupcias
nur
nuria
nutricio
nutrientes
nw
nwa
nxt
ny
nyc
nyheter
nytimes
nyuge
nz
o
oa
oacceso
oaci
oak
oakland
oaks
oasis
oaxaca
ob
obama
obedece
obedecer
obediencia
obelisco
obenberger
obesidad
obispado
obispo
obispos
obituario
obituary
objecio
objeciones
object
objects
objetiva
objetivo
objetivos
objeto
objetos
obliga
obligaba
obligacio
obligaciones
obligada
obligadas
obligado
obligados
obligan
obligando
obligar
obligaron
obligatoria
obligatorio
obligo
oboe
obra
obrador
obrar
obras
obrego
obrera
obreras
obrero
obreros
obsequio
observa
observacio
observaciones
observada
observado
observador
observadores
observados
observan
observancia
observando
observar
observaron
observarse
observations
observatorio
observatory
observer
observo
obsesio
obsoleta
obsoleto
obsta
obstante
obtencio
obtendra
obtendri
obtener
obteni
obtenida
obtenidas
obtenido
obtenidos
obteniendo
obtiene
obtienen
obtuvieron
obtuvo
obviamente
obvio
oc
oca
ocampo
ocan
ocasio
ocasiona
ocasional
ocasionales
ocasionalmente
ocasiones
ocasiono
ocaso
occidental
occidentales
occidente
occitano
oce
ocea
ocean
oceani
och
ochenta
ocho
ochoa
ochocientos
ocio
oclc
oco
oct
octava
octavio
octavo
octavos
october
octogonal
octubre
ocular
oculta
ocultar
ocultas
oculto
ocultos
ocupa
ocupaba
ocupaban
ocupacio
ocupaciones
ocupada
ocupadas
ocupado
ocupados
ocupan
ocupando
ocupantes
ocupar
ocupara
ocupari
ocuparon
ocuparse
ocupo
ocurra
ocurre
ocurren
ocurrencia
ocurri
ocurrida
ocurrido
ocurridos
ocurrieron
ocurrio
ocurrir
oda
oder
odesa
odi
odia
odio
odisea
odo
odontologi
odos
odyssey
oea
oeste
of
ofensiva
ofensivas
ofensivo
oferta
ofertas
off
office
official
officially
offs
oficial
oficiales
oficialista
oficialmente
oficina
oficinas
oficio
oficios
ofrece
ofrecen
ofrecer
ofreci
ofrecida
ofrecido
ofrecidos
ofrecie
ofreciendo
ofrecieron
ofrecio
ofrenda
ofrendas
og
ographique
oh
ohio
ohne
oi
oil
ois
oise
ojala
ojeda
ojo
ojos
ok
okinawa
oklahoma
ol
ola
olaf
olas
old
ole
oleada
oles
olga
oli
oligarqui
olimpia
olimpiada
olimpiadas
olimpo
oliva
olivares
olive
oliveira
oliver
olivera
olivia
olivier
olivo
olivos
olla
olmedo
olmo
olmos
olo
olor
olos
olsen
olvida
olvidada
olvidado
olvidados
olvidar
olvido
olympedia
olympia
olympic
olympics
olympique
om
oma
oman
omar
omega
omisio
omni
oms
on
ona
once
onda
ondas
one
ones
ong
oni
online
only
ono
ontario
onthophagus
onu
oo
op
opcio
opcional
opciones
ope
opel
open
opening
opens
openstreetmap
opera
operaba
operaban
operacio
operacional
operaciones
operada
operado
operador
operadora
operadores
operados
operan
operando
operar
operation
operations
operativa
operativo
operativos
operatorname
opero
opinio
opinion
opiniones
opino
opio
opone
oponen
oponente
oponentes
oponerse
oponi
oporto
oportunidad
oportunidades
oportuno
oposicio
opositor
opositores
opposition
opresio
ops
optar
optaron
optimista
optimizacio
option
opto
opuesta
opuestas
opuesto
opuestos
opus
opusieron
opuso
or
ora
oracio
oraciones
oracle
orador
oral
orales
orange
oras
oratorio
orbe
orbita
orbital
orbitales
orchestra
orchid
orchidaceae
orden
ordena
ordenacio
ordenada
ordenadas
ordenado
ordenador
ordenadores
ordenados
ordenamiento
ordenando
ordenanza
ordenanzas
ordenar
ordeno
order
orders
ordinaria
ordinarias
ordinario
ordinarios
ordo
ore
orego
oregon
oreja
orejas
orellana
orense
ores
orfanato
orfebreri
orfeo
org
orga
organic
organismo
organismos
organista
organiza
organizacio
organizaciones
organizada
organizadas
organizado
organizador
organizadores
organizados
organizan
organizando
organizar
organizaron
organization
organizo
orgullo
orgulloso
ori
orial
oricon
orient
orientacio
orientada
orientadas
orientado
orientados
oriental
orientales
oriente
origen
origin
origina
originado
original
originales
originalidad
originalmente
originals
originan
originaria
originariamente
originarias
originario
originarios
origino
origins
orihuela
orilla
orillas
orina
orinoco
orio
oriol
orion
orita
oritas
oriundo
orlando
orleans
ornamentacio
ornamental
ornamentales
ornamentos
ornithology
ornito
ornitolo
ornitologi
oro
orozco
orquesta
orquestal
orquestas
orqui
orrell
orstom
ortega
ortiz
ortodoxa
ortodoxo
ortodoxos
ortogra
ortografi
orton
oruro
os
osa
osaka
osas
osasuna
osborn
osborne
osbourne
oscar
oscars
oscila
oscilacio
oscilan
oscura
oscuras
oscuridad
oscuro
oscuros
osiris
oskar
oslo
osma
oso
osorio
osorno
osos
ospina
osprey
ossorio
ost
ostenta
ostentaba
ostento
osuna
osvaldo
oswald
oswaldo
otan
otero
other
others
otis
oto
otomana
otomano
otomanos
oton
otorga
otorgaba
otorgada
otorgado
otorgados
otorgan
otorgar
otorgaron
otorgo
otra
otras
otro
otros
ottawa
otto
ottoman
ou
ouest
our
ourense
out
outlook
outside
ouvrard
ov
ova
oval
ovalle
ovario
oveja
ovejas
over
overline
overview
ovidio
oviedo
owen
owens
own
oxford
oxi
oxidacio
oye
oyendo
oyentes
oyo
oz
p
pa
pabello
pabellones
pablo
pac
pace
pacheco
pachuca
paci
paciencia
paciente
pacientes
pacific
pacificacio
pack
packard
paco
pacto
pactos
padece
padecer
padeci
padilla
padre
padres
padrino
padro
padua
pag
paga
pagaba
pagaban
pagado
pagados
pagan
pagando
pagano
paganos
pagar
pagara
page
pages
pagina
paglinawan
pago
pagos
pags
pai
paido
paige
pain
painemal
painting
pais
paisaje
paisajes
paisaji
paisano
paja
pakista
pakistan
pakistani
pal
pala
palabra
palabras
palace
palacio
palacios
paladar
palais
palanca
palas
palatinado
palau
palazzo
pale
palencia
palenque
paleo
paleoli
paleonto
paleontolo
paleontologi
paleontology
palermo
palestina
palestine
palestino
palestinos
paleta
palgrave
palio
pallars
palm
palma
palmar
palmare
palmas
palmer
palmera
palmeras
palmira
palo
paloma
palomar
palomas
palomino
palomo
palos
pamela
pampa
pampas
pamplona
pan
panaderi
panama
panamen
panamericana
panamericano
panamericanos
pancho
panda
pandemia
pandilla
pando
pandora
panel
paneles
panes
panhispa
panora
panorama
pantalla
pantallas
pantalo
pantalones
pantano
pantanos
panteo
pantera
panther
pantoja
panzer
paola
paolo
papa
papado
papal
papas
pape
papel
papeles
paper
papers
papiro
papu
paquete
paquetes
par
para
paracai
paracaidistas
parada
paradas
parade
paradero
paradigma
paradise
parado
paradoja
paraguas
paraguay
paraguaya
paraguayo
paraguayos
parai
paraje
parajes
paralela
paralelamente
paralelas
paralelo
paralelos
parali
paralympic
paramilitar
paramilitares
paramount
parana
parar
parc
parcela
parcelas
parche
parches
parcial
parciales
parcialmente
pardo
pare
parece
parecen
parecer
pareci
parecida
parecidas
parecido
parecidos
parecio
pared
paredes
pareja
parejas
parentesco
pares
parezca
pari
paridad
pariente
parientes
paris
parish
park
parker
parkinson
parks
parlamentaria
parlamentarias
parlamentario
parlamentarios
parlamento
parliament
parma
paro
parodia
parque
parques
parra
parrilla
parroquia
parroquial
parroquiales
parroquias
parsons
part
parte
parten
partes
parti
partial
particio
participa
participaba
participaban
participacio
participaciones
participado
participan
participando
participante
participantes
participar
participara
participari
participaron
participio
participo
particular
particulares
particularidad
particularidades
particularmente
partida
partidario
partidarios
partidas
partido
partidos
partiendo
partieron
parties
partio
partir
partisanos
partitura
partituras
partner
partners
parto
partos
parts
party
pas
pasa
pasaba
pasaban
pasada
pasadas
pasado
pasados
pasaje
pasajero
pasajeros
pasajes
pasan
pasando
pasaporte
pasaportes
pasar
pasara
pasarela
pasari
pasaron
pascal
pascua
pascual
pase
pasear
paseo
paseos
paseriforme
pases
pasha
pasillo
pasillos
pasio
pasiones
pasiva
pasivo
paso
pasos
pass
passeriformes
passion
past
pasta
pastel
pasteles
pastizales
pasto
pastor
pastora
pastoral
pastoreo
pastores
pastos
pastrana
pat
pata
patada
patago
patagonia
patas
patata
patatas
pate
patent
patente
patentes
paterna
paternidad
paterno
path
pati
patients
patin
patinaje
patines
patio
patios
pato
patolo
patologi
patos
patria
patriarca
patriarcado
patriarcal
patricia
patricio
patricios
patrick
patrimonial
patrimonio
patrio
patriota
patriotas
patriotismo
patro
patrocinado
patrocinador
patrocinadores
patrocinio
patrona
patronal
patronales
patronato
patrones
patrono
patronos
patronymes
patrulla
patrullas
patterns
patterson
patton
pau
paul
paula
paulatinamente
paulina
pauline
paulino
paulista
paulo
pauly
pausa
pausanias
pautas
pavel
pavi
pavimento
pavo
pax
pay
payaso
payne
pays
paz
pb
pbs
pc
pce
pcr
pd
pdf
pe
peace
peaje
peak
pearl
pearson
peatonal
pecado
pecados
peces
pecho
pechos
peci
peculiar
pedago
pedagogi
pedal
pedani
pedazo
pedazos
pedersen
pedestal
pedi
pedido
pedidos
pedir
pedirle
pedo
pedraza
pedro
pedu
peer
pega
peggy
peinado
peki
pela
pelaje
pelayo
pelea
peleando
pelear
peleas
peleo
peli
peligro
peligros
peligrosa
peligrosas
peligroso
peligrosos
pellegrini
pelo
peloponeso
pelos
pelota
pelotas
peloto
pen
pena
penal
penales
penaltis
penas
pendiente
pendientes
pene
penetra
penetracio
penetrar
penetro
penguin
peni
peninsular
penitencia
penitenciario
penn
pennsylvania
penny
pensaba
pensaban
pensado
pensador
pensadores
pensamiento
pensamientos
pensando
pensar
pensaron
pense
pensilvania
pensio
pensiones
penso
penta
penu
peo
peones
people
peoples
peor
peores
pepa
pepe
pepita
pepper
pepsi
pequen
per
pera
peral
perales
peralta
peras
percepcio
percibe
percibi
percibir
perciformes
percusio
percy
perdedor
perdedores
perder
perderi
perderse
perdi
perdida
perdidas
perdido
perdidos
perdiendo
perdiera
perdieron
perdio
perdo
perdona
pere
pereda
peregrinacio
peregrino
peregrinos
pereira
perenne
perennes
pereyra
perez
perfeccio
perfeccionamiento
perfect
perfecta
perfectamente
perfecto
perfil
perfiles
perforacio
performance
perfume
perfumes
pergamino
peri
perico
perife
periferia
perio
period
periodi
periodismo
periodista
periodistas
periodo
periodos
perjudicial
perjuicio
perjuicios
perkins
perla
perlas
permanece
permanecen
permanecer
permanecera
permaneceri
permaneci
permanecido
permaneciendo
permanecieron
permanecio
permanencia
permanente
permanentemente
permanentes
permiso
permisos
permita
permitan
permite
permiten
permiti
permitido
permitie
permitiendo
permitiera
permitieron
permitio
permitir
permitira
permitiri
pernambuco
pero
peronismo
peronista
perpendicular
perpetua
perpetuo
perrin
perro
perros
perry
persa
persas
persecucio
persecuciones
persegui
perseguido
perseguidos
perseguir
perseus
persia
persigue
persiguen
persiguio
persiste
persistencia
persistente
person
persona
personaje
personajes
personal
personales
personalidad
personalidades
personalmente
personas
perspectiva
perspectivas
perspective
perspectives
persuadir
pertenece
pertenecen
pertenecer
perteneci
pertenecido
perteneciente
pertenecientes
pertenecio
pertenencia
pertenencias
perth
pertinentes
perturbacio
peru
peruana
peruanas
peruano
peruanos
pesa
pesaba
pesada
pesadas
pesadilla
pesado
pesados
pesar
pesca
pescado
pescador
pescadores
pescados
pescar
pese
pesetas
peso
pesos
pesquera
pesquero
pestan
peste
pet
pete
peter
peters
petersburg
petersburgo
petersen
peterson
peticio
peticiones
petit
petite
petra
petro
petrolera
petrolero
petroleros
petroli
peugeot
pez
pf
pg
ph
phane
phantom
phase
phd
phi
phil
philadelphia
philip
philipp
philippe
philippine
philippines
philips
phillip
phillips
philosophical
philosophie
philosophy
phoenix
phone
photo
photographic
photography
photos
php
phylogenetic
phylogenetics
phylogeny
phys
physical
physics
physiology
pi
pia
piadoso
piamonte
pianista
piano
piazza
pib
pic
pica
picada
picado
picamente
picante
picardi
picas
picasso
pice
pichincha
pick
pico
picos
picto
picture
pictures
pida
pidal
pidamente
pidas
pide
piden
pides
pidie
pidiendo
pidieron
pidio
pido
pidos
pie
piece
piedad
piedra
piedras
piel
pieles
piensa
piensan
pienso
pier
pierce
pierda
pierde
pierden
pierna
piernas
piero
pierre
pies
pieter
pietro
pieza
piezas
pigmentos
pike
pila
pilar
pilares
pilas
pilastras
pilot
piloto
pilotos
pilsen
pimentel
pimienta
pin
pina
pinar
pinares
pine
pineda
pines
ping
pingu
pinilla
pink
pino
pinochet
pinos
pinta
pintada
pintadas
pintado
pintados
pintar
pinto
pintor
pintora
pintores
pintoresco
pintura
pinturas
pinus
pinyin
pinzo
pio
pioneer
pionera
pionero
pioneros
piotr
pipa
piper
pique
pira
piragu
pirata
piratas
pirateri
pirates
pirineos
pisa
piscina
piscinas
pisco
piso
pisos
pista
pistas
pisto
pistola
pistolas
pistons
pit
pita
pitchfork
piter
pito
pitt
pittsburgh
piu
piura
pixar
piz
pizarra
pizarro
pizza
pj
pk
pl
pla
placa
placas
place
placer
placeres
places
plaga
plagas
plain
plan
plana
planas
plancha
planchas
planck
plane
planea
planeaba
planeacio
planeada
planeado
planeamiento
planear
planeo
planes
planespotters
planet
planeta
planetario
planetary
planetas
planets
planicie
planificacio
planificada
planificar
planning
plano
planos
plans
plant
planta
plantacio
plantaciones
plantar
plantarum
plantas
plantea
planteado
planteamiento
plantear
plantel
planteo
plantilla
plantillas
plantlist
plants
plasencia
plasma
plastic
plata
plataforma
plataformas
plate
plateado
platense
platform
platillos
platino
platinum
platnick
plato
platos
play
playa
playas
playboy
player
players
playing
playoff
playoffs
plays
playstation
plaza
plazas
plazo
plazos
plc
pleasant
please
plebe
plebiscito
pleistoceno
pleito
plena
plenamente
plenipotenciario
plenitud
pleno
plg
plica
plicas
pliegues
plinio
plomo
plos
pluma
plumaje
plumas
plural
pluralidad
plus
plutarco
pluto
plymouth
pm
pmatrix
pmc
pmid
pnas
pnud
pnv
po
poa
poblacio
poblacional
poblacionales
poblaciones
poblada
pobladas
poblado
pobladores
poblados
poblamiento
pobre
pobres
pobreza
poca
pocas
pocket
poco
pocos
podamos
podcast
pode
podemos
poder
poderes
poderi
poderosa
poderosas
poderoso
poderosos
podesta
podi
podido
podio
podios
podo
podos
podra
podre
podremos
podri
poe
poema
poemario
poemas
poems
poesi
poeta
poetas
poetisa
poetry
point
points
poitiers
poke
pol
pola
polaca
polacas
polaco
polacos
polanco
poland
polar
polares
polarizacio
pole
polen
poles
poli
polibio
police
polici
policial
policiales
policy
polideportivo
polilla
polinesia
polinizacio
polinomio
polis
polish
polite
politica
political
politico
politics
politique
poll
pollo
pollos
polo
polonia
polos
polvo
polygon
pomerania
pompeya
pompeyo
ponce
poncho
pondra
pondri
pone
ponen
poner
ponerle
ponerse
ponga
pongo
poni
ponie
poniendo
poniente
pons
pont
ponte
pontevedra
ponti
pontificado
pontificia
pontificio
ponto
pony
pool
poor
pop
popa
popaya
pope
popular
populares
popularidad
popularizo
popularmente
population
populations
por
porcelana
porcentaje
porcio
porciones
porfirio
porn
porno
pornogra
pornografi
poros
porque
porras
porsche
port
porta
portaaviones
portable
portada
portadas
portador
portadores
portal
portales
portando
portar
portavoz
porte
portela
porten
porter
porteri
portero
portillo
portland
porto
portocarrero
portrait
portsmouth
portuaria
portugal
portugue
portuguesa
portuguesas
portuguese
portugueses
porvenir
pos
posada
posadas
pose
posee
poseedor
poseen
poseer
posei
posesio
posesiones
posgrado
posguerra
posibilidad
posibilidades
posible
posiblemente
posibles
posicio
posicionamiento
posiciones
posiciono
position
positiva
positivamente
positivas
positive
positivo
positivos
possible
post
posta
postal
postales
poste
posterior
posteriores
posterioridad
posteriormente
postes
postgrado
postre
postres
postula
postulado
postulados
postulo
postura
posturas
pot
potable
potasio
potencia
potencial
potenciales
potencialmente
potenciar
potencias
potente
potentes
potential
potestad
potosi
potro
potsdam
potter
pour
powell
power
powers
poznan
pozo
pozos
pp
ppen
ppp
ppv
pr
pra
practica
practicaba
practicado
practical
practican
practicante
practicantes
practicar
practice
practico
prada
pradera
praderas
pradesh
prado
prados
praga
pragma
prairie
prat
pratt
prayer
prd
pre
prea
precaucio
precauciones
precede
precedente
precedentes
precedida
precedido
preceptos
precio
precios
preciosa
preciosas
precioso
preciosos
precipitacio
precipitaciones
precisa
precisamente
precisas
precisio
preciso
precisos
precoz
precursor
precursores
predecesor
predecesores
predecir
predicador
prediccio
predicciones
predio
predomina
predominan
predominante
predominantemente
predominio
prefacio
prefecto
prefectoral
prefectura
preferencia
preferencias
preferente
preferentemente
preferi
preferible
preferido
prefiere
prefieren
prefijo
prefijos
prefirio
prego
pregrado
pregunta
preguntaba
preguntar
preguntas
pregunte
pregunto
prehispa
prehisto
prehistoria
prejuicios
prelado
preliminar
preliminares
preliminary
preludio
prematura
premia
premiada
premiado
premiados
premie
premier
premiere
premio
premios
premisa
premium
prenda
prendas
prensa
prentice
preocupa
preocupacio
preocupaciones
preocupado
preocupados
preocuparse
prepara
preparaba
preparacio
preparada
preparado
preparados
preparan
preparando
preparar
prepararse
preparativos
preparatoria
preparo
pres
presa
presas
presbi
presbiterio
prescripcio
presencia
presenciar
present
presenta
presentaba
presentaban
presentacio
presentaciones
presentada
presentadas
presentado
presentador
presentadora
presentadores
presentados
presentan
presentando
presentar
presentara
presentari
presentaron
presentarse
presente
presenten
presentes
presento
presents
preservacio
preservar
preservation
preside
presidencia
presidencial
presidenciales
president
presidenta
presidente
presidentes
presidential
presidida
presidido
presidio
presidir
presio
presionar
presiones
presley
preso
presos
press
presse
presses
pressure
presta
prestacio
prestaciones
prestado
prestados
prestan
prestando
prestar
prestigio
prestigiosa
prestigioso
prestigiosos
presto
preston
presume
presumiblemente
presunta
presuntamente
presunto
presuntos
presupuesto
presupuestos
prete
pretemporada
pretende
pretenden
pretender
pretendi
pretendiente
pretendio
pretensio
pretensiones
pretexto
pretty
prevalencia
preve
prevei
prevencio
prevenir
prevention
preventiva
previa
previamente
previas
preview
previo
previos
previsio
prevista
previstas
previsto
previstos
pri
price
pride
priest
prieto
prim
prima
primaria
primarias
primario
primarios
primary
primas
primates
primavera
prime
primer
primera
primeramente
primeras
primero
primeros
primitiva
primitivas
primitivo
primitivos
primo
primoge
primordial
primos
prince
princesa
princesas
princess
princeton
principado
principal
principales
principalmente
principio
principios
principles
print
printing
prior
priorato
priori
prioridad
prioridades
prisa
prisio
prisionero
prisioneros
prisiones
prisma
prison
pristimantis
privacidad
privacio
privada
privadas
privado
privados
private
privatizacio
privilegiada
privilegio
privilegios
prix
prize
pro
proa
probabilidad
probabilidades
probable
probablemente
probado
probar
problem
problema
problemas
problems
probo
proc
proca
procede
proceden
procedencia
procedente
procedentes
proceder
procedera
procedi
procedimiento
procedimientos
procedio
proceedings
procesado
procesador
procesadores
procesados
procesal
procesamiento
procesar
procesio
procesiones
proceso
procesos
process
processing
proclama
proclamacio
proclamado
proclamar
proclamo
proco
procura
procurador
procuradores
procuraduri
procurando
procurar
procyclingstats
prodigio
produ
produccio
producciones
produce
producen
producer
produci
producida
producidas
producido
producidos
producie
produciendo
producir
producira
produciri
producirse
product
production
productions
productiva
productivas
productividad
productivo
productivos
producto
productor
productora
productoras
productores
productos
products
produjeron
produjo
produzca
prof
profe
profeci
profesio
profesional
profesionales
profesionalismo
profesionalmente
profesiones
profesor
profesora
profesorado
profesores
professional
professor
profeta
profetas
profile
profunda
profundamente
profundas
profundidad
profundidades
profundizar
profundo
profundos
program
programa
programacio
programada
programado
programador
programas
programme
programming
progresio
progresista
progresistas
progresiva
progresivamente
progresivo
progreso
progresos
progress
prohi
prohibi
prohibicio
prohibida
prohibidas
prohibido
prohibidos
prohibio
prohibir
project
projects
proletariado
proli
proliferacio
prolonga
prolongacio
prolongada
prolongado
prolongo
promedia
promediando
promedio
promedios
promesa
promesas
promete
prometeo
prometheus
prometi
prometida
prometido
prometio
prominente
prominentes
promo
promocio
promocional
promocionales
promocionar
promociones
promontorio
promotor
promotores
promover
promovida
promovido
promoviendo
promovio
promueve
promueven
promulgacio
promulgada
promulgo
prono
pronombre
pronombres
pronominal
pronta
pronto
pronuncia
pronunciacio
pronunciada
pronunciado
pronunciamiento
pronunciar
pronuncio
propagacio
propaganda
properties
property
propia
propiamente
propias
propicio
propiedad
propiedades
propietaria
propietario
propietarios
propio
propios
propo
propone
proponen
proponer
proponi
proporcio
proporciona
proporcionaba
proporcionada
proporcionado
proporcionados
proporcional
proporcionan
proporcionando
proporcionar
proporcionaron
proporciones
proporciono
proposicio
proposiciones
propuesta
propuestas
propuesto
propuestos
propulsado
propulsio
propulsion
propusieron
propuso
prosa
proseguir
prosiguio
prosperidad
prospero
prostitucio
prostituta
prostitutas
protago
protagonismo
protagonista
protagonistas
protagoniza
protagonizada
protagonizado
protagonizar
protagonizo
proteccio
protection
protector
protectora
protectorado
protectores
protege
protegen
proteger
protegerse
protegi
protegida
protegidas
protegido
protegidos
protei
protein
protest
protesta
protestante
protestantes
protestar
protestas
protesto
proto
protocol
protocolo
protocolos
protoindoeuropeo
protones
prototipo
prototipos
provecho
provee
proveedor
proveedores
proveer
provence
proveni
proveniente
provenientes
provenza
providence
providencia
proviene
provienen
province
provincia
provincial
provinciales
provincias
provisio
provisional
provisionales
provisionalmente
provisiones
provisto
provoca
provocada
provocado
provocan
provocando
provocar
provocaron
provoco
proximidad
proximidades
proyeccio
proyecciones
proyecta
proyectada
proyectado
proyectar
proyectil
proyectiles
proyecto
proyectos
prudencia
prudente
prueba
pruebas
prusia
prusiana
prusiano
ps
psc
pseudo
pseudoscorpionida
psi
psico
psicoana
psicode
psicolo
psicologi
psiquia
psiquiatra
psiquiatri
psoe
psp
psula
psulas
psychiatry
psycho
psychological
psychology
pt
ptero
pteros
ptica
pticas
ptico
pticos
ptima
ptimo
ptolomeo
pts
pu
pub
publ
public
publica
publicaba
publicacio
publicaciones
publicada
publicadas
publicado
publicados
publican
publicando
publicar
publicara
publicaron
publicarse
publication
publications
publicidad
publicitaria
publicitario
publicitarios
publico
publio
publique
published
publisher
publishers
publishing
pude
pudie
pudiendo
pudiera
pudieran
pudieron
pudiese
pudiesen
pudo
puebla
pueblo
pueblos
pueda
puedan
puede
pueden
puedes
puedo
puente
puentes
puerco
puerta
puertas
puerto
puertorriquen
puertos
pues
puesta
puestas
puesto
puestos
pueyrredo
puig
pujol
pula
pulas
pulgadas
pulgar
pulido
pulitzer
pulmo
pulmonar
pulmones
pulo
pulos
pulpa
pulse
pulso
puma
pumas
pun
puna
punch
punk
puno
punta
puntaje
puntas
puntero
punto
puntos
puntuacio
puntual
puntuales
pura
puramente
puras
pure
pureza
puri
purificacio
puro
puros
purple
puse
push
pusiera
pusieron
puso
put
putin
putnam
puy
pv
pwi
py
python
q
qaeda
qatar
qi
qin
qing
qquad
qu
qua
quad
quae
qual
quality
quando
quantum
quarterly
quartet
quatre
quatro
que
quebec
quebrada
quebradas
quechua
queda
quedaba
quedaban
quedado
quedan
quedando
quedar
quedara
quedari
quedaron
quedarse
quede
queden
quedo
queen
queens
queensland
queer
queja
quejas
quel
quema
quemada
quemado
quemados
quemaduras
quemar
quemo
quentin
quer
quercus
quere
querella
queremos
querer
queri
querida
querido
queridos
queriendo
quesada
queso
quesos
quest
question
questions
quevedo
quez
qui
quick
quico
quida
quido
quidos
quie
quiebra
quien
quienes
quiera
quieran
quieras
quiere
quieren
quieres
quiero
quiet
quijote
quilla
quilmes
quin
quina
quinas
quince
quincy
quinientos
quinn
quinta
quintana
quintanilla
quintas
quintero
quinteto
quinto
quiro
quiroga
quiru
quise
quisiera
quisieron
quiso
quita
quitado
quitar
quitarle
quito
quiza
quo
r
ra
rabbit
rabe
rabes
rabi
rabia
rabino
rabo
race
racha
rachel
racial
raciales
racimos
racing
racional
racionales
racismo
racista
rada
radar
radiacio
radial
radiales
radiante
radiation
radica
radicado
radical
radicales
radicalismo
radicalmente
radico
radio
radiodifusio
radiofo
radios
rae
raf
rafa
rafael
rafaela
rage
rahman
rai
raid
rail
railroad
railway
raimundo
rain
rainbow
rainer
raio
raja
rajoy
ral
rala
rale
rally
ralph
ram
rama
ramal
ramales
ramas
rambla
rami
ramiro
ramo
ramon
ramona
ramos
rampa
ramsar
ramsay
ramse
ramsey
ran
rana
ranas
rancagua
rancho
rand
randall
randolph
random
randy
range
rangel
ranger
rangers
rangle
rango
rangos
ranking
rankings
rao
raoul
rap
rapero
raphael
rapid
rapidez
rapids
raquel
rara
raramente
raras
rard
rare
raro
raros
ras
rascacielos
rase
rasgo
rasgos
rasmussen
raso
rastrear
rastro
rastros
rat
rata
ratas
rate
ratificacio
ratificado
ratifico
rating
ratings
ratio
ration
rato
ratones
ratos
rau
raven
raw
rawson
rax
ray
raya
rayas
raymond
rayo
rayos
raza
razas
razo
razon
razonable
razonamiento
razones
rb
rbara
rbaro
rbaros
rbita
rbitas
rbitro
rbitros
rbol
rboles
rc
rca
rcega
rcel
rceles
rchb
rcito
rcitos
rcn
rcoles
rctv
rcules
rculo
rculos
rd
rda
rden
rdenas
rdenes
rdica
rdico
rdicos
rdida
rdidas
rdoba
rdova
re
rea
reaccio
reacciona
reaccionar
reacciones
reach
reactivo
reactor
reactores
read
reader
reading
ready
reagan
real
reales
realeza
realgm
realice
realicen
realidad
realidades
realismo
realista
realistas
reality
realiza
realizaba
realizaban
realizacio
realizada
realizadas
realizado
realizador
realizados
realizan
realizando
realizar
realizara
realizari
realizaron
realizarse
realizo
really
realmente
reanudo
reaparece
reapertura
reas
reason
reban
rebautizado
rebeca
rebecca
rebel
rebelde
rebeldes
rebeldi
rebelio
rebeliones
rebels
rebotes
rec
recae
recap
recarga
recaudacio
recaudar
recaudo
recayo
recent
recepcio
receptor
receptores
recesio
receso
receta
recetas
rechaza
rechazada
rechazado
rechazados
rechazan
rechazando
rechazar
rechazaron
rechazo
reci
reciba
recibe
reciben
recibi
recibida
recibidas
recibido
recibidos
recibiendo
recibieron
recibio
recibir
recibira
recibiri
reciclaje
recie
reciente
recientemente
recientes
recife
recinto
recintos
recio
recipiente
recipientes
recital
recitales
reclama
reclamacio
reclamaciones
reclamado
reclamar
reclamo
reclamos
reclutado
reclutamiento
reclutar
reclutas
recoge
recogen
recoger
recogi
recogida
recogidas
recogido
recogidos
recogiendo
recogio
recoleccio
recolectar
recoleta
recomendable
recomendacio
recomendaciones
recomendado
recomendados
recomendo
recomienda
recompensa
recompensas
reconciliacio
reconoce
reconocen
reconocer
reconoci
reconocida
reconocidas
reconocido
reconocidos
reconociendo
reconocieron
reconocimiento
reconocimientos
reconocio
reconquista
reconstruccio
reconstruida
reconstruido
reconstruir
reconstruyo
recopa
recopilacio
recopilatorio
record
recordaba
recordada
recordado
recordando
recordar
recorded
recording
recordings
recordo
records
recorre
recorren
recorrer
recorri
recorrido
recorridos
recorriendo
recorrio
recortes
recrea
recreacio
recrear
recreativas
recreativo
recreo
recta
rectangular
rectangulares
rectas
recto
rector
rectos
recuento
recuerda
recuerdan
recuerdo
recuerdos
recupera
recuperacio
recuperada
recuperado
recuperados
recuperando
recuperar
recuperaron
recuperarse
recupero
recurre
recurrente
recurrentes
recurrio
recurrir
recurso
recursos
red
redaccio
redactado
redactar
redacto
redactor
rede
redencio
redentor
redes
redisen
redonda
redondas
redondeada
redondeadas
redondeado
redondo
reduccio
reducciones
reduce
reducen
reducida
reducidas
reducido
reducidos
reduciendo
reducir
redujeron
redujo
redundantes
reed
reeder
reedicio
reeditado
reef
reeleccio
reelecto
reelegido
reemplaza
reemplazada
reemplazado
reemplazados
reemplazando
reemplazar
reemplazo
reencuentro
reestructuracio
reeves
ref
refere
reference
references
referencia
referencias
referente
referentes
referi
referida
referidas
referido
referidos
referir
referirse
refiere
refieren
refineri
refirie
refirio
refleja
reflejada
reflejado
reflejan
reflejar
reflejo
reflejos
reflexio
reflexionar
reflexiones
reflexivo
reform
reforma
reformada
reformado
reformar
reformas
reformista
reformo
reforzada
reforzado
reforzar
reforzo
refranes
refrigeracio
refuerza
refuerzo
refuerzos
refugiado
refugiados
refugiarse
refugio
refugios
reg
regadi
regalado
regalo
regalos
regan
regatas
regencia
regeneracio
regente
reggae
regi
regia
regidor
regidores
regimiento
regimientos
regina
reginald
regio
region
regional
regionales
regionalista
regiones
regions
regis
register
registra
registrada
registradas
registrado
registrados
registran
registrar
registraron
registro
registros
regla
reglamentacio
reglamento
reglamentos
reglas
regresa
regresaba
regresado
regresan
regresando
regresar
regresara
regresari
regresaron
regresio
regreso
regula
regulacio
regulaciones
regulada
regulado
regulador
regulan
regular
regulares
regularidad
regularmente
regulation
rehabilitacio
rehabilitado
rehe
rehenes
rei
reich
reid
reign
reigns
reilly
reimpresio
reims
reina
reinado
reinados
reinaldo
reinante
reinas
reinhard
reinhold
reinicio
reino
reinos
reis
reivindicacio
reivindicaciones
reja
rejas
rela
relacio
relaciona
relacionada
relacionadas
relacionado
relacionados
relacionan
relacionarse
relaciones
relata
related
relations
relationship
relationships
relativa
relativamente
relativas
relatividad
relativo
relativos
relato
relatos
release
released
releases
relegado
relevancia
relevante
relevantes
relevo
relevos
relieve
relieves
religio
religion
religiones
religiosa
religiosas
religioso
religiosos
religious
reliquia
reliquias
relleno
reloj
relojes
remains
remake
remanente
rematada
rematado
remate
remberg
rembrandt
remedio
remedios
remember
remix
remixes
remo
remodelacio
remodelado
remonta
remontan
remos
remota
remotas
remoto
remotos
remover
remuneracio
ren
renacentista
renacentistas
renacimiento
renaissance
renal
renania
renata
renato
renault
rencor
rendicio
rendimiento
rendimientos
rendir
rendirse
rene
renfe
rennes
reno
renombrada
renombrado
renombre
renovable
renovables
renovacio
renovada
renovado
renovar
renovo
renta
rentabilidad
rentable
rentas
renueva
renuncia
renunciar
renuncio
reo
reorganizacio
reorganizo
reos
rep
reparacio
reparaciones
reparar
repartidas
repartidos
repartir
reparto
repente
repentina
repentinamente
repentino
repercusio
repertorio
repeti
repeticio
repetidamente
repetidas
repetido
repetidos
repetir
repite
repiten
repitiendo
repitio
replicacio
replico
repoblacio
report
reportado
reportaje
reportajes
reportaron
reporte
reporter
reportera
reportero
reporteros
reportes
reporto
reports
repositorio
reposo
represa
represalia
represalias
representa
representaba
representaban
representacio
representaciones
representada
representadas
representado
representados
representan
representando
representante
representantes
representar
representara
representaron
representativa
representativas
representativo
representativos
represento
represio
reprimir
reproduccio
reproducciones
reproduce
reproducen
reproducir
reproduction
reproductiva
reproductor
reptile
reptiles
repu
repubblica
republic
republica
republican
republicana
republicanas
republicano
republicanos
republike
repuso
reputacio
requena
requeri
requerida
requerido
requeridos
requerimiento
requerimientos
requerir
requiere
requieren
requirio
requisito
requisitos
res
resalta
resaltar
rescata
rescatado
rescatar
rescate
rescue
rese
research
resen
resentimiento
reserva
reservada
reservado
reservados
reservas
reserve
resguardo
reside
residen
residencia
residencial
residenciales
residencias
resident
residente
residentes
residi
residiendo
residio
residir
residuales
residuos
resina
resistance
resiste
resistencia
resistente
resistentes
resistio
resistir
resolucio
resoluciones
resolution
resolver
resolvio
resonancia
resort
resorte
resource
resources
respaldado
respaldo
respecta
respectiva
respectivamente
respectivas
respectivo
respectivos
respecto
respeta
respetable
respetado
respetando
respetar
respeto
respiracio
respirar
respiratoria
respiratorio
resplandor
responde
responden
responder
respondi
respondiendo
respondieron
respondio
responsabilidad
responsabilidades
responsable
responsables
response
respuesta
respuestas
rest
resta
restablecer
restablecimiento
restablecio
restante
restantes
restauracio
restaurada
restaurado
restaurant
restaurante
restaurantes
restaurar
restauro
restitucio
resto
restos
restrepo
restriccio
restricciones
restringida
restringido
resucitado
resuelta
resuelto
resuelve
result
resulta
resultaba
resultado
resultados
resultan
resultando
resultante
resultantes
resultar
resultari
resultaron
resulte
resulto
results
resume
resumen
resurgimiento
resurreccio
retablo
retablos
retaguardia
retencio
retener
reti
retina
retira
retirada
retirado
retirados
retirar
retiraron
retirarse
retiro
reto
retoma
retomar
retomo
retorna
retornar
retorno
retos
retraso
retrasos
retrata
retrato
retratos
retrieved
retro
retroceder
retroceso
retrospectiva
return
returns
retuvo
reu
reuni
reunida
reunidas
reunido
reunidos
reuniendo
reunieron
reunificacio
reunio
reunion
reuniones
reunir
reunirse
reus
reuters
rev
revancha
reve
reveal
revealed
reveals
revela
revelacio
revelaciones
revelada
revelado
revelan
revelando
revelar
revelaron
revelo
revenge
reverendo
reverso
reverte
revertir
revestimiento
review
reviews
revisada
revisado
revisar
revised
revisio
revision
revisiones
revisited
reviso
revista
revistas
revival
revivir
revo
revolucio
revolucionaria
revolucionarias
revolucionario
revolucionarios
revoluciones
revolution
revolutionary
revue
revuelta
revueltas
rex
rey
reyes
reyna
reyno
reynolds
rez
reza
rezar
rf
rfana
rfano
rfanos
rfc
rfef
rg
rgamo
rgano
rganos
rgen
rgenes
rgica
rgicamente
rgicas
rgico
rgicos
rho
rhode
rhodes
rhythm
ri
ria
riaa
riachuelo
rialp
riba
ribas
ribeiro
ribera
riberas
riberen
ric
rica
ricamente
ricardo
ricas
riccardo
ricci
rice
rich
richard
richards
richardson
richelieu
richie
richmond
richter
rick
ricky
rico
ricos
rida
ridas
ride
rider
rides
ridge
ridi
ridley
rido
ridos
rie
riego
rieles
riendas
riendo
riera
riesgo
riesgos
rifle
rifles
riga
rige
rigen
right
rightarrow
rights
rigidez
rigo
rigor
rigos
rigurosa
riguroso
rihanna
ril
riley
rima
rimas
rin
rinco
rincones
rinde
rindieron
rindio
ring
ringo
rio
rioja
rios
riot
ripley
ripoll
riquelme
riqueza
riquezas
ris
risa
risas
rise
rising
risk
risuen
rita
ritchie
ritmo
ritmos
rito
ritos
ritter
ritu
ritual
rituales
ritus
riva
rivadavia
rival
rivales
rivalidad
rivas
river
rivera
rivero
rivers
riverside
rivie
riz
rizal
rj
rjen
rk
rkov
rm
rmaco
rmacos
rmica
rmicas
rmico
rmicos
rmino
rminos
rmol
rmula
rmulas
rn
rna
ro
roa
road
rob
roba
robado
robar
robbie
robbins
robert
roberta
roberto
roberts
robertson
robin
robinson
roble
robledo
robles
robo
robos
robot
robots
robson
robusta
robusto
roca
rocas
rocca
rocha
roche
rochester
roci
rock
rockefeller
rocket
rockets
rocks
rocky
rococo
rocosas
rocoso
rocosos
rod
roda
rodada
rodado
rodaje
rodar
rodas
rodea
rodeaba
rodeaban
rodeada
rodeado
rodeados
rodean
rodeando
rodeo
rodgers
rodilla
rodillas
rodney
rodo
rodolfo
rodri
rodrigo
rodrigues
rodriguez
roe
roedor
roedores
roes
rogamos
rogelio
roger
rogers
rogue
roh
roi
roig
roja
rojas
rojizo
rojo
rojos
rol
rola
roland
rolando
rolda
role
roles
rolf
roll
rolling
rollins
rollo
rolls
rom
roma
romain
roman
romana
romanas
romance
romances
romani
romanizacio
romano
romanos
romantic
romanticismo
rome
romeo
romeri
romero
romo
rompe
rompecabezas
rompen
romper
rompiendo
rompieron
rompio
ron
ronald
ronaldo
ronda
rondas
rondo
ronnie
ronse
roo
rookie
room
roosevelt
root
roots
ropa
ropas
roque
rory
ros
rosa
rosaceae
rosada
rosado
rosales
rosali
rosario
rosas
rose
rosello
rosemary
rosen
rosenberg
roses
rosita
roskov
ross
rossi
rossini
rosso
roster
rostro
rostros
rota
rotacio
roth
rothschild
roto
rotonda
rotor
rotos
rotten
rotura
rouge
rough
round
rousseau
route
routledge
roux
rov
rover
rovers
rovira
row
rowling
rowman
roy
royal
royale
royce
royo
royuela
rozas
rp
rpg
rpm
rpp
rprete
rpretes
rpura
rquez
rquica
rquico
rquicos
rr
rrafo
rrafos
rraga
rrea
rrez
rroco
rroga
rs
rse
rsela
rsele
rselo
rss
rsssf
rsula
rt
rtaros
rte
rtebras
rtel
rtela
rter
rterbuch
rtica
rticas
rtice
rtices
rtico
rticos
rtida
rtigo
rtil
rtiles
rtir
rtires
rttemberg
rtve
ru
rua
ruanda
rube
ruben
rubens
rubi
rubia
rubin
rubio
rubro
ruby
rudo
rudolf
rudolph
rudy
rue
rueda
ruedas
ruego
rufino
rufus
rugby
rui
ruido
ruidos
ruina
ruinas
ruisen
ruiz
rule
rules
rum
rumana
rumani
rumania
rumano
rumanos
rumble
rumbo
rumor
rumores
run
runner
running
rupert
rupestre
rupestres
ruptura
rural
rurales
rus
rusa
rusas
rush
rusia
ruso
rusos
russell
russia
russian
russo
ruta
rutas
ruth
rutherford
rutina
ruy
rv
ry
ryan
ryder
ryo
ryu
s
sa
saa
saab
saavedra
saba
sabadell
sabana
sabanas
sabbath
sabe
sabemos
saben
saber
saberlo
sabes
sabi
sabia
sabido
sabiduri
sabiendo
sabina
sabino
sabio
sabios
sable
sabor
sabores
saboya
sabra
sabre
sabrina
saca
sacado
sacan
sacando
sacar
sacaron
sacerdocio
sacerdotal
sacerdote
sacerdotes
sachs
saco
sacos
sacra
sacramento
sacramentos
sacred
sacrificar
sacrificio
sacrificios
sacrista
sacristi
sacro
sad
saddle
sae
safe
safety
saga
sagas
sage
sagrada
sagradas
sagrado
sagrados
sagrario
sahagu
sahara
sai
said
sailor
saint
sainte
saints
sainz
sajonia
sakura
sal
sala
salada
salado
salamanca
salar
salario
salarios
salas
salazar
salcedo
saldan
saldo
saldra
saldri
sale
salem
salen
salerno
sales
salga
salgado
sali
salida
salidas
salido
saliendo
saliente
saliera
salieron
salinas
salio
salir
salisbury
salitre
salle
sally
salmo
salmos
salo
salome
salomo
salon
salones
salsa
salt
salta
saltando
saltar
saltillo
salto
saltos
salud
saludable
saludo
salva
salvacio
salvado
salvador
salvadoren
salvaje
salvajes
salvamento
salvando
salvar
salvarse
salvat
salvatierra
salvatore
salve
salvia
salvo
salzburgo
sam
sama
samantha
samba
same
sami
sammy
samo
samoa
samos
samper
sample
samsung
samuel
samura
samurai
san
sana
sanabria
sanatorio
sancha
sanchez
sancho
sancio
sancionada
sancionado
sanciones
sancti
sand
sanders
sandoval
sandra
sandro
sandwich
sandy
saneamiento
sang
sangre
sangrienta
sangriento
sangui
sanidad
sanitaria
sanitarias
sanitario
sanitarios
sankt
sanlu
sano
sanos
sans
sant
santa
santamari
santana
santander
santas
santi
santiago
santidad
santillana
santo
santos
santuario
santuarios
sanz
sao
sap
sapiens
sapo
saprissa
saque
saqueo
saqueos
sar
sara
sarah
sarajevo
saravia
sarco
sares
sargatal
sargento
sarmiento
sarria
sars
sarsfield
sas
sasa
sasha
sastre
sat
sata
satana
sate
satelital
satelitales
satellite
sati
satisfaccio
satisface
satisfacer
satisfecho
sato
saturday
saturn
saturnino
saturno
sau
sauce
sauces
saudi
saudita
saul
saunders
sauro
savage
save
saw
sawyer
saxo
saxofo
saxon
say
says
sazo
sb
sbs
sc
scala
scale
scar
scara
scarabaeidae
scaras
scarecrow
scene
scenes
scha
schedule
schiller
schleswig
schltr
schmadel
schmidt
schneider
scho
scholar
schon
school
schools
schro
schu
schubert
schultz
schulz
schumacher
schumann
schuster
schwartz
schwarz
schweizer
sci
science
sciences
scientific
scientist
scientists
scooby
score
scores
scotland
scott
scottish
scout
scouts
scream
screen
script
scriptstyle
scula
sculas
scully
sculo
sculos
sculpture
sd
se
sea
seal
sean
search
searching
seas
season
seasons
seat
seattle
sebastia
sebastian
sec
seca
secado
secano
secas
seccio
secciones
secesio
seco
second
secos
secrecio
secret
secreta
secretamente
secretari
secretaria
secretariado
secretario
secretarios
secretary
secretas
secreto
secretos
secrets
secta
section
sector
sectores
secuela
secuelas
secuencia
secuencias
secuestrada
secuestrado
secuestrados
secuestro
secular
seculares
secundaria
secundarias
secundario
secundarios
security
sed
seda
sede
sedes
sedimentos
see
seed
seen
sefardi
sega
segismundo
segmento
segmentos
segovia
segregacio
segu
segui
seguida
seguidamente
seguidas
seguido
seguidor
seguidores
seguidos
seguimiento
seguir
seguira
seguiri
segun
segunda
segundas
segundo
segundos
segura
seguramente
seguras
seguridad
seguro
seguros
sei
sein
seine
seis
seiya
seiyu
sel
sele
seleccio
selecciona
seleccionada
seleccionadas
seleccionado
seleccionador
seleccionados
seleccionar
selecciones
selecciono
select
selected
selection
selena
self
sellado
selling
sello
sellos
selon
selva
selvas
sem
sema
semana
semanal
semanales
semanario
semanas
semblante
sembrar
semejante
semejantes
semejanza
semestre
semi
semia
semicircular
semifinal
semifinales
semilla
semillas
seminario
seminarios
semio
semos
sen
sena
senado
senador
senadora
senadores
senate
sencilla
sencillamente
sencillas
sencillez
sencillo
sencillos
senda
sendai
sendas
senderismo
sendero
senderos
sendos
senegal
senior
seno
senos
sensacio
sensaciones
sense
senshi
sensibilidad
sensible
sensibles
sensor
sensores
sensorial
sensual
sentada
sentado
sentados
sentai
sentarse
sentencia
sentenciado
sentencias
senti
sentido
sentidos
sentimental
sentimiento
sentimientos
sentinel
sentir
sentirse
sento
seo
seok
seos
seoul
sep
sepa
separa
separacio
separada
separadas
separado
separados
separan
separar
separaron
separarse
separo
sept
september
septentrional
septentrionales
septiembre
sepu
sepulcro
sepultado
sepultura
sequel
sequence
sequi
ser
sera
serafi
serbia
serbio
serbios
sere
serena
serenidad
sereno
seres
serge
sergei
sergio
sergue
seri
seria
serial
seriamente
serias
serie
seriedad
series
serio
serios
serlo
sermo
sermones
serna
serpiente
serpientes
serra
serrani
serrano
server
servi
service
services
servicio
servicios
servida
servido
servidor
servidores
servidumbre
servir
servira
serviri
ses
sesenta
sesgo
sesio
sesiones
session
sessions
set
setenta
seth
setiembre
sets
seu
seudo
seung
seven
seventh
severa
severamente
severas
severidad
severo
severos
sevilla
sevillana
sevillano
sex
sexo
sexos
sexta
sexto
sexual
sexuales
sexualidad
sexualmente
sexy
seychelles
seymour
sf
sfera
sforo
sg
sh
sha
shadow
shadows
shah
shake
shakespeare
shakira
shan
shane
shang
shangha
shanghai
shannon
share
shares
sharon
sharp
sharpe
shaw
shawn
she
sheet
sheffield
sheila
shelby
sheldon
shell
shelley
shepherd
sherdog
sheridan
sheriff
sherlock
sherman
shi
shield
shin
shine
ship
ships
shirley
shiva
sho
shock
shoot
shooting
shop
shopping
shore
short
shot
should
show
showbuzz
showbuzzdaily
shows
shtml
shu
si
sia
siam
siberia
sic
sica
sicamente
sicas
sich
sichuan
sicilia
sicilias
sico
sicos
sid
sida
side
sidi
sidney
sido
sidra
sie
siembra
siemens
siempre
siena
siendo
sienta
siente
sienten
siento
sierra
sierras
siervo
siervos
siete
sig
siga
sigla
siglas
siglo
siglos
sigma
sigmund
sign
signal
significa
significaba
significacio
significado
significados
significan
significando
significar
significari
significativa
significativamente
significativas
significativo
significativos
significo
signo
signos
signs
sigo
sigu
sigue
siguen
siguiendo
siguiente
siguientes
siguiera
siguieron
siguio
sil
sila
silence
silencio
silenciosa
silencioso
silent
siles
silesia
silicio
silicon
silla
sillares
sillas
silleri
sillo
silos
silueta
siluriformes
silva
silveira
silver
silvestre
silvestres
silvia
silvio
sim
sima
simas
simbad
simbo
simbolismo
simboliza
sime
simeo
simetri
similar
similares
similitud
similitudes
simmons
simo
simon
simone
simos
simpa
simpati
simpatizantes
simple
simplemente
simples
simplicidad
simplificado
simposio
simpson
simpsons
sims
simulacio
simular
simulium
simulta
sin
sina
sinagoga
sinai
sinaloa
sinatra
since
sinceridad
sincero
sinclair
sincronizacio
sind
sindical
sindicales
sindicalista
sindicato
sindicatos
sine
sinfo
sinfoni
sing
singapore
singapur
singer
singh
single
singles
singular
singulares
singularidad
siniestro
sino
sinonimia
sinopsis
sinta
sintaxis
sinte
sintetizador
sintetizadores
sintiendo
sintieron
sintio
sintoni
sio
sion
siquiera
sir
siracusa
sirena
siri
siria
sirio
sirios
sirva
sirve
sirven
sirviendo
sirviente
sirvientes
sirvieron
sirvio
sis
sismo
siste
sistema
sistemas
sister
sisters
sit
sita
site
sites
sitio
sitiodeciclismo
sitios
sito
sitos
situ
situa
situaba
situacio
situaciones
situada
situadas
situado
situados
situar
situarse
situo
six
sixth
sixto
size
sj
sk
ska
sketch
sketches
ski
skin
skinner
skull
sky
sl
sla
slam
slate
slater
slave
slayer
sleep
slim
slow
sm
smackdown
small
smart
smash
smica
smico
smicos
smile
smith
smiths
smithsonian
smo
sms
sn
snake
snow
snyder
so
soares
soberana
soberani
soberano
soberanos
soberbia
sobra
sobre
sobrenatural
sobrenaturales
sobrenombre
sobresale
sobresalen
sobresaliente
sobresalientes
sobrevive
sobreviven
sobrevivido
sobreviviente
sobrevivientes
sobrevivieron
sobrevivio
sobrevivir
sobrina
sobrino
sobrinos
soc
soccer
soccerway
sochi
social
socialdemo
sociales
socialismo
socialista
socialistas
socialmente
socie
sociedad
sociedades
societa
society
socio
socioecono
sociolo
sociologi
socios
socorro
soda
sodio
sofa
sofi
sofia
sofo
sofocar
sofos
soft
software
sois
soja
sol
sola
solamente
solana
solano
solanum
solar
solares
solas
sold
soldado
soldados
soldadura
soldevilla
soldier
soldiers
sole
soledad
solemne
solemnidad
soler
soles
soli
solicita
solicitado
solicitando
solicitar
solicitaron
solicito
solicitud
solicitudes
solid
solidaria
solidaridad
solidario
solista
solistas
solitaria
solitarias
solitario
solitarios
solla
solo
solomon
solos
soltera
soltero
solteros
soluble
solucio
solucionar
soluciones
solution
solutions
som
soma
somali
somalia
sombra
sombras
sombrero
sombreros
sombri
some
somerset
somete
someter
someterse
something
sometida
sometidas
sometido
sometidos
sometio
somos
somoza
son
sonaba
sonar
sonata
sonatas
sonda
soneto
sonetos
song
songs
sonia
sonic
sonido
sonidos
sonny
sono
sonora
sonoras
sonoro
sonrei
sonriendo
sonrisa
sons
sony
soo
soompi
soon
sopa
sophia
sophie
soplo
soporta
soportan
soportar
soporte
soportes
soprano
sor
sorbona
sorda
sordo
soria
soriano
sorprende
sorprendente
sorprendentemente
sorprendido
sorprendio
sorpresa
sorteo
sos
sosa
sospecha
sospechar
sospechas
sospechoso
sospechosos
sostener
sosteni
sostenibilidad
sostenible
sostenida
sostenido
sostenidos
sosteniendo
sostiene
sostienen
sostuvo
sotelo
soto
sotomayor
soul
souls
sound
sounds
soundtrack
source
sources
sous
sousa
south
southampton
southeast
southern
southwest
souza
sovie
soviet
soy
soyuz
sp
spa
space
spacex
spain
spanish
sparks
spd
speak
spears
spec
special
specialist
species
spectrum
sped
spedes
speech
speed
spencer
spera
speras
spero
spi
spide
spider
spiegel
spielberg
spike
spin
spinetta
spirit
split
spora
sport
sportando
sporting
sportivo
sports
spot
spotify
spp
sprache
spring
springer
springfield
springs
springsteen
sprint
spurs
sputnik
spy
sqrt
squad
square
squeda
squedas
squet
squetbol
squez
sr
sra
sri
ss
sse
sseldorf
st
sta
stable
stacy
stade
stadium
stadt
staff
stafford
stage
stalin
stamo
stamos
stan
stand
standard
standards
standing
standings
stanford
stanley
stanovnis
stanton
star
stargate
stark
starr
starring
stars
start
stas
stata
state
statement
states
station
statistica
statistical
statistics
stats
status
stay
ste
steam
steel
steele
stefan
stefani
stefano
stegui
stein
steiner
stella
stem
stenes
stenus
step
stephan
stephanie
stephen
stephens
steps
ster
stereo
steres
sterling
stern
steve
steven
stevens
stevenson
stevie
stewart
stica
sticamente
sticas
stico
sticos
stil
stiles
still
stima
sting
stirling
sto
stock
stockholm
stokes
stol
stola
stoles
stone
stones
stop
stor
store
storia
stories
storm
story
stos
straight
strand
strange
stranger
strategic
strategy
strauss
stream
streaming
street
streets
strike
string
strofe
strong
structure
structures
struggle
sts
stu
stuart
student
students
studi
studies
studio
studios
study
stuff
stuma
stumamente
stumo
stuttgart
style
styles
su
sua
suave
suavemente
suaves
sub
suba
subasta
subcampeo
subcampeona
subcampeonato
subconjunto
subcontinente
subdirector
subdivisio
sube
suben
subespecie
subespecies
subfamilia
subge
subgrupo
subi
subida
subido
subiendo
subieron
subio
subir
subjuntivo
sublevacio
sublevado
sublevados
sublime
submarina
submarino
submarinos
suborden
subordinado
subordinados
subsecretari
subsecretario
subsidiaria
subsidios
subsiguiente
subsistencia
subsp
subsuelo
subteniente
subterra
subti
subtropical
subtropicales
suburbio
suburbios
subvenciones
subway
subyacente
success
sucede
suceden
suceder
sucedi
sucedido
sucediendo
sucedieron
sucedio
sucesio
sucesivamente
sucesivas
sucesivo
sucesivos
suceso
sucesor
sucesora
sucesores
sucesos
such
suche
sucia
sucio
sucre
sucursal
sucursales
sud
suda
sudafricana
sudafricano
sudame
sudamericana
sudamericano
sudamericanos
sudeste
sudoeste
sudor
sue
sueca
suecia
sueco
suecos
suegro
sueldo
sueldos
suele
suelen
suelo
suelos
suelta
suelto
sueltos
suen
suena
suero
suerte
suez
suffolk
suficiente
suficientemente
suficientes
sufijo
sufraga
sufragio
sufragios
sufre
sufren
sufri
sufrido
sufriendo
sufrieron
sufrimiento
sufrio
sufrir
sugar
sugerencia
sugerencias
sugerido
sugerir
sugiere
sugieren
sugiriendo
sugirio
sui
suicida
suicidarse
suicide
suicidio
suicido
suit
suite
suites
suiza
suizo
suizos
sujecio
sujeta
sujetas
sujeto
sujetos
suk
sul
sulfato
sullivan
sulta
sultan
sultanato
sum
suma
sumado
sumamente
suman
sumando
sumar
sumario
sumaron
sumas
sumatra
suministrar
suministro
suministros
sumisio
summa
summary
summer
summers
summit
sumo
sun
sundance
sunday
sunderland
sung
sunny
suns
sunset
sunshine
sunt
supe
super
supera
superacio
superada
superado
superan
superando
superar
supercopa
superfamilia
superficial
superficiales
superficie
superficies
superhe
superintendencia
superintendente
superior
superiores
superioridad
superliga
superman
supermercado
supermercados
supernova
supero
superposicio
superstar
supervisar
supervisio
superviso
supervisor
supervivencia
superviviente
supervivientes
suplemento
suplementos
suplente
suplentes
supo
supone
suponen
suponer
suponi
suponiendo
suposicio
suppl
supplement
support
suprema
supremaci
supreme
supremo
supresio
suprimida
suprimido
suprimio
suprimir
supuesta
supuestamente
supuestas
supuesto
supuestos
supuso
sur
suramericanos
surco
surcoreana
surcoreano
suren
sureste
surf
surface
surge
surgen
surgery
surgida
surgido
surgiendo
surgieron
surgimiento
surgio
surgir
surinam
suroeste
surprise
surrealista
surrey
survey
survival
survivor
sus
susan
susana
susceptible
susceptibles
suscripcio
suscriptores
suspende
suspender
suspendida
suspendido
suspendio
suspensio
suspenso
suspiro
sussex
sustancia
sustancial
sustancialmente
sustancias
sustantivo
sustantivos
sustentable
sustento
sustitucio
sustituida
sustituido
sustituidos
sustituir
sustituto
sustituye
sustituyendo
sustituyo
sustrato
sutherland
sutil
sutiles
sutton
suya
suyas
suyo
suyos
suzanne
suzuki
sv
sven
sw
swan
sweden
swedish
sweet
swift
swing
swiss
swisscharts
switch
sword
sydney
sylvia
symphony
symposium
syndrome
synopsis
synthesis
syracuse
syria
syrian
syst
system
systema
systematic
systematics
systems
t
ta
tab
tabaco
tabasco
taberna
tabla
tablas
table
tablero
tables
taboada
tabu
tac
tacna
taco
tacto
tadeo
tae
taekwondo
taekwondodata
tag
tagle
tahiti
tai
tailande
tailandia
taipe
taiwa
taiwan
tajo
takahashi
take
takes
takeuchi
taking
tal
tala
talavera
talbot
talca
talcahuano
tale
talent
talento
talentos
tales
talibanes
talk
talking
talks
talla
tallada
tallado
tallados
tallas
taller
talleres
tallin
tallo
tallos
talo
talos
tam
tama
taman
tamara
tamaulipas
tamayo
tambie
tambien
tambor
tambores
tame
tamil
tampa
tampico
tampoco
tan
tanaka
tanda
tandil
tang
tango
tangos
tania
tank
tano
tanos
tanque
tanques
tanta
tantas
tanto
tantos
tanzania
tao
tapa
tapas
tapia
tapices
tapones
tappan
taquilla
tar
tara
tarapaca
tarazona
tarda
tardar
tarde
tardes
tardi
tardo
tarea
tareas
target
tarifa
tarifas
tarija
tarjeta
tarjetas
taro
tarragona
tas
tasa
tasas
task
tasmania
taste
tat
tata
tate
tatiana
tau
taurino
tauro
taurus
tax
taxi
taxis
taxo
taxon
taxones
taxono
taxonomi
taxonomic
taxonomy
tayikista
taylor
taza
tb
tbol
tc
td
tdt
te
tea
teacher
team
teama
teamb
teams
tears
teaser
teatral
teatrales
teatro
teatros
teau
tebas
tech
technical
techniques
techno
technologies
technology
techo
techos
tecla
teclado
teclados
teclas
teclista
tecno
tecnolo
tecnologi
tecto
ted
teddy
tedra
tedras
teen
teenage
tegucigalpa
tegui
tehera
teil
teixeira
teja
tejada
tejado
tejas
tejido
tejidos
tejo
tel
tela
telas
tele
telecinco
telecomunicaciones
telefe
telefilm
telefo
telefoni
telegram
telegrama
telegraph
telemundo
telenovela
telenovelas
teles
telescopio
telescopios
teleto
televisa
televisio
television
televisiva
televisivas
televisivo
televisivos
tell
telleldi
tello
telmo
telo
tem
tema
temas
temblor
teme
temer
temi
temiendo
temo
temor
temores
temperamento
temperatura
temperaturas
tempestad
templadas
templado
templados
templarios
temple
templo
templos
tempo
temporada
temporadas
temporal
temporales
temporalmente
temprana
tempranas
temprano
tempranos
temps
temuco
ten
tena
tenaz
tendencia
tendencias
tender
tendi
tendido
tendra
tendre
tendremos
tendri
tene
tenemos
tenencia
tener
tenerife
tenerse
tenga
tengan
tengo
teni
tenia
tenido
teniendo
teniente
tenis
tenista
tennessee
tennis
tenor
tenorio
tensa
tensio
tensiones
tenta
tentacio
tentativa
teo
teodoro
teodosio
teolo
teologi
teorema
teori
tephritidae
ter
tera
terape
terapia
tercer
tercera
terceras
tercero
terceros
terciario
tercio
terciopelo
tercios
terdam
tere
teres
teresa
term
termales
termas
termina
terminaba
terminacio
terminada
terminado
terminados
terminal
terminales
terminan
terminando
terminar
terminara
terminari
terminaron
termine
termino
terminologi
termo
termodina
terms
ternura
tero
terra
terracota
terranova
terrateniente
terratenientes
terraza
terrazas
terre
terremoto
terremotos
terreno
terrenos
terrestre
terrestres
terrible
terribles
territorial
territoriales
territorio
territorios
terror
terrorismo
terrorista
terroristas
terry
tertulia
teruel
tervuren
teryt
tes
tesalo
tese
tesis
tesla
tesorero
tesoro
tesoros
test
testament
testamento
testi
testigo
testigos
testimonio
testimonios
testing
tests
teto
tetos
tetua
tex
texas
text
textil
textiles
texto
textos
texts
textstyle
textual
textura
texturas
tez
tf
tfrac
tg
th
tha
thai
thailand
thames
than
that
the
theater
theatre
thedraftreview
theft
their
them
theme
then
theo
theodor
theodore
theory
therapy
there
these
theta
they
thierry
thing
things
think
thinking
third
this
thomas
thompson
thomson
thor
thornton
those
thought
thousand
thrash
threat
threatened
three
thriller
through
thunder
thursday
thys
ti
tiberio
tibetano
tibia
tiburo
tiburones
tic
tica
ticamente
ticas
tico
ticos
tidos
tie
tiempo
tiempos
tienda
tiendas
tiende
tienden
tiene
tienen
tienes
tienne
tierna
tierno
tierra
tierras
tiffany
tiflis
tifo
tiger
tigers
tigo
tigre
tigres
tijuana
til
tilde
tiles
till
tillandsia
tim
tima
timas
timberlake
timbre
time
timeline
times
timo
timor
timos
timoteo
timothy
tin
tina
tinieblas
tino
tinta
tinte
tintes
tinto
tiny
tip
tipo
tipogra
tipografi
tipologi
tipos
tira
tirada
tirado
tirador
tirana
tirando
tirani
tirano
tirar
tiras
tiro
tirol
tiros
tiroteo
tirso
tita
titan
titanes
titanic
titans
title
titles
tito
titula
titulada
titulado
titular
titulares
titularidad
titulo
tiziano
tlaxcala
tlc
tm
tmica
tmico
tn
tna
tnica
tnicas
tnico
tnicos
tnt
to
tobago
tobias
tobillo
toby
toca
tocaba
tocada
tocado
tocan
tocando
tocar
tocaron
toco
toda
todas
todavi
today
todd
todo
todos
toei
together
togo
tokai
tokio
tokugawa
tokyo
toledo
tolerancia
tolima
tolkien
tolosa
toluca
tom
toma
tomaba
tomaban
tomada
tomadas
tomado
tomados
toman
tomando
tomar
tomara
tomari
tomaron
tomarse
tomas
tomate
tomatoes
tomb
tome
tommy
tomo
tomorrow
tomos
ton
tonalidad
toneladas
tong
tonga
toni
tonight
tono
tonos
tonteri
tonto
tony
too
tool
tools
top
tope
topo
topogra
topografi
topolo
topologi
toponimia
topos
tops
toque
toques
tor
tora
torch
toreo
torero
tori
toribio
torino
tormenta
tormentas
tormento
tormes
torna
tornado
torneo
torneos
torno
toro
toronto
toros
torpe
torpedo
torpedos
torre
torrejo
torrente
torreo
torres
torreta
torso
tortosa
tortuga
tortugas
tortura
torturado
torturas
tos
tosca
toscana
toscano
total
totales
totalidad
totalmente
toto
tottenham
touch
toulouse
tour
touring
tourism
tournament
tours
tous
tout
tovar
toward
towards
tower
towers
town
townsend
township
toxicidad
toy
toyota
tp
tr
tra
trabaja
trabajaba
trabajaban
trabajado
trabajador
trabajadora
trabajadoras
trabajadores
trabajan
trabajando
trabajar
trabajaron
trabajo
trabajos
traccio
tracia
track
tracks
tracto
tracy
trad
trade
tradicio
tradicional
tradicionales
tradicionalista
tradicionalmente
tradiciones
tradition
traditional
traduccio
traducciones
traduce
traducida
traducido
traducidos
traducir
traductor
traductora
tradujo
trae
traen
traer
traffic
tragedia
tragedias
tragedy
trai
traicio
traidor
traidores
trail
trailer
train
training
trajano
traje
trajeron
trajes
trajo
trama
tramas
tramo
tramos
trampa
trampas
trampoli
trance
tranquila
tranquilamente
tranquilas
tranquilidad
tranquilo
trans
transaccio
transacciones
transactions
transatla
transbordador
transcripcio
transcurre
transcurrido
transcurrio
transcurso
transeu
transfer
transferencia
transferencias
transferida
transferido
transferidos
transferir
transfermarkt
transfirio
transforma
transformacio
transformaciones
transformada
transformado
transforman
transformar
transformarse
transformation
transformers
transformo
transge
transicio
transilvania
transit
transition
transitoria
transitorio
translated
translation
transliteracio
transmisio
transmisiones
transmite
transmiten
transmiti
transmitida
transmitido
transmitio
transmitir
transparencia
transparente
transparentes
transport
transporta
transportaba
transportado
transportados
transportar
transportation
transporte
transportes
transversal
transversales
tranvi
trap
tras
trascendencia
trascendental
trasera
traseras
trasero
traseros
traslada
trasladada
trasladado
trasladados
trasladar
trasladaron
trasladarse
traslado
traspasado
traspaso
trasplante
trastorno
trastornos
trata
trataba
trataban
tratada
tratado
tratados
tratamiento
tratamientos
tratan
tratando
tratar
tratara
trataron
tratarse
trate
trato
tratos
trauma
trave
travel
travesi
travis
trayecto
trayectoria
trayendo
traza
trazado
trazar
trazas
trazo
trazos
tre
treasure
treatment
trece
tree
trees
tregua
treinta
trek
tremenda
tremendo
tren
trends
trenes
trent
trento
tres
trescientos
trevin
trevor
tri
tria
trial
trials
triana
triangle
triangular
triangulares
triatlo
tribal
tribales
tribe
tribu
tribuna
tribunal
tribunales
tribune
tribuno
tribus
tributaria
tributario
tributarios
tribute
tributo
tributos
trica
tricas
tricentenario
trick
trico
tricolor
tricos
tridimensional
trieste
trige
trigo
trilogi
trimestre
trincheras
trinidad
trinity
trio
trip
triple
triples
tripulacio
tripulaciones
tripulantes
trista
triste
tristes
tristeza
triumph
triunfal
triunfante
triunfar
triunfo
triunfos
tro
trofe
trofeo
trofeos
trofes
trois
trombo
trompa
trompeta
trompetas
troncal
tronco
troncos
trono
tropa
tropas
trophy
tropical
tropicales
tropicos
trouble
troy
troya
trozo
trozos
truco
trucos
true
trueno
trujillo
truman
trump
trust
truth
try
ts
tse
tsn
tsunami
tt
tte
tu
tube
tuberculosis
tuberi
tubo
tubos
tubular
tuci
tucker
tucson
tucuma
tudela
tudes
tudor
tuerto
tuesday
tuesta
tuit
tula
tulio
tulo
tulos
tum
tumba
tumbas
tumor
tumores
tun
tunja
turba
turbina
turbinas
turbo
turca
turcas
turco
turcos
turi
turing
turingia
turismo
turista
turistas
turkey
turkish
turkmenista
turn
turner
turno
turnos
turns
turqui
tus
tutela
tutor
tuve
tuviera
tuvieran
tuvieron
tuviese
tuvimos
tuvo
tuya
tuyo
tv
tve
tvn
tvo
tw
twentieth
twenty
twice
twilight
twin
twist
twitter
two
tx
ty
tyler
type
typhoon
tyson
tz
u
ua
uai
ub
uba
ubica
ubicaba
ubicacio
ubicaciones
ubicada
ubicadas
ubicado
ubicados
ubican
ubicar
ubicarse
ubico
ubio
ubisoft
ubuntu
uc
ucaso
uci
ucius
ucla
ucm
ucr
ucrania
ucraniana
ucraniano
ucranianos
ucv
ud
udi
udo
ue
uefa
uelas
uelo
uelos
ufc
uganda
ugarte
ugt
ui
uicn
uk
ukraine
ukrainian
ul
ulibus
ulica
ulico
ulises
ulloa
ulrich
ulster
ultima
ultimate
ultra
ultramar
ultratop
ultravioleta
um
uma
umberto
umbral
umbri
un
una
unam
unamuno
unanimidad
unas
und
[...]
