!
"
#
##0
##1
##10
##11
##12
##13
##14
##15
##16
##17
##18
##19
##2
##20
##21
##22
##23
##24
##25
##26
##27
##28
##29
##3
##30
##31
##32
##33
##34
##35
##36
##37
##38
##39
##4
##40
##41
##42
##43
##44
##45
##46
##47
##48
##49
##5
##50
##51
##52
##53
##54
##55
##56
##57
##58
##59
##6
##60
##61
##62
##63
##64
##65
##66
##67
##68
##69
##7
##70
##71
##72
##73
##74
##75
##76
##77
##78
##79
##8
##80
##81
##82
##83
##84
##85
##86
##87
##88
##89
##9
##90
##91
##92
##93
##94
##95
##96
##97
##98
##99
$
%
&
'
(
)
*
+
,
-
.
/
0
00
000
001
006
007
01
012
02
03
04
05
06
07
08
09
09741
09849
1
10
100
1000
100001
100002
100004
100005
100016
1002
1003
1005
101
1010
1012
1014
1015
1016
102
1021
1022
1023
1024
1025
1027
103
1030
1033
1039
104
1042
105
1050
1056
106
1066
1067
107
1070
1072
1075
1079
108
1080
1086
1088
109
1098
11
110
1100
1103
1106
111
1111
1118
1119
112
1121
1124
1126
113
1130
1135
114
1145
115
1150
1153
1154
1155
1156
116
1160
1165
1166
1167
1169
117
1170
1171
1172
1176
1177
118
1180
1181
1185
1186
1187
1189
119
1197
1198
1199
12
120
1200
1201
1202
1204
1207
121
1210
1216
122
1224
123
1230
124
1241
125
1250
1256
126
127
128
1286
129
13
130
1300
131
1314
1315
1316
1318
132
1324
1327
1329
133
1336
1337
134
1340
135
1350
136
1368
137
1377
138
139
1390
14
140
1400
1405
141
1410
1415
142
1422
143
1431
144
145
1450
1452
1453
1455
1456
146
1460
1468
1469
147
1470
1471
1473
1475
1476
1477
1478
1479
148
1480
1483
1484
1485
1488
1489
149
1490
1491
1492
1493
1494
1496
1497
1498
1499
15
150
1500
1501
1502
1503
1504
1505
1506
1508
1509
151
1510
1511
1512
1513
1514
1515
1516
1517
1518
1519
152
1520
1521
1522
1523
1524
1525
1526
1527
1528
1529
153
1530
1531
1532
1533
1534
1535
1536
1537
1538
1539
154
1540
1541
1542
1543
1544
1546
1547
1548
1549
155
1550
1552
1553
1554
1555
1556
1557
1558
1559
156
1560
1562
1563
1564
1565
1566
1567
1568
1569
157
1570
1571
1572
1573
1574
1575
1577
1578
1579
158
1580
1581
1582
1583
1584
1585
1586
1587
1588
1589
159
1590
1591
1592
1593
1594
1595
1596
1597
1598
1599
16
160
1600
1601
1602
1603
1604
1605
1606
1607
1608
1609
161
1610
1611
1612
1613
1614
1615
1616
1617
1618
1619
162
1620
1621
1622
1623
1624
1625
1626
1627
1628
1629
163
1630
1631
1632
1633
1634
1635
1636
1637
1638
1639
164
1640
1641
1642
1643
1644
1645
1646
1647
1648
1649
165
1650
1651
1652
1653
1654
1655
1656
1657
1658
1659
166
1660
1661
1662
1663
1664
1665
1666
1667
1669
167
1670
1671
1672
1673
1674
1675
1676
1678
1679
168
1680
1681
1682
1683
1684
1685
1686
1687
1688
1689
169
1690
1691
1692
1693
1694
1695
1696
1697
1698
1699
17
170
1700
1701
1702
1703
1705
1706
1707
1709
171
1710
1711
1712
1713
1714
1715
1716
1717
1718
1719
172
1720
1721
1722
1723
1724
1725
1726
1727
1728
1729
173
1730
1731
1732
1733
1734
1735
1736
1737
1738
1739
174
1740
1741
1742
1743
1744
1745
1746
1747
1748
1749
175
1750
1751
1752
1753
1754
1755
1756
1757
1758
1759
176
1760
1761
1762
1763
1764
1765
1766
1767
1768
1769
177
1770
1771
1772
1773
1774
1775
1776
1777
1778
1779
178
1780
1781
1782
1783
1784
1785
1786
1787
1788
1789
179
1790
1791
1792
1793
1794
1795
1796
1797
1798
1799
18
180
1800
1801
1802
1803
1804
1805
1806
1807
1808
1809
181
1810
1811
1812
1813
1814
1815
1816
1817
1818
1819
182
1820
1821
1822
1823
1824
1825
1826
1827
1828
1829
183
1830
1831
1832
1833
1834
1835
1836
1837
1838
1839
184
1840
1841
1842
1843
1844
1845
1846
1847
1848
1849
185
1850
1851
1852
1853
1854
1855
1856
1857
1858
1859
186
1860
1861
1862
1863
1864
1865
1866
1867
1868
1869
187
1870
1871
1872
1873
1874
1875
1876
1877
1878
1879
188
1880
1881
1882
1883
1884
1885
1886
1887
1888
1889
189
1890
1891
1892
1893
1894
1895
1896
1897
1898
1899
19
190
1900
1901
1902
1903
1904
1905
1906
1907
1908
1909
191
1910
1911
1912
1913
1914
1915
1916
1917
1918
1919
192
1920
1921
1922
1923
1924
1925
1926
1927
1928
1929
193
1930
1931
1932
1933
1934
1935
1936
1937
1938
1939
194
1940
1941
1942
1943
1944
1945
1946
1947
1948
1949
195
1950
1951
1952
1953
1954
1955
1956
1957
1958
1959
196
1960
1961
1962
1963
1964
1965
1966
1967
1968
1969
197
1970
1971
1972
1973
1974
1975
1976
1977
1978
1979
198
1980
1981
1982
1983
1984
1985
1986
1987
1988
1989
199
1990
1991
1992
1993
1994
1995
1996
1997
1998
1999
2
20
200
2000
2001
2002
2003
2004
2005
2006
2007
2008
2009
201
2010
2011
2012
2013
2014
2015
2016
2017
2018
2019
202
2020
2021
2022
2023
2024
203
2030
204
205
206
207
208
209
21
210
211
212
213
214
215
216
217
218
219
22
220
221
222
223
224
225
226
227
228
229
23
230
231
232
233
234
235
236
237
238
239
24
240
241
242
243
244
245
246
247
248
249
25
250
251
252
253
254
255
256
257
258
259
26
260
2609
261
262
263
264
265
266
267
268
269
27
270
271
272
273
274
275
276
277
278
279
28
280
281
282
283
284
285
286
287
288
289
29
290
291
292
293
294
295
296
297
298
299
3
30
300
3000
301
302
303
304
305
306
307
308
309
31
310
311
312
313
314
315
316
317
318
319
32
320
321
322
323
324
325
326
327
328
329
33
330
331
332
333
334
335
336
337
338
339
34
340
341
342
343
344
345
346
347
348
349
35
350
351
352
353
354
355
356
357
358
359
36
360
361
362
363
364
365
366
367
368
369
37
370
371
372
373
375
376
377
379
38
380
381
383
384
385
387
388
389
39
390
392
393
394
395
396
399
4
40
400
4000
401
404
405
406
407
409
41
410
411
412
413
415
418
42
420
421
422
423
424
425
428
43
430
431
432
435
437
438
44
440
442
444
445
446
447
448
449
45
450
452
455
458
46
460
461
462
465
466
46601
469
47
470
471
475
476
478
48
480
481
482
483
484
485
486
487
489
49
490
492
493
494
495
496
497
498
499
5
50
500
5000
501
502
503
505
507
509
51
510
512
514
52
520
521
522
527
528
53
530
532
534
535
538
54
540
542
544
545
546
547
549
55
550
551
552
553
555
556
557
558
559
56
560
563
565
568
569
57
570
571
572
573
574
575
577
578
58
580
581
582
586
587
59
590
596
597
598
599
6
60
600
601
602
603
604
605
606
61
610
612
615
618
62
620
621
622
625
626
627
628
629
63
630
632
633
634
635
636
637
639
64
640
641
642
643
644
646
647
649
65
650
653
654
655
656
66
660
661
662
663
664
665
666
668
67
670
671
673
674
678
679
68
680
681
682
683
685
688
689
69
690
691
693
695
696
697
698
7
70
700
7001
701
702
703
704
705
707
708
709
71
710
711
712
714
715
716
718
719
72
720
721
722
723
724
726
727
728
73
730
731
732
733
734
735
737
738
74
740
741
742
743
744
746
747
748
749
75
750
751
752
753
754
755
756
757
758
759
76
760
761
763
764
765
766
767
768
769
77
770
771
772
773
774
776
777
778
779
78
780
782
783
784
785
786
787
789
79
790
791
792
793
794
795
796
797
799
8
80
800
800011
801
802
803
804
805
806
807
808
809
81
810
812
814
815
816
817
818
819
82
820
823
825
827
829
83
830
831
832
833
834
835
837
838
839
84
840
841
842
843
844
846
847
848
849
85
850
851
852
853
854
855
857
859
86
860
862
863
864
866
868
869
87
870
871
872
877
878
879
88
880
882
883
887
888
89
891
895
896
898
9
90
900
902
904
907
908
91
911
914
915
916
917
918
919
92
920
925
926
928
93
930
934
936
937
94
940
941
942
943
944
95
950
951
956
96
960
964
965
967
97
970
972
973
975
976
978
98
980
983
987
99
990
996
999
:
;
<
=
>
?
@
\
^
_
`
a
aa
aachen
aalto
aaron
ab
aba
abadh
abair
abairt
abairti
abar
abb
abba
abbe
abbey
abbot
abbott
abc
abe
abel
aberdeen
abertawe
aberystwyth
abh
abha
abhac
abhacphla
abhacre
abhaile
abhainn
abhann
abhantrach
abhco
abhlo
abho
abhus
able
aboriginal
about
above
abraham
absalo
abstract
abtheach
abu
ac
aca
acadaimh
acadamh
acade
academia
academic
academy
acado
acadu
acaill
acata
access
accessed
accesskey
accipitridae
according
account
accounts
ace
ach
acha
achadh
achado
achaidh
achaini
achaint
achair
achan
achana
achann
achar
acho
achoimre
achoimriu
achomhairc
achomharc
achrainn
achrann
acht
achta
achtach
achtadh
achtai
achtaigh
achtaithe
achtanna
achtar
achto
achtu
achu
acid
acla
aclai
acm
acmhainn
acmhainni
aco
acomhal
acra
acrainm
acre
across
acs
acsai
acsanna
acsleabhair
acsleabhar
act
actinidia
action
active
activities
activity
actor
actress
acts
actually
acu
acusan
ad
ada
adach
adacha
adai
adaigh
adaili
adaimh
adain
adair
adaithe
adam
adamh
adamhach
adamhacha
adamhai
adamhaigh
adams
adan
adann
adanna
adaoin
adaoine
adar
adas
adbhaird
adbhard
adcheap
adchomhartha
adchomharthai
add
added
adding
addition
additional
address
adds
ade
adelaide
adele
adequately
adfa
adfach
adfacha
adfadh
adfai
adfaidh
adfaidi
adfar
adh
adhair
adhamhna
adharc
adharca
adhartha
adhlacadh
adhlactha
adhmad
adhmadach
adhmaid
adhradh
adhrtai
adiantum
adidas
adlann
admha
admhai
admhaigh
admhaoin
admhaoine
administration
adn
adna
ado
adolf
adolph
adomhain
adomna
adonis
adra
adrach
adracha
adracht
adrachta
adrian
adrien
adroime
adrom
adroma
adta
adtar
adu
aduaidh
advance
advanced
adventures
advice
ae
aeda
aedh
aeige
aeine
aeir
aeiste
aengus
aer
aera
aerach
aeracha
aerfho
aerfoirt
aerfort
aerides
aerli
aero
aeto
af
afc
affairs
affect
afganasta
afon
afra
afraca
afracach
afracacha
afrai
afraic
africa
african
after
ag
aga
agach
agacha
agadh
agaibh
agaigh
again
againn
againne
against
agair
agairt
agaisti
agallaimh
agallamh
agam
agartha
agat
agatha
age
agency
agent
ages
agh
aghaidh
aghaidhe
aghaidheanna
agla
agmais
agnes
ago
agobhsai
agothroime
agricola
agriocht
agro
agsu
agu
aguisi
agur
agus
ah
ahead
ahern
ahmad
ahmed
ai
aib
aibhisti
aibhle
aibhne
aibhneacha
aibi
aibrea
aicd
aice
aiceanta
aici
aicme
aicmi
aicmithe
aicmiu
aid
aidan
aided
aidhm
aidhmeanna
aidhne
aidiacht
aidiachtai
aidne
aidre
aif
aife
aifreann
aifric
aifrinn
aig
aigcf
aige
aigesean
aighne
aighneas
aighnis
aigne
aiken
ail
ailbe
ailbhe
aile
aileach
ailealla
ailge
aili
ailige
ailigh
ailill
ailiu
aill
aille
aillte
ailnge
ailpi
ailse
ailsi
ailt
ailte
ailtire
ailtireacht
ailtireachta
ailtiri
aime
aimhre
aimi
aimire
aimpe
aimseartha
aimsi
aimsigh
aimsir
aimsire
aimsithe
aimsiu
ain
aindiachai
aindiachaithe
aindrias
aindriu
aine
aingeal
ainghni
aingil
ainian
ainm
ainmfhocail
ainmfhocal
ainmhi
ainmhithe
ainmneach
ainmneacha
ainmni
ainmnigh
ainmnithe
ainmniu
ainneoin
ainrialach
ainsealach
ainti
aip
air
airce
aird
airde
airdi
aire
aireacht
aireachta
aireaga
aireago
aires
airgead
airgeadai
airgeadais
airgeadas
airgeadra
airgeadrai
airgid
airginti
airi
airlines
airm
airme
airne
airport
airt
airteagail
airteagal
airtle
airtri
ais
aisce
aise
aisghabha
aisghairm
aisi
aisling
aislingi
aiste
aisteach
aisteacha
aistear
aisteoir
aisteoireacht
aisteoireachta
aisteoiri
aisteora
aisti
aistir
aistr
aistri
aistrigh
aistrithe
aistritheoir
aistritheoiri
aistriu
ait
aite
aitheanta
aitheantais
aitheantas
aitheasc
aithin
aithint
aithne
aithneach
aithni
aithnid
aithnidiu
aithreacha
aithri
aithris
aithrise
aitriam
ajax
ajuga
ak
aka
akademie
akira
al
ala
alabama
alach
alacha
alachas
aladh
alai
alaigh
alain
alainn
alainne
alainnis
alaisdir
alaithe
alan
alannach
alasca
alasdair
alaska
alastair
alastar
alba
albaim
albain
albainis
albam
alban
albanach
albanacha
albanaigh
albany
albert
alberta
alberto
albion
albrecht
album
albuquerque
alc
alca
alcaile
alcaileach
alcaileacha
alcalo
alco
alcock
aldi
aldo
alec
alejandro
aleksandr
alessandro
aleutians
alex
alexander
alexandra
alexandre
alexandria
alexei
alexis
alfa
alfonso
alfred
alfredo
algai
algra
ali
alias
alice
alicia
alien
align
alison
alive
all
alla
allais
allamuigh
allan
allatro
allen
allende
alliance
allow
allstar
allt
allta
alltacht
alltar
alma
almo
almost
alo
aloideas
aloideaso
aloidis
alois
alone
along
alonso
alpach
alpha
alphonse
already
als
alsa
also
alt
alta
altach
altacht
altachta
altai
altaithe
altanna
altbhosca
altbhraisle
altbhui
alteolai
alteolaithe
alternative
altfhisic
although
altmhe
altne
alto
alton
altra
altrai
altrama
altramas
altranais
altru
alu
alumni
always
alzheimer
am
ama
amach
amada
amai
amainn
amais
amaite
aman
amanda
amann
amanna
amas
amato
amazon
ambasa
ambasado
amber
ambrose
ame
amelia
amendment
amendments
ament
america
american
americana
amfaibiaigh
amh
amha
amhacha
amhail
amhairc
amhairghin
amhaisne
amhaithe
amharc
amharclainne
amharclann
amharclanna
amharclannai
amhbhabhta
amhfhocal
amhinsint
amhlaidh
amhlaoibh
amhra
amhras
amhrasach
amhsce
amhstair
amhstairiu
amhtheachtai
amhtheachtaire
amiens
amin
amlai
amli
amnesty
amo
amoinn
amon
among
amongst
amonn
amor
amos
amour
ampe
amra
amstardam
amsterdam
amu
amuigh
amuis
amus
amy
an
ana
anabai
anach
anacha
anadh
anaemacht
anai
anaigh
anaili
anainn
anaithnid
anall
anallo
analo
analysis
anam
anama
anamacha
anamh
anand
anann
anas
anasta
anastasia
anatamai
anatidae
anato
anbha
ancaire
anchorage
ancient
and
andalu
andaluci
anders
andersen
anderson
ando
andraime
andre
andrea
andreas
andrew
andrews
andrey
andu
andy
aneas
aneolai
anfa
anfadh
anfai
anfaidh
anfar
angel
angela
angeles
angelo
angels
anghra
angla
anglaca
anglo
ango
angola
angus
anhalt
ani
aniar
animal
animals
anime
aniston
anita
anjou
anlaith
anlann
anmann
anmchadha
ann
anna
annals
annamh
annan
anne
annie
anniversary
anno
announced
announcement
annraoi
annta
annual
ano
anoir
anois
anonn
another
anous
anrai
anraith
ans
ansa
anseo
anser
ansin
ansiu
anson
answer
answers
ant
anta
antai
antaibheathach
antaine
antalo
antamo
antar
antartach
antartaice
antashubstainti
anthology
anthony
anti
antigua
antiquaries
antiquities
anto
antoine
antoisceach
antologi
anton
antoni
antonio
antonius
antony
antraipeolai
antu
antuairp
anu
anuas
anuraidh
any
anyone
anything
ao
aoda
aodh
aodha
aodhaga
aoga
aoi
aoibhinn
aoibhneas
aoidh
aoife
aoine
aoir
aoire
aois
aoise
aoiseach
aoiseacha
aoiseachais
aoiseachas
aoiseanna
aoisi
aol
aolchloch
aolchloiche
aomadh
aon
aona
aonach
aonad
aonaid
aonaigh
aonair
aonar
aonarach
aonaracha
aoncheallach
aoncheallacha
aonchinea
aonfhoirmeach
aonghas
aonghasa
aonghus
aonghusa
aonocsai
aonraigh
aonraithe
aonre
aonru
aontacht
aontachtach
aontachtacha
aontachtaithe
aontachto
aontai
aontaigh
aontais
aontaithe
aontas
aontroim
aontroma
aontu
aonturas
aonu
aorta
aos
aosda
aosta
ap
apa
apache
apallo
apollo
apologies
appalachia
appear
appearance
apple
appleton
applications
applied
apply
appointed
approach
approval
apps
april
apss
aq
aquino
aquitania
ar
ara
arabach
arabacha
arabaigh
arabic
arach
aracha
arachais
arachas
arafat
arago
aragorn
aragua
arai
araib
araibis
araibise
araicis
araiciseach
araide
araigh
araile
arainn
araithe
aramais
aran
arann
araon
aras
arastotail
arb
arbh
arbhair
arbhar
arbharu
arbois
arc
arch
archaeological
archaeology
arche
archer
archibald
archie
architecture
archive
archived
archives
archla
archo
arcy
ard
arda
ardach
ardai
ardaigh
ardaithe
ardaoin
ardbhru
ardchaighdea
ardcheannas
ardcheannasai
ardchla
ardeaglais
ardeaglaisi
ardeaspag
ardeaspaig
ardeidae
ardfhuinnimh
ardle
ardleibhe
ardmha
ardmhe
ardmheas
ardmhinici
ardmholadh
ardo
ardoideachais
ardoideachas
ardri
ardscoil
ardteicneolai
ardteistime
ardu
are
area
areas
arena
areolai
arfa
arfadh
argais
argas
argentina
argha
argo
ari
ariamh
ariel
arizona
arkansas
arkhipov
arla
arlach
arlachas
arlagair
arlais
arlamh
arlas
arleanu
arlen
arlene
arlo
arm
arma
armach
armada
armagh
armai
armand
armas
armlo
armo
armour
arms
armstrong
armtha
armu
army
arn
arna
arnach
arnaimh
arnamh
arne
arno
arnold
aro
around
arra
arracht
array
arrhenius
arsa
arsai
arsanaic
arsca
arsenal
art
arta
artach
artaire
artairi
arte
artemis
artha
arthur
article
articles
artist
artists
arto
artola
artrapo
arts
artu
aru
as
asa
asach
asacha
asachas
asacht
asachta
asadh
asai
asaigh
asair
asal
asana
asanna
asar
asarbaisea
asarlai
asc
asca
ascach
ascacha
ascadh
ascai
ascaill
aschuir
aschur
ascna
ascnamh
asctha
ascu
asgard
ash
ashe
ashley
asia
asian
asimov
ask
asked
aslai
asli
aslonnu
asma
aso
asp
aspal
aspalda
aspx
asquith
asra
assad
assessment
assisi
assisted
associated
association
asta
astai
astaithe
astaiti
astaro
aste
asteraceae
asterix
asto
aston
astra
astrala
astralai
astronomical
astronomy
astu
asturias
asu
asylum
at
ata
atada
atahualpa
atar
atas
atatu
ath
atha
athainmni
athainmnigh
athair
athal
athaontu
athar
athara
athartha
athbheochan
athbheochana
athbhliain
athbhreithnithe
athbhreithniu
athbhri
athbhunai
athbhunu
athchlo
athcho
athchruthu
athchu
athdhe
atheagru
athens
athfhillteach
athfhillteacha
athghabha
athimirt
athinsint
athlasadh
athlasta
athle
athleagan
athletic
athmhu
athmhuintearas
athnuachan
athnuaite
athosclai
athra
athrai
athraigh
athraithe
athraitheach
athraonta
athro
athru
athruithe
athscri
athshla
athshola
athshondais
athshondas
athu
athuair
atkins
atkinson
atlanta
atlantach
atlantaigh
atlantic
atlantis
atlas
atle
atmaisfe
ato
atoghadh
atomic
atp
attack
attaque
attenborough
attention
atu
aturnae
au
auburn
auckland
audio
audrey
auf
aufbau
auflage
aug
august
augusta
auguste
augustin
augustine
augusto
augustus
aung
aur
auraicept
aurelius
aurora
aus
auschwitz
austen
austin
australia
australian
australis
autauga
author
authorities
authority
authors
auto
autobiography
automatic
automatically
autumn
aux
ava
available
avalon
avant
avec
avenue
avi
aviv
aviva
avogadro
avoid
avon
award
awards
away
axl
az
azan
azaria
b
ba
baader
babe
babel
babhta
babhtai
babiana
bablo
baby
bac
baca
bacach
bach
bacha
bachlo
back
background
bacon
bactris
bad
baden
badh
badhbh
badmantan
bado
bafta
bagairt
bagairti
baghcat
bagrach
baha
bahia
bai
baicle
baicte
baigh
bail
bailchri
baile
bailecheantair
bailecheantar
bailey
baili
bailithe
bailitheoir
bailitheoiri
bailiu
baill
bailt
bailte
bain
bainc
baince
baineadh
baineann
baineanna
baineannach
baineannaigh
baininscneach
bainis
bainise
bainisteoir
bainisteoiri
bainisti
bainistiu
bainne
baint
bainte
bainteach
baintear
baintreach
bair
baird
baire
bairiam
bairille
bairrche
baisleac
baiste
baisteadh
baitsile
baker
balar
balca
baldwin
ball
balla
ballai
ballan
ballaonaid
ballarat
ballet
balley
ballo
ballon
ballrai
ballsta
balt
balta
baltimore
balu
bambi
ban
banaltra
banana
banbh
banc
bancanna
band
banda
bande
bandia
bandiu
bang
bangor
banha
banimpire
bank
banks
banna
bannai
banner
bannerman
banphrionsa
banri
bantiarna
baoill
baol
baolach
baota
baptiste
bar
bara
barack
barbado
barbara
barbarossa
barber
barbour
barcelona
barclay
bard
barda
bardais
bardas
bardasach
bardasacht
bari
barker
barking
barksdale
barlow
barnard
barnes
barnet
barney
baro
baron
barr
barra
barrai
barrett
barrington
barron
barrow
barry
bart
bartholomew
bartlett
barton
baru
bas
bascach
bascais
base
based
basel
basic
basil
basket
basketball
basque
bass
basu
bat
bata
batailit
bataille
bateman
bates
bath
batholith
batista
batman
batra
batsford
battista
battle
baudelaire
bauer
bava
baxter
bay
bayer
bayern
bb
bbc
bc
bce
bd
be
bea
beach
beacha
beacht
beag
beaga
beagnach
beairic
beal
bealach
bealai
bealaigh
bealaru
beale
bealtaine
bean
beanga
beann
beanna
beannacht
beannaithe
beannchar
bear
bearna
bearnai
beart
bearta
beartai
beartais
beartaithe
beartas
beartha
beartu
bearu
beast
beat
beatha
beathai
beathaisne
beatles
beatrice
beatty
beau
beaufort
beaumont
beautiful
beauty
beauvoir
bec
because
beck
becker
becket
beckett
become
becomes
becquerel
bed
bede
bedell
bedford
bedfordshire
bee
beecham
been
beer
beethoven
before
begin
beginning
begins
begley
behalf
behan
behind
beidh
beijing
beilge
beilgeach
beilgeacha
being
beinidict
beinidicteach
beinidictigh
beinn
beir
beireann
beirli
beirt
beirte
beiser
beith
beithe
beithi
bel
belfast
believe
believed
bell
bella
bellamy
belle
bellingham
bello
belong
below
belton
ben
bend
benedict
benedicta
benefit
benfica
benfro
benito
benjamin
bennett
benny
benoi
benson
benton
beo
beochan
beochana
beochanto
beocht
beoga
beoir
beoite
beola
beorach
ber
beresford
berg
bergen
bergin
bergman
berkeley
berkshire
berlin
berlusconi
bernadette
bernard
bernardo
bernhard
berresford
berry
bert
bertie
bertrand
berzelius
bessie
best
bet
beta
beth
better
betty
between
beverly
bexley
beyonce
beyond
bf
bg
bh
bha
bhabhta
bhac
bhacht
bhachta
bhachtach
bhachtacha
bhachtai
bhagair
bhagairt
bhai
bhaicte
bhaile
bhaili
bhailigh
bhailiu
bhaill
bhailt
bhailte
bhain
bhainc
bhaince
bhaineadar
bhaineadh
bhaineann
bhainfeadh
bhainisteoir
bhainisti
bhainistiu
bhainne
bhaint
bhaintear
bhainti
bhaintreach
bhair
bhaird
bhairi
bhairne
bhairrche
bhaist
bhaiste
bhaisteadh
bhaithe
bhaitsile
bhalair
bhaldraithe
bhall
bhalla
bhallai
bhallarat
bhallrai
bhallsta
bhan
bhanc
bhanda
bhandia
bhanglaide
bhanna
bhannai
bhanphrionsa
bhanri
bhantiarna
bhaol
bhar
bhardais
bhardas
bhardasacht
bharo
bharr
bharra
bharraigh
bharro
bharsoom
bhart
bhartha
bharu
bhava
bhe
bheadh
bheag
bheaga
bheairic
bhealach
bhealai
bhealaigh
bhealaru
bhealtaine
bhean
bheanga
bheann
bheannacht
bheannaithe
bheanntrai
bhearna
bheart
bheartaigh
bheartais
bheartas
bheas
bheatha
bheathaisne
bheidh
bheidi
bheilg
bheilgeach
bheinn
bheirli
bheirnice
bheirt
bheith
bheo
bheoite
bhfa
bhfabhar
bhfaca
bhfacthas
bhfad
bhfadhb
bhfaigheadh
bhfaigheann
bhfaighfeadh
bhfaighidh
bhfaightear
bhfaireog
bhfairsinge
bhfanann
bhfanfadh
bhfarraige
bhfarraigi
bhfe
bhfeabhas
bhfeabhra
bhfeachtas
bhfeada
bhfealsu
bhfear
bhfearann
bhfeiceann
bhfeictear
bhfeidhm
bhfeidhmeanna
bhfeidhmeannas
bhfeidhmi
bhfeidhmiu
bhfeighil
bhfeinime
bhfeirmeoiri
bhfi
bhfiacha
bhfianaise
bhfiann
bhfichidi
bhfichiu
bhficsean
bhfigiu
bhfile
bhfili
bhfillfeadh
bhfine
bhfinsce
bhfionlainn
bhfionlainnis
bhfionlannach
bhfios
bhfir
bhfireannach
bhfisic
bhfithis
bhfithisea
bhfithisi
bhfiu
bhflaitheas
bhfleadh
bhflo
bhflorida
bhfo
bhfocail
bhfocal
bhfoclo
bhfoilseacha
bhfoilsiu
bhfoinse
bhfoinsi
bhfoireann
bhfoirgneamh
bhfoirm
bhfoirmeacha
bhfoirmle
bhfoirne
bhfolach
bhfolu
bhfomho
bhforbairt
bhfore
bhforma
bhformho
bhfothoghcha
bhfra
bhfrainc
bhfraincis
bhfranc
bhfrancach
bhfre
bhfreasu
bhfrith
bhfronta
bhfuaim
bhfuair
bhfuarthas
bhfuil
bhfuilimid
bhfuiltear
bhfuinneamh
bhi
bhia
bhialann
bhig
bhile
bhille
bhilliu
bhinn
bhinne
bhinni
bhinse
bhiorra
bhiosa
bhirn
bhisigh
bhitheolai
bhiu
bhla
bhlainse
bhlaosc
bhlas
bhliain
bhlian
bhliana
bhlianta
bhliantu
bhloc
bhneoir
bhneoireacht
bhneoireachta
bhneoiri
bhneora
bho
bhocht
bhochta
bhodaigh
bhodhra
bhog
bhogadh
bhogaigh
bhogann
bhogearrai
bhoicht
bhoilg
bhoilse
bhoinn
bhoird
bhoisnia
bholaiv
bholca
bholg
bholgach
bholscaireacht
bhonn
bhord
bhorradh
bhosca
bhostu
bhoth
bhotu
bhra
bhrabu
bhrada
bhrain
bhrainse
bhraith
bhraitheann
bhrasai
bhrat
bhratach
bhrath
bhrathado
bhre
bhrea
bhreac
bhreacadh
bhreanda
bhreasail
bhreatain
bhreatainn
bhreathnach
bhreathnai
bhreathnaigh
bhreathno
bhreathnu
bhreatnach
bhreatnais
bhreis
bhreise
bhreith
bhreithe
bhreitheamh
bhreithiu
bhreithniu
bhreosla
bhri
bhriain
bhrian
bhriathair
bhriathar
bhrioga
bhriota
bhriotanach
bhriotanacha
bhris
bhriseadh
bhriseann
bhriste
bhriu
bhro
bhroin
bhroinn
bhronn
bhronnadh
bhronnann
bhronntanas
bhrooklyn
bhru
bhruach
bhruacha
bhrui
bhruise
bhu
bhua
bhuachaill
bhuachailli
bhuachaint
bhuachalla
bhuachan
bhuadar
bhuaic
bhuaicphointe
bhuaigh
bhuail
bhuaileann
bhuailte
bhuailtear
bhuaiteoir
bhualadh
bhuama
bhuan
bhuanu
bhuartha
bhui
bhuille
bhuirg
bhuise
bhulga
bhulla
bhultu
bhun
bhuna
bhunachar
bhunadh
bhunai
bhunaidh
bhunaigh
bhunaithe
bhunaitheoir
bhunaitheoiri
bhundu
bhunreacht
bhunreachta
bhunreachtu
bhunscoil
bhunstaid
bhunta
bhunu
bhur
bhus
bhutto
bi
bia
bialann
bialanna
bianca
bianna
bibb
bibcode
bible
bibliography
biddy
biden
big
bige
bikram
bilan
bilbao
bileog
bileoga
bill
billboard
bille
billi
billie
billiu
billy
bin
binchy
bing
bingen
bingham
binn
binne
binse
bio
biography
biology
biorach
biosa
biota
bir
bird
birdman
birds
birkhan
birmingham
birn
birt
birth
birthday
bis
biseach
bishop
bisiu
bismarck
bit
bith
bithcheimic
bithcheimiceoir
bithcheimiceoiri
bithcheimici
bithchemiceoir
bithe
bitheolai
bitheolaithe
bithiu
biu
bjo
bla
blacht
black
blackburn
blag
blaghd
blai
blaine
blair
blaise
blake
blanc
blanche
blanco
blank
blanket
blaosc
blarnan
blas
blascaodai
blathmac
blathmaic
bleachtaire
bleachtaireachta
bleachtairi
bleisce
bli
bliain
bliana
blianta
bliantu
blica
blind
blitzkrieg
bloc
block
blocker
blog
blogspot
bloic
blood
bloom
bloomberg
bloomsbury
blount
blu
blue
blues
blum
bn
bo
board
boat
bob
bobby
boc
boccoli
bocht
bochta
bochtanas
bod
bodach
bodhra
bodies
bodleian
body
boeing
bog
boga
bogadh
bogann
bogearra
bogearrai
bogha
boghdo
bohemians
bohr
boi
boic
boichte
boihe
boilg
boilsciu
boilse
boinn
boird
bois
boladh
boland
bolca
bold
bolg
bolga
bolger
boli
bologna
bolscaireacht
bolscaireachta
bolton
bombay
bompart
bon
bona
bonaparte
bond
bonds
bone
bones
bonham
bonn
bonna
bonneagar
bonnie
bono
bont
boo
book
booker
books
boole
boone
booth
bord
bordeaux
border
borealis
borg
boris
born
borough
borradh
bos
bosca
boscai
bosco
boss
boston
bostu
bot
botany
both
botha
bots
bottom
botu
bounty
bourbon
bourke
bow
bowie
bowl
bowls
box
boxes
boy
boyd
boydell
boyle
boys
bpa
bpacasta
bpainde
bparlaimint
bparo
bpatru
bpe
bpeil
bpeiriu
bpennsylvania
bpi
bpiano
bpiarsach
bpictiu
bpla
bplanda
bplandai
bple
bplean
bplymouth
bpo
bpobail
bpobal
bpoblacht
bpoblachta
bpoblachtai
bpointe
bpointi
bpolainn
bpolainnis
bpolaiti
bpolannach
bpolasai
bpoll
bport
bportainge
bpost
bpra
bpri
bprionsa
bprionsabal
bpro
bproinsiasach
bprotastu
bpru
bpu
br
bra
brabant
brabhsa
brabu
bracken
brad
brada
braddock
bradford
bradley
brady
brafman
brahe
brain
brainse
brainsi
braisle
braith
braitheadh
braitheann
bram
bran
branch
brand
branda
brandai
brandenburg
brandon
brandt
branning
braoini
braon
braona
brasai
brat
bratach
bratacha
brath
brathado
braun
bre
brea
breac
breacadh
break
breakfast
breaking
breanda
breas
breasail
breasal
breatain
breataine
breatainn
breathnach
breathnai
breathnaigh
breathno
breathnu
breathnuithe
breatimeacht
breatnach
breatnacha
breatnaigh
breatnais
breatnaise
brecht
breen
breg
breifne
breis
breise
breisea
breisoideachais
breith
breithe
breitheamh
breitheanna
breithimh
breithiu
breithla
breizh
bremen
bremerhaven
brenda
brendan
brennan
brent
breoite
breosla
breoslai
bres
bresson
brest
bretagne
breton
brett
brewer
brexit
brezhnev
bri
briain
brian
briathar
briatharoghaim
briathartha
briathra
brice
bricfeasta
brick
bricrenn
bride
bridge
bridges
bridget
brief
brien
brigade
brighid
bright
brighton
brigi
brigid
brigit
brigitte
bring
brio
brioga
brionglo
briosto
briota
briotanach
briotanacha
briotanai
briotanaigh
briotu
brisbane
briseadh
briseann
briste
bristol
britain
britannia
britannica
brithe
british
brittany
britten
briu
bro
broadcasting
broadway
broc
brocaire
brock
brocquy
broderick
broghach
broglie
broin
broinci
broinne
broken
brollach
brollaigh
bromwich
bronnadh
bronnta
bronntanais
bronntanas
bronntar
bronson
bronte
bronx
brook
brooke
brooklyn
brooks
brosnan
brother
brothers
brown
browne
bru
bruach
bruachbhaile
bruachbhailte
bruadair
bruce
brugge
brugha
brui
bruidne
bruise
bruno
brunswick
bryan
brønsted
bs
bt
btha
bthacht
bu
bua
buachaill
buachailli
buachaint
buachalla
buachan
buadh
buaic
buaicphointe
buail
buaileadh
buaileann
buailte
buailtear
buairci
buaite
buaiteoir
buaiteoiri
bualadh
buama
buamado
buamai
buan
buanna
buartha
buchanan
buck
buckingham
buckinghamshire
buckley
buddy
buenos
buffalo
buffay
bug
bugs
bui
buice
buide
buidhe
building
buile
buille
builli
buinneach
buirci
buirg
buirge
buirgi
buiri
buise
buitle
bulga
bull
bulla
bulletin
bullock
bun
buna
bunachair
bunachar
bunadh
bunai
bunaidh
bunaithe
bunaitheoir
bunaitheoiri
bunanna
bunata
buncha
bundu
bunin
bunleagan
bunreacht
bunreachta
bunreachtu
bunscoil
bunscoile
bunscoileanna
bunsen
bunsmaoineamh
bunta
bunting
bunu
bureau
buren
burgh
burgos
burgu
burke
burlington
burma
burn
burning
burns
burroughs
burt
burton
bury
bus
busanna
busby
bush
business
but
butcher
butler
butt
butte
button
buttons
bxc
bxf
by
byrd
byrne
byron
c
ca
caba
cabha
cabhail
cabhair
cabhlach
cabhlaigh
cabhrach
cabhrai
cabhru
cable
cabot
cac
cach
cacht
cad
cada
cadhain
cadhca
cadhnach
cadhnai
caerdydd
caerffili
caerwyn
caesar
cafe
cage
cahill
cai
caibidil
caibidli
caide
caidreamh
caidrimh
caife
caigh
caighdea
cailciam
caili
caill
caille
cailleach
cailleadh
cailleann
cailli
cailliu
caillte
caillteanas
cailltear
caime
caimile
cain
caine
caini
cainneach
cainni
caint
cainte
cainteanna
cainteoir
cainteoiri
caipi
caipiteal
caipitil
caipitli
cair
cairbre
cairde
cairdeas
cairdine
cairdis
cairdiu
caire
caireach
caireacht
caireachta
caireo
cairibe
cairili
cairill
cairn
cairpe
cairpre
cairt
cairte
cairteacha
cairteanna
cais
caiseal
caisil
caislea
caisteal
caisti
cait
caite
caitear
caith
caitheadh
caitheamh
caitheann
caithfear
caithfidh
caithre
caitiain
caitli
caitliceach
caitliceacha
caitliceachas
caitlici
caitlicigh
caitri
caladh
calafoirt
calafort
calais
calaois
calar
calcalas
caldwell
calgary
calhoun
california
caligula
call
calla
callaghan
called
calling
calls
calum
calvin
calwell
cam
cama
camanachd
camaru
camas
cambo
cambridge
cambridgeshire
camchuairt
camchuairteanna
camden
came
cameron
camille
camino
camo
camp
campa
campai
campaign
campas
campbell
campo
camroux
camus
can
cana
canada
canadh
canadian
canann
canary
canberra
cancer
candam
candamach
candamacha
candamai
candidate
candidates
cane
cangaru
cannes
cannon
cannot
canny
cano
canorus
canta
cantabria
canterbury
canu
canudos
canyon
caoch
caoga
caogaidi
caoi
caoile
caoimh
caoimhi
caoin
caoinchead
caoineadh
caoirigh
caol
caola
caolas
caomha
caomhnai
caomhnaithe
caomhnu
caor
caora
caorach
capaill
capall
cape
capital
capitol
capote
capsu
captaen
captain
car
cara
carachtair
carachtar
caravaggio
carbad
carbaihiodra
carbo
carbocsaileach
carbon
carcanet
card
cardiff
cards
care
career
carew
carey
caribbean
carl
carla
carleton
carlisle
carlo
carlos
carly
carmen
carmichael
carn
carna
carnadh
carney
caro
carol
carolina
caroline
carolyn
carr
carra
carrach
carraig
carraige
carraigeacha
carrann
carranna
carrie
carroll
carson
carta
cartagrafai
cartaige
carter
carthaigh
carthanachta
carthanais
carthanas
cartier
cartlann
cartlanna
cartoon
cartu
cartwright
carty
caru
cary
cas
casa
casach
casacht
casacsta
casadh
casaide
case
casey
cash
casnewydd
cass
cassidy
cassini
cassius
casta
castar
castel
castell
castellaneta
castello
castiglione
castilla
castle
castro
casu
cat
catago
cataibh
catalo
catalog
catalogue
catar
categori
categoria
categories
category
cath
catha
cathach
cathail
cathain
cathair
cathairsta
cathal
cathanna
cathaoir
cathaoirleach
cathartha
cathasaigh
cathbhadh
cathe
cathedral
catherine
cathla
catholic
cathrach
cathracha
cathy
cato
catullus
cause
cavalier
cave
cavendish
cbs
cc
cd
cdc
cdu
ce
cea
ceach
ceacht
ceachtanna
ceachtar
cead
ceadai
ceadaithe
ceadu
ceal
ceall
cealla
ceallach
ceallacha
ceallaigh
cealu
ceamara
ceamarai
ceanada
ceanadach
ceanadacha
ceanainn
ceanannas
ceangail
ceangailte
ceangal
ceanglai
ceann
ceanna
ceannach
ceannai
ceannairc
ceannairce
ceannairceoiri
ceannairci
ceannaircigh
ceannaire
ceannaireacht
ceannaireachta
ceannairi
ceannais
ceannaithe
ceannas
ceannasach
ceannasai
ceannasaithe
ceanncheathru
ceannfort
ceannro
ceannt
ceansaithe
ceant
ceantair
ceantar
ceantracha
ceap
ceapacha
ceapadh
ceapado
ceapaite
ceapann
ceapatach
ceaptar
ceaptha
ceara
cearbhaill
cearbhall
cearc
ceardai
ceardaithe
ceardchumainn
ceardchumann
ceardchumannai
cearmansai
cearn
cearnach
cearnacha
cearnaigh
cearno
cearrbhachais
ceart
cearta
ceartais
ceartas
ceartchreidmheachas
ceartingearach
ceartu
cearu
ceasta
ceatha
ceathair
ceathar
ceatharlach
ceathrair
ceathrar
ceathru
cecil
cecile
cedar
ceelo
ceiliu
ceilte
ceilteach
ceilteacha
ceilti
ceiltigh
ceiltis
ceimic
ceimice
ceimicea
ceimiceach
ceimiceacha
ceimiceoir
ceimiceoiri
ceimici
ceintime
ceird
ceirde
ceirdeanna
ceirni
ceist
ceiste
ceisteanna
ceisti
ceistiu
ceithearnach
ceithleann
ceithre
celebrated
celebrity
cell
cellach
cellaigh
celsius
celt
celtic
celtica
celtique
celtiques
celtische
celts
cemetery
cen
cene
cenn
census
center
central
centre
century
ceo
ceoil
ceol
ceolai
ceolaire
ceolaithe
ceolchoirm
ceolchoirme
ceolchoirmeacha
ceoldra
ceolfhoireann
ceolfhoirne
ceolmhar
ceolto
cep
cerbaill
ceredigion
ceres
cernach
cerro
certain
cervantes
ces
cet
cf
cfm
cgi
ch
cha
chabha
chabhail
chabhair
chabhlach
chabhlaigh
chabhrai
chabhraigh
chad
chadh
chadhain
chadwick
chaibidil
chaide
chaidi
chaidreamh
chaidrimh
chaife
chaighdea
chail
chailciam
chaili
chaill
chailleach
chailleadar
chailleadh
chailleann
chailli
chailliu
chaim
chain
chaine
chainni
chainnigh
chaint
chainteoir
chainteoiri
chair
chairbre
chairde
chairdine
chairdiu
chaire
chairib
chairn
chairt
chais
chaiseal
chaisil
chaislea
chaisp
chaisteil
chaisti
chaistil
chait
chaite
chaitear
chaith
chaitheadh
chaitheamh
chaitheann
chaithfea
chaithfeadh
chaithfidh
chaithfidi
chaitliceach
chaitliceacha
chaitliceachais
chaitlicigh
chaitri
chalado
chalafort
chalifornia
challa
challenge
challenger
chaluim
chamaru
chamber
chamberlain
chambers
chambo
chamchuairt
chamo
champa
champai
champas
champion
champions
championship
championships
champlain
chan
chana
chanadh
chanbha
chance
chandamach
chandamuimhir
chandler
change
changed
changes
changing
channel
chano
chanson
chansons
chante
chanu
chaoi
chaoil
chaoimh
chaoimhi
chaoin
chaol
chaola
chaolas
chaomha
chaomhnu
chaor
chaorthainn
chaos
chapaill
chapall
chapel
chaplin
chapman
chaptaein
chaptaen
chapter
char
chara
charachtair
charachtar
character
characters
charadriiformes
charbo
charbonneau
charda
charge
charges
charles
charleston
charlie
charlotte
charlton
charn
charr
charraig
charraigeacha
charrie
chart
chartaig
charter
chartlann
chartu
chas
chasach
chasacha
chasacsta
chasadh
chasaigh
chase
chasta
chat
chatago
chatalo
chath
chatha
chathail
chathair
chatham
chathaoir
chathaoirleach
chathartha
chathe
chathla
chathrach
chathracha
chato
chavo
che
chea
chead
cheadai
cheadaigh
cheado
cheadu
cheal
cheall
chealla
cheallach
cheallacha
cheallaigh
chealtchair
chealu
cheamara
cheana
cheanada
cheanadach
cheanainn
cheanannais
cheangail
cheangal
cheanglai
cheann
cheanna
cheannach
cheannai
cheannaigh
cheannairc
cheannaire
cheannaireacht
cheannairi
cheannais
cheannas
cheannasach
cheannasai
cheanncheathru
cheannfort
cheannro
cheansu
cheanta
cheantair
cheantar
cheap
cheapach
cheapacha
cheapadh
cheapann
cheaptar
cheaptha
chearbhaill
cheardchumann
chearn
chearnach
chearnaigh
chearno
cheart
chearta
cheartchreidmheach
cheartu
cheatharlach
cheathrair
cheathrar
cheathru
check
chef
cheil
cheile
cheiliu
cheilt
cheilteach
cheilteacha
cheiltigh
cheiltis
cheimic
cheimiceach
cheimiceacha
cheimicigh
cheird
cheirni
cheist
cheisteanna
cheistigh
cheistiu
cheithre
chekhov
chelsea
cheltenham
chemical
chemistry
cheney
cheo
cheoil
cheol
cheolchoirm
cheoldra
cheolfhoireann
cheolto
cher
cherokee
cherry
cheryl
cheshire
chess
chester
chevalier
chi
chiall
chiallai
chiallaigh
chian
chianach
chiang
chiara
chiarrai
chicago
chichester
chiclipe
chief
chieftains
child
childers
children
chile
chilime
chill
chille
chilton
chime
chimiu
chin
china
chine
chinea
chinese
chini
chinn
chinne
chinneadh
chinneann
chinniu
chinnsealaigh
chinntigh
chinntiu
chinsireacht
chion
chionn
chiontu
chiorcail
chiorcal
chiorclach
chipir
chirac
chirgeasta
chirt
chiseal
chiste
chiu
chla
chladach
chladaigh
chlai
chlainne
chlann
chlanna
chlaonadh
chlasaiceach
chlasaicigh
chle
chleacht
chleachtadh
chleachtai
chleachtais
chleachtas
chliniciu
chlis
chliseadh
chliste
chlo
chloch
chlocha
chlochair
chlochaois
chloe
chlog
chloi
chloich
chloiche
chloig
chloigeann
chloiseann
chloisfea
chloistea
chloistear
chloride
chlu
chluaidh
chluain
chluas
chlub
chlubanna
chluiche
chluichi
chluinfea
chna
chno
chnoc
chnoca
chnoic
chnuasach
cho
chobha
chobhsai
choca
choctaw
choda
chodanna
chodladh
chogadh
chogai
chogaidh
choi
choibhe
choibhneasta
choice
choilea
choili
choill
choille
choillte
choilm
choim
choimea
choimhlint
choimhthi
choimirce
choimisine
choimisiu
choimple
choinbhinsiu
choincheap
choinn
choinne
choinnea
choinni
choinnigh
choinscri
choir
choirce
choire
choireallach
choireanna
choiriu
choirn
choirne
choirnis
choirp
choirt
choirte
chois
choisc
choiste
choiteann
choitianta
chol
chola
cholainn
chollachair
chollai
chollaigh
cholm
cholma
cholmcille
cholo
cholu
choluim
choma
chomaoin
chomh
chomha
chomhaimseartha
chomhair
chomhaireamh
chomhairle
chomhairleoir
chomhalta
chomhaltai
chomhaontais
chomhaontaithe
chomhaontas
chomhaontu
chomhar
chomharba
chomharbai
chomharbais
chomharbas
chomharsana
chomharsanacht
chomhartha
chomharthai
chomhbhru
chomhcheangal
chomhcheilg
chomhdha
chomhdhe
chomhdhlu
chomhdhu
chomhe
chomhfhiu
chomhfhreagrai
chomhghleacai
chomhghleacaithe
chomhghuailli
chomhghuaillithe
chomhla
chomhlacht
chomhlachta
chomhlachtai
chomhlathais
chomhlathas
chomhlea
chomhli
chomhoibrigh
chomhoibriu
chomhordana
chomhordu
chomhpha
chomhphobail
chomhphobal
chomhra
chomhrac
chomhraic
chomhre
chomhrialtas
chomhshaoil
chomhshaol
chomhtha
chomhthe
chomhthiono
chomo
chompa
chompara
chomplacht
chompord
chomra
chon
chonacthas
chonaic
chonaill
chonaing
chonair
chonaire
chonall
chonamara
chonartha
choncas
chonchu
chonghaile
chongo
chonmhaicne
chonnacht
chonnachta
chonradh
chonraitheoiri
chonsain
chonsal
chonsalacht
chonspo
chonsta
chonstainti
chontae
chontaetha
chontu
choose
chopair
choptach
chor
chora
chorca
chorcai
chorcaigh
chorda
chormac
chormaic
chorn
choro
chorp
chorpa
chorpara
chorr
chorra
chorrai
chos
chosa
chosain
chosaint
chosaiv
chosanta
chosanto
chosc
chosmhuintir
chosnai
chostais
chostas
chosu
chothabha
chothai
chothaigh
chothrom
chothroma
chothromai
chothromo
chothu
chr
chra
chraiceann
chraicinn
chrainn
chrann
chraobh
chraobhchomo
chraobhscaoileadh
chraol
chraoladh
chraolto
chre
chreach
chreachadh
chreaga
chreat
chreiche
chreid
chreideamh
chreideann
chreidimh
chreidiu
chreidtear
chreidti
chri
chrime
chrios
chris
christ
christi
christiaan
christian
christie
christina
christine
christmas
christoph
christopher
christy
chriticiu
chriu
chro
chroch
chrochadh
chroi
chroinic
chrois
chrom
chromail
chromtha
chronicle
chronicles
chronicon
chronicum
chronology
chros
chrosa
chru
chrua
chruach
chruacha
chruinn
chruinne
chruinneogach
chruinnigh
chruinnithe
chruinniu
chruth
chruthach
chruthai
chruthaigh
chruthaitheach
chruthu
cht
chta
chtadh
chtaire
chtaireacht
chtairi
chtais
chtas
chtearrai
chu
chua
chuadar
chuaigh
chuain
chuairt
chuairteoiri
chuala
chualann
chualathas
chuallacht
chuan
chuar
chuarc
chuardach
chuas
chuck
chucu
chugainn
chui
chuici
chuid
chuideachta
chuidi
chuidigh
chuidiu
chuig
chuige
chuile
chuilinn
chuimhne
chuimhneacha
chuimhneamh
chuimhni
chuimsi
chuimsigh
chuimsitheach
chuimsiu
chuinn
chuir
chuireadar
chuireadh
chuireann
chuirfeadh
chuirfi
chuirfidh
chuirtear
chuirti
chulainn
chulaith
chultu
chum
chuma
chumadh
chumado
chumainn
chumais
chumann
chumannach
chumannachais
chumannachas
chumannaigh
chumarsa
chumas
chumasach
chumasc
chumhacht
chumhachta
chumhachtach
chumhachtai
chumhdach
chumhra
chumrai
chumtha
chun
chuntais
chuntaois
chuntar
chuntas
chur
churaclam
churadh
church
churchill
churiarracht
churraigh
chuspo
chustaim
chustaime
ci
cia
ciaini
ciall
ciallai
ciallmhar
cian
ciana
ciannachta
cianta
ciara
ciaran
ciaro
ciarrai
ciarraige
ciatrach
ciatracht
ciatrai
ciatraithe
cibe
cic
cicearo
cicero
ciclipe
cie
cigarettes
cigh
cigire
ciic
cileagram
cilime
cill
cille
cilli
cillian
cillscanna
cime
cimi
cimithe
cina
cincinnati
cindy
cine
cinea
cinedheighilte
cinedhi
cinema
cini
cinn
cinne
cinneadh
cinneann
cinniu
cinnte
cinntear
cinnti
cinntitheach
cinsireacht
cinsireachta
cio
cion
cionda
cionn
cionnaith
cionta
ciontach
ciontai
cionto
ciorcad
ciorcaid
ciorcail
ciorcal
ciorclach
cipi
cipire
circa
circle
circus
ciriu
cirt
cis
ciseal
cisil
cispheil
cispheile
cispheileado
ciste
cisti
cit
citation
citations
cite
cities
citizen
citoid
city
ciu
ciudad
civil
ck
cl
cla
clach
cladach
cladaigh
clai
claidheamh
clainne
clair
claire
clais
clan
clancy
clann
clanna
clannad
claochlu
claonadh
claonta
clara
clare
clarence
clarendon
clark
clarke
clarkson
clasaiceach
clasaiceacha
clasaici
class
classic
classical
classics
classification
claude
claudia
claudius
claus
clay
clayton
cle
cleachtadh
cleachtai
cleachtais
cleachtas
cleamhnas
clean
clear
cleary
cleas
cleasai
cleburne
cleite
cleiteach
cleiti
clemeint
clemens
clement
clements
clery
cleveland
clg
cli
cliath
cliatha
clib
click
cliff
clifford
clifton
climate
cliniciu
clinton
clio
clips
cliseadh
cliste
clive
clo
cloch
clocha
clochar
clock
clog
cloi
cloiche
cloig
cloigeann
cloigi
cloigtheach
cloistea
cloistear
close
clown
clu
cluain
cluaise
cluana
cluas
cluasa
club
clubanna
clubs
clubtheach
cluiche
cluichi
clyde
cm
cmalant
cmhainni
cn
cna
cnag
cnaguirlisi
cnaipe
cne
cnea
cnn
cno
cnoc
cnoca
cnoic
cnt
cnuasach
cnuasaigh
cnucha
co
coachella
coast
coat
coba
cobain
cobb
cobha
cobhsai
coca
cochaill
cochrane
coda
codanna
codarsnacht
code
codecs
codex
codladh
codlata
coffee
cogad
cogadh
cogai
cogaidh
cogar
cogg
cognai
cogu
cohen
coibhe
coibhneas
coibhneasachta
coibhneasta
coici
coigri
coilea
coileach
coili
coill
coille
coillearnach
coilli
coillte
coime
coimea
coimhdeachta
coimhlint
coimhlinte
coimhlinti
coimhthi
coimi
coimirce
coimisine
coimisiu
coimple
coinbhinsiu
coincheap
coincheapa
coincre
coini
coinn
coinne
coinnea
coinneal
coinni
coinnigh
coinnithe
coinnle
coinscri
coipeadh
coir
coirce
coirdi
coire
coireachta
coireanna
coirib
coiribe
coiriu
coirn
coirne
coirnis
coirnise
coirp
coirpeach
coirpeacht
coirpigh
coirpre
coirt
coirte
cois
coisc
coisce
coisci
coiscthe
coisdealbha
coise
coisithe
coiste
coisti
coiteann
coitianta
coitinne
col
cola
colainn
colainne
colambas
colbert
colchester
cold
coldplay
cole
coleman
colette
colgan
coli
colin
coll
colla
collaboration
collai
collar
colle
collected
collection
collections
collective
college
collins
colm
colma
colman
colmcille
colo
cologne
colonel
colony
color
colorado
colscaradh
colu
colum
columba
columbia
columbus
column
columns
colvin
com
coma
comaite
comann
come
comedy
comes
comh
comha
comhad
comhaid
comhaimseartha
comhain
comhair
comhaireamh
comhairle
comhairleach
comhairleoir
comhairleoiri
comhairli
comhairliu
comhalta
comhaltai
comhaltas
comhaontas
comhaontu
comhaontuithe
comhar
comharba
comharbachta
comharbais
comharbas
comharchumann
comharsa
comharsana
comharsanacht
comhartha
comharthai
comhbhaill
comhbhealach
comhbhru
comhbhunaitheoir
comhchainteanna
comhchathracha
comhcheangailte
comhcheangal
comhcheilg
comhcheilge
comhchiallach
comhchoiteann
comhchosu
comhchruinnithe
comhchuingeach
comhdha
comhdhe
comhdhlu
comhdhu
comhe
comhfhiu
comhfhreagrai
comhfhreagras
comhghleacai
comhghuailli
comhghuaillithe
comhionann
comhionanna
comhionannais
comhionannas
comhla
comhlach
comhlachais
comhlachas
comhlacht
comhlachtai
comhlai
comhlathas
comhlea
comhli
comhluadar
comhoibrithe
comhoibriu
comhoiriu
comhordana
comhordu
comhpha
comhphobail
comhphobal
comhra
comhrac
comhrai
comhraic
comhre
comhriachtain
comhrialtas
comhroinnte
comhsco
comhshaoil
comhshaol
comhsheasmhach
comhtha
comhthe
comhthiono
comhthreomhar
comhthreomhara
comhuaineach
comic
comics
coming
command
comme
commencement
comment
commentary
comments
commission
committee
common
commons
communication
communications
communities
community
como
comp
compa
companion
company
compara
compass
compendium
compert
competition
compilation
complete
complex
compordach
compostela
compton
computer
comra
comte
comu
con
cona
conaill
conaille
conaing
conair
conaire
conall
conallach
conamara
conan
conartha
conarthai
conas
concas
concern
concerns
concert
conchobair
conchobar
conchobhair
conchu
conchubhair
conchubhar
concise
concord
conditions
conduct
conecuh
confadh
conference
conflict
cong
conga
congal
congalach
conghaile
conghal
conghalach
congo
congress
conmaicne
conmara
conmhaicne
conn
connacht
connachta
connaught
connecticut
connell
connemara
connie
connla
connolly
connor
conor
conquest
conrach
conrad
conradh
conraitheoiri
conroy
consain
consan
consecutive
conservation
conspo
consta
constainti
constance
constantine
constellations
constitution
consultation
contact
contae
contaetha
contemporary
content
contents
contest
context
continue
contra
contribution
contributions
contributors
control
contu
convention
conversation
conversations
conway
conwy
coogan
cooh
cook
cooke
cool
cooper
coord
coordinates
coosa
coote
cop
copa
copair
copar
cope
copernicus
coppa
copper
copy
copyright
copyrighted
cor
cora
corai
corainti
corann
corb
corbett
corbusier
corc
corca
corcai
corcaigh
corcra
corcu
corda
cordai
core
cork
cormac
cormaic
corn
cornelius
cornell
corner
cornish
cornwall
coro
coronation
coronavirus
corp
corpa
corpara
corporation
corps
corpus
corr
corra
corrach
corradh
corrai
corraitheach
correct
corrie
corte
corto
corun
cory
cos
cosa
cosacaigh
cosaint
cosaive
cosanta
cosanto
cosc
cosgair
cosgrave
cosmaidi
cosmeolai
cosmhuintire
cosnai
costa
costais
costas
costasach
costasai
costello
cosu
cothabha
cothai
cothaithe
cothaithigh
cothroime
cothrom
cothroma
cothromai
cothromo
cothu
cotton
coughlan
could
council
count
countess
countries
country
county
coup
courcy
course
court
courtney
courts
cousins
cov
covarrubias
cove
coventry
cover
covid
covington
cow
cowell
cowen
cox
coyle
cp
cr
cra
crai
craiceann
craicinn
craig
crainn
craite
craith
crane
crann
craobh
craobhacha
craobhchomo
craobhscaoileadh
craoibhe
craol
craolacha
craoladh
craolann
craolta
craoltar
craolto
crapadh
crawford
crazy
cre
creach
creachadh
creachado
creag
creaga
creagach
creagacha
crean
creat
create
created
creathanna
creating
creation
creative
creatlach
creek
creiche
creid
creideadh
creideamh
creideann
creidimh
creidiu
creidmheasa
creidtear
creige
creimeadh
creimiri
crenshaw
cri
crick
crime
criminal
crimthainn
crimthann
crio
criomhthain
criomhthainn
criomhthann
criopto
crios
criosanna
criostail
criostal
criosto
crisis
crite
crith
critic
critical
critice
criticeoir
criticeoiri
criticiu
criu
cro
crochadh
crochta
crockett
croi
croineolai
croinic
crois
croise
crom
croma
cromadh
cromail
cromghlinn
cromwell
cronin
cros
crosa
crosaire
crosby
croso
cross
crossett
crossing
crow
crowe
crowley
crown
croydon
cru
crua
cruach
cruacha
cruachan
cruatan
cruice
cruinn
cruinne
cruinneacha
cruinneas
cruinneog
cruinni
cruinnithe
cruinniu
cruise
cruistsiof
cruithne
cruithneacht
cruithneachta
cruithnigh
cruth
cruthai
cruthaigh
cruthaithe
cruthaitheach
cruthaitheoir
cruthanna
cruthu
cruz
cry
cryptocoryne
crystal
cs
cso
css
ct
ctor
cu
cua
cuach
cuailgne
cuaille
cuailli
cuailnge
cuair
cuairc
cuairt
cuairte
cuairteanna
cuairteoir
cuairteoiri
cuala
cualann
cuan
cuana
cuanta
cuar
cuarc
cuardach
cuardaigh
cuartha
cuas
cuasa
cuasach
cubbon
cui
cuid
cuideachta
cuideachtai
cuidi
cuidiu
cuilinn
cuimhin
cuimhne
cuimhneacha
cuimhneamh
cuimhni
cuimse
cuimsi
cuimsitheach
cuimsithi
cuimsiu
cuinn
cuinneaga
cuiper
cuir
cuireadh
cuireann
cuirfear
cuirfidh
cuirtear
culainn
culaith
cullen
cullman
cult
cultacha
cultas
cultu
cultural
culture
cum
cuma
cumadh
cumado
cumai
cumainn
cumais
cumann
cumannach
cumannacha
cumannachas
cumannaigh
cumar
cumarsa
cumas
cumasach
cumasc
cumascaigh
cumberland
cumbria
cumha
cumhacht
cumhachta
cumhachtach
cumhachtacha
cumhachtai
cumhaill
cumhall
cumhdach
cumhdaithe
cumhra
cummings
cumrai
cumtha
cunningham
cunta
cuntais
cuntaois
cuntas
cuntasai
cup
cupa
cur
curach
curacha
curadh
curado
curai
curaidh
cure
curfa
curiarracht
curie
currach
curran
current
currently
curry
curse
curtha
curtis
cusack
cuspo
custaim
custaime
customs
cut
cuthbert
cuzco
cwm
cxd
cy
cycle
cycles
cymdeithas
cymru
cynon
cynthia
cyril
cyrus
czy
d
da
dabht
dach
dacha
dachais
dachas
daddy
dadh
dagenham
daghda
daghdha
dahl
dai
daichead
daichidi
daidi
daigh
dail
daily
daingean
daingin
daingni
daingnithe
daingniu
daini
dainse
daipeist
dair
daire
dais
daise
daisy
daite
daithe
daithi
dakota
dal
dale
dali
dall
dalla
dallamullo
dallas
dalma
dalta
daltai
dalton
daltu
daly
dam
dama
damaisc
damba
dame
damer
dames
damh
damha
damhna
damhnai
damhsa
damhsai
damhso
damian
damien
damon
dan
dana
danann
dance
dancing
dangerous
daniel
danielle
daniels
danmhairg
danmhairge
danmhairgis
danmhargach
danmhargacha
dann
danna
danny
dano
dans
dante
daoibh
daoine
daoir
daoirse
daon
daona
daonchara
daonlathach
daonlathacha
daonlathai
daonlathaigh
daonlathais
daonlathaithe
daonlathas
daonna
daonnu
daonra
daor
daoradh
daorbhroide
daorchluiche
daphne
dar
dara
darach
daraithe
darb
darbh
darfur
dari
darini
dark
darkness
darragh
darren
dart
daru
darwin
das
data
database
date
dates
dath
datha
dathanna
datho
dathu
daughter
dave
davenport
davey
david
davidson
davies
davis
davitt
davy
dawes
dawkins
dawn
dawson
day
days
db
dc
dcu
dd
ddinbych
de
dea
deacair
deach
deacha
deachto
deachu
deacra
deacracht
deacrachtai
dead
deal
dealaithe
dealbh
dealbha
dealbhna
dealbho
dealga
dealgan
dealrai
dealraimh
dealraitheach
dealramh
dealu
dean
deanaithe
deannach
deannaigh
dear
deara
dearadh
dearai
dearbhai
dearbhaithe
dearbhu
dearcadh
dearfach
dearfacha
dearg
dearga
dearmad
deartha
deartho
deas
deasca
deascadh
deasghna
deasmhumhan
deasu
deatach
death
deaths
debate
debbie
dec
decatur
decca
december
decision
declan
dedad
dedicated
dee
deep
def
default
defence
defined
definite
definition
defoe
degas
degli
degrees
dei
deic
deich
deichiu
deichniu
deifir
deifni
deighilt
deighilte
deilbhi
deilf
deili
deimhin
deimhneach
deimhni
deimhnithe
deimhniu
deimos
deineadh
deir
deirdre
deireadh
deireanach
deireanacha
deireanai
deireanais
deireann
deirfe
deirfiu
deirg
deirge
deiridh
deirtear
deirti
deis
deisceart
deisceartach
deisceartacha
deiscirt
deise
deiseal
deiseanna
deisitheoir
deisiu
dekalb
del
delaney
delap
delaware
delegaciones
delete
delhi
delia
delivered
delivery
dell
della
delle
delta
dem
demi
democracy
dempsey
den
dena
denali
denis
denise
dennis
denny
denver
deo
deoch
deochanna
deoir
deoiri
deoise
deoisi
deonach
deonacha
deonai
deontais
deontas
deonto
deora
deorai
department
der
derby
derbyshire
derek
derga
dermot
derry
des
descartes
description
desert
design
designation
desktop
desmond
desna
dessie
destiny
destruction
det
detail
details
detective
detroit
deutsch
deutsche
deutschland
deux
dev
developers
development
devices
devil
devito
devlin
devon
dewey
df
dh
dha
dhaimh
dhaingean
dhaingnigh
dhaingniu
dhaite
dhalta
dhaltai
dhamh
dhamhna
dhanna
dhaoine
dhaon
dhaona
dhaonlathach
dhaonlathaigh
dhaonna
dhaonnu
dhaonra
dhara
dharu
dhas
dhath
dhathanna
dhe
dhea
dheacair
dheachaigh
dheachto
dhealraitheach
dhealu
dhear
dhearadh
dhearbhaigh
dhearbhu
dhearc
dhearcach
dhearcadh
dhearfach
dhearg
dhearga
dhearmad
dhearna
dhearnadh
dheartha
dheas
dheasca
dheasghna
dheasmhumhan
dheasumhan
dheathain
dheich
dheifir
dheighilt
dheilge
dheimhnigh
dheimhniu
dhein
dheirdre
dheireadh
dheireanach
dheireanacha
dheireanaigh
dheirfiu
dheirg
dheiridh
dheis
dheisceart
dheisceartach
dheisiu
dheoidh
dheoise
dheonach
dheonaigh
dheonu
dhi
dhia
dhiaga
dhiagno
dhiaidh
dhialann
dhian
dhiarmada
dhiarmaid
dhifri
dhifriu
dhigiteach
dhiu
dhla
dhleathach
dhleathacha
dhli
dhlu
dho
dhochartaigh
dhochtu
dhoicime
dhoile
dhoiminiceach
dhoire
dhomhain
dhomhan
dhomhanda
dhomhnach
dhomhnaill
dhomhnall
dhonn
dhonnabha
dhonncha
dhonnchadha
dhoras
dhorcha
dhorna
dhra
dhrai
dhraic
dhre
dhream
dhreamanna
dhreapadh
dhroichead
dhroim
dhromchla
dhromchlai
dhrong
dhruga
dhrugai
dhruid
dhu
dhua
dhuais
dhual
dhualgas
dhubh
dhubha
dhubhda
dhuibh
dhuibhne
dhuilleoga
dhuine
dhuit
dhul
di
dia
diabhail
diabhal
diaga
diagacht
diagachta
diagaire
diagairi
diagno
diaibe
diaidh
diaine
dialann
dialog
diamaint
diamant
diamond
diamonds
dian
diana
diane
dianghlasa
diarmada
diarmaid
diarmait
diarmata
diarmuid
diary
dias
diaspo
diaz
dibon
dick
dickens
dickinson
dictionary
did
didn
die
died
diego
diem
diemen
dies
dietrich
difear
diff
difference
different
difrea
difri
difriu
difte
digital
digiteach
digiteacha
dil
dill
dillon
dimaggio
dime
din
dindshenchas
dine
dineasa
ding
dinger
dingle
dinimiciu
dinne
dinneen
dinnireacht
dinnseanchas
dintiu
dio
diolu
dion
diongbha
dioplo
diosca
dioscai
dioscliosta
dioscliostai
dir
direa
direct
direction
directions
directly
director
dirk
dirty
dis
disaster
discipli
disco
discovery
discuss
discussion
discussions
disease
disney
disneyland
display
disques
district
dithe
dition
ditions
diu
diversity
divisio
division
divisions
dixon
dj
dl
dlann
dleathach
dli
dlisteanach
dlite
dlu
dmitri
dmitriy
dms
dna
dni
do
dob
dobbs
dobhair
dobson
doc
dochair
dochar
dochartaigh
dochloi
dochreidte
docht
dochtu
docs
docstudio
doctor
document
documentation
documents
dodhe
does
doesn
dofheicthe
dog
dogs
doha
doherty
doi
doibhlin
doicheall
doicime
doile
doiligh
doimhne
doimhneacht
doiminiceach
doiminicigh
doing
doinn
doire
doiri
doirse
doirte
doirteadh
dola
dolan
dolca
dole
dollar
dolly
dolores
dolphin
dom
domain
dome
domenico
domh
domhain
domhainspe
domhan
domhanda
domhandu
domhanleithead
domhanleithid
domhantarraingt
domhantarraingthe
domhnach
domhnaigh
domhnaill
domhnall
domingo
dominic
dominique
domlais
domnaill
domnall
domnann
don
dona
donahue
donais
donal
donald
donaldson
donatello
done
donegal
donegan
donn
donna
donnabha
donncha
donnchad
donnchada
donnchadh
donnchadha
donne
donnell
donnelly
donoghue
donovan
dooley
door
dora
dorais
doras
dorcha
dorchadas
dord
dordghiota
dordveidhil
doris
dorn
dorna
dorothy
dorset
dortmund
dos
dosaen
dosna
dostoyevsky
dot
dothra
douard
double
doug
douglas
douglass
dover
dovlatov
dowd
dowling
down
downey
downham
downing
doyle
dp
dr
dra
dracula
draena
draft
drafting
drag
dragain
dragan
dragon
drai
draic
draig
draigi
drake
drama
dramhai
draoi
draoithe
dre
dreach
dream
dreamanna
dreaming
dreams
dreapadh
dreapado
dreaptha
dreigi
dreoili
dresden
drew
dreyfus
dri
drioglann
driscoll
drive
driver
dro
droch
drochaid
drochamhrasach
drochbhail
drochi
drochshaoil
drochshaol
drochshla
drochuair
drogall
drogallach
drogheda
drogo
droichead
droichid
droim
droinge
drom
droma
dromchla
dromchlai
dromlach
dromlaigh
drong
dronga
drongado
dronuilleogach
dru
drug
druga
drugai
druidim
druids
druilea
druim
druma
drumado
drumai
dry
ds
dt
dta
dtabhairt
dtabharfadh
dtabharfai
dtabharfaidh
dtaca
dtacai
dtagann
dtagrai
dtaighde
dtailte
dtaisce
dtaispea
dtaithi
dtalamh
dtamhlacht
dtaobh
dtar
dtarlai
dtarlo
dtarraingt
dte
dteach
dteachtai
dteaghlach
dteagmha
dteanga
dteangacha
dteannta
dteastai
dteicneolai
dteideal
dteoiric
dti
dtiarna
dtiarnai
dtigh
dtimpeall
dtimpeallacht
dtimpiste
dtiobraid
dtiocfadh
dtiocfaidh
dtionchar
dtiono
dtionscal
dtiteann
dtitfeadh
dtithe
dtiu
dto
dtoghcha
dtoghcheantar
dtoil
dtoirt
dtoll
dtonnta
dtorthai
dtosach
dtosai
dtoso
dtra
dtraidisiu
dtraipisi
dtre
dtreis
dtreise
dtreo
dtri
dtriail
dtrioblo
dtru
dtu
dtuairim
dtuaisceart
dtuarasca
dtuaslaga
dtuath
dtuatha
dtugadh
dtugann
dtugtai
dtugtar
dtuigeann
dtuilleamai
dtuiscint
dtuismitheoiri
dturas
dturcach
du
dua
duach
duais
duaiseanna
dual
dualgais
dualgaisi
dualgas
duan
duanaire
dub
dubai
dubh
dubha
dubhaga
dubhaltach
dubhda
dubhghaill
dubhghlas
dubhthaigh
dublin
dubliners
duck
duckworth
dudley
due
duff
duffy
duga
dui
duib
duibh
duibhe
duibhir
duille
duilleog
duilleoga
duilleoigi
duilli
duilliu
duillsilteach
duine
duinn
duinni
duit
duithe
duke
dul
dulta
dumbledore
dumha
dumhach
dumont
dumpa
dun
duncan
dundalk
dundee
dunn
dunne
dup
durham
during
durruti
dusta
dustin
dutch
duty
duval
dvd
dwight
dwyer
dyer
dyfed
dylan
dz
e
ea
eabhair
eabhrac
eabhrach
eabhrais
eabhraise
each
eachach
eachtardhomhanda
eachtra
eachtrach
eachtracha
eachtrai
eachtraigh
eachtrannach
eachtrannacha
eachtrannaigh
eacnamai
eacnamaithe
eacuado
eadar
eadra
eag
eagair
eagar
eagartho
eagla
eaglais
eaglaise
eaglaiseach
eaglaisi
eaglasta
eagle
eagna
eagnai
eagra
eagrai
eagraigh
eagraithe
eagras
eagru
eain
eala
ealai
ealing
eallach
eallaigh
eamhain
eamhnu
eamon
eamonn
eana
eanach
eanaigh
eangach
eantro
eapainmneach
ear
earca
earcai
earcaigh
earcail
earcu
earl
earliest
early
earna
earo
earra
earrach
earrai
earraigh
earth
eas
easa
easaontais
easaontas
easaonto
eascair
eascann
eascrai
easier
easla
easmainn
easnamh
easnamhach
easpa
easpacha
easpag
easpaig
easpo
east
easta
eastenders
easter
eastern
eastman
easto
eastwood
easy
eata
eatarthu
eatramh
eatramhach
ebert
ebola
ec
ecat
ech
echach
echinodorus
echo
echtra
economic
economist
economy
ed
eda
eddie
edel
eden
edgar
edge
edgeworth
edil
edinburgh
edison
edit
edited
edith
editing
edition
editions
editor
editorial
editors
edits
edmond
edmund
edn
edna
edo
eds
edu
eduard
eduardo
education
educational
edward
edwards
edwin
ee
effect
efl
eg
egaire
egan
egerton
ego
egypt
ei
eibhir
eibhli
eich
eid
eidhin
eidirsce
eifinn
eight
eighteenth
eile
eilean
eileanan
eileen
eili
eilifint
eilimint
eiliminti
eilish
eilne
eilve
eimhear
eimhire
eimpi
ein
einde
eine
einer
einsi
einstein
eipeaso
eipic
eipiciu
eipide
eirbiam
eirc
eircom
eire
eireabaill
eireaball
eireann
eiri
eirleach
eisceacht
eisceachtai
eisceachtu
eiscir
eiseamal
eiseamla
eisean
eisenhower
eisi
eisiach
eisiaimh
eisiamh
eisigh
eisithe
eisiu
eispe
eisteddfod
eistir
eite
eiteach
eithbhinn
either
eithne
eithneaga
eiti
eitic
eitil
eitile
eitilt
eitilte
eitilti
eitinn
eitlea
eitleoir
eitleoireacht
eitleoiri
eitli
eitneach
eitneacha
eitneachas
eitneolai
ek
el
ela
elaine
elatha
elder
ele
eleanor
eleathanach
election
elections
electric
electronic
element
elementary
elements
elena
eli
elias
eliezer
eliot
elisabeth
elitre
eliza
elizabeth
ella
ellen
ellie
elliot
elliott
ellis
elmore
elon
else
elsewhere
elvis
em
email
emer
emergency
emerson
emi
emil
emile
emilia
emilio
emily
emire
emma
emmanuel
emmerdale
emmet
emmy
empire
empty
en
enable
enabled
encore
encourage
encyclopaedia
encyclopedia
encyclopædia
end
enda
enemy
energy
enfield
enforcement
engagement
engels
engineering
england
english
engus
engusa
ennis
enough
enrico
enrique
ensslin
enterprise
entertainment
entirely
entre
entry
environment
eo
eocaro
eochach
eochada
eochadha
eochaid
eochaidh
eochaill
eochair
eochu
eoghain
eoghan
eoghanacht
eoghanachta
eoicli
eoin
eol
eolach
eolai
eolais
eolaithe
eolas
eoleolai
eora
eoraifi
eoraip
eoraipiam
eorna
eorpa
eorpach
eorpacha
eorpai
eorpaigh
eorpais
ep
episode
epstein
equivalent
er
era
erasmus
erc
erenn
eri
eric
erich
erie
erik
erin
ernest
ernie
ernst
error
errors
erskine
eru
erwin
es
esa
escambia
eska
esmonde
espa
espan
especially
esperanto
essay
essays
essential
essex
est
esta
established
establishment
estado
estate
este
esteban
esther
et
eta
etc
etersce
eth
ethel
etowah
eu
euge
eugene
euler
euphrasia
eureka
euro
europa
europe
european
eurovision
ev
eva
evan
evangelist
evans
evatt
eve
evelyn
even
evening
event
events
ever
everest
everett
everton
evertype
every
everybody
everyone
everything
evic
evidence
evil
evolution
ewan
ex
examiner
example
examples
except
exchange
executive
exemption
exeter
exile
existing
experience
experimental
express
expression
extension
extra
extremadura
eye
eyed
eyes
eyre
ez
ezra
f
fa
faber
fabhalsce
fabhrach
fabhru
fabht
fabio
face
facebook
fach
fachto
fact
facto
factor
facts
fad
fada
fadaithe
fadhb
fadhbanna
fado
fadsaolach
fadsaolai
fadte
fadtre
fagan
fahey
fahy
fai
faic
faiche
faid
faide
faigh
faigheann
faighte
faightear
fail
failbhe
failli
fair
fairbanks
faire
faireoga
fairfield
fairsing
fairsinge
fairsingi
fairsingiu
fairy
faisean
faiseanta
faisin
faisisteach
faisisteachas
faisne
faith
faithe
faithlinn
faiti
falcone
fall
falling
fallon
falls
fame
families
family
famous
fan
fanacht
fanann
fand
fanny
fantaisi
fantasia
fantastic
fantasy
faoi
faoilea
faoin
faoina
faoiseamh
faoisimh
faola
faoladh
faolchu
faomhadh
faq
far
fara
faraday
faranto
faraor
farasbarr
farina
farm
farmer
faro
farraige
farraigi
farrell
farrelly
faso
fast
fat
fate
fath
fathach
fathaigh
father
fatima
faulkner
faye
fayette
fbi
fc
fda
fdc
fe
fea
feabhail
feabhais
feabhas
feabhra
feabhsaithe
feabhsu
feabhsuithe
feachtais
feachtas
feachtaso
feada
feadh
feadhna
feado
feall
feallmharai
feallmharaithe
feallmharfo
feallmharu
fealltach
fealsamh
fealsu
feamainn
feanna
fear
fearadh
fearainn
fearann
fearas
feardorcha
fearg
feargach
feargal
fearghail
fearghal
fearghas
fearghasa
fearna
fearo
fearr
fearta
feasa
feasacht
feasta
feat
feature
features
february
federal
federation
federer
federico
feedback
feel
feeling
fees
feet
feicea
feiceann
feicimid
feictear
feicthe
feideara
feidhm
feidhmchla
feidhme
feidhmeanna
feidhmeannach
feidhmeannacht
feidhmeannaigh
feidhmeannas
feidhmghru
feidhmi
feidhmithe
feidhmiu
feilimi
feiliu
feimineach
feimineachas
feiminigh
fein
feinime
feirge
feirite
feirm
feirme
feirmeacha
feirmeoir
feirmeoireacht
feirmeoireachta
feirmeoiri
feirmi
feirste
feis
feiscint
feisire
feisiri
feiste
feisteas
feisti
feistis
feistithe
feitheamh
feithicil
feithicli
feithid
feithidi
felipe
felix
fell
fellow
female
feodach
feoil
feoiliteach
feola
fer
ferchertne
ferdinand
fergal
fergie
fergus
fergusa
ferguson
fermat
fermi
ferna
fernandez
fernando
ferrari
ferry
festival
festschrift
feuchtwanger
fever
few
ff
ffe
fflint
fgb
fha
fhaca
fhachto
fhad
fhada
fhadhb
fhadhbanna
fhaiche
fhaid
fhaide
fhaigheann
fhaightear
fhaili
fhaireog
fhairsing
fhairsinge
fhaisne
fhan
fhanann
fhaola
fharo
fharraige
fhe
fheabhas
fheabhra
fheabhsaigh
fheabhsu
fheachtais
fheachtas
fheada
fheado
fheallmharaigh
fheallmharu
fhealsu
fhear
fhearadh
fhearann
fhearchair
fhearghail
fhearghais
fhearghasa
fhearna
fhearr
fheicea
fheiceann
fheicfea
fheicimid
fheictear
fheideara
fheidhm
fheidhmeach
fheidhmeanna
fheidhmi
fheidhmigh
fheidhmiu
fheilimi
fheinime
fheirm
fheirmeoir
fheirmeoireacht
fheirmeoiri
fheirte
fheis
fheisire
fheisiri
fheithicil
fheithicli
fheithidi
fheoil
fhi
fhia
fhiacha
fhiachrach
fhiafraigh
fhianaise
fhianna
fhiannai
fhiatach
fhichiu
fhicsean
fhicseanu
fhicsin
fhidil
fhigiu
fhile
fhili
fhilipi
fhill
fhilleadh
fhine
fhinn
fhinne
fhinsce
fhiona
fhionlainn
fhionlainnis
fhionlannacha
fhionn
fhionnachtain
fhionnadh
fhionnlaoich
fhionnuisce
fhios
fhiosru
fhir
fhirbhisigh
fhireann
fhisic
fhisiceach
fhisiciu
fhithis
fhithisea
fhiu
fhlaithbheartaigh
fhliu
fhliuch
fhlo
fhloinn
fhluairi
fho
fhocail
fhocal
fhoclo
fhofhine
fhoghlaim
fhoghlaimeoiri
fhoilseacha
fhoilsi
fhoilsigh
fhoilsitheoir
fhoilsiu
fhoinse
fhoinsi
fhoireann
fhoirfe
fhoirgneamh
fhoirgnimh
fhoirm
fhoirmeacha
fhoirmi
fhoirmiu
fhoirmle
fhoirne
fholamh
fholla
fhollasach
fholu
fhomhuirea
fhondu
fhonn
fhora
fhorais
fhoraois
fhoras
fhorbair
fhorbairt
fhorbartha
fhorbrai
fhore
fhorghabh
fhorghabha
fhorla
fhorleathan
fhorma
fhormho
fhoro
fhostai
fhostaigh
fhostaithe
fhostu
fhra
fhrainc
fhraincis
fhrancach
fhrancacha
fhrancaigh
fhraoigh
fhre
fhreagair
fhreagairt
fhreagra
fhreagracht
fhreagrai
fhreastail
fhreastal
fhreastalai
fhreasu
fhriotai
fhrith
fhronta
fhuadach
fhuadaigh
fhuaim
fhuaimeanna
fhuaimni
fhuaimniu
fhuair
fhuar
fhuascailt
fhuath
fhui
fhuil
fhuinneamh
fhuinneog
fhuinnimh
fhuirseoir
fhulaing
fhulaingt
fhurasta
fhusa
fi
fia
fiabhras
fiach
fiacha
fiachna
fiachra
fiachrach
fiacla
fiaclach
fiaclo
fiadhu
fiafrai
fiaich
fianaise
fianna
fiannachta
fiannai
fiannas
fiatach
fiba
fiche
fichead
ficheall
fichidi
fichille
fichiu
ficsean
ficseanu
ficsin
fiction
fide
fidel
fidgenti
fidh
fidil
fidle
fidsi
field
fielding
fields
fifa
fifth
fig
figgis
fight
fighting
figiu
figure
fil
file
fileata
files
fili
filime
filipi
filippo
fill
filleadh
filleann
fillte
film
films
fin
final
finance
financial
find
finding
fine
fingal
finghin
finguine
finland
finlay
finn
finne
finnegan
finsce
fintan
finte
finucane
fiodh
fiodhghinte
fiona
fionlainne
fionlainnis
fionlainnise
fionlannach
fionlannacha
fionlannaigh
fionn
fionnachtain
fionnachtana
fionnadh
fionnliath
fionno
fionnuisce
fionrai
fiontair
fiontar
fiontrai
fios
fiosru
fir
firbhisigh
fire
fireann
fireanna
fireannach
fireannaigh
firefly
firinscneach
first
fischer
fiseolai
fiseolaithe
fish
fisher
fishing
fishman
fisic
fisice
fisiceach
fisiceacha
fisiceoir
fisiceoiri
fisici
fisiciu
fisk
fite
fithis
fithise
fithisea
fithiseach
fithisi
fithisiu
fitt
fitzgerald
fitzgibbon
fitzmaurice
fitzpatrick
fiu
fiuchphointe
five
fix
fixed
fk
fl
flag
flags
flaherty
flai
flainn
flaith
flaithbertach
flaithbertaigh
flaithbheartach
flaithbheartaigh
flaithearta
flaitheas
flaithis
flaithiu
flaithri
flanagan
fland
flanders
flann
flannbhui
flash
flatha
flea
fleadh
fled
fleming
fletcher
fleur
flight
flinders
fliodhas
fliu
fliuch
flo
floinn
flood
flora
florence
flores
florida
flosctha
flow
flower
flowers
floyd
flu
fluairi
fly
flying
flynn
fm
fo
focail
focal
focla
focleolai
foclo
focus
foghlai
foghlaim
foghlaimeoiri
foghlaimi
foghlaithe
foghlama
foghlamtha
foghludha
foghrai
foghru
foilseacha
foilsi
foilsithe
foilsitheoir
foilsitheoireacht
foilsitheoireachta
foilsitheoiri
foilsiu
foinn
foinse
foinsi
foirceadal
foirceann
foireann
foirfe
foirfeachta
foirgneamh
foirgni
foirgnimh
foirm
foirme
foirmea
foirmeacha
foirmi
foirmiu
foirmle
foirmli
foirne
fol
fola
folaigh
folaithe
folamh
foley
folk
folklore
folla
follasach
follow
following
folt
folu
foluain
fomho
fomhuirea
fondu
fonn
fonnado
fonnmhar
fono
fonseca
font
fontaine
fontenoy
food
fools
foot
football
footballer
for
fora
forainm
forainmneacha
forais
foraois
foraoise
foraoisi
foras
forbairt
forbairti
forbartha
forbes
forbhreathnu
forbrai
forbro
force
forces
ford
forde
fore
foreign
forest
forever
forget
forghabha
forghafa
forgotten
foriomla
forla
forleata
forleathan
forleithne
forli
form
forma
format
former
formho
forms
formula
foro
forrest
forsyth
fort
fortachta
fortune
forum
forward
fosaithe
foscadh
fosfa
fosfar
fospeiceas
fosta
fostai
fostaithe
foster
fosto
fostu
fothoghcha
fothrach
fothracha
fothraigh
fothro
foucault
found
foundation
four
fourth
fowler
fox
fr
fra
frac
frainc
fraince
fraincis
fraincise
frameless
frames
framework
franc
francach
francacha
francaigh
france
frances
francesco
francia
francis
francisco
franco
frank
frankenstein
frankfurt
frankie
franklin
frans
franz
fraoch
fraoigh
fraser
fre
freagairt
freagra
freagrach
freagracht
freagrachtai
freagrai
freak
freastail
freastal
freastalai
freasu
fred
freddie
frederick
free
freedom
freeman
freisin
french
freud
fri
frida
friday
friedrich
friel
friend
friends
friendship
frige
frink
friotai
friotal
frith
frithbheartai
frithbheathach
frithbheathaigh
frithdhu
frithghiniu
frithghni
frithsheasmhach
frithsheasmhacht
fritz
friu
friuli
fro
froissart
from
front
fronta
frost
frustrachas
fry
ft
fu
fuacht
fuadach
fuadai
fuaim
fuaime
fuaimeanna
fuaimiu
fuaimni
fuaimniu
fuaimrian
fuair
fuaire
fuaite
fual
fuar
fuara
fuaraithe
fuarthas
fuascailt
fuascailte
fuasclai
fuath
fud
fui
fuil
fuilaistriu
fuileada
fuilteach
fuinneamh
fuinneog
fuinneoga
fuinneoige
fuinnimh
fuinniu
fuinnmhithe
fuirseoir
fuirseoiri
fuisce
fulaingt
fulham
full
fuller
fulton
fun
function
functions
fund
funds
fungais
fungas
furasta
furlong
further
fusa
future
fynwy
g
ga
gaa
gaba
gabh
gabha
gabhadh
gabhair
gabhann
gabhar
gabhla
gabhra
gabhtar
gable
gabra
gabriel
gabrielle
gach
gacha
gacht
gadai
gadar
gaddafi
gadh
gadhar
gadhra
gae
gaedhilge
gaeil
gaeilge
gaeilgeoir
gaeilgeoiri
gael
gaelach
gaelacha
gaelai
gaelainn
gaelchola
gaelic
gaels
gaelscoil
gaelscoileanna
gaelscolai
gaelspell
gaeltacht
gaeltachta
gaeltachtai
gaerfyrddin
gafa
gaga
gai
gail
gaile
gailearai
gailf
gaili
gaill
gaille
gaillimh
gaillimhe
gaime
gain
gaineamh
gainimh
gaint
gair
gairbhe
gairdi
gaire
gaireadh
gaireas
gairid
gairm
gairme
gairmeach
gairmeacha
gairmiu
gairmre
gairt
gais
gaisce
gaisci
gaisi
gaiste
gaius
gal
gala
galair
galar
gale
galerie
galf
galfaire
galicia
galilei
galileo
gall
galla
gallach
gallagher
gallaib
gallaibh
gallaigh
gallbhaile
gallda
gallery
gallia
gallico
gallipoli
gallo
gallu
galracha
galvin
galway
gama
game
games
gan
gandhi
gandon
gang
gann
ganntanas
gantz
gaodhal
gaoil
gaoith
gaoithe
gaol
gaolmhar
gaolmhara
gaolta
gaoth
gaotha
gap
gar
gara
garastu
garbh
garbha
garbhchri
garci
garcia
garda
gardai
garde
garden
gardens
gardiner
gardner
gareth
garfield
garibaldi
garini
garland
garman
garmhac
garra
garrai
garraithe
garret
garrett
garrfhicsin
garry
gartach
gartaigh
gartha
garvin
gary
gas
gaseolai
gaso
gasta
gastas
gaston
gasu
gate
gates
gathach
gathanna
gathering
gatter
gaudi
gaulle
gavin
gay
gaza
gb
gca
gcabhair
gcabhlach
gcaibidil
gcaidreamh
gcaighdea
gcaili
gcaine
gcaint
gcainteoiri
gcairde
gcaireo
gcairt
gcairteacha
gcais
gcaiseal
gcaislea
gcait
gcaitear
gcaitheamh
gcaitheann
gcaithfeadh
gcaithfear
gcaithfi
gcaithfidh
gcaitliceach
gcaitliceachas
gcaitlicigh
gcalifornia
gcambridge
gcambridgeshire
gcampa
gcampai
gcana
gcantu
gcanu
gcaogaidi
gcaoi
gcaolas
gcaorach
gcapall
gcaptaen
gcarachtar
gcarad
gcarbo
gcarr
gcarraig
gcarraigeacha
gcartlann
gcartu
gcat
gcatago
gcataibh
gcatalo
gcatar
gcath
gcathair
gcathanna
gcathe
gcathrach
gcathracha
gce
gceadai
gceado
gceall
gcealla
gceanada
gceanannas
gceangal
gceann
gceannairc
gceannaire
gceannairi
gceannas
gceantair
gceantar
gceardchumann
gcearno
gcearr
gcearrbhach
gceart
gcearta
gceartla
gceathru
gceilteach
gceimic
gceird
gceist
gceithre
gceol
gceoldra
gceolto
gci
gciall
gciallai
gciarrai
gcilime
gcill
gcime
gcimi
gcine
gcinea
gcini
gcinn
gcinneadh
gcinniu
gcion
gcionn
gciorcal
gciste
gcla
gcladach
gclann
gcleachtadh
gcleachtas
gclo
gcloch
gclog
gcloi
gclu
gcluain
gclub
gclubanna
gcluiche
gcluichi
gcna
gcnoc
gcnuasach
gco
gcodanna
gcodarsnacht
gcodladh
gcogadh
gcogai
gcoibhneas
gcoigri
gcoilea
gcoili
gcoill
gcoillte
gcoime
gcoimea
gcoimhlint
gcoimisiu
gcoincheap
gcoinne
gcoinnea
gcoinni
gcoir
gcoireanna
gcoirnis
gcoiste
gcoitinne
gcola
gcolainn
gcolu
gcomh
gcomhair
gcomhairle
gcomhaltai
gcomhaontas
gcomhaontu
gcomhar
gcomharbacht
gcomharbas
gcomharsan
gcomharsanacht
gcomhartha
gcomhchainteanna
gcomhcheilg
gcomhdha
gcomhdhe
gcomhdhu
gcomhghuailli
gcomhghuaillithe
gcomhlacht
gcomhlachtai
gcomhli
gcomhluadar
gcomhoibriu
gcomhpha
gcomhphobal
gcomhra
gcomhrac
gcomhre
gcomhrialtas
gcomhshaol
gcomhthe
gcomo
gcompara
gconamara
gconnacht
gconradh
gconspo
gcontae
gcontaetha
gcontu
gcorca
gcorcaigh
gcorn
gcoro
gcorp
gcorr
gcos
gcosa
gcosaint
gcosanto
gcosc
gcosmhuintir
gcoventry
gcra
gcraiceann
gcrainn
gcrann
gcraobh
gcraobhchomo
gcre
gcreach
gcreideamh
gcreideann
gcri
gcrios
gcrith
gcro
gcrobhaingi
gcroi
gcrosa
gcruacha
gcruinniu
gcruithne
gcruithneach
gcruth
gcruthai
gcrutho
gcruthu
gcu
gcuan
gcuanach
gcuid
gcuideachta
gcuimhne
gcuireadh
gcuireann
gcuirfeadh
gcuirfear
gcuirfi
gcuirfidh
gcuirtear
gcultu
gcuma
gcumado
gcumann
gcumannach
gcumannachas
gcumas
gcumbria
gcumhacht
gcumhachtai
gcuntas
gcur
gcuspo
gd
gde
ge
gea
geal
geala
gealach
gealacha
gealai
gealbha
geall
gealladh
geallta
gealltanais
gealltanas
geallu
gean
geanainn
geansai
geansaithe
geara
gearailt
gearaltaigh
gearma
gearo
gearoid
gearr
gearra
gearradh
gearrscanna
gearrsce
gearrtha
gearrtho
geasa
geata
geatai
geelong
geiger
geilleagair
geilleagar
geimhreadh
geimhridh
geineasas
geis
geit
geldof
geller
gemini
gen
gender
gene
genealach
genealogical
genealogies
genealogy
genera
general
generation
genetics
geneva
genitive
genova
genus
geo
geoffrey
geoghegan
geografach
geografai
geograph
geographic
geography
geoime
geolai
geolaithe
georg
george
georges
georgetown
georgia
ger
gerais
gerald
geraldine
gerard
gerd
gerhard
germain
german
germany
geronimo
gerry
gertrude
gesamtdarstellung
geschichte
get
gets
getting
gettysburg
gfadh
gfai
gfaidh
gfdl
gh
gha
ghabh
ghabha
ghabhann
ghabhra
ghaeil
ghaeilge
ghael
ghaelach
ghaelacha
ghaelaigh
ghaelscoil
ghaeltacht
ghaeltachta
ghaili
ghaill
ghaillimh
ghaineamhlach
ghainimh
ghair
ghairdi
ghairid
ghairm
ghairme
ghairmiu
ghairmre
ghais
ghaisce
ghaisci
ghal
ghala
ghalair
ghalaithe
ghalar
ghall
ghallda
ghalu
ghaoil
ghaoithe
ghaol
ghaolmhara
ghaolta
ghaorthaidh
ghaoth
ghar
gharastu
gharbh
gharda
ghardai
gharmhac
gharrai
gharrdha
gharrfhicsin
ghas
ghasu
ghathach
ghathanna
ghe
gheal
gheala
ghealach
gheall
gheara
ghearma
ghearo
ghearr
ghearra
ghearradh
ghearrsce
gheasa
gheata
gheilleagair
gheilleagar
gheimhreadh
gheimhridh
gheirsi
gheis
gheobhadh
gheobhaidh
gheofar
gheoime
gheolai
ghiall
ghib
ghil
ghin
ghine
ghinealach
ghinealaigh
ghineann
ghineara
ghiniu
ghiolla
ghiorru
ghiota
ghiu
ghlac
ghlacadar
ghlacadh
ghlacann
ghlactar
ghlais
ghlan
ghlanadh
ghlaoch
ghlaoigh
ghlaoitear
ghlaotar
ghlas
ghlasa
ghlaschu
ghlasra
ghle
ghleann
ghleanna
ghleanndamhnach
ghleannta
ghlo
ghloine
ghlu
ghluais
ghluaiseacht
ghluaiseachtai
ghluaiseann
ghluaisne
ghluaistea
ghna
ghnaoi
ghne
ghni
ghno
gho
ghobhainn
ghobharno
ghoid
ghoile
ghoill
ghoin
ghoirm
ghoirt
ghorm
ghorma
ghort
ghorta
ghortaigh
ghortu
ghost
ghosts
ghotach
ghra
ghradam
ghramadach
ghramadai
ghraonlainn
ghre
ghreamaigh
ghreann
ghri
ghrian
ghriancho
ghrianghrafado
ghrianghrafanna
ghrinn
ghrinneall
ghru
ghruaig
ghu
ghua
ghuail
ghuaire
ghuairim
ghuairne
ghualainn
ghuine
ghunna
ghuta
ghuth
ghutha
gi
giacomo
giall
gialla
gianni
giant
gibbons
gibson
gif
gift
gila
gilbert
gile
giles
gill
gilla
gillen
gilles
gillian
gilligan
gilmore
gin
gina
gine
gineadh
gineado
ginealach
ginealaigh
ginealais
ginealas
gineann
gineara
ginette
ginideach
giniu
ginmhilleadh
ginte
gintear
giobra
giofo
giolla
gion
giorgio
giorra
giorrai
giorraithe
giorria
giorru
giosta
giota
giovanni
giri
girl
girls
girona
giu
giulio
giuseppe
give
given
giving
gje
gla
glac
glacadh
glacado
glacann
glach
glactar
glactha
gladstone
gladys
glaigh
glan
glanadh
glao
glaoch
glaodh
glaoitear
glaonn
glaonna
glaotar
glas
glasa
glaschu
glasgow
glasrai
glass
gle
gleacai
gleann
gleannta
gleeson
glen
glenn
gleoite
glinne
glo
global
globe
gloine
gloini
gloria
glory
glossary
gloucester
gloucestershire
glover
glu
gluais
gluaiseacht
gluaiseachta
gluaiseachtai
gluaiseann
gluaisne
gluaisni
gluaistea
glund
gna
gnaoi
gne
gni
gno
gnu
go
goal
gob
goba
gobada
gobadh
gobharno
god
godard
goddess
godfrey
godot
gods
godwin
goebbels
goes
goethe
gofraid
gogan
gogarty
gogh
goid
goideadh
goidte
goile
goineadh
going
goirt
gol
gold
goldblatt
golden
goldsmith
goll
gomez
gondor
gone
gonna
gonne
gonta
gonza
good
goodbye
goodman
goods
goodwin
google
goose
gorbachev
gordon
gore
gorm
gorma
gormacha
gormaigh
gorman
gormlaith
gormley
gort
gorta
gortai
gortaithe
gortu
gortuithe
gossard
got
gotach
gothai
gottfried
gould
goulding
gov
governance
government
governor
goya
gra
grace
gradaim
gradam
gradh
grady
graeme
graf
grafach
grafaici
grafton
graham
grai
graifi
gram
gramadach
gramadai
gramado
gramadu
gramhnaigh
grammar
grammatical
grammy
gran
granada
grand
grande
grange
grant
granted
grants
graphic
grass
grattan
grave
graves
gray
gre
grealish
greamai
greamaithe
greamu
grean
greanadh
greanado
greann
greanna
greannmhar
greanta
great
greatest
greco
greek
green
greene
greenwich
greenwood
greg
gregor
gregory
greim
greta
grey
gri
grian
griana
griancho
grianghraf
grianghrafado
grianghrafanna
grianghraif
grianna
grianstad
griffin
griffith
grimm
grimshaw
grinn
grinneall
gro
grohl
groningen
grosse
grossman
grosso
ground
group
groups
grove
growth
gru
gruaig
gruaige
gruffudd
gruffydd
gslaiv
gslaive
gtar
gtha
gu
gua
guail
guailli
guaird
guaire
guairne
guairnea
gual
gualainn
guard
guardian
guatamala
gue
guerin
guernica
guerra
guerrero
guevara
guez
gui
guide
guidelines
guido
guildford
guillaume
guillermo
guine
guinness
guitar
gulag
guliolopez
gun
gunna
gunnado
gunnai
guns
gunther
gur
gurb
gurbh
guru
gus
gustaf
gustav
gustave
gustavo
guta
gutai
gutenberg
guth
gutha
guthaisteoir
guthaithe
guthanna
guthrie
guy
gwen
gwent
gwynedd
gwynn
h
ha
habe
haber
habhaic
habhainn
habhann
habsburg
haca
hacht
hackney
hacmhainni
had
hadaimh
hadamh
hadharca
hadhlacadh
hadro
haeckel
haemaglo
haemaifilia
haer
haera
haeto
hafez
hafganasta
hafraice
hagan
haghaidh
hago
hahn
hai
haibhneacha
haibi
haice
haicme
haicmi
haidiachta
haige
hailge
haili
haille
haillte
hailse
hailt
hailtireachta
haimsire
hainde
hainm
hainmfhocail
hainmhithe
hainmneacha
hainmni
hainmniu
hair
hairde
haire
haired
hairgead
hairginti
hairi
hairici
hairm
hairme
hairteagal
hais
haise
haisteoiri
haisti
haistri
haistriu
haithint
haithne
haithni
hal
halaigine
halaigini
halba
halbaim
halbain
halbam
halban
halbanaigh
halca
halco
hale
haley
half
halifax
hall
halla
hallai
halldo
halle
halloran
halpa
halt
ham
hamaso
hamburg
hamha
hamharclannai
hamhra
hamilton
hamlets
hammersmith
hammond
hampshire
hampstead
hampton
han
hana
hanaili
hancock
hand
handbook
hands
hangla
hank
hanlon
hanna
hannah
hannamh
hannigan
hannover
hanover
hans
hantashubstainti
haodh
haodha
haoine
haois
haoise
haoiseanna
haon
haonaid
haonar
haontachto
hap
happen
happy
hara
harabaigh
harago
haraibe
haraibise
harald
harbor
harbour
harcourt
hard
harda
hardiman
hardin
harding
hardteistime
hardy
hare
haringey
harm
harma
harmony
harold
harp
harper
harriet
harrington
harris
harrison
harrow
harry
hart
hartairi
harte
hartford
hartley
hartman
harvard
harvey
has
hasarbaisea
hassan
hastings
hastra
hat
hata
hathair
hathar
hathbheochana
hathro
hathru
hathruithe
hathu
hava
havana
have
havel
haven
havering
having
hawking
hawkins
hay
hayden
hayek
hayes
hayley
hazel
hbo
hcl
hd
he
heabhraise
heachtra
heachtrai
heacnamai
head
heads
heagartho
heaghra
heagla
heaglais
heaglaise
heaglaisi
heagnai
heagra
heagrai
healai
health
healy
heaney
hear
hearadh
heard
hearna
hearo
hearrai
heart
hearts
heasnacha
heaspa
heaspaig
heasta
heasto
heath
heather
heaton
heaven
heck
hector
heffernan
hegel
heicseaga
heictea
heidelberg
heidhin
heights
heilbh
heiliminti
heille
heilsinci
heilve
heinemann
heinlein
heinrich
heinsi
heinz
heipeaso
heipiti
heirseagaive
heisenberg
heite
heithir
heitlea
held
helen
helena
helium
hell
hello
helmut
help
helsinki
hemingway
hen
henderson
hendrik
hendrix
hennessy
henri
henrietta
henrik
henry
heochaidh
heoghan
heoghanachta
heol
heolai
heolaithe
heolas
heoleolai
heoleolaithe
heoraifi
heorpa
heorpach
heorpaigh
hepburn
her
herald
herbert
here
herefordshire
heritage
herman
hermann
hermione
herna
hero
heroes
heroic
herschel
hertfordshire
hertz
herzog
hess
hesse
het
heuston
hewitt
hey
heym
hf
hg
hi
hiad
hiain
hiar
hiara
hiarann
hiarannaoise
hiarla
hiarmhairti
hiarmhi
hiarnro
hiarracht
hiarrachtai
hiarrtho
hiarsmai
hiasachtai
hibe
hibernia
hiberniae
hibernica
hibrideach
hichilema
hickey
hicks
hidalgo
hidden
hide
hidirghni
hidirna
hidreacarbo
hidreaclo
hidrigin
hidrigine
higgins
higgs
high
higher
highland
highway
hilchri
hill
hillary
hillingdon
hills
hillsborough
him
himeacht
himeachtai
himile
himirce
himirt
himmler
himoibrithe
himpire
himpireacht
himpireachta
himreoiri
himself
himtharraingthe
hinchinne
hincigh
hindenburg
hindi
hindia
hindiacha
hindiaigh
hindine
hindu
hingearach
hini
hinimircigh
hinnealto
hinnill
hinniu
hinscri
hinse
hinstitiu
hintleachto
hioda
hiodra
hiodrocsai
hioma
hiomaitheoiri
hiomla
hiompar
hionad
hionaid
hionann
hiondu
hionsai
hionsaithe
hionsaitheoiri
hiontach
hiorda
hiorua
hip
hipearbo
hipite
hiram
hirise
hiriseoiri
hirisi
hiroshima
his
hiseato
histoire
historia
historic
historical
histories
history
hit
hitchcock
hithreach
hitler
hits
hiu
hl
hler
hm
hms
ho
hobad
hobair
hoban
hobart
hobson
hoche
hocht
hochto
hochtu
hocras
hocsai
hocsaigin
hodges
hodgkin
hoffman
hoffmann
hogan
hogwarts
hoi
hoibre
hoibreacha
hoibri
hoibrithe
hoidhreacht
hoifige
hoifigigh
hoifigiu
hoilea
hoiliu
hola
holc
hold
holden
holding
hole
holiday
hollainne
hollainnise
holland
hollande
hollannaigh
hollchruinne
holloway
hollphle
hollscoil
hollscoile
hollscoileanna
holly
hollywood
holmes
holstein
holt
holy
homafo
homaighne
home
homer
homme
homo
hondu
honey
hong
hono
honor
honore
honorius
honour
honshu
hood
hook
hooke
hoover
hop
hope
hopkins
hopper
hora
horan
horatio
hord
horduithe
horga
horgan
horizon
hormo
horn
horror
horse
horst
hoscailte
hosclai
hospide
hospital
hosrai
host
hostaire
hosted
hot
hotama
hotel
hothair
hotspur
houdini
houghton
houlihan
hounslow
hour
hours
house
houses
housing
houston
houtman
how
howard
howe
however
hr
hrer
htm
html
http
https
hu
hua
huacht
huachtara
huair
huaire
huaisle
huathoibri
hubbard
hubble
hubert
hudson
huget
hugh
hughes
hugo
hui
huibheacha
huidhre
huidre
huigi
huiginn
huile
huillinne
huimhir
huimhreacha
huirlisi
huisce
huisci
hulaid
hulaidh
hull
human
humbert
humboldt
hume
humphrey
humphreys
hundred
hunga
hunger
hunt
hunter
hurley
hurt
hussein
husserl
hussey
hutchinson
hutton
huxley
huygens
hy
hybrid
hyde
hywel
hz
i
ia
iachall
iad
iadsan
iaidi
iain
iallach
ialto
iama
ian
ianach
ianacha
ianu
iar
iara
iarainn
iarann
iarannaois
iarbha
iarbhall
iarbhi
iarche
iarcheannaire
iarchogaidh
iarchoili
iardheisceart
iargu
iarimreoir
iarla
iarlacht
iarlai
iarmhairt
iarmhairti
iarmhi
iarmhic
iarno
iarnro
iaro
iarpheileado
iarr
iarracht
iarrachtai
iarradh
iarraidh
iarrann
iarratais
iarratas
iarrtar
iarrtho
iarshaighdiu
iarsma
iarsmai
iarsmalann
iarthair
iarthar
iartharach
iartharacha
iarthuaisceart
iarthuaiscirt
iaru
iaruachtara
ias
iasacht
iasachta
iasachtai
iasc
iascaigh
iascaire
iascaireacht
iascaireachta
iascairi
iata
iau
ib
ibe
ibeacha
ibf
ibh
ibhe
ibheann
ibhi
ibhille
ibhinn
ibhte
ibhtine
ibhtiu
ibi
ibid
ibin
ibis
ible
ibm
ibn
ibsen
ic
ice
iceacho
iceadh
iceasta
iceo
iceolai
ich
iche
ichi
ichiro
ichiu
ici
icia
icivi
icle
icli
iclipteach
icon
icri
ics
id
ida
idaho
idbhaile
idbhailte
idbhealach
ide
idea
ideach
ideacha
ideachas
ideacht
ideachta
ideadh
ideann
ideanna
ideartha
idearthacht
ideas
identity
ideo
ideoir
ideoiri
ideonna
ideora
idh
idhe
idheal
idhealaibh
idhealtachd
idhlig
idi
idiam
idigh
idin
idir
idirbheartai
idirchontae
idirdheala
idirdhealaithe
idirdhealu
idire
idirghabha
idirghni
idiri
idirli
idirmhea
idirna
idirthre
idis
idithe
idiu
idol
idre
idsi
idte
idtear
idti
ie
if
ife
ifeach
ifeacht
ifeachta
ifeachtach
ifeachtai
ifeachtu
ifi
ifne
ifreann
ig
ige
igeach
igeacha
igeadh
igean
igeanda
igeanna
igeantach
igear
igeartaigh
igh
ighe
igheanna
igi
igigh
igin
iginnte
iginnteacht
iginnteachta
igipt
igipte
igipteach
igipteacha
igiptigh
igir
igis
igise
igiu
igneach
igniu
igor
igri
igse
igthe
ihe
ihr
ihrer
ii
iii
ike
il
ila
ilbhliantu
ilce
ilcheallacha
ilcheantair
ilcheantar
ilchinea
ilchri
ilchultu
ilci
ildaite
ile
ilea
ileaca
ileach
ileacha
ileachair
ileadh
ileamh
ilean
ileann
ileanna
ileog
ileoga
ilford
ilghne
ili
ilia
iliam
ilici
iligh
ilim
ilimh
ilimreoiri
ilin
ilio
iliomad
ilipseach
ilire
ilis
ilise
iliteach
ilithe
ilitheoir
iliu
ill
ille
illeabha
illeach
illeacht
illeachta
illeadh
illeann
illi
illinois
illithe
illiu
illsine
illsinigh
illustrate
illustrated
ilmhea
ilna
ilsto
ilt
ilte
ilteacht
ilteachta
ilteangach
iltear
ilti
iltigh
iltiu
ilu
im
image
images
imbhuaileann
imbhuailte
imbhuailti
imbhualadh
imchlu
imchoimea
imchuach
imdb
imdhi
ime
imeach
imeacht
imeachta
imeachtai
imeaglu
imeagrafaic
imeall
imeanna
imeannach
imeannaigh
imeantach
imeartha
imeas
imelda
imeolai
imh
imhe
imheas
imhi
imhiotail
imhiotal
imhiu
imhse
imhsea
imhseach
imhseacha
imhsi
imhsithe
imhsiu
imi
imiam
imid
imigh
imill
imin
imint
iminteam
iminti
imir
imirce
imirceach
imircigh
imire
imirt
imis
imithe
imiu
iml
imleabhair
imleabhar
imleach
imli
immram
imneach
imni
imnithe
imniu
imoibrea
imoibreoir
imoibri
imoibrithe
imoibriu
impact
imperial
impi
impigh
impire
impireacht
impireachta
impireachtai
impiri
impiriu
impleacht
importance
important
impossible
improve
improved
improvements
improving
imreoir
imreoiri
imri
imrothlu
imscru
imse
imseata
imshruthaithe
imshruthu
imshui
imsi
imtharraingt
imtharraingteach
imtharraingthe
imtheorannu
imthoscai
in
ina
inaistrithe
inaitheanta
inar
inbharu
inbhe
inbhear
inbhir
inbhuanaithe
inc
inca
incha
incheaptha
inchinn
inchinne
inchomo
inchreidte
inchri
inchurtha
include
includes
including
ind
inde
independence
independent
index
indi
india
indiach
indiacha
indiaigh
indian
indiana
indianapolis
indibhidiu
indie
indine
individual
indli
indo
indreabha
indreachtach
industrial
industry
ine
ineach
ineacha
ineachas
ineacht
ineadh
ineann
ineas
ineasa
inen
ineolai
infheicthe
infheisti
infheistiu
infinideach
influence
info
infobox
information
infreastruchtu
infridhearg
infringement
ing
inge
ingearach
ingearacha
ingeborg
ingen
inghlactha
inghluaiste
inglis
inglot
ingne
ingrid
ini
inia
iniam
inice
inig
inigh
inimirce
inimirceach
inimircigh
iniompartha
inis
inise
inite
initeach
initeacha
initi
initiative
initic
iniu
inla
inle
inlia
inliacht
inliachta
inlianna
inmharaithe
inmharthana
inmharu
inmhe
inmhea
inn
inne
innea
inneach
inneacha
inneall
innealra
innealto
inni
innigh
innill
innis
innise
innithe
inniu
inniubh
innocentius
ino
input
inri
inriail
inrialaithe
inrialaitheach
inrialaitheacha
inrialtais
inrialtas
ins
insan
inscne
inscri
inse
inseach
inseal
insealbhai
insealbhaithe
insealbhu
insert
insi
inside
insil
insint
insiu
inslin
inspiora
instagram
instance
inste
instead
instealladh
institiu
institut
institute
instructions
insurance
int
inte
intea
inteach
inteacha
inteachas
intear
intelligence
inteoir
inteoireacht
inteoireachta
inteoiri
inteora
inter
interest
interested
interface
international
internationale
internazionale
internet
interview
interwiki
inti
intinn
intinne
intiu
intleacht
intleachta
intleachto
intleachtu
into
introduction
intuaslagtha
intuigthe
inu
inveirteabraigh
investigation
investigations
invi
invisible
invite
invited
involved
io
iocht
ioda
iogna
iolair
iolar
iolra
iolrach
iolrai
iolru
ioma
iomadu
iomai
iomaire
iomaitheoir
iomaitheoiri
iomann
iomarca
iomarcach
iomla
iommi
iompai
iompaigh
iompair
iompairc
iompaithe
iompar
iompartha
iompo
iomprai
iompro
iompu
iomra
iomrall
iomramh
iomrasca
iona
ionad
ionadach
ionadai
ionadaithe
ionadh
ionaid
ionana
ionann
ionannai
ionas
ioncaim
ioncam
ioncho
ionchu
ionchuir
ionchur
iondu
ionfhabhtai
ionfhabhtaithe
ionfhabhtu
ionfhabhtuithe
ionghabha
ionradh
ionrai
ionraic
ionraidh
ionramha
ionro
ionsai
ionsaigh
ionsaithe
ionsaitheach
ionsaitheoir
ionsaitheoiri
ionstraim
ionstraimi
ionsu
iontach
iontacha
iontais
iontaise
iontaisi
iontaisithe
iontaobhas
iontaofa
iontas
iontra
iontu
ionu
iora
iorda
iorrais
iorras
iorua
ioruach
ioruacha
ioruais
ioslaim
ioslam
ioslamach
ioslamacha
iosrael
iosraelach
iosraelacha
iostanbu
iowa
ip
ipa
ipcheart
ipchirt
ipe
ipea
ipeanna
ipli
ipswich
ir
ira
irb
irc
irce
ircea
irceanna
ird
irde
ire
irea
ireach
ireacha
ireacht
ireachta
ireachtai
ireamh
ireamho
ireann
ireanna
ireannach
ireannacha
ireannaigh
ireas
ireland
irene
ireodh
ireoidh
ireolai
irg
irge
irgeach
irgeacht
irgeadh
irgeann
irgeoir
irgeoiri
irgi
irgiu
irgtear
irgthe
iri
iriam
iric
irigh
irim
irimh
irimiu
irine
irinn
iris
irische
irischen
irise
iriseoir
iriseoireacht
iriseoireachta
iriseoiri
irish
irishtimes
irisi
irisleabhar
irithe
iritheoir
iritheoiri
irithinte
iriu
irlande
irling
irmhe
irmheas
irmheasanna
irmheasto
irmhi
irne
iron
irons
irscrios
irse
irsea
irseach
irseacha
irseoir
irsi
irsigh
irsint
irsithe
irsiu
irt
irtaimseartha
irte
irteach
irteacha
irteachas
irteagail
irteanna
irti
irtithe
irtiu
irvine
irving
irwin
is
isa
isaac
isabel
isabella
isabelle
isbe
isbn
isc
isce
isceadh
isci
isclim
ise
isea
iseach
iseacha
iseacht
iseamh
isean
iseanna
iseanta
isear
isearach
isearacha
iseas
iseato
iseoir
iseult
isi
isialach
isialacha
isialachais
isialachas
isialai
isialaigh
isialaithe
isialta
isiam
isigh
isime
isimh
isin
ising
isir
isis
isise
isithe
isitheoir
isiu
island
islands
isle
isles
islig
islington
isn
iso
isola
ispi
israel
issn
issue
issues
ist
iste
isteach
isteacht
isteachta
isteachtai
isteanna
isteoir
isti
istigh
istine
istineach
istir
istiu
istoi
istrea
istreacht
istreachta
istri
istria
isu
it
italia
italian
italiana
ite
itea
iteach
iteacha
iteamh
iteanna
itear
iteas
item
iteoir
ith
ithchinea
ithe
itheach
itheacha
itheadh
itheann
itheanna
itheoir
itheoireacht
itheoireachta
itheoiri
itheora
ithi
ithir
ithithe
ithni
ithre
ithrea
ithreach
ithreacha
ithreachais
ithreachas
ithreacht
ithreoir
ithreoiri
ithri
ithrid
ithrithe
ithriu
iti
itia
itiam
itic
itigh
itile
itimh
itinn
itinnigh
itis
itithe
itiu
itne
itreabh
itri
itribh
itrithe
itritheoir
itritheoiri
its
itse
itsea
itseach
itself
itsi
itsigh
itsis
itunes
itv
iu
iucn
iupac
iv
iva
ivan
ive
iveach
ivi
ivid
ivigh
ix
ixobrychus
j
ja
jab
jabanna
jaborosa
jack
jackie
jackson
jacob
jacobs
jacqueline
jacques
jagadguru
jagger
jaime
jake
jakob
jam
james
jameson
jamie
jan
jane
janeiro
janet
janice
janis
january
japan
japanese
jar
jarmusch
jason
jasper
javier
jawaharlal
jay
jayne
jazeera
jazz
je
jean
jeane
jeanne
jeff
jefferson
jeffrey
jeffries
jena
jenkins
jenkinson
jenner
jennifer
jennings
jenny
jens
jeremiah
jeremy
jerome
jerry
jersey
jerusalem
jess
jesse
jessica
jessie
jesus
jewel
jewish
ji
jihad
jill
jim
jimi
jimmy
jinnah
jj
jo
joa
joachim
joan
joanna
joanne
job
jobs
joe
joel
joey
johan
johann
johanna
johannes
johannesburg
john
johnny
johns
johnson
johnston
johr
join
jon
jonas
jonathan
jones
jong
joplin
jordan
jorge
jose
josef
josep
joseph
josephine
josh
joshua
josie
joss
journal
journals
journey
joy
joyce
joynt
jpeg
jpg
jr
jstor
ju
juan
jubainville
jude
judge
judith
judy
juho
jules
julia
julian
julie
julien
juliet
julio
julius
july
jump
jun
junction
june
juneau
jung
junior
jury
just
justice
justin
juventus
k
ka
kafka
kahlo
kai
kaiser
kaj
kaladin
kalevala
kamchatka
kamen
kampf
kan
kane
kansas
kant
kanye
karen
karin
karl
karla
karoli
kasparov
kassila
kate
kategori
kategorie
kategorija
katharina
katharine
katherine
kathleen
kathryn
kathy
katie
katniss
katri
katrina
katy
kavanagh
kay
kazan
kb
kc
kd
ke
keane
kearney
keating
keefe
keeffe
keegan
keenan
keep
keilidh
keith
kekkonen
kelleher
kelley
kelly
kelten
keltische
keltischen
kemal
kemper
ken
kenai
kendall
kennedy
kennelly
kenneth
kennings
kenny
kensington
kent
kentucky
keogh
kepler
kerensky
kernewek
kerouac
kerr
kerrill
kerry
kershaw
kettle
kevin
kew
key
keynes
keys
keyser
kf
kg
kgb
kh
khan
kherson
kho
khrushchev
ki
kian
kicks
kid
kids
kiel
kiely
kieran
kilburn
kildare
kilkenny
kill
killed
killer
kim
kind
king
kingdom
kings
kingship
kingston
kinsella
kipling
kirby
kirk
kiss
kit
kitchener
kitty
kivi
kkk
klan
klaus
klein
klerk
klux
km
knesset
knew
knight
knights
knott
know
knowledge
knowles
known
knows
knox
ko
koch
kodiak
kohl
kolbe
kong
konrad
konstantin
korean
kornilov
kripaluji
kro
ku
kuiper
kullervo
kultur
kumar
kuno
kurosawa
kursk
kurt
kv
kwarteng
kyi
kyle
kylie
kyoto
l
la
label
labhaidh
labhair
labhairt
labhartha
labhra
labhrai
labhrais
labor
labour
labradar
labraid
lacaille
lacan
lach
lacha
lachais
lachas
lacht
lachta
lachtai
lachtna
lacy
ladar
laden
ladh
ladies
ladt
lady
lae
laethanta
laethu
lafayette
lag
laga
lagaithe
lagar
lagen
laghad
laghairt
laghdai
laghdaigh
laghdaithe
laghdu
lagu
lahore
lai
laibhe
laid
laidhe
laidin
laidine
laidineach
laidineacha
laige
laigean
laigh
laighean
laighin
laighneach
laigi
laigin
laing
lainn
lainsea
lais
laisteas
laisti
laistiar
laistigh
laite
laithe
laiti
laitvia
lake
lalor
lamar
lamb
lambert
lambeth
lament
lamha
lamhna
lampa
lampai
lan
lanca
lancashire
lancaster
lance
land
lander
lands
landscape
lane
lang
lange
langley
language
languages
langue
lann
lanna
lannraig
lansa
lansdu
lantano
lao
laoch
laochais
laochra
laoghaire
laoi
laoich
laoire
laois
laoise
laoiseach
laoithe
laomainn
laos
lapairi
laplace
larbha
larbhai
large
laridae
larkin
larry
lars
larsson
larus
las
lasadh
lasair
lascadh
lasmuigh
lasrach
lasracha
last
lasta
lastas
lastoir
lastuaidh
lata
late
later
latest
latharna
latin
latina
laud
lauderdale
laura
laurel
lauren
laurence
laurent
laurie
lavery
lavoisier
law
lawless
lawlor
lawrence
laws
lawson
lay
lazio
lch
lchiste
ld
le
lea
leaba
leabaithe
leabhair
leabhar
leabharlainne
leabharlann
leabharlanna
leabharlannai
leabharliosta
leabhra
leac
leaca
leacain
leacaithe
leach
leacha
leacht
leachta
leachtach
leachtanna
lead
leader
leadh
leado
leadra
leag
leagadh
leagain
leagan
leaganacha
leagann
leagtar
leagtha
league
leahy
leam
leamhain
leamhan
leamhca
lean
leanadh
leanai
leanann
leanas
leanbh
leanfadh
leanfaidh
leann
leanna
leanta
leantach
leantar
leanto
leanu
leapa
leapacha
leapto
lear
learn
learned
learning
learphoill
learpholl
leary
leas
leasa
leasai
leasainm
leasainmneacha
leasaithe
leasaitheoir
leasanna
leasc
leasdeartha
leasri
least
leasu
leasuachtara
leasuithe
leat
leata
leatach
leataigh
leataobh
leath
leatha
leathadh
leathair
leathan
leathana
leathanach
leathanaigh
leathann
leathar
leathche
leathcheannais
leathchu
leathfhada
leathmhilliu
leathnai
leathnaigh
leathnaithe
leathno
leathnu
leathre
leathru
leathsfe
leathsheolto
leathuair
leatrom
leave
leaves
leben
leblanc
lebor
lech
leclerc
lecture
lectures
led
ledger
lee
leeds
left
legacy
legal
legend
legends
lego
legs
lei
leibhe
leibniz
leice
leicester
leicestershire
leictreach
leictreacha
leictreachais
leictreachas
leictreamaighne
leictreoid
leictreoidi
leictreoin
leictreon
leictreonach
leictreonacha
leictreonaic
leictreonaice
leictreondi
leictreonghabha
leictridhiu
leictrigh
leid
leideanna
leiden
leifteanant
leigh
leigheas
leighin
leighis
leini
leinster
leipreacha
leipzig
leis
leisean
leith
leithcheal
leithcheathru
leithdha
leithe
leithead
leitheadu
leithid
leithinis
leithligh
leithne
leithreas
leithris
leithsce
leitir
lemass
lemmy
len
lena
lenape
lenar
lenihan
lenin
leningrad
lennon
lenny
leo
leochaileach
leoice
leoin
leoir
leon
leonard
leonardo
leone
leonid
leopold
leor
leorai
leordho
leosan
lepidoptera
lermontov
leroy
les
leslie
less
lessons
lester
let
letter
letters
lev
level
levi
levy
lewis
lewisham
lex
lexikon
lexington
leyrac
lez
lfaidh
lfea
lge
lgh
li
lia
liag
liam
liamhna
liammo
lianna
liath
liatha
liathro
liatroim
liatroma
libe
liber
liberty
libh
libia
library
libre
libro
license
lichtinste
lici
liddell
lie
lies
lieutenant
life
lig
liga
ligeadh
ligean
ligeann
ligfeadh
ligh
light
lightning
lights
ligtear
ligthe
like
likely
lille
lillian
lily
lim
lima
limerick
limestone
limfeach
limfici
limiste
limited
lin
linbh
lincoln
lincolnshire
linda
lindisfarne
lindsay
line
lines
lingua
linguistic
linguistics
lingus
link
linked
links
linn
linna
linnaeus
linne
linnte
linus
linux
lioba
liobra
liom
liomfo
liomsa
lion
lionel
lions
lionsa
lionsai
liopa
liopach
liopai
lios
liospo
liosta
liostai
liostaithe
liotu
liotua
lipe
lipidi
lir
lire
lirici
liriciu
lis
lisa
lise
lisi
lismore
list
listed
lists
liszt
lit
liteartha
literary
literature
lithe
litiam
litir
litisfe
litreach
litreacha
litreoir
litri
litrithe
litriu
little
liu
live
liverpool
lives
livias
living
livingston
livingstone
lix
liz
liza
lizzy
ll
lla
lleach
ller
lloyd
lly
llywelyn
lm
ln
lo
loach
loades
lobha
lobhadh
local
located
location
loch
locha
lochanna
lochlainn
lochlainnis
lochlann
lochlannach
lochlannacha
lochlannaigh
locht
lochta
lochtach
lochtaigh
lochtu
lock
locke
lodainn
lodair
lodge
lofa
log
loga
logainm
logainmneacha
logainmni
logan
logged
logo
logtha
loi
loighce
loighciu
loighic
loinge
loingea
loingeas
loingseach
loingsech
loingseoir
loingseoireacht
loingseoireachta
loingsigh
loinn
loinnir
loire
loirg
loit
loitime
lola
lom
loma
lomnocht
lon
londain
londan
london
londraigh
lonely
long
longa
longbhriste
longchea
longer
longfoirt
longfort
longman
lonnai
lonnaigh
lonnaithe
lonnaitheoiri
lonnu
lonrach
lonrachas
lonru
look
looking
loose
lopez
lorca
lord
lore
lorenzo
loreto
lorg
lorgan
lorraine
los
loscadh
lose
lost
lot
lothair
lothar
lotnaidi
lou
loud
lough
loughlin
louhi
louis
louisa
louise
louisiana
louisville
lourdes
louth
louvre
lovato
love
lovecraft
lovell
lover
loves
loving
low
lowe
lowell
lower
lowry
lp
lra
ls
lse
lseacht
lseachta
lseoiri
lt
lta
ltaca
ltach
ltacha
ltacht
ltachta
ltai
ltaigh
ltais
ltar
ltas
ltd
lte
ltear
lth
lto
ltu
lu
lua
luach
luacha
luachanna
luachmhar
luachmhara
luachra
luadh
luaidhe
luaigh
luain
luaini
luais
luaite
luaitear
luaith
luaithe
luaithrigh
luamh
luamha
luan
luann
luas
luascada
luascadh
luasghe
luath
luatha
luathbhlianta
luathshaol
luathstair
luc
lucas
luch
lucha
lucho
lucht
luchta
luchtaithe
luchtanna
luchtu
lucia
luciano
lucie
lucius
luckner
lucky
lucsamburg
lucy
ludendorff
ludvig
ludwig
luftwaffe
lugaid
lugano
lugh
lugha
lughaidh
lui
luibh
luibheanna
luibheolai
luibheolaithe
luigh
luigi
luimneach
luimnigh
luineacha
luis
luiteamas
luiz
luke
lula
luna
lunny
lus
lusitania
lussac
luther
luxemburg
lv
lydia
lydon
lynch
lyndon
lynn
lynne
lynott
lyon
lyons
lyrics
lysaght
m
ma
maastricht
mabel
mabinogi
mac
maca
macado
macalister
macalla
macasamhail
macau
macbride
maccarthy
maccotter
macdermot
macdonald
macgill
mach
macha
machaire
machairi
machine
machnaimh
machnamh
mackenzie
mackillop
maclean
macleod
macmillan
macneill
macneille
macon
macpherson
macron
mad
madadh
madadha
madagascar
madame
madden
maddens
maddrell
made
madeleine
madison
mado
madog
madonna
madra
madrai
madrid
mae
mael
maenmar
mafia
mag
magadh
magaidh
magairli
magazine
magdeburg
magellan
maggie
magh
magic
magma
magna
magnus
maguire
maharaj
mahatma
maher
mahon
mahony
mai
maic
maide
maidhc
maidhm
maidi
maidin
maidine
maidir
maidrid
maier
maifia
maige
maigh
maighdean
maighdine
maighe
maighne
maighre
maigne
mail
maili
mailing
maille
main
maine
mainici
mainis
mainistir
mainistreach
mainistreacha
maintli
mainz
mair
mairbh
maire
maireachta
maireachtaint
maireann
mairfeadh
mairfidh
mairi
mairne
mairti
mairtine
mais
maisc
maise
maiseanna
maisi
maisithe
maisitheoir
maisiu
maison
maith
maithe
maitheasa
maithiu
maitiu
maitri
major
make
makem
makes
making
mal
mala
malaeisia
malairt
malairte
malarta
malartach
malartacha
malartai
malartaithe
malartu
malcolm
male
mall
mallacht
malley
mallon
mallorca
mallory
malmo
malone
maltese
mama
mamach
mamaigh
man
mana
manach
management
manager
manaigh
manaim
manainn
manainnis
manainnise
manam
mananna
mancha
manchain
manchester
manchu
mandairi
mandela
manga
mangaine
manhattan
manitoba
manley
mann
mannerheim
mannin
manning
mannion
mannix
manor
manson
manual
manuel
manuscript
manuscripts
manx
many
mao
maoil
maoile
maoileoin
maoili
maoin
maoine
maoinithe
maoiniu
maoirseacht
maois
maol
maola
maolai
maolchatha
maolchonaire
maolu
maonais
maonlai
maor
maoracht
maorachtai
maos
maotha
maothail
map
mapa
maps
maqi
mar
mara
maraco
maradona
marai
maraithe
marana
maraon
marascal
marato
marbh
marbha
marbhadh
marc
marca
marcach
marcai
marcaigh
marcanna
marcas
marcel
march
marche
marcmhea
marco
marconi
marcos
marcra
marcshlua
marcus
mare
maredudd
marfach
marfo
margadh
margai
margaidh
margaret
margarita
marge
marguerite
mari
maria
marian
mariano
maricopa
marie
marilyn
marin
marina
marine
mariner
marino
mario
marion
marita
maritime
marius
marjorie
mark
market
markievicz
markiewicz
marks
marlene
marley
marlo
marlon
marne
maro
marriage
married
mars
marsden
marseille
marsh
marshal
marshall
mart
marta
martha
marthain
marti
martin
martina
martino
marty
martyn
maru
marvel
marvin
marx
marxach
marxachas
mary
maryjones
maryland
mas
masc
maso
mason
mass
massachusetts
massacre
master
masters
mata
matach
matagrafai
matamaitic
matamaitice
matamaiticeoir
matamaiticeoiri
matamaiticiu
match
mate
mater
material
materials
math
matha
mathbb
mathbf
mathematics
mathews
mathrm
mathu
matilda
mato
matt
matteo
matter
matters
matthew
matthews
matthias
matti
mattie
matu
mau
maud
maude
maura
maureen
maurice
maurizio
max
maxim
maximilian
maximus
maxwell
may
maya
maybe
mayer
mayo
mayor
mb
mba
mbabhta
mbabhtai
mbagairt
mbaicte
mbaile
mbailiu
mbaill
mbailte
mbaineann
mbainfeadh
mbainfi
mbainisteoir
mbaint
mbaintear
mbalca
mball
mballa
mballsta
mban
mbanc
mbanna
mbannai
mbanri
mbaol
mbarcelona
mbardas
mbarr
mbarra
mbaru
mbascach
mbe
mbeadh
mbeaga
mbeagnach
mbealach
mbealtaine
mbean
mbeatha
mbeidh
mbeidi
mbeilg
mbeirli
mbeirt
mbeirteanna
mbi
mbia
mbille
mbinn
mbinse
mbirmingham
mbla
mbliain
mbliana
mblianta
mbo
mbocht
mbochtaineacht
mboilse
mbonn
mbord
mbosca
mbostu
mbox
mbra
mbradford
mbraighdeanas
mbraitheann
mbrasai
mbratach
mbre
mbreatain
mbreatnach
mbreatnais
mbreis
mbreithiu
mbri
mbriathar
mbriosto
mbriota
mbriotanach
mbro
mbrooklyn
mbru
mbruach
mbruachbhaile
mbu
mbua
mbuachaill
mbuachailli
mbuaileann
mbuama
mbui
mbuirg
mbuiri
mbun
mbundu
mbuno
mbunreacht
mbunscoil
mbunu
mc
mcaliskey
mcallister
mccabe
mccann
mccarthy
mccartney
mccarty
mccormack
mccormick
mccourt
mccoy
mccracken
mccready
mcdermott
mcdonald
mcdonnell
mcfadden
mcgee
mcgovern
mcgowan
mcgrath
mcgraw
mcgregor
mcguigan
mcguinness
mchattie
mchugh
mckee
mckenna
mckenzie
mckinnon
mclaren
mclean
mcloughlin
mcmahon
mcmanus
mcmorrow
mcnamara
mcneill
mcnulty
me
mea
meabhair
meabhar
meabhrach
meachair
mead
meafar
meagher
meaisi
meala
meall
mealla
mealladh
meallann
mean
meaning
meanman
means
meanta
mear
mearbhall
mearbhia
mearcair
mearsheimer
meas
measa
measadh
measann
measartha
measc
measca
meascadh
meascann
meascra
measctar
measctha
measta
meastacha
meastar
measu
meata
meath
meatha
meathlu
med
medal
medb
media
mediaeval
mediawiki
medical
medici
medicine
medieval
medina
medium
medvedev
meehan
meet
meeting
meetings
meg
megan
mei
meic
meice
meicni
meicnic
meicnice
meicniu
meicsiceach
meicsiceo
mein
meinhof
meiningi
meiricea
meirleach
meisce
meite
meith
meitheal
meitheamh
meithimh
meitibileacht
meitreo
mel
melanie
melbourne
melcher
melissa
melkor
melvin
member
members
memoir
memoirs
memorial
memories
memory
memphis
men
mendel
mendoza
menn
meno
menu
menzies
meon
mer
mercedes
mercer
merchant
mercier
mercury
mercy
mermaid
merops
merriman
merry
merthyr
merton
mes
mesa
mesca
message
messages
met
meta
meteor
method
metrical
metro
metropolitan
mexico
meyer
mf
mg
mh
mha
mhac
mhaca
mhacado
mhacasamhail
mhach
mhacha
mhachadh
mhachaire
mhachnamh
mhachtain
mhachtaini
mhadra
mhadrai
mhagh
mhai
mhaibh
mhaide
mhaidin
mhaidrid
mhaifia
mhaigh
mhaighdean
mhaighne
mhaighneann
mhaine
mhainistir
mhainni
mhaintli
mhair
mhairbh
mhaireachta
mhaireann
mhairfeadh
mhairne
mhairti
mhais
mhaisigh
mhaisithe
mhaisiu
mhaith
mhaithe
mhala
mhalaeisia
mhalairt
mhalartai
mhalartu
mhall
mhanach
mhanainn
mhanainnis
mhanann
mhananna
mhanchain
mhanchu
mhann
mhanson
mhanta
mhaoil
mhaoili
mhaoin
mhaoiniu
mhaol
mhaola
mhaolaigh
mhaolu
mhaonaigh
mhaor
mhaotha
mhapa
mhar
mhara
mharaco
mharai
mharaigh
mharato
mharbh
mharbha
mharbhadh
mharca
mharcaigh
mharcais
mhargadh
mhargai
mhargaidh
mharilyn
mharlach
mharlaigh
mharo
mhars
mharsa
mharu
mhas
mhata
mhatamaitic
mhatamaiticiu
mhatha
mhathu
mhe
mhea
mheabhair
mheabhrach
mheaisi
mheall
mhealladh
mheallann
mhearcair
mheas
mheasa
mheasann
mheasartha
mheasc
mheasca
mheascadh
mheasctha
mheastacha
mheastar
mheasu
mheath
mheatha
mheicni
mheicnic
mheicniu
mheicsiceo
mheiricea
mheitheamh
mheithimh
mheitreo
mhelbourne
mheon
mhi
mhian
mhianado
mhianaigh
mhic
mhichi
mhicreasco
mhill
mhillea
mhilleadh
mhilliu
mhillteanach
mhinic
mhinici
mhinistir
mhion
mhionlaigh
mhionn
mhiotail
mhiotal
mhiotas
mhiotaseolai
mhisean
mhisine
mhisneach
mhiste
mhleabhar
mhna
mhnaill
mhnall
mho
mhodh
mhodhanna
mhogha
mhoill
mhoilliu
mhoire
mhoireibh
mhol
mholadh
mholann
mholdo
mholtai
mholto
mhonarc
mhonarcacht
mhonarcha
mhongo
mhora
mhosco
mhoslamach
mhothaigh
mhothair
mhothu
mhscri
mhu
mhuaidhe
mhuc
mhuileann
mhuilinn
mhuine
mhuinea
mhuineacha
mhuini
mhuinseo
mhuintir
mhuintire
mhuir
mhuircheartaigh
mhuire
mhuireadhaigh
mhuirfean
mhuiri
mhuiris
mhuirthead
mhullach
mhullaigh
mhumhain
mhumhan
mhurascaill
mhurchadha
mhurchu
mi
mia
miami
mian
mianach
mianado
mianaigh
mianra
mianrai
mianreolai
mianta
mias
mic
michael
michea
micheal
michel
michelangelo
michele
micheli
michelle
michigan
mici
mick
mickey
mickiewicz
micreafo
micreasco
micreathonnta
micribhitheolai
microsoft
mid
middle
middlesbrough
middlesex
middleton
midhe
midhir
midi
midlands
midnight
mie
mifflin
might
miguel
mika
mike
mikhail
mil
milan
milano
mile
miles
miley
milis
military
milk
mill
mille
millea
milleadh
miller
millington
million
milliu
mills
millteanach
millteanacha
milne
milo
milos
milsea
milton
milwaukee
min
mina
minas
mind
mine
ming
mings
minh
minic
minice
minici
minister
ministir
minneapolis
minnesota
minogue
minor
minutes
mio
miocro
miocrorga
mion
mionchuntas
miondi
mionghne
mionlach
mionlaigh
mionn
mionsamhail
mionsamhlacha
mionsc
mionsonrai
mionsonraithe
mionu
miotail
miotais
miotal
miotalach
miotalacha
miotalo
miotas
miotasach
miotaseolai
mir
miracle
miranda
mire
miriam
mirror
mis
miscellaneous
mise
misean
misin
misine
misneach
miss
missing
mission
mississippi
missouri
miste
misteach
misty
mit
mitch
mitchell
mix
mizuki
miłosz
mk
ml
mla
mm
mn
mna
mo
mobhi
mobile
moccu
moch
mocheallo
mode
model
modern
modh
modhanna
modified
modu
moe
mogh
mohamed
mohammad
mohammed
moi
moileasc
moilisc
moill
moille
moirfeolai
moite
mol
moladh
molann
moldo
molecular
molina
molloy
molly
moloney
molotov
molt
molta
moltai
moltar
molto
moment
mon
mona
monaco
monadh
monaghan
monarc
monarcacht
monarcachta
monarcai
monarcha
monarchan
monarchana
monaro
monato
moncai
moncaithe
monde
money
monferrato
monga
mongo
monica
monique
monroe
mons
monsieur
monster
mont
montague
montaine
montana
monte
montgomery
month
monthly
months
montre
montsoreau
monument
moody
moon
mooney
moore
mor
mora
moran
morbihan
mordor
more
moresnet
morgan
morgannwg
mori
morley
morna
morning
moro
morris
morrison
morrissey
morse
mort
mortimer
morton
morty
mosc
mosco
moscow
moslamach
moslamacha
moslamaigh
moss
mossadegh
most
mothai
mother
mothu
motion
motor
mount
mountain
mountains
mouse
mouskouri
move
movement
movie
moving
mozart
mp
mr
mrs
ms
msd
msk
mt
mtv
mu
muaidhe
muc
muca
much
mucoi
mucrama
muhammad
muice
muid
muile
muileann
muilinn
muilte
muimhneach
muin
muine
muinea
muineacha
muini
muintir
muintire
muir
muircheartach
muircheartaigh
muirchertach
muirchertaig
muire
muireadach
muireadhach
muireadhaigh
muireann
muiredach
muiri
muiris
muirmhi
muirthead
muirtheimhne
muirthile
mulder
muldoon
mulla
mullach
mullaigh
mullen
multilingual
multiple
mulvihill
muman
mumbai
mumhain
mumhan
mun
muna
mundi
mundo
munera
mungairit
munich
munna
munro
munster
mura
murab
murach
murai
muraisc
murakami
murar
murascaill
murascaille
murchad
murchada
murchadh
murchadha
murchan
murchu
murcia
murder
murphy
murray
murs
muscicapidae
muse
museum
music
musical
musique
musk
mussolini
must
mustafa
mustaird
mv
mw
mwanawasa
mx
my
myers
myles
myself
myspace
mystery
myth
mythology
myths
n
na
nach
nacha
nachais
nachas
nacht
nachta
nachtai
nacional
nacl
nad
nadh
nag
nagasaki
nahuatl
nai
naicme
naicmeach
naid
naidhm
naidhme
naige
naigh
naill
naimhde
naimhdeach
naimhdeas
naimseartha
naire
nairi
nairobi
nais
naisc
naisfe
naiste
naisteach
naisteacha
naithe
naitheach
naitheoir
naitheoiri
naitsi
naitsithe
naked
nal
nalbanach
nall
nam
namaib
name
named
names
namespace
namh
namhad
namhaid
nan
nana
nance
nancy
nangla
nanjing
nann
nanna
nant
nantu
naofa
naoi
naoighiallach
naoighiallaigh
naoimh
naois
naoise
naoiseach
naoiseacha
naoiseanna
naomh
naomi
naonad
naontachto
naonu
naosta
naou
napa
napier
napole
napoleon
napoli
nar
narabach
naraidi
nard
naroidni
narrative
nas
nasa
nasc
nascadh
nascann
nascanna
nasctha
nash
nashville
nassau
natal
natalia
natalie
nath
nathair
nathan
nathanna
nathrach
nathracha
nation
national
nationale
nations
native
nato
natural
nature
navacho
navajo
naval
navarra
navarre
navigation
nazi
nb
nba
nbc
nc
nchadh
nchadha
nchen
nchez
nchiorcal
nchiorclach
ncipe
nd
nda
ndaingean
ndall
ndaltai
ndaoine
ndaoirse
ndaon
ndaona
ndaonlathach
ndaonra
ndara
ndath
ndathanna
nde
ndeachaigh
ndeara
ndearadh
ndearg
ndearmad
ndearna
ndearnadh
ndeich
ndeireadh
ndeirtear
ndeisceart
nderby
nderbyshire
ndevon
ndez
ndi
ndia
ndiaidh
ndiamhair
ndiamhra
ndiu
ndli
ndlu
ndo
ndoire
ndomhan
ndra
ndras
ndroichead
ndroim
ndrugai
ndu
ndua
nduilleog
nduine
ne
nea
neach
neacha
neachais
neachas
neacht
neachta
neachtai
neachtain
nead
neadacha
neadai
neadh
neal
nealai
nealbh
neamh
neamha
neamhai
neamhain
neamhaird
neamharmtha
neamhbha
neamhbhalbh
neamhbheo
neamhbhrabu
neamhbhuan
neamhchinnte
neamhchiontach
neamhchoitianta
neamhchorpraithe
neamhchri
neamhdhi
neamhdhleathach
neamhdhlisteanach
neamhe
neamhfhicsean
neamhfhicsin
neamhfhoilsithe
neamhfhoirmea
neamhfhoirmiu
neamhghna
neamhghni
neamhiomla
neamhni
neamhniu
neamhoifigiu
neamhoird
neamhord
neamhorga
neamhpholaitiu
neamhre
neamhrialta
neamhshaolta
neamhshime
neamhshuim
neamhsplea
neamhthorthu
neamhurcho
neann
near
nearo
neart
neartai
neartaigh
neartu
neas
neasa
neathach
nebraska
ned
nedd
need
needed
needs
neeson
nehru
neid
neil
neill
neimhe
neimhidh
neipeal
neiptiu
nel
nell
nellie
nelson
nen
neo
neodrach
neodracha
neodracht
neodro
neodru
neoghanacht
neoidri
neoiliteach
neolai
neon
neorpach
neptune
ner
nero
ners
nesc
ness
nessa
net
netflix
nettie
network
networks
nevada
never
neville
new
newark
newcastle
newham
newman
newport
news
newsletter
newspaper
newton
next
nez
nf
nfaidh
nfhad
nfl
nfort
ng
nga
ngabha
ngach
ngadar
ngaedheal
ngaeilge
ngael
ngaeltacht
ngaillimh
ngairdi
ngairtear
ngal
ngalar
ngall
ngallach
ngallaibh
ngan
ngaoil
ngaol
ngaoth
ngar
ngarach
ngarai
ngarbhchri
ngardai
ngc
nge
ngealach
ngeall
ngealt
ngearaltach
ngearma
ngearrliosta
ngearrsce
ngeilleagar
ngel
nghal
nghunna
nginealach
ngineara
ngiota
ngiu
nglacann
nglacfadh
nglactar
nglaoitear
nglas
nglaschu
ngle
ngleann
ngleannta
ngleic
ngloucestershire
nglu
ngluaiseacht
ngluaistea
ngna
ngne
ngni
ngno
ngo
ngort
ngorta
ngra
ngradam
ngre
ngrian
ngru
ngthas
ngu
ngunnai
ngutai
nh
ni
nia
niagara
nialas
niall
niallach
niamh
niarlai
nic
nica
niccolo
nice
nicearagua
nicholas
nicholls
nicil
niciti
nick
nickelodeon
nicky
nico
nicola
nicolas
nicolaus
nicole
nie
niels
niemann
nietzsche
nige
nigel
nigh
nighean
night
nights
nike
nikita
nikki
nikolai
nikolaus
nikolay
nimh
nimhe
nimhiu
nimhneach
nin
nina
ninceach
nine
nineteenth
nintendo
nio
niocaill
niocht
niocla
nionadaithe
nirt
nirvana
nis
nise
nit
nithe
nitheoiri
niu
nixon
nl
nla
nlai
nlaigh
nlainge
nlaithe
nlann
nle
nli
nliosta
nlu
nluas
nm
nmacu
nme
nmhara
nmharai
nmharaigh
nmharaithe
nmharfo
nmharu
nmharuithe
nmhe
nmhea
nmhuir
nn
nna
no
noah
nobel
noble
nobody
nocht
nochta
nochtadh
nochtaithe
nochtann
nochtar
nod
nodaireacht
noe
noel
noi
noibrithe
noilea
noiriall
noirthear
noirthir
nolan
nollag
nollaig
noma
nomenclature
nominoe
non
none
noone
nor
nora
nord
nordach
nordacha
norfolk
norm
norma
normainn
normainne
normal
norman
normannach
normannacha
normannaigh
normans
norris
north
northampton
northamptonshire
northern
northumberland
northumbria
northwest
norton
norwich
norwood
nos
nosrai
nostra
not
note
notes
nothing
notice
notices
notify
notoc
notre
nottingham
nottinghamshire
noun
nous
nouveau
nov
nova
novel
november
novgorod
now
nowhere
npha
nr
nra
nrai
nre
nrk
ns
nsach
nsacha
nsachas
nscoil
nscoile
nscoileanna
nsdap
nse
nseach
nseirbhi
nsi
nstab
nster
nsu
nsw
nt
nta
ntach
ntacha
ntacht
ntachta
ntachtai
ntai
ntaigh
ntais
ntar
ntas
nte
nteocht
nter
nti
ntiu
nto
nu
nua
nuabhunaithe
nuacho
nuacht
nuachta
nuachumtha
nuad
nuada
nuadha
nuair
nuala
nualla
nuclear
nueva
nui
nuige
nuimhir
nuimhreacha
nuit
nulad
nuladh
number
numbers
nunavut
nutt
nwa
nxd
ny
nynorsk
o
oak
oakland
oasis
ob
oba
obair
obaire
obairt
obama
obar
obartach
obartaigh
obe
obh
obha
obhadh
obhai
obhaithe
obhann
obhtai
obhtar
object
obla
oblast
obra
observer
oc
oca
ocadh
ocai
ocanaili
ocann
ocean
och
ocha
ochach
ochacha
ochadu
ochaidi
ochaine
ochais
ochan
ochantacht
ochas
ochdheighilt
ochfort
ochlaonadh
ochmhar
ochnai
ochnaigh
ochnaithe
ochno
ochnu
ocht
ochta
ochtai
ochtair
ochtar
ochtarach
ochtaracha
ochti
ochto
ochtre
ochtu
oclc
oco
ocrais
ocras
ocsai
ocsaigin
ocsaigine
ocsairibeanu
ocsata
oct
octavianus
octha
october
ocunta
ocus
oda
odair
odaise
odar
oder
odessa
odh
odhna
odmant
odo
odyssey
oe
of
ofa
ofacht
off
office
officer
official
ofra
often
og
oga
ogacht
ogai
ogair
ogaire
ogaireacht
ogaithe
ogam
ogar
ogden
ogh
oghaim
oghain
ogham
oghma
ograis
ograiseach
ogwr
oh
ohio
ohm
oi
oibiachtu
oibleaga
oibre
oibrea
oibreacha
oibreachais
oibreoiri
oibri
oibrigh
oibrithe
oibriu
oide
oideachais
oideachas
oideachaso
oideas
oideolai
oidheadh
oidhre
oidhreacht
oidhreachta
oidhreachtu
oidhri
oifig
oifige
oifigeach
oifigi
oifigigh
oifigiu
oighear
oighearshruth
oighir
oil
oilc
oilea
oileadh
oilibhe
oilill
oilimpeach
oilimpeacha
oilithreach
oilithreacht
oilithreachta
oilithrigh
oiliu
oilte
oilthigh
oinigh
ointeolai
oir
oirbheartai
oird
oirdheisceart
oirdni
oireachtais
oireachtas
oiread
oirfe
oiri
oiriall
oirialla
oiriu
oirni
oirthear
oirthearach
oirthearacha
oirthir
oirthuaisceart
ois
oise
oisi
ok
okinawa
oklahoma
ol
ola
olacha
oladh
olaf
olai
olaim
olama
olamai
olann
olc
olcas
old
oldham
ole
oleolai
olga
oliver
olivia
olivier
oll
olla
ollach
ollacha
ollaimh
ollainn
ollainnis
ollainnise
ollamh
ollannach
ollannacha
ollchruinne
ollie
ollmhargai
ollmho
ollno
ollphe
ollscoil
ollscoile
ollscoileanna
ollscriosta
ollta
olltoghcha
ollu
olluisce
olly
olo
olrai
olraigh
olraithe
olru
olta
oltais
oltar
oltas
olto
olu
olympia
olympus
om
oma
omar
omh
omha
omhach
omhacha
omhai
omhaibhneacha
omhaidhm
omhaigh
omhain
omhainti
omhair
omhaire
omhaireacht
omhaireachta
omhaireachtai
omhairi
omhaisteoiri
omhaithe
omhalt
omhamhra
omhanna
omhar
omhartha
omhbhaile
omhbhailte
omhbho
omhcharachtair
omhcharachtar
omhchathair
omhchathrach
omhchathracha
omhchinea
omhchla
omhchlann
omhchomo
omhchu
omhchuspo
omheagartho
omheolai
omhfheidhmeannach
omhfhoinse
omhfhoinsi
omhghne
omhghru
omhionad
omhli
omhnai
omho
omhoide
omhoifigeach
omhpha
omhphearsa
omhphoist
omhphost
omhre
omhro
omhroinn
omhscanna
omhscri
omhshaothar
omhshra
omhthe
omhtheanga
omhu
omhuithe
omna
omo
omua
on
ona
onach
onacha
onacht
onachta
onadh
onann
once
one
oneolai
ones
online
only
onmhaire
onmhar
onn
onna
ono
onra
onrai
onsneachta
onta
ontar
ontario
onto
op
opa
opai
open
opening
opera
operation
operator
opinion
opportunity
opt
optaic
option
optional
options
optu
opus
or
ora
orach
oracha
oradh
orai
orainm
orainn
orange
oras
orbh
orbheaga
orc
orchestra
orchid
ord
orda
ordai
ordaigh
ordaithe
ordana
order
ordo
ordu
orduithe
oregon
org
orga
organisation
organization
orghlas
ori
oriental
origin
original
origins
orla
orlach
orlando
orle
orleans
orm
orma
ormai
orna
oro
orozco
orpheus
orr
orson
ort
ortadocsach
ortha
orthai
orthaithe
orthu
oru
orwell
os
osa
osach
osai
osaigh
osborn
osborne
osbourne
oscail
oscailt
oscailte
oscar
oscartha
osclai
osclo
oslainn
oslainne
oslainnis
oslannach
oslo
osman
osmhe
osna
oso
ospartach
ospartaigh
ospide
ospo
osra
osrai
osraige
osre
ossian
ossory
ost
osta
ostai
ostaig
ostair
ostaithe
ostarach
ostaracha
osto
osu
oswald
ot
ota
otama
otar
othai
othair
othaithe
othar
othas
othcha
other
others
otherwise
othlaigh
othlu
otho
othu
oti
oto
otra
ottawa
otto
ottoman
ou
our
out
output
outside
over
overijssel
overview
oviedo
owain
owen
owl
own
oxford
oxfordshire
oxide
oz
p
pa
paasikivi
pablo
paca
pacasta
pach
pacha
pachacuti
pacht
pachta
pacific
paddington
paddy
padraic
padraig
pagan
page
pages
pai
paice
paiceach
paiceacha
paici
paidir
paidreacha
paidri
paile
paili
pailme
paimfle
pain
painde
paine
painting
pairilis
paisine
paisley
paisti
paiteolai
paitinn
pal
palace
palaisti
palawa
palazzo
pale
palermo
palm
palma
palmer
pam
pamela
pamplemousse
pan
panama
pangur
panorama
panti
panu
panych
paolo
paor
papen
paper
papers
par
para
paradacsa
paradise
paragua
paraime
paraimi
parameter
parameters
parano
parc
pardu
paris
parish
park
parker
parkinson
parks
parlaimint
parlaiminte
parlaiminteach
parlaiminti
parliament
parnell
paro
parry
parsons
part
partement
parthala
participate
particular
partido
party
pas
pasa
pasaireach
pasanna
pascal
pass
passage
passeriformes
passion
past
pasteur
pat
patair
patar
patek
paterson
path
patra
patrice
patricia
patricii
patrick
patro
patrol
patru
patsy
patterson
patti
paul
paula
pauli
pauline
paulo
pavel
payne
paz
pb
pbs
pc
pcc
pd
pdf
pe
peaca
peace
peacock
peadar
peak
peann
pearce
pearl
pearo
pearsa
pearsana
pearsanra
pearsanta
pearsantacht
pearsantachta
pearse
pearson
pedigrees
pedro
peel
peeta
peggy
peig
peil
peile
peileado
peipti
peiriadach
peiriu
peirse
peirseach
peirsigh
peirsis
peirsise
peirspicti
peitil
peitril
peitriliam
pele
pelham
pen
pendrell
penguin
penn
pennsylvania
penny
pension
people
peoples
peoria
pepper
pepys
per
percy
pereira
perfect
performance
period
perlasca
pero
perrin
perrot
perry
person
persona
personal
persons
perth
pete
peter
peters
petersburg
peterson
petit
petra
petrie
petrus
petteri
petty
pez
pg
ph
pha
phabricator
phaca
phacasta
phaidri
phaile
phainde
phaine
phaisine
phalaisti
phan
phantom
phapua
pharagua
pharlaimint
pharnell
pharo
pharthala
phas
phase
phatru
phd
phe
pheadair
pheadar
pheairt
pheann
phearsa
phearsana
phearsanta
phearsantacht
pheil
pheile
pheileado
pheiriu
pheirs
pheirsis
pheiteal
phelan
phelim
phi
phian
phiano
phiarais
phiaras
phiarsaigh
phib
phictiu
phil
philadelphia
phile
philib
philip
philipp
philippe
philips
phillip
phillips
philo
philologie
philosophical
philosophy
phioc
phiono
phla
phlanda
phlandai
phlasma
phlato
phle
phlean
phleana
phlo
phlota
phlu
pho
phobail
phobal
phoblacht
phoblachta
phoblachtach
phoblachtaigh
phobos
phoebe
phoenix
phoibli
phoil
phoill
phointe
phointi
phoirt
phoist
phoite
phol
pholach
pholaime
pholaine
pholainn
pholainnis
pholaiteoir
pholaiteoiri
pholaiti
pholaitiu
pholasai
pholasaithe
pholl
phort
phorta
phortainge
phortra
phost
photaisiam
photo
photographic
photos
php
phra
phraghas
phraiticiu
phreas
phreasa
phreispite
phri
phrinti
phrio
phrionsa
phrionsabail
phrionsabal
phrionta
phris
phro
phroifisiu
phroinsias
phrotastu
phru
phu
phunc
phunt
phylloscopus
physical
physics
pi
pian
pianbhreith
pianmhar
piano
pianta
piarais
piaras
piarsach
piarsaigh
piasu
piazza
pic
picard
picasso
picchu
pick
pickens
pictiu
picture
pictures
pie
piece
piemonte
pierce
pierre
pieter
pietro
pike
pile
pileggi
pilib
pilot
pima
pin
pine
pingin
pink
pinn
pinniu
pinocchio
pinochet
pinsean
pinto
pinyin
pio
piobar
piocadh
pioneer
piono
piper
pirates
pire
pirimid
pirimidi
pisa
piseoga
pistols
pitt
pittsburgh
piu
pius
pizarro
pl
pla
place
placenames
places
plai
plaic
plaid
plain
plaisteach
plaisteacha
plaistigh
plan
plancius
planck
planda
plandai
plandu
planet
planned
planning
plans
plant
plantation
plants
plasma
plata
platanam
plato
platt
play
playboy
player
players
plays
playstation
plaza
plc
ple
plean
pleana
pleananna
please
plinias
plo
plota
plotinus
plu
pluime
pluince
plunkett
plus
pluto
plymouth
pm
pmid
pna
png
po
pobail
pobal
pobalbhreitheanna
pobalo
pobalscoil
poblacht
poblachta
poblachtach
poblachtai
poblachtaigh
poc
pocahontas
poe
poem
poems
poesi
poet
poetry
poets
pohjola
poibli
poill
point
pointe
pointi
points
poist
poite
poitige
poke
pokorny
pol
polach
polaime
polaine
polainne
polainnis
polainnise
polaiteoir
polaiteoiri
polaiti
polaitiu
polannach
polannacha
polannaigh
polasai
polasaithe
police
policy
political
politician
politics
polk
poll
pollta
pollution
polo
pompeius
ponc
poncanna
pont
ponte
poolbeg
poor
pootah
pop
popcheoil
popcheol
popcheolto
pope
popular
population
por
pornagrafai
port
porta
portach
portaigh
portainge
portal
porter
portland
porto
portra
portrait
portsmouth
posatro
pose
position
positive
possible
possibly
post
posta
postanna
posted
pot
potaireacht
potaisiam
potsdam
potter
pouillot
pound
pour
powell
power
powers
powys
pp
pr
pra
practice
pradesh
prado
praghas
praghsanna
prairie
praiseach
praiticiu
pratt
pre
preas
preasa
precision
preferences
prehistoric
preispite
premier
premio
prentice
prescott
present
preserve
president
presidential
presley
press
pressure
preston
pretty
prevention
preview
previous
previously
pri
priacal
pribhle
price
pride
primary
prime
primera
primo
prince
princes
princess
princeton
principal
principles
print
printe
printi
prio
prionsa
prionsabail
prionsabal
prionsacht
prionsai
prionta
priontai
prior
priory
private
prix
prize
pro
probably
problem
problems
procedure
proceedings
process
product
production
productions
products
professional
professor
profile
profit
program
programme
programming
progress
prohibition
proifisiu
proinsias
proinsiasach
proinsiasaigh
project
projects
proper
properties
property
proposal
proposals
proposed
prose
prosper
protastu
protect
protection
proto
proust
provence
provide
provided
providence
province
provisions
pru
ps
psdlo
psp
pt
ptolemy
pu
pub
public
publication
publications
published
publisher
publishers
publishing
publius
puerto
puglia
puinsea
puipe
pulaski
pulitzer
punc
punt
pure
purpose
purt
pushkin
put
putin
putnam
puto
px
pyotr
python
pywikipedia
pywikipediabot
q
qa
qaeda
qb
qc
qd
qe
qf
qin
qing
qu
qualifies
quality
quand
quarterly
que
queen
queens
queenscliff
queensland
question
questions
qui
quick
quiet
quinn
quintana
quintus
quite
quito
quo
r
ra
rabhadh
rabhaidh
rabhcha
rabhthas
rac
raca
racbhanna
race
racghru
rach
racha
rachadh
rachaidh
rachais
rachas
rachel
rachmais
racht
racing
racs
rad
radacach
radacacha
radacachais
radacachas
radacai
radacaigh
radacarbo
radai
radaighni
radanu
radar
radathonnta
radcliffe
radh
radhairc
radharc
radharcach
radharcanna
radio
rado
rae
raf
rafael
rafferty
raghallaigh
raghnaill
raghnall
raheny
rahilly
rai
raibh
raibi
raic
raice
raidhfil
raidhfili
raidhse
raidiam
raidio
raidiseato
raiftearai
raigh
rail
railway
raim
raimi
rain
rainbow
rainer
rainn
rais
raite
raithe
raitheoir
raitheoiri
raithin
raithlinn
raithneach
raleigh
rally
ralph
ram
rama
ramach
ramh
ramha
ramhar
ramo
ramos
ramsay
ramsey
ran
ranch
randall
randamach
randolph
random
randy
rang
ranga
rangabha
rangai
rangaithe
ranganna
range
rangers
rangu
rann
ranna
ranni
ranno
rannpha
rannta
rans
raoi
raoin
raoireann
raon
raonad
raonadh
raonta
raoul
rap
rapa
rapcheolto
raphael
rard
rare
ras
rasa
rasach
rasputin
rata
rath
ratha
rathaille
rather
rathu
ratings
ration
rationale
rats
rau
ravel
raven
rawlinson
ray
raymond
rb
rbh
rbhealach
rbheathaisne
rbo
rc
rca
rcach
rch
rcheantar
rchlo
rcho
rchomo
rchuid
rchumhacht
rchumhachtai
rcr
rcu
rd
rda
rdha
rdhi
rdhreach
rdhreacha
rdoba
re
rea
reach
reacha
reachais
reacht
reachta
reachtach
reachtacha
reachtai
reachtaire
reachtanna
reachtas
reachtu
read
reader
readers
reading
ready
reagan
real
reality
really
reann
reanna
reas
reasach
reasacha
reasanna
reason
reasons
reatha
reathai
rebecca
rebel
rebellion
recent
reconstruction
record
records
red
redbridge
reddy
redirect
redmond
reed
rees
reeves
reference
references
refuge
reg
regarding
regards
regia
regina
reginald
region
regional
regis
register
registration
regulations
reibiliu
reic
reich
reichstag
reid
reifirme
reifreann
reifrinn
reign
reilig
reilige
reiligi
reiligiu
reilly
reims
reipti
reisimint
reisiminti
reithe
reitine
reitric
related
relations
release
released
relevant
relief
religion
religious
rembrandt
remember
remix
remove
ren
renaissance
renate
renault
rene
renn
rennes
reno
reo
reoite
reolai
report
reports
repu
republic
republican
request
requests
required
rer
res
research
resource
resources
rest
result
results
retrieved
return
returns
reuters
rev
revenant
revenge
review
reviews
revised
revival
revolution
revue
rex
rey
reynolds
rez
rf
rfc
rg
rga
rgen
rghra
rh
rho
rhode
rhodes
rhondda
rhys
rhythm
ri
ria
riabhach
riabhaigh
riach
riachtanach
riachtanacha
riachtanais
riachtanaisi
riachtanas
riada
riail
riain
riala
rialacha
rialachas
rialai
rialaigh
rialaithe
rialo
rialta
rialtais
rialtas
rialto
rialu
rialuithe
riamh
rian
rianai
rianta
rianu
riar
riaracha
riaradh
riartha
riartho
riasc
riasca
riata
ribbentrop
ribeaso
ribh
ribi
ric
rica
ricardo
ricci
rice
rich
richard
richards
richardson
richie
richmond
richter
rici
rick
ricky
rico
ride
rider
ridge
riding
ridire
ridiri
ridpath
rie
rig
righ
righin
right
rights
rigi
rihanna
riina
riley
rili
rilke
rimini
rimreoir
rimreoiri
rince
rinceoir
rinci
ring
ringo
rings
rinn
rinne
rinneach
rinneadar
rinneadh
rio
riocaird
riocht
riochtai
rionad
rionaid
riordan
riosca
riospra
ris
rise
rising
risorgimento
ristea
risteard
rita
ritchie
rite
ritear
rith
rithe
ritheadh
ritheann
rithfeadh
rithim
rithime
ritter
riu
riugena
river
rivera
rivers
rix
rk
rl
rla
rlann
rlanna
rlaochra
rlas
rmhar
rms
rn
rna
rnabhagh
rnach
rnacha
rnai
rnaigh
rnberg
rnua
ro
road
roads
roald
roanoke
rob
roba
robbie
robbins
robert
roberta
roberto
roberts
robertson
robin
robinson
robot
robson
roc
rocca
rocco
roche
rochester
rochtain
rochtana
rock
rocks
rocky
rod
roddenberry
roddy
rodgers
rodney
rodri
rodrigo
roe
roger
rogers
rogha
roghanna
roghnach
roghnai
roghnaigh
roghnaithe
roghno
roghnu
roi
roibeard
roice
roiland
roimh
roimhe
roimpi
roinn
roinne
roinneadh
roinneann
roinnt
roinnte
roinntear
rois
roisi
rojava
roland
role
roll
rolla
rolladh
rollai
rolling
rollo
roma
romagna
roman
romance
romano
rome
romeo
romero
romhainn
romney
rompu
ron
ronald
ronaldo
ronan
ronnie
room
rooney
roosevelt
roots
rory
ros
rosa
rosas
rosc
rose
rosemary
rosen
rosenstock
roses
rosie
ross
rossa
rossi
rostov
roszto
rote
roth
rotha
rothach
rothai
rothair
rothar
rothlach
rothlai
rothlaithe
rothlu
rotterdam
rotunda
rouen
rough
round
rourke
rousseau
route
routledge
rovers
row
rowan
rowland
rowling
roy
royal
rpha
rphictiu
rphointe
rquez
rr
rsa
rsai
rsaitheoir
rsca
rsce
rshaothair
rshaothar
rshiu
rso
rt
rta
rtai
rtaidh
rtais
rtaisi
rtar
rtas
rte
rtha
rthach
rthacht
rthai
rthaidh
rthaigh
rthi
rthimpeall
rtho
rto
rttemberg
ru
rua
ruadh
ruadha
ruaidh
ruaidhri
ruaidri
ruaig
ruaigeadh
ruairc
ruairi
ruaisle
ruanaidh
ruanda
ruaraidh
ruathair
ruathar
rubair
ruball
rubar
rube
rubha
ruby
ruc
rud
ruda
rudai
rudd
rudolf
rudolph
rue
rufus
rug
rugadh
rugbai
rugby
ruis
ruise
ruiz
rule
rules
rumi
rumsfeld
run
runeberg
running
rupert
rush
rushdie
russell
russia
russian
ruth
rutherford
rutland
rvi
rxd
ry
ryan
ryanair
ryder
rður
s
sa
saale
saarinen
sabaite
sabbath
sabha
sabhat
sabhda
sabhna
sabine
sac
saca
sacair
sacar
sach
sacha
sachs
sackville
sacramento
sacred
sacsafo
sacsaine
sacsanach
sacsanaigh
sad
sadat
saddam
sadh
sadhbh
sadlier
saeim
saem
saf
safety
saga
sagairt
sagart
sagas
saghas
saghsanna
saha
sai
saibhir
saibhre
saibhreas
said
saidhbhi
saigh
saighdeadh
saighdeoir
saighdiu
saighead
sail
saile
saileach
saili
saill
saille
sailm
saimbi
saimbia
saincheadu
saincheisteanna
sainchomhartha
sainchreidimh
saine
saineolai
saineolaithe
saini
sainithe
sainiu
sainmhi
sainordu
saint
sainte
saintre
saints
sairdi
saire
sairi
saithe
sal
salach
salainn
salamanca
salann
sale
salem
salinas
saline
salisbury
salle
sally
salm
salo
salome
salt
saltair
salvador
salvatore
salzburg
sam
samantha
same
samh
samhail
samhain
samhlacha
samhlai
samhlu
samhna
samhradh
samhraidh
samo
sampla
samplai
sampo
samson
samuel
samurai
san
sana
sanas
sanasai
sancti
sand
sande
sanders
sanderson
sandra
sands
sandwich
sandy
sanfourche
sann
sanna
sans
sanscrait
sant
santa
santander
santiago
santo
santos
saoi
saoil
saoir
saoire
saoirse
saoirsi
saoithe
saol
saolai
saolre
saolta
saor
saora
saoradh
saorga
saorsta
saorsti
saorthra
saothair
saothar
saotharlainne
saotharlann
saothrai
saothraithe
saothro
saothru
sapiens
sar
sara
sarah
sargent
sarlat
sars
sartre
sas
sasana
sasanach
sasanacha
sasanaigh
saskatchewan
sataili
satarn
sathairn
satharn
saturday
saturn
saunders
sauron
sava
save
saw
saxon
say
sayers
says
sc
sca
scada
scadh
scagadh
scagaire
scail
scailt
scaindiam
scaip
scaipeadh
scaipeann
scaiptear
scaipthe
scair
scairbh
scairde
scairdinneall
scaire
scaireanna
scairp
scairshealbho
scairt
scaiti
scale
scamaill
scamall
scamho
scan
scanadh
scanna
scannail
scannal
scannell
scanradh
scanraithe
scanru
scaoil
scaoileadh
scaoileann
scaoilte
scaoiltear
scaoll
scar
scaradh
scarann
scarborough
scarlett
scarta
scartha
scaru
scata
sce
sceach
sceacha
sceall
scealla
sceallo
sceana
sceideal
sceilg
sceimhle
sceimhlitheoir
sceimhlitheoireacht
sceimhlitheoireachta
sceimhlitheoiri
sceireacha
sceite
sceith
sceitheadh
sceitsi
sch
schedule
scheme
schemes
scherzinger
schiaparelli
schiller
schleicher
schleswig
schluichi
schmidt
scho
scholars
school
schools
schro
schu
schultz
schumacher
schuster
schwarzenegger
schwimmer
sci
scia
scian
sciar
sciath
sciatha
science
sciences
scientific
scigaithris
scil
scileanna
sciliu
scilling
scime
sciobadh
sciobairi
sciobo
sciobtha
scitsifre
sciu
scla
sclai
scle
scliu
sco
scoil
scoile
scoileanna
scoilt
scoilte
scoilteadh
scoilteann
scoilteanna
scoir
scoireadh
scoite
scol
scola
scolai
scolo
scolopacidae
sconna
scor
scornach
scoth
scothaicme
scothaosta
scothdhearg
scothghlas
scotia
scotland
scotorum
scots
scott
scottish
scotus
scrai
scre
screamh
screen
screenshot
scri
scrioptu
scrios
scriosadh
scriosann
scriosta
script
scripte
scripteanna
scripts
scriu
scru
scu
scuab
scuabadh
scuad
scuadru
scuaid
scully
scun
sd
sdlp
se
sea
seabhac
seacaibi
seach
seacha
seachadadh
seachaint
seachas
seachlainn
seachnai
seachnaill
seachnasach
seachnasaigh
seachra
seacht
seachtain
seachtaine
seachtaini
seachtainiu
seachtar
seachto
seachtrach
seachtracha
seachtu
seacla
seada
seafo
seaimpi
seal
sealadach
sealadaigh
sealai
sealbhaithe
sealbho
sealbhu
sealgaire
sealgaireacht
sealgairi
sealu
seamro
seamus
sean
seana
seanad
seanado
seanaid
seanaidh
seanainm
seanathair
seanbhaile
seanbhean
seanbho
seanbhunaithe
seancha
seanchai
seanchais
seanchas
seanchille
seanda
seandaoine
seandomhan
seanduine
seanfhear
seanfhocail
seanfhocal
seanga
seanlitriu
seanmha
seanmo
seann
seanna
seano
seanre
seans
seansaile
seansaol
seansce
seantithe
seantrabh
seapa
searbh
searbho
searcaigh
search
searmanais
searmanas
seart
seas
seasaimh
seasamh
seasann
seasca
seascaidi
seasmhach
season
seasons
seasta
seathru
seattle
sebastia
sebastian
sechnaill
second
secondary
secret
secretary
secrets
section
sections
security
see
seeing
seems
seen
seice
seicea
seiceach
seicheamh
seichimh
seicis
seicslo
seicteach
seicteacha
seicteachas
seif
seilbh
seile
seilg
seilge
seilidi
seimi
sein
seine
seinm
seinneann
seinnt
seinnte
seinntear
seinnteoir
seirbea
seirbhi
seirbia
seirbiach
seirbiaigh
seirbis
seirfeachas
seirfigh
seisceann
seisean
seisear
seisiu
seismeolai
select
selected
selection
selena
self
selma
selman
sen
send
senior
sense
sensitive
sent
seo
seoda
seodra
seoige
seoighe
seoil
seoirse
seoirseach
seoirsia
seol
seola
seoladh
seolann
seolta
seoltacht
seoltai
seoltar
seolto
seomac
seomra
seomrai
seosamh
seoul
sep
separate
september
ser
sera
serena
serenity
sergeant
sergei
sergey
sergio
serglige
serie
series
serlio
servers
service
services
session
sessions
set
seth
settlement
seven
seventh
several
severus
sevilla
sex
seymour
sfadh
sfe
sga
sge
sgitheanach
sgoil
sgrabarczuk
sgt
sgu
sh
sha
shackleton
shacsanach
shadow
shadows
shagairt
shagart
shaghas
shah
shaha
shaibhir
shaibhre
shaibhreas
shaighdiu
shaincheisteanna
shaineolai
shaini
shainiu
shainmhi
shaintre
shakespeare
shakira
shall
shamhail
shamhailteach
shamhain
shamhlai
shamhlaigh
shamhlo
shamhlu
shamhna
shamhra
shampla
shamplai
shamrock
shan
shane
shang
shanghai
shannon
shaoil
shaoirse
shaol
shaolta
shaor
shaora
shaoradh
shaorga
shaorsta
shaothair
shaothar
shaothrai
shaothraigh
shaothru
share
sharma
sharon
sharpe
shasana
shasanach
shasanacha
shasanaigh
shataili
shaughnessy
shaun
shaw
shawn
she
shea
sheachadadh
sheachain
sheachaint
sheacht
sheachtain
sheachtrach
sheachtracha
sheal
shealbhaigh
shealbhu
shealtainn
shean
sheanad
sheanado
sheanathair
sheanathar
sheanda
sheanmha
sheansaile
sheapa
shearbho
shearer
sheas
sheasamh
sheasann
sheasta
sheehan
sheehy
sheen
sheeran
sheffield
shefflin
sheila
sheilbh
sheimi
sheinm
sheinn
sheinneann
sheirbhi
sheisear
shelbourne
shelby
sheldon
shell
shelley
shelton
sheo
sheoirse
sheoirseach
sheol
sheola
sheoladh
sheomra
shepherd
sher
sheridan
sheriff
sherlock
sherman
sherwood
shevchenko
shi
shibhialta
shields
shift
shimpli
shin
shine
shingil
shinn
shinsear
shinsearach
shinsearacha
shinsearacht
shinsir
shinte
shiombail
shiombalach
shiopa
shiorrachd
ship
shipping
ships
shire
shirley
shiu
shl
shla
shlavach
shle
shleachta
shli
shliabh
shligigh
shliocht
shliochtaigh
shlo
shloinne
shna
shneachta
shni
sho
shochai
shochraid
shocrai
shocraigh
shocru
shoile
shoilseach
shoisce
shoitheach
shola
sholadach
sholas
sholokhov
shon
shona
shonrach
shonrai
shop
shore
short
should
shoulder
show
showing
shown
shows
shra
shraith
shreabha
shreang
shroich
shroicheadar
shroicheadh
shroicheann
shroichint
shropshire
shruighlea
shruth
shu
shuaimhneas
shuaitheantas
shui
shuibhne
shuigh
shuim
shuimiu
shuitea
shuntasach
shuntasacha
shuntasai
si
sia
siabhra
siad
siadhail
siadsan
siamsa
siamsai
siamso
siansa
siar
siarra
sibe
sibh
sibhialta
sibhialtach
sibhialtacht
sibhialtachta
sibhialtachtai
sibhialtaigh
sibhlea
sic
sici
sicile
sid
side
sidhe
sidney
sie
siegfried
siena
sierra
sigerson
sigh
sigma
sigmund
sign
sihanouk
sil
sile
sileaca
sileacain
sileacan
sileach
sileadh
silence
sili
silice
sillanpa
silti
silva
silver
sime
similar
simle
simmons
simms
simo
simon
simone
simple
simpli
simplithe
simply
simpson
simpsons
sims
sin
since
sinclair
sindeaca
sine
sing
singeapo
singer
singh
singil
singing
single
singles
singli
sings
sinn
sinne
sinsear
sinsearach
sinsearacha
sinsearacht
sinsir
sinte
sio
siobha
sioc
siocair
siochfhradha
siolla
siollai
siomba
siombail
siombaili
siombalach
siompto
sionad
sionainn
sionainne
sioncronachtai
siondro
sionna
sionnach
sionnaigh
siopa
siopado
siopai
sior
siorco
siorrachd
sir
siria
sirius
sirriam
sis
sise
sisley
sister
sisters
site
sites
sithe
sitric
siu
six
size
sk
ska
skeerey
skeffington
ski
skin
skinner
skuldelev
sky
sl
sla
slabhra
slabhrai
slad
slaghda
slam
slat
slata
slater
slavach
slavacha
slavaigh
slave
sle
slea
sleachta
sleamhna
sleg
sleictreon
sli
sliabh
sliabhraon
sliabhraonta
sligeach
sligo
slim
sliocht
sliochtach
sliochtaigh
slioga
sliotar
slite
sliu
slo
slobodan
sloinne
sloinnte
slong
slover
slow
slua
sluachampai
sluai
sluaighe
sluaite
sm
sma
smacht
smachtbhannai
smachtu
small
smaoineamh
smaoini
smaoinigh
smaointe
smaointeachas
smaointeoir
smaointeoireacht
smaointeoiri
smaointi
sme
smhaireacht
smideadh
smididh
smidiri
smile
smior
smith
smithsonian
smo
smoking
smu
smugairle
smuigle
smuiglea
smyth
sna
snag
snagcheoil
snagcheol
snape
snasta
sneachta
sni
snicket
snodaigh
snoi
snoite
snow
snowden
snu
snyder
so
sobalchla
sobaldra
sobchak
sobre
soc
socair
soccer
sochai
sochair
sochaithe
sochar
socheolai
sochraid
sochraide
sochtheangeolai
social
socie
societies
society
socrai
socraithe
socru
socruithe
sofaisticiu
sofia
software
soghain
soghluaiste
soicind
soile
soilse
soilsithe
soilsiu
soir
soisce
soitheach
soithi
soithigh
sol
sola
solad
soladach
solaid
solais
solas
solasbhliain
soldier
soldiers
sole
soleil
solid
solo
solomon
solu
soluis
solzhenitsyn
soma
some
somebody
someone
somerset
something
sometimes
somhairle
somme
son
sona
sonas
song
songs
sonia
sonny
sono
sonrach
sonrai
sonraithe
sonru
sons
sony
soon
sophia
sophie
sopra
sorbonne
sorcha
sorco
sord
sorge
sorry
sos
soul
sound
sounds
source
sources
south
southampton
southern
southwark
sovereignty
sp
spa
space
spailpi
spain
spairne
spanish
spara
sparta
spassky
spd
spe
speak
speakers
speaking
speala
spealadh
special
species
specified
speculum
speech
speed
speiceas
speicis
speictreach
speictream
speictreasco
speictrim
speirm
speisialta
speisialto
spence
spencer
spenser
spi
spiaire
spiaireacht
spiaireachta
spiairi
spice
spide
spider
spike
spiorad
spiorada
spioraid
spirit
splanc
sple
splea
spo
spoken
sponta
sport
sporting
sports
spota
spotai
spotnitz
spp
spraoi
spre
spreag
spreagadh
spreagann
spreagtha
spreagu
spring
springer
springfield
springs
sprioc
spriocanna
sprioctheanga
spu
sputnik
sq
square
sr
sra
sracadh
sraith
sraithchomo
sraithe
sraitheanna
sraithsce
srath
sreabha
sreabhadh
sreabhann
sreang
sreanga
sreinge
sri
srian
srianadh
srianta
srl
sro
sroicheadh
sroicheann
sruighlea
sruth
srutha
sruthanna
ss
sseldorf
ssi
st
sta
stable
stach
stacht
stad
stade
stadium
stadt
staer
staff
stafford
staffordshire
stage
stai
staic
staid
staide
staideanna
staidiam
staidiu
staidreamh
staidrimh
staigh
staighre
stailc
stailce
stailceanna
stailceoiri
staili
staimi
stair
staire
stairiu
staisce
staitistici
staitistiu
stalin
stalingrad
stamford
stamp
stampa
stampai
stan
stand
standard
standards
standing
standish
stanfield
stanford
stangadh
stanisław
stanley
stanton
staonadh
star
starai
staraithe
stark
starr
stars
start
started
starting
statach
state
statement
statements
states
station
statistics
status
stauffenberg
staunton
stay
ste
steach
steele
stefan
stefano
steileasco
stein
steinfeld
steire
steirling
stella
stem
steo
step
stephanie
stephen
stephens
stephenson
sterling
stern
sterreichischen
steve
steven
stevens
stevenson
stevie
stewards
stewart
sti
stiabhna
stiall
stigh
still
stiofa
stipe
stiu
stivell
stm
sto
stoc
stocai
stocaireacht
stockholm
stocmhalarta
stoic
stoidiaca
stointea
stoirm
stoirme
stoirmeacha
stoke
stoker
stokes
stolypin
stone
stones
stoney
stop
stopadh
stopann
stories
storm
stormont
story
stowe
stra
strabo
strae
strainse
straite
strand
strange
stranger
strasbourg
strategy
stratford
streachailt
stream
street
stresemann
stri
striapach
striapachas
strictly
strindberg
string
stringer
strix
stro
stroessner
strointiam
strong
strongbow
struchtu
structure
struggle
struis
strus
stu
stua
stuaim
stuama
stuart
students
studia
studies
studio
studios
study
sturgeon
stuttgart
style
styles
su
sua
suaimhneach
suaimhneas
suaite
suaitheadh
suaitheantais
suaitheantas
sualainne
sualainnis
sualainnise
sualannach
sualannacha
sualannaigh
suarach
suas
suaslo
sub
subject
submit
subscribe
substaint
substainte
substainti
substances
such
sud
sue
suffolk
sugar
suggested
sui
suibhne
suibne
suilfi
suim
suime
suimiu
suirbhe
suiri
suis
suit
suite
suitea
suithe
sul
sula
sular
sulfa
sulfair
sulfar
sulfarach
sulla
sullivan
sult
sultan
sum
summary
summer
summit
sumter
sun
sunak
sunday
sunderland
sung
sunningdale
sunny
sunshine
suntais
suntas
suntasach
suntasacha
suntasai
suomen
super
support
sur
suranam
sure
surname
surnames
surrey
survey
susan
sussex
sutcliffe
suth
sutherland
sutter
sutton
suu
suzanne
sv
sven
svg
swan
swartzwelder
sweeney
sweet
swift
switch
sword
sydney
sylvester
sylvia
symphony
synchronisms
synge
syntax
syracuse
system
systems
t
ta
tab
tabhair
tabhairt
tabharfaidh
tabharthach
table
tables
taca
tacadamh
tacado
tacai
tacail
tacair
tacaithe
tacal
tacar
tach
tacha
tacht
tachtadh
tacsai
tacsanomai
tacso
tacu
tada
tadhaill
tadhall
tadhg
tae
taf
tag
taga
tagairt
tagairti
tagann
tagartha
tagrafach
tagrai
tagtha
tai
taibhdhearc
taibheoir
taibheoiri
taibhiu
taibhse
taidhg
taidhleoir
taidhleoireacht
taidhleoireachta
taidhleoiri
taifead
taifeadadh
taifeadta
taifeadtai
taifid
taige
taigh
taighde
taighdeoir
taighdeoiri
tailte
taime
tain
taipei
tair
tairbh
tairbhe
tairbhi
taire
tairgeadh
tairi
tairired
tairiscint
tairiscinti
tairiseach
tairngreacht
tairseach
tais
taisce
taisci
taiscumar
taise
taisfe
taisi
taisinte
taispea
taisteal
taistealai
taistil
taithe
taithi
taithneamh
taitneamh
taitneamhach
take
taken
takes
taking
tal
talaban
talaimh
talamh
talbo
talbot
tale
talent
tales
talk
talking
talladega
tallainne
tallann
talmhai
talmhan
talu
tam
tama
tamaill
tamailli
tamaise
tamall
tambo
tamhain
tamhan
tamhlacht
tamhnach
tammy
tampere
tan
tanai
tanc
tancanna
tandy
tang
tanner
tansa
taobh
taobhanna
taoibh
taoide
taoiseach
taoisigh
taom
taomanna
taontas
taos
tapa
tapaidh
tapu
tar
tara
tarach
tarbh
tarbhealach
tarbhealai
tarchuirtear
tarchur
tarchurado
tarchurtha
tard
tardeaspag
tardri
tarlai
tarlu
tarluithe
tarm
tarra
tarraingi
tarraingt
tarraingteach
tarraingthe
tarrtha
tasc
tascanna
taschenausgabe
task
tasma
tasmanian
taso
tat
tatairis
tataraigh
tate
tathair
tatlantach
tau
tavern
tax
taylor
tba
tcd
tchiste
td
tdanna
te
tea
teach
teacha
teachas
teachi
teaching
teacht
teachta
teachtai
teachtaire
teachtaireacht
teachtaireachtai
teagaisc
teagasc
teagasco
teaghlach
teaghlaigh
teaghra
teagmha
teagmhais
teagmhas
teallach
teallu
team
teamhair
teamhrach
teamhraigh
teampaill
teampall
teams
teanga
teangacha
teangan
teangeolai
teangeolaithe
teanglann
teann
teanna
teannadh
teannais
teannas
teannta
teano
teaplasma
tear
tearc
tearma
tearmainn
tearmann
tears
teas
teasa
teasca
teaspag
teasta
teastai
teastas
teau
tech
technical
technology
ted
teddy
teen
teena
teibi
teicneolai
teicni
teicniu
teicsti
teicteonacha
teideal
teidil
teifeach
teifigh
teileachumarsa
teileafo
teileasco
teilgean
teilgthe
teilifi
teilifis
teimple
teip
teipeann
teipthe
teiripe
teirmeach
teirmidinimic
teirmime
teirmine
teitheadh
tel
telecommunication
telegraph
television
tell
template
templatedata
templates
temple
temporary
temps
ten
tenerife
tennant
tennessee
tennis
tennyson
teo
teocht
teochta
teochtai
teoiric
teoirice
teoirici
teoiriciu
teoirim
teorainn
teorainneacha
teorann
teorannacha
teoranta
ter
terence
teresa
term
terme
terminus
terms
terra
terre
territorial
territories
territory
terror
terry
tes
tesco
tesla
test
testament
testing
tethba
tex
texas
text
texte
texts
tg
th
tha
thabhaigh
thabhairt
thabharfadh
thacai
thacaigh
thacar
thach
thacu
thadh
thadhg
thagadh
thagair
thagann
thagartha
thagrai
thai
thaid
thaidhg
thaifead
thaifeadadh
thaigh
thaighde
thailte
thain
thair
thairbhe
thairg
thairis
thairiscint
thairtheanga
thairti
thais
thaisce
thaisme
thaispea
thaisteal
thaistil
thaithe
thaithi
thaitin
thaitni
thalamh
thall
thalu
thames
thamhlachta
than
thanai
thank
thanks
thanksgiving
thanna
thaobh
thaobhaigh
thaoiseach
thaoisigh
thapa
thapaigh
thapu
thar
tharchuirtear
tharchur
tharla
tharlai
tharlo
tharraing
tharraingi
tharraingt
tharrtha
thart
thas
that
thatcher
thbhaint
thchaint
thchara
thchleas
thchleasai
thchleasaithe
thchuid
thdhaoine
thdhiosca
thdhioscai
thdhuine
the
theach
theacht
theachta
theachtai
theagasc
theagasco
theaghlach
theaghlaigh
theagmha
theagmhais
theampall
theanga
theangach
theangacha
theangeolai
theannta
theas
theastai
theastaigh
theatre
theicneolai
theicni
theicniu
theideal
theileasco
theilifi
theip
their
theith
theitheadh
thejournal
them
theme
themselves
then
theo
theobald
theocht
theodor
theodore
theoiric
theoirici
theoiriciu
theorainn
theorainneacha
theorannu
theory
therapy
there
theresa
therns
these
theta
they
thghaol
thi
thiar
thiarna
thiarnai
thiarnas
thief
thierry
thig
thigh
thimpeall
thimpeallacht
thimpeallu
thimpiste
thin
thine
thing
things
think
thinking
thinnes
thiobraid
thiocfadh
thiocfaidh
thioma
thiomnaigh
thiomsaigh
thiomsu
thionchar
thionlacan
thiono
thionscadal
thionscail
thionscain
thionscal
thionsclai
thionscnamh
thiontaigh
thiontu
third
thirim
thirty
this
thistlethwaite
thit
thiteadar
thiteann
thithe
thitim
thiu
thla
thnaid
thno
tho
thobar
thochailt
thodhchai
thogh
thoghadh
thoghcha
thoghcheantar
thoil
thoiligh
thoir
thoirt
thoirtre
thoiseach
thoiseacha
tholamaes
tholg
tholgadh
thom
thoma
thomas
thomhais
thomhaistear
thomhas
thompson
thomson
thonn
thonnta
thoradh
thorai
thornton
thorthai
thorthu
thosach
thosai
thosaigh
those
thosnaigh
thosu
thou
though
thought
thoughts
thousand
thpha
thra
thracht
thrachtach
thraein
thraena
thrai
thraidisiu
thrasnai
thrasnaigh
thrasnu
thrastomhas
thre
threabhach
threascairt
three
threibh
threisigh
threisiu
threo
threoir
threoraigh
threoru
thri
thriail
thrialta
thrian
thrianta
thriu
thro
throid
throigh
throm
throma
thromchu
through
thru
thshaighdiu
thshaol
thu
thuaidh
thuairim
thuairimi
thuairisc
thuairisci
thuairiscigh
thuairisciu
thuairtea
thuaisceart
thuaisceartach
thuaithe
thuama
thuamhan
thuar
thuas
thuasluaite
thuath
thuathail
thug
thugadar
thugadh
thugann
thugtai
thugtar
thuig
thuigeann
thuigtear
thuill
thuilleadh
thuilleamh
thuirling
thuiscint
thuismitheoiri
thuisti
thulach
thumb
thumbnail
thurais
thuras
thuraso
thurgnamhach
thurneysen
thursday
thus
ti
tianjin
tiarach
tiaracha
tiarna
tiarnai
tiarnaigh
tiarnais
tiarnas
tiarthar
tibe
tiberius
tica
tice
tico
tie
tienne
tiernan
tierney
tierra
tig
tiger
tigh
tighearna
tigherna
till
tim
time
timeline
timely
times
timothy
timpeall
timpeallacht
timpeallachta
timpeallaithe
timpeallu
timpire
timpiste
timpisti
timthriall
tin
tina
tine
tinker
tinn
tinneas
tinnis
tinte
tintea
tintin
tintri
tiobraid
tiocfaidh
tioma
tiomanta
tiomantas
tiomna
tiomnaithe
tiomsai
tiomsaithe
tiomsu
tionad
tionchair
tionchar
tionlacan
tiono
tionscadail
tionscadal
tionscail
tionscal
tionsclai
tionscnaimh
tionscnamh
tiontai
tiontu
tioslam
tip
tipiciu
tipperary
tir
tira
tirial
tirim
tirime
tis
titanic
tite
titeann
tithe
tithi
titim
titimeas
title
titley
tito
titus
tiu
tiubh
tlionga
tm
tnag
tnavbar
tneaimis
tneam
tneamaigh
tnu
to
toba
tobac
tobair
tobann
tobar
tochailt
tochailte
tochlai
tochmarc
tochmharc
tocsaineach
tocsaini
today
todd
todhchai
tofa
togail
together
togha
toghadh
toghcha
toghcheantair
toghcheantar
toghroinn
toghtar
toghtho
togra
toi
toibreacha
toil
toilea
toiliu
toilleadh
toilleann
toilteanach
toinne
tointea
toir
toirc
toircheas
toirchis
toirdhealbhach
toireachtas
toirmeasc
toirpe
toirt
toirte
toirti
toirtiu
toisc
toisi
toiti
tokoi
tokyo
tolamaes
told
toledo
tolgadh
tolkien
tolla
tollamh
tolstoy
tom
toma
tomaltaigh
tomas
tome
tomhais
tomhaiste
tomhaistear
tomhalto
tomhas
tomlinson
tommy
tomorrow
ton
tone
tones
tonga
tonight
tonn
tonna
tonnadh
tonnado
tonnfhad
tonnfhaid
tonnta
tono
tony
too
took
tool
toolan
toolbar
toole
tools
tooltip
top
topic
topics
tor
toradh
toraidh
toraigh
torann
torc
tord
torfaen
torino
torna
toro
toronto
torrach
torre
torres
torthai
torthu
tosach
tosai
tosaigh
tosaithe
tosca
toscaireacht
tosnai
tosnu
toso
tospide
tostach
tostacha
tosu
total
tottenham
touch
toulouse
tour
tours
toussaint
towards
tower
towers
town
towns
toy
toyota
tr
tra
tracey
track
tracy
trade
tradition
traditional
traditions
traein
traena
traenach
traenacha
traffic
trago
trai
traic
traidisiu
traige
trail
train
training
tram
tramanna
trans
transfer
transitional
translate
translated
translating
translation
translations
translator
translators
transparent
transport
tranter
tras
trasdul
trasdultach
trasdultacha
trasna
trasnai
trasnaithe
trasnu
trasphlandu
trasti
trastomhas
travel
travels
tre
trea
treabh
treach
trealaimh
trealamh
treallchogai
treallchogaithe
treasa
treasach
treasaigh
treascairt
treasure
treasures
treaty
tree
treehouse
trees
treibh
treibhe
treibheacha
treibheanna
treise
treisiu
trek
trent
treo
treochtai
treoir
treoirli
treoluas
treoracha
treorai
treoraithe
treoshui
tres
tress
trevelyan
trevor
tri
triail
trial
trialach
trialacha
triall
trian
trianta
triarach
triathgha
tribal
tribes
tribune
trichomonas
trigin
trigine
trimble
trinidad
trinity
trinse
trioblo
triomach
triomaithe
trip
tripartita
tristan
tritiam
triu
tro
troda
trodai
trodaithe
troid
troideadh
troigh
troim
troime
trois
trom
troma
trombo
tromchu
tromlach
tromlaigh
trosca
troscadh
trotscai
trouble
troy
tru
trua
truaillithe
truailliu
trucail
true
trujillo
truman
trump
trumpa
trunk
truss
trust
trustees
truth
try
trying
ts
tsa
tsacsain
tsagairt
tsaighdiu
tsaimbia
tsairdi
tsamhail
tsamhraidh
tsanscrait
tsaoi
tsaoil
tsaoir
tsaoirse
tsaol
tsaora
tsaorsta
tsaothair
tsaotharlann
tse
tsea
tseachtain
tseachtu
tsean
tseanado
tseanaid
tseanchais
tseandomhain
tseansaile
tseansaoil
tseapa
tseic
tseicis
tseicslo
tseineaga
tseirbhi
tseirbia
tseoil
tseoirsia
tseomra
tsi
tsibe
tsibhialtacht
tsicil
tsicilis
tsile
tsingilteacht
tsiomba
tsiombail
tsionainn
tsionnaigh
tsiopa
tsiria
tsiu
tsla
tsle
tsli
tslo
tso
tsochai
tsoicind
tsola
tsolais
tsoma
tsra
tsraith
tsreang
tsro
tsrutha
tsu
tsualainn
tsualainnis
tsui
tsuim
tt
tta
ttingen
ttir
tu
tua
tuachtara
tuaim
tuairi
tuairim
tuairimi
tuairisc
tuairisceoir
tuairisci
tuairiscithe
tuairisciu
tuaisceart
tuaisceartach
tuaiscirt
tuaithe
tuama
tuamai
tuamhain
tuar
tuarasca
tuarasgbhail
tuarastail
tuarastal
tuarisc
tuartha
tuasal
tuaslaga
tuaslago
tuaslagtha
tuata
tuath
tuatha
tuathail
tuathal
tubaiste
tubaisteach
tubaisti
tubridy
tucker
tudes
tudor
tugadh
tugann
tugtar
tugtha
tui
tuige
tuigeadh
tuigeann
tuigtear
tuile
tuileloscadh
tuilleadh
tuillte
tuilte
tuirbi
tuirc
tuirce
tuircice
tuircis
tuircme
tuireadh
tuireann
tuired
tuirlingt
tuirlingthe
tuirse
tuirseach
tuisceana
tuiscint
tuiseal
tuisil
tuismitheoiri
tuisti
tulach
tulaigh
tulio
tully
tultach
tumado
tungstan
turais
turas
turaso
turcach
turcai
turcaigh
turgnaimh
turgnamh
turgnamhach
turn
turner
turning
turraing
turrainge
turtar
tusa
tusca
tuscaloosa
tutu
tv
twain
twentieth
twenty
twilight
twin
twitter
two
ty
tyler
tyne
type
types
tyrell
tyrone
u
ua
uachdar
uacht
uachtair
uachtar
uachtara
uachtarach
uachtaracha
uachtarai
uafa
uaidh
uaigh
uaighe
uaigheanna
uaigneach
uaigneas
uaillmhianach
uaim
uaimh
uain
uaine
uaini
uainn
uair
uaire
uaireado
uaireanta
uaisle
uaisleacht
uait
uaithi
uaithne
ualach
uasaicme
uasail
uasal
uasalaicme
uaslo
uasmhe
uatha
uathoibri
uathu
ubh
ubha
ubhaga
ubhchruthach
ubhchruthacha
ucc
ucd
ucht
uchta
uchtaithe
uci
ucoc
uda
uefa
ufc
uganda
ui
uibh
uibheacha
uibhist
uidhir
uile
uileloscadh
uilelosctha
uili
uilig
uilleach
uilleam
uilleann
uilliam
uillinn
uillinneacha
uimh
uimhir
uimhreacha
uimhri
uimhrithe
uimhriu
uinseann
uirbeach
uirbeacha
uireasa
uiri
uirlis
uirlise
uirlisi
uirthi
uisce
uisceach
uisceacha
uisceada
uisceado
uisci
uisciu
uisge
uisnigh
uk
ul
ulad
uladh
ulaid
ulaidh
ulchabha
ullamh
ullmhai
ullmhaigh
ullmhaithe
ullmhu
ulrich
ulrike
ulster
ultach
ultaibh
ultimate
ultrafhuaime
ultraivialait
ulysses
um
uma
umar
umberto
umha
umhaill
umhaois
umhaoise
umi
un
una
uncail
uncle
und
under
underground
understand
understanding
une
unesco
unga
unicode
union
unit
united
units
unity
universal
universe
universidad
universita
universite
university
unix
unknown
unlicensed
unreviewed
until
up
upcoming
update
updated
updates
upload
uploads
upon
upper
uppsala
upright
upton
ur
uragua
uranometria
urban
urchair
urchar
urcho
urchomhaireach
urchomhaireacha
urdhu
urdu
urho
url
urla
urlabhra
urlabhrai
urlacan
urmhumhan
urnai
urra
urrai
urraim
urraithe
urraitheoir
urramach
urramu
urru
ursula
uru
urumhain
urumhan
us
usa
usage
use
used
useful
user
users
uses
usher
using
uss
ussher
usually
ut
uta
utah
utc
utrecht
uttam
utv
uup
uvf
v
va
vaasa
vacach
vacsai
vaginalis
vaic
vaice
vaicis
vaidi
vaili
vailinti
vaimpi
val
vala
valar
valdez
vale
valencia
valentin
valentine
valera
valladolid
valle
valley
vallu
value
values
van
vance
vancouver
vanessa
var
varadkar
vargas
variation
various
varkaus
vasa
vasco
vasiliy
vataca
vatar
vaughan
ve
veain
vector
vedder
vega
vegas
vehicles
veid
veidhli
veine
veinise
veirgil
veirteabra
veirteabrach
veirteabrai
veirteabraigh
vela
velvet
vende
veneto
venezia
venice
venus
vera
veracruz
verde
verdun
verlag
vermont
vernam
verne
vernon
verona
veronica
vers
versailles
verse
versini
version
versions
versuch
very
vettel
vez
vh
vi
via
vic
vice
vicente
vichy
vici
vicious
vicipe
victeoiriach
victor
victoria
victorian
vida
video
vie
view
vii
viii
viipuri
viking
vikings
viktor
vila
villa
villacan
village
ville
villon
vince
vincent
vincenzo
vinci
viola
violet
vir
virgil
virgin
virginia
viscount
viseagotaigh
vision
visit
vista
visual
visualeditor
vita
vitamin
vitellius
vitimi
vito
vittoria
viva
vivian
vivo
vladimir
vladivostok
vo
voice
voices
vol
voldemort
volga
volkswagen
vols
volta
voltaire
voltais
voltas
volume
volumes
volunteer
volunteers
vom
von
vor
vote
voting
vous
voyage
voyager
vs
vsgo
vu
vuelta
vul
vulga
vy
w
wa
wade
wagner
wagon
wait
waiting
waits
wake
wales
walk
walker
walking
wall
wallace
waller
walsh
walt
waltari
walter
waltham
walther
walton
waltz
wanderers
wandsworth
wang
wanna
want
wanted
wants
war
ward
ware
warner
warren
warrior
warriors
wars
warwick
warwickshire
was
washington
watch
water
waterboys
waterford
waterloo
waters
wathaurong
watkins
watson
watt
watts
wave
waves
way
wayne
ways
wba
wbc
wbo
we
wear
web
webb
weber
website
webster
wedding
wednesday
week
weekend
weekly
weeks
wehrmacht
wei
weight
weimar
welch
welcome
well
wellesley
wellington
wells
welsh
wembley
wendy
went
were
werner
wesley
wessex
west
western
westlife
westminister
westminster
weston
wexford
wharton
what
whedon
wheel
wheeler
whelan
when
where
whether
which
while
whiskey
whitaker
white
whitelock
whitley
whitney
who
whole
whom
why
wicca
wickham
wide
width
wien
wife
wigan
wigger
wiki
wikidata
wikileaks
wikimania
wikimedia
wikimedians
wikipe
wikipedia
wikipedias
wikis
wikisource
wikitext
wikivoyage
wilbur
wild
wilde
wilder
wilderness
wildlife
wiley
wilhelm
wilkes
wilkinson
will
willard
willem
william
williams
williamson
willie
willis
willy
wilmington
wilson
wilton
wiltshire
wimbledon
win
winchester
wind
windisch
window
windows
windsor
winfrey
wings
winners
wins
winslow
winston
winter
wir
wire
wisconsin
wise
wish
wishes
wishlist
wissenschaften
witch
with
within
without
witte
wittgenstein
wmf
wo
wolf
wolfe
wolfgang
wolfram
wollstonecraft
wolverhampton
woman
women
won
wonder
wonderful
wonderland
wong
wood
woodrow
woods
woodstock
woodward
woody
woolf
worcester
worcestershire
word
wording
words
work
workers
working
works
world
worlds
worth
would
wp
wreck
wrecsam
wren
wrestling
wright
write
writer
writers
writing
writings
written
wrong
wta
wu
wuhan
www
wyatt
wyoming
władysław
x
xavier
xe
xeano
xhtml
xi
xii
xiii
xiv
xml
xtra
xv
xvi
xvii
xviii
xx
xxi
xxiii
xxx
y
ya
yahoo
yale
yashin
yates
yavapai
ye
year
years
yeats
yehu
yellow
yeltsin
yes
yesterday
yet
yi
yle
yn
ynys
yo
yoga
yoko
york
yorke
yorkshire
you
young
your
yourcenar
yours
yourself
youth
youtube
yr
yu
yukon
yuma
yuri
yves
yvonne
z
za
zachary
zamenhof
zapata
zar
zaragoza
ze
zealand
zeeland
zeit
zeitschrift
zeppelin
zero
zh
zhou
zimmer
zip
zo
zoe
zola
zoo
zoom
zorin
zorro
zquez
zu
zum
zur
zyklon
{
|
}
~


¡
¢
£
§
¨
©
ª
«
­
°
±
²
³
´
¶
·
¹
º
»
½
¿
×
ß
æ
ð
ø
ı
ǃ
ɑ
ɔ
ə
ɛ
ɡ
ɪ
ɾ
ʃ
ʰ
ʲ
ʷ
ʹ
ʻ
ʼ
ʿ
ˈ
ˌ
ː
ˠ
̀
́
̂
̃
̄
̆
̇
̈
̉
̊
̋
̌
̍
̑
̓
̔
̚
̛
̞
̟
̠
̣
̤
̥
̦
̧
̨
̩
̪
̯
̸
̹
͂
ͅ
͡
α
β
γ
δ
ε
ζ
η
θ
ι
κ
και
λ
μ
ν
ξ
ο
π
ρ
ς
σ
τ
υ
φ
χ
ψ
ω
а
б
в
г
д
е
з
и
к
л
м
н
на
о
с
т
у
ф
шаблон
я
і
ְ
ִ
ֶ
ַ
ָ
ֹ
ּ
ׁ
א
ב
ד
ה
ו
י
ל
מ
ן
ר
ש
ת
،
ا
ب
د
ر
ل
م
و
ي
َ
ُ
ِ
ّ
ْ
ٓ
ٔ
ٕ
ަ
ं
क
ग
च
ज
ट
ड
ण
त
द
न
प
ब
भ
म
य
र
ल
व
श
स
ा
ि
ी
ु
ू
े
ो
्
।
ং
ক
ট
ড
ত
দ
ন
প
ব
ভ
য
র
ল
ষ
়
া
ি
ী
ু
ে
্
િ
ப
ர
ி
ு
்
ೆ
ം
ക
ഡ
പ
യ
വ
ി
ീ
െ
്
ก
น
ย
ว
ั
ิ
ี
ุ
ู
่
้
์
་
ོ
᚛
᚜
᛬
​
‌
‍
‎
‏
‑
–
—
‘
’
“
”
„
‟
†
‡
•
…
‬
′
″
⁄
⁊
ⁿ
₁
₂
€
ℓ
№
←
→
↔
↷
⇄
⇌
−
√
∞
≈
≡
≤
③
④
⑦
─
█
●
☉
♦
♭
❤
⺀
⺄
⺆
⺈
⺊
⺌
⺕
⺝
⺸
⺼
⿰
⿱
⿲
⿳
⿴
⿵
⿶
⿷
⿸
⿹
⿺
⿻
、
。
〢
あ
い
う
え
か
き
く
け
こ
さ
し
す
そ
た
っ
つ
て
と
な
に
の
は
ま
よ
ら
り
る
れ
を
ん
゙
゚
ア
ィ
イ
ウ
オ
カ
キ
ク
コ
サ
シ
ス
ソ
タ
ッ
テ
ト
ニ
ハ
ヒ
フ
ヘ
ホ
ユ
ョ
ラ
リ
ル
レ
ロ
ン
・
ー
㇁
㇂
㇄
㇇
㇈
㇉
㇓
㐁
㐄
㐅
㐌
㐫
㐬
㐭
㐮
㐱
㑒
㒵
㒸
㒼
㓁
㓞
㔾
㕛
㕣
㖾
㘝
㚅
㚇
㚔
㚘
㝉
㝡
㝴
㝵
㞋
㞢
㞷
㠩
㠭
㠯
㡀
㡭
㡿
㢲
㢴
㣇
㣺
㥯
㪅
㫄
㫐
㫒
㫺
㬅
㬎
㬥
㬰
㲋
㳄
㷠
㸒
㸚
㸦
㼌
㼲
㽞
㿟
䀠
䂞
䍃
䏍
䒑
䖍
䖒
䖝
䖵
䙴
䚻
䜌
䝿
䡛
䧹
䪞
一
丁
丂
七
丄
丅
丆
万
丈
三
上
下
丌
不
与
丏
丐
丑
专
且
丕
世
丘
丙
业
东
丞
丢
丣
两
严
並
丨
丩
个
丫
丬
中
丮
丰
丱
串
丵
丶
丷
丸
丹
为
主
丽
丿
乀
乂
乃
久
乆
乇
么
义
之
乌
乍
乎
乏
乐
乑
乔
乖
乗
乘
乙
乚
乛
乜
九
乞
也
习
乡
乳
乾
亀
亅
了
亇
予
争
事
二
亍
于
亏
亐
云
互
亓
五
井
亘
亚
亜
亞
亟
亠
亡
亢
交
亥
亦
产
亨
亩
享
京
亭
亮
亯
亰
亲
亳
亶
亷
人
亻
亼
亾
仁
今
介
仌
从
仐
仑
仒
仓
仕
他
付
仝
代
令
以
任
企
伊
伏
伐
休
会
伯
但
位
何
佘
余
作
佥
使
來
侈
侌
侖
侯
侵
便
保
俞
信
修
倉
倍
候
倠
備
僉
僕
儿
兀
允
兂
元
兄
充
兆
兇
先
光
兊
克
兌
免
兑
兒
兓
兔
党
兜
兟
入
全
兩
兪
八
公
六
兮
兰
共
关
兵
其
具
典
兹
兼
冀
冂
冃
冄
内
冈
冉
冊
冋
册
再
冎
冏
冐
冒
冓
冖
冗
冘
军
农
冝
冡
冥
冫
冬
冷
几
凡
凢
凵
凶
凷
凸
凹
出
函
凾
刀
刁
刂
刃
刄
刅
分
切
刍
刑
刕
刖
列
刘
则
初
別
利
别
到
制
刺
則
削
剌
前
剡
剽
劉
力
功
加
劦
助
劫
劳
劵
勃
勇
勉
勒
動
務
勞
勤
勹
勺
勻
勾
勿
匀
匂
包
匆
匈
匊
匋
匍
匕
化
北
匚
匝
匡
匪
匱
匸
匹
区
医
匽
匿
區
十
卂
千
卄
卅
卆
升
午
卉
半
卌
华
卑
卒
卓
单
卖
南
卜
卝
卞
占
卡
卢
卣
卤
卦
卩
卪
卬
卯
印
危
即
却
卵
卷
卸
卻
厂
厃
厄
历
厈
厉
厌
厓
厘
厚
原
厤
厥
厨
厭
厲
厶
厷
厸
去
厼
厽
叀
参
參
叅
又
叉
及
友
双
反
叐
发
叒
叔
叕
取
受
叚
叜
叟
口
古
句
另
叩
只
召
可
台
叱
史
右
叵
号
司
叹
吂
各
吅
合
吉
吊
吋
同
名
后
吏
向
吕
君
吝
吞
否
含
启
吳
吴
吹
吾
呂
呆
呈
告
员
呙
周
命
咅
和
咎
咠
咢
咨
咸
咼
哀
品
哉
員
哥
哲
唐
商
啇
問
啚
啬
啻
善
喜
喬
單
喿
嗇
噩
嚴
囊
囗
囘
囙
囚
四
回
囟
因
囧
囬
困
囱
囷
固
国
圂
圅
國
圍
圓
土
圡
圣
圥
在
圭
地
圶
圼
坐
坒
坚
坴
垂
垔
垚
埀
埋
城
埶
執
基
堂
堅
堆
堇
堯
塞
墨
壘
士
壬
壮
壯
声
壳
壴
壹
壺
壽
夂
处
夅
夆
备
夊
夋
夌
复
夏
夒
夕
外
夗
夘
多
夜
夢
大
夨
天
太
夫
夬
夭
央
失
夲
头
夷
夸
夹
夻
夾
奂
奄
奇
奈
奉
奎
奏
奐
契
奓
奔
奚
奞
奠
奢
奥
奭
女
奴
奻
好
如
妄
妙
妟
妥
妻
妾
姑
委
姜
威
娄
婁
婴
嬰
嬴
子
孑
孔
孕
孖
字
存
孚
孛
孝
孟
季
孤
学
孫
孱
學
宀
宁
宂
它
宅
宇
守
安
宋
完
宏
宓
宗
官
定
宛
宜
宝
客
宣
室
宮
宰
害
家
容
宾
宿
寄
寅
密
富
寒
察
寧
審
寫
寬
寮
寸
对
寺
寻
寽
対
寿
封
尃
射
将
將
專
尉
尊
尋
尌
對
小
少
尒
尓
尔
尖
尗
尚
尞
尢
尣
尤
尧
尨
尭
就
尸
尹
尺
尻
尼
尽
尾
尿
局
居
屈
屋
屎
屏
屑
展
屖
屚
属
屠
屡
屬
屮
屯
屰
山
屵
屾
岁
岂
岑
岡
岩
岳
岸
峯
島
崇
崎
崑
崔
崖
崙
崩
嵬
嶲
巂
巛
川
州
巟
巠
巢
巤
工
左
巧
巨
巩
巫
差
己
已
巳
巴
巷
巸
巽
巾
巿
帀
市
布
希
帚
帛
帝
带
師
席
帶
常
干
平
年
幵
并
幷
幸
幺
幻
幼
幽
幾
广
広
庄
床
底
店
庚
府
度
庫
庭
庶
康
庸
廉
廌
廛
廣
廩
廴
延
廷
建
廾
廿
开
弁
弃
弄
弇
弋
式
弓
弔
引
弗
弘
弜
弟
弥
弦
弱
張
強
强
彊
彌
彎
彐
彑
当
彔
录
彖
彗
彡
形
彥
彦
彧
彭
彳
役
彼
往
待
律
徒
得
徙
從
復
微
徵
心
忄
必
忌
忍
志
忝
忠
忩
快
念
忽
忿
思
怠
急
怱
恆
恒
恩
恭
息
悉
患
悤
悲
悶
惠
惡
惢
愁
愈
意
愛
感
慈
慧
慮
憂
憲
應
戀
戈
戉
戊
戋
戌
戍
戎
成
我
戒
戔
或
戚
戠
戢
截
戲
戶
户
戹
戼
戾
房
所
扁
扇
手
扌
才
打
托
执
承
折
拉
拜
拿
掌
推
提
摩
支
攴
攵
收
攸
改
放
政
敄
敏
敕
敖
敗
敝
敞
敢
散
敦
敫
敬
数
敷
數
斂
文
斉
斊
斗
斤
斥
斩
斬
斯
新
方
於
施
斿
旁
旋
族
无
旡
既
旣
日
旦
旧
旨
早
旬
旱
旲
时
旾
昆
昇
昌
昍
明
昏
易
昔
昗
昜
星
春
昬
是
昱
昴
昷
時
晃
晋
晏
普
景
晶
智
暑
暴
曇
曩
曰
曲
曳
更
曷
書
曹
曼
曾
替
最
朁
會
月
有
朋
服
朔
朕
朗
望
朝
木
朩
未
末
本
札
朮
术
朱
朵
朶
朿
杀
杏
村
杜
束
条
来
東
杲
杳
松
析
林
枚
果
枝
枲
枼
某
柔
查
柬
柰
柴
栗
株
桀
桑
桼
梁
條
梟
梨
棘
棠
棥
森
楚
業
楽
榮
樂
樊
欠
次
欣
欮
欲
欶
欽
款
歆
歇
歌
歛
止
正
此
步
武
歨
歪
歮
歯
歰
歲
歴
歷
歸
歹
歺
死
殳
段
殷
殸
殹
殺
殻
殿
毋
毌
母
每
毒
比
毕
毚
毛
毳
氏
氐
民
气
氣
水
氵
氶
氷
永
氺
氾
求
汝
汞
江
沃
沓
沖
沙
沝
河
治
泉
法
波
泣
泥
泰
洛
津
洪
活
派
流
浙
浦
浪
浮
海
淡
淮
清
渚
渠
湖
湯
滿
漢
漸
澳
火
灬
灭
灰
灵
灷
炅
炎
炏
炗
炙
炭
為
烈
烏
烝
焉
無
焦
焱
然
煞
熊
熏
燕
營
燮
爪
爫
爭
爯
爰
爱
爲
爵
父
爻
爽
爾
爿
片
牙
牚
牛
牜
牟
牢
牧
牪
特
牽
犀
犬
犭
犮
狂
狄
狊
独
狺
猋
猒
猪
献
獻
玄
率
玉
王
玟
玨
珎
班
球
琴
瑟
瑩
瓜
瓦
甘
甚
生
産
用
甫
甬
田
由
甲
申
电
甶
男
甸
甹
画
甾
畀
界
畏
畐
留
畜
畟
畢
畧
畨
番
畫
異
畱
當
畺
畾
疊
疋
疌
疑
疒
疾
癶
癸
癹
登
發
白
百
皀
皃
的
皆
皇
皋
皐
皕
皮
皷
皿
盃
盆
盇
盈
益
盍
盎
监
盒
盖
盛
盡
監
盤
盧
目
直
相
盾
省
眇
眉
看
県
眔
眞
真
眷
眼
眾
着
睘
睪
睿
瞏
瞢
瞿
矍
矛
矞
矢
矣
知
矦
短
石
破
碎
磊
磨
示
礻
礼
社
神
祟
票
祭
禀
禁
福
禪
禸
禹
禺
离
禽
禾
禿
秀
秃
秉
秋
科
秝
秦
移
稟
穀
穌
穴
究
穹
空
穿
突
窄
窒
立
竒
竜
竝
竟
章
童
竹
笑
笠
筆
等
答
箕
算
箴
節
篤
篭
米
粉
粛
粟
粤
粦
粲
糞
糸
糹
系
紀
約
納
素
索
紫
累
細
絜
絫
絲
經
維
綿
縄
縣
繇
纍
纟
纪
维
缶
网
罒
罔
罕
罗
罙
罡
罢
罪
署
罷
羅
羊
羌
羍
美
羔
羕
羗
羞
羡
羣
群
義
羲
羸
羽
翁
翏
習
翕
翟
翠
翼
老
耂
考
者
耆
而
耎
耑
耒
耳
耴
耶
耷
聂
聊
聖
聚
聶
聿
肀
肃
肅
肉
肖
肙
肥
肩
肯
育
肴
胃
背
胡
胥
能
脊
脩
膚
臣
臤
臧
自
臬
臭
臯
臱
至
致
臺
臼
臽
臾
臿
舀
舂
舄
與
興
舉
舌
舍
舛
舜
舞
舟
般
艮
良
色
艸
艹
艾
芒
芔
芬
芮
花
芳
芺
芻
苏
苔
苗
苟
若
苦
英
茶
茸
荅
草
荒
荣
荼
莆
莧
莫
莽
菆
菊
菐
菜
華
萬
落
葉
著
葛
董
葵
蒙
蒦
蒼
蓋
蓬
蓺
蔑
蔡
蕉
蕭
薄
薛
薦
薰
藍
藏
藤
藥
蘭
虍
虎
虐
虒
虔
處
虖
虗
虘
虚
虛
虜
虞
虫
虽
蚤
蚩
蜀
蜜
蟲
蠡
血
行
衍
衛
衣
衤
表
衮
衰
袁
袞
褭
褱
襄
襾
西
覀
要
覃
見
規
覓
覧
親
覽
见
角
解
言
訁
訇
計
記
話
詹
語
誩
諸
讠
谷
豆
豈
豊
豐
豕
豖
豙
象
豦
豩
豪
豸
貇
貝
貞
貟
負
貢
貧
貪
貫
責
貳
貴
買
費
賁
資
賈
賏
賓
賔
賛
賞
賢
賣
質
賴
贊
贝
贡
责
贯
贲
贵
赖
赞
赤
赦
走
越
足
路
蹇
身
躬
車
軍
軎
軟
輦
车
辛
辜
辟
辥
辰
辱
農
辵
辶
边
辽
达
过
近
连
迷
追
退
送
逆
逐
通
速
造
逢
連
逮
進
遀
遂
過
道
達
遣
適
遷
遺
邊
邑
邕
那
邦
邪
郎
部
郭
都
鄉
酉
酋
配
酓
釆
采
里
重
野
量
金
釒
錢
钅
長
镸
长
門
閃
閉
開
閏
閑
閒
間
閔
閵
閻
闌
门
间
闷
阑
阜
阝
阿
降
陳
隆
隊
隋
隡
隨
隱
隶
隹
隺
隻
隼
隽
难
雀
雁
集
雈
雋
雍
雐
雔
雙
雚
雜
雝
離
難
雨
雩
雪
雲
零
雷
需
霍
霜
霝
霞
霸
靈
靑
青
非
靡
面
靣
革
韋
韦
韭
韯
韱
音
頁
頃
項
須
頗
頡
頻
顛
页
風
风
飛
飞
食
飠
養
饣
首
香
馬
馮
駦
马
骨
高
髟
鬥
鬯
鬲
鬼
魂
魚
魯
鮮
鱼
鲁
鳥
鳳
鸟
鹵
鹿
麃
麗
麥
麦
麻
黃
黄
黍
黎
黑
黒
黨
黹
黽
黾
鼎
鼓
鼠
鼻
齊
齋
齐
齒
齿
龍
龙
龜
龟
龠
龰
龱
龴
龵
龶
龷
龸
龹
者
艹
ﬁ
﻿
，
？
𝑨
𝑪
𝑫
𝑮
𝑳
𝑹
𝑺
𝑻
𝒂
𝒄
𝒅
𝒆
𝒇
𝒈
𝒉
𝒊
𝒍
𝒎
𝒏
𝒐
𝒓
𝒔
𝒕
𝒖
𝒗
𝒚
𝘼
𝘽
𝘾
𝙂
𝙃
𝙄
𝙈
𝙍
𝙎
𝙏
𝙖
𝙘
𝙙
𝙚
𝙛
𝙜
𝙝
𝙞
𝙡
𝙣
𝙤
𝙥
𝙧
𝙨
𝙩
𝙪
𝙫
𝙮
𠀁
𠀃
𠀆
𠀉
𠀎
𠀐
𠁁
𠁣
𠂆
𠂇
𠂈
𠂉
𠂊
𠂋
𠂎
𠂒
𠂔
𠂛
𠂡
𠂢
𠂤
𠂬
𠂭
𠂹
𠃊
𠃋
𠃌
𠃍
𠃎
𠃑
𠃓
𠃔
𠃜
𠄌
𠄎
𠄠
𠄢
𠆢
𠆥
𠇍
𠈌
𠌵
𠓜
𠔉
𠔥
𠔼
𠔽
𠔿
𠕀
𠕁
𠕋
𠘧
𠘨
𠙻
𠙼
𠚏
𠚒
𠚤
𠚪
𠣏
𠤎
𠤕
𠥓
𠦄
𠦑
𠦝
𠧒
𠧗
𠧪
𠩺
𠪚
𠫓
𠫔
𠫤
𠬛
𠬝
𠬞
𠬢
𠬤
𠬶
𠮛
𠮦
𠮷
𠯑
𠱠
𠳮
𠷎
𡈼
𡉀
𡉵
𡌥
𡍮
𡏳
𡕒
𡕩
𡕰
𡖅
𡗗
𡗜
𡘆
𡘤
𡧱
𡨄
𡩧
𡬠
𡭽
𡰣
𡰥
𡰪
𡰯
𡰱
𡷈
𡸁
𡿨
𡿩
𡿪
𡿺
𢀖
𢀛
𢀩
𢁙
𢆉
𢆰
𢆶
𢇁
𢇇
𢉖
𢌬
𢌿
𢏚
𢑑
𢑚
𢖻
𢙣
𢛳
𢦏
𢦒
𢧵
𢼄
𢾕
𣁋
𣄼
𣅀
𣅽
𣍘
𣎳
𣎵
𣏋
𣏼
𣗥
𣥂
𣥖
𣦵
𣦼
𣧄
𣪊
𣪠
𣬉
𣳾
𣶒
𤇾
𤊽
𤐫
𤓰
𤔔
𤕨
𤣩
𤰇
𤰔
𤰞
𤴓
𤴔
𤽄
𥁑
𥁕
𥃦
𥃩
𥃭
𥇡
𥑟
𥘅
𥘈
𥝢
𥫗
𥱡
𦈢
𦉪
𦉬
𦉼
𦍌
𦍒
𦎧
𦐇
𦓔
𦔮
𦘒
𦙃
𦚏
𦣝
𦣞
𦣻
𦥑
𦥔
𦥯
𦨉
𦭝
𦰩
𧆞
𧈧
𧘇
𧰨
𧴪
𧴮
𧵩
𧾷
𨸏
𨾴
𩙿
𩠐
𩫏
𩵋
𪉷
𪜀
𪟽
𪠲
𪩲
𫇦
𫔭
𫜸
𫝀
𫠣
𫠩
𫢉
𫥞
𫩏
𫩠
𫪡
𫲽
𫶧
𬀷
𬐘
𬗌
𬙙
𬛸
𬜯
𬟩
𬯁
𬴘
𬺻
𬼉
𬼖
𭀰
𭁈
𭁨
𭅰
𭑈
𭕄
𭗼
𭤨
𭥫
𭻾
𮅕
𮊿
𮍌
𮍏
𮓗
𮥼
𮧮
廾
𰀁
𰀄
𰀈
𰀉
𰀕
𰀠
𰀡
𰀢
𰀪
𰁜
𰃮
𰆊
𰆘
𰋙
𰕎
𰢴
𰧭
𰯲
00--
000--
01--
02--
03--
04--
05--
06--
07--
08--
09--
40--
45--
51--
71--
82--
87--
89--
90--
92--
93--
95--
978--
a--
aa--
ab--
aba--
abe--
abh--
ac--
aca--
accep--
ach--
acho--
acht--
act--
ad--
add--
ade--
adh--
admin--
ado--
adu--
aduir--
adve--
advo--
ady--
ae--
aer--
af--
afri--
ag--
aga--
age--
agh--
ago--
agre--
agu--
ah--
ai--
aid--
ail--
aimh--
aimp--
ain--
ainm--
aip--
air--
airi--
ais--
aispe--
ait--
aithe--
ak--
aka--
al--
ala--
alc--
alder--
alek--
alem--
ales--
ali--
all--
alleg--
alt--
alu--
am--
ama--
amai--
ame--
amh--
amha--
an--
ana--
ances--
and--
ang--
ani--
ann--
anna--
ano--
ans--
ant--
anta--
anu--
any--
ao--
aoi--
aois--
aon--
aos--
ap--
apa--
appl--
appre--
aq--
aqua--
aqui--
ar--
ara--
arb--
arc--
arch--
ard--
are--
argen--
argu--
ari--
arm--
aro--
arron--
art--
aru--
as--
asa--
asafa--
asc--
ash--
ask--
aso--
asp--
assis--
asta--
astro--
at--
ata--
ath--
atha--
athra--
ato--
attri--
au--
aug--
aur--
aus--
auto--
av--
ave--
avi--
ay--
az--
b--
ba--
bac--
back--
bad--
bag--
bai--
bain--
bal--
ball--
bally--
ban--
banc--
band--
baoi--
bar--
bara--
barr--
bas--
base--
bat--
bau--
bay--
bc--
be--
bea--
bear--
beau--
bec--
bech--
bed--
bee--
beg--
beir--
bel--
ben--
beo--
ber--
bess--
bet--
bf--
bh--
bha--
bhac--
bhain--
bhan--
bhar--
bhe--
bheo--
bhfa--
bhfaigh--
bhfe--
bhfeic--
bhfi--
bhfionn--
bhfo--
bhi--
bhith--
bhla--
bho--
bhra--
bhri--
bhro--
bhru--
bhu--
bhua--
bhun--
bi--
bia--
bien--
big--
bin--
bio--
bir--
bis--
bit--
bith--
bla--
black--
blas--
ble--
bli--
blo--
blon--
blu--
blue--
bly--
bo--
bob--
boc--
bochta--
bod--
bog--
boi--
bols--
bon--
bonn--
boo--
bor--
borr--
bos--
bot--
bou--
boul--
bour--
bout--
bow--
box--
boy--
bpa--
bpara--
bpe--
bpi--
bpo--
bpu--
br--
bra--
brad--
brat--
bre--
brea--
brew--
bri--
bro--
broad--
brow--
bru--
bry--
bu--
bua--
buan--
buch--
bug--
bul--
bun--
bundes--
bur--
bus--
bush--
but--
by--
c--
ca--
caba--
cad--
caer--
cai--
cain--
caipit--
cair--
cal--
cala--
calen--
cali--
calm--
cam--
can--
canna--
caor--
capi--
capp--
capt--
car--
cara--
card--
carr--
cas--
casa--
cat--
cath--
cau--
cavan--
cc--
cd--
ce--
cea--
ceann--
ceap--
ceard--
cearr--
ceart--
cele--
celes--
cen--
centu--
ceol--
cer--
ces--
cet--
ch--
cha--
chaipit--
chal--
chala--
chan--
char--
chas--
chat--
che--
chea--
cheann--
cheard--
cheart--
chi--
chian--
chill--
chin--
chion--
chla--
chle--
chlia--
chlu--
chnua--
cho--
choi--
choibh--
choigi--
chol--
chomh--
chon--
chos--
chri--
chriomh--
chro--
chry--
cht--
chu--
chua--
chui--
chur--
ci--
cia--
cian--
cibirn--
cill--
cine--
cinn--
cio--
cis--
cit--
ciu--
ck--
cl--
cla--
clan--
claon--
clau--
cle--
cleamh--
cli--
cliabh--
clo--
clog--
cloi--
clu--
cm--
cn--
cnag--
cnua--
co--
cobh--
cock--
coim--
coinbh--
cois--
col--
cola--
colo--
com--
comh--
comhar--
comp--
con--
confe--
conqui--
conse--
const--
cop--
cor--
corio--
corn--
corp--
corr--
cos--
cosa--
cosc--
cou--
coul--
cour--
cow--
cra--
crann--
craobh--
cre--
cri--
cro--
cros--
cru--
crua--
cs--
ct--
cu--
cua--
cuar--
cuchu--
cucu--
cugas--
cui--
cuir--
cula--
cum--
cur--
cut--
cy--
cze--
d--
da--
dai--
dair--
dal--
dam--
dan--
daon--
daor--
dar--
das--
day--
de--
dea--
dead--
dear--
dearbh--
deas--
dec--
decla--
dee--
def--
dei--
deil--
deir--
deis--
del--
dem--
demet--
demon--
den--
deo--
deploy--
der--
des--
det--
deter--
dev--
dew--
df--
dh--
dha--
dhaon--
dhe--
dhea--
dheimh--
dhi--
dhian--
dhini--
dhliste--
dho--
dhrio--
dhroch--
dhroi--
dhru--
dhu--
dhubh--
di--
dia--
dian--
dict--
did--
digi--
dil--
din--
dio--
dis--
dj--
dl--
do--
dob--
dobha--
doc--
dog--
doi--
dom--
don--
donn--
dor--
dos--
dot--
dou--
down--
dra--
dre--
drean--
dri--
dro--
droch--
droim--
dru--
dt--
dta--
dtar--
dte--
dteam--
dti--
dtion--
dto--
dtogh--
dtre--
dtri--
dtu--
dtuig--
dturg--
du--
dua--
dual--
dub--
dubh--
dui--
dun--
dur--
dy--
dyn--
dz--
e--
ea--
each--
eachtar--
eal--
ear--
eas--
easa--
east--
ec--
eccle--
ech--
ed--
edu--
ee--
eff--
eg--
ehr--
ei--
eib--
eich--
eidh--
eil--
ein--
eiri--
eis--
eisr--
eit--
ek--
el--
ela--
ele--
elect--
eli--
em--
emi--
en--
end--
enter--
eo--
ep--
equ--
er--
eri--
ery--
es--
est--
et--
eter--
eth--
ety--
eu--
euro--
euse--
ev--
eva--
ex--
exca--
exhi--
expan--
expe--
exper--
explo--
exter--
ez--
f--
fa--
fabra--
fad--
fai--
faic--
fair--
faisis--
faith--
fal--
fan--
faoi--
far--
fare--
faw--
fe--
fea--
fear--
feic--
feid--
fein--
feld--
fer--
ff--
fha--
fhad--
fhaisis--
fhan--
fhe--
fhi--
fhia--
fhion--
fhionn--
fhir--
fhl--
fhlait--
fho--
fhogh--
fhor--
fhr--
fhre--
fhrith--
fhu--
fhua--
fhuil--
fi--
fia--
fig--
fil--
file--
fill--
fin--
find--
finn--
fionn--
fios--
fir--
fire--
fit--
fitz--
fiu--
fl--
flam--
flee--
flo--
flu--
fo--
foirc--
fol--
foot--
for--
fort--
fou--
foun--
fr--
fra--
frag--
fre--
fred--
free--
fri--
fried--
frith--
fro--
fu--
fuaim--
fui--
fuil--
fuku--
ful--
full--
fun--
fund--
fut--
futu--
fy--
g--
ga--
gad--
gae--
gael--
gai--
gaibh--
gairm--
gal--
gall--
gan--
gaol--
gar--
gas--
gau--
gay--
gaz--
gca--
gcaill--
gcala--
gce--
gceann--
gceap--
gceol--
gci--
gcla--
gcli--
gco--
gcomh--
gcra--
gcre--
gcu--
gcur--
gd--
ge--
gea--
geal--
gearr--
gen--
gentle--
geo--
ger--
gh--
gha--
ghael--
ghal--
ghall--
ghar--
ghas--
ghe--
ghearr--
gheog--
ghin--
ghio--
ghlan--
gho--
ghra--
ghre--
ghrian--
ghu--
ghua--
gi--
gif--
gil--
gin--
gioco--
giolc--
gir--
giu--
gl--
gla--
glan--
glas--
glau--
gle--
glen--
gli--
glia--
glo--
gluais--
gno--
go--
gob--
god--
gol--
gold--
good--
gor--
gorm--
got--
gou--
gour--
gr--
gra--
graon--
gre--
green--
gri--
grian--
gro--
gru--
gu--
gua--
gue--
gug--
gui--
gul--
gun--
gw--
gwe--
gy--
h--
ha--
had--
haem--
haer--
hag--
hai--
haidh--
hais--
hal--
ham--
hamharc--
han--
hand--
haon--
hap--
har--
hard--
harg--
harl--
harr--
has--
hat--
hath--
hathbheo--
hau--
haw--
hay--
he--
head--
heart--
heasa--
heip--
heirea--
heisi--
hel--
heli--
hels--
hemm--
hemp--
hen--
her--
hercu--
het--
hew--
hey--
hi--
hiar--
hidir--
hidre--
hidri--
high--
hilde--
him--
hinde--
hinfhe--
hins--
hint--
hiom--
hion--
hip--
hipea--
hir--
hiro--
his--
hit--
hl--
ho--
hoi--
hok--
hol--
holl--
holla--
holo--
home--
hop--
hor--
host--
hot--
how--
hr--
html--
hu--
hua--
hug--
hui--
huimh--
hur--
hurr--
hut--
hy--
hydro--
i--
ia--
ian--
iar--
ib--
ibe--
ic--
ice--
id--
ide--
idi--
idir--
idlia--
idre--
ie--
if--
ig--
igh--
igi--
igna--
ii--
il--
ile--
ill--
illus--
im--
imag--
ime--
imeag--
imh--
imhe--
iml--
imple--
impri--
imreo--
imtheo--
in--
ina--
inc--
incho--
incu--
ind--
ine--
infe--
infin--
infra--
ing--
ini--
inn--
ino--
ins--
inste--
int--
inter--
inva--
inve--
io--
ioma--
iomc--
ion--
ionc--
ionra--
ionta--
ip--
ir--
ira--
ire--
iri--
iris--
irish--
irt--
is--
isa--
isc--
isi--
iso--
it--
ite--
ith--
iti--
iu--
iv--
ive--
iz--
j--
ja--
jaci--
jam--
jan--
jar--
jay--
je--
jed--
jer--
ji--
jo--
joa--
jon--
ju--
k--
ka--
kan--
kar--
kash--
kath--
kau--
kay--
kaz--
ke--
ken--
ker--
key--
kh--
kho--
ki--
kick--
kil--
kill--
kilm--
kim--
kings--
kir--
kirch--
kirk--
kit--
kjar--
kla--
kle--
klu--
kni--
kno--
knock--
ko--
kor--
kra--
kras--
kre--
kri--
kris--
kro--
kru--
kry--
ku--
kwa--
ky--
kyr--
l--
la--
lae--
lag--
lai--
lake--
lan--
land--
lang--
lar--
las--
lau--
laugh--
laur--
law--
lax--
lay--
lch--
ld--
le--
lea--
lean--
leas--
leath--
led--
legi--
lei--
leict--
leictrea--
leictri--
leith--
len--
leo--
les--
let--
leu--
lev--
ley--
li--
lia--
liag--
liath--
libra--
lie--
life--
lig--
lim--
lin--
lir--
lis--
lit--
liv--
live--
ll--
lla--
ln--
lo--
lock--
log--
loi--
loisc--
lom--
lon--
long--
los--
lot--
love--
low--
ls--
lse--
lt--
lu--
lua--
luas--
luath--
luc--
lucsam--
lugd--
lui--
luibh--
lus--
lv--
ly--
lyn--
m--
ma--
mac--
maca--
mad--
mae--
mag--
mai--
main--
mais--
maj--
mak--
mal--
mala--
mamm--
man--
mao--
maol--
maolcha--
maor--
maorla--
map--
mar--
mara--
mars--
mas--
mau--
max--
may--
maz--
mb--
mba--
mban--
mbe--
mberk--
mbi--
mbia--
mbo--
mbols--
mbra--
mbre--
mbri--
mbua--
mbun--
mc--
mcal--
mcdo--
mcfar--
mcke--
mcki--
me--
mea--
mead--
mean--
mear--
med--
meg--
mei--
meigilit--
meiti--
mel--
men--
mer--
merri--
mes--
met--
meta--
mexi--
mh--
mha--
mhainis--
mhaoir--
mhaol--
mhar--
mhas--
mhe--
mhea--
mhi--
mhic--
mhicrea--
mhion--
mho--
mhorf--
mhu--
mi--
mic--
micrea--
micro--
mid--
mie--
mik--
mil--
mill--
min--
mio--
mion--
mir--
mis--
mit--
mm--
mo--
modh--
moi--
mol--
mon--
mona--
mong--
mont--
monte--
moon--
mor--
mou--
mour--
moy--
mp--
mr--
ms--
mu--
muc--
mug--
muin--
muir--
muire--
mul--
mull--
mult--
mun--
my--
myste--
n--
na--
nad--
nag--
nai--
nal--
nam--
nan--
naomh--
nar--
nas--
nasc--
nb--
nc--
nd--
nda--
nde--
ndeas--
ndi--
ndo--
ndu--
ne--
nea--
neamh--
neas--
neces--
neder--
neo--
ner--
net--
neu--
new--
news--
nf--
ng--
nga--
ngar--
nge--
ngla--
nglu--
ngo--
ngre--
ngu--
nh--
ni--
nia--
nic--
nie--
niko--
nin--
nio--
nis--
nit--
nle--
nm--
nn--
no--
noi--
non--
nor--
north--
nos--
not--
nou--
novos--
ns--
nt--
nte--
nu--
nua--
nui--
nuo--
nur--
ny--
nymp--
o--
ob--
oba--
obe--
obh--
oc--
och--
oct--
oe--
of--
off--
og--
oga--
ogh--
oh--
oi--
oibia--
oil--
oir--
ois--
ok--
ol--
ola--
old--
ole--
oll--
oly--
om--
oma--
omh--
on--
ona--
one--
onn--
ono--
op--
open--
opt--
or--
ora--
orc--
orcho--
ord--
ordla--
org--
ori--
oro--
ort--
ortho--
oru--
os--
osa--
ost--
ot--
othar--
othr--
ou--
out--
over--
ox--
oz--
p--
pa--
pai--
paki--
pal--
palla--
pam--
pan--
par--
para--
part--
pas--
pasa--
pass--
pat--
pax--
pay--
pe--
pell--
pen--
per--
perce--
perci--
petro--
peve--
ph--
pha--
phe--
phi--
phla--
pho--
phol--
phro--
phu--
phy--
pi--
pic--
pie--
pig--
pil--
pin--
pio--
pirk--
piss--
pit--
pl--
pla--
play--
ple--
plu--
po--
pobal--
poc--
podchraol--
poh--
poile--
pol--
poly--
pomp--
pop--
por--
post--
pot--
poz--
pp--
pr--
pra--
pre--
pri--
pro--
pru--
ps--
psy--
pt--
pu--
pub--
pueb--
pur--
put--
px--
py--
pyr--
q--
qa--
qu--
que--
qui--
quo--
r--
ra--
rabha--
rac--
rach--
rad--
radai--
raf--
rag--
rai--
rain--
ram--
ran--
rap--
ras--
raw--
ray--
rbh--
rc--
rch--
rchea--
rcho--
rd--
rda--
re--
rea--
reach--
rece--
recent--
reco--
red--
refl--
reg--
rein--
rela--
ren--
reo--
requi--
res--
respo--
rev--
rever--
rf--
rg--
rga--
rgh--
rh--
rho--
rhy--
ri--
ria--
ric--
rich--
rie--
rig--
rio--
ris--
rk--
rl--
rla--
rn--
rna--
ro--
rob--
roc--
rock--
rod--
roi--
roma--
ron--
ros--
roth--
rou--
row--
roz--
rr--
rt--
rthaibh--
rthe--
ru--
rua--
rud--
rug--
run--
ry--
s--
sa--
sac--
saf--
sagitta--
sai--
sal--
sam--
samh--
san--
sand--
saor--
sar--
sas--
sau--
sc--
sca--
scan--
scar--
sce--
sceip--
sch--
scho--
schu--
sci--
scien--
scig--
sco--
scoth--
scra--
scre--
scroba--
scu--
sd--
se--
sea--
seal--
sean--
seas--
secu--
see--
seil--
sein--
sel--
sen--
seo--
sep--
ser--
set--
sga--
sh--
sha--
shacs--
shaina--
shan--
shaor--
she--
shea--
sheal--
shean--
sheo--
sher--
shi--
shla--
sho--
show--
shu--
shuaimh--
shubs--
si--
sia--
sic--
sid--
sie--
sig--
sil--
sin--
sio--
sir--
sis--
sit--
siu--
six--
sk--
ska--
skel--
sky--
sl--
sla--
slacht--
slava--
sle--
sli--
slo--
slua--
sm--
sme--
smo--
sna--
sne--
sno--
so--
soc--
sol--
some--
son--
song--
sorb--
sos--
sou--
sound--
south--
sp--
spa--
spe--
spect--
spi--
spiel--
spo--
sq--
squi--
sr--
sra--
sro--
ss--
st--
sta--
star--
ste--
sterr--
sti--
sto--
stoc--
stock--
stra--
stre--
stru--
stu--
su--
sua--
sub--
succ--
sud--
sue--
sufra--
sugge--
sui--
sul--
sum--
sun--
super--
supp--
supple--
sur--
suth--
sv--
sw--
swa--
swe--
swin--
sy--
sylv--
syn--
syr--
sz--
sze--
t--
ta--
tab--
tae--
tag--
tai--
tair--
tais--
tal--
tam--
tan--
tar--
tat--
tatar--
tau--
tax--
te--
tea--
tear--
tearc--
teas--
teicteo--
teil--
teilea--
teimh--
teir--
teitrea--
tel--
temp--
ten--
teo--
ter--
tex--
tg--
th--
tha--
thabhar--
thai--
thair--
thar--
the--
theil--
theo--
thi--
thiom--
thion--
tho--
thoir--
thra--
thrasd--
thre--
thri--
thru--
thu--
thur--
thurg--
ti--
tie--
tig--
tim--
time--
tin--
tion--
tip--
tir--
to--
togh--
toi--
toil--
toir--
toirt--
tol--
tom--
toma--
ton--
tonn--
too--
top--
topag--
topog--
tor--
tou--
tour--
town--
tra--
trans--
tras--
tre--
trea--
treo--
tri--
tro--
trom--
tru--
trua--
ts--
tsa--
tse--
tsea--
tsean--
tsi--
tso--
tsu--
tt--
tu--
tua--
tuadh--
tui--
tuig--
tung--
turr--
tv--
tw--
twe--
ty--
u--
ua--
uaill--
ualla--
uath--
uathim--
uathla--
uathri--
ubh--
ui--
uile--
uisce--
uk--
ul--
ullm--
ultra--
um--
un--
una--
under--
unif--
up--
ur--
us--
user--
ut--
v--
va--
vaile--
val--
van--
var--
vau--
ve--
veicteo--
ver--
verc--
verg--
verte--
vespa--
vi--
via--
vic--
vie--
view--
vil--
vir--
vitt--
vla--
vo--
vol--
vor--
vu--
vy--
w--
wa--
wal--
wald--
wall--
wande--
war--
was--
wash--
wat--
we--
web--
wei--
wel--
west--
wey--
whip--
whis--
whit--
white--
wi--
wic--
wie--
wig--
wiki--
wikti--
wil--
win--
wind--
wis--
wit--
wo--
wood--
wor--
word--
wu--
wy--
wyn--
x--
xe--
xi--
xin--
xx--
y--
ya--
yan--
ye--
year--
yi--
yo--
yu--
z--
za--
zar--
ze--
zh--
zie--
zo--
zoo--
zu--
zucker--
zur--
ð--
þ--
đ--
ı--
ł--
α--
γ--
δ--
κ--
λ--
μ--
ν--
ο--
π--
ρ--
σ--
τ--
в--
д--
и--
к--
кате--
м--
н--
с--
т--
ا--
ال--
--0
--00
--01
--05
--1
--10
--14
--16
--2
--3
--38
--4
--42
--5
--54
--6
--7
--8
--80
--83
--89
--9
--91
--a
--aa
--ab
--abh
--able
--ac
--aca
--aceae
--ach
--acha
--achais
--achas
--acht
--achta
--acio
--ad
--ada
--adar
--adh
--ado
--ady
--ae
--aea
--af
--afo
--aft
--ag
--aga
--agartho
--age
--agh
--ago
--agrafai
--agro
--ah
--ahan
--ai
--aibh
--aic
--aich
--aid
--aidh
--aidi
--aig
--aigh
--ail
--aim
--ain
--ainn
--air
--airc
--aire
--ais
--aith
--aithe
--aj
--ak
--aki
--al
--ala
--ald
--ale
--ales
--ality
--all
--ally
--alpa
--alu
--am
--ama
--amh
--amo
--an
--ana
--anais
--anas
--ance
--and
--ane
--ang
--anga
--ani
--ann
--anna
--ano
--ans
--ant
--anta
--anus
--any
--aois
--ap
--ar
--ara
--ard
--aria
--aries
--ars
--art
--aru
--ary
--as
--asa
--ast
--asta
--at
--ata
--ate
--ated
--ates
--ati
--atic
--ation
--ations
--atory
--atra
--ats
--att
--au
--aud
--ax
--ay
--aya
--az
--b
--ba
--back
--bai
--bal
--bar
--be
--bed
--berg
--bes
--bh
--bha
--bhai
--bhal
--bhe
--bhi
--bhle
--bhne
--bho
--bhsa
--bhsi
--bhsu
--bht
--bhui
--bi
--bie
--ble
--blo
--bo
--boro
--bot
--bourne
--box
--boy
--bs
--bu
--bur
--burg
--bute
--buted
--by
--c
--ca
--cach
--cadh
--cai
--caidh
--cail
--cal
--canna
--caod
--car
--cc
--cca
--cci
--cco
--ce
--cea
--ceae
--cey
--ch
--cha
--chai
--chais
--chas
--chd
--che
--chen
--ches
--chi
--chla
--chlo
--cho
--chorcra
--chri
--cht
--chta
--chtai
--chto
--chtu
--chu
--chuimilt
--chur
--chy
--ci
--cia
--cidae
--cific
--cil
--cile
--cin
--cint
--cio
--city
--ciu
--ck
--cker
--cks
--cle
--cme
--cne
--cni
--co
--cock
--coil
--con
--cot
--cra
--craft
--cre
--cri
--cs
--csai
--cse
--ct
--cta
--ctar
--ctha
--ction
--ctive
--cto
--cts
--cu
--cus
--cy
--d
--da
--dad
--dae
--dai
--daim
--dal
--dale
--dan
--dar
--das
--day
--dd
--ddin
--de
--ded
--den
--der
--des
--dg
--dge
--dh
--dha
--dhe
--dhi
--dhm
--dhu
--di
--dia
--diach
--die
--dil
--din
--dis
--dit
--dium
--dle
--dley
--dn
--do
--don
--dor
--doro
--dra
--ds
--dt
--du
--dus
--dw
--dy
--e
--ea
--each
--eacha
--eachas
--eacht
--eachta
--eada
--eadar
--eadh
--eado
--eae
--eal
--eall
--ean
--eann
--eanna
--ear
--eas
--eau
--eaux
--eb
--eca
--ech
--eck
--ect
--ection
--ects
--ed
--edd
--ede
--ee
--een
--eer
--ef
--eg
--ega
--egel
--ei
--eil
--eille
--eir
--eis
--ek
--el
--eley
--ell
--ella
--elli
--ello
--els
--ely
--em
--eman
--ement
--en
--ena
--enau
--enburg
--ence
--end
--ene
--enia
--enn
--enne
--enos
--ens
--ense
--ensis
--ent
--ential
--ents
--enza
--enze
--eo
--eodh
--eoidh
--eoir
--eoiri
--eolai
--eora
--ep
--er
--era
--erdydd
--ere
--ered
--erg
--eria
--ern
--ero
--ers
--ert
--erve
--ery
--es
--ese
--eson
--ess
--est
--et
--ete
--eto
--ets
--ett
--ette
--etto
--ety
--eur
--eus
--eux
--ev
--evich
--ew
--ey
--ez
--f
--fa
--fadh
--fai
--faidh
--far
--fax
--fe
--fea
--feacht
--feadh
--fear
--feld
--ff
--ffi
--fhad
--fhi
--fho
--fi
--fication
--fid
--fidh
--fidi
--field
--fiu
--fo
--ford
--fs
--ft
--fu
--ful
--fy
--g
--ga
--gaigh
--gais
--gal
--gam
--gan
--gar
--gat
--gate
--ge
--geach
--ged
--gel
--gen
--ger
--ges
--gest
--gg
--gged
--ggs
--ggy
--gh
--gha
--ghaile
--ghde
--ghe
--ghne
--ghni
--ghraf
--ghri
--ghru
--ght
--gi
--gia
--gidae
--gie
--gin
--gini
--gio
--giore
--git
--gle
--gli
--glio
--gne
--go
--gon
--graph
--gs
--gt
--gth
--gthe
--gton
--gu
--gus
--gy
--h
--ha
--hach
--hadh
--hai
--haill
--hall
--ham
--han
--har
--has
--hbh
--hdai
--he
--hea
--head
--hean
--heas
--hed
--heim
--hem
--her
--hes
--hi
--hia
--hic
--hie
--hill
--hin
--hinn
--hip
--hips
--hir
--hithe
--hiu
--hl
--hla
--hleado
--hlo
--hmad
--hn
--hna
--hne
--hni
--ho
--hoff
--hol
--holm
--hon
--hood
--hra
--hrai
--hre
--hs
--ht
--hta
--http
--https
--hu
--hurst
--hus
--hy
--i
--ia
--iaceae
--iae
--ial
--iam
--ian
--iana
--iano
--ians
--ias
--iata
--ib
--ibh
--ic
--ica
--ical
--ice
--ich
--ici
--ick
--ico
--ics
--icum
--icus
--id
--idae
--ide
--ides
--idh
--idi
--ids
--ie
--ied
--iel
--ien
--ier
--iers
--ies
--ieu
--if
--ifi
--ifig
--ig
--igan
--ige
--igh
--ighin
--igi
--igo
--ii
--iidae
--ik
--ika
--ikov
--il
--ilde
--ile
--ilg
--ili
--iligiu
--ill
--illa
--ilo
--ilt
--ily
--im
--ima
--imal
--ime
--imeadh
--imh
--imi
--imic
--imid
--imo
--imsire
--imus
--in
--ina
--inal
--inate
--inator
--ine
--ing
--ingham
--ings
--ington
--ini
--inic
--inm
--inn
--innt
--innte
--ino
--int
--inus
--io
--iol
--ion
--ions
--ior
--ios
--ious
--ip
--ipe
--ipi
--ique
--ir
--ira
--irc
--ird
--ire
--ireland
--irfe
--iri
--iria
--iripe
--irm
--irn
--irni
--iro
--irt
--is
--isc
--ische
--ise
--ised
--ish
--ished
--ishing
--isi
--isli
--ism
--isme
--isne
--ist
--ista
--ists
--it
--ita
--ite
--ith
--ithe
--ithne
--iti
--ities
--ition
--itlea
--ito
--itt
--itus
--ity
--itz
--iu
--ium
--ius
--iv
--ive
--ivo
--ix
--iy
--iya
--iz
--ization
--ize
--ized
--izia
--j
--ja
--jah
--je
--jet
--ji
--jin
--jo
--joy
--k
--ka
--kar
--kas
--ke
--kel
--kell
--ker
--kers
--kes
--ket
--kh
--ki
--kin
--kiy
--kler
--kley
--ko
--kov
--ks
--kt
--ktion
--ku
--ky
--l
--la
--lach
--lagtha
--lah
--lai
--lam
--lan
--land
--lann
--lar
--las
--lathas
--lav
--law
--lb
--lbh
--lbo
--lc
--lca
--lce
--lci
--lco
--ld
--lde
--ldi
--ldo
--le
--lea
--led
--lee
--leen
--ler
--lers
--les
--less
--let
--ley
--lf
--lg
--lga
--li
--lia
--lic
--lidae
--ligh
--lin
--line
--ling
--linn
--lio
--lis
--list
--litir
--liu
--lk
--ll
--lla
--llach
--lle
--lli
--llin
--llinn
--lliu
--llo
--lls
--llu
--llus
--lly
--lm
--lmo
--lo
--load
--loch
--logy
--lon
--lop
--lor
--los
--lot
--lpi
--ls
--lson
--lt
--lta
--lte
--ltimore
--lto
--lu
--lude
--lui
--lum
--lus
--lvi
--ly
--lyn
--lz
--m
--ma
--maa
--mai
--man
--mar
--mas
--mation
--mbo
--me
--meach
--meacha
--med
--men
--ment
--ments
--mer
--mey
--mh
--mha
--mhaodho
--mhar
--mharfo
--mhe
--mhea
--mheach
--mhi
--mho
--mhra
--mhu
--mi
--mia
--mid
--migh
--mirce
--mis
--miu
--mium
--mm
--mo
--mon
--more
--mos
--moto
--mouth
--mp
--mpa
--mpai
--mpo
--mps
--mram
--ms
--msir
--mthriall
--mu
--mus
--my
--n
--na
--naceae
--nach
--naco
--nae
--nai
--naigh
--nais
--nal
--nan
--nar
--nas
--nberg
--nburg
--nc
--nca
--nce
--nces
--nch
--nche
--ncio
--nco
--ncy
--nd
--nda
--nded
--ndo
--nds
--ndu
--ndy
--ne
--nea
--nen
--ner
--nes
--ness
--news
--ney
--ng
--nga
--nge
--ngil
--ngin
--ngir
--ngo
--ngs
--ni
--nia
--nial
--nic
--nici
--nidae
--nie
--nigh
--nik
--ning
--nio
--nis
--niu
--nius
--nk
--nka
--nko
--nks
--nla
--nm
--nn
--nna
--nne
--nnea
--nner
--nnes
--nney
--nnis
--nniu
--nno
--nnta
--nny
--no
--nova
--ns
--nsa
--nsai
--nsan
--nse
--nsis
--nski
--nsley
--nso
--nson
--nstein
--nt
--nta
--nte
--nthus
--nti
--ntly
--nto
--ntra
--ntry
--nts
--ntu
--ntz
--nu
--num
--nus
--ny
--nya
--nz
--nza
--nze
--nzi
--nzo
--o
--oa
--och
--ochlu
--ocht
--ock
--od
--odh
--ody
--oe
--of
--ofai
--ofar
--og
--oga
--oges
--ogham
--ogy
--oi
--oibh
--oich
--oid
--oidh
--oidi
--oige
--oigi
--oil
--oin
--oine
--oir
--oireacht
--oireachta
--oiri
--ois
--oise
--ok
--oka
--ol
--ola
--olach
--olai
--olas
--oli
--ology
--olt
--om
--omb
--ome
--omu
--on
--ona
--onad
--ond
--one
--ong
--onglo
--oni
--onia
--onn
--ons
--ont
--ontu
--oo
--oon
--op
--or
--ora
--ore
--ores
--ori
--ors
--orum
--os
--osa
--osca
--ose
--ot
--ote
--oth
--otro
--ou
--oud
--ough
--ounds
--ous
--out
--ov
--ova
--ovic
--ovich
--ovsk
--ovsky
--ow
--ows
--ox
--oy
--p
--pa
--padh
--page
--pata
--pe
--ped
--pes
--ph
--pha
--phe
--phi
--pho
--phy
--pi
--pli
--po
--poda
--polis
--pool
--port
--ppa
--ppe
--pped
--ppen
--pper
--ps
--pse
--psis
--pson
--pt
--ptha
--ption
--pton
--pu
--pus
--py
--q
--que
--r
--ra
--rabo
--rach
--rad
--rah
--rai
--ral
--ran
--rann
--ras
--rat
--rate
--rba
--rbhe
--rc
--rca
--rce
--rco
--rd
--rde
--rdu
--re
--rea
--reach
--reacht
--red
--ree
--rell
--res
--ress
--ret
--rf
--rfe
--rfhicsean
--rg
--rge
--rgo
--ri
--ria
--rian
--ric
--rida
--ridae
--rie
--ries
--rill
--rim
--rin
--rine
--rino
--rio
--ris
--rit
--riu
--rium
--rius
--rk
--rkey
--rks
--rley
--rm
--rma
--rn
--rna
--rne
--rney
--rni
--rno
--ro
--rol
--ron
--ros
--rov
--rp
--rr
--rra
--rre
--rrell
--rro
--rru
--rs
--rsa
--rst
--rt
--rta
--rtach
--rth
--rtha
--rti
--rty
--ru
--rua
--rum
--rus
--rville
--ry
--s
--sa
--sach
--sai
--san
--sau
--sboro
--sburg
--sby
--sc
--sca
--scal
--sce
--sci
--sco
--scri
--sctha
--sdale
--sday
--se
--sea
--sean
--sed
--see
--sel
--sell
--sement
--sen
--seo
--ses
--sey
--sfa
--sfe
--sg
--sh
--sha
--shi
--ship
--shla
--shlua
--sho
--shu
--si
--sia
--side
--sie
--sin
--sis
--siu
--sive
--sk
--ska
--skey
--ski
--sky
--sm
--sma
--sman
--snai
--sne
--sno
--so
--son
--sor
--sov
--sp
--spa
--ss
--ssa
--sse
--sser
--sson
--ssus
--st
--sta
--ste
--stear
--sti
--stic
--stine
--stir
--sto
--ston
--stown
--sts
--stu
--sty
--su
--sus
--sville
--sy
--sz
--szko
--t
--ta
--tach
--tad
--tag
--tai
--tail
--tain
--tal
--tan
--tana
--tanais
--tar
--tas
--tation
--tch
--te
--teach
--teanas
--tear
--ted
--tee
--tein
--tely
--ten
--teoir
--teoiri
--teora
--ter
--tes
--text
--th
--tha
--the
--theach
--theadh
--theoir
--theoiri
--theora
--thi
--thigh
--thnado
--thni
--tho
--thorpe
--thra
--thy
--ti
--tia
--tic
--tidae
--tie
--ties
--tile
--time
--tin
--tine
--ting
--tio
--tion
--tional
--tions
--tir
--tis
--tise
--tiu
--tive
--tle
--tley
--tly
--tman
--tment
--tna
--to
--ton
--tor
--tos
--town
--tra
--trai
--tre
--tri
--tro
--tru
--ts
--tsk
--tt
--tta
--tte
--tter
--tti
--tto
--tton
--tty
--tu
--tum
--tur
--tura
--ture
--tus
--tute
--ty
--tz
--u
--ua
--ual
--uala
--uar
--uation
--ub
--uce
--uced
--uch
--ud
--ue
--uel
--ugh
--ught
--ui
--uib
--uil
--uin
--uinn
--uithe
--uk
--ul
--ula
--ular
--ule
--uli
--ult
--ulus
--um
--un
--ung
--unt
--up
--ups
--ur
--ura
--ure
--ures
--urg
--urs
--us
--use
--ust
--usz
--ut
--ute
--uth
--utus
--uus
--ux
--uß
--v
--va
--vaal
--vais
--van
--vas
--vation
--ve
--ved
--ven
--ver
--ves
--vey
--vi
--via
--vic
--vich
--vik
--ville
--vin
--ving
--vio
--vis
--vity
--vius
--vo
--vski
--vus
--vy
--w
--wa
--wal
--wall
--wan
--way
--we
--web
--well
--wen
--wi
--wick
--wicz
--wide
--wk
--wl
--wley
--wn
--wood
--wr
--ws
--wy
--wyd
--wyn
--x
--xa
--xas
--xide
--xy
--y
--ya
--yan
--yard
--yd
--ydd
--ye
--yed
--yer
--yev
--yi
--yl
--ym
--yn
--yne
--yo
--yre
--ys
--yu
--yx
--z
--za
--zan
--zano
--ze
--zed
--zel
--zen
--zer
--zh
--zi
--zia
--zie
--zig
--zio
--zo
--zon
--zone
--zoni
--zy
--zz
--zza
--zzi
--zzo
--ß
--ße
--ð
--ła
--α
--ε
--η
--ι
--ν
--ο
--ος
--ς
--υ
--ω
--а
--в
--вич
--е
--и
--ии
--ич
--к
--н
--о
--р
--т
--я
--і
--ا
--د
--ن
