!
"
#
##0
##1
##10
##11
##12
##13
##14
##15
##16
##17
##18
##19
##2
##20
##21
##22
##23
##24
##25
##26
##27
##28
##29
##3
##30
##31
##32
##33
##34
##35
##36
##37
##38
##39
##4
##40
##41
##42
##43
##44
##45
##46
##47
##48
##49
##5
##50
##51
##52
##53
##54
##55
##56
##57
##58
##59
##6
##60
##61
##62
##63
##64
##65
##66
##67
##68
##69
##7
##70
##71
##72
##73
##74
##75
##76
##77
##78
##79
##8
##80
##81
##82
##83
##84
##85
##86
##87
##88
##89
##9
##90
##91
##92
##93
##94
##95
##96
##97
##98
##99
$
%
&
'
(
)
*
+
,
-
.
/
0
00
000
0004
001
0010
002
003
004
005
006
007
008
01
010
012
013
014
015
02
020
03
04
05
050
06
07
08
09
098
1
10
100
1000
100001
100002
100004
100005
100016
1002
1003
1005
1007
1009
101
1010
1011
1014
1015
1016
1017
1018
102
1021
1022
1023
1024
1025
1027
103
1030
1033
1036
1038
1039
104
1042
1048
105
1050
1051
1052
1055
1056
106
1063
1066
1067
107
1070
1071
1072
1073
1075
1079
108
1080
1086
1088
109
1092
1093
1095
1098
11
110
1100
1101
1103
1106
111
1111
1115
1118
1119
112
1121
1124
1126
1128
113
1130
1134
1135
1136
1138
114
1142
1145
115
1150
1153
1154
1155
1156
1159
116
1160
1162
1165
1166
1167
1169
117
1170
1171
1172
1176
1177
118
1180
1181
1185
1186
1187
1188
1189
119
1190
1194
1197
1198
1199
12
120
1200
1201
1202
1204
1207
121
1210
1214
1216
122
1224
123
1230
1233
124
1241
1244
125
1250
1256
1257
126
127
128
1282
1286
129
1292
1297
13
130
1300
131
1314
1315
1316
1318
132
1324
1327
1329
133
1336
1337
134
1340
135
1350
1353
136
1365
1368
137
1371
1377
138
139
1390
1397
14
140
1400
1404
141
1410
1415
1418
142
1420
1421
1422
143
1430
1431
144
1443
145
1450
1452
1453
1455
1458
146
1460
1467
1468
1469
147
1470
1471
1473
1475
1476
1477
1478
1479
148
1480
1483
1484
1485
1488
1489
149
1490
1491
1492
1493
1494
1496
1497
1498
1499
15
150
1500
1501
1502
1503
1504
1505
1506
1507
1508
1509
151
1510
1511
1512
1513
1514
1515
1516
1517
1518
1519
152
1520
1521
1522
1523
1524
1525
1526
1527
1528
1529
153
1530
1531
1533
1534
1535
1536
1537
1538
1539
154
1540
1541
1542
1543
1544
1545
1546
1547
1548
1549
155
1550
1552
1553
1554
1555
1556
1557
1558
1559
156
1560
1562
1563
1564
1565
1566
1567
1568
1569
157
1570
1571
1572
1573
1574
1575
1576
1577
1578
1579
158
1580
1581
1582
1583
1584
1585
1586
1587
1588
1589
159
1590
1591
1592
1593
1594
1595
1596
1597
1598
1599
16
160
1600
1601
1602
1603
1604
1605
1606
1607
1608
1609
161
1610
1611
1612
1613
1614
1615
1616
1617
1618
1619
162
1620
1621
1622
1623
1624
1625
1626
1627
1628
1629
163
1630
1631
1632
1633
1634
1635
1636
1637
1638
1639
164
1640
1641
1642
1643
1644
1645
1646
1647
1648
1649
165
1650
1651
1652
1653
1654
1655
1656
1657
1658
1659
166
1660
1661
1662
1663
1664
1665
1666
1667
1669
167
1670
1671
1672
1673
1674
1675
1676
1677
1678
1679
168
1680
1681
1682
1683
1684
1685
1686
1687
1688
1689
169
1690
1691
1692
1693
1694
1695
1696
1697
1698
1699
17
170
1700
1701
1702
1703
1704
1706
1707
1708
1709
171
1710
1711
1712
1713
1714
1715
1716
1717
1718
1719
172
1720
1721
1722
1723
1724
1725
1726
1727
1728
1729
173
1730
1731
1732
1733
1734
1735
1736
1737
1738
1739
174
1740
1741
1742
1743
1744
1745
1746
1747
1748
1749
175
1750
1751
1752
1753
1754
1755
1756
1757
1758
1759
176
1760
1761
1762
1763
1764
1765
1766
1767
1768
1769
177
1770
1771
1772
1773
1774
1775
1776
1777
1778
1779
178
1780
1781
1782
1783
1784
1785
1786
1787
1788
1789
179
1790
1791
1792
1793
1794
1795
1796
1797
1798
1799
18
180
1800
1801
1802
1803
1804
1805
1806
1807
1808
1809
181
1810
1811
1812
1813
1814
1815
1816
1817
1818
1819
182
1820
1821
1822
1823
1824
1825
1826
1827
1828
1829
183
1830
1831
1832
1833
1834
1835
1836
1837
1838
1839
184
1840
1841
1842
1843
1844
1845
1846
1847
1848
1849
185
1850
1851
1852
1853
1854
1855
1856
1857
1858
1859
186
1860
1861
1862
1863
1864
1865
1866
1867
1868
1869
187
1870
1871
1872
1873
1874
1875
1876
1877
1878
1879
188
1880
1881
1882
1883
1884
1885
1886
1887
1888
1889
189
1890
1891
1892
1893
1894
1895
1896
1897
1898
1899
19
190
1900
1901
1902
1903
1904
1905
1906
1907
1908
1909
191
1910
1911
1912
1913
1914
1915
1916
1917
1918
1919
192
1920
1921
1922
1923
1924
1925
1926
1927
1928
1929
193
1930
1931
1932
1933
1934
1935
1936
1937
1938
1939
194
1940
1941
1942
1943
1944
1945
1946
1947
1948
1949
195
1950
1951
1952
1953
1954
1955
1956
1957
1958
1959
196
1960
1961
1962
1963
1964
1965
1966
1967
1968
1969
197
1970
1971
1972
1973
1974
1975
1976
1977
1978
1979
198
1980
1981
1982
1983
1984
1985
1986
1987
1988
1989
199
1990
1991
1992
1993
1994
1995
1996
1997
1998
1999
2
20
200
2000
2001
2002
2003
2004
2005
2006
2007
2008
2009
201
2010
2011
2012
2013
2014
2015
2016
2017
2018
2019
202
2020
2021
2022
2023
2024
203
2030
204
205
206
207
208
209
21
210
211
212
213
214
215
216
217
218
219
22
220
221
222
223
224
225
226
227
228
229
23
230
2307
231
232
233
234
235
236
23673
2369
237
238
239
24
240
241
242
243
244
245
246
247
248
249
25
250
2500
251
252
253
254
255
256
257
258
259
26
260
2609
261
262
263
264
265
266
267
268
269
27
270
271
272
273
274
275
276
277
278
279
28
280
281
282
283
284
285
286
287
288
289
29
290
291
292
293
294
295
296
297
298
299
3
30
300
3000
301
302
303
304
305
306
307
308
309
31
310
311
312
313
314
315
316
317
318
319
32
320
321
322
323
324
325
326
327
328
329
33
330
331
332
333
334
335
336
337
338
339
34
340
341
342
343
344
345
346
347
348
349
35
350
351
352
353
354
355
356
357
358
359
36
360
361
362
363
36395
364
365
366
367
368
369
37
370
371
372
373
374
375
376
377
378
379
38
380
381
382
383
384
385
387
388
389
39
390
392
393
394
395
396
397
399
4
40
400
4000
401
402
4026990
403
404
405
406
407
408
409
41
410
411
412
413
414
415
417
418
419
42
420
421
422
423
424
425
426
427
428
429
43
430
431
432
433
434
435
436
437
438
439
44
440
441
442
443
444
445
446
447
448
449
45
450
451
452
454
455
456
457
458
459
46
460
461
462
463
464
465
466
46601
467
468
469
47
470
471
473
475
476
477
478
48
480
481
482
483
484
485
486
487
489
49
490
491
492
493
494
495
496
497
498
499
5
50
500
5000
501
502
503
504
505
507
508
509
51
510
511
512
513
514
515
516
517
52
520
521
522
523
524
525
526
527
528
529
53
530
531
532
533
534
535
536
537
538
539
54
540
541
542
543
544
545
546
547
548
549
55
550
551
552
553
555
556
557
558
559
56
560
561
563
564
565
566
567
568
569
57
570
571
572
573
574
575
576
577
578
579
58
580
581
582
583
584
585
586
587
588
5882
589
59
590
592
594
595
596
597
598
599
6
60
600
601
602
603
604
605
606
607
608
61
610
611
612
613
614
615
616
617
618
62
620
621
622
624
625
626
627
628
629
63
630
631
632
633
634
635
636
6361
637
638
639
64
640
641
642
643
644
645
646
647
649
65
650
651
652
653
654
655
656
657
658
66
660
661
662
663
664
665
666
667
668
67
670
671
672
673
674
675
676
677
678
679
68
680
681
682
683
684
685
686
688
689
69
690
691
692
693
694
695
696
697
698
7
70
700
7001
701
702
703
704
705
707
708
709
71
710
711
712
7134
714
715
716
717
7171
718
719
72
720
721
722
723
724
725
726
727
728
729
73
730
731
732
733
734
735
736
737
738
739
74
740
741
742
743
744
746
747
748
749
75
750
751
752
753
754
755
756
757
758
759
76
760
761
763
764
765
766
767
768
769
77
770
771
772
773
774
775
776
777
778
779
78
780
781
782
783
784
785
786
787
788
789
79
790
791
792
793
794
795
796
797
798
799
8
80
800
800011
801
802
803
804
805
806
807
808
809
81
810
812
814
815
816
817
818
819
82
820
823
824
825
827
828
829
83
830
831
832
833
834
835
836
837
838
839
84
840
841
842
843
844
845
846
84682
847
848
849
85
850
851
85182
852
853
854
855
856
857
85791
858
859
86
860
861
862
863
864
866
868
869
87
870
871
872
873
876
877
878
879
88
880
881
882
883
884
885
886
887
888
889
89
891
893
894
895
896
898
899
9
90
900
902
903
904
905
907
908
909
91
910
911
912
913
914
915
916
917
918
919
92
920
921
923
924
925
926
927
928
929
93
930
932
933
934
935
936
937
939
94
940
941
942
943
944
95
950
951
952
9529511
953
954
9547698
956
959
96
960
961
962
963
964
965
966
967
968
97
970
971
972
973
974
975
976
977
978
979
98
980
982
983
984
985
987
988
99
990
991
993
996
998
999
:
;
<
=
>
?
@
[
\
]
^
_
`
a
aa
aachen
aalto
aaron
ab
aba
abadh
abair
abairt
abairti
abar
abb
abba
abbe
abbey
abbot
abbott
abc
abe
abel
abercromby
aberdeen
abertawe
aberystwyth
abh
abha
abhac
abhacphla
abhacre
abhaile
abhainn
abhann
abhantrach
abhco
abhlo
abho
abhus
abies
abo
aboriginal
about
above
abraham
abril
abroad
abs
absalo
abstract
abtheach
abu
ac
aca
acacia
acadaimh
acadamh
acade
academia
academic
academy
acado
acadu
acaill
acata
access
accessed
accipitridae
accommodation
according
account
accounts
ace
ach
acha
achadh
achado
achaidh
achaini
achaint
achair
achan
achana
achann
achar
acho
achoimre
achomhairc
achomharc
achrainn
achrann
acht
achta
achtach
achtadh
achtai
achtaigh
achtaithe
achtanna
achtar
achto
achtu
achu
acid
acla
aclai
acm
acmhainn
acmhainni
aco
acomhal
acra
acrainm
acre
across
acs
acsai
acsanna
acsleabhair
acsleabhar
act
acta
actinidia
action
active
activities
actor
actress
acts
acu
acusan
ad
ada
adach
adacha
adai
adaigh
adaili
adaimh
adain
adaini
adair
adaithe
adam
adamh
adamhach
adamhacha
adamhai
adamhaigh
adams
adamson
adan
adann
adanna
adaoin
adaoine
adar
adas
adbhaird
adbhard
adcheap
adchomhartha
adchomharthai
add
adda
added
ade
adelaide
adele
adfa
adfach
adfacha
adfadh
adfai
adfaidh
adfaidi
adfar
adh
adhamhna
adharc
adharca
adhartha
adhlacadh
adhlactha
adhmad
adhmadach
adhmaid
adhradh
adiantum
adidas
adlann
adler
admha
admhai
admhaigh
admhaoin
admhaoine
administration
adn
adna
ado
adolf
adolph
adomhain
adomna
adra
adrach
adracha
adracht
adrachta
adrian
adroime
adrom
adroma
adta
adtar
adu
aduaidh
aduair
aduimhreacha
adult
advanced
adventure
adventures
advertiser
advice
advocate
ae
aeda
aedh
aeige
aeine
aeir
aeiste
aengus
aer
aera
aerach
aeracha
aerfho
aerfoirt
aerfort
aerides
aerli
aero
aeto
af
afc
affair
affairs
afganasta
afghanistan
afm
afon
afra
afraca
afracach
afracacha
afrai
afraic
africa
african
after
ag
aga
agach
agacha
agaibh
agaigh
again
againn
againne
against
agair
agairt
agaisti
agallaimh
agallamh
agam
agar
agartha
agat
agatha
age
aged
agence
agency
agent
ages
agh
aghaidh
aghaidhe
aghaidheanna
aghdha
agla
aglaia
agmais
agnes
agno
ago
agobhsai
agost
agosto
agothroime
agrafai
agrawal
agreement
agricola
agriocht
agro
agstair
agsu
agu
aguisi
agur
agus
ah
ahead
ahern
ahmad
ahmed
ahnenerbe
ai
aib
aibhisti
aibhle
aibhne
aibhneacha
aibi
aibiu
aibrea
aice
aiceanta
aici
aicme
aicmi
aicmithe
aicmiu
aid
aidan
aided
aidhm
aidhmeanna
aidhne
aidhniu
aidiacht
aidiachtai
aidne
aidre
aidrian
aids
aif
aife
aifreann
aifric
aifrinn
aig
aigcf
aige
aigesean
aighne
aighneas
aighnis
aigne
aiken
ail
ailbe
ailbhe
ailceimic
aile
aileach
ailealla
aileen
ailella
ailge
aili
ailige
ailigh
ailill
ailiu
aill
aille
aillte
ailnge
ailpi
ailse
ailsi
ailt
ailte
ailtire
ailtireacht
ailtireachta
ailtiri
aimag
aime
aimhre
aimi
aimire
aimpe
aimseartha
aimsi
aimsigh
aimsir
aimsire
aimsithe
aimsiu
ain
aindiachai
aindrias
aindriu
aine
aingeal
ainghni
aingil
ainian
ainm
ainmean
ainmfhocail
ainmfhocal
ainmhi
ainmhithe
ainmneach
ainmneacha
ainmni
ainmnigh
ainmnithe
ainmniu
ainneoin
ainrialach
ainsealach
ainti
aip
air
airce
aird
airde
airdi
aire
aireacht
aireachta
aireaga
aireago
aireamh
aires
airgead
airgeadach
airgeadai
airgeadais
airgeadas
airgeadra
airgeadrai
airgid
airginti
airi
airlines
airm
airme
airne
airport
airt
airteagail
airteagal
airtle
airtri
ais
aisce
aise
aisghabha
aisghairm
aisi
aisling
aislinge
aislingi
aist
aiste
aisteach
aisteacha
aistear
aisteoir
aisteoireacht
aisteoireachta
aisteoiri
aisteora
aisti
aistir
aistr
aistri
aistrigh
aistrithe
aistritheoir
aistriu
ait
aite
aitheanta
aitheantais
aitheantas
aitheasc
aithin
aithint
aithne
aithneach
aithni
aithnid
aithnidiu
aithreacha
aithri
aithris
aithrise
ajax
ajuga
ak
aka
akademie
akebia
akira
al
ala
alabama
alach
alacha
alachais
alachas
aladdin
aladh
alai
alaigh
alain
alainn
alainne
alainnis
alaisdir
alaithe
alamo
alan
alang
alannach
alasca
alasdair
alaska
alastair
alastar
alba
albaim
albain
albainis
albam
alban
albanach
albanacha
albanaigh
albany
albert
alberta
alberto
albion
albrecht
album
albums
alc
alca
alcaile
alcaileach
alcaileacha
alcalo
alco
alcock
aldi
aldo
alec
alejandro
aleksandr
alesha
alessandro
alex
alexander
alexandra
alexandre
alexandria
alexei
alexis
alfa
alfonso
alfred
alfredo
algai
algra
ali
alias
alice
alicia
alien
alison
alive
all
alla
allais
allamuigh
allan
allatro
allen
allende
alley
alliance
allison
allmusic
allt
allta
alltacht
alltair
alltar
alma
almo
almost
alo
aloideas
aloideasa
aloideasai
aloidis
alone
along
alonso
alpach
alpha
alphonse
alpine
alsa
also
alt
alta
altach
altacht
altachta
altai
altaithe
altan
altanna
altbhraisle
altbhui
alteolai
alteolaithe
alternative
altfhisic
altmhe
altne
alto
alton
altra
altrai
altram
altrama
altramas
altranais
altru
alu
always
alyga
alzheimer
am
ama
amach
amada
amai
amainn
amais
amaite
amanda
amann
amanna
amas
amato
amazon
ambasa
ambasado
amber
ambrose
ame
amelia
amendment
amendments
ament
amergin
america
american
americana
amh
amha
amhacha
amhail
amhairc
amhairghin
amhaisne
amhaithe
amhalai
amhalaidh
amharc
amharclainne
amharclann
amharclannai
amharcmhe
amherst
amhfhocail
amhfhocal
amhinis
amhinsint
amhlaidh
amhlaigh
amhlaoibh
amhra
amhrais
amhras
amhrasach
amhsce
amhstair
amhstairiu
amhtheachtai
amhtheachtaire
amiens
amin
amlai
amnesty
amo
amoinn
amon
among
amongst
amonn
amor
amos
amour
ampe
amra
amstardam
amsterdam
amu
amuigh
amuis
amus
amy
an
ana
anabai
anach
anacha
anachain
anadh
anaemacht
anagaire
anai
anaigh
anaili
anainn
anaithnid
anall
anallo
analo
analysis
anam
anama
anamacha
anamh
anand
anann
anas
anasta
anastasia
anatamai
anatidae
anato
anatomy
anbha
anc
ancaire
ancestry
ancient
and
andalu
andarta
anders
andersen
anderson
ando
andraime
andre
andrea
andreas
andrew
andrews
andrey
andu
andy
aneas
aneolai
anfa
anfadh
anfai
anfaidh
anfar
ange
angel
angela
angeles
angelo
angels
angla
anglaca
anglo
ango
angola
angus
anhalt
ani
aniar
animal
animals
animation
anime
anita
anjou
anlaith
anlann
anmann
anmchadha
ann
anna
annales
annals
annamh
annan
anne
annie
anniversary
anno
announced
announces
annraoi
annta
annual
ano
anocht
anoir
anois
anonn
another
anous
anrai
anraith
ans
ansa
anseo
ansin
ansiu
anson
answer
answers
ant
anta
antai
antaibheathach
antaine
antalo
antamo
antar
antartach
antartaice
antashubstainti
anthology
anthony
anthurium
anti
antigua
antiquaries
antiquities
anto
antoine
antoisceach
antologi
anton
antoni
antonio
antonius
antony
antraipeolai
antrasc
antrim
antu
antuairp
anu
anuas
any
anything
ao
aoda
aodh
aodha
aodhaga
aoga
aoi
aoibhinn
aoibhneas
aoidh
aoife
aoine
aoir
aoire
aois
aoise
aoiseach
aoiseacha
aoiseachais
aoiseanna
aoisi
aol
aolchloch
aolchloiche
aomadh
aomtha
aon
aona
aonach
aonad
aonaid
aonaigh
aonair
aonar
aonarach
aonaracha
aoncheallach
aoncheallacha
aonchinea
aonfhoirmeach
aonghas
aonghasa
aonghno
aonghus
aonghusa
aonocsai
aonraigh
aonraithe
aonre
aonru
aontacht
aontachtach
aontachtacha
aontachtaithe
aontachto
aontai
aontaigh
aontais
aontaithe
aontas
aonteangach
aontroim
aontroma
aontu
aonturas
aonu
aorta
aos
aosa
aosda
aosta
ap
apa
apache
apallo
apollo
aponogeton
appeal
appendix
apple
appleton
applications
applied
appointed
approach
apps
apr
april
apss
aq
aquino
aquitania
ar
ara
arab
arabach
arabacha
arach
aracha
arachais
arachas
arafat
arago
aragon
aragorn
arai
araib
araibis
araibise
araicis
araiciseach
araide
araigh
araile
arainn
araithe
aramais
aramatach
aran
arann
araon
ararat
aras
arastotail
aratharchurado
arb
arbh
arbhair
arbhar
arbois
arbor
arc
arch
archaeological
archaeology
arche
archer
archibald
archie
architecture
archive
archived
archives
archla
archo
arcy
ard
arda
ardach
ardai
ardaigh
ardaithe
ardaoin
ardbhru
ardchaighdea
ardchathair
ardche
ardcheannas
ardcheannasai
ardchla
ardeaglais
ardeaspag
ardeaspaig
ardeidae
ardfhuinnimh
ardle
ardleibhe
ardmha
ardmhe
ardmheas
ardmhinici
ardmholadh
ardo
ardoideachais
ardri
ardscoil
ardteicneolai
ardteistime
ardu
are
area
areas
arena
areolai
arfa
arfadh
argais
argas
argentina
argha
argo
ari
ariamh
arizona
arkansas
arkhipov
arla
arlach
arlagair
arlais
arlamh
arlas
arleanu
arlen
arlene
arlo
arm
arma
armach
armada
armagh
armai
armand
armas
armero
armlo
armo
armour
arms
armstrong
armtha
armu
army
arn
arna
arnach
arnaimh
arnamh
arne
arno
arnold
aro
around
arra
arracht
arree
arrhenius
ars
arsa
arsai
arsanaic
arsca
arsenal
art
arta
artach
artacha
artaire
artairi
arte
artemis
artha
arthur
article
articles
artist
artists
arto
artola
artrapo
arts
artu
aru
as
asa
asach
asacha
asachas
asacht
asachta
asadh
asai
asaigh
asair
asal
asanna
asar
asarbaisea
asarlai
asc
asca
ascach
ascacha
ascadh
ascai
ascaigh
ascaill
ascalu
aschuir
aschur
ascna
ascnamh
asctha
ascu
asgard
ash
ashe
ashes
ashley
asia
asian
asimov
asin
ask
aslai
aslan
asli
asma
aso
asp
aspal
aspalda
aspects
aspx
asquith
asra
assad
assembly
assessment
assisi
assistance
associated
association
asta
astai
astaireacht
astaithe
astaro
asterix
asti
asto
aston
astra
astrala
astralai
astro
astronomical
astronomy
astrophysical
astu
asturias
asu
at
ata
atada
atahualpa
atar
atas
ath
atha
athainmni
athair
athal
athaontu
athar
athara
athartha
athbheochan
athbheochana
athbhreithnithe
athbhreithniu
athbhri
athbhunai
athbhunu
athchlo
athcho
athchruthu
athchu
athdhe
atheagru
athens
athfhillteach
athghabha
athimirt
athinsint
athirne
athlasadh
athlasta
athle
athleagan
athletic
athlo
athmhu
athmhuintearas
athnuachan
athnuaite
athosclai
athra
athrai
athraigh
athraithe
athraitheach
athraitheacha
athraonta
athro
athru
athruithe
athscri
athshla
athshola
athshondais
athshondas
athstruchtu
athu
athuair
atkins
atkinson
atlanta
atlantach
atlantaigh
atlantic
atlantis
atlas
atle
atmaisfe
ato
atoghadh
atomic
atoms
atp
attack
attacks
attenborough
atu
aturnae
au
auburn
auckland
audio
audrey
auf
aufbau
auflage
aug
augsburg
august
augusta
auguste
augustin
augustine
augusto
augustus
aung
aur
auraicept
aurora
aus
auschwitz
austen
austin
australia
australian
australis
author
authorities
authority
authors
auto
autobiography
autumn
aux
ava
available
avalon
avant
avec
avenue
averil
avi
aviation
aviv
aviva
avogadro
avon
avril
award
awards
away
axel
axl
az
azan
azaria
b
ba
baader
babe
babel
babhta
babhtai
babiana
bablo
baby
bac
baca
bacach
bach
bacha
bachlo
back
background
bacon
bactris
bad
baden
badh
badhbh
bafta
bag
bagairt
bagairti
baghcat
bagrach
bagu
baha
bahia
bai
baicle
baicte
baigh
bail
bailchri
baile
bailecheantar
bailey
baili
bailithe
bailitheoir
bailitheoiri
bailiu
baill
bailt
bailte
bain
bainc
baince
baineadh
baineann
baineanna
baineannach
baineannaigh
baininscneach
bainis
bainise
bainisteoir
bainisti
bainistiu
bainne
baint
bainte
bainteach
baintear
baintreach
bair
baird
baire
bairiam
bairille
bairrche
baisleac
baiste
baisteadh
baitsile
baker
bala
balar
balbh
balca
baldwin
balfe
ball
balla
ballagh
ballai
ballan
ballarat
ballet
balley
ballinasloe
balliol
ballo
ballon
ballrai
ballsta
balt
balta
baltimore
balu
bambi
ban
banaltra
banana
banbh
banc
bancanna
band
banda
bandan
bande
bandia
bandiu
bang
bangor
banha
banimpire
bank
banks
banlaoch
bann
banna
bannai
bannerman
bannon
banphrionsa
banri
bantiarna
bantu
baoi
baoill
baol
baolach
baota
baptiste
bar
bara
barack
barbado
barbara
barbarossa
barber
barbour
barcelona
barclay
bard
barda
bardais
bardas
bardasach
bardasacht
bardic
bardon
bari
barker
barking
barksdale
barlow
barnard
barnes
barnet
barnett
barney
baro
baron
baronies
barr
barra
barrai
barraigh
barrett
barrington
barron
barrow
barry
bart
bartholomew
bartlett
barton
baru
bas
bascach
bascais
base
based
basel
basic
basil
basketball
bass
basshunter
basu
bat
bata
batailit
bataille
bataire
bateman
bates
bath
batholith
batista
batman
batra
batsford
battista
battle
baudelaire
bauer
bava
baxter
bay
bayer
bayern
bb
bbc
bc
bce
bd
be
bea
beach
beacha
beacht
beag
beaga
beagnach
beairic
bealach
bealai
bealaigh
bealaru
beale
bealtaine
bean
beanga
beann
beanna
beannacht
beannai
beannaithe
beannchar
bear
bearna
bearnai
bearnas
beart
bearta
beartai
beartais
beartaithe
beartas
beartha
beartu
bearu
beast
beat
beatha
beathai
beathaisne
beatles
beatrice
beatty
beau
beaufort
beaumont
beautiful
beauty
beauvoir
bec
became
because
beck
becker
becket
beckett
beckham
become
becomes
becquerel
bed
bede
bedell
bedford
bee
been
beer
beethoven
before
began
begin
beginning
begins
begley
begonia
behan
behind
bei
beidh
beijing
beilge
beilgeach
being
beinidict
beinidicteach
beinn
beinse
beir
beireann
beirilliam
beirli
beirt
beirte
beiser
beith
beithe
beithi
bel
belfast
belfasttelegraph
believe
bell
bella
bellamy
belle
bellingham
bello
bellow
bellum
belong
below
belton
ben
bend
benedict
benedicta
benefit
benefits
benfica
benfro
benito
benjamin
benjamins
bennett
benny
benoi
benson
bentham
benton
beo
beochan
beochana
beochanto
beocht
beoga
beoir
beoite
beola
beorach
ber
beresford
berg
bergen
bergin
bergman
berkeley
berkshire
berlin
berlusconi
bermingham
bern
bernadette
bernard
bernardino
bernardo
bernhard
bernhardt
bernie
berresford
berry
bert
bertie
bertrand
berzelius
bessemer
bessie
best
bet
beta
beth
better
betty
between
beurla
beverly
bexley
beyonce
beyond
bf
bg
bh
bha
bhabhta
bhac
bhacht
bhachta
bhachtach
bhachtacha
bhachtai
bhagair
bhagairt
bhai
bhaicte
bhaidh
bhaile
bhaili
bhailigh
bhailiu
bhaill
bhailt
bhailte
bhain
bhainc
bhaince
bhaineadar
bhaineadh
bhaineann
bhainfeadh
bhainisteoir
bhainisti
bhainistiu
bhainne
bhaint
bhaintear
bhainti
bhaintreach
bhair
bhaird
bhairi
bhairne
bhairrche
bhaiscinn
bhaist
bhaiste
bhaisteadh
bhaithe
bhaitsile
bhalair
bhaldraithe
bhall
bhalla
bhallai
bhallrai
bhallsta
bhan
bhanc
bhanda
bhande
bhandia
bhanglaide
bhanna
bhannai
bhanphrionsa
bhanri
bhantiarna
bhaol
bhar
bhardais
bhardas
bhardasacht
bharo
bharr
bharra
bharraigh
bharro
bharsoom
bhart
bhartha
bharu
bhava
bhe
bheach
bheadh
bheag
bheaga
bheairic
bhealach
bhealai
bhealaigh
bhealaru
bhealtaine
bhean
bheanga
bheann
bheannaigh
bheannaithe
bheanntrai
bhearna
bheart
bheartaigh
bheartais
bheartas
bheas
bheatha
bheathaisne
bheidh
bheidi
bheilg
bheilgeach
bheinn
bheireann
bheirli
bheirnice
bheirt
bheith
bheo
bheoite
bhfa
bhfabhar
bhfaca
bhfacthas
bhfad
bhfadhb
bhfaigheadh
bhfaigheann
bhfaighfeadh
bhfaighfear
bhfaighidh
bhfaightear
bhfaireog
bhfairsinge
bhfanann
bhfanfadh
bhfarraige
bhfarraigi
bhfe
bhfeabhas
bhfeabhra
bhfeachtas
bhfeada
bhfealsu
bhfear
bhfearann
bhfeiceann
bhfeictear
bhfeidhm
bhfeidhmeanna
bhfeidhmeannas
bhfeidhmi
bhfeidhmiu
bhfeighil
bhfeinime
bhfeirmeoiri
bhfi
bhfiacha
bhfianaise
bhfiann
bhfichiu
bhficsean
bhfigiu
bhfile
bhfili
bhfillfeadh
bhfine
bhfinne
bhfinsce
bhfionlainn
bhfionlainnis
bhfionlannach
bhfios
bhfir
bhfireannach
bhfirenze
bhfisic
bhfithis
bhfithisea
bhfithisi
bhfiu
bhflaitheas
bhfleadh
bhflo
bhflorida
bhfo
bhfocail
bhfocal
bhfoclo
bhfoilseacha
bhfoilsiu
bhfoinse
bhfoinsi
bhfoireann
bhfoirgneamh
bhfoirgnimh
bhfoirm
bhfoirmeacha
bhfoirmle
bhfoirne
bhfolach
bhfolu
bhfomho
bhfora
bhforaoisi
bhforas
bhforbairt
bhfore
bhforma
bhformho
bhfothoghcha
bhfra
bhfrainc
bhfraincis
bhfranc
bhfrancach
bhfre
bhfreasu
bhfrith
bhfronta
bhfuaim
bhfuaimni
bhfuair
bhfuarthas
bhfuil
bhfuileada
bhfuilimid
bhfuiltear
bhfuinneamh
bhi
bhia
bhialann
bhig
bhile
bhille
bhilliu
bhinn
bhinne
bhinni
bhinse
bhiorra
bhiosa
bhirn
bhisigh
bhitheolai
bhiu
bhla
bhlachd
bhlainse
bhlaosc
bhlas
bhliain
bhlian
bhliana
bhlianta
bhliantu
bhloc
bhneoir
bhneoireacht
bhneoireachta
bhneoiri
bhneora
bho
bhocht
bhochta
bhochtaineacht
bhodaigh
bhodhra
bhog
bhogadh
bhogaigh
bhogann
bhogearrai
bhogha
bhoilg
bhoilse
bhoinn
bhoird
bhoireann
bhoisnia
bholadh
bholaiv
bholca
bholg
bholgach
bholscaireacht
bhonn
bhord
bhorradh
bhosca
bhostu
bhoth
bhra
bhrabu
bhrada
bhrain
bhrainse
bhraith
bhraitheann
bhraona
bhrasai
bhrat
bhratach
bhrath
bhrathado
bhre
bhrea
bhreac
bhreacadh
bhreanda
bhreasail
bhreatain
bhreatainn
bhreathnach
bhreathnai
bhreathnaigh
bhreathno
bhreathnu
bhreatimeachta
bhreatnach
bhreatnais
bhreis
bhreise
bhreith
bhreithe
bhreitheamh
bhreithiu
bhreosla
bhri
bhriain
bhrian
bhriathair
bhriathar
bhrioga
bhriota
bhriotanach
bhriotanacha
bhris
bhriseadh
bhriseann
bhriste
bhriu
bhro
bhroin
bhroinn
bhronn
bhronnadh
bhronnann
bhronntanas
bhronntar
bhrooklyn
bhru
bhruach
bhruacha
bhrui
bhruise
bhu
bhua
bhuachaill
bhuachailli
bhuachaint
bhuachalla
bhuachan
bhuadar
bhuaic
bhuaicphointe
bhuaigh
bhuail
bhuaileann
bhuailte
bhuailtear
bhuaiteoir
bhualadh
bhuama
bhuan
bhuartha
bhui
bhuille
bhuirg
bhuise
bhulga
bhulla
bhun
bhuna
bhunadh
bhunai
bhunaidh
bhunaigh
bhunaithe
bhunaitheoir
bhunaitheoiri
bhundu
bhunreacht
bhunreachta
bhunreachtu
bhunscoil
bhunstaid
bhunta
bhunu
bhur
bhus
bhutto
bi
bia
bialann
bialanna
bianca
bianna
bibb
bibcode
bible
bibliography
biddy
biden
bien
big
bige
biggest
bikram
bilbao
bileog
bileoga
bill
billboard
bille
billi
billie
billings
billiu
bills
billy
bin
binchy
bing
bingen
bingham
binn
binne
binse
bio
biographical
biographie
biography
biolbo
biological
biology
bior
biorach
biorra
biosa
biosca
biota
bir
bird
birds
birkhan
birmingham
birn
birt
birth
birthday
bis
biseach
bishop
bisiu
bismarck
bit
bith
bithcheimiceoir
bithcheimici
bithchemiceoir
bithe
bitheolai
bithiu
bitho
biu
bjo
bl
bla
blacht
black
blackburn
blackwell
bladhma
blag
blaghd
blai
blair
blaise
blake
blanc
blanche
blanco
blaosc
blarnan
blas
blascaodai
blathmac
blathmaic
ble
blea
bleachtaire
bleachtaireachta
bleisce
bli
bliadhna
bliain
bliaindaona
bliana
blianta
bliantu
blind
blitz
blo
bloc
blocker
blog
blogs
blogspot
bloic
blood
bloody
bloom
bloomberg
bloomsbury
blount
blu
blue
blues
blum
bn
bo
boaldyn
board
boat
bob
bobby
boc
boca
boccoli
bocht
bochta
bochtaineacht
bochtaineachta
bochtanas
bod
bodach
bodhra
bodies
bodleian
body
boeing
bog
boga
bogadh
bogann
bogearra
bogearrai
bogha
boghdo
boghta
bohemians
bohr
boic
boichte
boighea
boihe
boilg
boilsciu
boilse
boinn
boird
bois
boisnia
boladh
boland
bolca
bolg
bolga
bolger
boli
bologna
bolscaireacht
bolscaireachta
bolsonaro
bolton
bomb
bombay
bombing
bompart
bon
bonaparte
bond
bonds
bone
bones
bonham
boniface
bonn
bonna
bonneagar
bonnie
bono
bont
boo
book
booker
books
boole
boone
boorman
booth
bord
bordeaux
border
borealis
borgo
boris
born
borough
borradh
borthwick
boru
bos
bosca
boscai
bosch
bosco
boss
boston
bostu
bot
botany
both
botha
botu
bouman
bounty
bourbon
bourke
bournemouth
bow
bowers
bowie
bowl
box
boy
boyd
boydell
boylan
boyle
boyne
boys
bpa
bpacasta
bpainde
bparlaimint
bparo
bpatru
bpe
bpeil
bpeiriu
bpennsylvania
bpi
bpiano
bpiarsach
bpictiu
bpla
bplanda
bplandai
bple
bplean
bplymouth
bpo
bpobail
bpobal
bpoblacht
bpoblachta
bpoill
bpointe
bpolainn
bpolainnis
bpolaiti
bpolannach
bpoll
bport
bportainge
bpost
bpra
bpri
bprionsa
bprionsabal
bpro
bproinsiasach
bprotastu
bpru
bpu
br
bra
brabant
brabhsa
brabu
bracken
brad
brada
braddock
bradford
bradley
brady
brahe
brain
brainse
brainsi
braisle
braite
braith
braitheadh
braitheann
bram
bran
branch
brand
branda
brandenburg
brandon
brandt
branning
braoini
braon
braona
brasai
brasil
brat
bratach
bratacha
brath
brathado
braun
brave
bravo
bray
brazil
bre
brea
breac
breaca
breacadh
break
breakfast
breaking
breaks
breanda
breas
breasail
breasal
breatain
breataine
breatainn
breathnach
breathnai
breathnaigh
breathno
breathnu
breathnuithe
breatnach
breatnacha
breatnaigh
breatnais
breatnaise
brecht
breen
breg
breifne
breis
breise
breisea
breisoideachais
breith
breithe
breitheamh
breithimh
breithiu
breithla
breizh
bremen
bremerhaven
brenda
brendan
brennan
brent
breoite
breosla
bres
bresson
brest
bretagne
breton
brett
bretton
brewer
brexit
brezhnev
bri
briain
brian
briathair
briathar
briathartha
briathra
briathrachais
brice
bricfeasta
brici
brick
bricre
bricrenn
bride
bridge
bridges
bridget
brief
brien
brigade
brighde
brighid
bright
brighton
brigi
brigid
brigit
brigitte
brill
brilliant
bring
brio
brioga
brionglo
briosca
briota
briotanach
briotanacha
briotanai
briotanaigh
briotu
brisbane
briseadh
briseann
briste
bristol
britain
britannia
britannica
british
brittany
britten
briu
bro
broadcast
broadcasting
broadway
broc
brocaire
brock
brocquy
broderick
brogan
broghach
broglie
broin
broinci
broinne
broken
brolcha
brollach
bromwich
bronnadh
bronnann
bronnta
bronntanais
bronntanas
bronntar
bronson
bronte
bronx
brook
brooke
brooklyn
brooks
brosnan
brother
brothers
brought
broun
brown
browne
bru
bruach
bruacha
bruachbhaile
bruachbhailte
bruadair
bruce
brugge
brugha
brui
bruidne
bruise
bruiti
bruno
brunswick
bruton
bryan
bt
btha
bthacht
bu
bua
buachaill
buachailli
buachaint
buachalla
buachan
buadh
buafhocal
buaic
buaicphointe
buail
buaile
buaileadh
buaileann
buailte
buailtear
buairci
buaite
buaiteoir
buaiteoiri
bualadh
buama
buamado
buamai
buan
buanna
buartha
buchanan
buchner
buck
buckingham
buckinghamshire
buckley
buddy
buenos
buffalo
bui
buide
buidhe
building
buildings
buile
buille
builli
built
buinnea
buinneach
buirci
buirg
buirge
buirgi
buiri
buise
buitle
bulga
bull
bulla
bulletin
bullock
bun
buna
bunachar
bunadh
bunai
bunaidh
bunaithe
bunaitheoir
bunaitheoiri
bunanna
bunata
buncha
bundu
bungaree
bunin
bunleagan
bunleathanach
bunreacht
bunreachta
bunreachtu
bunscoil
bunscoile
bunscoileanna
bunsen
bunsmaoineamh
bunta
bunting
buntu
bunu
bunuimhir
burca
bureau
burgh
burgos
burgu
burke
burlington
burma
burn
burnham
burning
burns
burr
burroughs
burt
burton
bury
bus
busanna
bush
business
buster
but
butcher
butler
butt
buy
buzz
bxc
by
byrd
byrne
byrnes
byron
c
ca
caba
cabha
cabhail
cabhair
cabhlach
cabhlaigh
cabhrach
cabhrai
cabhru
cabinet
cable
cabot
cac
cach
cacht
cad
cada
cadhain
cadhnach
cadhnai
cady
caerdydd
caerffili
caerwyn
caesar
cafe
cage
cahill
cai
caibidil
caibidli
caide
caidreamh
caidrimh
caife
caigh
caighdea
cailciam
caili
caill
caille
cailleach
cailleacha
cailleadh
cailleann
cailli
cailliu
caillte
caillteanas
cailltear
caime
caimile
cain
caine
caini
cainneach
cainni
caint
cainte
cainteanna
cainteoir
cainteoiri
caipi
caipiteal
caipitil
cair
cairbre
cairbrigh
cairde
cairdeas
cairdine
cairdis
cairdiu
caire
caireach
caireacht
caireachta
caireo
cairill
cairlinn
cairn
cairpe
cairpre
cairpri
cairt
cairte
cairteacha
cairteanna
cais
caiseal
caisil
caislea
caisteal
caisti
cait
caite
caitear
caith
caitheadh
caitheamh
caitheann
caithfear
caithfidh
caithne
caithre
caitiain
caitian
caitli
caitliceach
caitliceacha
caitliceachas
caitlici
caitlicigh
caitri
cal
calabria
caladh
calafoirt
calafort
calais
calar
calcalas
calder
caldwell
calendar
calgary
calhoun
california
caligula
call
calla
callaghan
called
calling
callisto
calls
calum
calvin
calwell
cam
cama
camanachd
camaru
camas
cambo
cambridge
camchuairt
camden
came
camera
cameron
camila
camille
camino
camo
camogie
camp
campa
campai
campaign
campania
campas
campbell
campo
camroux
camus
can
cana
canada
canadh
canadian
canann
canary
canavese
canberra
cancer
candam
candamach
candamacha
candamai
candy
cane
cangaru
canna
cannes
canning
cannon
cannot
canny
cano
canon
canta
cantabria
canterbury
canu
canudos
canyon
caoch
caoga
caogaidi
caoi
caoile
caoilfhionn
caoimh
caoimhe
caoimhi
caoin
caoineadh
caoirigh
caol
caola
caolas
caomha
caomhnai
caomhnaithe
caomhno
caomhnu
caon
caonach
caor
caora
caorach
capa
capaill
capall
cape
capital
capitol
capote
capsu
captaen
captain
car
cara
carachtair
carachtar
caravaggio
carbad
carbado
carbaihiodra
carbo
carbocsaileach
carbon
carcanet
cardiff
care
career
carew
carey
caribbean
carl
carla
carleton
carlisle
carlo
carlos
carlow
carlton
carly
carmen
carmichael
carn
carna
carnadh
carnegie
carney
caro
carol
carole
carolina
caroline
carolyn
carpenter
carr
carra
carrach
carraig
carraige
carraigeach
carraigeacha
carraigi
carrann
carranna
carre
carrie
carroll
carson
carswell
carta
cartagrafai
cartaige
carter
carthaigh
carthanachta
carthanas
carthy
cartier
cartlainne
cartlann
cartlanna
cartlannai
cartoon
cartu
cartwright
carty
cary
cas
casa
casach
casacht
casacsta
casadh
casaide
casann
case
cases
casey
cash
cashel
casnewydd
cass
cassidy
cassini
cassius
cast
casta
castar
caste
castel
castell
castellaneta
castello
castelnuovo
castiglione
castilla
castle
castles
castro
casu
cat
catago
cataibh
catalo
catalog
catalogue
catar
catch
cath
catha
cathach
cathaigh
cathail
cathain
cathair
cathairsta
cathal
cathanna
cathaoir
cathaoirleach
cathartha
cathasach
cathasaigh
cathbhadh
cathe
cathedral
catherine
cathla
cathmhaoil
catholic
cathrach
cathracha
cathy
cato
cats
catullus
caucasus
cause
causes
cavalier
cavan
cave
cavendish
cb
cbs
cc
cce
ccea
cd
cdc
cdot
ce
cea
ceach
ceacht
ceachtanna
ceachtar
cead
ceadai
ceadaithe
ceadu
ceal
ceall
cealla
ceallach
ceallacha
ceallaigh
cealu
ceamara
ceamarai
ceanada
ceanadach
ceanainn
ceanannas
ceangail
ceangailte
ceangal
ceanglai
ceann
ceanna
ceannach
ceannai
ceannaigh
ceannairc
ceannairce
ceannairceoiri
ceannairci
ceannaircigh
ceannaire
ceannaireacht
ceannaireachta
ceannairi
ceannais
ceannaithe
ceannas
ceannasach
ceannasai
ceannasaithe
ceanncheathru
ceannfort
ceannro
ceannt
ceansaithe
ceant
ceantair
ceantar
ceantracha
ceap
ceapach
ceapacha
ceapadh
ceapado
ceapaite
ceapann
ceapatach
ceaptar
ceaptha
ceara
cearba
cearbhaill
cearbhall
cearbhalla
cearc
ceardai
ceardaithe
ceardchumainn
ceardchumann
ceardchumannai
ceardlanna
cearmansai
cearn
cearnach
cearnacha
cearnaigh
cearnaithe
cearno
cearrbhachais
ceart
cearta
ceartais
ceartas
ceartingearach
ceartu
cearu
ceasta
ceatha
ceathair
ceathar
ceatharlach
ceathracha
ceathrair
ceathrar
ceathru
cecil
cecile
cecilia
ceiliu
ceilte
ceilteach
ceilteacha
ceilti
ceiltigh
ceiltis
ceimic
ceimice
ceimicea
ceimiceach
ceimiceacha
ceimiceoir
ceimiceoiri
ceimici
ceintime
ceird
ceirde
ceirdeanna
ceiriam
ceirni
ceist
ceiste
ceisteanna
ceisti
ceistiu
ceithearnach
ceithleann
ceithre
celebrated
celebrity
celestial
celestine
cell
cellach
cellaig
cellaigh
celsius
celt
celtic
celtica
celtique
celtiques
celtische
celts
cemetery
cen
cene
cenn
census
cent
centenaries
center
central
centre
centuries
century
ceo
ceoil
ceol
ceolai
ceolaire
ceolchoirm
ceolchoirme
ceolchoirmeacha
ceoldra
ceolfhoireann
ceolfhoirne
ceolmhar
ceolto
cep
cerbaill
ceredigion
ceres
cern
cernach
cerro
certain
cervantes
ces
cet
cf
cfm
cgi
ch
cha
chabha
chabhail
chabhair
chabhlach
chabhlaigh
chabhrai
chabhraigh
chad
chadh
chadhain
chadwick
chaibidil
chaide
chaidi
chaidreamh
chaidrimh
chaife
chaighdea
chail
chailciam
chaili
chaill
chailleach
chailleadar
chailleadh
chailleann
chailliu
chaim
chain
chaine
chainni
chainnigh
chaint
chainteoir
chainteoiri
chair
chairbre
chairde
chairdine
chairdiu
chaire
chairib
chairn
chairt
chais
chaiseal
chaisil
chaislea
chaismi
chaisp
chaisteil
chaisti
chaistil
chait
chaite
chaitear
chaith
chaitheadh
chaitheamh
chaitheann
chaithfeadh
chaithfidh
chaithfidi
chaitli
chaitliceach
chaitliceacha
chaitliceachais
chaitlicigh
chaitri
chalado
chalafort
chalifornia
challa
challenge
challenger
chaluim
chamaru
chamber
chamberlain
chambers
chambo
chamchuairt
chamo
champa
champas
champion
champions
championship
championships
champlain
chan
chana
chanadh
chance
chandamach
chandamuimhir
chandler
change
changes
changing
channel
chano
chanson
chansons
chante
chanu
chaoi
chaoil
chaoimh
chaoimhi
chaoin
chaol
chaola
chaolais
chaolas
chaomha
chaomhnai
chaomhnu
chaonraoi
chaor
chaorthainn
chaos
chapaill
chapall
chapel
chaplin
chapman
chaptaein
chaptaen
chapter
char
chara
charachtair
charachtar
character
charadriiformes
charbo
charbonneau
charda
charge
charges
charlemagne
charles
charleston
charlie
charlotte
charlton
charn
charna
charr
charraig
charraigeacha
chart
chartaig
charter
chartlann
charts
chartu
chas
chasach
chasacha
chasacsta
chasadh
chasaigh
chasann
chase
chasta
chastar
chat
chatago
chatalo
chatar
chath
chatha
chathail
chathair
chathal
chatham
chathaoir
chathaoirleach
chathartha
chathe
chathla
chathrach
chathracha
chato
chaucer
chavo
che
chea
chead
cheadai
cheadaigh
cheadle
cheado
cheadu
cheal
cheall
chealla
cheallach
cheallacha
cheallaigh
chealtchair
chealu
cheamara
cheana
cheanada
cheanadach
cheanainn
cheanannais
cheangail
cheangal
cheanglai
cheann
cheanna
cheannach
cheannai
cheannaigh
cheannairc
cheannaire
cheannaireacht
cheannairi
cheannais
cheannas
cheannasach
cheannasai
cheanncheathru
cheannfort
cheannlitir
cheannro
cheansu
cheanta
cheantair
cheantar
cheap
cheapach
cheapacha
cheapadh
cheapann
cheaptai
cheaptar
cheaptha
chearbhaill
chearc
cheardchumann
chearn
chearnach
chearnaigh
chearno
cheart
chearta
cheartais
cheartchreidmheach
cheartu
cheatharlach
cheathrair
cheathrar
cheathru
check
chef
cheil
cheile
cheiliu
cheilt
cheilteach
cheilteacha
cheiltigh
cheiltis
cheimic
cheimicea
cheimiceach
cheimiceacha
cheimicigh
cheird
cheirni
cheist
cheisteanna
cheistigh
cheistiu
cheithre
chekhov
chelsea
cheltenham
chelyabinsk
chem
chemical
chemistry
cheney
cheo
cheoil
cheol
cheolchoirm
cheoldra
cheolfhoireann
cheolto
cher
cherokee
cherry
cheryl
cheshire
chess
chester
chevalier
chi
chiall
chiallai
chiallaigh
chian
chianach
chiang
chiara
chiarrai
chicago
chichester
chiclipe
chief
chiefs
chieftains
child
childers
children
chile
chilime
chill
chille
chime
chin
china
chine
chinea
chinese
chini
chinn
chinne
chinneadh
chinneann
chinniu
chinnsealaigh
chinnte
chinnti
chinntigh
chinntiu
chion
chionn
chiontu
chiorcad
chiorcail
chiorcal
chiorclach
chipir
chirac
chirgeasta
chirt
chiseal
chisil
chiste
chiu
chla
chladach
chladaigh
chlai
chlainne
chlann
chlanna
chlaochlu
chlaonadh
chlasaiceach
chlasaicigh
chle
chleacht
chleachta
chleachtadh
chleachtai
chleachtais
chleachtann
chleachtas
chli
chliatha
chliniciu
chlis
chliseadh
chliste
chlo
chloch
chlocha
chlochair
chlochaois
chloe
chlog
chloi
chloich
chloiche
chloig
chloigeann
chloisfea
chloistea
chloistear
chloride
chlu
chluaidh
chluain
chluas
chlub
chlubanna
chluiche
chluichi
chluinfea
chna
chno
chnoc
chnoca
chnoic
chnuasach
chnuic
cho
chobha
chobhsai
choca
choctaw
choda
chodanna
chodladh
chofaigh
chogadh
chogai
chogaidh
choi
choibhe
choibhneasta
choice
choigri
choilea
choili
choill
choille
choillte
choilm
choim
choime
choimea
choimhlint
choimhthi
choimirce
choimisine
choimisiu
choimple
choinbhinsiu
choincheap
choinn
choinne
choinnea
choinni
choinnigh
choinscri
choir
choirce
choire
choireallach
choireanna
choiriu
choirn
choirne
choirnis
choirp
choirt
choirte
chois
choisc
choisithe
choiste
choiteann
choitianta
chol
chola
cholainn
cholainne
cholla
chollachair
chollai
chollaigh
cholm
cholma
cholmcille
cholo
cholu
choluim
choma
chomaoin
chomh
chomha
chomhaimseartha
chomhair
chomhaireamh
chomhairle
chomhairleoir
chomhalta
chomhaltai
chomhaltas
chomhaontais
chomhaontaithe
chomhaontas
chomhaontu
chomhar
chomharba
chomharbai
chomharbais
chomharbas
chomharsana
chomharsanacht
chomhartha
chomharthai
chomhbhru
chomhcheangail
chomhcheangal
chomhcheilg
chomhdha
chomhdhe
chomhdhlu
chomhdhu
chomhe
chomhfhiu
chomhfhreagrai
chomhghleacai
chomhghleacaithe
chomhghuailli
chomhghuaillithe
chomhla
chomhlacht
chomhlachta
chomhlachtai
chomhlathais
chomhlathas
chomhlea
chomhli
chomhoibrigh
chomhoibriu
chomhordana
chomhordu
chomhpha
chomhphobail
chomhphobal
chomhra
chomhrac
chomhraic
chomhre
chomhrialtas
chomhshaoil
chomhshaol
chomhtha
chomhthe
chomhthiono
chomo
chompa
chompara
chomplacht
chompord
chomra
chon
chonacthas
chonaic
chonaill
chonaing
chonair
chonaire
chonall
chonamara
chonartha
choncas
chonchu
chong
chonghaile
chongo
chonmhaicne
chonnacht
chonnachta
chonradh
chonraitheoiri
chonsain
chonsal
chonspo
chonsta
chonstainti
chontae
chontaetha
chontu
chopair
choptach
chor
chora
chorca
chorcai
chorcaigh
chorda
chormac
chormaic
chorn
choro
chorp
chorpa
chorpara
chorr
chorra
chorrai
chos
chosa
chosach
chosain
chosaint
chosaiv
chosanta
chosanto
chosc
chosmhuintir
chosnai
chostas
chosu
chothabha
chothai
chothaigh
chothrom
chothroma
chothromai
chothromo
chothu
chr
chra
chraiceann
chraicinn
chrainn
chrann
chraobh
chraobhchomo
chraobhscaoileadh
chraol
chraoladh
chraoltar
chraolto
chre
chreach
chreaga
chreat
chreatlach
chreiche
chreid
chreideamh
chreideann
chreidimh
chreidiu
chreidtear
chreidti
chreimeadh
chri
chrime
chrios
chris
christ
christi
christiaan
christian
christianity
christie
christina
christine
christmas
christoph
christopher
christy
chrith
chriticiu
chriu
chro
chroch
chrochadh
chroi
chroinic
chrois
chrom
chromail
chromtha
chronicle
chronicles
chronicon
chronicum
chronology
chros
chrosa
chru
chrua
chruach
chruacha
chruinn
chruinne
chruinneogach
chruinnigh
chruinnithe
chruinniu
chruth
chruthach
chruthai
chruthaigh
chruthaitheach
chruthu
cht
chta
chtadh
chtaire
chtaireacht
chtairi
chtais
chtar
chtas
chtearrai
chu
chua
chuadar
chuaigh
chuain
chuairt
chuairteoiri
chuala
chualann
chualathas
chuallacht
chuan
chuar
chuarc
chuardach
chuas
chuasa
chuck
chucu
chugainn
chugais
chui
chuici
chuid
chuideachta
chuidi
chuidigh
chuidiu
chuig
chuige
chuile
chuilinn
chuimhne
chuimhneacha
chuimhni
chuimsi
chuimsigh
chuimsitheach
chuimsiu
chuing
chuinn
chuir
chuireadar
chuireadh
chuireann
chuirfeadh
chuirfear
chuirfi
chuirfidh
chuirtear
chuirti
chulainn
chulaith
chultu
chum
chuma
chumadh
chumado
chumainn
chumais
chumann
chumannach
chumannachais
chumannachas
chumannaigh
chumarsa
chumas
chumasach
chumasc
chumhacht
chumhachta
chumhachtach
chumhachtai
chumhdach
chumhra
chumrai
chumtha
chun
chuntais
chuntaois
chuntas
chur
churaclam
churadh
church
churchill
churiarracht
churraigh
chuspo
chustaim
chustaime
ci
cia
ciaini
ciall
ciallai
ciallmhar
cian
ciana
ciannachta
cianta
ciara
ciaran
ciardha
ciaro
ciarrai
ciarraige
ciatrach
ciatracht
ciatrai
cibe
cic
cicearo
ciclipe
cid
cie
cigarettes
cigh
cigire
ciic
cileagram
cilime
cill
cille
cilli
cillian
cillscanna
cime
cimi
cina
cincinnati
cindy
cine
cinea
cinedheighilte
cinedhi
cinema
cini
cinn
cinne
cinneadh
cinneann
cinniu
cinnte
cinntear
cinnti
cinntitheach
cinsireacht
cinsireachta
cio
cion
cionn
cionnaith
cionta
ciontach
ciontai
ciontaithe
cionto
ciorcad
ciorcaid
ciorcail
ciorcal
ciorclach
cipi
cipire
circa
circle
circus
ciriu
cirt
cis
cisea
ciseal
cisil
cispheil
cispheile
cispheileado
ciste
cisti
cit
cita
citation
cite
cith
cities
citizen
citris
city
ciu
ciudad
civil
ck
cl
cla
clach
cladach
cladai
cladaigh
clai
claidheamh
claim
claims
clainne
clair
claire
clais
clan
clancy
clann
clanna
clannad
claochlu
claon
claonadh
claonta
clara
clare
clarence
clarendon
clark
clarke
clarkson
clasaiceach
clasaiceacha
clasaici
class
classic
classical
classics
classification
classified
claude
claudia
claudio
claudius
claus
clay
clayton
cle
cleachtadh
cleachtai
cleachtais
cleachtas
cleamhnas
clear
cleary
cleas
cleasai
cleite
cleiteach
cleiti
clemeint
clement
clements
clery
cleveland
clg
cli
cliath
cliatha
click
cliff
clifford
clifton
climate
clinical
cliniciu
clinton
clio
cliseadh
cliste
clive
clo
cloch
clocha
clochar
clock
clog
clogad
clogher
cloi
cloiche
cloig
cloigeann
cloigi
cloigtheach
cloinne
cloistea
cloistear
clontarf
close
cloud
clown
clrg
clu
cluain
cluaise
cluana
cluas
cluasa
club
clubanna
clubs
clubtheach
cluiche
cluichi
cluimhreach
clyde
cm
cmhainni
cn
cna
cnag
cnagaire
cnaguirlisi
cnaipe
cnapa
cne
cnea
cnn
cno
cnoc
cnoca
cnoic
cnt
cnuasach
cnuasaigh
cnucha
co
coach
coachella
coast
coba
cobain
cobha
cobhsai
cobhthach
coca
cochaill
cochall
cochrane
coda
codanna
codarsnacht
code
codecs
codex
codladh
codlata
cody
coffee
cogad
cogadh
cogai
cogaidh
cogg
cognai
cohen
coibhe
coibhneas
coibhneasachta
coibhneasta
coici
coide
coilea
coileach
coili
coill
coille
coillearnach
coilli
coillte
coilm
coime
coimea
coimhdeachta
coimhlint
coimhlinte
coimhlinti
coimhthi
coimi
coimirce
coimisine
coimisiu
coimple
coin
coinbhinsiu
coincheap
coincheapa
coincre
coini
coinn
coinne
coinnea
coinneal
coinni
coinnigh
coinnithe
coinnle
coinscri
coipeadh
coir
coirce
coirdi
coire
coireachta
coireanna
coirib
coiribe
coiriu
coirn
coirne
coirnis
coirnise
coirp
coirpeach
coirpigh
coirpre
coirt
coirte
cois
coisce
coisceim
coisci
coiscthe
coisdealbha
coise
coisithe
coiste
coisti
coiteann
coitianta
coitinne
col
cola
colainn
colainne
colaiste
colambas
colbert
colchester
cold
coldplay
cole
coleman
colend
colette
colga
colgan
coli
colin
coll
colla
collai
colle
collected
collection
collections
collective
college
collins
colloquium
colm
colma
colman
colmcille
colo
cologne
colombia
colonel
colonial
color
colorado
colour
colscaradh
colscartha
colu
colum
columba
columbia
columbus
com
coma
comaite
comann
combat
come
comedy
comes
comh
comha
comhad
comhaid
comhaimseartha
comhair
comhaireamh
comhairle
comhairleach
comhairleoir
comhairleoiri
comhairli
comhairliu
comhalta
comhaltai
comhaltas
comhaontaithe
comhaontas
comhaontu
comhaontuithe
comhar
comharba
comharbachta
comharbais
comharbas
comharchumann
comharsa
comharsana
comharsanacht
comhartha
comharthai
comhbhaill
comhbhru
comhbhunaitheoir
comhchainteanna
comhcheangailte
comhcheangal
comhcheilg
comhcheilge
comhchiallach
comhchiallaigh
comhchoiteann
comhchosu
comhchruinnithe
comhchuingeach
comhdha
comhdhe
comhdhlu
comhdhu
comhe
comhfhiu
comhfhreagrach
comhfhreagrai
comhfhreagras
comhghleacai
comhghuailli
comhghuaillithe
comhionann
comhionanna
comhionannais
comhionannas
comhla
comhlach
comhlachas
comhlacht
comhlachtai
comhlai
comhlathais
comhlathas
comhlea
comhli
comhluadar
comhoibri
comhoibrithe
comhoibriu
comhoiriu
comhordana
comhordu
comhpha
comhphobail
comhphobal
comhra
comhrac
comhrai
comhraic
comhre
comhriachtain
comhrialtas
comhroinnte
comhsco
comhshaoil
comhshaol
comhsheasmhach
comhtha
comhthe
comhthiono
comhthreomhar
comhthreomhara
comhuaineach
comic
comics
coming
comme
commencement
commentary
commission
commissioner
committee
common
commons
commonwealth
communication
communications
communities
community
como
comp
compa
companies
companion
company
compara
comparative
compendium
compert
competition
compilation
complete
complex
compordach
compostela
compounds
compton
computer
comra
comte
comu
comyn
con
cona
conaill
conaille
conaing
conair
conaire
conairi
conall
conallach
conamara
conan
conartha
conarthai
conas
concacaf
concannon
concar
concas
concepcio
concern
concert
concheanainn
conchobair
conchobar
conchobhair
conchu
conchubhair
conchubhar
concise
concord
conference
confirmed
conflict
cong
conga
congal
congalach
congalaig
conghaile
conghal
conghalach
congo
congress
conmaicne
conmara
conmhaicne
conn
connacht
connachta
connaught
connecticut
connection
connell
connemara
connie
connla
connolly
connor
conor
conquest
conrach
conrad
conradh
conroy
consain
consan
conservation
considered
conspo
consta
constable
constaici
constainti
constance
constant
constantine
constellations
constituency
constitution
construction
contact
contae
contaetha
containing
contemporary
content
contest
context
continental
contra
contribution
contributions
control
contu
convention
conversation
conversations
convert
conway
conwy
coogan
cooh
cook
cooke
cool
cooper
coote
cop
copa
copair
copar
cope
copernicus
copper
copy
cor
cora
corai
corann
corb
corbett
corc
corca
corcai
corcaigh
corco
corcra
corcu
corda
cordai
coriolis
cork
cormac
cormaic
corn
corna
corneille
cornelius
cornell
corner
cornish
cornwall
coro
coronation
coronavirus
corp
corpa
corpara
corpas
corporation
corps
corpus
corr
corra
corrach
corradh
corrai
corraitheach
corrie
corte
corto
corun
cory
cos
cosa
cosacaigh
cosaint
cosaive
cosanta
cosanto
cosc
cosgair
cosgrave
cosgrove
cosmacha
cosmeolai
cosmhuintire
cosmology
cosnai
costa
costais
costas
costasach
costasai
costello
cosu
cothabha
cothai
cothaithe
cothaithigh
cothroime
cothrom
cothroma
cothromai
cothromo
cothu
cottage
cotton
coughlan
could
coulomb
council
count
countess
counties
countries
country
county
coup
courcy
courier
course
court
courtney
courts
cousins
cov
covarrubias
cove
coventry
cover
covid
cow
cowell
cox
coyle
cp
cr
cra
crai
craic
craiceann
craicinn
craig
craine
crainn
craite
craith
cranberries
crane
crann
crannchur
cranno
craobh
craobhacha
craobhchomo
craoibhe
craol
craolacha
craoladh
craolann
craolta
craoltar
craolto
crapadh
crawford
crazy
crc
cre
creach
creachadh
creachado
creag
creaga
creagach
creagacha
crean
creat
creathanna
creation
creative
creatlach
creek
creiche
creid
creideadh
creideamh
creideann
creidimh
creidiu
creidmheasa
creidtear
creige
creimeadh
creole
crew
cri
crick
cricket
crime
criminal
crimthainn
crimthann
crio
criomhthain
criomhthainn
criomhthann
criopto
crios
criosanna
criostail
criostal
criostalta
criosto
crisis
cristiano
cristina
crite
crith
critic
critical
critice
criticeoir
criticeoiri
criticism
criticiu
critics
criu
cro
crochadh
crochta
croi
croineolai
croinic
croinici
crois
croise
crom
croma
cromadh
cromail
cromghlinn
cromtha
cromwell
cronin
cros
crosa
crosaire
crosbho
crosby
cross
crossing
crow
crowe
crowley
crown
croydon
cru
crua
cruach
cruacha
cruachan
cruatan
cruice
cruinn
cruinne
cruinneacha
cruinneas
cruinneog
cruinni
cruinnithe
cruinniu
cruise
cruistsiof
cruithne
cruithneacht
cruithneachta
cruithnigh
cruth
cruthai
cruthaigh
cruthaithe
cruthaitheach
cruthaitheoir
cruthanna
cruthu
cruz
cry
cryptocoryne
crystal
cs
cso
ct
ctor
cu
cua
cuach
cuaig
cuailgne
cuaille
cuailli
cuailnge
cuain
cuair
cuairc
cuairt
cuairte
cuairteanna
cuairteoir
cuairteoiri
cuala
cualann
cuan
cuana
cuanta
cuar
cuara
cuarc
cuardach
cuardaigh
cuartha
cuas
cuasa
cuasach
cubbon
cui
cuid
cuideachta
cuideachtai
cuidi
cuidiu
cuileog
cuilinn
cuimhin
cuimhne
cuimhneacha
cuimhneamh
cuimhni
cuimse
cuimsi
cuimsithe
cuimsitheach
cuimsithi
cuimsiu
cuinn
cuinneaga
cuiper
cuir
cuireadh
cuireann
cuirfear
cuirfidh
cuirtear
culainn
culaith
cullen
cult
cultacha
cultas
cultu
cultural
culture
cum
cuma
cumadh
cumado
cumai
cumainn
cumais
cumann
cumannach
cumannacha
cumannachas
cumannaigh
cumannnasagart
cumar
cumarsa
cumas
cumasach
cumasai
cumasc
cumascach
cumascaigh
cumberland
cumha
cumhacht
cumhachta
cumhachtach
cumhachtacha
cumhachtai
cumhaill
cumhall
cumhdach
cumhdaithe
cumhra
cummings
cumrai
cumtha
cunningham
cunta
cuntais
cuntaois
cuntas
cuntasai
cup
cupa
cur
curach
curacha
curadh
curado
curai
curaidh
curfa
curiarracht
curie
curley
currach
curran
current
curriculum
currie
curry
curse
curtha
curtis
cusack
cuspo
custaim
custaime
customs
cut
cuthbert
cwm
cx
cyborg
cycas
cycle
cycles
cymdeithas
cymraeg
cymru
cynan
cynon
cyril
cyrus
czy
d
da
dabht
dach
dacha
dachais
dachas
dad
daddy
dadh
dafydd
dagda
dagenham
daghda
daghdha
dahl
dai
daichead
daichidi
daigh
dail
daily
daingean
daingin
daingni
daingnithe
daingniu
daini
dainm
dainse
daipeist
dair
dairbhre
daire
dais
daise
daisy
daite
daithe
daithi
dakota
dal
dalbergia
dale
dali
dall
dalla
dallamullo
dallas
dalma
dalriada
dalta
daltai
dalton
daltu
dalua
daly
dam
dama
damaisc
damba
dame
damer
damh
damha
damhna
damhsa
damhsai
damhso
damian
damien
damon
dan
dana
danair
danann
dance
dancing
dangerous
dangerously
daniel
danielle
daniels
danmhairg
danmhairge
danmhairgis
danmhargach
dann
danna
danny
dano
dans
dante
daoibh
daoine
daoir
daoirse
daon
daona
daonchara
daonlathach
daonlathacha
daonlathaigh
daonlathais
daonlathaithe
daonlathas
daonna
daonnachta
daonnu
daonra
daonrai
daonrao
daor
daoradh
daorbhroide
daorchluiche
daphne
dar
dara
darach
daraithe
darb
darbh
darfur
dari
darini
dark
darkness
darna
darragh
darren
dart
daru
darwin
das
data
database
date
dates
dath
datha
dathanna
datho
dathu
daughter
daui
dave
davenport
david
davidson
davies
davis
davitt
davy
dawes
dawkins
dawn
dawson
day
days
db
dc
dcu
dd
ddinbych
de
dea
deacair
deach
deacha
deachto
deachu
deacra
deacracht
deacrachtai
dead
deagla
deal
dealaithe
dealbh
dealbha
dealbhna
dealbho
dealga
dealgan
dealrai
dealraimh
dealraitheach
dealramh
dealu
dean
deanaithe
deane
deannach
deannaigh
dear
deara
dearadh
dearai
dearbhai
dearbhaithe
dearbhu
dearcadh
dearfa
dearfach
dearfacha
dearg
dearga
dearmad
deartha
deartho
deas
deasa
deasca
deascabha
deascadh
deasghna
deasmhumhan
deasu
deatach
death
deaths
debate
debbie
deborah
debt
debut
dec
decade
decca
december
decision
declan
declaration
dedad
dee
deeds
deep
def
default
defence
defense
defined
definition
defoe
degli
dei
deic
deich
deichiu
deichniu
deichtine
deifni
deighilt
deighilte
deilbhi
deilf
deili
deimhin
deimhneach
deimhni
deimhnithe
deimhniu
deimos
deineadh
deir
deirdre
deireadh
deireanach
deireanacha
deireanai
deireanais
deireann
deirfe
deirfiu
deirg
deirge
deiridh
deirtear
deirti
deis
deisceart
deisceartach
deisceartacha
deiscirt
deise
deiseal
deiseanna
deisitheoir
deisiu
del
delamarre
delaney
delap
delaware
delhi
delia
dell
della
delle
delta
deluxe
dem
demi
democracy
democratic
dempsey
den
dena
denali
denis
denise
dennis
denny
denver
deo
deoch
deochanna
deoir
deoiri
deoise
deonach
deonacha
deonai
deontais
deontas
deonto
deora
deorai
department
depp
deputy
der
derby
derek
derga
dermot
derrida
derry
des
descartes
description
desert
design
designation
desmond
desna
dessie
destiny
destruction
det
detail
details
detective
detroit
deutsch
deutsche
deutschland
deux
dev
development
devil
devito
devlin
devon
dewey
df
dfa
dh
dha
dhaimh
dhaingean
dhaingnigh
dhaingniu
dhainse
dhaite
dhalta
dhaltai
dhamh
dhamhna
dhanna
dhaoine
dhaon
dhaona
dhaonlathach
dhaonlathaigh
dhaonna
dhaonnu
dhaonra
dhara
dharu
dhas
dhath
dhathanna
dhe
dhea
dheacair
dheachaigh
dheachto
dhealraitheach
dhealu
dhear
dhearadh
dhearbhaigh
dhearbhu
dhearc
dhearcach
dhearcadh
dhearfach
dhearg
dhearga
dhearna
dhearnadh
dheartha
dheas
dheasca
dheasmhumhan
dheasumhan
dheathain
dheich
dheifir
dheighilt
dheilge
dheimhnigh
dheimhniu
dhein
dheirdre
dheireadh
dheireanach
dheireanacha
dheireanaigh
dheirfiu
dheirg
dheiridh
dheis
dheisceart
dheisceartach
dheisiu
dheoidh
dheoise
dheonach
dheonaigh
dheonu
dheorai
dhi
dhia
dhiaga
dhiagno
dhiaidh
dhialann
dhian
dhiarmada
dhiarmaid
dhifri
dhifriu
dhigiteach
dhiu
dhla
dhleathach
dhleathacha
dhli
dhlu
dho
dhochartaigh
dhochtu
dhoicime
dhoile
dhoiminiceach
dhoinn
dhoire
dhomhain
dhomhan
dhomhanda
dhomhnach
dhomhnaill
dhomhnall
dhonn
dhonnabha
dhonnaga
dhonncha
dhonnchadha
dhoras
dhorcha
dhorna
dhra
dhrai
dhraic
dhre
dhream
dhreap
dhreapadh
dhro
dhroch
dhroichead
dhroim
dhromchla
dhromchlai
dhrong
dhruga
dhrugai
dhruid
dhu
dhua
dhuais
dhual
dhualgais
dhualgas
dhubh
dhubha
dhubhda
dhuibh
dhuibhne
dhuilleoga
dhuine
dhuit
dhul
di
dia
diabhail
diabhal
diaga
diagacht
diagachta
diagaire
diagno
diaibe
diaidh
diaine
dialann
dialects
dialogue
diamaint
diamant
diamhair
diamond
dian
diana
diane
dianghlasa
dianstaide
diarmada
diarmaid
diarmait
diarmata
diarmuid
diary
dias
diaspo
diaz
dib
dibon
diciembre
dick
dickens
dickinson
dictionary
dictionnaire
did
didn
die
died
diego
diem
diemen
dies
diesel
dietrich
difear
difference
different
difrea
difri
difriu
difte
digital
digitalspy
digiteach
digiteacha
dil
dill
dillon
dimaggio
dime
din
dindshenchas
dine
dineasa
ding
dinger
dingle
dinimiciu
dinne
dinneen
dinnireacht
dinnseanchais
dinnseanchas
dintiu
dio
diocese
diodorus
diolu
dion
diongbha
dioplo
diosca
dioscai
dioscliosta
diosco
diospyros
dir
direa
direct
direction
directions
director
directorate
directory
dirk
dirkszoon
dirty
dis
disaster
discipli
disco
discogs
discovered
discovery
disease
diseases
disney
disneyland
display
displaystyle
disques
distance
district
districts
dit
dithe
dition
ditions
diu
diversity
divided
divisio
division
divisions
dixon
dj
djazairess
dl
dlann
dleathach
dli
dlisteanach
dlite
dlu
dmitri
dmitriy
dna
dni
do
dob
dobbs
dobhair
dobharchu
dobhra
dobson
doc
dochair
dochar
dochartaigh
dochloi
dochreidte
docht
dochtu
docs
docstudio
doctor
document
documentary
documents
dodhe
does
dofheicthe
dog
dogs
doherty
doi
doibhlin
doicheall
doicime
doigheartha
doile
doimhne
doimhneacht
doiminic
doiminiceach
doing
doinn
doire
doiri
doirni
doirse
doirte
doirteadh
dolan
dolca
dole
dollar
dolly
dolmen
dolores
dolphin
dom
domenico
domestic
domhain
domhainspe
domhan
domhanda
domhandaithe
domhandu
domhanleithead
domhanleithid
domhantarraingt
domhantarraingthe
domhnach
domhnaigh
domhnaill
domhnall
domingo
dominic
dominique
domlais
domnaill
domnall
domnann
don
dona
donahue
donais
donal
donald
donaldson
donatello
done
donegal
donegan
donn
donna
donnabha
donnacha
donncha
donnchad
donnchada
donnchadh
donnchadha
donne
donnell
donnelly
donoghue
donovan
doo
dooley
door
doppler
dor
dora
dorais
doras
dorcha
dorchadas
dord
dordghiota
dordogne
dordveidhil
doris
dorn
dorna
dorothy
dorset
dos
dosaen
dosna
dostoyevsky
dot
dothra
dothuigthe
douard
double
doubleday
doug
douglas
douglass
dover
dowd
dowling
down
downey
downham
downing
download
downs
doyle
dp
dpg
dpgmedia
dr
dra
dracula
draena
drag
dragain
dragan
dragon
drai
draic
draig
draigi
drake
drama
dramhai
dransfield
draoi
draoithe
dre
dreach
dream
dreama
dreamanna
dreaming
dreams
dreancaid
dreapadh
dreapado
dreapaire
dreaptha
dreigi
dreoili
dresden
drew
dreyfus
dri
drioglann
drisceoil
driscoll
drive
driver
driving
dro
droch
drochaid
drochamhrasach
drochbhail
drochi
drochshaoil
drochshaol
drochshla
drochuair
drogall
drogallach
drogheda
droichead
droichid
droim
drom
droma
dromainn
dromchla
dromchlacha
dromchlai
dromlach
dromlaigh
dromma
drong
dronga
drongado
dronuilleogach
dronuillinn
dru
drug
druga
drugai
drugs
druid
druidim
druids
druilea
druim
drum
druma
drumado
drumai
dry
dt
dta
dtabhairt
dtabharfadh
dtabharfai
dtabharfaidh
dtaca
dtacai
dtagann
dtagrai
dtaifead
dtaighde
dtailte
dtaisce
dtaispea
dtaithi
dtalamh
dtamhlacht
dtaobh
dtar
dtarlai
dtarlo
dte
dteach
dteachtai
dteaghlach
dteagmha
dteanga
dteangacha
dteannta
dteasca
dteastai
dteicneolai
dteideal
dteoiric
dtexas
dti
dtiarna
dtiarnai
dtigh
dtimpeall
dtimpeallacht
dtimpiste
dtiobraid
dtiocfadh
dtiocfaidh
dtionchar
dtiono
dtionscal
dtiteann
dtitfeadh
dtithe
dtiu
dto
dtoghcha
dtoil
dtoirt
dtoll
dtonnta
dtorthai
dtosach
dtosai
dtoso
dtra
dtraidisiu
dtraipisi
dtre
dtreabh
dtreis
dtreise
dtreo
dtri
dtriail
dtrioblo
dtru
dtu
dtuairim
dtuaisceart
dtuarasca
dtuaslaga
dtuath
dtuatha
dtugadh
dtugann
dtugtai
dtugtar
dtuigeann
dtuilleamai
dtuiscint
dtuismitheoiri
dturas
dturcach
dturgnaimh
dtyne
du
dua
duach
duais
duaiseanna
dual
dualgais
dualgaisi
dualgas
duan
duanaire
dub
dubai
dubh
dubha
dubhaga
dubhaltach
dubhda
dubhghaill
dubhghlas
dubhthaigh
dublin
dubliners
duck
duckworth
dudley
due
dufaigh
duff
duffy
duga
duggan
dui
duib
duibh
duibhe
duibheaga
duibhir
duilearga
duille
duilleog
duilleoga
duilleoigi
duilli
duilliu
duillsilteach
duine
duinn
duinni
duit
duithe
duke
dul
dulta
dumbledore
dumha
dumhach
dumhcha
dumont
dun
dunbar
duncan
dundalk
dundee
dunford
dunn
dunne
dup
durham
during
durruti
dust
dusta
dustin
dutch
duty
duval
dvd
dw
dwarf
dwelly
dwight
dwyer
dyer
dyfed
dying
dylan
dynasty
dz
e
ea
eabhair
eabhrac
eabhrach
eabhrais
eabhraise
each
eachach
eachroma
eachtardhomhanda
eachtra
eachtrach
eachtracha
eachtrai
eachtrannach
eachtrannacha
eachtrannaigh
eacnamai
eacuado
eadar
eadhra
eadra
eag
eagair
eagar
eagartho
eaghra
eagla
eaglais
eaglaise
eaglaiseach
eaglaisi
eaglasta
eagle
eagna
eagnai
eagra
eagrai
eagraigh
eagraithe
eagras
eagru
eain
eala
ealai
ealing
eallach
eallaigh
eamhain
eamhnu
eamon
eamonn
eana
eanach
eanaigh
eangach
eantro
eapainmneach
ear
earca
earcai
earcaigh
earcail
earcu
earl
earlier
earliest
early
earna
earo
earra
earrach
earrai
earraigh
earth
eas
easa
easaontais
easaontas
easaonto
eascair
eascann
eascrai
easla
easmainn
easnamh
easnamhach
easpa
easpacha
easpag
easpago
easpaig
easpo
east
easta
eastenders
easter
eastern
eastman
easto
eastwood
easy
eata
eatarthu
eatramh
eatramhach
eb
ebert
ebola
ec
ecat
ecclesiastical
ech
echach
echinodorus
echo
echtra
echtrae
ecology
economic
economics
economist
economy
ecoport
ed
eda
eddie
edel
eden
edgar
edge
edgeworth
edil
edinburgh
edison
edited
edith
edition
editions
editor
editorial
editors
edmond
edmonton
edmund
edna
edo
eds
edu
eduard
eduardo
education
educational
edward
edwards
edwin
effect
efl
eg
egaire
egan
egerton
ego
egypt
ei
eibhear
eibhir
eibhli
eibleacht
eich
eid
eidhin
eidirsce
eiffel
eight
eighteenth
eile
eilean
eileanan
eileen
eili
eilimint
eiliminti
eilish
eilne
eilve
eimear
eimhear
eimhire
eimpi
ein
einde
eine
einer
einsi
einstein
eipeaso
eipic
eipiciu
eipide
eipite
eirbiam
eirc
eire
eireabaill
eireaball
eireann
eiritre
eirleach
eisceacht
eisceachtai
eisceachtu
eiscir
eiseamal
eiseamla
eisean
eisenhower
eisi
eisiach
eisiamh
eisigh
eisimirce
eisithe
eisiu
eispe
eisteddfod
eistir
eite
eiteach
eithbhinn
either
eithne
eithneaga
eiti
eitic
eitice
eitil
eitile
eitilt
eitilte
eitilti
eitinn
eitlea
eitleoir
eitli
eitneach
eitneacha
eitneachas
eitneolai
ek
el
ela
elaeocarpus
elaine
elatha
elba
elbad
elder
ele
eleanor
eleathanach
election
elections
electionsireland
electoral
electric
electronic
element
elementary
elements
elena
eli
elias
eliezer
elijah
eliot
elisabeth
eliza
elizabeth
ell
ella
ellen
ellie
elliot
elliott
ellis
elmes
elmore
elon
elphin
elsafty
else
elser
elvis
em
emer
emergency
emeritus
emerson
emi
emil
emile
emilia
emilie
emilio
emily
emire
emissions
emma
emmanuel
emmerdale
emmet
emmy
empire
empty
en
encore
encyclopaedia
encyclopedia
encyclopædia
end
enda
ends
enemy
energy
enfield
engels
engineering
england
english
engus
engusa
ennis
enough
enrico
enright
enrique
enterprise
entertainment
entity
entre
entry
environment
environmental
environmentally
enya
enzo
eo
eocaro
eochach
eochada
eochadha
eochaga
eochaid
eochaidh
eochaill
eochair
eochu
eoghain
eoghan
eoghanacht
eoghanachta
eoicli
eoin
eol
eolach
eolai
eolais
eolaithe
eolas
eoleolai
eoni
eora
eoraifi
eoraip
eoraipiam
eorna
eorpa
eorpach
eorpacha
eorpai
eorpaigh
eorpais
eorpaise
ep
epic
episode
episodes
epstein
equality
er
era
erasmus
erc
erenn
eri
eric
erich
erie
erik
erin
eris
ernest
ernie
ernst
error
erskine
eru
eruca
erwin
es
esa
escape
eska
espa
espan
especially
esperanto
espn
essay
essays
essential
essex
est
establishment
estate
este
esteban
esther
estimates
et
eta
etc
etersce
eth
ethel
etymological
eu
euge
eugen
eugene
eugenia
euler
euphorbia
euphrasia
eur
eureka
euro
europa
europarl
europe
european
eurovision
eurovoix
ev
eva
evan
evangelist
evangelista
evans
evatt
eve
evelyn
even
evening
event
events
ever
everest
everett
everton
evertype
every
everybody
everyone
everything
evic
evidence
evil
evolution
evolutionary
ewan
ex
examinations
examiner
example
exchange
exclusive
executive
exemption
exeter
exhibition
exile
exist
exit
expansion
experience
experimental
expert
explained
express
expression
expulsion
extension
extinction
extra
extremadura
eyckensis
eye
eyes
eyre
ez
ezra
f
fa
faber
fabhalsce
fabhcu
fabhrach
fabhru
fabio
face
facebook
faces
fach
fachtna
fachto
faclair
fact
factbook
facto
factor
factory
facts
factsheet
fad
fada
fadaithe
fadhb
fadhbanna
fado
fadsaolach
fadsaolai
fadte
fadtre
fadu
fagan
fahey
fahy
fai
faic
faiche
faid
faide
faigh
faigheann
faighte
faightear
fail
failbhe
failli
fair
fairbanks
faire
faireog
faireoga
faireoige
fairfield
fairsing
fairsinge
fairsingi
fairsingiu
fairy
faisean
faiseanta
faisin
faisisteach
faisisteachas
faisne
faith
faithlinn
faiti
falco
falcone
fall
falling
fallon
falls
false
fame
familia
families
family
famine
famous
fan
fanacht
fanann
fand
fanning
fanny
fans
fantaisi
fantasia
fantastic
fantasy
faoi
faoilea
faoilleach
faoin
faoina
faoiseamh
faoisimh
faola
faoladh
faolchu
faomhadh
far
fara
faraday
faranto
faraor
farasbarr
farewell
farm
farmer
faro
farraige
farraigi
farrell
farrelly
faso
fast
fat
fata
fate
fathach
fathaigh
father
fatima
faulkner
fawr
fay
faye
fayette
fbi
fc
fda
fe
fea
feabhail
feabhais
feabhas
feabhra
feabhsai
feabhsaithe
feabhsu
feabhsuithe
feachtais
feachtas
feachtaso
feada
feadh
feadhna
feado
feall
feallmharai
feallmharfo
feallmharu
fealltach
fealsamh
fealsu
feamainn
feamainne
feanna
fear
fearadh
fearainn
fearann
fearas
feardorcha
fearg
feargach
feargal
fearghail
fearghal
fearghas
fearghasa
fearna
fearo
fearr
fears
fearta
fearthainne
feasa
feasacht
feasachta
feast
feasta
feat
feature
features
feb
february
federal
federation
federer
federico
feel
feeling
fees
feet
feicea
feiceann
feicimid
feictear
feicthe
feideara
feidhm
feidhmchla
feidhme
feidhmeanna
feidhmeannach
feidhmeannacht
feidhmeannaigh
feidhmeannas
feidhmghru
feidhmi
feidhmithe
feidhmiu
feidlimid
feilimi
feiliu
feimineach
fein
feinime
feirge
feirite
feirm
feirme
feirmeacha
feirmeoir
feirmeoireacht
feirmeoireachta
feirmeoiri
feirmi
feirste
feis
feiscint
feisire
feisiri
feiste
feisteas
feisti
feistis
feistithe
feitheamh
feithicil
feithicli
feithid
feithidi
feldman
felipe
felix
fell
felt
female
femmes
fenagh
feodach
feoil
feoiliteach
feola
fer
ferdinand
fergal
fergus
fergusa
ferguson
fermat
fermi
fern
ferna
fernandez
fernando
ferns
ferrari
ferris
ferry
festival
festschrift
fethard
feuchtwanger
few
ff
ffe
fflint
fgb
fha
fhaca
fhachto
fhad
fhada
fhadhb
fhadhbanna
fhaiche
fhaid
fhaide
fhaigheann
fhaighin
fhaightear
fhaili
fhaircheallaigh
fhaireog
fhairsing
fhairsinge
fhaisne
fhan
fhanann
fhaoitigh
fhaola
fharo
fharraige
fhe
fhea
fheabhas
fheabhra
fheabhsaigh
fheabhsu
fheachtais
fheachtas
fheada
fheado
fheallmharaigh
fheallmharu
fhealsamh
fhealsu
fhear
fhearadh
fhearann
fhearchair
fhearghail
fhearghais
fhearghas
fhearghasa
fhearna
fhearr
fheicea
fheiceann
fheicfea
fheicimid
fheictear
fheideara
fheidhm
fheidhmeach
fheidhmeanna
fheidhmi
fheidhmigh
fheidhmiu
fheilimi
fheinime
fheirm
fheirmeoir
fheirmeoireacht
fheirmeoiri
fheirte
fheis
fheisire
fheithicil
fheithidi
fheoil
fhi
fhia
fhiacha
fhiachna
fhiachrach
fhiafraigh
fhianaise
fhianna
fhiannai
fhiatach
fhichiu
fhicsean
fhicseanu
fhicsin
fhidil
fhigiu
fhile
fhili
fhilipi
fhill
fhilleadh
fhilleann
fhine
fhinn
fhinne
fhinsce
fhiona
fhionlainn
fhionlainnis
fhionn
fhionnachtain
fhionnadh
fhionnlaoich
fhionnuisce
fhios
fhiosru
fhir
fhirbhisigh
fhirdhia
fhireann
fhiseolai
fhisic
fhisiceach
fhisiciu
fhithis
fhithisea
fhiu
fhlainn
fhlaithbheartaigh
fhlaithis
fhliu
fhliuch
fhlo
fhloinn
fhluairi
fho
fhocail
fhocal
fhoclo
fhofhine
fhoghlaim
fhoghlaimeoiri
fhoghru
fhoilseacha
fhoilsi
fhoilsigh
fhoilsitheoir
fhoilsiu
fhoinse
fhoinsi
fhoireann
fhoirfe
fhoirgneamh
fhoirgnimh
fhoirm
fhoirmeacha
fhoirmi
fhoirmiu
fhoirmle
fhoirne
fholamh
fholla
fhollasach
fholu
fhomhuirea
fhondu
fhonn
fhora
fhorais
fhoraois
fhoras
fhorbair
fhorbairt
fhorbartha
fhorbrai
fhore
fhorghabh
fhorghabha
fhorla
fhorleathan
fhorma
fhormho
fhoro
fhosfa
fhostai
fhostaigh
fhostaithe
fhostu
fhra
fhrainc
fhraincis
fhrancach
fhrancacha
fhrancaigh
fhraoigh
fhre
fhreagair
fhreagairt
fhreagra
fhreagracht
fhreagrai
fhreastail
fhreastal
fhreastalai
fhreasu
fhriotai
fhrith
fhronta
fhuadach
fhuadaigh
fhuaim
fhuaimeanna
fhuaimni
fhuaimniu
fhuair
fhuar
fhuarai
fhuaru
fhuascailt
fhuasclai
fhuath
fhui
fhuil
fhuilteach
fhuinneamh
fhuinneog
fhuinnimh
fhuirseoir
fhulaing
fhulaingi
fhulaingt
fhurasta
fi
fia
fiabhras
fiacail
fiach
fiacha
fiachna
fiachra
fiachrach
fiacla
fiaclach
fiaclo
fiadhu
fiafrai
fiaich
fiaile
fianaise
fianna
fiannachta
fiannai
fiannas
fiatach
fiche
fichead
ficheall
fichidi
fichille
fichiu
fichte
ficsean
ficseanu
ficsin
fiction
fide
fidel
fidgenti
fidil
fidle
fidsi
field
fielding
fields
fifa
fifth
fifty
fig
figgis
fight
fighters
fighting
figiu
figure
figures
fil
file
fileata
files
fili
filime
filip
filipi
filleadh
filleann
fillte
film
films
fin
final
finals
finance
financial
find
finding
fine
fingal
finghin
finguine
finlay
finn
finne
finnegan
finsce
fintan
finte
finucane
fiodh
fiodhghinte
fiona
fionlainne
fionlainnis
fionlainnise
fionlannach
fionlannacha
fionlannaigh
fionn
fionnachtain
fionnachtana
fionnadh
fionnaidh
fionnbarra
fionnliath
fionno
fionnuala
fionnuisce
fionrai
fiontair
fiontar
fiontrai
fios
fiosru
fir
firbhisigh
fire
fireann
fireanna
fireannach
fireannaigh
firefly
firinscneach
firm
first
fischer
fiseolai
fish
fishbase
fisher
fishing
fishman
fisic
fisice
fisiceach
fisiceacha
fisiceoir
fisiceoiri
fisici
fisiciu
fisk
fite
fithis
fithise
fithisea
fithiseach
fithisi
fithisiu
fitt
fitz
fitzgerald
fitzgibbon
fitzmaurice
fitzpatrick
fiu
fiuchphointe
five
fk
fl
flag
flaherty
flai
flainn
flaith
flaithbertach
flaithbertaigh
flaithbheartach
flaithbheartaigh
flaithearta
flaitheas
flaithis
flaithiu
flaithri
flanagan
fland
flanders
flann
flannbhui
flash
flatha
flavius
flea
fleadh
fled
fleming
fletcher
flidais
flight
flinders
fliodhas
fliu
fliuch
fliucha
flo
floinn
flood
floor
flora
florence
florida
flosc
flosctha
flower
flowers
floyd
flu
fluairi
fluoride
fly
flying
flynn
fm
fo
focail
focal
foche
fockleyr
focleolai
foclo
focloir
focus
foghlai
foghlaim
foghlaimeoiri
foghlaimi
foghlaithe
foghlama
foghlamtha
foghludha
foghrai
foghru
foilseacha
foilsi
foilsithe
foilsitheoir
foilsitheoireachta
foilsitheoiri
foilsiu
foinn
foinse
foinsi
foirceann
foireann
foirfe
foirfeachta
foirgneamh
foirgni
foirgnimh
foirm
foirme
foirmea
foirmeacha
foirmi
foirmiu
foirmle
foirmli
foirne
fol
fola
folaigh
folaithe
folamh
folcada
foley
folio
folk
folklore
folla
follasach
follow
following
folt
folu
foluain
fomho
fomhuirea
fonda
fondu
fonn
fonnado
fonnmhar
fono
fontaine
fontana
fontenoy
food
fools
foot
football
footballer
for
fora
forainm
forainmneacha
forais
foraois
foraoise
foraoisi
foras
forasnagaeilge
forbairt
forbairti
forbartha
forbes
forbrai
forbro
force
forces
ford
forde
fore
foreign
forest
forever
forget
forghabha
forghafa
forgotten
foriomla
forla
forleata
forleathan
forleithne
forli
form
forma
formation
former
formhe
formho
forms
formula
foro
forrest
forsyth
fort
fortachta
fortune
forty
forum
forward
fosaithe
foscadh
fosfa
fosfar
fospeiceas
fosta
fostai
fostaithe
foster
fosto
fostu
fotha
fotharta
fothoghcha
fothrach
fothracha
fothraigh
fothro
foucault
fought
found
foundation
foundations
founder
four
fourth
fouyir
fowl
fowler
fox
fr
fra
frac
frainc
fraince
fraincis
fraincise
frames
franc
franca
francach
francacha
francaigh
france
frances
francesc
francesca
francesco
francia
francis
francisco
franco
frank
frankenstein
frankfurt
frankie
franklin
franz
fraoch
fraoigh
fraser
fre
freagairt
freagra
freagrach
freagracht
freagrachtai
freagrai
freasco
freastail
freastal
freastalai
freasu
fred
freddie
frederick
free
freedom
freeman
freisin
freisler
freitag
french
fresh
freud
freziera
fri
frida
friday
friedrich
friel
friend
friendly
friends
friendship
fringillidae
frink
friotai
friotal
frith
frithbheartai
frithbheathach
frithbheathaigh
frithchaite
frithchiallaigh
frithdhu
frithghni
frithsheasmhach
frithsheasmhacht
fritz
friu
friuli
fro
frog
froissart
from
front
fronta
frost
fry
fss
ft
fu
fuacht
fuadach
fuadai
fuaim
fuaime
fuaimeanna
fuaimiu
fuaimni
fuaimniu
fuaimrian
fuair
fuaire
fuaite
fual
fuar
fuara
fuaraithe
fuarthas
fuaru
fuascailt
fuascailte
fuasclai
fuath
fud
fui
fuil
fuilaistriu
fuileada
fuilteach
fuinneamh
fuinneog
fuinneoga
fuinneoige
fuinnimh
fuinniu
fuinnmhithe
fuirseoir
fuisce
fulaingt
fulham
full
fuller
fullerton
fulton
fun
function
functions
fund
funeral
fungais
fungas
fungi
furasta
furlong
further
fusa
future
fynwy
g
ga
gaa
gaba
gabh
gabha
gabhadh
gabhail
gabhair
gabhann
gabhar
gabhla
gabhra
gabhtar
gabor
gabra
gabriel
gabrielle
gach
gacha
gacht
gad
gadai
gadar
gaddafi
gadelica
gadh
gadhar
gadhra
gae
gaedhilge
gaeil
gaeilge
gaeilgeoir
gaeilgeoiri
gael
gaelach
gaelacha
gaelai
gaelainn
gaelchola
gaelic
gaeloideachas
gaelport
gaels
gaelsce
gaelscoil
gaelscoileanna
gaelscolai
gaelspell
gaeltacht
gaeltachta
gaeltachtai
gaerfyrddin
gafa
gaga
gagea
gai
gaia
gaibhne
gail
gaile
gaileanga
gailearai
gailenga
gailf
gaili
gaill
gaille
gaillimh
gaillimhe
gaime
gain
gaine
gaineamh
gainimh
gaint
gair
gairbhe
gairbhi
gairdi
gaire
gaireadh
gaireas
gairid
gairide
gairm
gairme
gairmiu
gairmre
gairt
gais
gaisce
gaisci
gaisi
gaiste
gaius
gal
gala
galair
galar
galaxies
galaxy
gale
galf
galfaire
galicia
galilei
galileo
galizia
gall
galla
gallach
gallagher
gallaib
gallaibh
gallaigh
gallant
gallbhaile
gallcho
gallda
gallery
gallia
gallico
gallimard
gallipoli
gallo
gallu
galracha
galuisce
galvin
galway
gama
game
games
gamma
gan
gandalf
gandhi
gandon
gang
gann
ganntanas
gantz
gaodhal
gaoil
gaois
gaoith
gaoithe
gaol
gaolmhar
gaolmhara
gaolta
gaoluinn
gaora
gaoth
gaotha
gap
gar
gara
garastu
garbh
garbha
garbhchri
garci
garcia
garda
gardai
garde
garden
gardens
gardiner
gardner
gareth
garfield
garibaldi
garini
garland
garman
garmhac
garra
garrai
garraithe
garret
garrett
garrfhicsin
garry
gartach
gartaigh
gartha
garvey
garvin
gary
gas
gaseolai
gaso
gasta
gastas
gaston
gasu
gate
gates
gathach
gathanna
gathering
gatter
gaudi
gaulle
gavan
gave
gavin
gay
gaye
gaza
gazette
gazetteer
gb
gca
gcabhair
gcabhlach
gcabhro
gcaibidil
gcaidreamh
gcaighdea
gcaili
gcailleach
gcaine
gcaint
gcainteoiri
gcaipeato
gcairde
gcaireo
gcairt
gcairteacha
gcais
gcaiseal
gcaislea
gcaitheamh
gcaitheann
gcaithfeadh
gcaithfear
gcaithfi
gcaithfidh
gcaitliceach
gcaitliceachas
gcaitlicigh
gcalafort
gcalifornia
gcambridge
gcambridgeshire
gcampa
gcampai
gcana
gcantu
gcanu
gcaogaidi
gcaoi
gcaolas
gcaorach
gcapall
gcaptaen
gcarachtar
gcarad
gcarbo
gcarr
gcarraig
gcarraigeacha
gcartlann
gcat
gcatago
gcataibh
gcatalo
gcatar
gcath
gcathair
gcathanna
gcathe
gcathrach
gcathracha
gce
gceadai
gceado
gceall
gcealla
gceamara
gceanada
gceangal
gceann
gceannairc
gceannaire
gceannairi
gceannas
gceanncheathru
gceantair
gceantar
gceardchumann
gcearno
gcearr
gcearrbhach
gceart
gcearta
gceartla
gceatharlach
gceathru
gceiliu
gceilteach
gceimic
gceimiceoiri
gceird
gceirni
gceist
gceisteanna
gceithre
gceol
gceoldra
gceolto
gci
gciall
gciallai
gciannacht
gciarrai
gcilime
gcill
gcime
gcine
gcinea
gcini
gcinn
gcinneadh
gcinniu
gcion
gcionn
gciorcal
gciste
gcla
gcladach
gclann
gcleachtadh
gcleachtas
gclo
gcloch
gclog
gcloi
gcloigeann
gclu
gcluain
gclub
gclubanna
gcluiche
gcluichi
gcna
gcnoc
gcnuasach
gco
gcodanna
gcodarsnacht
gcodladh
gcogadh
gcogai
gcoibhneas
gcoigri
gcoilea
gcoili
gcoill
gcoillte
gcoime
gcoimea
gcoimhlint
gcoimisiu
gcoincheap
gcoinne
gcoinnea
gcoinni
gcoir
gcoireanna
gcoirnis
gcois
gcoiste
gcoitinne
gcola
gcolainn
gcolu
gcomh
gcomha
gcomhair
gcomhairle
gcomhaltai
gcomhaontas
gcomhaontu
gcomhar
gcomharbacht
gcomharbas
gcomharsan
gcomharsanacht
gcomhartha
gcomharthai
gcomhchainteanna
gcomhcheilg
gcomhdha
gcomhdhe
gcomhdhu
gcomhghuailli
gcomhghuaillithe
gcomhlacht
gcomhlachtai
gcomhli
gcomhluadar
gcomhoibriu
gcomhpha
gcomhphobail
gcomhphobal
gcomhrac
gcomhre
gcomhrialtas
gcomhshaol
gcomhthe
gcomo
gcompara
gconair
gconamara
gconnacht
gconnachta
gconradh
gconspo
gcontae
gcontaetha
gcontra
gcontu
gcorca
gcorcaigh
gcorn
gcoro
gcorp
gcorr
gcos
gcosa
gcosaint
gcosanto
gcosc
gcosmhuintir
gcothromai
gcothromo
gcoventry
gcra
gcraiceann
gcrainn
gcrann
gcraobh
gcraobhchomo
gcre
gcreach
gcreideamh
gcreideann
gcri
gcrios
gcrith
gcro
gcrobhaingi
gcroi
gcros
gcrosa
gcruacha
gcruinne
gcruinniu
gcruithne
gcruithneach
gcruth
gcruthai
gcrutho
gcruthu
gcu
gcuan
gcuanach
gcuas
gcuid
gcuideachta
gcuimhne
gcuimhneacha
gcuireadh
gcuireann
gcuirfeadh
gcuirfear
gcuirfi
gcuirfidh
gcuirtear
gcultu
gcuma
gcumado
gcumann
gcumannach
gcumannachas
gcumarsa
gcumas
gcumbria
gcumhacht
gcumhachtai
gcuntas
gcur
gcuspo
gd
gde
ge
gea
geal
geala
gealach
gealacha
gealai
geall
gealladh
geallta
gealltanais
gealltanas
geallu
gealo
gean
geanainn
geansai
geansaithe
geara
gearailt
gearaltaigh
gearma
gearo
gearoid
gearr
gearra
gearradh
gearran
gearrscanna
gearrsce
gearrtar
gearrtha
gearrthe
geasa
geata
geatai
geelong
geiger
geilleagair
geilleagar
geimhin
geimhreadh
geimhridh
geingeas
geiriadur
geis
geit
gel
geldof
geller
gemini
gen
gender
gene
genealach
genealogiarum
genealogical
genealogies
genealogy
genera
general
generation
genetic
genetics
geneva
genoa
genome
genova
genre
genus
geo
geoffrey
geoghegan
geografach
geografacha
geografai
geographic
geography
geoime
geolai
georg
george
georges
georgetown
georgia
ger
gerald
geraldine
gerard
gerd
gerhard
germain
german
germany
geronimo
gerrard
gerry
gertrude
gesamtdarstellung
geschichte
gesellschaft
get
gets
getting
gettysburg
geuree
gfadh
gfai
gfaidh
gh
gha
ghabh
ghabha
ghabhadar
ghabhadh
ghabhann
ghabhra
ghadhra
ghaeil
ghaeilge
ghael
ghaelach
ghaelacha
ghaelaigh
ghaelscoil
ghaeltacht
ghaeltachta
ghaili
ghaill
ghaillimh
ghainimh
ghair
ghairdi
ghairid
ghairm
ghairmiu
ghairmre
ghais
ghaisce
ghaisci
ghal
ghala
ghalair
ghalaithe
ghalar
ghall
ghallda
ghalu
ghaoil
ghaoithe
ghaol
ghaolmhar
ghaolmhara
ghaolta
ghaorthaidh
ghaoth
ghar
gharastu
gharbh
gharda
ghardai
gharmhac
gharrai
gharrdha
ghas
ghasu
ghathach
ghathanna
ghe
gheal
gheala
ghealach
gheall
gheara
ghearailt
ghearma
ghearo
ghearr
ghearra
ghearradh
ghearrann
ghearrliosta
ghearrsce
gheasa
gheata
gheilleagair
gheilleagar
gheimhreadh
gheimhridh
gheirsi
gheis
gheobhadh
gheobhaidh
gheofar
gheoime
gheolai
ghiall
ghib
ghil
ghin
ghine
ghinealach
ghinealaigh
ghineann
ghineara
ghiniu
ghintear
ghiolla
ghiorru
ghiota
ghiu
ghlac
ghlacadar
ghlacadh
ghlacann
ghlacfadh
ghlactar
ghlais
ghlan
ghlanadh
ghlaoch
ghlaoigh
ghlaoitear
ghlaoiti
ghlaotar
ghlas
ghlasa
ghlaschu
ghlasra
ghle
ghleann
ghleanna
ghleanndamhnach
ghleannta
ghlo
ghloine
ghlu
ghluais
ghluaiseacht
ghluaiseachtai
ghluaiseann
ghluaisne
ghluaistea
ghna
ghnaoi
ghne
ghni
ghno
gho
ghobhainn
ghobharno
ghoid
ghoile
ghoill
ghoin
ghoirm
ghonta
ghorm
ghorma
ghort
ghorta
ghortaigh
ghortu
ghost
ghosts
ghotach
ghra
ghradam
ghramadach
ghramadai
ghraonlainn
ghre
ghreamai
ghreamaigh
ghreann
ghri
ghrian
ghriancho
ghrianghaoth
ghrianghrafado
ghrinn
ghrinneall
ghru
ghruaig
ghu
ghua
ghuail
ghuaire
ghuairim
ghuairne
ghual
ghualainn
ghuine
ghunna
ghunnai
ghuta
ghuth
ghutha
gi
giacomo
giall
gialla
giant
giants
gibbons
giblean
gibson
gifford
gift
gig
gil
gila
gilbert
gile
giles
gill
gilla
gillen
gilles
gillian
gilligan
gilmore
gin
gina
gine
gineadh
gineado
ginealach
ginealaigh
ginealais
gineann
gineara
ginette
ginideach
giniu
ginmhilleadh
ginsburg
ginte
gintear
giobra
giofo
giolcach
giolla
giollaga
giollarna
gion
giorgio
giorra
giorrai
giorraithe
giorria
giorru
giosta
giota
giovanni
gir
girl
girls
girona
giu
giulio
giuseppe
give
given
gla
glac
glacadh
glacado
glacann
glach
glactar
glactha
gladstone
glaigh
glaisne
glan
glanadh
glanta
glao
glaoch
glaodh
glaoitear
glaonn
glaonna
glaotar
glas
glasa
glaschu
glasgow
glasra
glasrai
glass
gle
gleacai
gleann
gleannta
gleeson
glen
glenn
gleoite
glinne
glion
glo
global
globe
gloine
gloria
glory
glossary
gloucester
glover
glu
gluais
gluaiseacht
gluaiseachta
gluaiseachtai
gluaiseann
gluaisne
gluaisni
gluaistea
glund
glyn
gmhi
gna
gnaoi
gne
gni
gno
gnu
go
goal
gob
goba
gobada
gobadh
gobharno
god
godard
goddard
goddess
godfrey
godot
gods
godwin
godwinson
goebbels
goedelicum
goes
goethe
gofraid
gofraidh
gogh
goid
goideadh
goidte
goile
goill
goin
goineadh
going
goir
goirt
gol
gold
goldblatt
golden
goldsmith
golf
goll
gombrowicz
gomez
goncourt
gondor
gone
gonna
gonne
gonta
gonza
gonzalo
good
goodbye
goodman
goods
goodwin
google
goose
gorbachev
gordon
gore
gorffennaf
gorm
gorma
gormacha
gormaigh
gorman
gormlaith
gormley
gort
gorta
gortai
gortaithe
gortu
gortuithe
gospel
gossard
got
gotach
gothai
gottfried
gough
gould
goulding
gov
government
governor
goya
gpa
gr
gra
grace
gradaim
gradam
gradh
grady
graeme
graf
grafach
grafaici
grafton
graham
grai
graifi
gram
gramadach
gramadai
gramado
gramadu
gramhnaigh
grammar
grammy
gran
granada
grand
grande
grange
granger
grant
grants
graonlainne
grass
grattan
grave
graves
gravity
gray
gre
greago
grealish
greamai
greamaithe
greamu
grean
greanadh
greanado
greann
greanna
greannmhar
greanta
great
greater
greatest
greco
greek
green
greene
greenwich
greenwood
greg
gregg
gregor
gregory
greim
gresham
greta
grey
gri
grian
griana
griancho
grianghraf
grianghrafado
grianghrafanna
grianghraif
grianna
grianstad
griffin
griffith
griffiths
grimm
grimshaw
grin
grinn
grinneall
gro
grohl
groningen
grosse
grossman
grosso
ground
group
groups
grove
growth
gru
gruagach
gruaig
gruaige
gruffudd
gruffydd
gruyter
gsfc
gslaiv
gslaive
gtar
gtha
gu
gua
guadalajara
guail
guailli
guaird
guaire
guairne
guairnea
gual
guala
gualainn
guard
guardian
guatamala
gue
guerin
guernica
guerra
guerrero
guest
guevara
guez
gui
guide
guido
guildford
guillaume
guillem
guillermo
guine
guinness
guitar
gulban
gun
gunna
gunnai
guns
gunther
gur
gurb
gurbh
guru
gus
gustaf
gustav
gustave
gustavo
guta
gutai
gutenberg
guth
gutha
guthaisteoir
guthaithe
guthanna
guthrie
guy
gwen
gwengolo
gwent
gwynedd
gwynn
gyllenhaal
h
ha
habe
haber
habhaic
habhainn
habhann
habsburg
haca
hachar
hacht
hackett
hackney
hacmhainni
had
hadaimh
hadamh
hadharca
hadhmad
hadro
haeckel
haemaglo
haemaifilia
haer
haera
haeto
hafez
hafganasta
hafraice
hagan
haghaidh
hago
hahn
hai
haibhneacha
haibi
haice
haicme
haicmi
haidhmeanna
haige
hailge
haili
haille
haillte
hailse
hailt
hailtireachta
haimsire
hainde
hainm
hainmfhocail
hainmhithe
hainmneacha
hainmni
hair
hairde
haire
haired
hairgead
hairginti
hairi
hairici
hairithe
hairm
hairme
hairteagal
hais
haise
haisteoiri
haisti
haistri
haistriu
haithint
haithne
hal
halaigine
halaigini
halba
halbaim
halbain
halbam
halban
halbanaigh
halco
hale
hales
haley
half
halifax
hall
halla
hallai
halldo
halle
halloran
halpa
ham
hamaso
hamburg
hamha
hamharclainne
hamhra
hamilton
hamlet
hamlets
hammadi
hammersmith
hammond
hampshire
hampstead
hampton
han
hana
hanaili
hancock
hand
handalu
handball
handbook
hands
hangla
hank
hanks
hanley
hanlon
hann
hanna
hannah
hannamh
hannigan
hannover
hannracha
hanover
hans
hansard
hantashubstainti
haodh
haodha
haoine
haois
haoise
haoiseanna
haon
haonaid
haonar
haontachto
hap
happened
happy
hara
harabaigh
harago
haraibe
haraibise
harald
harbor
harbour
harcourt
hard
harda
hardiman
hardin
harding
hardteistime
hardy
hare
haringey
harm
harma
harmony
harold
harp
harper
harpercollins
harriet
harrington
harris
harrison
harrow
harry
hart
hartairi
harte
hartford
hartley
hartman
harv
harvard
harvest
harvey
harvnb
harwood
has
hasarbaisea
haso
hassan
hassell
hastaro
hastings
hastra
hat
hata
hate
hathair
hathar
hathbheochan
hathbheochana
hathcho
hathro
hathru
hathruithe
hava
havana
have
havel
haven
havering
havers
having
hawaii
hawking
hawkins
hay
hayden
hayek
hayes
hayley
hazel
hbo
hcl
hclo
hd
he
heabhraise
heachtra
heachtrai
heacnamai
head
heads
heagartho
heaghra
heagla
heaglais
heaglaise
heaglaisi
heagnai
heagra
heagrai
healai
health
healthy
healy
heaney
hear
hearadh
heard
hearna
hearo
hearrai
hearst
heart
hearts
heasnacha
heaspa
heaspaig
heasta
heasto
heat
heath
heather
heaton
heaven
heavy
heck
hector
heffernan
hegel
heicseaga
heictea
heidelberg
heidhin
heights
heilbh
heiliminti
heille
heilsinci
heilve
heinemann
heinlein
heinrich
heinsi
heinz
heipeaso
heipiti
heireaball
heirseagaive
heite
heithir
heiti
heitlea
held
helen
helena
hell
hello
helm
helmut
help
hemingway
hen
henderson
hendrik
hendrix
hennessy
henri
henrietta
henriette
henrik
henry
heochaga
heochaidh
heoghan
heoghanachta
heol
heolai
heolaithe
heolas
heoleolai
heora
heoraifi
heorpa
heorpach
heorpaigh
hepburn
her
herald
herbert
hercules
here
heritage
herman
hermann
hermione
herna
hero
heroes
heroic
herschel
hertfordshire
hertz
herzog
hess
hesse
hessen
het
heuston
hewitt
hey
heym
hf
hg
hh
hi
hiad
hiain
hiar
hiara
hiarann
hiarannaoise
hiarla
hiarmhairti
hiarmhi
hiarnro
hiarracht
hiarrachtai
hiarrtho
hiarsmai
hiarthar
hiasachtai
hibe
hibernia
hiberniae
hibernian
hibernica
hibrideach
hichilema
hickey
hicks
hidalgo
hidden
hide
hidirghni
hidirna
hidreacarbo
hidreaclo
hidri
hidrigin
hidrigine
higgins
higgs
high
higher
highland
highlands
highway
higuchi
hijmans
hilchri
hill
hillary
hillingdon
hills
hillsborough
him
himeacht
himeachtai
himile
himill
himirce
himircigh
himirt
himleabhar
himmler
himoibrithe
himpire
himpireacht
himpireachta
himreoiri
himself
himtharraingthe
hinchinne
hincigh
hindeberg
hindenburg
hindi
hindia
hindiacha
hindiaigh
hindine
hindu
hingearach
hini
hinimircigh
hinne
hinnealto
hinnill
hinscri
hinse
hinstitiu
hintleachto
hioda
hiodra
hiodrocsai
hioma
hiomaitheoiri
hiomla
hiompar
hionad
hionadai
hionaid
hionann
hiondu
hionradh
hionsai
hionsaithe
hionsaitheoiri
hiontach
hiorda
hiorua
hip
hipearbo
hipite
hipparcos
hiragana
hiram
hirise
hiriseoiri
hirisi
hiroshima
his
hiseato
histoire
historia
historian
historic
historical
histories
history
hit
hitchcock
hithreach
hitler
hits
hiu
hiv
hl
hler
hlinka
hm
hms
ho
hobad
hobair
hoban
hobart
hobson
hoc
hoche
hocht
hochto
hochtu
hocras
hocsai
hocsaigin
hocsaigine
hodges
hodgkin
hoffman
hoffmann
hogan
hoganstand
hogg
hogwarts
hoi
hoibre
hoibreacha
hoibri
hoibrithe
hoideachas
hoidhreacht
hoifige
hoifigi
hoifigigh
hoifigiu
hoilea
hoiliu
hoilmiam
hokkaido
hola
holc
hold
holden
holding
hole
holiday
hollainne
hollainnise
holland
hollande
hollannaigh
hollchruinne
holloway
hollphle
hollscoil
hollscoile
hollscoileanna
holly
hollywood
holmes
holocaust
holstein
holt
holy
homafo
homaighne
homalo
home
homepage
homer
homme
homo
hondu
honey
hong
honneur
hono
honor
honore
honour
honshu
hood
hook
hooke
hoover
hop
hope
hopes
hopkins
hopper
hor
hora
horan
horatio
hord
horduithe
horga
horgan
horizon
hormo
horn
horror
horse
horses
horsfieldia
horst
hoscailte
hosclai
hospide
hospital
hosrai
host
hostaire
hot
hotama
hotel
hothair
hotspur
houdini
houghton
houlihan
hound
houney
hounslow
hour
hours
house
houses
housing
houston
houtman
how
howard
howe
however
hrer
hrsg
hse
htm
html
http
https
hu
hua
huacht
huachtara
huair
huaire
huaisle
huang
huathoibri
hub
hubbard
hubble
hubert
hudson
huget
hugh
hughes
hugo
hui
huibheacha
huidhre
huidre
huigi
huiginn
huile
huillinne
huimhir
huimhreacha
huirlisi
huisce
huisci
hulaid
hulaidh
hull
human
humans
humbert
humboldt
hume
humphrey
humphreys
huncail
hundred
hunga
hunger
hunt
hunter
hunting
hurla
hurley
hurling
hurt
husband
hussein
husserl
hussey
hutch
hutchinson
hutton
huxley
huygens
hy
hybrid
hyde
hydrogen
hywel
hz
i
ia
iachall
iad
iadsan
iaidi
iain
iallach
ialto
iama
ian
ianach
ianacha
ianu
iar
iara
iarainn
iarann
iarannaois
iarbha
iarbhall
iarbhi
iarche
iarcheannaire
iarchogaidh
iarchoili
iardheisceart
iargu
iarimreoir
iarla
iarlacht
iarlai
iarmhairt
iarmhairti
iarmharach
iarmhi
iarno
iarnro
iaro
iarpheileado
iarpholaiteoir
iarr
iarracht
iarrachtai
iarradh
iarraidh
iarrann
iarratais
iarratas
iarrtho
iarshaighdiu
iarsma
iarsmai
iarsmalann
iarthair
iarthar
iartharach
iartharacha
iarthuaisceart
iarthuaiscirt
iaru
iaruachtara
iasacht
iasachta
iasachtai
iasc
iascach
iascaigh
iascaire
iascaireacht
iascaireachta
iascairi
iata
iau
ib
ibe
ibeacha
ibf
ibh
ibhe
ibheann
ibhi
ibhille
ibhinn
ibhte
ibhtine
ibhtiu
ibi
ibid
ibin
ibis
ible
ibm
ibn
ic
ice
iceacho
iceadh
iceas
iceasta
iced
iceland
iceo
iceolai
ich
iche
ichi
ichiro
ichiu
ici
icia
icivi
icle
icli
iclipteach
icon
icri
ics
id
ida
idaho
idbhaile
idbhailte
idbhealach
ide
idea
ideach
ideacha
ideachas
ideacht
ideachta
ideadh
ideann
ideanna
ideartha
idearthacht
ideas
identification
identity
ideo
ideoir
ideoiri
ideonna
ideora
idh
idhe
idheal
idhealaibh
idhealtachd
idhlig
idi
idiam
idigh
idin
idir
idirbheartai
idirchontae
idirdhealaithe
idirdhealu
idire
idirghabha
idirghni
idiri
idirli
idirmhea
idirna
idirthre
idis
idithe
idiu
idol
idre
idsi
idte
idtear
idti
ie
if
ife
ifeach
ifeacht
ifeachta
ifeachtach
ifeachtai
ifeachtu
ifi
ifne
ifreann
ifta
ig
ige
igeach
igeacha
igeadh
igean
igeanda
igeanna
igeantach
igear
igeartaigh
igh
ighe
igheanna
ighne
igi
igigh
igin
iginnte
iginnteacht
igipt
igipte
igipteach
igiptigh
igir
igis
igise
igiu
igneach
igniu
igor
igri
igse
igthe
ihe
ihrer
ii
iii
ike
il
ila
ilbhliantu
ilce
ilcheallacha
ilcheantair
ilcheantar
ilchinea
ilchri
ilchultu
ilci
ildaite
ile
ilea
ileaca
ileach
ileacha
ileachair
ileadh
ileamh
ilean
ileanna
ileog
ileoga
ileolai
ilex
ilford
ilghne
ili
ilia
iliam
ilici
iligh
ilim
ilimh
ilimreoiri
ilin
ilio
iliomad
ilipseach
ilire
ilis
ilise
iliteach
ilithe
ilitheoir
iliu
ill
ille
illeabha
illeach
illeacht
illeachta
illeadh
illeann
illi
illinois
illithe
illiu
illsine
illsinigh
illustrated
ilmhea
ilna
ilre
ilsto
ilt
ilte
ilteacht
ilteachta
ilteangach
iltear
ilti
iltigh
iltiu
ilu
ilya
im
image
images
imbas
imbhuaileann
imbhuailte
imbhuailti
imbhualadh
imchlu
imchoimea
imchuach
imdb
imdhi
ime
imea
imeach
imeacht
imeachta
imeachtai
imeaglu
imeall
imeann
imeanna
imeannach
imeannaigh
imeantach
imeartas
imeartha
imeas
imelda
imeolai
imfha
imh
imhe
imheas
imhi
imhiotail
imhiotal
imhiu
imhse
imhsea
imhseach
imhseacha
imhsi
imhsithe
imhsiu
imi
imiam
imid
imigh
imill
imin
imint
iminteam
iminti
imir
imirce
imirceach
imircigh
imire
imirt
imis
imithe
imiu
iml
imleabhair
imleabhar
imleach
imli
immram
imneach
imni
imnithe
imnitheach
imniu
imoibrea
imoibreoidh
imoibreoir
imoibri
imoibrithe
imoibriu
impact
imperial
impi
impigh
impire
impireacht
impireachta
impireachtai
impiri
impiriu
impleacht
impleachtai
implications
importance
important
impossible
imre
imreoir
imreoiri
imri
imrothlu
imscru
imse
imseata
imshruthaithe
imshruthu
imshui
imsi
imtharraingt
imtharraingteach
imtharraingthe
imtheorannu
imthoscai
in
ina
inaistrithe
inaitheanta
inar
inauguration
inbharu
inbhe
inbhear
inbhir
inbhuanaithe
inc
inca
incha
incheaptha
inchinn
inchinne
inchreidte
inchurtha
including
income
ind
inde
independence
independent
index
indi
india
indiach
indiacha
indiaigh
indian
indiana
indianapolis
indibhidiu
indie
indigenous
indine
indira
individual
indli
indo
indreabha
indreachtach
industrial
industry
ine
ineach
ineacha
ineachais
ineachas
ineacht
ineadh
ineam
ineann
ineas
ineasa
inen
ineolai
infheicthe
infheisti
infheistiu
influence
info
information
infreastruchtu
infridhearg
ing
inga
inge
ingearach
ingearacha
ingeborg
ingen
inghlactha
inghluaiste
inglis
inglot
ingne
ingrid
ini
inia
iniam
inic
inice
inics
inig
inigh
inile
inimirce
inimirceach
inimircigh
iniompartha
inis
inise
inite
initeach
initeacha
initi
initic
iniu
inla
inle
inlia
inliacht
inliachta
inlianna
inmharaithe
inmharthana
inmharu
inmhe
inmhea
inmhianaithe
inn
inne
innea
inneach
inneacha
inneall
innealra
innealto
inner
inni
innigh
innill
innis
innise
innithe
inniu
inniubh
innocent
innocentius
ino
inorganic
inquiry
inri
inriail
inrialaithe
inrialaitheach
inrialaitheacha
inrialtais
inrialtas
ins
insan
inscne
inscri
inscriptions
inse
inseach
inseal
insealbhai
insealbhaithe
insealbhu
inseamh
insi
inside
insil
insint
insiu
inslin
inslithe
inspiora
instagram
inste
instealladh
institiu
institut
institute
institution
insular
insurance
int
inte
intea
inteach
inteacha
inteanna
intear
intelligence
inteoir
inteoireacht
inteoireachta
inteoiri
inteora
inter
interdisciplinary
interest
international
internationale
internazionale
internet
interpret
interview
inti
intinn
intinne
intiu
intleacht
intleachta
intleachtach
intleachto
intleachtu
into
introduction
intuaslagtha
intuigthe
inu
invalid
invasion
inveirteabraigh
investigation
investigations
invi
invisible
io
ioannes
iocht
ioda
iogna
iol
iolair
iolar
iolra
iolrach
iolrai
iolru
ioma
iomadu
iomai
iomaire
iomaitheoir
iomaitheoiri
iomann
iomarca
iomarcach
iombhla
iomchui
iomla
iommi
iompai
iompaigh
iompair
iompairc
iompaithe
iompar
iompartha
iompo
iomprai
iompro
iompu
iomra
iomrall
iomramh
iomrasca
iona
ionad
ionadach
ionadai
ionadaithe
ionadh
ionaid
ionana
ionann
ionannai
ionas
ioncaim
ioncam
ionchas
ioncho
ionchu
ionchuir
ionchur
iondu
ionduchtu
ionfhabhtai
ionfhabhtaithe
ionfhabhtu
ionfhabhtuithe
ionghabha
ionradh
ionrai
ionraic
ionraidh
ionramha
ionro
ionsai
ionsaigh
ionsaithe
ionsaitheach
ionsaitheoir
ionsaitheoiri
ionstraim
ionstraimi
ionsu
iontach
iontacha
iontais
iontaise
iontaisi
iontaisithe
iontaobhas
iontaofa
iontas
iontra
iontu
ionu
iora
iorda
iorrais
iorras
iorua
ioruach
ioruais
ioruaise
iorwerth
ioslaim
ioslam
ioslamach
ioslamacha
iosrael
iosraelach
iostanbu
iowa
ip
ipa
ipcc
ipcheart
ipchirt
ipe
ipea
ipeanna
ipli
ipswich
ir
ira
iran
iraq
irb
irbhean
irbiam
irc
irce
ircea
irceanna
ird
irde
ire
irea
ireach
ireacha
ireacht
ireachta
ireachtai
ireamh
ireamho
ireann
ireanna
ireannach
ireannacha
ireannaigh
ireas
ireland
irene
ireodh
ireoidh
ireolai
irg
irge
irgeach
irgeacht
irgeachta
irgeadh
irgeann
irgeoir
irgeoiri
irgi
irgiu
irgtear
irgthe
iri
iriam
iric
iridiam
irigh
irim
irimh
irimiu
irine
irinn
iris
irische
irischen
irise
iriseoir
iriseoireacht
iriseoireachta
iriseoiri
irish
irishcentral
irishexaminer
irishman
irishtimes
irisi
irisleabhair
irisleabhar
irithe
iritheoir
iritheoiri
irithinte
iriu
irland
irlande
irling
irmhe
irmheas
irmheasanna
irmheasto
irmhi
irn
irne
irneach
iron
irons
irscrios
irse
irsea
irseach
irseacha
irseoir
irsi
irsigh
irsint
irsithe
irsiu
irt
irtaimseartha
irte
irteach
irteacha
irteachas
irteagail
irteanna
irti
irtithe
irtiu
irtne
irvine
irving
irwin
is
isa
isaac
isabel
isabella
isabelle
isbe
isbn
isc
isce
isceadh
isci
iscthe
ise
isea
iseach
iseacha
iseacht
iseamh
isean
iseanna
iseanta
isear
isearach
isearacha
iseas
iseato
iseoir
iseult
isi
isialach
isialacha
isialachais
isialachas
isialai
isialaigh
isialaithe
isialta
isiam
isigh
isime
isimh
isin
ising
isir
isis
isise
isithe
isitheoir
isitheoiri
isiu
isla
island
islands
isle
isles
isli
islig
islington
iso
isola
ispi
israel
israeli
issn
issue
issues
issuu
ist
iste
isteach
isteacht
isteachta
isteachtai
isteanna
isteoir
isti
istice
istigh
istine
istineach
istir
istiu
istoi
istrea
istreacht
istreachta
istri
istva
isu
it
italia
italian
italiana
italy
ite
itea
iteach
iteacha
iteamh
itean
iteanna
itear
iteas
iteoir
ith
ithchinea
ithe
itheach
itheacha
itheadh
itheann
itheanna
itheoir
itheoireacht
itheoireachta
itheoiri
itheora
ithi
ithir
ithithe
ithiu
ithni
ithre
ithrea
ithreach
ithreacha
ithreachais
ithreachas
ithreacht
ithreoir
ithreoiri
ithri
ithrithe
ithriu
iti
itia
itiam
itic
itigh
itimh
itinn
itis
itithe
itiu
itne
itreabh
itri
itriam
itribh
itrithe
itritheoir
itritheoiri
its
itse
itsea
itseach
itsi
itsigh
itsis
itunes
itv
iu
iuchar
iucn
iulius
iupac
iv
iva
ivan
ivana
ive
iveach
iverni
ivi
ivid
ivigh
ivo
ix
ixobrychus
j
ja
jab
jabanna
jaborosa
jack
jackie
jackman
jackson
jacob
jacobs
jacqueline
jacques
jagadguru
jagger
jail
jaime
jake
jakob
jam
james
jameson
jamestown
jamie
jan
jane
janeiro
janet
janis
january
japan
japanese
jar
jared
jarmusch
jason
jasper
java
javier
jay
jayne
jazz
je
jeaic
jean
jeanne
jeff
jefferson
jeffrey
jeffries
jena
jenkins
jenkinson
jenner
jennifer
jenny
jens
jensen
jepsen
jeremiah
jeremy
jerome
jerrey
jerry
jersey
jerusalem
jess
jesse
jessica
jessie
jesus
jewel
jewish
jews
ji
jihad
jill
jim
jimi
jimmy
jinnah
jj
jo
joa
joachim
joan
joanna
joanne
job
jobs
joe
joel
joey
johan
johann
johanna
johannes
johannesburg
john
johnny
johns
johnson
johnston
johnstone
joint
jon
jonas
jonathan
jones
jong
joplin
jordan
jorge
jose
josef
josep
joseph
josephine
josh
joshua
josie
joule
jour
journal
journalism
journalist
journey
joy
joyce
joynt
jp
jpg
jpl
jr
jstor
ju
juan
juana
jubainville
jude
judge
judith
judy
juillet
juin
jules
juli
julia
julian
julie
julien
julio
julius
july
jump
jun
junction
june
juni
junior
just
justice
justin
juventus
k
ka
kaczyn
kafka
kahlo
kai
kaiser
kaj
kalevala
kamchatka
kamen
kampf
kan
kane
kansas
kant
kappan
karel
karen
karin
karl
karla
kashmir
kasparov
kassila
kate
katharina
katharine
katherine
kathleen
kathmandu
kathryn
kathy
katie
katniss
katri
katrina
katy
kavanagh
kay
kazakhstan
kazan
kb
kc
kd
ke
keane
kearney
keating
keefe
keeffe
keegan
keenan
keep
keeping
kehoe
keilidh
keith
kekkonen
kelleher
kelley
kellie
kells
kelly
kelten
keltische
keltischen
kemal
kemper
ken
kenai
kendall
kennedy
kennelly
kenneth
kennings
kenny
kensington
kent
kentucky
keogh
kepler
kept
ker
kerensky
kernewek
kernow
kerouac
kerr
kerrill
kerry
kershaw
kettle
kevin
kew
key
keyes
keynes
keys
keyser
kf
kg
kgb
kh
khan
kherson
kho
khoisan
khrushchev
ki
kian
kid
kids
kiel
kiely
kieran
kilburn
kildare
kilkenny
kill
killed
killer
killing
kim
kind
king
kingdom
kingdoms
kings
kingship
kingston
kinsella
kipling
kirby
kirino
kirk
kiss
kissinger
kit
kitchen
kitchener
kitty
kivi
kkk
klan
klaus
klein
klerk
klux
km
knema
knew
knight
knights
knott
know
knowledge
knowles
known
knox
ko
koch
kohl
kolbe
kong
konrad
konsa
konstantin
kornilov
kr
krako
kripaluji
krist
kro
ku
kuiper
kultur
kumar
kuno
kurosawa
kursk
kurt
kv
kwarteng
kyi
kyle
kylie
kyoto
l
la
labhair
labhairt
labhartha
labhra
labhrai
labhrais
labhras
labor
laboratory
labour
labradar
labraid
lacaille
lacan
lacey
lach
lacha
lachain
lachais
lachas
lacht
lachta
lachtai
lachtna
lacy
ladar
laden
ladh
ladhar
ladies
ladt
lady
lae
laethanta
laethu
lafayette
lag
laga
lagaithe
lagar
lagarde
lagen
laghad
laghairt
laghdai
laghdaigh
laghdaithe
laghdo
laghdu
lago
lagos
lagu
lahore
lai
laibhe
laidhe
laidin
laidine
laidineach
laidineacha
laidinigh
laige
laigean
laigh
laighean
laighin
laighle
laighneach
laigi
laigin
laing
lainn
lainne
lainsea
lais
laisteas
laisti
laistiar
laistigh
laite
laithe
laiti
laitvia
lake
lakes
lally
lalor
lama
lamar
lamb
lambert
lambeth
lament
lamha
lamhna
lamont
lampa
lampai
lan
lanca
lancashire
lancaster
lance
land
lands
landscape
lane
lang
lange
langley
language
languages
langue
lann
lanna
lannraig
lansa
lansdu
lantano
lao
laoch
laochais
laochra
laoghaire
laoi
laoich
laoire
laois
laoise
laoiseach
laoithe
laomainn
laos
lapairi
laplace
lara
larbha
larbhai
large
laridae
larkin
larry
lars
larsson
larus
las
lasadh
lasair
lasc
lascadh
lasmuigh
lasrach
lasracha
last
lasta
lastall
lastas
lastoir
lastuaidh
lata
late
later
latest
latharna
latin
latina
laud
lauderdale
launch
laura
laureate
laurel
lauren
laurence
laurent
laurie
lausanne
lavery
lavoisier
law
lawless
lawlor
lawrence
laws
lawson
lay
lazio
lch
lchiste
lchu
ld
le
lea
leaba
leabaithe
leabhair
leabhar
leabharlainne
leabharlann
leabharlanna
leabharlannai
leabhra
leac
leaca
leacain
leacaithe
leach
leacht
leachta
leachtach
leachtanna
leachtu
lead
leader
leaders
leadership
leadh
leading
leado
leadra
leag
leagadh
leagain
leagan
leaganacha
leagann
leagtar
leagtha
league
leahy
leam
leamhan
leamhca
lean
leanadh
leanai
leanann
leanas
leanbh
leanfadh
leanfaidh
leann
leanna
leanne
leanta
leantach
leantar
leanto
leanu
leapa
leapacha
leapto
lear
learn
learned
learning
learphoill
learpholl
leary
leas
leasa
leasai
leasainm
leasainmneacha
leasaithe
leasaitheoir
leasanna
leasc
leasdeartha
leasri
least
leasu
leasuachtara
leasuithe
leat
leata
leatach
leataigh
leataobh
leath
leatha
leathadh
leathair
leathan
leathana
leathanach
leathanaigh
leathann
leathar
leathbha
leathbhealach
leathche
leathcheannais
leathchu
leathfhada
leathlobhair
leathmhi
leathmhilliu
leathnai
leathnaigh
leathnaithe
leathno
leathnu
leathre
leathru
leathsfe
leathsheolto
leathuair
leatrom
leave
leaves
leaving
lebanon
leben
leblanc
lebor
lech
leclerc
lecture
lectures
led
ledger
lee
leeds
left
legacy
legal
legend
legendary
legends
legislation
lego
legs
lei
leibhe
leibniz
leice
leicester
leicestershire
leicne
leictreach
leictreacha
leictreachais
leictreachas
leictreamaighne
leictreastatach
leictreoid
leictreoidi
leictreoin
leictreon
leictreonach
leictreonacha
leictreonaic
leictreonaice
leictreondi
leictridhiu
leictrigh
leictrili
leid
leideanna
leiden
leifteanant
leigh
leigheas
leighis
lein
leini
leinster
leipreacha
leipzig
leis
leispiach
leith
leithcheal
leithcheathru
leithdha
leithe
leithead
leitheadu
leithid
leithinis
leithligh
leithne
leithreas
leithris
leithsce
leitir
leitrim
lemass
lemmy
lemony
len
lena
lenape
lenar
lenihan
lenin
leningrad
lennard
lennon
lenny
leo
leochaileach
leoice
leoin
leon
leonard
leonardo
leone
leonid
leopold
leor
leorai
leordho
leosan
lepidoptera
lermontov
les
leslie
less
lessons
lester
let
letter
letters
lettres
lev
level
levi
levichev
levine
levy
lewis
lewisham
lex
lexikon
lexington
leyrac
lez
lfaidh
lfar
lfea
lge
lgh
lhuyd
li
lia
liadh
liag
liagchiorcal
liam
liamha
liamhna
liammo
lianna
liath
liatha
liathchorcra
liathro
liatroim
liatroma
lib
libby
libe
liber
liberal
liberty
libh
libia
libraries
library
libre
libro
lichtinste
lici
liddell
lidl
lie
lies
lieutenant
life
lifechair
lig
liga
ligeadh
ligean
ligeann
ligfeadh
ligh
light
lightning
lights
ligint
ligtear
ligthe
ligure
like
lil
lille
lillian
lilliput
lily
lim
lima
limerick
limestone
limfeach
limfici
limiste
limited
limits
lin
linbh
lincoln
lincolnshire
lincse
linda
lindau
linde
lindisfarne
lindsay
line
lines
ling
lingo
lingua
linguistic
linguistics
lingus
link
linn
linna
linnaeus
linne
linnte
linus
linux
lioba
liobra
liom
liomfo
lion
lionel
lions
lionsa
lionsai
liopa
liopach
liopai
lios
liospo
liosta
liostai
liostaithe
liotu
liotua
lipe
lipidi
lir
lire
lirici
liriciu
lis
lisa
lise
lismore
list
listen
lists
liszt
lit
liteartha
literary
literatura
literature
lithe
litiam
litir
litisfe
lito
litreach
litreacha
litri
litrithe
litriu
litte
little
liu
liv
live
lived
liverpool
lives
livias
living
livingston
livingstone
lix
liz
liza
lizzy
ll
lla
llan
lle
lleach
ller
lloyd
lly
llywelyn
lm
ln
lo
loach
loades
loairn
loan
lobha
lobhadh
loc
local
location
locations
loch
locha
lochanna
lochlainn
lochlainnis
lochlann
lochlannach
lochlannacha
lochlannaigh
locht
lochta
lochtach
lochtaigh
lochtu
lock
lockdown
locke
lodainn
lodair
lodge
lofa
log
loga
logainm
logainmneacha
logan
loi
loighce
loighciu
loighic
loinge
loingea
loingeas
loingseach
loingsech
loingseoir
loingseoireacht
loingseoireachta
loingsigh
loinn
loinnir
loire
loirg
loisceadh
loit
loitime
lola
lolfa
lom
loma
lomaistriu
lombaird
lomnocht
lon
lona
londain
londan
london
londraigh
lonely
lonergan
long
longa
longchea
longes
longfoirt
longford
longfort
longman
longmans
lonnai
lonnaigh
lonnaithe
lonnaitheoiri
lonnu
lonrach
lonrachas
lonru
look
looking
loose
lopez
lorca
lord
lordi
lords
lore
lorenzo
loreto
lorg
lorgain
lorgan
lorraine
los
loscadh
lose
loss
lost
lot
lothair
lothar
lotnaidi
lou
loud
lough
loughlin
louis
louisa
louise
louisiana
louisville
lourdes
louth
louvre
lovato
love
lovecraft
loved
lovell
lover
loves
loving
low
lowe
lowell
lower
lowry
loyola
lp
lra
lrai
ls
lse
lseacht
lseachta
lseoiri
lt
lta
ltaca
ltach
ltacha
ltacht
ltachta
ltai
ltaigh
ltais
ltar
ltas
ltd
lte
ltear
lth
lti
lto
ltu
lu
lua
luach
luacha
luachanna
luachmhar
luachmhara
luachra
luadh
luaidhe
luaigh
luain
luaini
luais
luaite
luaitear
luaith
luaithe
luaithreach
luaithrigh
luamh
luamha
luan
luanistyn
luann
luas
luasanna
luascada
luascadh
luasghe
luath
luatha
luathstair
luc
lucas
luch
lucha
lucho
lucht
luchta
luchtaithe
luchtanna
luchtu
lucia
luciano
lucille
lucius
luckner
lucky
lucsambuirgis
lucsamburg
lucy
ludvig
ludwig
luftwaffe
lug
lugaid
lugano
lugh
lugha
lughaidh
lui
luibh
luibheanna
luibheolai
luigh
luigi
luimneach
luimnigh
luineacha
luis
luiz
luke
lula
luna
lunny
lurgan
lus
lusitania
lussac
luther
luton
luxemburg
lydon
lyga
lynch
lynda
lyndon
lynn
lynne
lynott
lyon
lyons
lyra
lyrics
lysaght
m
ma
maastricht
mabel
mabinogi
mac
maca
macado
macalister
macalla
macasamhail
macau
macbride
maccarthy
maccotter
macdermot
macdonald
macgill
mach
macha
machaire
machairi
machine
machnaimh
machnamh
machu
mackenzie
mackillop
mackinnon
maclean
macleo
macleod
maclysaght
macmillan
macneill
macneille
macon
macpherson
macron
mad
mada
madadh
madadha
madagascar
madame
madden
maddens
maddie
maddrell
made
madeleine
madge
madison
mado
madog
madonna
madra
madrai
madrid
mae
mael
maenmar
maeve
mafia
mag
magadh
magaidh
magairli
magazine
magazines
magdeburg
magellan
maggie
maggio
magh
magic
magma
magna
magnolia
magnus
maguire
maharaj
mahatma
maher
mahon
mahony
mai
maic
maid
maide
maidhc
maidhm
maidi
maidin
maidine
maidir
maidrid
maier
maifia
maige
maigh
maighdean
maighdine
maighe
maighne
maighre
maigne
mail
maili
maille
main
maine
mainici
mainis
mainistir
mainistreach
mainistreacha
mainni
maint
maintli
mainz
mair
mairbh
maire
maireachta
maireachtaint
maireann
mairfeadh
mairfidh
mairi
mairne
mairti
mairtine
mais
maisc
maise
maiseanna
maisi
maisithe
maisitheoir
maisiu
maison
maith
maithe
maithiu
maitiu
maitri
majesty
major
make
makem
makes
making
mal
mala
malaeisia
malairt
malairte
malarta
malartach
malartacha
malartai
malartaithe
malartu
malcolm
malden
male
malik
mall
mallacht
malley
mallon
mallorca
mallory
mallow
malmo
malone
maltese
mama
mamach
mamaigh
man
mana
manach
management
manager
manaigh
manaim
manainn
manainnis
manainnise
manam
mananna
manannach
mancha
manchain
manchester
manchu
mandairi
mandela
manfred
manga
mangaine
manhattan
manitoba
manley
mann
mannerheim
manning
mannion
mannix
manor
mansfield
manson
manuel
manus
manuscript
manuscripts
manx
many
mao
maoil
maoile
maoileoin
maoili
maoin
maoine
maoinithe
maoiniu
maoirseacht
maois
maol
maola
maolai
maolchatha
maolchonaire
maolmhaodho
maolruanaidh
maolu
maonais
maonlai
maor
maoracht
maorais
maorga
maos
maotha
maothail
map
mapa
maps
maqi
mar
mara
maraco
maradona
marai
maraithe
maraon
marascal
marathon
marato
marbh
marbha
marbhadh
marc
marca
marcach
marcai
marcaigh
marcanna
marcas
marcel
march
marche
marcmhea
marco
marconi
marcos
marcra
marcshlua
marcus
mare
maredudd
marfach
marfo
margadh
margai
margaidh
margaret
margarita
marge
marguerite
mari
maria
marian
marianne
mariano
marie
marilyn
marin
marina
marine
mariner
marino
mario
marion
mariotte
marita
maritima
maritime
marius
marjorie
mark
market
markievicz
marks
markus
marlene
marley
marlo
marlon
marne
maro
marquis
marr
marriage
married
mars
marsa
marsden
marseille
marsh
marshal
marshall
mart
marta
martha
marthain
marti
martin
martina
martinez
martino
marty
martyn
martyrology
maru
marvel
marvin
marx
marxach
marxachas
mary
maryjones
maryland
marys
marzo
mas
masc
mask
masla
masmas
maso
mason
mass
massachusetts
massacre
master
masters
mata
matach
matamaitic
matamaitice
matamaiticeoir
matamaiticeoiri
matamaiticiu
match
mate
mater
material
materials
math
matha
mathbb
mathbf
mathematical
mathematics
mathews
mathrm
mathu
matilda
matisse
mato
matt
matteo
matter
matters
matthew
matthews
matthias
matti
mattie
matty
matu
mau
maud
maude
maura
maureen
maurice
maurizio
max
maxim
maximilian
maximus
maxtone
maxwell
may
maya
maybe
mayer
maynooth
maynoothuniversity
mayo
mayor
mayrnt
mb
mba
mbabhta
mbabhtai
mbagairt
mbaicte
mbaile
mbailiu
mbaill
mbailte
mbaineann
mbainfeadh
mbainisteoir
mbaint
mbaintear
mbalca
mball
mballa
mballai
mballsta
mban
mbanc
mbanna
mbannai
mbanri
mbaol
mbarcelona
mbardas
mbarr
mbarra
mbaru
mbascach
mbe
mbeadh
mbeaga
mbeagnach
mbealach
mbealai
mbealaru
mbealtaine
mbean
mbeartas
mbeatha
mbedfordshire
mbeidh
mbeidi
mbeilg
mbeirli
mbeirt
mbeirteanna
mbi
mbia
mbianna
mbille
mbinn
mbinse
mbirmingham
mbla
mbliain
mbliana
mblianta
mbo
mbocht
mboilse
mbonn
mbord
mbosca
mbostu
mbotha
mbox
mbra
mbradford
mbraighdeanas
mbraitheann
mbrasai
mbratach
mbre
mbreatain
mbreatnach
mbreatnais
mbreis
mbreitheamh
mbreithiu
mbri
mbriathar
mbriatharogham
mbriosto
mbriota
mbriotanach
mbro
mbrooklyn
mbru
mbruach
mbruachbhaile
mbu
mbua
mbuachaill
mbuachailli
mbuaileann
mbuama
mbuckinghamshire
mbui
mbuilli
mbuirg
mbuiri
mbun
mbundu
mbuno
mbunreacht
mbunscoil
mbunu
mc
mcallister
mcanespie
mcbride
mccabe
mccann
mccarthy
mccartney
mccarty
mccloskey
mccone
mccormack
mccormick
mccourt
mccoy
mccracken
mccready
mcdermott
mcdonald
mcdonnell
mcfadden
mcgee
mcgill
mcginley
mcgovern
mcgowan
mcgrath
mcgraw
mcgregor
mcguigan
mcguinness
mcguire
mchugh
mckee
mckenna
mckenzie
mckinley
mckinnon
mclaren
mclean
mcloughlin
mcmahon
mcmanus
mcmillen
mcmorrow
mcnamara
mcneill
mcnulty
me
mea
meabhair
meabhrach
meachair
mead
meafar
meafaracha
meagher
meaisi
meala
meall
mealla
mealladh
meallann
mean
meaning
meanjin
meanman
means
meanta
mear
meara
mearbhall
mearbhia
mearcair
mearsheimer
meas
measa
measadh
measann
measartha
measc
measca
meascadh
meascann
measctar
measctha
measta
meastacha
meastar
measu
meat
meata
meath
meatha
meathann
meathlu
mec
mechanics
mecklenburg
med
medal
medb
medelli
media
mediaeval
medical
medici
medicine
medieval
medina
mediterranean
medium
medvedev
mee
meehan
meet
meeting
meg
megalithic
megan
mei
meic
meice
meicni
meicnic
meicnice
meicniu
meicsiceach
meicsiceo
meiji
mein
meindeile
meinhof
meiningi
meiricea
meirleach
meisce
meite
meith
meitheal
meitheamh
meithimh
meitibileacht
meitibileachta
meitreo
mel
melanie
melbourne
melissa
melkor
melville
melvin
member
members
memecylon
memoir
memoirs
memoria
memorial
memories
memory
memphis
men
mendel
mendoza
menn
meno
mensis
mental
menzies
meon
meoneile
mer
mercedes
mercer
merchant
mercier
mercury
meredith
merops
merriman
merry
merton
mes
mesa
mesca
met
meta
meteor
meteorology
method
methods
methuen
metrical
metro
metropolitan
mexican
mexico
meyer
mf
mg
mh
mha
mhac
mhaca
mhacado
mhacasamhail
mhach
mhacha
mhachadh
mhachaire
mhachtain
mhachtaini
mhadaidh
mhadra
mhagh
mhai
mhaibh
mhaide
mhaidin
mhaidrid
mhaifia
mhaigh
mhaighdean
mhaighne
mhaighneann
mhaigne
mhaille
mhaine
mhainistir
mhainni
mhaintli
mhair
mhairbh
mhaireachta
mhaireann
mhairfeadh
mhairne
mhairti
mhais
mhaisigh
mhaisithe
mhaisiu
mhaith
mhaithe
mhala
mhalaeisia
mhalairt
mhalartai
mhalartu
mhall
mhanach
mhanainn
mhanainnis
mhanann
mhananna
mhanchain
mhanchu
mhann
mhanson
mhanta
mhaoil
mhaoili
mhaoin
mhaoiniu
mhaol
mhaola
mhaolaigh
mhaolu
mhaonaigh
mhaor
mhaoracht
mhaotha
mhapa
mhar
mhara
mharach
mharaco
mharai
mharaigh
mharato
mharbh
mharbha
mharbhadh
mharca
mharcais
mharfach
mhargadh
mhargai
mhargaidh
mharlach
mharlaigh
mhars
mharsa
mharu
mhas
mhata
mhatamaitic
mhatamaiticiu
mhatha
mhathu
mhe
mhea
mheabhair
mheabhrach
mheabhracha
mheaisi
mheall
mhealladh
mheallann
mhearcair
mheas
mheasa
mheasann
mheasartha
mheasc
mheasca
mheascadh
mheasctar
mheasctha
mheaspata
mheastacha
mheastar
mheasu
mheath
mheatha
mheicni
mheicnic
mheicniu
mheicsiceo
mheiricea
mheitheamh
mheithimh
mheitreo
mhelbourne
mheon
mhi
mhian
mhianach
mhianado
mhianaigh
mhic
mhichi
mhicreasco
mhill
mhillea
mhilleadh
mhilliu
mhillteanach
mhinic
mhinici
mhinistir
mhinn
mhion
mhionlaigh
mhionn
mhiotail
mhiotal
mhiotalach
mhiotas
mhiotaseolai
mhisean
mhisine
mhisneach
mhiste
mhleabhar
mhna
mhnaill
mhnall
mho
mhodh
mhodhanna
mhodhnu
mhogha
mhoill
mhoire
mhoireibh
mhol
mholadh
mholann
mholdo
mholtai
mholto
mhonaco
mhonarc
mhonarcacht
mhonarcha
mhonato
mhongo
mhora
mhosco
mhoslamach
mhothai
mhothaigh
mhothair
mhothu
mhscri
mhu
mhuaidhe
mhuc
mhuileann
mhuilinn
mhuine
mhuinea
mhuineacha
mhuini
mhuinseo
mhuintir
mhuintire
mhuir
mhuircheartaigh
mhuire
mhuireadhaigh
mhuirfean
mhuiri
mhuiris
mhuirthead
mhullach
mhullaigh
mhumhain
mhumhan
mhurascaill
mhurchadha
mhurchu
mi
mia
miach
miami
mian
mianach
mianado
mianaigh
mianra
mianrai
mianreolai
mianta
mias
mic
michael
miche
michea
micheal
michel
michelangelo
michele
micheli
michelle
michigan
mici
mick
mickey
mickiewicz
miconia
micreafo
micreasco
micreathonnta
micribhitheolai
microbiology
microsoft
mid
middle
middlesbrough
middlesex
middleton
midhe
midhir
midi
midlands
midnight
mie
mifflin
might
migrants
migration
miguel
mika
mike
mikhail
mil
milan
milano
mile
miles
miley
milis
military
milk
mill
mille
millea
milleadh
miller
millettia
milligan
millime
millington
million
milliu
mills
millte
millteach
millteanach
milne
milo
milos
milse
milsea
milton
milwaukee
min
mina
minas
mind
mine
ming
mings
minh
minic
minice
minici
ministe
minister
ministir
minneapolis
minnesota
minogue
minor
minorplanetcenter
minute
minutes
mio
miocro
miocrorga
mion
miondi
mionghne
mionlach
mionlaigh
mionn
mionsamhlacha
mionsonrai
mionsonraithe
mionu
miotail
miotais
miotal
miotalach
miotalacha
miotalo
miotas
miotasach
miotaseolai
mir
miracle
miranda
mire
miriam
mirror
mis
miscellaneous
miscellany
mise
misean
misin
misine
misneach
miss
missing
mission
mississippi
missouri
miste
misteach
mit
mitch
mitchell
mix
mizuki
miłosz
ml
mla
mm
mn
mna
mo
mobhi
mobile
moccu
moch
mocheallo
mode
model
modern
modh
modhanna
modhnu
modu
moe
mogh
mohamed
mohammed
moi
moileasc
moilisc
moill
moille
moire
moireach
moirfe
moirfeolai
moite
mol
moladh
molann
moldo
molecular
molina
molino
molloy
molly
moloney
molotov
molt
molta
moltai
moltar
molto
moment
mon
mona
monaco
monadh
monaghan
monaime
monarc
monarcacht
monarcachta
monarcha
monarchan
monarchana
monaro
monato
moncai
moncaithe
monck
monday
monde
money
monferrato
monga
mongo
monica
monique
monroe
mons
monsieur
monster
mont
montague
montaine
montana
monte
montgomery
month
monthly
montre
montsoreau
monument
monuments
moody
moon
mooney
moor
moorabool
moore
mor
mora
moral
moran
more
moresnet
morgan
morgannwg
mori
moriarty
morley
morna
morning
moro
morris
morrison
morrissey
morsach
morse
mort
mortimer
morton
morty
mos
mosc
mosco
moscow
moses
moslamach
moslamacha
moslamaigh
moss
mossadegh
most
mothai
mother
mothu
motion
motor
motors
motu
mount
mountain
mountains
mouse
mouskouri
mouth
mouton
move
movement
movie
movies
moving
mozart
mp
mr
mrs
ms
msd
msk
mt
mtv
mu
muaidhe
muc
muca
much
mucrama
mug
mugmedo
muhammad
muice
muid
muigmedo
muile
muileann
muilinn
muilte
muimhneach
muin
muine
muinea
muineacha
muini
muinteartha
muintir
muintire
muir
muircheartach
muircheartaigh
muirchertach
muirchertaig
muire
muireadach
muireadaigh
muireadhach
muireadhaigh
muireann
muiredach
muiredaig
muirgheas
muiri
muiris
muirtheimhne
muirthile
muisci
mulder
muldoon
mulla
mullach
mullaigh
mullen
mulligan
multiple
mulvany
mulvihill
muman
mumbai
mumhain
mumhan
mun
muna
mundi
mundo
mungairit
munich
municipal
munna
munro
munster
mura
murab
murach
murai
muraisc
murakami
murar
murascaill
murascaille
murchad
murchada
murchadh
murchadha
murchan
murchu
murcia
murder
murdoch
murphy
murray
murs
mus
muscicapidae
muse
museum
music
musical
musique
musk
mussolini
must
mustafa
mustaird
mv
mw
mwanawasa
mx
my
myers
myles
myprivacy
myristica
myself
myspace
mysterious
mystery
myth
mythology
myths
n
na
nach
nacha
nachais
nachas
nacht
nachta
nachtai
nacional
nacl
nad
nada
nadh
nag
nagasaki
naguib
nahuatl
nai
naicme
naicmeach
naid
naidheachdan
naidhm
naidhme
naige
naigh
naill
naimhde
naimhdeach
naimhdeas
naimseartha
naire
nairi
nairobi
nais
naisc
naisfe
naiste
naisteach
naisteacha
naithe
naitheach
naitheoir
naitheoiri
naitsi
naitsithe
naked
nal
nalbanach
nall
nam
namaib
name
named
names
namh
namhad
namhaid
nan
nana
nance
nancy
nangla
nanjing
nann
nanna
nant
nantes
nantu
naofa
naoi
naoighiallach
naoighiallaigh
naoimh
naois
naoise
naoiseach
naoiseacha
naoiseanna
naomh
naomhpha
naomi
naonad
naontachto
naonu
naou
napa
napier
napo
napole
napoleon
napoli
nar
narabach
naraidi
nard
naroidni
narrative
nas
nasa
nasc
nascadh
nascann
nascanna
nasctha
nash
nashville
nassau
nasser
natal
natalia
natalie
natasha
nath
nathair
nathan
nathaniel
nathanna
nathrach
nathracha
nation
national
nationale
nationalism
nations
native
nato
natsume
natur
natural
nature
navacho
navajo
naval
navarra
navarre
navy
nazi
nb
nba
nbc
nc
nchadh
nchadha
nchen
nchez
nchiorcail
nchiorcal
ncipe
nd
nda
ndaingean
ndaltai
ndamh
ndaoine
ndaon
ndaona
ndaonlathach
ndaonra
ndara
ndath
ndathanna
nde
ndeachaigh
ndeara
ndearadh
ndearg
ndearmad
ndearna
ndearnadh
ndeich
ndeireadh
ndeirtear
ndeisceart
ndel
nderby
nderbyshire
ndevon
ndez
ndi
ndia
ndiaidh
ndiamhair
ndiamhra
ndiu
ndli
ndlu
ndo
ndoire
ndomhan
ndomhnach
ndor
ndra
ndras
ndroichead
ndroim
ndrugai
ndu
ndua
ndubh
nduilleog
nduine
ne
nea
neach
neacha
neachais
neachas
neacht
neachta
neachtai
neachtain
nead
neadacha
neadai
neadh
neal
nealai
nealbh
neamh
neamha
neamhai
neamhain
neamhaird
neamharmtha
neamhbha
neamhbhalbh
neamhbheo
neamhbhrabu
neamhbhuan
neamhchinnte
neamhchiontach
neamhchoitianta
neamhchri
neamhdhi
neamhdhleathach
neamhdhlisteanach
neamhe
neamhfhicsin
neamhfhoilsithe
neamhfhoirmea
neamhfhoirmiu
neamhghna
neamhghne
neamhghni
neamhiomla
neamhni
neamhniu
neamhoifigiu
neamhoird
neamhord
neamhorga
neamhpholaitiu
neamhre
neamhrialta
neamhshaolta
neamhshime
neamhshuim
neamhsplea
neamhthorthu
neamhurcho
neann
near
nearly
nearo
neart
neartai
neartaigh
neartu
neas
neasa
neathach
neave
nebraska
nectandra
ned
nedd
need
needed
needham
needs
nees
neeson
negga
negro
nehru
neid
neighbours
neil
neill
neilson
neimhe
neimhidh
neipeal
neiptiu
nel
nell
nellie
nelly
nelson
nen
neo
neodrach
neodracha
neodracht
neodro
neodru
neoghanacht
neoidri
neoiliteach
neolai
neon
neorpach
nepenthes
neptune
ner
nero
ners
neruda
ness
nessa
net
netflix
netherlands
nettie
network
networks
neue
neumann
nevada
never
neville
new
newark
newcastle
newham
newman
newport
newry
news
newspaper
newspapers
newstalk
newton
next
nez
nf
nfaidh
nfhad
nfl
nfort
ng
nga
ngabha
ngach
ngadar
ngaedheal
ngaeilge
ngael
ngaeltacht
ngaillimh
ngairdi
ngairtear
ngal
ngalar
ngall
ngallach
ngallaibh
ngan
ngaoil
ngaol
ngaolta
ngaoth
ngar
ngarach
ngarai
ngarbhchri
ngardai
ngaza
ngc
nge
ngealach
ngeall
ngealt
ngearaltach
ngearma
ngearrliosta
ngearrsce
ngeilleagar
ngel
nghal
nghunna
nginealach
ngineara
ngiota
ngiu
nglacann
nglacfadh
nglactar
nglaoitear
nglas
nglaschu
ngle
ngleann
ngleannta
ngleic
ngloucestershire
nglu
ngluaiseacht
ngluaistea
ngna
ngne
ngni
ngno
ngo
ngort
ngorta
ngra
ngradam
ngre
ngreim
ngrian
ngrianghrafado
ngru
ngthas
ngu
ngunnai
ngutai
nh
ni
nia
niaibiam
nialas
niall
niallach
niamh
niarlai
niassembly
nic
nica
niccolo
nice
nicearagua
nicholas
nicholls
nichols
nicil
niciti
nick
nickelodeon
nicky
nico
nicola
nicolas
nicolaus
nicole
nie
niels
nielsen
niemann
niemeyer
nietzsche
nig
nige
nigel
nigeria
nigh
nighean
night
nights
nih
nike
nikita
nikki
nikolai
nikolay
nimh
nimhe
nimhiu
nimhneach
nin
nina
ninceach
nine
nineteenth
nino
nintendo
nio
niocaill
niocht
niocla
nionadaithe
niro
nirt
nirvana
nis
nise
nit
nithe
nitheoir
nitheoiri
niu
niwa
nixon
nj
nl
nla
nlai
nlaigh
nlaing
nlainge
nlaithe
nlann
nli
nlu
nm
nme
nmhara
nmharai
nmharaigh
nmharaithe
nmharfo
nmharu
nmharuithe
nmhe
nmhea
nmhuir
nn
nna
nnrot
no
noah
nobel
nobelprize
noble
nocht
nochta
nochtadh
nochtai
nochtaithe
nochtann
nochtar
nod
nodaireacht
noe
noel
noi
noibrithe
noilea
noir
noiriall
noirthear
nolan
nollag
nollaig
nollick
noma
nomenclature
nominoe
non
noonan
noone
nor
nora
nord
nordach
nordic
norfolk
norm
norma
normainn
normainne
normal
norman
normannach
normannacha
normannaigh
normans
norris
norse
north
northampton
northamptonshire
northern
northumberland
northumbria
northwest
norton
norwich
norwood
nos
nosrai
not
note
notes
nothing
notice
notices
notonecta
notre
nottingham
nottinghamshire
nous
nouveau
nouvelle
nov
nova
novak
novel
november
novembre
novgorod
novo
now
nowhere
npha
npr
nr
nra
nrai
nre
nrk
ns
nsach
nsacha
nsachas
nscoil
nscoile
nscoileanna
nse
nseach
nseirbhi
nsi
nssdc
nster
nsu
nsw
nt
nta
ntach
ntacha
ntacht
ntachta
ntachtai
ntai
ntaigh
ntais
ntar
ntas
nte
nteocht
nter
nti
ntiu
nto
nu
nua
nuabheirthe
nuabhunaithe
nuacho
nuacht
nuachta
nuachtlitir
nuad
nuada
nuadha
nuair
nuala
nualla
nuana
nuclear
nueva
nuevo
nui
nuige
nuimhir
nuimhreacha
nuit
nuithe
nulad
nuladh
number
numbers
nunavut
nur
nus
nutt
nxd
ny
nyi
nynorsk
nytimes
nz
o
oak
oakland
oasis
ob
oba
obair
obaire
obairt
obama
obar
obartach
obartaigh
obe
obh
obha
obhadh
obhai
obhaithe
obhann
obhtai
obhtar
obituary
object
objects
obla
oblast
obra
observations
observer
oc
oca
ocach
ocadh
ocai
ocanaili
ocann
occupation
occupational
ocean
och
ocha
ochach
ochacha
ochadu
ochaidi
ochaine
ochais
ochan
ochantacht
ochantai
ochas
ochdheighilt
ochlaonadh
ochmhar
ochnai
ochnaigh
ochnaithe
ochno
ochnu
ocht
ochta
ochtach
ochtai
ochtair
ochtar
ochtarach
ochtaracha
ochto
ochtre
ochtu
oclc
oco
ocrais
ocras
ocsai
ocsaige
ocsaigin
ocsaigine
ocsairibeanu
ocsata
oct
octavianus
octha
october
octobre
octubre
ocunta
ocus
oda
odair
odaise
odar
oder
odessa
odh
odhar
odhna
odhra
odmant
odnb
odo
odyssey
oe
oecd
oed
of
ofa
ofacht
off
office
officer
officers
official
officialcharts
ofra
og
oga
ogacht
ogai
ogair
ogaire
ogaireacht
ogaithe
ogam
ogar
ogden
ogh
oghaim
oghain
ogham
oghma
ograis
ograiseach
ograiseoiri
oh
ohio
ohm
oi
oibiachtu
oibleaga
oibre
oibrea
oibreacha
oibreachais
oibri
oibrigh
oibrithe
oibriu
oide
oideachais
oideachas
oideachaso
oideachasu
oideas
oideolai
oidheadh
oidhre
oidhreacht
oidhreachta
oidhreachtu
oidhri
oifig
oifige
oifigeach
oifigi
oifigigh
oifigiu
oigheann
oighear
oighearshruth
oighir
oil
oilc
oilea
oileadh
oilibhe
oilill
oilimpeach
oilimpeacha
oilithreach
oilithreacht
oilithreachta
oilithrigh
oiliu
oilte
oilthigh
oinigh
oinniu
ointeolai
oir
oirbheartai
oird
oirdheisceart
oirdni
oireachtais
oireachtas
oiread
oirfe
oiri
oiriall
oirialla
oirirc
oiriu
oirni
oirthear
oirthearach
oirthearacha
oirthir
oirthuaisceart
oirthuaiscirt
ois
oise
oisi
oismiam
ok
okinawa
oklahoma
oktober
ol
ola
olacha
oladh
olaf
olai
olaim
olamai
olann
olc
olcas
old
oldest
ole
oleolai
olga
oliver
olivia
olivier
oll
olla
ollach
ollacha
ollaimh
ollainn
ollainnis
ollainnise
ollam
ollamh
ollannach
ollannacha
ollchruinne
ollie
ollmhargadh
ollmhargai
ollmho
ollno
ollphe
ollphle
ollscoil
ollscoile
ollscoileanna
ollscriosta
ollta
olltoghcha
ollu
olluisce
olly
olo
olrai
olraigh
olraithe
olru
olta
oltais
oltar
oltas
olto
olu
olympia
olympic
om
oma
omar
omh
omha
omhach
omhacha
omhai
omhaibhneacha
omhaidhm
omhaigh
omhailt
omhain
omhainti
omhair
omhaire
omhaireacht
omhaireachta
omhaireachtai
omhairi
omhaithe
omhalt
omhamhra
omhanna
omhar
omhartha
omhbhaile
omhbhailte
omhbho
omhcharachtair
omhcharachtar
omhchathair
omhchathrach
omhchathracha
omhchinea
omhchla
omhchlann
omhchomo
omhchu
omhchuspo
omheagartho
omheolai
omhfheidhmeannach
omhfhoinse
omhghiota
omhghru
omhionad
omhli
omhnai
omho
omhoide
omhoifigeach
omhpha
omhphearsa
omhphoist
omhphost
omhre
omhro
omhroinn
omhscanna
omhscri
omhshaothar
omhshra
omhthe
omhtheanga
omhu
omhuithe
omna
omo
on
ona
onach
onacha
onacht
onachta
onadh
onann
once
one
oneolai
online
only
onmhaire
onmhar
onn
onna
ono
onomasticon
onra
onrai
onsneachta
onta
ontar
ontario
onto
onu
op
opa
opai
open
opening
opera
operation
opinion
opportunity
opposition
optaic
optu
opus
or
ora
orach
oracha
oradh
orai
orainm
orainn
oral
orange
oras
orbh
orbheaga
orc
orchestra
orchid
ord
orda
ordai
ordaigh
ordaithe
ordana
order
ordlathas
ordnance
ordo
ordu
orduithe
oregon
org
orga
organic
organisation
organization
orghlas
ori
oriel
orient
oriental
origin
original
origins
orla
orlach
orlando
orle
orleans
orm
orma
ormai
ormond
orna
oro
orozco
orpen
orr
orson
ort
ortadocsach
ortha
orthai
orthaigh
orthaithe
orthu
ortiz
oru
orwell
os
osa
osach
osacha
osaga
osai
osaigh
osail
osaka
osanna
osborn
osborne
osbourne
oscail
oscailt
oscailte
oscar
osclai
osclo
oslainn
oslainne
oslainnis
oslannach
oslo
osmhe
osna
oso
ospartach
ospartaigh
ospide
ospo
osra
osrai
osraige
osre
ossian
ossory
ost
osta
ostai
ostaig
ostair
ostaithe
ostarach
osto
ostrabo
ostraithe
osu
oswald
ot
ota
otama
otar
othai
othair
othaithe
othar
otharlann
othas
othcha
other
others
otherwise
othlaigh
othlu
otho
othu
oti
oto
otra
ottawa
otto
ottoman
ou
our
out
outbreak
output
outside
over
overijssel
overview
oviedo
owain
owen
owens
owl
own
oxford
oxfordshire
oxide
oz
p
pa
paasikivi
pablo
paca
pacasta
pach
pacha
pacht
pachta
pacific
paddington
paddy
padraic
pagan
page
pages
pai
paice
paiceach
paiceacha
paici
paidir
paile
paili
pailme
paimfle
pain
painde
paine
painting
paintings
paireachta
pairilis
paisine
paisley
paiste
paisti
paiteolai
paitinn
pakistan
pal
palace
palaisti
pale
palermo
palestine
palgrave
palm
palma
palmer
pam
pamela
pamplemousse
pan
panama
pandemic
pandora
pangur
panther
panti
panu
panych
paolo
paor
paper
papers
par
para
paradacsa
paradise
paragua
paraime
paraimi
parameter
parc
pardu
parents
paris
parish
park
parker
parkinson
parks
parlaimint
parlaiminte
parlaiminteach
parlaiminti
parliament
parliamentary
parnell
paro
parry
parsons
part
partement
parthala
partial
partido
parties
parts
party
pas
pasa
pasaireach
pasanna
pascal
pass
passage
passed
passeriformes
passion
past
pasteur
pat
patair
patar
patek
paterson
path
patra
patrice
patricia
patricii
patrick
patro
patru
patsai
patsy
patterson
patti
paul
paula
pauli
pauline
paulo
pavel
pavetta
pay
payments
payne
pays
paz
pb
pbs
pc
pcc
pd
pdf
pe
peaca
peace
peacock
peadar
peak
peann
pearce
pearl
pearsa
pearsana
pearsanra
pearsanta
pearsantacht
pearsantachta
pearse
pearson
peck
pedersen
pedigree
pedigrees
pedro
peel
peerage
peeta
peggy
peig
peil
peile
peileado
peipti
peiriadach
peiriu
peirse
peirseach
peirsigh
peirsis
peirsise
peirspicti
peitil
peitril
peitriliam
pele
pelham
pelosi
pen
pence
pendrell
penguin
peninsula
penn
pennsylvania
penny
pension
pensions
people
peoples
peoria
pepper
pepys
per
perceval
percy
pereira
perfect
performance
period
peritia
perlasca
permanent
pero
perrin
perrot
perry
perseus
person
persona
personal
persons
perspective
perspectives
perth
pete
peter
peters
petersburg
peterson
petit
petra
petrie
petrus
petteri
petty
pez
pg
ph
pha
phaca
phacasta
phaidri
phaile
phainde
phaine
phaisine
phalaisti
phan
phantom
phapua
phara
pharagua
pharlaimint
pharnell
pharo
phas
phase
phatru
phd
phe
pheaca
pheadair
pheadar
pheairt
pheann
phearsa
phearsana
phearsanta
phearsantacht
pheasant
pheig
pheil
pheile
pheileado
pheiriu
pheirs
pheirsis
pheiteal
phelan
phelim
phi
phian
phiano
phiarais
phiarsaigh
phib
phictiu
phil
philadelphia
phile
philib
philip
philipp
philippe
philippine
philips
phillip
phillips
philologie
philosophical
philosophy
phioc
phiono
phla
phlanda
phlandai
phlasma
phlato
phle
phlean
phleana
phlo
phlota
phlu
pho
phobail
phobal
phoblacht
phoblachta
phoblachtach
phoblachtaigh
phobos
phoebe
phoenix
phoibli
phoil
phoill
phointe
phointi
phoirt
phoist
phoite
phol
pholach
pholaime
pholaine
pholainn
pholainnis
pholaiteoir
pholaiteoiri
pholaiti
pholaitiu
pholasai
pholasaithe
pholl
phort
phorta
phortainge
phortra
phost
photaisiam
photo
photographic
photos
php
phra
phraghas
phraiticiu
phrases
phreas
phreasa
phreispite
phri
phribhle
phrinti
phrio
phrionsa
phrionsabail
phrionsabal
phrionta
phris
phro
phroifisiu
phroinsias
phrotastu
phru
phu
phunc
phunt
phuto
phylloscopus
phylogeny
phys
physical
physics
pi
pian
pianbhreith
pianmhar
piano
pianta
piarais
piaras
piarsach
piarsaigh
piasu
pic
picasso
picchu
pick
picnic
pictiu
picture
pictures
pie
piece
piemonte
pierce
piero
pierre
pieter
pietro
pieve
pig
pike
pile
pileggi
pilib
pilot
pin
pine
pingin
pink
pinn
pinocchio
pinochet
pinsean
pinto
pinyin
pio
piobar
piocadh
pioneer
piono
piper
pirates
pire
pirimid
pirimidi
pisa
pistols
pitt
pittsburgh
piu
pius
pizarro
pl
pla
place
placenames
places
plaic
plaid
plain
plaisteach
plaisteacha
plaistigh
plan
plancius
planck
planda
plandai
plandu
planet
planetary
planets
planning
plant
plantation
plants
plasma
plata
platanam
plate
plato
platt
play
playboy
player
players
plays
playstation
plaza
plc
ple
plean
pleana
pleananna
please
plinias
plo
plota
plotinus
plu
pluime
pluince
plunkett
plus
pluto
plymouth
pm
pmc
pmid
pna
pnas
po
pobail
pobal
pobalscoil
poblacht
poblachta
poblachtach
poblachtai
poblachtaigh
poc
pocahontas
pocaire
podcast
podcasts
poe
poem
poemas
poems
poesi
poet
poetry
poets
pohjola
poibli
poil
poill
point
pointe
pointi
points
poircealla
poist
poite
poiti
poitige
poke
pokorny
pol
polach
polaime
polaimiaili
polaine
polainne
polainnis
polainnise
polaiteoir
polaiteoiri
polaiti
polaitiu
poland
polannach
polannacha
polannaigh
polaraithe
polasai
polasaithe
pole
police
policy
polis
political
politician
politics
polk
poll
pollock
pollta
pollution
polo
ponc
poncai
poncanna
pont
ponte
poolbeg
poor
poots
pop
popcheoil
popcheol
pope
pops
popular
population
por
pornagrafai
port
porta
portach
portaigh
portainge
portal
porter
portland
porto
portra
portrait
portsmouth
portugal
posatro
pose
position
possible
post
posta
postal
postanna
postures
pot
pota
potaisiam
potassium
potsdam
potter
pouillot
pound
pour
pouteria
poverty
powell
power
powers
powys
pp
pr
pra
practice
pradesh
praghas
praghsanna
praise
praiseach
praiticiu
pratt
pre
preas
prehistoric
preispite
premier
premio
prentice
prescott
prescribed
present
presented
presents
president
presidential
presley
press
presse
presspack
pressreader
pressure
preston
pretty
prevention
pri
priacal
pribhle
price
pride
priest
primary
prime
primera
primo
primrose
primus
prince
princes
princess
princeton
principal
principles
print
printe
printed
printi
prio
prionsa
prionsabail
prionsabal
prionsacht
prionsai
prionta
priontai
prior
priory
prison
privacy
private
prix
prize
pro
probably
problem
problems
procedure
proceedings
process
production
productions
products
prof
professional
professor
profile
profiles
program
programme
progress
prohibition
proifisiu
proinsias
proinsiasach
project
proper
properties
property
prose
prosopography
prospect
protastu
protection
protein
protestant
proto
proud
proust
provence
provided
providence
province
provincia
provision
provisions
pru
ps
psdlo
psp
psychology
psychotria
pt
ptolemy
pu
pub
public
publication
publications
publique
published
publishers
publishing
publius
puglia
puinsea
puipe
pulitzer
punc
punk
punt
pure
purt
pushkin
put
puth
putin
putnam
puto
px
pyotr
q
qa
qaeda
qc
qd
qe
qin
qing
qu
quantum
quarter
quarterly
quartet
que
queen
queens
queenscliff
queensland
quentin
quercus
quest
question
questions
qui
quickfacts
quiet
quinn
quintana
quintus
quito
quixote
quo
quot
r
ra
rabhadar
rabhadh
rabhaidh
rabhthas
rac
raca
racbhanna
race
racghru
rach
racha
rachadh
rachaidh
rachais
rachas
rachel
rachmais
rachmasach
racht
racing
racs
rad
radacach
radacacha
radacachais
radacachas
radacai
radacaigh
radacarbo
radai
radaighni
radanu
radar
radathonnta
radcliffe
radh
radhairc
radharc
radharcanna
radharcra
radio
radner
rado
rae
raf
rafael
rafferty
raghailligh
raghallaigh
raghnaill
raghnall
rahilly
rai
raibeart
raibh
raibi
raic
raice
raid
raidhfil
raidhfili
raidhse
raidiam
raidio
raidiseato
raifill
raiftearai
raigh
rail
railway
railways
raim
raimhre
raimi
rain
rainbow
rainer
rainn
rais
raite
raithe
raitheoir
raithin
raithlinn
raithneach
raleigh
rally
ralph
ram
rama
ramach
ramh
ramha
ramhar
ramhra
ramo
ramos
ramsay
ramsey
ran
randall
randamach
randolph
random
randy
rang
ranga
rangabha
rangai
rangaithe
ranganna
range
rangers
rangu
rann
ranna
ranni
ranno
rannpha
rannta
rans
raoi
raoin
raoireann
raon
raonad
raonadh
raonta
raoul
rap
rapa
rapcheolto
raphael
rapids
rard
rare
ras
rasa
rasach
rasputin
rata
rate
rath
ratha
rathaille
rathu
ratings
ration
rau
ravel
raven
rawlinson
ray
raymond
rb
rbh
rbhealach
rbheathaisne
rc
rca
rcach
rch
rcheantar
rchlo
rchloch
rcho
rchuid
rchumhachtai
rcr
rcsi
rcu
rd
rda
rdha
rdhi
rdhreach
rdhreacha
rdoba
re
rea
reach
reacha
reachais
reacht
reachta
reachtach
reachtai
reachtaire
reachtanna
reachtas
reachtu
read
reader
reading
ready
reagan
real
reality
really
reann
reanna
reas
reasach
reasacha
reasanna
reason
reasons
reatha
reathai
rebecca
rebel
rebellion
rebels
recent
reconstruction
record
recorde
recordings
records
recovery
red
redbridge
reddy
redmond
reduction
reed
rees
reeves
ref
reference
references
reflections
reform
refs
refuge
reg
regan
regent
regia
regina
reginald
region
regional
regions
regis
register
registration
regnum
regulations
reibiliu
reic
reich
reichstag
reid
reidy
reifirme
reifreann
reifrinn
reign
reilig
reilige
reiligiu
reilly
reims
reipti
reisimint
reisiminti
reithe
reitine
reitric
related
relating
relation
relations
relationship
release
released
releases
relief
religion
religious
remains
rembrandt
remember
remembered
remembering
remix
ren
renaissance
renault
rene
renn
rennes
reno
reo
reoite
reolai
report
reporter
reports
repu
repubblica
republic
republican
rer
res
research
reserve
resistance
resolution
resource
resources
response
restrictions
result
results
retrieved
return
returns
reuters
rev
reveal
revealed
reveals
revel
revenge
review
reviews
revised
revision
revisited
revival
revolution
revolutionary
revue
rex
rey
reyes
reynolds
rez
rf
rfc
rg
rga
rgen
rghra
rh
rhagfyr
rho
rhode
rhodes
rhodri
rhondda
rhys
rhythm
ri
ria
riabh
riabhach
riabhaigh
riach
riachtanach
riachtanacha
riachtanais
riachtanaisi
riachtanas
riada
riail
riain
riala
rialacha
rialai
rialaigh
rialaithe
rialo
rialta
rialtais
rialtas
rialto
rialu
rialuithe
riamh
rian
rianai
rianaigh
rianta
rianu
riar
riaracha
riaradh
riartha
riartho
riasc
riasca
riata
ribeada
ribeanu
ribeaso
ribh
ribi
ric
rica
ricardo
ricci
rice
rich
richard
richards
richardson
richie
richmond
richter
rici
rick
ricky
rico
ride
rider
ridge
riding
ridire
ridiri
ridpath
rie
rig
rige
righ
righin
right
rights
rigi
rihanna
riina
riley
rili
rilke
rimini
rimreoir
rimreoiri
rince
rinceoir
rinci
ring
ringo
rinn
rinne
rinneach
rinneadar
rinneadh
rio
riocaird
riocht
riochtai
rionad
rionaid
riordan
riosca
rioso
riospra
riot
rip
ris
rise
rises
rising
risk
risorgimento
ristea
risteard
rita
ritchie
rite
ritear
rith
rithe
ritheadh
ritheann
rithfeadh
rithim
rithime
ritter
riu
river
rivera
rivers
rix
rk
rla
rlann
rlanna
rlaoch
rlas
rmhar
rms
rn
rna
rnabhagh
rnach
rnacha
rnag
rnai
rnaigh
rnaraigh
rnberg
rnua
ro
road
roads
roald
roazhon
rob
roba
robbie
robbins
robert
roberta
roberto
roberts
robertson
robin
robinson
robot
robson
roc
rocca
roche
rochelle
rochester
rochtain
rochtana
rock
rocks
rocky
rod
roddenberry
roddy
roderic
rodgers
rodney
rodri
rodrigo
roe
roger
rogers
rogha
roghanna
roghnach
roghnai
roghnaigh
roghnaithe
roghno
roghnu
roi
roibeard
roice
roiland
roimh
roimhe
roimpi
roinn
roinne
roinneadh
roinneann
roinnt
roinnte
roinntear
rois
roisi
rojava
roland
role
roll
rolla
rollai
rolling
rollo
rom
roma
romagna
romaji
roman
romance
romances
romano
rome
romeo
romero
romha
romhainn
romney
rompu
ron
ronald
ronaldo
ronan
ronnie
room
rooney
roosevelt
root
roots
rory
ros
rosa
rosalind
rosas
rosc
roscommon
rose
rosemary
rosen
rosenstock
roses
rosie
ross
rossa
rossi
rostov
roszto
rote
roth
rotha
rothach
rothai
rothair
rothar
rothlach
rothlai
rothlaithe
rothlu
rotterdam
rotunda
rouen
rouge
rough
round
rourke
rousseau
route
routledge
rovers
row
rowan
rowland
rowling
roy
royal
royale
rpha
rphointe
rquez
rr
rs
rsa
rsai
rsaitheoir
rsca
rsce
rshaothair
rshaothar
rshiu
rso
rsssf
rt
rta
rtai
rtaidh
rtain
rtais
rtaisi
rtan
rtar
rtas
rte
rterbuch
rtha
rthach
rthacht
rthai
rthaidh
rthaigh
rthi
rthimpeall
rtho
rto
rttemberg
ru
rua
ruad
ruadh
ruadha
ruaidh
ruaidhri
ruaidri
ruaig
ruaigeadh
ruairc
ruairi
ruaisle
ruanaidh
ruanda
ruaraidh
ruathair
ruathar
rubair
ruball
rubar
rube
rubha
ruby
ruc
rud
ruda
rudai
rudd
rudhrai
rudolf
rudolph
rue
rufus
rug
rugadh
rugbai
rugby
ruhr
ruire
ruis
ruise
ruithe
ruiz
rule
rules
rumi
rumsfeld
run
runeberg
running
rupert
rural
rush
rushdie
russell
russia
russian
ruth
rutherford
rutland
rvi
rxd
ry
ryan
ryanair
ryu
rz
rður
s
sa
saale
sabbath
sabha
sabhal
sabhat
sabhda
sabhna
sabina
sabine
sac
sacair
sacar
sach
sacha
sachs
sachsen
sack
sacramento
sacred
sacsafo
sacsaine
sacsanach
sacsanaigh
sad
sadat
saddam
sadh
sadhbh
sadlier
saeim
saem
saf
safe
safety
saga
sagairt
sagart
sagas
sage
saghas
saghsanna
sagrada
saha
sai
saibhir
saibhre
saibhreas
saibhris
said
saidhbhi
saigh
saighde
saighdeoir
saighdiu
saighead
sail
saile
saileach
saili
saill
saille
sailleach
saimbi
saincheisteanna
sainchomhartha
saine
saineolai
saineolaithe
saingeal
saini
sainithe
sainiu
sainmhi
sainordu
saint
sainte
saintre
saints
sairdi
saire
sairi
saithe
sal
sala
salach
salainn
salamanca
salann
sale
salem
salinas
salisbury
salle
sally
salm
salman
salmon
salo
salome
salt
saltair
salvador
salvatore
salzburg
sam
samairiam
samantha
same
samh
samhail
samhailteach
samhain
samhlacha
samhlai
samhlu
samhna
samhradh
samhraidh
sammy
samo
sampla
samplai
samson
samuel
san
sana
sanas
sanasai
sanchez
sancti
sand
sande
sanders
sanderson
sandra
sands
sandwich
sandy
sanfourche
sankt
sann
sanna
sans
sanscrait
sant
santa
santander
santiago
santo
santos
saoi
saoil
saoir
saoire
saoirse
saoirsi
saoithe
saol
saolai
saolre
saolta
saor
saora
saoradh
saorga
saorsta
saorthra
saothair
saothar
saotharlainne
saotharlann
saothrai
saothraithe
saothro
saothru
sapiens
sar
sara
sarah
sargent
sarlat
sars
sartre
sas
sasana
sasanach
sasanacha
sasanaigh
saskatchewan
sat
sataili
satarn
sathairn
satharn
saturday
saturn
saul
saunders
sauron
sava
savage
save
saw
saxon
say
sayers
says
sbdb
sc
sca
scada
scadh
scagadh
scagaire
scail
scailt
scaindiam
scaip
scaipeadh
scaipeann
scaiptear
scaipthe
scair
scairbh
scairde
scaire
scaireanna
scairi
scairp
scairpe
scairshealbho
scairt
scaiti
scale
scamaill
scamall
scamho
scan
scanadh
scandal
scanla
scanna
scannail
scannal
scannell
scanradh
scanraithe
scanru
scanta
scaoil
scaoileadh
scaoileann
scaoilte
scaoiltear
scar
scaradh
scarann
scarborough
scarta
scartha
scaru
scata
sce
sceach
sceacha
sceall
scealla
sceallo
sceana
sceideal
sceilg
sceimhle
sceimhlitheoir
sceimhlitheoireacht
sceimhlitheoireachta
sceimhlitheoiri
sceireacha
sceiri
sceite
sceith
sceitheadh
sceitsi
scheme
schemes
schengen
scherzinger
schiaparelli
schiller
schleicher
schleswig
schluichi
schmidt
scho
scholar
scholars
school
schools
schro
schu
schultz
schumacher
schuster
schwartz
schwarz
schwimmer
sci
scia
scian
sciar
sciath
sciatha
science
sciences
scientific
scientist
scientists
scigaithris
scil
scileanna
sciliu
scilling
sciobairi
sciobo
sciobtha
scitsifre
sciu
scla
sclai
scle
scliu
sclo
sco
scoil
scoile
scoileanna
scoilt
scoilte
scoilteadh
scoilteann
scoilteanna
scoir
scoireadh
scoite
scol
scola
scolai
scoliosis
scolo
scolopacidae
sconna
scor
scornach
scot
scota
scoth
scothaicme
scothaosta
scothdhearg
scothghlas
scothghorm
scotia
scotland
scotorum
scots
scott
scotti
scottish
scotus
scrai
scre
scream
screamh
screen
scri
scrioptu
scrios
scriosadh
scriosta
script
scripte
scripteanna
scriptscri
scriu
scrobarnach
scru
scu
scuab
scuabadh
scuad
scuadru
scuaid
scully
scun
sd
sdlp
se
sea
seabhac
seacaibi
seach
seacha
seachadadh
seachaint
seachas
seachlainn
seachnai
seachnaill
seachnasach
seachnasaigh
seachra
seacht
seachtain
seachtaine
seachtaini
seachtainiu
seachtar
seachto
seachtrach
seachtracha
seachtu
seacla
sead
seada
seafo
seaimpi
seal
sealadach
sealadaigh
sealai
sealanna
sealbhaithe
sealbho
sealbhu
sealchri
sealgaire
sealgaireacht
sealgairi
sealu
seamro
seamus
sean
seana
seanad
seanado
seanaid
seanaidh
seanainm
seanathair
seanbhaile
seanbhean
seanbho
seanbhunaithe
seancha
seanchai
seanchais
seanchaislea
seanchas
seanchille
seanda
seandaoine
seandomhan
seanduine
seanfhear
seanfhocail
seanfhocal
seanga
seanlitriu
seanmha
seanmo
seann
seanna
seano
seanre
seans
seansaile
seansaol
seansce
seantrabh
seapa
searbh
searbho
searcaigh
search
searmanais
searmanas
seart
seas
seasaimh
seasamh
seasann
seasca
seascaidi
seasmhach
season
seasons
seasta
seat
seathru
seattle
sebastia
sebastian
sebastiano
sechnaill
second
secret
secretary
secrets
section
security
sedna
see
seen
seice
seicea
seiceach
seicheamh
seichimh
seicis
seicslo
seicteach
seicteacha
seicteachas
seif
seift
seilbh
seile
seilg
seilge
seilide
seilidi
seimi
sein
seine
seinfeld
seinm
seinneann
seinnt
seinnte
seinntear
seinnteoir
seirbhi
seirbia
seirbiach
seirbiaigh
seirbis
seirfeachas
seirfigh
seisceann
seisean
seisear
seisiu
select
selected
selection
selena
self
selma
selman
semi
sen
senate
senedd
senior
sense
sensitive
sent
seo
seoda
seodra
seoige
seoighe
seoil
seoirse
seoirseach
seoirsia
seoirsis
seol
seola
seoladh
seolann
seolta
seoltacht
seoltai
seoltar
seolto
seomra
seomrai
seosamh
seoul
sep
sept
september
ser
sera
seraphina
serena
serenity
sergeant
sergei
sergey
sergio
serglige
serie
series
serlio
service
services
ses
session
sessions
set
setembre
seth
settlement
seven
seventeenth
seventh
several
severus
sevilla
sex
sexual
seymour
sf
sfadh
sfaidh
sfe
sga
sge
sgitheanach
sgoil
sgri
sgt
sgu
sgurr
sh
sha
shackleton
shacsanach
shadow
shagairt
shagart
shaghas
shah
shaha
shaibhir
shaibhre
shaibhreas
shaighdiu
shaineolai
shaini
shainiu
shainmhi
shaintre
shakespeare
shalainn
shall
shamhail
shamhain
shamhlai
shamhlaigh
shamhlo
shamhlu
shamhna
shamhra
shampla
shamplai
shamrock
shan
shane
shang
shanghai
shanley
shannon
shaoil
shaoirse
shaol
shaolta
shaor
shaora
shaoradh
shaorga
shaorsta
shaothair
shaothar
shaothrai
shaothraigh
shaothru
share
sharma
sharon
sharpe
shasana
shasanach
shasanacha
shasanaigh
shataili
shaughnessy
shaun
shaw
shawn
she
shea
sheachadadh
sheachain
sheachaint
sheacht
sheachtain
sheachtrach
sheachtracha
sheadin
sheal
shealbhaigh
shealbhu
shealtainn
shean
sheanad
sheanado
sheanathair
sheanathar
sheanchas
sheanda
sheanmha
sheansaile
sheapa
shearbho
shearer
sheas
sheasamh
sheasann
sheasta
sheehan
sheehy
sheen
sheeran
sheet
sheezus
sheffield
shefflin
sheila
sheilbh
sheimi
sheinm
sheinn
sheinneann
sheinntear
sheirbhi
sheisear
shelbourne
shelby
sheldon
shell
shelley
shelton
sheo
sheoirse
sheol
sheola
sheoladh
sheomra
sheosaimh
shepherd
sheridan
sheriff
sherlock
sherman
sherwood
shi
shiban
shibhialta
shields
shimpli
shimplithe
shin
shine
shingil
shinn
shinsear
shinsearach
shinsearacht
shinsir
shinte
shiolla
shiombail
shiombalach
shiopa
shiorrachd
ship
shipping
ships
shire
shirley
shiu
shl
shla
shlat
shlavach
shle
shleachta
shli
shliabh
shligigh
shliocht
shliochtaigh
shlite
shlo
shloinne
shna
shneachta
shni
sho
shochai
shochraid
shocrai
shocraigh
shocru
shoile
shoilseach
shoisce
shoitheach
shola
sholadach
sholas
shon
shona
shonrai
shonru
shooting
shop
shore
short
shorter
shot
should
shoulder
show
showband
showitem
shows
shra
shraith
shreabha
shreabhadh
shreabhann
shreang
shrek
shroich
shroicheadar
shroicheadh
shroicheann
shroichint
shropshire
shruighlea
shruth
shtml
shu
shuaimhneas
shui
shuibhne
shuigh
shuim
shuimiu
shuirbhe
shuitea
shuntasach
shuntasacha
shuntasai
si
sia
siabhra
siad
siadhail
siadsan
siamsa
siamsai
siamso
siansa
siar
siarra
sibe
sibh
sibhialta
sibhialtach
sibhialtacht
sibhialtachta
sibhialtachtai
sibhialtaigh
sic
sici
sicile
sid
side
sidhe
sidney
sie
siege
siegfried
siena
sierra
sigerson
sigh
sigma
sigmund
sign
significance
signs
sil
sile
sileaca
sileacain
sileacan
sileach
sileadh
silence
silent
sili
silice
silicon
sillanpa
silti
silva
silver
sime
simle
simmons
simms
simo
simon
simone
simple
simpli
simplithe
simpson
simpsons
sims
sin
since
sinclair
sindeaca
sine
sing
singeapo
singer
singh
singil
singing
single
singles
singli
sings
sinn
sinna
sinne
sinsear
sinsearach
sinsearacha
sinsearacht
sinsir
sint
sinte
sinuhe
sio
siobha
sioc
siocair
siochfhradha
siogo
siolla
siollai
siomba
siombail
siombaili
siombalach
siompto
sionad
sionainn
sionainne
sioncronachtai
siondro
sionna
sionnach
sionnaigh
siopa
siopado
siopai
sior
siorco
siorrachd
sir
siria
sirius
sirriam
sis
sise
sister
sisters
site
sites
sithe
sitric
siu
six
sixteenth
sixth
sixtus
sjoestedt
sk
ska
skeerey
skeffington
skene
skerries
ski
skin
skinner
sky
sla
slabhra
slabhrai
slabhru
slad
slaghda
slaivis
slam
slat
slata
slater
slavach
slavacha
slavaigh
slave
sle
slea
sleachta
sleamhna
sleg
sleictreon
sli
sliabh
sliabhraon
sliabhraonta
sligeach
sligo
slim
sliocht
sliochtach
sliochtaigh
slioga
slite
sliu
slo
slobodan
sloinne
sloinnte
slong
slover
slow
slua
sluachampai
sluai
sluaighe
sluaite
sma
smacht
smachtbhannai
smachtu
small
smaoineamh
smaoini
smaoinigh
smaointe
smaointeachas
smaointeoir
smaointeoireacht
smaointeoiri
smaointi
sme
smhaireacht
smididh
smidiri
smig
smile
smionagar
smior
smith
smithsonian
smo
smoking
smu
smugairle
smuigle
smuiglea
smyth
sna
snag
snagcheoil
snagcheol
snape
snasta
sneachta
snell
sni
snicket
snodaigh
snoi
snoite
snow
snowden
snp
snu
snyder
so
sobalchla
sobaldra
sobhriste
sobre
soc
socair
soccer
soccerbase
soccerway
sochai
sochair
sochaithe
sochar
socheolai
sochraid
sochraide
social
socie
societies
society
socrai
socraithe
socru
socruithe
sodium
sofaisticiu
sofia
software
soghain
soghluaiste
soicind
soile
soilse
soilsithe
soilsiu
soir
soisce
soitheach
soithi
soithigh
sol
sola
solad
soladach
solaid
solais
solanum
solar
solas
solasbhliain
sold
soldier
soldiers
sole
soleil
sollu
solo
solomon
solu
soluis
solzhenitsyn
soma
some
someone
somerset
somerville
something
sometimes
somhairle
somme
son
sona
sonais
sonas
song
songs
sonia
sonny
sono
sonrach
sonracha
sonrai
sonraithe
sonru
sons
sony
sophia
sophie
sopra
sorbonne
sorcha
sorco
sord
sorge
soria
sort
sos
soul
sound
soundcloud
sounds
source
sources
souree
south
southampton
southern
southwark
sovereignty
soviet
soweto
sp
spa
space
spailpi
spain
spairne
spanish
spara
sparta
spassky
spd
spe
speak
speaker
speakers
speaking
speala
spealadh
special
species
specify
speculum
speech
speed
speiceas
speicis
speictreach
speictream
speictreasco
speictrim
speirm
speisialaithe
speisialta
speisialtacht
speisialto
spence
spencer
spenser
sphointe
spi
spiaire
spiaireacht
spiaireachta
spiairi
spice
spide
spider
spiders
spiegel
spike
spillane
spiolla
spiorad
spiorada
spioraid
spirit
splanc
sple
splea
split
spo
spoken
spokesperson
sponta
sport
sporting
sports
spota
spotai
spotify
spotnitz
spp
spraoi
spre
spreag
spreagadh
spreagann
spreagtar
spreagtha
spreagthai
spreagu
spring
springer
springfield
springs
sprioc
spriocanna
sprioctheanga
sproule
spu
spy
sqrt
squad
square
squire
sr
sra
sracadh
sraith
sraithchomo
sraithe
sraitheanna
sraithmharfo
sraithsce
srath
sreabha
sreabhadh
sreabhann
sreang
sreanga
sreinge
sri
srian
srianta
srl
sro
sroicheadh
sroicheann
sruighlea
sruth
srutha
sruthanna
ss
ssd
sseldorf
ssi
ssp
st
sta
stable
stac
stacey
stach
stacht
stad
stade
stadium
stadt
staff
stafford
staffordshire
stage
stai
staic
staid
staide
staideanna
staidiam
staidiu
staidrimh
staigh
staighre
stailc
stailce
stailceanna
stailceoiri
staili
staimi
stair
staire
stairiu
staisce
staitistic
staitistici
staitistiu
stalin
stalingrad
stamford
stamp
stampa
stampai
stan
stand
standard
standards
standing
standish
stanford
stangadh
stanisław
stanley
stanton
staon
staonadh
star
starai
staraithe
stardust
stargate
stark
starr
stars
start
statach
statbank
state
statement
states
station
statistical
statistics
status
statute
stauffenberg
staunton
stay
ste
steach
steanga
steele
stefan
stefano
steffi
steileasco
stein
steinfeld
steire
steirling
stella
stellar
stem
steo
step
stephanie
stephen
stephens
stephenson
sterling
stern
sterreich
sterreichischen
steve
steven
stevens
stevenson
stevie
stewart
sti
stiabhna
stiall
stigh
still
stiofa
stipe
stiu
stivell
stm
sto
stob
stoc
stocai
stocaireacht
stock
stockholm
stocmhalarta
stoic
stoidiaca
stointea
stoirm
stoirme
stoirmeacha
stoke
stoker
stokes
stone
stones
stoney
stop
stopadh
stopann
store
storia
stories
storm
stormont
story
stowe
stra
strabo
strachan
strae
straidhn
strainse
straite
strand
strange
stranger
strasbourg
stratford
strauss
streachailt
stream
street
streets
stri
striapach
strictly
strigidae
strike
strindberg
string
stringer
strix
stro
stroessner
strointiam
strong
strongbow
struchtu
structure
structures
struggle
struis
strus
stu
stua
stuaim
stuama
stuart
student
students
studia
studies
studio
studios
study
sturgeon
stuttgart
style
styles
su
sua
suaimhneach
suaimhneas
suaite
suaitheadh
suaitheantais
suaitheantas
sualainne
sualainnis
sualainnise
sualannach
sualannaigh
suarach
suas
sub
subject
substaint
substainte
substainti
substaintiu
substances
success
succession
such
sud
sue
suffolk
sugar
sugru
sui
suibhne
suibne
suilfi
suim
suime
suimiu
suirbhe
suiri
suit
suite
suitea
suithe
sul
sula
sular
sulfa
sulfair
sulfar
sulfarach
sulfate
sulfide
sulla
sullivan
sult
sultan
sum
summary
summer
summit
sun
sunak
sunday
sunderland
sung
sunnai
sunningdale
sunny
sunshine
suntais
suntas
suntasach
suntasacha
suntasai
suomen
super
superman
supervalu
supplement
support
supreme
sur
suranam
surfa
suriname
surname
surnames
surrey
survey
survival
sus
susan
sussex
sutcliffe
suth
sutherland
sutter
sutton
suu
suzanne
sv
svahai
sven
swan
swartzwelder
sweeney
sweet
swift
sword
swords
sy
sydney
sylvester
sylvia
symplocos
synchronisms
syndrome
synge
synthesis
synthetic
syracuse
syria
system
systems
syzygium
sz
t
ta
tab
tabhair
tabhairt
tabharfaidh
tabhartha
tabharthach
table
tables
tablesl
taca
tacadamh
tacado
tacai
tacail
tacair
tacaithe
tacal
tacar
tach
tacha
tacht
tachtadh
tacitus
tacsai
tacsanomai
tacso
tacu
tada
tadg
tadhaill
tadhall
tadhg
tae
taf
tag
taga
tagairt
tagairti
tagann
tagartha
tagrafach
tagrai
tagtha
tai
taibhdhearc
taibheoir
taibheoiri
taibhiu
taibhse
taidg
taidhg
taidhleoir
taidhleoireachta
taifead
taifeadadh
taifeadta
taifeadtai
taifid
taige
taigh
taighde
taighdeoir
taighdeoiri
tailte
taime
tain
taipei
tair
tairbh
tairbhe
taire
tairgeadh
tairi
tairired
tairiscint
tairiscinti
tairiseach
tairngreacht
tairseach
tais
taisce
taisci
taiscumar
taise
taisfe
taisi
taisinte
taispea
taisteal
taistealai
taistil
taithe
taithi
taithneamh
taitneamh
taitneamhach
take
taken
takes
taking
tal
talaban
talaimh
talamh
talbo
talbot
tale
talent
tales
talk
talking
talks
tallainne
tallann
talmhai
talmhan
talu
tam
tamaill
tamailli
tamaise
tamall
tambo
tamhan
tamhlacht
tamhnach
tammy
tampere
tan
tanai
tanc
tancanna
tandy
tang
tanner
tansa
tanya
taobh
taobhanna
taoibh
taoide
taoiseach
taoisigh
taom
taomanna
taontas
taos
tapa
tapaidh
tapu
tar
tara
tarach
tarbh
tarbhealach
tarbhealai
tarchuir
tarchuirtear
tarchur
tarchurado
tarchurtha
tard
tardeaspag
tardri
target
tarlai
tarlu
tarm
tarra
tarraing
tarraingi
tarraingt
tarraingteach
tarraingthe
tarrtha
tart
tasc
tascanna
taschenausgabe
tasma
tasmanian
taso
tat
tatairis
tataraigh
tatarsta
tate
tatha
tathair
tatlantach
tau
tavern
tax
taylor
tb
tcd
tchathaig
tchiste
td
te
tea
teach
teacha
teacher
teachers
teachi
teaching
teacht
teachta
teachtai
teachtaire
teachtaireacht
teachtaireachtai
teagaisc
teagasc
teagasco
teaghlach
teaghlaigh
teaghra
teagmha
teagmhais
teagmhas
teallach
teallu
team
teamhair
teamhrach
teamhraigh
teampaill
teampall
teanga
teangacha
teangan
teangeolai
teangeolaithe
teanglann
teann
teanna
teannadh
teannais
teannas
teannta
teano
teaplasma
tear
tearc
tearma
tearmainn
tearmann
tears
teas
teasa
teasca
teaspag
teasta
teastai
teastas
teau
tech
technical
technology
ted
teddy
teen
teena
teibi
teicneolai
teicni
teicniu
teicsti
teicteonacha
teideal
teidil
teifeach
teifigh
teileachumarsa
teileafo
teileasco
teilgean
teilgthe
teilifi
teimple
teip
teipthe
teirbiam
teiripe
teirmeach
teirmidinimic
teirmime
teirmine
teitheadh
tel
telecommunication
telegraph
television
tell
temple
temporary
temps
ten
tenerife
tennant
tennessee
tennis
tennyson
teo
teocht
teochta
teochtai
teoiric
teoirice
teoirici
teoiriciu
teoirim
teorainn
teorainneacha
teorann
teorannacha
teorannaithe
teoranta
ter
terence
teresa
term
terme
terminology
terminus
terms
terra
terre
territorial
territories
territory
terror
terry
tes
tesco
tesla
test
testament
tethba
tethbae
texas
text
texte
texts
tg
th
tha
thabhaigh
thabhairt
thabharfadh
thacai
thacaigh
thacar
thach
thacu
thadh
thadhg
thagadh
thagair
thagairt
thagann
thagrai
thai
thaid
thaidhg
thaifead
thaifeadadh
thaigh
thaighde
thailte
thain
thair
thairbhe
thairg
thairis
thairiscint
thairiseach
thairtheanga
thairti
thais
thaisce
thaisme
thaispea
thaisteal
thaistealai
thaistil
thaithe
thaithi
thaitin
thaitni
thalamh
thall
thames
thamhlachta
than
thanach
thanai
thank
thanna
thaobh
thaobhaigh
thaoiseach
thaoisigh
thapa
thapaigh
thapu
thar
tharchuirtear
tharchur
tharla
tharlai
tharlo
tharraing
tharraingi
tharraingt
tharrtha
thart
thas
that
thatcher
thbhaint
thchaint
thchara
thchinn
thchleas
thchleasai
thchleasaithe
thchuid
thdhaoine
thdhiosca
thdhioscai
thdhuine
the
theach
theacht
theachta
theachtai
theagasc
theagasco
theaghlach
theaghlaigh
theagmha
theampall
theanga
theangach
theangacha
theangeolai
theannta
theas
theasca
theastai
theastaigh
theatre
theguardian
theicneolai
theicni
theicniu
theideal
theileasco
theilgean
theilifi
theip
their
theirmeach
theith
theitheadh
thejournal
them
theme
then
theo
theobald
theocht
theodor
theodore
theoiric
theoirici
theoiriciu
theorainn
theorainneacha
theorannu
theory
thepeerage
therapy
there
theresa
therns
thesaurus
these
thesis
theta
they
thghaol
thi
thiar
thiarna
thiarnai
thiarnas
thierry
thig
thigh
thimpeall
thimpeallacht
thimpeallu
thimpiste
thimthriall
thin
thine
thing
things
think
thinking
thinnes
thiobraid
thiocfadh
thiocfaidh
thioma
thiomnaigh
thiomsaigh
thiomsu
thionchar
thionlacan
thiono
thionscadal
thionscail
thionscain
thionscal
thionsclai
thionscnamh
thiontaigh
thiontu
third
thirim
thirty
this
thit
thiteadar
thiteann
thithe
thitim
thiu
thla
thnaid
thno
tho
thobar
thochailt
thodhchai
thogh
thoghadh
thoghcha
thoghcheantar
thoil
thoiligh
thoir
thoirt
thoirtre
thoiseach
thoiseacha
tholamaes
tholg
tholgadh
thom
thoma
thomas
thomhais
thomhaistear
thomhas
thompson
thomson
thonn
thonnta
thoradh
thorai
thornton
thorthai
thorthu
thosach
thosai
thosaigh
those
thosnaigh
thosu
thou
thought
thousand
thpha
thra
thracht
thrachtach
thraena
thrai
thraidisiu
thrasnai
thrasnaigh
thrasnu
thrastomhas
thre
threabhach
threascairt
three
threibh
threisigh
threisiu
threo
threoir
threorai
threoraigh
threoru
thri
thriail
thrialta
thrian
thrianta
thriu
thro
throid
throigh
throm
throma
thromchu
thrones
through
thru
thruailliu
thshaol
thu
thuaidh
thuairim
thuairimi
thuairisc
thuairisci
thuairiscigh
thuairisciu
thuaisceart
thuaisceartach
thuaithe
thuama
thuamhan
thuar
thuas
thuasluaite
thuath
thuathail
thuathala
thug
thugadar
thugadh
thugann
thugtai
thugtar
thuig
thuigeann
thuigtear
thuill
thuilleadh
thuilleamh
thuirling
thuiscint
thuismitheoiri
thuisti
thulach
thunberg
thurais
thuras
thuraso
thurgnamhach
thurneysen
thursday
thus
ti
tianjin
tiarach
tiaracha
tiarna
tiarnach
tiarnai
tiarnaigh
tiarnais
tiarnas
tiarthar
tibe
tiberius
tica
tice
tico
tide
tie
tien
tienne
tiernan
tierney
tierra
tig
tige
tiger
tigernach
tigh
tighe
tighearna
tigherna
till
tim
time
timeline
timely
times
timothy
timpeall
timpeallacht
timpeallachta
timpeallaithe
timpeallu
timpire
timpiste
timpisti
timthriall
tin
tina
tine
tinn
tinneas
tinnis
tinte
tintea
tintin
tintreach
tintri
tiobraid
tiocfaidh
tioma
tiomanta
tiomantas
tiomna
tiomnaithe
tiomsai
tiomsaithe
tiomsu
tionad
tionchair
tionchar
tionlacan
tiono
tionscadail
tionscadal
tionscail
tionscal
tionsclai
tionscnaimh
tionscnamh
tiontai
tiontu
tioslam
tipiciu
tipperary
tir
tira
tirialaigh
tirim
tirime
tis
titanic
tite
titeann
titel
tithe
tithi
titim
titimeas
titinius
title
titley
tito
titus
tiu
tiubh
tiubha
tiubhaithe
tla
tlionga
tm
tna
tnag
tneaimis
tneam
tneamaigh
tnu
to
toba
tobac
tobair
tobann
tobar
tochailt
tochailte
tochlai
tochmarc
tochmharc
tocsaineach
tocsaini
today
todd
todhchai
todo
tofa
togail
together
togha
toghadh
toghcha
toghcheantair
toghcheantar
toghroinn
toghtar
toghtho
togra
toi
toil
toilea
toiliu
toilleadh
toilleann
toilteanach
toinne
tointea
toir
toirbhirte
toirc
toircheas
toirchis
toirchithe
toirdhealbhach
toireachtas
toirealach
toirmeasc
toirpe
toirt
toirte
toirti
toirtiu
toisc
toisi
toiti
tokoi
tokyo
tola
tolamaes
told
toledo
tolgadh
tolkien
toll
tolla
tollamh
tolstoy
tom
toma
tomaltach
tomaltaigh
tomas
tome
tomhais
tomhaiseadh
tomhaiste
tomhaistear
tomhalto
tomhas
tomlinson
tommy
tomorrow
ton
tone
tones
tonga
tonight
tonn
tonna
tonnadh
tonnado
tonnfhad
tonnfhaid
tonnta
tono
tonu
tony
too
took
toolan
toole
top
topic
topographical
topography
tor
toradh
toraidh
toraigh
torann
torc
tord
torino
torna
toro
toronto
torrach
torre
torres
torthai
torthu
tosach
tosai
tosaigh
tosaithe
tosca
toscaireacht
toscairi
toshiaght
tosnai
tosnu
toso
tospide
tostach
tosu
total
tottenham
touch
toulouse
tour
tourism
tournament
tours
toussaint
towards
tower
towers
town
towneley
townlands
towns
toy
toyota
tr
tra
tracey
track
tracy
trade
tradition
traditional
traditions
traein
traena
traenach
traenacha
traffic
tragedy
trago
trai
traic
traidisiu
traige
trail
train
training
tralee
tram
tramanna
trans
transactions
transfer
transitional
translated
translation
translations
translator
transparent
transport
tranter
traoi
traolach
tras
trasdul
trasna
trasnai
trasnaithe
trasnu
trasphlandu
trasti
trastomhas
travel
traveller
travels
travers
travis
tre
trea
treabh
treach
trealaimh
trealamh
treallchogai
treallchogaithe
treas
treasa
treasach
treasaigh
treascairt
treasure
treasures
treatise
treatment
treaty
tree
treehouse
trees
treibh
treibhe
treibheacha
treibheanna
treise
treisiu
trek
trent
treo
treoir
treoirli
treoluas
treoracha
treorai
treoraithe
treoshui
tres
tress
trevelyan
trevor
tri
triail
trial
trialach
trialacha
triall
trian
trianta
triarach
triathgha
tribal
tribe
tribes
tribune
tribute
trigin
trigine
trimble
trinidad
trinity
trinse
trinsi
trioblo
triomach
triomaithe
trip
tripartita
tripod
triskel
tristan
tritiam
triu
tro
troda
trodai
trodaithe
troid
troideadh
troigh
troim
troime
trois
troithea
trom
troma
trombo
tromchu
tromlach
tropical
trosca
troscadh
trotscai
trouble
troubles
troy
tru
trua
truaillithe
truailliu
trucail
true
trujillo
truman
trump
trumpa
trunk
truss
trust
truth
try
ts
tsa
tsacsain
tsagairt
tsaighdiu
tsaimbia
tsairdi
tsalainn
tsamhail
tsamhraidh
tsanscrait
tsaoi
tsaoil
tsaoir
tsaoirse
tsaol
tsaorsta
tsaothair
tsaotharlann
tse
tsea
tseachtain
tseachtu
tsean
tseanaid
tseanchais
tseanda
tseandomhain
tseansaoil
tseapa
tseic
tseicis
tseicslo
tseineaga
tseirbhi
tseirbia
tseirbis
tseoil
tseoirsia
tseomra
tsi
tsibe
tsibhialtacht
tsicil
tsicilis
tsile
tsiomba
tsiombail
tsionainn
tsionnaigh
tsiopa
tsiria
tsiu
tsla
tslabhra
tsle
tsli
tslo
tslua
tsna
tso
tsochai
tsoicind
tsoirbis
tsoithigh
tsola
tsolais
tsoma
tsra
tsraith
tsreang
tsro
tsrutha
tsu
tsualainn
tsualainnis
tsui
tsuim
tt
tta
ttingen
ttir
tu
tua
tuachtara
tuaim
tuairi
tuairim
tuairimi
tuairisc
tuairisceoir
tuairisci
tuairisciu
tuaisceart
tuaisceartach
tuaisceartacha
tuaiscirt
tuaithe
tuam
tuama
tuamai
tuamhain
tuar
tuarasca
tuarasgbhail
tuarastail
tuarastal
tuartha
tuasal
tuasalthe
tuaslaga
tuaslago
tuaslagtha
tuata
tuath
tuatha
tuathail
tuathal
tubaiste
tubaisteach
tubaisti
tubridy
tucker
tudes
tudor
tuesday
tugadh
tugann
tugtar
tugtha
tui
tuige
tuigeadh
tuigeann
tuigtear
tuile
tuileloscadh
tuilleadh
tuillte
tuilte
tuirbi
tuirc
tuirce
tuircice
tuircis
tuircme
tuireadh
tuireann
tuired
tuirlingt
tuirlingthe
tuirse
tuirseach
tuisceana
tuiscint
tuiseal
tuisil
tuismitheoir
tuismitheoiri
tuisti
tulach
tulaigh
tulcha
tullia
tully
tultach
tumado
tungstan
tur
turais
turas
turaso
turba
turcach
turcai
turcaigh
turgnaimh
turgnamh
turgnamhach
turing
turkey
turlach
turlaigh
turlough
turn
turner
turning
turns
turraing
turrainge
turtar
tusa
tusca
tutu
tv
tvguide
tvui
twain
tweed
twelfth
twelve
twentieth
twenty
twice
twilight
twitter
two
ty
tyers
tyler
tyne
type
types
tyrell
tyrone
tyson
u
ua
uachdar
uacht
uachtair
uachtar
uachtara
uachtarach
uachtaracha
uachtarai
uachtaraigh
uafa
uaidh
uaigh
uaighe
uaigheanna
uaigneach
uaigneas
uaillmhian
uaillmhianach
uaim
uaimh
uain
uaine
uaini
uainn
uair
uaire
uaireado
uaireanta
uaisle
uaisleacht
uait
uaithi
uaithne
ualach
uallacha
uasaicme
uasail
uasal
uasalaicme
uaslo
uasmhe
uatha
uathoibri
uathrialach
uathu
ubh
ubha
ubhaga
ubhchruthach
ubhchruthacha
ubuntu
uc
ucc
ucd
ucht
uchta
uchtaigh
uchtaithe
uci
ucla
uda
udr
uefa
ufc
uganda
ui
uibh
uibhe
uibheacha
uibhist
uidhir
uile
uilechoiteann
uileloscadh
uilelosctha
uili
uilig
uilleach
uilleam
uilleann
uilliam
uillinn
uillinneacha
uimh
uimhir
uimhreacha
uimhri
uimhrithe
uimhriu
uinseann
uirbeach
uirbeacha
uireasa
uiri
uirlis
uirlisi
uirthi
uisce
uisceach
uisceacha
uisceada
uisceado
uisci
uisciu
uisge
uisnigh
uk
ukraine
ul
ulad
uladh
ulaid
ulaidh
ulchabha
ullamh
ullmhai
ullmhaigh
ullmhaithe
ullmhu
ulrich
ulrike
ulster
ultach
ultaibh
ultaigh
ultimate
ultrafhuaime
ultraivialait
ultratop
ulysses
um
uma
umar
umberto
umha
umhaill
umhaois
umhaoise
umi
un
una
uncail
uncle
und
under
underground
understanding
une
unesco
unga
unicode
union
unit
united
unity
univ
universal
universe
universidad
universita
universite
university
unix
unknown
until
up
updated
uploads
upon
upper
uppsala
upton
ur
uragua
uranometria
urban
urchair
urchar
urcho
urchomhaireach
urchomhaireacha
urdhu
urdu
url
urla
urlabhra
urlabhrai
urlacan
urmhumhan
urnai
urra
urrai
urraim
urraithe
urraitheoir
urramach
urramu
urru
ursula
uru
urumhain
urumhan
us
usa
use
used
user
uses
using
ussher
ut
uta
utah
utc
utrecht
uttam
uup
uvf
v
va
vacach
vacsai
vai
vaic
vaice
vaicis
vaidi
vaili
vailinti
vaimpi
val
valar
valdez
vale
valencia
valentin
valentine
valera
valladolid
valle
valley
vallisneria
vallu
value
values
van
vance
vancouver
vanessa
var
varadkar
vargas
variation
variety
various
varkaus
vasa
vasco
vasiliy
vataca
vatar
vaughan
ve
veain
vedder
vega
vegas
vehicles
veid
veidhleado
veidhli
veigea
veine
veinise
veirgil
veirteabra
veirteabrach
veirteabrai
veirteabraigh
vela
velocities
velvet
veneto
venezia
venice
venus
vera
veracruz
verde
verdun
verlag
vermont
vernam
verne
vernon
verona
veronica
versailles
verse
versini
version
versuch
very
vez
vh
vi
via
viacom
vic
vice
vicente
vichy
vici
vicious
vicipe
vicky
victeoiriach
victor
victoria
victorian
victory
vida
video
videos
vie
vietnam
view
viewers
vii
viii
viking
vikings
viktor
vila
villa
villacan
village
villanova
ville
vince
vincent
vincenzo
vinci
viola
violence
violent
violet
vir
virgil
virgin
virginia
virtual
virus
vis
viscount
viseagotach
viseagotaigh
vision
visions
visit
vista
visual
vita
vitamin
vitellius
vitimi
vito
vitti
vittoria
viva
vivian
vladimir
vladivostok
vo
voice
voices
vol
voldemort
volga
volkswagen
vols
volta
voltaire
voltais
voltas
volume
volumes
volunteer
vom
von
vor
vote
voyage
voyager
vries
vs
vsgo
vu
vul
vulgaris
vy
w
wa
wace
wade
wagner
wait
waiting
waits
wake
walcott
wales
walk
walker
walking
wall
wallace
waller
wallis
walls
walsh
walt
waltari
walter
waltham
walther
walton
waltz
wanderers
wandsworth
wang
wanna
want
wanted
wants
war
warburton
ward
ware
warner
warren
warrior
warriors
wars
warwick
warwickshire
was
washington
waste
watch
water
waterboys
waterford
waterloo
waters
wathaurong
watkins
watson
watt
watts
wave
waves
way
wayback
wayne
ways
wba
wbc
wbo
wd
we
wear
weasley
weather
weaver
web
webb
weber
website
webster
wedding
wednesday
week
weekend
weekly
weeks
wei
weight
weimar
weinberg
weird
weisselberg
welch
welcome
welfare
well
wellesley
wellington
wells
welsh
wembley
wendy
went
wentworth
were
werner
wesley
wessex
west
western
westfalen
westmeath
westminister
westminster
westmoreland
weston
wet
wexford
wharton
what
whedon
wheel
wheeler
whelan
when
where
which
while
whiskey
whitaker
white
whitelock
whitlam
whitley
whitney
who
whole
whom
whose
why
wicca
wickham
wicklow
wide
widow
wien
wiesbaden
wife
wigan
wigger
wiki
wikileaks
wikimedia
wikipe
wikipedia
wikisource
wikivoyage
wikt
wiktionary
wilbur
wild
wilde
wilder
wilderness
wildlife
wiley
wilhelm
wilkes
wilkins
wilkinson
will
willard
willem
william
williams
williamson
willie
willis
willy
wilmington
wilson
wilton
wiltshire
wimbledon
win
winchester
wind
windisch
window
windows
windsor
winfrey
wings
winner
winners
winning
wins
winslow
winston
winter
winters
wire
wisconsin
wisdom
wise
wish
wissenschaften
witch
with
within
without
witness
witte
wittgenstein
wo
wolf
wolfe
wolfgang
wolfram
wollstonecraft
wolverhampton
woman
women
won
wonder
wonderful
wonderland
wong
wood
woodbridge
woodrow
woods
woodstock
woodward
woody
woolf
worcester
worcestershire
word
wordpress
words
work
workers
working
works
world
worlds
worldwide
worst
worth
would
wp
wreck
wrecsam
wren
wrestling
wright
write
writer
writers
writing
writings
written
wrong
wta
wu
wuhan
www
wyatt
wyndham
wyoming
wyvern
władysław
x
xavier
xbox
xe
xeano
xhtml
xi
xiang
xii
xiii
xinjiang
xiv
xml
xn
xo
xtra
xv
xvi
xvii
xviii
xx
xxi
xxii
xxiii
y
ya
yahoo
yale
yang
yashin
yates
ye
year
years
yeats
yehu
yellow
yeltsin
yes
yesterday
yet
yezh
yi
yn
ynys
yo
yoga
yoko
york
yorke
yorker
yorkshire
you
young
your
yourcenar
yours
yourself
youth
youtube
ypg
yr
yu
yuan
yukon
yumi
yuri
yves
yvonne
z
za
zambia
zamenhof
zapata
zar
zaragoza
zayn
zcp
ze
zealand
zeit
zeitschrift
zeitung
zeppelin
zero
zhou
zhu
zi
zimmer
zimmerman
zip
zo
zoe
zola
zombie
zoo
zorin
zorro
zquez
zu
zum
zur
zurich
{
|
}
~


¡
¢
£
§
¨
©
ª
«
­
®
¯
°
±
²
³
´
¶
·
¹
º
»
½
¿
×
ß
æ
ð
ø
ı
ł
ŋ
ǃ
ɐ
ɑ
ɔ
ə
ən
ɛ
ɡ
ɣ
ɪ
ɫ
ɴ
ɾ
ʀ
ʃ
ʟ
ʰ
ʲ
ʷ
ʹ
ʻ
ʼ
ʾ
ʿ
ˈ
ˌ
ː
ˠ
̀
́
̂
̃
̄
̆
̇
̈
̉
̊
̋
̌
̑
̓
̔
̚
̛
̝
̞
̟
̠
̣
̤
̥
̦
̧
̨
̩
̪
̬
̯
̰
̱
̸
͂
ͅ
͡
α
β
γ
δ
ε
ζ
η
θ
ι
κ
και
λ
μ
ν
ξ
ο
π
ρ
ς
σ
τ
υ
φ
χ
ψ
ω
ϕ
а
б
в
г
д
е
з
и
к
л
м
н
на
о
р
с
т
у
ф
ч
я
і
ґ
ְ
ִ
ֵ
ֶ
ַ
ָ
ֹ
ּ
ׁ
א
ב
ד
ה
ו
י
ל
מ
ן
ס
פ
ר
ש
ת
،
ا
الا
ب
ة
ح
د
ر
ل
م
و
ي
َ
ُ
ِ
ّ
ْ
ٓ
ٔ
ٕ
ं
क
ग
च
ज
ट
ड
ण
त
द
न
प
ब
भ
म
य
र
ल
व
श
स
ह
ा
ि
ी
ु
ू
े
ो
्
া
্
ਜ
ਬ
ੀ
ੰ
ட
த
ி
்
ി
്
්
ั
ิ
ี
ุ
่
์
་
ས
ོ
᚛
᚜
᛬
ᵃ
ᵉ
ᵒ
ᵘ
ᶤ
​
‌
‎
‏
‑
–
—
―
‖
‘
’
“
”
„
‟
†
‡
•
…
‬
′
″
‹
›
⁄
⁊
⁡
⁴
⁵
₁
₂
€
ℓ
→
↔
↷
↽
⇀
⇄
⇌
⇧
∂
∈
∑
−
√
∞
∣
∪
≈
≡
≤
⋅
⋆
⏕
③
④
⑦
─
█
●
☉
♀
⟶
⺀
⺄
⺆
⺈
⺊
⺌
⺕
⺝
⺸
⺼
⿰
⿱
⿲
⿳
⿴
⿵
⿶
⿷
⿸
⿹
⿺
⿻
、
《
》
「
」
〢
い
う
え
か
き
く
け
こ
さ
し
す
た
ち
つ
て
と
な
に
ね
の
は
ひ
へ
ほ
ま
み
も
よ
ら
り
る
れ
わ
を
ん
゙
゚
ァ
ア
ィ
イ
ウ
オ
カ
キ
ク
コ
シ
ス
ソ
タ
ッ
テ
ト
ナ
ニ
ハ
ヒ
フ
ヘ
ホ
ユ
ラ
リ
ル
レ
ロ
ン
・
ー
㇁
㇂
㇄
㇇
㇈
㇉
㇓
㐁
㐄
㐅
㐌
㐫
㐬
㐭
㐮
㐱
㑒
㒵
㒸
㒼
㓁
㓞
㔾
㕛
㕣
㖾
㘝
㚅
㚇
㚔
㚘
㝉
㝡
㝴
㝵
㞋
㞢
㞷
㠩
㠭
㠯
㡀
㡭
㡿
㢲
㢴
㣇
㣺
㥯
㪅
㫄
㫐
㫒
㫺
㬅
㬎
㬥
㬰
㲋
㳄
㷠
㸒
㸚
㸦
㼌
㼲
㽞
㿟
䀠
䂞
䍃
䏍
䒑
䖍
䖒
䖝
䖵
䙴
䚻
䜌
䝿
䡛
䧹
䪞
一
丁
丂
七
丄
丅
丆
万
丈
三
上
下
丌
不
与
丏
丐
丑
专
且
丕
世
丘
丙
业
东
丞
丢
丣
两
严
並
丨
丩
个
丫
丬
中
丮
丰
丱
串
丵
丶
丷
丸
丹
为
主
丽
丿
乀
乂
乃
久
乆
乇
么
义
之
乌
乍
乎
乏
乐
乑
乔
乖
乗
乘
乙
乚
乛
乜
九
乞
也
习
乡
乳
乾
亀
亅
了
亇
予
争
事
二
亍
于
亏
亐
云
互
亓
五
井
亘
亚
亜
亞
亟
亠
亡
亢
交
亥
亦
产
亨
亩
享
京
亭
亮
亯
亰
亲
亳
亶
亷
人
亻
亼
亾
仁
今
介
仌
从
仐
仑
仒
仓
仕
他
付
仝
代
令
以
任
企
伊
伏
伐
休
会
伯
但
位
何
佘
余
作
佥
使
來
侈
侌
侖
侯
侵
便
保
俞
信
修
倉
倍
候
倠
備
僉
僕
儿
兀
允
兂
元
兄
充
兆
兇
先
光
兊
克
兌
免
兑
兒
兓
兔
党
兜
兟
入
全
兩
兪
八
公
六
兮
兰
共
关
兵
其
具
典
兹
兼
冀
冂
冃
冄
内
冈
冉
冊
冋
册
再
冎
冏
冐
冒
冓
冖
冗
冘
军
农
冝
冡
冥
冫
冬
冷
几
凡
凢
凵
凶
凷
凸
凹
出
函
凾
刀
刁
刂
刃
刄
刅
分
切
刍
刑
划
刕
刖
列
刘
则
初
別
利
别
到
制
刺
則
削
剌
前
剡
剽
劉
力
功
加
劦
助
劫
劳
劵
勃
勇
勉
勒
動
務
勞
勤
勹
勺
勻
勾
勿
匀
匂
包
匆
匈
匊
匋
匍
匕
化
北
匚
匝
匡
匪
匱
匸
匹
区
医
匽
匿
區
十
卂
千
卄
卅
卆
升
午
卉
半
卌
华
卑
卒
卓
单
卖
南
卜
卝
卞
占
卡
卢
卣
卤
卦
卩
卪
卬
卯
印
危
即
却
卵
卷
卸
卻
厂
厃
厄
历
厈
厉
厌
厓
厘
厚
原
厤
厥
厨
厭
厲
厶
厷
厸
去
厼
厽
县
叀
参
參
叅
又
叉
及
友
双
反
叐
发
叒
叔
叕
取
受
叚
叜
叟
口
古
句
另
叩
只
召
可
台
叱
史
右
叵
号
司
叹
吂
各
吅
合
吉
吊
吋
同
名
后
吏
向
吕
君
吝
吞
否
含
启
吳
吴
吹
吾
呂
呆
呈
告
员
呙
周
命
咅
和
咎
咠
咢
咨
咸
咼
哀
品
哉
員
哥
哲
唐
商
啇
問
啚
啬
啻
善
喜
喬
單
喿
嗇
噩
嚴
囊
囗
囘
囙
囚
四
回
囟
因
囧
囬
困
囱
囷
固
国
圂
圅
國
圍
圓
土
圡
圣
圥
在
圭
地
圳
圶
圼
坐
坒
坚
坴
垂
垔
垚
埀
埋
埶
執
基
堂
堅
堆
堇
堯
塞
墨
壘
士
壬
壯
声
壳
壴
壹
壺
壽
夂
处
夅
夆
备
夊
夋
夌
复
夏
夒
夕
外
夗
夘
多
夜
夢
大
夨
天
太
夫
夬
夭
央
失
夲
头
夷
夸
夹
夻
夾
奂
奄
奇
奈
奉
奎
奏
奐
契
奓
奔
奚
奞
奠
奢
奥
奭
女
奴
奻
好
如
妄
妙
妟
妥
妻
妾
姑
委
姜
威
娄
婁
婴
嬰
嬴
子
孑
孔
孕
孖
字
存
孚
孛
孝
孟
季
孤
学
孫
孱
學
宀
宁
宂
它
宅
宇
守
安
宋
完
宏
宓
宗
官
定
宛
宜
宝
客
宣
室
宮
宰
害
家
容
宾
宿
寄
寅
密
富
寒
察
寧
審
寫
寬
寮
寸
对
寺
寻
寽
対
寿
封
尃
射
将
將
專
尉
尊
尋
尌
對
小
少
尒
尓
尔
尖
尗
尚
尞
尢
尣
尤
尧
尨
尭
就
尸
尹
尺
尻
尼
尽
尾
尿
局
居
屈
屋
屎
屏
屑
展
屖
屚
属
屠
屡
屬
屮
屯
屰
山
屵
屾
岁
岂
岑
岡
岩
岳
岸
峯
島
崇
崎
崑
崔
崖
崙
崩
嵬
嶲
巂
巛
川
州
巟
巠
巢
巤
工
左
巧
巨
巩
巫
差
己
已
巳
巴
巷
巸
巽
巾
巿
帀
市
布
希
帚
帛
帝
带
師
席
帶
常
干
平
年
幵
并
幷
幸
幺
幻
幼
幽
幾
广
広
庄
床
底
店
庚
府
度
庫
庭
庶
康
庸
廉
廌
廛
廣
廩
廴
延
廷
建
廾
廿
开
弁
弃
弄
弇
弋
式
弓
弔
引
弗
弘
弜
弟
弥
弦
弱
張
強
强
彊
彌
彎
彐
彑
当
彔
录
彖
彗
彡
形
彥
彦
彧
彭
彳
役
彼
往
待
律
徒
得
徙
從
復
微
徵
心
忄
必
忌
忍
志
忝
忠
忩
快
念
忽
忿
思
怠
急
怱
恆
恒
恩
恭
息
悉
患
悤
悲
悶
惠
惡
惢
愁
愈
意
愛
感
慈
態
慧
慮
憂
憲
應
戀
戈
戉
戊
戋
戌
戍
戎
成
我
戒
戔
或
戚
戠
戢
截
戲
戶
户
戸
戹
戼
戾
房
所
扁
扇
手
扌
才
打
托
执
承
折
拉
拜
拿
掌
推
提
摩
支
攴
攵
收
攸
改
放
政
敄
敏
敕
敖
敗
敝
敞
敢
散
敦
敫
敬
数
敷
數
斂
文
斉
斊
斗
斤
斥
斩
斬
斯
新
方
於
施
斿
旁
旋
族
无
旡
既
旣
日
旦
旧
旨
早
旬
旱
旲
时
旾
昆
昇
昌
昍
明
昏
易
昔
昗
昜
星
春
昬
是
昱
昴
昷
時
晃
晋
晏
普
景
晶
智
暑
暴
曇
曩
曰
曲
曳
更
曷
書
曹
曼
曾
替
最
朁
會
月
有
朋
服
朔
朕
朗
望
朝
木
朩
未
末
本
札
朮
术
朱
朵
朶
朿
杀
杏
村
杜
束
条
来
東
杲
杳
松
析
林
枚
果
枝
枲
枼
某
柔
查
柬
柰
柴
栗
株
桀
桑
桼
梁
條
梟
梨
棘
棠
棥
森
楚
業
楽
榮
樂
樊
欠
次
欣
欮
欲
欶
欽
款
歆
歇
歌
歛
止
正
此
步
武
歨
歪
歮
歯
歰
歲
歴
歷
歸
歹
歺
死
殳
段
殷
殸
殹
殺
殻
殿
毋
毌
母
每
毒
比
毕
毚
毛
毳
氏
氐
民
气
氣
水
氵
氶
氷
永
氺
氾
求
汝
汞
江
沃
沓
沖
沙
沝
河
治
泉
法
波
泣
泥
泰
洛
津
洪
活
派
流
浦
浪
浮
海
淡
淮
深
清
渚
渠
湖
湯
滿
漢
漸
灣
火
灬
灭
灰
灵
灷
炅
炎
炏
炗
炙
炭
為
烈
烏
烝
焉
無
焦
焱
然
煞
熊
熏
燕
營
燮
爪
爫
爭
爯
爰
爱
爲
爵
父
爻
爽
爾
爿
片
版
牙
牚
牛
牜
牟
牢
牧
牪
特
牽
犀
犬
犭
犮
狂
狄
狊
独
狺
猋
猒
猪
猫
献
獻
玄
率
玉
王
玟
玨
珎
班
球
琴
瑟
瑩
瓜
瓦
甘
甚
生
産
用
甫
甬
田
由
甲
申
电
甶
男
甸
甹
画
甾
畀
界
畏
畐
留
畜
畟
畢
畧
畨
番
畫
異
畱
當
畺
畾
疊
疋
疌
疑
疒
疾
癶
癸
癹
登
發
白
百
皀
皃
的
皆
皇
皋
皐
皕
皮
皷
皿
盃
盆
盇
盈
益
盍
盎
监
盒
盖
盛
盡
監
盤
盧
目
直
相
盾
省
眇
眉
看
県
眔
眞
真
眷
眼
眾
着
睘
睪
睿
瞏
瞢
瞿
矍
矛
矞
矢
矣
知
矦
短
石
码
破
碎
磊
磨
示
礻
礼
社
神
祟
票
祭
禀
禁
福
禸
禹
禺
离
禽
禾
禿
秀
秃
秉
秋
科
秝
秦
移
稟
穀
穌
穴
究
穹
空
穿
突
窄
窒
立
竒
竜
竝
竟
章
童
竹
笑
笠
筆
等
答
箕
算
箴
節
篤
篭
米
粉
粛
粟
粤
粦
粲
糞
糸
糹
系
約
納
素
索
紫
累
細
絜
絫
絲
經
維
綿
緊
縄
縣
繇
纍
纟
统
缶
网
罒
罔
罕
罗
罙
罡
罢
罪
署
罷
羅
羊
羌
羍
美
羔
羕
羗
羞
羡
羣
群
義
羲
羸
羽
翁
翏
習
翕
翟
翠
翼
老
耂
考
者
耆
而
耎
耑
耒
耳
耴
耶
耷
聂
聊
聖
聚
聞
聶
聿
肀
肃
肅
肉
肖
肙
肥
肩
肯
育
肴
胃
背
胡
胥
能
脊
脩
膚
臣
臤
臧
自
臬
臭
臯
臱
至
致
臺
臼
臽
臾
臿
舀
舂
舄
與
興
舉
舌
舍
舛
舜
舞
舟
般
艮
良
色
艸
艹
艾
芒
芔
芬
芮
花
芳
芺
芻
苔
苗
苟
若
苦
英
茶
茸
荅
草
荒
荣
荼
莆
莧
莫
莽
菆
菊
菐
菜
華
萬
落
葉
著
葛
董
葵
蒙
蒦
蒼
蓋
蓬
蓺
蔑
蔡
蕉
蕭
薄
薛
薦
薰
藍
藏
藤
藥
蘭
虍
虎
虐
虒
虔
處
虖
虗
虘
虚
虛
虜
虞
虫
虽
蚤
蚩
蜀
蜜
蟲
蠡
血
行
衍
衛
衣
衤
表
衮
衰
袁
袞
褭
褱
襄
襾
西
覀
要
覃
覆
見
規
覓
覧
親
覽
见
角
解
言
訁
訇
計
詹
語
誩
諸
讠
计
谷
豆
豈
豊
豐
豕
豖
豙
象
豦
豩
豪
豸
貇
貓
貝
貞
貟
負
貢
貧
貪
貫
責
貳
貴
買
費
賁
資
賈
賏
賓
賔
賛
賞
賢
賣
質
賴
贊
贝
贡
责
贯
贲
贵
赖
赞
赤
赦
走
越
足
路
蹇
身
躬
車
軍
軎
軟
輦
车
辛
辜
辟
辥
辰
辱
農
辵
辶
边
达
过
近
连
迷
追
退
送
逆
逐
通
速
造
逢
連
逮
進
遀
遂
過
道
達
遣
適
遷
遺
邊
邑
邕
那
邦
邪
郎
部
郭
都
鄉
酉
酋
配
酓
釆
采
里
重
野
量
金
釒
鉴
錢
钅
長
镸
长
門
閃
閉
開
閏
閑
閒
間
閔
閵
閻
闌
门
间
闷
阑
阜
阝
阪
阿
降
陳
隆
隊
隋
隡
隨
隱
隶
隹
隺
隻
隼
隽
难
雀
雁
集
雈
雋
雍
雐
雔
雙
雚
雜
雝
離
難
雨
雩
雪
雲
零
雷
需
霍
霜
霝
霞
霸
靈
靑
青
非
靡
面
靣
革
韋
韦
韭
韯
韱
音
頁
頃
項
須
頗
頡
頻
顛
页
風
风
飛
飞
食
飠
養
饣
首
香
馬
馮
駦
马
骨
高
髟
鬥
鬯
鬲
鬼
魚
魯
鮮
鱼
鲁
鳥
鳳
鸟
鹵
鹿
麃
麗
麥
麦
麻
黃
黄
黍
黎
黑
黒
黨
黹
黽
黾
鼎
鼓
鼠
鼻
齊
齋
齐
齒
齿
龍
龙
龜
龟
龠
龰
龱
龴
龵
龶
龷
龸
龹
者
艹
ﬁ
️
﻿
（
？
｜
�
𐎠
𐏁
𝑨
𝑪
𝑮
𝑳
𝑹
𝑺
𝑻
𝒂
𝒄
𝒆
𝒈
𝒉
𝒊
𝒍
𝒎
𝒏
𝒐
𝒓
𝒔
𝒕
𝒖
𝒗
𝒚
𝘼
𝘽
𝘾
𝙂
𝙃
𝙄
𝙇
𝙈
𝙍
𝙎
𝙏
𝙖
𝙘
𝙙
𝙚
𝙛
𝙜
𝙝
𝙞
𝙡
𝙣
𝙤
𝙥
𝙧
𝙨
𝙩
𝙪
𝙫
𝙮
🏻
𠀁
𠀃
𠀆
𠀉
𠀎
𠀐
𠁁
𠁣
𠂆
𠂇
𠂈
𠂉
𠂊
𠂋
𠂎
𠂒
𠂔
𠂛
𠂡
𠂢
𠂤
𠂬
𠂭
𠂹
𠃊
𠃋
𠃌
𠃍
𠃎
𠃑
𠃓
𠃔
𠃜
𠄌
𠄎
𠄠
𠄢
𠆢
𠆥
𠇍
𠈌
𠌵
𠓜
𠔉
𠔥
𠔼
𠔽
𠔿
𠕀
𠕁
𠕋
𠘧
𠘨
𠙻
𠙼
𠚏
𠚒
𠚤
𠚪
𠣏
𠤎
𠤕
𠥓
𠦄
𠦑
𠦝
𠧒
𠧗
𠧪
𠩺
𠪚
𠫓
𠫔
𠫤
𠬛
𠬝
𠬞
𠬢
𠬤
𠬶
𠮛
𠮦
𠮷
𠯑
𠱠
𠳮
𠷎
𡈼
𡉀
𡉵
𡌥
𡍮
𡏳
𡕒
𡕩
𡕰
𡖅
𡗗
𡗜
𡘆
𡘤
𡧱
𡨄
𡩧
𡬠
𡭽
𡰣
𡰥
𡰪
𡰯
𡰱
𡷈
𡸁
𡿨
𡿩
𡿪
𡿺
𢀖
𢀛
𢀩
𢁙
𢆉
𢆰
𢆶
𢇁
𢇇
𢉖
𢌬
𢌿
𢏚
𢑑
𢑚
𢖻
𢙣
𢛳
𢦏
𢦒
𢧵
𢼄
𢾕
𣁋
𣄼
𣅀
𣅽
𣍘
𣎳
𣎵
𣏋
𣏼
𣗥
𣥂
𣥖
𣦵
𣦼
𣧄
𣪊
𣪠
𣬉
𣳾
𣶒
𤇾
𤊽
𤐫
𤓰
𤔔
𤕨
𤣩
𤰇
𤰔
𤰞
𤴓
𤴔
𤽄
𥁑
𥁕
𥃦
𥃩
𥃭
𥇡
𥑟
𥘅
𥘈
𥝢
𥫗
𥱡
𦈢
𦉪
𦉬
𦉼
𦍌
𦍒
𦎧
𦐇
𦓔
𦔮
𦘒
𦙃
𦚏
𦣝
𦣞
𦣻
𦥑
𦥔
𦥯
𦨉
𦭝
𦰩
𧆞
𧈧
𧘇
𧰨
𧴪
𧴮
𧵩
𧾷
𨸏
𨾴
𩙿
𩠐
𩫏
𩵋
𪉷
𪜀
𪟽
𪠲
𪩲
𫇦
𫔭
𫜸
𫝀
𫠣
𫠩
𫢉
𫥞
𫩏
𫩠
𫪡
𫲽
𫶧
𬀷
𬐘
𬗌
𬙙
𬛸
𬜯
𬟩
𬯁
𬴘
𬺻
𬼉
𬼖
𭀰
𭁈
𭁨
𭅰
𭑈
𭕄
𭗼
𭤨
𭥫
𭻾
𮅕
𮊿
𮍌
𮍏
𮓗
𮥼
𮧮
廾
𰀁
𰀄
𰀈
𰀉
𰀕
𰀠
𰀡
𰀢
𰀪
𰁜
𰃮
𰆊
𰆘
𰋙
𰕎
𰢴
𰧭
𰯲
00--
01--
02--
03--
04--
05--
06--
07--
08--
09--
255--
82--
90--
93--
94--
99--
a--
aa--
ab--
aba--
abe--
abh--
abo--
abs--
ac--
aca--
ach--
acho--
acht--
aco--
act--
actua--
ad--
add--
ade--
adh--
ado--
adu--
ady--
ae--
aer--
af--
ag--
aga--
age--
ago--
agricul--
agu--
ah--
ai--
aid--
ail--
aimh--
aimp--
ain--
aip--
air--
airi--
ais--
aispe--
aist--
ait--
aithe--
ak--
aka--
al--
ala--
alder--
alek--
ales--
ali--
all--
alt--
alu--
am--
ama--
amal--
ame--
amfai--
amh--
an--
ana--
analy--
anam--
anc--
and--
anec--
ang--
ani--
anmc--
ann--
anna--
ano--
ans--
ant--
anta--
anto--
anu--
any--
ao--
aoi--
aon--
ap--
apa--
appe--
appl--
appro--
aq--
aqua--
aqui--
ar--
ara--
arc--
arch--
ard--
ardo--
ardte--
are--
argen--
argu--
ari--
arm--
art--
aru--
as--
asafa--
asc--
ash--
aso--
asp--
assas--
assis--
asta--
at--
ata--
ath--
atha--
athra--
ato--
atta--
au--
aug--
aur--
aus--
av--
ave--
avi--
avo--
aw--
ay--
az--
b--
ba--
bac--
bad--
bag--
bai--
bain--
bal--
bala--
ball--
ballina--
bally--
ban--
band--
bar--
bara--
barr--
bas--
base--
bat--
bau--
bay--
bc--
be--
bea--
bear--
bec--
bech--
bed--
bee--
bei--
beir--
bel--
ben--
beo--
ber--
bern--
bet--
bh--
bha--
bhac--
bhain--
bhan--
bhar--
bhe--
bheo--
bhfa--
bhfe--
bhfi--
bhfionn--
bhfo--
bhi--
bhith--
bhla--
bho--
bhra--
bhri--
bhro--
bhru--
bhu--
bhua--
bhun--
bi--
bia--
big--
bin--
bio--
bior--
bir--
bis--
bit--
bith--
bla--
black--
blas--
ble--
blea--
bli--
blo--
blue--
bly--
bo--
bob--
boc--
bod--
bog--
bol--
bols--
bon--
boo--
bor--
borg--
borr--
bos--
bot--
bou--
bouc--
boul--
bour--
bout--
bow--
box--
boy--
bpa--
bpara--
bpe--
bpi--
bpo--
br--
bra--
brad--
bre--
brea--
brew--
bri--
bro--
broad--
bru--
bry--
bu--
bua--
buan--
buck--
bul--
bun--
buna--
bundes--
bur--
bus--
bush--
but--
by--
c--
ca--
caba--
cad--
caer--
cai--
cain--
caipit--
cal--
call--
cam--
can--
caoi--
caoin--
caor--
capp--
capt--
capu--
car--
carr--
cas--
casa--
cat--
cath--
cau--
caul--
cay--
cb--
cc--
ce--
cea--
ceann--
ceap--
ceard--
cearr--
ceart--
ceirb--
ceirmea--
cele--
cen--
ceol--
cer--
certifi--
ces--
ch--
cha--
chail--
chaip--
chaipit--
chal--
chala--
chan--
char--
chart--
chas--
chat--
che--
chea--
cheard--
cheart--
cheirb--
chi--
chian--
chill--
chin--
chion--
chla--
chli--
chliabh--
cho--
choi--
choibh--
choigi--
chol--
chomh--
chon--
chos--
chri--
chriomh--
chro--
chry--
chu--
chua--
chur--
ci--
cian--
cill--
cine--
cinn--
cio--
cit--
ck--
cla--
clan--
cle--
cleamh--
cli--
cliabh--
clo--
cloi--
clonmac--
clu--
cm--
cn--
cnag--
cnua--
co--
cock--
coin--
coinbh--
cois--
col--
collabo--
com--
comh--
comhar--
comp--
con--
confe--
conqui--
conse--
cop--
cor--
corp--
corr--
cory--
cos--
cosa--
cosc--
coul--
cour--
cov--
cow--
cra--
craobh--
cre--
cri--
criti--
cro--
crobh--
cros--
cru--
crua--
cs--
ct--
cu--
cua--
cugas--
cui--
cuing--
cuir--
cull--
cum--
cur--
cut--
cy--
cyn--
d--
da--
dai--
dal--
dam--
dan--
daon--
daor--
dar--
dart--
das--
day--
de--
dea--
dead--
dear--
dearbh--
deas--
dec--
decla--
dedi--
dee--
def--
dei--
deil--
deir--
deis--
del--
dem--
demet--
den--
deo--
der--
des--
det--
deter--
dev--
dh--
dha--
dhaon--
dhe--
dhea--
dheimh--
dhi--
dhian--
dhini--
dhliste--
dho--
dhrio--
dhro--
dhru--
dhu--
dhua--
dhubh--
di--
dia--
dian--
dict--
die--
diff--
digi--
din--
dio--
dis--
discu--
divi--
dj--
dl--
do--
dob--
dobha--
dobhria--
doc--
doi--
dom--
don--
donn--
doo--
dor--
dos--
dou--
dra--
dre--
dri--
dro--
droch--
droim--
dru--
dry--
dt--
dta--
dtar--
dte--
dteam--
dti--
dtion--
dto--
dtogh--
dtre--
dtu--
du--
dua--
dual--
dub--
dubh--
dui--
dun--
dw--
dy--
dyn--
dynam--
dz--
e--
ea--
each--
eachtar--
eal--
ear--
eas--
easa--
east--
eb--
ec--
eccle--
ech--
ed--
edu--
eff--
eg--
ei--
eich--
eidh--
eil--
ein--
eirice--
eisf--
eisr--
eit--
el--
ela--
ele--
elect--
eli--
em--
emi--
en--
encephal--
end--
endur--
enter--
eo--
ep--
epide--
epime--
equ--
equi--
er--
eri--
ery--
es--
esch--
est--
estab--
et--
eter--
eth--
ethno--
eu--
eur--
euro--
euse--
ev--
ever--
ex--
exca--
expe--
exper--
explo--
ey--
eye--
ez--
f--
fa--
fabra--
fad--
fai--
faic--
fair--
faisis--
fal--
fan--
far--
faw--
fe--
fea--
fear--
feb--
feed--
feidh--
fer--
ff--
fh--
fha--
fhad--
fhaisis--
fhan--
fhe--
fhea--
fhear--
fhi--
fhia--
fhion--
fhionn--
fhir--
fhl--
fho--
fhogh--
fhor--
fhre--
fhrith--
fhu--
fhua--
fi--
fia--
fil--
fin--
find--
finn--
fionn--
fios--
fir--
fit--
fitz--
fiu--
fl--
flam--
fle--
flo--
flu--
fo--
foirc--
fol--
foot--
for--
fr--
fra--
frag--
fre--
fred--
free--
fri--
frith--
fro--
frustra--
fu--
fuaim--
fui--
fuil--
fuku--
ful--
fun--
fund--
fy--
g--
ga--
gae--
gael--
gai--
gaibh--
gairm--
gal--
gall--
gan--
gaol--
gar--
gas--
gau--
gaul--
gaz--
gca--
gcaill--
gce--
gceap--
gceol--
gci--
gcla--
gcli--
gco--
gcomh--
gcra--
gcre--
gcu--
gd--
ge--
gea--
geal--
gearr--
geilleag--
gel--
gen--
gentle--
geo--
ger--
gh--
gha--
ghael--
ghall--
ghar--
ghe--
ghearr--
gheog--
ghin--
ghio--
ghlan--
gho--
ghra--
ghre--
ghri--
ghu--
gi--
gig--
gil--
gin--
gine--
gir--
giu--
gla--
glan--
gle--
glen--
gli--
glia--
glo--
gluais--
gno--
go--
gob--
god--
gold--
good--
gorm--
got--
gott--
gou--
gra--
grand--
gre--
green--
gri--
grian--
gro--
gru--
gu--
gua--
guang--
gue--
gug--
gui--
gun--
guth--
guz--
gw--
gwe--
gy--
gymr--
h--
ha--
had--
hadhl--
haem--
haer--
hag--
hai--
haidia--
hais--
hal--
ham--
hamh--
hamharc--
han--
hann--
haon--
hap--
har--
hard--
harg--
harr--
has--
hat--
hath--
hau--
haw--
hay--
he--
head--
hear--
heart--
heasa--
heip--
heisi--
hel--
heli--
hels--
hen--
her--
het--
hey--
hi--
hiar--
hidir--
hidre--
hidri--
high--
him--
hinfhe--
hins--
hint--
hiom--
hion--
hip--
hipea--
hipirthe--
hiro--
his--
hit--
hl--
ho--
hoc--
hoi--
hoilith--
hol--
holl--
home--
hop--
hor--
host--
hot--
how--
hoy--
hu--
hua--
hug--
hui--
huimh--
hurr--
hy--
hydro--
i--
ia--
ian--
iar--
ib--
ibe--
ibra--
ic--
ice--
id--
ide--
idi--
idir--
idre--
ie--
if--
ig--
igi--
igna--
ii--
il--
ill--
illus--
im--
imag--
imea--
imh--
iml--
impri--
imtheo--
in--
ina--
inc--
incho--
incu--
ind--
indre--
ine--
infe--
infin--
info--
infra--
ing--
ins--
inste--
int--
inter--
inve--
io--
ioma--
ionc--
iong--
ionra--
ionta--
ip--
ir--
ire--
iri--
irish--
irt--
irthe--
is--
isa--
isc--
isi--
isilit--
iso--
it--
ite--
ith--
iti--
iu--
ive--
ix--
iz--
j--
ja--
jaci--
jah--
jam--
jan--
jar--
jas--
je--
jenn--
jer--
ji--
jo--
joa--
jon--
ju--
judg--
jun--
jø--
k--
ka--
kan--
kapi--
kar--
kat--
ke--
ken--
ker--
kh--
kho--
ki--
kil--
kill--
kilm--
kim--
kings--
kir--
kirk--
kirs--
kit--
kla--
kle--
kna--
kno--
knock--
ko--
kr--
kras--
kro--
ku--
kwa--
ky--
l--
la--
ladh--
lae--
lag--
lai--
lamp--
lan--
land--
lang--
lar--
las--
lasc--
lau--
laugh--
lave--
law--
lch--
ld--
le--
lea--
lean--
leas--
leath--
led--
lei--
leict--
leictrea--
leictri--
leith--
len--
leo--
les--
let--
ley--
li--
lia--
liath--
lib--
lie--
life--
lig--
lil--
lim--
lin--
lir--
lis--
lit--
live--
ll--
llan--
lle--
ln--
lo--
loc--
lock--
log--
loi--
loisc--
lom--
lon--
long--
los--
lot--
lou--
low--
ls--
lse--
lu--
lua--
luas--
luath--
luc--
lug--
lugh--
lui--
luibh--
lus--
ly--
lyn--
m--
ma--
mac--
maca--
mad--
mae--
mag--
mai--
main--
mais--
mal--
mala--
man--
mao--
maol--
maorla--
map--
mar--
mara--
mari--
mas--
mata--
mau--
may--
mb--
mba--
mban--
mbe--
mberk--
mbi--
mbia--
mbo--
mbra--
mbri--
mbua--
mbun--
mc--
mccu--
mcdo--
mcel--
mcfar--
mcgo--
mcke--
me--
mea--
mead--
mear--
mec--
med--
meg--
mei--
meigil--
meiti--
mel--
men--
mer--
merri--
mes--
mesop--
met--
meta--
mez--
mh--
mha--
mhainis--
mhaoir--
mhaol--
mhar--
mhas--
mhe--
mhea--
mheitibi--
mhi--
mhicrea--
mhion--
mho--
mhorf--
mhu--
mhuc--
mi--
mic--
micrea--
micro--
mid--
mik--
mil--
mill--
min--
mion--
mir--
mis--
mit--
mn--
mo--
modh--
moi--
mol--
mon--
mona--
mong--
mont--
monte--
moon--
mor--
mos--
mota--
mour--
mous--
mow--
moy--
mp--
mr--
ms--
mu--
muc--
mug--
muille--
muin--
muir--
mul--
mull--
multi--
mun--
mus--
my--
myste--
n--
na--
nad--
nag--
nai--
nal--
nam--
nan--
naomh--
nar--
nas--
nasc--
navi--
nb--
nc--
nch--
nchiorc--
nd--
nda--
nde--
ndeas--
ndi--
ndo--
ndrom--
ndu--
ne--
nea--
neamh--
neas--
neder--
neo--
net--
new--
news--
nf--
ng--
nga--
ngar--
nge--
ngeimh--
ngine--
ngla--
nglu--
ngo--
ngre--
ngu--
ni--
nia--
nic--
nie--
nieder--
nig--
nih--
niko--
nimf--
nin--
nio--
nit--
nizh--
nm--
nn--
no--
noi--
non--
nor--
nos--
not--
ns--
nt--
nte--
nu--
nua--
nui--
nuo--
nur--
ny--
o--
ob--
oba--
obe--
obh--
oc--
occiden--
och--
oct--
oe--
of--
off--
og--
oga--
ogh--
oh--
oi--
oibia--
oil--
oir--
ok--
ol--
ola--
old--
ole--
oll--
oly--
om--
omh--
omho--
on--
ona--
one--
onn--
ono--
op--
open--
or--
ora--
orc--
ord--
org--
ori--
oro--
ort--
os--
ost--
ot--
oth--
othar--
ou--
out--
over--
ox--
oz--
p--
pa--
pai--
pal--
palat--
palla--
pam--
pan--
par--
para--
part--
parvi--
pas--
pasa--
pat--
path--
pau--
pax--
pay--
pe--
peil--
pen--
per--
perci--
petro--
ph--
pha--
phe--
pheil--
pheno--
phi--
phiri--
phla--
pho--
phol--
phono--
phosp--
phro--
phu--
phy--
pi--
pic--
pie--
pil--
pin--
pio--
pirk--
pis--
pit--
pl--
pla--
play--
ple--
plu--
po--
pobal--
podchra--
poh--
poil--
pol--
poly--
pomp--
pop--
por--
pota--
poz--
pp--
pr--
pra--
pre--
pri--
pro--
promo--
pru--
ps--
psy--
pt--
pu--
pub--
pur--
py--
pyr--
q--
qa--
qu--
que--
qui--
quick--
r--
ra--
rac--
rad--
radai--
raf--
raffa--
rai--
rail--
rain--
ram--
ran--
rap--
ras--
rath--
ray--
rb--
rbh--
rch--
rchea--
rcho--
rd--
rda--
re--
rea--
reach--
rece--
reco--
red--
ref--
refer--
reg--
rein--
rela--
ren--
reo--
requi--
res--
respo--
rev--
rf--
rg--
rga--
rgh--
rh--
rhein--
rhy--
ri--
ria--
ric--
rie--
rig--
rio--
rip--
rla--
rn--
ro--
rob--
roc--
rock--
rod--
roi--
rom--
roma--
ron--
ros--
roth--
rou--
rr--
rs--
rt--
rthaibh--
rthe--
ru--
rua--
rubi--
rud--
rug--
run--
ry--
rz--
s--
sa--
sac--
saf--
sagitta--
sai--
sail--
sainc--
sal--
sam--
samh--
san--
sand--
saor--
sar--
sas--
sat--
sc--
sca--
scan--
scar--
sce--
sceip--
sch--
sche--
schi--
schl--
schlie--
scho--
schu--
sci--
sco--
scor--
scoth--
scra--
scu--
sculp--
se--
sea--
seal--
sean--
seas--
secu--
see--
seil--
seis--
sel--
sen--
seo--
sep--
ser--
ses--
set--
sex--
sf--
sga--
sh--
sha--
shaina--
shan--
she--
shea--
sheal--
shean--
sheas--
sheo--
shi--
shla--
shlo--
sho--
shon--
shu--
shuaimh--
shub--
si--
sia--
sic--
sie--
sig--
sil--
sin--
sio--
sior--
sir--
sit--
sk--
ska--
skel--
sky--
sla--
slacht--
sle--
sli--
slo--
slu--
slua--
sme--
smo--
sna--
sne--
sno--
so--
soc--
sol--
some--
son--
sorb--
sou--
sound--
south--
sp--
spa--
spe--
spect--
spi--
spiel--
spo--
sr--
sra--
sro--
ss--
st--
sta--
stan--
star--
ste--
sti--
sto--
stoc--
stra--
stre--
stru--
struc--
stu--
su--
sua--
sub--
sud--
sui--
sul--
sum--
sun--
super--
supp--
sur--
sus--
sv--
svet--
sw--
swa--
swe--
swin--
sy--
syl--
symp--
sz--
t--
ta--
tab--
tag--
tai--
tair--
tais--
tal--
tam--
tan--
tar--
tat--
tau--
tax--
tb--
te--
tea--
tearc--
teas--
teicteo--
teil--
teilea--
teimh--
teir--
teitrea--
tel--
temp--
tempera--
ten--
teo--
ter--
terri--
teut--
tex--
tg--
th--
tha--
thabhar--
thai--
thair--
thar--
the--
theo--
thi--
thiom--
thion--
thionsc--
tho--
thoir--
thrasd--
thre--
thri--
thru--
thu--
thurg--
ti--
tiff--
tig--
tim--
time--
tin--
tion--
tir--
tis--
tla--
to--
toi--
toir--
toirt--
tol--
tom--
ton--
tonn--
top--
tor--
tra--
trans--
tras--
tre--
treo--
tri--
tro--
trom--
tru--
trua--
ts--
tsa--
tse--
tsea--
tsean--
tsi--
tso--
tsu--
tt--
tu--
tua--
tuadh--
tui--
tuir--
tung--
tur--
tv--
tw--
twe--
ty--
u--
ua--
uath--
uathla--
ubh--
uc--
ucht--
ui--
uile--
uisce--
uk--
ul--
ullm--
um--
un--
una--
under--
up--
ur--
us--
ut--
v--
va--
vacc--
vai--
val--
van--
var--
vau--
ve--
veicteo--
ver--
verc--
verte--
vespa--
vi--
via--
vic--
vie--
vil--
vill--
vir--
vis--
vitt--
vla--
vo--
vol--
vor--
vu--
vul--
vy--
w--
wa--
wadd--
wal--
wald--
wall--
wande--
war--
was--
wat--
we--
web--
wei--
wel--
west--
wet--
whip--
whis--
whit--
white--
wi--
wic--
wie--
wig--
wiki--
wil--
win--
wind--
wit--
wo--
wolf--
wood--
wool--
wu--
wy--
wyn--
x--
xe--
xi--
xx--
y--
ya--
yan--
ye--
yi--
yo--
ytt--
yu--
z--
za--
ze--
zelen--
zi--
zo--
zoo--
zu--
zucker--
æ--
ð--
þ--
đ--
ł--
ɔ--
ə--
ɡ--
α--
γ--
δ--
κ--
λ--
μ--
ν--
ο--
π--
ρ--
σ--
τ--
в--
д--
н--
с--
т--
ا--
ال--
--0
--01
--1
--2
--22
--3
--4
--5
--54
--6
--67
--7
--8
--9
--a
--aa
--ab
--abh
--ability
--able
--ac
--aca
--aceae
--ach
--acha
--achais
--achas
--acht
--achta
--acio
--ad
--ada
--adar
--adh
--adha
--ado
--ads
--ady
--ae
--aea
--afo
--ag
--aga
--agartho
--age
--agh
--ago
--ah
--ahan
--ai
--aibh
--aic
--aich
--aid
--aide
--aidh
--aidi
--aig
--aigh
--ail
--aim
--aimh
--ain
--ainn
--air
--airc
--aire
--ais
--aithe
--aj
--ak
--aki
--al
--ala
--ale
--alia
--all
--alpa
--als
--alu
--am
--ama
--amh
--amo
--an
--ana
--anas
--and
--andra
--ane
--ang
--anga
--ani
--ann
--anna
--ano
--ans
--ant
--anta
--anthus
--anus
--aois
--ap
--ar
--ara
--ard
--aria
--arius
--arpa
--arpus
--art
--aru
--ary
--as
--asa
--asta
--at
--ata
--ate
--ated
--ates
--ati
--atic
--ation
--ations
--ative
--atra
--ats
--au
--awa
--ax
--ay
--azzo
--b
--ba
--back
--bad
--bado
--bai
--bal
--bas
--be
--berg
--bes
--bh
--bha
--bhadh
--bhai
--bhal
--bhe
--bhi
--bho
--bhsa
--bhsi
--bhsu
--bhui
--bi
--bie
--bis
--biz
--ble
--bo
--book
--borg
--boro
--bourne
--bre
--bs
--bu
--burg
--by
--c
--ca
--cach
--cadh
--cai
--cail
--caod
--car
--cc
--cca
--cco
--ce
--ceabal
--ceae
--ch
--cha
--chai
--chais
--char
--chas
--che
--ches
--chi
--chla
--chlo
--cho
--chri
--cht
--chta
--chtai
--chto
--chtu
--chu
--chuimilt
--chy
--ci
--cia
--cific
--cil
--cile
--cint
--cio
--cirt
--city
--ciu
--ck
--cker
--ckett
--cks
--cle
--cli
--clu
--cme
--cmi
--co
--cock
--coil
--cot
--cott
--court
--cra
--cre
--cri
--cs
--csai
--ct
--cta
--ctar
--cted
--ctha
--ctic
--ction
--ctions
--cto
--cts
--cu
--cus
--cy
--d
--da
--dad
--dae
--dai
--daim
--dal
--dale
--dan
--dar
--day
--dd
--de
--ded
--den
--der
--des
--dge
--dh
--dha
--dhe
--dhi
--dhlu
--dhm
--dhri
--dhu
--di
--dia
--diach
--diam
--die
--din
--dis
--dium
--dl
--dlaethol
--dle
--dley
--dn
--do
--don
--dra
--ds
--dsey
--dt
--dta
--du
--duct
--dus
--dw
--dy
--e
--ea
--each
--eacha
--eachas
--eacht
--eachta
--eadar
--eadh
--eae
--eall
--ean
--eann
--eanna
--ear
--eas
--eau
--eb
--eca
--ece
--ech
--ect
--ed
--edd
--ede
--edin
--ee
--een
--eer
--ef
--eg
--ega
--ei
--eil
--ein
--eir
--eiro
--eis
--ek
--el
--ell
--ella
--elli
--elope
--els
--ely
--em
--ema
--eman
--ement
--en
--ena
--enau
--enburg
--enc
--ence
--end
--ene
--enia
--enos
--ens
--ense
--ensis
--ent
--ential
--ents
--enza
--eo
--eodh
--eoidh
--eoir
--eoiri
--eolai
--eora
--ep
--eper
--er
--era
--erdydd
--ere
--erg
--eri
--ern
--ero
--ers
--ert
--ery
--es
--ese
--eson
--ess
--est
--et
--etia
--eto
--ets
--ett
--ette
--ety
--eus
--ev
--evich
--ew
--ey
--ez
--f
--fa
--fadh
--fai
--faidh
--far
--fe
--fea
--feadh
--fear
--feld
--ff
--fhad
--fho
--fi
--fid
--fidh
--field
--fo
--folia
--ford
--ft
--fu
--ful
--g
--ga
--gaigh
--gam
--gan
--gat
--gate
--gdad
--ge
--geach
--ged
--gen
--ger
--ges
--gg
--ggs
--ggy
--gh
--gha
--ghaile
--ghe
--ghna
--ghni
--ghru
--ght
--gi
--gia
--gie
--gin
--gini
--gio
--git
--gle
--gne
--gny
--go
--gon
--graph
--gs
--gt
--gth
--gton
--gu
--gy
--h
--ha
--hach
--hadh
--haga
--hai
--hail
--haill
--hain
--hak
--hall
--ham
--han
--har
--has
--hausen
--hbh
--hdai
--he
--hea
--head
--hean
--hed
--heim
--hem
--her
--hera
--hes
--hi
--hia
--hic
--hie
--hill
--hin
--hinn
--hip
--hir
--hiu
--hl
--hla
--hment
--hn
--hna
--hne
--ho
--hoe
--hoff
--hol
--hon
--hood
--hop
--hr
--hra
--hre
--hro
--hs
--ht
--hu
--hua
--hurst
--hus
--hy
--i
--ia
--iae
--ial
--iam
--ian
--iana
--ians
--ias
--iata
--ib
--ibe
--ibh
--iburg
--ic
--ica
--ical
--ice
--ich
--ici
--ick
--ico
--ics
--icum
--icus
--id
--idae
--ide
--idh
--idi
--ie
--ied
--iel
--ien
--iensis
--ier
--iers
--ies
--if
--ifi
--ifig
--iflora
--ifolia
--ig
--igan
--ige
--igh
--ighin
--igi
--igo
--ii
--iidae
--ik
--ika
--il
--ilde
--ile
--ilg
--ili
--ill
--illo
--im
--imal
--ime
--imh
--imhne
--imi
--imic
--imid
--imo
--imsire
--imus
--in
--ina
--ine
--ing
--ingham
--ings
--ington
--ini
--inic
--inm
--inn
--innt
--innte
--ino
--ins
--int
--io
--ion
--ions
--ior
--iore
--ios
--iot
--ious
--ip
--ipe
--ipi
--ipova
--ique
--ir
--ira
--irc
--ird
--ire
--ireland
--irfe
--iri
--iria
--iripe
--irm
--irt
--is
--isation
--isc
--ische
--ischen
--ise
--ised
--ish
--ishing
--isi
--ism
--isme
--isne
--ist
--ists
--it
--ita
--ite
--ith
--ithe
--ithne
--iti
--ities
--ition
--itlea
--ito
--its
--itt
--ity
--iu
--ium
--ius
--ive
--ivo
--ix
--iy
--iya
--iz
--iza
--ization
--j
--ja
--je
--jet
--ji
--jo
--joy
--k
--ka
--kar
--kas
--ke
--kel
--kes
--ket
--kh
--ki
--kin
--kley
--ko
--kov
--ks
--ktion
--ku
--ky
--l
--la
--lach
--lagtha
--lai
--lam
--land
--lann
--lar
--las
--lathas
--law
--lb
--lbh
--lbha
--lc
--lca
--lci
--lco
--ld
--lde
--ldi
--le
--lea
--led
--leen
--leoir
--ler
--lera
--les
--let
--ley
--lf
--lg
--lga
--li
--lia
--lic
--lidae
--ligh
--lin
--line
--ling
--linn
--lio
--lis
--list
--liu
--live
--lk
--ll
--lla
--llach
--lle
--lli
--llin
--lliu
--llo
--lls
--llu
--llus
--lly
--lm
--lo
--logy
--lon
--lop
--lor
--los
--lot
--lpi
--ls
--lsa
--lsaimh
--lson
--lt
--lta
--lte
--lty
--lu
--lude
--lui
--lum
--lus
--ly
--lyn
--lz
--m
--ma
--maa
--mad
--mai
--man
--mar
--mas
--mbo
--me
--men
--ment
--ments
--mer
--mey
--mh
--mha
--mhar
--mhe
--mheach
--mheacha
--mhi
--mho
--mhra
--mhu
--mhuaidh
--mi
--mia
--mic
--mid
--migh
--mis
--miu
--mium
--mni
--mo
--mon
--more
--moto
--moy
--mp
--mpa
--mpo
--mps
--mram
--ms
--msir
--mu
--my
--n
--na
--nach
--nae
--nai
--naigh
--nais
--nal
--namh
--nan
--nar
--nas
--nata
--nberg
--nc
--nce
--nces
--nche
--ncio
--nco
--ncy
--nd
--nda
--ndo
--nds
--ndu
--ne
--nea
--ned
--nen
--ner
--nes
--ness
--net
--nett
--news
--ney
--ng
--ngil
--ngin
--ngs
--ni
--nia
--nic
--nici
--nidae
--nigh
--nik
--ning
--nique
--nis
--niu
--nius
--nk
--nka
--nko
--nks
--nm
--nn
--nna
--nnaigh
--nne
--nnea
--nner
--nnes
--nney
--nni
--nnis
--nniu
--nnta
--nny
--no
--nologies
--nox
--ns
--nsa
--nsai
--nsan
--nse
--nshaw
--nsis
--nski
--nsley
--nso
--nson
--nstein
--nt
--nta
--nte
--nthus
--nti
--ntino
--nto
--ntrai
--nts
--ntu
--ntz
--nu
--num
--nus
--ny
--nya
--nz
--nza
--nze
--o
--oa
--och
--ock
--od
--odh
--ody
--oe
--of
--ofai
--ofar
--og
--oga
--oges
--oghaim
--ogy
--oi
--oibh
--oich
--oid
--oidh
--oidi
--oige
--oigi
--oil
--oin
--oine
--oir
--oireacht
--oireachta
--oiri
--ois
--oise
--oithe
--ok
--oka
--ol
--ola
--olach
--olai
--olas
--ological
--ology
--olt
--om
--ome
--omu
--on
--ona
--onad
--ond
--one
--ong
--onglo
--oni
--onia
--onn
--ons
--ont
--ontu
--oo
--op
--ophyllum
--opi
--ops
--or
--ora
--ore
--ori
--ors
--ory
--os
--osa
--osca
--ot
--oth
--otu
--ou
--oud
--ough
--ous
--out
--ov
--ova
--ovic
--ovich
--ovsk
--ow
--owitz
--ows
--oy
--p
--pa
--padh
--pe
--peach
--ped
--pes
--ph
--pha
--phe
--pho
--phy
--pi
--ping
--pli
--po
--poda
--pool
--port
--ppe
--pped
--ppen
--pper
--ps
--psis
--pson
--pt
--ptha
--ption
--pton
--pu
--pus
--py
--q
--que
--r
--ra
--rach
--rad
--rai
--ral
--ran
--rann
--ras
--rat
--rba
--rc
--rca
--rce
--rco
--rd
--rda
--rde
--rdu
--re
--rea
--reacht
--red
--rel
--rell
--res
--ret
--rg
--rge
--ri
--ria
--rian
--ric
--ridae
--rie
--ries
--rill
--rin
--rine
--rio
--ris
--rit
--rity
--riu
--rium
--rius
--rk
--rkey
--rks
--rley
--rm
--rma
--rman
--rn
--rna
--rne
--rney
--rni
--rno
--ro
--ron
--rov
--row
--rp
--rpe
--rr
--rra
--rre
--rrey
--rru
--rry
--rs
--rst
--rt
--rta
--rtach
--rtha
--rty
--ru
--rua
--rum
--rus
--ry
--s
--sa
--sach
--sai
--saic
--saigh
--san
--sb
--sboro
--sburg
--sby
--sc
--sca
--scal
--sce
--sch
--schild
--sci
--sco
--scri
--sctha
--sdale
--se
--sea
--sean
--sed
--see
--sel
--sell
--sen
--seo
--sey
--sfe
--sfield
--sg
--sh
--sha
--shi
--shire
--shla
--shlua
--sho
--shu
--si
--sia
--sias
--side
--sie
--sin
--sis
--sk
--skey
--ski
--sm
--sma
--sman
--snai
--sne
--sno
--so
--son
--sov
--sp
--spa
--ss
--ssa
--sse
--sser
--sson
--st
--sta
--star
--stat
--ste
--stear
--ster
--sti
--stic
--stir
--sto
--ston
--stown
--sts
--stu
--stus
--su
--sus
--sville
--sy
--sz
--t
--ta
--tach
--tacha
--tad
--tadh
--tag
--tai
--tail
--tain
--tais
--tal
--tan
--tar
--tas
--tation
--tch
--te
--teach
--tear
--ted
--tee
--teen
--teoir
--teoiri
--teora
--ter
--tes
--th
--tha
--the
--theach
--theadh
--theoir
--theoiri
--thi
--thigh
--thir
--thnado
--thni
--tho
--thorpe
--thra
--ti
--tia
--tic
--tidae
--tie
--ties
--tile
--time
--tin
--tine
--ting
--tio
--tion
--tions
--tir
--tis
--tiu
--tive
--tle
--tler
--tley
--tli
--tman
--tne
--to
--tock
--ton
--tor
--tos
--tov
--town
--tra
--trai
--tre
--tri
--tro
--tru
--ts
--tsk
--tt
--tta
--tte
--tter
--tti
--ttle
--tto
--tton
--tty
--tu
--tum
--tur
--tus
--ty
--tz
--u
--ua
--ual
--uar
--uca
--uced
--uch
--ud
--ue
--uel
--ugh
--ui
--uit
--uithe
--uk
--ul
--ula
--ular
--ulation
--uli
--ult
--ulus
--um
--umna
--un
--unate
--ung
--unt
--up
--ur
--ura
--ure
--ures
--urg
--urs
--ury
--us
--usta
--usz
--ut
--ute
--utus
--uus
--ux
--uß
--v
--va
--vaal
--van
--vation
--ve
--ved
--vedo
--ven
--ver
--vert
--ves
--vey
--vi
--via
--vic
--vich
--ville
--vin
--ving
--vio
--vius
--vo
--vsk
--vski
--vus
--vy
--vyn
--w
--wa
--wall
--wan
--way
--we
--web
--well
--wen
--wi
--wick
--wl
--wn
--wo
--wood
--wr
--ws
--wyd
--wyn
--x
--xide
--y
--ya
--yan
--yana
--yard
--yd
--ydd
--ye
--yer
--yers
--yi
--yl
--yn
--yne
--yo
--yre
--ys
--yx
--z
--za
--zan
--zano
--ze
--zed
--zen
--zer
--zh
--zi
--zia
--zie
--zing
--zio
--zo
--zon
--zu
--zy
--zzi
--zzo
--ð
--ła
--ɪ
--ɾ
--α
--ι
--ν
--ς
--υ
--а
--в
--вич
--и
--ии
--ич
--о
--я
--د
--ن
