!
"
#
##0
##1
##10
##11
##12
##13
##14
##15
##16
##17
##18
##19
##2
##20
##21
##22
##23
##24
##25
##26
##27
##28
##29
##3
##30
##31
##32
##33
##34
##35
##36
##37
##38
##39
##4
##40
##41
##42
##43
##44
##45
##46
##47
##48
##49
##5
##50
##51
##52
##53
##54
##55
##56
##57
##58
##59
##6
##60
##61
##62
##63
##64
##65
##66
##67
##68
##69
##7
##70
##71
##72
##73
##74
##75
##76
##77
##78
##79
##8
##80
##81
##82
##83
##84
##85
##86
##87
##88
##89
##9
##90
##91
##92
##93
##94
##95
##96
##97
##98
##99
$
%
&
'
(
)
*
+
,
-
.
/
0
00
000
0001
001
004
01
013
017453292519943
01745329252
02
03
03149777329222
033
037
04
045
05
057
06
060
064
07
075
08
08080
09
092
098
1
10
100
1000
101
102
102398
104
105
106
107
108
108620
109
109498
11
110
110347
111
111894
112
112354
112925
113
113354
1139189
114
114227
115
116523
117
118
118616
12
120
1200
123
1237
124
125
126
1289000
13
130
1300
1309
131
1312
1322
1325
133
1333
1334
1337
134
1342
1343
1345
1347
1348
1349
135
136
1360
138
138966
1395
14
140
1400
141
1417
142
1421
1427
1440
145
1469
1471
1481
1485
1486
1488
1496
15
150
1500
1502
1510
1516
1517
1519
152
1520
1521
1524
1528
1529
153
1530
1533
1535
1536
1541
1542
1547
155
1561
1563
1564
1565
1567
1569
157
1570
1571
158
1582
1588
159
1591
16
160
1605
161
1610471
1616
163
1640
165
1669
168
17
170
1700
1701
1710
172
1720
1727
173
1742
1749
175
1750
1758
176
1760
1763
1769
177
1770
1771
1773
1774
1776
1777
1778
178
1780
1783
1785
1789
179
1790
1792
1793
1799
18
180
1800
1801
1803
1804
1805
1808
181
1810
1812
1813
1814
1815
1817
1818
182
1820
1821
1822
1824
1825
1826
1827
1828
1829
183
1830
1831
1832
1833
1835
1836
1837
1838
1839
1840
1841
1842
1843
1844
1845
1846
1847
1848
1849
185
1850
1852
1853
1854
1856
1857
1858
1859
1860
1861
1863
1864
1865
1867
1868
1869
187
1870
1871
1872
1873
1874
1875
1876
1878
1879
1880
1881
1882
1884
1885
1886
1887
1888
1889
1890
1892
1893
1895
1896
1897
1898
1899
19
190
1900
1901
1902
1903
1904
1905
1906
1907
1909
1910
1911
1912
1913
1914
1915
1916
1917
1918
1919
192
1920
1921
1922
1923
1924
1925
1926
1927
1928
1929
193
1930
1931
1932
1933
1934
1935
1936
1937
1938
1939
194
1940
1941
1942
1943
1944
1945
1946
1947
1948
1949
1950
1951
1952
1953
1954
1955
1956
1957
1958
1959
1960
1961
1962
1963
1964
1965
1966
1967
1968
1969
1970
1971
1972
1973
1974
1975
1976
1977
1978
1979
1980
1981
1982
1983
1984
1985
1986
1987
1988
1989
1990
1991
1992
1993
1994
1995
1996
1997
1998
1999
2
20
200
2000
2001
2002
2003
2004
2005
2006
2007
2008
2009
2010
2011
2012
2013
2014
2015
2016
2017
2018
2019
2020
2021
2022
2023
2030
204
205
207
208
21
210
215
216
22
220
221
224
225
23
230
232
234
237
238
24
240
245
25
250
2500
251
252
255
258
26
260
265
268
269
27
270
271
272
275
28
280
2800
281
284
285
287
29
295
296
297
299
3
30
300
3000
309
31
310
313
315
319
32
320
323
324
325
326
329
33
330
331
333
334
335
34
340
347
35
350
3500
354
355
356
36
360
366
37
370
373
375
376
38
380
385
39
393
394
4
40
400
403
404
405
407
41
414
415
419
42
420
421
422
422000
43
430
431
44
440
446
449
45
450
455
46
460
47
470
475
476
48
480
48000
486
489
49
492
49779
5
50
500
51
515
51617284504452
52
520
5256
528
53
530
53049
54
549
55
550
56
57
58
58337
59
593
6
60
600
603
61
611
62
62110
622
623
63
631
63400
63558
636
64
642
646
647
65
6500
66
661
67
670
68
69
7
70
700
7000
701
70425
705
71
710
711
716
718
72
725
73
74
740
74108
7448
75
750
76
760
762
77
770
773
78
79
8
80
800
806
81
82
825
83
84
85
85630
86
867
87
88
89
9
90
900
90666
90734
91
91285
92
92661
93
932
94
940
947
95
950
95696
96
965
97
978
98
980
98085
99
994
9967
:
;
<
=
>
?
@
\
^
_
`
a
ab
abagore
abdul
able
ablo
ablon
ablona
ablonas
ablono
aboriginal
about
above
abstaining
abusefilter
abusefilters
acanthis
accept
access
accipiter
account
accounts
ace
achieved
achievements
acrocephalus
across
action
actitis
active
activities
activity
ad
adapting
add
added
adding
addition
additional
additions
adiuh
admin
administrative
administrator
administratori
administrators
admins
adminship
advanced
advice
ady
adyghe
aegolius
af
affect
affected
affecting
afrikaans
afrotis
after
afterwards
again
against
ago
agulhas
aharoni
ahead
ak
al
alaska
alba
albifrons
albiventer
albora
albrecht
alcedo
alces
aleut
align
alignbars
all
allows
almost
alo
alongside
alpestris
already
als
also
alt
although
am
ame
america
americana
amharic
amir
amk
among
amongst
amphibia
an
anas
anastomus
anchors
and
ang
angle
animal
animated
announce
announced
announcement
announcements
another
anser
answer
anthropoides
anthus
antinorii
any
anyone
anys
anything
aoc
apiales
apiaster
apologies
apologize
appear
appearance
appeared
appears
applicable
appropriate
approved
approximately
apricot
april
apus
aquila
aquilegia
ar
arabia
arabic
aramaic
arc
archive
archived
ardea
ardeotis
are
area
areas
aren
arenaria
argentea
arithmetical
armenian
around
arp
arrange
arrow
art
arthropoda
article
articles
artikel
arundinaceus
arvensis
arz
as
asap
asbox
asia
asian
asiaticus
asio
ask
asking
asks
aslashka
asmr
aspx
assamese
associate
ast
asteraceae
asterales
at
atratus
atrogularis
attend
attended
attending
attention
atticora
audio
august
augusto
auricomus
australia
australis
auto
autofill
automagical
automated
automatic
automatically
availability
available
average
awards
aythya
az
azerbaijani
azurea
b
ba
back
background
backspace
backward
baeolophus
bahasa
baird
balearica
bali
balut
bang
bangsi
banner
bar
bars
based
basic
bat
bay
bc
be
beach
because
become
been
beentree
before
begin
beginning
begins
begriffskla
begun
behalf
behavior
behind
being
belong
below
bengali
berlin
beshtau
best
beta
betafeatures
better
between
bewickii
bf
bg
bhatta
bi
bibliographic
bicolor
big
bigger
bilgi
bit
bjn
black
blackberry
blank
block
blocker
blocks
blu
blue
bm
bms
bn
bo
board
bocage
boddaert
bologna
bombycilla
book
bookmark
bookmarks
books
boolean
border
borealis
borrar
bosna
bosnia
bostrychia
bot
both
bots
bottom
box
bpy
br
brachydactyla
brahms
branta
brasil
brazilian
breton
bricks
bridge
brighter
brisanje
broken
browser
browsers
brussels
bs
bubo
buccinator
budytes
bug
buginese
bugs
building
built
bureaucrat
burmese
bus
but
buteo
button
buttons
bxr
by
byron
c
ca
cabanis
cabo
caerulescens
cafe
calendar
calidris
california
called
cambridge
came
camii
camp
can
canada
canadensis
canadian
canal
canariensis
cancer
candidates
canorus
cap
cape
capensis
capreolus
caprimulgus
captcha
captions
card
cards
carduelis
carolinensis
carpodacus
carsrac
casa
casco
cases
caspian
cassin
castellano
castilla
catago
cate
categoreye
categori
categoria
categorie
categories
category
cathedral
caucasicus
caudatus
caused
causing
cbk
cc
cd
cdo
cdt
ce
ceb
cee
cell
cells
center
central
centralnotice
centre
centro
cephalaria
cerasus
certhia
cetacea
cf
ch
challenge
chalybea
chan
chance
change
changed
changes
changing
channel
chapin
chapman
character
characters
charadrius
charts
che
check
chemical
chen
chicago
chile
china
chinese
chlamydotis
choice
choices
choose
choosing
chr
cia
ciconia
cinclus
cinerascens
cinerea
cinereus
cioturi
circassian
circus
citakan
citation
citations
cite
cithakan
cities
citoid
city
ciudad
classical
clear
clearer
clematis
click
clicked
clicking
cluster
cn
cnemiornis
co
cobar
coccothraustes
code
coenocorypha
colchicus
collaborating
collapsed
collaris
colleagues
collurio
color
colors
columba
columbianus
column
columns
com
combine
combined
combines
coming
command
comment
comments
committee
common
commons
communicate
communication
communis
communities
community
compact
comparing
complete
completed
completion
complex
components
computer
concepcio
concolor
conference
confidence
confident
confirmed
conflicts
congratulations
conservation
consideration
considering
consistent
consonants
consultation
contact
contain
contains
content
contents
contest
context
continent
continue
continues
contributing
contributions
contributors
control
controlled
convallaria
convert
converter
cookie
coord
copying
coracias
corax
core
corner
coronatus
correct
corrections
correctly
corruption
corvus
cos
coscoroba
cot
coturnix
could
count
country
course
cquote
create
created
creates
creating
creator
cree
creus
crex
crh
cristata
cristatus
croatian
crop
crow
cs
csb
css
cuculus
cukanovoleg
cup
curitiba
current
currently
cursor
cursoring
curvirostra
custom
customize
customizing
cv
cx
cy
cyanistes
cyanus
cygnus
czech
d
da
dablink
dagestan
daily
dali
dall
dama
dame
dan
dancing
dark
data
date
dateformat
david
day
de
deadline
dear
death
december
default
define
definitions
del
delete
deleted
deleteme
deletion
delichon
delivered
delivery
dementievi
department
deploy
deployed
deployment
deprecated
der
des
describe
described
describing
description
descriptions
desde
design
designed
designs
desired
desktop
destination
details
detecting
develop
developed
developer
developers
developing
developments
device
devices
dezhnev
di
dia
diabetes
dialog
dictionary
did
diego
diff
difference
different
diffs
digitalis
dihapus
direction
directional
directions
directly
disable
disabled
disambig
disambiguasi
disambiguation
discovery
discussing
discussion
discussions
diseases
display
displayed
displays
disruption
distinguish
district
diverse
divisions
diz
do
dobry
doc
document
documentation
does
doi
doing
dois
dokumentacija
dokumentation
domain
don
donald
done
dong
doteli
down
dozen
drag
dragging
draws
drop
dropdown
dropped
dropping
dsb
dsc
du
dubius
due
dumetorum
during
dutch
dv
dz
e
each
eagle
earlier
early
easier
easily
east
easy
echo
ed
edit
edited
editing
edition
editor
editore
editors
edits
eduardogobi
educational
edłoga
edłoha
ee
eee
effect
effort
either
el
elegans
element
elements
elitre
else
em
embed
emberiza
emergency
empty
en
enable
enabled
enclosed
encourage
end
engine
engineer
english
enje
enlarge
environment
environments
eo
ephippiorhynchus
erectum
erica
erithacus
erminea
errors
erythrinus
erythropus
erzi
es
esboc
esborranys
espan
estados
estuary
et
etc
ethnic
eu
eudocimus
eupodotis
europaea
europaeus
europe
eurystomus
even
event
eventually
ever
every
everybody
everyone
evidence
ex
examples
except
excubitor
excuse
existent
existing
expand
expanded
experience
experienced
explains
explicit
extension
extensive
external
f
fa
fabalis
facebook
facilitating
fact
factbook
faint
falcinellus
falco
falkland
false
faq
far
fasciata
faster
fastest
favorite
fb
fe
feature
featured
features
feb
february
federal
federation
feedback
feel
feels
fellow
fem
female
feminism
ferruginea
few
ff
ffa
ffd
ffdead
ffe
ffff
fi
ficha
fifa
file
filename
files
fill
filled
finalized
finally
find
findings
finish
finished
firenze
first
fisch
fit
fiu
five
fix
fixed
fixing
fjo
fl
flag
flagcountry
flammea
flammula
flava
flavigula
flavipes
flavirostris
flocc
flokkur
flore
flow
flower
fo
focus
focused
folk
folklore
follow
following
font
fontsize
footnotes
for
forest
form
formal
format
formatted
formatting
formula
formulas
formulæ
forrester
forth
fortnite
forward
foto
found
foundation
four
fox
fr
frac
frameless
framework
franc
francolinus
free
french
frequently
frhdkazan
friday
friedrich
friends
fringilla
from
frp
frr
fuliginosa
fuligula
full
fully
fulvescens
function
functionality
funereus
fur
further
future
fy
g
ga
gadgets
gagra
galanthus
galleries
gallery
gallinago
gallopavo
gan
gangemi
garrulus
garry
gd
ge
gear
gen
genas
general
generic
genetics
genovese
geografia
geograph
geographical
georgia
georgian
geoshapes
german
germanica
geronticus
get
getting
gharakhanyan
gi
gif
give
gje
gl
global
gmelin
go
goal
goals
gogh
going
gold
golden
good
google
gorie
gould
gov
goya
gracilis
gradually
grandiflora
granted
graphs
grateful
gray
great
green
gridcolor
group
groups
growth
grus
gryllotalpa
grytviken
gu
gui
guide
guided
guidelines
gullick
gustav
gv
gyps
h
ha
hackathon
had
hak
hakka
halan
half
haliaeetus
hamburger
han
handel
handling
hanu
happened
happens
happy
harbor
harbour
hard
harpercollinspublishers
hartlaub
has
have
having
haw
he
header
headings
hear
hebrew
hecker
height
heliaca
hello
help
helped
helpful
helps
hercegovina
here
herzegovina
heteroscelus
hi
hidden
hide
hides
highlight
highlighted
highlighting
highlights
him
himantopus
hindi
hippophae
hippopotamus
hirundo
histo
histories
history
ho
homo
honky
hope
hopes
horn
hornos
horse
host
hosted
hosting
hotel
hour
hours
house
how
however
hr
hsb
html
http
https
hu
huiquipedia
human
humilis
hungarian
hy
hymenoptera
hypericum
i
ia
ibimera
ice
icon
icons
id
idea
ideas
identified
identifiers
ie
ies
if
ig
ii
iii
ik
il
ilo
image
images
imagesize
imane
imdb
ime
imes
img
immediate
impact
important
imported
impression
improve
improved
improvement
improvements
improving
in
include
includes
including
increased
increasingly
increment
incubator
indent
indents
index
indi
india
indiana
indic
indicate
indicus
individual
individuals
inermis
info
infoboks
infobox
infokas
information
informed
informkesto
ingushetia
initial
initially
initiative
input
insecta
insert
inserted
inserter
inserting
inside
inspector
instance
instead
institut
institution
instructions
integrated
integrates
integumentarium
interacted
interactions
interested
interface
interfaces
interlanguage
internal
international
internet
interwiki
into
intro
introduction
invalid
investigating
invisible
involved
io
ip
iprage
ir
irc
ireland
irland
irlanda
irska
is
isbn
isbns
islamic
island
islands
israel
issue
issues
istanbul
it
italian
italiana
item
items
itis
its
iu
iv
ix
j
ja
james
jamii
jan
janak
january
japanese
japonensis
japonica
jardi
java
javascript
je
jforrester
jo
johann
johannes
john
join
journal
jpeg
jpg
juglans
jukoff
july
june
junior
just
justus
jv
k
ka
kab
kabardian
kabardino
kaiseradler
kaiyr
karachay
karcher
karl
katego
kategooria
kategori
kategoria
kategorie
kategorija
kategorio
kategoriya
kategory
kateguore
kateqoriya
katiguriya
kattegerie
kbd
ke
keep
kelly
key
keyboard
kg
khabez
ki
kievica
kind
king
kino
kk
kl
km
kmoksy
kn
knautia
know
knowledge
known
ko
koi
kopi
korean
krc
ksh
ku
kuala
kutusu
kv
kw
ky
kyrgyz
l
la
label
labeled
labels
labiodentalization
lago
lagopus
lairweb
lake
lam
land
landing
lang
language
languages
langue
lanius
large
larger
larus
las
last
late
later
latex
launched
laxa
layak
lb
lbe
le
lead
learn
learned
learning
least
leave
led
left
leo
leonardo
lepido
leptoptilos
les
less
let
lets
leucocephalus
leuconotus
leucopsis
lg
li
liaison
library
license
licensed
life
lighthouse
like
likely
limited
limits
limnodromus
limosa
linegrey
lingua
link
linked
linking
links
linnaeus
lion
liquidthreads
lissotis
list
lista
lists
little
ll
lmo
ln
lo
loa
loading
local
located
location
locustella
logged
london
long
longer
longifolia
look
looking
looks
lophophanes
lophophorus
lophotis
los
low
loxia
lp
lt
luca
lucida
lullula
lumpur
luokka
lupinus
lv
ly
lynx
m
ma
mac
macedonian
made
madonna
madrid
magic
mahler
mail
mailing
main
mainly
majalis
major
make
makes
making
mal
malayalam
male
mall
malline
malva
mammals
man
manager
mania
manual
manx
many
map
maplandia
maps
marathi
march
marked
marks
markup
martes
masonry
master
match
matching
mathematics
may
maybe
mays
mcdonnell
mdf
me
meaningful
means
measuring
media
mediawiki
meet
meeting
meetings
melancoryphus
melanocephala
melanocorypha
melanoleuca
meleagridinae
meles
melli
members
memorable
mentha
mention
menu
menus
merantau
meridionalis
merops
mespilus
message
messages
met
meta
metapicstub
method
metrics
mexicanus
mexico
mg
mhnt
mhr
mi
michelangelo
mid
midi
might
milestones
military
million
milvus
min
mingrelian
minor
minutes
minutus
missing
mistakes
mitochondrial
mk
ml
mn
mo
mobile
mode
model
modern
modes
modifying
modularis
monday
mongolian
monobook
montanus
month
months
monument
moore
moose
more
mortality
morus
mosque
most
motacilla
mountains
move
moved
moving
mr
ms
msd
msk
mt
mu
much
multi
multilingual
multiple
museum
music
musical
mustela
mw
mwl
my
mycteria
myosotis
myv
mzn
n
na
nacional
nah
name
names
namespace
nan
nap
napoli
national
nations
native
naturae
natural
navbar
navbox
navigation
ncbi
nchen
nd
nds
ne
nearly
need
needed
needing
needs
neighbor
nelson
neotis
nest
nestor
net
network
new
newcomers
newer
newest
newly
news
newsectionlink
newsletter
next
ng
ni
niger
night
nigra
nigricollis
nigrum
nipalensis
nitens
nivalis
nl
nn
no
nodyn
noeditsection
nominate
non
none
noon
nordkapp
normal
north
norton
norway
not
notable
note
notes
notice
noticed
notify
notiochelidon
notoc
notre
nov
november
now
nrm
number
numbers
numenius
ny
nycticorax
nz
o
obscura
oc
october
of
off
offer
offered
offers
office
officeholder
offlinetv
ogg
old
olomouc
olor
om
omega
on
once
one
ones
only
onobrychis
oojs
ooui
op
open
opened
opening
operations
opportunities
opportunity
opt
option
optional
options
or
order
org
organization
organized
organizing
orientalis
orientation
oriolus
orto
os
other
others
otus
our
out
outcome
outdated
outer
outside
over
overlay
override
own
owned
oxford
p
pa
pablo
packed
pag
page
pages
pairs
palacio
palatovelar
pale
pallasii
paludicola
palustris
pam
panorama
panthera
panurus
para
paragraphs
parameter
parameters
paramount
pardus
paris
park
parque
part
partial
participate
participated
participating
particular
particularly
partner
parus
paste
pasting
patrom
patrono
paul
pc
pdc
pdt
pelecanus
peltatus
pencil
pengkalan
penicillatus
peninsula
pennanti
people
pepper
per
percentage
perdix
performance
period
periparus
permissions
persian
person
personally
peter
petrochelidon
phabricator
phalacrocorax
phalaropus
phase
phasianus
pheasant
phedina
phoenicopterus
phone
photo
php
phragmites
phrase
phylloscopus
pi
pica
picasso
picea
pictures
piece
pih
pilot
pinging
pink
piper
piperita
pl
place
plain
plan
planned
planning
plans
plantae
plantas
plante
plantes
planti
plantilla
platalea
plaza
please
pleased
plegadis
plotarea
plotdata
plumipes
pm
pmid
pmids
pms
png
po
pod
podiceps
poecile
point
points
poki
pokimane
policies
policy
polish
polygonum
pomarina
pontic
pop
popular
population
populus
por
porphyrio
port
portal
portugal
portuguese
porzana
possible
post
posted
posting
power
ppelberg
pr
pre
precision
predefinic
predloga
predloz
prefer
preference
preferences
preferred
prefsection
prepare
preparing
presentation
presentations
press
prevent
preview
previously
priorities
priority
prizes
probably
problems
process
produce
produces
product
productive
productivity
progne
program
programming
progress
project
projects
prompt
property
proportion
proposal
proposals
proposed
prosobonia
prototype
prototypes
provide
provided
providing
prunella
prunus
ps
psalidoprocne
pseudibis
pseudochelidon
pt
ptera
pterocles
ptilogonys
public
publish
published
pubmed
purpose
purpurea
pusilla
put
puzzle
px
pxwhen
pyrrhocorax
pyrrhula
python
pywikipedia
q
qu
quadrangulum
qualifythis
question
questions
quick
quicker
quickly
quotation
quotations
qura
r
ra
racontas
raf
raffaello
rally
ran
range
ranunculus
raphanus
rare
rate
rather
ray
re
reach
read
reading
ready
real
rearrange
rearranged
recent
recentchanges
recently
recognize
recommended
recorded
recurvirostra
red
redesigned
redirect
redirected
reduce
reduced
reference
references
referencing
refined
refresh
refreshed
regardless
regards
regia
region
registered
regulus
reichenow
related
relatively
released
releases
releasing
relevant
reliable
remain
remaining
remains
rembrandt
remember
removal
removals
remove
removed
renessaince
repens
replaced
reply
replying
report
reports
republic
republika
request
requested
requests
required
requirements
requires
rer
research
resolve
resolved
respectively
rest
restore
result
results
returns
reverted
reverting
review
reviewing
rfc
rgb
rhamnoides
rhododendron
ri
ria
ribbon
rica
rich
rico
ridgwayi
right
rintisan
rio
rioja
riparia
river
rm
rmy
rn
ro
roa
roan
roca
rolling
roma
rome
rostliny
rotundifolia
row
rows
rtl
ru
rubens
rufescens
ruficollis
rummad
rung
rupestris
russia
russian
rustica
rusticola
rw
s
sa
saachjrupp
sablon
sah
sakha
sambucus
same
san
sandbox
santiago
sanu
sanzio
sapiens
sarudnyi
sativus
saudi
save
saw
saxicola
say
says
sc
scabiosa
scalemajor
scaleminor
schen
sci
sciurus
scn
sco
scolopax
screen
screens
screenshot
scripts
sd
se
sea
seamless
search
sebastian
second
seconds
section
sections
see
seen
selachimorpha
select
selected
selecting
selection
semipalmatus
sends
senegalensis
sentence
separate
separated
september
serbo
service
session
sessions
set
setting
settings
settlement
seven
several
sevilla
sexually
sg
sh
shablono
shadow
share
shared
sharpe
sheet
shift
shirt
short
shortcut
shorter
shorty
should
show
showcase
showed
showing
shown
shows
si
side
sign
signature
signatures
significant
significantly
signs
silver
similar
simple
simpler
simplified
simplify
sin
since
single
siprage
site
sitta
situations
size
sizes
sjabloon
sk
skabelon
skeleton
skin
sl
sleeve
slightly
slovenia
slowly
sm
small
smaller
smartphone
smartphones
smg
smithiana
smithsonian
smooth
sn
snið
snow
so
software
some
someone
something
sometimes
soon
sorry
sorting
source
sources
south
space
spain
spanish
speak
special
species
specified
specify
specimen
speed
speedy
spelling
spent
spilonotus
spinosa
spoofing
sportsperson
spra
spring
sprint
sq
sr
ss
st
staff
stage
stages
stallion
stammtisch
stampa
standard
stanley
star
start
started
starting
state
states
statesman
status
stay
stelgidopteryx
step
stepantsminda
steud
steward
stewards
still
stored
storeyou
story
stq
string
structure
stub
stubo
studied
study
style
styling
su
suaveolens
subject
submission
submissions
submit
subscribe
subscription
substantially
successful
such
sue
suitable
summarizes
summary
sundevall
sunquist
support
supported
supporting
supports
surprizi
survey
survival
sv
svg
sw
swainson
swap
sweden
swedish
switch
switching
syllabics
sylvia
symbols
syntax
system
systema
systems
szablon
szl
t
ta
tab
table
tables
tablets
tabs
tabular
tachybaptus
tachycineta
tadorna
tag
tagged
tags
takes
talk
talking
talks
tamil
tap
tapera
tara
taras
target
tarifa
task
taskforce
tasks
tatar
taxobox
taxonomie
tbilisi
te
teach
team
teatr
tech
technical
technology
teddington
teimple
tekstowe
tell
temminck
templat
template
templatedata
templates
teneriffae
tephronota
terek
term
terra
test
tested
testing
tet
tetrao
tetrax
tetrix
text
textcolor
tg
th
tha
thai
than
thank
thanks
that
the
their
them
theme
then
there
theristicus
these
they
things
think
thinking
this
those
though
thoughts
thread
three
threskiornis
through
thumb
thumbelina
thumbnail
thumbnails
thursday
ti
tica
tie
tiger
tigers
tigrinya
tigris
till
time
timeaxis
timing
title
tk
tl
tnavbar
to
today
together
toggle
tokaji
too
tool
toolbar
tools
tooltip
top
topic
torre
tower
town
tpi
tpt
tr
tracking
transition
translatable
translate
translated
translates
translatewiki
translathon
translating
translation
translationcentral
translations
translators
transmitted
trapa
tre
tree
triage
trial
tricky
tried
trigger
trin
tringa
trochiloides
troglodytes
trouble
try
trying
tt
tu
tuesdays
tul
tum
turdus
turkey
turkish
turn
turuys
tus
tw
twitch
two
txantiloi
ty
type
types
typha
typing
typos
u
udm
ug
ui
uiquipedia
uk
umm
umugore
un
uncertain
under
understand
understanding
undulata
unesco
unexpected
unidos
unit
united
university
unknown
unreverted
unsubscribe
until
unwanted
unwini
up
upcoming
update
updated
updates
upiaq
upiatun
upload
uploading
uploads
upon
upper
upright
ur
urdu
url
urls
us
usa
usability
use
used
useful
user
userbox
username
users
uses
using
usually
utc
uz
uzbekistan
v
va
vahe
vallecas
value
van
vanellus
var
variable
varius
vdqs
ve
vec
vector
vega
veidne
vela
venue
version
vertical
verticillata
very
vi
vichipedie
viciifolia
video
vieillot
view
vii
viii
vikhondi
vikipedi
vikipedija
vikipediya
village
villosa
vincent
vinci
viquipe
virtually
visible
vista
visual
visualeditor
visualeditordid
visually
vito
vls
vo
vods
vol
volunteer
volunteers
vorlage
vro
vulgaris
vy
w
wa
wachtel
wait
wales
wall
want
wants
war
warrakkk
warsaw
warszawa
warung
was
washington
watch
watching
watchlist
watchlists
way
ways
we
weather
web
website
wednesday
week
weekly
welcome
welcoming
well
welsh
went
were
west
western
what
whatamidoing
whatever
when
where
whether
which
whichever
while
white
who
why
wide
widespread
width
widths
wiki
wikibooks
wikidata
wikieditor
wikigap
wikimania
wikimedia
wikinews
wikipe
wikipedia
wikipedias
wikipedie
wikipedija
wikiproject
wikis
wikisource
wikisources
wikitext
wikiversity
wikivoyage
wikivoyages
wiktionaries
wild
will
willem
willing
win
window
wine
winners
wish
wishlist
with
without
wmf
wmru
wo
women
word
words
work
workboard
worked
workflow
working
worklist
workplace
works
world
would
wp
wps
wrapped
write
writing
written
wrong
wuu
www
x
xal
xi
xico
xii
xiii
xiv
xix
xv
xvi
xvii
xviii
xx
xxi
y
yap
year
years
yi
yo
york
you
young
your
youtube
yue
yunnanensis
yyyy
z
za
zam
zarodk
zea
zh
zhuang
zone
zones
zoo
zotero
zquez
{
|
}
~
«
¬
­
°
²
³
´
¶
·
¹
»
×
æ
ð
ø
ı
ł
łobzie
ŋ
ǝ
ɕ
ə
ɡ
ʃ
ʃa
ʒ
ʰ
ʲ
ʲʼ
ʷ
ʷʼ
ʻ
ʼ
ʾ
ʿ
ˈ
ː
̀
́
̂
̃
̄
̆
̇
̈
̉
̊
̋
̌
̍
̓
̛
̣
̤
̦
̧
̨
̭
͂
͡
α
βικιπαι
γ
δεια
θ
ι
κατηγορι
προ
ς
τυπο
χ
ω
а
абаз
абазэ
абазэбзэ
абазэбзэм
абазэбзэр
абазэбзэхэр
абазэкхъуеи
абазэхэм
абазэхэмрэ
абазэхэр
аббасидхэр
абгъуэ
абгъуэм
абгъуэр
абгъуэхэм
абгъуэхэр
абдан
абде
абдеж
абдежхэм
абдежым
абдежь
абдежьм
абдежьы
абдежьым
абдем
абдзах
абдзахыр
абдзахэбзэ
абдзахэхэр
абдзэх
абдзэххэм
абдзэхэ
абдул
абдэжьым
абдэл
абжъуи
абзэ
абитов
абрэгь
абсолут
абу
абхазскои
абхазы
абхъаз
абы
абыи
абык
абыкӏэ
абым
абыми
абымкӏэ
абымрэ
абыхэм
абыхэми
абэк
абэм
абэхэм
абэчыр
авар
авархэр
август
августа
авраам
аврам
автоном
авторхэм
агау
агломерациэ
аграриэ
агрессиэ
агреткэ
агуае
агуи
агулас
агурэ
агусан
агуулга
агуулгыг
агуулдаг
агъ
агънокъуэ
агъхэм
агъым
агъымк
агъымрэ
агъыр
агъэ
агъэк
агъэм
агъэмэ
агъэу
агъэх
агъэхэр
ад
адакъэ
адакъэм
адакъэхэр
адам
адамава
адгэ
аджариэ
адза
адзар
адзащ
адзэ
адзэр
адидже
административ
административну
административнэу
администратор
администратора
администратори
администраторов
администраторы
администрациэ
администрациэкӏэ
администрациэм
администрациэмкӏэ
администрацэм
адмирал
адмиралу
адолф
адр
адреи
адрем
адрер
адриатикэ
адрэ
адыг
адыгабзэм
адыге
адыгеи
адыгеибзэм
адыги
адыгов
адыгских
адыгъэ
адыгэ
адыгэбзэ
адыгэбзэжъымкӏэ
адыгэбзэк
адыгэбзэкӏэ
адыгэбзэм
адыгэбзэмкӏэ
адыгэбзэр
адыгэбзэу
адыгэбзэхэм
адыгэбзэхэмкӏэ
адыгэбзэхэр
адыгэм
адыгэмэ
адыгэпщ
адыгэу
адыгэхэм
адыгэхэми
адыгэхэмрэ
адыгэхэр
адыгэшхэм
адыгэшым
адыкӏэлэн
адыкӏэлэнрэ
адыкӏэлэным
адыл
адэ
адэгумым
адэк
адэкӏэ
адэм
адэр
адэхэм
ажил
ажиллаж
ажэгъуэмэ
аз
азгъеи
азгъэ
азгъэбзэ
азгъэхэр
азербаи
азием
азиэ
азиэм
азиэми
азиэмрэ
азиэр
азов
азор
азэгъуэхэм
азэрбиджан
азэрбиджанхэр
азэрбиджаным
азэрбиджаныр
аи
аирэс
ак
акад
академиэм
акбар
аквариум
акиан
аксиомэ
активности
акъыл
акъым
ал
алабамэ
алан
аласкэ
аласкэм
алашэ
албаниэ
албаниэм
албаниэр
албанхэр
алберт
албертэ
алборан
албрехт
алгебрэ
алгоритым
алдартаи
алджазаир
але
александр
александриэ
александриэм
александровскэ
александрым
александрыр
александыр
александырым
александырыр
алексеи
алеут
алеутыбзэ
алеутыбзэхэр
али
алигиери
алии
алим
алисулътӏан
алкала
алкол
аллахабадым
аллыхьым
алмади
алп
алпхэр
алтаи
алто
алфонсо
алцгеи
алъытэ
алъэ
алыдж
алыджеи
алыджхэм
алыджхэмрэ
алыджхэр
алыджыбзэмрэ
алыджым
алыджымрэ
алыр
алыркъэш
аль
альберт
алэ
алэнд
алэхэр
ам
амазонэ
амазонэм
амазонэр
амазонэхэм
амал
амалыншу
амалыншэу
амалэу
американ
американэ
америке
америки
америкэ
америкэкъыу
америкэм
америкэмрэ
америкэр
ами
амк
амниотхэм
ампанг
амстердам
амундсен
амур
амфибиэ
амфибиэхэм
амфибиэхэр
амырхъан
амэ
ан
ана
анадолеи
анализ
аналогами
анат
анатомиэ
анахь
ангилал
англии
англия
анголэ
андалусиэ
андалусиэм
андалусиэр
андаман
андерсен
анджелес
андзореи
андии
андоррэ
андреи
андресрэ
андхэм
андхэр
андыз
анзор
анимациэ
анис
анисии
анкара
аннексиэ
анри
ант
антантэм
антарктидэ
антарктидэм
антарктидэмрэ
антарктикэмрэ
антверпен
антибиотикхэр
антигитлер
антигуэрэ
античнэ
антон
антонии
антонин
антонио
ану
анхалт
анэ
анэдолеи
анэдэлъхубзу
анэдэлъхубзэ
анэк
анэм
анэми
анэмрэ
анэр
анэращ
анэри
анэхэм
анэхэмрэ
анэхэр
анэхэри
анэш
аортэм
ап
апартхеи
апеллациэ
апеннин
апкӏэнтӏэху
аплъэп
аплъэпкъыр
апрелым
апрель
апреля
апхуэдиз
апхуэдизкӏэ
апхуэдизу
апхуэдизымкӏэ
апхуэду
апхуэдуи
апхуэдэ
апхуэдэм
апхуэдэр
апхуэдэу
апхуэдэуи
апхуэдэщ
апхъаз
апхъазхэр
апхъазыбзэм
апхъазым
апхъазымрэ
апшеронск
апшъэм
апщыгъуэм
апщыгъуэми
апщыгъуэхэм
апэ
апэм
апэмрэ
апэр
апэрэ
ар
ара
аравии
аравиэм
арагон
арагоным
арал
аранэхэм
арат
арафурэ
аращ
аращи
арга
аргудан
аргуэру
аргуэрыу
аргъуеи
арджэн
ари
аризонэ
аристотел
арифметикэ
арканзас
аркитектурэ
арктикэ
арктикэм
арктикэмрэ
аркэ
армавир
армиэ
армстронг
арсен
арсс
арт
артист
артистхэр
артистым
артистыр
артроподхэм
артроподхэр
аруан
арубэ
архангелск
археи
архентинэ
архентинэм
архентинэр
археологхэм
археологхэр
архипелаг
архипелагым
архипо
архитектор
архитекторхэр
архитекторщ
архитекторэр
архитектурэ
архъыз
арщхьэкӏэ
ары
арысэ
арэзы
арэзыуэ
ас
асалрэ
аскъэлаи
аслан
аслъан
аслъэн
аслъэнбэч
асльан
аспирированныи
ассамблеэ
ассамблеэм
асср
астана
астрономиэ
астуриэ
астуриэм
астуриэр
асу
асчэр
ат
аталыкъ
атауэ
аташъхьа
аташъхьар
аташъхьу
аташъхьэ
атеизм
атк
аткӏэ
атлантик
атлантикым
атлантикэ
атлантикэм
атлас
атлетикэ
атмосферэмрэ
атолл
атоллхэм
атоллхэр
атоллым
атоллыр
атом
атэхэм
атӏанэ
ау
ауаныщӏ
аублэ
аугуст
аугустин
аугустым
аустралиэ
аустралиэм
аустралиэмрэ
аустралиэр
аустралиэрэ
аустриэ
аустриэм
аустрэ
аустрэм
аустрэр
аустрэрэ
аутоном
аутономиэ
аутономнэ
аутэном
аууал
ауш
аущтэу
ауэ
афанасии
афган
афганистаным
афганистаныр
афганистэн
афганистэным
афганистэныр
афинхэр
афразии
африканхэм
африканхэр
африканэ
африкэ
африкэм
африкэмрэ
африкэр
афу
аффрикатизация
аффрикаты
афыпс
афэ
ах
ахваххэр
ахирэ
ахуэу
ахъии
ахъо
ахъчэ
ахъчэкӏэ
ахъчэр
ахъчэхэр
ахъшэ
ахъшэр
ахъщэ
ахын
ахьмэд
ахьэ
ахэ
ахэм
ахэмэ
ахэр
ахэра
ахэри
ахэщ
ац
ацтек
ацтеками
ацтеки
ацтеков
ацтекского
ацтекхэм
ацтекхэр
ацумыжъ
аш
ашз
ашока
ашокэ
ашокэм
ашры
ашхаруа
ашъхьамрэ
ашъхьар
ашэм
ащ
ащар
ащауэ
ащащ
ащросстат
ащтэрхъан
ащыгъуэм
ащыщ
ащыщхэр
ащыщэу
ащэпсэух
аэропорт
аӏуеи
аӏуи
аӏуудз
б
ба
баб
бабыщ
бабыщхэр
бабыщыпцӏэ
бавариэ
багдад
багъ
баден
бадзэ
бадзэуэгъуэ
бадзэуэгъуэм
бадзэуэгъуэмрэ
бадзэхэр
бажьэ
бажэ
базэ
баи
бактериэхэр
бактрии
бактриэмрэ
баку
балеар
бали
балии
балк
балкан
балкарии
балкарского
балкарскои
балтик
балтикэ
балъкъ
балъкъыпс
балъкъыпсым
балъкъэр
балъкъэрхэр
балъкъэрым
балъкъэрымрэ
балъкъэрэм
бангкок
бангладеш
бангладешым
бандэ
банк
банкнотхэр
баннерная
баннернои
банту
бантустан
бантустанхэм
бантухэм
банэ
банэкӏэ
барбадос
барбудэрэ
баренц
баренцева
барокко
барселонэ
басе
басеи
баск
баскхэм
баскхэр
баскыбзэр
басс
бассеи
басэ
бат
батыргъэн
бах
баха
бахамэ
бахр
бахреи
бахъсэн
бацу
бач
баш
башкэртэстэн
башлыкъ
башня
башым
бгуэч
бгъанэ
бгъащхьэмрэ
бгъащхьэр
бгъу
бгъуагъ
бгъуагъкӏэ
бгъуагъу
бгъуагъщ
бгъуагъыр
бгъузэ
бгъузэщ
бгъумкӏэ
бгъухэмрэ
бгъуэ
бгъуэм
бгъуэнк
бгъуэнщӏагъ
бгъуэнщӏагъхэм
бгъуэуэ
бгъуэхэр
бгъуэшху
бгъуэшхуэ
бгъуэщ
бгъыгъэ
бгъэ
бгъэгу
бгъэгум
бгъэгумрэ
бгъэгур
бгъэдахэщӏудз
бгъэдэлъ
бгъэкӏэ
бгъэлажьэмэ
бгъэм
бгъэмрэ
бгъэн
бгъэнбзу
бгъэнбзухэр
бгъэнджэдхэр
бгъэр
бгъэхэм
бгъэхэр
бгы
бгыгъунэӏухьрэ
бгыкӏыу
бгылъэ
бгылъэм
бгылъэмрэ
бгылъэхэм
бгым
бгынэжахэм
бгырыс
бгытехьэ
бгыф
бгыхэм
бгыхэр
бгыщхьэ
бгыщхьэхэм
бджэнк
бджэхьашъхьам
бдзэжеи
бдзэжъеи
бдзэжьеи
бебэрыкъуэрэ
бедных
бедуинхэр
без
беи
белгиэ
белгород
белгэ
белгэм
белиз
бемба
бен
бенгал
бенгалиэм
бенгалыбзэ
бензилпенициллин
бенин
бениным
бенито
берегу
беринг
берлин
берлиным
берлиныр
бермудэ
бернар
бернарым
бертелми
бесленеи
беслъэнеи
бета
бетховен
бехъымбар
бжанэкӏэ
бжанэу
бжеи
бжъакъуэ
бжъакъуэхэр
бжъо
бжъом
бжъыгъэкӏэ
бжъэ
бжъэгъу
бжъэгъум
бжъэдыгъу
бжъэдыгъубзэ
бжъэдыгъубзэкӏэ
бжъэдыгъубзэр
бжъэжъеи
бжъэм
бжъэпэхэм
бжъэр
бжъэхуц
бжъэхэм
бжъэхэр
бжыгъи
бжыгъу
бжыгъэ
бжыгъэк
бжыгъэкӏи
бжыгъэкӏэ
бжыгъэм
бжыгъэмкӏэ
бжыгъэр
бжыгъэри
бжыгъэрэ
бжыгъэу
бжыгъэхэм
бжыгъэхэми
бжыгъэхэр
бжыгъэхэри
бжыхь
бжыхьам
бжыхьэ
бжыхьэм
бжыхьэмрэ
бжыхьэпэм
бжьо
бжьыгъэкӏэ
бжьыныщхьэм
бжьыхьэ
бжьыхьэкӏапэхэм
бжьыхьэм
бжьыхьэмрэ
бжьыхьэр
бжьэ
бжьэдыгъу
бжьэдыгъухэм
бжьэм
бжьэхэм
бжьэхэр
бжьэшх
бжэн
бжэндэхъу
бжэндэхъугъуэжь
бжэндэхъугъуэжьхэр
бжэндэхъум
бжэндэхъухэр
бжэнхэм
бжэнщ
бжэнщӏэф
бжэнщӏэфхэр
бз
бзаджу
бзаджэ
бзаджэм
бзаджэр
бзии
бзу
бзугъуабжэ
бзугъуабжэгъуэщ
бзугъуабжэгъуэщхэр
бзугъуабжэхэр
бзужэр
бзужэрхэр
бзукӏэзэгуэх
бзукӏэзэгуэххэр
бзукӏэплъхэр
бзулъэкӏыхь
бзум
бзупэгъум
бзур
бзухьэгуагуэ
бзухьэгуагуэхэр
бзухэм
бзухэмрэ
бзухэр
бзущхьэгъуэжь
бзущӏэращӏэхэр
бзы
бзыб
бзыикъуэ
бзылъхугъэ
бзылъхугъэм
бзылъхугъэхэм
бзылъхугъэхэмрэ
бзым
бзыми
бзыр
бзыри
бзырэ
бзыуэ
бзыхэм
бзыхэмрэ
бзыхэр
бзыхэри
бзэ
бзэкӏи
бзэм
бзэми
бзэмк
бзэмкӏэ
бзэмрэ
бзэпс
бзэпсхэр
бзэр
бзэуэ
бзэхэм
бзэхэми
бзэхэмк
бзэхэмккӏэ
бзэхэмкӏэ
бзэхэмрэ
бзэхэр
би
библиотека
библиотекэ
библиэм
бизнес
бизоным
бии
бикипиэдьии
билал
бин
биндусарам
бинокулар
биографиэ
биографиэр
биологиэ
биологиэм
бирмэм
бисау
бискаи
бисмарк
биуэ
биш
благъэ
бланэ
бланэукъым
ближаи
ближнии
бликэ
блокадэм
блы
блын
блыным
блыныр
блыпкъ
блыпэ
блырыблу
блыщхьэ
блэ
блэнгъэпс
блэхэр
блю
бо
бог
богдан
боготэ
богупс
бол
болгариэ
болгариэм
более
болжээ
боливар
боливиэ
боливиэм
боловч
болон
болох
большая
больше
большинство
большое
большои
большую
болэтокъо
болэтокъуэ
болэтокъуэм
борец
борис
борхес
борьба
борьбе
босниэм
босниэрэ
боспор
босфор
бот
ботам
ботов
ботсуанэ
ботхэр
бофорт
брабант
бразил
бразилым
бразилэ
бразилэм
брамс
бранденбург
бранку
бранск
брансуик
брат
брахмапутра
брахмапутрам
брахмапутрарэ
брежнев
бремен
брест
британ
британеи
британиэ
британиэм
британиэшхуэ
британиэшхуэм
британиэшхуэмрэ
британиэшхуэр
британхэр
британым
бронза
брунеи
брчко
брэм
брэндии
брюссел
брянск
бсэ
буддар
буддизмым
буддэ
буддэдин
буддэдиным
буддэныгъэ
будем
будет
буду
будут
буенос
буи
букв
буквэхэу
бурбонхэм
буркина
бурунди
бурч
бурятиэ
бусад
бутан
бутаным
бушменхэмрэ
буэнос
бхагалпур
бхагиратхи
бы
быбжмэ
быдагъэмрэ
быдап
быдапӏу
быдапӏэ
быдапӏэм
быдапӏэр
быдапӏэу
быдапӏэхэм
быдапӏэхэр
быдз
быдзычэм
быдзышэм
быду
быдэ
быдэгъуэ
быдэу
быдэщ
был
была
были
было
былым
былымхэм
былымыл
былымым
былымыр
бын
бынжэр
быни
бынлъэужырытхэм
быным
быныр
быту
бытырбыху
быть
быхъу
бэ
бэгъуа
бэгъуауэ
бэдж
бэджсурэтхэр
бэджхэр
бэдынокъуэ
бэзэр
бэи
бэкхъ
бэлкан
бэлъкъэрым
бэлыхь
бэлыхьу
бэнак
бэнакӏуэ
бэнакӏуэхэр
бэрдакъым
бэрзэдж
бэрэ
бэрэгъун
бэрэжьеи
бэрэзджышхуэр
бэрэскэжъыи
бэрэскэшхуэ
бэрэтиӏнэ
бэрэтиӏнэрэ
бэрэтӏинагъуэ
бэрэтӏинагъуэрэ
бэрэтӏинэ
бэслъыныи
бэт
бэуи
бэуэ
бэхъсэн
бэхъсэным
бюллетень
бюрократ
бюрократа
бүрэн
бөгөөд
в
вагнер
вагъуэ
вагъуэбэр
вагъуэхэр
ваи
вакъэ
вакъэр
валенсиэ
валерия
валерэ
валле
валутэ
валютэр
вам
ван
вануату
варанаси
варанасирэ
вариантыр
варшавэ
вас
василии
васко
ватикан
ваша
вашего
вашем
вв
веи
века
веласкес
веласкесым
вена
венгрым
венгрэ
венгрэм
венерэ
венесуелэ
венесуэлэ
венециэ
венеция
вениамин
венэ
венэм
веракрус
вергилии
верде
верден
верди
вермонт
версал
вес
весна
вестник
вид
видел
виетнам
виетнамым
византии
вики
викимарафоне
викимедиа
викингхэр
википеди
википедии
википедиэ
википедия
википедија
виктор
викториэ
викториэм
вилгелм
вилицки
винсент
винчи
виргата
вирджин
вирджиниэ
вирус
висенте
витамин
витебск
вице
вичентэ
вишну
вкӏуп
владение
владимир
влак
власти
внимание
во
воды
воздержались
воздуха
возможно
возможности
вои
вокруг
волгоград
вологда
вологдэ
волт
волфганг
вольная
вольнои
вопрос
вопросы
воронеж
воскресенье
восстание
восток
вот
впоследствии
времени
время
все
всего
всеи
всех
вспыхнуло
вся
вторник
вулкан
вы
вымп
вынд
вындхэм
вындхэр
вындым
вып
выпуск
выпускники
выскажите
высказать
выхэр
выше
вэд
вэдхэр
вэнвеи
вэнгъуэк
вікіпедія
вікіпэдыя
г
га
габон
габриэл
гаван
гаванхэм
гавань
гагра
гадна
газет
газетым
гаи
гаити
гал
галилеи
галисии
галисиэ
галисиэм
галисиэр
галициэм
гамбиэ
гамбиэм
гамбург
ганам
ганг
ганга
ганготхри
гангрэ
гангым
гангыр
ганди
ганс
ганэ
гарсиа
гас
гауаи
гашъэ
гваделупскои
гг
где
ге
геи
гектар
геленджик
гендел
гендель
генерал
генетикэ
генри
генэ
географие
географии
геологиэ
геометрие
геометрием
геометрическэ
геометриэ
георг
германика
геродот
геродотым
герцеговинэмрэ
герцеговинэрэ
гибралтар
гидрологикэ
гидрологиэ
гилберт
гималаи
гипотезэ
гитлер
гитлера
гитлерым
гитлерыр
гишүүн
гл
глав
главная
главнои
главныи
гландхэр
го
говора
гог
год
года
годах
году
годы
гои
гол
голлэнд
голосов
голосование
голштеи
гомара
гомбакыпсыр
гомер
гонконг
гордон
горн
город
города
городе
городов
городскои
горэ
государства
готра
готтентотхэмрэ
гоуидзэр
гоун
гр
градус
граждан
гран
гранада
гранде
граф
график
греко
грекыбзэ
гренадэ
григориан
григории
гринлэнд
грипп
грознэ
грознэм
грознэр
грузием
грузиныбзэм
групп
группы
группэ
группэм
грютвикен
гу
гуа
гуабжэщ
гуаделупэ
гуам
гуанчихэм
гуардафуи
гуатемалэ
гуащэ
гуащэм
гуащэмрэ
гуащэшхуэр
гуащэӏэпэ
гуащэӏэпэрэ
губа
губгъу
губгъуэ
губгъуэдзыгъуэ
губгъуэжь
губгъуэкъаз
губгъуэм
губгъуэр
губгъуэтхьэрыкъуэм
губгъуэхэм
губгъуэхэмрэ
губгъуэхэр
губернатор
губзыгъэ
губзыгъэм
губзыгъэщ
гугъ
гугъу
гугъуехь
гугъыр
гугъэ
гугъэф
гудаута
гудзон
гуди
гузавэгъуэ
гузэвэгъуэ
гузэвэгъуэхэм
гузэвэгъуэхэр
гуианэ
гуинеи
гуинеэ
гуинеэм
гулъытыгъу
гулъытыгъуэ
гулъытыгъуэхэр
гулъытэгъу
гулъытэгъуэ
гулъытэгъуэхэр
гулъытэхэр
гум
гуманитар
гумцӏыкӏум
гунхэм
гуоуреи
гуп
гупит
гупитӏу
гупта
гуптахэм
гуптэ
гуптэхэм
гуптэхэр
гупу
гупури
гупурэ
гупхэм
гупхэр
гупшысыгъуэ
гупшысыгъуэм
гупшысыгъуэр
гупшысыгъэ
гупшысэгъу
гупшысэгъуэ
гупшысэныгъэ
гупым
гупымрэ
гупыр
гупышху
гупышхуэ
гупышхуэхэурэ
гупэ
гупэлъакъуитӏыр
гупэмкӏэ
гупэр
гур
гурон
гуру
гуры
гурышхъуэ
гурыӏуэгъуэ
гурыӏуэгъуэр
гурыӏуэгъуэхэмкӏэ
гурыӏуэгъуэхэр
густав
гухэр
гушыӏэ
гущы
гущыӏэ
гущыӏэм
гущыӏэр
гущӏыӏу
гущӏыӏум
гуэгуш
гуэгушхэр
гуэдз
гуэдзым
гуэл
гуэлыр
гуэр
гуэри
гуэрхэр
гуэрым
гуэрэ
гуэрэм
гуэрэн
гуэрэнхэм
гуэрэнхэр
гуэрэхэм
гуэрэхэмкӏэ
гуэрэхэмрэ
гуэрэхэр
гуэрэхэри
гуэт
гуэхуп
гуэча
гуэчауэ
гуэчыгъуэм
гуэчыгъуэр
гуэша
гуэшауэ
гуэшащ
гуэшыгъуэ
гуэшыгъуэр
гуэшыжа
гуэшык
гуэщэнеи
гхатоткачарэ
гъ
гъаблэ
гъавэ
гъавэхэкӏ
гъавэхэр
гъагъэ
гъагъэхэм
гъагъэхэр
гъатхэ
гъатхэм
гъатхэмрэ
гъатхэпэ
гъатхэпэм
гъатхэпэмазэм
гъатхэпэхэм
гъатхэр
гъашъэ
гъашъэм
гъашъэр
гъашъэтхыдэр
гъашэ
гъащ
гъащӏэ
гъащӏэм
гъащӏэр
гъитӏкӏэ
гъм
гъогу
гъогум
гъогур
гъогурык
гъогухэм
гъогухэр
гъуа
гъуабджафэ
гъуабджу
гъуабджэ
гъуабджэм
гъуабжафэ
гъуабжафэщ
гъуабжэ
гъуабжэхэр
гъуабжэщ
гъуанэ
гъуанэхэм
гъуанэхэр
гъуафэ
гъуафэщ
гъуахъуэнкӏэ
гъуащу
гъубдж
гъубж
гъугъ
гъудэ
гъудэбадзи
гъудэбадзэ
гъудэбадзэхэр
гъудэбадзэщ
гъудэмэз
гъукӏэ
гъум
гъуму
гъумхэм
гъумщ
гъунапкъу
гъунапкъхэр
гъунапкъым
гъунапкъыр
гъунапкъэ
гъунапкъэм
гъунапкъэр
гъунапкъэу
гъунапкъэхэм
гъунапкъэхэр
гъунэ
гъунэгъу
гъунэгъугъэ
гъунэгъум
гъунэгъур
гъунэгъуу
гъунэгъухэм
гъунэгъухэр
гъунэгъущ
гъунэжу
гъунэм
гъунэр
гъунэхэм
гъунэхэмкӏэ
гъунэхэмрэ
гъунэхэр
гъуогу
гъурц
гъурцхэм
гъурцхэр
гъусэ
гъусэу
гъусэхэм
гъуху
гъухум
гъухур
гъушъу
гъушъэ
гъушъэхэм
гъушӏ
гъущ
гъущэхэм
гъущэхэмрэ
гъущэщ
гъущӏ
гъущӏкӏапсэм
гъуэ
гъуэбджафэхэ
гъуэбжафэ
гъуэбжафэщ
гъуэгу
гъуэгум
гъуэгури
гъуэгухэм
гъуэгухэр
гъуэжь
гъуэжькуии
гъуэжьм
гъуэжьу
гъуэжьхэр
гъуэжьщ
гъуэжьым
гъуэжьыфу
гъуэжьыфэ
гъуэжьыфэу
гъуэжьыфэхэр
гъуэжьыфэщ
гъуэжьыхум
гъуэзэфэзэ
гъуэлъхьэгъуэ
гъуэлъхьэгъуэм
гъуэлъхьэгъуэр
гъуэлъхьэжыр
гъуэм
гъуэнчэдж
гъуэнчэджыр
гъуэплъ
гъуэплъу
гъуэплъым
гъуэплъыфэ
гъуэплъыфэщ
гъуэпэху
гъуэр
гъуэхэм
гъуэхэр
гъуэщ
гъыбзэ
гъыщ
гъэ
гъэбжыгъэкӏэ
гъэгъа
гъэгъахэм
гъэгъахэр
гъэгъуа
гъэдахэ
гъэжъо
гъэзауэ
гъэзащ
гъэзетым
гъэк
гъэкӏэ
гъэлъэгъуа
гъэлъэгъуэн
гъэлъэгъуэнхэм
гъэлъэгъуэным
гъэм
гъэмахуэ
гъэмахуэк
гъэмахуэку
гъэмахуэкум
гъэмахуэкӏэм
гъэмахуэм
гъэмахуэмрэ
гъэмахуэпэ
гъэмахуэр
гъэми
гъэмк
гъэмкӏэ
гъэмрэ
гъэпс
гъэпсауэ
гъэпсом
гъэпсыгъэ
гъэпсыным
гъэпщылӏакӏуэм
гъэр
гъэрауэ
гъэращ
гъэрэ
гъэсэныгъэ
гъэсэныгъэм
гъэсэпэтхыдэ
гъэтхэпэм
гъэтэрэзыгъуэ
гъэтэрэзын
гъэунэхуауэ
гъэхуауэ
гъэхьэзырыгъуэ
гъэхэм
гъэхэмкӏэ
гъэхэр
гъэхэращ
гъэч
гъэчауэ
гъэчхэм
гъэчым
гъэш
гъэшауэ
гъэшащ
гъэшъэгъуэн
гъэшъэгъуэну
гъэшъэгъуэныгъу
гъэщӏэгъуэн
гъэщӏэгъуэнкъым
гъэщӏэгъуэну
гъэщӏэгъуэнхэр
гын
гь
гэж
гюго
д
да
давид
даг
дагагчтаи
дагиров
дагъыстан
дагъыстэн
дагъыстэным
дагъыстэныр
дагъэ
дагъэр
даже
дакар
дакка
дакотэ
дакъикъэ
дали
далтонизм
далъэсык
дамаск
дамащхьэмрэ
дамащхьэхэр
дамбэ
дамжуулалт
дамжуулдаг
дамыгъэ
дамыгъэхэр
дамэ
дамэкӏэ
дамэкӏэхэр
дамэм
дамэр
дамэхэм
дамэхэмрэ
дамэхэр
дамэцхэр
даниэ
даниэм
даннои
данному
данте
данэ
дарданеллэ
дариир
дато
даты
даур
даурым
даут
даутэ
дауэ
дахьо
дахэ
дахэм
дахэщ
дважды
две
движение
движению
движения
дворец
дворжак
двукратныи
дд
дджр
де
девис
девы
деж
дежи
дежк
дежкӏэ
дежнев
дежщ
дежь
дежькӏэ
деи
дек
декабрым
декабрь
дел
делано
делауер
дели
делтэ
делтэм
делтэр
демократ
демократикэ
демократикэу
демократиэ
ден
день
депрессиэшхуэ
депутат
депутатищ
депутату
депутатхэм
депӏ
дермэм
десант
десятилетия
детрои
деятельности
дж
джабэ
джабэм
джабэр
джабэрыӏэ
джабэрыӏэхэм
джабэу
джабэхэм
джабэхэмрэ
джабэхэр
джавахарлал
джаи
джакартэ
джаме
джамна
джан
джанболэт
джану
джаныгъэр
джанэ
джанэкӏыхь
джанэр
джатэ
дже
джеи
джексон
джерси
джибути
джии
джои
джомолунгмэ
джон
джонэтэн
джор
джордж
джорджиэ
джорджэ
джорджэм
джорджэрэ
джорпкӏэхэлъхьэм
джоул
джоуэ
джрк
джумадэ
джунглэхэм
джурт
джуртеи
джуртхэм
джуртхэр
джы
джыдэдэм
джыжьу
джыжьэ
джылу
джылэ
джылэбжыгъэ
джылэбжыгъэр
джылэм
джылэмрэ
джылэр
джылэра
джылэхъстэнеи
джылэхэм
джылэхэр
джып
джыпсту
джыпӏэ
джыри
джэ
джэгу
джэгуак
джэгуакӏуэ
джэгуакӏуэхэр
джэгугъэ
джэгум
джэгур
джэгухэм
джэгухэр
джэд
джэджьеи
джэджэным
джэдкусэ
джэдкъаз
джэдкъазым
джэдмышх
джэду
джэдухэм
джэдухэр
джэдхэр
джэдык
джэдыкӏи
джэдыкӏэ
джэдыкӏэм
джэдыкӏэхэм
джэдыкӏэхэр
джэдыкӏэщ
джэдым
джэз
джэи
джэм
джэмхэм
джэмым
джэн
джэпуэгъуэ
джэпуэгъуэм
джэр
джэрджэ
джэрии
джэрман
джэрмэн
джэрмэнхэм
джэрмэнхэр
джэрмэныбзэ
джэрмэныдзэм
джэрмэныдзэр
джэрмэным
джэрмэнымрэ
джэрмэныр
джэуап
джэфри
джэш
джэщ
джэщмахуэ
джэщми
джэщым
дз
дзасу
дзи
дзыгъуэ
дзыгъуэхэкӏ
дзыгъуэхэм
дзыгъуэхэр
дзыгъуэщ
дзыдзэ
дзыдзэхэр
дзэ
дзэзешэ
дзэзэчэ
дзэзэшу
дзэзэшэ
дзэзэшэм
дзэзэшэхэм
дзэл
дзэлбзу
дзэлыкъуэ
дзэлыкъуэбгъэ
дзэм
дзэми
дзэмрэ
дзэн
дзэр
дзэхэм
дзэхэмкӏэ
дзэхэр
дзэшхуэ
дзэщӏэ
дзюдо
ди
диабет
диалектов
диалектхэр
диаса
диего
дизаи
дикенс
диктатурэ
дин
динар
динкӏэ
динозавырхэр
дину
динхэм
динхэр
диныжъым
диным
динымк
динымкӏэ
динымрэ
диныр
дипломатиэ
диск
диснеи
дитрих
дищӏыхьащ
для
дмитрии
днестырпыт
дня
до
добра
добрыи
довольно
доделать
док
доктор
документациэ
документациэр
документы
докъушыкъуеи
докӏеи
докӏуэ
докӏуэи
дол
должен
должно
доли
долине
долл
доллар
доллару
долмен
долъэтеи
долэт
дом
домбеи
домбеякъ
доминикан
доминикэ
доминирующеи
домог
дон
донгхои
дониа
дону
дор
достоевскии
досххэр
дотӏысхьэ
доуэ
дохьэ
др
древнего
древнеи
древнеиндеи
древние
дреи
другие
других
ду
дубаи
дубровин
дудакъ
дудакъхэр
дуи
думаю
думэм
дунаи
дунд
дунеи
дунеир
дунем
дунер
дурер
дурэшхэм
дхрувадевир
дыгъужъ
дыгъужъхэм
дыгъужъхэр
дыгъужь
дыгъужьхэр
дыгъэ
дыгъэгъазэ
дыгъэгъазэм
дыгъэгъазэмрэ
дыгъэкъухьэп
дыгъэкъуэк
дыгъэм
дыгъэр
дыду
дыдэ
дыдэм
дыдэми
дыдэр
дыдэу
дыдэхэм
дыдэхэр
дыдэхэри
дыдэщ
дыжьын
дыжьыныфэ
дыкъуакъуэ
дыкъуакъуэщ
дыкъытеувы
дым
дыр
дыхьэ
дышъэ
дышъэрэ
дыщафэ
дыщъэ
дыщэ
дэ
дэбзык
дэгугъэ
дэгъу
дэгъуэу
дэгъыстэн
дэгъэзеяуэ
дэд
дэдэ
дэдэм
дэжыгхэм
дэзӏыгъар
дэк
дэкъикъэ
дэкӏахэ
дэкӏеи
дэкӏуеуэ
дэкӏуэуэ
дэкӏыгъу
дэкӏыгъуа
дэкӏыгъуи
дэкӏын
дэкӏыпӏэ
дэкӏыпӏэм
дэкӏыу
дэлъ
дэлъкъым
дэлъу
дэлъщ
дэлъым
дэлъэшъу
дэмыгъэ
дэмыгъэм
дэмыгъэр
дэмыгъэщ
дэмыкӏыу
дэмэгъуэм
дэни
дэнэ
дэс
дэсам
дэсар
дэсащ
дэст
дэсу
дэсхэ
дэсхэм
дэсхэмрэ
дэсхэр
дэсщ
дэсым
дэсымкӏэ
дэсымрэ
дэсын
дэсыр
дэт
дэта
дэтт
дэту
дэтхэнэ
дэтхэнэми
дэтхэр
дэтхэщ
дэтщ
дэтым
дэтыр
дэтӏысхьахэщ
дэхагъэ
дэхьапӏэ
дэхьапӏэм
дэхьэпӏэ
дэхэм
дэхэр
дэщ
дэщӏыгъуу
дээр
дээрх
дэӏэпыкъуэгъу
дэӏэпыкъуэгъукӏэ
дэӏэпыкъуэгъуэ
е
ебж
ебланэ
евреи
европеи
европы
егеи
египетым
его
егорова
егъазэ
егъакӏуэ
егъашхэ
егъэджак
егъэджэныр
егъэзыхауэ
егъэзыхыгъуэхэр
егъэк
егъэкӏуэкӏыным
егъэлъагъуэ
егъэпхыгъэ
егъэтӏылъ
егъэч
егьап
едгъэза
еджап
еджу
еджэ
еджэн
еджэну
еджэным
еджэнымрэ
еджэрыкъуаи
еджэт
еджэу
еджэхэт
еджэщ
еджэщхэр
еджэщым
едз
едзэ
едзэр
едзэри
едуард
ее
ежедневно
ежь
ежьа
ежьахэ
ежьхэр
ежьыгу
ежьыгухэр
ежьырэу
ежьэн
ежэх
ежэху
ежэхурэ
ежэххэм
ежэххэр
ежэхыкӏэр
ежэхым
ежэхын
ез
езы
езым
езыми
езымрэ
езыр
езыру
езытыр
езыуэ
езыхэм
езыхэр
еи
ек
екатеринэ
екӏуэкӏ
екӏуэкӏа
екӏуэкӏам
екӏуэкӏар
екӏуэкӏаху
екӏуэкӏахэ
екӏуэкӏахэм
екӏуэкӏмэ
екӏуэкӏт
екӏуэкӏым
екӏуэкӏын
екӏуэкӏыр
екӏуэкӏыху
екӏэпцӏэ
ел
елбэздыкъуэ
елизавета
елцин
елъагъу
елътауэ
елъытамэ
елъытауэ
елъытащ
елъэ
елъэс
елыркъэш
елэжьу
елэжьын
елэжьыну
елэжьыным
елэжьынымрэ
елэн
елэнхэм
елэнхэр
елэным
елэныр
ем
емен
еменым
емылъытауэ
емынэ
емынэм
емыпхауэ
емыхьчу
емышыж
еннэ
епл
еплъ
еплъык
еплъын
еплӏанэ
епха
епхауэ
епхахэу
епхащ
епщ
епщык
ер
ерагъу
ермэл
ермэлеи
ермэлхэр
ермэлы
ермэлым
ермэлыхэм
ермэлыхэр
ерсу
ерсыным
ерусэлим
ерэ
ес
есахурэ
если
естуарии
естуариэр
есть
ет
етх
етхуанэ
етхыр
етыр
етӏоанэ
етӏуану
етӏуанэ
етӏуанэм
етӏуанэр
етӏуанэу
еублэ
еубыд
еубыдри
еубыдыр
еугуэш
еужь
еукӏ
еулӏэт
еуразиэ
еуразиэм
еуразиэмрэ
еуро
еуропеи
еуропэ
еуропэм
еуропэми
еуропэмрэ
еуропэр
еуропэхэм
еурэпеи
еух
еухуэ
еухыр
еуэ
еуэкӏэ
еуэным
ефэн
ефэну
ефэным
еханэ
еху
ехъумэ
ехъымэ
ехыжа
ехыжахэр
ехыжащ
ехыжьа
ехь
ехьч
ехьчу
ехьыр
ехьэл
ехэм
ешх
ешъыр
ешъэнымрэ
ещанэ
ещанэреи
еще
ещхь
ещхьу
ещхьщ
ещыр
ещэкӏуэныр
ещӏ
ещӏыр
еянэ
еӏыгъ
ж
жа
жак
жалым
жан
жанеи
жансэхъу
жанщ
жанэ
жаӏэ
жгъеи
же
жеи
жи
животного
животных
жизни
жизнь
жителеи
жители
жиӏащ
жиӏэмэ
жиӏэу
жоуэ
жуан
жумэрэн
журналым
журт
жъ
жъу
жъы
жъыдыду
жы
жыг
жыгдэжеи
жыгеи
жыгк
жыгу
жыгхадэ
жыгхэм
жыгхэмрэ
жыгхэр
жыгым
жыгыпкъым
жыгыр
жыгыуӏу
жыгыуӏухэм
жыгыуӏухэр
жыгыщхьэм
жыгыщхьэхэм
жыжьэ
жыжьэм
жыжьэу
жыжэ
жыжэм
жыжэу
жылагъуэ
жылагъуэхэр
жылу
жылэ
жылэдэсхэр
жылэм
жылэр
жылэу
жылэхэм
жылэхэр
жылэщ
жып
жыпӏэ
жыпӏэмэ
жыр
жыхуа
жыхуи
жыхуиӏэ
жыхуиӏэм
жыӏэн
жь
жьабгъуэхэщ
жьабгъуэщ
жьакӏэ
жьауэ
жьгъеи
жьгъыру
жьеи
жьец
жьецхэр
жьы
жьыбгъэ
жьыдыдэу
жьыкъан
жьыкъанкъуэлэнхэр
жьым
жьынду
жьындухэр
жьыр
жьыуэ
жьыхэм
жьэ
жьэбгъум
жьэгъу
жьэгъум
жьэгъумрэ
жьэгъур
жьэдзыуэ
жьэдзыуэхэр
жьэн
жьэр
жэ
жэбагъы
жэбзэ
жэгуэтэныпэ
жэгъу
жэкӏуэцӏым
жэм
жэмхэм
жэмым
жэп
жэпкъ
жэпкъым
жэпуэгъуэ
жэпуэгъуэм
жэр
жэуэ
жэхэм
жэш
жэщ
жэщкӏэ
жэщхэм
жэщым
жэщыр
з
за
забаи
задэу
задэхэм
зази
заи
закон
закономерностях
закъу
закъуэ
закъуэкъым
закъуэм
закъуэр
закъуэра
закъуэракъым
закъуэхэм
закъуэщ
закӏыу
замбиэ
занду
зандэгъуэкӏэ
занзибар
занк
занкӏыу
занкӏэ
занщ
занщӏу
занщӏэ
занщӏэу
заом
зап
зас
засым
затем
зау
заур
зауэ
зауэдзэ
зауэкӏэ
зауэл
зауэлӏ
зауэлӏхэм
зауэлӏхэр
зауэм
зауэмрэ
зауэншу
зауэншэ
зауэр
зауэхэм
зауэхэр
зауэшхуэ
зауэшхуэм
зауэшхуэр
зауэшъэныгъэм
заху
захуэ
захуэм
захуэу
захуэщ
заявки
заӏэт
згуэрэ
згуэрэм
згуэрэхэр
здалъагъур
здащӏыр
здесь
здехыжьар
здисхэр
здит
здиухым
здищӏыр
здиӏэхэр
здравствуи
здык
здыкӏадзар
здынэса
здынэсар
здынэсыр
здыпылъхэр
здырикӏуэр
здытелъ
здыфӏэкӏым
здыхэлъадэм
здыхэсхэр
здыхэсыр
здыхэтым
здыӏухьэр
здыӏухьэхэр
здэгъуалъхьэр
здэкуэд
здэкуэчхэр
здэплъагъур
здэпсо
здэпсом
здэпсомрэ
здэпсор
здэпсоуа
здэпсоуахэр
здэпсохэм
здэпсохэр
здэпсэуа
здэпсэур
здэпсэухэмрэ
здэпсэухэр
здэщы
здэщымыӏэ
здэщытам
здэщытым
здэщытыр
здэщыӏэ
здэщыӏэр
здэщыӏэхэр
здэщэӏам
здэӏув
зезыхьар
зезыхьахэр
зезыхьэ
зеи
зеикъуэ
зек
зекӏогъум
зекӏу
зекӏуэ
зекӏуэдзэ
зекӏуэкӏэ
зекӏуэкӏэм
зекӏуэкӏэр
зекӏуэм
зекӏуэным
зекӏуэр
зекӏуэу
зекӏуэхэм
зекӏуэхэр
зекӏуэш
зекӏуэшхэр
зелэнд
зелэндиэ
земли
зехуэным
зехуэнымрэ
зехъуэж
зехьэным
зеяр
зи
зигугъам
зигугъу
зием
зилэнд
зимбабвэ
зимыӏэ
зиубгъуащ
зихеи
зихиэ
зиц
зицӏэм
зиэ
зиэм
зиӏу
зиӏэ
зиӏэр
зиӏэтэр
зиӏэхэм
зиӏэхэр
зк
зкӏимгъэфу
зкӏыпӏи
зкӏэт
знак
знании
значение
значительно
знаю
зовут
зок
зокӏуэ
зонально
зонд
зонэ
зонэращ
зонэхэм
зонэхэр
зт
зтегъэпсыхьар
зтегъэпсыхьэр
зтетыр
зтеухуар
зтеухуатэр
зу
зул
зхэтар
зхэтахэр
зы
зыбжанэ
зыбжанэм
зыбжанэрэ
зыбжанэу
зыбжьанэ
зыгуэрым
зыгъасэр
зыгъэпсэхугъэ
зыгъэпсэхуп
зыгъэпсэхупӏэ
зыдж
зызеи
зызубгъуа
зызэримхъуэкӏыу
зызэрихъуэкӏыу
зык
зыкъаӏэт
зыкъиӏэта
зыкъом
зыкъомрэ
зыкъэӏэтыгъуэ
зыкӏи
зылъагъу
зылъагъухэр
зым
зыми
зымыӏэ
зып
зыпылътэр
зыпылъхэр
зыпылъыр
зыпӏыр
зыр
зырамыку
зыри
зыт
зытегъэпсыхьар
зытет
зытетыр
зытеухуар
зытра
зытӏущ
зытӏущкӏэ
зытӏущрэ
зытӏущу
зытӏущым
зыубыду
зыужьыныгъэм
зыужьыныгъэрэ
зыуэ
зыфи
зыхеубыдэ
зыхиубыду
зыхуашъ
зыхуеи
зыхуэныкъуэр
зыхуэр
зыхэлъ
зыхэлъхэр
зыхэт
зыхэтхэм
зыхэтхэр
зыхэтым
зыхэтыр
зышъар
зышъу
зышъхэр
зыщ
зыщахъумэным
зыщыпсэур
зыщыщ
зыщӏыпӏи
зыщӏыпӏэм
зыщӏэж
зыщӏэт
зыӏуту
зыӏыгъ
зыӏыгъыр
зэ
зэбгырыдзауэ
зэбдзэкӏмэ
зэв
зэву
зэгуры
зэгуэкӏхэр
зэгуэкӏыпӏэхэм
зэгуэт
зэгуэту
зэгуэтхэм
зэгуэтхэмрэ
зэгуэтхэр
зэгуэтыгъуэ
зэгуэтыгъуэм
зэгуэтым
зэгуэтымрэ
зэгуэтыныгъэм
зэгуэудауэ
зэгуэхам
зэгуэхауэ
зэгуэхахэм
зэгуэхьэн
зэгъунэгъу
зэгъунэгъуу
зэгъусу
зэгъусэу
зэгъусэщ
зэгъэзэхуа
зэгъэзэхуауэ
зэгъэзэхуэгъуэ
зэгъэзэхуэгъуэр
зэгъэшъэным
зэгъэщ
зэдапӏ
зэдаштагъэхэр
зэджэ
зэджэр
зэджэу
зэдзэк
зэдзэкӏамэ
зэдэгъусу
зэзэмызи
зэзэмызэ
зэзэмызэк
зэзэмызэкӏэ
зэзэмызэщ
зэи
зэик
зэк
зэкӏештэ
зэкӏиуа
зэкӏиштауэ
зэкӏокӏхэр
зэкӏужщ
зэкӏущ
зэкӏуэ
зэкӏэ
зэкӏэкӏауэ
зэкӏэкӏыу
зэкӏэлъыпыту
зэм
зэман
зэману
зэманхэм
зэманыгъу
зэманыгъуэ
зэманыгъуэм
зэманыгъуэр
зэманыгъэ
зэманыгъэм
зэманыкӏэм
зэманым
зэманыр
зэманыщӏэмрэ
зэмыл
зэмылӏэужьыгъуэ
зэмылӏэужьыгъуэр
зэмылӏэужьыгъуэхэм
зэмылӏэужьыгъуэхэр
зэмыфэгъухэщ
зэнтхъ
зэп
зэпамыуду
зэпаудакъым
зэпаупщӏу
зэпащ
зэпекӏуэкӏыу
зэпимыуду
зэпхар
зэпхатэр
зэпхауэ
зэпыдзэхэр
зэпызыщ
зэпылъын
зэпымыуду
зэпымыууэ
зэпымыч
зэпырыкӏыу
зэпыт
зэпыхьэгъуэр
зэпыщ
зэпыщэхэр
зэпэубыдыгъуэ
зэпэубыдыгъуэхэм
зэпэубыдыгъуэхэр
зэпэубыдыгъэ
зэпэубыдыныгъэ
зэпэхъуреи
зэпэщылъу
зэр
зэра
зэрабжымк
зэралъытэмк
зэралъытэмкӏэ
зэрамыхьчыр
зэран
зэраныгъуэ
зэрар
зэратыр
зэраугуэш
зэраху
зэрахуэу
зэрахъуэк
зэрахъуэкӏ
зэрахъуэкӏа
зэрахъуэкӏауэ
зэрахъуэкӏыр
зэрахъуэкӏыу
зэрахьа
зэрахьар
зэрахьат
зэрахьатэкъым
зэрахьу
зэрахьэ
зэрахьэн
зэрахьэт
зэрацӏыхур
зэрашъын
зэргугъэхэмкӏэ
зэргуэча
зэргуэчыр
зэреджэ
зэреджэр
зэреджэтэр
зэреджэу
зэреджэхэр
зэрек
зэрекӏуэкӏам
зэрекӏуэкӏар
зэрекӏуэкӏыр
зэреуар
зэрехъуэк
зэрехъуэкӏ
зэрехъуэкӏыр
зэрехьэ
зэрехьэр
зэрзэджэхэр
зэрзэпыхьахэр
зэрзэф
зэрзэфӏэт
зэрзэфӏэтыр
зэрзэхагъэкӏхэр
зэрзэхагъэкӏыр
зэрзэхуэхъуахэмрэ
зэрзэхэкӏхэр
зэрзэхэкӏыр
зэрзэхэт
зэрзэхэтхэр
зэрзэшъхьащык
зэрзэшъхьащыкӏыр
зэрзэшъхьэщыкӏхэр
зэри
зэригъэлъагъуэмкӏэ
зэригъэубыдыну
зэригъэунэхумкӏэ
зэригъэшъа
зэрилъытэмк
зэримыӏэр
зэритхымк
зэритхымкӏэ
зэритымк
зэритымкӏэ
зэриубыдар
зэриухар
зэрихъуэк
зэрихъуэкӏа
зэрихъуэкӏыу
зэрихьа
зэрихьам
зэрихьар
зэрихьатэр
зэрихьу
зэрихьэн
зэрихьэр
зэрихьэтэр
зэрихьэу
зэришъар
зэриӏэм
зэрк
зэркӏидзэр
зэрнэсамрэ
зэртесыр
зэрхэхьар
зэрщыт
зэрщытам
зэрщытар
зэрщыту
зэрщытхэр
зэрщытым
зэрщытыр
зэрщэӏахэр
зэры
зэрыгуры
зэрыгуэчыр
зэрыдзэ
зэрыжа
зэрыжаӏэмкӏэ
зэрыжи
зэрыз
зэрызу
зэрызурэ
зэрызхурэ
зэрызхэр
зэрызэхадз
зэрык
зэрыпсохэр
зэрыпсэум
зэрыт
зэрытхэм
зэрытыпӏэ
зэрыубыдауэ
зэрыугуэшар
зэрыхабзэщи
зэрыхъу
зэрыхъуамкӏэ
зэрыхъуар
зэрыхъук
зэрыхъум
зэрыхъумкӏэ
зэрыхъунур
зэрыхъур
зэрыхъутэр
зэрыхъухэр
зэрыцӏалэ
зэрыщ
зэрыщы
зэрыщымы
зэрыщытам
зэрыщытар
зэрыщыту
зэрыщытым
зэрыщытыр
зэрэгущаӏэхэрэр
зэрӏыгъыным
зэтелъхэм
зэтеубыдахэм
зэтеухуар
зэтохуэ
зэуэ
зэуэлӏхэм
зэуэншэм
зэф
зэфэгъущ
зэфэзэщу
зэфӏагъэкӏырт
зэфӏоувэ
зэфӏоувэр
зэфӏэгъува
зэфӏэгъувауэ
зэфӏэгъувэным
зэфӏэт
зэфӏэту
зэфӏэтхэ
зэфӏэтыкӏэм
зэфӏэтыкӏэр
зэфӏэува
зэфӏэувам
зэфӏэувауэ
зэфӏэувэжьыныгъэ
зэфӏэувэн
зэфӏэувэныгъэм
зэфӏэувэныгъэр
зэхагъэк
зэхагъэкӏ
зэхагъэкӏа
зэхагъэкӏахэт
зэхагъэкӏхэ
зэхагъэкӏыр
зэхагъэхьа
зэхадзыр
зэхадзыфу
зэхазыф
зэхахыфу
зэхигъэкӏахэ
зэхок
зэхокӏхэр
зэхокӏыжьхэ
зэхокӏыр
зэхолъадэхэ
зэхохьахэ
зэхохьэ
зэхохьэхэ
зэхуаку
зэхуакум
зэхуакур
зэхуакухэм
зэхуащ
зэхуишъу
зэхуэдиз
зэхуэдизу
зэхуэду
зэхуэдэ
зэхуэдэкъым
зэхуэдэщ
зэхуэзанкӏэху
зэхуэлъытэгъуэ
зэхуэлъытэгъуэкӏэ
зэхуэмыдэ
зэхуэмыдэхэм
зэхуэмыдэхэр
зэхуэс
зэхуэсым
зэхуэхьэсыным
зэхуэшъауэ
зэхуэщ
зэхъум
зэхъуэк
зэхъуэкӏыгъуэ
зэхъуэкӏыгъуэр
зэхъуэкӏыныгъэ
зэхэгъэкӏа
зэхэгъэкӏауэ
зэхэгъэкӏыгъуэр
зэхэгъэкӏыгъэр
зэхэгъэхьауэ
зэхэдз
зэхэдза
зэхэдзауэ
зэхэдзащ
зэхэдзыгъуэ
зэхэзекӏуэкӏэ
зэхэзекӏуэкӏэм
зэхэк
зэхэкӏа
зэхэкӏхэт
зэхэкӏыжьху
зэхэкӏыу
зэхэлъ
зэхэлъу
зэхэлъхьа
зэхэлъщ
зэхэлъэда
зэхэлъэдапӏэм
зэхэпхъа
зэхэпхъахэм
зэхэпша
зэхэт
зэхэтт
зэхэту
зэхэтху
зэхэтхэ
зэхэтхэм
зэхэтщ
зэхэтык
зэхэтыкӏэ
зэхэтыкӏэм
зэхэтыкӏэмрэ
зэхэтыкӏэр
зэхэтыкӏэри
зэхэтым
зэхэхуа
зэхэхьа
зэхэщӏыхьахэщ
зэхэщӏыхьащ
зэшъак
зэшъхьащок
зэшъхьащокӏхэ
зэшъхьащокӏхэр
зэшъхьащык
зэшъхьэщокӏхэ
зэшъхьэщокӏхэр
зэшъхьэщыкӏху
зэшъхьэщыкӏыгъу
зэшъхьэщыкӏыгъуэ
зэшъхьэщыкӏыу
зэщ
зэщхь
зэщхьщ
зэщхьэщагъэкӏ
зэщхьэщок
зэщхьэщокӏ
зэщхьэщокӏхэ
зэщхьэщокӏыр
зэщхьэщыдзауэ
зэщхьэщык
зэщхьэщыкӏыу
зэщымыщ
зэщымыщу
зэщымыщхэм
зэщымыщхэр
зэщымыщщ
зэщӏеубыдэ
зэщӏеубыдэр
зэщӏеубыдэщ
зэщӏиубыдэу
зэщӏэкӏахэм
зэӏохьэри
зэӏуах
зэӏуаха
и
иаковым
иар
ибгъуагъу
ибгъуагъыр
ибгъумкӏэ
ибгъухэм
ибгъэ
иберии
иберэ
ибзэ
ибн
ибрахьим
иван
ивановичым
иваново
иврит
ивуар
ивуарым
игностизм
игор
игр
игу
игугъ
игугъа
игугъу
игугъэ
игъу
игъуапэхэр
игъувэн
игъунэгъу
игъунэхэр
игъусу
игъусэу
игъуэтмэ
игъуэту
игъэзэжьа
игъэзэжьын
игъэзэщ
игъэк
игъэлъагъу
игъэлъагъуэр
идакъым
идальго
идар
идархэ
идауэ
иде
идеж
идежь
идежькӏэ
идеи
идеологиэ
иджреи
иджы
иджылэр
иджыпсту
иджыпстукӏэ
иджыпсу
иджыр
иджыре
иджыреи
иджыри
идзащ
идэ
идэжь
идэр
ижъ
ижък
ижърэ
ижъыжь
ижь
ижьыгъурабгъу
ижьыж
ижьыжь
ижьымкӏэ
ижьырабгъу
ижьырабгъумкӏэ
ижьэр
из
изакъу
изакъуэ
изакъуэщ
изаслуженнэ
известных
изд
изиужьыныгъэм
изменение
изы
изэф
ии
иинагъыр
иисус
ик
икарии
ику
икум
икумк
икумрэ
икур
икууагъыр
икухэм
икъалэ
икъежьапӏэр
икъо
икъук
икъукӏэ
икъуэ
икъуэк
икъуэр
икъуэхьап
икъуэхьапӏэ
икъэрал
икъэрур
икіи
икӏагъым
икӏагъымкӏэ
икӏауэ
икӏахэ
икӏи
икӏы
икӏын
икӏыхьагъ
икӏыхьагъыр
икӏэ
икӏэм
икӏэмкӏэ
икӏэмрэ
икӏэр
икӏэхэм
ил
или
иллинои
илъ
илъа
илът
илъу
илъхэм
илъхэр
илъщ
илъытэт
илъэгагъу
илъэгагъыр
илъэгум
илъэс
илъэси
илъэсибл
илъэсии
илъэсиплӏ
илъэсиплӏкӏэ
илъэсиплӏым
илъэсипшъ
илъэсит
илъэситху
илъэситхукӏэ
илъэситӏ
илъэситӏкӏэ
илъэситӏым
илъэсих
илъэсишъэ
илъэсишъэм
илъэсишъэхэм
илъэсищ
илъэсищкӏэ
илъэсищым
илъэсищэ
илъэск
илъэскӏэ
илъэспсом
илъэспщӏыщ
илъэсхэм
илъэсхэр
илъэсым
илъэсыр
илъэсыщ
им
имаго
име
имеется
имени
имею
имеют
имеются
империэ
империэм
империэр
иму
имы
имытхамэ
имыӏу
имыӏэу
имэ
имэр
имэракӏуэхэр
ин
инагъ
инагък
инагъкӏи
инагъкӏэ
инагъым
инагъымк
инагъымкӏэ
инагъымрэ
инагъыр
инагъэкӏэ
инал
иналым
иналыр
ингуш
ингушеи
ингушеим
ингушхэмрэ
ингушхэр
инд
индеи
индео
индеохэм
индж
инджыдж
инджыджышхуэ
инджылы
инджылыбзэ
инджылыбзэк
инджылыбзэкӏэ
инджылыз
инджылызрэ
инджылызхэм
инджылызхэр
инджылызым
инджылызымрэ
инджылызыр
индианэ
индиэ
индиэм
индиэмрэ
индиэр
индиэхэм
индо
индоарии
индоеуропеи
индокитаи
индонезиэ
индонезиэм
индостан
индостаным
индустриал
индустриэм
индыду
индыдэ
индыдэр
индыдэу
индыдэхэм
индыдэхэр
индыдэхэра
индыл
индылрэ
индым
индэ
индэнезиэм
инженерэр
инжыдж
инжыджцӏыкӏу
инжыджцӏыкӏум
инжыджышхуэ
инжыджышхуэм
инкубаторе
инкъым
институт
институтым
инсулт
интеллект
интервики
интернет
интернетымрэ
интерфеи
ину
инуитыбзэ
инфаркт
инфекциэ
информациэ
информациэр
информацию
информация
инфракласс
инхэ
инхэкъым
инхэм
инхэмрэ
инхэр
инхэра
инхэщ
инщ
иныкъуэ
иныкъуэм
иныкъуэр
иныкъуэхэм
иным
иныр
иныу
иныф
иныфӏ
иныфӏу
инэу
инэхъ
инэхъыбу
инэхъыбэм
инэхъыбэр
инюпиакыбзэ
иоган
иоганес
иоганн
иоганна
иоганнес
ионикэ
иорданием
иосиф
иосифым
иосифэр
ип
ипкъ
ипкъхэм
ипкъыр
ипсы
ипсыхъуэм
ипсыхъуэмрэ
ипхъу
ипшъэ
ипшъэеуропэ
ипшъэм
ипшъэмк
ипшъэмкӏэ
ипшъэмрэ
ипшъэр
ипшъээ
ипшэ
ипшэк
ипщъэ
ипщэ
ипщэкӏэ
ипщэм
ипщэмкӏэ
ипэ
ипэджыжьу
ипэдыдэм
ипэк
ипэкіэ
ипэкӏэ
ипэм
ипэмкӏэ
ипэмрэ
ипэмыджыжьу
ипэмыжыжьэу
ипэмыжыжэу
ипэр
ипэу
ипэхэм
ипӏкъым
ипӏэкӏэ
ипӏэм
ирагъасэхэт
ирагъэжьа
ирагъэжьахэ
ирагъэк
ирагъэкӏа
ирагъэкӏахэ
ирагъэкӏуэкӏ
ирагъэкӏуэкӏа
ирагъэкӏуэкӏам
ирагъэкӏуэкӏамкӏэ
ирагъэкӏуэкӏыр
ирагъэкӏуэкӏырт
ирагъэкӏуэкӏыу
ирагъэкӏхэ
ирагъэувэ
ирадэт
ирак
ираку
иракум
иракъ
иракым
иракӏа
иракӏэ
иралъхьа
иран
ираным
ират
ирата
иратауэ
иратащ
ираткъым
иратт
ирату
иратхэт
иратыну
иратыр
иратыфынут
ирах
ираха
ирахун
ирахыр
ирачауэ
ирачэ
ирашъу
ирегъажьэ
иреджэу
ирекӏуэкӏыу
ирелъхьа
ирет
ирехыу
иригъэкӏуэкӏа
иригъэкӏуэкӏт
иригъэкӏуэкӏхэм
иригъэкӏуэкӏын
ирижэ
ирик
ирикъу
ирикъуа
ирикъуауэ
ирикӏу
ирикӏуэ
ирикӏуэт
ирикӏуэу
ирикӏуэфын
ирилъхьар
иримыкъу
ирита
иритауэ
иритт
ириту
ирихьэлӏэу
ирихьэр
иричэхыным
иркутск
ирлэнд
ирлэндым
ироджэ
ирожэ
ирок
ирокъу
ирокӏуэ
ирокӏуэкӏ
ирокӏуэхэ
иропсалъэ
иропсалъэхэ
ис
иса
исабел
исам
исар
исауэ
исахэ
исахэм
исахэр
исащ
искусства
искусствэмкӏэ
ислам
ислъам
ислъамым
ислэнд
ислэндым
испан
испании
испаниэм
испанскии
испанцев
испанцы
исповедуют
исраел
исраелым
исраэл
исраэлым
исслед
исследования
истамбыл
истории
историческии
история
ису
исхэ
исхэм
исхэр
исхэт
исщ
исым
исын
исыну
исыр
исэмырабгъумк
ит
ита
италии
италэ
италэм
итам
итар
итауэ
итащ
итог
итт
иту
итха
итхауэ
итхащ
итху
итхьампэхэр
итхэ
итхэм
итхэн
итхэр
итхэу
итщ
итым
итымэ
итыр
итӏысхьэн
иуан
иубыд
иубыда
иубыдауэ
иубыдахэм
иубыдт
иубыду
иубыдын
иубыдыну
иубыдыным
иубыдыр
иува
иудаизм
иудаизмым
иудеи
иудэдин
иуж
иужк
иужь
иужьк
иужькіэ
иужькӏэ
иужьреи
иужьыреи
иук
иукӏа
иуха
иухам
иуху
иуэрэдыр
ифэк
ифэр
их
ихахэм
ихуэр
ихуэу
ихъумэ
ихъуреягък
ихъуреягъым
ихъуреягъымрэ
ихъуреягъыр
ихын
ихьа
ихьалъагъыр
ихьар
ихьауэ
ихьахэ
ихьащ
ихьт
ихьу
ихьурэ
ихьэ
ихьэн
ихьэну
ихьэпӏэр
ихьэр
иц
ицыр
ицӏу
ицӏэ
ицӏэкӏэ
ицӏэм
ицӏэр
ицӏэри
ицӏэу
иш
ишапсыгъэбзэ
ишта
иштат
ишххэр
ишхъэрэ
ишхъэрэк
ишхъэрэу
ишхын
ишхыр
ишъа
ишъар
ишъат
ишъауэ
ишъкъым
ишъри
ишът
ишъу
ишъхърэ
ишъхъэрэ
ишъхъэрэм
ишъхъэрэмк
ишъхъэрэмкӏэ
ишъхъэрэмрэ
ишъхьа
ишъхьак
ишъхьам
ишъхьамк
ишъхьамкӏэ
ишъхьар
ишъхьэ
ишъхьэрэ
ишъын
ишъыну
ишъыным
ишъэ
ишыхэр
ищ
ищауэ
ищащ
ищхъэрэ
ищхъэрэкӏэ
ищхъэрэм
ищхъэрэмкӏэ
ищхьэ
ищхьэк
ищхьэмк
ищхьэмкӏэ
ищхьэрэ
ищӏа
ищӏагъ
ищӏагъымкӏэ
ищӏар
ищӏкъым
иэ
июлым
июль
июным
июнь
июня
ияпэреи
иӏа
иӏат
иӏу
иӏыгъ
иӏыгъу
иӏыгъщ
иӏэ
иӏэкъым
иӏэм
иӏэмкӏэ
иӏэн
иӏэну
иӏэным
иӏэр
иӏэт
иӏэтэкъым
иӏэу
иӏэуэ
иӏэхэм
иӏэхэр
иӏэщ
к
ка
кабард
кабардино
кабардинскои
кабарды
кабо
кабу
кавказ
кавказа
кавказскии
кавказым
кадис
казбек
казиранга
казки
каи
каир
как
какие
кактусовои
кал
калач
калдерон
кале
каледониэ
календарым
календарь
калидаса
калимантан
калининград
калифорниэ
калкутта
кало
калуга
калугэ
калык
калым
калып
кама
камбоджэ
камелиэ
камерун
камеруным
кампании
кампания
камчаткэ
камчатскэ
камэ
камэм
камэр
канад
канада
канадам
канадэ
канадэм
каналов
каналым
канар
канархэм
кандидат
канзас
канпур
кап
капа
капитан
капитаныр
капитулациэ
карабах
карачи
карелиэ
карелиэм
кариб
карибэ
карл
карлос
каролинэ
карск
карт
картли
картография
картым
картэ
карэ
каспии
каспиим
кастиджэ
кастиджэм
кастиджэрэ
кастии
каталина
каталог
каталониэ
каталониэм
категори
категорие
категории
категориэ
категориэм
категория
категорија
категорія
католик
католикхэ
католицизма
католическои
каттегат
катуным
катэгорыя
каукъазым
каучук
кафедральныи
кафка
кафказ
кацусика
кашмир
кбр
кг
кеи
келт
кем
кемеровэ
кениэ
кениэм
кентукки
кератинрэ
керч
ки
киеу
килиманджаро
километр
километрэ
километрэк
километрэу
килэметрэ
кинг
кинематографиэ
кино
кинокомпаниэ
кином
киномрэ
кинопоиск
кинор
кинохэм
кинохэр
киншасэ
кип
кипр
кипыр
кирибати
кирилл
киров
киселе
китаи
китаим
китсрэ
кл
кланг
клангым
клангыпсым
класс
классикэ
классификациэ
классификациэм
классификациэмрэ
классификациэр
классического
классхэкӏ
классхэм
классым
клеткэ
климат
климатыр
климэт
климэтыр
клипүүдии
клице
клътх
км
кнившелодден
книга
коалициэм
коблэ
ковскии
когда
козлов
кои
кокос
количества
количество
коллеги
коллекционэ
колониального
колонии
колонистхэм
колониу
колониэ
колониэхэм
колониэхэр
колония
колорадо
колорадэ
колумб
колумбии
колумбиэ
колумбиэм
командиру
комеди
коми
комиссием
комитет
коммунист
комор
коморэ
компаниэ
компаниэм
компостела
компутэр
компутэрымрэ
комунист
конго
конголез
конголезыбзэхэм
конгресс
конгэ
конечно
конкистадорым
конкурсе
конкурсы
коннектикут
консонантная
константин
конституции
конституциэ
конституциэм
конституциэмкӏэ
конституциэр
контент
континент
континентал
континенталу
континенту
континентхэм
континентхэмрэ
континентым
континентыр
континентышху
континет
контр
контракт
конфуции
конце
координатхэр
коралл
корбета
корбин
корбузие
кордова
кордэхэр
кореи
коренных
коро
кортес
кортеса
кортесым
кортесымрэ
кортесыр
космос
косово
косовэ
косрэ
косталаго
кострома
костэ
кот
которая
которого
которое
котором
которые
которыи
которых
кошим
кр
краи
краим
красногвардеи
краснодар
красноярск
края
крест
кризис
кризисым
кристофер
крит
кро
кроме
кроу
кроухэм
кроухэр
кругосвет
крупнеи
крус
кто
ку
куапэм
куаутемок
куба
кубам
кубка
кубок
кубэ
кубэм
кувеи
куебек
куеи
куеим
куи
куилӏауак
куинслэнд
кук
кулиев
културэ
културэм
культа
культур
культуры
культурэ
кум
кумарагупта
кумб
кумкӏэ
кумкӏэр
кумрэ
купсэу
куракущхэр
курджеи
курджы
курджым
курджымрэ
курджыхэр
курил
курпым
курск
курсым
курыкупсым
курыт
курыту
курытхэм
курытхэр
курытхэщ
курытщ
курытыгъу
курытым
курытымрэ
курытыр
кус
кусэ
кусэу
кусэхэм
кусэхэр
куу
кууагъ
кууагъхэр
кууагъым
кууагъыр
кууалэ
куууэ
кууэ
кушмашын
куэ
куэд
куэди
куэдк
куэдкӏэ
куэдми
куэдрэ
куэду
куэдхэм
куэдхэр
куэдым
куэдыр
куэдыу
куэи
куэм
куэншыб
куэп
куэста
куэч
куэчу
куэчын
кфар
кхъ
кхъуакӏэ
кхъуафэ
кхъуеи
кхъужь
кхъужьеи
кхъухь
кхъухьхэм
кхъухьхэмкӏэ
кхъухьхэр
кхъухьыдзэр
кхъухьым
кхъухьыр
кхъухьышхуэхэр
кхъуэ
кхъуэи
кхъуэхэр
кхъуэщын
къ
къа
къабардеа
къабзии
къабзу
къабзэ
къабзэм
къабзэр
къабзэу
къабзэщ
къагуокӏ
къагупсысакъым
къагуэкӏыу
къагъанэ
къагъуэта
къагъуэтыр
къагъэкӏ
къагъэкӏыр
къагъэкӏыу
къагъэлъагъуэ
къагъэлъагъуэр
къагъэлъагъуэу
къагъэлъагъуэщ
къагъэна
къагъэнауэ
къагъэсэбэп
къагъэсэбэпкъым
къагъэсэбэпт
къагъэсэбэпу
къагъэсэбэпын
къагъэсэбэпыр
къагъэхъу
къагъэхъуауэ
къагъэшъхьэпэ
къагъэшъхьэпэр
къагъэщ
къагъэщхьэпэ
къагъэщхьэпэн
къагъэщхьэпэхэтэр
къагъэщхьэпэщ
къадыр
къадэӏэпыкъуну
къажыкъхэр
къажьыкъ
къажэр
къажэреи
къажэрхэм
къажэрхэмрэ
къажэрым
къажэрымрэ
къаз
къазахъ
къазахъстэн
къазахъстэным
къазахъстэныр
къазии
къазкъуэлэнхэр
къазфӏыцӏащхъуэ
къазхужь
къазхэм
къазхэр
къазым
къаи
къак
къакӏуэхэм
къакӏыхьэ
къакӏэрех
къакӏэц
къакӏэцӏ
къакӏэцӏыр
къалащхьэ
къалащхьэр
къалмыкъ
къалу
къалъхуагъак
къалъхуахэр
къалъыта
къалъытауэ
къалъытащ
къалъыту
къалъытэ
къалъытэкъым
къалъытэн
къалъытэр
къалъытэри
къалъытэт
къалъытэтэр
къалъытэу
къалъытэхэр
къалыкъу
къалэ
къалэк
къалэкӏыхь
къалэм
къалэмэ
къалэнэхъышъхьэ
къалэнэхъышъхьэр
къалэпцӏащхъуэ
къалэр
къалэри
къалэхэм
къалэхэмрэ
къалэхэр
къалэхэу
къалэцӏыкӏу
къалэшхуэ
къалэшхуэхэм
къалэщ
къамболэт
къамбот
къамыл
къамылъыта
къамылылъэ
къанжэм
къанокъуэ
къану
къанэ
къанэмыщӏа
къанэмыщӏауэ
къанэр
къапедзэ
къаплъэн
къапсэлъ
къапсэлъыу
къапштэмэ
къапщтэмэ
къапщӏии
къаргъеи
къардэн
къардэнгъущӏ
къардэнгъущӏым
къардэнгъущӏыр
къарс
къарэ
къатар
къатек
къатекӏауэ
къауказым
къаукъаз
къаукъазми
къаукъазри
къаукъазщӏыбагъым
къаукъазщӏыбым
къаукъазыкум
къаукъазым
къаукъазымрэ
къаукъазыпэ
къаукъазыр
къаукъазышхуэм
къаущэкӏу
къауъказ
къауъказым
къафэ
къахокӏ
къахокӏыр
къахохьэемынэм
къахуихьэкъым
къахэк
къахэкӏа
къахэкӏауэ
къахэкӏаху
къахэкӏт
къахэкӏыр
къахэкӏыу
къац
къашта
къашъэ
къашыргъэ
къашыргъэхэр
къашэч
къащ
къащхъуафэ
къащхъуафэщ
къащхъуэ
къащхъуэщ
къащхьэщок
къащхэр
къащӏоуэ
къащӏэуэу
къаӏоху
къаӏохуа
къаӏохур
къаӏэта
къбасср
къбр
къе
къебжэкӏа
къегъанэ
къегъанэр
къегъэлъагъуэ
къегъэсэбэп
къегъэщхьэпэ
къегъэӏу
къедзыгъуэ
къедзыгъуэм
къедзыгъуэмрэ
къедзыгъуэхэм
къедзыгъуэхэр
къедзыгъуэхэра
къежьап
къеи
къек
къекӏуэкӏ
къекӏуэкӏыу
къелауэ
къелъытэ
къетыкъуэ
къеубыд
къеухыр
къеху
къехъу
къехъулӏащ
къехъух
къехыр
къештэ
къешху
къешэч
къеӏохур
къи
къигъану
къигъэзэжащ
къигъэлъагъуэу
къигъэна
къигъэнауэ
къигъэсэбэп
къигъэсэбэпу
къигъэщ
къидыхьауэ
къизышыр
къик
къикӏа
къикӏауэ
къикӏаху
къикӏыр
къикӏырэр
къикӏыу
къикӏыхэкӏ
къикӏыхэкӏхэр
къикӏэцӏыр
къилъхуащ
къилъытэн
къимыгъану
къинэмыщ
къинэмыщӏа
къинэмыщӏауэ
къит
къиуа
къиуахэм
къиугъуэр
къиуха
къиухащ
къихауэ
къихьа
къихьэгъуэ
къихьэу
къича
къишта
къишыгъуэ
къишэчыр
къищынэмыщ
къо
къобан
къобэкӏ
къодор
къожьэ
къок
къокӏ
къокӏуэкӏ
къокӏхэ
къокӏыр
къолъатэ
къолъэтэж
къом
къонэ
къопщ
къохъу
къохъур
къохъухэ
къохъухэр
къохыр
къохьа
къохьари
къохьэ
къош
къоӏохур
кърал
къратащ
къраш
къреш
къру
къруукъуэ
къруфӏыцӏэ
кърухугу
кърухужь
кърухэр
кърым
кърымым
къу
къуагъ
къуаджэ
къуаджэм
къуаджэр
къуаджэу
къуаджэхэм
къуажэ
къуажэм
къуажэр
къуажэу
къуажэхэм
къуажэхэр
къуажэщ
къуакъазым
къуалъэбзу
къуалэбзу
къуалэбзум
къуалэбзур
къуалэбзухэм
къуалэбзухэр
къуалэбзущ
къуаншэу
къуанщӏэ
къуанщӏэхэм
къуапит
къуапэ
къуапэм
къуапэмрэ
къуапэр
къуапэращ
къуапэхэр
къуаргъ
къуаргъкъащхъуэ
къуаргъкъащхъуэхэр
къуаргъэкъащхъуэ
къуаф
къуафц
къуафцӏу
къуафцӏэ
къуафӏцӏу
къуафӏцӏэ
къубэ
къудаму
къудамэ
къудамэм
къудамэр
къудамэрэ
къудамэхэм
къудамэхэмрэ
къудамэхэр
къудеи
къуенару
къулеягъыр
къулъкъужын
къулыкъу
къулыкъур
къум
къумбалеи
къумукъухэр
къумхэм
къумшъхьу
къумшъхьэ
къумшъхьэм
къумшъхьэри
къумшъхьэхэм
къумшъхьэхэр
къундетрэ
къур
къурмакъеи
къурмэн
къурш
къуршпцӏащхъуэ
къуршхэм
къуршыпс
къутыр
къухьапӏэ
къухьэп
къухьэпӏэ
къухьэпӏэм
къухьэпӏэмкӏэ
къушъхьа
къушъхьаф
къушъхьахэм
къушъхьахэр
къушъхьу
къушъхьэ
къушъхьэхъу
къушъхьэхэм
къущхьэ
къущхьэджэдхэр
къущхьэкъаз
къущхьэм
къущхьэмышхеи
къущхьэфӏыцӏэ
къущхьэхъу
къущхьэхъум
къущхьэхэм
къущхьэхэр
къуэ
къуэгъэнап
къуэдеи
къуэдем
къуэдер
къуэдеракъым
къуэдеуэ
къуэдзитӏу
къуэдзу
къуэдзэ
къуэдзэм
къуэдзэр
къуэдзэхэм
къуэдзэхэмрэ
къуэдзэхэр
къуэдзэщ
къуэжьыкъуеи
къуэк
къуэкӏыпӏэ
къуэкӏыпӏэм
къуэкӏыпӏэмкӏэ
къуэкӏыпӏэмрэ
къуэкӏыпӏэр
къуэкӏэ
къуэкӏэбгыкӏэ
къуэладжэ
къуэладжэм
къуэладжэр
къуэлеи
къуэлеуэ
къуэлэн
къуэлэну
къуэлэнхэм
къуэлэнхэр
къуэлэнщ
къуэлэныфу
къуэм
къуэмрэ
къуэпсыр
къуэр
къуэрылъху
къуэуэ
къуэхьап
къуэхьапэ
къуэхьапӏэ
къуэхьапӏэм
къуэхьапӏэмрэ
къуэхьэ
къуэхьэп
къуэхьэпӏэ
къуэхьэпӏэм
къуэхьэпӏэмкӏэ
къуэхьэпӏэмрэ
къуэхэм
къуэхэр
къуэш
къуэшхэмрэ
къхэм
къхэр
къц
къы
къыбгъэдэлъ
къыбгъэдэт
къыгуэгъэщхьэхук
къыгъуэта
къыгъэна
къыд
къыдагъэк
къыдагъэкӏ
къыдагъэкӏа
къыдегъэкӏ
къыдегъэкӏыр
къыдедз
къыдигъэкӏа
къыдокӏ
къыдэк
къызбэч
къызбэчым
къыздагъэшъхьэпэр
къыздежьар
къыздикӏар
къыздык
къыздынэсым
къыздэкӏ
къыздэкӏхэр
къыздэкӏыр
къыздэнар
къыздэс
къыздэсым
къыздэхъуар
къызтекӏар
къызхэк
къызхэкӏа
къызхэкӏам
къызхэкӏамрэ
къызхэкӏар
къызхэкӏахэр
къызхэкӏыр
къызхэха
къызхэхар
къызылбэч
къызыхах
къызыхэк
къызыхэкӏар
къызыхэкӏыр
къызэ
къызэбэкӏ
къызэдыраш
къызэрагъэсэбэп
къызэрагъэсэбэпым
къызэрагъэсэбэпыр
къызэрагъэунэхуа
къызэрагъэшъхьэпэр
къызэралъхурэ
къызэралъытэмкӏэ
къызэралъытэр
къызэрапшхэр
къызэраӏуатэмкӏэ
къызэргъасэбэп
къызэргъасэбэпыр
къызэри
къызэрибжамк
къызэрилъытэмк
къызэриӏохуамкӏэ
къызэриӏохумкӏэ
къызэриӏуатэмкӏэ
къызэрхуэк
къызэрхэкӏымкӏэ
къызэрхэкӏыр
къызэрыбгъэсэбэп
къызэрыкӏуэ
къызэрыкӏуэу
къызэрыкӏуэщ
къызэрыхъуар
къызэрыхъур
къызэрыхэкӏымкӏэ
къызэщӏеубыдэ
къыи
къык
къыкъуэкӏмэ
къыкӏэкӏа
къыкӏэкӏар
къыкӏэкӏын
къыкӏэлъыкӏуэ
къыкӏэмыщу
къыкӏэхынымрэ
къылъос
къылъхур
къым
къымрэ
къымцӏэ
къынос
къынэсар
къынэсахэм
къынэсахэр
къынэсу
къыпедзэ
къыпэщылъ
къыр
къырагъэк
къырадыхьт
къырат
къыраш
къыргъызстэн
къыреш
къырхэм
къытек
къытекӏа
къытекӏауэ
къытена
къытехъук
къытехьам
къытокӏэ
къытонэ
къытохьэ
къыу
къыупщэфӏыцӏэ
къыуфӏыцӏэ
къыухэр
къыфцӏэ
къыхагъэк
къыхагъэкӏ
къыхагъэкӏхэр
къыхагъэкӏыр
къыхаутыгъэм
къыхах
къыхахат
къыхахт
къыхаху
къыхахурэ
къыхахыжу
къыхахыр
къыхашъык
къыхашъыкӏыр
къыхащӏыкӏ
къыхех
къыхигъэкӏыу
къыхих
къыхиха
къыхож
къыхожщ
къыхок
къыхокӏ
къыхокӏри
къыхокӏхэ
къыхокӏхэр
къыхокӏыр
къыхохьэ
къыхощ
къыхощыж
къыхуагъэфэщащ
къыхуилъхуа
къыхуэдгъэнэжащ
къыхъуреи
къыхыхьащ
къыхьа
къыхэгъэк
къыхэгъэщащ
къыхэгъэщхьэхук
къыхэж
къыхэжу
къыхэжыпӏэм
къыхэжыпӏэр
къыхэжыр
къыхэк
къыхэкӏ
къыхэкӏа
къыхэкӏакъым
къыхэкӏар
къыхэкӏауэ
къыхэкӏащ
къыхэкӏкӏэ
къыхэкӏху
къыхэкӏынкӏи
къыхэкӏыпӏэм
къыхэкӏыпӏэр
къыхэкӏыр
къыхэкӏыу
къыхэкӏыуи
къыхэкӏыурэ
къыхэмыкӏыу
къыхэмыщу
къыхэна
къыхэха
къыхэхауэ
къыхэхьа
къыхэшъыкӏа
къыхэшъыкӏауэ
къыхэщ
къыхэщу
къыхэщӏыкӏа
къыхэщӏыкӏауэ
къышта
къыштауэ
къышъхьэпу
къышъхьэпэгъуэ
къыщ
къыщагъуэта
къыщагъуэтащ
къыщагъэкӏ
къыщагъэсэбэп
къыщагъэщхьэпэ
къыщак
къыщалъхуа
къыщалъхуар
къыщалъхуащ
къыщегъэжьауэ
къыщегъэлъагъуэ
къыщежьа
къыщек
къыщик
къыщишъэм
къыщокӏ
къыщокӏхэ
къыщокӏхэр
къыщокӏыр
къыщхьэщок
къыщхьэщокӏ
къыщхьэщытщ
къыщыгъэлъэгъуащ
къыщыдагъэкӏар
къыщыдэк
къыщык
къыщыкӏ
къыщыкӏхэм
къыщыкӏыу
къыщыкӏэдзауэ
къыщылъатэр
къыщымынауэ
къыщыппсэлък
къыщыхъу
къыщыхъуа
къыщыхъуам
къыщыхъуар
къыщыхъуахэр
къыщыхъур
къыщыщ
къыщыщӏэдзауэ
къыщӏедзэр
къыщӏедзэщ
къыщӏож
къыщӏоуэ
къыщӏэкӏынщ
къыщӏэуэу
къыщӏэхыпӏэхэм
къэ
къэб
къэбгъэсэбэп
къэбгъэсэбэпыну
къэбжын
къэбжэк
къэбжэкӏахэм
къэблэгъуэ
къэбцӏацӏэ
къэбцӏацӏэжьеи
къэбцӏацӏэжьэгъуху
къэбцӏацӏэхэр
къэбцӏацӏэцӏыкӏу
къэбэдеи
къэбэкъауэ
къэбэкъауэхэм
къэбэрдеи
къэбэрдеибзэ
къэбэрдеибзэкӏэ
къэбэрдеибзэм
къэбэрдеибзэмкӏэ
къэбэрдеишхуэм
къэбэртэе
къэгъанэри
къэгъэсэбэпыгъуэр
къэгъэсэбэпын
къэгъэсэбэпыным
къэгъэунэхуа
къэгъэунэхуауэ
къэгъэщхьэпэгъуэр
къэда
къэжэр
къэжэрым
къэзакъ
къэзакъу
къэзакъхэм
къэзакъхэмрэ
къэзанхэр
къэзбэч
къэзыгъэлъагъуэ
къэзылъыту
къэзыхьар
къэзышэч
къэзэнокъуэ
къэк
къэкӏ
къэкӏкъым
къэкӏуа
къэкӏхэм
къэкӏхэр
къэкӏыгъи
къэкӏыгъуэм
къэкӏыгъэ
къэкӏыгъэм
къэкӏыгъэр
къэкӏыгъэхэм
къэкӏыгъэхэми
къэкӏыгъэхэмрэ
къэкӏыгъэхэр
къэкӏыгъэхэри
къэкӏыгъэцӏэхэр
къэкӏыгъэщ
къэкӏэгъ
къэлащхьэ
къэлъагъугъуеи
къэлъху
къэлъытэ
къэлъытэгъу
къэлъытэгъуэ
къэлъытэгъуэкӏэ
къэлъытэгъуэм
къэлъытэгъуэр
къэлъытэр
къэлэ
къэлэлэху
къэм
къэмыкӏ
къэмыну
къэмыпщӏауэ
къэмыс
къэмыхъуами
къэна
къэнагъ
къэнакъ
къэнар
къэнауэ
къэнахэр
къэнащ
къэнэжа
къэнэжьа
къэнэжьакъым
къэнэжьар
къэнэжьахэр
къэнэфыну
къэплъауэ
къэплъытэ
къэпсэлъык
къэпсэлъын
къэпт
къэр
къэрабзу
къэрабзэ
къэрал
къэрали
къэралит
къэралитӏым
къэралми
къэралпсом
къэралу
къэралхэм
къэралхэми
къэралхэмк
къэралхэмрэ
къэралхэр
къэралъыгъуэ
къэралыгъо
къэралыгъом
къэралыгъуэ
къэралыгъуэм
къэралыгъуэр
къэралыгъуэрэ
къэралыгъуэхэм
къэралыгъуэхэр
къэралыкум
къэралым
къэралыми
къэралымрэ
къэралыр
къэралышхуэ
къэралышхуэхэм
къэргъеи
къэрмэфибл
къэру
къэрукӏэ
къэрур
къэрууншэ
къэрууф
къэрууфӏу
къэрууэ
къэрэчеи
къэрэшеи
къэс
къэса
къэсащ
къэси
къэсыгъуэм
къэсым
къэт
къэтыжъ
къэуа
къэукъаз
къэукъазым
къэунэхуауэ
къэухъуреихьа
къэху
къэхугъэ
къэхутакіуэ
къэхутэныгъэхэр
къэхъея
къэхъу
къэхъуа
къэхъуар
къэхъуащ
къэхъугъэ
къэхъугъэр
къэхъугъэхэм
къэхъугъэхэр
къэхъук
къэхъулӏэм
къэхъун
къэхъут
къэхь
къэхьа
къэхьэуэ
къэштэ
къэщтэжыгъуаф
къэщӏэгъуафӏэщ
къэщӏэгъуеи
къэӏохугъуэ
къэӏохугъуэр
къэӏохугъуэхэр
къэӏуэтэгъуэ
къэӏуэхугъуэ
кышкар
кь
кэ
кэлэмеи
кэралым
кэриб
кюрасауэ
кіыщокъуэ
кіыщокъуэм
кіыщокъуэр
кӏ
кӏагуэ
кӏагуэхэщ
кӏагуэщ
кӏагъ
кӏагъхэм
кӏагъым
кӏагъымкӏэ
кӏадза
кӏадзахэ
кӏадзэ
кӏадзэт
кӏадэр
кӏакӏуэ
кӏакӏуэмрэ
кӏакӏуэхэм
кӏалэ
кӏалэр
кӏалэхэр
кӏапэ
кӏапэм
кӏапэмрэ
кӏапэншэхэр
кӏапэр
кӏапэхэм
кӏасу
кӏасэ
кӏасэу
кӏатхэ
кӏах
кӏахыбзэ
кӏахыбзэмкӏэ
кӏахыбзэмэ
кӏахыбзэхэмкӏэ
кӏахэ
кӏахэм
кӏащхьэм
кӏащхьэмрэ
кӏащхьэр
кӏедзэ
кӏедзэри
кӏелъафэ
кӏетхэ
кӏидза
кӏидзу
кӏидзурэ
кӏихъума
кӏохьэ
кӏуа
кӏуалэ
кӏуам
кӏуахэ
кӏукӏумяу
кӏукӏумяухэр
кӏуэ
кӏуэда
кӏуэдахэ
кӏуэдащ
кӏуэдхэр
кӏуэдын
кӏуэкӏуэ
кӏуэр
кӏуэуэ
кӏуэху
кӏуэцӏ
кӏуэцӏым
кӏуэцӏыр
кӏы
кӏыбагъум
кӏыбагъым
кӏыбым
кӏыбымкӏэ
кӏыбымрэ
кӏыгуугу
кӏыгуугухэр
кӏыкъыр
кӏыкъырхэр
кӏым
кӏынфӏу
кӏынфӏым
кӏыр
кӏырхэм
кӏырыкъ
кӏырыкъхэр
кӏыфэ
кӏыфэм
кӏыфэр
кӏыхь
кӏыхьагъкӏэ
кӏыхьагъщ
кӏыхьагъымкӏэ
кӏыхьагъыр
кӏыхьу
кӏыхьхэм
кӏыхьхэр
кӏыхьхэу
кӏыхьхэщ
кӏыхьщ
кӏыхьым
кӏыхьыр
кӏыхьэгъ
кӏыхьэгъкӏэ
кӏыхьэгъым
кӏыхьэгъымкӏэ
кӏыхьэгъыр
кӏышъэ
кӏь
кӏэ
кӏэбдз
кӏэбдзитӏыр
кӏэдзауэ
кӏэдзэгъуэм
кӏэкъинэр
кӏэкӏ
кӏэкӏыу
кӏэлъ
кӏэлъкъым
кӏэм
кӏэмгуе
кӏэмгуебзэ
кӏэмгуемэ
кӏэмгуэи
кӏэмкӏэ
кӏэмрэ
кӏэмыгуеи
кӏэмыгуи
кӏэмыгуябзэ
кӏэмыгуябзэкӏэ
кӏэмыгуябзэр
кӏэмыргуеи
кӏэпкъ
кӏэпкъымрэ
кӏэпхъпащӏэ
кӏэр
кӏэреи
кӏэртӏоф
кӏэс
кӏэт
кӏэта
кӏэту
кӏэтыр
кӏэтӏии
кӏэупшӏэгъуэ
кӏэуэ
кӏэх
кӏэху
кӏэхьа
кӏэхэм
кӏэхэр
кӏэцӏыгъуэ
кӏэцӏыгъуэм
кӏэцӏын
кӏэщӏ
кӏэщӏу
кӏэщӏхэщ
кӏэщӏщ
кӏэщӏыу
л
ла
лабрадор
лабрадоррэ
лабэ
лабэжъ
лабэжъым
лабэжьыи
лабэшхуэм
лагос
лагунэ
лагунэм
лагунэр
лагунэу
лагунэхэр
лажьэ
лажьэр
лажьэу
ланкам
ланкэ
лаос
лаосым
лаптев
лаптхэ
ларсен
лас
лат
латвиэ
латвиэм
латин
латинскои
латиныбзэ
латиныбзэк
латиныбзэр
латиным
лахь
лациэм
лашэ
ле
лев
лезгинхэр
леи
ленин
ленинград
леон
леонардо
леоне
леонид
леонрэ
леонымрэ
лер
лесотэ
лет
летию
летнеи
летнии
леуэ
лзо
ли
либерал
либериэ
ливан
ливанымрэ
ливиэ
лигии
лигурии
ликорхэмрэ
линколн
линкыхэр
линнеи
липецк
литература
литературы
литературэ
литоу
литрэ
литэсферэ
лиуан
лиусиэ
лихтэнштеи
лишь
ловскэр
логотип
лои
лонг
лондон
лондоным
лорэ
лос
лох
луго
лудвиг
луи
луизианэ
луис
лука
луксембург
луксембургым
лумпур
лумпурым
лумпурыр
лусон
лутер
лучше
лхэр
лъ
лъабжъэ
лъабжъэк
лъабжъэм
лъабжъэр
лъабжъэхэм
лъабжъэхэр
лъабжьэ
лъабжьэжь
лъабжьэм
лъабжьэр
лъабжьэхэм
лъагагъыр
лъагапӏэ
лъагу
лъагъуныгъэ
лъагъуэ
лъагэ
лъагэр
лъагэу
лъагэхэм
лъагэхэр
лъагэщ
лъакъу
лъакъуапцӏэплъыфэхэр
лъакъуэ
лъакъуэлъэш
лъакъуэлъэшхэм
лъакъуэм
лъакъуэр
лъакъуэф
лъакъуэху
лъакъуэхэм
лъакъуэхэмрэ
лъакъуэхэр
лъакъуэц
лъандэрэ
лъап
лъапкъыгъуэк
лъапсэу
лъапшъэм
лъапшъэмрэ
лъапэ
лъапэм
лъапэмкӏэ
лъапэхэм
лъапэхэр
лъапӏэ
лъатэ
лъахъчу
лъахъчэ
лъахъшэ
лъахъшэу
лъахэм
лъашӏэм
лъащӏэ
лъащӏэр
лъеи
лъер
лъз
лъп
лъхукъуэл
лъхукъуэлъхэм
лъхукъуэлӏ
лъхукъуэлӏхэм
лъхукъуэлӏхэмрэ
лъхукъуэлӏхэр
лъы
лъыгъажэ
лъыптэу
лъыпцӏэ
лъыр
лъырыжэ
лъытыгъу
лъытыгъуэ
лъытэ
лъыхъуак
лъыхъуэу
лъэ
лъэбакъуэ
лъэбакъуэхъу
лъэбжъанэхэр
лъэбжьанэ
лъэбжьанэхэр
лъэгагъ
лъэгагъкӏэ
лъэгагъу
лъэгагъым
лъэгагъыр
лъэгагъэр
лъэгап
лъэгапӏэ
лъэгапӏэм
лъэгапӏэхэм
лъэгапӏэхэр
лъэгу
лъэгуажьэ
лъэгуанджэ
лъэгуанджэм
лъэгуанджэр
лъэгуанджэхэр
лъэгудыгъуэр
лъэгум
лъэгур
лъэгухэм
лъэгухэмрэ
лъэгъукӏыу
лъэгъукӏэ
лъэгъукӏэр
лъэдакъэмрэ
лъэдии
лъэжьыгъэ
лъэжьыгъэм
лъэжьыгъэр
лъэжьыгъэхэм
лъэжьыгъэхэмрэ
лъэжьыгъэхэр
лъэкъуац
лъэкъуитӏыр
лъэкъуищ
лъэм
лъэмыдж
лъэныкъу
лъэныкъуит
лъэныкъуитӏымкӏи
лъэныкъуитӏымкӏэ
лъэныкъуищ
лъэныкъуищу
лъэныкъуэ
лъэныкъуэгъу
лъэныкъуэгъуэм
лъэныкъуэк
лъэныкъуэкӏэ
лъэныкъуэм
лъэныкъуэмк
лъэныкъуэмкӏи
лъэныкъуэмкӏэ
лъэныкъуэмрэ
лъэныкъуэр
лъэныкъуэра
лъэныкъуэращ
лъэныкъуэу
лъэныкъуэхэм
лъэныкъуэхэмкӏэ
лъэныкъуэхэмрэ
лъэныкъуэхэр
лъэныкъуэщ
лъэп
лъэпкъ
лъэпкъитӏ
лъэпкъих
лъэпкък
лъэпкъкӏэ
лъэпкъми
лъэпкъмэ
лъэпкъу
лъэпкъхэм
лъэпкъхэми
лъэпкъхэмрэ
лъэпкъхэр
лъэпкъхэра
лъэпкъхэри
лъэпкъц
лъэпкъщ
лъэпкъыгъу
лъэпкъыгъуитӏ
лъэпкъыгъуэ
лъэпкъыгъуэм
лъэпкъыгъуэр
лъэпкъыгъуэхэм
лъэпкъыгъуэхэмрэ
лъэпкъыгъуэхэр
лъэпкъыгъуэщ
лъэпкъыжьхэм
лъэпкъым
лъэпкъымрэ
лъэпкъыр
лъэпкъэгъу
лъэпкъэгъум
лъэпкъэгъур
лъэпкъэгъухэм
лъэпкъэгъухэми
лъэпкъэгъухэр
лъэпкъэгъущ
лъэпкъэм
лъэпхъуамбэ
лъэпхъуамбэхэр
лъэпшъ
лъэпщыкъуэ
лъэпӏкъ
лъэпӏкъхэм
лъэпӏкъхэр
лъэпӏкъым
лъэс
лъэсу
лъэсыдзэ
лъэтауэ
лъэтэжкъым
лъэтэжхэкъым
лъэтэжын
лъэтэн
лъэтэным
лъэтэф
лъэужырыт
лъэужьыгъуэ
лъэхъстэн
лъэхъу
лъэхъуамбэ
лъэхъуамбэм
лъэхъуамбэхэр
лъэхъум
лъэхъэнэ
лъэхъэнэм
лъэхъэнэр
лъэхъэнэхэм
лъэхъэнэхэр
лъэхъэнэщ
лъэхьэнцэ
лъэхэмрэ
лъэхэри
лъэш
лъэшу
лъэшхэм
лъэшыгъуэ
лъэшыгъуэр
лъэшыгъэр
лъэщ
лъэщу
лъэщхэщ
лъэщщ
лъэӏуэгъуэ
лъэӏуэгъуэкӏэ
лъэӏэгъу
лы
лыд
лыду
лыдщ
лым
лымпӏурыр
лыпцӏэ
лыпцӏэхэр
лыр
лыуэ
лышх
лэдэх
лэжьа
лэжьак
лэжьакӏуэ
лэжьакӏуэхэм
лэжьакӏуэхэр
лэжьащ
лэжьыгъу
лэжьыгъэ
лэжьыгъэм
лэжьыгъэмрэ
лэжьыгъэр
лэжьыгъэхэм
лэжьыгъэхэмрэ
лэжьыгъэхэр
лэжьэн
лэжьэну
лэжьэнымрэ
лэктыгъакӏэ
лэнд
лэндым
лэндыр
лэныкъуэм
лэныкъуэмкӏэ
лэпкъщ
лэрыпс
лэрыпск
лэск
лэскэн
лэтин
лэч
лэчтхыгъакӏэ
лэчтхыгъакӏэхэр
лэчтхыгъэ
лэчтхыгъэм
лэчтхыгъэхэм
лэчтхыгъэхэр
лэчтыгъакӏэ
лэш
люди
ліэщіыгъуэ
лӏ
лӏа
лӏакъуэ
лӏакъуэхэу
лӏапӏэр
лӏаскал
лӏатоани
лӏыкӏоу
лӏыхъужъыгъэ
лӏыщӏыгъуэм
лӏэужъыгъу
лӏэужъыгъуэ
лӏэужъыгъуэм
лӏэужъыгъуэхэм
лӏэужъыгъуэхэр
лӏэужъыгъэ
лӏэужъыгъэхэм
лӏэужъыгъэхэр
лӏэужьыгъу
лӏэужьыгъуи
лӏэужьыгъуибл
лӏэужьыгъуии
лӏэужьыгъуитху
лӏэужьыгъуитӏ
лӏэужьыгъуитӏу
лӏэужьыгъуих
лӏэужьыгъуищ
лӏэужьыгъуэ
лӏэужьыгъуэм
лӏэужьыгъуэр
лӏэужьыгъуэу
лӏэужьыгъуэхэм
лӏэужьыгъуэхэмрэ
лӏэужьыгъуэхэр
лӏэужьыгъуэхэращ
лӏэужьыгъуэхэри
лӏэужьыгъуэщ
лӏэшъыгъуэ
лӏэщӏыгъуэ
лӏэщӏыгъуэм
лӏэщӏыгъуэхэм
м
маврикии
мавританиэ
мавританиэм
магадан
магатхэм
магеллан
магерои
мадагаскар
мадеи
мадинэ
мадонна
мадрид
мадридым
мадридыр
мажьэр
мажэр
мазае
мазаем
мазэ
мазэгъуэ
мазэк
мазэм
мазэр
мазэрэ
мазэу
мазэхэм
мазэхэр
мазэц
мазэщ
маи
мак
макауэ
македониэ
македониэм
македониэр
маккензи
макс
макъ
макъамэ
макъуауэгъуэм
макъхэм
макъщ
макъым
макъыр
макъэхэр
макіуэ
макӏуэ
макӏуэр
макӏуэри
макӏуэхэ
макӏыу
макӏэ
макӏэдыду
макӏэдыдэ
малави
малага
малагасии
малаи
малаккэ
малариэ
малауи
малвин
малдивхэр
малер
мали
малтэ
малуам
малъхъэдис
малыи
мамсрыкъуэ
мамсрыкъуэрэ
мамэнт
мамэнтыпс
ман
манаус
манд
мандеб
манилэ
манитобэ
мансанарес
мансии
манчэ
манш
маныч
мао
мар
марзеи
мари
мариа
марианэ
мариатэ
марии
марино
маринэ
мария
марк
марке
маркес
маркиз
марко
маркс
маркэ
марлен
марокко
мароккэ
март
марта
мартен
мартин
мартиникэ
мартым
маршалл
масауа
массачусетс
мастер
математикхэр
математикэ
материалхэр
материалы
материк
материкхэм
материкым
матис
маурикии
мауританиэ
маф
мафэ
мафэм
мафӏэ
мафӏэкӏэ
мафӏэм
мафӏэпс
мафӏэпсым
мафӏэр
мафӏэсым
махатма
махди
маху
махуи
махуит
махуэ
махуэгъэпс
махуэгъэпсыи
махуэгъэпсым
махуэгъэпсымк
махуэгъэпсымкӏэ
махуэгъэпсыр
махуэгъэпсыращ
махуэк
махуэку
махуэкӏэ
махуэм
махуэми
махуэр
махуэу
махуэхэм
махуэхэр
махуэц
махфуз
махъсымэ
махъшэ
мацуо
мацӏэ
мацӏэм
машинэ
машэ
машэшхуэ
мащ
мащӏэ
мащӏэдыдэу
мащӏэдыдэщ
мащӏэу
мащӏэщ
мая
маяк
мдзымтэ
ме
медаль
медицинэ
медицинэм
международного
международныи
меи
меканикэ
меккэ
мекленбург
мексика
мексиканских
мексиканского
мексиканскои
мексике
мексики
мексикэ
мексикэм
мексикэми
мексикэр
мелуан
мемориал
мен
меня
мер
мерилэнд
мерэм
месопотамиэ
месопотамиэм
места
месте
местного
место
месяц
месяца
мета
метаболизм
метри
метро
метрополитен
метрэ
метрэк
метрэм
метрэхэм
мехико
мехикэ
мехъико
мехъиком
ми
мианмэ
мигел
микеланджело
микронезиэ
мил
миллиметрэ
милыуан
милыуану
милыуаным
мин
миндэнао
минерал
мини
минии
миниплӏ
миниплӏым
министериэ
министр
министру
министырхэм
минитӏ
минитӏрэ
минищ
минищкӏэ
миннесотэ
минрэ
мину
миным
миокард
мира
мире
мирсса
мис
миссисипи
миссури
мифологиэ
мифологиэр
михаи
михаил
мичиган
мичоакан
мк
мкӏэ
млекопитающие
млн
млрд
мм
мне
мнение
многие
многочисленные
многочисленными
множество
могилов
могли
моголышхуэхэм
могу
могут
может
можете
можно
мозамбик
мозамбикым
мои
моктесума
молдавиэ
молдовэ
молиер
молэмусэ
момент
монако
монарх
монгол
монголхэр
монголыдзэр
монголым
монголымрэ
монголэ
моногамнэхэщ
моногамнэщ
монокулар
монро
монром
монтанэ
монтесума
монтсеррат
монумент
морафэщ
мордовиэ
море
морелос
моря
москва
мост
мохандас
мрамэр
мрэ
мс
музеев
музеи
музыка
музыки
музэеи
мулид
мумбаи
муниципал
муниципалитет
муниципалитету
муниципалитетхэр
муниципальных
мурад
мурат
мурманск
мурсиэ
муса
муслъым
муслъымхэм
муслъымхэр
муслъымэн
муссон
муссонхэм
мустафа
мустафам
мустафар
мутӏыхъуасуам
мухьэмэд
мухьэррам
мухьэфазэ
мы
мыбдеж
мыбдежым
мыбы
мыбыи
мыбыхэм
мывалъэ
мывалъэхэм
мывэ
мывэк
мывэкӏэпыс
мывэкӏэпысгъуэжь
мывэкӏэпысхэр
мывэкӏэщхъ
мывэм
мыдаӏу
мыдреи
мыдэвеи
мыдэӏуэгъуэм
мыекъуапэ
мызэу
мыин
мыинхэр
мыинщ
мык
мыкуэду
мыл
мылъагэхэм
мылъатэ
мылъку
мылъкуи
мылъкум
мылъкур
мылъэтэжу
мылыжъым
мылым
мылыр
мылыщэ
мылэщхэм
мылэщхэр
мынэхъ
мыпхуэдэ
мыр
мыра
мыращ
мыри
мырэ
мыслимэн
мыслимэну
мыслимэнхэ
мыслимэнхэр
мыслимэнхэщ
мыслимэныгъэ
мыслимэныгъэм
мыслимэныгъэр
мыслымэн
мысылбаи
мысыр
мысырбзу
мысырбзухэр
мысырджэд
мысырым
мысырымрэ
мысырыр
мытӏэу
мыут
мыутӏэ
мыутӏэм
мыутӏэмрэ
мыхъеуэ
мыхъу
мыхъуми
мыхъумэ
мыхъуну
мыхъуу
мыхъууи
мыхьэмышх
мыхьэмэт
мыхьэну
мыхьэнэ
мыхьэнэк
мыхьэнэр
мыхьэнэшхуэ
мыхэр
мычгыш
мычгышеи
мычгышхэр
мышгыч
мышгычеи
мышгычхэмрэ
мышгычхэр
мышхумпӏэ
мышъауэ
мышъу
мышъхьа
мышъэ
мышъэм
мышъэхэм
мышъэхэр
мыщ
мыщтхэм
мыщэ
мыщэуэст
мыӏэрысэ
мэ
мэбакъуэ
мэгущаӏэ
мэгуэч
мэгуэчхэ
мэгуэчхэр
мэгуэчыжьхэ
мэгуэчыр
мэгуэш
мэгъагъэ
мэгъуалъхьэ
мэгъуэлъхьэж
мэгызыр
мэжареи
мэжджыт
мэжьид
мэз
мэзгуащэ
мэзджэд
мэзджэдхэм
мэзджэдхэр
мэздэгу
мэздэгухэм
мэзжьындухэр
мэзип
мэзит
мэзитӏ
мэзихым
мэзищ
мэзкуу
мэзкуурэ
мэзкъуии
мэзу
мэзхэм
мэзхэр
мэзхэращ
мэзыку
мэзыкхъуэ
мэзыкхъуэхэр
мэзылъэ
мэзым
мэзыр
мэзышэ
мэи
мэк
мэкуэчхэ
мэкъамэ
мэкъу
мэкъуауэгъуэ
мэкъуауэгъуэм
мэкъуауэгъуэмрэ
мэкъумэш
мэкъумэшу
мэкъумэшым
мэкъумэшыр
мэкъумэшыщ
мэкъумэшыщӏэ
мэкъупӏэ
мэкъупӏэбзухэр
мэкъупӏэджэд
мэкъупӏэджэдхэр
мэкъупӏэхэм
мэкъэзещэ
мэкӏоды
мэкӏуэд
мэкӏыр
мэл
мэлажьэ
мэлаи
мэлаккэ
мэлгъэбэг
мэллъхуэгъуэ
мэлхэм
мэлъатэ
мэлъатэхэ
мэлъэтэж
мэлъэтэжхэр
мэлыжъыхьым
мэлыжьыхь
мэлыжьыхьм
мэлыжьыхьым
мэлыфэк
мэпсалъэхэ
мэпсо
мэпсохэ
мэпсэу
мэпсэуф
мэпсэухэр
мэр
мэрак
мэракӏуэ
мэракӏуэм
мэракӏуэтхым
мэракӏуэхэкӏ
мэракӏуэхэр
мэракӏуэшхуэ
мэрем
мэрилин
мэрлин
мэртэзеи
мэуэт
мэуэтхэм
мэуэтхэр
мэфэку
мэхуэщ
мэхъу
мэхъужь
мэхъур
мэхъури
мэхъуфыр
мэхъухэ
мэхъухэр
мэхъухэри
мэхъущ
мэхьмуд
мэхьчэмэ
мэхьчэмэм
мэхьчэмэмрэ
мэхэр
мэш
мэшъак
мэщыт
мэӏэпхъуэ
мэӏэпхъуэхэр
мюнхен
мягкие
н
на
набдзэ
наваррэ
нагиб
наго
нагои
над
надо
наездничество
название
названии
называли
наи
наиболее
накъыгъэ
накъыгъэм
нал
нало
налоев
налшык
налшыч
налщӏэч
нальчик
нальчикы
нам
намибиэ
намыщӏ
нан
нанаи
нап
написать
наполеон
например
напэ
напэк
напэкӏуэцӏ
напэкӏуэцӏхэм
напэкӏуэцӏым
напэкӏуэцӏыр
напэр
напэтеху
напэхэр
народ
народные
народов
народым
нарт
нарткъалэ
нартсанэ
нартсанэм
нартхэм
нартхэр
нартыху
нартыхур
нас
население
населения
наставники
настоящее
насчитывается
насыпкъэгъакӏуэ
нато
натхъо
натхъуэдж
натхъуэджхэм
натӏэ
натӏэм
натӏэмрэ
натӏэр
натӏэхущ
науалӏыбзэкӏэ
наук
наука
наумов
науру
науч
научнэ
наф
нафӏэм
нахичеван
находилась
находится
нахуэ
нахъ
нахъыбэм
нахь
нахьыбэ
нахьыбэу
национал
националистхэр
национальнои
национальныи
национэлист
начала
начале
начало
началось
наш
наше
нащхьэм
нгони
ндо
не
небольшои
небоскре
небраскэ
невадэ
невисрэ
негр
негрои
недели
неделю
неделя
незаверше
незавершені
независимость
неи
некоторые
некоторых
нелсон
нен
ненец
ненэи
непал
непалыбзэ
непалым
непалымрэ
непэ
неру
несколько
нет
нибудь
нигер
нигериэ
нигериэм
нигерымрэ
нигъэсу
нидерландхэбзэ
нидерландхэм
нидерлэнд
нидерлэндхэм
нидерлэндхэр
нижегородск
низшего
нии
никарагуэ
никола
николаевскэ
николаи
николо
никотин
никто
нил
нилым
нилымрэ
нилыр
ниу
ниуе
ниутон
ниуфаундлендрэ
них
ниэ
нка
нлэнд
нность
нные
нныи
нных
но
нобел
нобэ
нобэкӏэ
нобэр
нобэреи
новая
новгород
нового
новое
новосибирск
новыи
новых
нолан
номерыр
нор
нордкап
нордкапым
нордкин
норма
норте
норуегиэ
норуегэ
норуегэм
норуегэмрэ
норфолк
нос
носаппу
носителеи
носхэ
носхэр
носыр
нояб
ноябрь
ноября
нсдап
нт
нувас
нужен
нумин
нунавут
нуну
нур
нухь
ны
ныбафэр
ныбгъуэ
ныбгъуэм
ныбгъуэхэр
ныбдж
ныбджкӏэ
ныбджым
ныбджыр
ныбж
ныбжым
ныбжыр
ныбжь
ныбжьым
ныбжьыр
ныбжьышхуэ
ныбэ
ныбэм
ныбэр
ныбэхубзу
ныбэщӏагъыр
ныву
нывэ
нывэм
ные
ныкъуэ
ныкъуэкъуэгъу
ныкъуэм
ныкъуэр
ныкъуэращ
ныкъуэрэ
ныкъуэт
ныкъуэу
ныкъуэхэм
ным
нып
ныпу
ныпхэм
ныпхэр
ныпым
ныпыр
нь
нэ
нэбгырэ
нэблагъэ
нэг
нэгдсэн
нэгу
нэгумэ
нэгумэм
нэгъу
нэгъуеи
нэгъунэ
нэгъуэи
нэгъуэщ
нэгъуэщӏ
нэгъуэщӏхэми
нэгъуэщӏхэр
нэгъуэщӏхэри
нэджыд
нэжъгъушӏыдзэр
нэкъыгъэм
нэкӏубгъу
нэкӏыу
нэлмэс
нэм
нэмгъэсахэм
нэмгъэсахэр
нэмык
нэмысар
нэмысу
нэмыщ
нэмыщӏ
нэмыщӏу
нэмыщӏхэр
нэмыщӏыу
нэпкъ
нэпкъхэм
нэпсэу
нэр
нэрыбгу
нэрыбгэ
нэрэ
нэс
нэса
нэсауэ
нэсащ
нэскъым
нэскӏэ
нэсмэ
нэст
нэсу
нэсыр
нэсыфу
нэсыфыну
нэсыху
нэуж
нэужым
нэужь
нэуэжъ
нэуэжъым
нэфу
нэфыгъэ
нэфыгъэм
нэху
нэхур
нэхуу
нэхущ
нэхущым
нэхъ
нэхъапэ
нэхъапэу
нэхъри
нэхърэ
нэхъщхьэ
нэхъыбап
нэхъыбаӏуэм
нэхъыбу
нэхъыбэ
нэхъыбэдыду
нэхъыбэк
нэхъыбэкӏэ
нэхъыбэм
нэхъыбэмкӏэ
нэхъыбэр
нэхъыбэри
нэхъыбэрэ
нэхъыбэу
нэхъыбэхэм
нэхъыбэхэр
нэхъыбэщ
нэхъыжъ
нэхъыжъхэм
нэхъыжь
нэхъыжьу
нэхъыжьхэм
нэхъыф
нэхъыфӏ
нэхъыфӏу
нэхъыфӏхэм
нэхъыфӏхэр
нэхъышъхьа
нэхъышъхьу
нэхъышъхьэ
нэхъышъхьэбзэхэм
нэхъышъхьэбзэхэр
нэхъышъхьэм
нэхъышъхьэр
нэхъышъхьэхэм
нэхъышъхьэхэр
нэхъыщ
нэхъыщхьэ
нэхъыщхьэм
нэхъыщхьэр
нэхъыщхьэу
нэхъыщхьэхэр
нэхъыщхьэщ
нэхъыщъхьэр
нэхь
нэхэм
нэхэр
нэхэра
нэщ
нэщхъеягъуэ
нэщэнэ
нэщӏэпкӏэ
нэӏуасэ
нэӏур
нэӏухэм
о
оахака
оахакэ
об
обеспечение
обладатель
област
области
областым
образовании
образом
обсуждение
обсуждения
обществэм
общину
общих
объявления
овидии
овиедэ
ог
огаи
оджэ
оджэхэр
один
однако
одним
ожьэ
ожэх
ожэххэ
ожэхыр
озера
озеро
означает
ок
океан
океана
океаниерэ
океаниэ
океаниэм
океаным
океанымрэ
оккупациэ
оккупациэм
оклахомэ
около
окрестностях
округ
округа
округе
округым
окт
октавиан
октавианыр
октябрым
октябрь
октября
окупациэ
окӏуэкӏ
окӏуэкӏыр
окӏых
олимпии
олон
ом
оман
оманым
омар
оминг
омск
омэ
он
она
онах
онд
ондэ
они
оно
онов
онтарио
онтариуэ
оны
операциэм
оперэ
определе
опыт
ор
организации
организациэ
организм
организым
ордан
орданым
орданымрэ
орден
орденым
орджоникидзе
оре
орегон
ореи
орелиано
оренбург
орех
орк
оркым
орнитологхэм
орол
оромохэр
орфографием
орфографиер
орфографическэ
оры
орэ
орэмк
орэр
ос
осетин
осетинхэм
осетинхэр
осетиэ
осетиэм
осетиэмрэ
осетиэр
основан
основном
основным
особенно
особенности
оставить
остановки
остров
от
относительно
относятся
отношении
отоми
оттэ
оу
оуэ
официал
официалу
офыр
ох
охотск
охур
охътэ
охыжь
охыр
охьэ
охьэр
охьэри
охьэхэ
оц
очамчырэ
очень
очерк
очерки
п
па
пабжъу
пабжъэ
пабжъэхэм
пабло
пае
пакистаным
пакистэн
пакистэным
пакистэнымрэ
палатализация
палестинэ
палестинэр
палочку
пампахэм
памц
памцӏу
памцӏэ
панамэ
пандемиэ
пантерэ
папуа
папцӏэ
папцӏэхэщ
папцӏэщ
папшъу
папщ
папщіэ
папщӏи
папщӏэ
папщӏэу
параграф
парагуаи
параибэ
параметрэхэр
параметыр
параметырхэм
пари
париж
парикӏи
парими
парк
парка
парков
паркхэм
паркым
парламент
парламентым
парламентыр
партиэ
партиэм
партиэр
партиэхэр
парфумериэм
пасео
пасу
пасэ
пасэм
пасэреи
пасэу
патагонием
патагониэм
патнам
паул
паулу
пачъыхьэм
паштыхьым
пашъхьэм
пашъэт
пашэ
пашэр
пашэу
пащтыхь
пащтыхьеи
пащтыхьыгъуэм
пащтыхьым
пащхьэ
пащхьэм
пащӏэхэр
пе
педро
пеи
пекин
пензэ
пенсилваниэ
первая
первои
перевести
перевод
переводе
перенаселе
перенеи
период
перм
перо
перон
персонэхэр
перт
перу
перум
песоа
петр
петрович
печорэ
пиаи
пигмеи
пигментрэ
пигментхэр
пикассо
пилли
пиллихэм
пимыдзэу
пинсон
пирамидэ
пиренеи
писарро
писатели
писателя
писать
письма
питер
пк
пкс
пкъы
пкъыгъуэ
пкъыгъуэхэм
пкъым
пкъыр
пкъыхэр
пкъыщӏэ
пкӏантӏэм
пкӏауэ
пкӏашъхьэхэр
пкӏэ
пкӏэшхуэ
пл
планиметрие
пластунка
плата
платформ
платэ
плинии
плитымырэ
плъыжь
плъыжьрэ
плъыжьу
плъыжьщ
плъыжьым
плъыжьымрэ
плъыжьыр
плъыжьыфу
плъыжьыфэ
плъыжьыфэщ
плъыжьыху
плъытэ
плъыфэ
плъыфэхэр
плъыфэщ
плъыхьак
плъэуэ
плӏанэпэ
плӏанэпэзанщӏэ
плӏиму
плӏимэ
плӏы
плӏэуэ
пневмониэ
по
победитель
повесть
поводу
под
поддерживать
поемэр
пожалуи
позициэ
пои
поинт
пока
показ
покӏыр
полар
полинезиэ
полиомиелит
политик
политика
политикэ
политикэм
политикэмкӏэ
политикэмрэ
политикэр
полициэм
полностью
полус
получение
получившии
полшэ
полшэм
полшэр
поляна
поменять
помераниэ
помочь
понедельник
пони
понихэм
понихэмрэ
понять
популярныи
порт
португал
португалыбзэ
португалым
португалымрэ
португалыр
португалэ
порфирио
порыр
после
последние
посольскэ
пост
постараюсь
постоянно
постоянного
поти
потифарым
поувэ
поче
почти
поэта
поясном
прав
права
правда
правителствэ
прага
прадеш
праздник
праи
практически
праягамрэ
пределах
предлагаю
представителеи
представлены
президент
президента
президентская
президенту
президентхэм
президентым
президентыр
при
приглашаю
приднестровиэ
призе
приказым
приматхэр
примечания
примите
приморскэ
принадлежит
принсипирэ
принт
принц
принципах
принята
принято
принять
присвоен
про
проблемы
провинсхэр
провинциэ
провинциэм
провинциэхэр
проголосовали
программэ
программэщӏым
проект
проекта
проектов
проектым
проектыр
проектэу
прожектор
проживает
проживания
проживают
проживающих
прои
просвещение
проспект
просто
протеин
против
протистхэр
прото
прототериэхэр
проходит
процент
процесса
процессор
процессхэр
прошу
проэкт
прундж
прунж
прусиэ
прусиэм
пруст
псалъалъэ
псалъи
псалъит
псалъу
псалъэ
псалъэжь
псалъэжьхэм
псалъэк
псалъэкӏэ
псалъэкӏэмкӏэ
псалъэкӏэхэр
псалъэм
псалъэмрэ
псалъэр
псалъэращ
псалъэу
псалъэуха
псалъэху
псалъэхэм
псалъэхэр
псалъэшэрыуэ
псалъэщ
псалэ
псалэк
псантхуэ
псеи
псесхэр
пситӏ
пситӏыр
психологиэ
псков
псковыр
псо
псом
псоми
псомк
псомкӏи
псомкӏэ
псомрэ
псор
псори
псоу
псоук
псоукӏэ
псоукӏэр
псоушъхьахэм
псоуэ
псохэм
псохэтэр
псхэр
псы
псыбабыщ
псыбабыщхэр
псыбзу
псыбзухэр
псыбэ
псыгу
псыгуэнсу
псыгуэнсум
псыгъу
псыгъуэ
псыгъуэщ
псыджэд
псыджэдхэр
псыдзэ
псыдзэм
псыдэжым
псыежэххэм
псыежэххэмрэ
псыжъ
псыжъым
псыжь
псыжьыпэм
псыит
псыитым
псыкуэд
псыкъелъэ
псыкъелъэхэр
псыкъуакъо
псыкъуакъохэр
псыкъуаргъ
псыкъуаргъхэр
псыкъум
псыкӏэ
псылъэ
псылъэм
псылъэхэм
псылъэхэмрэ
псым
псыми
псымкӏэ
псымрэ
псынабэ
псынащхьэхэм
псынк
псынкӏагъыр
псынкӏыу
псынкӏэ
псынкӏэдыдэра
псынщ
псынщӏагъ
псынщӏэу
псынэ
псынэм
псынэпс
псынэхэм
псынэхэр
псыпц
псыпцӏу
псыпцӏэ
псыпцӏэкӏэ
псыпцӏэхэм
псыпцӏэхэмрэ
псыпэ
псыпэм
псыр
псыращ
псыри
псырыжэмрэ
псырэ
псысхуолӏэхэр
псытхьэрыкъуэ
псытхьэрыкъуэхэр
псыудз
псыудзхэм
псыудзхэр
псыуэ
псыф
псыфаб
псыфу
псыфэ
псыфэнд
псыфэндхэм
псыфэндым
псыфэндыр
псыхуабэ
псыхуабэм
псыхъоу
псыхъуреи
псыхъуреишхуэ
псыхъуреишхуэхэм
псыхъуреишхуэхэр
псыхъурем
псыхъурер
псыхъуреуэ
псыхъуэ
псыхъуэгуащэм
псыхъуэгуащэр
псыхъуэжьынду
псыхъуэм
псыхъуэмрэ
псыхъуэпцӏащхъуэ
псыхъуэр
псыхъуэхэм
псыхэ
псыхэм
псыхэр
псыхэуэ
псыхэуэбзагуэ
псыхэуэбзагуэхэр
псыхэуэхэр
псышхуэ
псышӏопэ
псыщ
псыщхьэ
псыщхьэм
псыщӏагъ
псыӏум
псыӏуфэ
псыӏуфэм
псыӏуфэхэм
псыӏэ
псыӏэлъэгъу
псыӏэлъэгъуэм
псыӏэхэм
псыӏэхэр
псэ
псэкъупсым
псэлъэ
псэлъэкӏэ
псэлъэкӏэмрэ
псэлъэкӏэр
псэлъэну
псэм
псэр
псэрыдж
псэу
псэуа
псэуалъэ
псэуалъэхэм
псэуащ
псэук
псэукӏэ
псэукӏэм
псэукӏэмрэ
псэукӏэр
псэун
псэунэ
псэунэхэм
псэунэхэр
псэуп
псэупӏэ
псэупӏэм
псэупӏэр
псэупӏэхэм
псэупӏэхэр
псэушъхьа
псэушъхьахэм
псэушъхьахэр
псэушъхьу
псэушъхьэ
псэушъхьэм
псэушъхьэр
псэушъхьэхэм
псэушъхьэхэмрэ
псэушъхьэхэр
псэушъхьэшххэм
псэущхьи
псэущхьу
псэущхьэ
псэущхьэм
псэущхьэр
псэущхьэхэм
псэущхьэхэр
псэущхьэшх
псэущхьэшххэм
псэущхьэщ
псэуэ
псэф
псэфымрэ
псэхэл
птаун
птиц
птицы
птолемеи
птхы
пуасэрэ
пуерто
путешествия
путин
пушкин
пуэбла
пфалц
пхъафэ
пхъафэм
пхъафэр
пхъашу
пхъашэ
пхъашэхэм
пхъашэхэр
пхъащхьэмыщхьэ
пхъу
пхъур
пхъухэм
пхъышъхьа
пхъышъхьэмышъхьэ
пхъышъхьэмышъхьэхэр
пхъыщхьэмыщхьэ
пхъыщхьэмыщхьэпс
пхъэ
пхъэбгъу
пхъэкӏычхэм
пхъэкӏычым
пхъэкӏычыр
пхъэм
пхъэмбгъухэм
пхъэхуеи
пхъэщхьэмыщхьэ
пхъэщхьэмыщхьэхэр
пхырыкӏа
пхырыкӏыгъэ
пхырыкӏын
пхырыкӏыпӏэ
пхырыугъуэныным
пц
пцыкъуэхэр
пцӏану
пцӏанэщ
пцӏащхъуэ
пцӏащхъуэм
пцӏэгъуэплъ
пчагъуэм
пчъагъэм
пчъагъэмк
пчъагъэхэм
пчыхь
пшапэр
пшахъу
пшахъуалъэ
пшахъуалъэм
пшахъуалъэхэм
пшахъуалъэхэмрэ
пшахъуафу
пшахъуафэ
пшахъуафэщ
пшахъуэ
пшахъуэм
пшахъуэфу
пшъамп
пшъашъэ
пшъашъэхэр
пшъэ
пшъэм
пшъэмрэ
пшъэр
пшы
пшыналъэ
пшынэ
пшэплъыфэ
пшэхъуалъэ
пщ
пщагуэхэщ
пщадэ
пщащэ
пщы
пщыгъуэ
пщыгъуэм
пщыгъуэр
пщыгъуэри
пщыгъуэхэм
пщыгъуэхэми
пщыгъуэхэр
пщык
пщыл
пщылӏ
пщылӏхэр
пщылӏхэри
пщылӏыгъуэ
пщылӏыгъуэм
пщылӏыгъуэр
пщылӏым
пщылӏыр
пщым
пщыпхъу
пщыр
пщыунэ
пщыуэ
пщыхэм
пщыхэмрэ
пщыхэр
пщышхуэ
пщышхуэу
пщышхуэхэр
пщыщ
пщыщхуэу
пщэ
пщэджыжь
пщэджыжьым
пщэм
пщэмрэ
пщэр
пщэри
пщӏантӏэ
пщӏы
пщӏэ
пщӏэшхуэ
пы
пыл
пылхэм
пылъ
пылъа
пылъауэ
пылъахэр
пылът
пылъу
пылъхэ
пылъхэм
пылъхэр
пылъхэт
пылъхэу
пылъхэщ
пылъщ
пылъын
пылъыным
пылъыр
пыт
пыту
пытхэ
пытхэр
пычыгъуэхэм
пычыгъуэхэр
пышъа
пышъауэ
пыщ
пэ
пэгъуанэхэр
пэгъунэгъу
пэгъунэгъуу
пэж
пэжу
пэжыжэу
пэкъыухэр
пэкӏэ
пэлэуан
пэм
пэмкӏэ
пэмрэ
пэмыджыжьу
пэмыжыжьэу
пэмыжыжэу
пэмык
пэмыкӏ
пэмыкӏхэм
пэмыкӏхэми
пэмыкӏхэр
пэмыкӏхэри
пэмыкӏы
пэмыкӏым
пэмыкӏыу
пэмыкӏыуи
пэмыкӏэ
пэнцӏывгъэша
пэр
пэриж
пэрламентым
пэс
пэсыреи
пэсырем
пэсыремрэ
пэт
пэтми
пэтрэ
пэубыда
пэубыдыгъуэ
пэубыдыгъэ
пэува
пэуву
пэхьэнцэбзу
пэхэм
пэхэр
пэштыхь
пэштыхьеи
пэштыхьу
пэштыхьхэм
пэштыхьыдзэм
пэштыхьым
пэштыхьыр
пэщ
пэщтыхьеи
пэщтыхьым
пэщыл
пэщылъ
пэщылъу
пэщыту
пэщытхэм
пэщытыну
пэщытыныгъэ
пэщытыным
пятница
пятницы
пӏакӏыу
пӏакӏэ
пӏалъэ
пӏалъэкӏэ
пӏалъэм
пӏалъэмкӏэ
пӏалъэншу
пӏалъэр
пӏалъэхэр
пӏалъэшхуэ
пӏашъхьэм
пӏащэ
пӏащэм
пӏащэхэм
пӏащэхэр
пӏащэхэращ
пӏащэхэри
пӏащэхэщ
пӏащэщ
пӏащӏэ
пӏащӏэхэм
пӏии
пӏэ
пӏэм
пӏэр
пӏэуэ
пӏэхэр
пӏэшхуэ
р
ра
раби
рабии
рабиндранат
работу
работы
раджбарим
радио
разакъ
разан
развитие
развитии
развития
раздел
раздела
разделах
разделе
различными
разных
разработчики
разработчиков
раи
рам
рамагупта
рамирес
ран
ранее
рас
раса
располагаются
расположен
расположено
распределение
распространении
рассылки
расэ
рауэ
ращ
реабилитациэ
револуциэ
револуциэм
револуциэр
револуциэшхуэ
револуцэр
регент
регион
регионхэм
регрессиэр
ред
редактору
редакторым
редакцэм
режим
режимым
режисор
резервациэхэм
резервым
резиденция
реи
рекорд
религии
рембрандт
рембрандтым
репродуктив
рептилиэхэр
рес
респератор
респу
республика
республике
республики
республику
республикэ
республикэм
республикэмрэ
республикэр
республикэхэр
республихэм
реставрациэ
реформа
реформациэ
реформэ
реформэхэр
решение
решили
ри
рикэ
рим
римлянхэм
римская
римхэм
римыр
рио
риони
риохэ
риуэ
риф
рифышхуэ
ричард
риэ
риэхэм
риэхэр
риӏуагъ
рксрэ
рн
ро
роби
род
рода
родригес
рождения
рока
роман
рон
рос
роса
россии
россия
россэ
ростов
рсс
рсса
рссз
ру
руанда
руандэ
руандэм
рубенс
рубин
рудрасена
рузвелт
рузвелтым
рузвелтыр
рум
руматхэр
румеи
руминиэ
румыниэ
румыниэм
румыным
руслан
русская
русски
русскии
русскои
русскоязычных
рут
рф
рым
рэ
рэджа
рэджаб
рэм
рэмэзан
рэу
рэщ
ряд
рязан
с
са
саби
сабии
сабыи
сад
садзэ
саи
саксониэ
сакхэм
сакъщ
салвадор
самарэ
самая
самбо
самое
самоэ
самудрагупта
самундрагупта
самым
самых
сан
санат
сандуичхэ
сандуичхэрэ
сани
санкт
санскр
санскрит
санскритыр
сант
санта
санти
сантиаго
сантиметрэ
сантэ
санэ
санэм
санэмрэ
санэр
санэху
санэхум
санэхэм
санэхэмрэ
санэхэр
санэшъ
санэшъым
сара
сарагоса
сараево
саратов
саргассэ
сард
сарын
сарэбии
саскачеуан
сати
сатияграха
сату
сауд
сауф
саха
сахалин
сахара
сахарам
сахарэ
сбол
света
свое
свои
своих
свою
связи
святои
сделать
сдэкъым
се
себастиан
себастьян
себастьяна
себе
севастопол
северного
севернои
северо
севиджэ
севиджэм
севиджэр
сегодня
сегрегациэ
сегура
сеи
секретариатым
секретару
секундэм
семе
сен
сенаторитӏ
сенатым
сенатэриплӏ
сенегал
сенегалым
сенсор
сент
сентябрым
сентябрь
серб
сербиэ
сербиэм
сербскэ
сербхэм
сербхэр
сервантес
сервис
сергеи
сериалхэм
серро
сессиурэ
сеул
сзкп
си
сиам
сиднеи
сиерра
сиеррэ
силосу
сина
синан
сингапур
синдхэр
синт
сирием
система
систематикэ
систематикэм
систематикэр
систематическии
систему
системэ
системэм
системэмкӏэ
системэр
ска
скагеррак
скалы
скандинав
скандинавым
ская
скелет
скелетым
ские
скии
скифхэм
ских
ского
скои
ском
скому
скую
скэ
словакиэ
словарь
словениэ
словениэм
словениэр
слоуан
см
смит
смоленск
смягчение
со
собор
сов
совет
советская
советскои
советхэм
советым
совр
современного
согдианэмрэ
согласно
согласныхпереднеязычные
согъум
содэ
сожалению
созвездие
сокало
солнца
соломон
сом
сомали
сомалии
сонеи
сообщение
сообщества
сообщество
сооружение
сооружении
соответственно
сопоставлении
сосрыкъуэ
сосрыкъуэм
сосрыкъуэр
сосрыкъуэрэ
сост
состав
составляет
софокл
социал
социализм
социалистическэ
социальнои
сочи
соя
спасибо
спб
спенсер
специал
специально
спид
спилберг
список
спорт
спортсмен
спортымкӏэ
среда
среде
среди
среднегодовои
сср
ссср
ссылки
ст
ста
ставропол
стал
сталин
сталинград
стамбул
стандарт
станицэ
станицэм
станциэ
станцэм
статеи
статистикэ
статті
статус
статуса
статусыр
статым
статьи
статья
стеи
стенли
стивен
стиля
стип
стихи
стокголм
столице
столицеи
столицы
столичном
стоматологиэ
страбон
стран
страница
странице
страници
страницу
страны
стратегии
стример
стюарды
су
суадин
суазилэнд
суахили
субарктикэм
суббота
субтропик
субъект
суваг
судан
суданым
суец
сул
сулавеси
сулу
сулътӏаным
суматрэ
сун
сунгаи
сундарбан
сунжэ
сунига
суннитхэм
суринам
сурэт
сурэткӏи
сурэткӏэ
сурэту
сурэтхэр
сурэтылъэ
сурэтым
сурэтымк
сурэтымкӏэ
сурэтымрэ
сурэтыр
сутан
суфии
суффикс
сухуми
сушеи
суэц
схуэдэ
сче
счыгъуи
счыгъуиэнсминджер
сша
сыбыр
сыбырым
сыбырымрэ
сыд
сымаджэ
сымаджэш
сымаджэщ
сымэ
сын
сынхэр
сыр
сырхэр
сырыхуфэщ
сыт
сыту
сытхуэдэ
сытым
сыхьэт
сэ
сэби
сэбии
сэбиигъуэм
сэбихэр
сэбэп
сэмырабгъу
сэмырабгъумк
сэмырабгъумкӏэ
сэмэгу
сэмэгумкӏэ
сэмэгурабгъу
сэнт
сэрмахуэ
сэтеи
сэтхэ
сэтэнеи
сэфар
сэхарэ
сэхьат
сэхьэт
сэхьэту
сэхьэтым
сэхэр
сэшхуэ
сэшхуэр
сэшхуэхэр
сюлеи
ся
сүүлээр
сӏу
т
та
табаско
таблица
таблицэ
таблицэм
табыщ
таганрог
тагор
тадж
таджикистэн
таи
так
также
таких
такси
таксоным
такую
такъыр
такъырыр
талаар
тало
талышхэр
там
тамамланмагъан
тамарэ
тамбов
тан
танганикэ
танзаниэ
танзаниэм
танк
тапанта
тарифэ
тарихъ
тасман
тасманиэ
таурыхъ
таурыхъхэм
тауэ
тафэ
тафэм
тафэр
тафэу
тафэхэм
тафэхэр
таэквандо
тв
твен
твер
творчества
творчество
те
театр
теберда
тебэрды
тебэрдым
тегеран
тегъэпсыхьа
тегъэпсыхьауэ
тегъэщӏапӏэхэр
тедзап
тедзапӏэ
теи
тек
текнологиэ
текст
тектоникэ
текӏа
текӏауэ
текӏуа
текӏуар
текӏуауэ
текӏуэныгъэ
текӏуэныгъэкӏэ
текӏуэныгъэр
телъ
телъу
телъхэ
телъхэм
телъщ
телъыр
тельца
тем
тембот
темзэ
температурэ
температурэр
температурэхэр
темперэтурэ
темрыкъуэ
темыкӏауэ
темыкӏыу
темырлэн
темытыжь
темыху
темыхуэу
темэ
темэм
темэн
темэхэм
тенант
тенденция
тенерифе
теннесси
теннис
теночтилӏан
теночтилӏаным
теночтитлан
теночтитлана
теодор
теориэ
теперь
теплъу
теплъэ
теплъэкӏи
теплъэкӏэ
теплъэм
теплъэр
теплъэри
теплъэхэм
теплъэхэр
тепсэлъыхь
тепсэлъыхьу
тепсэлъыхьыгъуэ
тепсэлъыхьыгъуэм
тепсэлъыхьыгъуэр
тепсэлъыхьын
тепсэлъыхьыным
тера
тераи
терек
териэхэр
тероподхэм
территории
территориэ
территория
терроризм
тес
тескоко
тескоком
тесу
тесщ
тесын
тесыр
тет
тета
тетар
теткъым
тету
тетхэм
тетхэр
тетхэщ
тетщ
тетыжкъым
тетыкӏэ
тетым
тетыр
тетыхукӏэрэ
тетэу
теуа
теуахэ
теутӏыпщхьа
теухуа
теухуауэ
теухуахэм
теуцожь
теуэ
теуэн
техас
теху
техуа
техуэр
техьа
техьар
техьэ
техьэгъуэ
техьэп
техьэпӏэ
техьэпӏэхэр
техьэр
техэпӏэхэр
течение
тещ
ти
тибет
тимор
тимур
тиндии
тип
типам
тиррен
титулыр
тиурингиэ
тк
ткӏуэпсым
тлецери
тлъх
то
тогда
тоглоом
тоглоомын
того
тогом
тогэ
тоже
ток
токио
токӏуэ
толедо
толстои
только
том
томас
томерэ
томск
тон
тонгэ
тоннэ
топ
топджэгу
топографиэ
топсэлъыхь
топым
топыр
топышэ
топышэкӏэ
торонто
торрес
тоталитар
тотонакхэм
тоуэ
тоуэр
тоуэхэ
тохуэ
тохъуэ
тохъуэр
тохьэ
тохьэр
тр
тра
трагъува
трагъэкӏ
трагъэкӏри
трагъэувэ
традиции
традэжьу
традэт
тракъузу
тралъхьу
тралъхьэри
транспорт
транспорта
траухуауэ
трахын
тращ
траӏуа
траӏуар
траӏуауэ
траӏуэ
трегъэувэ
треи
тренер
трентино
три
трибэ
тригъэувэ
триху
триӏуар
триӏуауэ
тропик
тропикхэм
тропикхэмрэ
тропикэ
тся
тт
ту
туберкуле
тубэ
тува
тувалу
тулэ
тумен
тундрэ
тундрэм
тунис
туризымыр
турист
турции
тут
тутын
тхак
тхакіуэхэм
тхакӏуэ
тхакӏуэхэр
тхар
тхауэ
тху
тхум
тхурытху
тхууэ
тхъуэ
тхъуэбзащхъуэ
тхъуэжьеи
тхы
тхыбзэ
тхыбзэм
тхыбзэр
тхыгъэ
тхыгъэм
тхыгъэмк
тхыгъэр
тхыгъэхэм
тхыгъэхэр
тхыдэ
тхыдэлэжьыгъэ
тхыдэм
тхыдэмкӏэ
тхыдэмрэ
тхыдэпэ
тхыдэр
тхыдэри
тхыдэхэм
тхылъ
тхылъкӏэ
тхылътедзапӏэ
тхылъу
тхылъхэм
тхылъхэмкӏэ
тхылъхэр
тхылъыбзэ
тхылъыбзэм
тхылъыбзэр
тхылъым
тхылъымк
тхылъымкӏэ
тхылъымпӏэ
тхылъыр
тхылъэр
тхым
тхын
тхыпкъылъэ
тхыпкъылъэм
тхыпкъылъэмкэ
тхыпкъылъэр
тхыпкъылъэхэр
тхыпкъэ
тхыпкъэм
тхыпкъэхэр
тхыпхъэ
тхыпхъэр
тхыр
тхыц
тхыцӏащхьэр
тхыцӏэ
тхыцӏэкур
тхыцӏэм
тхыцӏэмрэ
тхыцӏэр
тхыцӏэри
тхышхуэм
тхьаджэд
тхьаджэдхэр
тхьак
тхьамадэр
тхьампэ
тхьампэхэм
тхьампэхэр
тхьарыкъуэ
тхьмпэпымыху
тхьэ
тхьэгъэпсо
тхьэи
тхьэкӏумэ
тхьэкӏумэкӏыхь
тхьэкӏумэм
тхьэкӏумэхэр
тхьэлъэ
тхьэлъэӏу
тхьэлъэӏум
тхьэлъэӏур
тхьэлъэӏухэр
тхьэм
тхьэмаду
тхьэмадэ
тхьэмадэгъуэ
тхьэмадэгъуэм
тхьэмадэгъуэр
тхьэмадэм
тхьэмадэр
тхьэмадэу
тхьэмадэхэм
тхьэмадэхэр
тхьэмахуитӏ
тхьэмахуэ
тхьэмахуэм
тхьэмахуэр
тхьэмбыл
тхьэмбылхэмрэ
тхьэмбылхэр
тхьэмбылыфэ
тхьэмпэ
тхьэмпэбанэ
тхьэмпэбанэхэр
тхьэмпэм
тхьэмпэпыху
тхьэмпэхэм
тхьэмпэхэмрэ
тхьэмпэхэр
тхьэмщӏыгъу
тхьэмышкӏу
тхьэпэ
тхьэпэхэр
тхьэр
тхьэрыкъуэ
тхьэрыкъуэм
тхьэрыкъуэпщэху
тхьэрыкъуэхэр
тхьэусыхэ
тхьэухъо
тхьэуэ
тхьэхэм
тхьэхэр
тхэкӏэ
тхэн
тхэныр
тхэпкъ
тхэр
тщ
ты
тыгъужъыкъуэ
тыгъэ
тыгъэхэр
тыкуэн
тым
тымрэ
тынужьхэр
тынчыгъу
тыншу
тыр
тырку
тыркубзэ
тыркуеи
тыркуем
тыркум
тыркуменистэн
тыркуми
тыркумэнхэр
тыркухэм
тыркухэр
тыркуэи
тыс
тэ
тэджикистэн
тэи
тэк
тэкъым
тэмакъым
тэман
тэмэму
тэн
тэнкъалэ
тэнрэ
тэнымрэ
тэнэ
тэр
тэрч
тэрчрэ
тэрчым
тэрэз
тэрэзу
тэрэзыгъуэ
тэрээр
тэтэр
тэтэрстэн
тэху
тэхуфэ
тэхуфэщ
тэхущ
түүнии
тӏ
тӏанэ
тӏо
тӏоуэ
тӏу
тӏуанэ
тӏуанэм
тӏуапс
тӏуапсы
тӏум
тӏуми
тӏур
тӏурытӏ
тӏурытӏу
тӏууэ
тӏущ
тӏыгу
тӏыгуеи
тӏыгум
тӏыгуныкъуэ
тӏыгуныкъуэм
тӏыгуныкъуэр
тӏыгухэм
тӏыгухэмрэ
тӏыгухэр
тӏысын
тӏысыпӏэ
тӏэкӏу
төркем
у
уа
уагъэ
уагъэк
уадэ
уае
уаи
уак
уам
уан
уану
уаным
уанэ
уанэр
уанэшхэмрэ
уар
уасэ
уасэр
уатэ
уатэмк
уатэр
уатэхэр
уауэ
уафэгум
уаха
уахътэ
уашингтон
уашхэ
уашъхьа
уащ
уащхьэ
уащхьэмахуэ
уащыпэщӏохуэ
уащыпэщӏэхуэнущ
уащыхуозэ
уб
убангии
ублауэ
убыд
убыдауэ
убыдыным
убыдынымрэ
убых
убыххэм
убыххэр
убыхыбзэ
убыхыбзэм
убыхыбзэр
ув
увагъыр
уважаемые
уважением
уведомления
уву
увхэмкӏэ
увып
увыпӏэр
угандэ
угандэм
угослау
угослаум
угуэшащ
уд
уданэк
уджэ
удз
удзу
удзхэр
удзщ
удзыжь
удзым
удзыр
удзыфу
удзыфэ
удзыфэрэ
удзыфэху
удзыфэщ
уду
удхэм
удым
уеблэмэ
уеи
уелс
уелсрэ
уестфалиэ
уже
ужъ
ужьэ
уз
узбэчыстэн
узым
узыншагъэ
узыншагъэм
узыншу
узыр
узэ
узэв
узэвхэм
узэвхэр
узэвым
узэвымк
узэвыр
узэӏэбэкӏыжмэ
узэӏэбэкӏыжьмэ
уи
уикимедиэ
уикипедиэ
уикипедиэм
уикипедиэхэм
уикипедия
уикисурэтылъэм
уилиям
уиллем
уиллиам
уисконсин
уит
уитху
уихауэ
уицилопочтли
ук
указ
укон
украинхэр
украинэ
украинэм
украинэмрэ
укрэинэ
укрэинэм
укӏыгъэ
укӏын
ул
ула
улановск
улахуэри
улии
улъ
улъиягъафэщ
улъиягъэфэщ
улъу
улъхэр
улъщ
уляпского
ум
умар
умрэ
умэк
умэхэр
ун
унагъом
унагъуэ
унагъуэм
унагъуэр
унагъуэхьэ
унагъуэхэм
унагъуэхэр
унафэ
унафэк
унафэкӏэ
унафэм
унафэмкӏэ
унафэр
унафэщ
унашъокӏэ
унашъоу
унащхьэхэм
унеи
унеско
университет
университетскии
университету
университетхэр
университетым
унион
унитар
унитару
унэ
унэбзу
унэбзум
унэбзухэр
унэгъуэцӏэхэр
унэм
унэр
унэу
унэфэщ
унэхэм
унэхэр
унэц
унэцӏэхэр
унэшъхьэхэр
унэӏут
унэӏуту
унэӏутхэм
унэӏутхэр
унэӏутым
унэӏутыр
уолт
уорхол
уп
упшӏэ
упщ
упщӏэ
ур
урал
уралым
урам
урамхэм
урамхэр
уран
уращ
ури
урт
уругуаи
урупрэ
урым
урымхэм
урымхэмрэ
урымхэр
урымым
урымымрэ
урымыр
урыс
урысеи
урысеим
урысем
урысхэм
урысхэмрэ
урысхэр
урысыбзэ
урысыбзэк
урысыбзэкӏэ
урысыбзэм
урысыбзэми
урысыбзэр
урысыдзэм
урысыху
урысыхум
урысыхумрэ
урысыхур
урыш
урэ
ус
усак
усакіуэм
усакӏуэ
усакӏуэхэр
усакӏыу
усакӏэ
усакӏэхэр
усхэр
усэ
усэбзэм
усэхэм
усэхэр
ут
утхъуа
утщ
утыку
утэ
уу
ууммармиутун
уурэ
ууэ
уф
уфэ
уфэм
уфэмк
уфэр
уфэхэм
уфэхэр
уха
ухауэ
уху
ухуа
ухуауэ
ухь
ухьыну
ухэм
ухэр
ухэщ
уч
участие
участники
участников
учебник
учреждении
ущ
ущи
ущрохьэл
ущрохьэлӏэ
ущыпэщӏохуэ
ущыхуозэ
уы
уынэ
уысэрыжъыр
уэ
уэгу
уэгузауэдзэ
уэгум
уэгунэбзу
уэгунэбзухэр
уэгур
уэгъу
уэгъукӏэ
уэгъур
уэгъуэ
уэгъуэм
уэгъуэр
уэгъуэхэм
уэгъуэщи
уэд
уэдащ
уэздыгъеи
уэздыгъэ
уэздыгъэхэр
уэк
уэлс
уэм
уэмрэ
уэн
уэнджак
уэну
уэным
уэнымрэ
уэплъмэ
уэр
уэрам
уэращ
уэри
уэркъ
уэркъу
уэркъхэм
уэркъхэмрэ
уэркъхэр
уэрп
уэрпрэ
уэрпхэр
уэрпым
уэру
уэрхэм
уэршэрыпӏэ
уэры
уэрыгъуэ
уэрым
уэрыр
уэрэд
уэрэдгъэӏу
уэрэджыӏакӏуэ
уэрэджыӏакӏуэхэр
уэрэди
уэрэдус
уэрэдхэм
уэрэдхэмрэ
уэрэдхэр
уэрэдыжьхэр
уэрэдым
уэрэдыр
уэс
уэсетиэ
уэсмэн
уэсмэнеи
уэсмэнхэм
уэсым
уэсыр
уэсышхуэхэм
уэт
уэтэ
уэтэм
уэтэуэ
уэу
уэуэ
уэху
уэхугъуэм
уэхур
уэхухэм
уэхухэр
уэхущ
уэхэ
уэхэм
уэхэр
уэц
уэшх
уэшхуэ
уэшххэм
уэшхыпс
уэшхыр
уэшхышхуэхэр
уэщ
уӏэгъэ
ф
фа
фабрикэ
фабрикэхэм
фабэ
фагъуэ
фагъуэщ
фадэ
фае
фаеу
фаи
факт
факъырэ
фараоным
фараонэм
фарер
фарс
фасо
фатэгын
фатэгыну
фатэгыным
фаунэмрэ
фашэ
фашэм
фджр
фе
февраль
федерал
федерального
федеральном
федеральныи
федерации
федерациэ
федерациэм
федерациэр
федерацэм
федор
феи
феплъ
фердинанд
ферна
фернан
фернандо
фз
фи
фиджи
фидирал
физикэ
филаха
филипин
филипинхэм
филипинхэмырэ
филипинхэр
филипп
филиппин
филиппинхэр
филм
филмхэм
философиэ
философиэмрэ
фин
финанс
финикии
финлэнд
финлэндым
фиорд
фиордк
фиордхэм
фиордхэр
фиордым
фиордыр
фирр
фирф
фк
флаг
флагификация
флоренциэ
флоридэ
флорэмрэ
фо
фок
фокӏадэ
фокӏадэм
фокӏадэмрэ
фолклэнд
фон
фонд
фонда
фондым
фонетикэ
формат
формулэ
форум
фотосинтез
фочкӏэ
фошыгъу
фр
фракии
франк
франклин
франко
франсиско
франсуа
франсэз
франц
француз
фредерик
френк
френсис
фрида
фридерик
фридрих
фриули
фроуард
фрэндж
фрэнджхэм
фрэнджыбзэ
фрэнджым
фрэнджымрэ
фулбе
футбол
футболу
фыз
фызхэр
фызым
фыщт
фэ
фэдиз
фэдэ
фэдэу
фэеплъ
фэеплъу
фэк
фэкӏэ
фэм
фэмкӏэ
фэмрэ
фэр
фэрэкӏ
фэтӏии
фэуи
фэуэ
фэхэм
фэхэр
фэшкӏэ
фэягъэ
фӏ
фӏалъитӏым
фӏалъхьэт
фӏащащ
фӏащӏыхь
фӏеи
фӏеифэщ
фӏокӏ
фӏокӏхэ
фӏокӏыр
фӏы
фӏыуэ
фӏыцӏафэ
фӏыцӏафэхэр
фӏыцӏафэщ
фӏыцӏу
фӏыцӏэ
фӏыцӏэм
фӏыцӏэмрэ
фӏыцӏэр
фӏыцӏэрэ
фӏыцӏэу
фӏыцӏэхэм
фӏыцӏэхэр
фӏыцӏэщ
фӏэкӏ
фӏэкӏа
фӏэкӏауэ
фӏэкӏкъым
фӏэкӏуэда
фӏэкӏуэду
фӏэкӏху
фӏэкӏыу
фӏэлъу
фӏэмыкӏыу
фӏэщыгъэм
фӏэщыгъэцӏэхэр
х
ха
хабаровск
хабжэ
хабжэхэр
хабзу
хабзэ
хабзэгъэзанкӏэ
хабзэдэгъэкӏ
хабзэдэгъэкӏым
хабзэкӏэ
хабзэм
хабзэмк
хабзэмкӏэ
хабзэмрэ
хабзэр
хабзэу
хабзэхэм
хабзэхэмрэ
хабзэхэр
хабзэщ
хавпачев
хагъыхьу
хагъэкӏуэдащ
хагъэхьа
хагъэхьащ
хагъэхьэ
хадэ
хадэм
хадэхэк
хадэхэм
хадэхэр
хазрет
хазырыр
хаи
хакасиэ
халъхьа
халъхьар
халъхьауэ
халъхьэ
халыып
хамгии
хамид
хамтран
хамэ
хамэбзэ
хан
ханааным
ханты
хапӏэм
хапӏэр
харидварым
харкоу
хасан
хасэ
хасэм
хасэр
хасэхэм
хатко
хафиз
хах
хахащ
хахын
хахыр
хашхожева
хеи
хелъхьэ
хеубыдэ
хеубыдэр
хеубыдэхэр
хеубыдэщ
хехыр
хеящӏу
хигъэхьа
хии
хилъхьа
хилъхьащ
химиэ
хин
хиндубзэ
хиндудиным
хиндуизмым
хип
хиубыду
хиубыдэ
хиубыдэр
хиубыдэт
хиубыдэу
хиубыдэхэр
хищные
хож
хожыр
хозэ
хозяи
хок
хоккаи
хокусаи
хокӏуадэ
хокӏуэ
хокӏыр
холера
холокост
холъадэ
холъадэхэ
хом
хому
хомурэ
хонаным
хондурас
хоп
хорватии
хоруатиэ
хоруатиэм
хоруатиэр
хоруатхэм
хоруатхэр
хорхе
хосе
хослуулсан
хотя
хохуэ
хохъур
хохъуэ
хохьа
хохьахэ
хохьэ
хохьэр
хохьэхэ
хохьэхэр
христиан
христофор
ху
хуабгъэлъытэ
хуабжу
хуабжьу
хуабу
хуабэ
хуабэм
хуабэр
хуабэхэм
хуабэщ
хуагъэфэщащ
хуаи
хуан
хуашът
хуащ
хуглим
художник
хуе
хуеи
хуер
хуж
хужь
хужьрэ
хужьу
хужьхэм
хужьхэмрэ
хужьхэр
хужьщ
хужьыбзу
хужьым
хужьымрэ
хужьыр
хужьыфэ
хужьыфэу
хужьыфэщ
хуит
хуиту
хуитхэм
хуитхэр
хуитым
хуитымкӏэ
хуитыныгъэ
хуитыныгъэм
хуитыныгъэр
хуитыныгъэхэр
хуитыу
хуищӏа
хулъащхьэм
хулъащхьэмрэ
хулъащхьэр
хулъхугъэ
хулъхугъэм
хулъхугъэр
хулъхугъэхэм
хулъэ
хулъэр
хум
хуозэ
хуохъу
хупс
хупсхэр
хут
хутралъхъу
хухъу
хущхъуэ
хущхъуэу
хуэ
хуэарэзыуэ
хуэбагъым
хуэбапӏэхэм
хуэгъэзауэ
хуэгъэфэщауэ
хуэдз
хуэдзэм
хуэдиз
хуэдизк
хуэдизкӏэ
хуэдизу
хуэдизщ
хуэдизым
хуэдизынщ
хуэдизыр
хуэду
хуэдуи
хуэдууи
хуэдыз
хуэдыуи
хуэдэ
хуэдэми
хуэдэр
хуэдэу
хуэдэуи
хуэдэхэм
хуэдэхэр
хуэдэщ
хуэзу
хуэзэ
хуэзэву
хуэзэгъуэм
хуэзэт
хуэзэу
хуэи
хуэк
хуэку
хуэкӏуэжу
хуэкӏуэт
хуэкӏыхь
хуэм
хуэмеи
хуэмеуэ
хуэмыду
хуэмыдэу
хуэмыныкъуэ
хуэныкъуэ
хуэныкъуэгъу
хуэпамцӏу
хуэплъыжьу
хуэр
хуэсакъ
хуэсакъу
хуэсакъын
хуэт
хуэуэ
хуэф
хуэфашэм
хуэхуэлеи
хуэхъуреи
хуэхъуреуэ
хуэхъут
хуэя
хх
хъаен
хъан
хъанбалыкъым
хъанеи
хъаныкъуэ
хъаным
хъаныр
хъар
хъопс
хъу
хъуа
хъуакъым
хъуам
хъуами
хъуамкӏэ
хъуамрэ
хъуамэ
хъуар
хъуари
хъуат
хъуауэ
хъуаху
хъуахэ
хъуахэм
хъуахэр
хъуащ
хъугъэ
хъугъэх
хъужьа
хъукъым
хъулъыжъыи
хъум
хъумакӏуэ
хъумап
хъуми
хъумпӏэцӏэдж
хъумпӏэцӏэджхэр
хъумрэ
хъумэ
хъумэн
хъумэным
хъун
хъунгъарым
хъункӏи
хъуну
хъунукъым
хъунур
хъунутэкъым
хъунухэр
хъунушым
хъунущ
хъунщ
хъуным
хъуныр
хъунэу
хъупӏэ
хъупӏэхэм
хъупӏэхэр
хъур
хъура
хъуре
хъуреи
хъуреибзэу
хъуреуэ
хъуреягъ
хъуреягъкӏэ
хъуреягъхэр
хъуреягъым
хъуреягъыр
хъуреягъэм
хъури
хъурт
хъурэ
хъурэр
хъусеи
хъут
хъутеи
хъутэр
хъуурэ
хъууэ
хъуфыну
хъуфынут
хъуху
хъухукӏэ
хъухъу
хъухэм
хъухэмрэ
хъухэр
хъухэрамэ
хъухэри
хъухэт
хъухэу
хъущт
хъущхъуэхэр
хъуэхъу
хъыбар
хъыбари
хъыбартыгъ
хъыбару
хъыбархэм
хъыбархэр
хъыбарыжъ
хъыбарыжъхэмрэ
хъыбарыжъым
хъыбарыжьым
хъыбарыкӏэхэр
хъыбарым
хъыбарымкӏэ
хъыбарыр
хъыдыжъы
хъырцеи
хъырцэ
хъырцэхэр
хъыщтхэр
хъэзэл
хъэрзыну
хъэрзынэ
хы
хыбабыщ
хыбабыщхэр
хыболъагъуэ
хыв
хывхэм
хывхэр
хывым
хывыр
хыдзэ
хыдзэм
хыдзэр
хыерс
хыжъэ
хыжь
хыжьэ
хыжьэм
хыжьэхэм
хыжьэхэр
хыжэ
хыжэм
хыжэмрэ
хызекӏуэхэра
хыкхъуэ
хыкхъуэхэр
хыкъум
хыкъумхэм
хыкъумхэр
хыкъумым
хылъэ
хылъэжьыи
хылъэм
хым
хыми
хымрэ
хыор
хыпэ
хыр
хытхьэрыкъуэ
хытӏыгу
хытӏыгуеи
хытӏыгум
хытӏыгумырэ
хытӏыгуныкъуэм
хытӏыгухэм
хытӏыгухэр
хыуэ
хыхьа
хыхьащ
хыхьу
хыхьэ
хыхьэу
хыхэ
хыхэм
хыхэмрэ
хыхэр
хыхэращ
хышхуэ
хышхуэм
хышхуэмрэ
хышхуэрэ
хышхуэхэм
хыщ
хь
хьа
хьаблэ
хьаблэм
хьаблэхэр
хьазырхэр
хьазырылъэхэр
хьазырыр
хьакӏуцубзэ
хьалъагъыр
хьалъу
хьамблу
хьап
хьарып
хьарыпхэм
хьарыпхэр
хьарыф
хьарыфмэ
хьарыфхэр
хьарыфылъкӏэ
хьарыфылъэр
хьафун
хьацыбанэ
хьацыбанэхэр
хье
хьемпшир
хьет
хьетхэр
хьисэпкӏэ
хьэ
хьэблэ
хьэблэм
хьэблэр
хьэблэхэм
хьэблэхэр
хьэбэз
хьэгуагуэ
хьэдагъэ
хьэдищ
хьэдырхэ
хьэдэ
хьэдэгъалӏэ
хьэдэкъаз
хьэдэкъупщхьэхэр
хьэдэр
хьэжмурат
хьэжрэт
хьэжы
хьэжыщӏ
хьэзыру
хьэи
хьэк
хьэку
хьэкъун
хьэкъущыкъу
хьэкӏэ
хьэлифэт
хьэлъагъкӏэ
хьэлъагъыр
хьэлъу
хьэлъэ
хьэлъэдыдэу
хьэлэмэт
хьэмблу
хьэмблухэр
хьэмбылу
хьэмкъутеи
хьэмкӏэ
хьэндырабгъуэ
хьэндыркъуакъуэ
хьэнтӏрабгъуэхэр
хьэпсым
хьэпсэм
хьэпцӏащхъуэ
хьэпцӏащхъуэхэр
хьэпцӏии
хьэпшыпхэр
хьэпщхупщ
хьэпщхупщхэр
хьэпщхупщщ
хьэпӏацӏэ
хьэпӏацӏэхэм
хьэпӏацӏэхэмрэ
хьэпӏацӏэхэр
хьэр
хьэрф
хьэршым
хьэрып
хьэрыпеи
хьэрыпхэм
хьэрыпхэмрэ
хьэрыпхэр
хьэрыпыбзэ
хьэрыпыбзэк
хьэрыф
хьэрыфылъкӏэ
хьэрыфылъэ
хьэсин
хьэсэхэм
хьэт
хьэту
хьэтуса
хьэтхэм
хьэтхэр
хьэтхэрэ
хьэтыбзэ
хьэуар
хьэулеи
хьэхъу
хьэхэм
хьэцэпэцэ
хьэцэпэцэхэм
хьэцэпэцэхэр
хьэшхъуэбгъэжьхэр
хьэщ
хьэщомыщ
хьэщомыщхэм
хьэщомыщхэр
хьэщомыщым
хьэщомыщымрэ
хьэщомыщыр
хьэщхэм
хьэщхэр
хьэщыбз
хьэщыбзхэр
хьэщым
хьэщыр
хьэщыхъу
хьэщӏэгъакӏуэ
хьэӏулэщӏ
хьӏз
хэ
хэбакъукӏурэ
хэбзэ
хэгъуэгум
хэгъуэгухэм
хэгъуэщыхьыным
хэгъэгу
хэгъэгум
хэгъэхук
хэд
хэдэ
хэж
хэзгъэк
хэзылъхьа
хэзылъхьар
хэзылъхьэр
хэк
хэку
хэкужъым
хэкуит
хэкук
хэкукум
хэкум
хэкумэтх
хэкумэтххэр
хэкумэтхым
хэкумэтхымк
хэкумэтхымкӏэ
хэкумэтхымрэ
хэкумэтхыр
хэкур
хэкухэм
хэкухэми
хэкухэмрэ
хэкухэр
хэкӏ
хэкӏа
хэкӏауэ
хэкӏуэда
хэкӏуэдат
хэкӏуэдауэ
хэкӏуэдахэ
хэкӏуэдахэм
хэкӏуэдахэр
хэкӏуэдэгъуэр
хэкӏуэдэн
хэкӏхэр
хэкӏыгъуэ
хэкӏыгъуэм
хэкӏыгъуэр
хэкӏыгъуэхэр
хэкӏыгъуэщ
хэкӏыным
хэлъ
хэлъаду
хэлъадэ
хэлъадэр
хэлъадэу
хэлъадэхэм
хэлъадэхэр
хэлъауэ
хэлъахэр
хэлъкъым
хэлът
хэлъу
хэлъуи
хэлъхьэн
хэлъщ
хэлъымрэ
хэлъыр
хэлъэдапӏэхэм
хэм
хэми
хэмк
хэмкӏэ
хэмрэ
хэмылъу
хэмыт
хэмыту
хэмыхьауэ
хэмыхьу
хэмыхьэу
хэпхъауэ
хэпщӏыкӏыу
хэр
хэра
хэри
хэрщ
хэрэ
хэс
хэсахэр
хэсу
хэсхэщ
хэсщ
хэсыр
хэт
хэта
хэтам
хэтар
хэтауэ
хэтахэм
хэтахэр
хэтащ
хэти
хэткъым
хэтми
хэтт
хэттэр
хэту
хэтху
хэтхэ
хэтхэм
хэтхэмрэ
хэтхэр
хэтщ
хэтым
хэтын
хэтыну
хэтыр
хэу
хэукъуэгъуэ
хэха
хэхам
хэхауэ
хэхъуа
хэхъурэ
хэхъуэн
хэхъуэр
хэхъуэт
хэхыгъуэкӏэ
хэхыгъуэм
хэхыным
хэхьа
хэхьар
хэхьахэр
хэхьэ
хэхьэжьа
хэхьэкъым
хэхьэн
хэхьэным
хэхьэр
хэхэс
хэшъыкӏыгъуэ
хэшъыкӏыгъэ
хэшэгъуэ
хэщ
хүндтэи
хүрээнд
ц
цами
царэ
цацахаас
цев
цез
цезар
цезэр
цеи
целлулахэр
целыи
центр
центра
центральнои
центрами
центре
центру
церковью
цивилизациэ
цивилизациэр
циклон
циклонхэм
цин
цинк
цинчоур
цопсын
цу
цунами
цхинвал
цы
цыджанхэр
цым
цыпэ
цыр
цыхэм
цыхэр
цэи
ціыхухэр
цӏ
цӏанлъу
цӏу
цӏыв
цӏывхэм
цӏывхэр
цӏыжьдадэ
цӏыжьдадэкӏэкӏыхь
цӏыжьдадэпэӏув
цӏыжьдадэхэр
цӏыкӏу
цӏыкӏум
цӏыкӏур
цӏыкӏурэ
цӏыкӏуурэ
цӏыкӏуху
цӏыкӏухэм
цӏыкӏухэр
цӏыкӏухэщ
цӏыкӏущ
цӏыф
цӏыфхэм
цӏыфхэр
цӏыху
цӏыхубэ
цӏыхугъашъэ
цӏыхум
цӏыхумрэ
цӏыхур
цӏыхухэ
цӏыхухэм
цӏыхухэми
цӏыхухэмрэ
цӏыхухэр
цӏэ
цӏэджэгъу
цӏэдыдэр
цӏэкӏэ
цӏэлеи
цӏэм
цӏэмэз
цӏэр
цӏэрыӏу
цӏэрыӏуэ
цӏэрыӏуэт
цӏэрыӏуэхэм
цӏэрыӏуэхэр
цӏэрыӏуэщ
цӏэуэ
цӏэхэм
цӏэхэр
ч
чабак
чад
чаи
чаком
чан
чанаккалэ
чандрагупта
чандрагуптам
чаплин
чаплиным
чапультепек
чарлз
чарли
час
части
частности
часто
частота
часть
че
челабинск
человек
челускин
чем
чемпион
чемпионата
чемпионка
черкес
черкесии
черкесия
черкеск
черкесогаи
черкесск
черкесски
черкесские
черкесскии
черкесского
черкесское
черкесскои
черкесском
черкесы
черчилл
честь
четверг
чех
чехиэ
чехов
чехрэ
чехым
чжен
чикаго
чили
чилим
числе
численности
численность
число
чосэр
чоҥымо
чристан
чристэн
что
чтобы
чувашиэ
чукоткэ
чъ
чъу
чъуэмшъо
чыкӏэ
чылисэ
чылисэм
чылисэр
чылисэхэм
чылэ
чылэхэм
чыпс
чыр
чыристан
чыристэн
чыристэндин
чыристэндиным
чыристэнхэ
чыристэнхэр
чыристэнхэщ
чыристэныгъэ
чыристэныгъэм
чыру
чырхэм
чырхэр
чырхэри
чырыр
чыцэ
чыцэхэм
чышъэ
чышъэхэмрэ
чэдыгъуэ
чэндж
чэнджэш
чэрим
чэсеи
чэщанэ
чэщеи
чӏ
чӏыпӏабзэхэр
чӏыпӏэбзэ
ш
шабле
шаблон
шаблони
шаблонхэм
шаблонхэр
шаблонщ
шаблоны
шаблоным
шаблоныр
шагъыр
шаи
шак
шам
шампаным
шамым
шамымрэ
шамыр
шан
шанхаи
шапсыгъ
шапсыгъхэм
шапсыгъхэмрэ
шапсыгъхэр
шапсыгъым
шапсыгъэ
шапсыгъэбзэ
шапсыгъэбзэкӏэ
шапсыгъэбзэмкӏи
шапсыгъэбзэмкӏэ
шапсыгъэмэ
шапхъэ
шапхъэу
шапхъэхэр
шас
шахт
шее
шеи
шекспир
шел
шелф
шелфым
шие
шии
шиитхэм
шикаи
шинэ
шипящие
ширази
ших
шихуан
шк
школ
школхэмрэ
школым
школыр
шлезуиг
шогенцуков
шоджэн
шоджэнхэм
шомахова
шопен
шопена
шорелъыкъуэ
шорелъыкъуэхэ
шорэ
шорэм
шотлэнд
шотлэндым
шпицберген
шри
штат
штата
штатов
штатхэм
штатхэмрэ
штатым
шу
шуеи
шуецэ
шуу
шууагъыр
шуугъэ
шуугъэу
шууд
шуудзэ
шуудзэр
шууным
шууэ
шухэр
шуэц
шуэцарэ
шуэцарэм
шую
шхалъэ
шхалъэр
шху
шхужъ
шхужь
шхуиӏэ
шхуэ
шхъуант
шхъуантӏу
шхъуантӏэ
шхъуантӏэху
шхъуэнт
шхын
шхынгъэткӏу
шхынк
шхынхэм
шхыныгъуэ
шхыным
шхынымрэ
шхыныр
шхьэкӏэ
шхэным
шъабу
шъагъэк
шъагъэр
шъак
шъакӏуэ
шъакӏуэгъуэм
шъакӏуэхэм
шъаокъом
шъауэ
шъауэгъу
шъауэгъуэ
шъауэхэр
шъу
шъуагьэ
шъхьадж
шъхьак
шъхьакӏэ
шъхьар
шъхьарыхъуэн
шъхьарыхъуэнхэр
шъхьарыхъуэныр
шъхьащыту
шъхьащытыр
шъхьэ
шъхьэгу
шъхьэгъу
шъхьэгъум
шъхьэгъур
шъхьэгъура
шъхьэгъусэ
шъхьэгъусэр
шъхьэдж
шъхьэкӏи
шъхьэкӏэ
шъхьэм
шъхьэмкӏэ
шъхьэр
шъхьэхуит
шъхьэхуиту
шъхьэц
шъхьэцыр
шъхьэщыт
шъхьэщыту
шъхьэщытыр
шъын
шъыным
шъынымрэ
шъыхь
шъыхьхэм
шъыхьым
шъэ
шъэгьашъ
шъэк
шъэныгъэ
шъэныгъэм
шъэныгъэмкӏэ
шъэныгъэхэм
шъэныгъэхэр
шъэт
шъэху
шъэхугъэ
шы
шыбжии
шыбзым
шыгу
шыгуартэр
шыгур
шыгъажэ
шыгъажэш
шыгъу
шыгъэ
шыд
шыкъу
шыкъухэмрэ
шыкӏулътыр
шыкӏуртӏымхэр
шыкӏэ
шыкӏэм
шыкӏэпшынауэ
шыкӏэпшынэ
шыкӏэпшынэм
шыкӏэпшынэр
шылыр
шылэ
шылэджэд
шылэм
шылэр
шым
шымрэ
шынагъуэ
шынакъыкӏ
шындырхъуо
шыпсым
шыр
шыращ
шыри
шырхэм
шырхэр
шырхэри
шырэ
шыхулъагъуэ
шыхэм
шыхэмрэ
шыхэр
шышъхьэӏум
шыщхьэ
шыщхьэӏу
шыщхьэӏум
шыщӏэ
шэ
шэблоным
шэгъуэ
шэджэм
шэдыгъуэ
шэк
шэкӏ
шэкӏыр
шэн
шэнкӏэ
шэнт
шэным
шэнымрэ
шэныр
шэпхъэ
шэр
шэрджэс
шэрджэсхэр
шэрджэсым
шэрджэсымрэ
шэрып
шэрыпӏ
шэрыпӏхэм
шэрыпӏхэр
шэрэдж
шэрэджым
шэугьэн
шэуджэн
шэч
шэшэн
шӏу
шӏуцӏэ
шӏуцӏэм
шӏы
шӏыгу
шӏыгум
шӏыгур
шӏыгухэр
шӏыкӏагъым
шӏым
шӏымахуэм
шӏымахуэр
шӏыми
шӏыналъу
шӏыналъэ
шӏыналъэм
шӏыналъэр
шӏыпэм
шӏыпӏу
шӏыпӏэ
шӏыпӏэм
шӏыпӏэмрэ
шӏыпӏэр
шӏыпӏэтхыпхъэ
шӏыпӏэтхыпхъэр
шӏыпӏэтхыпхъэхэр
шӏыпӏэхэм
шӏыпӏэхэмрэ
шӏыпӏэхэр
шӏыр
шӏыуэ
шӏыхуэ
шӏыхъеи
шӏыхъем
шӏыхъехэр
шӏычылэм
шӏышъылэм
шӏыӏэ
шӏыӏэхэр
шӏэныгъэ
шӏэӏэ
щ
ща
щабэ
щабэм
щагъакӏуэ
щак
щакӏуэ
щакӏуэгъуэм
щакӏуэн
щакӏуэхэм
щакӏуэхэр
щалъагъу
щалъагъур
щам
щанэ
щапхъэ
щапхъэу
щапхъэхэр
щатеуи
щаубыдым
щаукӏ
щаукӏауэ
щаухуар
щауэжь
щачэ
щашхыр
щашъар
щашъыр
щащ
щащӏ
щащӏыр
щегъакӏуэ
щегъэжьагъэу
щеджа
щеи
щек
щекӏуэкӏа
щекӏуэкӏам
щекӏуэкӏащ
щекӏуэкӏым
щехыжьар
щещӏ
щещӏыр
щи
щигъэта
щизых
щимэ
щимэм
щит
щиукӏ
щихьахэр
щиӏыгъщ
щиӏэщ
щогъуалъхьэ
щоджэ
щоджэнц
щоджэнціыкіу
щокӏэцӏ
щолажьэ
щомахуэ
щомахуэр
щомышъыр
щомыщ
щомыщхэм
щомыщым
щопсо
щопсоу
щопсоухэ
щопсохэ
щопсэу
щопсэухэ
щопсэухэр
щохуарзэ
щохъу
щрагъэк
щрах
щрех
щрикъум
щта
щтар
щтащ
щтымэ
щу
щухэр
щхъуантӏэу
щхъуафэ
щхъуафэщ
щхъуэ
щхъуэхэр
щхъуэщ
щхьа
щхьащ
щхьэ
щхьэбгъухэр
щхьэгуащэ
щхьэгуащэм
щхьэгъусэ
щхьэж
щхьэк
щхьэкумцӏ
щхьэкӏэ
щхьэкӏэм
щхьэкӏэхэм
щхьэлыкъуэ
щхьэлыкъуэм
щхьэм
щхьэмкӏэ
щхьэмрэ
щхьэмыж
щхьэмыжым
щхьэр
щхьэуз
щхьэусыгъуэ
щхьэху
щхьэхуимыт
щхьэхуит
щхьэхуиту
щхьэхухэм
щхьэхухэр
щхьэхуэ
щхьэхэм
щхьэшхуэщ
щхьэшыгум
щхьэшыгур
щхьэщыгум
щхьэщыгумрэ
щхьэщыгур
щхьэщытщ
щхьэщӏыбым
щхьэщӏыбыр
щъауэ
щы
щыблэлъэтыкӏкӏэ
щыболъагъу
щыбэгъуащ
щыгугъэ
щыгум
щыгъагъэр
щыгъуалъхьэ
щыгъуалъхьэкъым
щыгъуалъхьэу
щыгъуи
щыгъуэ
щыгъуэлъхьэну
щыгъуэм
щыгъуэми
щыгъуэтащ
щыгъын
щыгъыну
щыгъынхэр
щыгъыным
щыгъыныр
щыгъыныхь
щыгъыныхьхэр
щыжэм
щызек
щызекӏуэм
щызокӏуэ
щызэпкърыхащ
щызэпыхьахэр
щызэф
щызэфӏэувар
щызэфӏэувэм
щызэфӏэувэр
щык
щыкуэдщ
щыкӏадзар
щыкӏедзэ
щыкӏидзар
щыкӏидзу
щыкӏидзэм
щыкӏидзэр
щыкӏэ
щыкӏэдзауэ
щылъ
щылъа
щылъатэкӏэ
щылъщ
щылэжьахэ
щылэжьащ
щым
щымащӏэкъым
щымащӏэщ
щымы
щымытми
щымыту
щымытхэр
щымыхъук
щымыхъукӏэ
щымыӏу
щымыӏэмэ
щымыӏэу
щынагъо
щындырхъуэхэм
щынэси
щынэсым
щыплъагъунур
щыплъагъунущ
щыплъагъур
щыплъэгъунущ
щыпсо
щыпсор
щыпсот
щыпсоу
щыпсоуа
щыпсоуахэ
щыпсоун
щыпсоуэ
щыпсохэм
щыпсохэр
щыпсохэт
щыпсэу
щыпсэуа
щыпсэуауэ
щыпсэуащ
щыпсэукъым
щыпсэурэ
щыпсэухэм
щыпсэухэр
щыпсэухэу
щыпсэуэ
щыпэкӏэхуэм
щыр
щырах
щырех
щырикъуам
щырикъум
щырикъухэм
щыропсалъэ
щырыщу
щыт
щыта
щытакъым
щытам
щытами
щытар
щытауэ
щытаху
щытахэ
щытахэм
щытахэр
щытахэщ
щытащ
щытекӏар
щытетам
щытетар
щытехьам
щытехьар
щытехьэм
щытехьэр
щыткъым
щытми
щытмэ
щытралъхьак
щытт
щыттэкъым
щыту
щытхи
щытху
щытхэ
щытхэкъым
щытхэм
щытхэр
щытхэт
щытхэтэкъым
щытхэщ
щытщ
щытыгъ
щытык
щытыкӏэ
щытыкӏэм
щытыкӏэр
щытыкӏэхэм
щытыкӏэхэр
щытым
щытын
щытыну
щытынхэ
щытыным
щытыр
щытыра
щытыфыну
щыуэ
щыхалъхьар
щыхъу
щыхъуам
щыхъуар
щыхъум
щыхъумэн
щыхъур
щыхъухэм
щыхь
щыхьхэр
щыхьэт
щыхьэтщ
щыхэтым
щыщ
щыщт
щыщу
щыщхэ
щыщхэм
щыщхэр
щыщщ
щыщыр
щыщытым
щыщытыр
щыщыу
щыщӏидзар
щыщӏэдзауэ
щыіэ
щыӏа
щыӏагъ
щыӏагъэп
щыӏар
щыӏахэм
щыӏахэр
щыӏащ
щыӏу
щыӏэ
щыӏэкъым
щыӏэкӏэ
щыӏэм
щыӏэмкӏэ
щыӏэр
щыӏэт
щыӏэу
щыӏэх
щыӏэхэ
щыӏэхэм
щыӏэхэмкӏэ
щыӏэхэр
щыӏэщ
щэ
щэбэт
щэк
щэкӏуэным
щэм
щэнхабзэ
щэнымрэ
щэныр
щэпсэу
щэху
щэхум
щэхуу
щэхуэн
щэхуэным
щэхуэнымк
щэхуэнымкӏэ
щэӏэм
щіэныгъэ
щӏ
щӏа
щӏагъ
щӏагъри
щӏагъуэ
щӏагъуэу
щӏагъхэм
щӏагъыбзэ
щӏагъым
щӏагъымкӏэ
щӏагъымрэ
щӏагъыр
щӏадзащ
щӏадзэ
щӏалэ
щӏауэ
щӏегъу
щӏигъу
щӏигъукъым
щӏигъукӏэ
щӏидзащ
щӏныгъэм
щӏупхъ
щӏупхъхэр
щӏы
щӏыб
щӏыбагъым
щӏыбым
щӏыбымкӏэ
щӏыбымрэ
щӏыбыр
щӏыгу
щӏыгум
щӏыгъу
щӏыгъуу
щӏызекӏуэдзэ
щӏыкӏэ
щӏыкӏэщ
щӏылъэ
щӏылъэм
щӏылъэрыгъуалъхьэхэщ
щӏылъэрыгъуалъхьэщ
щӏым
щӏымахуэ
щӏымахуэм
щӏымахуэми
щӏымахуэр
щӏымрэ
щӏын
щӏыналъэм
щӏыналъэр
щӏыналъэхэм
щӏыналъэщ
щӏыным
щӏыпӏи
щӏыпӏэ
щӏыпӏэм
щӏыпӏэр
щӏыпӏэтхыпхъэ
щӏыпӏэхэм
щӏыпӏэхэми
щӏыпӏэхэр
щӏыпӏэхэрщ
щӏыпӏэщ
щӏыр
щӏыфэм
щӏыфэр
щӏыху
щӏыхуфэ
щӏыхъеи
щӏыхь
щӏыхьагъыр
щӏыхьхэр
щӏыхьщ
щӏыш
щӏышылэм
щӏышылэмрэ
щӏыщхьэфэм
щӏыщылэм
щӏыӏум
щӏыӏэ
щӏыӏэм
щӏэ
щӏэдзэгъуэм
щӏэдзэгъуэр
щӏэлъщ
щӏэм
щӏэнгъуазэ
щӏэнхабзэ
щӏэнхабзэм
щӏэнхабзэмрэ
щӏэныгъэ
щӏэныгъэлъхэм
щӏэныгъэлӏ
щӏэныгъэлӏхэм
щӏэныгъэм
щӏэныгъэмкӏэ
щӏэныгъэр
щӏэращӏэщ
щӏэрыпс
щӏэт
щӏэту
щӏэтхэр
щӏэтщ
щӏэуэ
щӏэх
щӏэху
щӏэхъуар
ъ
ы
ыб
ыбым
ыбымрэ
ыбыр
ыв
ыгу
ыгузэхуаку
ыгук
ыгум
ыгумрэ
ыгуныкъуэ
ыгуныкъуэм
ыгуныкъуэмрэ
ыгуныкъэм
ыгур
ыгуращ
ыгуу
ыгухэ
ыгухэм
ыгухэмк
ыгухэмрэ
ыгухэр
ыгъ
ыгъа
ыгът
ыгъу
ыгъуу
ыгъуэ
ыгъуэм
ыгъхэр
ыгъщ
ыгъыр
ыгъэ
ыгъэк
ыгъэр
ыгъэу
ыгъэх
ыгъэхэм
ыгъэхэр
ыгъэшх
ыж
ыжа
ыжауэ
ыжын
ыжьмэ
ызахуэм
ызо
ыидзэм
ык
ыкъым
ыкӏи
ылъыр
ылъэ
ылъэку
ылъэм
ылъэр
ылэ
ым
ымакъэрэ
ымахуэ
ымахуэк
ымахуэку
ымахуэм
ымахуэпэ
ымахуэр
ымк
ымрэ
ын
ыналъу
ыналъэм
ыналъэхэм
ынрэ
ыну
ынур
ынф
ыныгъэ
ыным
ыныр
ып
ыпшъэкӏэ
ыпщыгъуэ
ыпыи
ыпэ
ыпэхэм
ыр
ыри
ырт
ырэ
ысхьа
ысхьахэ
ысхьэ
ысык
ысып
ыт
ыу
ыуашъ
ыуж
ыужым
ыуи
ыуращ
ыурэ
ыуэ
ыф
ыфэ
ыфэм
ыфэу
ыхагъыр
ыху
ыхубз
ыхубзхэр
ыхум
ыхур
ыхут
ыхуу
ыхухъухэр
ыхухэм
ыхухэр
ыхь
ыхьагък
ыхьагъыр
ыхьауэ
ыхьащ
ыхьит
ыхьрэ
ыхьу
ыхьхэм
ыхьхэр
ыхьыгъуэхэ
ыхьым
ыхьыр
ыхьэ
ыхьэм
ыхьэмк
ыхьэр
ыхьэращ
ыхьэхэр
ыхэкъым
ыхэр
ыц
ыш
ыште
ышъэ
ышылэ
ышылэм
ыщ
ыщокъуэ
ь
э
эволуциэ
эволуциэр
эгеи
эгъу
эгъум
эгъунэр
эгъухэм
эгъуэ
эджи
эдз
эдзап
эдзауэ
эдзэ
эдзэгъуэм
эдуард
эдыдэр
эе
эжт
эжым
эжыр
эзэ
эи
эк
экз
экзоскелет
экзоскелетыр
экологиэ
экологиэм
экономикэ
экономикэм
экономикэмкӏэ
экономикэмрэ
экономикэр
экономически
экспедицием
экспедициэ
экспедициэм
экспедициэр
экспортым
экуадор
экуатор
экуаторым
экхъуэк
экъо
экъуэ
экъым
эл
элбрус
электро
электромалъхъэдис
электроникэ
элемент
элъ
элъу
элъык
элъыпыту
эль
эльбрус
эльмесхъан
эм
эми
эмирэт
эмк
эмрэ
эмык
эмыргуеим
эмыргуэи
эмыщ
эмэ
эн
энат
энди
эндокрин
энергиэ
энрико
эну
энциклопедии
энциклопедическии
энциклопедиэ
энциклопедиэм
энциклопедиэшхуэм
энциклопедия
эныгъэ
эным
эп
эпизод
эпир
эпос
эпхъ
эпхъуащ
эпхъук
эпхъхэм
эпщокъуэ
эпыкъуэгъу
эр
эращ
эри
эритриэ
эрнан
эрт
эрщ
эры
эрышэ
эрышэхэм
эрышэхэр
эрыщ
эрэ
эрэм
эс
эсетиэ
эсетиэм
эсетиэр
эскимо
эскиндар
эсп
эспан
эспаниэ
эспаниэм
эспаниэмрэ
эспаниэр
эспанхэм
эспанхэмрэ
эспанхэр
эспаныбзэ
эспаныбзэр
эспанэм
эстониэ
эстониэм
эстремадура
эстремадурэ
эсу
эт
эта
этанол
этауэ
эти
этих
этнар
этникэ
этнических
это
этого
этои
этом
этому
этот
эту
этхып
этхэр
эты
этык
этым
этыну
этюды
эу
эува
эувар
эувауэ
эувэхэр
эужыгъуэ
эужыгъуэхэр
эуи
эупщ
эуращ
эух
эухым
эуэ
эф
эфиоп
эфиопиэ
эфиопиэм
эфиопыр
эфыр
эх
эху
эхыурэ
эхэм
эхэми
эхэмк
эхэмрэ
эхэр
эхэри
эхэу
эхэщ
эц
эш
эшхуэ
эщ
эщхуэ
эщыгъэ
эщыгъэц
эщэ
эщэк
ю
юан
юг
югослав
югославымрэ
южная
южнои
юкатан
юлии
юм
юпикыбзэ
юрии
юрттэт
юртэри
я
ябгъуагъу
ябгынэжахэм
ябж
ябжт
ябжхэр
ябжыр
ябзэ
ябзэр
ябзэхэр
ява
является
являются
явэ
ягу
ягугъу
ягугъэ
ягугъэт
ягуэч
ягуэча
ягъакӏуэ
ягъакӏуэт
ягъасэт
ягъаф
ягъашхэ
ягъувауэ
ягъунэгъу
ягъунэгъуу
ягъусэу
ягъуэтмэ
ягъуэтыфыр
ягъэгъуащэ
ягъэдахэт
ягъэзащ
ягъэзэфху
ягъэк
ягъэкӏт
ягъэкӏуэда
ягъэкӏыр
ягъэлъагъу
ягъэлъагъуэ
ягъэлъап
ягъэтӏысын
ягъэув
ягъэува
ягъэувыр
яд
яде
ядеж
ядежь
ядек
яджэт
ядт
ядэ
ядэк
ядэкъым
ядэкӏыгъу
ядэм
ядэр
ядэщ
ядэщӏыгъуу
язакъу
язщ
язык
языка
языках
языке
языки
языков
языком
языныкъуэхэм
языныкъуэхэр
язытыр
язэхуаку
язэхуакум
яи
як
яку
якутиэм
якуэдым
якӏыхьагъу
якӏэту
ялъагъу
ялъагъукъуэлэну
ялъагъур
ялъагъухэ
ялътауэ
ялъытамэ
ялъытауэ
ялъытэ
ялъытэр
ялъытэт
ялъэс
ялыту
ям
ямаи
ямакъэхэр
ямал
ямыду
ямылъытауэ
ямыхьчу
ямыӏу
ямыӏэу
январым
январь
января
янцзы
янцзырэ
янэ
янэхъ
янэхъыбу
янэхъыбэм
янэхъыбэр
янэхь
янэхэр
яп
япкъыр
япон
японхэр
японым
японымрэ
япу
япхауэ
япху
япхъыж
япшъэ
япым
япыт
япытщ
япэ
япэдыду
япэдыдэу
япэк
япэкӏэ
япэм
япэми
япэрауэ
япэре
япэреи
япэрем
япэрер
япэреуэ
япэрехэр
япэрыт
япэу
япэщӏыкӏэ
яр
яри
ярихдаа
яриӏуагъ
ярослав
ярославл
ярылъу
ярыт
ят
ятегъэпсыхьахэ
ятекӏуа
ятелъ
ятелъу
ятемыту
ятепсэлъыхьын
ятет
ятеткъым
ятету
ятетщ
ятеуа
ятеухуа
ятеухуауэ
ятехуэкъым
ятоуэ
ятсен
яттэкъым
яту
ятыным
ятыр
ятӏагъуэ
ятӏэ
ятӏэгъуэ
ятӏэгъуэм
яублэ
яубыд
яубыда
яубыдауэ
яубыдахэм
яубыдри
яубыдт
яубыду
яубыдхэр
яубыдын
яубыдыну
яубыдыр
яугуэш
яуж
яужк
яужкӏэ
яужми
яужу
яужым
яужыреи
яужыреуэ
яужырыт
яужь
яужьым
яук
яукӏа
яукӏауэ
яукӏащ
яукӏт
яукӏыну
яукӏыу
яутӏыпщащ
яухуа
яухуауэ
яухуащ
яуэ
яф
яфэр
яфӏэкӏуэда
яхуищӏащ
яхуэбгъэлъытэ
яхуэду
яхуэдэу
яхуэдэщ
яхуэмыфащэу
яхуэныкъу
яхуэсакъу
яхуэхъу
яхъумэ
яхъумэу
яхъуэжащ
яхьауэ
яхьчу
яхьыр
яхэлъ
яхэлъу
яхэлъыр
яхэм
яхэр
яхэт
яхэткъым
яхэту
яхэтхэм
яхэтхэр
яхэтщ
яхэтэр
яц
яцыр
яцӏэ
яцӏэкӏэ
яцӏэр
ячӏыгужъ
ячӏыгужърэ
яш
яшх
яшххэр
яшхыр
яшхыркъым
яшъ
яшъа
яшъат
яшъауэ
яшъахэ
яшъкъым
яшъри
яшът
яшъу
яшъхьамрэ
яшъхьэщыту
яшъхэр
яшъын
яшъыну
яшъыр
яшъэк
яшъэр
ящ
ящхьщ
ящыщ
ящыщт
ящыщу
ящыщху
ящыщхэ
ящыщхэм
ящыщхэр
ящыщщ
ящыщыр
ящӏ
ящӏа
ящӏауэ
ящӏащ
ящӏкъым
ящӏыгъуу
ящӏын
ящӏыр
ящӏэ
яэ
яӏа
яӏану
яӏащ
яӏу
яӏут
яӏыгъ
яӏыгъа
яӏыгъащ
яӏыгът
яӏыгъу
яӏыгъхэр
яӏыгъщ
яӏыгъын
яӏэ
яӏэкъым
яӏэну
яӏэным
яӏэр
яӏэт
яӏэтыр
яӏэтэкъым
яӏэу
яӏэхэр
яӏэщ
ҡалып
үлгі
ҳ
ӏ
ӏазэгъуэхэм
ӏанатӏэр
ӏапэ
ӏарысу
ӏарысэ
ӏаташъхьу
ӏашэ
ӏеи
ӏеуэ
ӏофышӏэхэр
ӏоху
ӏохугъуэ
ӏохугъуэхэм
ӏохур
ӏохухэм
ӏохухэр
ӏохьэ
ӏу
ӏуашъхьа
ӏуашъхьахэм
ӏуашъхьитху
ӏуашъхьэ
ӏуашъхьэм
ӏуашъхьэхэм
ӏуашъхьэхэр
ӏуащхьитху
ӏуащхьэ
ӏуащхьэм
ӏуащхьэмахуэ
ӏуащхьэми
ӏуащхьэр
ӏуащхьэхэм
ӏуащхьэхэмрэ
ӏуащхьэхэр
ӏуащхьэщ
ӏув
ӏувагъ
ӏувагъыр
ӏувкъым
ӏуву
ӏувхэм
ӏувхэр
ӏувщ
ӏувым
ӏузу
ӏузэ
ӏузэв
ӏузэвым
ӏузэвымкӏэ
ӏулъ
ӏулъщ
ӏумпэм
ӏуохугъуэр
ӏупс
ӏупщӏу
ӏупэ
ӏупэхэмкӏэ
ӏус
ӏусым
ӏусыр
ӏут
ӏута
ӏуту
ӏутхэр
ӏутӏанэ
ӏутӏыж
ӏуфэ
ӏуфэбзу
ӏуфэбзухэр
ӏуфэм
ӏуфэмкӏэ
ӏуфэмрэ
ӏуфэр
ӏуфэхэм
ӏуфэхэр
ӏухьэм
ӏухьэпӏэ
ӏухьэпӏэр
ӏухьэр
ӏуэлвэ
ӏуэрыӏуатэ
ӏуэрыӏуатэм
ӏуэрыӏуатэхэм
ӏуэрыӏуатэхэр
ӏуэху
ӏуэхур
ӏыгъын
ӏыхьлы
ӏыхьлыгъуэр
ӏыхьэ
ӏыхьэм
ӏыхьэр
ӏыхьэхэр
ӏыхьэщ
ӏэбжъанэхэм
ӏэгу
ӏэгур
ӏэгъуэблагъуэм
ӏэгъуэблагъуэхэм
ӏэдакъэ
ӏэжьэ
ӏэжьэм
ӏэзэ
ӏэзэгъуэ
ӏэи
ӏэкӏуэлъакӏуэу
ӏэл
ӏэлу
ӏэлъын
ӏэмэ
ӏэмэпсымэ
ӏэмэпсымэжьхэр
ӏэмэпсымэхэм
ӏэмэпсымэхэмрэ
ӏэмэпсымэхэр
ӏэнапэ
ӏэнапэм
ӏэнатэр
ӏэнатӏашъхьэм
ӏэнатӏашъхьэр
ӏэнатӏу
ӏэнатӏэ
ӏэнатӏэгъу
ӏэнатӏэгъуэ
ӏэнатӏэгъуэм
ӏэнатӏэгъуэр
ӏэнатӏэгъуэхэм
ӏэнатӏэм
ӏэнатӏэмрэ
ӏэнатӏэпашъхьэр
ӏэнатӏэпӏашъхьэ
ӏэнатӏэпӏашъхьэм
ӏэнатӏэпӏашъхьэр
ӏэнатӏэр
ӏэнатӏэшхуэ
ӏэниуар
ӏэнэ
ӏэнэм
ӏэнэмэту
ӏэпапӏэ
ӏэпапӏэхэр
ӏэплъэпкъ
ӏэплъэпкъкӏи
ӏэплъэпкъкӏэ
ӏэплъэпкъым
ӏэплъэпкъыр
ӏэпшъэр
ӏэр
ӏэрамэ
ӏэргъэбэгухэр
ӏэрзехьэныгъэ
ӏэрубыд
ӏэрубыдхэм
ӏэрысу
ӏэрысэ
ӏэрыубыд
ӏэрыщӏ
ӏэсу
ӏэсэ
ӏэтауэ
ӏэташъхьэ
ӏэтащхьэм
ӏэуэ
ӏэфракӏэ
ӏэфӏ
ӏэфӏагъыр
ӏэхъуамбэхэм
ӏэхъупӏэ
ӏэхьэ
ӏэшъагъу
ӏэшъагъэ
ӏэшъагъэм
ӏэшъагъэхэм
ӏэшъагъэхэмрэ
ӏэшъагъэхэр
ӏэшым
ӏэшэ
ӏэшэм
ӏэшэр
ӏэщ
ӏэщым
ӏэщэ
ӏэщӏагъэ
ӏэщӏагъэу
կաղապար
ֵ
ַ
ָ
ֹ
ּ
ויקיפדיה
טעגא
ס
ף
קא
קטגוריה
ריע
תבנית
ا
الگو
بذرة
تصنيف
خرد
د
رده
س
سانچہ
صفحات
قالب
م
معلومات
مقاله
ن
های
ويكيبيديا
ویکی
ي
َ
ِ
ْ
ٓ
ٔ
ٕ
پدیا
ܕ
ނ
ރ
ޅ
ކ
އ
ވ
މ
ތ
ސ
ޑ
ޓ
ޔ
ޕ
ޤ
ަ
ާ
ި
ީ
ު
ެ
ޭ
ޮ
ް
ँ
ं
ः
क
ख
ग
घ
च
ज
जनक
ट
ठ
ड
ढ
ण
त
द
ध
न
प
ब
भ
भट
म
य
र
ल
लय
ळ
व
श
ष
स
ह
ा
ि
ी
ु
ू
ृ
े
ो
ौ
्
ঁ
ং
উইক
ও
ক
খ
চ
ট
ঠ
ড
ণ
থ
দ
ন
প
ব
ভ
য
র
ল
শ
স
়
া
ি
ী
ু
ৃ
ে
্
ৰ
ਨ
ਾ
ੂ
ં
ક
ગ
ચ
ડ
ઢ
ણ
પ
ભ
ય
ર
ળ
વ
શ
સ
ા
િ
ી
ૂ
ે
ો
્
ଚ
ଛ
ଞ
ା
୍
க
கள
ட
ண
த
ந
ப
ய
ர
வ
ா
ி
ீ
ு
ே
ை
்
ం
క
గ
డ
త
న
ప
భ
మ
య
ర
ల
వ
వర
స
ా
ి
ీ
ు
ూ
ృ
ే
ొ
ో
్
ಂ
ಕ
ಗ
ಟ
ಡ
ದ
ನ
ಪ
ಯ
ರ
ಲ
ವ
ಸ
ಹ
ಾ
ಿ
ು
ೆ
್
ೕ
ം
ക
ഗ
ച
ട
ഡ
ത
ധ
ന
പ
ഫലക
ഭ
മ
യ
ര
ല
ള
വ
വർഗ
ശ
സ
ാ
ി
ീ
ു
ൂ
െ
േ
്
ൻ
ක
ඩ
ප
ය
ල
ව
ශ
ස
්
ා
ැ
ි
ී
ෙ
ก
จ
ช
ด
ถ
ท
น
บ
ผ
พ
ภ
ม
ย
ล
ว
หมวดหม
ั
ิ
ี
ื
ุ
ู
แบบ
แม
่
้
์
ກ
ດ
ບ
ຜ
ພ
ລ
ວ
ັ
ິ
ີ
ື
ູ
ົ
່
້
ໍ
თარგი
ინფოდაფა
კატეგორია
분류
틀
መደብ
ក
ច
ត
ថ
ទ
ន
ប
ព
ម
រ
រគ
ល
ា
ុ
ូ
ំ
់
័
្
ᨂ
ᨑ
ᨙ
​
‌
‍
‎
–
—
―
‘
’
“
”
„
†
•
…
‪
‬
‰
‹
›
№
→
↔
↗
↘
↷
−
≤
③
④
⑦
♀
♂
✔
⟨
⟩
ⴰ
ⴳ
ⴷ
ⴻ
ⴼ
ⵉ
ⵎ
ⵏ
ⵓ
ⵔ
ⵖ
ⵜ
ⵟ
ⵢ
ⵣ
⺀
⺄
⺆
⺈
⺊
⺌
⺕
⺝
⺸
⺼
⿰
⿱
⿲
⿳
⿴
⿵
⿶
⿷
⿸
⿹
⿺
⿻
〢
の
゙
゚
ア
ェ
カ
ケ
コ
サ
シ
ス
タ
チ
テ
ト
ナ
フ
ヘ
ユ
リ
ル
ロ
ー
㇁
㇂
㇄
㇇
㇈
㇉
㇓
㐁
㐄
㐅
㐌
㐫
㐬
㐭
㐮
㐱
㑒
㒵
㒸
㒼
㓁
㓞
㔾
㕛
㕣
㖾
㘝
㚅
㚇
㚔
㚘
㝉
㝡
㝴
㝵
㞋
㞢
㞷
㠩
㠭
㠯
㡀
㡭
㡿
㢲
㢴
㣇
㣺
㥯
㪅
㫄
㫐
㫒
㫺
㬅
㬎
㬥
㬰
㲋
㳄
㷠
㸒
㸚
㸦
㼌
㼲
㽞
㿟
䀠
䂞
䍃
䏍
䒑
䖍
䖒
䖝
䖵
䙴
䚻
䜌
䝿
䡛
䧹
䪞
一
丁
丂
七
丄
丅
丆
万
丈
三
上
下
丌
不
与
丏
丐
丑
专
且
丕
世
丘
丙
业
东
丞
丢
丣
两
严
並
丨
丩
个
丫
丬
中
丮
丰
丱
串
丵
丶
丷
丸
丹
为
主
丽
丿
乀
乂
乃
久
乆
乇
么
义
之
乌
乍
乎
乏
乐
乑
乔
乖
乗
乘
乙
乚
乛
乜
九
乞
也
习
乡
乳
乾
亀
亅
了
亇
予
争
事
二
亍
于
亏
亐
云
互
亓
五
井
亘
亚
亜
亞
亟
亠
亡
亢
交
亥
亦
产
亨
亩
享
京
亭
亮
亯
亰
亲
亳
亶
亷
人
亻
亼
亾
仁
今
介
仌
从
仐
仑
仒
仓
仕
他
付
仝
代
令
以
仮
任
企
伊
伏
伐
休
会
伯
但
位
何
佘
余
作
佥
使
來
侈
侌
侖
侯
侵
便
係
俄
保
俞
信
修
倉
倍
候
倠
備
僉
僕
儿
兀
允
兂
元
兄
充
兆
兇
先
光
兊
克
兌
免
兑
兒
兓
兔
党
兜
兟
入
全
兩
兪
八
公
六
兮
兰
共
关
兵
其
具
典
兹
兼
冀
冂
冃
冄
内
冈
冉
冊
冋
册
再
冎
冏
冐
冒
冓
冖
冗
冘
军
农
冝
冡
冥
冫
冬
冷
几
凡
凢
凵
凶
凷
凸
凹
出
函
凾
刀
刁
刂
刃
刄
刅
分
切
刍
刑
刕
刖
列
刘
则
初
删
別
利
刪
别
到
制
刺
則
削
剌
前
剡
剽
劉
力
功
加
劦
助
劫
劳
劵
勃
勇
勉
勒
動
務
勞
勤
勹
勺
勻
勾
勿
匀
匂
包
匆
匈
匊
匋
匍
匕
化
北
匚
匝
匡
匪
匱
匸
匹
区
医
匽
匿
區
十
卂
千
卄
卅
卆
升
午
卉
半
卌
华
卑
卒
卓
单
卖
南
卜
卝
卞
占
卡
卢
卣
卤
卦
卩
卪
卬
卯
印
危
即
却
卵
卷
卸
卻
厂
厃
厄
历
厈
厉
厌
厓
厘
厚
原
厤
厥
厨
厭
厲
厶
厷
厸
去
厼
厽
叀
参
參
叅
又
叉
及
友
双
反
叐
发
叒
叔
叕
取
受
叚
叜
叟
口
古
句
另
叩
只
召
可
台
叱
史
右
叵
号
司
叹
吂
各
吅
合
吉
吊
吋
同
名
后
吏
向
吕
君
吝
吞
吥
否
含
启
吳
吴
吹
吾
呂
呆
呈
告
员
呙
周
命
咅
和
咎
咠
咢
咨
咸
咼
哀
品
哉
員
哥
哲
唐
唔
商
啇
問
啚
啬
啻
善
喜
喬
單
喿
嗇
噩
嚴
囊
囗
囘
囙
囚
四
回
囟
因
囧
囬
困
囱
囷
固
国
圂
圅
國
圍
圓
土
圡
圣
圥
在
圭
地
圶
圼
坊
坐
坒
坚
坴
垂
垔
垚
埀
埋
城
埶
執
基
堂
堅
堆
堇
堯
塞
墨
壇
壘
士
壬
壯
声
壳
壴
壹
壺
壽
夂
处
夅
夆
备
夊
夋
夌
复
夏
夒
夕
外
夗
夘
多
夜
夢
大
夨
天
太
夫
夬
夭
央
失
夲
头
夷
夸
夹
夻
夾
奂
奄
奇
奈
奉
奎
奏
奐
契
奓
奔
奚
奞
奠
奢
奥
奭
女
奴
奻
好
如
妄
妙
妟
妥
妻
妾
姑
委
姜
威
娄
婁
婴
嬰
嬴
子
孑
孔
孕
孖
字
存
孚
孛
孝
孟
季
孤
学
孫
孱
學
宀
宁
宂
它
宅
宇
守
安
宋
完
宏
宓
宗
官
定
宛
宜
宝
客
宣
室
宮
宰
害
家
容
宾
宿
寄
寅
密
富
寒
察
寧
審
寫
寬
寮
寸
对
寺
寻
寽
対
寿
封
尃
射
将
將
專
尉
尊
尋
尌
對
小
少
尒
尓
尔
尖
尗
尚
尞
尢
尣
尤
尧
尨
尭
就
尸
尹
尺
尻
尼
尽
尾
尿
局
居
屈
屋
屎
屏
屑
展
屖
屚
属
屠
屡
屬
屮
屯
屰
山
屵
屾
岁
岂
岑
岡
岩
岳
岸
峯
島
崇
崑
崔
崖
崙
崩
嵬
嶲
巂
巛
川
州
巟
巠
巢
巤
工
左
巧
巨
巩
巫
差
己
已
巳
巴
巷
巸
巽
巾
巿
帀
币
市
布
希
帚
帛
帝
带
師
席
帶
常
干
平
年
幵
并
幷
幸
幺
幻
幼
幽
幾
广
広
庄
床
底
店
庚
府
度
庫
庭
庶
康
庸
廉
廌
廛
廣
廩
廴
延
廷
建
廾
廿
开
弁
弃
弄
弇
弋
式
弓
弔
引
弗
弘
弜
弟
弥
弦
弱
張
強
强
彊
彌
彎
彐
彑
当
彔
录
彖
彗
彡
形
彥
彦
彧
彭
彳
役
彼
往
待
律
徒
得
徙
從
復
微
徵
心
忄
必
忌
忍
志
忝
忠
忩
快
念
忽
忿
思
怠
急
怱
恆
恒
恩
恭
息
悉
患
悤
悲
悶
惠
惡
惢
愁
愈
意
愛
感
慈
慧
慮
憂
憲
應
戀
戈
戉
戊
戋
戌
戍
戎
成
我
戒
戔
或
戚
戠
戢
截
戲
戶
户
戸
戹
戼
戾
房
所
扁
扇
手
扌
才
打
托
执
承
折
拉
拜
拿
掌
推
提
搞
摩
支
攴
攵
收
攸
改
放
政
敄
敏
敕
敖
敗
敝
敞
敢
散
敦
敫
敬
数
敷
數
斂
文
斉
斊
斎
斗
斤
斥
斩
斬
斯
新
方
於
施
斿
旁
旋
族
无
旡
既
旣
日
旦
旧
旨
早
旬
旱
旲
时
旾
昆
昇
昌
昍
明
昏
易
昔
昗
昜
星
春
昬
是
昱
昴
昷
時
晃
晋
晏
普
景
晶
智
暑
暴
曇
曩
曰
曲
曳
更
曷
書
曹
曼
曾
替
最
朁
會
月
有
朋
服
朔
朕
朗
望
朝
木
朩
未
末
本
札
朮
术
朱
朵
朶
朿
杀
杏
杜
束
条
来
東
杲
杳
松
板
析
林
枚
果
枝
枲
枼
某
柔
查
柬
柰
柴
栄
栈
栗
桀
框
桑
桼
梁
條
梟
梨
棘
棠
棥
森
植
楔
楚
業
楽
榮
樂
樊
模
欠
次
欣
欮
欲
欶
欽
款
歆
歇
歛
止
正
此
步
武
歧
歨
歪
歮
歯
歰
歲
歴
歷
歸
歹
歺
死
殳
段
殷
殸
殹
殺
殻
殿
毋
毌
母
每
毒
比
毕
毚
毛
毳
氏
氐
民
气
氣
水
氵
氶
氷
永
氺
氾
求
汉
汝
汞
江
沃
沓
沙
沝
泉
法
波
泣
泥
泰
洛
洪
活
派
流
浦
浪
浮
消
淡
淮
混
清
渚
渠
湯
滿
漢
漸
火
灬
灭
灰
灵
灷
炅
炎
炏
炗
炙
炭
為
烈
烏
烝
焉
無
焦
焱
然
煞
熊
熏
燕
營
燮
爪
爫
爭
爯
爰
爱
爲
爵
父
爻
爽
爾
爿
片
牙
牚
牛
牜
牟
牢
牧
物
牪
牽
犀
犬
犭
犮
狂
狄
狊
独
狺
猋
猒
猪
献
獻
玄
率
玉
王
玟
玨
珎
班
理
琴
瑟
瑩
瓜
瓦
甘
甚
生
産
用
甫
甬
田
由
甲
申
电
甶
男
甸
甹
画
甾
畀
界
畏
畐
留
畜
畟
畢
畧
畨
番
畫
異
畱
當
畺
畾
疊
疋
疌
疑
疒
疾
癶
癸
癹
登
發
白
百
皀
皃
的
皆
皇
皋
皐
皕
皮
皷
皿
盃
盆
盇
盈
益
盍
盎
监
盒
盖
盛
盡
監
盤
盧
目
直
相
盾
省
眇
眉
看
眔
眞
真
眷
眼
眾
着
睘
睪
睿
瞏
瞢
瞿
矍
矛
矞
矢
矣
知
矦
短
石
破
碎
磊
磨
示
礻
礼
祟
票
祭
禀
禁
禸
禹
禺
离
禽
禾
禿
秀
秃
秉
秋
科
秝
秦
移
稟
穀
穌
穴
究
穹
空
穿
突
窄
窒
立
竒
竜
竝
竟
章
童
端
竹
笑
笠
筆
等
答
箕
算
管
箴
節
篤
篭
米
类
粉
粛
粟
粤
粦
粲
糞
糸
糹
系
紀
約
納
素
索
紫
累
細
絜
絫
統
絲
続
維
綿
総
縣
總
繁
繇
纍
纟
红
维
缶
网
罒
罔
罕
罗
罙
罡
罢
罪
署
罷
羅
羊
羌
羍
美
羔
羕
羗
羞
羡
羣
群
義
羲
羸
羽
翁
翏
習
翕
翟
翠
翼
老
耂
考
者
耆
而
耎
耑
耒
耳
耴
耶
耷
聂
聊
聖
聚
聯
聶
聿
肀
肃
肅
肉
肖
肙
肥
肩
肯
育
肴
胃
背
胡
胥
能
脊
脩
膚
臣
臤
臧
自
臬
臭
臯
臱
至
致
臺
臼
臽
臾
臿
舀
舂
舄
與
興
舉
舌
舍
舛
舜
舞
舟
般
艮
良
色
艸
艹
艾
芒
芔
芬
芮
花
芳
芺
芻
苔
苗
苟
若
苦
英
茶
茸
荅
草
荒
荣
荼
莆
莧
莫
莽
菆
菊
菐
華
萬
落
葉
著
葛
董
葵
蒙
蒦
蒼
蓋
蓬
蓺
蔑
蔡
蕉
蕭
薄
薛
薦
薰
藍
藏
藥
蘭
虍
虎
虐
虒
虔
處
虖
虗
虘
虚
虛
虜
虞
虫
虽
蚤
蚩
蜀
蜜
蟲
蠡
血
行
衍
衛
衣
衤
表
衮
衰
袁
袞
褭
褱
襄
襾
西
覀
要
覃
見
規
覓
覧
親
覽
见
角
解
言
訁
訇
計
記
話
詹
語
誩
論
諸
讠
语
谷
豆
豈
豊
豐
豕
豖
豙
象
豦
豩
豪
豸
貇
貝
貞
貟
負
貢
貧
貪
貫
責
貳
貴
買
費
賁
資
賈
賏
賓
賔
賛
賞
賢
賣
質
賴
贊
贝
贡
责
货
贯
贲
贵
赖
赞
赤
赦
走
越
足
路
蹇
身
躬
車
軍
軎
軟
輦
车
辛
辜
辟
辥
辰
辱
農
辵
辶
边
达
过
近
连
迷
追
退
送
逆
选
逐
通
速
造
逢
連
逮
進
遀
遂
過
道
達
遣
適
遷
選
遺
邊
邑
邕
那
邦
邪
郎
部
郭
都
鄉
酉
酋
配
酓
釆
采
釋
里
重
野
量
金
釒
錢
钅
長
镸
长
門
閃
閉
開
閏
閑
閒
間
閔
関
閵
閻
闌
门
间
闷
阑
阜
阝
阿
降
除
陳
隆
隊
隋
隡
隨
隱
隶
隹
隺
隻
隼
隽
难
雀
雁
集
雈
雋
雍
雐
雔
雙
雚
雜
雝
離
難
雨
雩
雪
雲
零
雷
需
霍
霜
霝
霞
霸
靈
靑
青
非
靡
面
靣
革
韋
韦
韭
韯
韱
音
頁
頃
項
須
頗
頡
頻
顛
類
页
風
风
飛
飞
食
飠
飾
養
館
饣
首
香
馬
馮
駦
马
骨
體
高
髟
鬥
鬯
鬲
鬼
魚
魯
鮮
鱼
鲁
鳥
鳳
鸟
鹵
鹿
麃
麗
麥
麦
麻
黃
黄
黍
黎
黑
黒
黨
黹
黽
黾
鼎
鼓
鼠
鼻
齊
齋
齐
齒
齿
龍
龙
龜
龟
龠
龰
龱
龴
龵
龶
龷
龸
龹
ꙗ
者
艹
﻿
？
𐌰
𐌱
𐌲
𐌹
𐌿
𐍂
𐍃
𐍅
👩
📲
🚀
🜨
𠀁
𠀃
𠀆
𠀉
𠀎
𠀐
𠁁
𠁣
𠂆
𠂇
𠂈
𠂉
𠂊
𠂋
𠂎
𠂒
𠂔
𠂛
𠂡
𠂢
𠂤
𠂬
𠂭
𠂹
𠃊
𠃋
𠃌
𠃍
𠃎
𠃑
𠃓
𠃔
𠃜
𠄌
𠄎
𠄠
𠄢
𠆢
𠆥
𠇍
𠈌
𠌵
𠓜
𠔉
𠔥
𠔼
𠔽
𠔿
𠕀
𠕁
𠕋
𠘧
𠘨
𠙻
𠙼
𠚏
𠚒
𠚤
𠚪
𠣏
𠤎
𠤕
𠥓
𠦄
𠦑
𠦝
𠧒
𠧗
𠧪
𠩺
𠪚
𠫓
𠫔
𠫤
𠬛
𠬝
𠬞
𠬢
𠬤
𠬶
𠮛
𠮦
𠮷
𠯑
𠱠
𠳮
𠷎
𡈼
𡉀
𡉵
𡌥
𡍮
𡏳
𡕒
𡕩
𡕰
𡖅
𡗗
𡗜
𡘆
𡘤
𡧱
𡨄
𡩧
𡬠
𡭽
𡰣
𡰥
𡰪
𡰯
𡰱
𡷈
𡸁
𡿨
𡿩
𡿪
𡿺
𢀖
𢀛
𢀩
𢁙
𢆉
𢆰
𢆶
𢇁
𢇇
𢉖
𢌬
𢌿
𢏚
𢑑
𢑚
𢖻
𢙣
𢛳
𢦏
𢦒
𢧵
𢼄
𢾕
𣁋
𣄼
𣅀
𣅽
𣍘
𣎳
𣎵
𣏋
𣏼
𣗥
𣥂
𣥖
𣦵
𣦼
𣧄
𣪊
𣪠
𣬉
𣳾
𣶒
𤇾
𤊽
𤐫
𤓰
𤔔
𤕨
𤣩
𤰇
𤰔
𤰞
𤴓
𤴔
𤽄
𥁑
𥁕
𥃦
𥃩
𥃭
𥇡
𥑟
𥘅
𥘈
𥝢
𥫗
𥱡
𦈢
𦉪
𦉬
𦉼
𦍌
𦍒
𦎧
𦐇
𦓔
𦔮
𦘒
𦙃
𦚏
𦣝
𦣞
𦣻
𦥑
𦥔
𦥯
𦨉
𦭝
𦰩
𧆞
𧈧
𧘇
𧰨
𧴪
𧴮
𧵩
𧾷
𨸏
𨾴
𩙿
𩠐
𩫏
𩵋
𪉷
𪜀
𪟽
𪠲
𪩲
𫇦
𫔭
𫜸
𫝀
𫠣
𫠩
𫢉
𫥞
𫩏
𫩠
𫪡
𫲽
𫶧
𬀷
𬐘
𬗌
𬙙
𬛸
𬜯
𬟩
𬯁
𬴘
𬺻
𬼉
𬼖
𭀰
𭁈
𭁨
𭅰
𭑈
𭕄
𭗼
𭤨
𭥫
𭻾
𮅕
𮊿
𮍌
𮍏
𮓗
𮥼
𮧮
廾
𰀁
𰀄
𰀈
𰀉
𰀕
𰀠
𰀡
𰀢
𰀪
𰁜
𰃮
𰆊
𰆘
𰋙
𰕎
𰢴
𰧭
𰯲
00--
01--
03--
04--
12--
13--
14--
15--
16--
17--
18--
27--
28--
31--
32--
51--
57--
60--
63--
65--
68--
71--
73--
77--
80--
81--
86--
88--
978--
99--
a--
ab--
abk--
abyss--
ac--
aca--
accip--
acu--
ad--
aegypi--
aethi--
af--
ah--
ak--
al--
albi--
aler--
alex--
alu--
am--
aminis--
an--
appre--
aqu--
ar--
arme--
as--
assi--
at--
ato--
audi--
aus--
avi--
ay--
az--
b--
ba--
bar--
bau--
be--
beau--
ben--
beng--
ber--
bi--
bio--
bla--
blan--
bo--
bou--
boy--
br--
bre--
bu--
buc--
bun--
bur--
c--
ca--
cal--
calcit--
can--
cap--
car--
cast--
cau--
ce--
cen--
cer--
ch--
cha--
cham--
char--
check--
chi--
chio--
chlo--
chor--
cinc--
cit--
cli--
co--
colum--
con--
conc--
conf--
cor--
cre--
cri--
cro--
cu--
cult--
cy--
cyan--
cyano--
cyps--
d--
da--
davi--
de--
defi--
deli--
dend--
desam--
deut--
di--
dist--
do--
doku--
domi--
domin--
dre--
du--
e--
ed--
edit--
edu--
eg--
el--
eli--
em--
emo--
en--
eno--
es--
et--
eu--
ex--
f--
fa--
fe--
ff--
fi--
fl--
flam--
fluvi--
fo--
for--
fr--
fron--
fu--
fuli--
fun--
g--
ga--
gali--
gall--
gam--
gar--
ge--
geog--
gi--
gl--
gla--
go--
gra--
gri--
grise--
gru--
gu--
h--
ha--
har--
he--
hete--
hi--
hirsu--
hiru--
hispa--
ho--
hodg--
hu--
humb--
hy--
hydro--
i--
ibi--
ig--
igni--
ik--
im--
in--
inst--
inter--
ir--
is--
it--
j--
ja--
je--
jo--
ju--
k--
ka--
kand--
kar--
kbd--
ke--
kha--
ki--
kir--
kl--
ko--
ku--
kun--
l--
la--
lati--
le--
lea--
lepto--
les--
leu--
leuco--
ley--
li--
lin--
lo--
lopho--
lu--
ly--
m--
ma--
mar--
mari--
maxi--
me--
mega--
mela--
melano--
mer--
mexi--
mey--
mi--
mic--
micro--
mid--
mo--
mon--
monti--
mor--
mu--
musci--
my--
n--
na--
ne--
nemo--
neu--
ng--
ni--
nig--
nigro--
nip--
no--
nor--
nu--
nue--
ny--
nycti--
o--
oaxa--
ob--
occid--
oce--
oen--
on--
op--
ope--
or--
os--
osc--
oxy--
p--
pa--
pac--
pain--
pallid--
palo--
pano--
par--
parvi--
pe--
pen--
per--
pes--
pet--
pfl--
pha--
phain--
phi--
pi--
pic--
pl--
platy--
plectr--
po--
poli--
poly--
polyan--
pr--
pre--
pro--
pseudo--
psit--
pt--
pu--
pueb--
pul--
pun--
pus--
pyrrho--
qu--
quo--
r--
ra--
raz--
re--
red--
ri--
ro--
roy--
ru--
rufi--
s--
sa--
salv--
sar--
sc--
sch--
se--
semi--
ser--
sh--
si--
sibi--
sin--
sk--
sku--
sl--
sm--
so--
sor--
spi--
spilo--
spo--
sr--
st--
ste--
stel--
stra--
stre--
strept--
stri--
strickl--
su--
sub--
sup--
sw--
sy--
t--
ta--
tahi--
tar--
te--
tenui--
th--
tha--
the--
thin--
ti--
tig--
tl--
tla--
to--
tor--
tr--
tran--
tri--
tu--
tur--
ty--
u--
umu--
un--
up--
ur--
urop--
us--
v--
va--
valu--
ve--
ver--
verw--
vi--
viki--
vir--
vo--
vult--
w--
wa--
we--
wiki--
wit--
x--
y--
z--
za--
zoo--
ŋ--
α--
а--
аб--
аба--
абориген--
абра--
абы--
абэ--
ав--
авст--
авто--
автоб--
автори--
аг--
аглом--
агр--
агу--
ад--
аджа--
адмініст--
ады--
адыг--
адыгэ--
адэ--
адэжы--
адэжынэ--
адэжь--
ажэжьбэ--
аз--
азиэ--
аи--
ак--
актив--
акъ--
ал--
алба--
албаны--
алвара--
алъ--
аль--
алэ--
ам--
амаз--
амб--
амир--
амниот--
ан--
ана--
андал--
андзор--
андзыш--
анк--
ансам--
аос--
ап--
апа--
апхъ--
апыкъ--
ар--
ара--
арк--
арки--
арт--
арх--
археол--
архи--
архит--
арч--
ары--
ас--
ат--
ау--
ауди--
аур--
афр--
аффр--
ах--
ахъ--
ахь--
ахэ--
ахэлэ--
аш--
ашъ--
ащ--
ащыщыб--
аҧ--
б--
ба--
бабыщ--
бажэ--
бази--
бак--
бакте--
бал--
бан--
банэ--
бар--
бара--
барэ--
бат--
баф--
бахъ--
бац--
бгъашъхъу--
бгъэ--
бгы--
бгырып--
бе--
бел--
белл--
бер--
бербер--
бес--
бет--
бжа--
бжъы--
бжы--
бжыг--
бжь--
бжьакъ--
бжьы--
бжэн--
бз--
бзу--
бзуу--
бзууп--
бзущхьэ--
бзы--
бзэ--
бзэр--
би--
биб--
библи--
бил--
бир--
бл--
бла--
блок--
блэ--
бо--
бов--
бок--
бон--
бонап--
бос--
бот--
ботс--
боч--
бри--
бру--
бу--
був--
буд--
бур--
бурж--
бы--
бын--
быр--
быс--
бэ--
бэдрэ--
бэл--
бэр--
бү--
бүтэ--
бүтээгч--
в--
вавил--
важ--
вал--
валвиэ--
ван--
вари--
ве--
вел--
венг--
венгр--
венгыр--
венда--
вер--
верм--
верн--
вет--
ви--
вид--
виз--
вики--
вил--
винн--
вит--
вл--
во--
вое--
воен--
вол--
воль--
вр--
встрет--
вто--
вы--
выпол--
выход--
вэд--
г--
га--
габсб--
гам--
ган--
гар--
гарниз--
гас--
ге--
ген--
гене--
генуэз--
геог--
гер--
герц--
ги--
гидрог--
гие--
гил--
гип--
гипотен--
гл--
глоб--
глобаль--
го--
гоминда--
гор--
гос--
госу--
гот--
гоуи--
гр--
грамм--
гре--
грузин--
гу--
гуа--
гуащэ--
губ--
губгъуэ--
губзы--
гудж--
гум--
гун--
гуп--
гупшыс--
гур--
гуфӏ--
гуэгуш--
гуэу--
гуэч--
гуэш--
гъ--
гъашъэ--
гъогу--
гъуаз--
гъуалъ--
гъуб--
гъубгъуэ--
гъун--
гъуэ--
гъуэлъы--
гъэ--
гъэза--
гъэзэн--
гъэнэфа--
гъэпцӏ--
гъэсэ--
гъэуа--
гъэхьэзыр--
гъэч--
гын--
гь--
д--
да--
дал--
дам--
дамащ--
дамэ--
дан--
дап--
дарданел--
дахов--
даш--
де--
дек--
дер--
дес--
дж--
джа--
джам--
джан--
джы--
джэд--
дз--
дза--
дзэ--
дзэжъ--
ди--
дик--
дин--
дирек--
диф--
дне--
до--
доб--
документ--
доп--
дост--
др--
дра--
дре--
дру--
ду--
дубэ--
думэ--
дур--
дурэш--
дха--
дхар--
ды--
дыдыкъуш--
дыщэ--
дэ--
дэгу--
дэгъэкӏ--
дэд--
дэкӏ--
дэл--
дэмы--
дэс--
дэт--
дэтӏ--
дэӏэп--
дэӏэпыкъ--
дү--
е--
еба--
ебэ--
ев--
егъ--
егъэ--
егъэджэн--
егъэзыхы--
едж--
едз--
ежь--
ез--
езы--
ек--
екъ--
екӏу--
ел--
елъ--
елъыт--
елэ--
ем--
емы--
еп--
еплъ--
епхъ--
епхы--
ер--
ерс--
ес--
естес--
ет--
етӏ--
ефр--
ехуэх--
ехъулӏ--
ехы--
ечэх--
ешъ--
ещэ--
еӏ--
еӏу--
ж--
жа--
жан--
же--
жи--
жо--
жур--
жъ--
жъу--
жъы--
жъэ--
жы--
жыг--
жыгыуӏу--
жыгышъ--
жылэ--
жь--
жьы--
жьыкъан--
жьынду--
жьэ--
жэ--
жэр--
жэш--
жэщ--
з--
за--
зав--
завоев--
загъэ--
зал--
зам--
зан--
заним--
зап--
зар--
зау--
заяв--
зв--
згъэ--
зда--
здагъ--
здашъ--
зде--
здекӏуэкӏ--
зди--
здишъ--
зды--
здызэ--
здыт--
здыщ--
здэ--
зе--
зезы--
зел--
зеленчук--
зем--
зен--
зеху--
зи--
зим--
зиу--
зиуб--
зиӏ--
зна--
зол--
зоо--
зра--
зт--
зтепсэ--
зтри--
зу--
зщ--
зы--
зыгощы--
зыгъэ--
зыз--
зык--
зыкъ--
зыкъыр--
зылъэ--
зып--
зыпы--
зыр--
зырат--
зыре--
зыт--
зыте--
зыу--
зыужьыны--
зых--
зыхич--
зыху--
зыхуэ--
зышъ--
зыщ--
зыще--
зыщыпсэ--
зыщӏ--
зыщӏе--
зыӏут--
зэ--
зэв--
зэго--
зэгу--
зэгурыӏу--
зэгухьэны--
зэгъазэху--
зэгъэ--
зэгъэзэ--
зэгъэшъ--
зэдо--
зэдэ--
зэз--
зэзы--
зэкъ--
зэкӏ--
зэм--
зэмэн--
зэн--
зэп--
зэпе--
зэпхы--
зэпылъы--
зэпэщӏэув--
зэр--
зэра--
зэрагъэ--
зэразэ--
зэре--
зэрзэ--
зэри--
зэригъэ--
зэриш--
зэркӏ--
зэрху--
зэрхуэ--
зэры--
зэрыра--
зэрыса--
зэрыху--
зэрыӏ--
зэте--
зэтра--
зэтри--
зэуэ--
зэф--
зэфэшъ--
зэфӏ--
зэфӏэ--
зэфӏэкӏ--
зэфӏэм--
зэфӏэув--
зэх--
зэха--
зэхегъэ--
зэхекъ--
зэхи--
зэху--
зэхуэ--
зэхъокӏ--
зэхэ--
зэхэгъэ--
зэхэгъэзы--
зэхэгъэкӏ--
зэхэзгъэуцу--
зэхэкӏ--
зэхэлъ--
зэш--
зэщӏ--
зэщӏыу--
зэщӏэкӏ--
зэӏ--
зэӏигъэ--
зэӏу--
зэӏым--
и--
иб--
ибер--
иберо--
иг--
игбо--
игу--
игупэ--
игъу--
игъэ--
ид--
идз--
идэ--
ие--
ижь--
из--
изаб--
изв--
изоб--
изы--
ик--
ику--
икъ--
икъудамэ--
икӏ--
икӏу--
ил--
илъ--
илъа--
илъэ--
илъэныкъ--
илъэп--
илъэс--
илъэф--
им--
имми--
импе--
имы--
ин--
индус--
индэ--
инст--
инте--
интер--
информ--
ип--
иплъ--
ипро--
ипсы--
ипхъ--
ипшъэ--
ипэ--
ипӏ--
ир--
ира--
ирагъ--
ирагъа--
ирагъэ--
ирагъэхь--
иралъ--
ирап--
ирауб--
ираф--
ирах--
ирач--
ире--
ири--
иригъэ--
ирилъ--
ирлан--
иро--
ис--
испан--
испол--
исполь--
использо--
истан--
исто--
историче--
ит--
ита--
итхы--
итыф--
итӏ--
иуд--
иукӏыф--
иус--
иухы--
их--
ихъ--
ихь--
иц--
ич--
иш--
ишапхъ--
ишъ--
ишӏ--
ищ--
ищэн--
ищӏ--
ию--
иі--
иӏ--
иӏа--
иӏу--
иӏув--
иӏэ--
иӏэф--
к--
ка--
каге--
кад--
каза--
кал--
кам--
кан--
канб--
кантаб--
кап--
кар--
кара--
кари--
кары--
кас--
каст--
ката--
като--
католиче--
кафе--
ках--
кв--
ке--
кер--
керк--
кес--
кеч--
ки--
килом--
кино--
киш--
кл--
книж--
ко--
коб--
ков--
кок--
кол--
коли--
колибри--
ком--
комм--
коммун--
коммуникациэ--
кон--
конвенц--
конвер--
конки--
конкиста--
консерв--
конст--
конф--
коор--
коп--
кор--
кос--
кр--
кре--
ку--
куби--
кул--
кум--
кур--
куу--
куэ--
куэд--
куэч--
кхъ--
кхъашъ--
кхъухь--
кхъуэ--
кхъэ--
къ--
къа--
къагъэ--
къадэ--
къаз--
къакӏ--
къалъ--
къалъху--
къалэ--
къамгъэ--
къамы--
къамыл--
къамыш--
къаплъ--
къар--
къара--
къау--
къахо--
къахуэ--
къахэ--
къаш--
къашыр--
къащ--
къаӏу--
къб--
къе--
къегъэ--
къела--
къи--
къигъэ--
къилъ--
къимы--
къиплъ--
къихь--
къиш--
къишы--
къо--
къра--
къри--
къру--
кърупщэ--
къу--
къум--
къупщ--
къурш--
къуш--
къы--
къыгъэ--
къыд--
къыдэгъэкӏ--
къыдэжа--
къыз--
къызда--
къызди--
къызды--
къызте--
къызха--
къызы--
къызыщ--
къызэр--
къызэра--
къызэргъэ--
къызэригъэ--
къызэры--
къызэщӏ--
къыкӏ--
къыкӏэ--
къыкӏэх--
къып--
къыпы--
къыр--
къытенэжь--
къытра--
къых--
къыха--
къыху--
къыхуа--
къыхуе--
къыхуи--
къыхуэ--
къыхь--
къыхэ--
къыш--
къыщ--
къыщы--
къыщыӏу--
къыщӏэх--
къэ--
къэбэртэ--
къэгъэ--
къэд--
къэдгъэ--
къэз--
къэзгъэ--
къэзы--
къэзыгъэ--
къэзэр--
къэкӏ--
къэл--
къэла--
къэмы--
къэплъ--
къэрал--
къэрэл--
къэт--
къэч--
къэш--
къэщӏэ--
къэӏот--
кы--
кэ--
кӏ--
кӏалэ--
кӏап--
кӏи--
кӏох--
кӏупхъ--
кӏуэ--
кӏы--
кӏыхь--
кӏэ--
кӏэл--
кӏэлъ--
л--
ла--
лабэ--
лазарев--
лак--
лац--
ле--
лео--
леон--
леопол--
ли--
лим--
лингал--
лис--
лич--
ло--
лоб--
лов--
лог--
лок--
лом--
лот--
лу--
лук--
лун--
лучш--
лъ--
лъа--
лъаб--
лъакъуапцӏэ--
лъан--
лъапэ--
лъы--
лъэ--
лъэнукъ--
лъэны--
лъэу--
лъэш--
лъэӏу--
лы--
лыд--
лыц--
лэ--
лэн--
лэп--
лэч--
лэш--
лю--
лӏ--
лӏа--
лӏы--
лӏыхъу--
лӏэужьы--
лӏэщ--
лӏэщӏ--
м--
ма--
маге--
мад--
маз--
мак--
маке--
мал--
мало--
малъ--
мам--
мап--
мар--
мас--
масе--
мат--
мах--
махара--
маш--
ме--
мега--
мегх--
между--
мек--
мес--
месопо--
мест--
мех--
ми--
мигр--
мид--
мил--
мин--
мир--
миро--
мно--
мо--
модел--
мол--
моло--
мон--
моно--
мор--
мум--
мун--
мус--
мусульман--
мутӏы--
мы--
мыб--
мывэ--
мыдэ--
мык--
мыл--
мылъапэ--
мылыжъ--
мыс--
мысыр--
мыхъ--
мыш--
мышӏ--
мыщэ--
мэ--
мэз--
мэзи--
мэзыт--
мэзыш--
мэл--
мэр--
мә--
н--
на--
нав--
навагин--
нави--
наз--
нап--
нат--
ната--
натр--
нац--
нач--
не--
неадназнач--
нев--
нем--
ни--
ник--
но--
ново--
норвег--
носыф--
нуж--
нук--
нур--
ны--
ныба--
ныбж--
ныбэ--
ныкъуэ--
нэ--
нэв--
нэгь--
нэжъ--
нэм--
нэмыса--
нэс--
нэф--
нэхъ--
нэщӏ--
о--
оак--
об--
обк--
обна--
обр--
обсуж--
общ--
обще--
общес--
объек--
обяза--
ов--
ог--
од--
оде--
оз--
ок--
окӏ--
ол--
оли--
олимпи--
ом--
он--
оны--
оп--
опе--
ор--
орган--
орс--
орфо--
ос--
основ--
от--
отв--
отече--
откр--
оф--
офиц--
ох--
ощ--
п--
па--
пагъэ--
пад--
пал--
пале--
палм--
палоч--
пам--
пан--
пап--
пар--
пат--
пата--
пе--
пев--
пен--
пендж--
пер--
пере--
переи--
перене--
перс--
персо--
пи--
пис--
пит--
пкъы--
пкӏ--
пкӏашъ--
пкӏэ--
пл--
пло--
плъ--
плъэкӏ--
плыжь--
плӏ--
по--
побе--
пов--
под--
поем--
поз--
поко--
пол--
поли--
поль--
пон--
поп--
попул--
пос--
посе--
построе--
поэ--
появ--
пра--
пред--
при--
присое--
про--
професси--
пс--
пса--
псо--
псоу--
пст--
псы--
псыжа--
псым--
псыхъуэ--
псыхэуэ--
псыӏу--
псэ--
псэлъашъ--
пуб--
пун--
пунк--
пуре--
пут--
пх--
пхъышъ--
пхъэ--
пхыр--
пхырыкӏ--
пц--
пцӏ--
пч--
пчъ--
пш--
пшъ--
пшъык--
пшъыкӏу--
пшы--
пшэ--
пщ--
пщам--
пщы--
пщэ--
пщӏ--
пщӏэ--
пы--
пыт--
пыубыд--
пыч--
пыщӏ--
пь--
пэ--
пэж--
пэн--
пэщыт--
пят--
пӏ--
пӏэ--
р--
ра--
радж--
раз--
разме--
разреше--
рас--
распро--
расшире--
раф--
ре--
револуц--
революц--
регене--
регис--
режис--
режиссор--
рез--
резуль--
реи--
рекон--
реконки--
реп--
ресто--
ри--
рим--
рихьа--
ро--
роб--
родентиэ--
рос--
рс--
ру--
рун--
рунди--
рус--
рыкӏ--
рэ--
с--
са--
сакъы--
сал--
сам--
самоу--
сан--
сбо--
св--
свер--
сво--
свят--
се--
сев--
сез--
сек--
секр--
сел--
сенат--
си--
сид--
сик--
сикх--
силе--
сим--
сингэп--
сиц--
скиф--
ско--
сл--
сле--
сло--
слов--
словен--
слоу--
слоуэ--
слыш--
см--
сме--
сн--
со--
соб--
совр--
согл--
сое--
соз--
созда--
сон--
соотв--
сою--
сп--
спик--
ст--
ста--
сте--
сто--
стю--
су--
суб--
сузэ--
сулфи--
сур--
сущес--
сфе--
сч--
сы--
сыр--
сыт--
сь--
сэ--
сэбэп--
сэн--
т--
та--
таб--
там--
те--
театыр--
текӏу--
текӏуэн--
теле--
телев--
теок--
теп--
тепоч--
тер--
тес--
тет--
тетӏ--
теув--
техн--
техниче--
технол--
теху--
техы--
теӏ--
ти--
тиб--
тигре--
тилъэ--
тити--
тиф--
тк--
то--
ток--
топ--
торже--
тоув--
точ--
тр--
тра--
тралъ--
три--
тро--
ту--
тулен--
тумбук--
тур--
тури--
туризым--
туркменис--
турку--
тхъо--
тхъожъ--
тхы--
тхыдэ--
тхыӏу--
тхьа--
тхьэ--
тхьэмыш--
тхьэмыщкӏэ--
ты--
тыгъ--
тыны--
тыр--
тэ--
тэмбы--
тэр--
тэхъут--
тӏ--
тӏо--
тӏу--
тӏы--
у--
уа--
уапэщ--
уардэ--
уащ--
уб--
убыд--
ув--
уган--
угу--
уд--
удз--
удзып--
удзыф--
удм--
уе--
уз--
узбэч--
узэ--
узэдэ--
уи--
уики--
ук--
укъ--
укӏ--
ул--
ула--
улъ--
улъи--
ум--
ун--
унащ--
уни--
унэ--
уп--
ур--
урку--
уров--
урс--
урыс--
урысы--
ус--
усэ--
ут--
уфӏ--
уху--
уч--
ущ--
ущыху--
уэ--
уэгъу--
уэд--
уэздэ--
уэн--
уэр--
уэрэд--
уэс--
уэуэ--
уэф--
уэху--
ф--
фа--
фаш--
фе--
февра--
феде--
фер--
фермен--
фи--
фил--
фл--
фла--
фо--
фор--
форм--
фото--
фр--
функц--
фыз--
фэ--
фэр--
фэтэ--
фі--
фӏ--
фӏы--
фӏыцӏ--
фӏэ--
х--
ха--
хабзэ--
хагъ--
хагъэ--
хад--
хадэ--
хакӏуэ--
хал--
халифа--
халифэ--
хам--
хар--
характе--
харбо--
хаут--
хах--
хахь--
хаш--
хе--
хегъ--
хи--
хигъэ--
хигъэхъу--
хидатса--
хилъ--
хим--
хинду--
хит--
хих--
хо--
хом--
хор--
хорв--
хос--
хот--
ху--
хуа--
хуар--
хуашъ--
хуаӏ--
хуе--
хузэ--
хуит--
хури--
хут--
хуэ--
хуэбэ--
хуэгъэ--
хуэм--
хуэмы--
хъ--
хъу--
хъун--
хъур--
хъуф--
хъуэр--
хъым--
хъыр--
хъырцы--
хы--
хыв--
хь--
хьа--
хьати--
хьэ--
хьэдэ--
хьэж--
хьэкӏэкхъуэ--
хьэлъ--
хьэӏуцыдз--
хэ--
хэгъ--
хэгъэ--
хэдыкӏ--
хэж--
хэзу--
хэзылъ--
хэку--
хэкӏ--
хэлъхьэ--
хэм--
хэмы--
хэмыкӏ--
хэмылъ--
хэплъ--
хэрэс--
хэс--
хэтыф--
хэтӏ--
хэу--
хэху--
хэхуэ--
хэхъоны--
хэхъу--
хэхы--
ц--
цел--
цив--
цим--
цу--
цы--
цын--
ці--
цӏ--
цӏужь--
цӏужьомэ--
цӏыху--
цӏэ--
ч--
че--
чев--
чер--
чищ--
чу--
чуваш--
чуд--
чук--
чыц--
чэм--
чэты--
чэшъ--
чӏ--
ш--
ша--
шакъ--
шапсы--
шар--
шах--
ше--
ши--
шкӏ--
шл--
шок--
шорэлъы--
шри--
шта--
шу--
шуу--
шхьа--
шъ--
шъач--
шъны--
шъхь--
шъхьа--
шъхьэ--
шъып--
шъэ--
шы--
шыбзыч--
шыд--
шыт--
шыу--
шэ--
шэджы--
шэн--
шӏ--
шӏы--
шӏышъ--
щ--
ща--
щаб--
щагъэ--
щалъэ--
щам--
щауху--
щачэ--
щашъ--
щаӏ--
ще--
щи--
щиӏ--
що--
щра--
щри--
щта--
щты--
щхьо--
щхьэ--
щхьэбгъу--
щы--
щыгъэ--
щызы--
щызэ--
щызэгу--
щызэп--
щыкӏ--
щылъ--
щымы--
щыплъ--
щыр--
щыс--
щыт--
щыте--
щыу--
щыху--
щыхуэ--
щыхэ--
щыхэкӏ--
щыш--
щыщ--
щыщыт--
щыщӏ--
щыщӏалъ--
щыӏэ--
щэ--
щэн--
щэӏ--
щі--
щӏ--
щӏа--
щӏалъ--
щӏатӏ--
щӏы--
щӏыб--
щӏын--
щӏэ--
щӏэл--
щӏэлъ--
щӏэтӏ--
ы--
ыб--
ыв--
ыгъ--
ыж--
ыжь--
ым--
ын--
ыпэ--
ыр--
ыс--
ысэ--
ыте--
ыу--
ыф--
ыху--
ыхь--
ыш--
ышъ--
ышӏ--
ыщ--
э--
эб--
эв--
эве--
эди--
эзэ--
эк--
экономиче--
экосис--
экспе--
экспо--
экъ--
эл--
элек--
элъ--
элъып--
эм--
эмал--
эмэ--
эн--
энв--
эп--
эпидер--
эпхъ--
эр--
эс--
эсет--
эт--
эта--
этниче--
этно--
эу--
эув--
эужьы--
эф--
эх--
эхъ--
эхь--
эшъ--
эщ--
ю--
юг--
юж--
я--
ябзэ--
ябы--
ягу--
ягъ--
ягъув--
ягъэ--
ягъэтӏы--
ягъэунэ--
ягъэӏ--
яд--
ядж--
ядэӏэпыкъ--
язы--
як--
яку--
якут--
якъ--
якӏ--
ял--
ялъэ--
ям--
ямы--
яп--
япэ--
япӏ--
яр--
ярат--
яри--
ят--
ятек--
ятепсэ--
ятеуэ--
ятх--
яу--
яуп--
яус--
яф--
яфӏ--
ях--
яхилъ--
яху--
яхуэ--
яхъум--
яхь--
яхэ--
яхэу--
яш--
яшх--
яшъ--
яшъхьа--
яшъыф--
яшӏ--
ящ--
ящэ--
ящэф--
ящӏ--
яӏа--
яӏу--
яӏэ--
і--
ү--
ӏ--
ӏашъ--
ӏе--
ӏоф--
ӏу--
ӏуащ--
ӏув--
ӏуоху--
ӏус--
ӏут--
ӏуфэ--
ӏухьэ--
ӏущӏа--
ӏуэху--
ӏэ--
ӏэжь--
ӏэкӏ--
ӏэл--
ӏэнэтӏ--
ӏэп--
ӏэр--
ӏэс--
ӏэта--
ӏэхъ--
ӏэхъуамбэ--
ӏэш--
ӏэшъхьэ--
ӏэщэ--
ب--
ج--
د--
ز--
م--
र--
व--
ম--
র--
স--
த--
ப--
യ--
--0
--00
--000
--1
--2
--3
--4
--5
--6
--64
--7
--8
--9
--a
--aa
--ac
--ada
--ado
--ae
--aetus
--ag
--ah
--ai
--ak
--al
--alis
--am
--an
--ana
--ance
--anea
--ann
--ans
--anum
--anus
--ap
--ar
--ard
--aris
--arius
--ary
--as
--at
--ata
--ate
--ated
--ati
--ation
--ator
--atu
--atum
--aux
--aya
--b
--ba
--be
--ber
--bo
--bot
--c
--ca
--cat
--ccyx
--ce
--cea
--ceae
--ces
--ch
--cha
--ci
--cichla
--ck
--cks
--co
--ct
--cta
--cula
--cus
--d
--da
--dae
--de
--di
--dis
--do
--dos
--ds
--dus
--dy
--e
--ea
--ec
--ed
--ei
--ek
--el
--ela
--en
--ens
--ense
--ensis
--er
--era
--erax
--eri
--erix
--ern
--ers
--erus
--es
--et
--eus
--ey
--f
--fa
--ft
--g
--ga
--ge
--gel
--gi
--gie
--gus
--gy
--h
--ha
--he
--her
--hii
--ht
--hus
--hyta
--i
--ia
--iacus
--iae
--ial
--ian
--ias
--ic
--ica
--icus
--ida
--idae
--ides
--ie
--iensis
--ier
--ifolium
--ii
--iidae
--ija
--ik
--il
--ila
--ilus
--im
--imi
--imo
--in
--ina
--inae
--ine
--ing
--ini
--inus
--io
--ion
--ipe
--ir
--ire
--is
--ish
--ist
--istradores
--it
--ity
--ium
--ius
--ive
--iya
--j
--jn
--k
--ka
--ke
--kh
--ks
--l
--la
--lar
--ld
--le
--ley
--li
--lia
--lidae
--lii
--linae
--lis
--lius
--lla
--lle
--lli
--llis
--llo
--llus
--lo
--loides
--lophus
--lor
--lora
--ls
--lus
--ly
--m
--ma
--man
--ment
--mi
--mic
--mnas
--mum
--mus
--n
--na
--nae
--nc
--nce
--nchos
--nchus
--ncy
--nd
--nda
--ne
--nea
--nes
--ng
--nge
--ni
--nia
--nicus
--nie
--nii
--ninae
--nis
--nium
--no
--ns
--nse
--nsis
--nt
--nta
--ntris
--num
--nus
--ny
--nya
--nyo
--o
--oides
--ol
--ola
--oma
--on
--oni
--ons
--opsis
--opus
--or
--ora
--ori
--ornis
--orum
--os
--osa
--osus
--ot
--p
--pe
--phalus
--phus
--phyta
--pis
--piza
--ppi
--projekt
--ps
--pu
--pus
--q
--r
--ra
--ras
--rc
--rchis
--rcus
--rd
--re
--rea
--rg
--ri
--rie
--riidae
--ris
--rium
--rk
--rm
--rnis
--ro
--rs
--rt
--rum
--rus
--ry
--s
--sa
--se
--sh
--ship
--shore
--si
--sia
--sicus
--sii
--sio
--sis
--sk
--ska
--st
--stris
--sus
--t
--ta
--tar
--te
--ted
--ter
--tes
--th
--thus
--ti
--tia
--tics
--tidae
--tion
--tis
--to
--toni
--tor
--tors
--tris
--ts
--tta
--tu
--tun
--tus
--u
--ua
--ual
--uca
--ue
--uk
--ula
--ularis
--um
--un
--ur
--ura
--us
--uss
--uta
--v
--va
--vi
--w
--x
--y
--ya
--ye
--yi
--yn
--yo
--ys
--z
--za
--zar
--zi
--zilla
--zu
--ɔ
--а
--аб
--абжэ
--аби
--абэ
--аг
--агъ
--агъкӏэ
--агъу
--ад
--ада
--адэ
--адэм
--ае
--ажу
--аз
--аи
--ак
--акъ
--акъым
--акӏуэ
--акӏуэм
--акӏэ
--ал
--ала
--алах
--алӏэ
--ам
--ама
--ами
--амикэ
--амкӏэ
--амрэ
--амэ
--ан
--анд
--ани
--ания
--ано
--анрэ
--аным
--анэ
--ап
--апӏэм
--ар
--арэ
--ас
--ась
--ат
--атан
--атель
--ати
--ату
--атым
--атыр
--ать
--атэ
--атэм
--атэр
--ау
--ауи
--ауэ
--аф
--афэ
--ах
--аха
--ахауэ
--аху
--ахуи
--ахуэ
--ахэ
--ахэм
--ахэр
--ации
--ациу
--ациэ
--ацэ
--ацӏэ
--ачи
--аш
--ашэ
--ащ
--ащи
--ащӏэ
--ащӏэу
--ая
--б
--ба
--бад
--бгъу
--бгъум
--бгъухэм
--бек
--бж
--бжамк
--бжу
--бзагуэ
--бзу
--бзур
--бзхэр
--бзэ
--бзэк
--бзэм
--бзэр
--бзэщ
--би
--биевич
--бии
--битӏ
--бл
--блым
--бо
--бу
--бус
--быда
--быр
--бэ
--бэм
--в
--ва
--вар
--вать
--ве
--веннои
--ви
--вие
--вить
--вич
--вных
--во
--вом
--вр
--ву
--вую
--вы
--вым
--вэ
--вэжьыным
--вэм
--вэр
--г
--га
--гам
--ге
--гел
--ген
--гер
--ги
--гиэ
--го
--гор
--гу
--гум
--гуэшыр
--гъ
--гъа
--гъалӏэ
--гъо
--гъу
--гъуа
--гъуеи
--гъуным
--гъуу
--гъуэ
--гъуэкӏэ
--гъуэм
--гъым
--гъыр
--гъэ
--гъэзэхуэн
--гъэм
--гъэр
--гъэу
--гъэунэхуамкӏэ
--гъэх
--гым
--гыр
--гьэ
--гэ
--д
--да
--дам
--дар
--де
--дж
--джа
--джи
--джэ
--джэд
--дз
--дза
--дзапӏэм
--дзэ
--дзэм
--дзэр
--ди
--диэ
--дмо
--днэ
--до
--дов
--ду
--дурэ
--дщ
--ды
--дыду
--дыдэ
--дь
--дэ
--дэгу
--дэк
--дэм
--дэс
--е
--ев
--ева
--евич
--ед
--еи
--ек
--ел
--ела
--ели
--ельно
--ем
--ен
--ена
--енг
--ение
--ения
--ент
--ены
--ео
--ер
--ес
--еса
--ет
--ете
--ется
--еф
--ех
--ец
--еш
--ж
--жа
--жар
--жауэ
--жащ
--жение
--жите
--жт
--жу
--жщ
--жъ
--жърэ
--жъхэм
--жъхэр
--жъыи
--жъым
--жъэи
--жы
--жым
--жын
--жыну
--жыр
--жырт
--жыхь
--жыхьыф
--жь
--жьа
--жьам
--жьар
--жьащ
--жье
--жьеи
--жьу
--жьхэм
--жьхэр
--жьым
--жьын
--жэ
--з
--за
--зан
--зауэ
--зациэ
--зеи
--зен
--зешу
--зешэ
--зи
--зм
--змэ
--зу
--зурэ
--зщ
--зы
--зыр
--зых
--зэ
--зэж
--зэжыр
--зэжь
--зэжьа
--зэн
--зэу
--и
--иа
--ибл
--иблым
--ив
--ид
--ие
--ием
--иж
--из
--изм
--ии
--ик
--ика
--икэ
--икэм
--икӏуэ
--ил
--илось
--им
--ими
--ин
--ина
--иния
--инка
--ины
--инэ
--ио
--ион
--ипа
--ипл
--иплӏ
--ипщӏым
--ир
--ирэ
--ис
--ист
--ит
--ите
--ится
--итху
--ить
--иться
--итӏ
--итӏрэ
--итӏу
--итӏым
--итӏыр
--иу
--иуда
--иум
--иуэ
--их
--иху
--ихэм
--ич
--ищ
--ищу
--ищым
--иэ
--иэм
--иэмрэ
--иэр
--ию
--ия
--иями
--к
--ка
--калӏ
--кам
--ке
--ки
--ко
--ков
--кова
--кого
--кс
--кт
--кту
--ку
--кум
--кур
--кх
--кция
--къ
--къан
--къру
--къу
--къун
--къухэр
--къуэ
--къым
--кым
--кыт
--кэ
--кэм
--кіэ
--кӏ
--кӏа
--кӏар
--кӏауэ
--кӏащ
--кӏи
--кӏитӏым
--кӏум
--кӏуэ
--кӏыр
--кӏыу
--кӏэ
--кӏэм
--кӏэр
--кӏэрэ
--кӏэху
--кӏэхэр
--л
--ла
--лам
--лан
--лар
--лд
--лдо
--ление
--ления
--лж
--ли
--лии
--лини
--лит
--лиэ
--лия
--лк
--лнить
--лнять
--ло
--лов
--логиэ
--ложения
--лу
--лъ
--лъагъу
--лъу
--лъхур
--лы
--ль
--льная
--льно
--льное
--лэ
--лэм
--лэр
--лют
--ля
--лӏ
--лӏу
--лӏхэм
--лӏэ
--м
--ма
--маламусов
--ми
--мика
--мк
--мкӏэ
--мо
--мрэ
--му
--мы
--мым
--мыс
--мыхьу
--мэ
--мэд
--мэн
--мэс
--мэфэ
--н
--на
--нам
--нар
--науэ
--ная
--нг
--нд
--ндиэ
--ндэ
--не
--неи
--нж
--нжал
--нжэ
--ни
--ние
--нием
--ник
--никэ
--нин
--нию
--ния
--нк
--нко
--нкӏи
--нкӏэ
--но
--нов
--ного
--ное
--нои
--ном
--ному
--ности
--нри
--нрэ
--нс
--нси
--нт
--ну
--нур
--нущ
--ную
--нхэм
--нхэр
--нхэу
--ншу
--ншэ
--ншэу
--нщ
--ны
--ныбэху
--ныгъу
--ныгъэ
--ные
--ныи
--ным
--нымкӏэ
--нымрэ
--ныр
--ныу
--ных
--нэ
--нэжа
--нэжьар
--нэк
--нэн
--нэну
--нэу
--няя
--о
--ов
--ова
--овании
--овать
--ович
--овна
--овня
--ово
--овои
--овск
--овым
--овэ
--ог
--ого
--од
--ое
--ож
--ои
--ок
--окӏ
--ол
--ологиэ
--ология
--ом
--он
--ор
--ос
--ось
--от
--ота
--оу
--охэр
--ош
--п
--па
--пагуэ
--пан
--пи
--пк
--пкъ
--пкъыр
--пл
--плъ
--плът
--плъым
--плъэ
--плӏ
--пс
--пск
--псо
--псом
--псу
--пу
--пх
--пхын
--пшамкӏэ
--пшъкӏэ
--пщ
--пщкӏу
--пым
--пэ
--пэгъу
--пэм
--пэр
--пэу
--пэщ
--пӏ
--пӏу
--пӏэ
--пӏэм
--пӏэр
--пӏэхэм
--р
--ра
--рат
--ращ
--рг
--рд
--ре
--реи
--реуэ
--рех
--ри
--рие
--ризм
--рии
--рико
--рит
--рк
--рл
--рн
--рнэ
--ро
--ров
--рс
--рт
--ру
--рч
--рщ
--ры
--рыжэ
--рык
--рыр
--рыт
--рь
--рэ
--рэкӏэ
--рэн
--рэр
--рэхэр
--рэщ
--с
--са
--сам
--сар
--сауэ
--сащ
--се
--сел
--сем
--си
--сиэ
--ск
--ская
--ские
--скии
--ским
--скими
--ских
--ско
--ского
--ское
--скую
--скэ
--со
--сон
--срэ
--ст
--ств
--ства
--стве
--ствэм
--сти
--стэр
--су
--сы
--сым
--сырыху
--сысауэ
--сь
--сэ
--сэжьа
--сэм
--сэн
--сэр
--сэу
--ся
--т
--та
--таи
--такъым
--тал
--там
--тамэ
--тар
--тауэ
--тахэм
--тащ
--тая
--твуют
--те
--тен
--ти
--тив
--тии
--тик
--тикэ
--тин
--тиэ
--тия
--тмэ
--тник
--тныи
--то
--тов
--тол
--тор
--тору
--три
--трои
--тся
--тт
--ту
--туры
--тх
--тха
--тхым
--тхэм
--тщ
--ты
--тыгъ
--тыгъуеи
--тыи
--тым
--тын
--тыну
--тыным
--тыр
--тыу
--тыхь
--тыхьым
--ть
--ться
--тэ
--тэкъым
--тэм
--тэн
--тэр
--тэри
--тэу
--тӏ
--тӏрэ
--тӏым
--тӏыс
--у
--уа
--уар
--ув
--ува
--уващ
--уву
--увэ
--увэн
--увэр
--увэӏа
--уд
--ует
--уж
--ужь
--уз
--узу
--уи
--ук
--уки
--ум
--ун
--уну
--унэху
--унэхуа
--упс
--ур
--урт
--уру
--урэ
--ус
--усу
--ут
--уу
--ух
--ухри
--ущ
--уэ
--уэд
--уэм
--уэн
--ую
--ф
--фа
--фащэ
--фиэм
--фиэр
--фия
--форд
--фу
--фф
--фхэ
--фхэм
--фхэр
--фын
--фыну
--фыр
--фэ
--фэм
--фэр
--фэу
--фэщ
--фӏ
--фӏу
--фӏым
--фӏыр
--фӏэ
--х
--ха
--хам
--хар
--хауэ
--хащ
--хи
--хирэ
--хия
--хо
--ход
--хои
--хот
--хри
--хт
--ху
--хуа
--хуар
--хужь
--хук
--хум
--хур
--хурэ
--хуэ
--хуэу
--ххэм
--ххэр
--хъ
--хъеи
--хъу
--хъуэ
--хъэ
--хъэм
--хым
--хын
--хыну
--хыу
--хь
--хьа
--хьар
--хьауэ
--хьи
--хьт
--хьу
--хьым
--хьын
--хьыр
--хьэ
--хьэм
--хьэпӏэ
--хьэр
--хьэу
--хэ
--хэкъым
--хэкӏщ
--хэм
--хэми
--хэмк
--хэмкӏэ
--хэмрэ
--хэмрэкӏэ
--хэмырэ
--хэмэ
--хэн
--хэну
--хэр
--хэра
--хэрат
--хэращ
--хэри
--хэрщ
--хэрэ
--хэт
--хэтэр
--хэу
--хэурэ
--хэщ
--ц
--ца
--цев
--ции
--циэ
--циэм
--цк
--цу
--цыи
--цэ
--цэм
--цэр
--цӏыкӏу
--цӏэ
--ч
--ча
--чал
--чи
--чу
--чэ
--чэфу
--ш
--ша
--шать
--ше
--шения
--ши
--шид
--шло
--шно
--што
--шту
--шу
--шх
--шху
--шхуэ
--шхуэм
--шхуэр
--шхуэхэм
--шхуэхэр
--шхэр
--шъ
--шъа
--шъо
--шъыр
--шы
--шын
--шэ
--шэм
--шэу
--шӏ
--шӏэ
--щ
--ще
--щения
--щтыр
--щтэп
--щу
--щхьэфӏыцӏэ
--щхэр
--щым
--щытащ
--щэ
--щэн
--щӏу
--щӏхэм
--щӏэ
--ъ
--ъа
--ъан
--ъе
--ъи
--ъо
--ъу
--ъуи
--ъум
--ъун
--ъур
--ъуэ
--ъуэм
--ъуэпс
--ъуэш
--ъху
--ъхэм
--ъхэр
--ъы
--ъым
--ъыр
--ъэ
--ы
--ыб
--ыба
--ыбз
--ыбзэ
--ыбзэкӏэ
--ыбзэм
--ыбзэми
--ыбзэмрэ
--ыбзэр
--ыбзэрэ
--ыбзэщ
--ыбэ
--ыбэр
--ыгъ
--ыгъу
--ыгъуи
--ыгъуэ
--ыгъуэр
--ыгъуэрэ
--ыгъэ
--ыгъэм
--ыгъэр
--ыдз
--ыдзэ
--ыдзэм
--ыдзэр
--ыж
--ыжащ
--ыжт
--ыжъ
--ыжь
--ыжьа
--ыжьу
--ыжьхэм
--ыжьыр
--ыжэм
--ызагъэ
--ызэ
--ыи
--ык
--ыку
--ыкъо
--ыкъу
--ыкъуэ
--ыкъуэм
--ыкӏ
--ыкӏыу
--ыкӏэ
--ыкӏэм
--ыкӏэр
--ыл
--ылъ
--ылъа
--ылъу
--ылъымкӏэ
--ылъэ
--ылъэхэм
--ым
--ыми
--ымк
--ымкӏи
--ымкӏэ
--ымрэ
--ын
--ынк
--ыну
--ынхэм
--ыншэ
--ыншэу
--ыным
--ып
--ыплъ
--ыплъу
--ыпс
--ыпсым
--ыпхъэу
--ыпэм
--ыпӏэ
--ыпӏэм
--ыр
--ыра
--ыращ
--ыреи
--ыри
--ырт
--ырщ
--ырэ
--ыс
--ысым
--ыт
--ытауэ
--ыту
--ытщ
--ыу
--ыуи
--ыф
--ыфу
--ыфху
--ыфын
--ыфыну
--ыфыр
--ыфӏ
--ых
--ыху
--ыхъуэм
--ыш
--ышх
--ышху
--ышхуэ
--ышъу
--ышэ
--ыщ
--ыщхьэ
--ыщӏэ
--ыӏуадз
--ь
--ьа
--ьар
--ьащ
--ьно
--ьного
--ьнои
--ьныи
--ьных
--ься
--ьу
--ьх
--ьы
--ьыр
--ьэ
--ьэн
--ья
--э
--эбзу
--эбзэк
--эг
--эд
--эда
--эдап
--эж
--эжу
--эжын
--эз
--эи
--эк
--экъым
--экӏ
--экӏащ
--экӏыу
--экӏэ
--эл
--эм
--эмкӏэ
--эмрэ
--эмэ
--эн
--эна
--энащ
--энд
--энрэ
--эну
--энущ
--эным
--эныр
--энэ
--эп
--эпс
--эпэ
--эр
--эра
--эрт
--эрэ
--эс
--эт
--этэр
--эу
--эурэ
--эф
--эфу
--эх
--эху
--эхуну
--эхьа
--эхэ
--эхэм
--эхэр
--эчу
--эш
--эшъ
--эщ
--эщӏэм
--ээ
--ю
--юсь
--ющие
--ющих
--я
--якъ
--ям
--ян
--яс
--і
--іащ
--іи
--іу
--іуэ
--іхэм
--іэ
--іэм
--іэр
--үүд
--ӏ
--ӏа
--ӏам
--ӏапӏэ
--ӏар
--ӏауэ
--ӏафэ
--ӏах
--ӏащ
--ӏи
--ӏидзам
--ӏир
--ӏкъым
--ӏмэ
--ӏо
--ӏокӏ
--ӏокӏыр
--ӏоу
--ӏри
--ӏрэ
--ӏт
--ӏтэр
--ӏу
--ӏуа
--ӏуадэ
--ӏуакӏэу
--ӏуам
--ӏуат
--ӏуатэ
--ӏуатэт
--ӏуахэр
--ӏуе
--ӏуеи
--ӏуи
--ӏум
--ӏур
--ӏурэ
--ӏуу
--ӏуэ
--ӏуэд
--ӏуэда
--ӏуэду
--ӏуэкӏ
--ӏуэкӏым
--ӏуэкӏыр
--ӏуэм
--ӏуэн
--ӏуэр
--ӏуэу
--ӏху
--ӏхэ
--ӏхэм
--ӏхэр
--ӏхэри
--ӏщ
--ӏы
--ӏыжьа
--ӏыкӏу
--ӏым
--ӏын
--ӏыну
--ӏыным
--ӏынымрэ
--ӏыпӏэ
--ӏыр
--ӏырэ
--ӏыу
--ӏыф
--ӏыфыну
--ӏыфыр
--ӏэ
--ӏэжу
--ӏэкӏа
--ӏэкӏыу
--ӏэкӏэ
--ӏэм
--ӏэмрэ
--ӏэн
--ӏэну
--ӏэр
--ӏэт
--ӏэу
--ӏэувам
--ӏэувэр
--ӏэху
--ӏэхэм
--ӏэцӏ
--ӏэщ
--өн
--ة
--ح
--ز
--ن
--ه
--ي
--ی
