!
"
#
##0
##1
##10
##11
##12
##13
##14
##15
##16
##17
##18
##19
##2
##20
##21
##22
##23
##24
##25
##26
##27
##28
##29
##3
##30
##31
##32
##33
##34
##35
##36
##37
##38
##39
##4
##40
##41
##42
##43
##44
##45
##46
##47
##48
##49
##5
##50
##51
##52
##53
##54
##55
##56
##57
##58
##59
##6
##60
##61
##62
##63
##64
##65
##66
##67
##68
##69
##7
##70
##71
##72
##73
##74
##75
##76
##77
##78
##79
##8
##80
##81
##82
##83
##84
##85
##86
##87
##88
##89
##9
##90
##91
##92
##93
##94
##95
##96
##97
##98
##99
$
%
&
'
(
)
*
+
,
-
.
/
0
00
000
001
005
007
01
01497
02
03
04
05
06
07
08
09
1
10
100
1000
10000
1001
1002
1007
101
1016
102
103
1038
104
105
106
107
108
1080
109
11
110
1100
111
112
113
114
115
116
117
118
119
12
120
1200
121
122
123
124
125
1250
1253
126
1260
127
128
129
13
130
1300
131
132
133
134
135
136
137
138
1387
139
1392
14
140
1400
141
1410
142
1425
143
1435
144
1440
145
1450
146
147
1470
148
1480
149
1492
1499
15
150
1500
1501
1502
1503
1504
1505
1506
1507
1508
151
1510
1511
1512
1513
1514
1515
1516
1517
1518
1519
152
1520
1521
1522
1524
1525
1526
1527
1528
1529
153
1530
1533
1534
1535
1536
1537
154
1540
1542
1545
1547
1549
155
1550
1553
1554
1555
1556
1557
1558
1559
156
1560
1561
1562
1563
1564
1565
1566
1567
1568
1569
157
1570
1571
1572
1573
1574
1575
1576
1578
1579
158
1580
1581
1582
1583
1584
1585
1586
1588
1589
159
1590
1591
1592
1593
1594
1595
1596
1597
1598
1599
16
160
1600
1601
1602
1603
1605
1606
1607
1608
1609
161
1610
1611
1612
1613
1614
1615
1616
1617
1618
1619
162
1620
1621
1622
1623
1624
1625
1626
1627
1628
1629
163
1630
1631
1632
1633
1634
1635
1636
1637
1638
1639
164
1640
1641
1642
1643
1644
1645
1646
1648
1649
165
1650
1651
1652
1653
1654
1655
1656
1657
1658
1659
166
1660
1661
1662
1663
1664
1665
1666
1667
1668
1669
167
1670
1672
1673
1674
1675
1676
1678
168
1680
1682
1683
1684
1685
1686
1687
1688
1689
169
1690
1691
1695
1696
1697
1698
1699
17
170
1700
1701
1702
1703
1704
1705
1706
1707
1709
171
1710
1711
1712
1713
1714
1715
1717
1718
1719
172
1720
1721
1722
1723
1724
1725
1727
1728
1729
173
1730
1731
1732
1733
1734
1735
1736
1737
1738
1739
174
1740
1741
1742
1743
1744
1745
1746
1747
1748
1749
175
1750
1751
1752
1753
1754
1755
1756
1757
1758
1759
176
1760
1761
1762
1763
1764
1765
1766
1767
1768
1769
177
1770
1771
1772
1773
1774
1775
1776
1777
1778
1779
178
1780
1781
1782
1783
1784
1785
1786
1787
1788
1789
179
1790
1791
1792
1793
1794
1795
1796
1797
1798
1799
18
180
1800
1801
1802
1803
1804
1805
1806
1807
1808
1809
181
1810
1811
1812
1813
1814
1815
1816
1817
1818
1819
182
1820
1821
1822
1823
1824
1825
1826
1827
1828
1829
183
1830
1831
1832
1833
1834
1835
1836
1837
1838
1839
184
1840
1841
1842
1843
1844
1845
1846
1847
1848
1849
185
1850
1851
1852
1853
1854
1855
1856
1857
1858
1859
186
1860
1861
1862
1863
1864
1865
1866
1867
1868
1869
187
1870
1871
1872
1873
1874
1875
1876
1877
1878
1879
188
1880
1881
1882
1883
1884
1885
1886
1887
1888
1889
189
1890
1891
1892
1893
1894
1895
1896
1897
1898
1899
19
190
1900
1901
1902
1903
1904
1905
1906
1907
1908
1909
191
1910
1911
1912
1913
1914
1915
1916
1917
1918
1919
192
1920
1921
1922
1923
1924
1925
1926
1927
1928
1929
193
1930
1931
1932
1933
1934
1935
1936
1937
1938
1939
194
1940
1941
1942
1943
1944
1945
1946
1947
1948
1949
195
1950
1951
1952
1953
1954
1955
1956
1957
1958
1959
196
1960
1961
1962
1963
1964
1965
1966
1967
1968
1969
197
1970
1971
1972
1973
1974
1975
1976
1977
1978
1979
198
1980
1981
1982
1983
1984
1985
1986
1987
1988
1989
199
1990
1991
1992
1993
1994
1995
1996
1997
1998
1999
2
20
200
2000
2001
2002
2003
2004
2005
2006
2007
2008
2009
201
2010
2011
2012
2013
2014
2015
2016
2017
2018
2019
202
2020
2021
2022
2023
2024
203
204
205
206
207
208
209
21
210
211
212
213
214
215
216
217
218
219
22
220
221
222
223
224
225
226
227
228
229
23
230
231
232
233
234
235
236
237
238
239
24
240
241
242
243
244
245
246
247
248
249
25
250
2500
251
252
253
254
255
256
257
258
259
26
260
261
262
263
264
265
266
267
268
269
27
270
271
272
273
274
275
276
277
278
279
28
280
281
282
283
284
285
286
287
288
289
29
290
291
292
293
294
295
296
297
298
299
3
30
300
3000
301
302
303
304
305
306
307
308
309
31
310
311
312
313
314
315
316
3166
317
318
319
32
320
321
322
323
324
325
326
327
328
329
33
330
331
332
333
335
336
337
338
339
34
340
342
343
344
345
35
350
3500
352
354
355
356
359
36
360
365
366
367
37
370
371
375
379
38
380
382
383
384
385
386
387
39
390
391
393
395
396
399
4
40
400
4000
401
403
404
405
406
408
41
410
411
412
413
415
416
417
42
420
421
423
425
428
43
430
435
44
440
442
443
445
447
45
450
455
459
46
460
464
467
47
470
471
472
475
476
48
480
486
49
498
5
50
500
5000
501
505
508
51
510
511
512
513
517
52
520
521
525
53
533
54
540
5420013762
5420014882
5442
55
550
56
560
561
57
58
581
583
585
59
6
60
600
6000
609
61
612
62
624
625
63
630
639
64
640
65
650
66
667
67
68
680
69
692
7
70
700
7000
704
71
72
720
73
737
74
747
75
750
76
77
78
79
8
80
800
8000
81
82
83
84
85
850
86
87
88
89
9
90
900
91
92
93
94
95
950
96
960
97
978
98
985
99
9955
9986
:
;
<
=
>
?
@
[
\
]
^
_
`
a
aa
ab
aba
abaka
abba
abc
abchazija
abchazijos
abchazu
abd
abe
abejoja
abejojo
abejone
abejoniu
abejota
abejoti
abejotina
abejotinas
abi
abiejose
abieju
abiejuose
abiem
abies
abipus
abis
abiturientu
abjasia
ablona
ablonas
abo
aborigenu
about
absoliuc
absoliuti
absoliutus
abstrakc
abu
abudu
ac
academia
academic
academy
access
accessed
achas
achemenidu
achmatai
achmatais
achmatininkas
achmatininke
achmatininku
achmatu
acrotiri
act
acta
acteku
action
acun
ad
ada
adam
adamas
adamkus
adams
adamsas
adas
adata
ade
adelaide
adele
adina
adino
adinti
administracija
administracijos
administracine
administracini
administraciniai
administracinio
administracinis
administraciniu
administracinius
administracis
administration
administratorius
administratyvinis
administravimo
admirolas
ado
adolfas
adolfo
adomaitis
adomas
adomavic
adomo
adresas
adresu
adrian
adrianas
adriano
adrijos
adu
adutis
advokatas
advokato
advokatu
adz
ae
aerodromas
aerodrome
af
afc
affairs
afganista
afganistanas
afganistane
afganistano
afghanistan
africa
african
afrika
afrikaans
afrikanu
afrikietis
afrikoje
afrikos
afroamerikiec
afrodite
after
ag
again
against
agare
age
agency
agentas
agentu
aglomeracijoje
agne
agronomas
ah
ahrestanas
ai
aibas
aibe
aibo
aic
aida
aidai
aidas
aide
aidima
aidimai
aidimas
aidime
aidimo
aidimu
aidimui
aidimuose
aidimus
aids
aidyne
aidynes
aidyniu
aidz
aikos
aikovskis
aiks
aimaru
ain
ainu
air
airbus
aircraft
aire
airija
airijoje
airijos
airis
airiu
airlines
airport
airways
ais
aisdamas
aisdavo
aise
aisiais
aislu
aiste
aisti
aistos
aistra
aistros
aite
aitis
aitvaras
aizda
aja
ajai
ajame
ajax
ak
aka
akademija
akademijoje
akademijos
akademikas
akademine
akademinio
akademinis
akadu
akai
akas
akcija
akcijas
akcijos
akciju
akcine
ake
akele
akeliu
aki
akiai
akies
akimirka
akimis
akio
akis
akiu
akivaizdu
akivaizdz
aklu
akmene
akmeni
akmenimis
akmenine
akmeniniai
akmeninis
akmeniniu
akmenis
akmeniu
akmenos
akmens
akmenu
akmenys
akmuo
aknies
aknis
aknu
aknys
ako
akoja
akomis
akos
akose
akotas
akt
akta
aktai
aktas
akte
akto
aktore
aktoriai
aktoriaus
aktoriu
aktoriumi
aktorius
aktu
aktualu
aktus
aktyvi
aktyvia
aktyviai
aktyvios
aktyvistu
aktyviu
aktyvu
aktyvumas
aktyvumo
aktyvus
aku
akus
akustine
akute
akvarele
akys
akyse
al
ala
alai
alakevic
alan
alantos
alas
alaus
alavas
alb
alba
albanai
albania
albanija
albanijoje
albanijos
albanu
albatros
albert
albertas
alberto
albina
albinas
albrechtas
album
albuma
albumai
albumas
albume
albumo
albums
albumu
albumui
albumus
alc
aldona
aldonas
ale
alekna
aleksander
aleksandra
aleksandras
aleksandravic
aleksandrijos
aleksandro
aleksandrui
aleksas
aleksejus
aleksoto
alemania
alessandro
alex
alexander
alfa
alfonsas
alfonso
alfred
alfredas
alfredo
algimantas
algimanto
algirdas
algirdo
algirio
algiris
algis
algoritmas
ali
alia
aliai
alias
aliasis
aliaskos
aliava
aliavos
aliavu
alice
aliejaus
alieju
aliejus
alies
alimi
alimis
alims
alina
alinimo
alininkai
alininkas
alininku
alino
alinta
alintas
alinti
alio
alioji
aliojo
alios
aliosios
alis
alisa
aliu
aliuminio
aliuminis
aliutoriu
aljanso
alka
alkanas
alkas
alkoholiniai
alkoholio
alkos
alku
all
alla
allen
allgemeinen
alliance
allmusic
alma
almantas
almas
almis
alna
alo
alonso
alos
aloyzas
alpe
alpha
alpine
alpiu
als
alse
alsvai
alta
altajaus
altas
alternatyva
alti
altini
altiniai
altiniais
altinio
altinis
altiniu
altiniuose
altinius
altitude
alto
altojo
altoriai
altoriaus
altoriu
altorius
altos
altpreußischen
altu
altys
alu
alus
alvario
alvydas
alyga
alyje
alys
alyse
alytaus
alytuje
alytus
alyvu
alz
am
ama
amade
amamiu
amas
amatai
amatininku
amato
amatu
amazon
amazone
ambasada
ambasadore
ambasadoriu
ambasadoriumi
ambasadorius
ambasados
amber
ame
america
american
americana
amerika
amerikiec
amerikietis
amerikoje
amerikos
amharu
ami
amieji
amikuru
aminoru
amore
amos
amplitude
ams
amsterdam
amsterdamas
amsterdame
amsterdamo
amtlicher
amtsbezirk
amu
amy
amz
an
ana
anai
analizavo
analize
analizuoti
analogis
analysis
anandas
anapus
anas
anatolijus
anatomija
anatomijos
anbo
anc
anchajaus
ancient
and
andalu
anderer
anderlecht
anderson
andikaulio
andora
andoros
andorra
andre
andrea
andreas
andrejus
andrew
andriaus
andrius
android
andrzej
andu
anduose
andy
andz
ane
ang
anga
angel
angela
angelai
angelas
angele
angeles
angelo
angels
angelu
angis
angl
anglai
anglies
anglija
anglijoje
anglijos
anglis
angliu
anglo
anglu
angola
angolos
angos
angu
anguila
aniec
animacija
animacijos
animacinis
animaciniu
animal
animation
anime
anis
ankara
anketa
anks
anksc
ankstesne
ankstesni
ankstesniais
ankstesnio
ankstesnis
ankstesniu
anksti
anksto
ankstyva
ankstyvaisiais
ankstyvieji
ankstyvoji
ankstyvojo
ankstyvosios
ankstyvu
ankstyvuoju
ann
anna
anne
announces
annual
ano
anos
anot
another
anras
anri
anro
anru
ans
ansambli
ansambliams
ansamblio
ansamblis
ansambliu
ansambliui
ant
anta
antai
antakalnio
antaliepte
antanas
antanavic
antano
antante
antarktida
antarktidos
antarkties
antas
antazave
ante
antena
antenos
antge
antgeria
antgerti
anthony
anti
antigua
antigva
antikine
antikos
antiku
antilope
antilu
antis
antkapinis
antmoka
antmoke
anton
antonas
antoni
antonijus
antonio
antpuoliu
antra
antradieni
antrajam
antrajame
antrame
antras
antrasis
antri
antrine
antro
antroje
antroji
antrojo
antrojoje
antropologas
antropologijos
antros
antrosios
antru
antruoju
ants
antsidirba
antsidirbo
antsidirbti
antsige
antsigeria
antsigerti
antsiskaite
antsiskaito
antsiskaityti
antys
antz
anu
anyks
anz
ao
ap
apac
aparatas
aparato
aparatu
apardytas
apas
apatine
apatinio
apatinis
apauge
apaugusi
apaugusios
apdirba
apdirbimas
apdirbimo
apdirbo
apdirbti
apdorojimo
apdovanojami
apdovanojima
apdovanojimai
apdovanojimas
apdovanojimo
apdovanojimu
apdovanojimui
apdovanojimuose
apdovanojimus
apdovanojo
apdovanota
apdovanotas
apdovanoti
apdri
ape
apeigas
apeigos
apeigu
apgalvoja
apgalvojo
apgalvoti
apgaudine
apgaule
apge
apgeria
apgerti
apginti
apgirde
apgirdi
apgule
apgulties
apgyne
apgyvendino
apgyvendinta
apgyvendintas
apgyvendinti
apgyvendintos
apgyventos
apibre
apibu
apie
apima
apimanc
apimanti
apimantis
apimti
apimties
apimtis
apiple
apkaltino
apkaltintas
apkaltinti
apklausos
aplanke
aplanko
aplankyti
aplede
apleido
apleidz
apleista
apleistas
apleisti
aplenke
aplink
aplinka
aplinkai
aplinkine
aplinkiniu
aplinkoje
aplinkos
aplinkosaugos
aplinkui
aplinkybe
aplinkybiu
apma
apmigo
apmigti
apminga
apmoka
apmoke
apnakvoja
apnakvojo
apnakvoti
apnervina
apnervino
apnervinti
apollo
apolonas
apolono
apple
approx
apragina
apragino
apraginti
aprais
apranga
aprangomis
aprangos
aprangu
apras
apre
apreis
apribojimu
april
apru
aps
apsakymai
apsakymu
apsapnavo
apsapnuoja
apsapnuoti
apsauga
apsaugai
apsaugine
apsaugo
apsaugos
apsaugoti
apse
apside
apsidirba
apsidirbo
apsidirbti
apsie
apsigalvoja
apsigalvojo
apsigalvoti
apsige
apsigeria
apsigerti
apsigirde
apsigirdi
apsigyne
apsigyveno
apsilanke
apsilankymo
apsima
apsimiega
apsimiegojo
apsimiegoti
apsimoka
apsimoke
apsinakvoja
apsinakvojo
apsinakvoti
apsinervina
apsinervino
apsinervinti
apsiras
apsireis
apsisapnavo
apsisapnuoja
apsisapnuoti
apsiskaite
apsiskaito
apsiskaityti
apsiskolina
apsiskolino
apsiskolinti
apsistojo
apsivagia
apsivais
apsivoge
apsivogti
apsivoke
apsivokia
apsivokti
apsk
apskaic
apskaita
apskaite
apskaito
apskaitos
apskaityti
apskolina
apskolino
apskolinti
apskr
apskric
apskritai
apskriti
apskrities
apskritimi
apskritimo
apskritis
apskrityje
apskritys
apsupo
apsupta
apsuptas
apsuptyje
aptarnauja
aptarnavimo
aptarnavo
aptiko
aptikrina
aptikrino
aptikrinti
aptikta
aptiktas
aptikti
aptiktos
aptinkama
aptinkamas
aptinkami
aptinkamos
apvagia
apvais
apvali
apvalios
apvalus
apvoge
apvogti
apvoke
apvokia
apvokti
apybraiz
apygarda
apygardas
apygardoje
apygardos
apygardu
apykakle
apylinke
apylinkei
apylinkes
apylinkiu
apyranke
apysaka
apysakos
apytikriai
apytiksliai
apyvarta
apz
ar
ara
arab
arabai
arabia
arabija
arabijoje
arabijos
arabis
arabu
aragoniec
aragono
arame
aranz
aras
arba
arbata
arbatos
arbitraz
arc
arccos
arch
archaeology
archajis
archeologai
archeologas
archeologija
archeologijos
archeologine
archeologiniai
archeologiniu
archeologinius
archeologu
archit
architecture
architektai
architektas
architekte
architekto
architektu
archive
archived
archives
archyvai
archyvas
archyve
archyvo
archyvu
archyvuota
arctan
ardas
arde
ardo
are
area
arealas
arealo
arena
arenoje
arenos
ares
argelia
argentina
argentinoje
argentinos
argento
argi
argumentas
ari
aria
ariama
ariju
arimu
ariogalos
aris
aristokratu
aristotelio
aristotelis
ark
arka
arkangelo
arkivyskupas
arkivyskupijos
arkivyskupo
arkli
arkliai
arklide
arklio
arkliu
arklius
arklys
arkos
arkties
arktis
arlio
arlis
arlote
arlzas
arm
arme
armenia
armija
armijai
armijoje
armijos
armiju
arms
army
arna
arnas
arnold
arnoldas
arnos
arnyno
aro
aros
around
ars
arsenal
art
arte
arthur
arti
article
articles
artilerija
artilerijos
artima
artimai
artimas
artimi
artimiausia
artimos
artimu
artimuosiuose
artist
artistas
artiste
artists
artoriskis
arts
artsaj
artu
arturas
aru
aruba
arumunu
arvuoc
arvydas
arxiv
as
asamble
asc
ascensio
asi
asia
asian
asilas
asirijos
asiru
asis
asistentas
asistentu
ask
asliu
asm
asmeni
asmenims
asmenine
asmenini
asmeniniai
asmeninio
asmeninis
asmeniniu
asmenis
asmeniui
asmens
asmenu
asmenvardinis
asmenvardz
asmenybe
asmenybiu
asmenys
asmuo
asociacija
asociacijos
asociaciju
asp
aspektai
aspektu
aspektus
aspirantu
aspx
associated
association
asta
asteraceae
asteroidas
asties
astimi
astis
aston
astravo
astriniu
astronomas
astronomija
astronomijos
astronomy
astu
astys
asu
asyz
at
ata
ataka
atakavo
atakos
ataku
atakuojanc
atakuoti
atas
ataskaita
ate
ateina
ateinanc
ateis
ateiti
ateities
ateitininku
ateitis
ateityje
atgaivino
atgaivinti
atgal
atgamina
atgamino
atgaminti
atgauti
atgavo
atgavus
atge
atgeria
atgerti
atgimimas
atgimimo
atgirde
atgirdi
athina
athletic
ati
atidare
atidarymas
atidarymo
atidaryta
atidarytas
atidaryti
atidave
atide
atidengta
atidengtas
atidirba
atidirbo
atidirbti
atiduoda
atiduota
atiduotas
atiduoti
atimti
atiteko
atitikina
atitikino
atitikinti
atitikmuo
atitiko
atitikrina
atitikrino
atitikrinti
atitinka
atitinkama
atitinkamai
atitinkamas
atitinkamos
atitinkamu
atitinkanc
atitinkantis
atkarpa
atkarpos
atke
atkeliavo
atkers
atkilo
atkilti
atkreipe
atkreipti
atkrintamu
atku
atkurta
atkurtas
atkurti
atkurtos
atkyla
atlaidai
atlanta
atlantas
atlantic
atlanto
atlas
atlasas
atlaso
atle
atleido
atleidz
atleistas
atleisti
atletika
atletikos
atlieka
atliekama
atliekamas
atliekami
atliekamos
atliekant
atlieku
atlikdavo
atlike
atlikimas
atlikimo
atliko
atlikta
atliktas
atlikti
atliktos
atliktu
atlikus
atma
atmaina
atmete
atmiega
atmiegojo
atmiegoti
atminimas
atminimo
atminimui
atminti
atminties
atmintis
atmoka
atmoke
atmosfera
atmosferoje
atmosferos
atmus
atnaujinimo
atnaujino
atnaujinta
atnaujintas
atnaujinti
atnes
atodanga
atogra
atokiau
atolas
atolo
atomas
atomine
atominis
atomo
atomu
atostogu
atp
atpaz
atr
atrade
atradima
atradimas
atradimo
atrado
atrama
atramos
atranka
atrankoje
atrankos
atras
atrasta
atrastas
atrasti
atre
atributas
atributu
atrijos
atrode
atrodo
atrodyti
ats
atsakas
atsake
atsakinga
atsakingas
atsakingasis
atsakingi
atsako
atsakomybe
atsakyma
atsakymas
atsakyti
atsapnavo
atsapnuoja
atsapnuoti
atsarga
atsargas
atsargos
atsargu
atsibodo
atsibosta
atsibosti
atside
atsidirba
atsidirbo
atsidirbti
atsidu
atsiduria
atsie
atsigalvoja
atsigalvojo
atsigalvoti
atsigamina
atsigamino
atsigaminti
atsige
atsigeria
atsigerti
atsiginc
atsigirde
atsigirdi
atsike
atsikratyti
atsiku
atsiliepe
atsiliepimu
atsima
atsimiega
atsimiegojo
atsimiegoti
atsiminimai
atsiminimu
atsiminti
atsimoka
atsimoke
atsipras
atsirade
atsiradima
atsiradimas
atsiradimo
atsirado
atsiradus
atsiradusi
atsiranda
atsiras
atsirasti
atsis
atsisake
atsisakius
atsisako
atsisakyta
atsisakyti
atsisapnavo
atsisapnuoja
atsisapnuoti
atsise
atsisiu
atsisiunc
atsiskaite
atsiskaito
atsiskaitymo
atsiskaityti
atsiskolina
atsiskolino
atsiskolinti
atsiskyre
atsispindi
atsistatydino
atsitikina
atsitikino
atsitikinti
atsitiko
atsitikrina
atsitikrino
atsitikrinti
atsitiktinai
atsitrauke
atsitraukti
atsiu
atsivagia
atsivais
atsive
atsiveria
atsivoge
atsivogti
atsivoke
atsivokia
atsivokti
atsiz
atskaite
atskaito
atskaityti
atskira
atskirai
atskirais
atskiras
atskiri
atskiria
atskiro
atskiroje
atskiros
atskirose
atskirta
atskirtas
atskirti
atskirtos
atskiru
atskirus
atskleide
atskleidz
atskleisti
atskolina
atskolino
atskolinti
atspalvio
atspalviu
atspinde
atspindi
atspindz
atstate
atstatymo
atstatyta
atstatytas
atstatyti
atstovai
atstovais
atstovams
atstovas
atstovaudamas
atstovauja
atstovaujamoji
atstovaujanti
atstovaus
atstovauti
atstovave
atstovavo
atstove
atstovo
atstovu
atstovus
atstovybe
atstuma
atstumas
atstumo
atstumu
attack
atvagia
atvais
atvaizdas
atvaizdavo
atvaizdu
atvaizduoja
atvaizduoti
atvaz
atve
atvede
atvejai
atvejais
atvejis
atveju
atvejus
atvez
atvira
atvirai
atviras
atvirasis
atvirks
atviro
atvirojo
atviros
atvirose
atviru
atvoge
atvogti
atvoke
atvokia
atvokti
atvyke
atvyko
atvyksta
atvykti
atvykus
atz
au
audant
aude
audi
audimo
audiniai
audinio
audiniu
audinius
audinys
audio
audito
auditorija
audra
audrius
audrone
audros
audymas
audymo
audytas
audyti
audz
auf
auga
augalai
augalais
augalams
augalas
augalija
augalijos
augaliniu
augalo
augalu
augalus
auganc
augant
auganti
augantis
augantys
augaviete
auge
augima
augimas
augimo
augina
auginama
auginamas
auginami
auginamos
auginimas
auginimo
auginimu
augino
auginti
augmenija
augo
augti
augusi
august
augusta
augustas
augustavo
augustinas
augustino
augusto
auka
aukas
auke
aukia
aukimo
aukimu
aukle
aukoja
aukojo
aukoms
aukos
aukoti
auks
auksa
auksas
auksine
auksini
auksiniai
auksinio
auksinis
auksiniu
auksm
aukso
auksu
auktas
aukti
auku
auliai
aulio
auliu
aulys
auna
aurelija
aurelijus
aureus
aurimas
aurora
aus
ausis
auskaite
auskas
auskiene
australia
australian
australija
australijoje
australijos
australu
austria
austrija
austrijoje
austrijos
austru
ausu
ausys
aut
autas
autentis
auti
auto
autobusai
autobusas
autobusu
autokeliu
automagistrale
automatine
automatinis
automatis
automatizavo
automatizuoja
automatizuota
automatizuotas
automatizuoti
automobili
automobiliai
automobiliais
automobiliams
automobilio
automobilis
automobiliu
automobilius
autonomija
autonomijos
autonomine
autore
autoriai
autoriaus
autoriu
autorius
autosport
autuvai
autuvas
autuvo
autuvu
av
ava
avalyne
avarija
avarijos
ave
avi
aviacija
aviacijos
aviation
aviete
avis
aviu
aviv
aviz
avo
avos
avosi
avys
award
awards
away
ax
az
azerbaidz
azerbaiya
azija
azijoje
azijos
azotas
azoto
b
ba
babiloniec
babilono
babtu
baby
bac
back
bad
badas
badauja
badauti
badavo
bado
bafta
bagaz
bagdonas
bagrationovsko
baha
bahamas
bahamos
bahi
bahreinas
bahreino
bai
baidariu
baige
baigia
baigiant
baigiantis
baigiasi
baigimo
baigta
baigtas
baigti
baigtis
baigtos
baigus
baigusi
baime
baisogalos
bajo
bajorai
bajoras
bajoris
bajoru
bajos
bakalauro
baker
baks
bakterijos
bakteriju
baku
bal
balade
balandi
balandis
balandz
balansavo
balansuoja
balansuoti
balbieris
balc
baldai
baldu
bale
baletas
baleto
balio
balkanu
balkanuose
ball
balninku
balo
balsa
balsai
balsas
balsavimo
balsavimu
balsavo
balsiai
balsio
balsis
balsiu
balso
balsta
balsti
balstoge
balsu
balsus
balsys
balta
baltai
baltais
baltarusiai
baltarusija
baltarusijoje
baltarusijos
baltarusis
baltarusiu
baltas
baltasis
balte
balti
baltic
baltica
baltieji
baltijos
baltimore
baltis
baltischen
balto
baltoji
baltojo
baltomis
baltos
baltosios
baltrus
baltu
baltus
baltymai
baltymu
baltyti
balu
balys
balzakas
ban
bananai
band
banda
bandant
bande
bando
bandoma
bandymai
bandymas
bandymo
bandymu
bandymus
bandyta
bandyti
bandz
bang
banga
bangas
banginiu
banglade
banglades
bangos
bangu
banionis
bank
banka
bankai
bankas
banke
bankgorodov
bankininkas
bankininkyste
banknotai
banko
bankroto
bankrutavo
bankrutuoja
bankrutuoti
banku
bano
bantu
baptistu
bar
bara
barai
baranauskas
baranausko
baras
barbados
barbadosas
barbara
barbora
barboros
barbuda
barbus
barcelona
bare
baritonas
baro
barokine
baroko
baronas
barry
bars
barselona
barselonoje
barselonos
barstyc
bartas
bartkus
bartolome
bartos
bartus
barzda
bas
basanavic
base
based
baseina
baseinas
baseine
baseino
baseinu
baseinui
basel
basic
basketball
basketnews
basku
bat
batakiu
batalionas
bataliono
baterija
baterijos
batoro
battle
batu
baublys
bauda
baudiniu
baudos
baudz
bauske
bausme
bauz
bavarija
bavarijos
bay
bayern
baz
baze
bazilika
bazilikoje
bazilikos
baziu
bb
bbc
bbl
bc
bd
bdn
bdv
be
beat
beatles
beautiful
bec
bedugne
been
before
begaline
begin
behind
bei
beisbolo
beje
beketas
beketeriai
bel
bela
belaisviu
belarus
belgija
belgijoje
belgijos
belgrade
belgrado
belgu
believe
belizas
belize
bell
ben
benas
bend
bendr
bendra
bendraautoris
bendradarbiauja
bendradarbiaujant
bendradarbiauti
bendradarbiavima
bendradarbiavimas
bendradarbiavimo
bendradarbiavo
bendradarbis
bendrai
bendraminc
bendras
bendrasis
bendrauti
bendravimo
bendravo
bendraz
bendri
bendrija
bendrijos
bendriju
bendrine
bendro
bendroje
bendroji
bendrojo
bendros
bendrosios
bendrove
bendrovei
bendroviu
bendru
bendruomene
bendruomenei
bendruomenes
bendruomeniu
bene
benediktas
benedikto
benfica
bengalijos
bengalu
beni
beninas
benino
benjamin
benjaminas
bent
benz
ber
berberu
beresnevic
berkeley
berlin
berlyna
berlynas
berlyne
berlyno
bermudas
bernard
bernardas
bernardinai
bernardinu
bernardo
bernas
bernikle
berniukai
berniukas
berniuku
berno
bertas
berz
bes
besa
besite
besivystanc
best
bet
beta
betonine
betoninis
betonio
betono
between
betygalos
bev
bevarde
bevardi
bevardz
beveik
bevo
beyonce
beyond
bez
bf
bg
bi
bia
bialos
biatlono
biau
białystok
bibcode
biblija
biblijoje
biblijos
bibliografija
biblioteka
bibliotekai
bibliotekoje
bibliotekos
biblioteku
bic
bielorrusia
bielsko
bienale
bieta
bietos
big
bijo
bijojo
bike
bilbao
bilietu
biliu
bill
billboard
billy
bin
bio
biodiversity
biograficzny
biografija
biografijos
biografinis
biography
biologas
biologija
biologijos
biologine
biology
biomedicinos
biosferos
bir
bird
birds
birmania
birmingham
birs
birute
birz
bis
bisa
bisau
bite
bitininkas
bitininkyste
bitu
biu
biudz
biuras
biure
biuro
biustas
biz
bizantija
bizantijos
bjo
bk
black
blaivybe
blake
blas
blaz
ble
blefavo
blefuoja
blefuoti
blica
bliu
blog
bloga
blogai
blogas
blogi
blogio
blogis
blogu
blokas
blokavo
bloko
blokuoja
blokuoti
blood
bloomberg
blrs
blu
blue
blues
bluz
blys
bmw
bo
board
bob
boba
boc
body
boeing
bohemijos
boks
bokso
boleslovas
bolivia
bolivija
bolivijoje
bolivijos
bolonijos
bols
bomba
bombones
bombos
bombu
bon
bonapartas
bondo
bono
bonos
book
books
bordo
boris
borisas
boriso
born
borneo
borussia
bos
bosas
bosine
bosistas
bosnia
bosnija
bosnijoje
bosnijos
bosniu
boso
boston
bostonas
bostone
bostono
botanika
botanikas
botanikos
botaninis
botsuana
botsvana
bowie
box
boy
boys
boz
br
bra
braiz
brandenburgo
brandos
branduoli
branduoline
branduolinio
branduoliniu
branduolio
branduoliu
branduolys
brandz
brango
brangsta
brangti
brangu
bras
brasil
bratislava
braunas
bravo
braz
brazauskas
brazdz
brazilija
brazilijoje
brazilijos
brazilu
bre
breslaujos
bresto
bretonu
bri
briai
brian
bridge
bridz
briedis
briedz
brigada
brigados
brill
brio
bris
brit
brita
britai
britain
britams
britanija
britanijoje
britanijos
britannica
britas
british
britney
britu
briu
briuselio
briuselyje
brno
bro
broadcasting
broli
broliai
broliais
brolija
brolijos
brolio
brolis
broliu
broliui
brolius
brone
bronislovas
bronius
bronza
bronzine
bronzos
bros
brothers
brown
bru
bruce
brune
bruno
bruoz
bruxelles
bruz
bryje
bs
bts
bu
bubiu
buc
buda
budapes
budapest
bude
budistu
budizmas
budizmo
budo
budos
budriu
budrys
buenos
bugo
buick
building
buities
buitine
buivydz
bukares
bule
bulg
bulgaria
bulgarija
bulgarijoje
bulgarijos
bulgaru
bull
bulve
bulviu
bunda
bundesliga
buoz
burbis
bure
bureau
burgundijos
buriavimo
burkina
burna
burnos
burtai
burtu
burundi
burundis
burundz
burz
bus
business
busti
but
buta
butanas
butano
bute
butis
butkevic
butkus
butrimoniu
butu
butyje
buv
buvau
buve
buveine
buveiniu
buvimas
buvimo
buvo
buvus
buvusi
buvusia
buvusiame
buvusias
buvusio
buvusioje
buvusios
buvusiu
buvusius
bvp
by
byla
bylas
byloja
byloje
bylos
bylu
bz
c
ca
cabo
cadillac
caima
calcio
caledonia
california
call
camboya
cambridge
cameron
cameru
campbell
can
canada
canadian
cancer
capital
captain
car
caras
carex
caribe
carine
carl
carlo
carlos
caro
cartier
casa
case
cases
cat
catalogue
catar
catherine
catholic
cbs
cc
cd
cdot
ce
celiulioze
cell
celtic
celtics
cemento
census
center
centra
centrai
central
centralinis
centras
centre
centrine
centrini
centriniame
centrinio
centrinis
centriniu
centro
centroafricana
centru
centruose
centu
century
cenzu
ceremonija
ceremonijoje
ceremonijos
cerkve
cern
cezario
cezaris
cf
cgi
ch
cha
chad
chakasai
chakasija
challenge
champions
championship
chanas
chanato
change
channel
chano
chapter
charakterio
charakteristikos
charkovo
charles
charlie
charlotte
chart
charts
che
chelsea
chemical
chemija
chemijos
chemikas
chemine
cheminiai
cheminis
cheminiu
chequia
cher
chess
chevrolet
chi
chicago
child
children
chile
chili
china
chinese
chipre
chirurgas
chirurgijos
cho
chodkevic
chora
chorai
chorams
choras
chore
choreografe
chormeisteris
choro
choru
chorui
chorus
chorvede
chorvedys
chorvedz
chose
chris
christian
christina
christmas
christopher
chronicle
chronologija
chrus
chrysler
chu
chuanas
chuano
church
ci
cia
ciceronas
cid
cie
cija
cikla
ciklas
ciklo
cilindris
cilindro
cilindru
cinema
cinko
cirko
citadele
citata
citavimo
cities
city
citypopulation
ciudad
ciuricho
civil
civiline
civilinio
civilinis
civiliniu
civiliu
civilizacija
civilizacijos
civilizaciju
civilization
ck
cl
clark
class
classic
classification
claude
climate
clio
clipperton
club
clube
cm
cnn
co
coast
coauthors
cocos
code
cohen
cola
cold
cole
colin
coliu
collection
college
collins
colombia
columbia
com
come
comics
committee
common
community
comoras
company
comparative
complete
computer
con
concacaf
conference
conflict
congo
congress
conservation
contemporary
content
control
cook
cooper
copa
coral
corea
corporation
corvus
cos
costa
could
council
countries
country
county
coupe
covid
cr
craig
crash
crazy
crisis
cristo
croacia
cross
crow
cruz
cry
cs
cska
ct
cu
cuba
cukranendre
cukraus
cukrus
cultural
culture
cup
current
cv
cy
cz
d
da
dab
dabar
dabarties
dabartine
dabartini
dabartiniai
dabartiniame
dabartinio
dabartinis
dabartiniu
dabartis
dai
daic
daikta
daiktai
daiktas
daiktavardis
daiktavardz
daikto
daiktu
daiktus
dail
daile
dailide
dailininkai
dailininkas
dailininke
dailininko
dailininku
dailiojo
daily
daina
dainai
dainas
dainava
dainavimo
dainavo
dainavos
dainele
dainiai
dainininkas
dainininke
dainininko
dainininku
dainiu
dainiuose
dainius
dainoje
dainomis
dainos
dainose
dainu
dainuoja
dainuoti
dais
daiva
dakaro
daktaras
daktare
daktaro
daktaru
dal
dalai
dalele
daleliu
dali
dalia
daliai
dalies
dalijasi
dalimi
dalimis
dalinai
daline
daliniai
dalinio
daliniu
daliniuose
dalinius
dalinys
dalis
daliu
dalius
dalyje
dalykai
dalykas
dalyku
dalykus
dalys
dalyse
dalyvaudavo
dalyvauja
dalyvaujanc
dalyvaujant
dalyvaus
dalyvauti
dalyvave
dalyvavima
dalyvavimas
dalyvavimo
dalyvavo
dalyve
dalyviai
dalyviams
dalyvio
dalyvis
dalyviu
dalyvius
dama
damas
damasis
dambrauskas
dame
dames
dami
damoke
damos
dams
dan
dana
danc
dance
dane
danga
dangaus
dangis
dangoraiz
dangos
dangu
danguje
dangumi
dangun
danguole
dangus
daniel
danielius
danija
danijoje
danijos
dans
dante
dantiras
dantis
dantu
dantys
danu
danute
dar
dara
darant
daras
darba
darbai
darbais
darbams
darbas
darbe
darbininkai
darbininkas
darbininku
darbo
darbs
darbu
darbui
darbuose
darbuotoja
darbuotojai
darbuotojams
darbuotojas
darbuotoju
darbus
dare
dariaus
dariniai
dariniu
darinys
darius
dark
darkiemio
darnos
daro
daroma
daromas
daromi
daromos
darosi
daru
darykla
darymo
daryta
darytas
daryti
darytos
darz
das
dasiras
dasu
data
database
date
datos
datuojamas
datuojami
dau
daug
daugailiu
dauge
daugeli
daugelio
daugelis
daugeliu
daugeliui
daugelyje
daugiabuc
daugiafunkcis
daugiamec
daugiamete
daugiametis
daugiau
daugiausia
daugiausiai
dauginasi
dauginimosi
daugirdas
daugiskaita
daugiskaitos
daugkartine
daugkartinis
daugpilio
daugpilis
daugu
dauguma
daugumai
daugumoje
daugumos
dauguvos
daugybe
daukanto
dauks
daumantas
dauz
davau
dave
david
davidas
daviniai
davinio
daviniu
davinius
davinys
davis
davo
davus
davusi
davusia
davusiu
davyste
dawn
day
days
daz
db
dc
de
dead
deal
dean
death
debesis
debesu
debesys
debitas
debiutas
debiutavo
debiutine
debiutini
debiutinis
debiuto
dec
december
deda
dedama
dedamas
dedami
deep
default
dega
degalu
dege
degimas
degimo
degti
degtine
deguc
deguonies
deguonis
dei
deive
deividas
deja
dek
dekanas
dekanatas
dekanato
dekanatui
deklaracija
dekoratyvine
dekoratyvinis
dekoratyviniu
dekretu
del
dele
delegacija
delegacijos
delfi
dell
della
delta
deltoje
deltos
deltuvos
dem
demo
democra
demografija
demokratai
demokratija
demokratijos
demokratine
demokratis
demokratu
den
denge
dengia
dengta
dengtas
dengti
denis
dennis
departamenta
departamentai
departamentais
departamentas
departamente
departamento
departamentu
departamentui
department
depeche
depresija
depresijos
deputatas
deputatu
der
dera
dere
derina
derino
derinti
derliaus
derliu
derybas
derybos
derybu
des
design
detale
detales
detaliu
detroito
deutsch
deutsche
deutschen
deutschland
development
devinta
devintajame
devintasis
devintojo
devyni
devyniasdes
devynios
devynis
devyniu
devynmete
dezember
deł
dgs
dhekelia
di
dia
dialektu
diana
dic
dictionary
did
dide
didele
dideles
dideli
dideliais
didelio
didelis
dideliu
didelius
didesne
didesni
didesnio
didesnis
didesniu
didesnius
didi
didieji
didikai
didikas
didiku
didina
didinti
didis
didmeistris
diduomene
didvyrio
didvyris
didvyriu
didybe
didysis
didz
die
diege
diego
diegta
diegti
diemedis
diena
dienai
dienas
dienine
dienomis
dienoms
dienoras
dienos
dienras
dienu
dies
dietrich
dieva
dievai
dievams
dievas
dieve
dievenis
dievis
dievo
dievu
dievui
dievus
dievybe
dievybiu
digital
dija
dijos
dike
dikis
dikiu
diktatu
dimiai
dimio
dimu
dimys
din
dina
dinama
dinamarca
dinamas
dinamika
dinamis
dinamo
dinastija
dinastijai
dinastijos
dinastiju
dinc
dine
dinga
dingas
dinge
dingi
dingo
dingos
dingsta
dingti
dingu
dini
diniai
dininkas
dinio
dinis
diniu
dino
dinti
dinys
dio
diploma
diplomas
diplomatas
diplomatija
diplomatijos
diplomatine
diplomatiniai
diplomatiniu
diplomatinius
dir
dirb
dirba
dirbama
dirbamas
dirbami
dirbamos
dirbanc
dirbant
dirbanti
dirbantis
dirbdamas
dirbdave
dirbdavo
dirbdavusi
dirbe
dirbiniai
dirbiniu
dirbo
dirbs
dirbsianc
dirbsianti
dirbsiantis
dirbsima
dirbsimas
dirbta
dirbtas
dirbti
dirbtina
dirbtinai
dirbtinas
dirbtine
dirbtinio
dirbtinis
dirbtiniu
dirbtuve
dirbtuves
dirbtuviu
dirbusi
direction
direkcija
direktore
direktoriaus
direktoriu
direktoriumi
direktorius
dirigavima
dirigavimo
dirigavo
dirigentas
dirigente
dirigentu
diriz
dirva
dirvonuoja
dirvos
dirvoz
dirz
dis
disciplina
disciplinu
discogs
discovery
disease
disertacija
diska
diskas
disko
diskografija
disku
diskusijos
diskusiju
disney
dispersas
displaystyle
distancija
distribution
divisio
division
divizija
divizijos
diviziona
divizionas
divizione
diviziono
divizionuose
dizaina
dizainas
dizainere
dizaineris
dizaino
dj
dk
dkt
dlv
dm
dmitrijus
dn
dna
dnia
dniepro
dnr
do
doc
docentas
docente
dodge
dog
doi
doje
dokpaieska
doktorantu
doktrina
dokumenta
dokumentai
dokumentas
dokumente
dokumentine
dokumentinis
dokumentiniu
dokumento
dokumentu
dokumentuose
dokumentus
dol
doleris
doleriu
dolls
dom
domas
dome
domenu
dominavo
domingo
dominica
dominicana
dominika
dominikonu
dominikos
domino
dominuoja
dominuojanc
dominykas
dominyko
domis
domu
domus
don
donald
donatas
donatello
donecko
donelaic
donna
dono
dopingo
dore
dorybe
dos
dotnuvos
double
douglas
dovana
dovanoja
dovanojo
dovanoti
dovydas
dovydo
down
dowych
doze
dr
dra
drabuz
dragon
dragu
drakono
drama
dramatis
dramaturgas
dramblio
dramblys
dramoje
dramos
draude
draudima
draudimas
draudimo
draudz
drauga
draugai
draugais
draugas
drauge
draugija
draugijai
draugijos
draugiju
draugis
draugo
draugu
draugui
draugus
draugyste
drausme
drausta
draustas
drausti
draustini
draustinio
draustinis
draustiniu
draustinyje
dre
dream
dreams
drebe
dreve
dri
drieke
driekiasi
driez
drive
drobe
drohic
dros
droz
dru
drugiu
drugys
druska
druskininkai
druskininku
druskininkuose
druskos
drusku
dryz
ds
dsakai
dsaku
dt
du
duba
dubene
dubens
dubingiu
dubleriu
dublin
dublino
dubysos
duc
due
duetas
dugna
dugnas
dugne
dugno
dujas
dujos
duju
dukart
dukra
dukros
dukte
dukteri
dukterine
dukteris
dukters
dukteru
dukterys
dulke
dulkiu
dune
dunojaus
duo
duobe
duoc
duoda
duodama
duodamas
duok
duokle
duom
duomenimis
duomenis
duomenu
duomenys
duona
duonos
duota
duotas
duoti
duotis
duotys
dur
during
duris
durpe
durpiu
duru
durys
dus
dusetu
dutch
dute
duva
duvos
duz
dv
dvara
dvarai
dvaras
dvardis
dvardz
dvare
dvarininkas
dvarininku
dvaris
dvaro
dvaru
dvarui
dvaruose
dvarus
dvarviete
dvasia
dvasine
dvasininkai
dvasininkas
dvasininku
dvasinio
dvasinis
dvasiniu
dvasios
dvasiu
dvd
dveji
dvejoja
dvejojo
dvejoti
dveju
dvejus
dvi
dviauks
dvides
dviec
dviejose
dvieju
dviejuose
dviem
dviguba
dvigubai
dvigubas
dvigubo
dvikova
dvirac
dvis
dvylika
dvylikos
dvyniai
dvyniu
dx
dy
dydi
dydis
dydz
dyje
dykuma
dykumoje
dykumos
dykumu
dynas
dyne
dz
dzeusas
dzeuso
dziudo
dziugas
dztwo
dzu
e
ea
eagle
early
earth
east
eastern
eazy
eb
ebriu
ec
ecb
echo
echovas
eco
economic
economist
economy
ecuador
ecuatorial
ed
eddie
edgaras
edge
edita
edited
edition
edmundas
edo
eds
edu
eduard
eduardas
eduardo
education
edukacine
edukologijos
eduvos
edvardas
edvardo
edvinas
edward
ee
eesti
ef
efekta
efektai
efektas
efektu
efektyviai
efektyvuma
efektyvumas
efektyvus
effect
ege
egidijus
egipta
egiptas
egipte
egiptiec
egipto
egle
egliu
eglynai
ego
egypt
egz
egzaminu
egzaminus
egzemplioriu
egzistave
egzistavima
egzistavimo
egzistavo
egzistavusi
egzistuoja
egzistuoti
egzoplaneta
egzotis
ei
eidamas
eidavo
eide
eidimas
eidimo
eidimu
eidimus
eidine
eidz
eiga
eigoje
eigos
eik
eika
eikiai
eikiu
eikiuose
eil
eile
eiles
eiliu
eiluc
eilute
eima
eimai
eimas
eimelio
eimenos
eimininkai
eimininkas
eimininke
eimininko
eimininku
eimio
eimis
eimiu
eimoje
eimos
eimsas
eimso
eimu
ein
eina
einanc
einant
einanti
einantis
eine
eins
einu
eis
eismas
eismo
eista
eistas
eisti
eistu
eiti
eities
eivijos
eiviu
ek
ekas
ekija
ekijoje
ekijos
ekipa
ekipai
ekipaz
ekipoje
ekipos
ekipu
ekis
eko
ekologijos
ekologine
ekonomijos
ekonomika
ekonomikai
ekonomikoje
ekonomikos
ekonomine
ekonomini
ekonominiai
ekonominio
ekonominis
ekonominiu
ekonomis
ekonomistas
ekonomiste
ekoslovakija
ekoslovakijoje
ekoslovakijos
ekranas
ekrane
ekrano
ekspansija
ekspedicija
ekspedicijos
eksperimentine
ekspertai
ekspertas
eksperte
ekspertu
eksploatuoti
eksponatu
eksponuojami
eksponuoti
eksportas
eksporto
ekspozicija
ekspozicijos
ekspresas
ekspyras
ekspyro
eku
ekvadoras
ekvadore
ekvadoro
el
ela
elas
elbe
elder
ele
electric
electronic
elei
elektra
elektre
elektrine
elektrinis
elektriniu
elektronika
elektronikos
elektronine
elektroninio
elektroninis
elektroniniu
elektronu
elektros
elektrotechnikos
elementa
elementai
elementais
elementas
elemento
elementu
elementus
elena
elenos
eleonora
elge
elgesi
elgesio
elgesys
elgetauja
elgetauti
elgetavo
elgia
elgiasi
elgti
elgtis
eli
eliai
eliais
elio
elis
elito
eliu
eliuose
elizabeth
elniai
elnias
elniu
elo
elpti
elton
elvyra
elyje
elz
em
ema
emai
emaic
emaite
emaitija
emaitijoje
emaitijos
emaitis
emaitkiemio
emanuelis
emas
emblema
emdirbiu
emdirbyste
eme
emei
emes
emesne
emesni
emesnis
emesniu
emesniuose
emi
emiai
emiau
emiausia
emigrantu
emigravo
emilija
emilis
emine
eminiu
emio
emiratos
emis
emiu
emiuose
emma
emmy
emo
emos
empionai
empionais
empionas
empionata
empionatai
empionatas
empionate
empionato
empionatu
empionatuose
empionatus
empione
empioniu
empiono
empionu
empire
emu
emuliavo
emuliuoja
emuliuoti
emuma
emumoje
emumos
emupio
emupyje
emutine
emutinio
emutiniu
emvaldz
emyje
emyn
emyna
emynai
emynas
emyne
emynine
emyninis
emyno
emynu
emyratai
en
enas
enciklopedija
enciklopedijoje
enciklopedijos
enciklopediju
enciklopedinis
encyclopaedia
encyclopedia
encyclopædia
end
endemine
ene
energetikas
energetikos
energija
energijos
energy
enevoje
enevos
eng
enge
engia
engimo
engine
engineering
england
english
engti
enka
enkla
enklai
enklais
enklas
enkliai
enklis
enklo
enklu
enklus
enko
enkos
eno
ens
entertainment
environment
environmental
eo
ep
epas
epe
epic
epizodas
epocha
epochos
er
era
erai
eras
erc
erdve
ere
eredivisie
ereliai
erelio
erelis
ereliu
eri
eria
eriai
eric
erich
erika
erikas
erio
eris
eritre
eritrea
eriu
erius
erks
ermitaz
ermuks
ernas
ernest
ernestas
ernigovo
ernobylio
ernst
ernstas
ero
eros
erozijos
ers
ertme
eru
eruose
erus
erz
erzina
erzino
erzinti
es
esa
esama
esamasis
esame
esamojo
esanc
esant
esanti
esantis
esantys
esch
ese
eseistas
esi
eskadrile
eslovaquia
eslovas
eslovenia
esme
esmine
esminis
esne
esni
esnio
esnis
esniu
espan
esperanto
espn
est
esta
estados
estafete
este
esterio
estetika
esti
estija
estijoje
estijos
estonia
estrados
estu
esu
esybe
et
eta
etalono
etapa
etapai
etapas
etape
etapo
etapu
etapus
etas
etc
ete
eteryje
ethnic
ethnologue
etika
etikos
etimologija
etimologinis
etine
etiopi
etiopija
etiopijoje
etiopijos
etmonas
etmono
etnine
etniniu
etnografas
etnografijos
etnografine
eto
etrusku
etu
eu
eugenija
eugenijus
eur
eurazijoje
eurazijos
euro
eurolygos
europa
europaea
europe
european
europiec
europietis
europine
europinis
europoje
europos
eurovision
eurovizija
eurovizijoje
eurovizijos
euru
ev
eva
evaldas
evangelija
evangelikai
evangeliku
evans
evas
eve
ever
everton
evic
evidence
evikai
eviku
evil
evo
evoliucija
evoliucijos
evolution
evskio
evskis
ex
exoplanet
express
eye
eyed
eyes
ez
ezerai
f
fa
fabrika
fabrikas
fabrike
fabriko
face
facebook
factbook
facto
facts
failu
fair
faktai
faktas
faktis
faktoriu
faktorius
faktu
fakulteta
fakultetas
fakultete
fakulteto
fakultetu
falco
fall
fame
family
fantastika
fantastikos
fantasy
fanu
far
faraonas
faraono
faraonu
fareru
farmacijos
fas
fasadas
fasade
fasado
fasadu
fasas
fashion
faso
fatva
fau
fauna
faustas
faze
fbk
fc
fe
february
federacija
federacijos
federacine
federaline
federalinis
federation
federico
feldmars
feliksas
felipe
feodaline
ferdinand
ferdinandas
ferdinando
fergie
ferma
fernando
feroe
ferrari
festival
festivali
festivaliai
festivalio
festivalis
festivaliu
festivaliuose
festivalyje
ff
fi
fia
fiat
fiba
fide
fidz
field
fifa
figu
fiksuota
fiksuotas
fiksuoti
file
files
filharmonijos
filialai
filialas
filialo
filija
filipas
filipinai
filipinas
filipinu
filipinuose
film
filma
filmai
filmams
filmas
filmavimo
filmavosi
filme
filmo
films
filmu
filmui
filmuose
filmus
filologas
filologija
filologijos
filomena
filosofas
filosofija
filosofijoje
filosofijos
filosofine
filosofo
filosofu
final
finala
finalai
finalas
finale
finalo
financial
finansavimo
finansavo
finansine
finansiniu
finansis
finansu
finikiec
finis
finland
finlandia
finougru
finu
fiodoras
fire
firma
firmos
first
fis
fischer
fish
fiuzeliaz
five
fizika
fizikas
fizikoje
fizikos
fizine
fiziniai
fizinio
fizinis
fiziniu
fiziologijos
fizis
fk
fl
flamandu
flash
flashscore
fleita
flight
flora
florencija
florencijoje
florencijos
florida
floridoje
floridos
flotile
floyd
fly
flying
fm
fo
folk
folkloro
fon
fonda
fondai
fondas
fondo
fondu
fone
fonetine
fontanas
food
foot
football
for
forbes
force
forces
ford
foreign
forest
forever
forma
formaliai
formas
formatas
formato
formatu
formavimosi
formavosi
former
formomis
formos
formu
formula
formule
formuoja
formuojasi
formuota
formuoti
formuotis
fort
forta
fortas
forte
fortepijono
fortepijonu
fortepijonui
forto
fortu
forum
forumas
fosforo
fosilijos
fosiliju
foto
fotografas
fotografija
fotografijos
fotografiju
found
foundation
four
fox
fr
fra
frac
fragmentai
fragmentas
fragmentu
frakcija
frakcijos
franc
francas
france
francesa
francesco
francia
francis
francisco
franco
frank
frankas
frankfurt
frankfurto
franko
franku
frans
fransisko
fransua
franz
fraze
fre
fred
frederick
frederikas
free
freedom
french
freska
freskos
fresku
frica
friedrich
friends
fritz
friulu
from
fronta
frontas
fronte
fronto
frontui
frusciante
frydlando
frydrichas
frydricho
fryzu
fs
ft
fu
fudz
full
funkcija
funkcijas
funkcijos
funkciju
furtado
futbola
futbolas
futbolininkai
futbolininkas
futbolininke
futbolininko
futbolininku
futbolinis
futbolo
futsal
futuna
future
g
ga
gabale
gabenti
gabija
gabo
gabonas
gabriel
gabriele
gabrielius
gaga
gage
gai
gaidys
gaidz
gailestingumo
gailiu
gailius
gaine
gaisra
gaisras
gaisrine
gaisro
gaisru
gaius
gaiz
gajana
gajus
gal
gala
galai
galais
galaktika
galaktikos
galaktiku
galas
galatasaray
galbu
gale
galerija
galerijoje
galerijos
gali
galia
galias
galiausiai
galicijos
galile
galima
galimai
galimas
galime
galimi
galimo
galimos
galimu
galimybe
galimybes
galimybiu
galina
galinc
galine
galinga
galingas
galingu
galinis
galinti
galintis
galioja
galiojanc
galiojimus
galiojo
galios
galiotasis
galioti
galisu
galite
galiu
gallery
galo
galu
galuose
galutinai
galutine
galutini
galutinis
galva
galvas
galvijai
galviju
galvoja
galvojanc
galvoje
galvojo
galvos
galvota
galvotas
galvoti
galvu
galvute
galybe
gama
gambia
gambija
gambitas
game
games
gamespot
gamina
gaminama
gaminamas
gaminami
gaminamos
gaminanc
gaminant
gaminanti
gaminantis
gamindave
gamindavo
gamindavusi
gamine
gaminiai
gaminimo
gaminiu
gamino
gamins
gaminsianc
gaminsianti
gaminsiantis
gaminsima
gaminsimas
gaminta
gamintas
gaminti
gamintina
gamintinas
gamintoja
gamintojai
gamintojas
gamintojo
gamintoju
gaminusi
gamma
gamos
gamta
gamtine
gamtininkas
gamtinis
gamtiniu
gamtoje
gamtos
gamyba
gamybai
gamybine
gamyboje
gamybos
gamykla
gamykloje
gamyklos
gamyklu
gan
gana
gandras
gane
ganos
gant
ganto
ganyklos
garantavo
garantuoja
garantuoti
garaz
garbe
garbei
garden
gardino
gargz
garliavos
garnys
garo
gars
garsa
garsai
garsas
garsaus
garse
garsesni
garsi
garsiai
garsiausias
garsiausiu
garsino
garsios
garsiu
garso
garsu
garsus
garu
gary
gas
gastroliavo
gatve
gatves
gatviu
gau
gaudavo
gaudine
gaudo
gauja
gaujos
gauna
gaunama
gaunamas
gauname
gaunami
gaunamos
gaus
gausa
gausi
gausiai
gausime
gausios
gausu
gausus
gausybe
gauta
gautas
gauti
gautu
gave
gavo
gavus
gavusi
gavyba
gavybos
gaz
gazos
gb
gd
gdansko
gdavo
gdz
ge
gear
geba
gebe
gebiet
gec
gediminaic
gediminas
gedimino
geg
gegute
geguz
geidz
geis
gelbe
geldape
gelez
gelgaudis
gelia
gelme
gelsva
gelsvai
gelsvi
gelti
geltona
geltonai
geltonas
geltoni
geltonos
geltonu
gelvonu
gelz
gemeindelexikon
gemeinden
gemeindeverzeichnis
gen
genc
gene
genealogija
general
generaline
generalinio
generalinis
generaliniu
generation
generola
generolas
generolo
generolu
genetine
genetis
genocidas
genocido
genovaite
genti
genties
gentis
gentyje
gentys
genu
genujos
genwiki
genys
geo
geografas
geograficzny
geografija
geografijos
geografine
geografiniame
geografinis
geografiniu
geografis
geographic
geographisches
geoinformacine
geologas
geologija
geologijos
geologinis
geometrija
geometrine
geomorfologija
geomorfologinis
georg
georgas
george
georges
georgia
ger
gera
gerai
geras
gerbe
gerdave
gerdavo
gerdavusi
geresne
geresni
geresnis
geri
geria
geriama
geriamas
gerianc
gerianti
geriantis
geriau
geriausi
geriausia
geriausiai
geriausias
geriausio
geriausios
geriausiu
geriausius
gerinti
gerkle
germain
german
germanis
germanu
germany
gero
gerokai
geros
gerove
gers
gersianc
gersianti
gersiantis
gersima
gersimas
gerta
gertas
gerti
gertina
gertinas
geru
gerullis
gerus
gerve
geschichte
get
geto
gets
ghana
ghost
gi
gia
giai
gian
giant
gibraltar
gibraltaras
gibraltaro
gidas
gieda
giedojo
giedraic
giedraitis
giedre
giedrius
giedrys
giesme
giesmiu
gija
gije
gijo
gikas
gildijos
giliai
giliau
giliausia
giliu
gilu
giluma
gilus
gim
gimas
gimde
gimdo
gimdos
gimdymo
gimdyti
gime
gimimas
gimimo
gimimu
giminaic
gimine
giminei
giminis
giminiu
giminyste
gimnastikos
gimnazija
gimnazijoje
gimnazijos
gimo
gimsta
gimstamumas
gimta
gimtajame
gimtasis
gimti
gimtine
gimtoji
gimtojo
gimtosios
gimus
gimusi
gin
gina
ginama
ginanc
ginc
gine
giniu
ginkla
ginklai
ginklais
ginklas
ginklo
ginklu
ginkluota
ginkluotas
ginkluote
ginkluoti
ginkluotu
ginklus
gino
gins
gintaras
gintare
gintaro
gintautas
ginti
gintis
gintra
gio
giorgio
giovanni
gir
gira
giraite
girde
girdi
girdima
girdimas
girdinc
girdo
girdz
gire
giria
girininkija
girininkijos
girioje
girios
giriu
girl
girls
girsti
gis
gitara
gitaristas
gitaros
giu
gius
giuseppe
give
giz
gl
glaudz
gle
gleivine
gliavo
gliukoze
gliuoja
gliuoti
globa
global
globalsportsarchive
globe
globojo
globos
gloria
glu
gm
gmbh
gme
gmina
gnai
gnas
gniauz
gnininkas
gnose
gnu
go
goal
god
gods
goes
gold
goldbeck
golden
golfo
gomis
goms
good
google
gorbac
gordon
goris
gorkai
gorkio
gos
gose
got
gotikine
gotikos
gotu
gov
government
goz
gp
gr
gra
grace
grafas
grafiene
grafika
grafikas
grafike
grafikos
grafine
grafo
grafu
grafyste
graham
graikai
graikija
graikijoje
graikijos
graikis
graiku
graiz
grajevo
graks
gramatika
gramatikos
grammy
gran
granada
granadinas
grand
grande
grandine
grandis
granitas
granito
grant
gras
grasilda
grauz
gravitacijos
graviu
gray
graz
gre
great
greatest
grecia
greek
green
greic
greit
greita
greitai
greitas
greiti
greitis
greitkelis
greito
greitojo
greitu
grenada
grenlandija
grenlandijos
grenlandu
gresia
greta
gretas
gretima
gretimame
gretimu
gretose
gri
griauc
gricius
grietine
griez
grifas
grigaliaus
grigaliu
grigalius
grigas
grigis
grigorijus
grikevic
grindu
grindys
grindz
grinius
grinkis
griovi
griovio
grioviu
griovys
gris
griu
griuve
gro
grobe
grobi
groenlandia
groja
grojo
groti
ground
group
groz
groß
gru
gruble
grund
grunto
gruodi
gruodis
gruodz
grupe
grupei
grupele
grupes
grupine
grupiu
grupuote
grus
gruz
gruzdz
gruzija
gruzijoje
gruzijos
gruzinu
grybai
grybas
grybauskaite
grybu
gryna
grynai
grynas
gs
gsianc
gso
gsta
gt
gta
gti
gu
guadalupe
guam
guardian
guatemala
gubernatoriaus
gubernatorius
gubernija
gubernijai
gubernijoje
gubernijos
gudaitis
gudavic
gudeliu
gudijoje
gudijos
gudu
gudz
guernsey
guide
guinea
gula
gulbe
gulbiu
gule
guli
gulos
guma
gumbine
gumos
gun
guns
gurjevsko
guru
gus
gusi
gustaitis
gustav
gustavas
gustavo
gut
gutsbezirke
guy
guyana
guz
gvaraniu
gvardija
gvardijos
gvatemala
gvatemaloje
gvatemalos
gvine
gydant
gyde
gydoma
gydyma
gydymas
gydymo
gydymui
gydyti
gydytoja
gydytojai
gydytojas
gydytojo
gydytoju
gyja
gyli
gylio
gylis
gylyje
gyne
gynimo
gynyba
gynybai
gynybine
gynybiniu
gynybos
gyre
gyti
gytis
gyv
gyva
gyvac
gyvai
gyvas
gyvate
gyvavimo
gyvavo
gyvavusi
gyvena
gyvenama
gyvenamas
gyvenamasis
gyvenamieji
gyvenamoji
gyvenamojo
gyvenamos
gyvenamosios
gyvenamosiose
gyvenamu
gyvenanc
gyvenanti
gyvenantis
gyvenantys
gyvendamas
gyvendina
gyvendinant
gyvendinima
gyvendinimo
gyvendino
gyvendintas
gyvendinti
gyvene
gyvenima
gyvenimas
gyvenime
gyvenimo
gyvenimu
gyvenimui
gyveno
gyventa
gyventi
gyventoja
gyventojai
gyventojais
gyventojams
gyventojas
gyventoju
gyventojui
gyventojus
gyvenusi
gyvenusiu
gyvenviec
gyvenviete
gyvenvietei
gyvenvietes
gyvi
gyvo
gyvos
gyvu
gyvuliai
gyvulininkyste
gyvuliu
gyvulius
gyvybe
gyvybei
gz
gło
h
ha
habil
habilituota
habilituotas
habsburgu
hac
haic
hainuvkos
haiti
haitis
hale
half
halic
hall
halle
hamburg
hamburge
hamburgo
hamilton
hamiltonas
han
hana
hand
handbook
handbuch
hans
hansa
hansas
hapoel
happy
hard
hari
hario
haris
harmonija
harris
harry
harvard
harvardo
harvey
has
hat
hausu
havajiec
havaju
have
hd
he
head
health
heard
heart
hearts
heat
heaven
heavy
hebr
hebraju
heft
hegelmann
hegemonija
heinrich
heinrichas
hektaru
helen
helena
hell
helmut
helsinki
helsinkio
helsinkyje
henri
henrikas
henriko
henris
henry
her
heraklis
heraldikos
heraldinis
herba
herbai
herbas
herbe
herbert
herbo
herbu
hercegovina
hercegovinoje
hercegovinos
hercogas
hercogo
hercogyste
here
heritage
hermanas
hermann
hero
herojai
herojaus
heroju
herojus
herzegovina
hetitu
hi
hidroelektrine
hidrografinis
hidronimu
hieroglifas
high
higiena
higienos
hill
himalaju
himnai
himnas
himno
himnu
hind
hindi
hinduistu
hinduizmo
hip
hiphopo
hipoteze
hiragana
his
histoire
historia
historical
history
hit
hitlerio
hitleris
hits
hitu
hlung
ho
hold
holivudo
hollywood
holocaust
holokausto
hols
home
homero
homo
honda
hondu
honduras
hong
honkongas
honkongo
hop
hope
hormonu
hot
hotel
house
how
howard
hp
hr
hrodzienskaja
hrsg
htm
html
http
https
hu
hudson
hugh
hugo
human
humanitarine
humanitariniu
humoro
hung
hungri
hunter
hydronymia
i
ia
iaaf
iadieni
iadoriu
iadorys
iaga
iagalos
iagas
iagomis
iagos
iagu
iai
iaip
iais
iaisiais
iajai
iajam
iajame
iaju
iakalnio
iakampe
iakampio
iakampis
iam
iama
iamas
iamasi
iamasis
iame
iami
iamieji
iamiesc
iamo
iamoji
iamojo
iamos
iamosios
iams
iamu
ian
ianc
iandien
iant
ianti
iantis
iantys
ias
iasdes
iasi
iasis
iast
iatikiai
iatikiu
iatkos
iau
iauge
iaugsmas
iaugsmo
iauja
iaule
iauliai
iauliu
iauliuose
iaulius
iaure
iauriai
iauriau
iaurine
iauriniai
iauriniame
iaurinio
iaurinis
iauriniu
iaus
iausi
iausia
iausiai
iausiame
iausias
iausiasis
iausio
iausioje
iausioji
iausiojo
iausios
iausiosios
iausiu
iausius
iauskas
iauti
iava
iave
iavima
iavimai
iavimais
iavimas
iavime
iavimo
iavimu
iavimui
iavimus
iavo
iavos
iavus
iaz
iazo
iba
ibe
iberijos
ibm
ibn
ibu
ibuc
iburio
ibutis
ic
ica
ice
ich
icos
id
ida
idant
ide
idealus
identis
identity
ideologija
ideologijos
idinio
idiniu
idinys
ido
idz
ie
iec
ieda
iedai
iedais
iedas
iede
iedis
iedo
iedu
iedus
iedynas
iedz
ieji
iek
iema
iemgalos
iemoja
iemos
iems
iene
ies
ieties
ietis
ieva
ieve
iez
if
ig
igano
ign
ignalina
ignalinos
ignas
ignored
ignotas
igonu
igoris
ihre
ii
iii
iint
ija
ijama
ijamas
ijanc
ijanti
ijantis
ijas
ije
ijimas
ijo
ijos
ijus
ijusi
ik
ikaga
ikagoje
ikagos
ikai
ikas
ike
iki
ikija
ikijos
ikimokyklinio
iklis
iko
ikona
ikonos
iks
iku
il
ila
ilale
ilas
ilc
ile
ilg
ilga
ilgaamz
ilgai
ilgainiui
ilgais
ilgalaike
ilgam
ilgamete
ilgametis
ilgas
ilgesne
ilgesni
ilgesnis
ilgi
ilgiau
ilgiausia
ilgiausiai
ilgiausias
ilgine
ilgio
ilgis
ilgo
ilgos
ilgu
ilgus
ili
ilinojaus
ilinskas
ilio
ilis
iliu
iliustr
iliustracijos
iliustravo
iliustruotas
ilja
ilko
illustrated
ilo
ilse
iltas
ilu
iluma
ilumine
ilumos
ilute
iluvos
ilvinas
im
ima
images
imai
imais
imama
imamas
imant
imantis
imas
imasi
imbare
imc
imdavo
imdb
ime
imermanas
imhof
imi
imigrantu
imis
imitavo
imituoja
imituoti
imiu
imkaus
imkus
imo
imoniu
imos
impact
imperatore
imperatoriai
imperatoriaus
imperatoris
imperatoriu
imperatoriui
imperatoriumi
imperatorius
imperial
imperija
imperijai
imperijoje
imperijos
importas
importo
ims
imt
imta
imtai
imtas
imtasis
imti
imties
imtinai
imtine
imtis
imtmec
imtmeti
imtmetis
imtmetyje
imto
imtos
imtu
imtuka
imtus
imtyne
imtyniu
imtys
imu
imui
imunine
imus
in
ina
inai
inama
inamas
inami
inamu
inanc
inant
inanti
inantis
inas
inau
inc
indai
indama
indamas
indas
indave
indavo
indavus
indavusi
indavusia
indavusiu
inde
indeksas
independent
index
india
indian
indiana
indie
indija
indijoje
indijos
indis
individai
individas
individo
individu
individualios
individualiu
individualu
indo
indoeuropiec
indonesia
indoneziec
indonezija
indonezijoje
indonezijos
indra
indre
indu
induoliai
induolis
induoliu
industrial
industrijos
industry
indz
ine
inerija
inerijos
inerine
ines
inf
infekcija
infekcijos
infliacija
info
informa
informacija
informacijos
informacine
informacinis
informaciniu
informatika
informatikos
information
informavo
informuoti
infrastruktu
infty
ing
inga
ingai
ingas
ingos
ingrida
ingsniai
ingsnis
ingsniu
ingtone
ingtono
ingu
ini
inia
iniai
iniais
iniajame
inias
iniasklaida
iniasklaidoje
iniasklaidos
iniciatoriu
iniciatorius
iniciatyva
iniciatyvine
iniciatyvos
inicijavo
inieji
iniere
inieriaus
inieriu
inieriumi
inierius
inija
inijos
inima
inimas
inimo
inimu
inimui
ininka
ininkai
ininkas
ininke
ininko
ininku
ininkui
ininkus
ininkyste
inio
iniojo
iniomis
inios
inis
iniu
iniuose
inius
ink
inkeli
inkeliai
inkelio
inkelis
inkeliu
inkstu
inku
innych
ino
inoje
inojo
inoma
inomas
inome
inomi
inomiausias
inomiausiu
inomo
inomos
inomu
inos
inosi
inoti
inovaciju
ins
insia
insianc
insiant
insianti
insiantis
inside
insima
insimas
insimu
inskaite
inskas
inskiene
inskio
inskis
insko
inspekcija
inspekcijos
inspektorius
institucija
institucijas
institucijoms
institucijos
institucijose
instituciju
instituta
institutas
institute
instituto
institutu
instruktorius
instrumentai
instrumentais
instrumentas
instrumentine
instrumentu
int
inta
intakai
intakas
intako
intaku
intas
inte
integracijos
intel
intelektas
intelektine
intelekto
intelligence
intensyviai
inter
interactive
interaktyvus
interesai
interesams
interesu
interesus
interjeras
interjero
interlingua
internacionalo
international
internationale
internazionale
internet
interneta
internete
internetine
internetinis
interneto
internetu
interpretacija
interview
interviu
inti
intina
intinai
intinas
intinu
intis
into
intoja
intojas
intoju
intos
introduction
intu
intume
inturke
inu
inus
inusi
inusia
inusiu
inute
invazija
invazijos
inventoriuje
investicijos
investiciju
inybe
inynas
inys
inysis
inz
io
iobis
ioc
iodavo
iogu
ioj
ioja
iojamas
ioje
ioji
iojo
iojoje
iokas
iokle
iol
iolika
iom
iomis
ioms
ion
ione
ionis
ioniu
ionybe
ionys
ios
iose
iosiomis
iosioms
iosios
iosiose
ioti
iotis
iotojai
iotojas
iotoju
iotys
iotyse
iovas
iovo
ip
ipa
iphone
ir
ira
irak
irakas
irake
irako
iran
iranas
irane
irano
iras
irdi
irdies
irdis
irdyje
irdz
ireland
irena
irga
irgas
irgi
irgo
irgu
irish
irklavimo
irkutsko
irlanda
irma
iro
iron
irs
irvintos
irvintu
is
isaac
isavo
isbn
isiere
isieriai
isieriaus
isieriu
isieriumi
isierius
isla
islama
islamas
islamis
islamo
island
islandia
islandija
islandijoje
islandijos
islands
islandu
islas
islovas
iso
isp
ispanai
ispanas
ispanija
ispanijai
ispanijoje
ispanijos
ispanis
ispanu
israel
issn
issue
ist
istanbul
istore
istorija
istorijai
istorijoje
istorijos
istoriju
istorikai
istorikas
istorike
istoriko
istoriku
istorine
istorini
istoriniai
istoriniais
istoriniame
istorinio
istorinis
istoriniu
istoriniuose
istorinius
istoris
isu
it
ita
itai
itaip
italai
italas
italia
italian
italija
italijoje
italijos
italis
italu
italy
itas
item
itemid
itin
ito
itos
its
itu
itunes
iu
iucn
iugas
iugo
iui
iuje
iukai
iukas
iukc
iuko
iuks
iuku
iule
iuli
iuliai
iulio
iulis
iuliu
iulius
ium
iuma
iumi
iungle
iungliu
iuo
iuoc
iuodavo
iuoja
iuojama
iuojamas
iuojami
iuojant
iuoju
iuokle
iuolaikine
iuolaikiniai
iuolaikinio
iuolaikinis
iuolaikiniu
iuos
iuose
iuosiuose
iuosius
iuota
iuotas
iuote
iuoti
iuotojo
iuoz
iuri
iurke
iurks
iurlionio
iurlionis
ius
iusi
iusia
iusiai
iusiais
iusiaisiais
iusiajai
iusiajam
iusiajame
iusiam
iusiame
iusias
iusieji
iusiems
iusiesiems
iusio
iusioje
iusioji
iusiojo
iusiojoje
iusiomis
iusioms
iusios
iusiose
iusiosiomis
iusiosioms
iusiosios
iusiosiose
iusiu
iusiuoju
iusiuose
iusiuosiuose
iusiuosius
iusius
iusysis
iute
iuvas
iuz
iuzepe
iv
iva
ivan
ivanas
ivanauskaite
ivanauskas
ivanausko
ivano
ivanovas
ivas
ivile
ivo
ivos
ix
iz
izabele
ize
izna
iznos
izoliuota
izraeli
izraelio
izraelis
izraelyje
j
ja
jablonskio
jablonskis
jachta
jachtu
jack
jackson
jacob
jacques
jadvyga
jae
jai
jais
jak
jaks
jakutijoje
jam
jama
jamaica
jamaika
jamaikos
jamas
jame
james
jami
jamie
jamos
jams
jan
jana
janas
janc
jane
janina
janis
jankauskas
jankevic
janku
jano
jant
janti
jantis
jantys
january
janus
jap
japan
japanese
japo
japonai
japonija
japonijai
japonijoje
japonijos
japonis
japonu
jaroslavas
jarvis
jas
jason
jau
jauc
jaudina
jaudinama
jaudinamas
jaudinanc
jaudinanti
jaudinantis
jaudindave
jaudindavo
jaudindavusi
jaudine
jaudino
jaudins
jaudinsianc
jaudinsianti
jaudinsiantis
jaudinsima
jaudinsimas
jaudinta
jaudintas
jaudinti
jaudintina
jaudintinas
jaudinusi
jauna
jaunas
jaunasis
jaunesne
jaunesni
jaunesniojo
jaunesnysis
jauni
jauniausias
jauniausiu
jaunieji
jaunikliai
jauniklis
jaunikliu
jauniklius
jaunimas
jaunimo
jaunimui
jauniu
jauno
jaunoji
jaunojo
jaunos
jaunosios
jaunu
jaunuc
jaunuolis
jaunuoliu
jaunyste
jauriniai
jaus
jausma
jausmai
jausmas
jausmu
jausmus
jausti
jaute
jautis
jav
java
javai
javiec
javos
javu
javus
jay
jazz
je
jean
jeff
jei
jeigu
jekaterina
jemenas
jemeno
jennifer
jeremy
jerevano
jeronimas
jeronimo
jerry
jersey
jerusalem
jeruzale
jerzy
jes
jessica
jesus
jet
jevgenijus
jewish
jez
ji
jidis
jie
jiec
jiedu
jiems
jietis
jiezno
jim
jima
jimai
jimais
jimams
jimas
jime
jimmy
jimo
jimu
jimui
jimuose
jimus
jin
jis
jisai
jk
jn
jo
joachim
joana
jodine
joe
joel
jog
jogaila
jogailaic
jogailos
johan
johanas
johann
johannes
johano
john
johnny
johnson
johnston
joja
joje
jojo
jokia
jokio
jokios
jokiu
joks
joku
jolanta
jom
jome
jomis
joms
jon
jona
jonas
jonathan
jonava
jonavoje
jonavos
jones
jonis
jono
jonu
jonui
jonus
jordan
jordania
jordanija
jordanijos
jorge
jorubu
jos
jose
joseph
josh
josi
josvainiu
jot
jote
joti
jotvingiai
jotvingiu
journal
jovais
jovi
jozefas
jp
jpg
jr
js
jt
jto
ju
juan
jubilieju
juda
judanc
jude
judesiai
judesio
judesiu
judita
judo
jugoslavija
jugoslavijos
jui
juje
juk
juknaic
juknevic
julia
julija
julijaus
julijus
julius
july
jumi
jums
junda
june
jung
junga
jungai
jungas
junge
jungia
jungianc
jungianti
jungiantis
jungiasi
jungine
jungini
junginiai
jungininkai
jungininku
junginio
junginiu
junginius
junginys
jungoje
jungos
jungta
jungtas
jungti
jungtine
jungtines
jungtiniai
jungtiniu
jungtis
jungu
junior
junta
junusas
juo
juocevic
juoda
juodai
juodais
juodaodz
juodas
juodasis
juodi
juodieji
juodis
juodkalnija
juodkalnijoje
juodkalnijos
juodkrante
juodo
juodoji
juodojo
juodomis
juodos
juodosios
juodu
juodupe
juodz
juokina
juokino
juokinti
juos
juose
juosia
juosta
juostas
juostele
juostoje
juostomis
juostos
juostose
juostu
juoza
juozapas
juozapo
juozas
juozo
jupiterio
jupiteris
juras
jurbarkas
jurbarko
jure
jurevic
jurga
jurgio
jurgis
jurgita
juridinis
jurijus
juros
jus
jusi
jusia
jusiai
jusiais
jusiam
jusiame
jusias
jusieji
jusiems
jusio
jusioje
jusiomis
jusioms
jusios
jusiose
jusiu
jusiuose
jusius
just
justas
justi
justice
justin
justina
justinas
juto
juventus
juzefas
k
ka
kabinetas
kabineto
kabo
kabu
kac
kad
kada
kadaise
kadangi
kadastras
kadencija
kadencijai
kadencijos
kadru
kai
kailio
kailis
kailiu
kaima
kaimai
kaimais
kaimas
kaime
kaimelis
kaimis
kaimo
kaimu
kaimui
kaimuose
kaimus
kaimynai
kaimynas
kaimyne
kaimynine
kaimyniniu
kaimynu
kaimynyste
kaina
kainas
kainavo
kainos
kainu
kaip
kaipo
kaire
kairiajame
kairieji
kairioji
kairiojo
kairiu
kairo
kairys
kairysis
kais
kaita
kaite
kaitis
kaitos
kajai
kajame
kakla
kaklas
kaklo
kakta
kalas
kalba
kalbai
kalbama
kalbanc
kalbant
kalbanti
kalbantis
kalbantys
kalbas
kalbe
kalbine
kalbininkas
kalbininke
kalboje
kalbomis
kalboms
kalbos
kalbose
kalbotyra
kalbotyros
kalbu
kalcio
kaldinti
kale
kalendoriaus
kalendoriu
kalendorius
kali
kalibro
kalifato
kalifornija
kalifornijoje
kalifornijos
kalinauskas
kaliniai
kalinimo
kaliningrad
kaliningradas
kaliningrado
kaliniu
kalintas
kalinys
kalio
kalis
kalna
kalnagu
kalnai
kalnakasybos
kalnas
kalne
kalnine
kalnis
kalno
kalnu
kalnuose
kalnuota
kalnuotas
kalnus
kalnynas
kalnyno
kalta
kaltane
kaltas
kalte
kalti
kaltina
kaltine
kaltino
kaltinti
kaltu
kalva
kalvagu
kalvarija
kalvarijos
kalve
kalvele
kalvis
kalviu
kalvoje
kalvos
kalvotas
kalvu
kam
kamaju
kambari
kambariai
kambario
kambariu
kambaryje
kambarys
kambodz
kamc
kame
kamera
kamerine
kameros
kameru
kamienas
kamieno
kamienu
kamos
kampa
kampanija
kampanijoje
kampanijos
kampas
kampe
kampo
kampu
kams
kamuoli
kamuolio
kamuolys
kan
kanada
kanadiec
kanadoje
kanados
kanadu
kanala
kanalai
kanalas
kanale
kanalo
kanalu
kanalus
kanarskas
kanauninkas
kanc
kanceliarija
kanceliarijos
kanclerio
kancleris
kanda
kandidatai
kandidatas
kandidate
kandidato
kandidatu
kandidatus
kandis
kando
kandz
kaniu
kankore
kanoju
kanonu
kant
kantata
kanto
kantonas
kantono
kantonu
kantri
kantrybe
kanu
kapa
kapai
kapas
kapaviete
kapc
kape
kapeliais
kapelionas
kapinaite
kapine
kapines
kapiniu
kapinynas
kapinyno
kapitalas
kapitalo
kapitonas
kapitono
kapitonu
kapo
kapsuko
kapsule
kapu
kapuose
kapus
kar
kara
karabacho
karac
karai
karaimu
karaliai
karaliauc
karaliaus
karaliene
karalis
karaliu
karaliui
karaliumi
karalius
karalysc
karalyste
karalystei
karas
karate
karavadz
karc
karda
kardas
kardinolas
kardinolo
kardinolu
kardo
kardu
kare
kareiviai
kareivine
kareivis
kareiviu
karelija
karelijos
kariai
kariams
kariauti
kariavimo
kariavo
karibu
karikatu
karine
karinei
karines
karini
kariniai
kariniame
karininkai
karininkas
karininko
karininku
karinio
karinis
kariniu
karinius
kario
karis
kariu
kariuomene
kariuomenei
kariuomeniu
karius
karjera
karjeras
karjero
karjeroje
karjeros
karkle
karl
karla
karlas
karlo
karlosas
karlsenas
karme
karmelitu
karmen
karo
karolina
karolinos
karolio
karolis
karosas
karpatu
karpis
karpovas
kars
kart
karta
kartais
kartas
kartenos
kartinis
karto
kartos
kartu
kartus
kartvelu
karu
karui
karuose
karus
karve
karvedys
karvedz
karvelis
karviu
karyba
karys
kas
kasa
kasama
kasdien
kasdienybe
kase
kasenu
kasete
kasine
kasis
kasmet
kasmetine
kasmetinis
kasos
kasparas
kasparovas
kaspijos
kasta
kastas
kasti
kastilijos
kasybos
kasykla
kasyklos
kat
katalikai
katalikis
kataliku
katalikybe
katalogas
katalonijos
katalonu
kataras
kataro
katastrofa
katastrofos
kate
katedra
katedrai
katedroje
katedros
kategorija
kategorijas
kategorijoje
kategorijos
kategoriju
katerina
katinas
kauc
kaukaze
kaukazo
kauke
kaukole
kaulai
kaulas
kaulo
kaulu
kauna
kaunas
kaune
kauniec
kauno
kaupe
kaupia
kaupiasi
kaupti
kaus
kauskas
kautis
kautyne
kautyniu
kava
kavalerija
kavalerijos
kavaliauskas
kavalierius
kavarsko
kavine
kavos
kaz
kazachija
kazachijos
kazachstanas
kazachstane
kazachstano
kazachu
kazajista
kazakevic
kazane
kazimiera
kazimieras
kazimiero
kazio
kazlauskas
kazlu
kazokai
kazoku
kazys
kb
kc
ke
kec
kei
keic
keista
keistas
keisti
keistis
keite
keith
keitimo
keke
kele
keleiviai
keleivinis
keleivis
keleiviu
keleivius
keleriu
kelerius
keleta
keletas
keleto
keletu
keli
kelia
keliai
keliais
keliama
keliamaisiais
keliamieji
kelias
keliasdes
keliasi
keliauja
keliauti
keliautojas
keliautojo
keliavo
keliems
kelio
keliolika
keliomis
kelioms
kelione
keliones
kelioniu
kelios
keliose
kelis
keliu
keliukas
keliuku
keliuose
kelius
kelly
kelme
kelne
kelno
kelps
kelta
keltai
keltas
kelti
keltis
keltu
kelyje
kembridz
kems
ken
kenc
kenia
kenija
kenijoje
kenijos
kenke
kennedy
kenneth
kente
kento
kenya
kepa
kepe
kepenu
kepler
kepti
kepure
keramika
keramikos
kere
kernave
kers
kerta
kes
kesc
kesne
ketina
ketino
keturi
keturiais
keturias
keturiasdes
keturiolika
keturiomis
keturios
keturis
keturiu
keturkampe
ketveriems
ketveriu
ketverius
ketvirc
ketvirta
ketvirtadieni
ketvirtajame
ketvirtas
ketvirtasis
ketvirtfinalio
ketvirtfinalis
ketvirtfinalyje
ketvirti
ketvirtoji
ketvirtojo
ketvirtos
kevic
kevin
key
kf
kg
kgb
khiva
khmerai
khmeru
ki
kia
kiai
kiais
kiakopu
kiamas
kiams
kian
kianc
kianti
kiantis
kiau
kiaule
kiauliu
kiaune
kiaus
kiausia
kiausias
kiausiu
kibirks
kic
kiec
kieji
kiek
kieki
kiekiai
kiekiais
kiekio
kiekis
kiekiu
kiekviena
kiekvienai
kiekvienais
kiekvienam
kiekviename
kiekvienas
kiekvieno
kiekvienoje
kiekvienos
kiekvienu
kiema
kiemai
kiemas
kieme
kiemo
kiems
kiene
kieno
kieta
kietas
kietu
kijevas
kijeve
kijevo
kijos
kil
kildave
kildavo
kildavusi
kildinamas
kile
kilimas
kilimo
kilimu
kilm
kilme
kilmingai
kilmingu
kilo
kilometro
kilometru
kils
kilsianc
kilsianti
kilsiantis
kilsima
kilsimas
kilta
kiltas
kilti
kiltina
kiltinas
kilus
kilusi
kilusio
kilusios
kilusiu
kim
kima
kimas
kime
kimi
kimo
kims
kimu
kin
kina
kinai
kinama
kinamas
kinas
kine
king
kinga
kingas
kingdom
kings
kini
kiniai
kinija
kinijoje
kinijos
kinimas
kinimo
kinimui
kininkai
kininkas
kininko
kininku
kininkyste
kinio
kinis
kiniu
kinius
kino
kinta
kinti
kintu
kinu
kinys
kio
kios
kioto
kipras
kipre
kipro
kirc
kirdo
kirgizija
kirgizijos
kirgizu
kirguista
kiribati
kirme
kirs
kirsta
kirsti
kirtimo
kirto
kiru
kirvis
kirviu
kis
kiss
kit
kita
kitados
kitai
kitaip
kitais
kitam
kitame
kitapus
kitas
kite
kiti
kitiems
kitimas
kito
kitoje
kitokia
kitokie
kitokio
kitokios
kitokiu
kitoks
kitomis
kitoms
kitos
kitose
kitu
kituose
kitur
kitus
kiu
kiui
kiuose
kius
kk
kl
kla
klai
klaida
klaidas
klaidingai
klaidos
klaidu
klaipe
klajokliai
klajokliu
klanas
klano
klanu
klas
klase
klasei
klases
klasicizmo
klasifikacija
klasifikacijos
klasifikatorius
klasikine
klasikinio
klasikinis
klasikiniu
klasiu
klaus
klause
klausia
klausima
klausimai
klausimais
klausimas
klausimu
klausimus
klauso
klausos
klausti
klausyti
klausytoju
klaviatu
klavis
kle
klebonas
klebonija
klebono
klebonu
klein
kleinlitauen
klemensas
kleopatra
kleste
klevas
klevu
kliento
klientu
klimas
klimatas
klimato
klimavic
klinika
klinikine
klinikos
klipa
klipas
klipe
klipo
klipu
klis
kliu
klomis
klos
klu
kluba
klubai
klubams
klubas
klube
klubo
klubu
klubui
klubuose
klubus
klydo
klysta
klysti
km
kme
kminga
kmingai
kmingas
kmingi
kmingiausiu
kmingo
kmingos
kmingu
kn
know
knyga
knygas
knygele
knygnes
knygoje
knygos
knygose
knygu
ko
koalicija
koalicijos
kobenhavn
koc
koch
koda
kodamas
kodas
kodavo
kode
kodeksas
kodekso
kodo
kodu
koduoja
koduoti
koeficientas
koja
kojas
koje
koji
kojine
kojo
kojoje
kojomis
kojos
koju
koki
kokia
kokias
kokie
kokio
kokios
kokiu
kokius
koks
kokybe
kokybis
kol
koledz
kolega
kolegija
kolegijoje
kolegijos
kolekcija
kolekcijos
kolektyva
kolektyvas
kolektyvine
kolektyvo
kolektyvu
kolno
kolona
kolonija
kolonijas
kolonijine
kolonijiniu
kolonijos
kolonijose
koloniju
kolonistai
kolonistu
kolonizacija
kolonizacijos
kolonos
kolonu
kolorado
kolu
kolumbas
kolumbija
kolumbijoje
kolumbijos
kolumbo
koma
komanda
komandai
komandas
komandine
komandinis
komandoje
komandoms
komandoro
komandos
komandose
komandu
kombinacija
kombinatas
kombinato
komedija
komedijoje
komedijos
komendantu
komentaras
komercijos
komercine
komercinis
komerciniu
komercis
komiksu
komis
komisaras
komisariatas
komisariato
komisaro
komisaru
komisija
komisijai
komisijoje
komisijos
komisiju
komiteta
komitetai
komitetas
komitete
komiteto
komitetu
komitetui
komjaunimo
komorai
kompaktine
kompaktis
kompanija
kompanijai
kompanijoje
kompanijos
kompaniju
kompetencija
kompetencijos
kompiuteri
kompiuteriai
kompiuteriams
kompiuterine
kompiuterinis
kompiuteriniu
kompiuterio
kompiuteris
kompiuteriu
kompiuterizavo
kompiuterizuoja
kompiuterizuoti
kompiuteryje
kompleksa
kompleksas
komplekso
kompleksu
komponentai
komponentu
kompozicija
kompozicijos
kompoziciju
kompozitore
kompozitoriai
kompozitoriaus
kompozitoriu
kompozitorius
koms
komuna
komunikacijos
komunistai
komunistine
komunistu
komunizmas
komunizmo
komunos
konc
koncentracija
koncentracijos
koncepcija
koncepcijos
koncernas
koncerno
koncerta
koncertai
koncertas
koncertavo
koncerte
koncertine
koncertini
koncertinis
koncerto
koncertu
koncertuose
koncertus
kone
konfederacija
konfederacijos
konfederaciju
konferencija
konferencijoje
konferencijos
konferencijose
konferenciju
konfigu
konflikta
konfliktai
konfliktas
konflikto
konfliktu
konfliktus
kong
kongas
kongo
kongresas
kongrese
kongreso
koniu
konkrec
konkurencija
konkurencijos
konkursa
konkursas
konkurse
konkurso
konkursu
konkursuose
konkuruoti
konradas
konservatorija
konservatorijoje
konservatorijos
konservatoriu
konsole
konsolei
konstancija
konstanta
konstantinas
konstantino
konstantinopoli
konstantinopolio
konstitucija
konstitucijoje
konstitucijos
konstitucine
konstitucinio
konstitucinis
konstravimo
konstrukcija
konstrukcijos
konstrukciju
konstruktoriu
konstruktorius
konsulai
konsulas
konsulatas
konsultantas
konsulu
kont
kontaktai
kontaktu
kontekste
kontora
kontoros
kontrakta
kontrole
kontroliavo
kontroliuoja
kontroliuojama
kontroliuojamas
kontroliuoti
kontroversis
kontu
konu
konvencija
konvencijos
koordinac
koordinate
koordinuoja
kop
kopa
kope
kopenhagoje
kopenhagos
kopia
kopija
kopijos
kopiju
koplyc
koplyte
koplytstulpis
kopos
kopti
koptu
kopu
kor
koralu
korc
kordobos
kore
korea
korespondenciniu
korespondentas
kornu
korporacija
korporacijos
korpusa
korpusas
korpuso
kors
korta
kortele
kortos
kortu
korupcija
korupcijos
kos
koscius
kose
kosios
kosmine
kosminis
kosminiu
kosmosa
kosmoso
kosovas
kosove
kosovo
kosta
kostas
kostiumu
kot
kota
kotas
koti
kotija
kotijoje
kotijos
koto
kotryna
kotrynos
kotu
kotvarkos
kova
kovai
kovalenkoviene
kovas
kove
kovine
koviniu
kovo
kovoja
kovojant
kovoje
kovojo
kovos
kovose
kovoti
kovotojai
kovotojas
kovotoju
kovu
kowo
koz
kp
kpi
kr
kra
krajo
krakiu
krako
kranta
krantai
krantas
krante
krantine
kranto
krantu
krantuose
krantus
kras
krasnojarsko
krasnoznamensko
krateris
krauja
kraujagysle
kraujagysliu
kraujas
kraujavo
kraujelis
kraujo
krauju
kraujuoja
kraujuoti
kraujyje
krauna
kraz
kre
krec
kredito
kregz
kreidos
kreipe
kreipia
kreipiasi
kreipti
kreiptis
kreive
krekenavos
krelle
kremacija
kremzle
krenta
kreolu
kreps
krepsinis
kres
kretinga
kretingoje
kretingos
kretos
kriauc
kriaukle
kriaus
kriks
kriminaline
krinta
kriokliu
krioklys
kris
kristalu
kristaus
kristi
kristijonas
kristina
kristu
kristupas
kristupo
kristus
kriteriju
kriterijus
kritika
kritikai
kritikas
kritikavo
kritikos
kritiku
kritimo
kritine
kritis
krito
krituliu
kriu
krize
kro
kroatija
kroatijoje
kroatijos
kroatu
krokuva
krokuvoje
krokuvos
kronika
kronikoje
kronikos
kroso
kroviniu
kru
krug
kruonio
kruops
krus
kruso
krykle
kryme
krymo
krypc
krypti
krypties
kryptimi
kryptimis
kryptis
kryptys
kryz
ks
ksi
ksie
kso
kst
ksta
kstanc
kstanti
kstantis
kstantmec
kstantmetis
kstantmetyje
kt
kti
ktu
ktuva
ktuvai
ktuvais
ktuvas
ktuvnes
ktuvo
ktuvu
ktuvus
ku
kuba
kubiliu
kubilius
kuboje
kubos
kuc
kudirka
kudirkos
kui
kuic
kukas
kuko
kuktis
kukuru
kulikauskas
kulka
kulkos
kulkosvaidis
kulkosvaidz
kulmo
kulta
kultas
kulto
kultu
kultura
kuma
kumas
kumele
kumo
kums
kumu
kun
kuniga
kunigai
kunigaiks
kunigamiu
kunigas
kunigavo
kunigis
kunigo
kunigu
kunigus
kuo
kuoju
kuoks
kuomet
kuopa
kuopos
kuose
kupe
kupis
kupolas
kuprevic
kups
kur
kura
kuras
kurc
kurdamas
kurdu
kure
kuri
kuria
kuriai
kuriais
kuriam
kuriama
kuriamas
kuriame
kuriami
kuriamos
kuriant
kurias
kurie
kuriems
kurio
kurioje
kuriomis
kurioms
kurios
kuriose
kuris
kuriu
kuriuo
kuriuos
kuriuose
kurkliu
kurmis
kuro
kurortas
kurs
kursa
kursai
kursas
kurso
kursu
kursuose
kursus
kurt
kurta
kurtas
kurti
kurtis
kurto
kurtos
kurtuve
kus
kute
kuveitas
kuveito
kuwait
kuz
kv
kvadratine
kvadratiniu
kvailioja
kvailiojo
kvailioti
kvalifikacija
kvalifikacijos
kvantine
kvapa
kvapas
kvapo
kvartalas
kvartale
kvartetas
kvdt
kve
kviec
kviesti
kviete
kviklys
kw
ky
kybartu
kyje
kyla
kylama
kylamas
kylanc
kylant
kylanti
kylantis
kyo
kys
kyte
kyti
kyvos
kz
l
la
labai
labanoro
labas
labdaros
labguvos
labiau
labiausiai
laboratorija
laboratorijoje
laboratorijos
labu
lac
lady
lageriu
lageryje
lago
lagu
lai
laic
laida
laidas
laidojami
laidoje
laidojimo
laidos
laidose
laidoti
laidotuve
laidotuviu
laidu
laika
laikai
laikais
laikanc
laikant
laikanti
laikantis
laikas
laike
laikina
laikinai
laikinas
laikinasis
laikinoji
laikinosios
laikmec
laiko
laikoma
laikomas
laikomasi
laikomi
laikomos
laikosi
laikotarpi
laikotarpiais
laikotarpio
laikotarpis
laikotarpiu
laikotarpiui
laikotarpyje
laikras
laikrodis
laikrodz
laiku
laikui
laikus
laikydavo
laikymo
laikyta
laikytas
laikyti
laikytis
laikytu
laima
laime
laimi
laiminga
laimingas
laimute
laip
laipsni
laipsniai
laipsnio
laipsnis
laipsniu
laipsnius
laiptai
laiptais
laiptu
lais
laisva
laisvai
laisvajame
laisvalaikio
laisvas
laisvasis
laisve
laisvi
laisvinimo
laisvinti
laisvo
laisvoji
laisvojo
laisvojoje
laisvos
laisvosios
laisvosiose
laisvu
laitai
laitas
laite
laitis
laito
laitu
laituose
laiva
laivai
laivais
laivams
laivas
laive
laiviu
laivo
laivu
laivuojama
laivuose
laivus
laivyba
laivybos
laivyna
laivynas
laivyne
laivyno
laiz
laja
lajos
lake
laks
laku
lama
lambda
lambert
lan
lanc
lancetis
land
lande
landkreis
lando
lands
landsbergis
landyti
lang
langa
langai
langas
lange
lango
langu
language
languages
langus
lanka
lankas
lanke
lanko
lankoje
lankos
lanku
lankyti
lankytinos
lankytis
lankytojai
lankytojams
lankytoju
lao
laos
laosas
laoso
lapai
lapais
lapas
lape
lapeliai
lapeliu
lapi
lapiai
lapimo
lapio
lapis
lapiu
lapiuose
lapius
lapkric
lapkriti
lapkritis
lapo
lapu
lapuoc
lapus
lapyje
lara
larix
larry
las
last
lat
late
latgaliu
latin
latv
latvia
latviai
latvies
latvija
latvijas
latvijoje
latvijos
latvis
latviu
lau
lauka
laukai
laukais
laukas
lauke
laukia
laukine
laukiniu
lauko
laukti
lauku
laukuose
laukus
laukuvos
laukz
laume
laura
laureatai
laureatas
laureate
laureatu
laurinavic
laurus
laurynas
lauryno
lauz
lava
lavinimo
lavoris
lavos
law
lawrence
laz
lazda
lazdele
lazdiju
lazdynu
lb
ldk
le
league
learning
led
ledas
ledo
ledu
ledynai
ledynas
ledynmec
ledyno
ledynu
lee
left
legalact
legend
legenda
legendine
legendinis
legendos
legendu
legiono
lei
leid
leide
leidima
leidimai
leidimas
leidimo
leidimu
leidini
leidiniai
leidinio
leidiniu
leidiniuose
leidinius
leidinyje
leidinys
leido
leidus
leidusi
leidyba
leidybos
leidykla
leidyklos
leidz
leipalingio
leipcigas
leipcigo
leipzig
leis
leisdavo
leista
leistame
leistas
leisti
leisto
leistos
leistu
leitenantas
leitenanto
lektorius
lelijos
leliu
lemia
lemiama
lempute
lengva
lengvaatlete
lengvaatletis
lengvai
lengvas
lengvasis
lengviau
lengvoji
lengvosios
lengvu
leningrade
leningrado
lenino
lenk
lenkai
lenkais
lenke
lenkia
lenkija
lenkijai
lenkijoje
lenkijos
lenkis
lenkta
lenktas
lenkti
lenktyne
lenktynes
lenktynininkai
lenktynininkas
lenktynininku
lenktyniu
lenku
lenos
lenta
lentele
lenteliu
lentos
lentpju
lentu
lentvario
lenzo
leo
leon
leona
leonard
leonardas
leonardo
leonas
leone
leonidas
leono
leopardas
leopold
leopoldas
leq
lervos
les
lesne
lesni
lesniais
lesniu
lesniuose
lesotas
lesoto
lestwa
let
letonia
letters
levas
lewis
lexikon
lez
lf
lff
lgica
li
lia
liai
liais
liams
liau
liaudies
liaudininku
liaudis
liauka
liaukos
liauku
liauz
liava
liavininkas
liavoje
liavos
libanas
libano
liberalu
liberia
liberija
liberijos
liberty
libia
libija
libijos
library
lic
lice
licencija
licencijos
lichtens
lie
liec
liechtenstein
lieka
liekanos
liekanu
liemens
liep
liepa
liepe
liepoja
liepojoje
liepojos
liepos
liepsna
liepu
liet
lietaus
lietu
lietus
lietuva
lietuvai
lietuve
lietuviai
lietuviais
lietuviams
lietuvininku
lietuvis
lietuviu
lietuvius
lietuvoje
lietuvos
lietuvosfutbolas
lietuvybe
liez
life
lig
liga
ligai
ligas
light
ligi
ligomis
ligonine
ligonis
ligoniu
ligos
ligu
ligue
like
likima
likimas
likimo
liko
liks
likti
liktu
likuc
likus
likusi
likusia
likusias
likusieji
likusios
likusiu
likusius
likvidavo
likviduoja
likviduoti
lim
lima
limas
limfoma
limited
limo
lin
lina
linas
lincoln
linda
line
linge
lingua
linguistics
linija
linijas
linijoje
linijomis
linijos
liniju
linis
liniu
link
linke
linkevic
linkmenu
linksma
linksmina
linksmino
linksminti
linksniu
linkuvos
linnaeus
lino
linu
linux
lio
lipo
lipti
lis
lisa
lisabonos
lisboa
list
lit
litauen
literatas
literatu
literature
litewskiego
lithuania
lithuanian
litru
littera
little
litu
lituania
lituanica
lituanistikos
liu
liublino
liudas
liudija
liudvika
liudvikas
liudviko
liudvinavo
liui
liuke
liuksemburgas
liuksemburge
liuksemburgiec
liuksemburgo
liuo
liuose
lius
liuteronai
liuteronu
live
liverpool
liverpulio
living
livonijos
liz
liza
lizda
lizdas
lizdo
lizdus
lk
lkd
lkerung
lki
lkl
lkp
lks
ll
lla
ller
lloyd
lm
lma
lmta
ln
lndt
lnk
lo
lobis
local
lodze
log
logika
logikos
logine
logis
logistikos
logoiskis
logotipas
loja
lojo
lokiai
lokio
lokiu
lokomotiv
lokys
loma
lomz
london
londona
londonas
londone
londono
long
look
lope
lopo
lops
lopyti
lord
lorenzo
loreta
los
losice
lost
lot
loti
lotus
lotynis
lotynu
louis
lova
love
lovos
low
loz
lp
lr
lrs
lrt
lrv
lrytas
ls
lsdp
lssr
lt
ltd
ltn
lto
ltsr
ltu
ltv
lu
luaros
lubos
lubu
luc
lucas
luci
lucius
ludnos
ludwig
lugimo
lugo
lugus
lui
luigi
luis
luisas
luiza
luka
lukas
lukis
luko
lukos
luks
luna
luo
luoke
lupe
lus
lusi
lusiu
lutute
luvos
luvras
luxembourg
luxemburgo
luz
lv
lvove
lvovo
ly
lyc
lyde
lydere
lyderiai
lyderio
lyderis
lyderiu
lydi
lydiniai
lydos
lydz
lyg
lyga
lygas
lygi
lygia
lygiagrec
lygiai
lygina
lyginai
lyginama
lyginamosios
lyginant
lygine
lygino
lyginti
lygio
lygios
lygiosiomis
lygiosios
lygis
lygiu
lygmens
lygmenyje
lygoja
lygoje
lygomis
lygoms
lygos
lygose
lygti
lygties
lygtis
lygu
lyguma
lygumoje
lygumos
lygumose
lygumu
lygus
lygybe
lygyje
lyje
lyma
lymas
lymo
lymu
lymus
lyna
lynai
lyname
lynas
lyne
lyno
lynos
lynu
lynuose
lynx
lys
lyta
lytas
lyti
lyties
lytine
lytiniai
lytinio
lytinis
lytiniu
lytis
lyva
lyvis
lyviu
lyvojo
lyvosios
lz
m
ma
mac
macao
maccabi
macedonia
machine
mackevic
macmillan
mada
madagascar
madagaskaras
madagaskaro
made
madona
mados
madre
madrid
madridas
madride
madrido
madz
mafijos
magazine
magazyn
magdalena
magdeburgo
magic
magija
magijos
magine
magis
magistrale
magistrantu
magistras
magistro
magnatu
magnetinio
magnio
magnoliju
magnus
mahometo
mai
maiklas
main
mainai
mainais
maino
mainu
maironio
mais
maista
maistas
maisto
maistu
maistui
maitina
maitinasi
maitinimo
maja
major
majoras
majoro
maju
mak
makao
make
makedoniec
makedonija
makedonijoje
makedonijos
makedonu
making
maks
maksas
maksimas
mal
malaizija
malaizijoje
malaizijos
malajaliu
malaju
malakos
malasia
malaui
malavio
malavis
malczyce
malda
maldauja
maldauti
maldavo
maldivas
maldos
maldyvai
male
mali
malinauskas
malio
malis
malone
malonu
mals
malta
maltiec
maltoje
maltos
malu
mam
mama
mamate
mamontovas
mamos
mams
man
mana
management
manau
manc
manchester
mandarinu
mandato
mandz
mane
manga
mangano
mano
manoma
manomas
mantas
manuel
many
manymu
manyta
manyti
mao
maoriu
map
maps
mar
mara
maras
marathu
maratono
marc
march
marcinkevic
marcinkoniu
marco
marcus
mare
marfil
margaret
margarita
mari
maria
mariana
marianas
marie
marija
marijai
marijampole
marijonas
marijonu
marijos
marijus
marilyn
marina
marinas
marine
mariner
marino
mario
marios
mariu
marius
mark
marka
markas
marke
market
markevic
marko
marmuro
maro
marokas
maroke
maroko
marruecos
mars
marsas
marshall
marso
marta
marti
martin
martinaitis
martinas
martinica
martino
martynas
martyno
marvel
marvele
mary
maryte
mas
masac
masaitis
masalskis
mase
mashke
masine
masinio
masis
masiu
masiulis
maskva
maskvoje
maskvos
mass
massa
master
masters
masto
mastu
masyvas
masyvo
masyvu
masyvus
mat
mata
matai
matas
matau
matavimai
matavimo
match
matches
mate
matematika
matematikas
matematikos
matematine
materialien
materialine
mathbf
mathrm
mathsf
matmenu
matmenys
mato
matoma
matomas
matome
matomi
matomos
matosi
matrica
matt
matthew
matu
matulaitis
matulevic
matulionis
matuojamas
matuoti
matyt
matyti
maud
maumedz
maurice
mauricijus
mauricio
mauritania
mauritanija
mauritanijos
mauzoliejus
max
may
mayen
mayotte
maz
mazgas
mazgu
mazovijos
mb
mbox
mc
mcdonald
mclaren
md
me
mec
mecenatas
mechanika
mechanikas
mechanikos
mechanine
mechanizmas
med
medali
medaliai
medaliais
medalio
medalis
medaliu
medalius
medaus
mede
medi
media
medic
medical
medicina
medicine
medicinine
medicinoje
medicinos
mediena
medienos
medieval
mediju
medine
mediniai
medininku
medinis
mediniu
medis
medu
medus
medvilne
medynai
medynu
medz
megzti
mei
meidz
meile
meiluz
meistrai
meistras
meistris
meistro
meistru
meiz
meksika
meksikiec
meksikoje
meksikos
melas
melburno
melc
meldz
mele
meli
melioracijos
melo
melodija
melodijos
mels
melstis
melsvai
melz
membrana
membranos
memorialas
memorialine
memorialinis
memory
men
mena
menas
mene
menimis
menine
menininkai
menininkas
menininko
menininku
meninio
meninis
menis
meniu
menk
menka
menkai
menkas
menkina
menkino
menkinti
menksiec
meno
menos
mens
menu
menui
menys
mer
meras
mercedes
mercury
mere
mergaic
mergaite
mergautine
mergele
mergeliu
mergina
merginos
merginu
merkevic
merkine
merkio
merkurijus
merkys
mero
meru
mes
mesi
mesio
mesje
mesopotamijoje
mesopotamijos
mestas
mesti
mesys
met
meta
metacritic
metai
metais
metal
metalai
metalas
metaline
metalinis
metaliniu
metallica
metalo
metalu
metalurgijos
metamorfoze
metams
metas
mete
meteorologija
meti
metimo
metine
metines
metinis
metiniu
metis
meto
metoda
metodai
metodais
metodas
metodika
metodine
metodo
metodu
metodus
metrai
metras
metriku
metro
metropolitan
metropoliteno
metru
metu
metuose
metus
mexico
mez
mezas
mezge
mfk
mg
mgb
mi
mia
miai
mianmaras
mianmare
mianmaro
miau
mic
michael
michailas
michailo
michał
michel
michelle
mickevic
micku
micronesia
microsoft
middle
midway
mie
miega
miegama
miegamas
mieganc
mieganti
miegantis
miego
miegodave
miegodavo
miegodavusi
miegoje
miegojo
miegojusi
miegos
miegosianc
miegosianti
miegosiantis
miegosima
miegosimas
miegota
miegotas
miegoti
miegotina
miegotinas
miejscowos
miems
miesta
miestai
miestais
miestas
mieste
miesteli
miesteliai
miestelio
miestelis
miesteliu
miestelyje
miestiec
miesto
miestu
miestui
miestuose
miestus
miez
mig
migdave
migdavo
migdavusi
mige
migo
migracija
migracijos
migrantu
migravo
migs
migsianc
migsianti
migsiantis
migsima
migsimas
migta
migtas
migti
migtina
migtinas
miguel
migusi
mii
mijaku
mikalauskas
mikalojaus
mikalojus
mikas
mike
mikelandz
mikronezijos
miks
mil
milan
milanas
milane
milano
milas
milda
mile
milicijos
milijardu
milijona
milijonai
milijonas
milijono
milijonu
milijonus
military
miliu
miller
million
milos
miltai
miltu
milz
mima
mimai
mimas
mimo
mimu
min
mina
minas
minc
mind
mindaugas
mindaugo
mine
mineralas
mineraline
mineraliniu
mineralu
minga
mingama
mingamas
minganc
minganti
mingantis
mingas
mingiausiu
mingu
mini
minia
miniatiu
minija
minijos
minima
minimas
minimi
minimos
minint
minis
ministerija
ministerijai
ministerijoje
ministerijos
ministra
ministrai
ministras
ministre
ministro
ministru
ministrui
ministry
minks
mino
minor
minos
minskas
minske
minsko
minta
minti
minties
mintis
mintys
minu
minuc
minute
minutes
mio
miranda
mirc
mire
mirkc
mirror
mirs
mirti
mirties
mirtimi
mirtinai
mirtingumas
mirtis
mirus
mirusi
mirusieji
mirusio
mirusiojo
mirusiu
mis
misija
misijas
misijos
misiju
misionieriai
misionieriu
misionierius
misisipe
misiu
misius
miss
mission
misu
mit
mitai
mitas
mitchell
mito
mitologija
mitologijoje
mitologijos
mitologine
mitologinis
mitsubishi
mitu
mityba
mitybos
miu
miunchene
miuncheno
mix
mjanmu
mk
ml
mln
mlrd
mm
mmel
mn
mo
mobile
mobilizuotas
moc
mocartas
mockus
mode
model
modeli
modeliai
modelio
modelis
modeliu
modelius
modern
modernaus
moderni
moderniosios
moderniu
modernizmo
modifikacija
mogaus
mogis
mogu
mogui
mogumi
mogus
mogz
mojo
moka
mokama
mokamas
mokanc
mokanti
mokantis
moke
mokesc
mokesti
mokestis
mokiniai
mokiniams
mokiniu
mokinys
moko
mokoma
mokomoji
mokosi
moks
moksla
mokslai
mokslas
moksle
moksleiviai
moksleiviu
moksline
mokslini
moksliniai
mokslininkai
mokslininkas
mokslininko
mokslininku
mokslinio
mokslinis
moksliniu
mokslinius
mokslo
mokslu
mokslui
mokslus
mokti
mokydamasis
mokykla
mokyklai
mokyklas
mokyklinio
mokykloje
mokykloms
mokyklos
mokyklose
mokyklu
mokyma
mokymas
mokymo
mokymosi
mokymu
mokyti
mokytis
mokytoja
mokytojai
mokytojas
mokytojavo
mokytojo
mokytojos
mokytoju
moldavia
moldavija
moldavijos
moldova
moldovos
mole
molekule
molekuline
molekuliu
molio
molis
moliu
molotovo
momentas
momento
momentu
moms
mon
mona
monaco
monai
monakas
monako
monarchija
monarchijos
mone
monei
mones
moneta
monetas
monetos
monetu
money
mongolai
mongolia
mongolija
mongolijoje
mongolijos
mongolu
monija
monijos
monika
moningai
moniu
monku
monografija
monos
montaz
monte
montenegro
month
montserrat
monu
moon
moore
morale
moraline
moravijos
more
morgan
morku
morning
morris
morta
mos
moscow
mose
most
mot
moteri
moteriai
moterimi
moterims
moteris
moters
moteru
moterys
mother
motiejaus
motieju
motiejus
motina
motinai
motinos
motociklu
motor
motors
motyvai
motyvais
motyvas
motyvu
mount
move
movie
movies
moz
mozaika
mozambikas
mozambiko
mozambique
moze
mozu
mp
mr
mru
ms
mstislavlio
mstl
mt
mtv
mu
muchafaza
muge
muhammad
mui
muilo
muitine
multitree
mums
muo
muose
murphy
murray
mus
muse
museum
musi
music
musinuke
musios
musiu
musulmonai
musulmonis
musulmonu
muziejai
muziejaus
muziejininkas
muzieju
muziejui
muziejuje
muziejumi
muziejus
muzika
muzikai
muzikantai
muzikantas
muzikantu
muzikine
muzikini
muzikiniai
muzikiniame
muzikinio
muzikinis
muzikiniu
muzikoje
muzikologas
muzikos
muziku
mw
my
mykolaitis
mykolas
mykolo
myle
myli
mylima
myliu
mynai
mynais
myro
mys
myspace
mythology
n
na
nach
naciai
nacional
nacionaline
nacionalinei
nacionalini
nacionaliniai
nacionaliniame
nacionalinio
nacionalinis
nacionaliniu
nacionalistu
nacistine
naciu
naco
nad
nadruvos
nafta
naftos
nag
nagai
nagrine
nagu
nagurskiai
naha
nai
naikina
naikinimo
naikino
naikinti
naikintuvas
naikintuvu
nais
naite
naitija
naitijos
nak
nakti
nakties
naktimis
naktis
nakvodave
nakvodavo
nakvodavusi
nakvoja
nakvojama
nakvojamas
nakvojanc
nakvojanti
nakvojantis
nakvoje
nakvojo
nakvojusi
nakvos
nakvosianc
nakvosianti
nakvosiantis
nakvosima
nakvosimas
nakvota
nakvotas
nakvoti
nakvotina
nakvotinas
nakvyne
nam
nama
namai
namais
namas
name
names
namibia
namibija
namibijos
namie
namine
naminiai
naminiu
namo
nams
namu
namuose
namus
nan
nana
nancy
nant
napoleonas
napoleono
narbutas
nare
narevo
nari
nariai
nariais
nariams
nario
nariu
narius
narkotiku
nars
narus
narys
naryste
nas
nasa
nat
natalija
natas
nation
national
nations
nato
natrio
natu
natural
nature
nau
naud
nauda
naudai
naudinga
naudingas
naudingiausias
naudingu
naudodami
naudodavo
naudoja
naudojama
naudojamas
naudojami
naudojamos
naudojamu
naudojanc
naudojant
naudojantis
naudojasi
naudojima
naudojimas
naudojimo
naudojimui
naudojo
naudojosi
naudos
naudota
naudotas
naudoti
naudotis
naudotoju
naudotos
naudotu
naugardo
naugarduko
nauja
naujai
naujais
naujajame
naujalio
naujam
naujamiesc
naujas
naujasis
naujausia
nauji
naujieji
naujiems
naujiena
naujienos
naujienu
naujo
naujoje
naujoji
naujojo
naujojoje
naujokas
naujoku
naujomis
naujos
naujosios
naujove
nauju
naujuoju
naujus
naumiesc
nauru
naus
nause
nava
navahu
navickas
navidad
navos
navu
nb
nba
nbc
ncbi
nchen
ncipe
nd
nde
nderungen
ndico
ndige
ne
neabejoja
neabejojo
neabejoti
neabejotinai
neais
neakivaizdiniu
neantge
neantgeria
neantgerti
neantmoka
neantmoke
neantras
neantsidirba
neantsidirbo
neantsidirbti
neantsige
neantsigeria
neantsigerti
neantsiskaite
neantsiskaito
neantsiskaityti
neapdirba
neapdirbo
neapdirbti
neapdri
neapgalvoja
neapgalvojo
neapgalvoti
neapge
neapgeria
neapgerti
neapgirde
neapgirdi
neapibre
neapma
neapmigo
neapmigti
neapminga
neapmoka
neapmoke
neapnakvoja
neapnakvojo
neapnakvoti
neapnervina
neapnervino
neapnervinti
neapolio
neapolyje
neapragina
neapragino
neapraginti
neapras
neapsapnavo
neapsapnuoja
neapsapnuoti
neapsidirba
neapsidirbo
neapsidirbti
neapsigalvoja
neapsigalvojo
neapsigalvoti
neapsige
neapsigeria
neapsigerti
neapsigirde
neapsigirdi
neapsima
neapsimiega
neapsimiegojo
neapsimiegoti
neapsimoka
neapsimoke
neapsinakvoja
neapsinakvojo
neapsinakvoti
neapsinervina
neapsinervino
neapsinervinti
neapsiras
neapsisapnavo
neapsisapnuoja
neapsisapnuoti
neapsiskaite
neapsiskaito
neapsiskaityti
neapsiskolina
neapsiskolino
neapsiskolinti
neapsivagia
neapsivais
neapsivoge
neapsivogti
neapsivoke
neapsivokia
neapsivokti
neapskaite
neapskaito
neapskaityti
neapskolina
neapskolino
neapskolinti
neaptikrina
neaptikrino
neaptikrinti
neapvagia
neapvais
neapvoge
neapvogti
neapvoke
neapvokia
neapvokti
neapykanta
near
neatgamina
neatgamino
neatgaminti
neatge
neatgeria
neatgerti
neatgirde
neatgirdi
neatidirba
neatidirbo
neatidirbti
neatitikina
neatitikino
neatitikinti
neatitikrina
neatitikrino
neatitikrinti
neatitinka
neatkilo
neatkilti
neatkyla
neatma
neatmiega
neatmiegojo
neatmiegoti
neatmoka
neatmoke
neatpaz
neatras
neatsapnavo
neatsapnuoja
neatsapnuoti
neatsidirba
neatsidirbo
neatsidirbti
neatsigalvoja
neatsigalvojo
neatsigalvoti
neatsigamina
neatsigamino
neatsigaminti
neatsige
neatsigeria
neatsigerti
neatsiginc
neatsigirde
neatsigirdi
neatsima
neatsimiega
neatsimiegojo
neatsimiegoti
neatsimoka
neatsimoke
neatsipras
neatsiras
neatsisapnavo
neatsisapnuoja
neatsisapnuoti
neatsiskaite
neatsiskaito
neatsiskaityti
neatsiskolina
neatsiskolino
neatsiskolinti
neatsitikina
neatsitikino
neatsitikinti
neatsitikrina
neatsitikrino
neatsitikrinti
neatsivagia
neatsivais
neatsivoge
neatsivogti
neatsivoke
neatsivokia
neatsivokti
neatskaite
neatskaito
neatskaityti
neatskolina
neatskolino
neatskolinti
neatvagia
neatvais
neatvoge
neatvogti
neatvoke
neatvokia
neatvokti
neauks
nebaige
nebaigtos
nebe
nebeantge
nebeantgeria
nebeantgerti
nebeantsige
nebeantsigeria
nebeantsigerti
nebeapge
nebeapgeria
nebeapgerti
nebeapsige
nebeapsigeria
nebeapsigerti
nebeatge
nebeatgeria
nebeatgerti
nebeatsige
nebeatsigeria
nebeatsigerti
nebebuvo
nebegale
nebegali
nebege
nebegeria
nebegerti
nebei
nebeis
nebeliko
nebenaudojama
nebendradarbiauja
nebendradarbiauti
nebendradarbiavo
nebent
nebenuge
nebenugeria
nebenugerti
nebenusige
nebenusigeria
nebenusigerti
nebepage
nebepageria
nebepagerti
nebeparge
nebepargeria
nebepargerti
nebepasige
nebepasigeria
nebepasigerti
nebeperge
nebepergeria
nebepergerti
nebepersige
nebepersigeria
nebepersigerti
nebeprage
nebeprageria
nebepragerti
nebeprasige
nebeprasigeria
nebeprasigerti
nebeprige
nebeprigeria
nebeprigerti
nebeprisige
nebeprisigeria
nebeprisigerti
nebeprisikis
nebeprisikopu
nebesuge
nebesugeria
nebesugerti
nebesusige
nebesusigeria
nebesusigerti
nebeuz
neblefavo
neblefuoja
neblefuoti
nebu
nebus
nebuvimas
nebuvo
nec
nedalyvavo
nedamoke
nedaras
nedarbo
nedasiras
nedatuota
nedaug
nedaugelio
nede
nedidele
nedideli
nedideliais
nedideliame
nedidelio
nedidelis
nedideliu
nedidelius
nedirba
nedirbo
nedirbti
nedri
need
neerlande
neg
negale
negali
negalima
negaliu
negalvoja
negalvojo
negalvoti
negamina
negamino
negaminti
negavo
nege
negeria
negerti
neginc
negirde
negirdi
negri
negro
negu
negyvenama
nei
neig
neige
neigiama
neigiamai
neigiamas
neigiamu
neil
neilgai
neis
nejaudina
nejaudino
nejaudinti
nek
neka
neke
nekeliamieji
nekilnojamojo
nekilo
nekilti
nekontroliavo
nekontroliuoja
nekontroliuoti
nekros
nekyla
nelabai
nelaime
nelaimiu
nelaisve
nelegaliai
neleido
neleidz
neliec
neliko
nelly
nelson
nelygybe
nema
nemaks
nemaz
neme
nemenc
nemiega
nemiegojo
nemiegoti
nemigo
nemigti
neminga
nemoka
nemokama
nemokamai
nemokamas
nemoke
nemuna
nemunas
nemune
nemuno
nen
nenakvoja
nenakvojo
nenakvoti
nenervina
nenervino
nenervinti
nenore
nenori
nenudirba
nenudirbo
nenudirbti
nenugalvoja
nenugalvojo
nenugalvoti
nenugamina
nenugamino
nenugaminti
nenuge
nenugeria
nenugerti
nenuginc
nenugirde
nenugirdi
nenukilo
nenukilti
nenukyla
nenumiega
nenumiegojo
nenumiegoti
nenumigo
nenumigti
nenuminga
nenumoka
nenumoke
nenuragina
nenuragino
nenuraginti
nenusapnavo
nenusapnuoja
nenusapnuoti
nenusidirba
nenusidirbo
nenusidirbti
nenusigalvoja
nenusigalvojo
nenusigalvoti
nenusigamina
nenusigamino
nenusigaminti
nenusige
nenusigeria
nenusigerti
nenusiginc
nenusimiega
nenusimiegojo
nenusimiegoti
nenusiras
nenusisapnavo
nenusisapnuoja
nenusisapnuoti
nenusiskaite
nenusiskaito
nenusiskaityti
nenusiskolina
nenusiskolino
nenusiskolinti
nenusitikrina
nenusitikrino
nenusitikrinti
nenusivagia
nenusivais
nenusivoge
nenusivogti
nenusivoke
nenusivokia
nenusivokti
nenuskaite
nenuskaito
nenuskaityti
nenutekantis
nenutikrina
nenutikrino
nenutikrinti
nenutru
nenuvagia
nenuvais
nenuvoge
nenuvogti
nenuvoke
nenuvokia
nenuvokti
neo
neoficialiai
neogotikine
neolitas
neolito
nepabendradarbiauja
nepabendradarbiauti
nepabendradarbiavo
nepadirba
nepadirbo
nepadirbti
nepadri
nepagalvoja
nepagalvojo
nepagalvoti
nepagamina
nepagamino
nepagaminti
nepage
nepageria
nepagerti
nepagirde
nepagirdi
nepagri
nepais
nepaisant
nepajaudina
nepajaudino
nepajaudinti
nepaje
nepakankamai
nepakilo
nepakilti
nepakontroliavo
nepakontroliuoja
nepakontroliuoti
nepakyla
nepal
nepalas
nepale
nepalo
nepama
nepamiega
nepamiegojo
nepamiegoti
nepamigo
nepamigti
nepaminga
nepamirs
nepamoka
nepamoke
nepanakvoja
nepanakvojo
nepanakvoti
nepanervina
nepanervino
nepanervinti
nepapasiras
nepapauz
nepapavagia
nepapavoge
nepapavogti
nepaprastai
nepaprastasis
nepapries
nepaprisiras
neparagina
neparagino
neparaginti
neparas
nepardirba
nepardirbo
nepardirbti
neparge
nepargeria
nepargerti
neparkilo
neparkilti
neparkyla
neparras
neparsidirba
neparsidirbo
neparsidirbti
neparsivoke
neparsivokia
neparsivokti
neparvoke
neparvokia
neparvokti
nepasapnavo
nepasapnuoja
nepasapnuoti
nepasidirba
nepasidirbo
nepasidirbti
nepasidri
nepasieke
nepasigalvoja
nepasigalvojo
nepasigalvoti
nepasigamina
nepasigamino
nepasigaminti
nepasige
nepasigeria
nepasigerti
nepasiginc
nepasigirde
nepasigirdi
nepasijaudina
nepasijaudino
nepasijaudinti
nepasikontroliavo
nepasikontroliuoja
nepasikontroliuoti
nepasima
nepasimiega
nepasimiegojo
nepasimiegoti
nepasimoka
nepasimoke
nepasinervina
nepasinervino
nepasinervinti
nepasiragina
nepasiragino
nepasiraginti
nepasiras
nepasisapnavo
nepasisapnuoja
nepasisapnuoti
nepasiskaite
nepasiskaito
nepasiskaityti
nepasiskolina
nepasiskolino
nepasiskolinti
nepasitenkinima
nepasitike
nepasitikina
nepasitikino
nepasitikinti
nepasitikrina
nepasitikrino
nepasitikrinti
nepasivagia
nepasivais
nepasivoge
nepasivogti
nepasivoke
nepasivokia
nepasivokti
nepaskaite
nepaskaito
nepaskaityti
nepaskolina
nepaskolino
nepaskolinti
nepastebe
nepasusiras
nepasusiskaite
nepasusiskaito
nepasusiskaityti
nepasuskaite
nepasuskaito
nepasuskaityti
nepateko
nepatikina
nepatikino
nepatikinti
nepatiko
nepatikrina
nepatikrino
nepatikrinti
nepauz
nepavagia
nepavais
nepavoge
nepavogti
nepavoke
nepavokia
nepavokti
nepavyko
nepaz
neperdirba
neperdirbo
neperdirbti
neperdri
nepergalvoja
nepergalvojo
nepergalvoti
neperge
nepergeria
nepergerti
neperginc
nepergirde
nepergirdi
neperkilo
neperkilti
neperkyla
neperma
nepermiega
nepermiegojo
nepermiegoti
nepermoka
nepermoke
nepernakvoja
nepernakvojo
nepernakvoti
neperras
nepersapnavo
nepersapnuoja
nepersapnuoti
nepersidirba
nepersidirbo
nepersidirbti
nepersigalvoja
nepersigalvojo
nepersigalvoti
nepersige
nepersigeria
nepersigerti
nepersima
nepersimiega
nepersimiegojo
nepersimiegoti
nepersiras
nepersisapnavo
nepersisapnuoja
nepersisapnuoti
nepersiskaite
nepersiskaito
nepersiskaityti
nepersitikina
nepersitikino
nepersitikinti
nepersitikrina
nepersitikrino
nepersitikrinti
nepersivagia
nepersivais
nepersivoge
nepersivogti
nepersivoke
nepersivokia
nepersivokti
neperskaite
neperskaito
neperskaityti
nepertikina
nepertikino
nepertikinti
nepertikrina
nepertikrino
nepertikrinti
nepervagia
nepervais
nepervoge
nepervogti
nepervoke
nepervokia
nepervokti
nepilna
nepilnamec
nepilnas
neporiniai
nepradirba
nepradirbo
nepradirbti
nepradri
nepragalvoja
nepragalvojo
nepragalvoti
neprage
neprageria
nepragerti
nepragirde
nepragirdi
neprakilo
neprakilti
neprakyla
nepramiega
nepramiegojo
nepramiegoti
nepramigo
nepramigti
nepraminga
nepranakvoja
nepranakvojo
nepranakvoti
nepranervina
nepranervino
nepranervinti
neprasapnavo
neprasapnuoja
neprasapnuoti
neprasidirba
neprasidirbo
neprasidirbti
neprasidri
neprasigalvoja
neprasigalvojo
neprasigalvoti
neprasigamina
neprasigamino
neprasigaminti
neprasige
neprasigeria
neprasigerti
neprasimiega
neprasimiegojo
neprasimiegoti
neprasinervina
neprasinervino
neprasinervinti
neprasisapnavo
neprasisapnuoja
neprasisapnuoti
neprasiskaite
neprasiskaito
neprasiskaityti
neprasiskolina
neprasiskolino
neprasiskolinti
neprasivagia
neprasivais
neprasivoge
neprasivogti
neprasivoke
neprasivokia
neprasivokti
nepraskaite
nepraskaito
nepraskaityti
nepraskolina
nepraskolino
nepraskolinti
nepravagia
nepravais
nepravoge
nepravogti
nepravoke
nepravokia
nepravokti
nepridirba
nepridirbo
nepridirbti
nepries
neprigalvoja
neprigalvojo
neprigalvoti
neprigamina
neprigamino
neprigaminti
neprige
neprigeria
neprigerti
neprigirde
neprigirdi
neprikilo
neprikilti
nepriklauso
nepriklausoma
nepriklausomai
nepriklausomas
nepriklausomi
nepriklausomoje
nepriklausomos
nepriklausomu
nepriklausomybe
neprikyla
neprima
neprimiega
neprimiegojo
neprimiegoti
neprimigo
neprimigti
nepriminga
neprimoka
neprimoke
neprinakvoja
neprinakvojo
neprinakvoti
neprinervina
neprinervino
neprinervinti
nepripaz
nepriragina
nepriragino
nepriraginti
nepriras
neprisapnavo
neprisapnuoja
neprisapnuoti
neprisidirba
neprisidirbo
neprisidirbti
neprisigalvoja
neprisigalvojo
neprisigalvoti
neprisigamina
neprisigamino
neprisigaminti
neprisige
neprisigeria
neprisigerti
neprisigirde
neprisigirdi
neprisima
neprisimiega
neprisimiegojo
neprisimiegoti
neprisimoka
neprisimoke
neprisinakvoja
neprisinakvojo
neprisinakvoti
neprisinervina
neprisinervino
neprisinervinti
neprisiragina
neprisiragino
neprisiraginti
neprisiras
neprisisapnavo
neprisisapnuoja
neprisisapnuoti
neprisiskaite
neprisiskaito
neprisiskaityti
neprisiskolina
neprisiskolino
neprisiskolinti
neprisitikina
neprisitikino
neprisitikinti
neprisivagia
neprisivais
neprisivoge
neprisivogti
nepriskaite
nepriskaito
nepriskaityti
nepriskolina
nepriskolino
nepriskolinti
nepritikrina
nepritikrino
nepritikrinti
neprivagia
neprivais
neprivoge
neprivogti
neptu
ner
neragina
neragino
neraginti
neramumai
neras
nereike
nereikia
nereis
neretai
neri
neries
nerija
nerijos
nerijus
neringa
neringos
neris
ners
neru
nervina
nervinama
nervinamas
nervinanc
nervinanti
nervinantis
nervinasi
nervindave
nervindavo
nervindavusi
nervine
nervino
nervinosi
nervins
nervinsianc
nervinsianti
nervinsiantis
nervinsima
nervinsimas
nervinta
nervintas
nervinti
nervintina
nervintinas
nervintis
nervinusi
nervu
nerys
nes
nesa
nesant
nesapnavo
nesapnuoja
nesapnuoti
nese
neseniai
nesgi
nesi
nesiai
nesiais
nesiams
nesidirba
nesidirbo
nesidirbti
nesigalvoja
nesigalvojo
nesigalvoti
nesigamina
nesigamino
nesigaminti
nesige
nesigeria
nesigerti
nesiginc
nesijaudina
nesijaudino
nesijaudinti
nesinervina
nesinervino
nesinervinti
nesinis
nesio
nesiragina
nesiragino
nesiraginti
nesisapnavo
nesisapnuoja
nesisapnuoti
nesiskolina
nesiskolino
nesiskolinti
nesitikrina
nesitikrino
nesitikrinti
nesiu
nesius
neskaic
neskaitant
neskaite
neskaito
neskaityti
neskolina
neskolino
neskolinti
nespe
nesude
nesudirba
nesudirbo
nesudirbti
nesugalvoja
nesugalvojo
nesugalvoti
nesugamina
nesugamino
nesugaminti
nesuge
nesugebe
nesugeria
nesugerti
nesugirde
nesugirdi
nesujaudina
nesujaudino
nesujaudinti
nesukilo
nesukilti
nesukontroliavo
nesukontroliuoja
nesukontroliuoti
nesukyla
nesulauke
nesuma
nesumigo
nesumigti
nesuminga
nesumoka
nesumoke
nesunervina
nesunervino
nesunervinti
nesunkiai
nesuragina
nesuragino
nesuraginti
nesuras
nesusapnavo
nesusapnuoja
nesusapnuoti
nesusidirba
nesusidirbo
nesusidirbti
nesusigalvoja
nesusigalvojo
nesusigalvoti
nesusigamina
nesusigamino
nesusigaminti
nesusige
nesusigeria
nesusigerti
nesusiginc
nesusijaudina
nesusijaudino
nesusijaudinti
nesusima
nesusimoka
nesusimoke
nesusinervina
nesusinervino
nesusinervinti
nesusiras
nesusisapnavo
nesusisapnuoja
nesusisapnuoti
nesusiskaite
nesusiskaito
nesusiskaityti
nesusiskolina
nesusiskolino
nesusiskolinti
nesusitikrina
nesusitikrino
nesusitikrinti
nesusivagia
nesusivais
nesusivoge
nesusivogti
nesusivoke
nesusivokia
nesusivokti
nesuskaite
nesuskaito
nesuskaityti
nesuskolina
nesuskolino
nesuskolinti
nesutarimai
nesutarimu
nesutiko
nesutikrina
nesutikrino
nesutikrinti
nesuvagia
nesuvais
nesuvoge
nesuvogti
nesuvoke
nesuvokia
nesuvokti
nesuz
nesvarbu
nesvyz
net
netaisyklingo
netaisyklingos
neteise
neteisingai
neteke
neteko
netenka
netgi
netike
netikina
netikino
netikinti
netikrina
netikrino
netikrinti
netikslus
netinka
netinkama
netoli
netoliese
netrukus
neture
neturi
neturinc
neturintis
network
netyc
neues
neuz
neva
nevagia
nevais
nevart
neve
neveik
neveikianc
neveikianti
never
nevirs
nevis
nevoge
nevogti
nevoke
nevokia
nevokti
nevyko
nevyriausybine
new
news
next
nez
ng
ngc
nh
nhl
ni
nia
niai
niais
niau
niausia
niausiai
niauskas
nica
nicaragua
nicas
nice
nicholas
nick
nico
nicolas
nicole
nida
nidos
nie
niek
niekad
niekada
niekados
niekaip
niekam
niekas
nieko
nieks
niekuo
niekuomet
niekur
nielsen
niems
niene
nieves
niger
nigeria
nigerija
nigerijoje
nigerijos
nigerio
nigeris
night
nigreich
nigreichs
nih
nij
nija
nijai
nijoje
nijole
nijos
niju
nikaragva
nikaragvos
nike
nikola
nikolajaus
nikolajus
nilo
nimfos
nin
nina
nine
niniai
ninis
niniu
nintendo
nio
nios
nipine
nis
niu
niue
niujorka
niujorkas
niujorke
niujorko
niuose
niurnbergo
nius
niz
nk
nkl
nkvd
nl
nlm
nm
no
nobelio
noje
nojus
nom
nomas
nominacija
nominacijos
nominuota
nominuotas
noms
non
nora
noras
nord
nordliches
nore
noreika
norfolk
nori
norima
norinc
norint
noriu
norma
norman
normanu
normas
normos
normu
nors
norte
north
northern
noru
noruega
norv
norvegija
norvegijoje
norvegijos
norvegu
nos
nosies
nosis
nosparnis
not
notaru
note
notes
nov
nova
nove
novele
noveliu
november
novgorodo
novi
novo
now
nr
ns
nt
nu
nuabejoja
nuabejojo
nuabejoti
nubaustas
nube
nuclear
nudaz
nudirba
nudirbo
nudirbti
nue
nueva
nuevo
nufilmuotas
nugale
nugali
nugalvoja
nugalvojo
nugalvoti
nugamina
nugamino
nugaminti
nugara
nugare
nugaros
nuge
nugeria
nugerti
nuginc
nugirde
nugirdi
nugriauta
nugriautas
nugriauti
nui
nukariavo
nukente
nukilo
nukilti
nukreipta
nukreiptas
nukreipti
nukrenta
nukrito
nukryz
nukyla
nule
nulemia
nuli
nulio
nulis
nuliu
nuliui
numals
numate
numato
numatoma
numatyta
numatytas
numatyti
number
numeri
numeriai
numerio
numeris
numeriu
numi
numiega
numiegojo
numiegoti
numigo
numigti
numinga
numire
numirti
numoka
numoke
numus
nunes
nuo
nuode
nuodingas
nuodu
nuoga
nuolat
nuolatine
nuolatiniai
nuolatinio
nuolatinis
nuolatiniu
nuolatos
nuolauz
nuolydis
nuomone
nuomos
nuopelnus
nuoroda
nuorodos
nuos
nuosaka
nuosakos
nuosava
nuosavybe
nuose
nuosekliai
nuostata
nuostatai
nuostatas
nuostatos
nuostatu
nuostatus
nuostoliu
nuostolius
nuotaika
nuotaikos
nuotaka
nuotas
nuote
nuoteku
nuotolio
nuotolis
nuotoliu
nuotrauka
nuotraukas
nuotraukos
nuotrauku
nuotykiai
nuotykiu
nuoz
nupies
nupirko
nuragina
nuragino
nuraginti
nuras
nurode
nurodo
nurodoma
nurodomas
nurodydami
nurodymu
nurodyta
nurodyti
nus
nusako
nusapnavo
nusapnuoja
nusapnuoti
nuse
nusiaube
nuside
nusidirba
nusidirbo
nusidirbti
nusidrieke
nusifilmavo
nusigalvoja
nusigalvojo
nusigalvoti
nusigamina
nusigamino
nusigaminti
nusige
nusigeria
nusigerti
nusiginc
nusikalte
nusikaltima
nusikaltimas
nusikaltimo
nusikaltimu
nusikaltimus
nusileidimo
nusileido
nusileidz
nusileisti
nusimiega
nusimiegojo
nusimiegoti
nusines
nusipelne
nusipelniusio
nusipirko
nusipirkti
nusiras
nusis
nusisapnavo
nusisapnuoja
nusisapnuoti
nusiskaite
nusiskaito
nusiskaityti
nusiskolina
nusiskolino
nusiskolinti
nusistove
nusitikrina
nusitikrino
nusitikrinti
nusiu
nusiunc
nusiunte
nusivagia
nusivais
nusivoge
nusivogti
nusivoke
nusivokia
nusivokti
nusiz
nuskaite
nuskaito
nuskaityti
nuskendo
nuspre
nusprende
nusprendz
nustatant
nustate
nustato
nustatoma
nustatomas
nustatymas
nustatymo
nustatyta
nustatytas
nustatyti
nustatytos
nustatytu
nustebina
nustebino
nustebinti
nustojo
nutape
nutare
nutarima
nutarimai
nutarimas
nutarimu
nutarta
nuteistas
nuteisti
nutiesta
nutiestas
nutiesti
nutiesus
nutikrina
nutikrino
nutikrinti
nutole
nutolusi
nutrauke
nutraukta
nutrauktas
nutraukti
nutru
nuts
nuvagia
nuvais
nuvaz
nuverstas
nuversti
nuverte
nuvez
nuvoge
nuvogti
nuvoke
nuvokia
nuvokti
nuvyko
nuz
nv
ny
nyc
nyderlandai
nyderlandu
nyderlanduose
nyderlandus
nyje
nyke
nykimas
nykimo
nyko
nyks
nyksta
nykstanc
nykti
nykusi
nys
nytimes
nytine
nz
o
oaze
obama
obe
obelis
obeliu
objekta
objektai
objektas
objekto
objektu
objektus
observatorija
obuoliu
obuolys
oc
oce
ocean
oclc
october
od
oda
odesos
odi
odine
odis
odise
odos
odyje
odyna
odynas
odyne
odyno
odz
of
off
office
official
oficialaus
oficiali
oficialia
oficialiai
oficialios
oficialiu
oficialu
oficialus
oficialusis
og
oginskis
oh
oi
oil
ois
oje
oji
ojo
ojoje
ok
oka
oke
okeanija
okeanijoje
okeanijos
okeanologija
oki
okiai
okinavu
okine
okio
okis
okiu
oko
okos
oks
oksfordo
oksitanu
okti
okupacija
okupacijai
okupacijos
okupacine
okupavo
okupavus
okupuota
okupuoto
okupuotos
ol
ola
olandai
olandija
olandijoje
olandijos
olandu
old
ole
olegas
olga
olimpiada
olimpiadoje
olimpiados
olimpiadose
olimpietis
olimpine
olimpines
olimpini
olimpinio
olimpinis
olimpiniu
olimpo
olinis
oliu
oliver
olos
ols
olympedia
olympic
olympics
olympique
om
oma
omanas
omano
omas
ome
omega
omi
omis
omos
omu
on
ona
onai
onas
one
onine
oniniu
onis
oniu
online
only
ono
onos
onu
onuose
onus
onute
op
open
opensuse
opera
operacija
operacijas
operacijos
operaciju
operacine
operatorius
operatyvine
operete
operoje
operos
operu
opozicija
opozicijos
opracowany
ops
optika
option
or
ora
orai
oranz
oras
oratorija
orbita
orbitos
orda
orden
order
ordina
ordinas
ordino
ordinu
ordinui
ordos
ordz
ore
org
organai
organas
organine
organiniu
organizacija
organizacijai
organizacijas
organizacijoje
organizacijomis
organizacijoms
organizacijos
organizacijose
organizaciju
organizacinio
organization
organizatoriai
organizatoriu
organizatorius
organizavimas
organizavimo
organizavo
organizma
organizmai
organizmas
organizme
organizmo
organizmu
organizuoja
organizuojamas
organizuojami
organizuojamos
organizuota
organizuotas
organizuoti
organu
organus
oriental
orientuota
origin
original
originalas
originalaus
originali
originaliu
originalo
originalu
originalus
origins
orine
oriniai
orinio
orinis
oriniu
orkestras
orkestre
orkestro
orkestru
orkestrui
orlaiviai
orlaivio
orlaivis
orlaiviu
orlaivius
ornamentais
oro
ors
ortodoksu
ortsnamen
ortsnamenverzeichnis
oru
orz
os
oscar
ose
osetia
osetija
osetijos
osetinu
osi
osioms
osios
oskaras
oskaro
oskaru
oslo
osmanai
osmanu
ostpreussen
ostpreußen
osvaldas
ot
otas
other
oto
otto
ou
our
out
ova
ovai
ovali
ovalo
ovanis
ovas
ove
over
overview
ovidijus
oviniai
oviniu
ovinius
oviu
ovo
ovu
ovus
owen
oxford
oz
oze
ozefas
oziorsko
p
pa
paabejoja
paabejojo
paabejoti
paais
paaugliu
paauglyste
paaukojo
paauks
pab
pabaiga
pabaige
pabaigoje
pabaigos
pabaisa
pabaltijo
pabande
pabando
pabandyti
pabe
pabendradarbiauja
pabendradarbiauti
pabendradarbiavo
paberz
pabirz
pablo
pabloge
pabrade
pabre
pabu
pac
pacas
pacientu
pacific
padalijima
padalijimo
padaliniai
padalinimas
padalinio
padaliniu
padalinta
padalintas
padalinti
padalintos
padalinys
padalyvis
padangu
padare
padaro
padarys
padaryta
padarytas
padaryti
padauge
padave
padaz
pade
padeda
padedamas
padedanc
padedant
padegimas
padengta
padengtas
padengti
padide
padidina
padidino
padidinta
padidintas
padidinti
padirba
padirbe
padirbo
padirbti
padniestre
padovanojo
padri
paduviec
pae
paez
pagal
pagalba
pagalbine
pagalbos
pagaliau
pagalve
pagalvoja
pagalvojo
pagalvoti
pagamina
pagaminama
pagamino
pagaminta
pagamintas
pagaminti
pagamintos
pagamintu
pagarba
pagarbos
pagarse
page
pagerbti
pagere
pageria
pagerino
pagerinti
pagerti
pages
pagimde
pagirde
pagirdi
pagiriu
pagonis
pagoniu
pagr
pagri
pagrinda
pagrindai
pagrindais
pagrindas
pagrinde
pagrindine
pagrindines
pagrindini
pagrindiniai
pagrindiniais
pagrindiniame
pagrindinio
pagrindinis
pagrindiniu
pagrindinius
pagrindo
pagrindu
pagrindus
pagrobe
pagyrimu
pai
paies
pailga
pailgas
pailge
pailgos
paimta
paimtas
paimti
pais
pajamas
pajamos
pajamu
pajaudina
pajaudino
pajaudinti
paje
paju
pakaline
pakalne
pakalnis
pakamaris
pakanka
pakankamai
pakankamumo
pakartotinai
pakaus
pake
pakeic
pakeis
pakeista
pakeistas
pakeisti
pakeistos
pakeite
pakeitimas
pakeitimo
pakeitimu
pakeitus
pakele
pakeliui
pakeltas
pakelti
paketu
pakile
pakilimo
pakilo
pakilti
pakista
pakistanas
pakistane
pakistano
pakito
paklausa
paklause
paklausia
paklausti
pakontroliavo
pakontroliuoja
pakontroliuoti
pakopa
pakopoje
pakopos
pakopu
pakranc
pakrante
pakrantes
pakras
pakriks
pakruojis
pakruojo
pakuote
pakviec
pakviesta
pakviestas
pakviesti
pakviete
pakyla
pal
palaidota
palaidotas
palaidoti
palaikai
palaikanc
palaike
palaiko
palaikoma
palaiku
palaikyma
palaikymas
palaikymo
palaikyti
palaipsniui
palanga
palangoje
palangos
palankiai
palapine
palau
palauz
pale
palei
paleidimo
paleido
paleidz
paleista
paleistas
paleisti
palenke
paleolito
palestina
palestiniec
palestinoje
palestinos
pali
paliaubu
palieka
palike
palikima
palikimas
palikimo
paliko
palikta
paliktas
palikti
palikuonis
palikuoniu
palikuonys
palinke
paliu
palivarkas
palivarko
palm
palme
palmiu
palmyra
pals
palu
palydovai
palydovas
palydovo
palydovu
palyginimui
palyginti
palyginus
pama
pamac
pamaldas
pamaldos
pamario
pamatai
pamatas
pamate
pamatine
pamato
pamatu
pamatus
pamatyti
pamaz
pame
pamiega
pamiegojo
pamiegoti
pamigo
pamigti
pamine
paminga
paminkla
paminklai
paminklas
paminkline
paminklinis
paminklo
paminklu
paminklus
pamirs
pamis
pamoka
pamokas
pamoke
pamokos
pan
panaikina
panaikinimo
panaikinkite
panaikino
panaikinta
panaikintas
panaikinti
panaikintos
panaikinus
panakvoja
panakvojo
panakvoti
panama
panamos
panas
panaudojant
panaudojimas
panaudojimo
panaudojo
panaudota
panaudotas
panaudoti
panaudotos
panc
pande
pandemijos
pandz
panele
panemune
paneriu
panervina
panervino
panervinti
paneve
panevezys
panorama
panthera
paolo
paparc
papasiras
papauz
papavagia
papavoge
papavogti
pape
paper
papilde
papildo
papildoma
papildomai
papildomas
papildomi
papildomo
papildomos
papildomu
papildomus
papildymas
papildyta
papildytas
papildyti
papile
papilio
paplite
paplitimas
paplitimo
paplito
paplitusi
paplitusios
paplitusiu
paploks
paplu
papras
paprasc
paprasta
paprastai
paprastas
paprastasis
paprasti
paprastieji
paprastoji
paprastojo
paprastos
paprastosios
paprastu
papries
paprisiras
paproc
paprotys
papu
papua
papuos
par
para
parafia
paragina
paragino
paraginti
paraguay
paragvajaus
paragvajuje
paragvajus
parais
parako
paralyz
parama
parametra
parametras
parametro
parametru
paramos
paranos
parapija
parapijai
parapijiec
parapijoje
parapijos
parapiju
parapine
paras
parc
pardave
pardavimai
pardavimo
pardavimu
pardavine
pardirba
pardirbo
pardirbti
parduoda
parduodama
parduodamas
parduodami
parduodamu
parduota
parduotas
parduoti
parduotuve
parduotuviu
pare
pareiga
pareigas
pareigos
pareigose
pareigu
pareigybe
pareikalavo
pareiks
pareis
paremia
paremta
paremtas
paremti
parenge
parengta
parengtas
parengti
parge
pargeria
pargerti
paris
park
parka
parkai
parkas
parke
parkilo
parkilti
parko
parku
parkui
parkuose
parkyla
parlamenta
parlamentas
parlamente
parlamentine
parlamento
paroda
parodas
parode
parodo
parodoje
parodos
parodose
parodu
parodyta
parodytas
parodyti
paros
parras
pars
parsidirba
parsidirbo
parsidirbti
parsivoke
parsivokia
parsivokti
part
partial
partija
partijai
partijas
partijoje
partijos
partiju
partine
partinis
partizanai
partizanams
partizanas
partizanu
partnere
partneriai
partneris
partneriu
partneryste
party
paru
paruos
parvez
parvoke
parvokia
parvokti
parys
paryz
pas
pasa
pasak
pasaka
pasake
pasako
pasakoja
pasakojama
pasakojimai
pasakojimas
pasakojimo
pasakojimu
pasakojo
pasakos
pasaku
pasakyta
pasakyti
pasapnavo
pasapnuoja
pasapnuoti
pasaule
pasauli
pasauliec
pasaulietine
pasauline
pasaulini
pasauliniam
pasauliniame
pasaulinio
pasaulinis
pasauliniu
pasaulio
pasaulis
pasauliu
pasauliui
pasaulyje
pase
paseke
pasekme
pasekmes
pasekmiu
pasibaige
pasibaigus
pasidalijo
pasidalino
pasidare
pasidaro
pasidaryti
pasidave
pasidirba
pasidirbo
pasidirbti
pasidri
pasiduoti
pasie
pasiekdavo
pasieke
pasiekia
pasiekiama
pasiekiamas
pasiekimai
pasiekimas
pasiekimu
pasiekimus
pasieks
pasiekta
pasiektas
pasiekti
pasiekus
pasiekusi
pasiekusiu
pasienio
pasienyje
pasigaile
pasigalvoja
pasigalvojo
pasigalvoti
pasigamina
pasigamino
pasigaminti
pasige
pasigeria
pasigerti
pasiginc
pasigirde
pasigirdi
pasijaudina
pasijaudino
pasijaudinti
pasike
pasikeite
pasikis
pasikontroliavo
pasikontroliuoja
pasikontroliuoti
pasikviete
pasiliko
pasilikti
pasima
pasimiega
pasimiegojo
pasimiegoti
pasimoka
pasimoke
pasinaudoje
pasinaudojo
pasinaudoti
pasinervina
pasinervino
pasinervinti
pasipries
pasiragina
pasiragino
pasiraginti
pasiras
pasireiks
pasireis
pasirenka
pasirinkimas
pasirinkimo
pasirinko
pasirinkta
pasirinktas
pasirinkti
pasirode
pasirodo
pasirodydavo
pasirodyma
pasirodymai
pasirodymas
pasirodymo
pasirodymu
pasirodymus
pasirodys
pasirodyti
pasirodz
pasiru
pasiruos
pasiryz
pasis
pasisake
pasisapnavo
pasisapnuoja
pasisapnuoti
pasisekimo
pasiskaite
pasiskaito
pasiskaityti
pasiskelbe
pasiskirstymas
pasiskolina
pasiskolino
pasiskolinti
pasisle
pasistate
pasitaiko
pasitike
pasitikina
pasitikino
pasitikinti
pasitikrina
pasitikrino
pasitikrinti
pasitrauke
pasitraukti
pasitraukus
pasiturinc
pasiu
pasiunte
pasiuntiniu
pasiuntinybe
pasiuntinys
pasivadino
pasivagia
pasivaiks
pasivais
pasivoge
pasivogti
pasivoke
pasivokia
pasivokti
pasiz
paskaic
paskaitas
paskaite
paskaito
paskaitos
paskaitu
paskaityti
paskatino
paskatinti
paskelbe
paskelbimo
paskelbta
paskelbtas
paskelbti
paskelbtos
paskelbus
paskiria
paskirta
paskirtas
paskirti
paskirties
paskirtis
pasklido
paskolina
paskolino
paskolintas
paskolinti
paskui
paskutine
paskutini
paskutiniai
paskutiniais
paskutiniame
paskutinio
paskutiniojo
paskutinis
paskutiniu
paskutinius
paskyra
paskyre
paslapc
paslaptis
paslauga
paslaugas
paslaugomis
paslaugos
paslaugu
pasle
pasmerke
paso
paspauskite
pasroviui
past
pastaba
pastabos
pastac
pastangas
pastangomis
pastangos
pastangu
pastara
pastaraisiais
pastarasis
pastarieji
pastaroji
pastarojo
pastarosios
pastaru
pastaruoju
pastaruosius
pastata
pastatai
pastatais
pastatas
pastate
pastato
pastatu
pastatuose
pastatus
pastatydino
pastatymo
pastatyta
pastatytas
pastatyti
pastatytos
pastebe
pastebi
pastebima
pastebimas
pastoge
pastoviai
pastoviu
pastovus
pasuka
pasuko
pasukus
pasusiras
pasusiskaite
pasusiskaito
pasusiskaityti
pasuskaite
pasuskaito
pasuskaityti
pasvalio
pasvalys
pat
pataisos
patalpa
patalpas
patalpos
patalpose
patalpu
patare
patarme
pate
pateike
pateikia
pateikiama
pateikiamas
pateikiami
pateikiamos
pateikta
pateiktas
pateikti
pateiktos
pateiktus
pateke
patekimo
pateko
patekti
patele
pateliu
patenka
patenkintas
patenkinti
pati
patiekalai
patiekalas
patiekalu
patiems
paties
patike
patikina
patikino
patikinti
patiko
patikrina
patikrinkite
patikrino
patikrinti
patinai
patinas
patine
patinka
patino
patinu
patiria
patirti
patirties
patirtimi
patirtis
patogu
patranka
patrankos
patranku
patrauke
patrick
pats
patvenkta
patvirtina
patvirtinimo
patvirtino
patvirtinta
patvirtintas
patvirtinti
patyre
patys
pau
pauks
paul
paulauskas
pauliaus
paulius
paulo
pauz
pav
pavadinima
pavadinimai
pavadinimais
pavadinimas
pavadinimo
pavadinimu
pavadinimus
pavadino
pavadinta
pavadintas
pavadinti
pavadintos
pavaduotoja
pavaduotojas
pavaduotoju
pavagia
pavais
pavaizduota
pavaizduotas
pavaizduoti
pavaldi
pavaldu
pavaldumo
pavaldus
pavaldz
pavarde
pavardz
pavartoja
pavartojo
pavartoti
pavaru
pavasari
pavasario
pavasaris
pavaz
pave
pavede
paveike
paveikia
paveiksla
paveikslai
paveikslas
paveiksle
paveikslo
paveikslu
paveikslus
paveikta
paveiktas
paveikti
pavelas
pavelda
paveldas
pavelde
paveldo
paveldosaugos
paverc
paversta
paversti
paverte
pavesta
pavidala
pavidalo
pavidalu
pavieniai
pavieniu
pavieniui
pavietas
pavieto
pavimo
pavirs
pavoge
pavogti
pavojaus
pavojinga
pavojingas
pavoju
pavojus
pavoke
pavokia
pavokti
pavyko
pavyksta
pavyzdi
pavyzdys
pavyzdz
paz
pb
pc
pdf
pdlv
pe
peace
peas
pec
pedagogas
pedagoge
pedagogika
pedagogikos
pedagogine
pedagogini
pedagoginiame
pedagoginio
pedagoginis
pedagogu
pedro
peilis
peiliu
peizaz
pekinas
pekine
pekino
pele
pelenai
pelenu
pelke
pelkiu
pelna
pelnas
pelne
pelno
pelnyti
pen
penguin
penkeriu
penkerius
penki
penkiakampe
penkiakove
penkias
penkiasdes
penkiolika
penkios
penkis
penkiu
penkta
penktadieni
penktadienis
penktas
penktasis
penktoji
pensija
pensilvanijos
pentax
people
peppers
per
perdave
perdavimo
perde
perdirba
perdirbimo
perdirbo
perdirbti
perdri
perduoda
perduodama
perduota
perduotas
perduoti
perduotos
pere
pereina
pereiti
perfect
performance
pergale
pergales
pergaliu
pergalvoja
pergalvojo
pergalvoti
perge
pergeria
pergerti
perginc
pergirde
pergirdi
peri
perimti
periodas
periodine
periodis
periodo
periodu
perke
perkelta
perkeltas
perkelti
perkeltos
perkilo
perkilti
perku
perkusija
perkyla
perleido
perlu
perma
perme
permiega
permiegojo
permiegoti
permoka
permoke
pernakvoja
pernakvojo
pernakvoti
pernelyg
pernes
pernu
perras
perrinktas
perry
pers
persapnavo
persapnuoja
persapnuoti
perse
persekiojimo
persekioti
persidirba
persidirbo
persidirbti
persigalvoja
persigalvojo
persigalvoti
persige
persigeria
persigerti
persija
persijos
persike
persikelti
persikrauste
persima
persimiega
persimiegojo
persimiegoti
persiras
persis
persisapnavo
persisapnuoja
persisapnuoti
persiskaite
persiskaito
persiskaityti
persitikina
persitikino
persitikinti
persitikrina
persitikrino
persitikrinti
persitvarkymo
persivagia
persivais
persivoge
persivogti
persivoke
persivokia
persivokti
perskaic
perskaite
perskaito
perskaityti
personalas
personaline
personalo
personaz
personifikacija
perspe
perspektyvos
perstatyta
persu
persvara
perteikti
perteklius
pertikina
pertikino
pertikinti
pertikrina
pertikrino
pertikrinti
pertrauka
pertraukomis
pertraukos
pertvarkyta
pertvarkytas
peru
pervadino
pervadinta
pervadintas
pervagia
pervais
pervaz
perversma
perversmas
perversmo
pervez
pervoge
pervogti
pervoke
pervokia
pervokti
perz
pes
pesc
pet
peter
peterburga
peterburgas
peterburge
peterburgo
peteris
petkevic
petra
petras
petrauskas
petro
petrone
peugeot
pg
ph
phi
phil
philadelphia
philip
philippe
philosophy
phoenix
photos
php
physics
pi
pia
pianinas
pianinu
pianistas
pianiste
piano
picea
pictures
pie
piec
piena
pienas
pienine
pieno
pierre
pierwszego
pies
pietine
pietiniai
pietiniame
pietinio
pietinis
pietiniu
pietro
pietryc
pietrytine
pietrytiniame
pietu
pietuose
pietus
pietvakarine
pietvakariniame
pietvakariu
pietvakariuose
pietvakarius
pieva
pievos
pievose
pievu
pijus
pikta
piktas
piktnaudz
piktu
piktz
pila
pilaite
pilale
pilde
pildo
pildyti
pile
pili
piliakalni
piliakalniai
piliakalnio
piliakalnis
piliakalniu
piliakalnyje
piliec
pilies
pilietine
pilietini
pilietinio
pilietinis
pilietiniu
pilietis
pilietybe
pilis
piliu
pilka
pilkai
pilkalnio
pilkapiai
pilkapiu
pilkapynas
pilkas
pilkasis
pilki
pilkoji
pilkos
pilks
pillkallen
pilna
pilnai
pilnametraz
pilnas
pilnu
pilotai
pilotas
piloto
pilotu
pilti
pilvas
pilvis
pilvo
pilyje
pilypas
pilypo
pilys
pimo
pina
pinasi
pindavo
pine
pinigai
pinigais
pinigine
piniginis
pinigu
pinigus
pinima
pinimo
pink
pino
pinosi
pinta
pintas
pinti
pintis
pinus
pinyin
pionieriu
piotr
piotras
piramide
piratai
piratu
pire
pirke
pirkimo
pirkliai
pirkliu
pirklys
pirko
pirkti
pirma
pirmadieni
pirmadienis
pirmaisiais
pirmajai
pirmajam
pirmajame
pirmame
pirmas
pirmasis
pirmavo
pirmenybe
pirmenybes
pirmenybiu
pirmi
pirmiausia
pirmiausiai
pirmieji
pirmine
pirmininka
pirmininkas
pirmininke
pirmininko
pirmininku
pirminis
pirminiu
pirmo
pirmoje
pirmoji
pirmojo
pirmojoje
pirmos
pirmose
pirmosios
pirmosiose
pirmtakas
pirmu
pirmuoju
pirmuosius
pirmus
pirmyks
pirmyn
pirs
pirtis
pis
pistoletai
pistoletas
pistoleto
pistoletu
piteris
piu
pivas
pixar
pjeras
pjese
pjesiu
pju
pl
plac
place
plan
plana
planai
planas
planavimas
planavimo
planavo
plane
planet
planeta
planetoje
planetos
planets
planetu
plano
plans
plant
plants
planu
planuoja
planuojama
planuota
planus
plas
plastiko
plataus
plate
plateliu
platesne
platforma
platformos
plati
platina
platinama
platinimo
platininiu
platino
platinti
platintojas
platonas
platono
platos
platu
platumos
platumu
platus
plauc
plaukai
plaukais
plauke
plaukeliais
plaukia
plaukimas
plaukimo
plaukti
plauku
plaukus
plaus
play
player
players
playstation
ple
plec
pleis
plentai
plentas
plento
plentu
plepa
plepe
plg
pliateris
plienas
plieno
plika
plinta
plisti
plito
plius
ploc
plocko
ploja
plojo
ploks
plona
plonas
plota
plotai
plotas
plote
ploti
plotis
ploto
plotu
plotus
pls
plu
plunge
plunksna
plunksnis
plunksnos
plunksnu
pluos
plus
plv
plynauks
plys
plyti
plytine
plytu
pm
pmc
pmid
po
pobu
poc
pociu
pocius
pod
podole
podstawie
poema
poemos
poetas
poete
poeto
poetu
poezija
poezijos
pogrindine
pogrindz
poilsiaviete
poilsio
point
poju
pokalbis
pokalbiu
pokario
pokaryje
poks
pokyc
pokytis
poland
polas
pole
polese
poliarine
police
policija
policijos
policininkas
policy
polineziec
polis
polish
politechnikos
political
politics
politika
politikai
politikas
politike
politiko
politikoje
politikos
politiku
politine
politines
politini
politiniai
politinio
politinis
politiniu
politinius
politis
politologas
poliu
polo
polocko
polonia
polsce
polska
polski
polskiego
polskiej
pome
pompe
ponas
ponia
pono
pontiac
ponto
ponu
pop
popieriaus
popieriu
popierius
popiez
popular
population
populiacija
populiacijos
populiare
populiari
populiariausia
populiariausias
populiariausiu
populiarinimo
populiarino
populiarios
populiariu
populiaru
populiaruma
populiarumas
populiarumo
populiarus
pora
poras
poreikiams
poreikis
poreikiu
poreikius
poriniai
poromis
poros
porsche
port
portal
portalas
portale
portalo
porto
portr
portretai
portretas
portretu
portretus
portugal
portugalai
portugalija
portugalijoje
portugalijos
portugalu
poru
pos
pose
position
post
posta
postas
poste
posto
postu
postus
posu
poteris
potockis
potvyniai
potvynio
potvynis
potvyniu
pour
povandeninis
povandeniniu
poveiki
poveikio
poveikis
povilaitis
povilas
povilo
power
powiat
powszechnego
poz
pozicija
pozicijas
pozicijoje
pozicijos
pozicijose
poziciju
poznan
poznane
pp
pr
pra
prabe
pradai
prade
pradeda
pradedama
pradedamas
pradedant
prades
pradine
pradini
pradininkas
pradininku
pradinio
pradinis
pradiniu
pradirba
pradirbo
pradirbti
pradri
pradz
prae
praeina
praeiti
praeities
praeitis
praeityje
pragalvoja
pragalvojo
pragalvoti
prage
prageria
pragerti
pragirde
pragirdi
praha
prahoje
prahos
prakilo
prakilti
praktika
praktikoje
praktikos
praktine
praktis
prakyla
pralaime
praleido
praleidz
praleisti
pramiega
pramiegojo
pramiegoti
pramigo
pramigti
praminga
pramintas
pramogos
pramogu
pramone
pramonei
pramonina
pramonine
pramoninis
pramoniniu
pramonino
pramoninti
pramus
pranakvoja
pranakvojo
pranakvoti
pranas
pranc
prancis
prancu
pranervina
pranervino
pranervinti
pranes
prano
pranta
praple
prarade
prarado
praranda
prarasta
prarasti
pras
prasapnavo
prasapnuoja
prasapnuoti
prasc
praside
prasideda
prasidedantys
prasidirba
prasidirbo
prasidirbti
prasidri
prasigalvoja
prasigalvojo
prasigalvoti
prasigamina
prasigamino
prasigaminti
prasige
prasigeria
prasigerti
prasimiega
prasimiegojo
prasimiegoti
prasinervina
prasinervino
prasinervinti
prasisapnavo
prasisapnuoja
prasisapnuoti
prasiskaite
prasiskaito
prasiskaityti
prasiskolina
prasiskolino
prasiskolinti
prasitare
prasitaria
prasitarti
prasivagia
prasivais
prasiverz
prasivoge
prasivogti
prasivoke
prasivokia
prasivokti
praskaite
praskaito
praskaityti
praskolina
praskolino
praskolinti
prasme
prasta
prastai
prastas
prasti
prastine
prasto
prastos
prastu
pratare
prataria
pratarti
prate
prateka
prato
prause
prausia
prausti
pravagia
pravais
pravarde
pravaz
pravdinsko
pravoge
pravogti
pravoke
pravokia
pravokti
praz
pre
prefektu
preke
prekes
prekiaujama
prekiauti
prekiavo
prekiu
prekyba
prekybai
prekybine
prekybiniai
prekybinis
prekybiniu
prekybinius
prekyboje
prekybos
prelatas
premier
premija
premijos
premiju
premjer
premjera
premjeras
premjero
premjeru
present
president
press
prestiz
pretendentas
pretendentu
pretenzijas
preussen
preussischen
preußen
preußischen
prevencijos
prezidenta
prezidentas
prezidente
prezidento
prezidentu
prezidentui
prezidentus
prezidiumo
pri
priarte
price
pride
prideda
pridedama
pridedant
pridirba
pridirbo
pridirbti
prie
prieaugis
priebalsiai
priebalsis
priebalsiu
priedai
priedas
priedu
priegaide
prieglauda
prieglobsc
prieglobsti
prieiga
prieigos
prieina
prieinama
prieinamas
prieiti
priekais
prieki
priekine
priekinis
priekiniu
priekio
priekule
priekyje
prielaida
prielaidos
priemais
priemiesc
priemiestis
priemiestyje
priemone
priemones
priemoniu
prienai
prienu
prieplauka
pries
priesaga
priesagos
priesaika
prieskoniu
priestatas
prietaisai
prietaisas
prietaisu
prievarta
prievole
priez
prigalvoja
prigalvojo
prigalvoti
prigamina
prigamino
prigaminti
prige
prigeria
prigerti
prigijo
prigimti
prigimties
prigimtis
prigirde
prigirdi
priima
priimami
priimta
priimtas
priimti
priimtu
prijunge
prijungia
prijungiant
prijungta
prijungtas
prijungti
prijungtos
prijungus
prikilo
prikilti
priklausanc
priklausanti
priklausantis
priklausantys
priklause
priklausiusi
priklauso
priklausoma
priklausomai
priklausomas
priklausomybe
priklausyti
prikyla
prima
prime
primena
primenanc
primera
primiega
primiegojo
primiegoti
primigo
primigti
primine
priminga
primoka
primoke
prinakvoja
prinakvojo
prinakvoti
princas
prince
princese
princeton
principa
principai
principais
principas
principo
principu
principus
princo
prinervina
prinervino
prinervinti
prinsipe
print
pripaz
priragina
priragino
priraginti
priras
prireike
prireikus
priris
pris
prisapnavo
prisapnuoja
prisapnuoti
priside
prisideda
prisidirba
prisidirbo
prisidirbti
prisieke
prisigalvoja
prisigalvojo
prisigalvoti
prisigamina
prisigamino
prisigaminti
prisige
prisigeria
prisigerti
prisigirde
prisigirdi
prisijunge
prisijungia
prisijungti
prisike
prisima
prisimena
prisimiega
prisimiegojo
prisimiegoti
prisiminimai
prisimoka
prisimoke
prisinakvoja
prisinakvojo
prisinakvoti
prisinervina
prisinervino
prisinervinti
prisipaz
prisiragina
prisiragino
prisiraginti
prisiras
prisisapnavo
prisisapnuoja
prisisapnuoti
prisiskaite
prisiskaito
prisiskaityti
prisiskolina
prisiskolino
prisiskolinti
prisitaike
prisitaikyti
prisitikina
prisitikino
prisitikinti
prisivagia
prisivais
prisivoge
prisivogti
priskaic
priskaite
priskaito
priskaityti
priskiria
priskiriama
priskiriamas
priskiriami
priskiriamos
priskirta
priskirtas
priskirti
priskirtos
priskolina
priskolino
priskolinti
priskyre
pristate
pristato
pristatymas
pristatymo
pristatyta
pristatytas
pristatyti
pritaike
pritaikyta
pritaikytas
pritaikyti
pritare
pritariamasis
pritikrina
pritikrino
pritikrinti
pritrauke
pritraukia
pritraukti
pritru
pritvirtinta
privac
privagia
privais
privale
privalo
privaloma
privalomas
privataus
private
privati
privatine
privatu
privatus
priverc
priversta
priverstas
priversti
priverte
privilegija
privoge
privogti
prix
priz
priza
prizas
prize
prizininkas
prizininke
priziniu
prizo
prizu
prk
pro
problema
problemas
problemomis
problemos
problemu
proc
procedu
proceedings
procentas
procentu
procesa
procesai
procesas
procese
proceso
procesorius
procesu
procesus
prodiusavo
prodiusere
prodiuseriai
prodiuseris
prodiuseriu
production
produkcija
produkcijos
produktai
produktais
produktas
produkto
produktu
produktus
prof
profesija
profesijos
profesine
profesinio
profesiniu
profesionalaus
profesionali
profesionaliu
profesionalo
profesionalu
profesionalus
profesore
profesoriaus
profesoriu
profesoriumi
profesorius
profile
profilio
profilis
profsa
proga
progimnazija
progimnazijoje
progimnazijos
prognoze
program
programa
programai
programas
programavimas
programavimo
programe
programine
programoje
programos
programose
programu
project
projekta
projektai
projektas
projektavimo
projektavo
projekte
projekto
projektu
projektui
projektuose
projektus
prokalbe
prokuratu
prokuroras
prometheus
propaganda
propagandos
propagavo
prostitute
prota
protas
prote
protestantai
protestantu
protesto
protingas
proto
protokolas
protokoliniu
prototipas
protu
provincia
provincija
provincijai
provincijas
provincijoje
provincijos
provincijose
provinciju
provinz
proza
prozininkas
prozos
pru
prv
ps
psdlv
psi
psichiatrijos
psichikos
psichine
psichologas
psichologija
psichologijos
psichologine
pskovo
psl
psychology
pt
pta
ptas
pti
ptoleme
ptuve
pu
public
publications
publicistas
publika
publikaciju
publikavo
publikos
publikuota
publikuotas
publikuoti
published
publishers
publishing
puc
puerto
puikiai
puiku
puikus
puipa
puldine
pule
pulka
pulkai
pulkas
pulke
pulkininkas
pulkininko
pulko
pulku
pulti
pumpe
punios
punk
punktas
punktu
punsko
puodz
puola
puole
puolima
puolimas
puolimo
puos
puosele
pupele
pupkis
purs
pus
pusamz
pusbrolis
pusdalyvis
pusdykume
puse
pusei
puses
pusfinali
pusfinalio
pusfinalis
pusfinalyje
pusiasali
pusiasalio
pusiasalis
pusiasalyje
pusiau
pusiaujo
pusiaukele
pusiausvyra
pusiausvyros
pusiu
puslaidininkiu
puslapiai
puslapis
puslapiu
puslapyje
pusme
pusrutulio
pusrutulyje
pusryc
pussycat
putinas
putino
pvz
py
pyko
pyksta
pykti
pyktis
pyle
pylimas
pylimo
pylimu
python
pz
q
qu
quad
que
queen
quellen
quercus
r
ra
rabe
rabes
rabinas
rac
race
racing
rade
radija
radijas
radijo
radimu
radiniai
radiniu
radinius
radio
rado
radus
radvila
radvilaite
radvilis
radvilos
radvilu
radz
radzevic
raf
rafaelio
rafaelis
ragai
ragaine
ragais
ragana
raganos
ragas
ragauskas
ragina
raginama
raginamas
raginanc
raginanti
raginantis
ragindave
ragindavo
ragindavusi
ragine
ragino
ragins
raginsianc
raginsianti
raginsiantis
raginsima
raginsimas
raginta
ragintas
raginti
ragintina
ragintinas
raginusi
rago
ragu
raguvos
rai
raida
raidai
raide
raidos
raidz
raimondas
raimundas
rain
rainele
rais
raitelis
raiteliu
raiz
raj
rajona
rajonai
rajonas
rajone
rajono
rajonu
rajonui
rajonuose
rajonus
raketa
raketas
rakete
raketos
raketu
raktas
rakto
raktu
ralaus
rali
ralia
raliai
ralio
ralios
ralis
raliu
rally
ralu
ralus
ralyje
ram
rama
ramanauskas
ramiai
ramiajame
ramiojo
ramos
ramu
ramuc
ramune
ramus
ramusis
ramybe
ramygalos
ran
randa
randama
randamas
randame
randami
randamos
ranga
range
rangers
rangle
rango
rangos
rangu
ranka
rankas
rankena
rankenos
rankiai
ranking
rankings
rankinio
rankis
rankiu
rankius
rankoje
rankomis
rankos
rankose
rankove
rankras
ranku
rapid
rapolas
ras
rasa
rase
raseiniai
raseiniu
rasiu
rasos
rasta
rastas
rasti
rastos
rastu
rasu
rata
ratai
ratais
ratas
rate
ration
rato
ratu
ratus
rau
raude
raudona
raudonai
raudoname
raudonas
raudonasis
raudondvario
raudone
raudoni
raudonoji
raudonojo
raudonos
raudonosios
raudonu
rauks
raumens
raumenu
raumenys
raumuo
raus
rausvai
ray
raymond
raz
razmukaite
rb
rc
rd
re
reabilitacijos
reaguoja
reakcija
reakcijos
reakciju
real
realaus
realine
realiu
realizmo
realybe
rec
record
recording
records
red
redagavo
redakcija
redakcijoje
redakcijos
redakcine
redaktore
redaktoriai
redaktoriaus
redaktoriu
redaktoriumi
redaktorius
ref
reference
referendumas
referendumo
reforma
reformacijos
reformas
reformatu
reformos
reformu
reg
regbio
rege
regimasis
regina
region
regiona
regionai
regional
regionas
regione
regionine
regionini
regioniniame
regioninio
regioninis
regioniniu
regiono
regionu
regionui
regionuose
regionus
regioset
registra
registracijos
registras
registre
registro
registru
registruota
registruotas
registruoti
registruotu
regos
regular
reguliariai
reguliavimo
reguliuoja
reguliuoti
rei
reich
reicho
reik
reikalai
reikalais
reikalams
reikalauja
reikalaujama
reikalauti
reikalavimai
reikalavimas
reikalavimu
reikalavimus
reikalavo
reikalinga
reikalingas
reikalingi
reikalingos
reikalingu
reikalo
reikalu
reikalui
reikalus
reike
reikia
reikiama
reikme
reiks
reina
reino
reis
reitinga
reitingai
reitingas
reitinge
reitingo
reitingu
reklama
reklamos
rekomenduojama
rekonstrukcija
rekonstrukcijos
rekonstruota
rekonstruotas
rekonstruoti
rekorda
rekordas
rekordu
rektorius
relations
release
religija
religijos
religiju
religine
religines
religiniai
religinio
religinis
religiniu
religion
relis
reljefas
reljefo
remarkas
remdamasis
remia
remiamas
remiantis
remiasi
remigijus
remix
remontas
remonto
remti
renata
renault
rene
renesanso
renge
rengia
rengiama
rengiamas
rengiami
rengiamos
rengiant
rengimas
rengimo
rengimu
rengini
renginiai
renginiams
renginio
renginiu
renginiuose
renginius
renginyje
renginys
rengta
rengtas
rengti
rengtos
renka
renkama
renkamas
renkami
renkasi
rentgeno
reorganizuota
repo
report
reportaz
represiju
repu
republic
republika
reputacija
requiem
res
research
resident
resources
respublika
respublikai
respublikine
respublikinei
respublikinio
respublikinis
respublikiniu
respublikoje
respublikonu
respublikos
respubliku
restauravimo
restauruota
restauruotas
restauruoti
restoranas
restoranu
results
resursu
ret
reta
retai
retais
retas
reti
retkarc
retoromanu
retos
retrieved
retu
return
reunio
reuters
review
reviews
revised
revoliucija
revoliucijos
revoliucine
revolution
reykjavik
rez
rezervatas
rezervate
rezervato
rezidavo
rezidencija
reziduoja
rezistencijos
rezistentas
rezoliucija
rezultata
rezultatai
rezultatas
rezultatu
rezultatus
rezultatyviausias
rezultatyviausiu
rf
rfc
rg
rgen
rgenes
rho
ri
ria
riai
riais
riajam
riam
rian
riau
riaus
riba
ribas
riboja
ribojasi
ribojosi
ribos
ribose
ribota
ribotas
ribu
ric
rica
rich
richard
rick
rico
rie
riebalu
riedulio
riedulys
rieji
ries
rietavo
rifu
riga
right
rightarrow
rights
rija
rijos
rika
rikai
rikas
rike
rikiu
rikiuote
riko
rikos
riku
rima
rimai
rimais
rimams
rimantas
rimas
rime
rimi
rimku
rimkus
rimo
rims
rimta
rimtai
rimtu
rimu
rimui
rimus
rimvydas
rin
rine
rines
ring
rini
riniai
riniais
riniame
riniams
rininkas
rininku
rinio
rinis
riniu
riniuose
rinius
rinka
rinkai
rinkdavosi
rinke
rinkimai
rinkimas
rinkimo
rinkimu
rinkimuose
rinkimus
rinkini
rinkiniai
rinkinio
rinkiniu
rinkinius
rinkinyje
rinkinys
rinko
rinkodaros
rinkoje
rinkos
rinkta
rinktas
rinkti
rinktine
rinktinei
rinktines
rinktiniu
rinktis
rinktu
rinku
rint
rinyje
rinys
rio
riojo
rios
ris
rise
risk
rita
rite
riteriai
riterio
riteris
riteriu
ritmo
ritulio
riu
riui
riuose
rius
river
rizika
rizikos
rk
rkl
rn
rnr
ro
road
rob
robert
robertas
roberto
roberts
robin
robinson
roc
rock
rode
rodikliai
rodiklis
rodikliu
rodo
rodoma
rodomas
rodomi
rodos
rodykle
rodymas
rodymu
rodyta
rodytas
rodyti
rodz
roger
rojaus
roje
rojus
rok
rokas
rokis
roko
roku
rolandas
role
rolf
roll
rolling
rologas
rom
roma
romai
roman
romana
romanai
romanas
romane
romanizacija
romano
romantine
romantis
romantizmo
romanu
romanus
romas
rome
romeo
romerio
romis
romoje
romos
roms
romualdas
romuva
ron
ronald
ropliai
ropliu
ros
rosa
rose
ross
rotten
rotus
round
routledge
rova
rovai
rovams
rovas
rove
rovers
rovo
rovu
rovus
roy
royal
roz
rpg
rs
rsssf
rt
rterbuch
rtfsr
rtico
ru
ruanda
ruandos
rubliu
ruda
rudai
rudaminos
rudas
rudasis
rudeni
rudens
rudi
rudoji
rudolf
rudolfas
rudos
rudu
ruduo
rudz
rugiu
rugp
rugpju
rugs
rugse
rumani
rums
rumun
rumunija
rumunijoje
rumunijos
rumunu
run
rungc
rungties
rungtis
rungtyje
rungtyne
rungtynes
rungtyniauja
rungtyniaujantis
rungtyniave
rungtyniavo
rungtyniu
rungtys
rungtyse
ruos
ruoz
rupu
rus
rusai
ruse
rusi
rusia
rusiai
rusija
rusijai
rusijoje
rusijos
rusio
rusioje
rusios
rusis
rusiu
rusne
ruso
russell
russia
russian
rusu
rusva
rusvai
ruta
rutai
rutas
rutu
rutulio
rutulis
ruz
ry
ryan
ryba
rybai
rybine
rybiniu
rybis
ryboje
rybos
ryc
ryga
rygoje
rygos
ryje
ryklys
rys
ryt
ryta
rytai
rytas
ryte
ryti
rytine
rytiniame
rytinio
rytinis
rytiniu
rytis
ryto
rytoj
rytpru
rytu
rytuose
rytus
ryz
rz
rzeczypospolitej
s
sa
sabaliauskas
sachara
sacharos
saga
saharaui
sahelio
sai
saint
saja
sajos
saju
saka
sakai
sakalas
sakalauskas
sakant
sake
sakinio
sakme
sako
sakoma
sakraline
saksonija
saksonijos
saksu
saku
sakydamas
sakyma
sakymas
sakymu
sakymus
sakyta
sakyti
sala
salako
salantai
salantu
salas
saldus
saldutis
saldz
sale
salele
saleliu
sales
saliamono
saloc
saloje
salome
salomis
salos
salose
salu
salvador
salvadoras
salvadoro
salyna
salynas
salyne
salyno
sam
samanu
samiai
samiu
samoa
samprata
samuel
samuelis
samus
san
sandara
sandaros
sandauga
sande
sandorio
sandoris
sandra
sandraugos
sandu
sangr
sangra
sangrz
sangus
sankryz
sankt
sanskrito
sant
santa
santaka
santakoje
santakos
santarve
santjago
santo
santos
santrumpa
santu
santuoka
santuokos
santvarka
santvarkos
santyki
santykiai
santykinai
santykio
santykis
santykiu
santykiuose
santykius
sap
sapiega
sapiegos
sapiegu
sapnas
sapnave
sapnavo
sapnavusi
sapnu
sapnuodave
sapnuodavo
sapnuodavusi
sapnuoja
sapnuojama
sapnuojamas
sapnuojanc
sapnuojanti
sapnuojantis
sapnuos
sapnuosianc
sapnuosianti
sapnuosiantis
sapnuosima
sapnuosimas
sapnuota
sapnuotas
sapnuoti
sapnuotina
sapnuotinas
sar
sara
sarah
sardinijos
sargas
sargyba
sargybos
sas
sasanidu
saturn
saturno
sau
saudi
saudo
sauga
saugas
saugo
saugojimo
saugojo
saugoma
saugomas
saugomi
saugomos
saugomu
saugos
saugoti
saugu
sauguma
saugumas
saugumo
saugykla
saule
saulei
saulius
saulute
sausa
sausas
sausi
sausio
sausis
sausu
sausuma
sausumoje
sausumos
sav
sava
savaeige
savaic
savaime
savaite
savaites
savaitras
savanoriai
savanoris
savanoriu
savanos
savarankis
savas
save
savickas
savimi
savimone
savininkai
savininkais
savininkas
savininke
savininko
savininku
savis
savita
savivalda
savivaldos
savivaldybe
savivaldybei
savivaldybes
savivaldybiu
saviz
savo
savos
savotis
savu
savybe
savybes
savybiu
savyje
say
says
sb
sc
scarecrow
scena
scenarijaus
scenariju
scenarijus
scenaristas
scenas
scenografas
scenoje
scenos
scenu
schema
schmid
schmidt
scho
school
sci
science
sciences
scientific
scott
scottish
scrolls
scuderia
sd
sdama
sdamas
sdami
sdave
sdavo
sdavus
sdavusi
sdavusia
se
sea
sean
search
season
sebastian
sec
second
secret
section
security
sedlcu
sedos
see
sega
seima
seimas
seime
seimo
seimui
seinu
seiriju
seis
sek
seka
sekanc
sekanti
sekcija
sekcijos
seke
sekmadieni
sekmadienis
sekos
sekretore
sekretoriaus
sekretoriumi
sekretorius
seksas
sekso
seksualine
sekti
sektoriaus
sektoriu
sektoriuje
sektorius
sektos
sekunde
sekundz
seldz
seleukidu
self
semas
sembos
semelis
semiatic
seminarija
seminarijoje
seminarijos
seminarus
semitu
sen
sena
senajame
senamiesc
senamiestis
senamiestyje
senas
senasis
senatas
senate
senato
senatorius
senatve
sene
senegal
senegalas
senegalo
seneka
senele
senelio
senelis
seneliu
senesne
senesniu
seni
seniai
seniau
seniausi
seniausia
seniausias
seniausios
seniausiu
senieji
senis
seniu
senjoru
senkapis
seno
senoje
senoji
senojo
senojoje
senos
senosios
senosiose
senove
senovine
senovinis
senoviniu
sent
sentikiai
sentikiu
senu
senumo
senuoju
senvage
september
septinta
septintajame
septintasis
septintojo
septyneriu
septyni
septynias
septyniasdes
septynios
septynis
septyniu
septynmete
sera
seras
serb
serbai
serbia
serbija
serbijoje
serbijos
serbu
seredz
serga
serganc
sergant
serge
sergejus
sergio
seriala
serialas
seriale
serialo
serialu
serialuose
serie
series
serija
serijoje
serijos
seriju
sero
serranilla
service
services
serz
ses
seseri
seserimi
sesers
seseru
seserys
sesuo
set
seven
sevilijos
sex
sexual
seychelles
sezona
sezonai
sezonas
sezone
sezono
sezonu
sezonui
sezonus
sfera
sferos
sg
sh
sha
shadow
she
shi
shield
sho
short
show
showdoc
si
sia
siai
siais
siam
sian
sianc
siant
sianti
siantis
siantys
sias
siasi
siaubo
siaura
siauras
siaure
siauri
siaurio
siauris
siauriu
siaurojo
siauru
siaute
sibira
sibire
sibiro
sic
siciliec
sicilija
sicilijoje
sicilijos
sidabra
sidabras
sidabrine
sidabriniai
sidabrinis
sidabriniu
sidabro
sidarbino
side
sidirba
sidirbama
sidirbamas
sidirbanc
sidirbanti
sidirbantis
sidirbdave
sidirbdavo
sidirbdavusi
sidirbe
sidirbo
sidirbs
sidirbsianc
sidirbsianti
sidirbsiantis
sidirbsima
sidirbsimas
sidirbta
sidirbtas
sidirbti
sidirbtina
sidirbtinas
sidirbusi
sidne
sidri
sie
sieja
siejama
siejamas
siejami
siejasi
siejo
siekdama
siekdamas
siekdami
sieke
siekia
siekiama
siekianc
siekiant
siekianti
siekis
siekta
siekti
siela
sielos
siems
siena
sienas
sienele
sieni
sieniec
sienio
sienoje
sienomis
sienos
sienu
sienyje
siera
sieros
sierra
siesiku
sieti
sigale
sigaliojo
sigalvodave
sigalvodavo
sigalvodavusi
sigalvoja
sigalvojama
sigalvojamas
sigalvojanc
sigalvojanti
sigalvojantis
sigalvoje
sigalvojo
sigalvojusi
sigalvos
sigalvosianc
sigalvosianti
sigalvosiantis
sigalvosima
sigalvosimas
sigalvota
sigalvotas
sigalvoti
sigalvotina
sigalvotinas
sigamina
sigaminanc
sigaminanti
sigamino
sigamins
sigaminsianc
sigaminsianti
sigaminti
sige
sigelbe
sigerdave
sigerdavo
sigerdavusi
sigeria
sigeriama
sigeriamas
sigerianc
sigerianti
sigeriantis
sigers
sigersianc
sigersianti
sigersiantis
sigersima
sigersimas
sigerta
sigertas
sigerti
sigertina
sigertinas
sigijo
siginc
sigitas
sigma
sign
signala
signalas
signalo
signalu
signataras
signs
sigyti
siima
siimine
siimti
sija
sijaudina
sijaudinanc
sijaudinanti
sijaudino
sijaudins
sijaudinsianc
sijaudinsianti
sijaudinti
sijoje
sijos
sijunge
sike
sikilo
sikilti
sikis
sikre
siku
sikyla
silaike
silaipino
silavinima
silavinimo
silezijos
silicio
silpna
silpnai
silpnas
silpnos
silpnu
silva
silver
silvestras
silvija
sim
sima
simai
simais
simajam
simajame
simam
simame
simas
simasis
simboli
simboliai
simbolika
simboline
simbolis
simboliu
simbolizuoja
sime
simetrija
simetris
simfonija
simfoninio
simi
simiega
simiegama
simiegamas
simieganc
simieganti
simiegantis
simiegodave
simiegodavo
simiegodavusi
simiegoje
simiegojo
simiegojusi
simiegos
simiegosianc
simiegosianti
simiegosiantis
simiegosima
simiegosimas
simiegota
simiegotas
simiegoti
simiegotina
simiegotinas
simieji
simiems
simiesiems
simigo
simigs
simigsianc
simigsianti
simigta
simigti
siminga
siminganc
siminganti
simno
simo
simoje
simoji
simojo
simoka
simokama
simokamas
simokanc
simokanti
simokantis
simoke
simoms
simon
simona
simonaityte
simonas
simone
simono
simos
simosios
simptomai
sims
simu
simuoju
simuose
simuosius
simus
simyle
simyli
sin
sinagoga
sinagogos
sinakvoja
sinakvojanc
sinakvojanti
sinakvojo
sinakvos
sinakvosianc
sinakvosianti
sinakvoti
since
sinclair
sindromas
sine
sinervina
sinervinama
sinervinamas
sinervinanc
sinervinanti
sinervinantis
sinervindave
sinervindavo
sinervindavusi
sinervine
sinervino
sinervins
sinervinsianc
sinervinsianti
sinervinsiantis
sinervinsima
sinervinsimas
sinervinta
sinervintas
sinervinti
sinervintina
sinervintinas
sinervinusi
singapu
singapur
singer
singla
singlai
singlas
single
singles
singlo
singlu
sinhalu
siniai
siniu
sinkevic
sinonimai
sinonimas
sintakse
sinteze
sinys
sio
sioms
sios
sipareigojimu
sipareigojo
siple
sir
siragina
siraginanc
siraginanti
siragino
siragins
siraginsianc
siraginsianti
siraginti
siras
sire
siria
sirija
sirijoje
sirijos
sis
sisapnavo
sisapnuoja
sisapnuojanc
sisapnuojanti
sisapnuos
sisapnuosianc
sisapnuosianti
sisapnuoti
siskaic
siskaitanc
siskaitanti
siskaitantis
siskaite
siskaito
siskaitoma
siskaitomas
siskaitydave
siskaitydavo
siskaitydavusi
siskaitys
siskaitysianc
siskaitysianti
siskaitysiantis
siskaitysima
siskaitysimas
siskaityta
siskaitytas
siskaityti
siskaitytina
siskaitytinas
siskiria
siskolina
siskolinama
siskolinamas
siskolinanc
siskolinanti
siskolinantis
siskolindave
siskolindavo
siskolindavusi
siskoline
siskolino
siskolins
siskolinsianc
siskolinsianti
siskolinsiantis
siskolinsima
siskolinsimas
siskolinta
siskolintas
siskolinti
siskolintina
siskolintinas
siskolinusi
siskyre
sistema
sistemai
sistemas
sistemoje
sistemoms
sistemos
sistemose
sistemu
sit
site
siterpe
sitikina
sitikine
sitikinimu
sitikino
sitikinti
sitikrina
sitikrinama
sitikrinamas
sitikrinanc
sitikrinanti
sitikrinantis
sitikrindave
sitikrindavo
sitikrindavusi
sitikrine
sitikrino
sitikrins
sitikrinsianc
sitikrinsianti
sitikrinsiantis
sitikrinsima
sitikrinsimas
sitikrinta
sitikrintas
sitikrinti
sitikrintina
sitikrintinas
sitikrinusi
sitrauke
situacija
situacijos
situaciju
sitvirtino
sitvirtinti
siu
siunc
siunte
siuo
siuose
sius
siuve
siuvimo
siuvine
siuz
sivadavimo
sivagia
sivagiama
sivagiamas
sivagianc
sivagianti
sivagiantis
sivais
sive
siverz
sivogdave
sivogdavo
sivogdavusi
sivoge
sivogs
sivogsianc
sivogsianti
sivogsiantis
sivogsima
sivogsimas
sivogta
sivogtas
sivogti
sivogtina
sivogtinas
sivogusi
sivoke
sivokia
sivokianc
sivokianti
sivoks
sivoksianc
sivoksianti
sivokti
sivysc
sivyste
sivysto
six
siz
sj
sk
ska
skai
skaic
skaisc
skait
skaita
skaitanc
skaitant
skaitanti
skaitantis
skaite
skaitmenine
skaitmeninis
skaitmeniniu
skaitmuo
skaito
skaitoje
skaitoma
skaitomas
skaitomi
skaitomos
skaitos
skaitvardz
skaitydave
skaitydavo
skaitydavusi
skaitykite
skaitykla
skaitymas
skaitymo
skaitys
skaitysianc
skaitysianti
skaitysiantis
skaitysima
skaitysimas
skaityta
skaitytas
skaityti
skaitytina
skaitytinas
skaitytoja
skaitytojas
skaitytoju
skalauja
skale
skalu
skamba
skambe
skambinti
skandinavijoje
skandinavijos
skandinavu
skapis
skardz
skatina
skatino
skatinti
skaude
skaudvile
skaudz
skausma
skausmas
skausmo
skautu
ske
skelbe
skelbia
skelbiama
skelbiami
skelbti
skersai
skersine
skersmens
skersmuo
skerspju
ski
skiautere
skich
skie
skiego
skiej
skiemenys
skilimo
skirdavo
skiria
skiriama
skiriamas
skiriami
skiriamos
skirianc
skiriant
skiriasi
skirstoma
skirstomas
skirstomi
skirstomos
skirstymas
skirstyti
skirta
skirtas
skirti
skirtinai
skirtine
skirtinga
skirtingai
skirtingais
skirtingas
skirtingi
skirtingo
skirtingomis
skirtingos
skirtingose
skirtingu
skirtinguose
skirtingus
skirtinis
skirtis
skirto
skirtos
skirtu
skirtuma
skirtumai
skirtumas
skirtumo
skirtumu
skirtumus
skirtus
skl
sklaida
skleide
skleidz
skleisti
skliausteliuose
skliaustuose
sklypa
sklypas
sko
skola
skolas
skolina
skolinama
skolinamas
skolinanc
skolinanti
skolinantis
skolindave
skolindavo
skolindavusi
skoline
skoliniu
skolino
skolins
skolinsianc
skolinsianti
skolinsiantis
skolinsima
skolinsimas
skolinta
skolintas
skolinti
skolintina
skolintinas
skolinusi
skolos
skolu
skoni
skonio
skonis
skopje
skorowidz
skr
skraidanc
skraido
skraidymo
skraidyti
skrandis
skrandz
skrenda
skrido
skrieja
skristi
skruzde
skrybe
skrydi
skrydis
skrydz
sku
skube
skubiai
skulpt
skulptoriaus
skulptorius
skulptu
skunde
skundz
skuodas
skuodo
skurdo
skurdz
sky
skyda
skydas
skydo
skyla
skyle
skyre
skyriai
skyriaus
skyriu
skyriui
skyriuje
skyrius
skyrus
skysc
skystis
sl
slapta
slaptai
slaptu
slapyvardis
slapyvardz
slavai
slavis
slavu
sle
slenksc
slide
slidine
slovakija
slovakijoje
slovakijos
slovaku
slove
slu
sluoksni
sluoksniai
sluoksnio
sluoksnis
sluoksniu
sluoksnius
sluoksnyje
slus
slypi
sm
smaile
small
smarkiai
sme
smegenis
smegenu
smegenys
smetona
smetonos
smilgiu
smiltainio
smith
smm
smolensko
smu
smuikas
smuikininkas
smuiko
smuiku
smuikui
smukle
smuko
smulkiai
smulkiais
smulkios
smulkiu
smulkius
smulku
smurto
sn
snapas
snapo
sni
sniai
sniegas
sniego
snis
sniu
so
soboras
soc
soccer
soccerway
social
socialdemokratu
socialine
socialines
socialini
socialiniai
socialinio
socialinis
socialiniu
socialinius
socialistine
socialistinio
socialistiniu
socialistu
socializmas
socializmo
society
sociologas
sociologija
sociologijos
soda
sodai
sodas
sode
sodininkyste
sodo
sodu
soduose
sodyba
sodyboje
sodybos
sodybu
sodz
sofascore
sofia
sofija
sofijos
software
soju
sokoluvo
sokulkos
sol
solar
soline
solistas
soliste
solo
somalia
somaliland
somalio
somalis
somaliu
some
son
sonata
sonderband
song
songs
sonny
sons
sony
sopranas
sorbu
sos
sosta
sostas
sostine
sosto
sotu
soul
sound
source
south
southern
soviet
sovietai
sovietams
sovietine
sovietinio
sovietinis
sovietiniu
sovietmec
sovietu
sp
spa
space
spain
spali
spalio
spalis
spalva
spalvas
spalvomis
spalvos
spalvu
spanish
sparc
sparnai
sparnais
sparnas
sparno
sparnu
sparnus
sparta
spartak
spartos
spaskis
spauda
spaudai
spaudima
spaudimo
spaudoje
spaudos
spaudz
spausdinimo
spausdino
spausdinta
spausdintas
spausdinti
spaustuve
spe
spears
spec
special
specialaus
speciali
specialia
specialiai
specialioji
specialios
specialiosios
specialistai
specialistas
specialistu
specialiu
specialius
specializacija
specializuojasi
specialu
specialus
specialybe
species
specifine
speed
spektakli
spektakliai
spektaklio
spektaklis
spektakliu
spektakliuose
spektaklius
spektaklyje
spektro
spiec
spinduliai
spinduliais
spindulio
spinduliu
spinduliuote
spindulys
spirale
spirit
spirito
spisu
sporos
sport
sporta
sportas
sportine
sporting
sportininkai
sportininkas
sportininke
sportininku
sportinio
sportinis
sportiniu
sporto
sports
spre
sprende
sprendima
sprendimai
sprendimas
sprendimo
sprendimu
sprendimus
sprendz
spring
springer
sprinto
sprogimo
spu
spygliuoc
sqrt
square
sr
sraige
sraigtasparniu
srautas
srauto
srautu
sri
sric
sriti
srities
sritimi
sritis
srityje
sritys
srityse
sriuba
srove
sroviui
sruoga
sruties
ss
sskp
ssr
ssrs
st
sta
staates
staats
stabdz
stac
stade
stadija
stadijoje
stadijos
stadion
stadiona
stadionas
stadione
stadiono
stadium
stai
staiga
staigas
staigiai
staigos
staigose
staigu
stais
staklis
stakliu
stalas
stalinas
stalino
stalo
stalupe
stama
stamas
stambios
stambiu
stambu
stambulo
stambus
stami
stamu
stanc
stand
standard
standarta
standartas
standartine
standartinis
standartiniu
standartizacijos
standarto
standartu
standartus
stanevic
stanford
stanislavas
stanislovas
stanislovo
stanisław
stankevic
stanley
stant
stanti
stantis
stantys
star
stara
starcraft
stare
stars
start
startavo
starto
stas
stase
stasio
stasiu
stasys
stat
statant
state
states
statine
statiniai
statinio
statiniu
statinys
statistical
statistics
statistika
statistikos
statistisch
statistisches
stato
statoma
statomas
statomi
statomos
statu
statula
statule
statulos
status
statusa
statusas
statuso
statutas
statyba
statybai
statybas
statybine
statybininkas
statybininku
statybiniu
statyboms
statybos
statybu
statyma
statymai
statymais
statymas
statyme
statymo
statymu
statymus
statyta
statytas
statyti
statytojas
staz
ste
stebe
stebi
stebimas
stebuklas
stebuklu
stefan
stefanas
stefano
steige
steigiamojo
steigimo
steigta
steigtas
steigti
steigto
steigtos
steiner
stele
steles
steliauja
steliauti
steliavo
steliu
stenge
stengiamasi
stengiasi
stepe
stephen
stepiu
steponas
steponavic
stepono
sterlingu
steve
steven
stewart
sti
stiebai
stiebas
stiebo
stiebu
stikline
stiklo
stiliaus
stiliu
stiliumi
stilius
still
stina
stinai
stinas
stine
stininka
stininkai
stininku
stipendija
stipraus
stipre
stipresne
stipri
stipria
stipriai
stipriausia
stipriausiu
stiprinti
stiprios
stipriu
stipru
stiprus
stis
stm
sto
stoc
stogas
stogo
stogu
stoja
stoje
stojimo
stojo
stokholme
stokholmo
stokos
stoma
stomas
stomi
stomu
stone
stonis
stop
stora
storas
store
stories
storio
storis
story
stos
stotele
stoti
stoties
stotis
stotyje
stotys
stove
stovi
stovinc
stovinti
stovintis
stovykla
stovyklas
stovyklaviete
stovykloje
stovyklos
stovyklose
str
straipsni
straipsniai
straipsnio
straipsnis
straipsniu
straipsnius
straipsnyje
strasbu
strategija
strategijos
strategine
strategis
strazdas
stre
street
striz
strong
stru
structure
struktu
struktura
stu
stuart
stuburo
stuc
studentai
studentams
studentas
studentu
studies
studija
studijas
studijavo
studijinis
studijoje
studijoms
studijos
studiju
studijuodamas
studijuoti
studio
studios
study
stulpu
stumbras
stume
stumia
stumti
stus
stutis
stuttgart
stydama
stydamas
stydave
stydavo
stydavus
stydavusi
stydavusia
stydavusiu
styginiu
stygos
stygu
style
styma
stymai
stymas
stymo
stymu
stys
stysia
stysianc
stysianti
stysiantis
stysima
stysimas
styta
stytas
styti
stytina
stytinai
stytinas
stytoja
stytojai
stytojas
stytojo
stytoju
stytos
stytu
stytume
su
suahiliu
suarchyvuota
suarchyvuotas
suarte
suauge
suaugusiems
suaugusiu
suazilandia
subac
subjektas
subjektu
subre
subsp
subu
suburta
subyre
suc
sud
suda
sudanas
sudane
sudano
sudaranc
sudarant
sudarantys
sudare
sudarine
sudaro
sudaroma
sudaromas
sudaromi
sudaromos
sudarydavo
sudarymo
sudaryta
sudarytas
sudaryti
sudarytoja
sudarytojai
sudarytojas
sudarytos
sudarytu
sudauz
sude
sudedamoji
sudege
sudegino
sudeginti
suderve
sudirba
sudirbo
sudirbti
suduva
suduz
sue
suecia
suformavo
suformulavo
suformuoja
suformuota
suformuotas
suformuoti
suformuotos
sugababes
sugalvoja
sugalvojo
sugalvoti
sugamina
sugamino
sugaminti
suge
sugeba
sugebe
sugeria
sugerti
suginc
sugirde
sugirdi
sugra
sugri
sugriauta
sugriautas
sugriauti
sugriove
suimtas
suimti
suirute
suiza
sujaudina
sujaudino
sujaudinti
sujunge
sujungia
sujungta
sujungtas
sujungti
sujungtos
sujungtu
sujungus
suka
sukasi
sukategorizuoti
sukaupe
sukaupta
sukc
suke
sukelia
sukelianc
sukelti
sukile
sukilima
sukilimas
sukilime
sukilimo
sukilimu
sukilimui
sukilo
sukilti
sukimosi
sukleste
suknele
sukonstravo
sukontroliavo
sukontroliuoja
sukontroliuoti
sukre
sukryz
sukti
suku
sukuria
sukurkite
sukurta
sukurtas
sukurti
sukurtos
sukurtu
sukyla
sula
sulaikyti
sulauke
sulaukia
sulaukusi
sulauz
sulc
sule
sullivan
sultonas
sultonatas
sultono
sultys
sum
suma
sumais
sumatros
sumaz
sumenko
sumigo
sumigti
suminga
summary
summer
sumoka
sumoke
sumontuoti
sumos
sumu
sumus
sun
sunaikino
sunaikinta
sunaikintas
sunaikinti
sunday
sunervina
sunervino
sunervinti
sunkaus
sunki
sunkia
sunkiai
sunkiau
sunkiojo
sunkios
sunkiosios
sunkiu
sunku
sunkumu
sunkus
sunkvez
sunyko
suom
suomija
suomijoje
suomijos
suomis
suomiu
suopis
suorganizavo
supa
supanc
supaprastinta
supaz
super
superlyga
superlygoje
supertaure
supiltas
support
supranta
suprantama
suprantamas
suprasti
supratima
supratimas
suprato
suprojektavo
suprojektuotas
sur
surado
suragina
suragino
suraginti
suras
surasti
suremontuota
surenge
surengta
surengtas
surengti
surengtos
surenka
surinam
surinamas
surinke
surinkimo
surinko
surinkta
surinkti
surinktus
surinkusi
suris
survey
sus
susan
susapnavo
susapnuoja
susapnuoti
susi
susia
susiaure
susibu
susidare
susidariusi
susidaro
susidarymo
susidaryti
suside
susideda
susidirba
susidirbo
susidirbti
susidome
susidu
susiduria
susieti
susiformave
susiformavo
susiformavusi
susiformuoja
susigalvoja
susigalvojo
susigalvoti
susigamina
susigamino
susigaminti
susige
susigeria
susigerti
susiginc
susigra
susijaudina
susijaudino
susijaudinti
susije
susijunge
susijungia
susijungus
susijusi
susijusias
susijusios
susijusiu
susijusius
susiklosc
susikloste
susiku
susilauke
susilieja
susiliejus
susilpne
susima
susimais
susimoka
susimoke
susinervina
susinervino
susinervinti
susipaz
susiras
susire
susirenka
susirgo
susirinkima
susirinkimas
susirinkime
susirinkimo
susirinkimu
susirinko
susiru
susis
susisapnavo
susisapnuoja
susisapnuoti
susisiekimo
susiskaite
susiskaito
susiskaityti
susiskolina
susiskolino
susiskolinti
susitare
susitarima
susitarimas
susitarimo
susitarimu
susitelke
susitikima
susitikimai
susitikimas
susitikime
susitikimo
susitikimu
susitikimus
susitikine
susitiko
susitikrina
susitikrino
susitikrinti
susitikti
susitinka
susituoke
susiu
susivagia
susivais
susivienijimas
susivienijimo
susivoge
susivogti
susivoke
susivokia
susivokti
susiz
suskaic
suskaite
suskaito
suskaityti
suskirstymas
suskirstymo
suskirstyta
suskirstytas
suskirstyti
suskirstytos
suskolina
suskolino
suskolinti
sustabde
sustabdyta
sustabdytas
sustabdyti
sustipre
sustiprino
sustiprinti
sustoja
sustojo
sustoti
sutampa
sutapo
sutarc
sutare
sutarta
sutarti
sutarties
sutartimi
sutartis
sutartyje
sutartys
suteike
suteikia
suteikiama
suteikiamas
suteikimo
suteikta
suteiktas
suteikti
suteiktos
suteka
sutelkti
sutiko
sutikrina
sutikrino
sutikrinti
sutikti
sutinka
sutinkama
sutinkamas
sutinkami
sutinkamos
sutrikimai
sutrikimas
sutrikimu
sutrius
sutrumpintai
sutuoktine
sutuoktinis
sutvarkyti
sutve
suvagia
suvaidino
suvais
suvalkijos
suvalku
suvarz
suvaz
suvienijo
suvienyti
suvoge
suvogti
suvoke
suvokia
suvokimas
suvokimo
suvokti
suz
sv
svajone
svajoniu
svalbard
svarba
svarbesne
svarbesni
svarbi
svarbia
svarbiausi
svarbiausia
svarbiausias
svarbiausios
svarbiausiu
svarbiausius
svarbios
svarbiu
svarbius
svarbos
svarbu
svarbus
svarste
svarstyti
svaru
sve
svec
sveika
sveikas
sveikata
sveikatai
sveikatos
sveiki
sveria
svetaine
svetima
svetimas
svetims
svetimu
svetur
sviesto
svirnas
svk
svogu
svori
svorio
svoris
svyruoja
sweet
swift
swiss
sy
sydney
syje
syk
syki
syn
sys
system
systems
słowian
słownik
t
ta
tabakas
tabako
tabas
table
tablesa
tablesb
tablesd
tablese
tablesf
tablesg
tablesi
tablesk
tablesl
tablesm
tablesn
tableso
tablesp
tablesr
tabless
tablest
tablesz
tabo
tabu
tac
tad
tada
tadas
tadeus
tadeusz
tadieni
tado
tadvario
tadz
tagalu
tai
taic
taigi
taika
taikant
taike
taikiai
taikiniu
taikinius
taiko
taikoma
taikomas
taikomi
taikomos
taikomosios
taikos
taikymas
taikymo
taikyti
tailandas
tailande
tailandia
tailando
taip
taipe
tais
taisas
taisiais
taisykle
taisykles
taisykliu
taisyti
taitijos
taivanas
taivane
taivano
taiwa
taiwan
taj
tajai
tajame
taju
taka
takai
takais
takas
take
takeli
takelis
takeliu
takes
takingiausiu
tako
takoja
takojo
takos
takoti
taksi
taktika
taku
takus
talas
talenta
talentas
talentu
talinas
taline
talino
talis
talk
talkino
tallat
tallinn
talo
talpa
talpina
talpos
talu
tam
tama
tamara
tamas
tame
tamil
tamilu
tamos
tampa
tampos
tamsa
tamsiai
tamsios
tamsiu
tamsoje
tamsos
tamsta
tamsu
tamsus
tan
tanc
tango
tankai
tankas
tanki
tankiai
tankio
tankis
tanko
tanku
tankumas
tankus
tant
tanti
tantis
tanzania
tanzanija
tanzanijos
tapatybe
tapdamas
tapdavo
tape
tapelke
tapo
taps
tapti
taptu
tapus
tapusi
tapyba
tapybos
tapyti
tapytoja
tapytojas
tapytoju
tar
tara
taras
tarasenka
tarauja
taraujama
taraujanc
taraujanti
taraujantis
taraus
tarausianc
tarausianti
tarauta
tarauti
taravo
tare
taria
tariama
tariamai
tariamas
tariant
tarimas
tarimo
tarm
tarme
tarmiu
tarnaite
tarnas
tarnauja
tarnauti
tarnautojas
tarnautoju
tarnavo
tarnyba
tarnybai
tarnyboje
tarnybos
tarnybu
tarp
tarpa
tarpas
tarpe
tarpine
tarpinis
tarpo
tarptautine
tarptautines
tarptautini
tarptautiniai
tarptautiniame
tarptautinio
tarptautinis
tarptautiniu
tarptautiniuose
tarptautinius
tarpu
tarpukario
tarpukariu
tarpukaryje
tarpusavio
tarpusavyje
tarpz
tarpzoninis
tars
tarsi
tarti
tartu
tartum
taryba
tarybai
tarybine
tarybiniais
tarybinio
tarybinis
tarybiniu
taryboje
tarybos
tarybu
tas
tasi
tasis
tat
tate
tatjana
tato
tau
tauja
tauje
taurage
tauragnu
tauras
taure
taurele
taures
tauriu
tauro
taus
tauta
tautai
tautas
tautavic
tauti
tautiec
tautine
tautininku
tautinio
tautinis
tautiniu
tautis
tautodailininkas
tautomis
tautoms
tautos
tautosaka
tautosakininkas
tautosakos
tautu
tautybe
tautybiu
tave
tavo
tayikista
taylor
tb
tbilisio
tc
te
team
teams
teatra
teatrai
teatras
teatre
teatro
teatru
teatrui
teatruose
tebe
tebuvo
tech
technika
technikas
technikos
technikuma
technikume
technikumo
technine
techninio
techninis
techniniu
technologas
technologija
technologijas
technologijos
technologiju
technology
tegu
tegul
tei
teige
teigia
teigiama
teigiamai
teigiamas
teigiamu
teigimu
teiginiai
teiginiu
teiginys
teigti
teike
teikia
teikiama
teikiamas
teikiamos
teikianti
teikimo
teikta
teiktas
teikti
teinas
teino
teis
teise
teises
teisine
teisinga
teisingai
teisingas
teisinguma
teisingumas
teisingumo
teisininkas
teisininke
teisininko
teisininku
teisinio
teisinis
teisiniu
teisinta
teisintas
teisis
teisiu
teisma
teismai
teismas
teisme
teismine
teismo
teismu
teismui
teisus
teisybe
teka
tekanc
tekanti
teke
tekliai
tekliu
teklius
teko
teks
teksaso
teksta
tekstai
tekstas
tekste
tekstile
teksto
tekstu
tekstuose
tekstus
tel
tele
telefonas
telefono
telefonu
telegrafo
telegraph
telekomunikaciju
teles
television
televizija
televizijoje
televizijos
teliai
telio
telionas
teliono
telis
teliu
telke
telkiniai
telkiniu
telkinys
telks
telmologinis
telpa
tels
telugu
tema
temas
tematika
tematikos
temomis
temos
temperatu
temu
ten
tenai
tendencija
tendencijos
tenisininkas
teniso
tenka
tenoras
tent
teodora
teodoras
teodoro
teologas
teologija
teologijos
teorema
teoretikas
teorija
teorijoje
teorijos
teoriju
teorine
teoris
ter
teraitis
terapija
terapijos
terasa
terasos
teresa
terese
teritorija
teritorijai
teritorijas
teritorijoje
teritorijos
teritorijose
teritoriju
teritorine
teritorinio
teritorinis
teritoriniu
termina
terminai
terminalas
terminas
termino
terminu
terpe
terpti
terra
territorio
terry
ters
tes
tese
tesne
tesni
tesnio
tesniojoje
tesniosios
tesnis
tesniu
test
testamentas
testamento
teta
texas
text
tf
tfa
th
tha
than
that
the
theatre
theft
their
theory
theplantlist
there
theta
they
things
third
this
thomas
thompson
thomson
three
through
ti
tibet
tibete
tibetiec
tibeto
tic
tica
tico
tie
tiec
tieji
tiek
tieke
tiekimo
tiekti
tiem
tiems
tiene
tierra
ties
tiesa
tiese
tiesiai
tiesiog
tiesiogiai
tiesiogine
tiesioginio
tiesioginis
tiesioginiu
tiesos
tiesti
tiesu
tiesus
tigras
tigro
tijos
tiju
tik
tikalne
tikalniu
tike
tiki
tikima
tikimasi
tikimybe
tikina
tikinama
tikinamas
tikinanc
tikinanti
tikinantis
tikinc
tikindave
tikindavo
tikindavusi
tikine
tikino
tikins
tikinsianc
tikinsianti
tikinsiantis
tikinsima
tikinsimas
tikinta
tikintas
tikinti
tikintieji
tikintina
tikintinas
tikinusi
tikisi
tiko
tikr
tikra
tikrai
tikrais
tikras
tikrasis
tikri
tikriausiai
tikrieji
tikrina
tikrinama
tikrinamas
tikrinanc
tikrinant
tikrinanti
tikrinantis
tikrindave
tikrindavo
tikrindavusi
tikrine
tikrinimas
tikrinimo
tikrinis
tikrino
tikrins
tikrinsianc
tikrinsianti
tikrinsiantis
tikrinsima
tikrinsimas
tikrinta
tikrintas
tikrinti
tikrintina
tikrintinas
tikrinusi
tikro
tikroje
tikroji
tikrojo
tikros
tikrosios
tikrove
tikru
tikrus
tiksla
tikslai
tikslais
tikslams
tikslas
tiksli
tiksliai
tiksliau
tiksliu
tikslo
tikslu
tikslui
tikslus
tiktai
tikyba
tikybos
til
tilde
tilta
tiltai
tiltas
tilto
tiltu
tilz
tim
timas
time
times
timi
timis
timo
timor
timoras
timoro
timu
tin
tina
tinai
tinas
tine
tinga
tingas
tingi
tingos
tingu
tingumas
tingumo
tini
tiniai
tininkas
tininku
tinio
tinis
tiniu
tinka
tinkama
tinkamai
tinkamas
tinkamos
tinkamu
tinkinta
tinkla
tinklai
tinklalapis
tinklalapyje
tinklaras
tinklas
tinklaviete
tinkle
tinklinio
tinklo
tinklu
tinklus
tino
tinoje
tinos
tinti
tinu
tinus
tinybe
tipa
tipai
tipas
tipis
tipo
tipu
tipus
tirane
tiraz
tiria
tiriama
tiriant
tirianti
tirks
tirpsta
tirs
tirta
tirtas
tirti
tis
tisai
tisus
titas
title
titula
titulai
titulas
titulo
titulu
titulus
tiurku
tm
to
tobagas
tobago
tobule
tobulinimo
tobulino
tobulinosi
tobulinti
today
tode
togas
togo
toja
tojai
tojais
tojams
tojas
toje
toji
tojo
tojoje
tojos
toju
tojui
tojus
tok
tokas
tokelau
toki
tokia
tokiais
tokiam
tokias
tokie
tokiems
tokijas
tokijo
tokijuje
tokio
tokiomis
tokios
tokiose
tokiu
tokiuose
tokius
toks
tokyo
tol
tolesne
tolesni
toli
toliau
toliausiai
tolima
tolimesne
tolimesni
tolimu
tolj
tolo
tolygiai
tolyn
tom
toma
tomai
tomas
tomatoes
tome
tomis
tomo
toms
tomu
tomy
tona
tonas
tonga
tonis
tono
tonu
tony
too
top
tope
topo
topographie
topographisch
topu
topuose
torino
toro
toronte
toronto
tos
tose
tosiomis
tosioms
tosios
tosiose
tota
total
toti
totoriai
totoriu
totyrininkas
totyros
tour
tovaizdis
tovaizdz
town
towns
toyota
tr
tra
track
trade
tradicija
tradicijas
tradicijomis
tradicijos
tradiciju
tradicine
tradiciniai
tradicinio
tradicinis
tradiciniu
tradicinius
tradicis
tragedija
tragedijos
tragis
trai
training
trakai
traku
trakuose
trama
tramvaju
tramvajus
trans
transfermarkt
translated
translation
transliteracija
transliuoti
transliuotojas
transnistria
transportas
transporto
tras
trasa
trasoje
trasos
trasu
trauka
trauke
traukia
traukiami
traukiant
traukiasi
traukiniai
traukinio
traukiniu
traukinys
traukos
traukta
trauktas
traukti
trauktis
trauktos
trauma
traumos
travel
tre
trec
tree
treju
trejus
trejybe
tremta
tremtas
tremti
tremties
tremtiniai
tremtiniu
tremtyje
trenere
treneriai
trenerio
treneris
treneriu
treniravo
treniruoc
treniruote
trenke
tres
tri
tribu
tribunolo
trijose
triju
trijuose
trikampe
trikampio
trikampis
trikampiu
trikotaz
trileris
trilogija
trimis
trimitas
trims
trinidad
trinidadas
trinidado
trio
tris
trisdes
triskart
trispalve
trista
triu
triuks
triumfas
triumfavo
triumfo
trius
troba
trobele
trofe
trojos
troks
tropine
tropinis
tros
tru
true
trukde
trukdo
truke
trukme
truko
trumpa
trumpai
trumpam
trumpametraz
trumpas
trumpesne
trumpi
trumpiau
trumpo
trumpos
trumpu
trunka
trupe
truputi
trus
trust
truth
tryks
trylika
trylikos
trys
ts
tskp
tsr
tsrs
tt
tu
tuberkulioze
tuc
tui
tukai
tukas
tuke
tukine
tuku
tulu
tulz
tum
tuma
tumas
tume
tumei
tumo
tumoje
tumos
tumose
tumu
tundra
tunelis
tunisas
tuniso
tunta
tuntajame
tuntasis
tuntojo
tuo
tuoj
tuojau
tuoju
tuomene
tuomet
tuometine
tuometinio
tuometinis
tuometiniu
tuoni
tuoniasdes
tuonios
tuonis
tuoniu
tuonmete
tuos
tuose
tuosiuose
tuosius
tuotas
tupi
tupio
tupiu
tupyje
tur
tura
turas
turbu
ture
turgaus
turgu
turgus
turi
turima
turime
turinc
turini
turinio
turiniu
turino
turint
turinti
turintiems
turintis
turintys
turinys
turistai
turistams
turistine
turistinis
turistu
turiu
turizmas
turizmo
turizmu
turk
turkai
turkija
turkijoje
turkijos
turkis
turkme
turkmenista
turku
turmanto
turmo
turn
turner
turnyra
turnyrai
turnyras
turnyre
turnyrine
turnyro
turnyru
turnyruose
turnyrus
turo
turqui
turta
turtas
turtinga
turtingas
turtingiausiu
turtingu
turto
turtu
turtus
turu
tus
tutine
tutinio
tutiniu
tuvalu
tuve
tuviu
tv
tvanka
tvankos
tvankstos
tvarka
tvarkaras
tvarke
tvarko
tvarkos
tvarkymo
tvarkyti
tvartas
tve
tvenkini
tvenkiniai
tvenkinio
tvenkiniu
tvenkinys
tvenkus
tvere
tverme
tvirta
tvirtai
tvirtas
tvirtina
tvirtinama
tvirtinimai
tvirtinimo
tvirtinimu
tvirtinimus
tvirtino
tvirtinta
tvirtintas
tvirtinti
tvirtove
tvora
tvoros
twanksta
twitter
two
ty
tybe
tybiu
tyc
tyje
tyla
tyle
tyli
tyliai
tylos
tyn
tynas
tyne
tyno
type
tyre
tyrima
tyrimai
tyrimais
tyrimams
tyrimas
tyrimo
tyrimu
tyrimuose
tyrimus
tyrine
tyrininkas
tys
tysc
tyste
tystei
tyszkiewicz
tytas
tyte
tyti
tyto
tytojo
tytuve
tz
tzell
u
ua
uab
ubu
ubuntu
uc
ucrania
ude
udikas
udo
udybe
udyma
udymo
udyne
udyniu
udyste
udyta
udytas
udyti
udz
uefa
uganda
ugandos
ugde
ugdymas
ugdymo
ugdyti
ugni
ugnies
ugnikalnio
ugnikalnis
ugnikalniu
ugnimi
ugnis
ui
uigu
uje
uju
uk
ukalne
ukas
ukauskas
uke
ukmerge
uko
ukr
ukraina
ukraine
ukrainian
ukrainiec
ukrainoje
ukrainos
ul
ule
uli
ulio
ulis
uliu
ultimate
ulyje
ulys
um
uma
umas
umeru
umo
umos
umu
un
una
und
under
une
unesco
uni
unido
unidos
unija
unijos
unik
unikali
unikaliu
unikalu
unikalus
union
unis
united
universal
universali
universalus
universe
universita
universiteta
universitetai
universitetas
universitete
universitetine
universiteto
universitetu
universitetui
universitetuose
university
unix
uno
uns
unu
unys
uo
uodega
uodegos
uogos
uogu
uoju
uola
uolai
uolas
uole
uoliai
uoliena
uolienos
uolienu
uoline
uolio
uolis
uoliu
uolo
uolos
uolu
uos
uose
uosius
uosta
uostai
uostas
uoste
uosto
uostu
uostus
uot
uote
up
upanis
upe
upeli
upeliai
upelio
upelis
upeliu
upes
upio
upiu
uploads
upoks
upynos
upyte
ur
uralo
uranas
urano
urban
urbanavic
urbanistika
urbanistikos
urbonas
urbonavic
urdu
ure
url
urm
urmaterialien
urnala
urnalas
urnale
urnalistas
urnaliste
urnalistika
urnalistikos
urnalisto
urnalistu
urnalo
urnalu
urnalui
urnaluose
urs
uruguay
urugvajaus
urugvajuje
urugvajus
urvas
urvu
urze
us
usa
usd
use
usi
usios
usiu
ust
utai
utc
ute
utena
utenis
utenoje
utenos
utine
utiniame
utinio
utinis
utiniu
utu
uva
uve
uvi
uvies
uvimis
uvininku
uvininkyste
uvio
uvis
uviu
uvo
uvoje
uvos
uvu
uvusiems
uvusiu
uvys
uz
uzbekija
uzbekijos
uzbekista
uzbeku
v
va
vabalai
vabalas
vabalninko
vabalu
vabzdz
vaclovas
vad
vada
vadai
vadas
vadina
vadinama
vadinamas
vadinamasis
vadinami
vadinamieji
vadinamo
vadinamoji
vadinamos
vadinamosios
vadinamu
vadinasi
vadino
vadinosi
vadinta
vadintas
vadinti
vadintos
vado
vados
vadova
vadovai
vadovas
vadovauja
vadovaujama
vadovaujamas
vadovaujami
vadovaujamos
vadovaujamu
vadovaujanc
vadovaujant
vadovaujantis
vadovauti
vadovave
vadovavima
vadovavimo
vadovavo
vadove
vadovo
vadovu
vadovybe
vadu
vadui
vaduoti
vadyba
vadybininkas
vadybos
vadz
vaga
vagia
vagiama
vagiamas
vagianc
vagianti
vagiantis
vagos
vai
vaic
vaidas
vaidina
vaidino
vaidinti
vaidmeni
vaidmenis
vaidmens
vaidmenu
vaidmenys
vaidmuo
vaidotas
vaidyba
vaidybos
vaigz
vaika
vaikai
vaikais
vaikams
vaikas
vaikinas
vaikinu
vaikis
vaiko
vaiks
vaiku
vaikui
vaikus
vaikyste
vaildas
vainikas
vainike
vainiku
vainiu
vairas
vairaus
vairi
vairiai
vairiais
vairias
vairiausiu
vairiems
vairiomis
vairioms
vairios
vairiose
vairiu
vairiuose
vairius
vairo
vairove
vairu
vairuotojas
vairuotojo
vairus
vais
vaisiai
vaisiais
vaisiaku
vaisiaus
vaisingumo
vaisiu
vaisius
vaislape
vaismedz
vaistai
vaistas
vaistine
vaistininkas
vaistu
vaistus
vaitieku
vaitkevic
vaitkus
vaiva
vaivada
vaivadija
vaivadijai
vaivadijoje
vaivadijos
vaivados
vaivoryks
vaiz
vaizda
vaizdai
vaizdas
vaizdavimo
vaizdavo
vaizdi
vaizdo
vaizdos
vaizdu
vaizduoja
vaizduojama
vaizduojamas
vaizduojami
vaizduojamos
vaizduojanc
vaizduote
vaizduoti
vaizdus
vaizdz
vakar
vakara
vakarai
vakarais
vakaras
vakare
vakariene
vakarietis
vakarine
vakariniame
vakarinio
vakarinis
vakariniu
vakaro
vakaru
vakaruose
vakarus
vakcina
vake
val
valaku
valanc
valanda
valandas
valande
valandos
valandu
valavic
valc
valda
valdanc
valdant
valdas
valde
valdemaras
valdininku
valdis
valdo
valdoma
valdomas
valdomi
valdomos
valdomu
valdos
valdose
valdova
valdovai
valdovas
valdove
valdovo
valdovu
valdovui
valdu
valdyba
valdyboje
valdybos
valdyma
valdymas
valdymo
valdyti
valdytojas
valdytojo
valdytoju
valdz
vale
valencia
valensijos
valentina
valentinas
valerija
valerijonas
valerijus
valga
valgas
valge
valgis
valgo
valgoma
valgomas
valgomi
valgomuosius
valgos
valgyba
valgybos
valgykla
valgymas
valgyti
valia
valios
valius
valiuta
valiutos
valiutu
valkininku
valley
valsc
valstiec
valstietis
valstija
valstijas
valstijoje
valstijos
valstijose
valstiju
valstybe
valstybei
valstybes
valstybine
valstybingumo
valstybini
valstybiniai
valstybiniame
valstybinio
valstybinis
valstybiniu
valstybinius
valstybiu
valteris
valtis
valu
valymo
valyti
vams
vamzdis
vamzdz
van
vanagas
vanc
vanda
vandeni
vandenilio
vandenilis
vandenis
vandeniu
vandeniui
vandens
vandenu
vandenvardinis
vandenyje
vandenyna
vandenynai
vandenynas
vandenyne
vandenyno
vandenynu
vandenys
vandenyse
vanduo
vandz
vanuatu
var
varc
vard
varda
vardai
vardais
vardan
vardas
vardijama
vardijamas
vardinti
vardis
vardo
vardu
vardus
vardz
vare
vargas
vargo
vargonai
vargonininkas
vargonininkavo
vargonininku
vargonu
vargs
vargu
varianta
variantai
variantas
variantu
variantus
variety
varikli
varikliai
varikliais
variklio
variklis
varikliu
variklius
vario
varis
varle
varliagyviu
varmijos
varna
varnas
varne
varniu
varnos
varomas
varpa
varpai
varpas
varphi
varpine
varpo
varpos
varpu
varpute
vars
vartai
vartais
varti
vartininkas
vartininko
vartininku
vartoja
vartojama
vartojamas
vartojami
vartojamos
vartojima
vartojimas
vartojimo
vartojo
vartota
vartoti
vartotinu
vartotojai
vartotojams
vartotojas
vartotojo
vartotoju
vartu
vartus
varyti
varz
vas
vasara
vasari
vasario
vasaris
vasaromis
vasaros
vasiliauskas
vasilijus
vaticano
vatikanas
vatikano
vau
vaz
vaza
vazos
vc
vda
vdr
vdu
ve
vec
ved
veda
vedai
vedama
vedanc
vedas
vedder
vede
vedija
vedijoje
vedijos
vedimo
vedu
vedus
vedybos
vedybu
vega
vei
veicarija
veicarijoje
veicarijos
veicaru
veida
veidai
veidas
veido
veidrodis
veidrodz
veidu
veik
veika
veikala
veikalai
veikalas
veikale
veikalu
veikalus
veike
veikia
veikiama
veikiamas
veikianc
veikiant
veikianti
veikiantis
veikiausiai
veikima
veikimas
veikimo
veikla
veiklai
veikloje
veiklos
veikos
veiksma
veiksmai
veiksmas
veiksmaz
veiksmo
veiksmu
veiksmui
veiksmus
veiksniai
veiksniu
veiksnys
veikti
veikusi
veikusios
veimaro
veisiasi
veisieju
veisimosi
veisle
veisliu
veiveriu
veivirz
veja
vejai
veju
vejyba
vejybos
vektoriaus
vektoriu
vektorius
vele
velge
velgia
velgiant
velgti
velic
veliuonos
velniai
velnias
velnio
velniu
velnus
velsas
velse
velso
veltui
velykos
velyku
venc
vene
venecija
venecijoje
venecijos
venera
veneros
venesuela
venesueloje
venesuelos
venetu
venezuela
veng
venge
vengia
vengiama
vengrai
vengrija
vengrijoje
vengrijos
vengru
vengruvo
vengta
vengti
veni
vens
venta
ventas
ventasis
vente
ventei
ventes
ventino
ventinta
ventintas
vento
ventoji
ventojo
ventoriaus
ventoriuje
ventos
ventosios
ventove
ventu
ventviete
ventykla
ventykloje
ventyklos
ventyklu
vepriu
vepsu
vera
verc
verde
verdi
verdis
vergai
vergove
vergu
verkiu
verlag
vermachto
veronika
vers
versalio
versija
versijas
versijoje
versijos
versiju
version
versla
verslas
verslininkas
verslininku
verslo
verslu
versme
versmiu
versta
verstas
versti
verstis
versus
vert
verta
vertas
verte
vertikaliai
vertima
vertimai
vertimas
vertimo
vertimu
vertina
vertinama
vertinamas
vertinami
vertinant
vertinga
vertingas
vertingu
vertinimas
vertinimo
vertinimu
vertino
vertinta
vertintas
vertinti
vertus
vertybe
vertybes
vertybiniu
vertybiu
verwaltungsgeschichte
very
verz
ves
vest
vesta
vestas
vestfalijos
vesti
vestine
vestiniai
vestos
vestuve
vestuves
vestuviu
veteranu
veterinarijos
vez
vfr
vgtu
vi
via
viac
viai
vic
vice
vicec
viceministras
vicente
vicepirmininkas
viceprezidentas
victor
victoria
victrix
vid
vida
vidas
vidaus
videnis
video
vidine
vidini
vidiniai
vidinio
vidinis
vidiniu
vidis
vidmantas
vidu
viduje
vidukle
viduramz
viduri
vidurine
vidurinio
vidurinis
viduriniu
vidurio
viduriu
vidurkis
vidurupio
vidurupyje
vidury
viduryje
vidurz
vidus
vidutine
vidutinio
vidutinis
vidutiniu
vidz
vie
viec
vieks
vien
viena
vienai
vienam
viename
vienas
vienask
vienaskaita
vienaskaitos
vienatve
vieneriu
vienerius
vieneta
vienetai
vienetas
vieneto
vienetu
vienetus
vieni
vienija
vienijanti
vieninga
vieningas
vieningos
vienintele
vieninteli
vieninteliai
vienintelis
vieninteliu
vienis
vienkiemius
vienna
vieno
vienoda
vienodai
vienodas
vienodi
vienodo
vienodos
vienoje
vienok
vienos
viens
viense
vientisa
vientisos
vienu
vienuole
vienuoliai
vienuolika
vienuolio
vienuolis
vienuoliu
vienuolyna
vienuolynai
vienuolynas
vienuolyne
vienuolyno
vienuolynu
vienybe
vies
viesa
viesai
viesiai
viesmec
viesos
viesti
viesu
viet
vieta
vietas
viete
vietima
vietimas
vietimo
vietine
vietiniai
vietiniais
vietininkas
vietinio
vietinis
vietiniu
vietinius
vietnam
vietnamas
vietname
vietnamiec
vietnamo
vietoj
vietoje
vietomis
vietos
vietose
vietovardis
vietovardz
vietove
vietoves
vietoviu
vietu
vievio
view
viez
vii
viii
vijo
viju
vikaras
vikaru
vikicitatos
vikicitatose
viking
vikingu
vikipedija
vikipedijoje
vikiteka
vikiz
viks
viktoras
viktorija
viktorijos
viktoro
vila
vilc
vile
vileis
vilgiu
vilgsnis
vilhelmas
vilhelmo
vilija
vilijampole
vilis
viliu
vilius
vilja
viljamas
viljamo
vilkai
vilkas
vilkavis
vilke
vilkijos
vilkmerge
vilko
vilku
vilkys
villa
vilma
vilna
vilniaus
vilniec
vilnios
vilniu
vilniuje
vilnius
vilnos
vilos
vilti
vilties
viltis
vilu
vin
vinas
vinc
vincas
vincent
vincentas
vincento
vinco
vingio
vingiuota
vinis
vinks
vino
vio
violeta
violetine
violonc
virblis
virdz
vire
virgilijus
virgin
virginija
virginijus
virgz
virks
virs
virsta
virti
virtine
virto
virtuali
virtualus
virtuve
virusas
viruso
virusu
virve
virz
vis
visa
visada
visados
visagino
visai
visais
visam
visame
visas
visasa
visata
visatos
visgi
visi
visiems
visis
viska
viskas
visko
viso
visoje
visokiu
visomis
visoms
visos
visose
visu
visuma
visuomene
visuomenei
visuomenine
visuomenininkas
visuomeninio
visuomeninis
visuomeniniu
visuomet
visuose
visuotinai
visuotine
visuotinio
visuotinis
visuotiniuose
visuotinojo
visur
visus
visz
vita
vitalijus
vitamino
vitaminu
vitas
vitebsko
vitkus
vito
vitraz
viu
viz
vizija
vizito
vks
vladas
vladimir
vladimiras
vladimiro
vladislavas
vladislovas
vladislovo
vlado
vle
vlkk
vlodavos
vls
vmatrix
vns
vnt
vo
vog
vogdave
vogdavo
vogdavusi
voge
vogs
vogsianc
vogsianti
vogsiantis
vogsima
vogsimas
vogta
vogtas
vogti
vogtina
vogtinas
vogusi
voice
vok
voka
vokalai
vokalas
vokaline
vokalinis
vokaliniu
vokalistas
vokaliste
vokalo
vokdave
vokdavo
vokdavusi
voke
vokia
vokiama
vokiamas
vokianc
vokianti
vokiantis
vokiec
vokietija
vokietijai
vokietijoje
vokietijos
vokietis
vokis
vokos
voks
voksianc
voksianti
voksiantis
voksima
voksimas
vokta
voktas
vokti
voktina
voktinas
voku
vokusi
vol
volapiuko
volfgangas
volgos
volkswagen
volksza
volsta
voluine
volume
volyne
vom
von
voras
voronez
voru
voruta
vos
vot
vovere
voyager
voz
vrd
vrk
vrm
vs
vu
vui
vulkanine
vus
vvmt
vw
vy
vyc
vydas
vydo
vydu
vykdant
vykdanti
vykdavo
vykde
vykdo
vykdoma
vykdomas
vykdomasis
vykdomi
vykdomoji
vykdomojo
vykdomos
vykdomosios
vykdyma
vykdymas
vykdymo
vykdyta
vykdytas
vykdyti
vykdytos
vykdz
vyke
vyki
vykiai
vykintas
vykio
vykis
vykiu
vykius
vyko
vyks
vyksta
vykstanc
vykstant
vykstantis
vykti
vykus
vykusi
vykusiame
vykusio
vykusioje
vykusios
vykusiose
vykusiu
vykusiuose
vyna
vynai
vynas
vyne
vyno
vynu
vynuoge
vynuogiu
vyr
vyra
vyrai
vyrams
vyras
vyrauja
vyraujanc
vyravo
vyresne
vyresni
vyresnioji
vyresniojo
vyresnis
vyresniu
vyresniuoju
vyresnysis
vyriausia
vyriausias
vyriausiasis
vyriausioji
vyriausiojo
vyriausiosios
vyriausiuoju
vyriausybe
vyriausybei
vyriausybiu
vyris
vyro
vyru
vyrui
vyrus
vys
vyskupai
vyskupas
vyskupija
vyskupijai
vyskupijos
vyskupo
vyskupu
vyskupui
vyskupyste
vyslos
vysokio
vyste
vysti
vystoma
vystomas
vystosi
vystyma
vystymasis
vystymo
vystymosi
vystyta
vystytas
vystyti
vystytis
vytas
vytautas
vytauto
vytautui
vyte
vytenis
vyti
vytis
vyturio
vyturys
vyz
vz
w
wa
wake
wales
walker
wall
wallis
walt
walter
wanderers
wang
want
war
warner
wars
warszawa
was
washington
watch
water
waters
wave
way
wayback
wayne
we
web
website
webster
week
weekly
welsh
were
werner
west
western
wga
what
when
where
which
white
who
why
wi
wie
wieku
wien
wii
wiki
wikimapia
wikipedia
wikisource
wild
wilen
wiley
wilhelm
will
william
williams
wilno
wilson
win
wind
windows
winners
wins
winter
with
without
wka
wo
wojewo
wola
wolf
wolfgang
wom
woman
women
wood
word
work
works
world
worldfootball
worowo
wp
wright
wrzes
wu
www
wydawnictwo
wykaz
wyniko
x
xbox
xe
xi
xico
xii
xiii
xiv
xix
xv
xvi
xvii
xviii
xx
xxi
xxii
xxiii
xxiv
y
ya
yahoo
yba
ybas
yboms
ybos
ybose
ybu
yc
ydai
ydama
ydamas
ydami
ydamos
ydams
ydas
ydave
ydavo
ydavus
ydavusi
ydavusia
ydavusiu
yde
ydi
ydru
ydu
ydus
ye
year
years
yemen
ygaic
ygi
ygiai
ygiavo
ygimantas
ygimanto
ygio
ygis
ygiu
ygius
ygyje
yi
yibuti
yje
yk
ykle
yla
ylakiu
ylavos
ylis
yma
ymai
ymas
ymaus
yme
ymesni
ymi
ymiai
ymiais
ymiausi
ymiausia
ymiausias
ymiausiu
ymima
ymimas
ymimi
ymimoji
yminc
ymintis
ymis
ymiu
ymius
ymo
ymu
ymui
ymuose
ymus
ymybe
yn
yna
ynai
ynas
yne
yno
ynu
ynuose
yo
york
you
young
your
youtube
ypac
ypatinga
ypatingai
ypatingas
ypatingo
ypatingu
ypatybe
ypatybiu
yr
yra
yras
yre
yro
ys
ysia
ysianc
ysiant
ysianti
ysiantis
ysima
ysimas
ysimu
ysiu
yste
yta
ytais
ytame
ytas
yte
yti
ytina
ytinai
ytinas
ytine
ytiniu
ytiniuose
ytinu
ytis
yto
ytoja
ytojai
ytojas
ytoje
ytojo
ytojoje
ytojos
ytoju
ytojui
ytos
ytu
ytume
ytus
yu
yz
z
za
zabiela
zai
zakristija
zalgiris
zambia
zambija
zambijos
zambruvo
zaporoz
zapys
zarasai
zarasu
zas
zaus
zavis
ze
zealand
zef
zelanda
zelandija
zelandijoje
zelandijos
zelenogradsko
zenonas
zeppelin
zero
zi
zigmantas
zigmanto
zigmas
zija
zijai
zijoje
zijos
zimbabue
zimbabve
zinkevic
zis
zita
zmones
zo
zona
zonas
zone
zonoje
zonos
zonose
zonu
zoologija
zoologijos
zos
zu
zubrickas
zuitu
zulu
zum
zur
zurich
zus
zyle
{
|
}
~
¡
£
§
©
«
¬
­
®
¯
°
±
²
³
´
µ
·
¹
º
»
½
¿
×
æ
ð
ø
đa
ı
ł
ŋ
ɔ
ə
ɛ
ʃ
ʒ
ʔ
ʰ
ʲ
ʷ
ʹ
ʻ
ʼ
ʾ
ʿ
ˀ
ˈ
ˌ
ː
˥
˧
˨
˩
̀
́
̂
̃
̄
̆
̇
̈
̉
̊
̋
̌
̍
̏
̑
̓
̔
̗
̛
̞
̣
̥
̦
̧
̨
̪
̭
̮
̯
̰
̱
̲
̸
͂
ͅ
͡
α
αι
β
γ
δ
ε
ζ
η
θ
ι
κ
λ
μ
ν
ξ
ο
π
ρ
ς
σ
τ
υ
φ
χ
ψ
ω
ϕ
ϵ
а
александр
алфавитныи
архивы
ассоров
б
большая
брокгауза
бывшеи
в
вебер
виленская
виленскои
вильна
во
водоемы
вои
волостеи
волость
вольтеръ
восточнои
вып
вялікае
г
гаврилова
географическии
географическо
географіи
гл
года
годъ
гошкевич
губерн
губернскаго
губерніи
губернія
губин
д
данными
для
е
европеи
ефрона
ж
з
за
и
из
изд
издательство
империи
институт
исконных
истории
историко
история
их
к
ка
каждомъ
как
калинингр
калининград
калининграда
калининградские
калининградскои
карта
кн
книжка
княства
ковенскои
ковна
краткии
края
л
літоу
м
макаренко
матеріалъ
медведева
меньшинств
мира
мифы
мн
москва
мѣстъ
н
на
названия
наименовании
народов
народы
населения
населенные
населенныхъ
наука
научнои
нахтигаль
не
ни
о
области
он
от
оффиціальнымъ
п
палмаи
памятная
пашкоу
перешедшеи
петербургъ
по
под
полныи
поселение
поселеніи
правленія
предложение
прежние
пруссии
пункты
р
раи
рассеянных
ред
редактор
реки
религии
россии
русификации
рэд
с
санктпетербургъ
свѣдѣниямъ
севернои
семушина
скае
ская
скии
скои
словарь
со
собралъ
советская
сост
состав
составленныи
спб
списки
списокъ
спр
ссср
статистическии
статистическими
стр
сувалкскои
т
тис
том
топонимика
тре
ть
тіпографія
у
украі
ф
х
ц
ч
части
ш
шахматы
шников
шчына
ъ
ы
ь
э
энциклопедическии
энциклопедия
энцыклапедыя
этнических
этнографическои
ю
я
язык
языки
і
інш
ְ
ֲ
ִ
ֵ
ֶ
ַ
ָ
ֹ
ּ
־
ֿ
ׁ
ׂ
א
ב
ג
ד
ה
ו
ח
י
ל
מ
ן
נ
ע
פ
ר
ש
ת
ا
ب
ة
ت
ج
د
ر
س
ش
ع
ف
ق
ك
ل
م
ن
ه
و
ي
ٌ
َ
ُ
ِ
ّ
ْ
ٓ
ٔ
ٕ
ی
ނ
ރ
އ
ސ
ަ
ާ
ި
ު
ް
ँ
ं
ः
क
ख
ग
घ
च
छ
ज
ट
ड
ण
त
थ
द
ध
न
प
फ
ब
भ
म
य
र
ल
व
श
ष
स
ह
़
ा
ि
ी
ु
ू
ृ
े
ै
ॉ
ो
ौ
्
ং
ক
গ
চ
জ
ট
ড
ত
দ
ন
প
ব
ভ
ম
য
র
ল
শ
ষ
স
হ
়
া
ি
ী
ু
ে
্
ਪ
ਰ
ਲ
ਸ
ਾ
ਿ
ੀ
ੁ
ੰ
ੱ
ં
ન
ય
ર
સ
ા
િ
ી
ુ
ો
્
க
ங
ச
ட
த
ந
ன
ப
ம
ய
ர
ற
ல
ள
வ
ா
ி
ீ
ு
ூ
ெ
ே
ை
்
ం
క
గ
చ
జ
ట
డ
త
ద
న
ప
బ
మ
య
ర
ల
వ
ష
స
హ
ా
ి
ీ
ు
ూ
ె
ే
ొ
ో
్
ౖ
ಂ
ಕ
ಟ
ನ
ಬ
ಯ
ರ
ಲ
ಸ
ಹ
ಾ
ಿ
ು
ೂ
ೆ
್
ೕ
ം
ക
ച
ട
ണ
ത
ദ
ന
പ
മ
യ
ര
റ
ല
ള
വ
ശ
സ
ാ
ി
ീ
ു
ൂ
െ
േ
്
ක
න
ල
ව
ස
්
ා
ැ
ි
ු
ෙ
ก
ง
ด
ต
ท
น
บ
พ
ม
ย
ร
ล
ว
ส
ห
อ
ั
า
ิ
ี
ื
ุ
ู
็
่
้
์
ງ
ດ
ນ
ມ
ັ
າ
ິ
ີ
ື
ູ
ົ
່
້
་
།
ཀ
ཁ
ག
ང
ཆ
ཇ
ཏ
ཐ
ད
ན
པ
བ
མ
ཚ
འ
ཡ
ར
ལ
ཤ
ས
ཨ
ཱ
ི
ུ
ེ
ོ
ྐ
ྒ
ྟ
ྡ
ྤ
ྩ
ྱ
ྲ
ླ
ྷ
က
ခ
င
စ
တ
န
ပ
မ
ရ
လ
သ
အ
ါ
ာ
ိ
ီ
ု
ူ
ေ
ံ
့
း
္
်
ျ
ြ
ွ
ှ
ក
គ
ង
ច
ដ
ត
ទ
ន
ប
ព
ម
យ
រ
ល
វ
ស
អ
ា
ិ
ី
ុ
ូ
ួ
េ
ែ
ំ
ះ
់
្
​
‌
‍
‎
‏
‑
‒
–
—
―
‖
‘
’
‚
“
”
„
†
‡
•
…
‰
′
″
‴
⁄
⁡
ⁿ
₁
₂
₃
€
ℏ
№
™
←
↑
→
↓
↔
↷
∀
∂
∃
∇
∈
∑
−
∗
∘
√
∞
∧
∨
∫
∬
∭
∮
≈
≡
≤
≥
⊕
⋅
⋯
③
④
⑦
─
█
►
♠
⟨
⟩
ⰰ
ⰵ
ⱁ
ⱃ
ⱅ
ⱏ
ⱐ
ⲁ
ⲉ
ⲟ
ⲣ
ⴰ
ⵉ
ⵎ
ⵏ
ⵓ
ⵔ
ⵙ
ⵜ
⺀
⺄
⺆
⺈
⺊
⺌
⺕
⺝
⺸
⺼
⿰
⿱
⿲
⿳
⿴
⿵
⿶
⿷
⿸
⿹
⿺
⿻
、
。
「
」
〢
あ
ぃ
い
ぅ
う
ぇ
え
お
か
き
く
け
こ
さ
し
す
せ
そ
た
ち
っ
つ
て
と
な
に
ぬ
ね
の
は
ひ
ふ
へ
ほ
ま
み
む
め
も
ゃ
や
ゅ
ゆ
ょ
よ
ら
り
る
れ
ろ
ゎ
わ
を
ん
゙
゚
ァ
ア
ィ
イ
ゥ
ウ
ェ
エ
オ
カ
キ
ク
ケ
コ
サ
シ
ス
セ
ソ
タ
チ
ッ
ツ
テ
ト
ナ
ニ
ヌ
ネ
ノ
ハ
ヒ
フ
ヘ
ホ
マ
ミ
ム
メ
モ
ャ
ヤ
ュ
ユ
ョ
ヨ
ラ
リ
ル
レ
ロ
ヮ
ワ
ン
・
ー
㇁
㇂
㇄
㇇
㇈
㇉
㇓
㐁
㐄
㐅
㐌
㐫
㐬
㐭
㐮
㐱
㑒
㒵
㒸
㒼
㓁
㓞
㔾
㕛
㕣
㖾
㘝
㚅
㚇
㚔
㚘
㝉
㝡
㝴
㝵
㞋
㞢
㞷
㠩
㠭
㠯
㡀
㡭
㡿
㢲
㢴
㣇
㣺
㥯
㪅
㫄
㫐
㫒
㫺
㬅
㬎
㬥
㬰
㲋
㳄
㷠
㸒
㸚
㸦
㼌
㼲
㽞
㿟
䀠
䂞
䍃
䏍
䒑
䖍
䖒
䖝
䖵
䙴
䚻
䜌
䝿
䡛
䧹
䪞
一
丁
丂
七
丄
丅
丆
万
丈
三
上
下
丌
不
与
丏
丐
丑
专
且
丕
世
丘
丙
业
东
丞
丢
丣
两
严
並
丨
丩
个
丫
丬
中
丮
丰
丱
串
丵
丶
丷
丸
丹
为
主
丽
丿
乀
乂
乃
久
乆
乇
么
义
之
乌
乍
乎
乏
乐
乑
乔
乖
乗
乘
乙
乚
乛
乜
九
乞
也
习
乡
乳
乾
亀
亅
了
亇
予
争
事
二
亍
于
亏
亐
云
互
亓
五
井
亘
亚
亜
亞
亟
亠
亡
亢
交
亥
亦
产
亨
亩
享
京
亭
亮
亯
亰
亲
亳
亶
亷
人
亻
亼
亾
仁
今
介
仌
从
仐
仑
仒
仓
仕
他
付
仝
代
令
以
任
企
伊
伏
伐
休
会
伯
但
位
体
何
佘
余
作
佥
使
來
侈
侌
侖
侯
侵
便
俄
保
俞
信
修
倉
倍
候
倠
備
僉
僕
儿
兀
允
兂
元
兄
充
兆
兇
先
光
兊
克
兌
免
兑
兒
兓
兔
党
兜
兟
入
全
兩
兪
八
公
六
兮
兰
共
关
兵
其
具
典
兹
兼
冀
冂
冃
冄
内
冈
冉
冊
冋
册
再
冎
冏
冐
冒
冓
冖
冗
冘
军
农
冝
冡
冥
冫
冬
冷
几
凡
凢
凵
凶
凷
凸
凹
出
函
凾
刀
刁
刂
刃
刄
刅
分
切
刍
刑
刕
刖
列
刘
则
初
別
利
别
到
制
刺
則
削
剌
前
剡
剽
劉
力
功
加
劦
助
劫
劳
劵
勃
勇
勉
勒
動
務
勞
勤
勹
勺
勻
勾
勿
匀
匂
包
匆
匈
匊
匋
匍
匕
化
北
匚
匝
匡
匪
匱
匸
匹
区
医
匽
匿
區
十
卂
千
卄
卅
卆
升
午
卉
半
卌
华
卑
卒
卓
单
卖
南
卜
卝
卞
占
卡
卢
卣
卤
卦
卩
卪
卬
卯
印
危
即
却
卵
卷
卸
卻
厂
厃
厄
历
厈
厉
厌
厓
厘
厚
原
厤
厥
厨
厭
厲
厶
厷
厸
去
厼
厽
叀
参
參
叅
又
叉
及
友
双
反
叐
发
叒
叔
叕
取
受
叚
叜
叟
口
古
句
另
叩
只
召
可
台
叱
史
右
叵
号
司
叹
吂
各
吅
合
吉
吊
吋
同
名
后
吏
向
吕
君
吝
吞
否
含
启
吳
吴
吹
吾
呂
呆
呈
告
员
呙
周
命
咅
和
咎
咠
咢
咨
咸
咼
哀
品
哈
哉
員
哥
哲
唐
商
啇
問
啚
啬
啻
善
喜
喬
單
喿
嗇
器
噩
嚴
囊
囗
囘
囙
囚
四
回
囟
因
囧
囬
困
囱
囷
固
国
圂
圅
國
圍
園
圓
土
圡
圣
圥
在
圭
地
圶
圼
坐
坒
坚
坴
垂
垔
垚
埀
埋
城
埶
執
基
堂
堅
堆
堇
堯
場
塔
塞
墨
壘
士
壬
壯
声
壳
壴
壹
壺
壽
夂
处
夅
夆
备
夊
夋
夌
复
夏
夒
夕
外
夗
夘
多
夜
夢
大
夨
天
太
夫
夬
夭
央
失
夲
头
夷
夸
夹
夻
夾
奂
奄
奇
奈
奉
奎
奏
奐
契
奓
奔
奚
奞
奠
奢
奥
奭
女
奴
奻
好
如
妄
妙
妟
妥
妻
妾
姑
委
姜
威
娄
婁
婴
嬰
嬴
子
孑
孔
孕
孖
字
存
孚
孛
孝
孟
季
孤
学
孫
孱
學
宀
宁
宂
它
宅
宇
守
安
宋
完
宏
宓
宗
官
定
宛
宜
宝
客
宣
室
宮
宰
害
家
容
宾
宿
寄
寅
密
富
寒
察
寧
審
寫
寬
寮
寸
对
寺
寻
寽
対
寿
封
尃
射
将
將
專
尉
尊
尋
尌
對
小
少
尒
尓
尔
尖
尗
尚
尞
尢
尣
尤
尧
尨
尭
就
尸
尹
尺
尻
尼
尽
尾
尿
局
居
屈
屋
屎
屏
屑
展
屖
屚
属
屠
屡
屬
屮
屯
屰
山
屵
屾
岁
岂
岑
岡
岩
岳
岸
峯
島
崇
崑
崔
崖
崙
崩
嵬
嶲
巂
巛
川
州
巟
巠
巢
巤
工
左
巧
巨
巩
巫
差
己
已
巳
巴
巷
巸
巽
巾
巿
帀
市
布
希
帚
帛
帝
带
師
席
帶
常
干
平
年
幵
并
幷
幸
幺
幻
幼
幽
幾
广
広
庄
床
底
店
庚
府
度
庫
庭
庶
康
庸
廉
廌
廛
廣
廩
廴
延
廷
建
廾
廿
开
弁
弃
弄
弇
弋
式
弓
弔
引
弗
弘
弜
弟
弥
弦
弱
張
強
强
彊
彌
彎
彐
彑
当
彔
录
彖
彗
彡
形
彥
彦
彧
彭
彳
役
彼
往
待
律
後
徒
得
徙
從
復
微
徳
徵
德
心
忄
必
忌
忍
志
忝
忠
忩
快
念
忽
忿
怒
思
怠
急
性
怱
恆
恒
恩
恭
息
悉
患
悤
悲
悶
惠
惡
惢
想
愁
愈
意
愛
感
慈
態
慧
慮
憂
憲
應
戀
戈
戉
戊
戋
戌
戍
戎
成
我
戒
戔
或
戚
戠
戢
戦
截
戲
戶
户
戸
戹
戼
戾
房
所
扁
扇
手
扌
才
打
托
执
承
折
拉
拜
拿
指
掌
推
提
摩
支
攴
攵
收
攸
改
放
政
敄
敏
敕
敖
敗
教
敝
敞
敢
散
敦
敫
敬
数
敷
數
斂
文
斉
斊
斗
料
斤
斥
斩
斬
斯
新
方
於
施
斿
旁
旋
族
无
旡
既
旣
日
旦
旧
旨
早
旬
旱
旲
时
旾
昆
昇
昌
昍
明
昏
易
昔
昗
昜
星
春
昬
是
昱
昴
昷
時
晃
晋
晏
普
景
晶
智
暑
暴
曇
曩
曰
曲
曳
更
曷
書
曹
曼
曾
替
最
朁
會
月
有
朋
服
朔
朕
朗
望
朝
期
木
朩
未
末
本
札
朮
术
朱
朵
朶
朿
杀
杏
村
杜
束
条
来
東
杲
杳
松
析
林
枚
果
枝
枲
枼
某
柔
查
柬
柰
柴
栗
株
根
格
桀
桑
桼
梁
條
梟
梨
棘
棠
棥
森
楚
業
楽
榮
樂
樊
機
欠
次
欣
欮
欲
欶
欽
款
歆
歇
歌
歛
止
正
此
步
武
歨
歪
歮
歯
歰
歲
歴
歷
歸
歹
歺
死
殳
段
殷
殸
殹
殺
殻
殿
毋
毌
母
每
毒
比
毕
毚
毛
毳
氏
氐
民
气
気
氣
水
氵
氶
氷
永
氺
氾
求
汝
汞
江
沃
沓
沙
沝
河
治
泉
法
波
泣
泥
泰
洋
洛
津
洪
洲
活
派
流
浦
浪
浮
海
淡
淮
深
清
渚
渠
港
湖
湯
滿
漢
漸
澳
灣
火
灬
灭
灰
灵
灷
炅
炎
炏
炗
炙
炭
点
為
烈
烏
烝
焉
無
焦
焱
然
煞
熊
熏
燕
營
燮
爪
爫
爭
爯
爰
爱
爲
爵
父
爻
爽
爾
爿
片
牙
牚
牛
牜
牟
牢
牧
物
牪
特
牽
犀
犬
犭
犮
狂
狄
狊
独
狺
猋
猒
猪
献
獻
玄
率
玉
王
玟
玨
珎
班
球
理
琴
瑟
瑩
瓜
瓦
甘
甚
生
産
用
甫
甬
田
由
甲
申
电
甶
男
甸
甹
町
画
甾
畀
界
畏
畐
留
畜
畟
畢
略
畧
畨
番
畫
異
畱
當
畺
畾
疊
疋
疌
疑
疒
疾
癶
癸
癹
発
登
發
白
百
皀
皃
的
皆
皇
皋
皐
皕
皮
皷
皿
盃
盆
盇
盈
益
盍
盎
监
盒
盖
盛
盡
監
盤
盧
目
直
相
盾
省
眇
眉
看
県
眔
眞
真
眷
眼
眾
着
睘
睪
睿
瞏
瞢
瞿
矍
矛
矞
矢
矣
知
矦
短
石
破
碎
磊
磨
示
礻
礼
社
祖
神
祟
票
祭
禀
禁
福
禸
禹
禺
离
禽
禾
禿
秀
秃
秉
秋
科
秝
秦
移
稟
穀
穌
穴
究
穹
空
穿
突
窄
窒
立
竒
竜
竝
竟
章
童
竹
笑
笠
第
筆
等
答
箕
算
箴
節
篤
篭
米
粉
粛
粟
粤
粦
粲
糞
糸
糹
系
紀
約
納
素
索
紫
累
細
結
絜
絫
絲
絵
維
綿
縣
繇
纍
纟
缶
网
罒
罔
罕
罗
罙
罡
罢
罪
署
罷
羅
羊
羌
羍
美
羔
羕
羗
羞
羡
羣
群
義
羲
羸
羽
翁
翏
習
翕
翟
翠
翼
老
耂
考
者
耆
而
耎
耑
耒
耳
耴
耶
耷
聂
聊
聖
聚
聶
聿
肀
肃
肅
肉
肖
肙
肥
肩
肯
育
肴
胃
背
胡
胥
能
脊
脩
膚
臣
臤
臧
自
臬
臭
臯
臱
至
致
臺
臼
臽
臾
臿
舀
舂
舄
與
興
舉
舌
舍
舛
舜
舞
舟
般
艮
良
色
艸
艹
艾
芒
芔
芬
芮
花
芳
芺
芻
苔
苗
苟
若
苦
英
茶
茸
荅
草
荒
荣
荼
莆
莧
莫
莽
菆
菊
菐
菜
華
萬
落
葉
著
葛
董
葵
蒙
蒦
蒼
蓋
蓬
蓺
蔑
蔡
蕉
蕭
薄
薛
薦
薰
藍
藏
藤
藥
蘭
虍
虎
虐
虒
虔
處
虖
虗
虘
虚
虛
虜
虞
虫
虽
蚤
蚩
蜀
蜜
蟲
蠡
血
行
衍
術
衛
衣
衤
表
衮
衰
袁
袞
褭
褱
襄
襾
西
覀
要
覃
見
規
覓
覧
親
覽
见
角
解
言
訁
訇
計
記
詞
話
詹
語
誩
読
論
諸
讠
话
语
说
谷
豆
豈
豊
豐
豕
豖
豙
象
豦
豩
豪
豸
貇
貝
貞
貟
負
貢
貧
貪
貫
責
貳
貴
買
費
賁
資
賈
賏
賓
賔
賛
賞
賢
賣
質
賴
贊
贝
贡
责
贯
贲
贵
赖
赞
赤
赦
走
越
足
路
蹇
身
躬
車
軍
軎
軟
輦
车
辛
辜
辟
辥
辰
辱
農
辵
辶
边
达
过
近
连
迷
追
退
送
逆
逐
通
速
造
逢
連
逮
進
遀
遂
過
道
達
遣
適
遷
遺
邊
邑
邕
那
邦
邪
郎
郡
部
郭
都
鄉
酉
酋
配
酓
酸
釆
采
里
重
野
量
金
釒
鉛
銀
錢
钅
長
镸
长
門
閃
閉
開
閏
閑
閒
間
閔
関
閵
閻
闌
门
间
闷
阑
阜
阝
阳
阿
降
陳
陽
隆
隊
隋
隡
隨
隱
隶
隹
隺
隻
隼
隽
难
雀
雁
集
雈
雋
雍
雐
雔
雙
雚
雜
雝
離
難
雨
雩
雪
雲
零
雷
電
需
霍
霜
霝
霞
霸
靈
靑
青
非
靡
面
靣
革
韋
韦
韭
韯
韱
音
頁
頃
項
須
頗
頡
頭
頻
顛
類
页
風
风
飛
飞
食
飠
養
館
饣
首
香
馬
馮
駦
马
骨
高
髟
鬥
鬯
鬲
鬼
魚
魯
鮮
鱼
鲁
鳥
鳳
鸟
鹵
鹿
麃
麗
麥
麦
麻
黃
黄
黍
黎
黑
黒
黨
黹
黽
黾
鼎
鼓
鼠
鼻
齊
齋
齐
齒
齿
龍
龙
龜
龟
龠
龰
龱
龴
龵
龶
龷
龸
龹
ꙑ
ꭰ
ꭲ
ꭶ
ꭹ
ꮅ
ꮎ
ꮝ
ꮵ
者
艹
️
﻿
（
）
？
𐌰
𐌲
𐌷
𐌹
𐌻
𐌽
𐌿
𐍂
𐍃
𐍅
𒀭
🏆
🛡
𠀁
𠀃
𠀆
𠀉
𠀎
𠀐
𠁁
𠁣
𠂆
𠂇
𠂈
𠂉
𠂊
𠂋
𠂎
𠂒
𠂔
𠂛
𠂡
𠂢
𠂤
𠂬
𠂭
𠂹
𠃊
𠃋
𠃌
𠃍
𠃎
𠃑
𠃓
𠃔
𠃜
𠄌
𠄎
𠄠
𠄢
𠆢
𠆥
𠇍
𠈌
𠌵
𠓜
𠔉
𠔥
𠔼
𠔽
𠔿
𠕀
𠕁
𠕋
𠘧
𠘨
𠙻
𠙼
𠚏
𠚒
𠚤
𠚪
𠣏
𠤎
𠤕
𠥓
𠦄
𠦑
𠦝
𠧒
𠧗
𠧪
𠩺
𠪚
𠫓
𠫔
𠫤
𠬛
𠬝
𠬞
𠬢
𠬤
𠬶
𠮛
𠮦
𠮷
𠯑
𠱠
𠳮
𠷎
𡈼
𡉀
𡉵
𡌥
𡍮
𡏳
𡕒
𡕩
𡕰
𡖅
𡗗
𡗜
𡘆
𡘤
𡧱
𡨄
𡩧
𡬠
𡭽
𡰣
𡰥
𡰪
𡰯
𡰱
𡷈
𡸁
𡿨
𡿩
𡿪
𡿺
𢀖
𢀛
𢀩
𢁙
𢆉
𢆰
𢆶
𢇁
𢇇
𢉖
𢌬
𢌿
𢏚
𢑑
𢑚
𢖻
𢙣
𢛳
𢦏
𢦒
𢧵
𢼄
𢾕
𣁋
𣄼
𣅀
𣅽
𣍘
𣎳
𣎵
𣏋
𣏼
𣗥
𣥂
𣥖
𣦵
𣦼
𣧄
𣪊
𣪠
𣬉
𣳾
𣶒
𤇾
𤊽
𤐫
𤓰
𤔔
𤕨
𤣩
𤰇
𤰔
𤰞
𤴓
𤴔
𤽄
𥁑
𥁕
𥃦
𥃩
𥃭
𥇡
𥑟
𥘅
𥘈
𥝢
𥫗
𥱡
𦈢
𦉪
𦉬
𦉼
𦍌
𦍒
𦎧
𦐇
𦓔
𦔮
𦘒
𦙃
𦚏
𦣝
𦣞
𦣻
𦥑
𦥔
𦥯
𦨉
𦭝
𦰩
𧆞
𧈧
𧘇
𧰨
𧴪
𧴮
𧵩
𧾷
𨸏
𨾴
𩙿
𩠐
𩫏
𩵋
𪉷
𪜀
𪟽
𪠲
𪩲
𫇦
𫔭
𫜸
𫝀
𫠣
𫠩
𫢉
𫥞
𫩏
𫩠
𫪡
𫲽
𫶧
𬀷
𬐘
𬗌
𬙙
𬛸
𬜯
𬟩
𬯁
𬴘
𬺻
𬼉
𬼖
𭀰
𭁈
𭁨
𭅰
𭑈
𭕄
𭗼
𭤨
𭥫
𭻾
𮅕
𮊿
𮍌
𮍏
𮓗
𮥼
𮧮
廾
𰀁
𰀄
𰀈
𰀉
𰀕
𰀠
𰀡
𰀢
𰀪
𰁜
𰃮
𰆊
𰆘
𰋙
𰕎
𰢴
𰧭
𰯲
00--
01--
02--
03--
04--
05--
06--
07--
08--
09--
34--
35--
36--
37--
38--
39--
40--
42--
43--
44--
45--
46--
47--
48--
49--
50--
51--
52--
53--
54--
55--
56--
57--
58--
59--
60--
61--
62--
63--
64--
65--
66--
67--
68--
69--
70--
71--
72--
73--
74--
75--
76--
77--
78--
79--
80--
81--
82--
83--
84--
85--
86--
87--
88--
89--
90--
91--
92--
93--
94--
95--
96--
97--
98--
99--
a--
aa--
ab--
aba--
abcha--
abd--
abe--
abejo--
abi--
abis--
abla--
ablaktiruo--
ablaktu--
ablaktuo--
abo--
abori--
abra--
absol--
abstr--
abstrah--
abstrahuo--
ac--
ach--
achi--
achmat--
act--
ad--
ada--
adam--
adapt--
adaptuo--
ade--
adju--
admi--
ado--
ae--
aero--
aeron--
af--
afri--
ag--
aglomerac--
agra--
agres--
agresy--
agricul--
agron--
agur--
ah--
ai--
aikovs--
air--
ais--
aitv--
aiz--
aja--
aje--
ak--
aka--
akadem--
akci--
akcinin--
ake--
aki--
akmen--
aknia--
ako--
akred--
akrob--
akt--
aktu--
akty--
aku--
akuo--
akus--
akvar--
al--
ala--
alb--
aldy--
ale--
alego--
aleks--
aleksand--
alerg--
alge--
algir--
algo--
ali--
alie--
alini--
alins--
aliu--
alka--
alkoho--
alks--
all--
alma--
alo--
alpi--
als--
alta--
alter--
alti--
alu--
alvar--
aly--
alyv--
am--
ama--
ambasado--
ambic--
ambro--
ambulator--
ame--
ameri--
amfi--
ami--
amon--
amu--
an--
ana--
analit--
analizuo--
anarc--
anas--
anc--
and--
andarme--
ane--
aneks--
ang--
angl--
anglo--
animaci--
animato--
ano--
anoni--
ans--
ant--
anta--
anti--
antiso--
antka--
antolog--
ants--
antsidirbs--
antsiskaity--
antsiskaitys--
antspar--
antver--
anu--
anuliuo--
ao--
ap--
apara--
apati--
apdo--
apdoro--
apdovan--
ape--
apeig--
apeis--
apels--
apga--
apgalvo--
apgau--
apgers--
apgri--
apgyvend--
apibend--
apip--
apka--
apleis--
apol--
appl--
apragin--
apri--
apribo--
aps--
apsak--
apsap--
apsapnuo--
apsapnuos--
apsau--
apsidirbs--
apsie--
apsig--
apsigal--
apsigalvo--
apsigalvos--
apsigy--
apsimiego--
apsinakv--
apsinervin--
apsir--
apsis--
apsisap--
apsisapnuo--
apsisapnuos--
apsiskai--
apsiskaity--
apsiskaitys--
apsiskol--
apsivo--
apsivok--
apskaity--
apskaitys--
apskol--
apstulb--
apsun--
apsup--
aptar--
aptv--
apuo--
apval--
apy--
apyk--
apykai--
apyvar--
aqu--
ar--
ara--
arc--
arch--
archeolog--
are--
argo--
argu--
argumen--
ari--
ariog--
aristok--
aritm--
ark--
arka--
arlau--
arm--
aro--
ars--
art--
arte--
arti--
artoris--
aru--
arvu--
as--
asfa--
ash--
asi--
asimil--
asis--
ask--
asmen--
asocijuo--
asp--
astr--
astra--
astrono--
asu--
asuns--
at--
ata--
atakuo--
atau--
ate--
atga--
atgai--
atgers--
ati--
atiduo--
atitik--
atkakl--
atku--
atlan--
atle--
atli--
atlie--
atlik--
atmin--
atomi--
atos--
atp--
atr--
atrad--
atran--
atrod--
ats--
atsak--
atsap--
atsapnuo--
atsapnuos--
atsibos--
atsidirbs--
atsig--
atsigal--
atsigalvo--
atsigalvos--
atsigamins--
atsik--
atsime--
atsimi--
atsimiego--
atsipa--
atsis--
atsisapnuo--
atsiskol--
atsisveik--
atsit--
atsitik--
atsitikins--
atsitikrin--
atsivo--
atsivok--
atskai--
atskaity--
atskaitys--
atskol--
atsky--
atstat--
au--
audy--
auga--
augin--
augs--
auk--
aukc--
auks--
aure--
aus--
austra--
aut--
auto--
automat--
autonom--
av--
ava--
ave--
avi--
aviac--
ax--
az--
azi--
b--
ba--
babilo--
bac--
bach--
bad--
bagd--
bahr--
bai--
baigd--
bajo--
baka--
bakt--
bakteri--
bal--
balty--
bamb--
ban--
band--
bang--
bank--
bapti--
bar--
bara--
barje--
baro--
bars--
bart--
bartu--
bas--
bat--
bau--
baus--
baz--
be--
bec--
bei--
beke--
bel--
ben--
bendra--
bendradarbiau--
bepro--
ber--
bergm--
bes--
besiel--
besimoky--
besir--
besisu--
bestubu--
bet--
beton--
bev--
bez--
bha--
bi--
bia--
biatlo--
bib--
biblio--
bibliote--
biel--
bieli--
big--
bijo--
bil--
bin--
bio--
biolog--
bir--
bis--
biu--
biz--
bjau--
bla--
ble--
blefu--
blin--
bliz--
blo--
blog--
blokuo--
blu--
bo--
bob--
bogd--
bohe--
boks--
bol--
boli--
bolo--
bon--
bonap--
bor--
boro--
bort--
bos--
botan--
bots--
br--
bra--
brah--
brand--
brang--
brauk--
braz--
bre--
brend--
bri--
briau--
briauna--
bris--
bro--
bron--
bronis--
bronz--
bru--
brukl--
bu--
buc--
budis--
buhalt--
buiv--
bulv--
bunde--
bunk--
bur--
burb--
burg--
buriu--
burmis--
burn--
burt--
bus--
but--
bute--
buv--
by--
c--
ca--
cal--
camp--
can--
capi--
car--
caro--
cass--
cat--
ce--
cele--
cemp--
cent--
centime--
cer--
cere--
cerk--
certif--
ch--
cha--
charakt--
che--
chi--
chirurg--
chlo--
cho--
chor--
chronolog--
chu--
ci--
ciga--
cilin--
cin--
citri--
ciur--
ck--
cl--
co--
coll--
colo--
com--
commu--
con--
convent--
cor--
corn--
coron--
cos--
coun--
cr--
crea--
crist--
crit--
cro--
cry--
cs--
cu--
cukr--
cukra--
cur--
cv--
cy--
cz--
d--
da--
dab--
dag--
dage--
dagi--
dai--
dail--
dakt--
dal--
dali--
daly--
dalyk--
dalyva--
dalyvau--
damb--
dambra--
dan--
dap--
dar--
darbd--
darbin--
das--
dasis--
dau--
daug--
daugia--
daugiskai--
davi--
davin--
de--
dead--
debei--
debes--
debiu--
dec--
defe--
defi--
dega--
degin--
dei--
dek--
del--
dem--
demo--
demokra--
demonstruo--
den--
depen--
depu--
der--
derlin--
des--
deser--
deta--
dete--
detekty--
devin--
dgal--
dhar--
di--
dia--
diag--
diagnos--
diale--
dic--
did--
didmei--
die--
diece--
diferencia--
diff--
dikt--
diktator--
dil--
dimit--
din--
dina--
dings--
dio--
dipl--
diptero--
dir--
dirb--
direkto--
dis--
discipl--
dislo--
distanc--
diviz--
dizai--
dj--
dm--
dmit--
dn--
do--
dobi--
dobro--
dog--
dokt--
dokumen--
dol--
dom--
dome--
don--
dor--
doro--
dort--
dos--
dovan--
dr--
dra--
drako--
dramb--
drau--
dre--
drebu--
dresd--
drez--
dri--
dro--
dru--
ds--
du--
dub--
dubin--
dubu--
due--
dumb--
dun--
dund--
duo--
dur--
durpy--
dus--
dv--
dvari--
dvarinin--
dvasi--
dve--
dvejet--
dvejo--
dvi--
dvira--
dvis--
dvy--
dvylikt--
dy--
dygl--
dyze--
dz--
e--
ea--
eb--
eber--
ec--
eco--
ed--
edin--
edu--
edukac--
ee--
ef--
efek--
efekty--
egi--
egl--
egz--
egzisten--
ei--
eidi--
eik--
eil--
eimy--
ein--
eis--
ek--
eko--
ekolog--
ekskurs--
eksp--
ekspe--
eksperiment--
ekspert--
eksplo--
eksploata--
eksploataci--
eksploatuo--
ekspona--
eksponuo--
ekstr--
ekstre--
ekvato--
ekvi--
el--
ela--
elas--
ele--
elect--
elekt--
elektro--
elektromagnet--
elektron--
elge--
elgs--
eli--
eliza--
em--
ema--
emai--
eme--
emi--
emili--
emo--
emoci--
empi--
emu--
emuliuo--
emyra--
en--
end--
ene--
energ--
energet--
eng--
enkl--
ens--
entuzi--
eo--
ep--
epe--
epidemi--
epit--
epiz--
epoc--
equ--
er--
erc--
erdvi--
ere--
eri--
eritroc--
ernia--
ero--
ers--
erz--
es--
esa--
ese--
eskad--
eski--
esper--
est--
este--
estra--
et--
eta--
ete--
etiu--
etno--
etnografi--
etnolog--
etrus--
eu--
eur--
euro--
ev--
eva--
evang--
eve--
evo--
ex--
expl--
ez--
f--
fa--
fabri--
fakti--
faktor--
fan--
fant--
fantas--
far--
farmac--
fas--
fau--
favo--
faza--
fc--
fe--
feat--
federa--
fel--
felic--
fenom--
feoda--
fer--
ferg--
fermen--
fern--
fi--
fict--
figh--
fiks--
fiksuo--
fil--
fila--
fili--
filo--
filosof--
filt--
fin--
final--
finan--
fiod--
fiorent--
fir--
fis--
fitz--
fizi--
fiziolog--
fjo--
fk--
fl--
fland--
flo--
flor--
fo--
fol--
folk--
folklo--
fon--
fone--
for--
fos--
foto--
fr--
fra--
fre--
fred--
frid--
fron--
fu--
ful--
funct--
fund--
fundament--
fundator--
funk--
funkci--
fur--
futb--
g--
ga--
gabal--
gaben--
gai--
gal--
gali--
galing--
galvo--
gamb--
gamin--
gamt--
gamy--
gan--
gangs--
gar--
garan--
garb--
gard--
garn--
gas--
gastr--
gatv--
gau--
gaub--
gaudy--
gaz--
gd--
gdav--
ge--
gedi--
gedm--
gel--
gels--
gen--
gene--
general--
geo--
geografi--
geolog--
geomet--
ger--
gers--
get--
geteb--
gi--
gia--
gied--
giedo--
gies--
gil--
gim--
gimdy--
gin--
gins--
gio--
gir--
gitar--
giu--
gl--
glad--
gladiato--
gle--
glo--
globo--
glos--
glu--
gluos--
gnin--
gnu--
go--
god--
gomu--
gond--
gors--
gos--
got--
gr--
gra--
grafi--
gran--
gras--
gre--
greit--
grenad--
grenl--
gri--
griaus--
grigo--
grind--
gro--
gru--
grunt--
grupi--
gruz--
gry--
gryn--
gs--
gsta--
gt--
gti--
gu--
gua--
guber--
guil--
gul--
gulb--
gumb--
gun--
guo--
gur--
gus--
gut--
gvia--
gy--
gydom--
gydy--
gyn--
gyny--
gys--
gyv--
gyven--
gyvend--
gyvsi--
gyvu--
gyvy--
h--
ha--
habs--
han--
happ--
har--
harmon--
hart--
has--
hat--
hau--
haw--
he--
hekt--
her--
herak--
heral--
heter--
hi--
hibri--
hide--
hidra--
hidro--
hidrograf--
hidrolog--
hidrotechni--
hierarchi--
hil--
hindui--
hip--
hipot--
his--
histo--
hit--
hitle--
hiust--
ho--
hoff--
holi--
holo--
homoseksu--
honk--
hop--
hor--
hori--
horizont--
hot--
how--
hr--
hu--
humanita--
humb--
humoris--
huse--
hy--
i--
ia--
iakaln--
iakam--
ian--
ias--
iasna--
iau--
iaugs--
iaur--
ibe--
ibin--
ibu--
ic--
ich--
id--
ide--
identif--
identit--
ideolog--
idlau--
idz--
ie--
iedy--
iemg--
iemo--
ies--
ieti--
if--
ig--
ign--
ignoru--
ignoruo--
ii--
ija--
ijusi--
ik--
iki--
iko--
il--
ila--
ildy--
ile--
ilg--
ilga--
ili--
ilins--
iliu--
ilo--
ilt--
ilu--
ilyr--
im--
ima--
imi--
imituos--
imo--
importuo--
impre--
impro--
impu--
ims--
imt--
imta--
imtyn--
imu--
in--
ina--
inamos--
inc--
indi--
indo--
ine--
inf--
informuo--
infra--
ing--
ini--
inici--
ink--
inkor--
ino--
ins--
insimos--
inspektor--
insta--
instituc--
instrumen--
int--
integra--
inter--
inti--
intinos--
into--
introdu--
inu--
inusi--
invaz--
io--
iol--
iolik--
ion--
ios--
iovin--
ip--
ipol--
ir--
irklu--
irvin--
is--
iso--
isp--
ist--
istorio--
isu--
it--
ita--
iu--
iuo--
iuolai--
iur--
iv--
iva--
iz--
izido--
j--
ja--
jach--
jagu--
jak--
jako--
jaku--
jam--
jan--
japo--
jar--
jas--
jau--
jaudin--
jaus--
jav--
jaz--
je--
jei--
jel--
jen--
jer--
jere--
ji--
jie--
jin--
jo--
jom--
jon--
jot--
js--
ju--
jubilie--
judi--
juk--
juli--
jung--
junk--
juo--
juod--
juokin--
juos--
jupi--
jurb--
jurg--
juri--
jurisdikc--
jurk--
jus--
jutik--
juvely--
k--
ka--
kab--
kabel--
kabin--
kable--
kad--
kai--
kaimy--
kaize--
kajet--
kakle--
kaktu--
kal--
kala--
kalavi--
kalb--
kalend--
kali--
kalk--
kaln--
kalp--
kalv--
kaly--
kam--
kame--
kamie--
kampi--
kan--
kanad--
kanau--
kapi--
kapiny--
kapita--
kapitu--
kar--
kara--
kareiv--
kariau--
karl--
karo--
kars--
kart--
karto--
kas--
kat--
katalo--
kate--
kau--
kauk--
kaul--
kauli--
kaup--
kaus--
kauts--
kava--
kaz--
kazlau--
ke--
kei--
kel--
keleiv--
kelia--
keliau--
kels--
kemp--
ken--
kenks--
kep--
kepi--
kepsi--
kepu--
ker--
keram--
kern--
kert--
kes--
ketur--
ketvir--
kha--
ki--
kia--
kiau--
kiber--
kic--
kidu--
kil--
kilm--
kilno--
kilo--
kim--
kin--
kine--
king--
kio--
kir--
kird--
kirgiz--
kiri--
kirk--
kirs--
kirt--
kis--
kisie--
kit--
kiu--
kl--
kla--
klai--
klamp--
klarn--
klas--
klasicist--
klasifikuo--
klau--
klaus--
kle--
kli--
klie--
klient--
klima--
klini--
klo--
klu--
klyk--
klys--
km--
kn--
kny--
knyg--
ko--
koef--
kol--
kolekci--
kolekcionie--
kolekty--
koli--
kolon--
koloniz--
kom--
komand--
komb--
komen--
komerci--
komn--
komp--
kompakt--
kompan--
kompensac--
komple--
kompleksi--
kompli--
kompozic--
komu--
komuni--
komunikac--
komunis--
kon--
konc--
kond--
konditeri--
konfe--
konfis--
konk--
konkist--
konkuruo--
konr--
kons--
konser--
konservaty--
konstituc--
konstrukc--
konsul--
konsuli--
konsultac--
kont--
kontinent--
kontra--
kontro--
kontroliuo--
konv--
kop--
kor--
kordilje--
korido--
korona--
koroz--
kos--
kosmo--
kosti--
kot--
kovo--
koz--
kr--
kra--
kraip--
kramn--
kras--
kre--
kreip--
kreis--
kreml--
kriau--
krimina--
krio--
krip--
kris--
krista--
krit--
kriteri--
kritu--
kriv--
kro--
krokodi--
krovin--
kru--
krump--
kry--
krz--
ks--
ktu--
ku--
kubi--
kui--
kujav--
kuku--
kulina--
kult--
kulv--
kump--
kun--
kuo--
kupranuga--
kur--
kurfi--
kus--
kut--
kuz--
kv--
kvad--
kvadra--
kvai--
kvailio--
kvalifi--
kvalifikac--
kvap--
kvart--
kve--
kvie--
kvies--
kw--
ky--
l--
la--
labd--
labir--
labo--
laborato--
lac--
lai--
laido--
laiky--
laikys--
laip--
lamb--
lamp--
lan--
land--
lanky--
lankys--
lap--
larn--
lars--
las--
laske--
lat--
lau--
lauk--
lavin--
laz--
ld--
le--
led--
ledyn--
legio--
lei--
leis--
leksi--
lektor--
lemt--
len--
leng--
lenin--
lenk--
lenktyn--
lent--
leo--
ler--
les--
let--
lf--
li--
lia--
liau--
liber--
libre--
lic--
lie--
liep--
liet--
lig--
ligon--
lik--
liks--
likv--
likvid--
likviduo--
likviduos--
lim--
lin--
ling--
lingu--
lingvis--
lini--
link--
linksm--
lio--
liong--
lip--
lipdy--
lis--
lit--
litew--
litu--
liturg--
liu--
liub--
liubo--
liudi--
liudy--
liut--
livon--
liz--
lk--
ll--
lm--
lo--
lock--
log--
loko--
lomb--
lombar--
lopy--
lore--
los--
lot--
lovin--
loz--
ls--
lt--
lu--
luc--
luft--
lui--
luizi--
luo--
lus--
luv--
lv--
ly--
lydi--
lydy--
lyg--
lygia--
lygins--
m--
ma--
mac--
mad--
madagas--
mag--
magdebur--
mage--
magistra--
magnet--
maha--
mahabha--
mai--
mais--
maje--
mak--
maksima--
mal--
mala--
malon--
mam--
man--
manda--
manif--
manip--
manu--
many--
mar--
mara--
marc--
mari--
mark--
marmu--
mars--
mas--
masy--
mat--
mate--
matemat--
materia--
mathe--
matu--
matuo--
mau--
maur--
mauric--
mauzolie--
max--
maz--
mb--
mc--
me--
mec--
mechan--
med--
mede--
medi--
mega--
mei--
mel--
mela--
melan--
melb--
meln--
melo--
memb--
memo--
memoria--
memu--
men--
menk--
mer--
mes--
mesopot--
met--
meta--
metal--
meteorolog--
meto--
mez--
mezo--
mezol--
mi--
mia--
mic--
micha--
mid--
mie--
miego--
mig--
migruo--
mika--
mikro--
miku--
mil--
milic--
min--
mina--
mine--
mio--
mird--
mirk--
mirs--
mis--
mit--
mitolog--
miu--
miuzi--
ml--
mm--
mn--
mo--
mobi--
moc--
mode--
modifi--
modifikac--
modifikuo--
modu--
mogi--
moha--
moky--
mokykl--
mol--
molda--
momen--
mon--
monito--
monog--
montv--
monumen--
mor--
mora--
mord--
more--
morf--
morfolog--
mork--
mort--
mos--
mot--
motocik--
moz--
mp--
mr--
ms--
mu--
muha--
mui--
mult--
munici--
mus--
mutac--
muziejin--
my--
mykol--
mys--
n--
na--
naci--
nacional--
nad--
nag--
nai--
naikin--
nak--
nakvo--
nam--
nan--
nar--
nard--
nark--
narkot--
nas--
nat--
nau--
naud--
nauding--
nauja--
navi--
naza--
nd--
ne--
neabe--
neabejo--
neaki--
neantsidirbs--
neantsiskaity--
neantsiskaitys--
neap--
neapgalvo--
neapragin--
neaps--
neapsap--
neapsapnuo--
neapsapnuos--
neapsidirbs--
neapsigal--
neapsigalvo--
neapsigalvos--
neapsimiego--
neapsinakv--
neapsinervin--
neapsis--
neapsisap--
neapsisapnuo--
neapsisapnuos--
neapsiskai--
neapsiskaity--
neapsiskaitys--
neapsiskol--
neapsivo--
neapsivok--
neapskaity--
neapskaitys--
neapskol--
neat--
neati--
neatiduo--
neats--
neatsap--
neatsapnuo--
neatsapnuos--
neatsidirbs--
neatsig--
neatsigal--
neatsigalvo--
neatsigalvos--
neatsigamins--
neatsimiego--
neatsisapnuo--
neatsiskol--
neatsit--
neatsitik--
neatsitikins--
neatsitikrin--
neatsivo--
neatsivok--
neatskai--
neatskaity--
neatskaitys--
neatskol--
nebe--
nebendradar--
nebendradarbiau--
neblefu--
neda--
nedas--
nedels--
nedz--
neg--
negal--
negalvo--
negalvos--
negamins--
negers--
negy--
negyve--
nei--
neig--
nek--
neka--
nekil--
nekilno--
nekontr--
nele--
nema--
nen--
nenak--
nenakvo--
nenakvos--
nenaudo--
nener--
nenervin--
nenu--
nenugalvo--
nenuk--
nenukil--
nenumie--
nenumiegos--
nenumig--
nenurag--
nenus--
nenusap--
nenusapnuo--
nenusapnuos--
nenusi--
nenusigalvo--
nenuskai--
nenuskaity--
nenuskaitys--
nenuvo--
nenuvok--
neo--
neofi--
neorgan--
nepa--
nepabendradar--
nepabendradarbiau--
nepagalvo--
nepakontro--
nepakontroliuo--
nepanak--
nepanakvo--
nepanakvos--
nepaner--
nepanervin--
nepapavog--
nepar--
nepara--
neparagin--
neparkil--
neparsidirbs--
neparsivok--
nepas--
nepasap--
nepasapnuo--
nepasidirbs--
nepasig--
nepasigal--
nepasigalvo--
nepasigalvos--
nepasigamins--
nepasijau--
nepasijaudin--
nepasikontro--
nepasikontroliuo--
nepasimiego--
nepasinervin--
nepasira--
nepasiragin--
nepasiragins--
nepasisapnuo--
nepasiskol--
nepasit--
nepasitik--
[...]
