!
"
#
##0
##1
##10
##11
##12
##13
##14
##15
##16
##17
##18
##19
##2
##20
##21
##22
##23
##24
##25
##26
##27
##28
##29
##3
##30
##31
##32
##33
##34
##35
##36
##37
##38
##39
##4
##40
##41
##42
##43
##44
##45
##46
##47
##48
##49
##5
##50
##51
##52
##53
##54
##55
##56
##57
##58
##59
##6
##60
##61
##62
##63
##64
##65
##66
##67
##68
##69
##7
##70
##71
##72
##73
##74
##75
##76
##77
##78
##79
##8
##80
##81
##82
##83
##84
##85
##86
##87
##88
##89
##9
##90
##91
##92
##93
##94
##95
##96
##97
##98
##99
$
%
&
'
(
)
*
+
,
-
.
/
0
00
000
001
002
003
005
007
01
010
02
03
04
05
06
07
08
09
1
10
100
1000
10000
1001
1002
1009
101
1016
102
1024
103
104
105
1050
1054
106
107
108
1080
109
11
110
1100
1105
111
112
113
114
115
1150
1154
116
117
1170
118
1180
1185
1187
119
1198
12
120
1200
1204
121
1210
1215
1219
122
1220
1227
123
1230
1234
1235
1236
1238
124
1240
1241
1242
1243
1248
125
1250
1252
1253
1254
1255
1258
1259
126
1260
1261
1263
1264
1265
1266
127
1270
1272
1274
1275
1276
1279
128
1280
1282
1284
1285
129
1290
1291
1294
1295
13
130
1300
1308
131
1313
132
1320
1323
1325
133
1330
1337
134
1340
1341
1342
1345
1346
1348
135
1350
136
1362
1365
1368
137
1370
1372
1375
1377
1378
1379
138
1380
1382
1383
1384
1385
1386
1387
1388
1389
139
1390
1392
1394
1395
1397
1398
1399
14
140
1400
1401
1402
1404
1405
1406
1409
141
1410
1411
1413
1415
1416
1419
142
1420
1421
1422
1424
1425
1429
143
1430
1431
1432
1433
1434
1435
1438
1439
144
1440
1443
1444
1447
1448
145
1450
1451
1452
1453
1454
1455
1457
1458
1459
146
1460
1463
1464
1465
1466
1468
1469
147
1470
1471
1472
1473
1474
1475
1477
1478
1479
148
1480
1481
1482
1483
1484
1485
1486
1488
1489
149
1490
1492
1493
1494
1495
1496
1497
1498
1499
15
150
1500
1501
1502
1503
1504
1505
1506
1507
1508
1509
151
1510
1511
1512
1513
1514
1515
1516
1517
1518
1519
152
1520
1521
1522
1523
1524
1525
1526
1527
1528
1529
153
1530
1531
1532
1533
1534
1535
1536
1537
1538
1539
154
1540
1541
1542
1543
1544
1545
1546
1547
1548
1549
155
1550
1551
1552
1553
1554
1555
1556
1557
1558
1559
156
1560
1561
1562
1563
1564
1565
1566
1567
1568
1569
157
1570
1571
1572
1573
1574
1575
1576
1577
1578
1579
158
1580
1581
1582
1583
1584
1585
1586
1587
1588
1589
159
1590
1591
1592
1593
1594
1595
1596
1597
1598
1599
16
160
1600
1601
1602
1603
1604
1605
1606
1607
1608
1609
161
1610
1611
1612
1613
1614
1615
1616
1617
1618
1619
162
1620
1621
1622
1623
1624
1625
1626
1627
1628
1629
163
1630
1631
1632
1633
1634
1635
1636
1637
1638
1639
164
1640
1641
1642
1643
1644
1645
1646
1647
1648
1649
165
1650
1651
1652
1653
1654
1655
1656
1657
1658
1659
166
1660
1661
1662
1663
1664
1665
1666
1667
1668
1669
167
1670
1671
1672
1673
1674
1675
1676
1677
1678
1679
168
1680
1681
1682
1683
1684
1685
1686
1687
1688
1689
169
1690
1691
1692
1693
1694
1695
1696
1697
1698
1699
17
170
1700
1701
1702
1703
1704
1705
1706
1707
1708
1709
171
1710
1711
1712
1713
1714
1715
1716
1717
1718
1719
172
1720
1721
1722
1723
1724
1725
1726
1727
1728
1729
173
1730
1731
1732
1733
1734
1735
1736
1737
1738
1739
174
1740
1741
1742
1743
1744
1745
1746
1747
1748
1749
175
1750
1751
1752
1753
1754
1755
1756
1757
1758
1759
176
1760
1761
1762
1763
1764
1765
1766
1767
1768
1769
177
1770
1771
1772
1773
1774
1775
1776
1777
1778
1779
178
1780
1781
1782
1783
1784
1785
1786
1787
1788
1789
179
1790
1791
1792
1793
1794
1795
1796
1797
1798
1799
18
180
1800
1801
1802
1803
1804
1805
1806
1807
1808
1809
181
1810
1811
1812
1813
1814
1815
1816
1817
1818
1819
182
1820
1821
1822
1823
1824
1825
1826
1827
1828
1829
183
1830
1831
1832
1833
1834
1835
1836
1837
1838
1839
184
1840
1841
1842
1843
1844
1845
1846
1847
1848
1849
185
1850
1851
1852
1853
1854
1855
1856
1857
1858
1859
186
1860
1861
1862
1863
1864
1865
1866
1867
1868
1869
187
1870
1871
1872
1873
1874
1875
1876
1877
1878
1879
188
1880
1881
1882
1883
1884
1885
1886
1887
1888
1889
189
1890
1891
1892
1893
1894
1895
1896
1897
1898
1899
19
190
1900
1901
1902
1903
1904
1905
1906
1907
1908
1909
191
1910
1911
1912
1913
1914
1915
1916
1917
1918
1919
192
1920
1921
1922
1923
1924
1925
1926
1927
1928
1929
193
1930
1931
1932
1933
1934
1935
1936
1937
1938
1939
194
1940
1941
1942
1943
1944
1945
1946
1947
1948
1949
195
1950
1951
1952
1953
1954
1955
1956
1957
1958
1959
196
1960
1961
1962
1963
1964
1965
1966
1967
1968
1969
197
1970
1971
1972
1973
1974
1975
1976
1977
1978
1979
198
1980
1981
1982
1983
1984
1985
1986
1987
1988
1989
199
1990
1991
1992
1993
1994
1995
1996
1997
1998
1999
2
20
200
2000
2001
2002
2003
2004
2005
2006
2007
2008
2009
201
2010
2011
2012
2013
2014
2015
2016
2017
2018
2019
202
2020
2021
20212022
2022
2023
2024
203
204
205
206
207
208
209
21
210
2100
211
212
213
214
215
216
217
218
219
22
220
2200
221
222
223
224
225
226
227
228
229
23
230
2300
231
232
233
234
235
236
237
238
239
24
240
2400
241
242
243
244
245
246
247
248
249
25
250
2500
251
252
253
254
255
256
257
258
259
26
260
2600
261
262
263
264
265
266
267
268
269
27
270
2700
271
272
273
274
275
276
277
278
279
28
280
2800
281
282
283
284
285
286
287
288
289
29
290
291
292
293
294
295
296
297
298
299
3
30
300
3000
301
302
303
304
305
306
307
308
309
31
310
311
312
313
314
315
316
3166
317
318
319
32
320
3200
321
322
323
324
325
326
327
328
329
33
330
331
332
333
334
335
336
337
338
339
34
340
341
342
343
344
345
346
347
348
349
35
350
3500
351
352
353
354
355
356
357
358
359
36
360
361
362
363
364
365
366
367
368
369
37
370
371
372
373
374
375
376
377
378
379
38
380
381
382
383
384
385
386
387
388
389
39
390
391
392
393
394
395
396
397
398
399
4
40
400
4000
401
402
403
404
405
406
407
408
409
41
410
411
412
413
414
415
416
417
418
419
42
420
421
422
423
424
425
426
427
428
429
43
430
431
432
433
435
436
437
438
44
440
442
443
445
446
447
448
45
450
4500
451
452
453
454
455
456
457
458
459
46
460
461
462
463
464
465
466
467
468
469
47
470
471
472
473
474
475
476
477
478
479
48
480
481
482
484
485
486
488
49
490
492
493
495
498
499
5
50
500
5000
501
502
503
504
505
508
509
51
510
511
512
513
515
517
518
519
52
520
521
522
523
524
525
526
527
529
53
530
531
532
533
534
535
539
54
540
542
5420013762
5420014882
544
547
55
550
551
553
557
56
560
561
565
57
570
573
575
58
580
581
584
585
586
589
59
590
592
6
60
600
6000
601
604
609
61
610
612
613
616
62
620
624
625
626
63
630
631
636
639
64
640
641
65
650
651
653
656
66
660
664
668
67
670
672
674
68
680
69
692
7
70
700
7000
707
71
710
711
72
720
727
73
730
737
74
740
747
75
750
757
76
767
77
777
78
780
788
79
792
795
8
80
800
8000
802
806
81
82
820
83
830
84
840
85
850
85270
86
87
870
875
88
880
89
892
9
90
900
9000
907
91
911
914
92
925
93
94
95
950
951
96
960
965
966
97
978
98
980
985
99
995
9955
9986
999
:
;
<
=
>
?
@
\
^
_
`
a
aa
aaron
ab
aba
abas
abasidu
abba
abc
abchazijos
abd
abdul
abdula
abe
abejone
abejoniu
aberdeen
abi
abiejose
abieju
abiejuose
abiem
abies
abipus
abipuse
abipusiu
abiturientu
ablonai
ablonas
ablono
abo
aborigenai
aborigenu
about
above
abraham
abramavic
abraomas
abs
absoliuc
absoliuti
absoliutus
absolventai
abstrakc
abu
abudu
ac
academic
academy
acb
accessed
acer
ach
achas
achemenidu
achilo
achmatai
achmatais
achmatininkai
achmatininkas
achmatininke
achmatininku
achmatu
achmatus
acho
achu
acid
aco
across
act
acta
actekai
acteku
action
acto
ad
ada
adam
adamas
adamkaus
adamkus
adams
adamsas
adaptacija
adas
ade
adeikiai
adeikiu
adelaide
adele
adina
adis
adjutantas
administracija
administracijai
administracijos
administracine
administracines
administracini
administraciniai
administracinio
administracinis
administraciniu
administracinius
administracis
administrati
administratoriumi
administratorius
administravima
administravimas
administravimo
administravo
administruoja
administruojama
administruoti
admira
admirolas
admirolo
ado
adolf
adolfas
adolfo
adomaic
adomaitis
adomas
adomavic
adomis
adomo
ados
adresas
adresu
adrian
adrianas
adriano
adrijos
adu
adus
adutis
advanced
adventures
advokatai
advokatas
advokate
advokato
advokatu
adz
ae
aeg
aek
ael
aero
aerodromas
aerodrome
aerodromo
aeronautikos
af
afc
aff
affairs
afganistana
afganistanas
afganistane
afganistano
afganu
africa
african
afrika
afrikiec
afrikietis
afrikine
afrikinis
afrikoje
afrikos
afroamerikiec
afrodite
after
ag
again
against
agare
agarikiec
agata
agave
age
agency
agenta
agentai
agentas
agento
agentu
aglomeracija
aglomeracijoje
agluone
agne
agrarine
agresija
agresijos
agronomai
agronomas
agronomijos
ah
ahmed
ahrestanas
ahtar
ai
aibas
aibe
aibo
aic
aida
aidai
aidas
aide
aidima
aidimai
aidimams
aidimas
aidime
aidimo
aidimu
aidimui
aidimuose
aidimus
aido
aids
aidus
aidusi
aidyne
aidynes
aidyniu
aidz
aikos
aikovskio
aikovskis
aiks
ain
aine
ainio
ainu
air
airbus
aircraft
aire
aires
airija
airijoje
airijos
airis
airiu
airlines
airport
airways
ais
aisc
aisdamas
aisdavo
aise
aisiais
aislio
aislu
aista
aiste
aisti
aistos
aistra
aistros
aistu
aite
aitis
aitvaras
aivaras
aiz
aizda
aizdos
aizdu
aj
aja
ajai
ajam
ajame
ajax
ak
aka
akademija
akademijai
akademijoje
akademijos
akademiju
akademikas
akademine
akademinio
akademinis
akademiniu
akado
akadu
akai
akalis
akas
akcentas
akcija
akcijas
akcijos
akciju
akcine
akcininku
ake
akele
akeliu
aki
akiai
akies
akimi
akimirka
akimirkos
akimis
akine
akiniai
akio
akira
akis
akiu
akivaizdoje
akivaizdu
akivaizdz
aklu
akmena
akmene
akmeni
akmeniai
akmenimis
akmenine
akmeniniai
akmeninis
akmeniniu
akmenis
akmeniu
akmenos
akmens
akmenu
akmenyne
akmenys
akmuo
akni
aknies
aknimis
aknis
aknu
aknys
ako
akoja
akoje
akomis
akos
akose
akotas
akranes
akrobatinio
akt
akta
aktai
aktas
akte
aktino
akto
aktobe
aktore
aktorei
aktoriai
aktoriais
aktoriaus
aktoriu
aktoriumi
aktorius
aktoryste
aktu
aktualijos
aktualu
aktus
aktyvaus
aktyvi
aktyvia
aktyviai
aktyviausiu
aktyvios
aktyvistai
aktyvistas
aktyviste
aktyvistu
aktyviu
aktyvu
aktyvuma
aktyvumas
aktyvumo
aktyvus
aku
akus
akustine
akute
akvarele
akvariumas
akvariumine
akvariumuose
akvile
akvitanijos
akyje
akynos
akys
akyse
al
ala
alai
alain
alakevic
alan
alanas
alanis
alantos
alas
alaus
alavijas
alavo
alba
albanai
albanija
albanijoje
albanijos
albanu
albatros
albert
albertas
alberto
albina
albinas
albion
albrecht
albrechtas
album
albuma
albumai
albumas
albume
albumo
albums
albumu
albumui
albumus
alc
aldo
aldona
ale
alejandro
alekna
aleknavic
aleksa
aleksander
aleksandr
aleksandra
aleksandras
aleksandrava
aleksandravic
aleksandrija
aleksandrijos
aleksandro
aleksandros
aleksandrovic
aleksandru
aleksandrui
aleksas
aleksejus
aleksijus
aleksoto
alenas
ales
alessandro
alex
alexander
alexandra
alexandre
alfa
alfonsas
alfonso
alfred
alfredas
alfredo
alga
algimantas
algimanto
algirdas
algirdo
algiri
algiriec
algirio
algiris
algiriu
algis
algoritmai
algoritmas
algoritmu
ali
alia
aliai
aliais
aliakalnio
alias
aliasis
aliaskoje
aliaskos
aliava
aliavos
aliavu
alice
aliejaus
alieji
aliejine
alieju
aliejumi
aliejus
alies
align
alimais
alimi
alimis
alimo
alims
alin
alina
alinamas
alinami
alinimas
alinimo
alininkai
alininkas
alininku
alino
alinta
alintas
alinti
alinus
alio
aliochinas
alioji
aliojo
alioniu
alios
aliosios
alis
alisa
aliu
aliuminio
alius
alive
alizavos
aljansas
aljanso
alka
alkakalnis
alkas
alkis
alkoholiniai
alkoholiniu
alkoholio
alkoholis
alkoholiu
alkos
alksne
alku
all
alla
allan
alle
allen
alliance
allmusic
alma
almai
almanachas
almantas
almas
almis
almo
alna
alo
alone
alonso
alos
alotas
aloto
alove
aloyzas
alpe
alpes
alpha
alpine
alpinistas
alpinizmo
alpiu
alpos
als
alse
also
alsva
alsvai
alt
alta
altajaus
altas
altasis
altenis
alternative
alternatyva
alternatyvaus
alternatyvios
alternatyvu
alternatyvus
alti
altieji
altine
altini
altiniai
altiniais
altinio
altinis
altiniu
altiniuose
altinius
altis
altitude
alto
altojo
altoriai
altoriaus
altoriu
altorius
altos
altpreußischen
altu
altui
altys
alu
alus
alusi
alvarine
alvariniu
alvario
alvito
alvydas
always
alyga
alyje
alynai
alyno
alys
alyse
alytaus
alytis
alytuje
alytus
alyvmedz
alyvos
alyvu
alz
am
ama
amade
amai
amanas
amanda
amas
amatai
amatais
amatininkai
amatininku
amato
amatu
amazon
amazone
amazonijos
ambasada
ambasadoje
ambasadore
ambasadoriai
ambasadoriaus
ambasadoriu
ambasadoriumi
ambasadorius
ambasados
amber
ambulatorija
ame
ament
america
american
amerika
amerikiec
amerikiete
amerikietis
amerikine
amerikoje
amerikos
ami
amieji
aminas
amine
amino
aminoru
ammochostos
among
amonio
amor
amore
amos
amour
amplitude
ams
amsterdam
amsterdamas
amsterdame
amsterdamo
amstrad
amtsbezirk
amu
amy
amz
an
ana
anai
analitine
analizavo
analize
analizuoti
analogas
analogija
analogis
analysis
anandas
anapus
anarchija
anas
anatolijos
anatolijus
anatomija
anatomijos
anauskas
anbe
anbo
anc
anchajaus
ancient
and
andai
andalu
andarmerija
andarmerijos
andaru
anderlecht
anders
anderseno
anderson
andersonas
andikaulio
andora
andoros
andras
andre
andrea
andreas
andrejaus
andrejus
andrew
andriaus
andriejaus
andrijauskas
andrionis
andris
andriu
andrius
android
andrus
andrzej
andu
anduose
andy
andz
ane
aneire
aneiro
aneksavo
aneksija
aneksijos
anele
anemija
ang
anga
angas
ange
angel
angela
angelai
angelas
angele
angeles
angelo
angels
angelu
angis
angiu
angl
anglai
anglas
angliavandeniu
anglies
anglija
anglijoje
anglijos
anglikonu
anglis
angliu
anglo
anglosaksu
anglu
anglys
ango
angola
angoloje
angolos
angos
angu
ani
anicetas
aniec
animacija
animacijos
animaciniai
animacinio
animacinis
animaciniu
animal
animals
animation
anime
anio
anis
anita
anka
ankara
anketa
anks
anksc
ankstesne
ankstesni
ankstesniais
ankstesnio
ankstesnis
ankstesniu
ankstesniuose
ankstesnius
anksti
anksto
ankstyva
ankstyvaisiais
ankstyvajame
ankstyvasis
ankstyvieji
ankstyvoji
ankstyvojo
ankstyvojoje
ankstyvos
ankstyvosios
ankstyvu
ankstyvuoju
ann
anna
anne
annie
anniversary
announces
annual
ano
anorthosis
anos
anot
another
anra
anrai
anras
anri
anro
anru
anrui
ans
ansambli
ansambliai
ansambliams
ansamblio
ansamblis
ansambliu
ansambliui
ansamblyje
anskis
ant
antai
antakalnio
antakalnis
antaliepte
antana
antanas
antanava
antanavic
antane
antanina
antanis
antano
antante
antanu
antanui
antarktida
antarktidoje
antarktidos
antas
antazave
ante
antena
antenos
antgaliai
antgaliu
anthony
anti
antikine
antikiniu
antikos
antiku
antilope
antilu
antis
antisovietine
antkapinis
antkapis
anto
antoine
antologija
anton
antonas
antoni
antonijaus
antonijus
antonio
antonis
antpec
antpetis
antpuoliu
antra
antradieni
antrai
antrajai
antrajam
antrajame
antrame
antras
antrasis
antri
antrine
antrinis
antro
antroje
antroji
antrojo
antrojoje
antropologas
antropologija
antropologijos
antros
antrose
antrosios
antru
antruoju
ants
antsparniai
antspaudas
antspaudu
antstoliu
antuanas
antverpene
antverpeno
antwerpen
antys
antz
anu
anui
anupras
anus
anuz
any
anyks
anykstenai
anz
ao
ap
apac
apache
apanavic
aparata
aparatai
aparatas
aparato
aparatu
apardytas
apas
apatine
apatiniai
apatiniame
apatinio
apatinis
apatiniu
apauge
apaugusi
apaugusios
apc
apdaila
apdailos
apdirbimas
apdirbimo
apdorojimas
apdorojimo
apdoroti
apdovanojami
apdovanojima
apdovanojimai
apdovanojimais
apdovanojimams
apdovanojimas
apdovanojimo
apdovanojimu
apdovanojimui
apdovanojimuose
apdovanojimus
apdovanojo
apdovanota
apdovanotas
apdovanoti
ape
apeigas
apeigos
apeigu
apeliacinio
apeninu
apertura
apgaule
apginti
apgriauta
apgule
apgulti
apgulties
apgultis
apgyne
apgyvendinimo
apgyvendino
apgyvendinta
apgyvendintas
apgyvendinti
apgyvendintos
api
apibre
apibu
apie
apima
apimanc
apimanti
apimantis
apimti
apimties
apimtis
apimtys
apiple
apjuosta
apkaltino
apkaltintas
apkaltinti
apkaltos
apklausa
apklausos
aplanke
aplanko
aplankyti
aplede
apleido
apleista
apleistas
apleisti
aplenke
aplenkti
aplink
aplinka
aplinkai
aplinkine
aplinkines
aplinkiniai
aplinkiniu
aplinkiniuose
aplinkinius
aplinkoje
aplinkos
aplinkosaugos
aplinkui
aplinkybe
aplinkybes
aplinkybiu
apma
apmoke
apmokestinimo
apoel
apogon
apollo
apollon
apolonas
apolonija
apolono
apple
apr
aprais
apranga
aprangomis
aprangos
aprangu
apras
apre
apreis
apribojimai
apribojimu
apribojimus
apribojo
apribota
apribotas
apriboti
april
apru
aps
apsakymai
apsakymas
apsakymu
apsakymus
apsauga
apsaugai
apsaugine
apsaugo
apsaugos
apsaugoti
apsaugotu
apse
apside
apsiginti
apsigyne
apsigyvena
apsigyvene
apsigyveno
apsigyventi
apsilanke
apsilanko
apsilankymo
apsimete
apsireis
apsirenge
apsis
apsisaugoti
apsistoje
apsistojo
apsk
apskaic
apskaita
apskaitos
apskr
apskric
apskrieja
apskrita
apskritai
apskriti
apskrities
apskritimi
apskritimo
apskritis
apskrityje
apskritys
apskrityse
apsupo
apsupta
apsuptas
apsupti
apsuptyje
aptare
aptarnauja
aptarnauti
aptarnavimo
aptarnavo
aptarti
aptiko
aptikta
aptiktas
aptikti
aptiktos
aptinka
aptinkama
aptinkamas
aptinkami
aptinkamos
aptvertas
apu
apuole
apus
apvaizdos
apvali
apvalios
apvalu
apvalus
apybraiz
apygarda
apygardai
apygardas
apygardoje
apygardos
apygardose
apygardu
apykaita
apykaitos
apykakle
apyl
apylinke
apylinkei
apylinkes
apylinkiu
apyranke
apysaka
apysakos
apytikriai
apytiksliai
apyvarta
apyvartoje
apyvartos
apz
aquila
ar
ara
arab
arabai
arabija
arabijoje
arabijos
arabis
arabu
aragono
arai
aralo
arame
araminas
aranz
ararat
aras
arba
arbata
arbatos
arbitraz
arc
arch
archaeology
archajis
archangelsko
arche
archeologai
archeologas
archeologe
archeologija
archeologijos
archeologine
archeologiniai
archeologinis
archeologiniu
archeologinius
archeologu
archit
architecture
architektai
architektas
architekte
architekto
architektu
archiv
archive
archived
archives
archyva
archyvai
archyvas
archyve
archyvine
archyvo
archyvu
archyvuota
arctic
ardas
arde
ardo
ardyti
ardz
are
area
arealas
areale
arealo
arena
arenoje
arenos
ares
argentina
argentiniec
argentinoje
argentinos
argento
argi
argumentai
argumentas
argumento
argumentu
arhus
ari
aria
ariama
arija
ariju
arimu
ariogalos
aris
aristokratu
aristotelio
aristotelis
arizona
arizonos
ark
arka
arkangelo
arke
arkikatedros
arkine
arkis
arkivyskupas
arkivyskupija
arkivyskupijai
arkivyskupijos
arkivyskupo
arkli
arkliai
arkliais
arklide
arklio
arkliu
arklius
arklys
arkos
arkties
arktine
arku
arlio
arlis
arlote
arlzas
arlzo
arm
arme
armenia
armija
armijai
armijoje
armijos
armiju
arminas
arms
armstrong
army
arna
arnas
arnele
arnold
arnoldas
arnos
arnu
arnyno
aro
aromata
aronas
aronianas
aros
around
ars
arsenal
arsenalas
art
arte
artemide
arterija
arterijos
arthur
arti
article
articles
artilerija
artilerijos
artima
artimai
artimas
artimi
artimiausi
artimiausia
artimiausias
artimiausios
artimiausiu
artimieji
artimo
artimos
artimu
artimuosiuose
artimuosius
artimus
artist
artistai
artistas
artiste
artisto
artists
artistu
artojo
artoriskis
artoriskiu
arts
artu
arturas
aru
arvai
arvais
arvu
arvuoc
arvuotasis
arvuotis
arvuotu
arvus
arvydas
arz
as
asa
asamble
asc
asi
asia
asian
asimiliavo
asirija
asirijos
asiru
asis
asistentas
asistente
asistentu
asiu
ask
asliu
asm
asmenavimas
asmeni
asmenimis
asmenims
asmenine
asmenini
asmeniniai
asmeninio
asmeninis
asmeniniu
asmeninius
asmenis
asmeniu
asmeniui
asmens
asmenu
asmenvardinis
asmenvardis
asmenvardz
asmenybe
asmenybiu
asmenys
asmuo
asociacija
asociacijos
asociaciju
asp
aspektai
aspektais
aspektas
aspektu
aspektus
aspirantu
aspx
association
asta
astana
asteraceae
asteroidas
asteroidu
asti
asties
astimi
astis
aston
astra
astrachane
astravo
astriniai
astriniu
astronomai
astronomas
astronomija
astronomijos
astronomu
astu
astys
astyse
asu
asyz
at
ata
ataka
atakas
atakavo
atakos
ataku
atakuojanc
atakuoti
atalanta
atari
atas
ataskaita
ataskaitoje
ataskaitos
atauga
ataugos
atbe
ate
ateikiu
ateina
ateinanc
ateis
ateiti
ateities
ateitininkai
ateitininku
ateitis
ateityje
ateiviu
ateizmo
atgaivino
atgaivinti
atgal
atgauti
atgavimo
atgavo
atgavus
atgime
atgimima
atgimimas
atgimimo
athina
athletic
atidare
atidarymas
atidarymo
atidaryta
atidarytas
atidaryti
atidarytos
atidave
atide
atidengta
atidengtas
atiduota
atiduotas
atiduoti
atidz
atimta
atimti
atiteko
atitenka
atitikmuo
atitiko
atitikti
atitiktu
atitinka
atitinkama
atitinkamai
atitinkamas
atitinkamo
atitinkamos
atitinkamu
atitinkanc
atitinkanti
atitinkantis
atitirpsta
atitru
atkakliai
atkarpa
atkarpoje
atkarpos
atkeliavo
atkers
atkoc
atkovojo
atkreipe
atkreipti
atkrentamu
atkrintama
atkrintamosios
atkrintamosiose
atkrintamu
atku
atkuriamojo
atkurta
atkurtas
atkurti
atkurtos
atlaidai
atlaike
atlaikyti
atlanta
atlantas
atlantic
atlanto
atlantos
atlas
atlasas
atlaso
atle
atleido
atleidz
atleistas
atleisti
atletas
atletico
atletika
atletikos
atlieka
atliekama
atliekamas
atliekami
atliekamos
atliekamu
atliekanc
atliekant
atliekantis
atliekos
atlieku
atlikdamas
atlikdavo
atlike
atlikima
atlikimas
atlikimo
atlikine
atliko
atlikta
atliktas
atlikti
atlikto
atliktos
atliktu
atlikus
atlikusi
atlyginima
atlyginimo
atmaina
atmainos
atmainu
atmestas
atmesti
atmeta
atmete
atminima
atminimas
atminimo
atminimui
atminti
atminties
atmintis
atmintyje
atmosfera
atmosferoje
atmosferos
atmus
atnaujinimas
atnaujinimo
atnaujino
atnaujinta
atnaujintas
atnaujinti
atnaujintos
atnes
atodanga
atodangos
atogra
atokiau
atolas
atolo
atomai
atomas
atomine
atominis
atominiu
atomo
atomu
atoslu
atostogas
atostogos
atostogu
atp
atpaz
atplauke
atr
atrade
atradima
atradimai
atradimas
atradimo
atradimu
atrado
atradus
atrama
atramine
atramos
atramu
atranda
atranka
atrankine
atrankoje
atrankos
atrasta
atrastas
atrasti
atrastos
atre
atremti
atributas
atributika
atributu
atrijos
atrinkti
atris
atrode
atrodo
atrodyti
atrodytu
ats
atsaka
atsakas
atsake
atsakinga
atsakingas
atsakingasis
atsakingi
atsakingu
atsako
atsakomosios
atsakomybe
atsakyma
atsakymas
atsakymo
atsakyti
atsarga
atsargas
atsargiai
atsargine
atsarginis
atsarginiu
atsargos
atsargu
atsidare
atside
atsidu
atsiduria
atsie
atsigauti
atsigavo
atsigre
atsiimti
atsike
atsikratyti
atsikrauste
atsiku
atsiliepe
atsiliepimu
atsilike
atsiliko
atsimainymo
atsiminimai
atsiminimu
atsinaujinanc
atsinaujino
atsines
atsipras
atsirade
atsiradima
atsiradimas
atsiradimo
atsirado
atsiradus
atsiradusi
atsiranda
atsirasti
atsis
atsisake
atsisakius
atsisako
atsisakymas
atsisakyta
atsisakyti
atsise
atsiskiria
atsiskirti
atsiskleidz
atsiskyre
atsiskyrimo
atsispinde
atsispindi
atsistatydinimo
atsistatydino
atsistatydinti
atsisveikinimas
atsisveikino
atsitiko
atsitiktinai
atsitiktine
atsitiktiniu
atsitrauke
atsitraukti
atsiu
atsiunte
atsive
atsiveria
atsiverte
atsivez
atsiz
atskaitos
atskilo
atskira
atskirai
atskirais
atskiras
atskiri
atskiria
atskiro
atskiroje
atskiromis
atskiros
atskirose
atskirta
atskirtas
atskirti
atskirtos
atskirtu
atskiru
atskiruose
atskirus
atskleide
atskleidz
atskleisti
atskyre
atspalvi
atspalvio
atspalviu
atsparu
atsparuma
atsparumas
atsparumo
atsparus
atspinde
atspindi
atspindinc
atspindz
atsr
atstate
atstatymo
atstatyta
atstatytas
atstatyti
atstatytieji
atstova
atstovai
atstovais
atstovams
atstovas
atstovaudamas
atstovauja
atstovaujamoji
atstovaujanc
atstovaujanti
atstovaujantis
atstovaus
atstovauti
atstovave
atstovavimas
atstovavimo
atstovavo
atstove
atstovo
atstovu
atstovui
atstovus
atstovybe
atstuma
atstumai
atstumas
atstumo
atstumu
attack
atvaizdai
atvaizdais
atvaizdas
atvaizdu
atvaz
atve
atvede
atvejai
atvejais
atvejis
atveju
atvejus
atvez
atvira
atvirai
atvirame
atviras
atvirasis
atviri
atvirks
atviro
atviroje
atvirojo
atviros
atvirose
atviru
atvykdavo
atvyke
atvykimo
atvyko
atvyksta
atvykti
atvykus
atvykusi
atvykusiu
atz
au
auc
audant
aude
audeklo
audi
audimas
audimo
audiniai
audinio
audiniu
audiniuose
audinius
audinys
audio
audito
auditorija
auditorijai
auditorijos
audmenu
audo
audra
audras
audrey
audrius
audrone
audros
audru
audykle
audymas
audymo
audytas
audyti
audz
auf
auflage
aug
auga
augalai
augalais
augalams
augalas
augalija
augalijos
augaline
augalininkyste
augaliniu
augalo
augalu
augalus
auganc
augant
auganti
augantis
augantys
augaviete
auge
augima
augimas
augimo
augimui
augina
auginama
auginamas
auginami
auginamos
auginimas
auginimo
auginimu
augino
auginti
augintoju
augmenija
augmenijos
augo
augs
augti
augus
augusi
august
augusta
augustas
augustavo
auguste
augustinas
augustino
augusto
augustui
auk
auka
aukas
auke
aukia
aukima
aukimas
aukimo
aukimu
aukle
aukliai
aukojamos
aukojimo
aukojo
aukomis
aukoms
aukos
aukoto
auks
auksa
auksas
auksine
auksini
auksiniai
auksiniais
auksinio
auksinis
auksiniu
aukso
auksu
aukta
auktas
aukti
auku
aukuras
aukuro
auliai
aulio
auliu
aulys
auna
aunamu
aura
aurelija
aurelijaus
aurelijus
aureus
aurimas
aurora
aus
ausies
ausis
auskaite
auskas
auskiene
ausko
austin
australia
australian
australija
australijoje
australijos
australis
australu
austria
austrija
austrijai
austrijoje
austrijos
austroneziec
austru
ausu
ausys
aut
autas
autentis
auti
auto
autobiografija
autobiografine
autobusai
autobusas
autobusu
automagistrale
automatine
automatiniai
automatinio
automatinis
automatiniu
automatis
automatu
automobili
automobiliai
automobiliais
automobiliams
automobilio
automobilis
automobiliu
automobiliui
automobilius
automobilyje
autonomija
autonomijos
autonomine
autonomis
autoportretas
autore
autoriai
autoriaus
autorine
autoriniu
autoriteta
autoritetas
autoriu
autoriumi
autorius
autoryste
autosporto
autuva
autuvai
autuvas
autuvo
autuvu
autuvus
av
ava
available
avalyne
avarai
avarija
avarijos
avarine
avaru
avas
ave
avi
avia
aviacija
aviacijoje
aviacijos
aviacine
aviakompanija
aviakompanijos
aviation
aviete
avis
aviu
aviv
avivo
aviz
avo
avos
avosi
avro
avys
award
awards
away
az
azerbaidz
azija
azijiec
azijoje
azijos
azotas
azoto
azovo
b
ba
babe
babiloniec
babilonijos
babilono
babrungas
babrungo
babtu
baby
bac
bacevic
bachas
bacho
back
bad
badas
baden
badeno
bado
badu
baensch
bafta
bagaslavis
bagaz
bagdado
bagdonas
bagdonavic
bagdonis
bagrationovsko
baha
bahaju
bahamu
bahreino
bai
baic
baidare
baidariu
baige
baigia
baigiama
baigiant
baigiantis
baigiasi
baigimo
baigme
baigta
baigtas
baigti
baigtinis
baigtis
baigtos
baigus
baigusi
baikale
baikalo
baime
bais
baisiai
baisogalos
baisu
baisus
bajorai
bajorams
bajoras
bajorijos
bajoris
bajoro
bajoru
bakalauro
baker
baks
bakterijos
bakteriju
baku
bal
bala
balade
balai
balais
balandi
balandis
balandz
balansas
balanse
balanso
balas
balbieris
balc
baldai
baldu
bale
baletas
baletmeisteris
baleto
balio
balionu
balistine
baliu
balkanu
balkanuose
balks
ball
balninku
balo
balsa
balsai
balsais
balsams
balsas
balsavimas
balsavimo
balsavimu
balsavo
balse
balsi
balsiai
balsio
balsis
balsiu
balsius
balso
balstoge
balsu
balsui
balsuoti
balsus
balsva
balsys
balta
baltai
baltais
baltaisiais
baltaodz
baltarusiai
baltarusija
baltarusijoje
baltarusijos
baltarusis
baltarusiu
baltas
baltasis
balti
baltic
baltica
baltieji
baltiesiems
baltija
baltijos
baltimore
baltis
baltischen
baltistas
balto
baltoji
baltojo
baltomis
baltos
baltosiomis
baltosios
baltramiejaus
baltru
baltrus
baltu
baltus
baltymai
baltymas
baltymo
baltymu
baltymus
balu
balus
balys
bambuko
ban
bananai
bananu
band
banda
bandant
bande
bando
bandoma
bandydamas
bandyma
bandymai
bandymams
bandymas
bandymo
bandymu
bandymus
bandyta
bandytas
bandyti
bandz
bandza
banevic
bang
banga
bangas
banginiai
banginiu
banglades
bangomis
bangos
bangu
banionis
bank
banka
bankai
bankas
banke
bankgorodov
bankininkas
bankininkyste
banknotai
banknotu
banko
bankroto
bankrutavo
banku
bankui
bantu
baptiste
baptistu
bar
bara
barai
baranauskas
baranausko
baras
barauskas
baravykas
barbadoso
barbara
barbaru
barbora
barboros
barbus
barc
barcelona
bare
bareikis
bareis
bari
bario
baritonas
barkauskas
barnes
baro
barokine
baroko
baronas
barono
barry
bars
barselona
barselonoje
barselonos
barstyc
bartas
bartku
bartkus
bartninku
bartolome
bartos
bartus
baru
barzda
barzdu
barzdz
bas
basanavic
base
based
baseina
baseinas
baseine
baseino
baseinu
baseinui
baseinuose
basel
basic
basket
basketball
basketnews
basku
batai
batakiu
bataliona
batalionai
batalionas
bataliono
bate
baterija
baterijos
batista
batoras
batoro
battle
batu
batyte
baubliai
baubliu
baublys
baud
bauda
baudini
baudiniu
baudos
baudz
baus
bauske
bausme
bausmiu
bauz
bavarija
bavarijoje
bavarijos
bavo
bay
bayer
bayern
baz
bazademografia
baze
bazelio
bazes
bazilika
bazilikoje
bazilikos
bazine
baziu
baznycia
bb
bbc
bbl
bc
bd
be
beach
bear
beat
beatles
beatric
beautiful
beauty
bebrai
bebro
bebru
bebu
bec
beck
bedugne
been
beer
beerschot
before
begaline
begalybe
begin
behind
bei
being
beisbolo
beitar
beiz
beje
bekele
bel
bela
belaisviai
belaisviu
belarus
belenenses
belfast
belgija
belgijoje
belgijos
belgradas
belgrade
belgrado
belgu
believe
belizo
bell
belle
belo
beludz
belzo
ben
benas
bendra
bendraamz
bendraautore
bendraautoriai
bendraautoris
bendrabuc
bendrabutis
bendradarbe
bendradarbiauja
bendradarbiaujant
bendradarbiauti
bendradarbiavima
bendradarbiavimas
bendradarbiavimo
bendradarbiavo
bendradarbis
bendradarbiu
bendrai
bendrame
bendraminc
bendras
bendrasis
bendraties
bendrauja
bendrauti
bendravimas
bendravimo
bendravo
bendraz
bendri
bendrieji
bendrija
bendrijos
bendriju
bendrine
bendro
bendroje
bendroji
bendrojo
bendros
bendrosios
bendrove
bendrovei
bendroves
bendroviu
bendru
bendruomene
bendruomenei
bendruomenes
bendruomeniu
bendrus
bendz
bene
benediktas
benediktinu
benedikto
benfica
bengalija
bengalijos
bengalu
beni
benino
benito
benjamin
benjaminas
bennett
bent
benz
beograd
ber
berberai
berberu
berc
beresnevic
berg
bergamo
bergen
berger
beringo
berlin
berlyna
berlynas
berlyne
berlyno
bern
bernard
bernardas
bernardinai
bernardinu
bernardo
bernas
bernie
berniuka
berniukai
berniukas
berniuko
berniuku
berno
bernotis
berry
bertas
berz
bes
besa
besiginanc
besikeic
besiktas
besimokydamas
besisukanc
besite
besivystanc
best
bet
beta
bethovenas
bethoveno
betis
betonine
betoninis
betoniniu
betonio
betono
better
betula
between
betygalos
bev
bevarde
bevardi
bevardis
bevardz
beveik
beviltis
beyonce
beyond
bez
bezdoniu
bf
bg
bh
bi
bialos
bialostockos
biatlono
białystok
biblija
biblijoje
biblijos
bibliofilas
bibliografas
bibliografija
bibliografijos
biblioteka
bibliotekai
bibliotekininkas
bibliotekininke
bibliotekoje
bibliotekos
biblioteku
bic
bieliauskas
bielinis
bielskis
bielsko
bienale
bieta
bietos
big
bijo
bijojo
biju
biku
bilas
bilbao
bild
bilevic
biliardo
bilietai
bilietu
bilis
biliu
bill
billboard
billion
billy
bim
bin
bio
biochemijos
biochemikas
biodiversity
biograficzny
biografija
biografijos
biografiju
biografine
biografinis
biography
bioi
biologas
biologija
biologijos
biologine
biologiniu
biology
biomase
biomedicinos
biosferos
biplan
bird
birdlife
birds
birkirkara
birmingham
birs
birth
birute
birz
bis
bisau
bismarkas
bite
bitininkas
bitininkyste
bitu
biudz
biuletenis
biura
biuras
biure
biuro
biuru
biustas
biz
bizantija
bizantijai
bizantijos
bizkit
bjo
bk
bla
black
blackburn
blackwell
blaivybe
blake
blas
blaz
ble
blind
blinda
bliu
bliuzo
blizganc
blog
bloga
blogai
blogas
bloge
blogi
blogiausia
blogio
blogis
blogo
blogos
blogu
bloka
blokada
blokas
bloko
bloku
blokuoja
blood
bloomberg
blu
blue
blues
bluz
blys
bmatrix
bmp
bmw
bmx
bnei
bns
bo
board
boavista
bob
boba
bobas
bobby
bobsle
boc
boca
body
boeing
bogdanas
bogdano
bogus
boguslavas
bohemian
bohemijos
boks
boksas
boksininkas
bokso
boleslovas
bolidas
bolivija
bolivijoje
bolivijos
bologna
bolonijoje
bolonijos
bols
bolton
bomba
bombardavimo
bombones
bombos
bombu
bon
bona
bonapartas
bonaparte
bonaparto
bondo
bone
bonifacas
bono
bonos
bonus
book
books
boom
bora
boras
bordeaux
border
bordo
borgo
boris
borisas
boriso
born
borneo
boro
bortkevic
borussia
boruta
bos
bosas
bosine
bosistas
bosnija
bosnijoje
bosnijos
boso
boston
bostonas
bostone
bostono
botanikas
botanikos
botaninis
botev
botic
botsvanos
bottom
botvinikas
bowie
box
boxes
boy
boys
boz
br
bra
braclavo
brad
bradley
braga
brahma
braiz
brand
branda
brandenburg
brandenburgo
brandos
brandu
branduoli
branduoliai
branduoline
branduolinio
branduoliniu
branduolio
branduoliu
branduolys
brandz
brangi
brangiai
brangiu
brangu
brangus
brann
bransko
bras
brasta
brastos
bratislava
bratislavos
bratkauskas
braun
braunas
brauno
brauns
bravo
braz
brazauskas
brazdz
brazilas
brazilija
brazilijoje
brazilijos
brazilu
bre
break
breaking
bremen
breslaujos
brest
bresto
bretane
brez
bri
briai
brian
briauna
briaunainiai
briaunainio
briaunainiu
briaunos
bridge
bridz
briedis
briedz
brigada
brigados
bright
brigita
brill
brio
bris
brisbane
brisbano
bristol
brit
britai
britain
britams
britanija
britanijai
britanijoje
britanijos
britannica
britas
britis
british
britney
britu
briu
briuselio
briuselis
briuselyje
brno
bro
brodve
broken
broli
broliai
broliais
broliams
brolija
brolijos
brolio
brolis
broliu
broliui
brolius
bromwich
brone
broniaus
bronislovas
bronius
brons
bronza
bronzine
bronzinis
bronzos
brooker
brooklyn
bros
brother
brothers
brown
bru
bruce
bruges
brugge
brukline
bruklino
brune
bruno
brunonas
bruoz
bruxelles
bruz
bryan
bryje
btr
bts
btv
bu
bubiu
buc
bucharos
bucket
buda
budapes
budapest
bude
budistai
budistine
budistu
budizma
budizmas
budizme
budizmo
budos
budriai
budriu
budrys
buenos
buganto
bugo
buick
building
buities
buitine
buitis
buityje
buivydis
buivydz
bukares
bukis
bukoniu
buku
bule
bulgarai
bulgarija
bulgarijoje
bulgarijos
bulgaru
bull
bulletin
bulls
bulo
bulota
bulve
bulviu
bundesarchiv
bundesliga
buoz
burac
burba
burbis
burbonu
bure
bureau
burgundijos
buriavimo
burkina
burmistras
burna
burnos
burtai
burtininkas
burton
burtu
burundz
burz
bus
bush
business
but
buta
butano
butas
bute
butelis
buteliu
buti
butis
butkevic
butkis
butku
butkus
butler
butnorius
buto
butrimas
butrimoniu
butu
butyje
buv
buvau
buve
buveine
buveiniu
buvima
buvimas
buvimo
buvo
buvus
buvusi
buvusia
buvusiam
buvusiame
buvusias
buvusio
buvusioje
buvusios
buvusiose
buvusiu
buvusius
bvp
by
byc
byla
bylas
byloja
byloje
bylos
bylose
bylu
byron
bytom
bz
c
ca
cadillac
caesar
cafe
calanthe
calcio
california
call
calvin
cambridge
camera
cameron
camp
campbell
camus
can
canada
canadian
canal
cancer
canis
cao
capital
capitol
captain
car
cara
caras
cardiff
carex
carine
carl
carlo
carlos
carmen
caro
carol
carolina
caroline
carrie
cars
carter
caru
carui
casa
case
cases
castle
castro
cat
catalogue
category
cathedral
catherine
catholic
cavaliers
cave
cb
cbs
cc
ccd
cd
cdot
ce
cechanoveco
cechas
cecho
ceikiniu
cele
celiulioze
cell
celne
celnos
celtic
celtics
cementas
cemento
cemetery
census
center
centimetru
centra
centrai
centrais
central
centralizuota
centras
centre
centrine
centrinei
centrini
centriniai
centriniame
centrinio
centrinis
centriniu
centro
centru
centrui
centruose
centrus
centu
century
cenzu
ceremonija
ceremonijoje
ceremonijos
cerkiew
cerkve
cern
cerro
cezario
cezaris
cf
cgi
ch
cha
chabarovsko
chac
chad
chain
challenge
challenger
champions
championship
chan
chanas
chanatas
chanato
chance
chanel
chang
change
channel
chano
chanty
chanu
chaos
chaoso
chapter
charakteri
charakterio
charakteris
charakteristika
charakteristikas
charakteristikos
charity
charkovo
charleroi
charles
charlie
charlotte
chart
chartija
charts
che
chelmo
chelsea
chemical
chemija
chemijos
chemikai
chemikas
chemine
cheminiai
cheminio
cheminis
cheminiu
chemis
chemoterapija
chen
cher
chess
chevrolet
chi
chicago
chief
child
children
chile
chili
china
chinese
chiquititas
chirurgas
chirurgija
chirurgijos
chisinau
cho
chodkevic
choice
cholesterolio
chora
chorai
chorais
chorams
choras
chore
choreografas
choreografe
choreografija
choreografijos
chorine
chormeisteris
choro
choros
choru
chorui
chorus
chorvede
chorvedys
chorvedz
chorzow
chose
chreptavic
chris
christ
christian
christina
christmas
christopher
chromosomos
chromosomu
chronologija
chronologine
chrus
chrysler
chu
chuan
chuanas
chuano
chuck
church
ci
cia
cice
ciceronas
cid
cie
cija
cijas
cikla
ciklai
ciklas
cikle
ciklo
ciklu
cilindris
cilindro
cilindru
cinema
cinko
cio
circle
circus
cirkas
cirko
citadele
cities
citrinos
citroe
citta
cituoja
city
ciu
ciuriche
ciuricho
civil
civiliai
civiline
civiliniai
civilinio
civilinis
civiliniu
civilistas
civiliu
civilizacija
civilizacijos
civilizaciju
civilization
ck
cl
claire
clark
clarke
clash
class
classic
classical
classification
claude
claudia
claudio
clausura
cliff
climate
clinical
clio
close
cloud
club
clube
cm
cn
cnn
co
coa
coast
coat
coca
code
codex
coelogyne
coffea
cohen
col
cola
cold
coldplay
cole
colin
coliu
collection
college
collins
color
colors
columbia
column
com
come
comes
comics
coming
command
committee
common
commons
communication
communications
community
companion
company
comparative
complete
complex
computer
con
concacaf
concert
conference
conflict
congress
conservation
contemporary
content
control
convention
cook
cooper
copa
coppa
cork
cornelius
coronavirus
corporation
corps
corpus
corvette
corvus
corydoras
cos
cosmos
costa
could
council
counter
countries
country
county
coupe
court
cover
covid
cp
cpc
cpk
cr
craig
crash
crazy
creative
crime
crisis
cross
crow
crown
cruz
crvena
cry
crystal
cs
cska
ct
cu
cukranendre
cukranendriu
cukraus
cukru
cukrus
cultural
culture
cup
current
curtis
cut
cv
cvirka
cvirkos
cygnus
cymru
cypraea
cyprinidae
cz
d
da
dab
dabar
dabarties
dabartine
dabartines
dabartini
dabartiniai
dabartiniame
dabartinio
dabartinis
dabartiniu
dabartis
dabikine
dabuz
dac
dagestano
dagys
dai
daic
daikta
daiktai
daiktas
daiktavardis
daiktavardz
daikto
daiktu
daiktus
dail
daile
dailide
dailininka
dailininkai
dailininkas
dailininke
dailininko
dailininku
dailininkui
dailiojo
dailis
dailusis
daily
daimler
daina
dainai
dainas
dainava
dainavima
dainavimo
dainavo
dainavos
dainele
dainiai
dainininkai
dainininkas
dainininke
dainininko
dainininku
dainis
dainiu
dainiuose
dainius
dainoje
dainomis
dainoms
dainos
dainose
dainu
dainuodavo
dainuoja
dainuoti
dais
daiva
dakanis
dakaro
daktarai
daktaras
daktare
daktaro
daktaru
daku
dal
dalai
dale
dalele
daleles
daleliu
dali
dalia
daliai
dalies
dalija
dalijasi
dalijimosi
dalijosi
dalimi
dalimis
dalina
dalinai
dalinama
dalinasi
daline
dalini
daliniai
daliniais
daliniams
dalinio
daliniu
daliniuose
dalinius
dalinosi
dalinti
dalintis
dalinys
dalios
dalis
daliu
dalius
dalmatijos
dalyje
dalyka
dalykai
dalykas
dalyko
dalyku
dalykus
dalys
dalyse
dalyvaudamas
dalyvaudavo
dalyvauja
dalyvaujanc
dalyvaujant
dalyvaus
dalyvauti
dalyvave
dalyvavima
dalyvavimas
dalyvavimo
dalyvavo
dalyvavusi
dalyvavusios
dalyvavusiu
dalyve
dalyviai
dalyviais
dalyviams
dalyvio
dalyvis
dalyviu
dalyvius
dama
damas
damasis
damasko
dambrauskas
dambravos
dame
dames
dami
damiesi
damos
dams
dan
dana
danai
danas
danc
dance
dancigo
dancing
dane
danga
dangaus
dangis
dangoraiz
dangos
dangu
danguje
dangumi
dangun
danguole
dangus
daniel
daniele
danielis
danielius
danija
danijai
danijoje
danijos
danilovic
daniu
danny
danovo
dans
dante
dantiras
dantis
dantu
dantys
danu
danute
daps
dar
dara
darant
daras
darba
darbai
darbais
darbams
darbas
darbavosi
darbdaviu
darbe
darbine
darbininkai
darbininkams
darbininkas
darbininku
darbininkus
darbinis
darbo
darbs
darbu
darbui
darbuose
darbuotoja
darbuotojai
darbuotojams
darbuotojas
darbuotojo
darbuotoju
darbuotojus
darbus
dare
darfu
dargis
darguz
dari
dariaus
dariniai
dariniu
darinys
darius
dark
darkiemio
darna
darnos
daro
daroma
daromas
daromi
daromos
daros
darosi
darsu
daru
darvinas
darvino
daryba
darybos
darydavo
darykla
daryklos
darymo
daryta
darytas
daryti
darytos
darz
das
dasu
data
database
date
datos
datuojama
datuojamas
datuojami
dau
dauba
daubaris
daubos
dauc
daug
daugailiu
dauge
daugeli
daugelio
daugelis
daugeliu
daugeliui
daugelyje
daugiabuc
daugiafunkcis
daugiakove
daugiamandate
daugiamec
daugiamete
daugiametis
daugias
daugiau
daugiausia
daugiausiai
dauginasi
dauginc
dauginimasis
dauginimosi
daugintis
daugirdas
daugiskaita
daugiskaitoje
daugiskaitos
daugkartine
daugkartinis
daugpilio
daugpilis
daugu
dauguma
daugumai
daugumoje
daugumos
dauguvos
daugybe
dauje
daukantas
daukanto
dauks
daulyte
daumantas
daunoras
daunoravos
dautartas
dauz
dave
david
davidas
davies
davimo
davini
daviniai
davinio
daviniu
daviniuose
davinius
davinyje
davinys
davis
davo
davosi
davyste
dawn
day
days
daz
db
dc
dd
de
dead
deal
dean
death
debeikiu
debesies
debesis
debesu
debesys
debitas
debiuta
debiutas
debiutavo
debiutine
debiutini
debiutiniai
debiutiniame
debiutinio
debiutinis
debiuto
debiutu
dec
december
deda
dedama
dedamas
dedami
dedamos
dee
deep
deere
default
defense
dega
degalu
deganc
dege
degima
degimai
degimas
degimo
degli
degsne
degti
degtine
deguc
deguonies
deguonimi
deguonis
degutis
dei
deild
deimante
deimantu
deive
deividas
deivido
deja
dekanas
dekanatai
dekanatas
dekanato
dekanatui
dekano
deklaracija
deklaracijos
dekoratyvine
dekoratyviniai
dekoratyvinis
dekoratyviniu
dekoruoti
dekretas
dekretu
del
dela
delakrua
delavero
dele
delegacija
delegacijos
delegatu
delfi
delio
delis
dell
della
delle
delta
deltoje
deltos
deltuvos
deluxe
dem
demo
demografia
demografija
demokratai
demokratija
demokratijos
demokratine
demokratinio
demokratiniu
demokratis
demokratu
demonai
demonas
demons
demonstracija
demonstracijos
demonstravo
demonu
den
denge
dengia
dengta
dengtas
dengti
deni
denis
dennis
departamenta
departamentai
departamentais
departamentas
departamente
departamento
departamentu
departamentui
departamentus
departement
department
depeche
deportivo
depresija
depresijos
deputatai
deputatas
deputatu
der
dera
derby
dere
derino
derinti
derinys
derliaus
derlinga
derlingos
derlingumo
derliu
derlius
derme
derybas
derybos
derybose
derybu
des
desanto
desert
design
destiny
det
detail
details
detale
detales
detaliai
detaliu
detektyvas
detektyvu
detroite
detroito
deutsch
deutsche
deutschen
deutschland
development
devil
devinta
devintajame
devintasis
devintojo
devono
devyneriu
devyni
devynias
devynios
devynis
devyniu
devynmete
dez
dfk
dfw
dg
dgalvis
dgs
dh
di
diagnostika
diagnostikos
diagnoze
diagrama
dialektai
dialektas
dialektu
dialogas
diamond
diana
dic
dick
dictionary
did
dide
didele
dideles
dideli
dideliais
dideliam
dideliame
dideliems
didelio
didelis
dideliu
dideliuose
didelius
didenybe
didesne
didesnes
didesni
didesnio
didesnioji
didesnis
didesniu
didesnius
didi
didieji
didier
didikai
didikas
didiku
didina
didino
didinti
didis
didmeistre
didmeistriai
didmeistrio
didmeistris
didmeistriu
didmiesc
didumo
diduomene
didvyriai
didvyrio
didvyris
didvyriu
didybe
didysis
didz
die
diec
diegas
diege
diego
diegta
diegti
diena
dienai
dienas
diene
dienine
dienomis
dienoms
dienoras
dienos
dienras
dienu
dies
dietrich
dieva
dievai
dievais
dievams
dievas
dieve
dievenis
dievis
dievo
dievu
dievui
dievus
dievybe
dievybiu
diferencialine
differdange
different
digital
dija
dijai
dijos
dike
diki
dikiai
dikio
dikis
dikiu
diktatorius
diktatu
dilge
dilindz
dima
dimiai
dimio
dimiu
dimos
dimu
dimys
din
dina
dinama
dinamas
dinamika
dinamis
dinamo
dinaru
dinas
dinastija
dinastijai
dinastijos
dinastiju
dinc
dine
dinga
dingas
dinge
dingi
dingo
dingos
dingsta
dingu
dingus
dini
diniai
dinimas
dininkas
dinio
dinis
diniu
dino
dinozaurai
dinozauru
dinti
dinyste
dio
dioksidas
dioksido
diploma
diplomas
diplomatai
diplomatas
diplomatija
diplomatijos
diplomatine
diplomatiniai
diplomatiniu
diplomatinius
dipterocarpus
dir
dirba
dirbama
dirbami
dirbamos
dirbanc
dirbant
dirbanti
dirbantis
dirbantys
dirbdamas
dirbdavo
dirbe
dirbiniai
dirbiniu
dirbinius
dirbo
dirbti
dirbtinai
dirbtine
dirbtinio
dirbtinis
dirbtiniu
dirbtuve
dirbtuves
dirbtuviu
dirbusi
dirbusiu
direction
direkcija
direkcijos
direktore
direktoriai
direktoriaus
direktoriu
direktoriumi
direktorius
direktyva
dirigavima
dirigavimo
dirigavo
dirigentai
dirigentas
dirigente
dirigento
dirigentu
diriz
dirty
dirva
dirvoje
dirvonai
dirvonis
dirvonuoja
dirvos
dirvoz
dirz
dis
disciplina
disciplinas
disciplinos
disciplinu
disco
discogs
discovery
disease
disertacija
disertacijos
disidentas
diska
diskai
diskas
disko
diskografija
diskriminacija
disku
diskusija
diskusijas
diskusijos
diskusiju
diskutuojama
diskvalifikuotas
disne
disney
distancija
distancijoje
distancijos
distribution
district
divisio
division
divizia
divizija
divizijos
diviziju
diviziona
divizionas
divizione
diviziono
divizionuose
diz
dizaina
dizainas
dizainere
dizaineriai
dizaineris
dizaineriu
dizaino
dj
dk
dlc
dlk
dm
dmitrijaus
dmitrijus
dna
dnai
dni
dnia
dnicy
dniepro
dniestro
dninku
dnr
do
dobilas
dobkevic
dobrovolsko
dobz
doc
docentas
docente
docento
documents
dodge
does
dog
dogg
doi
doje
dokpaieska
doktorantu
doktrina
doktrinos
dokumenta
dokumentacija
dokumentai
dokumentais
dokumentas
dokumente
dokumentine
dokumentini
dokumentinio
dokumentinis
dokumentiniu
dokumento
dokumentu
dokumentuose
dokumentus
dol
doleris
doleriu
doll
dolls
dolomito
dom
domantas
domarkas
domas
dome
domeikavos
domenico
domenu
domi
dominavimo
dominavo
domingo
dominika
dominikonu
dominikos
domininkas
dominique
domino
dominuoja
dominuojanc
dominuojanti
dominuoti
dominykas
dominyko
domis
domisi
domu
domus
don
dona
donald
donaldas
donas
donatas
donatello
donecko
donelaic
donna
dono
doom
dopingo
dora
dore
dorove
dorpato
dortmund
dorybe
dos
dotnuvos
double
douglas
dovana
dovanojo
dovanos
dovanu
dovile
dovilu
dovydaitis
dovydas
dovydo
down
doz
doze
dp
dr
dra
drabuz
dragon
dragons
dragu
drake
drakonas
drakono
drama
dramatis
dramaturgai
dramaturgas
dramaturge
drambliai
dramblio
drambliu
dramblys
dramoje
dramos
dramu
drastis
draude
draudima
draudimas
draudimo
draudz
drauga
draugai
draugais
draugams
draugas
drauge
draugija
draugijai
draugijoje
draugijos
draugiju
draugis
draugo
draugu
draugui
draugus
draugyste
drausme
drausta
draustas
drausti
draustini
draustiniai
draustinio
draustinis
draustiniu
draustinyje
draustos
dre
dream
dreams
dreamworks
drebe
drebule
dresden
dresdeno
dreve
dri
drieke
driekiasi
driez
drive
drobe
drohic
drop
dros
droz
dru
drugiai
drugiu
drugys
drupal
druska
druskingumas
druskininkai
druskininku
druskininkuose
druskos
drusku
druz
dryz
ds
dsakai
dsaku
dsakus
dsc
dt
du
duba
dube
dubene
dubeniu
dubens
dubic
dubingiu
dubleriai
dubleriu
dublin
dubline
dublino
dubos
dubuo
duburyje
dubysa
dubysos
duc
dudelange
due
duetai
duetas
dueto
duetu
dugna
dugnas
dugne
dugno
dugnu
dujas
dujine
dujomis
dujos
dujotiekio
dujotiekis
duju
dukart
duke
dukra
dukrai
dukras
dukros
dukte
duktere
dukteri
dukterimi
dukterine
dukteris
dukters
dukteru
dukterys
dulke
dulkiu
dumble
dumbliu
dumblo
dundalk
dundee
dune
dunkso
dunojaus
duobe
duobele
duobiu
duobute
duoc
duoda
duodama
duodamas
duodami
duodavo
duok
duokle
duom
duomenimis
duomenis
duomenu
duomenys
duona
duonos
duose
duota
duotas
duoti
duoties
duotis
duotu
duotys
dur
during
duris
durpe
durpiu
durpynas
durpyno
durres
duru
durys
dus
dusetu
dutch
dute
duty
duva
duvos
duz
dv
dvara
dvarai
dvaras
dvarc
dvardis
dvardz
dvare
dvarelis
dvarininkai
dvarininkas
dvarininko
dvarininku
dvaris
dvaro
dvaru
dvarui
dvaruose
dvarus
dvarviec
dvarviete
dvasia
dvasine
dvasini
dvasininkai
dvasininkas
dvasininko
dvasininku
dvasinio
dvasinis
dvasiniu
dvasiomis
dvasios
dvasis
dvasiu
dvd
dve
dvejas
dvejetu
dveji
dvejiems
dvejomis
dvejos
dvejose
dveju
dvejus
dvi
dviauks
dvibalsiai
dviboks
dvides
dviec
dviejose
dvieju
dviejuose
dviem
dviese
dviguba
dvigubai
dvigubas
dvigubo
dvigubos
dvigubu
dvikova
dvikove
dvinare
dvirac
dviratininkai
dviratininkas
dvis
dviviec
dviviete
dvivietis
dvylika
dvylikapirs
dvylikos
dvyniai
dvyniu
dw
dx
dy
dydi
dydis
dydz
dyje
dykuma
dykumoje
dykumos
dykumose
dykumu
dynai
dynamo
dynas
dynasty
dyne
dyno
dynu
dys
dysnos
dz
dzerz
dzeusas
dzeuso
dzi
dzin
dziudo
dziugas
dztwo
dzu
e
ea
eagle
earl
early
earth
east
eastern
easy
eazy
eb
ebriu
ebu
ec
echo
echovas
eco
economic
economy
ed
edas
eddie
eden
edevru
edgar
edgaras
edge
edinburgh
edinburgo
edit
edita
edited
edition
editions
editor
edmundas
edo
eds
edu
eduard
eduardas
eduardo
education
edukacine
edukologijos
eduvos
edvardas
edvardo
edvinas
edward
edz
ee
eesti
ef
efas
efekta
efektai
efektas
efekto
efektu
efektus
efektyvi
efektyviai
efektyvu
efektyvuma
efektyvumas
efektyvumo
efektyvus
effect
ege
egidijus
egipta
egiptas
egipte
egiptiec
egiptietis
egipto
egle
egliu
eglute
eglynai
ego
egypt
egz
egzamina
egzamino
egzaminu
egzaminus
egzemplioriu
egzempliorius
egzistave
egzistavima
egzistavimas
egzistavimo
egzistavo
egzistavusi
egzistavusios
egzistencija
egzistuoja
egzistuojanc
egzistuoti
egzoplaneta
egzoplanetos
egzotis
eh
ei
eic
eichas
eidamas
eidami
eidavo
eide
eidima
eidimai
eidimas
eidimo
eidimu
eidimus
eidz
eiga
eigoje
eigos
eiguliu
eik
eika
eikiai
eikis
eikiu
eikiuose
eil
eile
eiles
eiliniai
eilinis
eiliniu
eilis
eiliu
eiluc
eilute
eima
eimai
eimantas
eimas
eimelio
eimenos
eimiai
eimininkai
eimininkas
eimininke
eimininko
eimininku
eimio
eimis
eimiu
eimoje
eimomis
eimoms
eimos
eimsa
eimsas
eimso
eimu
eimyna
eimynis
ein
eina
einanc
einant
einanti
einantis
einantys
eindhoven
eine
einer
eins
eintracht
einu
eis
eisena
eisma
eismas
eismo
eista
eistas
eisti
eistos
eistu
eiti
eities
eitu
eivijoje
eivijos
eiviu
ejl
ejus
ek
eka
ekai
ekas
ekauskas
ekija
ekijoje
ekijos
ekipa
ekipai
ekipaz
ekipoje
ekipos
ekipose
ekipu
ekis
eko
ekologija
ekologijos
ekologine
ekologis
ekonomija
ekonomijos
ekonomika
ekonomikai
ekonomikoje
ekonomikos
ekonomine
ekonomines
ekonomini
ekonominiai
ekonominio
ekonominis
ekonominiu
ekonominius
ekonomis
ekonomistai
ekonomistas
ekonomiste
ekosistema
ekosistemu
ekoslovakija
ekoslovakijoje
ekoslovakijos
ekrana
ekranas
ekrane
ekrano
eks
ekscentricitetas
ekslibrisu
ekspansija
ekspansijos
ekspedicija
ekspedicijas
ekspedicijoje
ekspedicijos
ekspediciju
eksperimentai
eksperimentas
eksperimentavo
eksperimentine
eksperimentinio
eksperimentinis
eksperimento
eksperimentu
ekspertai
ekspertas
eksperte
ekspertize
ekspertu
eksploatacija
eksploatacijos
eksploatuoti
eksponatai
eksponatu
eksponavo
eksponuojama
eksponuojamas
eksponuojami
eksponuoti
eksportas
eksporto
eksportui
eksportuojama
ekspozicija
ekspozicijos
ekspresas
ekspresionizmo
ekspyras
ekspyro
eku
ekvadoras
ekvadore
ekvadoro
el
ela
elamitu
elamo
elas
elbe
elder
ele
electric
electronic
elegantis
elei
elektra
elektre
elektrikas
elektrine
elektrini
elektriniai
elektrinio
elektrinis
elektriniu
elektromagnetine
elektronai
elektronas
elektronika
elektronikos
elektronine
elektroniniai
elektroninio
elektroninis
elektroniniu
elektrono
elektronu
elektros
elektrotechnikos
elementa
elementai
elementais
elementas
elemento
elementu
elementus
elena
elenos
eleonora
elfu
elge
elgesi
elgesio
elgesiu
elgesys
elgiasi
elgsena
elgsenos
elgtis
eli
eliabinsko
eliai
eliais
elio
elipse
elipsis
elis
elisabeth
elitas
elite
elitine
elito
eliu
eliuose
elius
elizabeth
ellen
elmenine
elniai
elnias
elnio
elniu
elo
elpti
elta
elton
eltonas
elvis
elvos
elvyra
elyje
elz
em
ema
emai
emaic
emaite
emaitija
emaitijoje
emaitijos
emaitis
emaitkiemio
emaitkiemis
emale
emanuele
emanuelis
emapelke
emas
emblema
emdirbiai
emdirbiu
emdirbyste
emdirbystei
eme
emei
emes
emesne
emesni
emesnio
emesnis
emesniu
emesniuose
emi
emiai
emiau
emiausia
emiausias
emieji
emietijos
emigracija
emigracijoje
emigracijos
emigrantu
emigravo
emil
emilija
emilijos
emilio
emilis
emily
emine
eminem
eminiai
eminio
eminis
eminiu
emio
emis
emiu
emiuose
emius
emma
emmy
emo
emocijas
emocijos
emociju
emos
empiona
empionai
empionairsssf
empionais
empionas
empionata
empionatai
empionatas
empionate
empionato
empionatu
empionatui
empionatuose
empionatus
empione
empioniu
empiono
empionu
empionui
empire
emu
emulsiklis
emuma
emumoje
emumos
emumose
emumu
emupi
emupio
emupyje
emupys
emutine
emutinio
emutinis
emutiniu
emvaldz
emyje
emyn
emyna
emynas
emyne
emynine
emyninis
emyno
emynu
emynuose
emyras
emyratai
emyratas
emyratu
en
ena
enas
enc
enciklopedija
enciklopedijoje
enciklopedijos
enciklopediju
enciklopedininkai
enciklopedinis
encyclopaedia
encyclopedia
encyclopædia
end
endemine
endeminiu
endriejavo
endriu
ends
endz
ene
energetika
energetikas
energetikos
energetine
energija
energijos
energy
eneva
enevoje
enevos
eng
enge
engia
engimo
engine
engineering
england
english
engti
enis
enka
enkla
enklai
enklais
enklas
enkliai
enklis
enklo
enklu
enklus
enko
enkos
eno
enough
enrico
enrique
ens
entaitis
entas
entertainment
entre
entu
entuziastu
environment
environmental
enybe
enzo
ep
epa
epas
epe
epetovo
epic
epidemija
epidemijos
epine
epizodai
epizodas
epizode
epizodu
epkeliu
epo
epocha
epochoje
epochos
eponis
eps
epsa
epulis
epyro
er
era
erai
erais
eras
erc
erdis
erdve
erdvine
erdviu
ere
eredivisie
ereliai
erelio
erelis
ereliu
eres
erewan
ergine
eri
eria
eriai
eric
erich
erichas
erik
erika
erikas
erine
erinis
erio
eris
eritre
eritrocitu
eriu
erius
erke
erks
erle
ermitaz
ermuks
ermuone
ernai
ernas
ernest
ernestas
ernesto
erniachovskio
erniachovsko
erniauskas
ernigovo
ernis
ernobylio
ernst
ernstas
ernu
ero
eros
erotine
erotiniai
erozija
erozijos
ers
ersio
erskis
ertme
eru
eruose
erus
erwin
erys
erz
es
esa
esama
esamasis
esame
esamojo
esamu
esanc
esant
esanti
esantis
esantys
esas
esbo
esch
ese
eseistas
esi
eska
eskadrile
eskas
esko
eslavas
eslovas
eslovo
esme
esmine
esminis
esminiu
esne
esnes
esni
esnio
esnis
esniu
esnius
espan
esperanto
espn
est
esta
estadio
estafete
estai
estate
este
esterio
esteris
esteryje
estetika
estetikos
estetine
esti
estija
estijai
estijoje
estijos
estonia
estrada
estradine
estrados
estu
estuarija
esu
esybe
et
eta
etai
etalono
etapa
etapai
etapais
etapas
etape
etapo
etapu
etapuose
etapus
etas
etc
ete
eteks
eteryje
ethnic
ethnikos
ethnologue
etienne
etika
etikete
etikos
etimologija
etine
etiologine
etiopija
etiopijoje
etiopijos
etiudai
etmonas
etmono
etnine
etniniai
etniniu
etnografas
etnografijos
etnografine
etnografinis
etnokultu
etnologas
eto
etrusku
etu
eu
eucalyptus
eufrato
eugene
eugenija
eugenijus
eukaliptas
eukaliptu
eur
eurazijoje
eurazijos
euro
eurobasket
eurolygoje
eurolygos
europa
europaea
europai
europe
european
europiec
europietis
europine
europinio
europinis
europiniu
europoje
europos
eurovizija
eurovizijoje
eurovizijos
euru
eustachijus
euve
ev
eva
evakuoti
evaldas
evangelija
evangelijos
evangelikai
evangeliku
evangelisto
evans
evas
evc
eve
evelina
even
events
ever
everton
every
everything
evic
evidence
evikai
evikais
eviku
evil
evo
evoliucija
evoliucijos
evolution
evskio
evskis
ex
example
exist
exoplanet
experience
exploration
express
extra
eye
eyed
eyes
ez
ezerai
f
fa
fabaceae
fabio
fabrika
fabrikai
fabrikas
fabrike
fabriko
face
facebook
facies
factbook
facto
factor
facts
failu
fair
faith
fakta
faktai
faktas
faktine
faktis
faktoriai
faktoriu
faktorius
faktu
faktus
fakulteta
fakultetai
fakultetas
fakultete
fakulteto
fakultetu
fakultetuose
falco
falcon
fall
fame
family
fan
fanai
fantastika
fantastikos
fantastine
fantastiniai
fantastinis
fantastiniu
fantasy
fantazija
fantazijos
fanu
far
faraonai
faraonas
faraono
faraonu
fareru
farmacijos
faroe
fas
fasadai
fasadas
fasade
fasado
fasadu
fashion
faso
fast
fat
fauna
faunos
faustas
faze
fb
fbk
fc
fe
fear
feat
features
february
fechtavimo
federacija
federacijai
federacijoje
federacijos
federaciju
federacine
federaciniu
federaline
federalinio
federalinis
federaliniu
federation
federeris
federico
feel
felc
feldje
feldmars
feliksas
felikso
felipe
felis
felix
female
fenerbahce
fenikso
fenomenas
feodaline
ferdinand
ferdinandas
ferdinando
ferencvaros
ferganos
fergie
ferma
fermentacijos
fermentai
fermentu
fermos
fernandas
fernando
ferrari
festival
festivali
festivaliai
festivalio
festivalis
festivaliu
festivaliuose
festivalyje
ff
fi
fia
fiat
fiba
fiction
fide
fidz
field
fields
fifa
fight
fighter
fighters
figu
fiksavo
fiksuota
fiksuotas
fiksuoti
fiksuotos
filadelfijoje
filadelfijos
filantropas
file
files
filharmonija
filharmonijos
filialai
filialas
filialo
filialu
filija
filipas
filipinai
filipinu
filipinuose
filipo
film
filma
filmai
filmais
filmams
filmas
filmavimas
filmavimo
filmavosi
filme
filmo
filmografija
films
filmu
filmui
filmuose
filmuota
filmuoti
filmuotis
filmus
filologas
filologija
filologijos
filomena
filosofai
filosofas
filosofija
filosofijoje
filosofijos
filosofine
filosofiniu
filosofo
filosofu
final
finala
finalai
finalas
finale
finaline
finalini
finaliniame
finalininkas
finalinio
finalinis
finalo
financial
finansai
finansavima
finansavimas
finansavimo
finansavo
finansine
finansiniais
finansininkas
finansinis
finansiniu
finansis
finansu
finansuoti
find
fine
finikiec
finis
finougru
finu
fiodoras
fiorentina
fiorentinas
fire
firenze
firma
firmos
first
firuzdz
fis
fischer
fish
fisher
fiuzeliaz
five
fizika
fizikai
fizikas
fizikine
fizikoje
fizikos
fiziku
fizine
fizini
fiziniai
fizinio
fizinis
fiziniu
fiziologas
fiziologija
fiziologijos
fizis
fk
fl
flag
flamandu
flamurtari
flandrijos
flash
flashscore
flavijus
flea
fleita
fleitai
flickr
flight
floor
flora
florencija
florencijoje
florencijos
floriana
florida
floridoje
floridos
floros
flotile
flower
flowers
floyd
fly
flying
fm
fn
fo
focus
foje
fokker
folk
folklore
folkloro
following
fon
fonas
fonda
fondai
fondas
fondo
fondu
fondui
fone
fonetika
fonetine
fontana
fontanas
fontsize
food
foot
football
for
forall
forbes
force
forces
ford
fordas
foreign
forest
forever
forma
formaliai
formas
format
formata
formatas
formato
formatu
formavima
formavimas
formavimasis
formavimo
formavimosi
formavo
formavosi
former
formoje
formomis
formos
formose
formu
formula
formule
formuoja
formuojant
formuojasi
formuota
formuotas
formuoti
formuotis
fort
forta
fortas
forte
fortepijono
fortepijonu
fortepijonui
forto
fortu
fortuna
fortune
forum
forumas
forumo
fosforo
fosilijos
fosiliju
foster
foto
fotoalbumas
fotografai
fotografas
fotografe
fotografija
fotografijos
fotografiju
fotografu
fotografuoti
fotomenininkas
fotomenininku
fotosinteze
fotoz
found
foundation
four
fox
fr
fra
frac
fragmentai
fragmentas
fragmentu
frakcija
frakcijai
frakcijos
fram
frame
franc
franca
francas
france
francesco
francis
francisco
franciske
francisko
franco
frank
frankai
frankas
frankfurt
frankfurtas
frankfurte
frankfurto
franklin
franko
frankonijos
franku
frans
fransiskas
fransisko
fransua
franz
fraze
fre
fred
frederick
frederikas
frederiko
free
freedom
french
frenkas
freska
freskas
freskomis
freskos
fresku
fridrichas
friedrich
friedrichshafen
friends
fritz
friulio
friulu
from
front
fronta
frontas
fronte
fronto
frontonas
frontono
frontui
frunze
frusciante
frydlando
frydrichas
frydricho
fryzu
fs
fsb
ft
ftb
fu
fudz
fulbiu
full
fun
fundavo
funk
funkcija
funkcijas
funkcijos
funkciju
funkcine
furtado
fussballdaten
futbol
futbola
futbolas
futbole
futbolininkai
futbolininkas
futbolininke
futbolininko
futbolininku
futbolinis
futbolo
futsal
future
g
ga
gabale
gabenami
gabeno
gabenti
gabija
gabono
gabriel
gabriele
gabrielis
gabrielius
gac
gadu
gadyne
gaga
gai
gaidamavic
gaidelis
gaidys
gaidz
gaila
gaile
gailestingumo
gailevic
gailis
gailiu
gailius
gaine
gainiu
gaire
gais
gaisra
gaisrai
gaisras
gaisrine
gaisro
gaisru
gaius
gaiz
gaja
gajanos
gajus
gal
gala
galai
galais
galaktika
galaktikos
galaktiku
galas
galatasaray
galaxy
galbu
galdikas
gale
galerija
galerijoje
galerijos
gali
galia
galiai
galias
galiausiai
galicijos
galija
galijos
galile
galima
galimai
galimas
galime
galimi
galimo
galimos
galimu
galimus
galimybe
galimybes
galimybiu
galina
galinc
galine
galinga
galingas
galingi
galingiausiu
galingos
galingu
galingumo
galiniai
galinis
galiniu
galinti
galintis
galintys
galio
galioja
galiojanc
galiojimai
galiojimo
galiojimu
galiojimus
galiojo
galios
galiotasis
galioti
galiotinis
galisijos
galite
galiu
gallen
gallery
galo
galop
galu
galuose
galus
galutinai
galutine
galutini
galutiniai
galutinio
galutinis
galva
galvas
galvijai
galviju
galvijus
galvoje
galvojimui
galvojo
galvos
galvosu
galvoti
galvu
galvute
galybe
gama
gambijos
gambitas
game
games
gamina
gaminama
gaminamas
gaminami
gaminamos
gaminanc
gaminant
gaminiai
gaminimo
gaminiu
gaminius
gamino
gaminta
gamintas
gaminti
gamintoja
gamintojai
gamintojas
gamintojo
gamintoju
gaminys
gamma
gamos
gamta
gamtai
gamtine
gamtiniai
gamtininkas
gamtinis
gamtiniu
gamtoje
gamtos
gamtosaugos
gamyba
gamybai
gamybine
gamybinio
gamybinis
gamyboje
gamybos
gamykla
gamykloje
gamyklos
gamyklose
gamyklu
gan
gana
gandai
gandras
gane
gangos
ganoje
ganos
gant
gantas
ganto
ganyklos
ganyklose
ganyklu
ganytojo
garai
garantavo
garantuoja
garaz
garbe
garbei
garbinama
garbinamas
garbinimas
garbinimo
garbino
garci
garcia
gardamo
garden
gardine
gardino
gargz
garis
garliava
garliavos
garnys
garo
gars
garsa
garsai
garsas
garsaus
garse
garsesni
garsi
garsia
garsiai
garsiausi
garsiausia
garsiausias
garsiausiu
garsija
garsina
garsine
garsino
garsios
garsiu
garso
garstyc
garsu
garsus
garsusis
garu
garvez
gary
gas
gastroliavo
gatauc
gate
gatve
gatvele
gatves
gatvinis
gatviu
gaublio
gaublys
gaubta
gaubtas
gauc
gaudavo
gaudeamus
gaudo
gaudykle
gaudyti
gauja
gaujos
gauna
gaunama
gaunamas
gauname
gaunami
gaunamos
gaunant
gaure
gaus
gausa
gause
gausi
gausia
gausiai
gausiausia
gausiausiai
gausios
gausiu
gauso
gausu
gausus
gausybe
gauta
gautas
gauti
gautos
gautu
gautus
gave
gavimas
gavimo
gavo
gavus
gavusi
gavusiu
gavyba
gavybos
gay
gaz
gazeta
gazos
gb
gc
gd
gdansko
gdavo
gdz
ge
gear
geba
gebe
gebiet
gebietsstand
gec
gediminaic
gediminas
gedimino
gedimo
geffen
gegu
gegute
geguz
geidz
geis
gel
gelbe
geldape
geleris
gelez
gelfandas
gelgaudis
gelme
gelmiu
gelsenkirchen
gelsva
gelsvai
gelsvas
gelsvi
gelsvos
geltona
geltonai
geltonais
geltonas
geltonasis
geltoni
geltonoji
geltonos
geltonosios
geltonu
gelvonu
gelz
gen
genadijus
genai
genc
gene
genealogija
general
generalgubernatorius
generaline
generalinio
generalinis
generaliniu
generation
generatorius
generola
generolai
generolas
generolo
generolu
generolui
genesis
genetika
genetikos
genetine
genetiniai
genetiniu
genetis
geneve
geniai
genius
geno
genoa
genocidas
genocido
genomo
genova
genovaite
genti
genties
gentimis
gentims
gentine
gentis
gentyje
gentys
genu
genujos
genus
genwiki
genys
geo
geodezijos
geoffrey
geografas
geografija
geografijos
geografine
geografiniame
geografinis
geografiniu
geografis
geograph
geographic
geographisches
geologas
geologija
geologijos
geologine
geologinis
geologiniu
geometrija
geometrine
geomorfologinis
georg
georgas
george
georges
georgia
georgijaus
georgijus
ger
gera
gerai
gerard
gerardas
geras
gerbe
gerbiamas
gere
geresne
geresni
geresnio
geresnis
geresniu
gerhard
geri
geria
geriama
geriau
geriausi
geriausia
geriausiai
geriausiais
geriausiam
geriausias
geriausio
geriausios
geriausiu
geriausius
gerinti
geriu
gerkle
germain
german
germanai
germanas
germanis
germanu
germany
gero
gerokai
geros
gerosios
gerove
gerti
gertru
geru
gerullis
gerus
gerve
geschichte
gesellschaft
gestapo
get
geta
getas
gete
geto
gets
getty
gf
ghost
gi
gia
giacomo
giai
giais
giallo
giant
gibraltaro
gidas
gieda
giedojo
giedoti
giedra
giedraic
giedraitis
giedre
giedrius
giedrys
giesme
giesmes
giesmiu
gif
gija
gije
gijo
gikas
gil
gilbert
gildija
gildijos
gile
gili
giliai
giliau
giliausia
gilios
giliu
gilles
gilu
giluma
gilumoje
gilus
gilyn
gim
gima
gimas
gimdos
gimdymo
gime
gimima
gimimas
gimimo
gimimu
giminaic
giminaitis
gimine
giminei
gimines
gimininga
giminingi
giminingu
giminiu
giminyste
gimnastika
gimnastikos
gimnazija
gimnazijoje
gimnazijos
gimnazijose
gimo
gimsta
gimstamumas
gimta
gimtadieni
gimtadieniai
gimtadienio
gimtajame
gimtasis
gimtine
gimtoji
gimtojo
gimtojoje
gimtosios
gimtu
gimus
gimusi
gimusiu
gimz
gina
ginanc
ginant
ginc
gindamas
gine
gineitis
gineso
giniai
giniotis
giniu
ginkla
ginklai
ginklais
ginklas
ginklo
ginklu
ginkluota
ginkluotas
ginkluote
ginkluoti
ginkluotos
ginkluotosios
ginkluotu
ginklus
ginku
gino
gintama
gintaras
gintare
gintaro
gintaru
gintas
gintautas
ginti
gintis
gintra
gintros
gio
giorgio
giovanni
gira
girabola
giraite
girdavos
girde
girdi
girdo
girdvainis
girdz
gire
girele
giria
girininkai
girininkas
girininkija
girininkijos
girininku
girioje
girios
giriu
girkalnio
girl
girls
girondins
giros
girs
girsti
gis
gitara
gitaristas
gitaristu
gitaros
giu
giui
giulio
gius
giuseppe
give
given
giz
gks
gl
glasgow
glass
glaudz
glazgo
glazu
gle
gleive
gleivine
glemz
glen
glenn
glentoran
gli
gliai
gliese
gligoric
glinskis
glis
gliu
gliukoze
globa
global
globalsportsarchive
globe
globojo
globos
globoti
gloria
glory
glu
gluosniu
glus
glz
gm
gmbh
gme
gmina
gna
gnai
gnais
gnas
gne
gniauz
gnieji
gniezno
gnininkas
gniuz
gno
gnome
gnose
gnu
gnuose
go
goal
gobio
god
goda
gods
goes
gogh
going
goja
gojus
gold
goldbeck
golden
golfo
gomelio
gomis
goms
gone
gonza
good
goodbye
google
gorbac
gordon
gore
gorkio
gorkis
gornik
gorskis
gos
gose
gossard
got
gotai
gotikine
gotikinio
gotikos
gotis
gotu
gov
government
goz
gp
gpl
gps
gr
gra
grace
grafai
grafaite
grafas
grafiene
grafika
grafikai
grafikas
grafike
grafikos
grafine
grafo
grafu
grafui
grafyste
graham
graikai
graikija
graikijai
graikijoje
graikijos
graikis
graiku
graiz
grajevo
graks
gramatika
gramatikos
gramatine
grammy
gran
granada
granados
granata
granatsvaidz
grand
grande
grandine
grandiniu
grandis
granitas
granito
grant
gras
grasilda
grasshopper
grauz
gravitacija
gravitacijos
gravitacine
graviu
gray
graz
gre
great
greatest
greek
green
greg
greic
greit
greita
greitai
greitas
greitasis
greiti
greitis
greitkelis
greito
greitojo
greitosios
greitu
gremz
grenados
grenlandija
grenlandijos
gresia
greta
gretas
gretima
gretimame
gretimas
gretimo
gretimos
gretimose
gretimu
gretose
grey
gri
griauc
griauz
griciu
gricius
grietine
griez
grifas
grifu
grigaitis
grigaliaus
grigalis
grigaliu
grigalius
grigas
grigis
grigorijus
grikevic
griks
grincevic
grindu
grindys
grindz
griniaus
griniu
grinius
grinkis
griovi
grioviai
griovio
grioviu
griovys
gripo
gris
griu
griuve
gro
grobe
grobi
grobio
grodzisko
groja
grojama
grojanti
grojantis
groje
grojimo
grojo
grota
groti
ground
group
grove
groz
gru
gruble
grudeko
grunto
gruodi
gruodis
gruodz
grupe
grupei
grupele
grupes
grupine
grupiu
grupuoc
grupuote
grus
gruz
gruzdz
gruzija
gruzijoje
gruzijos
gruzinu
grybai
grybas
grybauskaite
grybauskas
grybo
grybu
gryc
gryna
grynai
grynas
gryno
grynu
gs
gso
gst
gsta
gstama
gstamas
gstamiausia
gt
gta
gti
gto
gu
guardian
gubernatoriai
gubernatoriaus
gubernatoriumi
gubernatorius
gubernija
gubernijai
gubernijoje
gubernijos
guberniju
guc
gucevic
gudai
gudaic
gudaitis
gudavic
gude
gudeliai
gudelis
gudeliu
gudijoje
gudijos
gudis
gudu
gudz
guez
guide
guitar
gula
gulbe
gulbine
gulbinis
gulbiu
gule
guli
gulos
gulsc
guma
gumbine
gumbure
gumos
gumu
gun
guno
guns
gurevic
gurjevsko
guru
gus
gusevo
gustaic
gustaitis
gustas
gustav
gustavas
gustavo
gutauskas
guy
guz
gvaraniu
gvardeisko
gvardija
gvardijos
gvatemala
gvatemaloje
gvatemalos
gvianos
gvidas
gvine
gydant
gyde
gydoma
gydyma
gydymas
gydymo
gydymui
gydyti
gydytoja
gydytojai
gydytojas
gydytojo
gydytoju
gyja
gyje
gyli
gylio
gylis
gylyje
gylys
gyne
gynimo
gynyba
gynybai
gynybine
gynybiniai
gynybinis
gynybiniu
gynyboje
gynybos
gyre
gyta
gyti
gytis
gyv
gyva
gyvac
gyvai
gyvam
gyvas
gyvate
gyvave
gyvavimo
gyvavo
gyvavusi
gyvena
gyvenama
gyvenamas
gyvenamasis
gyvenamieji
gyvenamoji
gyvenamojo
gyvenamos
gyvenamosios
gyvenamu
gyvenanc
gyvenanti
gyvenantiems
gyvenantis
gyvenantys
gyvendamas
gyvendavo
gyvendina
gyvendinant
gyvendinima
gyvendinimas
gyvendinimo
gyvendino
gyvendinta
gyvendintas
gyvendinti
gyvene
gyvenima
gyvenimai
gyvenimas
gyvenime
gyvenimo
gyvenimu
gyvenimui
gyvenimus
gyveno
gyventa
gyventi
gyventojai
gyventojais
gyventojams
gyventojas
gyventoju
gyventojui
gyventojus
gyvenusi
gyvenusios
gyvenusiu
gyvenviec
gyvenviete
gyvenvietei
gyvenvietes
gyvi
gyvo
gyvos
gyvosios
gyvsidabrio
gyvu
gyvuliai
gyvuliams
gyvulininkyste
gyvuliu
gyvulius
gyvuoja
gyvus
gyvybe
gyvybei
gyvybes
gyvybis
gyvybiu
gz
gło
h
ha
habil
habilituota
habilituotas
habilituoto
hablo
habsburgai
habsburgu
hac
had
hadsono
hadz
hagoje
hagos
haic
haifa
hainuvkos
hajduk
haka
halberstadt
hale
half
halic
hall
halle
halo
ham
hamburg
hamburgas
hamburge
hamburgo
hamilton
hamiltonas
hamiltono
hamps
hamrun
han
hana
hand
handbook
handbuch
hands
hanna
hanoverio
hans
hansa
hansas
hanso
hanzos
haplochromis
hapoel
happy
harald
hard
hardcore
hari
hario
haris
harmonija
harmonijos
harold
haroldas
harper
harris
harrison
harry
hart
harvard
harvardo
harvey
has
hasanas
hat
hausu
havaju
havajuose
have
hawker
hawks
hb
hbo
hc
hd
he
head
header
health
heart
hearts
heat
heaven
heavy
hebraju
heep
hegelmann
hegemonija
heidelbergo
height
heinrich
heinrichas
heinz
hektaru
helen
helena
helio
hell
hello
helmut
help
helsinki
helsinkio
helsinkis
helsinkyje
henri
henrik
henrika
henrikas
henriko
henrio
henris
henry
henryk
her
hera
heraklio
heraklis
heraldika
heraldikoje
heraldikos
heraldinis
herba
herbai
herbarz
herbas
herbe
herbert
herbertas
herbo
herbu
hercegovina
hercegovinoje
hercegovinos
hercogai
hercogas
hercogo
hercogu
hercogyste
here
heritage
herman
hermanas
hermann
hermano
hermiona
hero
heroes
herojai
herojaus
heroje
heroju
herojus
hertha
heseno
het
hetitu
hey
hi
hibernian
hibernians
hidejos
hidroelektrine
hidroelektriniu
hidrografinis
hidrotechnikas
hidrotechnikos
hierarchija
high
higher
higienos
hill
hills
himalaju
himalajuose
himna
himnai
himnas
himno
himnu
hindi
hinduistai
hinduistine
hinduistu
hinduizmas
hinduizmo
hip
hiphopo
hipotekos
hipotetine
hipoteze
hiros
his
histoire
historia
historical
history
hit
hitais
hitas
hitlerio
hitleris
hits
hitu
hiustono
hjk
hk
hl
ho
hodz
hogvartso
hokaido
hold
holivude
holivudo
holland
hollywood
holmes
holocaust
holokaustas
holokausto
hols
holy
home
homero
homo
honda
hondu
hong
honkongas
honkonge
honkongo
honor
hons
honved
hook
hop
hope
hopea
horizontaliai
horizonto
hormonai
hormonu
horse
hot
hotel
hotspur
hou
house
houston
how
howard
hp
hr
hrsg
hs
htm
html
http
https
hu
hudson
hugas
hugh
hughes
hugo
human
humanistas
humanitarine
humanitariniu
humoro
hunai
hunt
hunter
hunu
huritu
hurricane
husaru
huseinas
hush
hydronymia
hz
i
ia
iaaf
iadieni
iadoriu
iadorys
iaga
iagalos
iagas
iagoje
iagomis
iagoms
iagos
iagu
iagyviu
iai
iaip
iais
iaisiais
iajai
iajam
iajame
iakalnio
iakalnis
iakalnyje
iakampe
iakampio
iakampis
iako
iala
ialape
ialapiu
iam
iama
iamas
iamasi
iamasis
iame
iami
iamieji
iamiesc
iamo
iamoji
iamojo
iamos
iamosios
iams
iamu
iamus
ian
ianc
iandien
iandiena
iant
ianti
iantis
iantys
ias
iasdes
iasi
iasis
iasvydz
iata
iatikiai
iatikiu
iatikybe
iatkos
iau
iauc
iaudine
iaudu
iauge
iaugsma
iaugsmas
iaugsmo
iaule
iauliai
iauliec
iauliete
iauliu
iauliuose
iaulius
iaure
iauriai
iauriau
iauriausia
iaurine
iaurines
iaurini
iauriniai
iauriniame
iaurinio
iaurinis
iauriniu
iauriniuose
iaurrytine
iaurus
iaus
iausi
iausia
iausiai
iausiais
iausiame
iausias
iausiasis
iausio
iausioje
iausioji
iausiojo
iausios
iausiosios
iausiu
iausius
iauskas
iava
iave
iavima
iavimai
iavimais
iavimas
iavime
iavimo
iavimu
iavimui
iavimus
iavo
iavos
iavus
iaz
iazas
iazo
iba
ibe
iberijos
ibintai
ibintu
ibiras
ibis
ibm
ibn
ibu
ibuc
iburiai
iburio
ic
ica
icao
ice
ich
icos
id
ida
idant
ide
idealu
idealus
identifikuoti
identis
identity
ideologija
ideologijos
idiku
idinio
idiniu
idinys
idlauskas
idol
idz
ie
iec
ieda
iedai
iedais
iedas
iede
iedine
iedis
iedo
iedu
iedus
iedynas
iedz
iejasu
ieji
iek
ieks
iema
iemgala
iemgaliu
iemgalos
iemoja
iemojimo
iemomis
iemos
iems
iena
iene
ieniu
ieno
ies
iestos
ieties
ietis
ieva
ieve
ievos
iez
if
ifk
ig
igano
igliaukos
iglis
ign
ignalina
ignalinos
ignas
ignatavic
igno
ignotas
ignoto
igonai
igonu
igor
igoris
ii
iii
iitu
ija
ijo
ijos
ik
ika
ikaga
ikagoje
ikagos
ikai
ikaite
ikas
ike
ikea
iki
ikijos
ikimokyklinio
iklis
iko
ikona
ikonos
ikos
iks
iku
il
ila
ilai
ilaic
ilaite
ilale
ilas
ilavoto
ilc
ildymo
ile
ileikis
ilelis
ilevic
ilga
ilgaamz
ilgai
ilgainiui
ilgais
ilgalaike
ilgalaikio
ilgalaikis
ilgam
ilgamec
ilgamete
ilgametis
ilgas
ilgasis
ilge
ilgesne
ilgesni
ilgesnis
ilgi
ilgiau
ilgiausia
ilgiausiai
ilgiausias
ilgiausiu
ilgieji
ilgine
ilgio
ilgis
ilgiu
ilgiz
ilgo
ilgomis
ilgos
ilgu
ilgus
ili
iliai
ilimo
iline
ilinis
ilinojaus
ilinskas
ilinskiene
ilinsko
ilio
ilis
iliu
iliustr
iliustracija
iliustracijos
iliustraciju
iliustratorius
iliustravo
iliustruota
iliustruotas
iliuzija
ilja
ilko
illustrated
ilo
ilona
ilos
ilse
ilsisi
ilta
iltas
iltine
iltnamio
iltos
iltu
ilu
iluma
ilumine
ilumos
ilute
iluvos
ilvic
ilvinas
ilyru
ilys
im
ima
image
images
imagesize
imai
imais
imama
imamas
imamos
imams
imamu
imanc
imant
imanti
imantis
imas
imasi
imbare
imbrado
imc
imdamas
imdavo
imdb
ime
img
imi
imiai
imigracija
imigracijos
imigrantai
imigrantu
imio
imis
imiu
imkaic
imkaus
imku
imkus
imo
imone
imoniu
imonyte
imos
impact
impala
imperatore
imperatoriai
imperatoriaus
imperatoriene
imperatoris
imperatoriu
imperatoriui
imperatoriumi
imperatorius
imperial
imperija
imperijai
imperijoje
imperijos
imperiju
imperine
importas
importo
imre
ims
imt
imta
imtai
imtajame
imtas
imtasi
imtasis
imti
imties
imtinai
imtine
imtiniu
imtis
imtmec
imtmete
imtmeti
imtmetis
imtmetyje
imto
imtojo
imtos
imtu
imtuka
imtumo
imtus
imtyje
imtyne
imtynininkas
imtyniu
imtys
imu
imui
imunine
imus
in
ina
inai
inama
inamas
inami
inanc
inant
inas
inau
inc
incidentas
incidento
increment
inda
indai
indamas
indas
inde
indeksa
indeksas
independent
index
india
indian
indiana
indianos
indie
indija
indijoje
indijos
indinis
indino
indis
individai
individas
individo
individu
individualaus
individuali
individualiai
individualioje
individualios
individualiu
individualu
individualus
indo
indoariju
indoeuropiec
indoirane
indokinijos
indonezija
indonezijoje
indonezijos
indra
indras
indre
indu
indukcija
induoc
induoliai
induolis
induoliu
indus
industrial
industrija
industrijos
industry
indz
ine
inerija
inerijos
inerine
inerinio
ineriniu
ines
inf
infekcija
infekcijos
infekcine
infliacija
infliacijos
info
infobox
infolex
informa
informacija
informacijos
informacine
informacinio
informacinis
informaciniu
informatika
informatikos
information
informavimo
informavo
infrastruktu
infty
ing
inga
ingai
ingas
ingo
ingoje
ingos
ingrid
ingrida
ingsni
ingsniai
ingsnio
ingsnis
ingsniu
ingtonas
ingtone
ingtono
ingu
ingus
ingybe
ini
inia
iniai
iniais
iniajame
inias
iniasklaida
iniasklaidoje
iniasklaidos
iniciatoriu
iniciatorius
iniciatyva
iniciatyvine
iniciatyvos
inicijavo
inieji
iniene
iniere
inieriai
inieriaus
inieriu
inieriumi
inierius
inija
inijos
inima
inimas
inimo
inimu
inimui
ininka
ininkai
ininkais
ininkams
ininkas
ininke
ininko
ininku
ininkui
ininkus
ininkyste
inio
inioji
iniojo
iniomis
inion
inios
iniovo
inis
iniu
iniuose
inius
inka
inkai
inkaras
inkeli
inkeliai
inkelio
inkelis
inkeliu
inkstu
inku
innsbruck
ino
inocentas
inodamas
inoje
inojo
inoma
inomais
inomas
inome
inomi
inomiausi
inomiausia
inomiausias
inomiausiu
inomo
inomos
inomu
inomus
inos
inosi
inoti
inovaciju
inovas
ins
inside
inska
inskaite
inskas
inskiene
inskio
inskis
insko
inspekcija
inspekcijos
inspektoriumi
inspektorius
instagram
instancijos
institucija
institucijas
institucijomis
institucijoms
institucijos
institucijose
instituciju
institut
instituta
institutai
institutas
institute
instituto
institutu
institutui
instruktorius
instrumentai
instrumentais
instrumentams
instrumentas
instrumentine
instrumentinis
instrumento
instrumentu
instrumentus
int
inta
intakai
intakais
intakas
intako
intaku
intas
integracija
integracijos
integruota
integruoti
intel
intelektas
intelektine
intelekto
intelektualu
inteligentijos
inteligentu
intelligence
intensyvi
intensyviai
intensyvios
intensyvumas
intensyvumo
intensyvus
inter
interactive
interaktyvus
interesai
interesais
interesams
interesu
interesus
interior
interjeras
interjero
internacionalo
internatine
international
internationale
internazionale
internet
interneta
internetas
internete
internetine
internetinis
internetiniu
interneto
internetu
interpretacija
interpretacijos
interscope
intertoto
intervalas
intervale
intervencija
intervencijos
interview
interviu
inti
intinis
intis
into
intos
intro
introduction
intu
inturke
inu
inus
inusi
inute
invazija
invazijos
invazine
inventoriaus
inventoriuje
inventorius
investavo
investicijos
investiciju
investicine
investuoti
investuotoju
inybe
inyje
inynas
inyno
inys
inysis
inz
io
iobis
ioc
iodavo
iogalos
iogu
ioj
ioja
iojama
iojamas
iojami
ioje
ioji
iojimas
iojimo
iojo
iojoje
iokai
iokas
iokle
ioku
iol
iolika
iolikos
ioliktfinalis
iomis
ioms
ion
ionai
ione
ioniai
ionimis
ionims
ionis
ioniu
ionybe
ionys
ionyse
ioros
ios
iose
iosiomis
iosios
iotas
ioti
iotimis
iotis
iotojai
iotojas
iotoju
iotu
iotys
iotyse
iova
iovas
iovinti
iovo
ip
ipad
iphone
iplis
ipolitas
ir
ira
iraka
irakas
irake
irako
iran
irana
iranas
irane
irano
iras
irc
irdi
irdies
irdis
irdyje
irdz
ireland
irena
irene
irga
irgai
irgas
irgi
irgo
irgu
irimo
irina
iris
irish
irklavimas
irklavimo
irkluotojas
irkutsko
irma
irmu
irnis
irniu
iro
iron
ironis
irs
irtys
irve
irvinta
irvintos
irvintu
is
isa
isaac
isavo
isbn
isiere
isieriai
isieriaus
isieriu
isieriumi
isierius
iskcon
islam
islama
islamas
islamis
islamo
island
islandija
islandijoje
islandijos
islands
islandu
islovas
iso
isp
ispanai
ispanams
ispanas
ispanija
ispanijai
ispanijoje
ispanijos
ispanis
ispanu
israel
issn
issue
ist
istanbul
istas
istine
istore
istorija
istorijai
istorijas
istorijoje
istorijos
istoriju
istorikai
istorikas
istorike
istoriko
istoriku
istorine
istorines
istorini
istoriniai
istoriniais
istoriniame
istorinio
istorinis
istoriniu
istoriniuose
istorinius
istoriografijoje
istoris
istorizmo
istu
isu
isuotas
isuoti
it
ita
itai
itaip
italai
italas
italia
italian
italiana
italija
italijai
italijoje
italijos
italis
italu
italy
itas
item
itemid
itin
ito
itos
its
itu
itunes
iu
iugas
iugo
iugz
iui
iuje
iuka
iukai
iukaite
iukaitis
iukas
iukc
iukis
iuko
iuks
iuku
iule
iules
iuli
iuliai
iuliene
iulio
iulionis
iulis
iuliu
iulius
iulpu
ium
iuma
iumi
iungle
iungliu
iuo
iuoc
iuodamas
iuodavo
iuoja
iuojama
iuojamas
iuojamasis
iuojami
iuojamos
iuojanc
iuojant
iuoju
iuokle
iuolaikine
iuolaikiniai
iuolaikinio
iuolaikinis
iuolaikiniu
iuolaikis
iuos
iuose
iuosiuose
iuosius
iuota
iuotas
iuote
iuoti
iuotojo
iuotos
iuotu
iuoz
iuri
iurino
iurke
iurks
iurlionio
iurlionis
ius
iusi
iusia
iusio
iusios
iusiu
iusius
iute
iutu
iuvas
iuz
iuzepe
iv
iva
ivan
ivanas
ivanauskaite
ivanauskas
ivanausko
ivanc
ivano
ivanovas
ivanovic
ivas
ivile
ivinskis
ivo
ivonis
ivos
ix
iz
izabele
izaokas
ize
izidorius
izmir
izna
iznos
izoliacija
izoliuota
izraeli
izraelio
izraelis
izraelyje
j
ja
jablonskio
jablonskis
jac
jachta
jachtos
jachtu
jack
jackson
jacob
jacobs
jacopo
jacques
jadvyga
jae
jai
jais
jak
jake
jakimavic
jakob
jakobas
jakovas
jaks
jaku
jakube
jakuc
jakutijoje
jakutijos
jakutis
jam
jama
jamaika
jamaikos
jamas
jamato
jame
james
jami
jamie
jamos
jams
jan
jana
janapole
janas
janavic
janc
jane
jang
jangdze
janina
janis
jankauskas
jankevic
janku
jankus
jano
janonio
janonis
janos
jant
janti
jantis
jantys
january
janulis
janus
januvo
jao
jap
japan
japanese
japonai
japonica
japonija
japonijai
japonijoje
japonijos
japoninis
japonis
japonu
jaras
jaros
jaroslavas
jaroslavo
jas
jasaitis
jasiu
jason
jau
jauc
jauna
jaunas
jaunasis
jaunesne
jaunesni
jaunesniems
jaunesnioji
jaunesniojo
jaunesnis
jaunesniu
jaunesniuoju
jaunesnysis
jauni
jauniausia
jauniausias
jauniausiu
jaunieji
jaunikliai
jauniklis
jaunikliu
jauniklius
jaunima
jaunimas
jaunimo
jaunimui
jaunis
jauniu
jauno
jaunoji
jaunojo
jaunos
jaunosios
jaunu
jaunuc
jaunuoliai
jaunuolis
jaunuoliu
jaunuolynai
jaunus
jaunyste
jauriniai
jaus
jausma
jausmai
jausmas
jausmu
jausmus
jausti
jaute
jauti
jautienos
jautis
jautru
jautrus
jav
java
javai
javier
javo
javos
javu
javus
jay
jazz
je
jean
jedvabno
jeff
jeffrey
jehke
jei
jeigu
jeilio
jekaterina
jekaterinos
jelena
jelgava
jelgavos
jemenas
jemeno
jena
jenisiejaus
jennifer
jeremy
jerevano
jerome
jeronimas
jeronimo
jerry
jersey
jerusalem
jeruzale
jerzy
jes
jesse
jessica
jesus
jet
jeunesse
jevgenijus
jewish
jez
ji
jidis
jie
jiec
jiedu
jiems
jiesios
jietis
jiezno
jim
jima
jimai
jimais
jimams
jimas
jime
jimmy
jimo
jimosi
jimu
jimui
jimuose
jimus
jin
jinai
jine
jiniu
jis
jisai
jk
jo
joa
joachim
joachimas
joan
joana
joc
jodine
joe
joel
jog
joga
jogaila
jogailaic
jogailaitis
jogailos
jogos
johan
johanas
johanesas
johann
johannes
johano
john
johnny
johnson
joje
jojimo
jojo
jokia
jokie
jokio
jokios
jokiu
joks
joku
jolanta
jolita
jom
jome
jomis
joms
jon
jona
jonai
jonaic
jonaitis
jonas
jonathan
jonava
jonavoje
jonavos
jone
jones
jonijos
jonis
jono
jonu
jonui
jonus
jonynas
jordan
jordanija
jordanijoje
jordanijos
jordano
jorge
jorko
jorks
jorubu
jos
jose
josef
joseph
josh
joshua
josi
josifas
josvainiu
jotvingiai
jotvingiu
journal
journey
jovais
jovi
joy
jozefas
jozefo
jp
jpeg
jpg
jr
js
jsp
jt
jto
ju
juan
jubiliejaus
jubilieju
jubiliejui
jubiliejus
juc
jucevic
juda
judaizmas
judaizmo
judanc
judas
jude
judesiai
judesio
judesiu
judesius
judita
judre
judvieju
jugoslavija
jugoslavijoje
jugoslavijos
jui
juje
juk
jukatano
juknaic
juknevic
juknis
jules
julia
julian
juliaus
julie
julija
julijaus
julijonas
julijus
julius
july
jumi
jump
jums
jun
june
jung
junga
jungai
jungas
jungc
junge
jungia
jungiama
jungiamojo
jungianc
jungianti
jungiantis
jungiasi
jungine
jungini
junginiai
jungininkai
jungininkais
jungininke
jungininku
jungininkus
junginio
junginiu
junginius
junginys
jungo
jungoje
jungos
jungta
jungtas
jungti
jungties
jungtine
jungtinei
jungtines
jungtiniu
jungtis
jungtys
jungu
junior
juniors
juniperus
junkers
juo
juoda
juodai
juodaic
juodais
juodaisiais
juodaodz
juodas
juodasis
juode
juodeikiu
juodi
juodieji
juodiesiems
juodis
juodkalnija
juodkalnijoje
juodkalnijos
juodkrante
juodo
juodoji
juodojo
juodomis
juodos
juodosiomis
juodosios
juods
juodu
juodupe
juodz
juoke
juos
juose
juosia
juosmens
juosta
juostas
juostele
juostoje
juostomis
juostos
juostose
juostu
juoza
juozapaitis
juozapas
juozapava
juozapavic
juozapo
juozas
juozo
juozu
juozui
jupiterio
jupiteris
juras
jurbarkas
jurbarke
jurbarko
jure
jurevic
jurga
jurgaic
jurgaitis
jurgelis
jurgi
jurgio
jurgis
jurgita
jurgiui
jurgos
jurgutis
juridinio
juridinis
juridiniu
jurijaus
jurijus
juris
jurisprudencija
jurks
jurku
juros
jurs
jus
jusi
jusia
jusiai
jusiais
jusiam
jusiame
jusias
jusiems
jusio
jusios
jusiu
jusius
just
justas
justice
justicijos
justin
justina
justinas
justinianas
justino
justitia
jusufas
jutimo
juventus
juze
juzefas
juzefo
juzeliu
k
ka
kabeliu
kabina
kabineta
kabinetai
kabinetas
kabinete
kabineto
kabinos
kabo
kabu
kabulo
kac
kad
kada
kadagys
kadaise
kadangi
kadastras
kadencija
kadencijai
kadencijas
kadencijos
kadetu
kadras
kadro
kadru
kadz
kai
kaic
kaili
kailio
kailis
kailiu
kaima
kaimai
kaimais
kaimas
kaime
kaimelio
kaimelis
kaimelyje
kaimiec
kaimis
kaimo
kaimu
kaimui
kaimuose
kaimus
kaimynai
kaimynas
kaimyne
kaimynine
kaimyniniu
kaimynu
kaimynyste
kaina
kainas
kainavo
kainos
kainu
kainuoja
kaip
kaipo
kaire
kairi
kairia
kairiai
kairiajame
kairieji
kairioji
kairiojo
kairiosios
kairis
kairiu
kairo
kairys
kairysis
kais
kaiser
kaiserslautern
kaita
kaite
kaitis
kaitos
kaitu
kajai
kajam
kajame
kajetonas
kakadu
kakava
kakavos
kakla
kaklas
kaklelio
kaklo
kakta
kaktos
kala
kalas
kalavijai
kalavijas
kalavijo
kalaviju
kalavijuoc
kalba
kalbai
kalbama
kalbanc
kalbant
kalbanti
kalbantys
kalbas
kalbe
kalbine
kalbininkai
kalbininkas
kalbininke
kalbininku
kalbiniu
kalboje
kalbomis
kalboms
kalbos
kalbose
kalbotyra
kalbotyros
kalbu
kalcio
kaldinti
kale
kalendoriaus
kalendoriu
kalendoriuje
kalendorius
kalesninku
kali
kalibras
kalibro
kalifas
kalifatas
kalifato
kalifo
kalifornija
kalifornijoje
kalifornijos
kalifu
kaligrafijos
kalinauskas
kaliniai
kalinimo
kaliningrad
kaliningrado
kalinino
kaliniu
kalinius
kalino
kalintas
kalinti
kalinys
kalio
kalis
kalna
kalnagu
kalnai
kalnais
kalnakasybos
kalnas
kalne
kalnelio
kalnelis
kalniec
kalnine
kalninis
kalnis
kalniu
kalno
kalnu
kalnuose
kalnuota
kalnuotas
kalnuotose
kalnus
kalnynas
kalnyne
kalnyno
kalta
kaltane
kaltas
kalte
kalti
kaltinamas
kaltine
kaltinimai
kaltinimu
kaltinimus
kaltino
kaltu
kalva
kalvagu
kalvaitis
kalvarija
kalvarijos
kalvariju
kalve
kalvele
kalveliai
kalveliu
kalviai
kalvis
kalviu
kalvoje
kalvos
kalvotas
kalvotos
kalvu
kam
kamaju
kamane
kamaz
kambari
kambariai
kambario
kambariu
kambaryje
kambarys
kambodz
kamc
kame
kameneco
kamera
kamerine
kameriniam
kamerinis
kameriniu
kameros
kameru
kami
kamiena
kamienai
kamienas
kamienine
kamieniniu
kamieno
kamienu
kamile
kaminskas
kammer
kamos
kampa
kampai
kampanija
kampanijoje
kampanijos
kampas
kampe
kampis
kampo
kampu
kampuose
kams
kamuoli
kamuolio
kamuoliu
kamuoliuka
kamuoliukas
kamuolius
kamuolys
kan
kanada
kanadiec
kanadine
kanadoje
kanados
kanala
kanalai
kanalais
kanalas
kanale
kanalo
kanalu
kanalus
kanape
kanapiu
kanarskas
kanaru
kanas
kanauninkas
kanc
kanceliarija
kanceliarijos
kanclerio
kancleris
kancleriu
kandidata
kandidatai
kandidatas
kandidatavo
kandidate
kandidato
kandidatu
kandidatus
kandis
kandz
kane
kaniu
kanjonas
kankiniu
kankinys
kankle
kankore
kano
kanoju
kanonistas
kanonu
kant
kantata
kanto
kantonai
kantonas
kantone
kantono
kantonu
kantri
kanu
kanye
kapa
kapablanka
kapai
kapais
kapas
kapaviete
kapc
kape
kapeliais
kapelionas
kapinaite
kapine
kapines
kapiniu
kapinynai
kapinynas
kapinyno
kapitalas
kapitalizmo
kapitalo
kapitolijaus
kapitona
kapitonai
kapitonas
kapitono
kapitonu
kapituliacijos
kapitulos
kapo
kapsukas
kapsuko
kapsule
kapu
kapuose
kapus
kar
kara
karabacho
karac
karai
karaimu
karaliai
karaliais
karaliauc
karaliaus
karaliene
karalienei
karalis
karaliu
karaliui
karaliumi
karalius
karalysc
karalyste
karalystei
karalystes
karantino
karaoke
karas
karate
karavadz
karazija
karc
karcinoma
karda
kardas
kardinolai
kardinolas
kardinolo
kardinolu
kardo
kardu
kare
kareiviai
kareiviams
kareivine
kareivio
kareivis
kareiviu
kareivius
karelija
karelijos
karen
kari
kariai
kariais
kariams
kariaujanc
kariauna
kariauta
kariautas
kariauti
kariave
kariavimas
kariavimo
kariavimu
kariavimus
kariavo
kariavus
karibai
karibu
karikatu
karine
karinei
karines
karini
kariniai
kariniais
kariniam
kariniame
kariniams
karininkai
karininkas
karininko
karininku
karininkus
karinio
karinis
kariniu
kariniuose
karinius
kario
karis
kariu
kariuomene
kariuomenei
kariuomeniu
karius
karjakinas
karjera
karjerai
karjeras
karjero
karjeroje
karjeros
karka
karkle
karl
karla
karlas
karlis
karlo
karlosas
karlsenas
karma
karme
karmelitu
karmen
karo
karoli
karolina
karolingu
karolinis
karolinos
karolio
karolis
karoliu
karoliui
karosas
karpatu
karpavic
karpine
karpiniu
karpis
karpovas
karpovo
kars
karsakis
kart
karta
kartagina
kartaginos
kartai
kartais
kartanaite
kartas
karte
kartena
kartenos
karto
kartografas
kartono
kartos
kartu
kartus
karu
karuana
karui
karuose
karus
karuz
karve
karvedys
karvedz
karvelis
karviu
karyba
karybos
karys
karz
kas
kasa
kasama
kasamas
kasamos
kasant
kasdien
kasdiene
kasdienine
kasdienybe
kase
kasenos
kasenu
kasete
kasimo
kasine
kasis
kaskart
kasmet
kasmetine
kasmetiniai
kasmetinis
kasos
kasparas
kasparovas
kasparovo
kasparovu
kasperavic
kaspijos
kasta
kastas
kasti
kastilijos
kastos
kastro
kastu
kastytis
kasybos
kasykla
kasyklos
kasyklose
kasyklu
katalikai
katalikams
katalikis
kataliku
katalikybe
katalogas
kataloge
katalogo
katalonijos
katalonu
kataras
katarina
kataro
katastrofa
katastrofos
kate
katedra
katedrai
katedroje
katedros
kategoria
kategorija
kategorijai
kategorijas
kategorijoje
kategorijos
kategorijose
kategoriju
kateriai
katerina
kateriu
katilas
katile
katiline
katilis
katilius
katinas
katkus
katy
katyc
kauc
kaukazas
kaukaze
kaukazo
kauke
kaukiu
kaukole
kaulai
kaulas
kaule
kauline
kauliniu
kaulo
kaulu
kaulus
kauna
kaunas
kaunasi
kaune
kauniec
kaunietis
kauno
kaupia
kaupiasi
kaupti
kaus
kauskaite
kauskas
kautis
kautskis
kautyne
kautyniu
kava
kavaje
kavalerija
kavalerijos
kavaliauskas
kavalieriai
kavalierius
kavarsko
kavine
kavolis
kavoliute
kavos
kaz
kazachijos
kazachstanas
kazachstane
kazachstano
kazachu
kazakevic
kazane
kaze
kazimiera
kazimieras
kazimiero
kazimierui
kazimierz
kazino
kazio
kazitis
kazlauskaite
kazlauskas
kazlis
kazlu
kazokai
kazokis
kazoku
kazys
kb
kc
kd
ke
kec
keep
kehttp
kei
keic
keidos
keista
keistas
keisti
keistis
keistuoliu
keite
keith
keitimas
keitimo
keke
kele
keleiviai
keleiviams
keleiviniai
keleivinis
keleiviniu
keleivis
keleiviu
keleivius
keleriu
kelerius
keleta
keletas
keleto
keletu
keletui
keli
kelia
keliai
keliais
kelialapi
keliama
keliamaisiais
keliamas
keliami
keliamieji
kelianc
kelias
keliasdes
keliasi
keliaudamas
keliaudavo
keliauja
keliaujanc
keliaujant
keliauti
keliautojai
keliautojas
keliautojo
keliautoju
keliavo
keliems
kelio
keliolika
keliolikos
keliomis
kelioms
kelione
keliones
kelioniu
kelios
keliose
kelis
keliu
keliukas
keliuku
keliuose
kelius
kelly
kelme
kelne
kelno
kelps
kelta
keltai
keltas
kelti
keltis
keltos
keltu
kelyje
kembridz
keme
ken
kenc
kenedis
kenedz
kengu
kenija
kenijoje
kenijos
kenke
kenkia
kennedy
kenneth
kent
kente
kento
kepama
kepenu
kepler
kepti
kepure
kerai
keramika
keramikas
keramike
keramikos
kerc
kere
keresas
kernagis
kernave
kerpe
kers
kerta
kertinis
kes
kesc
kesne
kesni
kesnis
ketaus
ketera
ketina
ketino
ketu
keturi
keturiais
keturias
keturiasdes
keturiems
keturiolika
keturiolikos
keturiomis
keturios
keturiose
keturis
keturiu
keturiuose
keturkampe
keturrac
keturs
keturvalakiu
ketveriems
ketveriu
ketverius
ketvertas
ketvirc
ketvirta
ketvirtadieni
ketvirtajame
ketvirtame
ketvirtas
ketvirtasis
ketvirtfinali
ketvirtfinaliai
ketvirtfinalio
ketvirtfinalis
ketvirtfinalyje
ketvirti
ketvirto
ketvirtoje
ketvirtoji
ketvirtojo
ketvirtos
ketvirtosios
ketvirtuoju
kevic
kevin
kevinas
key
kez
kf
kfc
kg
kgb
khan
khmeru
ki
kia
kiai
kiais
kiama
kiamas
kiams
kianc
kianti
kiantis
kiasi
kiau
kiaule
kiauliena
kiauliu
kiaune
kiaus
kiausia
kiausias
kiausiu
kiavos
kibirks
kic
kid
kids
kiduliu
kiec
kiedis
kieji
kiek
kieki
kiekiai
kiekiais
kiekio
kiekis
kiekiu
kiekiui
kiekius
kiekviena
kiekvienai
kiekvienais
kiekvienam
kiekviename
kiekvienas
kiekvieno
kiekvienoje
kiekvienos
kiekvienu
kiema
kiemai
kiemas
kieme
kiemo
kiems
kiemu
kiene
kieno
kieta
kietas
kietavis
kiete
kieti
kieto
kietojo
kietos
kietu
kietumas
kija
kijeva
kijevas
kijeve
kijevo
kijos
kildavo
kildina
kildinama
kildinamas
kile
kili
kiliausiu
kilima
kilimas
kilimo
kilimu
kiliu
kill
killer
killers
kilme
kilminga
kilmingai
kilmingas
kilmingieji
kilmingu
kilmininkas
kilmininko
kilo
kilometrai
kilometro
kilometru
kilometrus
kilpa
kilpos
kilti
kilus
kilusi
kilusio
kilusios
kilusiu
kim
kima
kimai
kimas
kime
kimi
kimo
kimono
kimu
kimus
kin
kina
kinai
kinama
kinamas
kinami
kinanc
kinant
kinas
kind
kine
kinematografija
kinematografijos
kinetine
king
kinga
kingas
kingdom
kingo
kingos
kings
kini
kiniai
kiniais
kinija
kinijai
kinijoje
kinijos
kinima
kinimas
kinimo
kinimu
kinimui
kininkai
kininkams
kininkas
kininkavimo
kininko
kininku
kininkyste
kinio
kinis
kiniu
kinius
kino
kins
kinta
kintamu
kintanc
kintas
kinti
kintos
kintu
kinu
kinys
kio
kiomis
kios
kioto
kipra
kipras
kipre
kipro
kiras
kirc
kirgizija
kirgizijoje
kirgizijos
kirgizu
kirilas
kirilica
kirke
kirme
kirovo
kirpe
kirs
kirsnos
kirsti
kirtimas
kirtimo
kirtimu
kirtis
kirto
kirviai
kirvis
kirviu
kis
kiss
kit
kita
kitados
kitai
kitaip
kitais
kitam
kitame
kitapus
kitas
kite
kiti
kitiems
kitimas
kitimo
kito
kitoje
kitoki
kitokia
kitokie
kitokio
kitokios
kitokiu
kitokius
kitoks
kitomis
kitoms
kitos
kitose
kitu
kituose
kitur
kitus
kiu
kiui
kiuose
kiurasao
kiuri
kius
kk
kl
kla
klai
klaida
klaidas
klaidinga
klaidingai
klaidingas
klaidos
klaidu
klaipe
klaipeda
klais
klajokliai
klajokliu
klanai
klanas
klano
klanu
klara
klarnetui
klas
klase
klasei
klases
klasicistine
klasicizmo
klasifikacija
klasifikacijos
klasifikatorius
klasika
klasikine
klasikini
klasikiniai
klasikinio
klasikinis
klasikiniu
klasiku
klasiu
klaudijus
klaus
klausa
klausas
klause
klausia
klausima
klausimai
klausimais
klausimams
klausimas
klausimo
klausimu
klausimus
klausos
klausuc
klausyti
klausytis
klausytoju
klaviatu
klavis
kle
klebonas
klebonavo
klebonija
klebonijos
klebonis
klebono
klebonu
klein
kleinlitauen
klemensas
klemenso
kleopatra
kles
kleste
klestinc
klevas
klevo
klevu
klientams
klientas
kliento
klientu
klimas
klimata
klimatas
klimato
klimatui
klimavic
klinika
klinikine
klinikoje
klinikos
kliniku
klinties
klipa
klipai
klipas
klipe
klipo
klipu
klis
kliu
klm
klo
klodas
kloja
klomis
klos
kloste
klovainiu
klr
klu
kluba
klubai
klubams
klubas
klube
klubine
klubo
klubu
klubui
klubuose
klubus
klysta
km
kme
kminga
kmingai
kmingas
kmingi
kmingiausias
kmingiausiu
kmingo
kmingos
kmingu
kmiu
kn
knicks
knight
knis
know
knowles
known
knyga
knygai
knygas
knygele
knygnes
knygoje
knygomis
knygos
knygose
knygu
knygynas
ko
koalicija
koalicijos
koalicine
kobe
kobenhavn
koc
koch
koda
kodai
kodamas
kodami
kodas
kode
kodeksa
kodeksai
kodeksas
kodekse
kodekso
kodo
kodu
koeficientas
koenigsegg
kogu
koja
kojas
koje
koji
kojine
kojo
kojoje
kojomis
kojos
koju
kokaino
koki
kokia
kokiai
kokiam
kokias
kokie
kokio
kokiomis
kokios
kokiu
kokius
koko
kokosu
koks
kokybe
kokybis
kol
koledz
kolega
kolegija
kolegijoje
kolegijos
kolegomis
kolegos
kolegu
kolekcija
kolekcijoje
kolekcijos
kolekciju
kolekcininkas
kolekcionierius
kolektyva
kolektyvai
kolektyvas
kolektyvine
kolektyviniai
kolektyviniu
kolektyvo
kolektyvu
kolibris
kolno
kolona
kolonija
kolonijas
kolonijine
kolonijiniu
kolonijoje
kolonijomis
kolonijos
kolonijose
koloniju
kolonistai
kolonistu
kolonizacija
kolonizacijos
kolonizavo
kolonizuoti
kolonomis
kolonos
kolonu
kolorado
kolos
kolu
kolumbas
kolumbija
kolumbijoje
kolumbijos
kolumbo
kolymos
koma
komanda
komandai
komandas
komandine
komandiniai
komandiniame
komandinis
komandiniu
komandiniuose
komandoje
komandomis
komandoms
komandoro
komandos
komandose
komandu
komas
kombinacija
kombinacijos
kombinatas
kombinato
komedija
komedijoje
komedijos
komediju
komendantas
komendantu
komentarai
komentaras
komentaru
komentarus
komentatorius
komercijos
komercine
komerciniai
komercinio
komercinis
komerciniu
komercis
komikas
komiksai
komiksu
komis
komisaras
komisariatas
komisariato
komisaro
komisaru
komisija
komisijai
komisijoje
komisijos
komisiju
komiteta
komitetai
komitetas
komitete
komiteto
komitetu
komitetui
komjaunimo
komninas
komoru
kompaktine
kompaktis
kompanija
kompanijai
kompanijoje
kompanijoms
kompanijos
kompaniju
kompensacija
kompetencija
kompetencijai
kompetencijos
kompiuteri
kompiuteriai
kompiuteriams
kompiuterine
kompiuteriniai
kompiuterinio
kompiuterinis
kompiuteriniu
kompiuterio
kompiuteris
kompiuteriu
kompiuteriuose
kompiuterius
kompiuteryje
kompleksa
kompleksai
kompleksas
komplekse
kompleksine
komplekso
kompleksu
komplikaciju
komponentai
komponentas
komponentu
kompozicija
kompozicijas
kompozicijos
kompoziciju
kompozitore
kompozitoriai
kompozitoriaus
kompozitoriu
kompozitoriumi
kompozitorius
koms
komtu
komuna
komunikacija
komunikacijos
komunikaciju
komunistai
komunistine
komunistinio
komunistinis
komunistu
komunizma
komunizmo
komunos
kon
konas
konc
koncentracija
koncentracijos
koncentravosi
koncentruojasi
koncepcija
koncepcijos
koncernas
koncerno
koncerta
koncertai
koncertas
koncertavo
koncerte
koncertine
koncertini
koncertiniai
koncertinio
koncertinis
koncertiniu
koncerto
koncertu
koncertuoja
koncertuose
koncertuoti
koncertus
konditerijos
kone
konfederacija
konfederacijos
konfederaciju
konferencija
konferencijas
konferencijoje
konferencijos
konferencijose
konferenciju
konfigu
konflikta
konfliktai
konfliktas
konflikto
konfliktu
konfliktus
kong
kongas
kongo
kongregacijos
kongresa
kongresas
kongrese
kongreso
koniai
koniu
konkistadoras
konkrec
konkretaus
konkretu
konkuravo
konkurencija
konkurencijos
konkurentu
konkursa
konkursai
konkursas
konkurse
konkurso
konkursu
konkursui
konkursuose
konkursus
konkuruojanc
konkuruoti
konrad
konradas
konrado
konsekravo
konservatoriai
konservatorija
konservatorijoje
konservatorijos
konservatoriu
konservavimo
konservu
konsole
konsolei
konsoliu
konstal
konstancija
konstanta
konstantinas
konstantino
konstantinopoli
konstantinopolio
konstantinopolyje
konstitucija
konstitucijai
konstitucijoje
konstitucijos
konstitucine
konstitucinio
konstitucinis
konstravimo
konstrukcija
konstrukcijas
konstrukcijos
konstrukciju
konstruktoriai
konstruktoriu
konstruktorius
konsulai
konsulas
konsulatas
konsuline
konsulo
konsultacijos
konsultaciju
konsultantas
konsultantu
konsulu
kontaktai
kontaktas
kontakto
kontaktu
kontaktus
kontekste
konteksto
kontinentine
kontinentinis
kontora
kontoros
kontrakta
kontraktas
kontrimas
kontrole
kontroliavo
kontroliuoja
kontroliuojama
kontroliuojamas
kontroliuoti
kontroversis
kontrz
kontu
konu
konvencija
konvencijos
konys
kooperacijos
kooperatininkas
kooperatyvas
koordinac
koordinate
koordinatorius
koordinuoja
koordinuoti
kop
kopa
kope
kopenhaga
kopenhagoje
kopenhagos
kopija
kopijas
kopijos
kopiju
koplyc
koplyte
koplytstulpis
kopos
koptu
kopu
kor
koralinis
koralu
korc
korce
kordiljera
kordiljeros
kordoba
kordobos
kore
korea
korean
korespondenciniu
korespondentas
korespondente
korespondentu
koridorius
korinto
kornelijus
koronaviruso
korporacija
korporacijos
korporaciju
korpusa
korpusai
korpusas
korpuse
korpuso
korpusu
kors
korta
kortas
kortele
korteliu
kortesas
korteso
kortos
kortu
korupcija
korupcijos
kos
kosakovskis
koscius
kose
kosios
kosmetikos
kosmine
kosminiai
kosminio
kosminis
kosminiu
kosmologija
kosmosa
kosmose
kosmoso
kosovas
kosove
kosovo
kosta
kostas
kostiumai
kostiumas
kostiumu
kostiumus
kota
kotai
kotas
koti
kotija
kotijoje
kotijos
kotis
koto
kotryna
kotrynos
kotu
kotvarkos
kov
kova
kovai
kovas
kove
koveris
kovine
kovinis
koviniu
kovo
kovodamas
kovoja
kovojanc
kovojant
kovoje
kovojo
kovoms
kovos
kovose
kovota
kovotas
kovoti
kovotojai
kovotojas
kovotoju
kovu
koz
kp
kpc
kpi
kpt
kr
krajovos
krake
krakiu
krakmolo
krako
krakow
kramnikas
kranta
krantai
krantais
krantas
krante
krantine
kranto
krantu
krantuose
krantus
kras
krasnapolio
krasnodaro
krasnojarsko
krasnoznamensko
krateriai
kraterio
krateris
krateriu
krauja
kraujagysle
kraujagysliu
kraujas
kraujelis
kraujo
kraujospu
kraujotakos
krauju
kraujyje
krauna
krautuve
kravitz
kraz
kre
krec
kredito
kregz
kreidos
kreipe
kreipiasi
kreiptis
kreive
krekenavos
kremliaus
kremzle
krenta
kreolu
kreps
krepsinis
kres
kreta
kretinga
kretingale
kretingoje
kretingos
kretos
kriauc
kriaukle
kriaunu
kriaus
kriketo
kriks
kriminaline
kriminaliniai
kriminalinis
krinc
krinku
krinta
kriokliai
krioklio
kriokliu
krioklys
kris
kristalai
kristaline
kristalu
kristaus
kristi
kristianas
kristijonas
kristijono
kristina
kristinos
kristoforo
kristu
kristupas
kristupo
kristus
krite
kriterijai
kriteriju
kriterijus
kritika
kritikai
kritikas
kritikavo
kritike
kritikos
kritiku
kritikuoja
kritikuojama
kritikuojamas
kritimas
kritimo
kritine
kritis
krito
krituliai
krituliu
kriu
kriuku
krize
kriziu
kro
kroatai
kroatija
kroatijoje
kroatijos
kroatu
krokialaukio
krokuva
krokuvoje
krokuvos
kronika
kronikoje
kronikos
kronikose
krosnis
krosnos
kroso
kroviniai
krovinio
kroviniu
krovinius
kru
krug
kruoja
kruonio
kruopiu
kruops
krupavic
krus
kruso
kryma
kryme
krymo
krypc
krypti
krypties
kryptimi
kryptimis
kryptis
kryptys
kryz
krzysztof
ks
ksaveras
ksi
ksia
ksie
ksk
kso
kst
ksta
kstanc
kstanti
kstantis
kstantmec
kstantmetis
kstantmetyje
kstm
kt
kti
ktu
ktuva
ktuvai
ktuvais
ktuvams
ktuvas
ktuve
ktuvine
ktuvnes
ktuvo
ktuvu
ktuvus
ku
kuba
kubane
kubica
kubiliu
kubilius
kuboje
kubos
kuc
kudirka
kudirkos
kudz
kui
kuic
kujavijos
kukas
kuko
kuktis
kukuru
kules
kulikauskas
kuliu
kulka
kulkos
kulkosvaidis
kulkosvaidz
kulku
kulminacija
kulmis
kulmo
kuls
kulta
kultas
kulto
kultu
kultura
kulvos
kuma
kumai
kumas
kumec
kumo
kums
kumu
kumui
kumus
kun
kunc
kuniga
kunigai
kunigaiks
kunigas
kunigavo
kunigis
kunigo
kunigu
kunigui
kunigus
kunonas
kuo
kuojos
kuoju
kuoks
kuomet
kuopa
kuopio
kuopos
kuose
kuosius
kupc
kupe
kupis
kupolas
kupolo
kupolu
kuprelis
kuprevic
kupriai
kups
kur
kura
kuras
kuratorius
kurc
kurdamas
kurdami
kurdistano
kurdu
kure
kurfiurstas
kuri
kuria
kuriai
kuriais
kuriam
kuriama
kuriamas
kuriame
kuriami
kuriamos
kuriant
kuriantis
kurias
kurie
kuriems
kurijos
kurilu
kurio
kurioje
kuriomis
kurioms
kurios
kuriose
kuris
kuriu
kuriuo
kuriuos
kuriuose
kurkliai
kurkliu
kurmaic
kurmis
kuro
kurortai
kurortas
kurorto
kurortu
kuros
kurs
kursa
kursai
kursas
kursko
kurso
kursu
kursuoja
kursuose
kursus
kurt
kurta
kurtai
kurtas
kurti
kurtis
kurto
kurtos
kurtu
kurtuve
kuru
kurz
kus
kusi
kute
kuveitas
kuveito
kuz
kuzmickas
kv
kvadratine
kvadratinio
kvadratiniu
kvadrato
kvadt
kvalifikacija
kvalifikacijoje
kvalifikacijos
kvalifikacine
kvalifikacinis
kvantine
kvapa
kvapas
kvapioji
kvapo
kvapu
kvartalai
kvartalas
kvartale
kvartalo
kvartero
kvartetas
kvartetui
kvb
kvdt
kve
kvebeko
kveinys
kvidic
kviec
kviesti
kviestiniai
kviete
kvietima
kvietimu
kviklys
kw
kwh
kybartai
kybartu
kyje
kyla
kylanc
kylant
kylanti
kylantis
kylio
kymantaite
kymas
kyre
kys
kyte
kyti
kyvos
kz
l
la
labai
labanoro
labas
labdaros
label
labguvos
labiau
labiausiai
laboratorija
laboratorijoje
laboratorijos
labu
labui
lac
lactarius
ladogos
lady
laf
lagas
lagerio
lageriu
lageriuose
lageryje
lago
lagu
lahti
lai
laic
laida
laidas
laidojami
laidoje
laidojimo
laidos
laidose
laidoti
laidotuve
laidotuves
laidotuviu
laidu
laika
laikai
laikais
laikams
laikanc
laikant
laikantis
laikas
laike
laikina
laikinai
laikinas
laikinasis
laikinoji
laikinosios
laikinu
laikinuoju
laikmec
laiko
laikoma
laikomas
laikomasi
laikomi
laikomos
laikosi
laikotarpi
laikotarpiai
laikotarpiais
laikotarpio
laikotarpis
laikotarpiu
laikotarpiui
laikotarpius
laikotarpyje
laikras
laikrodis
laikrodz
laiku
laikui
laikus
laikydavo
laikyma
laikymas
laikymo
laikymui
laikyta
laikytas
laikyti
laikytis
laikytos
laikytu
laima
laime
laimi
laiminga
laimingai
laimingas
laimonas
laimute
laimutis
laipsni
laipsniai
laipsnio
laipsnis
laipsniu
laipsnius
laiptai
laiptais
laiptu
lais
laisva
laisvai
laisvalaikio
laisvalaikis
laisvalaikiu
laisvas
laisvasis
laisve
laisves
laisvi
laisvieji
laisvinimo
laisvino
laisvinti
laisviu
laisvo
laisvoji
laisvojo
laisvos
laisvosios
laisvu
laisvuoju
laitai
laitais
laitas
laite
laitis
laito
laitu
laituose
laiva
laivai
laivais
laivams
laivas
laive
laivio
laivis
laiviu
laivo
laivu
laivui
laivuojama
laivuose
laivus
laivyba
laivybai
laivybos
laivyna
laivynas
laivyne
laivyno
laivynui
laiz
laja
lajos
lake
lakers
lako
laks
laku
lam
lama
lamans
lambda
lambert
lamborghini
lamos
lan
lanc
lancetis
land
lands
landsbergis
landscape
lane
lang
langa
langai
langais
langas
lange
lango
langu
language
languages
langus
lanka
lankai
lankas
lanke
lanko
lankoje
lankoma
lankomas
lankos
lankosi
lanksc
lanku
lankydavosi
lankyti
lankytinos
lankytis
lankytojai
lankytojams
lankytoju
lao
laose
laoso
lapai
lapais
lapas
lape
lapeliai
lapelis
lapeliu
lapi
lapiai
lapienis
lapimo
lapinskas
lapio
lapis
lapiu
lapiuose
lapius
lapkoc
lapkric
lapkriti
lapkritis
lapo
lapu
lapuoc
lapuose
lapuotis
lapus
lapyje
lapyne
lara
larisa
larix
larnaka
larry
lars
larsenas
las
lasf
laskeris
last
lat
late
laterano
latgaliu
latin
latvia
latviai
latvies
latvija
latvijai
latvijas
latvijoje
latvijos
latvis
latviu
lau
lauc
lauda
lauka
laukai
laukais
laukas
lauke
laukeli
laukelio
laukeliu
laukelius
laukelyje
laukia
laukine
laukiniai
laukinis
laukiniu
laukis
lauko
laukti
lauku
laukuose
laukus
laukuvos
laukz
laume
laura
laureatai
laureatas
laureate
laureatu
laurence
laurent
laurinavic
laurus
laurynas
lauryno
lausanne
lauz
lava
lavandene
lave
lavinimo
lavoris
lavos
law
lawrence
laz
lazda
lazdauskaite
lazdele
lazdijai
lazdiju
lazdynu
lazerio
lazeriu
lazio
lb
lcva
lddp
ldk
le
league
learning
leave
lebedz
leben
lec
lech
led
leda
ledai
ledas
ledi
ledo
ledu
ledynai
ledynas
ledynine
ledynmec
ledyno
ledynu
lee
leeds
left
leftrightarrow
legacy
legal
legalact
legaliai
legend
legenda
legendine
legendinio
legendinis
legendos
legendu
legia
legionas
legiono
lei
leiboristu
leicester
leid
leide
leidima
leidimai
leidimas
leidime
leidimo
leidimu
leidimus
leidini
leidiniai
leidinio
leidiniu
leidiniuose
leidinius
leidinyje
leidinys
leido
leidosi
leidus
leidusi
leidyba
leidybine
leidybos
leidykla
leidykloje
leidyklos
leidz
leipalingio
leipcigas
leipcige
leipcigo
leipzig
leis
leisdamas
leisdavo
leista
leistame
leistas
leisti
leistis
leisto
leistoje
leistos
leistu
leitenantas
leitenanto
leke
leksika
leksikos
lektoriui
lektorius
lekys
lelija
lelijos
leliu
lemesos
lemia
lemiama
lempa
lempos
lempute
lemti
lemu
lena
lenc
lenda
lengva
lengvaatlec
lengvaatlete
lengvaatletis
lengvai
lengvas
lengvasis
lengvesne
lengviau
lengvieji
lengvo
lengvoji
lengvojo
lengvosios
lengvu
leninas
leningrade
leningrado
lenino
lenk
lenkai
lenkais
lenkams
lenkas
lenke
lenkia
lenkija
lenkijai
lenkijoje
lenkijos
lenkimu
lenkis
lenkta
lenktas
lenkti
lenktyne
lenktynes
lenktyniavo
lenktynininkai
lenktynininkas
lenktynininko
lenktynininku
lenktyniu
lenku
lenkus
lenos
lens
lenta
lentele
lenteliu
lentoje
lentomis
lentos
lentpju
lentu
lentvario
lentvaris
leo
leon
leonard
leonardas
leonardo
leonas
leonavic
leone
leonidas
leonis
leono
leopardai
leopardas
leopardus
leopold
leopoldas
leopoldo
leps
leq
lervos
les
lesa
lesne
lesni
lesniais
lesnis
lesniu
lesniuose
lesoto
let
letters
leukemija
leumit
levadia
levanis
levas
levi
levo
levski
lewis
lexikon
leykosia
lez
lf
lff
lfls
lg
lgbt
lgi
li
lia
liai
liais
liams
liau
liaudies
liaudininku
liaudis
liauka
liaukos
liauku
liaus
liausiai
liauz
liava
liavas
liave
liavininkas
liavoje
liavos
liavu
libanas
libane
libano
liber
liberalai
liberalu
liberijos
libertadores
libertas
liberty
libija
libijoje
libijos
library
lic
lice
licencija
licencijas
licencijavimo
licencijos
licenciju
licencijuotis
lichtens
lidija
lie
liec
liege
liejo
lieka
liekana
liekanas
liekanomis
liekanos
liekanu
liemene
liemens
liemuo
liepa
liepe
liepia
liepine
liepoja
liepojoje
liepojos
liepos
liepsna
liepsnos
liepu
lier
lies
liet
lietaus
lietava
lieti
lietu
lietus
lietuva
lietuvai
lietuve
lietuviai
lietuviais
lietuviams
lietuvininku
lietuvio
lietuvis
lietuviu
lietuvius
lietuvninku
lietuvoje
lietuvos
lietuvosfutbolas
lietuvybe
liez
life
lig
liga
ligai
ligas
light
lightning
lights
ligi
ligomis
ligoms
ligoniai
ligoniams
ligonine
ligonio
ligonis
ligoniu
ligos
ligu
ligue
likdavo
like
likima
likimas
likimo
likis
liko
liks
likti
liktu
likuc
likus
likusi
likusia
likusiais
likusiam
likusias
likusieji
likusiems
likusio
likusioje
likusios
likusiu
likusius
likviduota
likviduotas
likviduoti
lil
lilija
lille
lim
lima
limas
limfocitai
limfocitu
limfoma
limfomos
limited
limits
limo
limp
lin
lina
linareso
linas
lincoln
linda
linde
line
lines
linfield
linge
lingua
lingvistine
liniai
linija
linijai
linijas
linijine
linijis
linijoje
linijomis
linijos
liniju
linis
liniu
link
linkaic
linke
linkevic
linkin
linkme
linkmenu
linkolno
linksma
linksmai
linksmas
linksniai
linksnis
linksniu
linksniuote
linkuva
linkuvos
linnaeus
lino
linu
linux
linz
lio
lioliu
lion
lione
lionginas
liono
lions
lipdytos
lipo
lips
lipti
liquid
lis
lisa
lisabona
lisabonos
lisboa
list
lit
litauen
litera
literatas
literatu
literature
litewskiego
lithuania
lithuanian
lito
litro
litru
littera
litthauischen
little
litu
lituania
lituanica
lituanistikos
liu
liubavo
liublino
liubomirskis
liuc
liucija
liuda
liudas
liudija
liudijimu
liudininku
liudmila
liudvigas
liudvika
liudvikas
liudviko
liudvikui
liudvinavo
liuftvafe
liui
liuke
liuksemburgas
liuksemburge
liuksemburgo
liuose
lius
liutauras
liuterio
liuteris
liuteronai
liuteronu
liuz
liuzas
live
liverpool
liverpulio
lives
living
livonija
livonijos
liz
liza
lizda
lizdas
lizde
lizdo
lizdu
lizdus
lizzy
ljez
lk
lkd
lkf
lkl
lkp
lks
lkt
ll
lla
llah
lle
ller
llks
lloyd
lm
lma
lmfa
lmta
ln
lndt
lnk
lo
lobi
lobiai
lobis
lobiu
loc
local
location
locke
lockheed
lodz
lodze
log
logika
logikos
logine
logis
logistikos
logo
logoiskis
logos
logotipas
logotipo
logotipu
lokiai
lokio
lokiu
lokomotiv
lokomotyvas
lokys
lola
loma
lomas
lombardijos
lomonosovo
lomos
lomz
london
londona
londonas
londone
londono
lonely
long
look
lopez
lops
lor
lord
lordas
lorencas
lorenco
lorenzo
loreta
los
losice
lost
lot
lotaringijos
lotus
lotynis
lotynu
lou
louis
louise
lova
love
lovos
low
loz
lozoraitis
lp
lr
lrs
lrt
lrv
lrytas
ls
lsd
lsdp
lsmu
lssr
lst
lt
ltd
ltn
lto
ltsr
ltu
ltv
lu
luaros
lubos
lubu
luc
luca
lucas
luciano
lucijus
lucius
lucko
lucy
ludwig
lugano
lugimas
lugimo
lugo
lugus
luhansko
lui
luigi
luis
luisas
luiso
luiza
luize
luizianos
luka
lukas
luke
lukis
luko
lukos
luks
luna
luoke
luomo
luomu
luota
luotele
lupe
lupus
lurdas
lurdo
lus
lusi
lusiu
lutute
luvos
luvras
luvro
lux
luxembourg
luz
lv
lvadt
lvg
lvovas
lvove
lvovo
ly
lyc
lyde
lydekos
lydere
lyderi
lyderiai
lyderio
lyderis
lyderiu
lyderius
lyderyste
lydi
lydimas
lydimine
lydiniai
lydinio
lydis
lydos
lyduokiu
lyduve
lydz
lyg
lyga
lygai
lygas
lygc
lygi
lygia
lygiagrec
lygiai
lygiais
lygiakras
lygiam
lygias
lyginai
lyginama
lyginamas
lyginamoji
lyginamosios
lyginant
lygine
lygino
lyginti
lygio
lygiomis
lygios
lygiosiomis
lygiosios
lygis
lygiu
lygiui
lygiuose
lygius
lygmeni
lygmeniu
lygmens
lygmenyje
lygmuo
lygoja
lygoje
lygojo
lygomis
lygoms
lygos
lygose
lygti
lygties
lygtis
lygu
lyguma
lygumai
lygumas
lygumoje
lygumos
lygumose
lygumu
lygus
lygybe
lygyje
lyja
lyje
lyma
lymai
lymanas
lymas
lymo
lymu
lymus
lyn
lyna
lynai
lynais
lyname
lynas
lynasis
lyne
lyni
lynn
lyno
lynoji
lynos
lynott
lynu
lynuose
lynx
lyon
lyra
lyrika
lyrine
lyris
lys
lyta
lytas
lyte
lyti
lyties
lytine
lytiniai
lytinio
lytinis
lytiniu
lytinius
lytis
lyva
lyvajame
lyvasis
lyviai
lyvis
lyviu
lyvoji
lyvojo
lyvosios
lyvu
lyvuoju
lz
lzinios
m
ma
mac
maccabi
machine
macijauskas
maciu
maciulevic
mackevic
macmillan
mad
mada
madagaskaras
madagaskare
madagaskaro
madam
made
madona
madonna
madonos
mados
madre
madrid
madridas
madride
madrido
madu
madz
mae
mafija
mafijos
magazine
magdalena
magdalenos
magdeburgas
magdeburgo
magelano
magic
magija
magijos
magine
magis
magistrale
magistralinis
magistrantu
magistras
magistro
magnatas
magnatu
magnetine
magnetinio
magnetinis
magnetiniu
magnio
magnoliju
magnoliophyta
magnum
magnus
magnusas
magu
maharas
mahometas
mahometo
mai
maiden
maikas
maiklas
main
mainai
mainais
maino
mainu
maironio
maironis
mais
maista
maistas
maistine
maisto
maistu
maistui
maitina
maitinasi
maitinimo
maja
majai
majamio
major
majoras
majoro
majorovas
maju
makabi
makao
makaronai
makaronu
make
makedoniec
makedonietis
makedonija
makedonijoje
makedonijos
makedonu
makes
making
maks
maksas
maksimali
maksimaliai
maksimalu
maksimalus
maksimas
makso
mala
malaga
malaizija
malaizijoje
malaizijos
malaju
malakos
malavio
malcolm
malda
maldos
maldu
male
malinauskas
malio
malis
maljorkos
malme
malonaus
malone
malonu
mals
malta
maltoje
maltos
malu
malyje
mama
mamate
mamontovas
mamos
mams
man
mana
management
manager
manas
manau
manc
manchester
mandato
mandatu
mandela
mandz
mane
manga
mangano
mango
mangrove
maniera
maniez
manifesta
mann
mano
manoma
manomas
mans
manson
mantas
manu
manual
manuel
manuelis
manufaktu
many
manydamas
manymu
manyta
manyti
mao
maoriu
map
maps
mar
mara
maras
maratonas
maratono
marc
marcel
march
marcinkevic
marcinkoniu
marco
marcus
mare
marek
margaret
margarita
margaritos
marge
margi
margiai
margo
margu
mari
maria
mariai
mariana
marias
marie
marija
marijai
marijampole
marijona
marijonas
marijonu
marijos
marijus
marilyn
marina
marinas
marine
mariner
marino
mario
marios
mariose
maris
mariu
marius
mark
marka
markas
marke
market
markevic
markgrafas
markiu
markizas
marko
markos
marksas
marksistine
marksizmo
markso
marku
markus
marmuro
maro
marokas
maroke
maroko
mars
marsa
marsas
marse
marseille
marselis
marshall
marso
marta
marti
martin
martina
martinaitis
martinas
martino
martis
martynas
martynis
martyno
maru
marvel
mary
maryte
mas
masac
masalskis
masaz
mase
masine
masiniai
masinio
masinis
masiniu
masis
masiu
masiulis
maskva
maskvoje
maskvos
mason
masonai
mass
massa
master
masters
masto
mastu
masyva
masyvai
masyvas
masyve
masyvo
masyvu
masyvus
mat
mata
matai
matas
matau
matavimai
matavimo
matavimu
match
matches
mate
matematika
matematikai
matematikas
matematikoje
matematikos
matematiku
matematine
mater
materialine
materija
materijos
mathbf
mathrm
matilda
matine
matmenu
matmenys
mato
matoma
matomas
matome
matomi
matomos
matos
matosi
matrica
matricos
matt
matthew
matu
matulaic
matulaitis
matulevic
matulionis
matulis
matuojama
matuojamas
matuotas
matuoti
matus
matydamas
matyt
matyti
maumedis
maumedz
maurice
mauricijaus
mauricijus
mauritanijos
mauru
mauzoliejus
max
maxima
maximus
may
maz
mazda
mazgai
mazgas
mazgo
mazgu
mazovijos
mazu
mb
mbox
mc
mccready
mcdonald
mclaren
md
me
mec
mecenatas
mechanika
mechanikai
mechanikas
mechanikos
mechanine
mechaninis
mechaniniu
mechanis
mechanizma
mechanizmai
mechanizmas
mechanizmo
mechanizmu
mecosopranas
med
medal
medali
medaliai
medaliais
medalininkai
medalininkas
medalio
medalis
medaliu
medalius
medaus
mede
medeks
medelis
medi
media
mediana
medic
medical
medicina
medicine
medicinine
medicinoje
medicinos
mediena
medienos
medieval
medija
medijos
mediju
medikai
medikas
mediku
medina
medine
medinge
medini
mediniai
medininkai
medininku
medinio
medinis
mediniu
medinius
medinos
medis
meditacija
meds
medse
medu
medus
medve
medvilne
medyje
medynai
medynu
medz
meet
mega
megas
megzti
mei
meidz
meile
meilu
meiluz
meistrai
meistras
meistre
meistriliiga
meistris
meistro
meistru
meistrus
meiz
mekos
meksika
meksikiec
meksiko
meksikoje
meksikos
melas
melbourne
melburnas
melburne
melburno
melde
meldz
mele
meli
melioracijos
melnikaite
melo
melodija
melodijos
melounas
melstis
melsvai
membrana
membranos
memel
memorial
memorialas
memorialine
memorialinis
memorialo
memoriam
memory
men
mena
menai
menas
menc
mene
menimis
menine
menininkai
menininkas
menininke
menininko
menininku
meninio
meninis
meniniu
menis
meniu
menka
menkai
menkas
menke
meno
menos
menotyrininkas
menotyros
mens
mente
menu
menui
menus
menys
menziesii
mer
merai
meras
mercedes
mercury
mere
mergaic
mergaite
mergautine
mergele
mergelei
mergeliu
mergina
merginos
merginu
meri
merkevic
merkine
merkio
merkys
mero
meru
meryl
mes
mesi
mesio
mesje
mesopotamia
mesopotamija
mesopotamijoje
mesopotamijos
message
messier
messow
mesta
mestas
mesti
mesys
met
meta
metacritic
metai
metais
metal
metala
metalai
metalas
metaline
metaliniai
metalinis
metaliniu
metallica
metalo
metalu
metalurgija
metalurgijos
metamorfoze
metams
metas
mete
meteoritas
meteorologijos
meti
metikas
metimas
metimo
metimu
metine
metines
metinis
metiniu
metis
metisai
meto
metoda
metodai
metodais
metodas
metodika
metodikos
metodine
metodininke
metodistu
metodo
metodologija
metodu
metodus
metrai
metras
metriku
metro
metropoline
metropolitan
metropolitas
metropolitenas
metropoliteno
metru
metrus
metu
metuose
metus
metz
mexico
meyer
mez
mezge
mezgimo
mezoamerikos
mezolito
mfa
mfk
mg
mgb
mhz
mi
mia
miai
miami
mianmaras
mianmare
mianmaro
mic
micaic
michael
michaelis
michailas
michailo
michailovic
michalovo
michał
michel
michelangelo
michele
michelle
mick
mickevic
micku
microsoft
middle
midlothian
midnight
mie
miega
mieganc
miegas
miego
miejscowos
miela
mielage
miele
mieliu
miesc
miesta
miestai
miestais
miestams
miestas
mieste
miestele
miesteli
miesteliai
miestelio
miestelis
miesteliu
miesteliuose
miestelius
miestelyje
miestiec
miesto
miestu
miestui
miestuose
miestus
miez
mig
migelis
migle
migliniai
migliniu
migracija
migracijas
migracijos
migraciju
migrantu
migravo
migruoja
migruoti
miguel
mii
mika
mikailis
mikalauskas
mikalis
mikalojaus
mikalojus
mikas
mike
mikelandz
mikele
mikelis
miknevic
miko
mikolis
mikronezijos
mikroorganizmu
mikrorajone
mikrorajono
miks
mikule
mikutavic
mil
milan
milana
milanas
milane
milano
milas
milda
mile
miles
milicija
milicijos
milijardo
milijardu
milijardus
milijona
milijonai
milijonas
milijoniniai
milijono
milijonu
milijonus
military
miliu
milius
milk
mill
millennium
miller
million
milo
milos
miltai
milteliai
milteliu
miltinio
miltinis
miltu
milyte
milz
mima
mimai
mimas
mimo
mimu
mimui
mimus
min
mina
minamoto
minas
minc
mind
mindaugas
mindaugo
mindu
mine
mineralai
mineralas
mineraline
mineraliniu
mineralogijos
mineralu
minerva
minesotos
ming
minga
mingai
mingas
mingi
mingiausiu
mingos
mingu
mingumo
mini
minia
miniai
miniatiu
minija
minijos
minima
minimali
minimalus
minimas
minimi
minimos
minimu
minint
minio
minios
minis
miniserialas
ministerija
ministerijai
ministerijoje
ministerijos
ministeriju
ministra
ministrai
ministras
ministre
ministro
ministru
ministrui
miniu
minks
mino
minor
minos
minosvaidz
minsk
minskas
minske
minsko
minta
mintaujos
minti
minties
mintis
mintys
minu
minuc
minus
minute
minutes
mio
miokardo
miozino
mir
mira
miranda
mirc
mire
miroslavo
mirror
mirs
mirti
mirties
mirtimi
mirtina
mirtinai
mirtingieji
mirtingumas
mirtis
mirtys
mirus
mirusi
mirusieji
mirusio
mirusiojo
mirusios
mirusiu
mirusiuosius
mirusius
mis
misija
misijas
misijoje
misijos
misijose
misiju
misionieriai
misionieriu
misionierius
misisipe
misiu
misius
miss
mission
mistine
misu
mit
mita
mitai
mitas
mitchell
mite
mitine
mito
mitologija
mitologijoje
mitologijos
mitologine
mitologiniai
mitologinis
mitologiniu
mitsubishi
mitu
mituose
mituvos
mityba
mitybos
miu
miunchenas
miunchene
miuncheno
miuziklas
miuzikle
miuziklo
mix
mjanmu
mk
ml
mln
mlrd
mm
mmel
mn
mo
mobile
mobiliojo
mobiliu
mobilizuotas
moc
mocartas
mocarto
mockus
mod
mode
model
modeli
modeliai
modeliavimas
modeliavimo
modelio
modelis
modeliu
modeliuose
modelius
modelyje
modern
modernaus
moderni
modernia
modernios
moderniose
moderniosios
modernistine
moderniu
modernizmo
modernizuoti
modernu
modernus
modestas
modifikacija
modifikacijos
modifikuota
modifikuotas
modifikuoti
modulis
moduliu
mogaus
mogiliavo
mogiliovo
mogis
mogolu
mogu
mogui
mogumi
mogus
mogz
mohamed
mohamedas
moka
mokama
moke
mokesc
mokesti
mokestis
mokine
mokiniai
mokiniais
mokiniams
mokinio
mokiniu
mokinius
mokinys
moko
mokoma
mokomasis
mokomi
mokomoji
mokomosios
mokomu
mokosi
moks
moksla
mokslai
mokslas
moksle
moksleiviai
moksleiviams
moksleivis
moksleiviu
moksline
mokslini
moksliniai
mokslininkai
mokslininkams
mokslininkas
mokslininke
mokslininko
mokslininku
mokslininkus
mokslinio
mokslinis
moksliniu
mokslinius
mokslis
mokslo
mokslu
mokslui
mokslus
mokti
mokydamasis
mokykla
mokyklai
mokyklas
mokyklinio
mokykloje
mokykloms
mokyklos
mokyklose
mokyklu
mokyma
mokymai
mokymas
mokymo
mokymosi
mokymu
mokymui
mokymus
mokyti
mokytis
mokytoja
mokytojai
mokytojams
mokytojas
mokytojavo
mokytojo
mokytojos
mokytoju
mokytojus
mol
moldavija
moldavijoje
moldavijos
moldova
moldovos
mole
molekule
molekuline
molekuliu
moline
moliniu
molio
molis
moliu
moliuskai
moliusku
moll
molotovo
momenta
momentas
momento
momentu
mon
mona
monaco
monai
monakas
monake
monako
monarchai
monarchas
monarchija
monarchijos
monarchu
monas
monde
mondo
mone
monei
mones
moneta
monetas
monetos
monetu
money
mongolai
mongolija
mongolijoje
mongolijos
mongolu
monica
monija
monijai
monijos
monika
moningai
monis
moniu
monk
monku
mono
monografija
monografijos
monografiju
monograma
monos
monrealio
monroe
monsinjoras
monster
montana
montavimo
montaz
monte
montevide
montuojamas
montuojami
montuotas
montuoti
monu
monumentalus
monumentas
moon
moore
morale
moraline
morane
moravijos
more
moreno
morfologija
morgan
mori
morisas
morissette
morkaus
morku
morning
moro
morris
morrison
morta
mos
moscow
mose
moskva
moss
most
mot
moteri
moteriai
moterimi
moterimis
moterims
moteris
moters
moteru
moterys
mother
motiejaus
motieju
motiejus
motina
motinai
motine
motinos
motinyste
motion
moto
motociklai
motociklu
motor
motorine
motors
motyvai
motyvais
motyvas
motyvu
motyvus
mount
mountain
move
movement
movie
movies
moz
mozaika
mozaikos
mozambike
mozambiko
moze
mozu
mp
mr
mru
ms
msk
mstislavlio
mstl
mt
mtk
mts
mtv
mu
muchafaza
muchafazos
mudu
muge
mugiu
muhamedas
muhammad
muidzinavic
muilo
muitine
muitu
multi
mumija
mums
munchen
munich
municipaline
muo
muose
murder
murmansko
murphy
murray
mus
musa
musas
muse
museum
musi
musia
music
musica
musical
musinuke
musios
musiu
musninku
must
mustafa
mustang
musulmonai
musulmonis
musulmonu
mutacija
mutacijos
muz
muziejai
muziejaus
muziejininkas
muziejininke
muzieju
muziejui
muziejuje
muziejumi
muziejuose
muziejus
muzika
muzikai
muzikantai
muzikantas
muzikanto
muzikantu
muzikas
muzikine
muzikini
muzikiniai
muzikiniame
muzikinio
muzikinis
muzikiniu
muzikinius
muzikoje
muzikologas
muzikos
muziku
mv
mvp
mw
my
mykolaitis
mykolas
mykolo
mykolui
myle
myli
mylima
mylios
myliu
mynai
mynais
myro
mys
myspace
mythology
mz
n
na
nac
nach
naciai
naciams
nacija
nacional
nacionaline
nacionalinei
nacionalines
nacionalini
nacionaliniai
nacionaliniam
nacionaliniame
nacionalinio
nacionalinis
nacionaliniu
nacionalinius
nacionalistine
nacionalistu
nacionalizmo
nacistine
naciu
nad
nadez
nadruvos
nafta
naftos
nagai
nagais
nagrine
nagu
nai
naic
naikina
naikinimas
naikinimo
naikino
naikinti
naikintuvai
naikintuvas
naikintuvo
naikintuvu
nais
naite
naitija
naitijos
naitis
nakamura
nakti
nakties
naktimis
naktine
naktinio
naktinis
naktis
naktys
nakvyne
nals
nam
nama
namai
namais
namams
namas
name
namelis
names
namibijos
namie
namine
naminiai
naminiu
namis
namo
nams
namu
namuose
namus
nana
nancy
nant
nantes
napoleonas
napoleono
napoli
nara
narbutas
nare
narevkos
narevo
nari
nariai
nariais
nariams
nario
nariu
narius
narkevic
narkotikais
narkotiku
nars
naru
narus
narva
narvos
narys
naryste
nas
nasa
nasau
nascar
nasdaq
nastro
nat
nata
natalija
natas
nathan
nation
national
nationale
nationalliga
nations
natiurmortas
nato
natos
natrio
natu
natura
natural
nature
nau
nauda
naudai
naudinga
naudingas
naudingi
naudingiausias
naudingiausiu
naudingos
naudingu
naudingumo
naudodamas
naudodamasis
naudodami
naudodavo
naudoja
naudojama
naudojamas
naudojami
naudojamos
naudojamu
naudojanc
naudojant
naudojanti
naudojantis
naudojantys
naudojasi
naudoje
naudojima
naudojimas
naudojimo
naudojimu
naudojimui
naudojo
naudojosi
naudos
naudota
naudotas
naudoti
naudotis
naudotojai
naudotojo
naudotoju
naudotos
naudotu
naudu
naugardo
naugarduko
nauja
naujai
naujais
naujaisiais
naujajai
naujajame
naujakuriai
naujakuriu
naujalio
naujam
naujame
naujamiesc
naujamiestis
naujas
naujase
naujasis
naujasode
naujasodis
naujasodz
naujausi
naujausia
naujausias
naujausiu
naujesne
nauji
naujieji
naujiems
naujiena
naujienas
naujienos
naujienu
naujo
naujoje
naujoji
naujojo
naujojoje
naujokai
naujokas
naujoku
naujomis
naujoms
naujos
naujosios
naujove
naujovis
naujoviu
nauju
naujuoju
naujuosius
naujus
naumiesc
naumiestis
nauru
naus
nause
nava
naval
navickas
navigacijos
navikai
navikas
naviko
naviku
navimo
navo
navos
navu
navy
nb
nba
nbc
ncaa
ncbi
nchen
nchez
nd
nde
nderungen
ndez
ndige
ne
nea
neabejotinai
neais
neakivaizdiniu
neapibre
neapolio
neapolis
neapolyje
neapras
neapykanta
near
neatitinka
neatpaz
neatsiejama
neatsiz
neatskiriama
neauks
nebaige
nebaigta
nebaigtas
nebe
nebebuvo
nebegale
nebegali
nebegri
nebeliko
nebent
nebeture
neblogai
nebu
nebus
nebuvimas
nebuvo
nec
nedalyvauja
nedalyvavo
nedarbo
nedatuota
nedatuoti
nedaug
nedaugelio
nedave
nede
nedelsiant
nedidele
nedideles
nedideli
nedideliais
nedideliame
nedidelio
nedidelis
nedideliu
nedidelius
nedri
need
neegzistuoja
neformaliojo
neg
negale
negali
negalia
negalima
negaliu
negana
negavo
negirde
negri
negro
negu
negyva
negyvas
negyvenama
nei
neige
neigia
neigiama
neigiamai
neigiamas
neigiamo
neigiamos
neigiamu
neigimas
neil
neilgai
neis
neka
nekaltojo
nekama
nekamojoje
neke
nekeic
nekeliamieji
nekenc
nekilnojamojo
nekilnojamu
nekirc
nekriks
nekros
nekta
nelabai
nelaime
nelaimiu
nelaisve
nele
nelegaliai
neleido
neleidz
neleisti
neliec
neliko
nelis
neliu
nelly
nelson
nelsonas
nelygybe
nemaju
nemaks
nemano
nemate
nematomas
nemaz
neme
nemenc
nemoka
nemokama
nemokamai
nemokamas
nemoke
nemuna
nemunaic
nemunas
nemune
nemuno
nemunu
nemzeti
nen
nenaudojamas
nencu
nendre
nendrine
nendrinuke
nendriu
nenore
nenori
nenoriu
nenukente
nenutekantis
nenutru
neo
neoficialiai
neoficialus
neogotikine
neolitas
neolito
neon
nepaais
nepadare
nepagri
nepaisant
nepaisydamas
nepaje
nepakanka
nepakankamai
nepakankamumas
nepakeic
nepakeista
nepakito
nepale
nepaliko
nepalo
nepamirs
nepaprasta
nepaprastai
nepaprastasis
nepasieke
nepasirode
nepasitenkinima
nepasitenkinimas
nepasitike
nepasiz
nepastebe
nepateko
nepatenkintas
nepatenkinti
nepatiko
nepavyko
nepavyksta
nepavykus
nepaz
nepelne
neperi
nepilnamec
nepomnias
nepomuko
neporiniai
neprade
nepralaime
neprie
nepriekais
nepries
nepriklause
nepriklauso
nepriklausoma
nepriklausomai
nepriklausomas
nepriklausomi
nepriklausomo
nepriklausomoje
nepriklausomos
nepriklausomu
nepriklausomybe
nepripaz
nepritare
neptu
nerado
neramumai
neramumu
neramumus
neras
nerasta
nere
nerege
nereguliariai
nereike
nereikia
nereiks
nereis
neretai
neri
neribota
neries
nerija
nerijoje
nerijos
nerijus
nerima
nerimo
neringa
neringos
neris
nerono
ners
neru
nervine
nervu
nerys
nes
nesa
nesant
nese
neseniai
nesgi
nesi
nesiai
nesiais
nesiams
nesiekia
nesikeic
nesikis
nesinis
nesio
nesiskiria
nesiu
nesiui
nesius
neskaitant
nespe
nesterovo
nesudaro
nesude
nesugeba
nesugebe
nesulauke
nesunkiai
nesunku
nesusije
nesusilauke
nesutarimai
nesutarimu
nesutiko
nesuz
nesvarbu
nesvyz
net
netaisyklingo
netaisyklingos
netapo
neteise
neteisingai
neteke
neteko
netenka
netgi
netiesiogiai
netike
netikintys
netikra
netinka
netinkama
netoli
netoliese
netru
netruko
netrukus
neture
neturi
neturinc
neturinti
neturintis
neturintys
network
netyc
neu
neue
neues
neuronu
neutronu
neuz
neva
nevados
nevalstybine
nevare
neve
neveikiamosios
neveikianc
never
nevezis
nevienareiks
nevirs
nevis
nevyko
nevyriausybine
new
newcastle
news
newton
next
nez
nfa
ng
ngc
nh
nhl
ni
nia
niadovo
niai
niais
niau
niausia
niausiai
niausias
niauskas
nic
nica
nice
nicholas
nicholson
nick
nico
nicola
nicolas
nicole
nicos
nida
nidoje
nidos
nie
niec
niekad
niekada
niekados
niekaip
niekam
niekas
nieko
nieks
niekuo
niekuomet
niekur
nielsen
niene
nies
nigerija
nigerijoje
nigerijos
nigerio
night
nigra
nigreichs
nigsberg
nih
nij
nija
nijai
nijas
nijo
nijoje
nijole
nijos
niju
nika
nikaragva
nikaragvoje
nikaragvos
nikas
nike
nikelio
niki
nikita
niko
nikodemas
nikola
nikolajaus
nikolajus
nikolas
nikz
nilas
nilo
nimcovic
nimfa
nimfos
nin
nina
nindze
nine
niniai
ninis
niniu
ninkai
nino
nintendo
nio
nios
nipine
nipis
nipu
nirvana
nis
niu
niujorka
niujorkas
niujorke
niujorko
niuks
niuose
niurnbergo
nius
niutono
niz
nk
nkdt
nkl
nkvd
nl
nlm
nm
nme
nn
no
noah
nobelio
nobunaga
nociu
noir
nojaus
noje
nojus
nomas
nomenklatu
nominacija
nominacijoje
nominacijos
nominaciju
nominaliai
nominalo
nominuota
nominuotas
nomo
non
nora
noras
norbertas
nord
nordliches
nore
noreika
noreikis
nori
noriai
norima
norinc
norint
norintys
noris
noriu
norku
norkus
norma
normaliai
normalu
norman
normanai
normandijos
normanu
normas
normos
normu
noro
nors
north
northern
norton
noru
norus
norvais
norvegija
norvegijoje
norvegijos
norvegu
nos
nosi
nosies
nosis
nosparniai
nosparnis
nosparniu
not
notangos
notaras
notaro
notaru
note
notes
nothing
notre
nottingham
nov
nova
novatoris
nove
novele
noveliu
november
novgorodo
novi
novikovas
novo
novoaleksandrovsko
novosibirsko
now
np
nr
nras
ns
nsdap
nsi
nt
nu
nubaustas
nubausti
nube
nubijos
nubre
nudaz
nudz
nue
nueva
nufilmavo
nufilmuotas
nugale
nugali
nugara
nugare
nugarine
nugario
nugaros
nugriauta
nugriautas
nugriauti
nui
nukariavo
nukeliavo
nukente
nukove
nukreipe
nukreipia
nukreipta
nukreiptas
nukreipti
nukreiptos
nukrenta
nukrito
nukryz
nule
nuleidz
nulemia
nuli
nuline
nulio
nulis
nuliu
nuliui
nulyje
numals
numate
numato
numatoma
numatyta
numatytas
numatyti
numatytos
numatytu
number
numeri
numeriai
numeriais
numerio
numeris
numeriu
numerius
numeryje
numete
numi
numire
nums
numus
nunes
nuniokojo
nunyko
nuo
nuobauda
nuodai
nuode
nuodingas
nuodingieji
nuodingu
nuodu
nuoga
nuolaidu
nuolat
nuolatine
nuolatini
nuolatiniai
nuolatinio
nuolatinis
nuolatiniu
nuolatos
nuolauz
nuolydis
nuoma
nuomojo
nuomone
nuomoniu
nuomos
nuomotas
nuopelnu
nuopelnus
nuoras
nuoroda
nuorodos
nuorodu
nuos
nuosaka
nuosakos
nuosava
nuosavybe
nuose
nuosekliai
nuosmuki
nuosmukis
nuosprendis
nuosprendz
nuostata
nuostatai
nuostatas
nuostatos
nuostatu
nuostatus
nuostoliai
nuostoliu
nuostolius
nuotaika
nuotaikos
nuotaka
nuotas
nuote
nuoteku
nuotoliniu
nuotolio
nuotolis
nuotoliu
nuotrauka
nuotraukas
nuotraukomis
nuotraukos
nuotraukose
nuotrauku
nuotykiai
nuotykiu
nuotykius
nuovargis
nuoz
nupies
nupirko
nupirkti
nuras
nurodant
nurode
nurodo
nurodoma
nurodomas
nurodomi
nurodymai
nurodymu
nurodymus
nurodyta
nurodytas
nurodyti
nurodytos
nurodytu
nus
nusako
nuse
nusiaube
nuside
nusidrieke
nusifilmavo
nusikalstamumo
nusikalte
nusikaltima
nusikaltimai
nusikaltimas
nusikaltimo
nusikaltimu
nusikaltimus
nusileide
nusileidimas
nusileidimo
nusileido
nusileidz
nusileisti
nusilpo
nusilpus
nusines
nusipelne
nusipelniusi
nusipelniusio
nusipirko
nusipirkti
nusis
nusistove
nusiteike
nusiu
nusiunte
nusivyle
nusiz
nuskendo
nusle
nusmaile
nuspe
nuspre
nusprende
nusprendz
nustac
nustatant
nustate
nustato
nustatoma
nustatomas
nustatomi
nustatomos
nustatymas
nustatymo
nustatymui
nustatyta
nustatytas
nustatyti
nustatyto
nustatytos
nustatytu
nustebino
nustoja
nustojo
nutape
nutapytas
nutapyti
nutare
nutarima
nutarimai
nutarimas
nutarimu
nutarimus
nutarta
nuteise
nuteistas
nuteisti
nuteistu
nuteka
nuteke
nuti
nutiesta
nutiestas
nutiesti
nutiesus
nutiko
nutole
nutolusi
nutrauke
nutraukimo
nutraukta
nutrauktas
nutraukti
nutrauktos
nutru
nuvaz
nuvede
nuverstas
nuversti
nuverte
nuvez
nuvyke
nuvyko
nuz
nvs
ny
nyc
nyderlandai
nyderlandu
nyderlanduose
nyderlandus
nyje
nyke
nykimas
nykimo
nyko
nyks
nyksta
nykstanc
nykstanti
nykti
nykusi
nykusios
nys
nyte
nytimes
nytine
nytinio
nytiniu
nz
o
oaze
obama
obe
obelis
obeliskas
obeliu
obelu
oberosto
objekta
objektai
objektais
objektams
objektas
objekto
objektu
objektus
obsas
observatorija
observatorijoje
observatorijos
obuoliai
obuoliu
obuolys
oc
ocean
och
oclc
oct
october
od
oda
odd
ode
odense
odesa
odesoje
odesos
odi
odine
odis
odise
odoje
odos
odu
odyje
odyna
odynas
odyne
odyno
odynu
odz
of
off
office
official
oficialaus
oficiali
oficialia
oficialiai
oficialiame
oficialias
oficialioje
oficialios
oficialiu
oficialiuose
oficialu
oficialus
ofsetas
og
ogc
oginskio
oginskis
oginskiu
ogu
oh
ohajo
oi
oil
ois
oje
oji
ojo
ojoje
ok
oka
okas
oke
okeanija
okeanijoje
okeanijos
oki
okiai
okinavos
okine
okio
okis
okiu
okius
oko
okolado
okos
oks
oksfordo
oksidu
oktavianas
okti
okupacija
okupacijai
okupacijos
okupacine
okupaciniam
okupavo
okupavus
okupuota
okupuotas
okupuotoje
okupuotos
ol
ola
olandai
olandas
olandija
olandijoje
olandijos
olandis
olandu
old
oldsmobile
ole
olegas
oles
olga
olimpia
olimpiada
olimpiadoje
olimpiados
olimpiadose
olimpiadu
olimpiec
olimpiete
olimpietis
olimpija
olimpine
olimpines
olimpini
olimpiniai
olimpiniame
olimpinio
olimpinis
olimpiniu
olimpo
oline
oliniai
olinis
oliniu
olis
oliu
oliveira
oliver
olivier
olos
ols
olympedia
olympiakos
olympic
olympics
olympique
om
oma
omano
omar
omas
ome
omega
omejadu
omenyje
omi
omis
omonoia
omos
oms
on
ona
onai
onas
once
one
onegos
oniai
onine
oniniai
oninis
oniniu
onis
oniu
online
only
ono
onos
onsonas
ontarijo
onu
onuose
onus
onute
onys
op
opel
open
openo
opera
operacija
operacijas
operacijoje
operacijoms
operacijos
operacijose
operaciju
operacine
operas
operatoriai
operatoriaus
operatorius
operatyvine
operete
operoje
operos
operu
oplus
opole
opozicija
opozicijos
opozicine
ops
optika
optikos
optine
optiniu
option
opus
or
ora
orai
orange
oranz
oras
oratorija
orbita
orbitoje
orbitos
orchestra
orchid
orchide
orda
order
ordina
ordinai
ordinais
ordinas
ordino
ordinu
ordinui
ordos
ordz
ore
orfe
org
organa
organai
organas
organine
organiniu
organizacija
organizacijai
organizacijas
organizacijoje
organizacijomis
organizacijoms
organizacijos
organizacijose
organizaciju
organizacine
organizacinio
organization
organizatore
organizatoriai
organizatoriu
organizatorius
organizavima
organizavimas
organizavimo
organizavo
organizma
organizmai
organizmas
organizme
organizmo
organizmu
organizmui
organizuoja
organizuojama
organizuojamas
organizuojami
organizuojamos
organizuojant
organizuota
organizuotas
organizuoti
organizuotos
organo
organu
organus
orientacija
orientacijos
oriental
orientation
orientuota
orientuotas
origin
original
originalas
originalaus
originali
originalia
originalios
originaliu
originalo
originalu
originalus
origins
orine
orini
oriniai
orinio
orinis
oriniu
orinoko
oris
orkestra
orkestras
orkestre
orkestro
orkestru
orkestrui
orlaivi
orlaiviai
orlaivio
orlaivis
orlaiviu
orlaivius
orlando
orleano
ornamentais
ornamentu
ornitologu
oro
ors
orse
ortai
ortas
ortodoksu
ortsnamen
ortsnamena
ortsnamenverzeichnis
ortsregister
oru
orui
orz
os
osaka
osakos
osc
oscar
ose
osetija
osetijos
osi
osioms
osios
oskara
oskaras
oskaro
oskaru
oskarui
osle
oslo
osmanai
osmanu
ost
ostpreussen
ostpreußen
ostrogis
osvaldas
ot
otas
other
oto
otonas
otto
ou
oulu
our
out
ova
ovai
ovali
ovalo
ovanis
ovas
ove
over
overview
oves
ovidijus
oviniai
oviniais
ovinio
oviniu
ovinius
ovinys
oviu
ovo
ovu
ovui
ovus
owen
own
oxford
oz
ozas
oze
ozefas
oziorsko
ozono
p
pa
paa
paais
paas
paaugliu
paauglyste
paaukojo
paaukoti
paauks
pab
pabaiga
pabaige
pabaigoje
pabaigos
pabaigti
pabaigus
pabaisa
pabaisko
pabaltijo
pabande
pabare
pabe
paberz
pabirz
pablas
pablo
pabloge
pabrade
pabre
pabu
pabuc
pabuvojo
pac
pacas
pacientai
pacientams
pacientas
paciento
pacientu
pacific
padalijima
padalijimo
padalini
padaliniai
padalinimas
padalinimo
padalinio
padaliniu
padalinius
padalino
padalinta
padalintas
padalinti
padalintos
padalinus
padalinys
padangas
padange
padangos
padangu
padare
padariniai
padariniu
padaro
padaryta
padarytas
padaryti
padarytos
padarytu
padauge
padave
padavimai
padavimo
padaz
pade
padeda
padedamas
padedanc
padedant
padegimas
pademonstravo
padengta
padengtas
padengti
padide
padidina
padidino
padidinta
padidintas
padidinti
padniestre
padovanojo
padu
padubysys
paduviec
padvariai
padvarninkai
pae
paeiliui
paez
pagal
pagalba
pagalbine
pagalbiniai
pagalbinis
pagalbiniu
pagalbos
pagaliau
pagalve
pagaminama
pagamino
pagaminta
pagamintas
pagaminti
pagamintos
pagamintu
pagarba
pagarbos
pagarse
pagause
pagauti
page
pagelbe
pagerbti
pagere
pagerina
pagerino
pagerinti
pages
pagimde
pagiriai
pagiriu
pagoje
pagonis
pagoniu
pagonybe
pagramanc
pagraz
pagri
pagrinda
pagrindai
pagrindais
pagrindas
pagrinde
pagrindine
pagrindines
pagrindini
pagrindiniai
pagrindiniais
pagrindiniam
pagrindiniame
pagrindinio
pagrindinis
pagrindiniu
pagrindinius
pagrindo
pagrindu
pagrindus
pagrobe
pagrobti
pagyrimu
pai
paies
pailga
pailgas
pailge
pailgi
pailgos
pailse
paima
paimta
paimtas
paimti
pain
pais
paiz
pajamas
pajamos
pajamu
paje
pajevonio
paju
pajude
pak
pakaba
pakaitalas
pakaitomis
pakako
pakaline
pakalinis
pakaliniu
pakalne
pakalnis
pakalniu
pakamaris
pakanka
pakankama
pakankamai
pakape
pakartojo
pakartoti
pakartotinai
pakaus
pake
pakeic
pakeis
pakeista
pakeistas
pakeisti
pakeistos
pakeite
pakeitimai
pakeitimas
pakeitimo
pakeitimu
pakeitimus
pakeitus
pakele
pakelia
pakeliui
pakelta
pakeltas
pakelti
pakenkti
paketa
paketas
paketu
pakile
pakilimas
pakilimo
pakilo
pakilti
pakinta
pakistanas
pakistane
pakistano
pakitimai
pakito
paklausa
paklause
paklausos
paklote
paklusti
pakopa
pakopoje
pakopos
pakopu
pakraipos
pakranc
pakrante
pakrantes
pakras
pakraz
pakriks
pakruojis
pakruojo
paks
paksas
pakta
pakto
pakuoc
pakuonio
pakuote
pakviec
pakviesta
pakviestas
pakviesti
pakviete
pakyla
pakylos
pal
palace
palaidojimo
palaidojo
palaidota
palaidotas
palaidoti
palaikai
palaikanc
palaike
palaiko
palaikoma
palaikomas
palaiku
palaikus
palaikyma
palaikymas
palaikymo
palaikyti
palaima
palaipsniui
palanga
palangoje
palangos
palankiai
palankios
palapine
palau
palauz
palazzo
pale
paleckis
palei
paleidimo
paleido
paleidz
paleista
paleistas
paleisti
palemono
palengvina
palengvinti
palenke
paleolito
palermo
palestina
palestiniec
palestinoje
palestinos
pali
paliaubas
paliaubos
paliaubu
paliec
palieka
paliekant
paliepiai
paliepiu
paliete
palikdamas
palike
palikima
palikimas
palikimo
paliko
palikta
paliktas
palikti
paliktos
palikuonis
palikuoniu
palikuonys
palionis
paliu
palivarkas
palivarko
palm
palma
palme
palmer
palmiu
palomene
pals
palu
palydova
palydovai
palydovas
palydovine
palydovo
palydovu
palyginimas
palyginimui
palyginti
palyginus
pamac
pamaina
pamaldas
pamaldos
pamaldu
pamario
pamata
pamatai
pamatas
pamate
pamatine
pamato
pamatu
pamatus
pamatyti
pamaz
pame
pamela
pamine
paminkla
paminklai
paminklas
paminkline
paminklinis
paminklo
paminklu
paminklus
pamirs
pamis
pamoka
pamokas
pamokos
pamokslininkas
pamokslus
pamoku
pamu
pamus
pamyro
pan
panaikina
panaikinimo
panaikino
panaikinta
panaikintas
panaikinti
panaikintos
panaikinus
panama
panamerikos
panamoje
panamos
panas
panathinaikos
panaudojama
panaudojami
panaudojant
panaudojima
panaudojimas
panaudojimo
panaudojo
panaudojus
panaudota
panaudotas
panaudoti
panaudotos
panc
pande
pandemija
pandemijos
pandz
paneige
panele
panemune
panemunio
paneriu
paneve
panevezys
pankroko
pano
panonijos
panorama
panoramio
panthera
pantone
panzer
paok
paola
paolo
papa
paparc
papasakojo
pape
paper
papers
papilde
papildo
papildoma
papildomai
papildomas
papildomi
papildomo
papildomos
papildomu
papildomus
papildymai
papildymas
papildymo
papildyta
papildytas
papildyti
papile
papilio
papilys
papis
paplite
paplitimas
paplitimo
paplito
paplitusi
paplitusios
paplitusiu
paploks
paplu
papras
paprasc
paprasta
paprastai
paprastas
paprastasis
paprasti
paprastieji
paprasto
paprastoji
paprastojo
paprastos
paprastosios
paprastu
paproc
paprotys
papru
papu
papua
papuos
papus
par
para
parade
paradigma
paradise
paradoksas
paragino
paragvajaus
paragvajuje
paragvajus
parais
parako
paralyz
parama
parameter
parameters
parametrai
parametru
parametrus
paramore
paramos
paranos
parapija
parapijai
parapijiec
parapijine
parapijoje
parapijos
parapijose
parapiju
parapine
paras
parc
pardave
pardavimai
pardavimas
pardavimo
pardavimu
pardavimus
pardavine
pardavus
parduoda
parduodama
parduodamas
parduodami
parduodamos
parduodamu
parduota
parduotas
parduoti
parduotu
parduotuve
parduotuviu
pare
pareiga
pareigas
pareigojo
pareigos
pareigose
pareigu
pareigybe
pareikalavo
pareiks
pareis
paremta
paremtas
paremti
paremtos
parenge
parengta
parengtas
parengti
paribyje
parinkti
paris
park
parka
parkai
parkas
parke
parker
parko
parku
parkui
parkuose
parlamenta
parlamentas
parlamente
parlamentine
parlamento
parlamentui
parma
parmos
paroda
parodas
parode
parodo
parodoje
parodoma
parodos
parodose
parodu
parodyta
parodytas
parodyti
paros
parove
pars
parsivez
part
partial
partija
partijai
partijas
partijoje
partijoms
partijos
partijose
partiju
partine
partinis
partitu
partizan
partizanai
partizanais
partizanams
partizanas
partizani
partizanu
partizanus
partnere
partneriai
partneriais
partneris
partneriu
partneryste
partu
party
paru
paruos
parvez
parys
paryz
pas
pasa
pasak
pasaka
pasakas
pasake
pasakis
pasako
pasakoja
pasakojama
pasakojimai
pasakojimas
pasakojimo
pasakojimu
pasakojo
pasakos
pasaku
pasakyta
pasakyti
pasala
pasamde
pasas
pasaule
pasauli
pasauliec
pasaulietine
pasaulietiniai
pasauline
pasaulini
pasauliniam
pasauliniame
pasaulinio
pasaulinis
pasauliniu
pasaulio
pasaulis
pasauliu
pasauliui
pasaulyje
pascal
pase
paseke
pasekme
pasekmes
pasekmiu
pasekoje
pasibaige
pasibaigia
pasibaigus
pasidalijo
pasidalino
pasidare
pasidaro
pasidave
pasiduoti
pasie
pasiekdavo
pasieke
pasiekia
pasiekiama
pasiekiamas
pasiekimai
pasiekimais
pasiekimas
pasiekimu
pasiekimus
pasiekta
pasiektas
pasiekti
pasiektu
pasiekus
pasiekusi
pasiekusiu
pasieniec
pasienio
pasienyje
pasigaile
pasigirti
pasiimti
pasikalbe
pasikartojanc
pasike
pasikeic
pasikeisti
pasikeite
pasikeitimai
pasikeitimas
pasikeitimo
pasikeitimu
pasikeitus
pasikviete
pasiliko
pasilikti
pasinaudodamas
pasinaudoje
pasinaudojo
pasinaudoti
pasine
pasipilde
pasipries
pasipuos
pasiras
pasireiks
pasireis
pasirenge
pasirenka
pasirinke
pasirinkima
pasirinkimas
pasirinkimo
pasirinko
pasirinkta
pasirinktas
pasirinkti
pasirode
pasirodo
pasirodydavo
pasirodyma
pasirodymai
pasirodymas
pasirodymo
pasirodymu
pasirodymuose
pasirodymus
pasirodys
pasirodyti
pasirodz
pasiru
pasiruos
pasiryz
pasis
pasisake
pasisako
pasiseke
pasisekima
pasisekimo
pasiskelbe
pasiskirste
pasiskirstyma
pasiskirstymas
pasiskirstymo
pasisle
pasistate
pasitaikanc
pasitaiko
pasitelke
pasitelkiant
pasitike
pasitiko
pasitrauke
pasitraukia
pasitraukimo
pasitraukti
pasitraukus
pasiturinc
pasiu
pasiunte
pasiuntiniai
pasiuntinio
pasiuntiniu
pasiuntinybe
pasiuntinys
pasivadine
pasivadino
pasivaiks
pasiz
paskaic
paskaitas
paskaitos
paskaitu
paskatino
paskatintas
paskatinti
paskelbe
paskelbia
paskelbimo
paskelbta
paskelbtas
paskelbti
paskelbtos
paskelbus
paskiria
paskiriamas
paskirstymas
paskirstymo
paskirta
paskirtas
paskirti
paskirties
paskirtis
pasklido
paskola
paskolintas
paskolos
paskolu
paskui
paskutine
paskutines
paskutini
paskutiniai
paskutiniais
paskutiniaisiais
paskutiniame
paskutinieji
paskutinio
paskutinioji
paskutiniojo
paskutinis
paskutiniu
paskutinius
paskutinysis
paskyra
paskyre
paskyrima
paslapc
paslapti
paslaptinga
paslaptis
paslaptys
paslauga
paslaugas
paslaugomis
paslaugos
paslaugu
pasle
pasmerke
paso
pasodino
pasodintas
paspaudus
paspauskite
pasroviui
past
pasta
pastaba
pastabos
pastac
pastangas
pastangomis
pastangos
pastangu
pastara
pastaraisiais
pastarajam
pastarajame
pastarasis
pastarieji
pastaroji
pastarojo
pastarosios
pastaru
pastaruoju
pastaruosius
pastata
pastatai
pastatais
pastatas
pastate
pastato
pastatu
pastatuose
pastatus
pastatydino
pastatymas
pastatymo
pastatyta
pastatytame
pastatytas
pastatyti
pastatytos
pastatytu
pastebe
pastebi
pastebima
pastebimas
pastebimi
pastoge
pastorius
pastovi
pastoviai
pastovios
pastoviu
pastovu
pastovus
pastu
pasu
pasuka
pasuko
pasukti
pasukus
pasvalio
pasvalys
pat
patagonijos
pataike
pataisa
pataisos
patalpa
patalpas
patalpoje
patalpos
patalpose
patalpu
patare
patariama
patarimai
patarimu
patarme
patas
patavimo
patavo
pate
pateike
pateikia
pateikiama
pateikiamas
pateikiami
pateikiamos
pateikimo
pateikta
pateiktas
pateikti
pateiktos
pateiktu
pateiktus
patekdavo
pateke
patekimo
pateko
pateks
patekti
patekus
patekusi
patele
pateles
pateliu
patenka
patenkama
patenkintas
patenkinti
patentavo
patentu
pati
patie
patiekalai
patiekalas
patiekalu
patiekiami
patiems
paties
patike
patikimai
patikimu
patiko
patikrinti
patinai
patinas
patine
patinka
patino
patinu
patiria
patirti
patirties
patirtimi
patirtis
patobulino
patobulinta
patobulintas
patobulinti
patogu
patologine
patranka
patrankas
patrankomis
patrankos
patranku
patrauke
patraukti
patriarchas
patricia
patrick
patrikas
patriotine
pats
patvenkta
patvenkus
patvinsta
patvirtina
patvirtinanc
patvirtinimo
patvirtino
patvirtinta
patvirtintas
patvirtinti
patvirtintos
patvirtintu
patyc
patyre
patyrusi
patys
pau
pauks
paul
paula
paulas
paulauskas
paule
pauliaus
paulina
paulis
pauliu
paulius
paulo
paupio
pauz
pav
pavadina
pavadine
pavadinima
pavadinimai
pavadinimais
pavadinimas
pavadinime
pavadinimo
pavadinimu
pavadinimus
pavadino
pavadinta
pavadintas
pavadinti
pavadintos
pavaduotoja
pavaduotojai
pavaduotojas
pavaduotojo
pavaduotoju
pavaizdavo
pavaizduota
pavaizduotas
pavaizduoti
pavaizduotos
pavaldi
pavaldu
pavaldumo
pavaldus
pavaldz
pavandene
pavara
pavarde
pavardz
pavartojo
pavaru
pavasari
pavasarininku
pavasario
pavasaris
pavaz
pave
pavede
pavedimu
paveike
paveiksla
paveikslai
paveikslais
paveikslas
paveiksle
paveikslo
paveikslu
paveiksluose
paveikslus
paveikta
paveiktas
paveikti
pavelas
pavelda
paveldas
pavelde
paveldima
paveldo
paveldosaugos
paveldu
paverc
paversta
paverstas
paversti
paverte
pavesta
pavidala
pavidalo
pavidalu
paviene
pavieniai
pavieniais
pavieniu
pavieniui
pavies
pavietas
paviete
pavieto
paviljonas
pavimas
pavimo
pavirs
pavirto
pavoge
pavojaus
pavojinga
pavojingas
pavojingi
pavojingos
pavojingu
pavoju
pavojus
pavolgio
pavyko
pavyksta
pavyzdi
pavyzdys
pavyzdz
paz
pb
pc
pdf
pe
peace
pearl
peas
pec
pedagogai
pedagogas
pedagoge
pedagogika
pedagogikos
pedagogine
pedagogini
pedagoginiame
pedagoginio
pedagoginis
pedagogo
pedagogu
pedras
pedro
peiliai
peilis
peiliu
peiraias
peizaz
pekinas
pekine
pekino
pele
pelenai
pelene
pelenu
pelke
pelkiai
pelkine
pelkinis
pelkiu
pelna
pelnas
pelne
pelniusi
pelno
pelnydamas
pelnyti
pelnytu
peloponeso
pelys
pempe
pen
penelope
penguin
penkeriems
penkeriu
penkerius
penki
penkiais
penkiakampe
penkiakove
penkias
penkiasdes
penkiems
penkiolika
penkiolikos
penkios
penkis
penkiu
penkta
penktadieni
penktadienio
penktajame
penktas
penktasis
penktoje
penktoji
penktojo
penktosios
pensija
pensiju
pensilvanijos
pentax
people
peppers
per
peraugo
perciformes
perdave
perdavima
perdavimas
perdavimo
perdavimu
perdavimus
perde
perdirbimas
perdirbimo
perduoda
perduodama
perduodamas
perduodami
perduota
perduotas
perduoti
perduotos
pere
pereina
pereinama
pereinamosios
pereinamosiose
pereira
pereita
pereiti
perfect
perfekto
performance
performuota
pergale
pergales
pergaliu
peri
perima
perimetras
perimta
perimtas
perimti
period
perioda
periodas
periode
periodine
periodiniu
periodis
periodo
periodu
perka
perkamiausiu
perke
perkelta
perkeltas
perkelti
perkeltos
perku
perkusija
perl
perlaidoti
perlas
perleido
perleista
perleistas
perleisti
perlojos
perlu
permainu
perme
pernai
pernaravos
pernas
pernelyg
pernes
pernu
perorganizuota
perpus
perras
perrinktas
perry
pers
persai
perse
persekiojami
persekiojimas
persekiojimo
persekiojo
persekioti
persija
persijos
persike
persikelia
persikelti
persikrauste
persis
persitvarkymo
perskaic
perskaite
perskaityti
persona
personalas
personaline
personalo
personaz
personifikacija
perspe
perspektyva
perspektyvos
perstatyta
perstatytas
perstatyti
persu
persvara
persvaros
perteikti
perteklius
perto
pertrauka
pertraukomis
pertraukos
pertvarke
pertvarkyta
pertvarkytas
pertvarkyti
peru
perudz
pervadino
pervadinta
pervadintas
pervaz
perversma
perversmas
perversmo
pervez
perz
pes
pesc
pet
petah
pete
peter
peterburga
peterburgas
peterburge
peterburgo
peteris
petersburg
peti
peties
petkevic
petku
petra
petraic
petraitis
petras
petrauskas
petrausko
petravic
petris
petro
petrograde
petrogrado
petrone
petronis
petros
petrosianas
petrovas
petrovic
petru
petrui
petrulis
petrus
peugeot
pez
pfk
pg
ph
phalaenopsis
phi
phil
philadelphia
philip
philippe
phillips
philosophy
phoenix
photo
photos
php
physics
pi
pia
pianinas
pianino
pianinu
pianistas
pianiste
pianistu
piano
pic
picea
picture
pictures
pie
piec
piemuo
piena
pienas
piene
piengrybis
pienine
pieno
pienu
piero
pierre
pies
pieta
pieter
pietine
pietines
pietini
pietiniai
pietiniame
pietinio
pietinis
pietiniu
pietiniuose
pietro
pietryc
pietrytine
pietrytiniame
pietrytinis
pietu
pietuose
pietus
pietvakarine
pietvakariniame
pietvakarinis
pietvakariu
pietvakariuose
pietvakarius
pieva
pievas
pievine
pievos
pievose
pievu
pigmentas
pijaus
pijus
pikc
piko
pikta
piktnaudz
piktu
piktz
pilaite
pilale
pilde
pildo
pildyti
pile
pili
piliakalni
piliakalniai
piliakalnio
piliakalnis
piliakalniu
piliakalnyje
piliaviete
piliec
pilies
pilietine
pilietini
pilietiniai
pilietiniam
pilietiniame
pilietinio
pilietinis
pilietiniu
pilietis
pilietybe
piligrimu
piligrimyste
pilimi
pilio
pilis
piliu
pilka
pilkai
pilkalnio
pilkapiai
pilkapiu
pilkapynas
pilkas
pilkasis
pilki
pilkoji
pilkos
pilkosios
pilks
pilku
pilna
pilnai
pilnametraz
pilnas
pilni
pilno
pilnos
pilnu
pilotai
pilotas
piloto
pilotu
pilse
pilsudskio
pilti
pilties
pilvas
pilvelio
pilvelis
pilvis
pilvo
pilyje
pilypas
pilypo
pilys
pimas
pimo
pina
pinaceae
pinakoteka
pinasi
pindavo
pine
pingvinai
pinigai
pinigais
pinigine
piniginis
pinigu
pinigus
pinima
pinimas
pinimo
pink
pino
pinophyta
pinosi
pinsko
pinta
pintas
pinti
pintis
pintoje
pinus
pinyin
pionieriu
piontnicos
piotr
piotras
piotro
pipirai
piramide
piramidz
piratai
piratu
pirc
pire
pirke
pirkimo
pirkliai
pirkliu
pirklys
pirko
pirkti
pirma
pirmadieni
pirmaisiais
pirmajai
pirmajam
pirmajame
pirmame
pirmas
pirmasis
pirmauja
pirmaujanc
pirmavo
pirmenybe
pirmenybes
pirmenybiu
pirmi
pirmiau
pirmiausia
pirmiausiai
pirmieji
pirmiesiems
pirmine
pirmini
pirminiai
pirmininka
pirmininkai
pirmininkas
pirmininkavo
pirmininke
pirmininko
pirmininku
pirmininkui
pirminio
pirminis
pirminiu
pirmo
pirmoje
pirmoji
pirmojo
pirmojoje
pirmos
pirmose
pirmosiomis
pirmosios
pirmosiose
pirmtakai
pirmtakas
pirmtake
pirmtako
pirmtaku
pirmu
pirmuoju
pirmuosiuose
pirmuosius
pirmus
pirmyks
pirmyn
pirs
pirtis
pis
pistoletai
pistoletas
pistoleto
pistoletu
pistons
piteris
piu
pivas
pixar
pizos
pjeras
pjero
pjese
pjeses
pjesiu
pju
pk
pl
plac
place
plakatas
plan
plana
planai
planas
planavimas
planavimo
planavo
plane
planet
planeta
planetoje
planetos
planets
planetu
planko
plano
plans
plant
plantacijos
plantacijose
plants
planu
planuoja
planuojama
planuojamas
planuota
planuoti
planus
plas
plasku
plastiko
plastis
plata
plataus
plate
plateliu
platesne
platesni
platforma
platformoje
platformoms
platformos
platformu
plati
platina
platinama
platinamas
platinima
platinimo
platininis
platininiu
platino
platintas
platinti
platintojas
platonas
platono
platos
platu
platumos
platumose
platumu
platus
plauc
plaukai
plaukais
plauke
plaukeliais
plaukia
plaukikai
plaukikas
plaukimas
plaukimo
plaukioja
plaukiojanc
plaukioti
plauko
plaukti
plauku
plaukuoti
plaukus
plaus
play
playboy
player
players
playstation
plaza
plazmos
ple
please
plec
pleis
pleistoceno
pleks
plentai
plentas
plento
plentu
ples
plg
pliateris
pliateriu
plienas
plienine
plieno
plienosparnai
plika
pliki
plikiu
plinta
plisti
plite
plitima
plitimas
plitimo
plito
plius
plk
ploc
plocko
ploks
plona
plonas
ploni
plonos
plonu
plota
plotai
plotarea
plotas
plotdata
plote
ploti
plotis
ploto
plotu
plotuose
plotus
plovdiv
pls
plu
plunge
plunksna
plunksnis
plunksnomis
plunksnos
plunksnu
pluos
plus
pluta
plutos
plv
plymouth
plynauks
plys
plyte
plyti
plytine
plytos
plytu
pm
pmc
pmid
png
po
poaceae
pobu
poc
pociu
pocius
pocu
pod
podiumo
podlaskie
podole
poema
poemoje
poemos
poetai
poetas
poete
poetine
poeto
poetu
poetui
poezija
poezijoje
poezijos
pogente
pogon
pogrindine
pogrindz
pogrupio
pogrupis
poilsiaviete
poilsio
poilsis
poilsiui
point
poju
pokalbiai
pokalbio
pokalbis
pokalbiu
pokario
pokariu
pokaryje
poklasis
poks
pokyc
pokytis
pol
poland
polas
pole
polese
polesko
polgar
poli
poliarine
police
policija
policijai
policijos
policininkai
policininkas
policininku
policy
poligonas
poligrafijos
poliklinika
polineziec
polinezijoje
polinezijos
polinkis
polis
polish
politechnika
politechnikos
political
politics
politika
politikai
politikas
politike
politiko
politikoje
politikos
politiku
politine
politinei
politines
politini
politiniai
politiniais
politiniame
politinio
politinis
politiniu
politinius
politis
politologas
politologija
poliu
polius
polo
polocko
polonia
polsce
polska
polski
polskiego
polskiej
poltavos
polydor
pome
pomeranijos
pomis
pompe
ponai
ponas
ponia
poniatovskio
ponios
pono
pons
pontiac
ponto
ponu
pop
pope
popieriaus
popieriu
popierius
popiez
poplu
popmuzikos
popular
population
populiacija
populiacijai
populiacijos
populiaciju
populiare
populiari
populiaria
populiariausi
populiariausia
populiariausias
populiariausios
populiariausiu
populiarinimo
populiarino
populiarinti
populiariojoje
populiarios
populiariosios
populiariu
populiaru
populiaruma
populiarumas
populiarumo
populiarus
por
pora
porai
poras
porceliano
poreiki
poreikiai
poreikiams
poreikis
poreikiu
poreikius
porele
porine
poriniai
pornografijos
pornografiniu
poroje
poromis
poros
porsche
port
porta
portal
portalas
portale
portalo
porter
portis
porto
portr
portrait
portreta
portretai
portretas
portretu
portretus
portsmouth
portugal
portugalai
portugalija
portugalijoje
portugalijos
portugalis
portugalu
poru
pos
pose
poseidonas
position
poskyrio
post
posta
postas
poste
posto
postu
postus
posu
potenciala
potencialas
potencialiai
poterio
poteris
potockio
potockis
potosi
potter
potvarkiu
potvyniai
potvynio
potvynis
potvyniu
potvynius
pour
povandenine
povandeniniai
povandeninio
povandeninis
povandeniniu
poveiki
poveikio
poveikis
poveikiu
povilaitis
povilas
povilo
powell
power
powiat
poz
poza
pozicija
pozicijas
pozicijoje
pozicijos
pozicijose
poziciju
poznan
poznane
pp
pr
pra
prabangos
prabe
prac
pradai
prade
pradeda
pradedama
pradedamas
pradedanc
pradedant
prades
pradine
pradini
pradininkas
pradininke
pradininku
pradinio
pradinis
pradiniu
prado
pradz
prae
praeina
praeiti
praeities
praeitis
praeityje
praga
pragaro
pragyvenimo
praha
prahoje
prahos
praktika
praktikas
praktikoje
praktikos
praktiku
praktine
praktinio
praktiniu
praktis
pralaime
pralauz
praleide
praleido
praleidz
praleisdavo
praleisti
pralenke
pramintas
pramogine
pramogos
pramogu
pramone
pramonei
pramonine
pramonininkas
pramonininku
pramoninis
pramoniniu
pramus
pranas
pranc
prancis
prancu
pranes
prano
pranoko
praple
prarade
praradimas
praradimo
prarado
praranda
prarasta
prarastas
prarasti
pras
prasc
praside
prasideda
prasidedanc
prasidedant
prasidedantys
prasiverz
prasme
prasta
prastai
prastas
praste
prastesne
prasti
prastine
prasto
prastos
prastu
prat
prate
prateka
pratimai
praturte
pravarde
pravaz
pravdinsko
pravienis
praz
pre
prefektu
preke
prekes
prekiaujama
prekiauti
prekiavo
prekiu
prekyba
prekybai
prekybine
prekybiniai
prekybinis
prekybiniu
prekybinius
prekyboje
prekybos
prelatas
premier
premija
premijai
premijos
premiju
premjer
premjera
premjeras
premjero
premjeros
premjeru
preparatai
preparatu
pres
present
president
press
prestiz
preston
pretendavo
pretendentas
pretendento
pretendentu
pretenzijas
pretenziju
preussen
preussischen
prevencija
prevencijos
prezidenta
prezidentai
prezidentas
prezidente
prezidentine
prezidento
prezidentu
prezidentui
prezidentus
prezidiumas
prezidiumo
pri
priarte
price
pride
pridedama
pridedant
prie
prieangio
prieaugis
priebalsiai
priebalsio
priebalsis
priebalsiu
priebalsius
prieda
priedai
priedas
priede
priedu
priedus
priegaide
prieglauda
prieglobsc
prieglobsti
prieiga
prieigos
prieigose
prieina
prieinama
prieinamas
prieinami
priekais
priekalne
prieki
priekine
priekiniai
priekiniame
priekinio
priekinis
priekiniu
priekio
priekis
priekule
priekyje
prielaida
prielaidas
prielaidos
prielaidu
priemais
priemiesc
priemiestis
priemiestyje
priemone
priemones
priemoniu
prienai
prienu
prienuose
prieplauka
pries
priesaga
priesagos
priesaika
prieskoniai
prieskoniais
prieskoniu
priesme
priestatas
prietaisai
prietaisas
prietaisu
prievarta
prievartos
prieveiksmiai
prievole
prievoliu
priez
prigijo
prigimti
prigimties
prigimtine
prigimtis
priima
priimami
priimant
priimdavo
priimta
priimtas
priimti
priimtos
priimtu
prijunge
prijungiant
prijungimo
prijungta
prijungtas
prijungti
prijungtos
prijungus
priklausanc
priklausanti
priklausantis
priklausantys
priklause
priklausiusi
priklauso
priklausoma
priklausomai
priklausomas
priklausomybe
priklausyti
prima
prime
primeira
primena
primenanc
primenanti
primenantis
primera
primine
primore
princas
prince
princese
princeton
principa
principai
principais
principas
principo
principu
principus
princo
princu
prinsipe
print
pripaz
pripete
prireike
prireikus
priris
pris
priside
prisideda
prisie
prisieke
prisijunge
prisijungia
prisijungimo
prisijungti
prisike
prisimena
prisimine
prisiminimai
prisiminimu
prisiminti
prisipaz
prisiris
prisis
prisitaike
prisitaikyti
priskaic
priskiria
priskiriama
priskiriamas
priskiriami
priskiriamos
priskirta
priskirtas
priskirti
priskirtos
priskyre
pristate
pristato
pristatoma
pristatomas
pristatomi
pristatymas
pristatymo
pristatyta
pristatytas
pristatyti
pritaikant
pritaike
pritaikymas
pritaikymo
pritaikyta
pritaikytas
pritaikyti
pritaikytos
pritare
pritariamasis
pritariantis
pritarimo
pritrauke
pritraukia
pritraukti
pritru
pritvirtinta
pritvirtintas
privac
privale
privalo
privaloma
privalomas
privalumai
privataus
private
privati
privatiems
privatine
privatu
privatus
privaz
privede
priverc
priversta
priverstas
priversti
priverte
privilegija
privilegijas
privilegijos
privilegiju
prix
priz
priza
prizai
prizas
prize
prizininkai
prizininkas
prizininke
priziniu
prizme
prizo
prizu
prizus
pro
problema
problemas
problemomis
problemoms
problemos
problemu
proc
procedu
proceedings
procentai
procentas
procento
procentu
procesa
procesai
procesams
procesas
procese
procesija
proceso
procesoriaus
procesoriu
procesorius
procesu
procesui
procesuose
procesus
prodiusavo
prodiusere
prodiuseriai
prodiuserio
prodiuseris
prodiuseriu
production
productions
produkcija
produkcijos
produkta
produktai
produktais
produktas
produkto
produktu
produktus
prof
profesija
profesijos
profesiju
profesine
profesinio
profesiniu
profesionalaus
profesionali
profesionalia
profesionaliai
profesionaliu
profesionalo
profesionalu
profesionalus
profesore
profesoriai
profesoriaus
profesoriu
profesoriumi
profesorius
professor
profile
profilio
profilis
profsa
proga
progimnazija
progimnazijoje
progimnazijos
prognoze
progomis
program
programa
programai
programas
programavimas
programavimo
programe
programine
programoje
programoms
programos
programose
programu
progreso
progresyviojo
project
projekcija
projekta
projektai
projektams
projektas
projektavimas
projektavimo
projektavo
projekte
projekto
projektu
projektui
projektuose
projektuoti
projektus
prok
prokalbe
prokuratu
prokuroras
prokuroro
promete
promotion
propaganda
propagandos
propagavo
propaguotojas
property
proporcijos
proporcine
prorektorius
prospektas
prospekto
prostatos
prostitute
prota
protaka
protas
prote
protektoratas
protektoratu
protestai
protestantai
protestantis
protestantu
protestavo
protesto
protestu
protestus
proto
protokola
protokolai
protokolas
protokoliniu
protokolo
protonu
prototipas
prototipu
protru
protu
provanso
proverz
provincija
provincijai
provincijas
provincijoje
provincijomis
provincijos
provincijose
provinciju
proza
prozininkas
prozininke
prozos
pru
prunus
prys
ps
pseudonimu
pseudotsuga
psi
psichiatras
psichiatrijos
psichikos
psichine
psichoanalize
psichologai
psichologas
psichologija
psichologijos
psichologine
psichologinis
psichologiniu
psichoterapijos
pskovo
psl
psv
psychology
pt
pta
ptas
pti
ptoleme
ptuve
pu
public
publications
publicistai
publicistas
publicistika
publicistikos
publika
publikacijos
publikaciju
publikai
publikavo
publikos
publikuota
publikuotas
publikuoti
published
publishers
publishing
publius
pubmed
puc
puerto
pugac
puiki
puikia
puikiai
puikios
puikiu
puiku
puikus
puipa
puldine
pulka
pulkai
pulkas
pulke
pulkininkai
pulkininkas
pulkininko
pulko
pulku
pulkui
pulsas
pultas
pulti
puma
pumpe
pumpurai
puna
punios
punk
punkta
punktai
punktas
punktu
punktus
punskas
punsko
punta
puodininkyste
puodu
puodz
puoks
puola
puolanc
puole
puolima
puolimas
puolimo
puolimu
puolimui
puoliu
puolus
puos
puosele
puota
pupele
pupeliu
pupiniai
pupiniu
pure
purple
purpurine
purs
purve
purvinis
purvis
purvo
pus
pusamz
pusantro
pusbrolis
pusdykume
puse
pusei
puses
pusfinali
pusfinaliai
pusfinalio
pusfinalis
pusfinaliu
pusfinaliuose
pusfinalius
pusfinalyje
pusiasali
pusiasaliai
pusiasalio
pusiasalis
pusiasaliu
pusiasalyje
pusiau
pusiaujo
pusiaukele
pusiausvyra
pusiausvyros
pusiu
puslaidininkiu
puslapi
puslapiai
puslapio
puslapis
puslapiu
puslapyje
pusme
pusmeti
pusrutulio
pusrutulyje
pusryc
pussesere
pussycat
pustas
put
putinas
putino
putu
puz
pvz
px
pylimai
pylimas
pylimo
pylimu
pyne
pz
q
qu
quad
que
queen
queens
quercus
qui
quintus
r
ra
rabinas
rabinu
rac
race
rachel
racija
racijos
racing
rade
radiacijos
radija
radijas
radijo
radijui
radijuje
radikalu
radimas
radimo
radimu
radimviete
radiniai
radiniu
radinius
radio
radiocentro
radioterapija
radis
rado
radomo
radosi
radus
radvila
radvilaite
radvilis
radvilos
radvilu
radz
radzevic
radziwiłł
raf
rafael
rafaelio
rafaelis
ragai
ragaine
ragais
ragana
raganos
raganu
ragas
ragauskaite
ragauskas
rage
ragine
ragino
rago
ragu
ragus
raguva
raguve
raguvis
raguvos
rai
raibiniai
raida
raidai
raide
raider
raides
raidos
raidz
raigardo
raigeto
raikkonen
rail
railway
raimonda
raimondas
raimundas
rain
rainbow
rainele
rais
raitas
raiteliai
raitelis
raiteliu
raiz
raj
rajona
rajonai
rajonais
rajonams
rajonas
rajone
rajonine
rajoniniu
rajono
rajonu
rajonui
rajonuose
rajonus
rakauskas
raketa
raketas
rakete
raketine
raketomis
raketos
raketu
raks
rakta
raktai
raktas
rakto
raktu
ralaus
ralfas
rali
ralia
raliai
ralio
ralios
ralis
raliu
ralizmo
rally
ralph
ralu
ralus
ralyje
ram
rama
ramanauskas
rami
ramiai
ramiajame
ramiojo
ramo
ramonas
ramonis
ramos
ramove
ramu
ramuc
ramune
ramus
ramusis
ramute
ramutis
ramybe
ramygalos
ramzio
ramzis
ranc
randa
randama
randamas
randami
randamos
random
rang
ranga
rangai
rangas
range
rangers
rangle
rango
rangos
rangu
ranka
rankas
rankena
rankenos
rankiai
rankine
ranking
rankinio
rankinis
rankiniu
rankiojimu
rankis
rankiu
rankius
rankoje
rankomis
rankos
rankose
rankove
rankras
ranks
ranku
rao
rapid
rapolas
ras
rasa
rase
raseiniai
raseiniu
raseiniuose
raselas
rasine
rasiu
rasos
rasta
rastas
rastenis
rasti
rastos
rastu
rasu
rat
rata
ratai
ratais
ratams
ratas
rate
ratnyc
rato
ratu
ratui
ratuose
ratus
raude
raudona
raudonai
raudonais
raudonajai
raudoname
raudonas
raudonasis
raudondvario
raudondvaris
raudone
raudoni
raudonieji
raudono
raudonoji
raudonojo
raudonojoje
raudonomis
raudonos
raudonosios
raudonu
raudu
rauks
raulis
raumenine
raumenis
raumens
raumenu
raumenys
raumuo
raus
rausva
rausvai
rausvas
rausvi
rausvos
ray
raymond
raz
rb
rc
rca
rd
rdu
re
reabilitacijos
reaguoja
reaguoti
reakcija
reakcijas
reakcijos
reakciju
reaktoriaus
reaktorius
real
realaus
realiai
realine
realios
realistis
realiu
realizavo
realizmo
realizuoti
realu
realybe
rebelde
rec
recenzija
recenziju
receptoriu
record
records
red
reda
redagavimo
redagavo
redakcija
redakcijoje
redakcijos
redakcine
redaktore
redaktoriai
redaktoriaus
redaktoriu
redaktoriumi
redaktorius
redz
reed
reference
referenduma
referendumas
referendume
referendumo
referentas
reforma
reformacija
reformacijos
reformas
reformatorius
reformatu
reformos
reformu
reformuotos
reg
regbio
regbis
rege
regentas
regimantas
regimasis
regina
reginys
region
regiona
regionai
regionais
regional
regionas
regione
regionine
regionini
regioniniai
regioniniame
regioninio
regioninis
regioniniu
regiono
regionu
regionui
regionuose
regionus
regioset
regis
registra
registracija
registracijos
registras
registravo
registre
registro
registru
registruota
registruotas
registruoti
registruotos
registruotu
reglamentas
reglamentuoja
regos
regular
reguliaraus
reguliariai
reguliariajame
reguliariojo
reguliaru
reguliarusis
reguliavimas
reguliavimo
reguliuoja
reguliuojanc
reguliuoti
reic
reich
reichas
reicho
reiganas
reigano
reik
reikalai
reikalais
reikalams
reikalas
reikalauja
reikalaujama
reikalaujanc
reikalauti
reikalavima
reikalavimai
reikalavimas
reikalavimu
reikalavimus
reikalavo
reikalinga
reikalingas
reikalingi
reikalingos
reikalingu
reikalingus
reikalo
reikalu
reikalui
reikalus
reike
reikia
reikiama
reikme
reikmenu
reikmenys
reiks
reiktu
reinas
reindz
reino
reis
reitinga
reitingai
reitingas
reitinge
reitingo
reitingu
reitingus
reiviu
reivyste
rekas
reklama
reklamine
reklaminis
reklamos
reklamu
rekomendacijas
rekomendacijos
rekomendavo
rekomenduojama
rekonstrukcija
rekonstrukcijos
rekonstruota
rekonstruotas
rekonstruoti
rekorda
rekordai
rekordas
rekordininkas
rekordininke
rekordu
rekordus
rektoriai
rektoriaus
rektoriumi
rektorius
rekvizitai
relations
rele
release
reliai
reliatyvumo
religija
religijas
religijoje
religijos
religiju
religine
religines
religini
religiniai
religinio
religinis
religiniu
religinius
religion
relikvijos
relio
relis
reliu
reljefas
reljefo
remdamasi
remdamasis
remdamiesi
remember
remia
remiama
remiamas
remiamasi
remiami
remiantis
remiasi
remigijus
remiksas
remix
remontas
remonto
remontuoti
remti
remtis
renaissance
renata
renault
rene
renesansas
renesanso
rengdavo
renge
rengia
rengiama
rengiamas
rengiami
rengiamos
rengiant
rengima
rengimai
rengimas
rengimo
rengimu
rengini
renginiai
renginiams
renginio
renginiu
renginiuose
renginius
renginyje
renginys
rengta
rengtas
rengti
rengtos
renka
renkama
renkamas
renkami
renkamos
renkant
renkasi
renovuotas
rentgeno
reorganizuota
reorganizuotas
reperis
repertuara
repo
report
reportaz
represiju
reps
republic
reputacija
requiem
res
research
resident
resources
respublika
respublikai
respublikine
respublikinei
respublikinio
respublikinis
respublikiniu
respublikoje
respublikonu
respublikos
respubliku
restauracija
restauracijos
restauratore
restauratorius
restauravimo
restauruota
restauruotas
restauruoti
restitucijos
restoranai
restoranas
restorane
restoranu
results
resursai
resursu
resursus
reta
retai
retais
retas
reti
retkarc
retmis
retorika
retorikos
retos
retrieved
retrospektyvine
retu
return
reuters
revans
reverse
review
reviews
revised
revizijos
revoliucija
revoliucijai
revoliucijos
revoliucine
revoliucinis
revoliucionierius
revolution
rex
rey
reykjavik
rez
rezervata
rezervatai
rezervatas
rezervate
rezervato
rezervatu
rezervo
rezidavo
rezidencija
reziduoja
rezistencijos
rezistentai
rezistentas
rezoliucija
rezultata
rezultatai
rezultatais
rezultatas
rezultato
rezultatu
rezultatui
rezultatus
rezultatyviausi
rezultatyviausias
rezultatyviausiu
rezultatyvius
rf
rfc
rfs
rg
rgb
rgen
rho
ri
ria
riai
riais
riajam
riam
riaus
riazane
riba
ribas
ribentropo
ribes
riboja
ribojama
ribojamas
ribojasi
ribojimas
ribojosi
ribos
ribose
ribota
ribotas
riboti
riboto
ribotos
riboz
ribu
ric
rica
ricardo
ricciardo
rice
rich
richard
richardas
richards
rick
ride
rie
riebalai
riebalu
riede
rieduliai
riedulio
rieduliu
riedulys
rieji
ries
rietavo
rifai
rifas
rifo
riftu
rifu
riga
right
rightarrow
rights
rija
rijoje
rijos
rika
rikas
rikio
rikis
rikiu
rikiuote
riko
rikos
rima
rimai
rimantas
rimas
rime
rimgaudas
rimi
rimkevic
rimku
rimkus
rimo
rims
rimta
rimtai
rimtas
rimto
rimtu
rimu
rimui
rimus
rimvydas
rinc
rine
rinei
rines
ring
ringe
rini
riniai
riniais
riniam
riniame
riniams
rininkai
rininkas
rininku
rinio
rinis
riniu
riniuose
rinius
rinka
rinkai
rinkdavo
rinkdavosi
rinke
rinkevic
rinkima
rinkimai
rinkimas
rinkimine
rinkimo
rinkimu
rinkimuose
rinkimus
rinkini
rinkiniai
rinkinio
rinkiniu
rinkiniuose
rinkinius
rinkinyje
rinkinys
rinko
rinkodara
rinkodaros
rinkoje
rinkos
rinkose
rinkosi
rinkta
rinktas
rinkti
rinktine
rinktinei
rinktines
rinktiniai
rinktiniu
rinktis
rinktos
rinktu
rinku
rinkus
rint
rinyje
rinys
rio
riojo
rios
riot
ris
rise
risk
ristas
rita
rite
riteriai
riterio
riteris
riteriu
riterius
ritmas
ritmine
ritmo
ritualai
ritualas
ritualu
ritualus
ritulininkas
ritulio
ritulys
riu
riui
riuose
rius
river
rivera
rivers
rizika
rizikos
rizmo
rk
rkl
rn
rnr
ro
road
rob
robert
roberta
robertas
roberto
roberts
robertson
robin
robinson
robur
roc
rock
rockets
rod
roda
rodanc
rodantis
rode
rodikli
rodikliai
rodiklis
rodikliu
rodiklius
rodine
rodo
rodoma
rodomas
rodomi
rodomos
rodos
rodri
rodu
rodykle
rodymai
rodymas
rodymo
rodymu
rodymus
rodyta
rodytas
rodyti
rodz
roger
rogers
roguc
rojaus
roje
roju
rojus
rok
roka
rokantis
rokas
rokenrolo
rokiruote
rokis
roko
rokoko
roku
roland
rolandas
rolando
role
rolf
roll
rolling
rologai
rologas
rom
roma
romai
roman
romana
romanai
romanas
romance
romane
romania
romanistas
romano
romantine
romantis
romantizmo
romanu
romanus
romas
rome
romeo
romerio
romis
romo
romoje
romos
roms
romu
romualdas
romuva
romuvos
ron
ronald
ronaldas
ronaldo
rondo
ronos
room
roots
rope
ropliu
ros
rosa
rosas
rosbergas
rose
rosenborg
roses
roso
ross
rossi
rosso
rostovo
rotary
rotmistras
rotten
rotus
round
roundel
routledge
rovai
rovams
rovers
rovo
rovu
rovus
row
rowland
roy
royal
roz
rozalimo
rozentalis
rozete
rp
rpg
rpm
rs
rsc
rsssf
rt
rterbuch
rtfsr
rts
ru
ruanda
ruandos
rubensas
rubez
rubin
rubins
rubliu
rubus
ruc
ruch
ruda
rudai
rudamina
rudaminos
rudar
rudas
rudasis
rude
rudeni
rudens
rudi
rudieji
rudis
rudnia
rudnios
rudoji
rudolf
rudolfas
rudomis
rudos
rudu
ruduo
rudz
rugiu
rugpju
rugse
rui
rukainiu
ruks
rule
rules
rums
rumunija
rumunijoje
rumunijos
rumunu
run
rungc
rungties
rungtis
rungtyje
rungtyne
rungtynes
rungtyniauja
rungtyniaujantis
rungtyniauti
rungtyniave
rungtyniavo
rungtyniu
rungtys
rungtyse
ruoniai
ruoniu
ruos
ruoz
rupu
rus
rusai
rusams
ruse
rush
rusi
rusia
rusiai
rusija
rusijai
rusijoje
rusijos
rusioje
rusios
rusis
rusiu
rusne
ruso
russell
russia
russian
russula
rusu
rusva
rusvai
rusvas
rusvi
rusvos
ruta
rutai
rutais
rutas
ruth
ruto
rutu
rutulio
rutulis
ruz
ruzveltas
ruzvelto
rvalsdeild
ry
ryan
ryba
rybai
rybine
rybini
rybinio
rybinis
rybiniu
rybis
rybiu
ryboje
rybos
ryc
ryga
rygoje
rygos
ryje
rykle
rykliai
rykliu
ryks
rylis
rys
ryta
rytai
rytas
ryte
ryti
rytietis
rytine
rytines
rytini
rytiniai
rytiniame
rytinio
rytinis
rytiniu
rytis
ryto
rytoj
rytojaus
rytpru
rytu
rytuose
rytus
ryz
rz
rzeczypospolitej
s
sa
saab
sabaliauskas
sabalis
sabolius
sabonis
sachalino
sachara
sacharos
sacred
sad
sadu
saga
sage
sagos
sahelio
sai
said
saint
saints
saja
sajas
sajos
saju
saka
sakai
sakalai
sakalas
sakalauskas
sakalis
sakalu
sakant
sakas
sakau
sake
sakinio
sakiniu
sakinyje
sakinys
sakme
sako
sakoma
sakraline
saksofonas
saksonija
saksonijoje
saksonijos
saksu
saku
sakydamas
sakydavo
sakykla
sakyma
sakymai
sakymas
sakymo
sakymu
sakymus
sakyta
sakyti
sala
salako
salantai
salanto
salantu
salas
saldus
saldutis
saldz
sale
salele
saleliu
sales
saleziec
saliamono
saliu
salix
saloc
saloje
salome
salomis
salonas
salone
saloniku
salono
salos
salose
salu
salvador
salvadoras
salvadoro
salvatore
salyna
salynas
salyne
salyno
salzburg
sam
samanos
samanu
samaros
sambu
samdiniai
samdiniu
same
sami
samiai
samiu
sammlung
samoa
sampdoria
samprata
samsung
samu
samuel
samuelis
samuraju
samus
san
sanatorija
sanatorijos
sanc
sand
sandara
sandaros
sandauga
sande
sandomiro
sandorio
sandoris
sandoriu
sandra
sandraugos
sandro
sandu
sandz
sangra
sangru
sangus
sanitarijos
sankirta
sankirtos
sankryz
sankt
sanskrito
sant
santa
santaka
santakoje
santakos
santaris
santarve
santiago
santjago
santo
santos
santrauka
santrumpa
santu
santuoka
santuokoje
santuokos
santuoku
santvarka
santvarkos
santyki
santykiai
santykiais
santykiams
santykinai
santykine
santykinis
santykio
santykis
santykiu
santykiuose
santykius
sapiega
sapiegaite
sapiegos
sapiegu
sapnai
sapnas
sapnu
sar
sara
sarace
sarah
sarajevo
saratovo
sardinijos
sargas
sargu
sargyba
sargybiniai
sargybinis
sargybos
sartras
sartu
sas
sasanidu
saskac
sasnavos
satku
saturday
saturn
saturno
satyros
sau
sauber
saudo
sauga
saugant
saugas
sauge
saugiai
saugo
saugojima
saugojimas
saugojimo
saugojimui
saugojo
saugoma
saugomas
saugomi
saugomos
saugomu
saugos
saugota
saugotas
saugoti
saugotinas
saugu
sauguma
saugumas
saugumo
saugumui
saugykla
saugyklos
saule
saulei
sauliaus
saulius
saulute
sausa
sausas
sausasis
sausgysle
sausi
sausio
sausis
sausos
sausose
sausros
sausu
sausuma
sausumoje
sausumos
sav
sava
savaeige
savaic
savaime
savaimine
savaite
savaites
savaitgali
savaitinis
savaitras
savanoriai
savanorio
savanoris
savanoriu
savanos
savanu
savarankis
savas
save
savic
savickas
savigynos
savimi
savimone
savininkai
savininkais
savininkams
savininkas
savininke
savininko
savininku
savininkui
savis
savita
savitarpio
savitas
savivalda
savivaldos
savivaldybe
savivaldybei
savivaldybes
savivaldybininkas
savivaldybiu
saviz
savo
savojos
savos
savotis
savu
savus
savybe
savybes
savybiu
savyje
say
says
sb
sc
scalemajor
scarecrow
scena
scenarijaus
scenariju
scenarijus
scenaristas
scenas
sceniniu
scenografas
scenografe
scenoje
scenos
scenose
scenu
schalke
schema
schemos
scherzinger
schmid
schmidt
schneider
scho
school
schumacher
sci
science
sciences
scientific
scott
scottish
scrolls
scuderia
sd
sdamas
sdami
sdavo
se
sea
sean
search
season
seb
sebastian
sebastianas
sebastiano
sec
second
secret
section
security
seda
sedanas
sedlcu
sedos
see
sega
sege
segmentu
segunda
sei
seiliu
seima
seimas
seime
seimo
seimu
seimui
seinu
seiriju
seis
sek
seka
sekanc
sekanti
sekantis
sekcija
sekcijos
seke
sekimo
sekmadieni
sekmadieniais
sekmadienio
sekmadienis
sekos
sekretore
sekretoriai
sekretoriaus
sekretoriumi
sekretorius
seksas
sekso
seksualine
sekta
sekti
sektoriaus
sektoriu
sektoriuje
sektorius
sektos
seku
sekunde
sekundes
sekundz
sel
selbstverlag
seldz
seleukidu
self
semas
sembos
semelis
semiatic
seminarija
seminarijoje
seminarijos
seminarus
semionas
semitu
sen
sena
senai
senajame
senamiesc
senamiestis
senamiestyje
senas
senasis
senata
senatas
senate
senato
senatoriai
senatoriu
senatorius
senatve
sene
senegalas
senegalo
senele
senelio
senelis
seneliu
senesne
senesni
senesnis
senesniu
seni
seniai
seniau
seniausi
seniausia
seniausias
seniausios
seniausiu
senieji
senienu
senis
seniu
senjoru
senkapis
senna
seno
senoje
senoji
senojo
senojoje
senos
senose
senosios
senosiose
senove
senovine
senoviniai
senovinio
senovinis
senoviniu
senovis
sent
sentikiai
sentikiu
senu
senumo
senuoju
senuosius
senus
senvage
september
septinta
septintajame
septintame
septintas
septintasis
septintoji
septintojo
septyneriu
septynerius
septyni
septynias
septynios
septynis
septyniu
septynmete
ser
sera
seras
seravale
serbai
serbentu
serbija
serbijai
serbijoje
serbijos
serbu
seredz
serena
serga
serganc
sergant
sergantiems
serge
sergejaus
sergejus
sergio
seriala
serialai
serialas
seriale
serialo
serialu
serialuose
serie
series
serija
serijas
serijine
serijinis
serijiniu
serijoje
serijomis
serijos
serijose
seriju
sero
sertifikatas
serverio
serveris
serveriu
servette
service
services
serz
ses
sese
seseri
seserimi
seseris
sesers
seseru
seserys
sesija
sesijoje
sesijos
sesuo
set
seule
seulo
seven
severas
sevilijos
sevilla
sex
sezona
sezonai
sezonas
sezone
sezoninis
sezono
sezonu
sezonui
sezonuose
sezonus
sfera
sferoje
sferos
sfl
sg
sgd
sh
shadow
shadows
shakespeare
shamrock
shanghai
sharon
sharp
shaw
she
sheffield
shelbourne
shell
sheriff
sheryl
shi
shield
shift
ship
shkoder
sho
shop
shorea
short
should
show
showdoc
shttp
si
sia
siai
siais
siamas
siamo
sianc
siant
sianti
siantis
sias
siasi
siaube
siaubo
siauliai
siaura
siauras
siaurasis
siaure
siauresne
siauri
siauriai
siaurio
siauris
siauriu
siaurojo
siauros
siauru
siauryje
siaute
sibaigia
sibarste
sibe
sibira
sibiras
sibire
sibiro
sic
sicilija
sicilijoje
sicilijos
sicilis
sid
sidabra
sidabras
sidabravo
sidabrine
sidabriniai
sidabrinis
sidabriniu
sidabris
sidabro
sidarbino
sidare
side
sidne
sidros
sie
sieja
siejama
siejamas
siejami
siejamos
siejasi
siejo
siekdama
siekdamas
siekdami
sieke
sieki
siekia
siekiama
siekianc
siekiant
siekianti
siekiantis
siekis
siekiu
sieks
siekta
siekti
siela
sielos
sielu
siemens
siena
sienas
sienele
sieneliu
sieni
sieniec
sienio
sienoje
sienomis
sienos
sienose
sienu
sienyje
siera
sieros
sierra
siesarties
siesiku
sieti
sigale
sigaliojo
sigande
sigelbe
sigije
sigijo
sigita
sigitas
sigma
sign
signala
signalai
signalas
signalo
signalu
signalus
signatarai
signataras
signs
sigute
sigyta
sigyti
siima
siimanc
siimine
siimti
sija
sijai
sijoje
sijos
siju
sijunge
sike
sikis
sikovojo
sikre
siksto
siku
sikuria
sikurti
silaike
silaiko
silaikyti
silaipino
silauz
silavinima
silavinimas
silavinimo
silence
silent
silezija
silezijos
silicio
silieja
siliejo
silikatu
silpna
silpnai
silpnas
silpne
silpnesne
silpni
silpnos
silpnu
silva
silver
silvestras
silvestris
silvija
sim
sima
simas
simasis
simboli
simboliai
simboliais
simbolika
simboline
simbolio
simbolis
simboliu
simbolius
simbolizavo
simbolizuoja
sime
simetrija
simetrijos
simetris
simfonija
simfonijos
simfonine
simfoniniam
simfoninio
simfoninis
simfoniniu
simine
simno
simo
simojo
simon
simona
simonaityte
simonas
simone
simono
simos
simple
simpson
simptomai
simptomu
simptomus
sims
simu
simyle
simyli
sin
sinagoga
sinagogos
sinajaus
sinatra
since
sinclair
sindarin
sindikatas
sindromas
sindziango
sine
sing
singapu
singer
singla
singlai
singlas
single
singles
singlo
singlu
singlus
sini
siniai
sinimo
siniu
sinkevic
sino
sinodo
sinonimai
sinonimas
sint
sintakse
sintautu
sintezatorius
sinteze
sinys
sio
sion
sionistu
sios
sipareigojimu
sipareigojimus
sipareigojo
siple
sir
siraku
siras
sire
sirenge
sirgaliu
sirgo
sirija
sirijoje
sirijos
sirita
siru
sirutis
sis
siskiria
siskyre
sistema
sistemai
sistemas
sistematika
sistemine
sistemingai
sistemoje
sistemomis
sistemoms
sistemos
sistemose
sistemu
site
siterpe
siterpia
siterpusi
sites
sitikine
sitikinimu
sitikrino
sitikrinti
sitrauke
situacija
situacijai
situacijoje
situacijos
situacijose
situaciju
sitvirtine
sitvirtino
sitvirtinti
siu
siudad
siunc
siunte
siuose
sius
siuve
siuvimo
siuvine
siuz
sivadavimo
sive
siverz
sivez
sivyravo
sivysc
sivyste
sivysto
sivystymo
six
siz
size
sj
sk
ska
skaic
skaido
skaidrus
skaidulos
skaidulu
skaisc
skaistgirio
skaita
skaitant
skaite
skaitmenine
skaitmeninis
skaitmeniniu
skaitmenys
skaito
skaitoje
skaitoma
skaitomas
skaitomi
skaitos
skaitu
skaitvardz
skaitykite
skaitykla
skaitymas
skaitymo
skaityti
skaitytoju
skalauja
skale
skalu
skamba
skambe
skambesi
skambesio
skambinti
skambuc
skandalas
skandalo
skandinavijoje
skandinavijos
skandinavu
skapis
skarda
skardos
skardz
skatina
skatinamas
skatinimo
skatino
skatinti
skaudvile
skaudz
skausma
skausmai
skausmas
skausmo
skausmu
skautai
skautu
ske
skelbe
skelbia
skelbiama
skelbiamas
skelbiami
skelbta
skelbti
skeletas
skeptis
skersai
skersine
skersinis
skersiniu
skersmens
skersmuo
skerspju
skg
ski
skiaute
skiautere
skich
skie
skiego
skiej
skiemens
skiemenu
skiemenyje
skiemoniu
skiemuo
skilimas
skilimo
skilo
skirdavo
skiria
skiriama
skiriamas
skiriamasis
skiriami
skiriamieji
skiriamos
skiriamu
skiriamuosius
skirianc
skiriant
skirianti
skiriantis
skiriasi
skirmantas
skirsnemune
skirstoma
skirstomas
skirstomi
skirstomos
skirstymas
skirstymo
skirstytas
skirstyti
skirta
skirtame
skirtas
skirti
skirtinai
skirtine
skirtinga
skirtingai
skirtingais
skirtingas
skirtingi
skirtingo
skirtingomis
skirtingoms
skirtingos
skirtingose
skirtingu
skirtinguose
skirtingus
skirtini
skirtinio
skirtinis
skirtiniu
skirtis
skirto
skirtoje
skirtos
skirtu
skirtuma
skirtumai
skirtumas
skirtumo
skirtumu
skirtumus
skirtus
skitu
sklaida
sklaidos
sklandymo
sklandytuvas
sklandytuvu
skle
skleide
skleidz
skleisti
skleistu
skliausteliuose
skliaustuose
skliautai
sklinda
sklypa
sklypas
sklype
sklypo
sklypu
skola
skolas
skolinamas
skoliniai
skoliniu
skolos
skolu
skoni
skonio
skonis
skoniu
skonto
skopje
skotas
skoto
skr
skraidanc
skraide
skraido
skraidymo
skraidyti
skraiste
skrandz
skrenda
skrendant
skriaudz
skrido
skrieja
skriejanti
skristi
skruzde
skrybe
skrydi
skrydis
skrydz
skrynia
sku
skube
skubiai
skuc
skudutis
skulpt
skulptore
skulptoriai
skulptoriaus
skulptoriu
skulptorius
skulptu
skunda
skunde
skundo
skundz
skuodas
skuodo
skurdo
skurdz
skveras
sky
skyda
skydas
skyde
skydliauke
skydo
skydu
skyla
skyle
skynimai
skyre
skyriai
skyriaus
skyrimas
skyrimo
skyriu
skyriui
skyriuje
skyriumi
skyriuose
skyrius
skyrus
skyrybos
skyrybu
skysc
skysti
skystis
sl
slabada
slabados
slalomo
slanimo
slanksteliu
slap
slapc
slapste
slapta
slaptai
slaptas
slaptos
slaptosios
slaptu
slapyvardis
slapyvardz
slaugos
slavai
slave
slavia
slaviku
slavis
slavsko
slavu
sle
sleep
slenka
slenksc
slenkste
slepia
slepiasi
slez
slide
slidine
sliema
sliu
sliz
sloga
slopina
slovakija
slovakijoje
slovakijos
slovaku
slovan
slove
slu
slucko
sluoksni
sluoksniai
sluoksnio
sluoksnis
sluoksniu
sluoksniuose
sluoksnius
sluoksnyje
slus
slypi
slyvu
sm
smaile
smalininku
small
smalvu
smarkiai
smauka
sme
smegene
smegenis
smegenu
smegenys
smegenyse
smelte
smetona
smetonos
smile
smilgevic
smilgiai
smilgiu
smiltainio
smiltyne
smitas
smith
smithsonian
smiu
smm
smolensko
sms
smu
smuglevic
smuikas
smuikininkas
smuiko
smuiku
smuikui
smukle
smuko
smulkaus
smulkesne
smulkesniu
smulkiai
smulkiais
smulkios
smulkiu
smulkius
smulku
smulkus
smurta
smurto
smyrnis
smyslovas
snaiperiai
snake
snapas
snapo
snapu
sni
sniai
sniec
sniegas
snieglenc
sniego
sniegu
snieguole
snio
snis
sniu
snius
snoop
snow
so
sobieskio
soboras
soc
soccer
soccerway
social
socialdemokratai
socialdemokratu
socialiai
socialine
socialines
socialini
socialiniai
socialiniame
socialinio
socialinis
socialiniu
socialiniuose
socialinius
socialistine
socialistinio
socialistiniu
socialistu
socializmas
socializmo
socie
sociedad
society
sociologas
sociologija
sociologijos
soda
sodai
sodas
sode
sodelis
sodininkyste
sodo
sodu
soduose
sodus
sodyba
sodyboje
sodybos
sodybose
sodybu
sodz
sofascore
sofia
sofija
sofijos
software
sojos
soju
sokolu
sokoluvo
sokulkos
sol
solaris
solid
solidarumo
soline
solini
solinio
solinis
solistai
solistas
soliste
solo
solutions
somalio
some
something
son
sonata
sonderband
song
songaila
songs
sonny
sons
sony
sophia
sophie
sopranas
sopwith
sorbu
soros
sos
sosta
sostas
soste
sostine
sostiniu
sosto
soul
sound
source
south
southern
soviet
sovietai
sovietams
sovietine
sovietinei
sovietiniais
sovietiniam
sovietinio
sovietinis
sovietiniu
sovietmec
sovietu
sp
spa
space
spain
spali
spalio
spalis
spalva
spalvas
spalvine
spalvomis
spalvos
spalvotas
spalvotu
spalvu
spanish
sparc
sparna
sparnai
sparnais
sparnas
sparne
sparno
sparnu
sparnus
sparta
spartak
spartakas
spartako
spartans
spartos
spaskis
spauda
spaudai
spaude
spaudima
spaudimas
spaudimo
spaudiniu
spaudoje
spaudos
spaudz
spausdinami
spausdinimo
spausdino
spausdinta
spausdintas
spausdinti
spausdintos
spausti
spaustuve
spaustuvininkas
spd
spe
spears
spec
special
specialaus
speciali
specialia
specialiai
specialiais
specialias
specialieji
specialioji
specialiojo
specialios
specialiosios
specialistai
specialistas
specialiste
specialistu
specialistus
specialiu
specialius
specializacija
specializavosi
specializuojasi
specializuota
specializuotas
specializuoti
specializuotos
specializuotu
specialu
specialus
specialusis
specialybe
species
specifine
specifinis
specifiniu
spectrum
speed
spektakli
spektakliai
spektaklio
spektaklis
spektakliu
spektakliuose
spektaklius
spektaklyje
spektra
spektras
spektrine
spektro
spencer
sphagnum
spice
spider
spiec
spinduliai
spinduliais
spinduliavimas
spinduliavimo
spindulio
spinduliu
spinduliuote
spindulius
spindulys
spirale
spiraline
spirit
spirito
split
spontanis
spora
sporos
sport
sporta
sportas
sporte
sportine
sporting
sportiniai
sportininkai
sportininkams
sportininkas
sportininke
sportininko
sportininku
sportinio
sportinis
sportiniu
sporto
sports
sportu
sportui
sportuoti
spre
sprende
sprendima
sprendimai
sprendimas
sprendimo
sprendimu
sprendimui
sprendimus
sprendiniu
sprendinys
sprendz
spring
springer
sprintas
sprinto
sprogimas
sprogimo
sprogmenu
sprogstamosios
spru
spu
spygliai
spygliuoc
spyna
spynos
spyruokle
sqrt
square
sr
sraige
sraigtasparniai
sraigtasparnis
sraigtasparniu
srauta
srautai
srautas
srauto
srautu
sric
sriti
srities
sritimi
sritimis
sritis
srityje
sritys
srityse
sriuba
sriubos
srove
sroviu
sroviui
srsssf
sruoga
sruties
ss
ssc
sskp
ssr
ssrs
st
sta
staats
stabdo
stabdz
stabili
stabilizatorius
stabiluma
stabilumo
stac
stade
stadija
stadijoje
stadijos
stadion
stadiona
stadionai
stadionas
stadione
stadiono
stadionu
stadium
stadt
stage
stai
staiga
staigas
staigiai
staigoje
staigoms
staigos
staigose
staigu
staigus
stais
stakle
staklis
stakliu
stal
stala
stalas
stalinas
stalininkas
stalino
stalo
stalupe
stama
stamas
stambaus
stambesne
stambesni
stambi
stambiausi
stambiausia
stambiausias
stambiausiu
stambios
stambiu
stambu
stambulas
stambule
stambulo
stambus
stami
stamos
stamu
stan
stanc
stand
standard
standarta
standartai
standartas
standartine
standartinio
standartinis
standartiniu
standartizacijos
standarto
standartu
standartus
standz
stanevic
stanford
stanis
stanislava
stanislavas
stanislavo
stanislova
stanislovas
stanislovo
stanisław
stankevic
stanku
stankus
stanley
stant
stantys
star
stara
starcraft
stare
stari
stars
start
starta
startas
startavo
startine
starto
startuoti
stas
stase
stasio
stasiu
stasys
stat
statai
statant
state
states
statine
statini
statiniai
statinio
statiniu
statinius
statinys
station
statis
statistics
statistika
statistikas
statistikos
statistine
statistiniai
statistisch
statistisches
statmenai
stato
statoma
statomas
statomi
statomos
statu
statula
statule
statulos
statumo
status
statusa
statusas
statuso
statuta
statutas
statuto
statyba
statybai
statybas
statybine
statybininkai
statybininkas
statybininku
statybiniu
statyboje
statyboms
statybos
statybose
statybu
statyma
statymai
statymais
statymas
statyme
statymo
statymu
statymus
statyta
statytas
statyti
statytojas
statytos
stavanger
stavropolio
stay
staz
ste
stebe
stebi
stebima
stebimas
stebimi
stebint
stebuklas
stebuklinga
stebuklu
steel
stefan
stefanas
stefanija
stefano
steige
steigiama
steigiamasis
steigiamojo
steigiant
steigimas
steigimo
steigta
steigtam
steigtas
steigti
steigto
steigtos
steigus
steiner
stela
stele
steles
steliu
stelmuz
stemple
stendas
stenge
stengiamasi
stengiasi
stenlis
step
stepas
stepe
stephen
stepiu
steponas
steponavic
steponis
stepono
sterlingu
steve
steven
stewart
sti
stiebai
stiebas
stiebo
stiebu
stiklas
stikline
stiklo
stiliai
stiliaus
stilistika
stilistikos
stiliu
stiliui
stiliumi
stilius
still
stine
stininka
stininkai
stininkas
stininko
stininku
stininkus
stinis
stipendija
stipendijos
stipraus
stipre
stipresne
stipresnis
stipri
stipria
stipriai
stipriau
stipriausi
stipriausia
stipriausias
stipriausios
stipriausiu
stiprina
stiprinimo
stiprino
stiprinti
stiprios
stipriu
stiprius
stipru
stipruma
stiprumas
stiprumo
stiprus
stiprybe
stirnos
stis
stm
sto
stoc
stockholm
stoga
stogai
stogas
stogastulpis
stogeliu
stogo
stogu
stoja
stoje
stojimo
stojo
stoka
stoke
stokholmas
stokholme
stokholmo
stokos
stoma
stomi
stone
stones
stonis
stop
stora
storas
store
stori
storia
stories
storio
storis
storm
storos
storu
story
stos
stotele
stoti
stoties
stotimi
stotis
stotyje
stotys
stotyse
stove
stovi
stovinc
stovinti
stovintis
stovykla
stovyklas
stovyklaviete
stovykloje
stovyklos
stovyklose
stovyklu
str
straight
straipsni
straipsniai
straipsnio
straipsnis
straipsniu
straipsniuose
straipsnius
straipsnyje
strasbourg
strasbu
strategija
strategijos
strategine
strateginis
strateginiu
strategis
strazdai
strazdas
stre
streep
street
streikas
strike
striz
strong
stru
struc
structure
struktu
strutter
stu
stuart
stuburiniu
stuburo
stuc
studentai
studentams
studentas
studente
studento
studentu
studentus
studies
studija
studijas
studijavo
studijini
studijiniai
studijinio
studijinis
studijinius
studijoje
studijoms
studijos
studijose
studiju
studijuodamas
studijuoja
studijuoti
studio
studios
study
stulginskio
stulpai
stulpais
stulpas
stulpu
stumbras
stumbro
stumia
stumti
sturm
stus
stutis
stuttgart
stwa
styga
styginiu
stygos
stygu
style
styma
stymas
stymo
stymu
styta
styti
stytoja
stytojai
stytojas
stytojo
stytoju
stytos
su
suaktyve
suarchyvuota
suarte
suauge
suaugusiems
suaugusiu
sub
subac
subjektai
subjektas
subjekto
subjektu
subkultu
subprefektu
subre
subrende
subsp
substrato
subtropinis
subu
suburta
suburti
subyre
suc
succession
such
suchovolos
sud
sudalyvavo
sudanas
sudane
sudano
sudaranc
sudarant
sudaranti
sudarantis
sudarantys
sudare
sudargo
sudarine
sudarius
sudaro
sudaroma
sudaromas
sudaromi
sudaromos
sudarydavo
sudarymas
sudarymo
sudarys
sudaryta
sudarytame
sudarytas
sudaryti
sudarytoja
sudarytojas
sudarytos
sudarytu
sudauz
sude
sudedamoji
sudege
sudegino
sudeginta
sudegintas
sudeginti
sudeikiu
suderinti
suderve
suduva
suduz
sudz
sue
sueco
suformavo
suformulavo
suformuoja
suformuota
suformuotas
suformuoti
suformuotos
sugababes
sugalvojo
sugar
sugeba
sugebe
sugeria
suginc
sugra
sugri
sugriauta
sugriautas
sugriauti
sugriove
sugriuvo
sui
suimta
suimtas
suimti
suintensyve
suirute
suite
sujunge
sujungia
sujungta
sujungtas
sujungti
sujungtos
sujungtu
sujungus
suka
sukasi
sukaupe
sukaupta
sukc
suke
sukelia
sukelianc
sukelta
sukeltas
sukelti
sukeltu
sukile
sukilima
sukilimai
sukilimas
sukilime
sukilimo
sukilimu
sukilimui
sukilimus
sukilo
sukimo
sukimosi
sukleste
suknele
suko
sukonstravo
sukonstruotas
sukonstruoti
sukrauti
sukre
sukryz
sukti
suktis
suku
sukultu
sukuria
sukuriama
sukuriamas
sukuriant
sukurta
sukurtas
sukurti
sukurto
sukurtos
sukurtu
sukurtus
sula
sulaike
sulaiko
sulaikytas
sulaikyti
sulauke
sulaukia
sulaukti
sulaukus
sulaukusi
sulauz
sulc
sule
sullivan
sulos
sultis
sultonas
sultonatas
sultonato
sultono
sultonu
sultys
sum
suma
sumais
sumane
sumanymas
sumatros
sumaz
sumede
sumedz
sumenko
sumetimais
sumis
summary
summer
sumoke
sumontuota
sumontuotas
sumontuoti
sumos
sumu
sumus
sun
sunaikina
sunaikinimo
sunaikino
sunaikinta
sunaikintas
sunaikinti
sunaikintos
sunday
sunderland
sundos
sunitai
sunitu
sunkaus
sunki
sunkia
sunkiai
sunkiau
sunkieji
sunkioji
sunkiojo
sunkios
sunkiosios
sunkiu
sunku
sunkumais
sunkumo
sunkumu
sunkus
sunkusis
sunkvez
sunyko
suoc
suomija
suomijai
suomijoje
suomijos
suomis
suomiu
suorganizavo
supa
supanc
supaz
super
superliga
superlyga
superlygoje
supertaure
supiltas
suplanuota
supo
supranta
suprantama
suprantamas
supraslio
supraste
suprasti
suprate
supratima
supratimas
supratimo
suprato
suprojektavo
suprojektuota
suprojektuotas
suprojektuoti
sur
surado
suranda
suras
surasti
suraz
surdegio
sure
sureguliuota
suremontavo
suremontuota
surenge
surengta
surengtame
surengtas
surengti
surengtos
surenka
surinamo
surinke
surinkimo
surinko
surinkta
surinktas
surinkti
surinktos
surinktu
surinktus
surinkus
surinkusi
surinkusios
suris
survey
survila
survilis
sus
susan
suse
susi
susiaure
susibu
susidaranc
susidare
susidariusi
susidariusios
susidaro
susidaryma
susidarymas
susidarymo
susidaryti
suside
susideda
susidedanti
susidedantis
susidome
susidoroti
susidraugavo
susidu
susiduria
susieta
susietas
susieti
susiformave
susiformavo
susiformavusi
susiformuoja
susigra
susije
susijunge
susijungia
susijungimo
susijungti
susijungus
susijusi
susijusia
susijusias
susijusios
susijusiu
susijusius
susiklosc
susikloste
susiku
susikurti
susilauke
susilaukia
susilieja
susiliejo
susiliejus
susilpne
susimais
susipaz
susiras
susire
susirenka
susirgo
susirgti
susirinke
susirinkima
susirinkimai
susirinkimas
susirinkime
susirinkimo
susirinkimu
susirinko
susiru
susis
susisiekia
susisiekimas
susisiekimo
susitare
susitarima
susitarimai
susitarimas
susitarimo
susitarimu
susitarta
susitarti
susitelke
susitike
susitikima
susitikimai
susitikimas
susitikime
susitikimo
susitikimu
susitikimuose
susitikimus
susitikine
susitiko
susitikti
susitinka
susitraukimo
susituoke
susivienijimas
susivienijimo
susivienijo
susiz
suskaic
suskilo
suskirstymas
suskirstymo
suskirstyta
suskirstytas
suskirstyti
suskirstytos
susprogdino
sustabde
sustabdyta
sustabdytas
sustabdyti
sustipre
sustiprina
sustiprino
sustiprinta
sustiprintas
sustiprinti
sustoja
sustojimo
sustojo
sustore
sustoti
sutampa
sutapo
sutarc
sutare
sutaria
sutarta
sutarti
sutarties
sutartimi
sutartine
sutartis
sutarto
sutartyje
sutartys
suteikdavo
suteike
suteikia
suteikiama
suteikiamas
suteikiamos
suteikianc
suteikiant
suteikimo
suteikta
suteiktas
suteikti
suteiktos
suteiktu
suteka
sutelke
sutelkti
sutikima
sutikimo
sutiko
sutiktas
sutikti
sutinka
sutinkama
sutinkamas
sutinkami
sutinkamos
sutrikima
sutrikimai
sutrikimas
sutrikimo
sutrikimu
sutrikimus
sutrinka
sutrius
sutrukde
sutrukdyti
sutrumpe
sutrumpinta
sutrumpintai
sutrumpintas
sutuoktine
sutuoktinis
sutvarke
sutvarkyta
sutvarkyti
sutve
sutvirtinti
suvaidino
suvainis
suvaldyti
suvalkijos
suvalku
suvarz
suvaz
suvereniteto
suvestine
suvieko
suvienijimo
suvienijo
suvienyti
suvoke
suvokia
suvokiama
suvokiamas
suvokima
suvokimas
suvokimo
suvokti
suz
suzuki
sv
sva
svahiliu
svajone
svajoniu
svaras
svarba
svarbaus
svarbesne
svarbesni
svarbesniu
svarbi
svarbia
svarbias
svarbiausi
svarbiausia
svarbiausiais
svarbiausias
svarbiausios
svarbiausiu
svarbiausius
svarbios
svarbiu
svarbius
svarbos
svarbu
svarbus
svarste
svarsto
svarstoma
svarstykle
svarstyti
svaru
sve
svec
sveika
sveikas
sveikata
sveikatai
sveikatingumo
sveikatos
sveiki
sveiku
sverdlovsko
sveria
svetaine
svetainiu
svetima
svetimas
svetimi
svetimos
svetims
svetimu
svetlana
svetur
svg
sviediniai
sviediniu
sviestas
sviesto
svieto
svirnas
svogu
svori
svorio
svoris
svyruoja
sw
swan
sweden
sweet
swift
sydney
syje
syk
syki
sykiu
sylvestris
symbols
symphony
sys
system
systems
szczecin
słownik
t
ta
tab
taba
tabakas
tabako
tabaris
tabas
tabe
tabino
table
tablesa
tablesb
tablesc
tablesd
tablese
tablesf
tablesg
tablesh
tablesi
tablesk
tablesl
tablesm
tablesn
tableso
tablesp
tabless
tablesw
tablesz
tabo
tabu
tac
tad
tada
tadas
tadeus
tadeusz
tadic
tadieni
tadienio
tado
tadvario
tadvaris
tadz
tai
taic
taiga
taigi
taika
taikant
taike
taikiai
taikini
taikinio
taikiniu
taikinius
taiko
taikoma
taikomas
taikomi
taikomoji
taikomos
taikomosios
taikomu
taikos
taikyma
taikymas
taikymo
taikyti
tailandas
tailande
tailando
taino
taip
taipe
taipogi
tais
taisa
taisai
taisas
taiso
taisu
taisykle
taisykles
taisykliu
taisyta
taisytas
taisyti
taitijoje
taitijos
taivanas
taivane
taivano
tajai
tajame
taju
taka
takai
takais
takas
take
takeli
takeliai
takelis
takeliu
takes
takiai
takinga
takingas
takingiausiu
takiu
tako
takoje
takojo
takomis
takos
taksi
taktika
taktikos
taktine
taktiniu
taku
takus
talac
talas
tale
talenta
talentas
talentu
tales
talibano
talinas
taline
talino
talio
talis
talk
talkino
tallat
tallinn
talo
talpa
talpina
talpinanc
talpos
talu
tam
tama
tamara
tamas
tame
tamilu
tamos
tampa
tampere
tampos
tams
tamsa
tamsesne
tamsi
tamsia
tamsiai
tamsioji
tamsios
tamsiu
tamsoje
tamsos
tamsta
tamsu
tamsus
tamsusis
tamulevic
tan
tanc
tang
tango
tangu
tankai
tankas
tanki
tankiai
tankiausiai
tankine
tankio
tankis
tankiu
tanko
tanku
tankumas
tankus
tant
tanti
tanzanija
tanzanijoje
tanzanijos
tapatinama
tapatinamas
tapatybe
tapdamas
tapdavo
tape
tapelke
tapo
taps
tapti
taptu
tapus
tapusi
tapusios
tapusiu
tapyba
tapyboje
tapybos
tapyti
tapytoja
tapytojai
tapytojas
tapytojo
tapytoju
tar
tara
taras
tarasenka
tarauja
taravo
tardymo
tare
taria
tariama
tariamai
tariamas
tariami
tariant
tarima
tarimas
tarimo
tarimu
taringai
tarkim
tarkime
tarme
tarmes
tarmiu
tarnai
tarnaite
tarnas
tarnauja
tarnauti
tarnautojai
tarnautojas
tarnautoju
tarnave
tarnavo
tarnu
tarnyba
tarnybai
tarnybine
tarnyboje
tarnybos
tarnybu
taro
taros
tarp
tarpa
tarpas
tarpe
tarpeklis
tarpine
tarpinis
tarpiniu
tarpo
tarpsniu
tarptautine
tarptautinei
tarptautines
tarptautini
tarptautiniai
tarptautiniame
tarptautininkas
tarptautinio
tarptautinis
tarptautiniu
tarptautiniuose
tarptautinius
tarpu
tarpukalniu
tarpukario
tarpukaris
tarpukariu
tarpukaryje
tarpusavio
tarpusavyje
tarpz
tarpzoniniame
tarpzoninis
tars
tarsi
tarti
tartu
tartum
tarus
taryba
tarybai
tarybine
tarybiniais
tarybiniam
tarybinio
tarybinis
tarybiniu
taryboje
tarybos
tarybu
tarytum
tas
tasi
tasis
tat
tata
tate
tatjana
tato
tatru
tau
tauc
tauje
taurage
tauragnu
tauras
taure
taurele
taures
tauriu
tauro
tauta
tautai
tautas
tautavic
tautiec
tautine
tautinei
tautini
tautininku
tautinio
tautinis
tautiniu
tautis
tautodaile
tautodailininkas
tautodailininke
tautomis
tautoms
tautos
tautosaka
tautosakininkas
tautosakoje
tautosakos
tautose
tautu
tautvydas
tautybe
tautybiu
tave
tavo
taylor
tb
tbilisi
tbilisio
tbilisyje
tc
te
tea
team
teams
teatra
teatrai
teatras
teatre
teatro
teatru
teatrui
teatruose
teau
tebe
tebebuvo
tebelaukiantys
tebuvo
tec
tech
technical
technics
technika
technikas
technikos
techniku
technikuma
technikumas
technikume
technikumo
technine
techniniai
techninio
techninis
techniniu
technis
techno
technologas
technologija
technologijas
technologijomis
technologijos
technologiju
technologine
technologiniai
technologiniu
technology
ted
teen
tegu
tegul
tei
teigdamas
teige
teigia
teigiama
teigiamai
teigiamas
teigiamo
teigiamu
teigimu
teigini
teiginiai
teiginio
teiginiu
teiginius
teiginys
teigti
teike
teikia
teikiama
teikiamas
teikiami
teikiamos
teikianc
teikianti
teikimas
teikimo
teikimu
teikta
teiktas
teikti
tein
teina
teinas
teine
teino
teinu
teis
teise
teises
teisine
teisinga
teisingai
teisingas
teisingi
teisinguma
teisingumas
teisingumo
teisini
teisiniai
teisininkai
teisininkas
teisininke
teisininko
teisininku
teisinio
teisinis
teisiniu
teisinius
teisino
teisinta
teisintas
teisis
teisiu
teisma
teismai
teismas
teisme
teismine
teismo
teismu
teismui
teismuose
teisybe
teisynas
teka
tekanc
tekanti
tekantis
tekdavo
teke
tekio
tekle
tekliai
tekliu
teklius
teko
teks
teksase
teksaso
teksta
tekstai
tekstais
tekstas
tekste
tekstile
tekstilininke
teksto
tekstu
tekstuose
tekstus
tektonine
tekvondo
tel
tele
telefonas
telefono
telefonu
telegrafo
telegraph
telekomunikaciju
telenovele
teles
teleskopas
teleskopo
teleskopu
television
televizija
televizijai
televizijoje
televizijos
televizoriu
teli
teliai
teliais
telio
telionai
telionas
teliono
telis
teliu
telke
telkiniai
telkinio
telkiniu
telkiniuose
telkinius
telkinys
telks
tell
telmologinis
telpa
tels
tema
temas
tematika
tematikos
temine
temomis
temos
temperatu
template
templates
temple
tempo
tempti
temu
ten
tenai
tendencija
tendencijas
tendencijos
tenerife
tenisa
tenisas
tenisininkai
tenisininkas
teniso
tenka
tenkinti
tenoc
tenoras
tent
teo
teodora
teodoras
teodoro
teofilis
teologai
teologas
teologija
teologijos
teorema
teoretikai
teoretikas
teorija
teorijai
teorijas
teorijoje
teorijos
teoriju
teorine
teoriniu
teoris
ter
teraitis
terapeutas
terapija
terapijos
terasa
terasoje
terasos
teresa
terese
terespolio
tereza
teritorija
teritorijai
teritorijas
teritorijoje
teritorijomis
teritorijos
teritorijose
teritoriju
teritorine
teritorini
teritoriniai
teritorinio
teritorinis
teritoriniu
termina
terminai
terminalas
terminalo
terminas
termino
terminologija
terminu
terminui
terminus
teroristine
teroristu
teroro
terpe
terra
territorial
terry
ters
tes
tese
tesla
tesne
tesni
tesnia
tesnio
tesnioji
tesniojo
tesniojoje
tesniosios
tesnis
tesniu
test
testamenta
testamentas
testamente
testamento
testamentu
testas
teta
tete
tetra
teutonu
texas
text
textcolor
tez
teze
tf
tfrac
tfsr
th
tha
than
that
the
theater
theatre
theft
theguardian
their
them
then
theodor
theodore
theory
theplantlist
there
these
thessaloniki
theta
they
thin
thing
things
think
third
this
thomas
thompson
thomson
three
through
thumb
thurman
ti
tian
tibeta
tibete
tibetiec
tibeto
tic
ticianas
ticiano
tico
tie
tiec
tieji
tiek
tieke
tiekia
tiekiamas
tiekima
tiekimas
tiekimo
tiekti
tiems
tiena
tiene
ties
tiesa
tiese
tiesia
tiesiai
tiesiant
tiesimo
tiesine
tiesinta
tiesiog
tiesiogiai
tiesiogine
tiesiogini
tiesioginiai
tiesioginio
tiesioginis
tiesioginiu
tiesiu
tiesos
tiesti
tiesu
tiesus
tiger
tigrai
tigras
tigro
tija
tijo
tijos
tiju
tik
tikalne
tikalniu
tike
tiki
tikima
tikimas
tikimasi
tikimybe
tikimybiu
tikina
tikinc
tikino
tikinti
tikintieji
tikintiesiems
tikintis
tikisi
tiko
tikocino
tikr
tikra
tikrai
tikrais
tikram
tikras
tikrasis
tikri
tikriausiai
tikrieji
tikrina
tikrinant
tikrinimas
tikrinimo
tikrino
tikrinta
tikrintas
tikrinti
tikro
tikroje
tikroji
tikrojo
tikromis
tikros
tikrose
tikrosios
tikrove
tikrovis
tikru
tikruoju
tikrus
tiksla
tikslai
tikslais
tikslams
tikslas
tikslaus
tiksli
tiksliai
tiksliau
tikslios
tiksliu
tikslo
tikslu
tikslui
tikslumu
tikslus
tikt
tiktai
tikva
tikyba
tikybos
til
tilia
till
tilta
tiltai
tiltas
tilto
tiltu
tiltus
tilz
tim
tima
timanas
timas
time
timeaxis
timeline
times
timi
timis
timo
timoro
timothy
timu
tin
tina
tinai
tinamas
tinas
tine
tines
tinga
tingai
tingas
tinge
tingesne
tingesniu
tingi
tingo
tingos
tingu
tinguma
tingumas
tingumo
tingus
tini
tiniai
tinimo
tininkai
tininkas
tininko
tininku
tininkyste
tinio
tinis
tiniu
tinius
tinka
tinkama
tinkamai
tinkamas
tinkami
tinkamo
tinkamos
tinkamu
tinkinta
tinkla
tinklai
tinklais
tinklalapio
tinklalapis
tinklalapyje
tinklapis
tinklaras
tinklas
tinklaviete
tinkle
tinklinio
tinklinis
tinklo
tinklu
tinkluose
tinklus
tino
tinos
tintas
tinti
tinu
tinybe
tipa
tipai
tipas
tipine
tipinis
tipis
tipo
tipu
tipui
tipus
tirane
tiraspol
tiraz
tiria
tiriama
tiriamas
tiriami
tiriant
tirianti
tirks
tirpalas
tirpsmo
tirpsta
tirs
tirta
tirtas
tirti
tis
tisa
tisai
tisos
tisus
titano
titas
title
titnago
tito
titula
titulai
titulas
titulavosi
titulinis
titulo
titulu
tituluojamas
titulus
titus
tiumene
tiuringijos
tiurkai
tiurku
tk
tlige
tm
to
tobacco
tobago
tobias
tobula
tobule
tobulinimo
tobulino
tobulinosi
tobulinti
today
tode
together
togo
toj
toja
tojai
tojais
tojama
tojamas
tojams
tojas
toje
toji
tojo
tojoje
tojos
toju
tojui
tojus
tok
tokai
tokas
toki
tokia
tokiai
tokiais
tokiam
tokiame
tokias
tokie
tokiems
tokijas
tokijo
tokijuje
tokio
tokioje
tokiomis
tokioms
tokios
tokiose
tokiu
tokiuose
tokius
toks
toksis
toku
tokugava
tokugavos
tokyo
tol
toledo
tolerancija
tolesne
tolesni
tolesnis
toli
toliau
toliausiai
tolima
tolimas
tolimesne
tolimesni
tolimesniu
tolimu
tolimuosiuose
tolkino
tolo
tolstojaus
tolstojus
tolydz
tolygiai
tolyn
tom
toma
tomai
tomas
tomatoes
tomb
tome
tomis
tommy
tomo
tomorrow
toms
tomsko
tomu
ton
tona
tonai
tonas
tone
tonga
tongos
toni
tonight
tonine
tonis
tono
tonos
tonu
tony
too
top
topai
topas
tope
topo
topographie
topographisch
topu
topuose
topus
tor
toras
tore
torino
toro
toronte
toronto
torpedo
torres
torshavn
toru
torune
tos
tose
tosios
tosiose
toskanos
tota
total
totas
tote
toti
toto
totoriai
totoris
totoriu
totorius
tottenham
totyrininkai
totyrininkas
totyrininke
totyros
touch
toulouse
tour
tovaizdi
tovaizdis
tovaizdz
tower
town
toyota
tps
tr
tra
track
trade
tradicija
tradicijas
tradicijoje
tradicijomis
tradicijos
tradiciju
tradicine
tradicines
tradicini
tradiciniai
tradiciniais
tradicinio
tradicinis
tradiciniu
tradicinius
tradicis
tragedija
tragedijos
tragis
trai
trail
train
training
trajektorija
trakai
trake
trakija
trakijos
trakis
trakse
traktatas
trakto
traktoriu
traku
trakuose
trama
tramvajai
tramvajaus
tramvaju
tramvajus
trance
trans
transfermarkt
transformacija
transformacijos
transilvanijos
transliacija
transliacijos
transliavimo
transliavo
transliuojama
transliuojamas
transliuoti
transliuotojas
transmisija
transplantacija
transport
transportas
transportavimo
transporto
transportu
transportui
trapecijos
trapezundo
tras
trasa
trasoje
trasos
trasu
trauka
trauke
traukia
traukiama
traukiamas
traukiami
traukiant
traukiasi
traukimas
traukimo
traukiniai
traukinio
traukiniu
traukinys
traukos
traukta
trauktas
traukti
trauktis
trauktos
trauma
traumos
traumu
traupio
trausas
travel
traviata
tre
treatment
trec
tree
trees
trejas
trejiems
treju
trejus
trejybe
treko
tremta
tremtas
tremti
tremties
tremtiniai
tremtiniu
tremtinys
tremtyje
trenere
treneri
treneriai
trenerio
treneris
treneriu
treniravo
treniravosi
treniruoc
treniruoja
treniruote
treniruotes
treniruoti
treniruotis
trenke
tres
tresto
treti
tri
trial
triba
tribu
tribunolo
trijose
triju
trijule
trijuose
trikampe
trikampiai
trikampio
trikampis
trikampiu
trikotaz
trileriai
trileris
trilogija
trilogijos
trim
trimate
trimis
trimitas
trimitu
trims
trinidadas
trinidado
trinku
trinti
trio
tris
trisdes
trisiene
triskart
trispalve
tritas
triu
triuks
triumfas
triumfavo
triumfo
trius
triz
troba
trobele
trobos
trofe
troja
troje
trojos
troks
troleibusai
troleibusu
trondheim
tropiku
tropine
tropiniai
tropinis
tropiniu
[...]
