!
"
#
##a
##aa
##ab
##ac
##ad
##ae
##af
##ag
##ah
##ai
##aj
##ak
##al
##am
##an
##ao
##ap
##aq
##ar
##as
##at
##au
##av
##aw
##ax
##ay
##az
##b
##ba
##bb
##bc
##bd
##be
##bf
##bg
##bh
##bi
##bj
##bk
##bl
##bm
##bn
##bo
##bp
##bq
##br
##bs
##bt
##bu
##bv
##bw
##bx
##by
##bz
##c
##ca
##cb
##cc
##cd
##ce
##cf
##cg
##ch
##ci
##cj
##ck
##cl
##cm
##cn
##co
##cp
##cq
##cr
##cs
##ct
##cu
##cv
##cw
##cx
##cy
##cz
##d
##da
##db
##dc
##dd
##de
##df
##dg
##dh
##di
##dj
##dk
##dl
##dm
##dn
##do
##dp
##dq
##dr
##ds
##dt
##du
##dv
##dw
##dx
##dy
##dz
##e
##ea
##eb
##ec
##ed
##ee
##ef
##eg
##eh
##ei
##ej
##ek
##el
##em
##en
##eo
##ep
##eq
##er
##es
##et
##eu
##ev
##ew
##ex
##ey
##ez
##f
##fa
##fb
##fc
##fd
##fe
##ff
##fg
##fh
##fi
##fj
##fk
##fl
##fm
##fn
##fo
##fp
##fq
##fr
##fs
##ft
##fu
##fv
##fw
##fx
##fy
##fz
##g
##ga
##gb
##gc
##gd
##ge
##gf
##gg
##gh
##gi
##gj
##gk
##gl
##gm
##gn
##go
##gp
##gq
##gr
##gs
##gt
##gu
##gv
##gw
##gx
##gy
##gz
##h
##ha
##hb
##hc
##hd
##he
##hf
##hg
##hh
##hi
##hj
##hk
##hl
##hm
##hn
##ho
##hp
##hq
##hr
##hs
##ht
##hu
##hv
##hw
##hx
##hy
##hz
##i
##ia
##ib
##ic
##id
##ie
##if
##ig
##ih
##ii
##ij
##ik
##il
##im
##in
##io
##ip
##iq
##ir
##is
##it
##iu
##iv
##iw
##ix
##iy
##iz
##j
##ja
##jb
##jc
##jd
##je
##jf
##jg
##jh
##ji
##jj
##jk
##jl
##jm
##jn
##jo
##jp
##jq
##jr
##js
##jt
##ju
##jv
##jw
##jx
##jy
##jz
##k
##ka
##kb
##kc
##kd
##ke
##kf
##kg
##kh
##ki
##kj
##kk
##kl
##km
##kn
##ko
##kp
##kq
##kr
##ks
##kt
##ku
##kv
##kw
##kx
##ky
##kz
##l
##la
##lb
##lc
##ld
##le
##lf
##lg
##lh
##li
##lj
##lk
##ll
##lm
##ln
##lo
##lp
##lq
##lr
##ls
##lt
##lu
##lv
##lw
##lx
##ly
##lz
##m
##ma
##mb
##mc
##md
##me
##mf
##mg
##mh
##mi
##mj
##mk
##ml
##mm
##mn
##mo
##mp
##mq
##mr
##ms
##mt
##mu
##mv
##mw
##mx
##my
##mz
##n
##na
##nb
##nc
##nd
##ne
##nf
##ng
##nh
##ni
##nj
##nk
##nl
##nm
##nn
##no
##np
##nq
##nr
##ns
##nt
##nu
##nv
##nw
##nx
##ny
##nz
##o
##oa
##ob
##oc
##od
##oe
##of
##og
##oh
##oi
##oj
##ok
##ol
##om
##on
##oo
##op
##oq
##or
##os
##ot
##ou
##ov
##ow
##ox
##oy
##oz
##p
##pa
##pb
##pc
##pd
##pe
##pf
##pg
##ph
##pi
##pj
##pk
##pl
##pm
##pn
##po
##pp
##pq
##pr
##ps
##pt
##pu
##pv
##pw
##px
##py
##pz
##q
##qa
##qb
##qc
##qd
##qe
##qf
##qg
##qh
##qi
##qj
##qk
##ql
##qm
##qn
##qo
##qp
##qq
##qr
##qs
##qt
##qu
##qv
##qw
##qx
##qy
##qz
##r
##ra
##rb
##rc
##rd
##re
##rf
##rg
##rh
##ri
##rj
##rk
##rl
##rm
##rn
##ro
##rp
##rq
##rr
##rs
##rt
##ru
##rv
##rw
##rx
##ry
##rz
##s
##sa
##sb
##sc
##sd
##se
##sf
##sg
##sh
##si
##sj
##sk
##sl
##sm
##sn
##so
##sp
##sq
##sr
##ss
##st
##su
##sv
##sw
##sx
##sy
##sz
##t
##ta
##tb
##tc
##td
##te
##tf
##tg
##th
##ti
##tj
##tk
##tl
##tm
##tn
##to
##tp
##tq
##tr
##ts
##tt
##tu
##tv
##tw
##tx
##ty
##tz
##u
##ua
##ub
##uc
##ud
##ue
##uf
##ug
##uh
##ui
##uj
##uk
##ul
##um
##un
##uo
##up
##uq
##ur
##us
##ut
##uu
##uv
##uw
##ux
##uy
##uz
##v
##va
##vb
##vc
##vd
##ve
##vf
##vg
##vh
##vi
##vj
##vk
##vl
##vm
##vn
##vo
##vp
##vq
##vr
##vs
##vt
##vu
##vv
##vw
##vx
##vy
##vz
##w
##wa
##wb
##wc
##wd
##we
##wf
##wg
##wh
##wi
##wj
##wk
##wl
##wm
##wn
##wo
##wp
##wq
##wr
##ws
##wt
##wu
##wv
##ww
##wx
##wy
##wz
##x
##xa
##xb
##xc
##xd
##xe
##xf
##xg
##xh
##xi
##xj
##xk
##xl
##xm
##xn
##xo
##xp
##xq
##xr
##xs
##xt
##xu
##xv
##xw
##xx
##xy
##xz
##y
##ya
##yb
##yc
##yd
##ye
##yf
##yg
##yh
##yi
##yj
##yk
##yl
##ym
##yn
##yo
##yp
##yq
##yr
##ys
##yt
##yu
##yv
##yw
##yx
##yy
##yz
##z
##za
##zb
##zc
##zd
##ze
##zf
##zg
##zh
##zi
##zj
##zk
##zl
##zm
##zn
##zo
##zp
##zq
##zr
##zs
##zt
##zu
##zv
##zw
##zx
##zy
##zz
$
%
&
'
(
)
*
+
,
-
.
/
0
00
000
001
005
007
01
02
03
04
05
06
07
08
09
0a
0b
0c
0d
0e
0f
0g
0h
0i
0j
0k
0l
0m
0n
0o
0p
0q
0r
0s
0t
0u
0v
0w
0x
0y
0z
1
10
100
1000
10000
1001
1002
101
1016
102
103
1038
104
105
106
107
108
109
11
110
1100
111
112
113
114
115
116
117
118
119
12
120
1200
121
122
123
124
125
1250
1253
126
1260
127
128
129
13
130
1300
131
132
133
134
135
136
137
138
1387
139
1392
14
140
1400
141
1410
142
1420
1422
1425
143
1430
1435
144
1440
145
1450
146
147
1470
148
1480
149
1492
1498
1499
15
150
1500
1501
1502
1503
1504
1505
1506
1507
1508
151
1510
1511
1512
1513
1514
1515
1516
1517
1518
1519
152
1520
1521
1522
1524
1525
1526
1527
1528
1529
153
1530
1533
1534
1535
1536
1537
1538
154
1540
1542
1545
1547
1549
155
1550
1553
1554
1555
1556
1557
1558
1559
156
1560
1561
1562
1563
1564
1565
1566
1567
1568
1569
157
1570
1571
1572
1573
1574
1575
1576
1578
1579
158
1580
1581
1582
1583
1584
1585
1586
1588
1589
159
1590
1591
1592
1593
1594
1595
1596
1597
1598
1599
16
160
1600
1601
1602
1603
1604
1605
1606
1607
1608
1609
161
1610
1611
1612
1613
1614
1615
1616
1617
1618
1619
162
1620
1621
1622
1623
1624
1625
1626
1627
1628
1629
163
1630
1631
1632
1633
1634
1635
1636
1637
1638
1639
164
1640
1641
1642
1643
1644
1645
1646
1647
1648
1649
165
1650
1651
1652
1653
1654
1655
1656
1657
1658
1659
166
1660
1661
1662
1663
1664
1665
1666
1667
1668
1669
167
1670
1672
1673
1674
1675
1676
1678
168
1680
1682
1683
1684
1685
1686
1687
1688
1689
169
1690
1691
1695
1696
1697
1698
1699
17
170
1700
1701
1702
1703
1704
1705
1706
1707
1708
1709
171
1710
1711
1712
1713
1714
1715
1717
1718
1719
172
1720
1721
1722
1723
1724
1725
1726
1727
1728
1729
173
1730
1731
1732
1733
1734
1735
1736
1737
1738
1739
174
1740
1741
1742
1743
1744
1745
1746
1747
1748
1749
175
1750
1751
1752
1753
1754
1755
1756
1757
1758
1759
176
1760
1761
1762
1763
1764
1765
1766
1767
1768
1769
177
1770
1771
1772
1773
1774
1775
1776
1777
1778
1779
178
1780
1781
1782
1783
1784
1785
1786
1787
1788
1789
179
1790
1791
1792
1793
1794
1795
1796
1797
1798
1799
18
180
1800
1801
1802
1803
1804
1805
1806
1807
1808
1809
181
1810
1811
1812
1813
1814
1815
1816
1817
1818
1819
182
1820
1821
1822
1823
1824
1825
1826
1827
1828
1829
183
1830
1831
1832
1833
1834
1835
1836
1837
1838
1839
184
1840
1841
1842
1843
1844
1845
1846
1847
1848
1849
185
1850
1851
1852
1853
1854
1855
1856
1857
1858
1859
186
1860
1861
1862
1863
1864
1865
1866
1867
1868
1869
187
1870
1871
1872
1873
1874
1875
1876
1877
1878
1879
188
1880
1881
1882
1883
1884
1885
1886
1887
1888
1889
189
1890
1891
1892
1893
1894
1895
1896
1897
1898
1899
19
190
1900
1901
1902
1903
1904
1905
1906
1907
1908
1909
191
1910
1911
1912
1913
1914
1915
1916
1917
1918
1919
192
1920
1921
1922
1923
1924
1925
1926
1927
1928
1929
193
1930
1931
1932
1933
1934
1935
1936
1937
1938
1939
194
1940
1941
1942
1943
1944
1945
1946
1947
1948
1949
195
1950
1951
1952
1953
1954
1955
1956
1957
1958
1959
196
1960
1961
1962
1963
1964
1965
1966
1967
1968
1969
197
1970
1971
1972
1973
1974
1975
1976
1977
1978
1979
198
1980
1981
1982
1983
1984
1985
1986
1987
1988
1989
199
1990
1991
1992
1993
1994
1995
1996
1997
1998
1999
1a
1b
1c
1d
1e
1f
1g
1h
1i
1j
1k
1l
1m
1n
1o
1p
1q
1r
1s
1t
1u
1v
1w
1x
1y
1z
2
20
200
2000
2001
2002
2003
2004
2005
2006
2007
2008
2009
201
2010
2011
2012
2013
2014
2015
2016
2017
2018
2019
202
2020
2021
2022
203
204
205
206
207
208
209
21
210
211
212
213
214
215
216
217
218
219
22
220
221
222
223
224
225
226
227
228
229
23
230
231
232
233
234
235
236
237
238
239
24
240
241
242
243
244
245
246
247
248
249
25
250
2500
251
252
253
254
255
256
257
258
259
26
260
261
262
263
264
265
266
267
268
269
27
270
271
272
273
274
275
276
277
278
279
28
280
281
282
283
284
285
286
287
288
289
29
290
291
292
293
294
295
296
297
298
299
2a
2b
2c
2d
2e
2f
2g
2h
2i
2j
2k
2l
2m
2n
2o
2p
2q
2r
2s
2t
2u
2v
2w
2x
2y
2z
3
30
300
3000
301
302
303
304
305
306
307
308
309
31
310
311
312
313
314
315
316
3166
317
318
319
32
320
321
322
323
324
325
326
327
328
33
330
331
332
333
334
335
336
337
338
339
34
340
342
343
344
345
349
35
350
3500
351
352
354
355
356
359
36
360
365
366
367
37
370
371
373
375
376
379
38
380
381
382
383
384
385
386
387
39
390
391
393
395
396
399
3a
3b
3c
3d
3e
3f
3g
3h
3i
3j
3k
3l
3m
3n
3o
3p
3q
3r
3s
3t
3u
3v
3w
3x
3y
3z
4
40
400
4000
401
403
404
405
406
408
41
410
411
412
415
416
417
42
420
421
423
425
428
43
430
433
435
44
440
442
443
445
447
45
450
455
457
459
46
460
464
467
47
470
471
472
475
476
48
480
486
49
498
4a
4b
4c
4d
4e
4f
4g
4h
4i
4j
4k
4l
4m
4n
4o
4p
4q
4r
4s
4t
4u
4v
4w
4x
4y
4z
5
50
500
5000
501
505
508
51
510
511
512
513
517
52
520
521
525
53
533
54
540
5420013762
5420014882
5442
55
550
56
560
561
57
570
575
58
581
583
585
59
5a
5b
5c
5d
5e
5f
5g
5h
5i
5j
5k
5l
5m
5n
5o
5p
5q
5r
5s
5t
5u
5v
5w
5x
5y
5z
6
60
600
6000
609
61
612
62
624
625
63
630
639
64
640
65
650
66
667
67
68
680
69
692
6a
6b
6c
6d
6e
6f
6g
6h
6i
6j
6k
6l
6m
6n
6o
6p
6q
6r
6s
6t
6u
6v
6w
6x
6y
6z
7
70
700
7000
71
72
720
73
737
74
747
75
750
76
77
78
79
7a
7b
7c
7d
7e
7f
7g
7h
7i
7j
7k
7l
7m
7n
7o
7p
7q
7r
7s
7t
7u
7v
7w
7x
7y
7z
8
80
800
8000
81
82
83
84
85
850
86
87
88
89
8a
8b
8c
8d
8e
8f
8g
8h
8i
8j
8k
8l
8m
8n
8o
8p
8q
8r
8s
8t
8u
8v
8w
8x
8y
8z
9
90
900
91
92
93
94
95
950
96
960
97
978
98
985
99
9955
9986
9a
9b
9c
9d
9e
9f
9g
9h
9i
9j
9k
9l
9m
9n
9o
9p
9q
9r
9s
9t
9u
9v
9w
9x
9y
9z
:
;
<
=
>
?
@
[
[CLS]
[MASK]
[PAD]
[SEP]
[UNK]
\
]
^
_
`
a
a0
a1
a2
a3
a4
a5
a6
a7
a8
a9
aa
ab
abaka
abba
abc
abchazija
abchazijos
abchazu
abd
abecele
abeceles
abejone
abejoniu
abejoti
abejotina
abejotinas
abi
abiejose
abieju
abiejuose
abiem
abies
abipus
abiturientu
abjasia
aborigenu
about
abraomas
absoliuti
absoliutus
abu
abudu
ac
academia
academic
academy
access
accessed
achemenidu
aciu
acrotiri
act
acta
acteku
action
acto
acuna
ad
ada
adam
adamas
adamkus
adams
adamsas
adata
adele
administracija
administracijos
administracine
administracines
administracini
administraciniai
administracinio
administracinis
administraciniu
administracinius
administraciskai
administration
administratoriumi
administratorius
administratyvinis
administravimo
admirolas
adolf
adolfas
adolfo
adomaitis
adomas
adomo
adresas
adresu
adrian
adrianas
adriano
adrijos
advokatas
advokato
advokatu
ae
aerodromas
aerodrome
af
afc
affairs
afganistan
afganistanas
afganistane
afganistano
afghanistan
africa
african
afrika
afrikaans
afrikanu
afrikoje
afrikos
after
ag
again
against
age
agency
agentas
agentu
agentura
agenturos
aglomeracijoje
agne
agronomas
ah
ai
aibe
aibes
aida
aidai
aidas
aids
aikste
aiksteje
aikstele
aiksteleje
aiksteles
aikstes
aimaru
ain
ainu
air
airbus
aircraft
aires
airese
airija
airijoje
airijos
airiu
airlines
airport
airways
ais
aisiais
aiski
aiskiai
aiskina
aiskino
aisku
aiskus
aiste
aistra
aistros
aitvaras
aj
aja
ajai
ajam
ajame
ajax
aji
ak
akademija
akademijoje
akademijos
akademikas
akademinio
akademinis
akadu
akcija
akcijas
akcijos
akciju
akcine
akcines
aki
akies
akimirka
akimis
akis
akiu
akivaizdziai
akluju
akmene
akmenes
akmeni
akmenimis
akmenine
akmeniniai
akmeninis
akmeniniu
akmenis
akmeniu
akmenos
akmens
akmenu
akmenys
akmuo
akt
akta
aktai
aktas
akte
akto
aktore
aktores
aktoriai
aktoriaus
aktoriu
aktoriumi
aktorius
aktu
aktualu
aktus
aktyvi
aktyvia
aktyviai
aktyvios
aktyvistu
aktyviu
aktyvumas
aktyvumo
aktyvus
akustine
akvareles
akvariumas
akys
akyse
al
ala
alan
alantos
alaus
alavas
alb
alba
albanai
albania
albanija
albanijoje
albanijos
albanu
albatros
albert
albertas
alberto
albina
albinas
albrechtas
album
albuma
albumai
albumas
albume
albumo
albums
albumu
albumui
albumus
aldona
ale
aleja
alejos
alekna
aleksander
aleksandra
aleksandras
aleksandravicius
aleksandrijos
aleksandro
aleksandrui
aleksas
aleksejus
aleksoto
alemania
alex
alexander
alfa
alfonsas
alfonso
alfred
alfredas
alfredo
algimantas
algimanto
algirdas
algirdo
algis
algoritmas
ali
aliaskos
alice
aliejaus
alieju
aliejus
alisa
aliuminio
aliuminis
aliutoriu
aljanso
alka
alkanas
alkas
alkoholiniai
alkoholio
alkos
all
allen
allgemeinen
alliance
allmusic
alma
almantas
almis
alonso
aloyzas
alpes
alpese
alpha
alpiu
als
alsedziu
altajaus
alternatyva
alternatyvus
altitude
alto
altoriai
altoriaus
altoriu
altorius
altpreußischen
alu
alus
alvydas
alyga
alytaus
alytuje
alytus
alzyras
alzyre
alzyro
am
amamiu
amatai
amatininku
amato
amatu
amazon
amazones
ambasada
ambasadore
ambasadoriumi
ambasadorius
ambasados
amber
ame
america
american
americana
amerika
amerikieciai
amerikieciu
amerikietis
amerikoje
amerikos
amharu
amor
amore
amplitude
amsterdam
amsterdamas
amsterdame
amsterdamo
amtlicher
amtsbezirk
amuro
amy
amziais
amziaus
amzina
amzinai
amzinas
amziu
amziuje
amziumi
amzius
an
ana
analize
analizes
analizuoti
analysis
anandas
anapus
anas
anatolijus
anatomija
anatomijos
anbo
ancient
ancios
anciu
and
anderer
anderson
andora
andoros
andorra
andre
andrea
andreas
andrejus
andrew
andriaus
andrius
android
andrzej
andu
anduose
andy
andzela
andzele
andzelo
ang
anga
angel
angela
angelai
angelas
angele
angeles
angelo
angels
angelu
angis
angl
anglai
anglas
anglies
anglija
anglijoje
anglijos
anglis
angliskai
angliskas
angliu
anglo
anglu
angola
angolos
angos
anguila
animacija
animacijos
animacinis
animaciniu
animal
animation
anime
ankara
anketa
anksciau
ankstesne
ankstesnes
ankstesni
ankstesniais
ankstesnio
ankstesnis
ankstesniu
anksti
anksto
ankstyva
ankstyvaisiais
ankstyvieji
ankstyvoji
ankstyvojo
ankstyvosios
ankstyvuju
ankstyvuoju
ann
anna
anne
announces
annual
anos
anot
another
anri
ansambli
ansambliams
ansamblio
ansamblis
ansambliu
ansambliui
ant
antai
antakalnio
antalieptes
antanas
antano
antarktida
antarktidos
antarkties
antartico
antena
antenos
antgere
antgeria
antgerti
anthony
anti
antigua
antigva
antikos
antilu
antis
antkapinis
antmoka
antmokejo
antmoketi
antologija
anton
antonas
antoni
antonijus
antonio
antpuoliu
antra
antradieni
antraja
antrajam
antrajame
antraji
antrame
antras
antrase
antrasis
antraso
antrasyti
antri
antro
antroje
antroji
antrojo
antrojoje
antropologas
antropologijos
antros
antrosios
antru
antruoju
antsidirba
antsidirbo
antsidirbti
antsigere
antsigeria
antsigerti
antsiskaite
antsiskaito
antsiskaityti
antys
anu
anukas
anyksciai
anyksciu
anyksciuose
anykstenu
anzu
ao
ap
apacia
apacioje
apacios
apaciu
aparatas
aparato
aparatu
apardytas
apastalas
apastalo
apastalu
apatine
apatineje
apatines
apatinio
apatinis
apauge
apauges
apaugusi
apaugusios
apdirba
apdirbimas
apdirbimo
apdirbo
apdirbti
apdorojimas
apdorojimo
apdovanojami
apdovanojima
apdovanojimai
apdovanojimas
apdovanojimo
apdovanojimu
apdovanojimui
apdovanojimuose
apdovanojimus
apdovanojo
apdovanota
apdovanotas
apdovanoti
apdriso
apdrista
apdristi
apeigas
apeigos
apeigu
apeiti
apeme
apgalvoja
apgalvojo
apgalvoti
apgaudineja
apgaudinejo
apgaudineti
apgauti
apgere
apgeria
apgerti
apginti
apgirdejo
apgirdeti
apgirdi
apgule
apgulties
apgyne
apgyvendino
apgyvendinta
apgyvendintas
apgyvendinti
apgyvendintos
apgyventos
apibrezia
apibrezianti
apibrezimas
apibrezta
apibreztas
apibrezti
apibudina
apibudinama
apibudinamas
apibudino
apibudinti
apie
apima
apimanti
apimantis
apimti
apimties
apimtis
apkaltino
apkaltintas
apkaltinti
apklausos
aplanke
aplanko
aplankyti
apleido
apleista
apleistas
apleisti
aplenke
aplink
aplinka
aplinkai
aplinkines
aplinkiniu
aplinkoje
aplinkos
aplinkosaugos
aplinkui
aplinkybemis
aplinkybes
aplinkybiu
apmaste
apmasto
apmastyti
apmigo
apmigti
apminga
apmoka
apmokejo
apmoketi
apnakvoja
apnakvojo
apnakvoti
apnervina
apnervino
apnervinti
apollo
apolonas
apolono
apple
approx
apragina
apragino
apraginti
apranga
aprangomis
aprangos
aprangu
aprase
apraso
aprasoma
aprasomas
aprasomi
aprasymas
aprasyta
aprasytas
aprasyti
aprasytu
apribojimu
april
aprupinimo
aprupinti
aps
apsakymai
apsakymu
apsapnavo
apsapnuoja
apsapnuoti
apsauga
apsaugai
apsaugo
apsaugos
apsaugoti
apside
apsidirba
apsidirbo
apsidirbti
apsigalvoja
apsigalvojo
apsigalvoti
apsigere
apsigeria
apsigerti
apsigirdejo
apsigirdeti
apsigirdi
apsigyne
apsigyveno
apsilanke
apsilankymo
apsimaste
apsimasto
apsimastyti
apsimiega
apsimiegojo
apsimiegoti
apsimoka
apsimokejo
apsimoketi
apsinakvoja
apsinakvojo
apsinakvoti
apsinervina
apsinervino
apsinervinti
apsirase
apsiraso
apsirasyti
apsisapnavo
apsisapnuoja
apsisapnuoti
apsiskaite
apsiskaito
apsiskaityti
apsiskolina
apsiskolino
apsiskolinti
apsistojo
apsivagia
apsivaisina
apsivaisino
apsivaisinti
apsivoge
apsivogti
apsivoke
apsivokia
apsivokti
apsk
apskaiciuota
apskaiciuoti
apskaita
apskaite
apskaito
apskaitos
apskaityti
apskolina
apskolino
apskolinti
apskr
apskriciai
apskriciu
apskritai
apskriti
apskrities
apskritimi
apskritimo
apskritis
apskrityje
apskritys
apskrityse
apsupo
apsupta
apsuptas
apsuptyje
aptarnauja
aptarnavimo
aptarnavo
aptiko
aptikrina
aptikrino
aptikrinti
aptikta
aptiktas
aptikti
aptiktos
aptinkama
aptinkamas
aptinkami
aptinkamos
apvagia
apvaisina
apvaisino
apvaisinti
apvali
apvalios
apvalus
apvoge
apvogti
apvoke
apvokia
apvokti
apybraiza
apybraizos
apygarda
apygardas
apygardoje
apygardos
apygardu
apykaita
apylinke
apylinkei
apylinkeje
apylinkes
apylinkese
apylinkiu
apysaka
apysakos
apytikriai
apytiksliai
apyvarta
apzvalga
apzvalgos
aq
ar
ara
arab
arabai
arabe
arabes
arabia
arabija
arabijos
arabu
aragonieciu
aragono
arameju
arba
arbata
arbatos
arccos
arch
archaeology
archeologai
archeologas
archeologija
archeologijos
archeologine
archeologines
archeologiniai
archeologinis
archeologiniu
archeologinius
archeologu
archit
architecture
architektai
architektas
architekte
architekto
architektu
architektura
architekturiniu
architekturoje
architekturos
archive
archived
archives
archyvai
archyvas
archyve
archyvo
archyvu
archyvuota
arciau
arciausiai
arctan
are
area
arealas
arealo
arena
arenoje
arenos
aresto
arestuotas
argelia
argentina
argentinoje
argentinos
argento
argi
argumentas
aria
ariama
arimu
ariogalos
aris
aristokratu
aristotelio
aristotelis
ark
arka
arkangelo
arkivyskupas
arkivyskupijos
arkivyskupo
arkli
arkliai
arklio
arkliu
arklius
arklys
arkos
arkties
arktis
arm
armenai
armenia
armenija
armenijoje
armenijos
armenu
armija
armijai
armijoje
armijos
armiju
arms
army
arnold
arnoldas
around
arsenal
art
arteja
artejant
arthur
arti
article
articles
artilerija
artilerijos
artima
artimai
artimas
artimi
artimiausia
artimos
artimu
artimuju
artimuosiuose
artist
artistas
artiste
artists
arts
artsaj
arturas
arturo
aruba
arumunu
arunas
arvydas
arxiv
as
asambleja
asamblejos
asaros
asaru
ascension
ashmore
asi
asia
asian
asias
asies
asilas
asirijos
asiru
asis
asistentas
asistentu
ask
asm
asmeni
asmenimis
asmenims
asmenine
asmenines
asmenini
asmeniniai
asmeninio
asmeninis
asmeniniu
asmenis
asmeniskai
asmeniui
asmenos
asmens
asmenu
asmenvardzio
asmenybe
asmenybes
asmenybiu
asmenys
asmuo
asociacija
asociacijos
asociaciju
asp
aspektai
aspektu
aspektus
aspiranturoje
aspx
associated
association
asta
asteraceae
asteroidas
aston
astravo
astriniu
astronomas
astronomija
astronomijos
astronomy
astrus
astunta
astuntajame
astuntasis
astuntojo
astuoni
astuonios
astuonis
astuoniu
astuonmete
asturu
at
ataka
atakavo
atakos
ataku
atakuoti
ataskaita
ateina
ateis
ateiti
ateities
ateitininku
ateitis
ateityje
atejes
atejo
atejus
ateme
atemimo
atenai
atenu
atenuose
atgaivino
atgaivinti
atgal
atgamina
atgamino
atgaminti
atgauti
atgavo
atgavus
atgere
atgeria
atgerti
atgimimas
atgimimo
atgirdejo
atgirdeti
atgirdi
athina
athletic
ati
atidare
atidarymas
atidarymo
atidaryta
atidarytas
atidaryti
atidave
atidengta
atidengtas
atidirba
atidirbo
atidirbti
atiduoda
atiduota
atiduotas
atiduoti
atimti
atiteko
atitikina
atitikino
atitikinti
atitikmuo
atitiko
atitikrina
atitikrino
atitikrinti
atitinka
atitinkama
atitinkamai
atitinkamas
atitinkamos
atitinkamu
atitinkantis
atkarpa
atkarpos
atkeliavo
atkilo
atkilti
atkreipe
atkreipti
atkrintamuju
atkure
atkurimo
atkurta
atkurtas
atkurti
atkurtos
atkurus
atkyla
atlaidai
atlanta
atlantas
atlantic
atlanto
atlas
atlasas
atlaso
atleido
atleistas
atleisti
atletico
atletika
atletikos
atlieka
atliekama
atliekamas
atliekami
atliekamos
atliekant
atlieku
atlikdavo
atlikeja
atlikejai
atlikejais
atlikejas
atlikejo
atlikejos
atlikeju
atlikes
atlikimas
atlikimo
atliko
atlikta
atliktas
atlikti
atliktos
atliktu
atlikus
atlikusi
atmaina
atmaste
atmasto
atmastyti
atmete
atmiega
atmiegojo
atmiegoti
atminimas
atminimo
atminimui
atminti
atminties
atmintis
atmoka
atmokejo
atmoketi
atmosfera
atmosferoje
atmosferos
atnaujinimo
atnaujino
atnaujinta
atnaujintas
atnaujinti
atnesa
atnese
atodanga
atograzu
atokiau
atolas
atolo
atolon
atomas
atomine
atomines
atominis
atomo
atomu
atostogu
atp
atpazinti
atr
atradima
atradimas
atradimo
atrado
atrama
atramos
atranka
atrankoje
atrankos
atrase
atraso
atrasta
atrastas
atrasti
atrasyti
atributas
atributu
atrode
atrodo
atrodyti
ats
atsaka
atsakas
atsake
atsakinga
atsakingas
atsakingasis
atsakingi
atsako
atsakomybe
atsakomybes
atsakos
atsakyma
atsakymas
atsakyti
atsapnavo
atsapnuoja
atsapnuoti
atsarga
atsargas
atsargos
atsargu
atsauke
atsaukia
atsauktas
atsaukti
atsibodo
atsibosta
atsibosti
atsidirba
atsidirbo
atsidirbti
atsidure
atsiduria
atsigalvoja
atsigalvojo
atsigalvoti
atsigamina
atsigamino
atsigaminti
atsigere
atsigeria
atsigerti
atsigincija
atsigincijo
atsigincyti
atsigirdejo
atsigirdeti
atsigirdi
atsikele
atsikratyti
atsiliepe
atsiliepimu
atsimaste
atsimasto
atsimastyti
atsimiega
atsimiegojo
atsimiegoti
atsiminimai
atsiminimu
atsiminti
atsimoka
atsimokejo
atsimoketi
atsirades
atsiradima
atsiradimas
atsiradimo
atsirado
atsiradus
atsiradusi
atsiranda
atsirase
atsiraso
atsirasti
atsirasyti
atsisake
atsisakius
atsisako
atsisakoja
atsisakyta
atsisakyti
atsisapnavo
atsisapnuoja
atsisapnuoti
atsisiusti
atsiskaite
atsiskaito
atsiskaitymo
atsiskaityti
atsiskolina
atsiskolino
atsiskolinti
atsiskyre
atsispindi
atsistatydino
atsitikina
atsitikino
atsitikinti
atsitiko
atsitikrina
atsitikrino
atsitikrinti
atsitiktinai
atsitrauke
atsitraukti
atsivagia
atsivaisina
atsivaisino
atsivaisinti
atsiveria
atsivoge
atsivogti
atsivoke
atsivokia
atsivokti
atsizvelgiant
atskaite
atskaito
atskaityti
atskira
atskirai
atskirais
atskiras
atskiri
atskiria
atskiro
atskiroje
atskiros
atskirose
atskirta
atskirtas
atskirti
atskirtos
atskiru
atskirus
atskleide
atskleidzia
atskleidziamos
atskleisti
atskolina
atskolino
atskolinti
atspalvio
atspalviu
atsparus
atspindi
atstate
atstatymo
atstatyta
atstatytas
atstatyti
atstovai
atstovais
atstovams
atstovas
atstovaudamas
atstovauja
atstovaujamoji
atstovaujanti
atstovaus
atstovauti
atstovavo
atstove
atstovo
atstovu
atstovus
atstovybe
atstovybes
atstuma
atstumas
atstumo
atstumu
attack
atvagia
atvaisina
atvaisino
atvaisinti
atvaizdas
atvaizdavo
atvaizdu
atvaizduoja
atvaizduoti
atvejai
atvejais
atvejis
atveju
atvejus
atvere
atvira
atvirai
atviras
atvirksciai
atvirkstinis
atviro
atvirojo
atviros
atvirose
atviru
atvoge
atvogti
atvoke
atvokia
atvokti
atvyke
atvykes
atvyko
atvyksta
atvykti
atvykus
atzvilgiu
au
audi
audimo
audiniai
audinio
audiniu
audinius
audinys
audio
audito
auditorija
audra
audrius
audrone
audros
auf
auga
augalai
augalais
augalams
augalas
augalija
augalijos
augaliniu
augalo
augalu
augalus
augancios
auganciu
augant
auganti
augantis
augantys
augima
augimas
augimo
augina
auginama
auginamas
auginami
auginamos
auginimas
auginimo
auginimu
augino
auginti
augmenija
augo
augti
august
augusta
augustas
augustavo
augustinas
augustino
augusto
auka
aukas
auklejimo
aukoja
aukojo
aukoms
aukos
aukoti
auksa
auksas
auksciau
auksciausi
auksciausia
auksciausiaja
auksciausias
auksciausiasis
auksciausio
auksciausioje
auksciausioji
auksciausiojo
auksciausios
auksciausiosios
auksciausiu
aukscio
auksine
auksines
auksini
auksiniai
auksinio
auksinis
auksiniu
aukso
auksta
aukstadvario
aukstai
aukstaiciu
aukstaitijos
aukstaja
aukstas
aukste
aukstesne
aukstesnes
aukstesni
aukstesnio
aukstesniojoje
aukstesniosios
aukstesnis
aukstesniu
auksti
aukstikalniu
aukstis
auksto
aukstoji
aukstojo
aukstojoje
aukstoki
aukstos
aukstosios
aukstosiose
aukstu
aukstuju
aukstuma
aukstumas
aukstumoje
aukstumos
aukstumose
aukstumu
aukstuosius
aukstupio
aukstupyje
aukstus
aukstutine
aukstutines
aukstutinio
aukstutiniu
aukstyje
aukstyn
auksu
auku
aura
aurelija
aurelijus
aureus
aurimas
aurora
aus
ausis
ausra
ausrine
ausros
australia
australian
australija
australijoje
australijos
australu
austria
austrija
austrijoje
austrijos
austru
ausu
ausys
aut
auto
autobusai
autobusas
autobusu
autokeliu
automagistrale
automatine
automatinis
automatiskai
automatizavo
automatizuoja
automatizuota
automatizuotas
automatizuoti
automobili
automobiliai
automobiliais
automobiliams
automobilio
automobilis
automobiliu
automobilius
autonomija
autonomijos
autonomine
autonomines
autore
autoriai
autoriaus
autoriu
autorius
autosport
av
ava
avalynes
avarija
avarijos
aviacija
aviacijos
aviation
avis
aviu
aviv
avys
aw
award
awards
away
ax
ay
az
azerbaidzanas
azerbaidzane
azerbaidzanieciu
azerbaidzano
azerbaiyan
azija
azijoje
azijos
azotas
azoto
azuolai
azuolas
azuolo
azuolu
b
b0
b1
b2
b3
b4
b5
b6
b7
b8
b9
ba
babilono
babtu
baby
back
bad
badas
badauja
badauti
badavo
bado
bafta
bagdonas
bagrationovsko
baha
bahaju
bahamas
bahamos
bahia
bahreinas
bahreino
baidariu
baige
baiges
baigesi
baigia
baigiant
baigiantis
baigiasi
baigimo
baigta
baigtas
baigti
baigtis
baigus
baigusi
baime
baimes
baisogalos
baisus
bajo
bajorai
bajoras
bajoru
bajos
bakalauro
baker
bakterijos
bakteriju
baku
bal
bala
balade
balandi
balandis
balandzio
balansavo
balansuoja
balansuoti
balbieriskio
balciunas
baldai
baldu
baletas
baleto
balio
balkanu
balkanuose
ball
balninku
balo
balsa
balsai
balsas
balsavimo
balsavimu
balsavo
balsiai
balsio
balsis
balsiu
balso
balsta
balsti
balstoges
balsu
balsuoti
balsus
balsys
balta
baltai
baltais
baltarusiai
baltarusija
baltarusijoje
baltarusijos
baltarusiu
baltas
baltasis
balte
balti
baltic
baltica
baltieji
baltija
baltijos
baltischen
balto
baltoji
baltojo
baltomis
baltos
baltosios
baltrusaitis
baltu
baltuju
baltus
baltymai
baltymu
baltyti
balu
balys
balzakas
ban
bananai
band
banda
bandant
bande
bando
bandoma
bandymai
bandymas
bandymu
bandymus
bandyta
bandyti
bang
banga
bangas
banginiu
banglades
bangladesas
bangos
bangu
banionis
bank
banka
bankai
bankas
banke
bankgorodov
bankininkas
bankininkystes
banknotai
banko
bankroto
bankrutavo
bankrutuoja
bankrutuoti
banku
bantu
baptistu
bar
barai
baranauskas
baranausko
baras
barbados
barbadosas
barbara
barbora
barboros
barbuda
barbus
barcelona
bare
barein
baritonas
baro
barokine
baroko
baronas
barry
barselona
barselonoje
barselonos
bartolome
barzda
basanaviciaus
basanavicius
base
based
baseina
baseinas
baseine
baseino
baseinu
baseinui
basel
basic
basketball
basketnews
baskiru
basku
bat
batakiu
batalionas
bataliono
baterija
baterijos
batoro
battle
batu
baublys
bauda
baudiniu
baudos
baudziamasis
baudziamoji
baudziamojo
baudziamosios
baudziava
baudziavos
bausme
bausmes
bavarija
bavarijos
bay
bayern
baze
bazeje
bazes
bazilika
bazilikoje
bazilikos
baziu
baznycia
baznyciai
baznycias
baznycioje
baznycios
baznyciose
baznyciu
baznytine
baznytines
bb
bbc
bbl
bc
bd
bdn
bdv
be
beat
beatles
beautiful
beda
bedugne
been
before
bega
begant
begikas
begimas
begime
begimo
begin
begiu
bego
begti
behind
bei
beijing
beisbolo
beje
beketas
beketeriai
bela
belaisviu
belarus
belgica
belgija
belgijoje
belgijos
belgrade
belgrado
belgu
belice
believe
belizas
belize
bell
ben
benas
bend
bendr
bendra
bendraautoris
bendradarbiauja
bendradarbiaujant
bendradarbiauti
bendradarbiavima
bendradarbiavimas
bendradarbiavimo
bendradarbiavo
bendradarbis
bendrai
bendraja
bendras
bendrasis
bendrauti
bendravimo
bendravo
bendri
bendrija
bendrijos
bendriju
bendrine
bendrines
bendro
bendroje
bendroji
bendrojo
bendros
bendrosios
bendrove
bendrovei
bendroveje
bendroves
bendroviu
bendru
bendruju
bendruomene
bendruomenei
bendruomeneje
bendruomenes
bendruomeniu
bendrus
bene
benediktas
benedikto
benfica
bengalijos
bengalu
benin
beninas
benino
benjamin
benjaminas
bent
benz
berberu
berkeley
berlin
berlyna
berlynas
berlyne
berlyno
bermudas
bernard
bernardas
bernardinai
bernardinu
bernardo
bernikle
berniukai
berniukas
berniuku
berno
berzas
berzu
best
bet
beta
betono
between
betygalos
bev
bevardi
beveik
bevolkerung
beyonce
beyond
bezdzione
bezdzioniu
bf
bg
bh
bi
bia
bialos
biatlono
biau
białystok
bibcode
biblija
biblijoje
biblijos
bibliografija
biblioteka
bibliotekai
bibliotekoje
bibliotekos
biblioteku
biciu
bielorrusia
bielsko
big
bijo
bijojo
bilbao
bilietu
bill
billboard
billy
bin
bio
biochemikas
biodiversity
biograficzny
biografija
biografijos
biografinis
biography
biologas
biologija
biologijos
biologine
biologines
biology
biomedicinos
biosferos
bir
bird
birds
birmania
birmingham
birstono
birute
birutes
birza
birzai
birzeli
birzelio
birzelis
birziska
birzoje
birzos
birzu
birzuose
bis
bisau
bite
bites
bitininkas
bitu
biudzeta
biudzetas
biudzeto
biuras
biure
biuro
biustas
bizantija
bizantijos
bj
bk
bl
black
blaivybes
blaziene
blefavo
blefuoja
blefuoti
blog
bloga
blogai
blogas
blogi
blogio
blogis
blogu
blokas
blokavo
bloko
blokuoja
blokuoti
blood
bloomberg
blrs
blue
blues
bm
bmw
bn
bo
board
bob
boba
body
boeing
bogdanas
bohemijos
bokso
boksta
bokstai
bokstas
bokste
bokstelis
boksteliu
boksto
bokstu
boleslovas
bolivia
bolivija
bolivijoje
bolivijos
bolonijos
bolseviku
bomba
bombos
bombu
bon
bonapartas
bondo
bono
bonos
book
books
boom
boras
bordo
boris
borisas
boriso
born
borneo
borussia
bosas
bosine
bosistas
bosnia
bosnija
bosnijoje
bosnijos
bosniu
boso
boston
bostonas
bostone
bostono
botanika
botanikas
botanikos
botaninis
botsuana
botsvana
bowie
box
boy
boys
bp
bq
br
brandenburgo
brandos
branduoli
branduolines
branduolinio
branduoliniu
branduolio
branduoliu
branduolys
brango
brangsta
brangti
brangus
brasil
bratislava
braunas
bravo
brazauskas
brazilija
brazilijoje
brazilijos
brazilu
breslaujos
bresto
bretonu
brian
bridge
briedis
brigada
brigados
brill
brit
britai
britain
britams
britanicas
britanico
britanija
britanijoje
britanijos
britannica
britas
british
britney
britu
briuselio
briuselyje
brno
broadcasting
broli
broliai
broliais
brolija
brolijos
brolio
brolis
broliu
broliui
brolius
brone
bronislovas
bronius
bronza
bronzos
bros
brothers
brown
bruce
brunei
brunejus
bruno
bruozai
bruozas
bruozu
bruozus
bruxelles
bs
bt
bts
bu
bubiu
buciau
buda
budai
budais
budama
budamas
budami
budapest
budapeste
budapesto
budas
budavo
budinga
budingas
budingi
budingos
budingu
budinys
budistu
budizmas
budizmo
budo
budos
budrys
budu
budus
budvardis
budvardziai
budvardzio
buenos
bugnai
bugnininkas
bugo
buick
building
buities
buivydziu
buk
bukle
bukles
bulg
bulgaria
bulgarija
bulgarijoje
bulgarijos
bulgaru
bull
bulve
bulves
bulviu
buna
bunda
bundesliga
bureau
burelis
burgundijos
buri
buriai
buriavimo
burio
buriu
buriui
burius
burkina
burna
burnos
burtai
burtu
burundi
burundis
burys
bus
busena
busenoje
busenos
busima
busimas
busimasis
busimo
busimu
business
bustas
busti
bustine
bustines
busto
bustu
but
buta
butan
butanas
butano
butas
butasis
bute
butent
buti
buties
butina
butinai
butinas
butinybe
butkevicius
butkus
butojo
butrimoniu
butu
butybe
butybes
butybiu
buv
buvau
buve
buveine
buveines
buveiniu
buves
buvimas
buvimo
buvo
buvus
buvusi
buvusia
buvusiame
buvusias
buvusio
buvusioje
buvusios
buvusiu
buvusius
bv
bvp
bw
bx
by
byla
bylas
byloja
byloje
bylos
bylu
bz
c
c0
c1
c2
c3
c4
c5
c6
c7
c8
c9
ca
cabo
cadas
cadillac
cado
caicos
caikovskis
caiman
calcio
caledonia
california
call
camboya
cambridge
cameron
camerun
camikuru
campbell
can
canada
canadian
cancer
canis
capital
car
caras
carex
caribe
carines
carl
carlo
carlos
carlzas
caro
cartier
cartoriskis
casa
case
cases
cat
catalogue
catar
catherine
catholic
cb
cbs
cc
cd
cdot
ce
cecenu
cechovas
cek
cekija
cekijoje
cekijos
cekoslovakija
cekoslovakijoje
cekoslovakijos
ceku
cell
celtic
celtics
cemento
cempionai
cempionais
cempionas
cempionata
cempionatai
cempionatas
cempionate
cempionato
cempionatu
cempionatuose
cempionatus
cempione
cempiones
cempiono
cempionu
census
center
centra
centrai
central
centralinis
centras
centre
centrine
centrineje
centrines
centrini
centriniame
centrinio
centrinis
centriniu
centro
centroafricana
centru
centruose
centu
century
ceremonija
ceremonijoje
ceremonijos
cerkve
cerkves
cern
cernigovo
cernobylio
ceslovas
cezario
cezaris
cf
cg
cgi
ch
cha
chad
chakasai
chakasija
challenge
champions
championship
chanas
chanatas
chanato
change
channel
chano
chapter
charakterio
charakteristikos
charkovo
charles
charlie
charlotte
chart
charts
che
chelsea
chemical
chemija
chemijos
chemikas
chemine
chemines
cheminiai
cheminis
cheminiu
chequia
cher
chess
chevrolet
chi
chicago
child
children
chile
chili
china
chinese
chipre
chirurgas
chirurgijos
chodkevicius
chora
chorai
chorams
choras
chore
choreografe
chormeisteris
choro
choru
chorui
chorus
chorvede
chorvedys
chorvedziai
chose
chris
christian
christina
christmas
christopher
chromosomu
chronicle
chronologija
chrysler
chu
chuanas
chuano
church
ci
cia
ciai
ciais
ciam
cias
ciau
ciceronas
cid
cigonu
cikaga
cikagoje
cikagos
cikla
ciklas
ciklo
cile
cileje
ciles
cilindro
cilindru
cin
cinema
cinko
cio
cioj
ciom
cioms
cios
cirko
citata
citavimo
cities
city
ciu
ciudad
ciukciu
ciuo
ciuos
ciuozimo
ciuricho
ciurlionio
ciurlionis
cius
ciuvasu
civil
civiline
civilines
civilinio
civilinis
civiliniu
civiliu
civilizacija
civilizacijos
civilizaciju
civilization
cj
ck
cl
clark
class
classic
classification
claude
clio
clipperton
club
clube
cm
cn
cnn
co
coast
coauthors
cocos
code
cohen
cola
cold
colin
coliu
collection
college
collins
colombia
columbia
com
come
comics
committee
common
community
comoras
company
comparative
complete
computer
con
conference
conflict
congo
congress
conservation
contemporary
content
control
cook
cooper
copa
coral
corea
corporation
corpus
corvus
cos
costa
could
council
countries
country
county
coupe
covid
cp
cpk
cq
cr
craig
crash
crazy
crisis
cristobal
croacia
cross
crow
cruz
cry
cs
cska
ct
cu
cuba
cukranendres
cukraus
cukrus
cultural
culture
cup
curazao
current
cv
cw
cx
cy
cz
czv
d
d0
d1
d2
d3
d4
d5
d6
d7
d8
d9
da
dab
dabar
dabarties
dabartine
dabartineje
dabartines
dabartini
dabartiniai
dabartiniame
dabartinio
dabartinis
dabartiniu
dabartis
dai
daikta
daiktai
daiktas
daiktavardis
daiktavardziai
daiktavardzio
daiktavardziu
daikto
daiktu
daiktus
dail
daile
dailes
dailininkai
dailininkas
dailininke
dailininko
dailininku
dailiojo
daily
daina
dainai
dainas
dainava
dainavimo
dainavo
dainavos
dainininkas
dainininke
dainininkes
dainininko
dainininku
dainius
dainoje
dainomis
dainos
dainose
dainu
dainuoja
dainuoti
daiva
dakaro
daktaras
daktare
daktaro
daktaru
dal
dalai
dalele
daleles
daleliu
dali
dalia
daliai
dalies
dalijasi
dalimi
dalimis
dalinai
daliniai
dalinio
daliniu
daliniuose
dalinius
dalinys
dalis
daliu
dalius
dalyje
dalykai
dalykas
dalyku
dalykus
dalys
dalyse
dalyvaudavo
dalyvauja
dalyvaujant
dalyvaus
dalyvauti
dalyvaves
dalyvavima
dalyvavimas
dalyvavimo
dalyvavo
dalyve
dalyviai
dalyviams
dalyvio
dalyvis
dalyviu
dalyvius
dama
dambrauskas
dame
dan
dana
dance
dane
danga
dangaus
dangos
dangu
danguje
dangumi
dangun
danguole
dangus
daniel
danielis
danielius
danija
danijoje
danijos
dantis
dantu
dantys
danu
danute
dar
darant
darba
darbai
darbais
darbams
darbas
darbe
darbenu
darbininkai
darbininkas
darbininku
darbo
darbu
darbui
darbuose
darbuotoja
darbuotojai
darbuotojams
darbuotojas
darbuotoju
darbuotojus
darbus
dare
dariaus
dariniai
dariniu
darinys
darius
dark
darkiemio
daro
daroma
daromas
daromi
darosi
darykla
daryti
darzelio
darzelis
darzoves
darzoviu
das
data
database
date
datos
datuojamas
datuojami
daug
daugailiu
daugeli
daugelio
daugelis
daugeliskio
daugeliu
daugeliui
daugelyje
daugiafunkcis
daugiametis
daugiau
daugiausia
daugiausiai
dauginasi
dauginimosi
daugirdas
daugiskaita
daugiskaitos
daugkartine
daugkartinis
daugpilio
daugpilis
daugu
dauguma
daugumai
daugumoje
daugumos
dauguvos
daugybe
daugybes
daukanto
daumantas
dave
david
davidas
davis
day
days
dazai
dazais
dazna
daznai
daznas
dazni
dazniau
dazniausia
dazniausiai
dazninis
daznio
daznis
dazniu
dazu
db
dc
dd
de
dead
deal
dean
death
debesis
debesu
debesys
debitas
debiutas
debiutavo
debiutinese
debiutini
debiutinio
debiutinis
debiuto
december
deda
dedama
dedamas
dedami
dede
dedes
deep
default
dega
degalu
dege
degimo
degtines
deguciu
deguonies
deguonis
dei
deive
deives
deividas
deja
dejo
deka
dekanas
dekanatas
dekanato
dekanatui
deklaracija
dekoratyvines
dekoratyvinis
dekoratyviniu
dekretu
del
delegacija
delegacijos
delfi
dell
della
delta
delto
deltoje
deltos
deltuvos
dem
deme
dememis
demes
demesi
demesio
demesys
demiu
demo
democratica
demografija
demokratai
demokratija
demokratijos
demokratine
demokratines
demokratu
den
denge
dengia
dengta
dengtas
dengti
denis
dennis
departamenta
departamentai
departamentais
departamentas
departamente
departamento
departamentu
departamentui
departement
department
depeche
depresija
depresijos
deputatas
deputatu
der
dera
derina
derino
derinti
derliaus
derliu
derybas
derybos
derybu
des
desert
design
desimt
desimtasis
desimties
desimtis
desimtmeciais
desimtmecio
desimtmeciu
desimtmeciuose
desimtmecius
desimtmeti
desimtmetyje
desimtuka
desimtys
desine
desineje
desines
desiniajame
desinieji
desiniojo
desinysis
desni
desniai
desnis
dest
deste
desto
destoma
destyti
destytoja
destytojas
destytoju
det
details
detales
detaliu
deti
deutsch
deutsche
deutschen
deutschland
devejo
development
deveti
devi
devintajame
devintasis
devintojo
devyni
devynios
devynis
devyniu
devynmete
deze
dezember
dezes
dezute
df
dg
dgs
dh
dhekelia
di
dia
dialektu
diana
dictionary
did
dideja
didejant
didejo
didele
didelemis
dideles
dideli
dideliais
didelio
didelis
dideliu
didelius
didesne
didesnes
didesni
didesnio
didesnis
didesniu
didesnius
didieji
didiji
didikai
didikas
didiku
didina
didinti
didis
didmeistris
didvyrio
didvyris
didvyriu
didysis
didziaja
didziajai
didziajam
didziajame
didziausi
didziausia
didziausias
didziausio
didziausios
didziausiu
didzioji
didziojo
didziojoje
didziosios
didziuju
didziule
didziules
didziuli
didziulio
didziulis
didziuliu
didziuoju
die
diego
diemedis
diena
dienai
dienas
dienine
dienomis
dienoms
dienorastis
dienos
dienrascio
dienrastis
dienu
dies
dietrich
dieva
dievai
dievams
dievas
dieve
dievo
dievu
dievui
dievus
dievybe
dievybes
dievybiu
digital
diktatura
din
dinamarca
dinamika
dinamo
dinastija
dinastijai
dinastijos
dinastiju
dingo
dingsta
dingti
diploma
diplomas
diplomatas
diplomatija
diplomatijos
diplomatiniai
diplomatiniu
diplomatinius
dipterocarpus
dir
dirb
dirba
dirbama
dirbami
dirbamos
dirbant
dirbanti
dirbantis
dirbdamas
dirbes
dirbiniai
dirbiniu
dirbo
dirbti
dirbtinai
dirbtine
dirbtines
dirbtinio
dirbtinis
dirbtiniu
dirbtuves
dirbtuvese
dirbtuviu
direction
direkcija
direktore
direktoriaus
direktoriu
direktoriumi
direktorius
dirigavima
dirigavimo
dirigavo
dirigentas
dirigente
dirva
dirvonuoja
dirvos
dirvozemiai
dirvozemio
dirvozemyje
dirziu
dis
disciplina
disciplinu
discogs
discovery
disease
disertacija
diska
diskas
disko
diskografija
disku
diskusijos
diskusiju
disney
dispersas
displaystyle
distancija
distribution
division
divizija
divizijos
diviziona
divizionas
divizione
diviziono
divizionuose
dizaina
dizainas
dizainere
dizaineris
dizaino
dj
dk
dkt
dl
dlv
dm
dmitrijus
dn
dnia
dniepro
dnr
do
doc
docentas
docente
dodge
dog
doi
dokpaieska
doktoranturos
doktrina
dokumenta
dokumentai
dokumentas
dokumente
dokumentinis
dokumentiniu
dokumento
dokumentu
dokumentuose
dokumentus
dol
doleris
doleriu
dolls
dom
domas
domejosi
domenu
domestic
dometis
dominavo
domingo
dominica
dominicana
dominika
dominikonu
dominikos
domino
dominuoja
dominykas
dominyko
domisi
don
donald
donatas
donatello
donecko
donelaicio
donna
dono
dopingo
dos
dotnuvos
double
douglas
dovana
dovanoja
dovanojo
dovanoti
dovydas
dovydo
down
doze
dp
dq
dr
drabuziai
drabuziais
drabuziu
drabuzius
dragon
drakono
drama
dramaturgas
dramblio
dramblys
dramoje
dramos
drasa
drasiai
drasos
drasus
draude
draudima
draudimas
draudimo
draudzia
draudziama
draudziamos
drauga
draugai
draugais
draugas
drauge
draugija
draugijai
draugijoje
draugijos
draugiju
draugiskose
draugo
draugu
draugui
draugus
draugyste
draugystes
drausti
draustini
draustiniai
draustinio
draustinis
draustiniu
draustinyje
dream
dreams
drebejimas
drebejimo
dregme
dregmes
dregnas
dregnose
drekinimui
dri
driekesi
driekiasi
dris
driso
drista
dristi
drive
drobe
drobes
drohicino
drugiu
drugys
druska
druskininkai
druskininku
druskininkuose
druskos
drusku
ds
dt
du
dubens
dubingiu
dubleriu
dublin
dublino
dubysos
due
duetas
dugna
dugnas
dugne
dugno
dujas
dujos
dujotiekis
duju
dukart
dukra
dukros
duksto
dukte
dukteri
dukterine
dukteris
dukters
dukteru
dukterys
dulkes
dulkiu
dumai
dumos
dumu
dune
dunojaus
duo
duobe
duobes
duoda
duodamas
duok
duokle
duom
duomenimis
duomenis
duomenu
duomenys
duona
duonos
duota
duotas
duoti
dur
during
duris
durpes
durpiu
duru
durys
dusetu
dutch
dv
dvara
dvarai
dvaras
dvare
dvarininkas
dvarininku
dvaro
dvaru
dvarui
dvaruose
dvarus
dvarviete
dvasia
dvasine
dvasines
dvasininkai
dvasininkas
dvasininku
dvasinio
dvasinis
dvasiniu
dvasios
dvasiu
dvd
dveji
dvejoja
dvejojo
dvejoti
dveju
dvejus
dvi
dvidesimt
dviejose
dvieju
dviejuose
dviem
dviguba
dvigubai
dvigubas
dvigubo
dvikova
dviraciu
dvylika
dvylikos
dvyniai
dvyniu
dw
dx
dy
dydi
dydis
dydzio
dydziu
dykuma
dykumoje
dykumos
dykumu
dz
dzeimsas
dzeimso
dzekas
dzeusas
dzeuso
dziaugsmas
dziaugsmo
dziazo
dzibutis
dziudo
dziugas
dziungles
dziungliu
dziuzepe
dzo
dzonas
dzono
dzordzas
dzordzo
dzou
dzovanis
dzukijos
dzuku
e
e0
e1
e2
e3
e4
e5
e6
e7
e8
e9
ea
eagle
early
earth
east
eastern
eazy
eb
ec
ecb
echo
economic
economy
ecuador
ecuatorial
ed
eda
eddie
edgaras
edge
edita
edited
edition
editions
edmundas
edo
eds
edu
eduard
eduardas
eduardo
education
edukologijos
edvardas
edvardo
edvinas
edward
ee
eesti
ef
efekta
efektai
efektas
efektu
efektyviai
efektyvuma
efektyvumas
efektyvus
effect
eg
egejo
egidijus
egipta
egiptas
egipte
egiptieciai
egiptieciu
egipto
egle
egles
egliu
eglynai
egypt
egz
egzaminu
egzaminus
egzemplioriu
egzistaves
egzistavima
egzistavimo
egzistavo
egzistavusi
egzistuoja
egzistuoti
egzoplaneta
eh
ei
eidamas
eidavo
eiga
eigoje
eigos
eik
eile
eilemis
eilerasciai
eilerasciu
eilerascius
eiles
eilinis
eiliu
eiluciu
eilute
eilutes
ein
eina
einant
einanti
einantis
eine
einsteinas
einu
eisiskiu
eismas
eismo
eiti
ej
ejes
ejima
ejimas
ejimo
ejimu
ejo
ek
ekipa
ekipai
ekipoje
ekipos
ekipu
ekologijos
ekonomijos
ekonomika
ekonomikai
ekonomikoje
ekonomikos
ekonomine
ekonomines
ekonomini
ekonominiai
ekonominio
ekonominis
ekonominiu
ekonomiskai
ekonomistas
ekonomiste
ekranas
ekrane
ekrano
ekspansija
ekspedicija
ekspedicijos
eksperimentines
ekspertai
ekspertas
ekspertu
eksploatuoti
eksponatai
eksponatu
eksponavo
eksponuojami
eksponuoti
eksportas
eksporto
ekspozicija
ekspozicijos
ekspresas
ekvadoras
ekvadore
ekvadoro
el
elder
electric
electronic
elektra
elektrenu
elektrine
elektrines
elektrinio
elektrinis
elektriniu
elektronika
elektronikos
elektronine
elektronines
elektroninio
elektroninis
elektroniniu
elektronu
elektros
elektrotechnikos
elementa
elementai
elementais
elementas
elemento
elementu
elementus
elena
elenos
eleonora
elge
elgesi
elgesio
elgesys
elgetauja
elgetauti
elgetavo
elgia
elgiasi
elgti
elgtis
elito
elizabeth
elniai
elnias
elniu
elton
elvyra
elzbieta
elzbietos
em
emanuelis
emblema
eme
emesi
emigrantu
emigravo
emilija
emilis
emimo
emiratos
emma
emmy
empire
emuliavo
emuliuoja
emuliuoti
emus
emyratai
en
enciklopedija
enciklopedijoje
enciklopedijos
enciklopediju
enciklopedinis
encyclopaedia
encyclopedia
encyclopædia
end
energetikas
energetikos
energija
energijos
energy
eng
engineering
england
english
entertainment
environment
environmental
eo
ep
epic
epizodas
epocha
epochoje
epochos
eq
er
era
erdve
erdveje
erdves
ereliai
erelio
erelis
eria
eric
erich
erika
erikas
eritrea
eritreja
eritrejos
eriu
ernest
ernestas
ernst
ernstas
eros
erozijos
ertme
ertmes
erzina
erzino
erzinti
erzvilko
es
esa
esama
esamasis
esame
esamojo
esancia
esanciame
esancias
esancio
esancioje
esancios
esanciose
esanciu
esanciuose
esancius
esant
esanti
esantis
esantys
esas
esch
ese
eseistas
eseriai
eserzuviu
esi
eskadrile
eskadriles
eslovaquia
eslovenia
esme
esmes
esminis
espana
esperanto
espn
est
estadio
estados
estafeteje
estafetes
este
estetika
estetikos
esti
estija
estijoje
estijos
estonia
estrados
estu
esu
et
etalono
etapa
etapai
etapas
etape
etapo
etapu
etapus
etc
eteryje
ethnic
ethnologue
etika
etikos
etimologija
etimologinis
etiopia
etiopija
etiopijoje
etiopijos
etmonas
etmono
etnine
etnines
etniniu
etnografas
etnografijos
etrusku
eu
eugene
eugenija
eugenijus
eur
eurazijoje
eurazijos
euro
eurolygos
europa
europaea
europe
european
europieciai
europieciu
europines
europinis
europoje
europos
eurovision
eurovizija
eurovizijoje
eurovizijos
euru
ev
eva
evaldas
evangelija
evangelikai
evangeliku
ever
everton
evidence
evil
evoliucija
evoliucijos
evolution
ew
ex
exoplanet
express
ey
eye
eyed
eyes
ez
ezera
ezerai
ezeras
ezere
ezerelio
ezerelis
ezerevardis
ezero
ezeru
ezeruose
ezerus
ezys
f
f0
f1
f2
f3
f4
f5
f6
f7
f8
f9
fa
fabrika
fabrikas
fabrike
fabriko
face
facebook
factbook
facto
facts
failu
fair
faktai
faktas
faktiskai
faktoriu
faktorius
faktu
fakulteta
fakultetas
fakultete
fakulteto
fakultetu
falco
falcon
fall
fame
family
fantastika
fantastikos
fantasy
fanu
far
faraonas
faraono
faraonu
fareru
farmacijos
fasadas
fasade
fasado
fasadu
fasas
fashion
faso
fatva
fau
fauna
faustas
faze
fazes
fb
fbk
fc
fd
fe
feat
february
federacija
federacijos
federacine
federaline
federalines
federalinis
federation
federico
feliksas
felipe
felix
fenerbahce
ferdinand
ferdinandas
ferdinando
fergie
ferma
fernando
feroe
ferrari
festival
festivali
festivaliai
festivalio
festivalis
festivaliu
festivaliuose
festivalyje
ff
fg
fh
fi
fia
fiat
fiba
fide
fidzio
field
fifa
figura
figuras
figuromis
figuros
figuru
filadelfijoje
file
files
filharmonijos
filialai
filialas
filialo
filija
filipas
filipinai
filipinas
filipinu
filipinuose
film
filma
filmai
filmams
filmas
filmavimo
filmavosi
filme
filmo
films
filmu
filmui
filmuose
filmus
filologas
filologija
filologijos
filomena
filosofas
filosofija
filosofijoje
filosofijos
filosofine
filosofines
filosofo
filosofu
final
finala
finalai
finalas
finale
finalo
financial
finansavimo
finansavo
finansine
finansines
finansiniu
finansiskai
finansu
finikieciu
finisavo
finland
finlandia
finougru
finu
fiodoras
fire
firma
firmos
first
fischer
fish
five
fizika
fizikas
fizikoje
fizikos
fizine
fizines
fiziniai
fizinio
fizinis
fiziniu
fiziologijos
fiziskai
fj
fk
fl
flamandu
flash
flashscore
fleita
flight
flora
florencija
florencijoje
florencijos
florida
floridoje
floridos
flotile
floyd
fly
fm
fn
fo
foje
folk
folkloro
fon
fonda
fondai
fondas
fondo
fondu
fone
fonetine
fontanas
food
foot
football
for
forbes
force
forces
ford
foreign
forest
forever
forma
formaliai
formas
formatas
formato
formatu
formavimosi
formavosi
former
formomis
formos
formu
formula
formule
formuleje
formules
formuoja
formuojasi
formuoti
formuotis
fort
forta
fortas
forte
fortepijono
fortepijonu
fortepijonui
forto
fortuna
forum
forumas
fosforo
fosiliju
foto
fotografas
fotografija
fotografijos
fotografiju
fotografu
fotomenininku
found
foundation
four
fox
fp
fq
fr
fra
frac
fragmentai
fragmentas
fragmentu
frakcija
frakcijai
frakcijos
francas
france
francesa
francesco
francia
francis
francisco
franco
francois
frank
frankas
frankfurt
frankfurto
franko
franku
fransisko
fransua
franz
fraze
fred
frederick
frederikas
free
freedom
french
freska
freskos
fresku
friedrich
friends
fritz
friulu
from
fronta
frontas
fronte
fronto
frontui
frusciante
frydlando
frydrichas
frydricho
fryzu
fs
ft
fu
full
funkcija
funkcijas
funkcijos
funkciju
fur
furtado
futbol
futbola
futbolas
futbolininkai
futbolininkas
futbolininko
futbolininku
futbolinis
futbolo
futsal
futuna
future
fv
fw
fx
fy
fz
g
g0
g1
g2
g3
g4
g5
g6
g7
g8
g9
ga
gabenti
gabija
gabon
gabonas
gabriel
gabriele
gabrielius
gaga
gagejo
gageti
gaidys
gaila
gailestingumo
gailiusis
gaires
gaisra
gaisras
gaisro
gaisru
gaius
gajana
gajus
gal
gala
galai
galais
galaktika
galaktikos
galaktiku
galas
galatasaray
galbut
gale
galedavo
galejes
galejo
galerija
galerijoje
galerijos
gales
galeti
galetu
gali
galia
galias
galiausiai
galicijos
galima
galimai
galimas
galime
galimi
galimo
galimos
galimu
galimybe
galimybes
galimybiu
galine
galines
galinga
galingas
galingu
galinis
galinti
galintis
galioja
galiojo
galios
galioti
galisu
galite
galiu
gallery
galo
galu
galune
galunes
galuniu
galuose
galutinai
galutine
galutineje
galutini
galutinis
galva
galvas
galvijai
galviju
galvoja
galvoje
galvojo
galvos
galvoti
galvu
galvute
galybe
gama
gambia
gambija
gambitas
game
games
gamina
gaminama
gaminamas
gaminami
gaminamos
gaminant
gaminiai
gaminimo
gaminiu
gamino
gamintas
gaminti
gamintoja
gamintojai
gamintojas
gamintojo
gamintoju
gamma
gamos
gamta
gamtine
gamtines
gamtininkas
gamtinis
gamtiniu
gamtoje
gamtos
gamyba
gamybai
gamybinio
gamyboje
gamybos
gamykla
gamykloje
gamyklos
gamyklu
gan
gana
gandras
ganetinai
ganos
ganyklos
garantavo
garantuoja
garantuoti
garbe
garbei
garbes
garcia
garden
gardino
gargzdai
gargzdu
garliavos
garnys
garo
garsa
garsai
garsas
garsaus
garseja
garsejo
garsesni
garsi
garsiai
garsiausias
garsiausiu
garsios
garsiu
garso
garsu
garsus
garu
gary
gas
gastroliavo
gatve
gatveje
gatvemis
gatves
gatvese
gatviu
gaublio
gaudavo
gaudineja
gaudinejo
gaudineti
gaudo
gauja
gaujos
gauna
gaunama
gaunamas
gauname
gaunami
gaunamos
gaus
gausa
gausi
gausiai
gausime
gausios
gausu
gausus
gausybe
gauta
gautas
gauti
gautu
gave
gaves
gavo
gavus
gavusi
gavyba
gavybos
gaz
gazos
gb
gc
gd
gdansko
ge
gear
geba
gebejimas
gebejimu
gebiet
geda
gediminas
gedimino
gedos
geg
gegute
geguze
geguzes
geguzines
gel
gelbejimo
geldapes
gele
geles
gelezies
gelezinio
gelezinis
geleziniu
gelezinkeli
gelezinkeliai
gelezinkelio
gelezinkelis
gelezinkeliu
gelezis
gelezte
geleztes
gelia
geliu
gelo
gelsva
gelsvai
gelsvi
gelti
geltona
geltonai
geltonas
geltoni
geltonos
gelu
gelvonu
gelzbetonio
gemeindelexikon
gemeinden
gemeindeverzeichnis
gen
genciai
genciu
gene
genealogija
general
generaline
generalines
generalinio
generalinis
generaliniu
generation
generola
generolai
generolas
generolo
generolu
genetiskai
genocidas
genocido
genovaite
genti
genties
gentis
gentyje
gentys
genu
genujos
genwiki
genys
geo
geografas
geograficzny
geografija
geografijos
geografine
geografines
geografiniame
geografinis
geografiniu
geografiskai
geographic
geographisches
geoinformacine
geologas
geologija
geologijos
geologinis
geometrija
geomorfologija
geomorfologinis
georg
georgas
george
georges
georgia
ger
gera
gerai
gerard
geras
gerbeju
gere
geresne
geresni
geresnis
geri
geria
geriau
geriausi
geriausia
geriausiai
geriausias
geriausio
geriausios
geriausiu
geriausius
gerimai
gerimas
gerimo
gerimu
gerinti
gerio
geris
gerkle
german
germanu
germany
gero
gerokai
geros
gerove
geroves
gerti
geru
gerullis
gerus
gerve
gerves
geschichte
get
gete
geto
gets
gf
gg
gh
ghana
gi
gia
gian
giant
gibraltar
gibraltaras
gibraltaro
gidas
gieda
giedojo
giedraiciu
giedraitis
giedre
giedrius
giedrys
giesme
giesmes
giesmiu
gildijos
giliai
giliau
giliausia
giliu
giluma
gilus
gim
gimde
gimdo
gimdos
gimdymo
gimdyti
gime
gimes
gimimas
gimimo
gimimu
gimine
giminei
gimines
giminiskas
giminiu
giminyste
giminystes
gimnastikos
gimnazija
gimnazijoje
gimnazijos
gimsta
gimstamumas
gimtaja
gimtajame
gimtasis
gimti
gimtine
gimtineje
gimtoji
gimtojo
gimtosios
gimusi
gin
gina
gincai
gincija
gincijo
gincu
gincyti
ginkla
ginklai
ginklais
ginklas
ginklo
ginklu
ginkluota
ginkluotas
ginkluote
ginkluotes
ginkluoti
ginkluotu
ginkluotuju
ginklus
gintaras
gintare
gintaro
gintautas
ginti
gintra
giorgio
giovanni
gir
gira
girdejo
girdeti
girdi
gireno
giria
girininkija
girininkijos
girioje
girios
giriu
girl
girls
gitara
gitaristas
gitaros
giuseppe
give
gj
gk
gl
glaudziai
gliukozes
globa
global
globalsportsarchive
globeja
globejas
globeju
globojo
globos
gloria
gludi
gm
gmbh
gmina
gn
gnu
go
goal
god
gods
goes
gold
goldbeck
golden
golfo
good
google
gora
gordon
goris
gorkai
gorkio
got
gotikine
gotikos
gotu
gov
government
gp
gq
gr
grace
grafas
grafika
grafikas
grafike
grafikos
grafine
grafo
grafu
grafyste
grafysteje
grafystes
graham
graikai
graikija
graikijoje
graikijos
graiku
grajevo
gramatika
gramatikos
grammy
gran
granada
granadinas
grand
grande
grandes
grandine
grandines
grandis
granitas
granito
grant
grasilda
grauziku
gravitacijos
gray
grazi
grazia
graziai
graziausiu
grazina
grazino
grazinta
grazintas
grazinti
graziu
grazu
grazuole
grazus
great
greatest
grecia
greek
green
greg
greiciau
greiciausiai
greiciausias
greicio
greiciu
greit
greita
greitai
greitas
greiti
greitis
greitkelis
greito
greitojo
greituju
grenada
grenlandija
grenlandijos
grenlandu
gresia
gresme
gresmes
greta
gretas
gretima
gretimame
gretimu
gretose
gricius
griezta
grieztai
grifas
grigaliaus
grigalius
grigas
grigorijus
grikevicius
grindu
grindys
grindziama
grinius
griovi
griovio
grioviu
griovys
griuvesiai
griuvesiu
grizes
grizo
grizta
grizti
grizus
grizusi
grobi
groenlandia
groja
grojo
groti
ground
group
grozi
grozines
grozio
grozis
groß
grudai
grudas
grudu
grund
grunto
gruodi
gruodis
gruodzio
grupe
grupei
grupeje
grupemis
grupems
grupes
grupese
grupiu
grupuote
grupuotes
gruslaukes
gruz
gruzdziu
gruzija
gruzijoje
gruzijos
gruzinu
grybai
grybas
grybauskaite
grybu
grynai
grynas
gs
gt
gu
guadalupe
guam
guardian
guatemala
guayana
gubernatoriaus
gubernatorius
gubernija
gubernijai
gubernijoje
gubernijos
gudaitis
gudavicius
gudeliu
gudijoje
gudijos
gudu
guernsey
guide
guinea
gulbe
gulbes
gulbiu
gulejo
guli
gumbines
gumos
gun
guns
gurjevsko
guru
gus
gustaitis
gustav
gustavas
gustavo
gut
gutsbezirke
guy
guyana
gv
gvaraniu
gvardija
gvardijos
gvatemala
gvatemaloje
gvatemalos
gvineja
gvinejoje
gvinejos
gw
gx
gy
gydant
gydyma
gydymas
gydymo
gydymui
gydyti
gydytoja
gydytojai
gydytojas
gydytojo
gydytoju
gyli
gylio
gylis
gylyje
gyne
gynejas
gynejo
gyneju
gynimo
gynyba
gynybai
gynybine
gynybines
gynybiniu
gynybos
gytis
gyv
gyva
gyvaciu
gyvai
gyvas
gyvate
gyvates
gyvavimo
gyvavo
gyvavusi
gyvena
gyvenama
gyvenamaja
gyvenamas
gyvenamasis
gyvenamieji
gyvenamoji
gyvenamojo
gyvenamos
gyvenamosios
gyvenamosiose
gyvenamuju
gyvenancios
gyvenanciu
gyvenanti
gyvenantis
gyvenantys
gyvendamas
gyvendina
gyvendino
gyvendinti
gyvene
gyvenes
gyvenima
gyvenimas
gyvenime
gyvenimo
gyvenimu
gyvenimui
gyveno
gyventa
gyventi
gyventoja
gyventojai
gyventojais
gyventojams
gyventojas
gyventoju
gyventojui
gyventojus
gyvenusi
gyvenusiu
gyvenvieciu
gyvenviete
gyvenvietei
gyvenvieteje
gyvenvietes
gyvenvietese
gyvi
gyvo
gyvos
gyvu
gyvuliai
gyvulininkyste
gyvulininkystes
gyvuliu
gyvulius
gyvunai
gyvunais
gyvunams
gyvunas
gyvunija
gyvuno
gyvunu
gyvunus
gyvybe
gyvybei
gyvybes
gz
h
h0
h1
h2
h3
h4
h5
h6
h7
h8
h9
ha
habil
habilituota
habilituotas
habsburgu
haicio
hainuvkos
haiti
haitis
half
halico
hall
halle
hamburg
hamburge
hamburgo
hamilton
hamiltonas
han
hand
handbook
handbuch
hans
hansa
hansas
hanzos
hapoel
happy
hard
hari
hario
haris
harmonija
harris
harry
harvard
harvardo
harvey
has
hat
hausu
havajieciu
havaju
have
hb
hc
hd
he
head
health
heard
heart
hearts
heat
heaven
heavy
hebr
hebraju
heft
hegelmann
hegemonija
heinrich
heinrichas
hektaru
helen
helena
hell
helmut
helsinki
helsinkio
helsinkyje
henri
henrikas
henriko
henris
henry
her
heraklis
heraldikos
heraldinis
herba
herbai
herbas
herbe
herbert
herbo
herbu
hercegovina
hercegovinoje
hercegovinos
hercogas
hercogo
hercogyste
here
heritage
hermanas
hermann
herojai
herojaus
heroju
herojus
herzegovina
hetitu
hf
hg
hh
hi
hidroelektrine
hidroelektrines
hidrografinis
hidronimu
hieroglifas
high
higiena
higienos
hill
himalaju
himnai
himnas
himno
himnu
hindi
hinduistu
hinduizmo
hip
hiphopo
hipoteze
hipotezes
hiragana
his
histoire
historia
historical
history
hit
hitlerio
hitleris
hits
hitu
hj
hk
hl
hm
hn
ho
hold
holivudo
hollywood
holocaust
holokausto
home
homero
homo
honda
honduras
honduro
hong
honkongas
honkongo
hop
horizontaliai
hormonu
hot
hotel
house
how
howard
howland
hp
hq
hr
hrodzienskaja
hrsg
hs
ht
htm
html
http
https
hu
hudson
hugh
hugo
human
humanitariniu
humoro
hung
hungria
hunter
hv
hw
hx
hy
hydronymia
hz
i
i0
i1
i2
i3
i4
i5
i6
i7
i8
i9
ia
iaaf
iamzintas
ian
ias
iata
ib
iberijos
ibm
ibn
ibu
ic
ice
ich
id
idant
ide
idealus
ideja
idejas
idejomis
idejos
ideju
ideologija
ideologijos
idiegta
idiegti
idirba
idirbo
idirbti
ido
idomu
idomus
idriso
idrista
idristi
iduba
ie
ieina
ieji
iejimas
iejimo
iejo
ies
ieskant
iesko
ieskodamas
ieskojo
ieskoma
ieskoti
ieties
ieva
ievos
if
ig
igaliojimai
igaliojimus
igaliotasis
igamina
igamino
igaminti
igarsino
igauna
igavo
igere
igeria
igerti
igijo
ign
ignalina
ignalinos
ignas
ignored
ignotas
igoris
igudziu
igudzius
igula
igulos
igyja
igyti
igyvendina
igyvendinant
igyvendinima
igyvendinimo
igyvendinti
ih
ihre
ii
iii
iint
ij
ijaudina
ijaudino
ijaudinti
ijungta
ijungtas
ik
ikalintas
iki
ikilo
ikilti
ikimokyklinio
ikona
ikonos
ikure
ikurejas
ikurejo
ikureju
ikures
ikurima
ikurimo
ikurta
ikurtas
ikurti
ikurtos
ikurus
ikvepe
ikvepimo
ikveptas
ikyla
il
ilanka
ilankoje
ilankos
ilanku
ilg
ilga
ilgai
ilgainiui
ilgais
ilgalaike
ilgam
ilgametis
ilgas
ilgesne
ilgesni
ilgesnis
ilgi
ilgiau
ilgiausia
ilgiausiai
ilgiausias
ilgio
ilgis
ilgo
ilgos
ilgu
ilgus
ilinojaus
iliustr
iliustracijos
iliustravo
iliustruotas
ilja
illustrated
im
ima
images
imanoma
imasi
imbares
imdb
imermanas
imhof
imiega
imiegojo
imiegoti
imigo
imigrantu
imigti
iminga
imitavo
imituoja
imituoti
imoka
imokejo
imoketi
imone
imonei
imoneje
imonems
imones
imonese
imoniu
impact
imperatoriai
imperatoriaus
imperatoriu
imperatoriui
imperatoriumi
imperatorius
imperial
imperija
imperijai
imperijoje
imperijos
importas
importo
imta
imtas
imti
imtis
imtyniu
imuse
in
inag
inc
indai
indas
indeksas
indeli
indelis
indenai
indenu
independent
index
india
indian
indiana
indico
indie
indija
indijoje
indijos
individai
individas
individo
individu
individualios
individualiu
individualus
indo
indoeuropieciu
indonesia
indonezieciu
indonezija
indonezijoje
indonezijos
indra
indu
industrial
industrijos
industry
inervina
inervino
inervinti
inf
infekcija
infekcijos
infliacija
info
informacija
informacijos
informacine
informacines
informacinis
informaciniu
informatika
informatikos
information
informavo
informuoti
infrastruktura
infrastrukturos
infty
inga
ingrida
iniciatoriu
iniciatorius
iniciatyva
iniciatyvos
inicijavo
inkstu
inku
innych
inovaciju
inside
inspekcijos
inspektorius
institucija
institucijas
institucijoms
institucijos
institucijose
instituciju
instituta
institutas
institute
instituto
institutu
instruktorius
instrumentai
instrumentais
instrumentas
instrumentine
instrumentu
int
intakai
intakas
intako
intaku
integracijos
intel
intelektas
intelekto
intelligence
intensyviai
intensyvus
inter
interactive
interaktyvus
interesai
interesams
interesu
interesus
interjeras
interjero
interlingua
internacionalo
international
internationale
internazionale
internet
interneta
internetas
internete
internetine
internetinis
interneto
internetu
interpretacija
interview
interviu
into
introduction
inturkes
invazija
invazijos
inventoriuje
investicijos
investiciju
inzinerija
inzinerijos
inzinieriaus
inzinieriu
inzinieriumi
inzinierius
io
ios
ip
ipa
ipedinis
ipediniu
iphone
iprasta
iprastai
iprastas
iprastu
iq
ir
iragina
iragino
iraginti
irak
irakas
irake
irako
iran
iranas
irane
iranga
irangos
irankiai
irankis
irankiu
irankius
irano
irasa
irasai
irasas
irase
iraso
irasu
irasuose
irasus
irasymo
irasyta
irasytas
irasyti
irasytos
iregistruota
ireland
irena
irenge
irengimu
irenginiai
irenginio
irenginiu
irenginius
irenginys
irengta
irengtas
irengti
irengtos
irgi
irish
irklavimo
irkutsko
irlanda
irode
irodymas
irodymu
irodyti
iron
is
isaac
isabejoja
isabejojo
isabejoti
isakas
isake
isaku
isakyma
isakymas
isakymu
isapnavo
isapnuoja
isapnuoti
isauga
isaugo
isbande
isbn
isbuvo
isdave
isdavyste
isdestymas
isdestyti
isdirba
isdirbo
isdirbti
isdriso
isdrista
isdristi
isduoda
isduotas
isduoti
iseina
iseiti
iseities
iseivijos
iseiviu
isejes
isejimo
isejo
isformuota
isgalvoja
isgalvojo
isgalvoti
isgamina
isgamino
isgaminti
isgarsejes
isgarsejo
isgarsino
isgaunama
isgaunamas
isgauti
isgelbejo
isgelbeti
isgere
isgeria
isgerti
isgirdo
isgirsti
isgyvena
isgyveno
isgyventi
isidarbino
isidirba
isidirbo
isidirbti
isidriso
isidrista
isidristi
isigalejo
isigaliojo
isigalvoja
isigalvojo
isigalvoti
isigamina
isigamino
isigaminti
isigere
isigeria
isigerti
isigijo
isigyti
isijaudina
isijaudino
isijaudinti
isijunge
isikure
isikures
isikurusi
isikurusios
isilgai
isimaste
isimasto
isimastyti
isimiega
isimiegojo
isimiegoti
isimigo
isimigti
isiminga
isimoka
isimokejo
isimoketi
isimtinai
isimtis
isimyli
isinervina
isinervino
isinervinti
isipareigojimu
isipareigojo
isiragina
isiragino
isiraginti
isirase
isiraso
isirasyti
isiro
isisapnavo
isisapnuoja
isisapnuoti
isiskaite
isiskaito
isiskaityti
isiskolina
isiskolino
isiskolinti
isitikina
isitikines
isitikinimu
isitikino
isitikinti
isitikrina
isitikrino
isitikrinti
isitrauke
isitvirtino
isitvirtinti
isivagia
isivaisina
isivaisino
isivaisinti
isiverze
isiverzimo
isivoge
isivogti
isivoke
isivokia
isivokti
isjaudina
isjaudino
isjaudinti
iskaitant
iskaite
iskaito
iskaitoje
iskaityti
iskart
iskasenu
iskastas
iskele
iskeliavo
iskelta
iskeltas
iskelti
iskile
iskiles
iskiliausiu
iskilmingai
iskilo
iskilti
iskilus
iskilusi
iskolina
iskolino
iskolinti
iskope
iskovojo
iskovoti
iskreipe
iskreipia
iskreipti
iskrenta
iskrinta
iskrito
iskyla
isl
isla
islaidas
islaidos
islaidu
islaike
islaiko
islaikyta
islaikyti
islaisvinimo
islaisvinti
islama
islamas
islamo
island
islandia
islandija
islandijoje
islandijos
islands
islandu
islas
isleides
isleidimo
isleido
isleidusi
isleidzia
isleista
isleistame
isleistas
isleisti
isleisto
isleistos
isleistu
islieka
islike
islikes
islikimo
isliko
islikti
islikusi
islikusios
islikusiu
ismaste
ismasto
ismastyti
ismiega
ismiegojo
ismiegoti
ismigo
ismigti
isminga
isminties
ismintis
ismoka
ismoke
ismokejo
ismokes
ismoketi
ismoko
ismokti
isnakvoja
isnakvojo
isnakvoti
isnervina
isnervino
isnervinti
isnykimo
isnyko
isnyksta
isnykusi
iso
isore
isoreje
isores
isorine
isorines
isoriniai
isorinio
isorinis
isoriniu
isp
ispanai
ispanas
ispanija
ispanijai
ispanijoje
ispanijos
ispaniskai
ispanu
ispazista
isplauke
isplepa
isplepejo
isplepeti
isplesta
isplestas
isplesti
isplete
ispletota
isplito
ispopuliarejo
ispopuliarino
ispucia
ispudi
ispusti
ispute
isradejas
isradimu
isrado
israel
isragina
isragino
israginti
israiska
israiskos
israse
israso
israsyti
isreikstas
isreiksti
isreiske
isreiskia
isrinko
isrinkta
isrinktas
isrinkti
isruties
issamus
issapnavo
issapnuoja
issapnuoti
issaugojimo
issaugojo
issaugoti
issiaiskinti
issidesciusi
issidesciusios
issideste
issidestes
issidirba
issidirbo
issidirbti
issidriso
issidrista
issidristi
issigalvoja
issigalvojo
issigalvoti
issigamina
issigamino
issigaminti
issigere
issigeria
issigerti
issigincija
issigincijo
issigincyti
issijaudina
issijaudino
issijaudinti
issikele
issikilo
issikilti
issikyla
issilaike
issilaipino
issilavinima
issilavinimo
issimaste
issimasto
issimastyti
issimiega
issimiegojo
issimiegoti
issimoka
issimokejo
issimoketi
issinakvoja
issinakvojo
issinakvoti
issinervina
issinervino
issinervinti
issiplete
issiragina
issiragino
issiraginti
issirase
issiraso
issirasyti
issirita
issiskaite
issiskaito
issiskaityti
issiskiria
issiskolina
issiskolino
issiskolinti
issiskyre
issitikrina
issitikrino
issitikrinti
issiunte
issiustas
issiusti
issivadavimo
issivagia
issivaisina
issivaisino
issivaisinti
issiverzimas
issivoge
issivogti
issivoke
issivokia
issivokti
issivyste
issivysto
isskaite
isskaito
isskaityti
isskiria
isskiriama
isskiriamas
isskiriami
isskiriamos
isskirti
isskirtinai
isskirtine
isskirtinis
isskirtiniu
isskolina
isskolino
isskolinti
isskyre
isskyrus
issn
issoka
issoko
issokti
isspausdino
isspausdinta
isspausdintas
isspresti
isstume
isstumti
issue
issuki
issukio
ist
istaiga
istaigas
istaigos
istaigose
istaigu
istakos
istaku
istanbul
istatyma
istatymai
istatymais
istatymas
istatyme
istatymo
istatymu
istatymus
isteige
isteigimo
isteigta
isteigtas
isteigti
isteigto
isteigtos
isteka
istekejo
istekejusi
istekliai
istekliu
isteklius
isties
istikimybe
istiko
istikrina
istikrino
istikrinti
istirtas
istirti
istisai
istisus
istojo
istorija
istorijai
istorijoje
istorijos
istoriju
istorikai
istorikas
istorike
istoriko
istoriku
istorine
istorines
istorini
istoriniai
istoriniais
istoriniame
istorinio
istorinis
istoriniu
istoriniuose
istorinius
istoriskai
istreme
istremta
istremtas
istremti
istyre
isvada
isvadas
isvados
isvagia
isvaisina
isvaisino
isvaisinti
isvaizda
isvaizdos
isvakarese
isvaziavo
isvenge
isvengia
isvengti
isventintas
isversta
isverstas
isverte
isvertus
isvesta
isvesti
isvestiniai
isveztas
isvezti
isvijo
isvis
isvoge
isvogti
isvoke
isvokia
isvokti
isvykes
isvyko
isvyksta
isvykti
isvyste
isvysti
isvystyta
isvystytas
isvystyti
isvyti
it
itaisas
itaka
itakingiausiu
itakojo
itakos
itakoti
italai
italas
italia
italian
italija
italijoje
italijos
italu
italy
itampa
itampos
iteike
iteikta
iteiktas
iteikti
iteisinta
iteka
item
itemid
iterpti
itikina
itikino
itikinti
itikrina
itikrino
itikrinti
itin
itrauke
itraukia
itraukta
itrauktas
itraukti
itrauktos
its
itunes
itvirtinimai
itvirtinimu
itvirtino
itvirtinta
itvirtintas
itvirtinti
iu
iucn
ius
iv
ivadas
ivagia
ivairaus
ivairi
ivairiai
ivairiais
ivairias
ivairiausiu
ivairiems
ivairiomis
ivairioms
ivairios
ivairiose
ivairiu
ivairiuose
ivairius
ivairove
ivairoves
ivairus
ivaisina
ivaisino
ivaisinti
ivaizdi
ivan
ivanas
ivanauskas
ivanausko
ivano
ivanovas
ivarciai
ivarciu
ivarcius
ivard
ivardijama
ivardijamas
ivardis
ivarti
ivede
ivedimo
ivedus
iveike
iveikes
iveikti
ivertinimas
ivertinimo
ivertinimu
ivertino
ivertinta
ivertintas
ivertinti
ivesta
ivestas
ivesti
ivoge
ivogti
ivrd
ivykde
ivykdyta
ivykdytas
ivykdyti
ivykes
ivyki
ivykiai
ivykio
ivykis
ivykiu
ivykius
ivyko
ivyksta
ivykti
ivykus
iw
ix
iy
iz
izabele
izdininkas
izdo
izenge
izoliuota
izraeli
izraelio
izraelis
izraelyje
j
j0
j1
j2
j3
j4
j5
j6
j7
j8
j9
ja
jablonskio
jablonskis
jachta
jachtu
jack
jackson
jacob
jacques
jadvyga
jae
jai
jais
jak
jakstas
jakutijoje
jam
jamaica
jamaika
jamaikos
jame
james
jamie
jams
jan
jana
janas
jane
janina
janis
jankauskas
jano
january
jap
japan
japanese
japon
japonai
japonija
japonijai
japonijoje
japonijos
japonu
jaroslavas
jarvis
jas
jason
jau
jaucia
jauciamas
jauciasi
jauciu
jaudina
jaudino
jaudinti
jauna
jaunas
jaunasis
jaunesniojo
jaunesnysis
jauni
jauniausias
jauniausiu
jaunieji
jaunikliai
jauniklis
jaunikliu
jauniklius
jaunimas
jaunimo
jaunimui
jauniu
jauno
jaunoji
jaunojo
jaunos
jaunosios
jaunu
jaunuciu
jaunuju
jaunuolis
jaunuoliu
jaunyste
jaunysteje
jaunystes
jauriniai
jausma
jausmai
jausmas
jausmu
jausmus
jausti
jautis
jautrus
jav
java
javai
javieciu
javos
javu
javus
jay
jazz
jb
jc
jd
je
jean
jeff
jega
jegaine
jegaines
jegas
jege
jegia
jegomis
jegos
jegti
jegu
jei
jeigu
jekaterina
jemenas
jemeno
jennifer
jeremy
jerevano
jeronimas
jeronimo
jersey
jerusalem
jeruzale
jeruzaleje
jeruzales
jervis
jerzy
jes
jessica
jesus
jet
jevgenijus
jewish
jezaus
jezuitu
jezus
jf
jg
jh
ji
jidis
jie
jiedu
jiems
jiezno
jim
jimmy
jin
jis
jisai
jj
jk
jl
jm
jn
jo
joachim
joana
joe
joel
jog
jogaila
jogailos
johan
johanas
johann
johannes
john
johnny
johnson
johnston
joja
joje
jojo
jokia
jokio
jokios
jokiu
joks
jokubas
jokubo
jolanta
jom
jomis
joms
jon
jona
jonas
jonathan
jonava
jonavoje
jonavos
jones
joniskelio
joniskio
joniskis
jono
jonu
jonui
jonusas
jordan
jordania
jordanija
jordanijos
jorge
jorubu
jos
jose
josef
joseph
josh
josvainiu
joti
jotvingiai
jotvingiu
journal
jovi
jozef
jozefas
jp
jpg
jq
jr
js
jt
jto
ju
juan
jubilieju
juda
judejima
judejimai
judejimas
judejime
judejimo
judejimu
judejimui
judesiai
judesio
judesiu
judeti
judita
judo
judvieju
jugoslavija
jugoslavijos
jui
juk
juknevicius
julia
julija
julijaus
julijus
julius
july
jums
junda
june
jung
junge
jungia
jungianti
jungiantis
jungiasi
jungini
junginiai
junginiu
junginius
junginys
jungti
jungtine
jungtineje
jungtines
jungtinese
jungtiniai
jungtiniu
jungtis
junior
junta
junusas
juo
juocevicius
juoda
juodai
juodais
juodaja
juodaodziai
juodaodziu
juodas
juodasis
juodi
juodieji
juodkalnija
juodkalnijoje
juodkalnijos
juodo
juodoji
juodojo
juodomis
juodos
juodosios
juodu
juoduju
juodupes
juokina
juokino
juokinti
juos
juose
juosia
juosta
juostas
juostele
juosteles
juostoje
juostomis
juostos
juostose
juostu
juoza
juozapas
juozapo
juozas
juozo
jupiterio
jupiteris
jura
juras
jurate
jurbarkas
jurbarko
jure
jurga
jurgen
jurgio
jurgis
jurgita
juridiniu
jurijus
jurine
jurines
juriniai
jurininkas
jurinis
juriniu
juroje
juros
jurose
juru
jus
juska
just
justas
justi
justice
justin
justina
justinas
justino
jusu
juto
juventus
juzefas
juzintu
jv
jw
jx
jy
jz
k
k0
k1
k2
k3
k4
k5
k6
k7
k8
k9
ka
kabinetas
kabineto
kabo
kaciu
kad
kada
kadaise
kadangi
kadastras
kadencija
kadencijai
kadencijos
kadru
kai
kailio
kailis
kailiu
kaima
kaimai
kaimais
kaimas
kaime
kaimelis
kaimiskojoje
kaimo
kaimu
kaimui
kaimuose
kaimus
kaimynai
kaimynas
kaimynines
kaimyniniu
kaimynu
kaina
kainas
kainavo
kainos
kainu
kaip
kaipo
kaire
kaireje
kaires
kairiajame
kairieji
kairioji
kairiojo
kairiuju
kairo
kairys
kairysis
kaisiadoriu
kaisiadorys
kaita
kaitos
kakla
kaklas
kaklo
kakta
kalba
kalbai
kalbama
kalbanciu
kalbanciuju
kalbant
kalbanti
kalbantis
kalbantys
kalbas
kalbejo
kalbeti
kalbininkas
kalbininke
kalboje
kalbomis
kalboms
kalbos
kalbose
kalbotyra
kalbotyros
kalbu
kalcio
kaldinti
kaledos
kaledu
kalejima
kalejimas
kalejime
kalejimo
kalejo
kalendoriaus
kalendoriu
kalendorius
kaleti
kali
kalibro
kalifato
kalifornija
kalifornijoje
kalifornijos
kalinauskas
kaliniai
kaliningrad
kaliningradas
kaliningrado
kaliniu
kalintas
kalinys
kalio
kalna
kalnagubrio
kalnagubris
kalnagubriu
kalnagubryje
kalnai
kalnais
kalnakasybos
kalnas
kalne
kalno
kalnu
kalnuose
kalnuota
kalnuotas
kalnus
kalnynas
kalnyne
kalnyno
kalta
kaltas
kalte
kaltes
kaltina
kaltinenu
kaltino
kaltinti
kalva
kalvarija
kalvarijos
kalviu
kalvoje
kalvos
kalvotas
kalvu
kam
kamaju
kambari
kambariai
kambario
kambariu
kambaryje
kambarys
kambodza
kambodzos
kamciatkos
kame
kamera
kameros
kamerunas
kameruno
kamienas
kamieno
kamienu
kamos
kampa
kampanija
kampanijoje
kampanijos
kampas
kampe
kampo
kampu
kamuoli
kamuolio
kamuolys
kan
kanada
kanadieciu
kanadoje
kanados
kanadu
kanala
kanalai
kanalais
kanalas
kanale
kanalo
kanalu
kanalus
kanarskas
kanauninkas
kanceliarijos
kancia
kancios
kanclerio
kancleris
kanda
kandidatai
kandidatas
kandidate
kandidato
kandidatu
kandidatura
kandidatus
kando
kanonu
kantata
kanto
kantonas
kantono
kantonu
kantri
kanu
kapa
kapai
kapas
kapaviete
kapciamiescio
kape
kapeliais
kapelionas
kapinaites
kapines
kapinese
kapiniu
kapinynas
kapinyno
kapitalas
kapitalo
kapitonas
kapitono
kapitonu
kapo
kapsuko
kapsule
kapu
kapuose
kapus
kar
kara
karabacho
karaciaju
karai
karaimu
karaliai
karaliauciaus
karaliauciuje
karaliaucius
karaliaus
karaliene
karalienes
karaliskasis
karaliskoji
karaliskojo
karaliskosios
karaliskuju
karaliu
karaliui
karaliumi
karalius
karalysciu
karalyste
karalystei
karalysteje
karalystes
karas
karate
kardas
kardinolas
kardinolo
kardinolu
kardo
kardu
kare
kareiviai
kareivis
kareiviu
karelija
karelijos
kariai
kariams
kariauti
kariavo
karibu
karine
karinei
karineje
karines
karinese
karini
kariniai
kariniame
karininkai
karininkas
karininko
karininku
karinio
karinis
kariniu
karinius
kario
kariskiai
kariskiu
kariu
kariuomene
kariuomenei
kariuomeneje
kariuomenes
kariuomeniu
karius
karjera
karjeras
karjero
karjeroje
karjeros
karl
karla
karlas
karlis
karlo
karlosas
karlsenas
karmelitu
karmen
karo
karolina
karolinos
karolio
karolis
karosas
karpatu
karpis
karpovas
karsta
karstai
karstas
karsto
karstos
karstu
karta
kartais
kartas
kartenos
kartinis
karto
kartos
kartu
kartus
kartvelu
karu
karui
karuna
karunos
karunuotas
karuose
karus
karve
karvedys
karvelis
karves
karviu
karyba
karys
kas
kasa
kasdien
kasinejimai
kasmet
kasmetinis
kasmyro
kasos
kasparas
kasparovas
kaspijos
kastelionas
kasteliono
kasti
kastilijos
kastytis
kasubu
kasybos
kasykla
kasyklos
kat
katalikai
katalikiska
kataliku
katalikybe
katalogas
katalonijos
katalonu
kataras
kataro
katastrofa
katastrofos
kate
katedra
katedrai
katedroje
katedros
kategorija
kategorijas
kategorijoje
kategorijos
kategoriju
katerina
kates
katinas
kaukaze
kaukazo
kauke
kaukes
kaukole
kaukoles
kaulai
kaulas
kaulo
kaulu
kauna
kaunas
kaune
kauno
kaupe
kaupia
kaupiasi
kaupti
kautis
kautynes
kautynese
kautyniu
kava
kavalerija
kavalerijos
kavaliauskas
kavalierius
kavarsko
kavine
kavos
kaz
kazachija
kazachijos
kazachstanas
kazachstane
kazachstano
kazachu
kazajistan
kazanes
kazimiera
kazimieras
kazimiero
kazin
kazio
kazka
kazkada
kazkas
kazkur
kazlauskas
kazlu
kazokai
kazoku
kazys
kb
kc
kd
ke
kec
kedainiai
kedainiu
kedainiuose
kede
kei
keicia
keiciamas
keiciant
keiciantis
keiciasi
keista
keistas
keisti
keistis
keite
keitesi
keith
keitimo
kele
keleiviai
keleivinis
keleivis
keleiviu
keleivius
keleriu
kelerius
kelesi
keleta
keletas
keleto
keletu
keli
kelia
keliai
keliais
keliamaisiais
keliamieji
kelias
keliasdesimt
keliasi
keliauja
keliauti
keliautojas
keliautojo
keliavo
keliems
kelimo
kelio
keliolika
keliomis
kelioms
kelione
keliones
kelioniu
kelios
keliose
kelis
keliu
keliukas
keliuku
keliuose
kelius
kelly
kelme
kelmes
kelnes
kelno
kelpsos
keltai
keltas
kelti
keltis
keltu
kelyje
kembridzo
ken
kencia
kenia
kenija
kenijoje
kenijos
kennedy
kenneth
kentejo
kenya
kepa
kepe
kepenu
kepler
kepti
kepure
kepurele
kepureles
kepures
keramika
keramikos
kernaves
kerta
kes
kestucio
kestutis
ketina
ketino
keturi
keturiais
keturias
keturiasdesimt
keturiolika
keturiomis
keturios
keturis
keturiu
keturkampe
ketveriems
ketveriu
ketverius
ketvirta
ketvirtadieni
ketvirtaja
ketvirtajame
ketvirtas
ketvirtasis
ketvirtfinalio
ketvirtfinalis
ketvirtfinalyje
ketvirti
ketvirtoji
ketvirtojo
kevin
key
kf
kg
kgb
kh
khiva
khmerai
khmeru
ki
kia
kian
kiaule
kiaules
kiauliu
kiausiniai
kiausinio
kiausinis
kiausiniski
kiausiniu
kiausinius
kiek
kieki
kiekiai
kiekiais
kiekio
kiekis
kiekiu
kiekviena
kiekvienai
kiekvienais
kiekvienam
kiekviename
kiekvienas
kiekvieno
kiekvienoje
kiekvienos
kiekvienu
kiema
kiemai
kiemas
kieme
kiemo
kieno
kieta
kietas
kijevas
kijeve
kijevo
kil
kildinamas
kile
kiles
kilimo
kilimu
kilm
kilme
kilmes
kilminguju
kilo
kilometro
kilometru
kilti
kilus
kilusi
kilusios
kilusiu
kim
kimi
kin
kinai
kinas
kine
king
kingdom
kingman
kings
kinija
kinijoje
kinijos
kino
kinta
kinu
kioto
kipras
kipre
kipro
kircio
kirciuote
kirdo
kirgizija
kirgizijos
kirgizu
kirguistan
kiribati
kirs
kirsta
kirsti
kirtimo
kirto
kirvis
kirviu
kiskiai
kiskis
kiss
kit
kita
kitai
kitaip
kitais
kitam
kitame
kitapus
kitas
kiti
kitiems
kitimas
kito
kitoje
kitokia
kitokie
kitokio
kitokios
kitokiu
kitoks
kitomis
kitoms
kitos
kitose
kitu
kituose
kitur
kitus
kiu
kj
kk
kl
klaida
klaidas
klaidingai
klaidos
klaidu
klaipeda
klaipedoje
klaipedos
klajokliai
klajokliu
klanas
klano
klanu
klase
klasei
klaseje
klases
klasese
klasicizmo
klasifikacija
klasifikacijos
klasifikatorius
klasikine
klasikines
klasikinio
klasikinis
klasikiniu
klasiu
klaus
klause
klausia
klausima
klausimai
klausimais
klausimas
klausimu
klausimus
klauso
klausos
klausti
klausyti
klausytoju
klaviatura
klavisiniai
klebonas
klebonija
klebono
klebonu
klein
kleinlitauen
klemensas
kleopatra
klestejimo
klestejo
klevas
klevu
klientams
kliento
klientu
klimas
klimatas
klimato
klinika
klinikines
klinikos
klipa
klipas
klipe
klipo
klipu
kliuciu
kliutis
kluba
klubai
klubams
klubas
klube
klubo
klubu
klubui
klubuose
klubus
klydo
klysta
klysti
km
kn
know
knyga
knygas
knygele
knygnesiu
knygnesys
knygoje
knygos
knygose
knygu
ko
koalicija
koalicijos
kobenhavn
koch
koda
kodas
kodavo
kodeksas
kodekso
kodel
kodo
kodu
koduoja
koduoti
koeficientas
koja
kojas
kojines
kojomis
kojos
koju
koki
kokia
kokias
kokie
kokio
kokios
kokiu
kokius
koks
kokybe
kokybes
kol
koledza
koledzas
koledze
koledzo
kolega
kolegija
kolegijoje
kolegijos
kolekcija
kolekcijos
kolektyva
kolektyvas
kolektyvo
kolektyvu
kolno
kolona
kolonija
kolonijas
kolonijine
kolonijines
kolonijiniu
kolonijos
kolonijose
koloniju
kolonistai
kolonistu
kolonizacija
kolonizacijos
kolonos
kolonu
kolorado
kolukio
kolukis
kolukiui
kolumbas
kolumbija
kolumbijoje
kolumbijos
kolumbo
komanda
komandai
komandas
komandineje
komandinis
komandoje
komandoms
komandoro
komandos
komandose
komandu
kombinacija
kombinatas
kombinato
komedija
komedijoje
komedijos
komentaras
komercijos
komercine
komercines
komercinis
komerciniu
komerciskai
komiksu
komisaras
komisariatas
komisariato
komisaro
komisaru
komisija
komisijai
komisijoje
komisijos
komisiju
komiteta
komitetai
komitetas
komitete
komiteto
komitetu
komitetui
komjaunimo
komorai
kompanija
kompanijai
kompanijoje
kompanijos
kompaniju
kompetencija
kompetencijos
kompiuteri
kompiuteriai
kompiuteriams
kompiuterine
kompiuterines
kompiuterinis
kompiuteriniu
kompiuterio
kompiuteris
kompiuteriu
kompiuterizavo
kompiuterizuoja
kompiuterizuoti
kompiuteryje
kompleksa
kompleksas
komplekso
kompleksu
komponentai
komponentu
kompozicija
kompozicijos
kompoziciju
kompozitore
kompozitoriai
kompozitoriaus
kompozitoriu
kompozitorius
komuna
komunikacijos
komunistai
komunistines
komunistinio
komunistu
komunizmas
komunizmo
komunos
koncentracija
koncentracijos
koncepcija
koncepcijos
koncernas
koncerno
koncerta
koncertai
koncertas
koncertavo
koncerte
koncertini
koncertinis
koncerto
koncertu
koncertuose
koncertus
kone
konfederacija
konfederacijos
konfederaciju
konferencija
konferencijoje
konferencijos
konferencijose
konferenciju
konflikta
konfliktai
konfliktas
konflikto
konfliktu
konfliktus
kong
kongas
kongo
kongresas
kongrese
kongreso
konigreich
konigreichs
konkreciai
konkrecios
konkreciu
konkretus
konkurencija
konkurencijos
konkursa
konkursas
konkurse
konkurso
konkursu
konkursuose
konkuruoti
konradas
konservatorija
konservatorijoje
konservatorijos
konservatoriu
konsole
konsolei
konstancija
konstanta
konstantinas
konstantino
konstantinopoli
konstantinopolio
konstitucija
konstitucijos
konstitucine
konstitucines
konstitucinio
konstitucinis
konstravimo
konstrukcija
konstrukcijos
konstrukciju
konstruktoriu
konstruktorius
konsulai
konsulas
konsulatas
konsultantas
konsulu
kont
kontaktai
kontaktu
kontekste
kontora
kontoros
kontrakta
kontrole
kontroles
kontroliavo
kontroliuoja
kontroliuojama
kontroliuojamas
kontroliuoti
konvencija
konvencijos
koordinaciu
koordinates
koordinuoja
koordinuoti
kop
kopa
kope
kopenhaga
kopenhagoje
kopenhagos
kopia
kopija
kopijos
kopiju
koplycia
koplycioje
koplycios
koplytele
koplyteles
koplytstulpis
kopos
kopti
koptu
kopu
kor
koralu
korcnojus
kordobos
korea
koreja
korejieciu
korejoje
korejos
korespondenciniu
korespondentas
kornu
korporacija
korporacijos
korpusa
korpusas
korpuse
korpuso
korta
kortele
korteles
kortos
kortu
korupcija
korupcijos
kos
kosmine
kosmines
kosminis
kosminiu
kosmosa
kosmoso
kosovas
kosove
kosovo
kosta
kostas
kostiumu
kotas
koto
kotryna
kotrynos
kova
kovai
kovalenkoviene
kovas
kovesi
kovo
kovoja
kovojant
kovoje
kovojo
kovos
kovose
kovoti
kovotojai
kovotojas
kovotoju
kovu
kp
kpi
kq
kr
krajow
krakiu
krakow
kranta
krantai
krantas
krante
kranto
krantu
krantuose
krantus
krasnojarsko
krasnoznamensko
krasta
krastai
krastais
krastas
kraste
krastines
krasto
krastotyrininkas
krastotyros
krastovaizdis
krastovaizdzio
krastu
krastui
krastuose
krastus
krateris
krauja
kraujagysles
kraujagysliu
kraujas
kraujavo
kraujo
krauju
kraujuoja
kraujuoti
kraujyje
krauna
kraziu
kredito
kregzde
kreidos
kreipe
kreipesi
kreipia
kreipiasi
kreipti
kreiptis
kreive
kreives
krekenavos
krelle
kremacija
krenta
kreolu
krepsininkas
krepsininku
krepsinio
krepsinis
kretinga
kretingoje
kretingos
kretos
krikscionis
krikscioniska
krikscioniskos
krikscioniu
krikscionybe
krikscionybes
krikscionys
kriksto
krikstytojo
kriminalines
kriokliu
krioklys
krisna
krisnos
kristalu
kristaus
kristi
kristianas
kristijonas
kristina
kristupas
kristupo
kristus
kriteriju
kriterijus
kritika
kritikai
kritikas
kritikavo
kritikos
kritiku
kritimo
krito
krituliai
krituliu
kriuku
krize
krizes
kroatija
kroatijoje
kroatijos
kroatu
krokuva
krokuvoje
krokuvos
krolestwa
kronika
kronikoje
kronikos
kroso
kroviniu
krug
krumai
krumais
krumas
krumu
krumuose
krumynai
krumynais
kruonio
kruopsciai
kruso
krutine
krutines
kruvi
kruvio
krykle
kryme
krymo
krypciu
krypti
krypties
kryptimi
kryptimis
kryptis
kryptys
kryziai
kryziaus
kryziu
kryziumi
kryziuociai
kryziuociu
kryzius
kryzkeles
ks
ksi
kt
ktu
ku
kuba
kubilius
kuboje
kubos
kucinskas
kudikis
kudikiu
kudirka
kudirkos
kugio
kukas
kuko
kuktiskiu
kukuruzai
kukuruzu
kulikauskas
kuliu
kulka
kulkos
kulkosvaidis
kulkosvaidziai
kulkosvaidziu
kulmo
kulta
kultas
kulto
kultura
kulturai
kulturas
kulturine
kulturines
kulturini
kulturiniai
kulturinio
kulturinis
kulturiniu
kulturinius
kulturiskai
kulturoje
kulturos
kulturu
kulupenu
kummel
kun
kuna
kunai
kunas
kune
kuniga
kunigai
kunigaiksciai
kunigaikscio
kunigaiksciu
kunigaiksciui
kunigaiksti
kunigaikstijos
kunigaikstis
kunigaikstysciu
kunigaikstyste
kunigaikstystei
kunigaikstysteje
kunigaikstystes
kunigaikstyte
kunigamiu
kunigas
kunigavo
kunigiskiu
kunigo
kunigu
kunigus
kuno
kunu
kunus
kuo
kuomet
kuopa
kuopos
kupe
kupiskenu
kupiskio
kupiskis
kupolas
kupranugaris
kur
kura
kuras
kurdu
kure
kureja
kurejai
kurejas
kurejo
kureju
kuresi
kuri
kuria
kuriai
kuriais
kuriam
kuriama
kuriamas
kuriame
kuriami
kuriamos
kuriant
kurias
kurie
kuriems
kurima
kurimas
kurimo
kurimui
kurini
kuriniai
kuriniais
kuriniams
kurinio
kuriniu
kuriniuose
kurinius
kurinyje
kurinys
kurio
kurioje
kuriomis
kurioms
kurios
kuriose
kuris
kuriu
kuriuo
kuriuos
kuriuose
kurkliu
kuro
kurortas
kurs
kursa
kursai
kursas
kurse
kursenu
kursiu
kurso
kursu
kursuose
kursus
kurt
kurtas
kurti
kurtis
kurtuvenu
kuryba
kurybai
kurybine
kurybines
kurybiniu
kuryboje
kurybos
kus
kuveitas
kuveito
kuwait
kv
kvadratiniu
kvailioja
kvailiojo
kvailioti
kvailys
kvalifikacija
kvalifikacijos
kvantines
kvapa
kvapas
kvapo
kvartalas
kvartale
kvartetas
kvdt
kvedarnos
kvepavimo
kviecia
kvieciai
kvieciamas
kvieciu
kviesti
kviete
kviklys
kw
kx
ky
kybartu
kyla
kylanti
kylantis
kysulio
kysulyje
kysulys
kz
l
l0
l1
l2
l3
l4
l5
l6
l7
l8
l9
la
labai
labanoro
labas
labdaros
labguvos
labiau
labiausiai
laboratorija
laboratorijoje
laboratorijos
lady
lageryje
lago
laguna
lagunos
lai
laida
laidas
laidojami
laidoje
laidojimo
laidos
laidose
laidoti
laidotuves
laidotuviu
laidu
laika
laikai
laikais
laikantis
laikas
laike
laikesi
laikina
laikinai
laikinas
laikinasis
laikinoji
laikinosios
laikmecio
laiko
laikoma
laikomas
laikomasi
laikomi
laikomos
laikosi
laikotarpi
laikotarpiais
laikotarpio
laikotarpis
laikotarpiu
laikotarpiui
laikotarpyje
laikrasciai
laikrascio
laikrasciu
laikrasciuose
laikrascius
laikrasti
laikrastis
laikrastyje
laikrodis
laikrodzio
laiku
laikui
laikus
laikyta
laikytas
laikyti
laikytis
laima
laime
laimejes
laimejimu
laimejo
laimejusi
laimes
laimeti
laimetoja
laimetojai
laimetojas
laimetoju
laimi
laiminga
laimingas
laimute
laip
laipsni
laipsniai
laipsnio
laipsnis
laipsniu
laipsnius
laiptai
laiptais
laiptu
laiska
laiskai
laiskas
laiske
laisko
laisku
laiskus
laisva
laisvai
laisvajame
laisvalaikio
laisvas
laisvasis
laisve
laisves
laisvi
laisvo
laisvoji
laisvojo
laisvojoje
laisvos
laisvosios
laisvosiose
laisvu
laisvuju
laiva
laivai
laivais
laivams
laivas
laive
laivo
laivu
laivuojama
laivuose
laivus
laivyba
laivybos
laivyna
laivynas
laivyne
laivyno
laja
lajos
lake
laksteliai
lakunas
lakunu
lama
lambda
lambert
lan
land
lande
landkreis
lando
landsbergis
landyti
lang
langa
langai
langas
lange
lango
langu
language
languages
langus
lanka
lankas
lanke
lankesi
lanko
lankos
lanku
lankyti
lankytinos
lankytis
lankytojai
lankytojams
lankytoju
lao
laos
laosas
laoso
lap
lapai
lapais
lapas
lape
lapeliai
lapeliu
lapes
lapiu
lapkricio
lapkriti
lapkritis
lapo
lapu
lapuociais
lapuociu
lapus
lara
larix
larry
las
lasas
last
lastele
lasteles
lastelese
lasteliu
lat
late
latgaliu
latin
latv
latvia
latviai
latviesu
latvija
latvijas
latvijoje
latvijos
latviu
lau
lauka
laukai
laukais
laukas
lauke
laukia
laukines
laukiniu
lauko
laukti
lauku
laukuose
laukus
laukuvos
laumes
laura
laureatai
laureatas
laureate
laureatu
laurynas
lauryno
lauzo
lavinimo
lavoriskiu
lavos
law
lawrence
lazda
lazdiju
lazdynu
lazina
lazino
lazinti
lazio
lb
lc
ld
ldk
le
league
learning
led
ledas
ledo
ledu
ledynai
ledynas
ledynmecio
ledyno
ledynu
lee
left
legalact
legend
legenda
legendinis
legendos
legendu
legiono
leid
leideja
leidejas
leideju
leidima
leidimai
leidimas
leidimo
leidimu
leidini
leidiniai
leidinio
leidiniu
leidiniuose
leidinius
leidinyje
leidinys
leido
leidyba
leidybos
leidykla
leidyklos
leidzia
leidziama
leidziamas
leidziami
leidzianti
leidziantis
leidziasi
leipalingio
leipcigas
leipcigo
leipzig
leis
leisdavo
leista
leistas
leisti
leistu
leitenantas
leitenanto
lektorius
lektuva
lektuvai
lektuvais
lektuvas
lektuvo
lektuvu
lektuvus
leles
lelijos
leliu
leliunu
leme
lemia
lemiama
lengva
lengvaatlete
lengvaatletis
lengvai
lengvas
lengvasis
lengviau
lengvoji
lengvos
lengvosios
lengvuju
leningrade
leningrado
lenino
lenk
lenkai
lenkais
lenke
lenkia
lenkija
lenkijai
lenkijoje
lenkijos
lenkiskai
lenkti
lenktynes
lenktynese
lenktynininkai
lenktynininkas
lenktynininku
lenktyniu
lenku
lenos
lenta
lentele
lenteleje
lenteles
lenteliu
lentos
lentu
lentvario
lenzo
leo
leon
leona
leonard
leonardas
leonardo
leonas
leone
leonidas
leono
leopardas
leopold
leopoldas
leq
lervos
les
lesas
lesomis
lesos
lesotas
lesoto
lesu
let
letai
letas
leto
letonia
letters
levas
levens
lewis
lexikon
leykosia
lf
lff
lg
lh
li
lia
liaudies
liaudininku
liaudis
liauka
liaukos
liauku
libanas
libano
liberalu
liberia
liberija
liberijos
liberty
libia
libija
libijos
library
licencija
licencijos
lichtensteinas
lichtensteino
lie
liechtenstein
liege
lieka
liekanos
liekanu
liemens
liep
liepa
liepe
liepoja
liepojoje
liepojos
liepos
liepsna
liepu
liet
lietaus
lietus
lietuva
lietuvai
lietuviai
lietuviais
lietuviams
lietuvininku
lietuvis
lietuviska
lietuviskai
lietuviskas
lietuviski
lietuvisko
lietuviskoje
lietuviskoji
lietuviskos
lietuviskosios
lietuvisku
lietuviskus
lietuviu
lietuvius
lietuvoje
lietuvos
lietuvosfutbolas
lietuvybes
liezuvio
liezuvis
life
lig
liga
ligai
ligas
light
ligi
ligomis
ligonine
ligonineje
ligonines
ligonis
ligoniu
ligos
ligu
ligue
like
likes
likima
likimas
likimo
liko
liks
likti
likuciai
likus
likusi
likusia
likusias
likusieji
likusios
likusiu
likusius
likvidavo
likviduoja
likviduoti
lim
lima
limfoma
limited
lin
lina
linas
lincoln
linda
line
lingua
linguistics
linija
linijas
linijoje
linijomis
linijos
liniju
link
linke
linkes
linkmenu
linksma
linksmina
linksmino
linksminti
linksniu
linkuvos
linnaeus
lino
linu
linux
lis
lisa
lisabonos
lisboa
list
lit
litauen
literatas
literatu
literatura
literature
literaturine
literaturines
literaturinis
literaturoje
literaturos
litewskiego
lithuania
lithuanian
litru
littera
little
litu
lituania
lituanica
lituanistikos
liu
liublino
liucija
liuciu
liudas
liudija
liudna
liudvika
liudvikas
liudviko
liudvinavo
liuksemburgas
liuksemburge
liuksemburgieciu
liuksemburgo
liuo
liutai
liutas
liuteronai
liuteronu
liuto
liutu
live
liverpool
liverpulio
living
livonijos
liza
lizda
lizdas
lizdo
lizdus
lj
lk
lkd
lki
lkl
lkp
lks
ll
lloyd
lm
lma
ln
lnk
lo
lobis
local
log
logika
logikos
logistikos
logoiskis
logotipas
loja
lojo
lokiai
lokio
lokiu
lokomotiv
lokys
lomzos
london
londona
londonas
londone
londono
long
look
lope
lopez
lopo
lopyti
lord
lorenzo
loreta
los
losices
lost
lot
loti
lotus
lotyniskai
lotyniskas
lotynisku
lotynu
louis
lova
love
lovos
low
lp
lq
lr
lrs
lrt
lrytas
ls
lsdp
lssr
lt
ltd
ltn
ltsr
ltu
ltv
lu
luaros
lubos
lucia
lucius
lucko
ludnosci
ludwig
lui
luigi
luis
luisas
luiso
luiza
luka
lukas
lukiskiu
luko
lukosevicius
luksas
luna
luo
luokes
lupa
lupos
lupu
lusis
lutute
luvras
luxembourg
luxemburgo
lv
lvove
lvovo
lw
lx
ly
lyciu
lydejo
lydere
lyderiai
lyderio
lyderis
lyderiu
lydeti
lydi
lydiniai
lydos
lyg
lyga
lygi
lygia
lygiagreciai
lygiai
lygina
lyginamosios
lyginant
lygino
lyginti
lygio
lygios
lygiosiomis
lygiosios
lygis
lygiu
lygiuju
lygmens
lygmenyje
lygoje
lygos
lygose
lygti
lygties
lygtis
lygu
lyguma
lygumoje
lygumos
lygumose
lygumu
lygus
lygybe
lygybes
lygyje
lynx
lyti
lyties
lytines
lytiniai
lytinio
lytinis
lytiniu
lytis
lytiskai
lyviu
lz
m
m0
m1
m2
m3
m4
m5
m6
m7
m8
m9
ma
mac
maca
macai
macao
macas
maccabi
mace
macedonia
machine
maciulis
mackevicius
macmillan
maco
macu
macus
mada
madagascar
madagaskaras
madagaskaro
made
madona
mados
madrid
madridas
madride
madrido
mafijos
magazine
magazyn
magdalena
magdeburgas
magdeburgo
magic
magija
magijos
magines
magistrale
magistrales
magistras
magistro
magnatu
magnetinio
magnio
magnolijunu
magnoliophyta
magnus
mahometo
mai
maiklas
main
mainai
mainais
maino
mainu
maironio
mais
maista
maistas
maisto
maistu
maistui
maitina
maitinasi
maitinimo
maja
major
majoras
majoro
maju
makao
make
makedonija
makedonijoje
makedonijos
makedonu
making
maksas
maksimas
maksties
mal
malaizija
malaizijoje
malaizijos
malajaliu
malaju
malakos
malasia
malaui
malavis
malda
maldauja
maldauti
maldavo
maldivas
maldos
maldyvai
male
mali
malinauskas
malio
malis
malone
malones
malonus
malta
maltieciu
maltoje
maltos
malunas
maluno
malvinas
mam
mama
mamate
mamontovas
mamos
mams
man
management
manau
manchester
mandarinu
mandato
mane
manes
manga
mangano
mano
manoma
mantas
manuel
many
manymu
manyta
manyti
mao
maoriu
map
maps
mar
mara
maras
marathu
maratono
marc
march
marcinkevicius
marcinkoniu
marco
marcus
mare
marfil
margaret
margarita
mari
maria
mariana
marianas
marias
marie
marija
marijai
marijampole
marijampoleje
marijampoles
marijonas
marijonu
marijos
marijus
marina
marinas
marine
mariner
marino
mario
marios
maris
mariu
marius
mark
marka
markas
marke
markes
market
marko
marmuro
maro
marokas
maroke
maroko
marruecos
mars
marsa
marsalas
marsalka
marsalkos
marsalo
marsas
marshall
marskineliai
marso
marsrutai
marsrutas
marsrutu
marta
martin
martinaitis
martinas
martinica
martino
martynas
martyno
marvel
marveles
mary
mas
masaitis
masalskis
mase
mases
mashke
masina
masinas
masine
masines
masinio
masinos
masinu
masiskai
masiu
masiulis
maskva
maskvoje
maskvos
mass
massa
maste
master
masters
masto
mastu
mastymas
mastymo
mastyti
masyvas
masyvo
masyvus
mat
mata
matai
matas
matau
matavimo
match
matches
mate
matematika
matematikas
matematikos
matematine
materialien
mates
mathbf
mathrm
mathsf
matmenu
matmenys
mato
matoma
matomas
matome
matomi
matomos
matosi
matrica
matt
matthew
matu
matulaitis
matulevicius
matulionis
matuojamas
matuoti
matyt
matyti
maud
maurice
mauricijus
mauricio
mauritania
mauritanija
mauritanijos
mauzoliejus
max
may
mayen
mayotte
maz
maza
mazai
mazais
mazaja
mazas
mazasis
mazdaug
mazeika
mazeikiai
mazeikiu
mazeikiuose
mazeja
mazejo
mazesne
mazesnes
mazesni
mazesnio
mazesnis
mazesniu
mazeti
mazgas
mazgu
mazi
maziau
maziausia
maziausiai
maziausias
maziausiu
mazieji
mazina
mazino
mazinti
mazo
mazoji
mazojo
mazojoje
mazos
mazosios
mazovijos
mazu
mazuju
mazuma
mazumos
mazumu
mazus
mazvydo
mb
mbox
mc
mcdonald
mclaren
md
me
mecenatas
mecete
mecetes
mechanika
mechanikas
mechanikos
mechanine
mechanines
mechanizmas
mecio
mecislovas
meciui
med
medali
medaliai
medaliais
medalio
medalis
medaliu
medalius
medaus
medi
media
medical
medicina
medicine
medicinoje
medicinos
mediena
medienos
medieval
mediju
medine
medines
mediniai
medininku
medinis
mediniu
medis
medus
medvilne
medvilnes
medynai
medynu
medziaga
medziagas
medziagomis
medziagoms
medziagos
medziagu
medziai
medziais
medzio
medzioja
medziokle
medziokles
medzioti
medziotojai
medziotojas
medziotoju
medziu
medziuose
medzius
megejai
megeju
megina
megino
meginti
mego
megsta
mei
meidzi
meile
meiles
meiluze
meistrai
meistras
meistriskumo
meistro
meistru
meksika
meksikoje
meksikos
melas
melburno
melc
melioracijos
melo
melodija
melodijos
melstis
melsvai
melyna
melyname
melynas
melynos
melze
melzia
melzti
mem
membrana
membranos
memorialas
memorialine
memorialinis
memory
men
mena
menas
mene
menesi
menesiai
menesiais
menesiams
menesinis
menesio
menesiu
menesius
menine
menines
menininkai
menininkas
menininko
menininku
meninio
meninis
meniu
menk
menka
menkai
menkas
menkina
menkino
menkinti
menksieciu
meno
menu
menui
menuli
menulio
menulis
menuo
meras
mercedes
mercury
mere
mergaiciu
mergaite
mergaites
mergautine
mergele
mergeles
mergeliu
mergina
merginos
merginu
merkevicius
merkine
merkines
merkio
merkurijus
merkys
mero
meru
mes
mesa
mesje
meska
mesopotamijoje
mesopotamijos
mesos
messier
mesti
met
meta
metacritic
metai
metais
metal
metalai
metalas
metaline
metalines
metalinis
metaliniu
metallica
metalo
metalu
metalurgijos
metams
metas
mete
meteorologija
meti
metine
metinems
metines
metinis
metiniu
metis
meto
metoda
metodai
metodais
metodas
metodika
metodine
metodines
metodo
metodu
metodus
metrai
metrastis
metriku
metro
metropolitan
metropoliteno
metru
metu
metuose
metus
mexico
mezas
mf
mfk
mg
mgb
mh
mhz
mi
mia
mianmaras
mianmare
mianmaro
michael
michailas
michailo
michał
michel
michelle
micigano
mickeviciaus
mickevicius
micronesia
microsoft
middle
midway
mie
miega
miego
miegojo
miegoti
miejscowosci
miems
miesta
miestai
miestais
miestas
mieste
miesteli
miesteliai
miestelio
miestelis
miesteliu
miestelyje
miestieciai
miestieciu
miesto
miestu
miestui
miestuose
miestus
mig
migo
migracija
migracijos
migrantu
migravo
migti
miguel
mii
mijaku
mikalauskas
mikalojaus
mikalojus
mikas
mike
mikelandzelas
mikelandzelo
mikenas
mikenu
mikronezijos
mil
milan
milanas
milane
milano
milda
milicijos
milijardo
milijardu
milijona
milijonai
milijonas
milijono
milijonu
milijonus
military
miller
million
miltai
miltu
milzinas
milziniska
milziniskas
min
mina
minas
minciu
mind
mindaugas
mindaugo
minejo
mineralas
mineraliniu
mineralu
mineta
mineti
minetu
minga
mini
minia
minija
minijos
minima
minimalus
minimas
minimi
minimos
minint
ministerija
ministerijai
ministerijoje
ministerijos
ministra
ministrai
ministras
ministre
ministro
ministru
ministrui
ministry
minksta
minkstas
minor
minos
minskas
minske
minsko
minta
minti
minties
mintis
mintys
minu
minuciu
minute
minutes
miquelon
miranda
mirciu
mire
mires
mirkcioja
mirkciojo
mirkcioti
mirror
mirs
mirsta
mirti
mirties
mirtimi
mirtinai
mirtingumas
mirtis
mirus
mirusi
mirusieji
mirusio
mirusiojo
mirusiu
mirusiuju
mis
misias
misija
misijas
misijos
misiju
misinio
misinys
misionieriai
misionieriu
misionierius
misios
misiu
misius
miska
miskai
miskais
miskas
miske
miskelis
miskine
miskininkas
miskinis
misko
miskotvarkos
misku
miskuose
miskus
misri
misriajam
misriojo
misrios
misriu
misriuose
misruji
misrus
misrusis
miss
mission
mit
mitai
mitas
mitchell
mito
mitologija
mitologijoje
mitologijos
mitologinis
mitsubishi
mitu
mityba
mitybos
miunchene
miuncheno
mix
mj
mjanmu
mk
ml
mln
mlrd
mm
mn
mo
mobile
mobilizuotas
mocartas
mockus
mode
model
modeli
modeliai
modelio
modelis
modeliu
modelius
modern
modernaus
moderni
moderniosios
modernizmo
modernus
modifikacija
mojo
moka
mokama
moke
mokejimo
mokejo
mokesciai
mokescio
mokesciu
mokescius
mokesi
mokesti
mokestis
moketi
mokiniai
mokiniams
mokiniu
mokinys
moko
mokoma
mokomasis
mokomoji
mokosi
moksla
mokslai
mokslas
moksleiviai
moksleiviu
moksline
mokslineje
mokslines
mokslini
moksliniai
mokslininkai
mokslininkas
mokslininko
mokslininku
mokslinio
mokslinis
moksliniu
mokslinius
mokslo
mokslu
mokslui
mokslus
mokydamasis
mokykla
mokyklai
mokyklas
mokykloje
mokykloms
mokyklos
mokyklose
mokyklu
mokyma
mokymas
mokymo
mokymosi
mokymu
mokyti
mokytis
mokytoja
mokytojai
mokytojas
mokytojavo
mokytojo
mokytojos
mokytoju
moldavia
moldavija
moldavijos
moldova
moldovos
molekules
molekuliu
moletai
moletu
molio
molis
moliusku
molotovo
momentas
momento
momentu
moms
mon
monaco
monakas
monako
monarchija
monarchijos
moneta
monetas
monetos
monetu
money
mong
mongolai
mongolia
mongolija
mongolijoje
mongolijos
mongolu
monika
monku
monografija
monte
montenegro
month
montserrat
monumentalus
moon
moore
morale
morales
moravijos
more
morgan
mori
morkunas
morning
morris
morta
mos
moscow
mosedzio
most
mot
moteri
moteriai
moterimi
moterims
moteris
moteriska
moteriskas
moteriskos
moteriskosios
moters
moteru
moterys
mother
motiejaus
motiejus
motina
motinai
motinos
motociklu
motor
motors
motyvai
motyvais
motyvas
motyvu
mount
move
movie
movies
moz
mozaika
mozambikas
mozambiko
mozambique
mozuru
mp
mq
mr
mru
ms
mstislavlio
mstl
mt
mtv
mu
muchafaza
muge
muhammad
mui
muilo
muitines
muller
multitree
mums
munchen
muo
murine
murines
murinis
muro
murphy
murray
mus
musa
musamieji
muse
muses
museum
musi
musiai
music
musio
musis
musiu
musiuose
musos
musti
musu
musulmonai
musulmonu
musyje
mutzell
muziejai
muziejaus
muziejininkas
muzieju
muziejui
muziejuje
muziejumi
muziejus
muzika
muzikai
muzikantai
muzikantas
muzikantu
muzikas
muzikine
muzikines
muzikini
muzikiniai
muzikiniame
muzikinio
muzikinis
muzikiniu
muzikoje
muzikologas
muzikos
muziku
mv
mw
mx
my
mykolaitis
mykolas
mykolo
mylejo
myleti
myli
myliu
myspace
mythology
mz
n
n0
n1
n2
n3
n4
n5
n6
n7
n8
n9
na
nach
naciai
nacional
nacionaline
nacionalinei
nacionalineje
nacionalines
nacionalini
nacionaliniai
nacionaliniame
nacionalinio
nacionalinis
nacionaliniu
nacionalistu
nacistines
naciu
nad
nadruvos
nafta
naftos
nagai
nagrineja
nagrinejo
nagrineti
nagu
nagurskiai
naha
nai
naikina
naikinimo
naikino
naikinti
naikintuvas
naikintuvu
nais
nak
nakti
nakties
naktimis
naktis
nakvoja
nakvojo
nakvoti
nam
nama
namai
namais
namas
name
names
namibia
namibija
namibijos
namie
naminiai
naminiu
namo
namu
namuose
namus
nan
nana
nancy
nant
napoleonas
napoleono
narbutas
nare
nares
narevo
nariai
nariais
nariams
nario
nariu
narius
narkotiku
narys
naryste
nas
nasa
nasle
nasta
nat
natalija
nation
national
nations
nato
natrio
natura
natural
naturalaus
naturali
naturaliai
naturalios
naturaliu
naturalus
nature
nau
naud
nauda
naudai
naudinga
naudingas
naudingiausias
naudodami
naudodavo
naudoja
naudojama
naudojamas
naudojami
naudojamos
naudojamu
naudojant
naudojantis
naudojasi
naudojima
naudojimas
naudojimo
naudojimui
naudojo
naudojosi
naudos
naudota
naudotas
naudoti
naudotis
naudotoju
naudotos
naudotu
naugardo
naugarduko
nauja
naujai
naujais
naujaja
naujajame
naujaji
naujalio
naujam
naujamiescio
naujas
naujasis
naujausia
naujausias
nauji
naujieji
naujiems
naujiena
naujienos
naujienu
naujo
naujoje
naujoji
naujojo
naujojoje
naujokas
naujoku
naujomis
naujos
naujosios
nauju
naujuju
naujuoju
naujus
naumiescio
nauru
navahu
navaza
navickas
navidad
navu
nb
nba
nbc
nc
ncbi
nd
ne
neabejoja
neabejojo
neabejoti
neabejotinai
neaiski
neaiskios
neaisku
neakivaizdiniu
neantgere
neantgeria
neantgerti
neantmoka
neantmokejo
neantmoketi
neantrase
neantraso
neantrasyti
neantsidirba
neantsidirbo
neantsidirbti
neantsigere
neantsigeria
neantsigerti
neantsiskaite
neantsiskaito
neantsiskaityti
neapdirba
neapdirbo
neapdirbti
neapdriso
neapdrista
neapdristi
neapgalvoja
neapgalvojo
neapgalvoti
neapgere
neapgeria
neapgerti
neapgirdejo
neapgirdeti
neapgirdi
neapmaste
neapmasto
neapmastyti
neapmigo
neapmigti
neapminga
neapmoka
neapmokejo
neapmoketi
neapnakvoja
neapnakvojo
neapnakvoti
neapnervina
neapnervino
neapnervinti
neapolio
neapolyje
neapragina
neapragino
neapraginti
neaprase
neapraso
neaprasyti
neapsapnavo
neapsapnuoja
neapsapnuoti
neapsidirba
neapsidirbo
neapsidirbti
neapsigalvoja
neapsigalvojo
neapsigalvoti
neapsigere
neapsigeria
neapsigerti
neapsigirdejo
neapsigirdeti
neapsigirdi
neapsimaste
neapsimasto
neapsimastyti
neapsimiega
neapsimiegojo
neapsimiegoti
neapsimoka
neapsimokejo
neapsimoketi
neapsinakvoja
neapsinakvojo
neapsinakvoti
neapsinervina
neapsinervino
neapsinervinti
neapsirase
neapsiraso
neapsirasyti
neapsisapnavo
neapsisapnuoja
neapsisapnuoti
neapsiskaite
neapsiskaito
neapsiskaityti
neapsiskolina
neapsiskolino
neapsiskolinti
neapsivagia
neapsivaisina
neapsivaisino
neapsivaisinti
neapsivoge
neapsivogti
neapsivoke
neapsivokia
neapsivokti
neapskaite
neapskaito
neapskaityti
neapskolina
neapskolino
neapskolinti
neaptikrina
neaptikrino
neaptikrinti
neapvagia
neapvaisina
neapvaisino
neapvaisinti
neapvoge
neapvogti
neapvoke
neapvokia
neapvokti
neapykanta
near
neatgamina
neatgamino
neatgaminti
neatgere
neatgeria
neatgerti
neatgirdejo
neatgirdeti
neatgirdi
neatidirba
neatidirbo
neatidirbti
neatitikina
neatitikino
neatitikinti
neatitikrina
neatitikrino
neatitikrinti
neatitinka
neatkilo
neatkilti
neatkyla
neatmaste
neatmasto
neatmastyti
neatmiega
neatmiegojo
neatmiegoti
neatmoka
neatmokejo
neatmoketi
neatpazinta
neatrase
neatraso
neatrasyti
neatsapnavo
neatsapnuoja
neatsapnuoti
neatsidirba
neatsidirbo
neatsidirbti
neatsigalvoja
neatsigalvojo
neatsigalvoti
neatsigamina
neatsigamino
neatsigaminti
neatsigere
neatsigeria
neatsigerti
neatsigincija
neatsigincijo
neatsigincyti
neatsigirdejo
neatsigirdeti
neatsigirdi
neatsimaste
neatsimasto
neatsimastyti
neatsimiega
neatsimiegojo
neatsimiegoti
neatsimoka
neatsimokejo
neatsimoketi
neatsirase
neatsiraso
neatsirasyti
neatsisapnavo
neatsisapnuoja
neatsisapnuoti
neatsiskaite
neatsiskaito
neatsiskaityti
neatsiskolina
neatsiskolino
neatsiskolinti
neatsitikina
neatsitikino
neatsitikinti
neatsitikrina
neatsitikrino
neatsitikrinti
neatsivagia
neatsivaisina
neatsivaisino
neatsivaisinti
neatsivoge
neatsivogti
neatsivoke
neatsivokia
neatsivokti
neatskaite
neatskaito
neatskaityti
neatskolina
neatskolino
neatskolinti
neatvagia
neatvaisina
neatvaisino
neatvaisinti
neatvoge
neatvogti
neatvoke
neatvokia
neatvokti
neauksti
nebaige
nebaigtos
nebe
nebeantgere
nebeantgeria
nebeantgerti
nebeantsigere
nebeantsigeria
nebeantsigerti
nebeapgere
nebeapgeria
nebeapgerti
nebeapsigere
nebeapsigeria
nebeapsigerti
nebeatgere
nebeatgeria
nebeatgerti
nebeatsigere
nebeatsigeria
nebeatsigerti
nebebuvo
nebegalejo
nebegali
nebegere
nebegeria
nebegerti
nebeigere
nebeigeria
nebeigerti
nebeisgere
nebeisgeria
nebeisgerti
nebeisigere
nebeisigeria
nebeisigerti
nebeissigere
nebeissigeria
nebeissigerti
nebeliko
nebenaudojama
nebendradarbiauja
nebendradarbiauti
nebendradarbiavo
nebent
nebenugere
nebenugeria
nebenugerti
nebenusigere
nebenusigeria
nebenusigerti
nebepagere
nebepageria
nebepagerti
nebepargere
nebepargeria
nebepargerti
nebepasigere
nebepasigeria
nebepasigerti
nebepergere
nebepergeria
nebepergerti
nebepersigere
nebepersigeria
nebepersigerti
nebepragere
nebeprageria
nebepragerti
nebeprasigere
nebeprasigeria
nebeprasigerti
nebeprigere
nebeprigeria
nebeprigerti
nebeprisigere
nebeprisigeria
nebeprisigerti
nebeprisikiskiakopusteliauja
nebeprisikiskiakopusteliauti
nebeprisikiskiakopusteliavo
nebeprisikopusteliauja
nebeprisikopusteliauti
nebeprisikopusteliavo
nebera
nebesugere
nebesugeria
nebesugerti
nebesusigere
nebesusigeria
nebesusigerti
nebeuzgere
nebeuzgeria
nebeuzgerti
nebeuzsigere
nebeuzsigeria
nebeuzsigerti
neblefavo
neblefuoja
neblefuoti
nebuna
nebus
nebutinai
nebutu
nebuvimas
nebuvo
nedalyvavo
nedarbo
nedatuota
nedaug
nedaugelio
nedidele
nedidelemis
nedideles
nedideli
nedideliais
nedideliame
nedidelio
nedidelis
nedideliu
nedidelius
nedirba
nedirbo
nedirbti
nedriso
nedrista
nedristi
need
neerlandes
neg
negalejo
negaletu
negali
negalima
negaliu
negalvoja
negalvojo
negalvoti
negamina
negamino
negaminti
negavo
negere
negeria
negerti
negincija
negincijo
negincyti
negirdejo
negirdeti
negirdi
negro
negu
negyvenama
nei
neidirba
neidirbo
neidirbti
neidriso
neidrista
neidristi
neig
neigaliuju
neigamina
neigamino
neigaminti
neige
neigere
neigeria
neigerti
neigiama
neigiamai
neigiamas
neigiamu
neijaudina
neijaudino
neijaudinti
neikilo
neikilti
neikyla
neil
neilgai
neimanoma
neimiega
neimiegojo
neimiegoti
neimigo
neimigti
neiminga
neimoka
neimokejo
neimoketi
neinervina
neinervino
neinervinti
neiprasta
neiragina
neiragino
neiraginti
neirase
neiraso
neirasyti
neisapnavo
neisapnuoja
neisapnuoti
neisdirba
neisdirbo
neisdirbti
neisdriso
neisdrista
neisdristi
neisgalvoja
neisgalvojo
neisgalvoti
neisgamina
neisgamino
neisgaminti
neisgere
neisgeria
neisgerti
neisidirba
neisidirbo
neisidirbti
neisidriso
neisidrista
neisidristi
neisigalvoja
neisigalvojo
neisigalvoti
neisigamina
neisigamino
neisigaminti
neisigere
neisigeria
neisigerti
neisijaudina
neisijaudino
neisijaudinti
neisimaste
neisimasto
neisimastyti
neisimiega
neisimiegojo
neisimiegoti
neisimigo
neisimigti
neisiminga
neisimoka
neisimokejo
neisimoketi
neisinervina
neisinervino
neisinervinti
neisiragina
neisiragino
neisiraginti
neisirase
neisiraso
neisirasyti
neisisapnavo
neisisapnuoja
neisisapnuoti
neisiskaite
neisiskaito
neisiskaityti
neisiskolina
neisiskolino
neisiskolinti
neisitikina
neisitikino
neisitikinti
neisitikrina
neisitikrino
neisitikrinti
neisivagia
neisivaisina
neisivaisino
neisivaisinti
neisivoge
neisivogti
neisivoke
neisivokia
neisivokti
neisjaudina
neisjaudino
neisjaudinti
neiskaite
neiskaito
neiskaitomas
neiskaitomi
neiskaitomos
neiskaityti
neiskilo
neiskilti
neiskolina
neiskolino
neiskolinti
neiskyla
neisliko
neismaste
neismasto
neismastyti
neismiega
neismiegojo
neismiegoti
neismigo
neismigti
neisminga
neismoka
neismokejo
neismoketi
neisnakvoja
neisnakvojo
neisnakvoti
neisnervina
neisnervino
neisnervinti
neisragina
neisragino
neisraginti
neisrase
neisraso
neisrasyti
neissapnavo
neissapnuoja
neissapnuoti
neissidirba
neissidirbo
neissidirbti
neissidriso
neissidrista
neissidristi
neissigalvoja
neissigalvojo
neissigalvoti
neissigamina
neissigamino
neissigaminti
neissigere
neissigeria
neissigerti
neissigincija
neissigincijo
neissigincyti
neissijaudina
neissijaudino
neissijaudinti
neissikilo
neissikilti
neissikyla
neissimaste
neissimasto
neissimastyti
neissimiega
neissimiegojo
neissimiegoti
neissimoka
neissimokejo
neissimoketi
neissinakvoja
neissinakvojo
neissinakvoti
neissinervina
neissinervino
neissinervinti
neissiragina
neissiragino
neissiraginti
neissirase
neissiraso
neissirasyti
neissiskaite
neissiskaito
neissiskaityti
neissiskolina
neissiskolino
neissiskolinti
neissitikrina
neissitikrino
neissitikrinti
neissivagia
neissivaisina
neissivaisino
neissivaisinti
neissivoge
neissivogti
neissivoke
neissivokia
neissivokti
neisskaite
neisskaito
neisskaityti
neisskolina
neisskolino
neisskolinti
neistikrina
neistikrino
neistikrinti
neisvagia
neisvaisina
neisvaisino
neisvaisinti
neisvoge
neisvogti
neisvoke
neisvokia
neisvokti
neitikina
neitikino
neitikinti
neitikrina
neitikrino
neitikrinti
neivagia
neivaisina
neivaisino
neivaisinti
neiveike
neivoge
neivogti
neivyko
nejaudina
nejaudino
nejaudinti
nekeliamieji
nekilnojamojo
nekilo
nekilti
nekontroliavo
nekontroliuoja
nekontroliuoti
nekyla
nelabai
nelaime
nelaimes
nelaimiu
nelaisve
nelaisveje
nelegaliai
neleido
neleidzia
neliko
nelly
nelson
nemaksciu
nemaste
nemasto
nemastyti
nemaza
nemazai
nemencines
nemiega
nemiegojo
nemiegoti
nemigo
nemigti
neminga
nemoka
nemokama
nemokamai
nemokamas
nemokejo
nemoketi
nemuna
nemunas
nemunelio
nemuno
nenakvoja
nenakvojo
nenakvoti
nenervina
nenervino
nenervinti
nenorejo
nenori
nenudirba
nenudirbo
nenudirbti
nenugalvoja
nenugalvojo
nenugalvoti
nenugamina
nenugamino
nenugaminti
nenugere
nenugeria
nenugerti
nenugincija
nenugincijo
nenugincyti
nenugirdejo
nenugirdeti
nenugirdi
nenukilo
nenukilti
nenukyla
nenumiega
nenumiegojo
nenumiegoti
nenumigo
nenumigti
nenuminga
nenumoka
nenumokejo
nenumoketi
nenuragina
nenuragino
nenuraginti
nenusapnavo
nenusapnuoja
nenusapnuoti
nenusidirba
nenusidirbo
nenusidirbti
nenusigalvoja
nenusigalvojo
nenusigalvoti
nenusigamina
nenusigamino
nenusigaminti
nenusigere
nenusigeria
nenusigerti
nenusigincija
nenusigincijo
nenusigincyti
nenusimiega
nenusimiegojo
nenusimiegoti
nenusirase
nenusiraso
nenusirasyti
nenusisapnavo
nenusisapnuoja
nenusisapnuoti
nenusiskaite
nenusiskaito
nenusiskaityti
nenusiskolina
nenusiskolino
nenusiskolinti
nenusitikrina
nenusitikrino
nenusitikrinti
nenusivagia
nenusivaisina
nenusivaisino
nenusivaisinti
nenusivoge
nenusivogti
nenusivoke
nenusivokia
nenusivokti
nenuskaite
nenuskaito
nenuskaityti
nenutekantis
nenutikrina
nenutikrino
nenutikrinti
nenuvagia
nenuvaisina
nenuvaisino
nenuvaisinti
nenuvoge
nenuvogti
nenuvoke
nenuvokia
nenuvokti
neo
neoficialiai
neoficialus
neolitas
neolito
nepabendradarbiauja
nepabendradarbiauti
nepabendradarbiavo
nepadirba
nepadirbo
nepadirbti
nepadriso
nepadrista
nepadristi
nepagalvoja
nepagalvojo
nepagalvoti
nepagamina
nepagamino
nepagaminti
nepagere
nepageria
nepagerti
nepagirdejo
nepagirdeti
nepagirdi
nepaisant
nepaisrase
nepaisraso
nepaisrasyti
nepaisvagia
nepaisvoge
nepaisvogti
nepajaudina
nepajaudino
nepajaudinti
nepakankamai
nepakilo
nepakilti
nepakontroliavo
nepakontroliuoja
nepakontroliuoti
nepakyla
nepal
nepalas
nepale
nepalo
nepamaste
nepamasto
nepamastyti
nepamiega
nepamiegojo
nepamiegoti
nepamigo
nepamigti
nepaminga
nepamoka
nepamokejo
nepamoketi
nepanakvoja
nepanakvojo
nepanakvoti
nepanervina
nepanervino
nepanervinti
nepapasirase
nepapasiraso
nepapasirasyti
nepapauzmigo
nepapauzmigti
nepapauzminga
nepapavagia
nepapavoge
nepapavogti
nepaprastai
nepaprastasis
nepapriestarauja
nepapriestarauti
nepapriestaravo
nepaprisirase
nepaprisiraso
nepaprisirasyti
neparagina
neparagino
neparaginti
neparase
neparaso
neparasyti
nepardirba
nepardirbo
nepardirbti
nepargere
nepargeria
nepargerti
neparkilo
neparkilti
neparkyla
neparrase
neparraso
neparrasyti
neparsidirba
neparsidirbo
neparsidirbti
neparsivoke
neparsivokia
neparsivokti
neparvoke
neparvokia
neparvokti
nepasapnavo
nepasapnuoja
nepasapnuoti
nepasidirba
nepasidirbo
nepasidirbti
nepasidriso
nepasidrista
nepasidristi
nepasieke
nepasigalvoja
nepasigalvojo
nepasigalvoti
nepasigamina
nepasigamino
nepasigaminti
nepasigere
nepasigeria
nepasigerti
nepasigincija
nepasigincijo
nepasigincyti
nepasigirdejo
nepasigirdeti
nepasigirdi
nepasijaudina
nepasijaudino
nepasijaudinti
nepasikontroliavo
nepasikontroliuoja
nepasikontroliuoti
nepasimaste
nepasimasto
nepasimastyti
nepasimiega
nepasimiegojo
nepasimiegoti
nepasimoka
nepasimokejo
nepasimoketi
nepasinervina
nepasinervino
nepasinervinti
nepasiragina
nepasiragino
nepasiraginti
nepasirase
nepasiraso
nepasirasyti
nepasisapnavo
nepasisapnuoja
nepasisapnuoti
nepasiskaite
nepasiskaito
nepasiskaityti
nepasiskolina
nepasiskolino
nepasiskolinti
nepasitenkinima
nepasitikina
nepasitikino
nepasitikinti
nepasitikrina
nepasitikrino
nepasitikrinti
nepasivagia
nepasivaisina
nepasivaisino
nepasivaisinti
nepasivoge
nepasivogti
nepasivoke
nepasivokia
nepasivokti
nepaskaite
nepaskaito
nepaskaityti
nepaskolina
nepaskolino
nepaskolinti
nepasusirase
nepasusiraso
nepasusirasyti
nepasusiskaite
nepasusiskaito
nepasusiskaityti
nepasuskaite
nepasuskaito
nepasuskaityti
nepateko
nepatikina
nepatikino
nepatikinti
nepatiko
nepatikrina
nepatikrino
nepatikrinti
nepavagia
nepavaisina
nepavaisino
nepavaisinti
nepavoge
nepavogti
nepavoke
nepavokia
nepavokti
nepavyko
neperdirba
neperdirbo
neperdirbti
neperdriso
neperdrista
neperdristi
nepergalvoja
nepergalvojo
nepergalvoti
nepergere
nepergeria
nepergerti
nepergincija
nepergincijo
nepergincyti
nepergirdejo
nepergirdeti
nepergirdi
neperkilo
neperkilti
neperkyla
nepermaste
nepermasto
nepermastyti
nepermiega
nepermiegojo
nepermiegoti
nepermoka
nepermokejo
nepermoketi
nepernakvoja
nepernakvojo
nepernakvoti
neperrase
neperraso
neperrasyti
nepersapnavo
nepersapnuoja
nepersapnuoti
nepersidirba
nepersidirbo
nepersidirbti
nepersigalvoja
nepersigalvojo
nepersigalvoti
nepersigere
nepersigeria
nepersigerti
nepersimaste
nepersimasto
nepersimastyti
nepersimiega
nepersimiegojo
nepersimiegoti
nepersirase
nepersiraso
nepersirasyti
nepersisapnavo
nepersisapnuoja
nepersisapnuoti
nepersiskaite
nepersiskaito
nepersiskaityti
nepersitikina
nepersitikino
nepersitikinti
nepersitikrina
nepersitikrino
nepersitikrinti
nepersivagia
nepersivaisina
nepersivaisino
nepersivaisinti
nepersivoge
nepersivogti
nepersivoke
nepersivokia
nepersivokti
neperskaite
neperskaito
neperskaityti
nepertikina
nepertikino
nepertikinti
nepertikrina
nepertikrino
nepertikrinti
nepervagia
nepervaisina
nepervaisino
nepervaisinti
nepervoge
nepervogti
nepervoke
nepervokia
nepervokti
nepilna
nepilnas
neporiniai
nepradirba
nepradirbo
nepradirbti
nepradriso
nepradrista
nepradristi
nepragalvoja
nepragalvojo
nepragalvoti
nepragere
neprageria
nepragerti
nepragirdejo
nepragirdeti
nepragirdi
neprakilo
neprakilti
neprakyla
nepramiega
nepramiegojo
nepramiegoti
nepramigo
nepramigti
nepraminga
nepranakvoja
nepranakvojo
nepranakvoti
nepranervina
nepranervino
nepranervinti
neprasapnavo
neprasapnuoja
neprasapnuoti
neprasidirba
neprasidirbo
neprasidirbti
neprasidriso
neprasidrista
neprasidristi
neprasigalvoja
neprasigalvojo
neprasigalvoti
neprasigamina
neprasigamino
neprasigaminti
neprasigere
neprasigeria
neprasigerti
neprasimiega
neprasimiegojo
neprasimiegoti
neprasinervina
neprasinervino
neprasinervinti
neprasisapnavo
neprasisapnuoja
neprasisapnuoti
neprasiskaite
neprasiskaito
neprasiskaityti
neprasiskolina
neprasiskolino
neprasiskolinti
neprasivagia
neprasivaisina
neprasivaisino
neprasivaisinti
neprasivoge
neprasivogti
neprasivoke
neprasivokia
neprasivokti
nepraskaite
nepraskaito
nepraskaityti
nepraskolina
nepraskolino
nepraskolinti
nepravagia
nepravaisina
nepravaisino
nepravaisinti
nepravoge
nepravogti
nepravoke
nepravokia
nepravokti
nepridirba
nepridirbo
nepridirbti
nepriestarauja
nepriestarauti
nepriestaravo
neprigalvoja
neprigalvojo
neprigalvoti
neprigamina
neprigamino
neprigaminti
neprigere
neprigeria
neprigerti
neprigirdejo
neprigirdeti
neprigirdi
neprikilo
neprikilti
nepriklauso
nepriklausoma
nepriklausomai
nepriklausomas
nepriklausomi
nepriklausomoje
nepriklausomos
nepriklausomu
nepriklausomybe
nepriklausomybes
neprikyla
neprimaste
neprimasto
neprimastyti
neprimiega
neprimiegojo
neprimiegoti
neprimigo
neprimigti
nepriminga
neprimoka
neprimokejo
neprimoketi
neprinakvoja
neprinakvojo
neprinakvoti
neprinervina
neprinervino
neprinervinti
nepripazino
nepriragina
nepriragino
nepriraginti
neprirase
nepriraso
neprirasyti
neprisapnavo
neprisapnuoja
neprisapnuoti
neprisidirba
neprisidirbo
neprisidirbti
neprisigalvoja
neprisigalvojo
neprisigalvoti
neprisigamina
neprisigamino
neprisigaminti
neprisigere
neprisigeria
neprisigerti
neprisigirdejo
neprisigirdeti
neprisigirdi
neprisimaste
neprisimasto
neprisimastyti
neprisimiega
neprisimiegojo
neprisimiegoti
neprisimoka
neprisimokejo
neprisimoketi
neprisinakvoja
neprisinakvojo
neprisinakvoti
neprisinervina
neprisinervino
neprisinervinti
neprisiragina
neprisiragino
neprisiraginti
neprisirase
neprisiraso
neprisirasyti
neprisisapnavo
neprisisapnuoja
neprisisapnuoti
neprisiskaite
neprisiskaito
neprisiskaityti
neprisiskolina
neprisiskolino
neprisiskolinti
neprisitikina
neprisitikino
neprisitikinti
neprisivagia
neprisivaisina
neprisivaisino
neprisivaisinti
neprisivoge
neprisivogti
nepriskaite
nepriskaito
nepriskaityti
nepriskolina
nepriskolino
nepriskolinti
nepritikrina
nepritikrino
nepritikrinti
neprivagia
neprivaisina
neprivaisino
neprivaisinti
neprivoge
neprivogti
neptunas
neptuno
ner
nera
nerado
neragina
neragino
neraginti
neramumai
neramumu
nerase
neraso
nerasyti
nereikia
nereiskia
neretai
neri
neries
nerija
nerijos
nerijus
neringa
neringos
neris
nervina
nervinasi
nervino
nervinosi
nervinti
nervintis
nervu
nes
nesa
nesant
nesapnavo
nesapnuoja
nesapnuoti
nese
nesekme
nesekmes
nesekmingai
neseniai
nesgi
nesidirba
nesidirbo
nesidirbti
nesigalvoja
nesigalvojo
nesigalvoti
nesigamina
nesigamino
nesigaminti
nesigere
nesigeria
nesigerti
nesigincija
nesigincijo
nesigincyti
nesijaudina
nesijaudino
nesijaudinti
nesinervina
nesinervino
nesinervinti
nesioja
nesiojo
nesioti
nesiragina
nesiragino
nesiraginti
nesisapnavo
nesisapnuoja
nesisapnuoti
nesiskolina
nesiskolino
nesiskolinti
nesitikrina
nesitikrino
nesitikrinti
neskaitant
neskaite
neskaito
neskaityti
neskolina
neskolino
neskolinti
nesti
nestumas
nestumo
nesudirba
nesudirbo
nesudirbti
nesugalvoja
nesugalvojo
nesugalvoti
nesugamina
nesugamino
nesugaminti
nesugebejo
nesugere
nesugeria
nesugerti
nesugirdejo
nesugirdeti
nesugirdi
nesujaudina
nesujaudino
nesujaudinti
nesukilo
nesukilti
nesukontroliavo
nesukontroliuoja
nesukontroliuoti
nesukyla
nesulauke
nesumaste
nesumasto
nesumastyti
nesumigo
nesumigti
nesuminga
nesumoka
nesumokejo
nesumoketi
nesunervina
nesunervino
nesunervinti
nesunkiai
nesuragina
nesuragino
nesuraginti
nesurase
nesuraso
nesurasyti
nesusapnavo
nesusapnuoja
nesusapnuoti
nesusidirba
nesusidirbo
nesusidirbti
nesusigalvoja
nesusigalvojo
nesusigalvoti
nesusigamina
nesusigamino
nesusigaminti
nesusigere
nesusigeria
nesusigerti
nesusigincija
nesusigincijo
nesusigincyti
nesusijaudina
nesusijaudino
nesusijaudinti
nesusimaste
nesusimasto
nesusimastyti
nesusimoka
nesusimokejo
nesusimoketi
nesusinervina
nesusinervino
nesusinervinti
nesusirase
nesusiraso
nesusirasyti
nesusisapnavo
nesusisapnuoja
nesusisapnuoti
nesusiskaite
nesusiskaito
nesusiskaityti
nesusiskolina
nesusiskolino
nesusiskolinti
nesusitikrina
nesusitikrino
nesusitikrinti
nesusivagia
nesusivaisina
nesusivaisino
nesusivaisinti
nesusivoge
nesusivogti
nesusivoke
nesusivokia
nesusivokti
nesuskaite
nesuskaito
nesuskaityti
nesuskolina
nesuskolino
nesuskolinti
nesutarimai
nesutarimu
nesutiko
nesutikrina
nesutikrino
nesutikrinti
nesuvagia
nesuvaisina
nesuvaisino
nesuvaisinti
nesuvoge
nesuvogti
nesuvoke
nesuvokia
nesuvokti
nesvarbu
nesvyziaus
net
netaisyklingo
netaisyklingos
neteisingai
neteko
netenka
netgi
netiesiogiai
netiketai
netikina
netikino
netikinti
netikrina
netikrino
netikrinti
netikslus
netinka
netinkama
netoli
netoliese
netruko
netrukus
neturejo
neturetu
neturi
neturintis
network
neues
neuzdirba
neuzdirbo
neuzdirbti
neuzgere
neuzgeria
neuzgerti
neuzgincija
neuzgincijo
neuzgincyti
neuzgirdejo
neuzgirdeti
neuzgirdi
neuzjaudina
neuzjaudino
neuzjaudinti
neuzkilo
neuzkilti
neuzkyla
neuzmaste
neuzmasto
neuzmastyti
neuzmiega
neuzmiegojo
neuzmiegoti
neuzmigo
neuzmigti
neuzminga
neuzmoka
neuzmokejo
neuzmoketi
neuznakvoja
neuznakvojo
neuznakvoti
neuznervina
neuznervino
neuznervinti
neuzragina
neuzragino
neuzraginti
neuzrase
neuzraso
neuzrasyti
neuzsapnavo
neuzsapnuoja
neuzsapnuoti
neuzsidirba
neuzsidirbo
neuzsidirbti
neuzsigalvoja
neuzsigalvojo
neuzsigalvoti
neuzsigere
neuzsigeria
neuzsigerti
neuzsimaste
neuzsimasto
neuzsimastyti
neuzsimiega
neuzsimiegojo
neuzsimiegoti
neuzsimigo
neuzsimigti
neuzsiminga
neuzsimoka
neuzsimokejo
neuzsimoketi
neuzsinakvoja
neuzsinakvojo
neuzsinakvoti
neuzsinervina
neuzsinervino
neuzsinervinti
neuzsirase
neuzsiraso
neuzsirasyti
neuzsisapnavo
neuzsisapnuoja
neuzsisapnuoti
neuzsiskaite
neuzsiskaito
neuzsiskaityti
neuzsiskolina
neuzsiskolino
neuzsiskolinti
neuzsitikrina
neuzsitikrino
neuzsitikrinti
neuzsivagia
neuzsivaisina
neuzsivaisino
neuzsivaisinti
neuzsivoge
neuzsivogti
neuzskaite
neuzskaito
neuzskaityti
neuzskolina
neuzskolino
neuzskolinti
neuztikina
neuztikino
neuztikinti
neuztikrina
neuztikrino
neuztikrinti
neuzvagia
neuzvaisina
neuzvaisino
neuzvaisinti
neuzvoge
neuzvogti
neuzvoke
neuzvokia
neuzvokti
neva
nevagia
nevaisina
nevaisino
nevaisinti
nevart
neveik
neveikiancios
neveikianti
never
nevezio
nevezis
nevoge
nevogti
nevoke
nevokia
nevokti
nevyko
new
newcastle
news
next
nezinau
nezino
nezinojo
nezinoma
nezinomas
neziurint
nezymiai
nf
ng
ngc
nh
nhl
ni
nicaragua
nicholas
nick
nicolas
nicole
nida
nidos
nie
niek
niekad
niekada
niekados
niekaip
niekam
niekas
nieko
niekuo
niekuomet
niekur
nielsen
niems
nieves
niger
nigeria
nigerija
nigerijoje
nigerijos
nigerio
nigeris
night
nih
nijole
nikaragva
nikaragvos
nikola
nikolajaus
nikolajus
nilo
nimfos
nin
nina
nine
nintendo
nis
niu
niue
niujorka
niujorkas
niujorke
niujorko
niurnbergo
nj
nk
nkl
nkvd
nl
nlm
nm
nn
no
nobelio
nom
nomas
nominacija
nominacijos
nominuota
nominuotas
noms
non
nora
noras
nord
nordliches
noreciau
noredama
noredamas
noredami
noreika
norejo
noretu
norfolk
nori
norima
norint
noriu
norma
norman
normanu
normas
normos
normu
nors
norte
north
northern
noru
noruega
norv
norvegija
norvegijoje
norvegijos
norvegu
nos
nosi
nosies
nosis
not
notaras
notaru
notes
nothing
nov
nova
nove
novele
noveles
noveliu
november
novgorodo
novi
now
np
nq
nr
ns
nt
nu
nuabejoja
nuabejojo
nuabejoti
nubaustas
nuclear
nudirba
nudirbo
nudirbti
nuejo
nueva
nuevo
nufilmuotas
nugalejes
nugalejo
nugaleti
nugaletoja
nugaletojai
nugaletojais
nugaletojas
nugaletojo
nugaletojos
nugaletoju
nugali
nugalvoja
nugalvojo
nugalvoti
nugamina
nugamino
nugaminti
nugara
nugaros
nugere
nugeria
nugerti
nugincija
nugincijo
nugincyti
nugirdejo
nugirdeti
nugirdi
nugriauta
nugriautas
nugriauti
nukariavo
nukentejo
nukilo
nukilti
nukreipta
nukreiptas
nukreipti
nukrenta
nukrito
nukryziuotojo
nukyla
nuleme
nulemia
nulis
nuliui
numate
numato
numatoma
numatyta
numatytas
numatyti
number
numeri
numeriai
numerio
numeris
numeriu
numiega
numiegojo
numiegoti
numigo
numigti
numinga
numirti
numoka
numokejo
numoketi
nuniokojo
nuo
nuodeme
nuodemes
nuodingas
nuodu
nuolat
nuolatine
nuolatines
nuolatiniai
nuolatinio
nuolatinis
nuolatiniu
nuolatos
nuolydis
nuomone
nuomones
nuomos
nuopelnus
nuoroda
nuorodos
nuos
nuosaka
nuosakos
nuosava
nuosavybe
nuosavybes
nuosekliai
nuostata
nuostatai
nuostatas
nuostatos
nuostatu
nuostatus
nuostoliu
nuostolius
nuotaika
nuotaikos
nuotaka
nuotekis
nuoteku
nuotolio
nuotolis
nuotoliu
nuotrauka
nuotraukas
nuotraukos
nuotrauku
nuotykiai
nuotykiu
nupirko
nuragina
nuragino
nuraginti
nurase
nuraso
nurasyti
nurode
nurodo
nurodoma
nurodomas
nurodydami
nurodymu
nurodyta
nurodyti
nus
nusako
nusapnavo
nusapnuoja
nusapnuoti
nusiaube
nusidirba
nusidirbo
nusidirbti
nusifilmavo
nusigalvoja
nusigalvojo
nusigalvoti
nusigamina
nusigamino
nusigaminti
nusigere
nusigeria
nusigerti
nusigincija
nusigincijo
nusigincyti
nusikalteliu
nusikaltima
nusikaltimas
nusikaltimo
nusikaltimu
nusikaltimus
nusileidimo
nusileido
nusileidzia
nusileisti
nusimiega
nusimiegojo
nusimiegoti
nusipelnes
nusipelniusio
nusipirko
nusipirkti
nusirase
nusiraso
nusirasyti
nusisapnavo
nusisapnuoja
nusisapnuoti
nusiskaite
nusiskaito
nusiskaityti
nusiskolina
nusiskolino
nusiskolinti
nusitikrina
nusitikrino
nusitikrinti
nusiuncia
nusiunte
nusiusti
nusivagia
nusivaisina
nusivaisino
nusivaisinti
nusivoge
nusivogti
nusivoke
nusivokia
nusivokti
nusizude
nuskaite
nuskaito
nuskaityti
nuskendo
nusprende
nusprendzia
nuspresta
nustatant
nustate
nustato
nustatoma
nustatomas
nustatymas
nustatymo
nustatyta
nustatytas
nustatyti
nustatytos
nustatytu
nustebina
nustebino
nustebinti
nustojo
nutape
nutare
nutarima
nutarimai
nutarimas
nutarimu
nutarta
nuteistas
nuteisti
nutiesta
nutiestas
nutiesti
nutiesus
nutikrina
nutikrino
nutikrinti
nutoles
nutolusi
nutrauke
nutraukta
nutrauktas
nutraukti
nutruko
nuts
nuvagia
nuvaisina
nuvaisino
nuvaisinti
nuverstas
nuversti
nuverte
nuvoge
nuvogti
nuvoke
nuvokia
nuvokti
nuvyko
nuzude
nuzudo
nuzudymo
nuzudyta
nuzudytas
nuzudyti
nv
nw
nx
ny
nyderlandai
nyderlandu
nyderlanduose
nyderlandus
nyksta
nykti
nytimes
nz
o
o0
o1
o2
o3
o4
o5
o6
o7
o8
o9
oa
ob
obama
obelis
obeliu
obes
objekta
objektai
objektas
objekto
objektu
objektus
observatorija
obuoliu
obuolys
oc
ocean
oceano
oclc
october
od
oda
odesos
odos
oe
of
off
office
official
oficialaus
oficiali
oficialia
oficialiai
oficialios
oficialiu
oficialu
oficialus
oficialusis
og
oginskio
oginskis
oh
oi
oil
oj
oje
oji
ojo
ojoje
ok
okeanija
okeanijoje
okeanijos
okeanologija
okinavu
oksfordo
oksitanu
okupacija
okupacijai
okupacijos
okupacine
okupacines
okupavo
okupavus
okupuota
okupuoto
okupuotos
ol
ola
olandai
olandija
olandijoje
olandijos
olandu
old
olegas
olga
olimpiada
olimpiadoje
olimpiados
olimpiadose
olimpietis
olimpine
olimpines
olimpinese
olimpini
olimpinio
olimpinis
olimpiniu
olimpo
oliver
olympedia
olympiakos
olympic
olympics
olympique
om
oman
omanas
omano
omega
on
ona
one
online
only
onos
onuskio
onute
oo
op
open
opensuse
opera
operacija
operacijas
operacijos
operaciju
operacine
operacines
operatorius
operetes
operoje
operos
operu
opozicija
opozicijos
opracowany
optika
option
oq
or
ora
orai
oranzine
oranzines
oras
oratorija
orbita
orbitos
orda
orden
order
ordina
ordinas
ordino
ordinu
ordinui
ordos
ore
org
organai
organas
organines
organiniu
organizacija
organizacijai
organizacijas
organizacijoje
organizacijomis
organizacijoms
organizacijos
organizacijose
organizaciju
organizacinio
organization
organizatoriai
organizatoriu
organizatorius
organizavimas
organizavimo
organizavo
organizma
organizmai
organizmas
organizme
organizmo
organizmu
organizmui
organizuoja
organizuojamas
organizuojami
organizuojamos
organizuota
organizuotas
organizuoti
organu
organus
oriental
orientuota
origin
original
originalas
originalaus
originali
originaliu
originalo
originalus
origins
orkestras
orkestre
orkestro
orkestru
orkestrui
orlaiviai
orlaivio
orlaivis
orlaiviu
orlaivius
ornamentais
oro
ortodoksu
ortsnamen
ortsnamenverzeichnis
oru
os
oscar
osetia
osetija
osetijos
osetinu
osi
osios
oskaras
oskaro
oskaru
oslo
osmanai
osmanu
ostpreussen
ostpreußen
osvaldas
ot
otas
other
otto
ou
our
out
ov
ovali
ovalo
over
overview
ovidijus
ow
ox
oxford
oy
oz
oziorsko
ozka
ozkos
ozys
p
p0
p1
p2
p3
p4
p5
p6
p7
p8
p9
pa
paabejoja
paabejojo
paabejoti
paaiskeja
paaiskejo
paaiskina
paaiskinti
paaugliu
paaukojo
pab
pabaiga
pabaige
pabaigoje
pabaigos
pabaisa
pabaltijo
pabande
pabando
pabandyti
pabegeliu
pabego
pabegti
pabendradarbiauja
pabendradarbiauti
pabendradarbiavo
paberzes
pablo
pabrades
pabreze
pabrezia
pabrezti
pacas
pacia
paciai
paciais
paciam
paciame
pacias
paciento
pacientu
pacific
pacioje
pacios
paciu
paciuose
pacius
padalijima
padalijimo
padaliniai
padalinimas
padalinio
padaliniu
padalinta
padalintas
padalinti
padalintos
padalinys
padalyvis
padangu
padare
padares
padaro
padarys
padaryta
padarytas
padaryti
padaugejo
padeda
padedamas
padedant
padedavo
padegimas
padejejas
padejeju
padejo
padekos
padengta
padengtas
padengti
pades
padeti
padeties
padetis
padetu
padetyje
padideja
padidejo
padidina
padidino
padidinta
padidintas
padidinti
padirba
padirbo
padirbti
padovanojo
padriso
padrista
padristi
paduviecio
paeme
paezeriu
pagal
pagalba
pagalbine
pagalbos
pagaliau
pagalvoja
pagalvojo
pagalvoti
pagamina
pagaminama
pagamino
pagaminta
pagamintas
pagaminti
pagamintos
pagamintu
pagarba
pagarbos
pagarsejo
pagauti
page
pagegiu
pagerbti
pagere
pageria
pagerino
pagerinti
pagerti
pages
pagimde
pagirdejo
pagirdeti
pagirdi
pagiriu
pagoniu
pagr
pagrinda
pagrindai
pagrindais
pagrindas
pagrinde
pagrindine
pagrindineje
pagrindines
pagrindini
pagrindiniai
pagrindiniais
pagrindiniame
pagrindinio
pagrindinis
pagrindiniu
pagrindinius
pagrindo
pagrindu
pagrindus
pagrista
pagristas
pagristi
pagrobe
pagyrimu
paieska
paieskos
pailga
pailgas
pailgos
paimta
paimtas
paimti
paises
paisrase
paisraso
paisrasyti
paisvagia
paisvoge
paisvogti
pajamas
pajamos
pajamu
pajaudina
pajaudino
pajaudinti
pajegas
pajege
pajegia
pajegomis
pajegoms
pajegos
pajegose
pajegti
pajegu
pajeguma
pajurio
pajuryje
pakalniskiu
pakamaris
pakanka
pakankamai
pakankamumo
pakartotinai
pakeicia
pakeis
pakeista
pakeistas
pakeisti
pakeistos
pakeite
pakeites
pakeitimas
pakeitimo
pakeitimu
pakeitus
pakele
pakeles
pakelese
pakeliui
pakeltas
pakelti
paketu
pakiles
pakilimo
pakilo
pakilti
pakistan
pakistanas
pakistane
pakistano
pakito
paklausa
paklause
paklausia
paklausti
pakontroliavo
pakontroliuoja
pakontroliuoti
pakopa
pakopoje
pakopos
pakopu
pakranciu
pakrante
pakranteje
pakrantes
pakrantese
pakrasciai
pakrascio
pakrasciu
pakrasciuose
pakrasti
pakrastyje
pakrastys
pakruojis
pakruojo
pakviecia
pakviesta
pakviestas
pakviesti
pakviete
pakyla
pal
palaidota
palaidotas
palaidoti
palaikai
palaike
palaiko
palaikoma
palaikomas
palaiku
palaikyma
palaikymas
palaikymo
palaikyti
palaipsniui
palanga
palangoje
palangos
palankiai
palau
palei
paleidimo
paleido
paleista
paleistas
paleisti
palenkes
paleolito
palestina
palestinoje
palestinos
pali
paliaubu
palieka
palikes
palikima
palikimas
palikimo
paliko
palikta
paliktas
palikti
palikuonis
palikuoniu
palikuonys
palivarkas
palivarko
palm
palmes
palmiu
palmyra
palukanu
palydovai
palydovas
palydovo
palydovu
palyginimui
palyginti
palyginus
pamaldas
pamaldos
pamario
pamaste
pamasto
pamastyti
pamatai
pamatas
pamate
pamates
pamato
pamatu
pamatus
pamatyti
pamazu
pamegina
pamegino
pameginti
pamiega
pamiegojo
pamiegoti
pamigo
pamigti
paminejo
pamineta
paminetas
pamineti
paminga
paminkla
paminklai
paminklas
paminklinis
paminklo
paminklu
paminklus
pamiskese
pamoka
pamokas
pamokejo
pamoketi
pamokos
pan
panaikina
panaikinimo
panaikinkite
panaikino
panaikinta
panaikintas
panaikinti
panaikintos
panaikinus
panakvoja
panakvojo
panakvoti
panama
panamos
panasaus
panasi
panasia
panasiai
panasias
panasios
panasiu
panasius
panasu
panasumu
panasus
panaudojant
panaudojimas
panaudojimo
panaudojo
panaudota
panaudotas
panaudoti
panaudotos
pandelio
pandemijos
panele
panemunelio
panemunes
paneriu
panervina
panervino
panervinti
panevezio
panevezyje
panevezys
panorama
panthera
paolo
papa
paparciu
papasirase
papasiraso
papasirasyti
papauzmigo
papauzmigti
papauzminga
papavagia
papavoge
papavogti
papedeje
papedes
paper
papilde
papildo
papildoma
papildomai
papildomas
papildomi
papildomo
papildomos
papildomu
papildomus
papildymas
papildyta
papildytas
papildyti
papiles
papilio
paplite
paplites
paplitimas
paplitimo
paplito
paplitusi
paplitusios
paplitusiu
papludimiai
papludimio
papludimys
paprasciausiai
paprase
paprasta
paprastai
paprastas
paprastasis
paprasti
paprastieji
paprastoji
paprastojo
paprastos
paprastosios
paprastu
paprastuju
papriestarauja
papriestarauti
papriestaravo
paprisirase
paprisiraso
paprisirasyti
paprociai
paprociu
paprocius
paprotys
papua
papuga
papuosalai
papuosalu
par
para
parafia
paragina
paragino
paraginti
paraguay
paragvajaus
paragvajuje
paragvajus
parako
parama
parametra
parametras
parametro
parametru
paramos
paranos
parapija
parapijai
parapijieciu
parapijoje
parapijos
parapiju
parapine
parase
parases
paraso
parasyta
parasytas
parasyti
parasytos
pardave
pardavimai
pardavimo
pardavimu
pardavineti
pardirba
pardirbo
pardirbti
parduoda
parduodama
parduodamas
parduodami
parduodamu
parduota
parduotas
parduoti
parduotuve
parduotuveje
parduotuves
parduotuvese
parduotuviu
pareiga
pareigas
pareigos
pareigose
pareigu
pareigunai
pareigunas
pareigunu
pareigybe
pareigybes
pareikalavo
pareiske
pareme
paremia
paremta
paremtas
paremti
parenge
parengta
parengtas
parengti
pargere
pargeria
pargerti
paribyje
paris
park
parka
parkai
parkas
parke
parkilo
parkilti
parko
parku
parkui
parkuose
parkyla
parlamenta
parlamentas
parlamente
parlamentine
parlamento
paroda
parodas
parode
parodo
parodoje
parodos
parodose
parodu
parodyta
parodytas
parodyti
paros
parrase
parraso
parrasyti
parsidirba
parsidirbo
parsidirbti
parsivoke
parsivokia
parsivokti
part
partial
partija
partijai
partijas
partijoje
partijos
partiju
partinis
partizanai
partizanams
partizanas
partizanu
partnere
partneriai
partneris
partneriu
partnerystes
party
paruose
paruosta
paruostas
paruosti
parupina
parupino
parupinti
parvoke
parvokia
parvokti
paryziaus
paryziu
paryziuje
paryzius
pas
pasa
pasak
pasaka
pasake
pasakes
pasako
pasakoja
pasakojama
pasakojimai
pasakojimas
pasakojimo
pasakojimu
pasakojo
pasakos
pasaku
pasakyta
pasakyti
pasalina
pasalino
pasalinta
pasalintas
pasalinti
pasapnavo
pasapnuoja
pasapnuoti
pasaru
pasauktas
pasauli
pasauline
pasaulines
pasaulini
pasauliniam
pasauliniame
pasaulinio
pasaulinis
pasauliniu
pasaulio
pasaulis
pasauliu
pasauliui
pasaulyje
pasekeju
pasekme
pasekmes
pasekmiu
pasekoje
pasibaige
pasibaigus
pasidalijo
pasidalino
pasidare
pasidaro
pasidaryti
pasidave
pasidirba
pasidirbo
pasidirbti
pasidriso
pasidrista
pasidristi
pasiduoti
pasiekdavo
pasieke
pasiekes
pasiekia
pasiekiama
pasiekiamas
pasiekimai
pasiekimas
pasiekimu
pasiekimus
pasieks
pasiekta
pasiektas
pasiekti
pasiekus
pasiekusi
pasiekusiu
pasieme
pasienio
pasienyje
pasigalvoja
pasigalvojo
pasigalvoti
pasigamina
pasigamino
pasigaminti
pasigere
pasigeria
pasigerti
pasigincija
pasigincijo
pasigincyti
pasigirdejo
pasigirdeti
pasigirdi
pasijaudina
pasijaudino
pasijaudinti
pasikeite
pasikontroliavo
pasikontroliuoja
pasikontroliuoti
pasikviete
pasiliko
pasilikti
pasimaste
pasimasto
pasimastyti
pasimiega
pasimiegojo
pasimiegoti
pasimoka
pasimokejo
pasimoketi
pasinaudojo
pasinaudoti
pasinervina
pasinervino
pasinervinti
pasipriesinima
pasipriesinimas
pasipriesinimo
pasipriesino
pasiragina
pasiragino
pasiraginti
pasirase
pasiraso
pasirasyta
pasirasytas
pasirasyti
pasireiksti
pasireiske
pasireiskia
pasirenka
pasirinkimas
pasirinkimo
pasirinko
pasirinkta
pasirinktas
pasirinkti
pasirode
pasirodes
pasirodo
pasirodydavo
pasirodyma
pasirodymai
pasirodymas
pasirodymo
pasirodymu
pasirodymus
pasirodys
pasirodyti
pasirodzius
pasirodziusi
pasirupina
pasirupino
pasirupinti
pasisake
pasisapnavo
pasisapnuoja
pasisapnuoti
pasisekimo
pasiskaite
pasiskaito
pasiskaityti
pasiskelbe
pasiskirstymas
pasiskolina
pasiskolino
pasiskolinti
pasistate
pasitaiko
pasitikejima
pasitikejimo
pasitikina
pasitikino
pasitikinti
pasitikrina
pasitikrino
pasitikrinti
pasitrauke
pasitraukes
pasitraukti
pasitraukus
pasiule
pasiulo
pasiulyma
pasiulymu
pasiulymus
pasiulyta
pasiulytas
pasiulyti
pasiunte
pasiuntiniu
pasiuntinys
pasiustas
pasivadino
pasivagia
pasivaisina
pasivaisino
pasivaisinti
pasivoge
pasivogti
pasivoke
pasivokia
pasivokti
pasizymejo
pasizymi
paskaitas
paskaite
paskaito
paskaitos
paskaitu
paskaityti
paskatino
paskelbe
paskelbimo
paskelbta
paskelbtas
paskelbti
paskelbtos
paskelbus
paskiria
paskirta
paskirtas
paskirti
paskirties
paskirtis
pasklido
paskolina
paskolino
paskolintas
paskolinti
paskui
paskutine
paskutineje
paskutines
paskutini
paskutiniai
paskutiniais
paskutiniame
paskutinio
paskutiniojo
paskutinis
paskutiniu
paskutinius
paskyra
paskyre
paslaiteje
paslapciu
paslaptis
paslauga
paslaugas
paslaugomis
paslaugos
paslaugu
paslepti
pasmerke
paso
paspauskite
pasroviui
past
pasta
pastaba
pastabos
pastacius
pastangas
pastangomis
pastangos
pastangu
pastaraisiais
pastaraji
pastarasis
pastarieji
pastaroji
pastarojo
pastarosios
pastaruju
pastaruoju
pastaruosius
pastas
pastata
pastatai
pastatais
pastatas
pastate
pastato
pastatu
pastatuose
pastatus
pastatydino
pastatymo
pastatyta
pastatytas
pastatyti
pastatytos
pastebejo
pastebeta
pastebetas
pastebeti
pastebi
pastebima
pastebimas
pasto
pastoge
pastoviai
pastoviu
pastovus
pastu
pasuka
pasuko
pasukus
pasusirase
pasusiraso
pasusirasyti
pasusiskaite
pasusiskaito
pasusiskaityti
pasuskaite
pasuskaito
pasuskaityti
pasvalio
pasvalys
pasventino
pasventinta
pat
patagonijos
pataisos
patalpa
patalpas
patalpos
patalpose
patalpu
patarejas
patareju
pateike
pateikia
pateikiama
pateikiamas
pateikiami
pateikiamos
pateikta
pateiktas
pateikti
pateiktos
pateiktus
pateke
patekes
patekimo
pateko
patekti
patele
pateles
pateliu
patenka
patenkintas
patenkinti
pati
patiekalai
patiekalas
patiekalu
patiems
paties
patikina
patikino
patikinti
patiko
patikrina
patikrinkite
patikrino
patikrinti
patinai
patinas
patinka
patino
patinu
patiria
patirti
patirties
patirtimi
patirtis
patranka
patrankos
patranku
patrauke
patrick
pats
patvenkta
patvirtina
patvirtinimo
patvirtino
patvirtinta
patvirtintas
patvirtinti
patyre
patyres
patys
pauksciai
pauksciais
pauksciams
paukscio
pauksciu
paukscius
paukste
paukstis
paul
paulauskas
pauliaus
paulius
paulo
pav
pavadinima
pavadinimai
pavadinimais
pavadinimas
pavadinime
pavadinimo
pavadinimu
pavadinimus
pavadino
pavadinta
pavadintas
pavadinti
pavadintos
pavaduotoja
pavaduotojas
pavaduotoju
pavagia
pavaisina
pavaisino
pavaisinti
pavaizduota
pavaizduotas
pavaizduoti
pavaldi
pavaldumo
pavaldus
pavaldzios
pavarde
pavardes
pavardziu
pavartoja
pavartojo
pavartoti
pavaru
pavasari
pavasario
pavasaris
pavaziavus
pavede
pavedimu
paveike
paveikia
paveiksla
paveikslai
paveikslas
paveiksle
paveikslo
paveikslu
paveikslus
paveikta
paveiktas
paveikti
pavelas
pavelda
paveldas
paveldejimo
paveldejo
paveldo
paveldosaugos
pavercia
paversta
paversti
paverte
pavesta
pavidala
pavidalo
pavidalu
pavieniai
pavieniu
pavieniui
pavietas
pavieto
pavirsiaus
pavirsiu
pavirsiuje
pavirsiumi
pavirsius
pavoge
pavogti
pavojaus
pavojinga
pavojingas
pavojingu
pavoju
pavojus
pavoke
pavokia
pavokti
pavyko
pavyksta
pavyzdi
pavyzdys
pavyzdziai
pavyzdziu
pavyzdziui
pazadejo
pazadina
pazadino
pazadinti
pazanga
pazangos
pazeidimas
pazeidimo
pazeidimu
pazeidimus
pazeidzia
pazeisti
pazinimo
pazino
pazinti
pazista
paziuros
paziuru
pazodziui
pazymejo
pazymeta
pazymetas
pazymeti
pazymi
pb
pc
pd
pdf
pdlv
pe
peace
peas
peciu
peda
pedagogas
pedagoge
pedagogika
pedagogikos
pedagogini
pedagoginiame
pedagoginio
pedagoginis
pedagogu
pedos
pedro
pedsakai
pedsaku
pedu
peilis
peiliu
peizazas
peizazu
pekinas
pekine
pekino
pele
peleda
peledos
pelenai
pelenu
peles
pelke
pelkeje
pelkes
pelkese
pelketa
pelketas
pelketi
pelkiu
pelna
pelnas
pelne
pelnes
pelno
pelnyti
peloponeso
penguin
penkeriu
penkerius
penki
penkias
penkiasdesimt
penkiolika
penkios
penkis
penkiu
penkta
penktadieni
penktadienis
penktas
penktasis
penktoji
pensija
pensilvanijos
pentax
people
peppers
per
perdave
perdavimas
perdavimo
perdirba
perdirbimo
perdirbo
perdirbti
perdriso
perdrista
perdristi
perduoda
perduodama
perduota
perduotas
perduoti
perduotos
pereina
pereiti
pereja
perejimas
perejimo
perejo
pereme
perez
perfect
performance
pergale
pergales
pergaliu
pergalvoja
pergalvojo
pergalvoti
pergere
pergeria
pergerti
pergincija
pergincijo
pergincyti
pergirdejo
pergirdeti
pergirdi
peri
perimti
periodas
periode
periodine
periodines
periodiskai
periodo
periodu
perkele
perkelta
perkeltas
perkelti
perkeltos
perkilo
perkilti
perkunas
perkuno
perkusija
perkyla
perleido
perlu
permaste
permasto
permastyti
permes
permiega
permiegojo
permiegoti
permoka
permokejo
permoketi
pernakvoja
pernakvojo
pernakvoti
pernelyg
pernu
perrase
perraso
perrasyti
perrinktas
perry
pers
persapnavo
persapnuoja
persapnuoti
persekiojimo
persekioti
persidirba
persidirbo
persidirbti
persigalvoja
persigalvojo
persigalvoti
persigere
persigeria
persigerti
persija
persijos
persikele
persikelti
persikrauste
persimaste
persimasto
persimastyti
persimiega
persimiegojo
persimiegoti
persirase
persiraso
persirasyti
persisapnavo
persisapnuoja
persisapnuoti
persiskaite
persiskaito
persiskaityti
persitikina
persitikino
persitikinti
persitikrina
persitikrino
persitikrinti
persitvarkymo
persivagia
persivaisina
persivaisino
persivaisinti
persivoge
persivogti
persivoke
persivokia
persivokti
perskaite
perskaito
perskaityti
personalas
personaline
personalo
personazai
personazas
personazu
personifikacija
perspektyvos
perstatyta
persu
persvara
perteikti
perteklius
pertikina
pertikino
pertikinti
pertikrina
pertikrino
pertikrinti
pertrauka
pertraukomis
pertraukos
pertvarkyta
pertvarkytas
peru
pervadino
pervadinta
pervadintas
pervagia
pervaisina
pervaisino
pervaisinti
perversma
perversmas
perversmo
pervezti
pervoge
pervogti
pervoke
pervokia
pervokti
pesciomis
pesciuju
pestininka
pestininkai
pestininku
pet
peter
peteraitis
peterburga
peterburgas
peterburge
peterburgo
peteris
peties
petkevicaites
petkevicius
petra
petras
petrasiunu
petrauskas
petro
peugeot
pf
pg
ph
phi
phil
philadelphia
philip
philippe
philosophy
phoenix
photos
php
physics
pi
pianinas
pianinu
pianistas
pianiste
piano
picea
pictures
pie
pieciau
piena
pienas
pienine
pieno
pierre
pierwszego
piesimo
piesiniai
piesiniu
piesinys
piesti
pietine
pietineje
pietines
pietiniai
pietiniame
pietinio
pietinis
pietiniu
pietro
pietryciu
pietryciuose
pietrycius
pietrytine
pietrytineje
pietrytiniame
pietu
pietuose
pietus
pietvakarine
pietvakarineje
pietvakariniame
pietvakariu
pietvakariuose
pietvakarius
pieva
pievos
pievose
pievu
pijus
piktas
piktnaudziauja
piktnaudziauti
piktnaudziavo
pila
pilale
pilde
pildo
pildyti
pili
piliakalni
piliakalniai
piliakalnio
piliakalnis
piliakalniu
piliakalnyje
pilieciai
pilieciams
piliecio
pilieciu
pilies
pilietines
pilietini
pilietinio
pilietinis
pilietiniu
pilietis
pilietybe
pilietybes
piligrimu
pilis
piliu
pilka
pilkai
pilkalnio
pilkapiai
pilkapiu
pilkapynas
pilkas
pilkasis
pilki
pilkoji
pilkos
pillkallen
pilna
pilnai
pilnas
pilotai
pilotas
piloto
pilotu
pilti
pilvas
pilviskiu
pilvo
pilyje
pilypas
pilypo
pilys
pinigai
pinigais
piniginis
pinigu
pinigus
pink
pinus
pinyin
pionieriu
piotr
piotras
piramide
piramides
piratai
piratu
pirenu
pirkliai
pirkliu
pirklys
pirkti
pirma
pirmadieni
pirmadienis
pirmaisiais
pirmaja
pirmajai
pirmajam
pirmajame
pirmaji
pirmakart
pirmame
pirmas
pirmasias
pirmasis
pirmavo
pirmenybe
pirmenybes
pirmenybese
pirmenybiu
pirmi
pirmiausia
pirmiausiai
pirmieji
pirmine
pirmines
pirmininka
pirmininkas
pirmininke
pirmininko
pirmininku
pirminis
pirminiu
pirmo
pirmoje
pirmoji
pirmojo
pirmojoje
pirmos
pirmose
pirmosios
pirmosiose
pirmtakas
pirmu
pirmuju
pirmuoju
pirmuosius
pirmus
pirmyn
pirstai
pirstas
pirstu
pirtis
pistoletai
pistoletas
pistoleto
pistoletu
piteris
pixar
pj
pjeras
pjese
pjeses
pjesiu
pk
pl
place
placia
placiai
placiau
placiausiai
placios
placiu
plan
plana
planai
planas
planavimo
planavo
plane
planet
planeta
planetoje
planetos
planets
planetu
plano
plant
plants
planu
planuoja
planuojama
planuota
planus
plastaka
plastiko
plataus
plateliu
platesne
platforma
platformos
plati
platina
platinimo
platininiu
platino
platinti
platintojas
platonas
platono
platos
platu
platumu
platus
plauciu
plaukai
plaukais
plaukeliais
plaukia
plaukimas
plaukimo
plauko
plaukti
plauku
plaukus
play
player
players
playstation
plentai
plentas
plento
plentu
plepa
plepejo
plepeti
plesriuju
plesti
plestis
plete
pletesi
pletojo
pletoti
pletra
pletrai
pletros
plg
pliateris
plienas
plieno
plika
plinta
plisti
plito
plius
plocio
plocko
ploja
plojo
plokscia
plokscias
ploksciu
plokste
plokstele
ploksteles
ploksteliu
plokstes
plokstuma
plokstumoje
plokstumos
plona
plonas
plota
plotai
plotas
plote
ploti
plotis
ploto
plotu
plotus
pls
plunge
plungeje
plunges
plunksna
plunksnos
plunksnu
pluostas
pluosto
plus
plv
plynaukste
plynauksteje
plynaukstes
plyti
plytu
pm
pmc
pmid
pn
po
pobudi
pobudzio
pocius
pod
podoles
podstawie
poema
poemos
poetai
poetas
poete
poeto
poetu
poezija
poezijos
pogrindzio
poilsio
point
pokalbis
pokalbiu
pokario
pokaryje
pokyciai
pokyciu
pokycius
pokytis
poland
polas
pole
police
policija
policijos
policininkas
policy
polinesia
polinezieciu
polis
polish
politechnikos
political
politics
politika
politikai
politikas
politike
politiko
politikoje
politikos
politiku
politine
politines
politini
politiniai
politinio
politinis
politiniu
politinius
politiskai
politologas
poliu
polocko
polonia
polsce
polska
polski
polskiego
polskiej
ponas
ponia
pono
pontiac
ponto
ponu
pop
popieriaus
popieriu
popierius
popieziai
popieziaus
popieziu
popieziui
popieziumi
popiezius
popular
population
populiacija
populiacijos
populiari
populiariausia
populiariausias
populiariausiu
populiarinimo
populiarios
populiariu
populiaruma
populiarumas
populiarumo
populiarus
por
pora
poras
poreikiams
poreikis
poreikiu
poreikius
poriniai
poromis
poros
porsche
port
portal
portalas
portale
portalo
porto
portr
portreta
portretai
portretas
portretu
portretus
portug
portugal
portugalai
portugalija
portugalijoje
portugalijos
portugalu
poru
porusiai
porusis
porusiu
posakiai
posedis
posedyje
posedzio
posedziuose
poseimio
poseimis
position
post
posta
postas
poste
posto
postus
poteris
potockis
potvyniai
potvynio
potvyniu
pour
povandeninis
povandeniniu
poveiki
poveikio
poveikis
povilaitis
povilas
povilo
power
powiat
powszechnego
poz
pozemio
pozicija
pozicijas
pozicijoje
pozicijos
pozicijose
poziciju
poziuri
poziurio
poziuris
poziuriu
poznan
poznanes
pozymiai
pozymis
pozymiu
pozymius
pp
pq
pr
pra
pradai
pradeda
pradedama
pradedamas
pradedant
pradejes
pradejo
pradejus
pradejusi
prades
pradeta
pradetas
pradeti
pradetos
pradine
pradineje
pradines
pradini
pradininkas
pradininku
pradinio
pradinis
pradiniu
pradirba
pradirbo
pradirbti
pradriso
pradrista
pradristi
pradzia
pradzioje
pradzios
pradziu
praeina
praeiti
praeities
praeitis
praeityje
praejo
praejus
praejusio
praejusiu
pragalvoja
pragalvojo
pragalvoti
pragere
prageria
pragerti
pragirdejo
pragirdeti
pragirdi
pragyvenimo
praha
prahoje
prahos
prakilo
prakilti
praktika
praktikoje
praktikos
praktiskai
prakyla
pralaimejes
pralaimejima
pralaimejimas
pralaimejimo
pralaimejimu
pralaimejo
pralaimejus
praleido
praleidzia
praleisti
pramiega
pramiegojo
pramiegoti
pramigo
pramigti
praminga
pramintas
pramogos
pramogu
pramone
pramonei
pramoneje
pramones
pramonina
pramonine
pramonines
pramoninis
pramoniniu
pramonino
pramoninti
pranakvoja
pranakvojo
pranakvoti
pranas
pranasuma
pranc
pranciskaus
pranciskonu
pranciskus
prancuzai
prancuzas
prancuzija
prancuzijai
prancuzijoje
prancuzijos
prancuziskai
prancuzu
pranervina
pranervino
pranervinti
pranesa
pranese
pranesima
pranesimai
pranesimas
pranesimu
pranesimus
pranesta
pranesti
prano
pranta
prarado
praranda
prarasta
prarasti
prasapnavo
prasapnuoja
prasapnuoti
prase
prasideda
prasidedant
prasidedantys
prasidejes
prasidejimo
prasidejo
prasidejus
prasidirba
prasidirbo
prasidirbti
prasidriso
prasidrista
prasidristi
prasigalvoja
prasigalvojo
prasigalvoti
prasigamina
prasigamino
prasigaminti
prasigere
prasigeria
prasigerti
prasimiega
prasimiegojo
prasimiegoti
prasinervina
prasinervino
prasinervinti
prasisapnavo
prasisapnuoja
prasisapnuoti
prasiskaite
prasiskaito
prasiskaityti
prasiskolina
prasiskolino
prasiskolinti
prasitare
prasitaria
prasitarti
prasivagia
prasivaisina
prasivaisino
prasivaisinti
prasivoge
prasivogti
prasivoke
prasivokia
prasivokti
praskaite
praskaito
praskaityti
praskolina
praskolino
praskolinti
prasme
prasmes
praso
prasta
prastai
prastas
prasti
prastos
prasyma
prasymu
prasyti
pratare
prataria
pratarti
prateka
pratese
pratesimo
pratesta
pratesti
prato
prause
prausia
prausti
pravagia
pravaisina
pravaisino
pravaisinti
pravarde
pravdinsko
pravoge
pravogti
pravoke
pravokia
pravokti
pre
prefektura
prefekturoje
prefekturos
preke
prekes
prekiaujama
prekiauti
prekiavo
prekiu
prekyba
prekybai
prekybiniai
prekybinis
prekybiniu
prekybinius
prekyboje
prekybos
prelatas
premier
premija
premijos
premiju
premjer
premjera
premjeras
premjero
premjeru
present
president
press
pretendentas
pretendentu
pretenzijas
preussen
preussischen
preußen
preußischen
prevencijos
prezidenta
prezidentas
prezidente
prezidento
prezidentu
prezidentui
prezidentus
prezidiumo
pri
price
prideda
pridedama
pridedant
pridejo
prideta
prideti
pridirba
pridirbo
pridirbti
prie
prieaugis
priebalsiai
priebalsis
priebalsiu
prieda
priedai
priedas
priedu
prieglauda
prieglobsti
prieiga
prieigos
prieina
prieinama
prieinamas
prieiti
priejo
priekaistauja
priekaistauti
priekaistavo
prieki
priekine
priekines
priekinis
priekiniu
priekio
priekules
priekyje
prielaida
prielaidos
prieme
priemiestis
priemiestyje
priemimo
priemone
priemonemis
priemones
priemoniu
priemus
prienai
prienu
prieplauka
pries
priesa
priesaga
priesagos
priesai
priesaika
priesais
priesas
priesinga
priesingai
priesingas
priesingos
priesingu
priesininkai
priesininkas
priesininko
priesininku
priesinosi
prieskoniu
priesmokyklinio
prieso
priessroviui
priestarauja
priestarauti
priestaravo
priestatas
priesu
priesus
prietaisai
prietaisas
prietaisu
prievarta
priezasciu
priezasties
priezastimi
priezastis
priezastys
prieziura
prieziuros
prigalvoja
prigalvojo
prigalvoti
prigamina
prigamino
prigaminti
prigere
prigeria
prigerti
prigijo
prigimti
prigimties
prigimtis
prigirdejo
prigirdeti
prigirdi
priima
priimami
priimta
priimtas
priimti
priimtu
prijunge
prijungia
prijungiant
prijungta
prijungtas
prijungti
prijungtos
prijungus
prikilo
prikilti
priklausancia
priklausancios
priklausanciu
priklausanti
priklausantis
priklausantys
priklause
priklauses
priklausiusi
priklauso
priklausoma
priklausomai
priklausomas
priklausomybe
priklausomybes
priklausyti
prikyla
prima
primaste
primasto
primastyti
prime
primena
primera
primiega
primiegojo
primiegoti
primigo
primigti
primine
priminga
primoka
primokejo
primoketi
prinakvoja
prinakvojo
prinakvoti
princas
prince
princese
princeses
princeton
principa
principai
principais
principas
principe
principo
principu
principus
princo
prinervina
prinervino
prinervinti
prinsipe
print
pripazinima
pripazinimo
pripazino
pripazinta
pripazintas
pripazinti
pripazintos
pripazista
priragina
priragino
priraginti
prirase
priraso
prirasyti
prireike
prireikus
prisapnavo
prisapnuoja
prisapnuoti
prisideda
prisidejo
prisideti
prisidirba
prisidirbo
prisidirbti
prisieke
prisigalvoja
prisigalvojo
prisigalvoti
prisigamina
prisigamino
prisigaminti
prisigere
prisigeria
prisigerti
prisigirdejo
prisigirdeti
prisigirdi
prisijunge
prisijungia
prisijungti
prisikelimo
prisimaste
prisimasto
prisimastyti
prisimena
prisimiega
prisimiegojo
prisimiegoti
prisiminimai
prisimoka
prisimokejo
prisimoketi
prisinakvoja
prisinakvojo
prisinakvoti
prisinervina
prisinervino
prisinervinti
prisiragina
prisiragino
prisiraginti
prisirase
prisiraso
prisirasyti
prisisapnavo
prisisapnuoja
prisisapnuoti
prisiskaite
prisiskaito
prisiskaityti
prisiskolina
prisiskolino
prisiskolinti
prisitaike
prisitaikyti
prisitikina
prisitikino
prisitikinti
prisivagia
prisivaisina
prisivaisino
prisivaisinti
prisivoge
prisivogti
priskaiciuojama
priskaite
priskaito
priskaityti
priskiria
priskiriama
priskiriamas
priskiriami
priskiriamos
priskirta
priskirtas
priskirti
priskirtos
priskolina
priskolino
priskolinti
priskyre
pristate
pristato
pristatymas
pristatymo
pristatyta
pristatytas
pristatyti
pritaike
pritaikyta
pritaikytas
pritaikyti
pritare
pritariamasis
pritikrina
pritikrino
pritikrinti
pritrauke
pritraukia
pritraukti
pritvirtinta
privacia
privaciai
privacios
privaciu
privagia
privaisina
privaisino
privaisinti
privalejo
privalo
privaloma
privalomas
privataus
private
privati
privatines
privatus
privercia
priversta
priverstas
priversti
priverte
privilegija
privoge
privogti
prix
priza
prizas
prize
prizininkas
priziniu
priziurejo
priziureti
priziuri
prizo
prizu
prk
pro
problema
problemas
problemomis
problemos
problemu
proc
procedura
proceduros
proceedings
procentas
procentu
procesa
procesai
procesas
procese
proceso
procesorius
procesu
procesus
prodiusavo
prodiusere
prodiuseriai
prodiuseris
prodiuseriu
production
produkcija
produkcijos
produktai
produktais
produktas
produkto
produktu
produktus
prof
profesija
profesijos
profesine
profesines
profesinio
profesiniu
profesionalaus
profesionali
profesionaliu
profesionalo
profesionalu
profesionalus
profesore
profesoriaus
profesoriu
profesoriumi
profesorius
profile
profilio
profilis
profsajungu
proga
progimnazija
progimnazijoje
progimnazijos
program
programa
programai
programas
programavimas
programavimo
programine
programines
programoje
programos
programose
programu
project
projekta
projektai
projektas
projektavimo
projektavo
projekte
projekto
projektu
projektui
projektuose
projektus
prokalbe
prokalbeje
prokalbes
prokuraturos
prokuroras
prokuroro
prometheus
propaganda
propagandos
propagavo
prota
protas
protestantai
protestantu
protesto
proteviai
proteviu
protingas
proto
protokolas
protokoliniu
prototipas
protu
provincia
provincija
provincijai
provincijas
provincijoje
provincijos
provincijose
provinciju
provinz
proza
prozininkas
prozos
prusai
prusija
prusijoje
prusijos
prusiskos
prusu
prv
ps
psdlv
psi
psichiatras
psichiatrijos
psichikos
psichologas
psichologija
psichologijos
pskovo
psl
psychology
pt
pu
public
publications
publicistas
publika
publikaciju
publikavo
publikos
publikuota
publikuotas
publikuoti
published
publishers
publishing
pucia
puciamuju
puerto
puiki
puikiai
puikus
puipa
pule
pulka
pulkai
pulkas
pulke
pulkininkas
pulkininko
pulko
pulku
pulti
punios
punk
punktai
punktas
punktu
punsko
puola
puole
puolejas
puolejo
puolima
puolimas
puolimo
puosia
pupeles
pusbrolis
pusdalyvis
puse
puseje
puses
pusese
pusfinali
pusfinalio
pusfinalis
pusfinalyje
pusiasali
pusiasalio
pusiasalis
pusiasalyje
pusiau
pusiaujo
pusiausvyra
pusiausvyros
pusies
pusis
pusiu
puslaidininkiu
puslapiai
puslapis
puslapiu
puslapyje
pusles
pusrutulio
pusrutulyje
pussycat
pusti
pustunu
pusu
pusynai
pusys
pute
putinas
pv
pvz
pw
px
py
pyko
pyksta
pykti
pyktis
pyle
pylimas
pylimo
pylimu
python
pz
q
q0
q1
q2
q3
q4
q5
q6
q7
q8
q9
qa
qb
qc
qd
qe
qf
qg
qh
qi
qj
qk
ql
qm
qn
qo
qp
qq
qr
qs
qt
qu
quad
que
queen
quellen
quercus
qv
qw
qx
qy
qz
r
r0
r1
r2
r3
r4
r5
r6
r7
r8
r9
ra
rabinas
race
racing
radija
radijas
radijo
radiniai
radiniu
radinius
radio
rado
radvila
radvilaite
radviliskio
radviliskis
radvilos
radvilu
raf
rafaelio
rafaelis
ragai
ragaines
ragana
raganos
ragas
ragauskas
ragina
ragino
raginti
rago
ragu
raguvos
raida
raidai
raide
raidemis
raides
raidos
raidziu
raimondas
raimundas
rain
raiska
raiskos
raitelis
raiteliu
raj
rajona
rajonai
rajonas
rajone
rajono
rajonu
rajonui
rajonuose
rajonus
raketa
raketas
raketos
raketu
raktas
raktu
ralio
ralis
rally
ralyje
ram
rama
ramanauskas
ramiai
ramiajame
ramiojo
ramunas
ramune
ramus
ramusis
ramybe
ramybes
ramygalos
randa
randama
randamas
randame
randami
randamos
ranga
range
rangers
rangle
rango
ranka
rankas
rankena
rankenos
ranking
rankings
rankinio
rankoje
rankomis
rankos
rankose
rankrasciu
rankrastis
ranku
rapid
rapolas
ras
rasa
rase
raseiniai
raseiniu
raseiniuose
rases
rasiu
rasmenimis
raso
rasoma
rasomas
rasomi
rasos
rasta
rastai
rastais
rastas
raste
rasti
rastijos
rastingumas
rastininkas
rasto
rastos
rastu
rastuose
rastus
rasu
rasyba
rasybos
rasymo
rasyti
rasytiniuose
rasytoja
rasytojai
rasytojas
rasytojo
rasytojos
rasytoju
rata
ratai
ratais
ratas
rate
rato
ratu
ratus
rau
raudona
raudonai
raudonaja
raudoname
raudonas
raudonasis
raudondvario
raudoni
raudonoji
raudonojo
raudonos
raudonosios
raudonu
raudonuju
raumens
raumenu
raumenys
raumuo
rausvai
ray
raymond
rb
rc
rd
re
reabilitacijos
reaguoja
reakcija
reakcijos
reakciju
real
realaus
realiu
realizmo
realus
realybe
realybes
reciau
record
recording
records
red
reda
redagavo
redakcija
redakcijoje
redakcijos
redakcines
redaktore
redaktoriai
redaktoriaus
redaktoriu
redaktoriumi
redaktorius
ref
reference
referendumas
referendumo
reforma
reformacijos
reformas
reformatu
reformos
reformu
regbio
regimasis
regina
region
regiona
regionai
regional
regionas
regione
regionine
regionines
regionini
regioniniame
regioninio
regioninis
regioniniu
regiono
regionu
regionui
regionuose
regionus
regioset
registra
registracijos
registras
registre
registro
registru
registruoti
registruotu
regos
regular
reguliariai
reguliavimo
reguliuoja
reguliuoti
reich
reicho
reik
reikalai
reikalais
reikalams
reikalauja
reikalaujama
reikalauti
reikalavimai
reikalavimas
reikalavimu
reikalavimus
reikalavo
reikalinga
reikalingas
reikalingi
reikalingos
reikalingu
reikalo
reikalu
reikalui
reikalus
reikejo
reikes
reiketu
reikia
reikiama
reikmems
reiksme
reiksmes
reiksminga
reiksmingas
reiksmingiausiu
reiksmingu
reiksmiu
reiksti
reina
reino
reiske
reiskesi
reiskia
reiskiancio
reiskianti
reiskiantis
reiskiniai
reiskinio
reiskiniu
reiskinius
reiskinys
reitinga
reitingai
reitingas
reitinge
reitingo
reitingu
reklama
reklamos
rekomenduojama
rekonstrukcija
rekonstrukcijos
rekonstruota
rekonstruotas
rekonstruoti
rekorda
rekordas
rekordininkas
rekordu
rektorius
rekyvos
relations
release
religija
religijos
religiju
religine
religines
religiniai
religinio
religinis
religiniu
religion
reljefas
reljefo
remarkas
remdamasis
reme
remejas
remeju
remesi
remia
remiamas
remiantis
remiasi
remigijus
remimo
remix
remontas
remonto
remti
renata
renault
rene
renesanso
renge
rengejas
rengia
rengiama
rengiamas
rengiami
rengiamos
rengiant
rengimo
rengini
renginiai
renginio
renginiu
renginiuose
renginius
renginyje
renginys
rengti
renka
renkama
renkamas
renkami
renkasi
rentgeno
reorganizuota
repo
report
represiju
republic
republica
republika
reputacija
requiem
res
research
resident
resources
respublika
respublikai
respublikine
respublikinei
respublikinems
respublikines
respublikinio
respublikinis
respublikiniu
respublikoje
respublikonu
respublikos
respubliku
restauravimo
restauruota
restauruotas
restauruoti
restoranas
restoranu
results
resursu
ret
reta
retai
retais
retas
reti
retkarciais
retoromanu
retos
retrieved
retu
return
reunion
reuters
rev
review
reviews
revised
revoliucija
revoliucijos
revoliucine
revolution
reykjavik
rez
rezervatas
rezervate
rezervato
rezidavo
rezidencija
rezima
rezimas
rezimo
rezimu
rezimui
rezisavo
rezisiere
rezisieriai
rezisieriaus
rezisieriu
rezisieriumi
rezisierius
rezistencijos
rezistentas
rezisura
rezoliucija
rezultata
rezultatai
rezultatas
rezultatu
rezultatus
rezultatyviausias
rezultatyviausiu
rf
rfc
rg
rh
rho
ri
ria
rian
riba
ribas
riboja
ribojasi
ribojosi
ribos
ribose
ribota
ribotas
ribu
rica
ricardas
ricardo
richard
rick
rico
riebalu
riedulio
riedulys
rieses
riesutai
riesutu
rietavo
rifu
riga
right
rightarrow
rights
rika
rikas
rikiuote
riko
rikos
rima
rimantas
rimas
rimkus
rimsa
rimses
rimta
rimtai
rimtu
rimvydas
rin
ring
rinka
rinkai
rinkdavosi
rinkejai
rinkeju
rinkimai
rinkimo
rinkimu
rinkimuose
rinkimus
rinkini
rinkiniai
rinkinio
rinkiniu
rinkinius
rinkinyje
rinkinys
rinko
rinkodaros
rinkoje
rinkos
rinkosi
rinkti
rinktine
rinktinei
rinktineje
rinktines
rinktiniu
rinktis
rio
rise
risk
rita
riteriai
riterio
riteris
riteriu
ritmo
ritulio
riukiu
river
rizika
rizikos
rj
rk
rkl
rl
rm
rn
rnr
ro
road
rob
robert
robertas
roberto
roberts
robin
robinson
rock
rode
rodikliai
rodiklis
rodikliu
rodiklius
rodo
rodoma
rodomas
rodomi
rodos
rodriguez
rodykle
rodyti
rodzeris
roger
rojaus
rojus
rok
rokas
rokiskio
rokiskis
roko
roku
rolandas
role
rolf
roll
rolling
rom
roma
romadzi
romai
roman
romana
romanai
romanas
romance
romane
romanizacija
romano
romantizmo
romanu
romanus
romas
rome
romenai
romenu
romeo
romerio
romoje
romos
romualdas
romuva
ron
ronald
room
ropliai
ropliu
rosa
rose
ross
rossi
rotten
rotuse
rotuses
round
routledge
rovers
roy
royal
roze
rozes
roziu
rp
rpg
rq
rr
rs
rsssf
rt
rtfsr
ru
ruanda
ruandos
rubai
rubliu
rubu
rubus
ruda
rudai
rudaminos
rudas
rudasis
rudeni
rudens
rudi
rudiskiu
rudoji
rudolf
rudolfas
rudos
rudu
ruduo
rugiu
rugp
rugpjucio
rugpjuti
rugpjutis
rugs
rugsciu
rugseji
rugsejis
rugsejo
rugsties
rugstis
rukas
ruko
rumai
rumais
rumania
rumsiskiu
rumu
rumun
rumunija
rumunijoje
rumunijos
rumunu
rumuose
rumus
run
rungties
rungtis
rungtyje
rungtynes
rungtynese
rungtyniauja
rungtyniaujantis
rungtyniaves
rungtyniavo
rungtyniu
rungtys
rungtyse
ruosesi
ruosiasi
ruosti
ruoza
ruozas
ruoze
ruozo
ruoztu
ruozu
rupesciu
rupinasi
rupinosi
rupintis
rus
rusai
rusi
rusia
rusiai
rusies
rusija
rusijai
rusijoje
rusijos
rusios
rusis
rusiska
rusiskai
rusiskas
rusiu
rusnes
ruso
russell
russia
russian
rusu
rusva
rusvai
rusyje
rusys
ruta
rutos
rutulio
rv
rw
rx
ry
ryan
ryga
rygoje
rygos
ryklys
rysi
rysiai
rysiais
rysio
rysiu
rysius
ryski
ryskiai
ryskiausiu
ryskios
ryskis
ryskiu
ryskus
rysys
ryt
ryta
rytai
rytas
ryte
rytine
rytineje
rytines
rytiniame
rytinio
rytinis
rytiniu
rytis
ryto
rytoj
rytu
rytuose
rytus
ryziai
ryziu
rz
rzeczypospolitej
s
s0
s1
s2
s3
s4
s5
s6
s7
s8
s9
sa
sabaliauskas
sablona
sablonas
sachara
sacharos
sachas
sachmatai
sachmatais
sachmatininkas
sachmatininku
sachmatu
saga
saharaui
sahelio
sahrestanas
sai
saint
sajudis
sajudzio
sajunga
sajungai
sajungininkai
sajungininku
sajungoje
sajungos
sajungu
saka
sakai
sakalai
sakalas
sakalauskas
sakant
sakas
sake
sakele
sakeles
sakeliu
sakes
sakiai
sakinio
sakinys
sakiu
saknies
saknis
saknu
saknys
sako
sakoma
sakomis
sakos
sakose
sakotas
saksonija
saksonijos
saksu
saku
sakydamas
sakyti
sal
sala
salako
salantai
salanto
salantu
salas
salc
salcininku
salcio
saldumynai
saldus
sale
saleje
salele
saleles
saleliu
sales
salese
sali
salia
saliai
saliamono
salies
salimi
salimis
salims
salininkai
salininkas
salininku
salis
saliu
salmas
saloje
salomeja
salomis
salomon
salono
salos
salose
salta
saltas
saltini
saltiniai
saltiniais
saltinio
saltinis
saltiniu
saltiniuose
saltinius
salto
saltojo
saltos
salu
salvador
salvadoras
salvadoro
salyga
salygas
salyginai
salygoja
salygomis
salygoms
salygos
salygu
salyje
salyna
salynas
salyne
salyno
salys
salyse
sam
samanu
samiu
samoa
samone
samones
samoningai
samprata
samuel
samuelis
samuraju
san
sanchajaus
sanciu
sandara
sandaros
sandauga
sandeliai
sandelis
sandeliu
sandorio
sandoris
sandra
sandraugos
sanduroje
sangr
sangrz
sankryzoje
sankryzos
sankt
sanskrito
sant
santa
santaka
santakoje
santakos
santjago
santo
santos
santrumpa
santuoka
santuokos
santvarka
santvarkos
santyki
santykiai
santykinai
santykio
santykis
santykiu
santykiuose
santykius
sanu
sao
sap
sapiega
sapiegos
sapiegu
sapnas
sapnavo
sapnu
sapnuoja
sapnuoti
sara
sarah
sarasa
sarasai
sarasas
sarase
saraso
sarasuose
sarasus
sardinijos
sargas
sargyba
sargybos
sarlis
sarunas
sarvai
sarvu
sarvus
sas
sasaja
sasajos
sasanidu
sasiauri
sasiaurio
sasiauris
sasiauriu
saskaita
satrijos
saturn
saturno
sau
saudi
saudo
saudymas
saudymo
saudyti
saugas
saugiai
saugo
saugojimo
saugojo
saugoma
saugomas
saugomi
saugomos
saugomu
saugos
saugoti
saugu
sauguma
saugumas
saugumo
saugykla
saukenu
saukia
sauksm
saukstas
saule
saulei
saules
sauliai
sauliu
saulius
saulys
sausa
sausas
sausi
sausio
sausis
sausuma
sausumoje
sausumos
sautuvai
sautuvas
sautuvo
sautuvu
sav
sava
savadas
savaiciu
savaime
savaite
savaites
savaitrascio
savaitrastis
savanoriai
savanoris
savanoriu
savanos
savarankiska
savarankiskai
savarankiskas
savarankisko
savas
save
saveika
saveikos
saves
savickas
savimi
savininkai
savininkais
savininkas
savininke
savininko
savininku
savita
savivalda
savivaldos
savivaldybe
savivaldybei
savivaldybeje
savivaldybes
savivaldybiu
savizudybe
savo
savoka
savokos
savoku
savos
savotiska
savu
savybe
savybemis
savybes
savybiu
savyje
say
says
sazine
sb
sc
scarecrow
scena
scenarijaus
scenariju
scenarijus
scenaristas
scenas
scenografas
scenoje
scenos
scenu
schema
schmid
schmidt
school
sci
science
sciences
scientific
scott
scottish
scrolls
scuderia
sd
se
sea
sean
search
season
sebastian
second
secret
section
security
sedejo
sedeti
sedi
sedlcu
sedos
seduvos
see
sega
seima
seimai
seimas
seime
seimininkai
seimininkas
seimininke
seimininko
seimininku
seimo
seimoje
seimos
seimu
seimui
seinu
seiseliai
sek
seka
sekanciais
sekanti
sekcija
sekcijos
seke
sekesi
sekla
seklas
seklomis
seklos
seklu
sekmadieni
sekmadienis
sekme
sekmes
sekminga
sekmingai
sekmingas
sekmingi
sekmingiausiu
sekmingo
sekmingu
sekos
sekretore
sekretoriaus
sekretoriumi
sekretorius
seksas
sekso
sekspyras
sekspyro
sekta
sekti
sektoriaus
sektoriu
sektoriuje
sektorius
sektos
sekunde
sekundes
sekundziu
seleukidu
self
sembos
semeliskiu
semiatices
seminarija
seminarijoje
seminarijos
seminarus
semitu
sen
sena
senaja
senajame
senaji
senamiescio
senamiestis
senamiestyje
senas
senasias
senasis
senatas
senate
senato
senatorius
senegal
senegalas
senegalo
seneka
senele
senelio
senelis
seneliu
senesniu
seni
seniai
seniau
seniausi
seniausia
seniausias
seniausios
seniausiu
senieji
senis
seniunaitija
seniunaitijos
seniunas
seniunija
seniunijai
seniunijoje
seniunijos
seniuniju
seniuno
seniunu
senjoru
senkapis
seno
senoji
senojo
senojoje
senos
senosios
senosiose
senoveje
senoves
senovine
senovines
senovinis
senoviniu
sent
sentikiai
sentikiu
senu
senuju
senumo
senuoju
september
septinta
septintajame
septintasis
septintojo
septyneriu
septyni
septynias
septynios
septynis
septyniu
septynmete
ser
sera
seras
serb
serbai
serbia
serbija
serbijoje
serbijos
serbu
seredziaus
serga
sergant
sergejus
sergio
seriala
serialas
seriale
serialo
serialu
serialuose
serie
series
serija
serijoje
serijos
seriju
sernai
sernas
sero
serranilla
serverio
service
services
ses
seselis
seseri
seserimi
seseriu
sesers
seseru
seserys
sesi
sesias
sesiolika
sesios
sesis
sesiu
sesta
sestadieni
sestajame
sestas
sestasis
sestoji
sestojo
sesuo
sesupes
set
seta
setos
seven
sevilijos
sex
seychelles
sezona
sezonai
sezonas
sezone
sezono
sezonu
sezonui
sezonus
sf
sfera
sferos
sg
sh
shadow
she
shell
shi
shield
short
show
showdoc
si
sia
siai
siaip
siais
siam
siame
siamo
sian
siandien
siant
sias
siaubo
siaudu
siauliai
siauliu
siauliuose
siaulius
siaura
siauras
siaure
siaureje
siaures
siauri
siauriau
siaurine
siaurineje
siaurines
siaurini
siauriniai
siauriniame
siaurinio
siaurinis
siauriniu
siaurojo
siauru
sibira
sibire
sibiro
sicilieciu
sicilija
sicilijoje
sicilijos
sidabra
sidabras
sidabrine
sidabrines
sidabriniai
sidabrinis
sidabriniu
sidabro
side
sidnejaus
sidnejuje
sie
sieja
siejama
siejamas
siejami
siejasi
siejo
siek
siekdama
siekdamas
siekdami
sieke
siekia
siekiama
siekiant
siekianti
siekis
siekta
siekti
siela
sielos
siems
siena
sienas
sienele
sieneles
sienoje
sienomis
sienos
sienu
siera
sieros
sierra
siesiku
sieti
sigitas
sigma
sign
signala
signalas
signalo
signalu
signataras
signs
sikart
siksnosparnis
siksto
silale
silales
silas
silenu
silezijos
silicio
silko
silo
silpna
silpnai
silpnas
silpnos
silpnuju
siltas
silu
siluma
silumine
silumos
silute
siluteje
silutes
siluvos
silva
silvestras
silvija
sim
sima
simas
simboli
simboliai
simbolika
simboline
simbolis
simboliu
simbolizuoja
simetrija
simfonija
simfoninio
simkaus
simkus
simno
simon
simona
simonas
simone
simoniu
simono
simptomai
sims
simta
simtai
simtas
simtmecio
simtmecius
simto
simtu
simtus
sin
sinagoga
sinagogos
since
sinclair
sindromas
singapur
singapuras
singapuro
singer
singla
singlai
singlas
single
singles
singlo
singlu
sinhalu
sinonimai
sinonimas
sinteze
sintezes
sio
sioje
siol
siomis
sioms
sios
siose
sir
sirdi
sirdies
sirdis
sirdyje
siria
sirija
sirijoje
sirijos
sirvintos
sirvintu
sis
sistema
sistemai
sistemas
sistemoje
sistemoms
sistemos
sistemose
sistemu
sit
sita
sitaip
sitas
site
sito
situacija
situacijos
situaciju
siu
siule
siulo
siuloma
siulu
siulyti
siuncia
siunciami
siunte
siuo
siuolaikine
siuolaikineje
siuolaikines
siuolaikiniai
siuolaikinio
siuolaikinis
siuolaikiniu
siuos
siuose
sius
siusti
siuvimo
siuzetas
siuzeto
sivos
six
sj
sk
skai
skaiciai
skaiciaus
skaiciavimo
skaiciu
skaiciui
skaiciumi
skaiciuojant
skaiciuoti
skaicius
skait
skaite
skaitmenine
skaitmenines
skaitmeninis
skaitmeniniu
skaitmuo
skaito
skaitykite
skaitykla
skaitymo
skaityti
skaitytoju
skalauja
skale
skamba
skambejo
skambinti
skandinavijoje
skandinavijos
skandinavu
skapiskio
skatina
skatino
skatinti
skaudviles
skausma
skausmas
skausmo
skautu
skelbe
skelbia
skelbiama
skelbiami
skelbti
skersai
skersmens
skersmuo
skiemenys
skilimo
skiria
skiriama
skiriamas
skiriami
skiriamos
skiriasi
skirstoma
skirstomas
skirstomi
skirstomos
skirstymas
skirta
skirtas
skirti
skirtinga
skirtingai
skirtingais
skirtingas
skirtingi
skirtingo
skirtingomis
skirtingos
skirtingose
skirtingu
skirtinguose
skirtingus
skirtis
skirto
skirtos
skirtu
skirtuma
skirtumai
skirtumas
skirtumo
skirtumu
skirtumus
skirtus
skl
sklaida
skleidzia
skleisti
skliausteliuose
skliaustuose
sklypa
sklypas
sko
skola
skolas
skolina
skoliniu
skolino
skolinti
skolos
skolu
skoni
skonio
skonis
skorowidz
skot
skotija
skotijoje
skotijos
skotu
skr
skraido
skraidymo
skraidyti
skrandis
skrandzio
skrenda
skrieja
skristi
skrydi
skrydis
skrydziai
skrydzio
skrydziu
skrydzius
skubiai
skulpt
skulptoriaus
skulptorius
skulptura
skulpturas
skulpturomis
skulpturos
skulpturu
skuodas
skuodo
skurdo
sky
skyda
skydas
skydo
skyla
skyle
skyre
skyresi
skyriai
skyriaus
skyriu
skyriui
skyriuje
skyrius
skyscio
skysciu
skystis
sl
slaitai
slaitas
slaite
slaito
slaitu
slaituose
slapimo
slapta
slaptai
slaptu
slapyvardis
slapyvardziu
slavai
slavu
slegio
slegis
sleni
sleniai
slenio
slenis
sleniu
sleniuose
slenyje
slepiasi
slidemis
slidinejimo
slovakija
slovakijoje
slovakijos
slovaku
slove
sloven
slovenija
slovenijoje
slovenijos
slovenu
sloves
slugso
sluoksni
sluoksniai
sluoksnio
sluoksnis
sluoksniu
sluoksniuose
sluoksnius
sluoksnyje
slypi
sm
small
smarkiai
smegenis
smegenu
smegenys
smelio
smelis
smeliu
smetona
smetonos
smilgiu
smiltainio
smitas
smith
smm
smolensko
smugi
smugio
smugis
smugiu
smuikas
smuikininkas
smuiko
smuiku
smuikui
smuko
smulkiai
smulkiais
smulkios
smulkiu
smulkius
smulkus
smurto
sn
snapas
snapo
snek
sneka
sniegas
sniego
so
soboras
soccer
soccerway
social
socialdemokratu
socialine
socialines
socialini
socialiniai
socialinio
socialinis
socialiniu
socialinius
socialistine
socialistines
socialistinio
socialistiniu
socialistu
socializmas
socializmo
society
sociologas
sociologija
sociologijos
soda
sodai
sodas
sode
sodininkystes
sodo
sodu
soduose
sodyba
sodyboje
sodybos
sodybu
sofascore
sofia
sofija
sofijos
software
soju
soka
sokeja
sokejai
sokejas
sokeju
sokiai
sokio
sokis
sokiu
soko
sokoluvo
sokti
sokulkos
sol
solar
soline
solistas
soliste
solo
solutions
som
somalia
somaliland
somalio
somalis
somaliu
some
son
sona
sonai
sonata
sonderband
song
songs
sonines
soniniu
sonny
sono
sons
sonu
sonuose
sonus
sony
sopranas
sorbu
sosta
sostas
soste
sostine
sostineje
sostines
sosto
sotu
sou
soul
sound
source
south
southern
soviet
sovietai
sovietams
sovietine
sovietineje
sovietines
sovietinio
sovietinis
sovietiniu
sovietmeciu
sovietu
soviniai
soviniu
sovinius
sp
spa
space
spain
spali
spalio
spalis
spalva
spalvas
spalvomis
spalvos
spalvu
spanish
sparciai
sparnai
sparnais
sparnas
sparno
sparnu
sparnus
sparta
spartak
spartos
spaskis
spauda
spaudai
spaudimo
spaudoje
spaudos
spausdinimo
spausdino
spausdinti
spaustuve
spaustuveje
spaustuves
spears
special
specialaus
speciali
specialia
specialiai
specialioji
specialios
specialiosios
specialistai
specialistas
specialistu
specialiu
specialiuju
specialius
specializacija
specializuojasi
specialu
specialus
specialybe
specialybes
species
speed
spejama
spejo
spektakli
spektaklio
spektaklis
spektakliu
spektakliuose
spektaklius
spektaklyje
spektro
spiecius
spinduliai
spinduliais
spindulio
spinduliu
spinduliuotes
spindulys
spirit
spirito
spisu
sporos
sport
sporta
sportas
sportine
sportines
sporting
sportininkai
sportininkas
sportininke
sportininku
sportinio
sportinis
sportiniu
sporto
sports
sprendima
sprendimai
sprendimas
sprendimo
sprendimu
sprendimus
sprendzia
sprendziant
spresti
spring
springer
sprinto
sprogimas
sprogimo
spygliuociu
sq
sqrt
square
sr
sraigtasparniu
srautas
srauto
srautu
sri
sriciai
sriciu
sriti
srities
sritimi
sritis
srityje
sritys
srityse
sriuba
srove
sroves
sruoga
ss
sskp
ssr
ssrs
st
staates
staats
stabas
stabo
staciakampe
staciakampio
staciakampis
staciatikiai
staciatikiu
stade
stadija
stadijoje
stadijos
stadion
stadiona
stadionas
stadione
stadiono
stadium
stai
staiga
staigiai
stakliskiu
stakliu
stalas
stalinas
stalino
stalo
stalupenu
stambios
stambiu
stambulo
stambus
stand
standard
standarta
standartas
standartine
standartinis
standartiniu
standartizacijos
standarto
standartu
standartus
stanford
stanislavas
stanislavo
stanislovas
stanislovo
stanisław
stankevicius
stanley
star
stara
starcraft
stare
stars
start
startavo
starto
stase
stasio
stasys
stat
statant
state
states
statiniai
statinio
statiniu
statinys
statistical
statistics
statistika
statistikos
statistiniai
statistisch
statistisches
stato
statoma
statomas
statomi
statomos
statula
statulos
status
statusa
statusas
statuso
statutas
statyba
statybai
statybas
statybines
statybininkas
statybininku
statybiniu
statyboms
statybos
statybose
statybu
statyta
statytas
statyti
statytojas
stazavo
stazavosi
stebejimo
stebejo
stebeti
stebi
stebimas
stebuklas
stebuklu
stefan
stefanas
stefano
steigeja
steigejas
steigeju
steigiamojo
steigimo
steigti
steiner
stengesi
stengiamasi
stengiasi
stepes
stephen
stepiu
steponas
steponavicius
stepono
sterlingu
steve
steven
stewart
stiebai
stiebas
stiebo
stiebu
stiklo
stiliaus
stiliu
stiliumi
stilius
still
stipendija
stipraus
stipri
stipria
stipriai
stipriausia
stipriausiu
stiprinti
stiprios
stipriu
stipru
stiprumas
stiprumo
stiprus
stirnos
stm
stociu
stogas
stogo
stogu
stojo
stoka
stokholme
stokholmo
stokos
stone
stop
stora
storas
store
stories
storio
storis
story
stotele
stoteles
stoti
stoties
stotis
stotyje
stotys
stovejimo
stovejo
stovejusi
stoveti
stovi
stovinti
stovintis
stovykla
stovyklas
stovykloje
stovyklos
stovyklose
str
straipsni
straipsniai
straipsnio
straipsnis
straipsniu
straipsnius
straipsnyje
strategija
strategijos
strategiskai
strazdas
street
strele
streles
streliu
strevos
strong
structure
struktura
strukturas
strukturos
strukturu
stuart
stuburo
studentai
studentams
studentas
studentu
studies
studija
studijas
studijavo
studijinis
studijoje
studijoms
studijos
studiju
studijuodamas
studijuoja
studijuoti
studio
studios
study
stukso
stulpu
stumbras
sturmo
stuttgart
styginiu
stygos
stygu
style
su
suahiliu
suarchyvuota
suarchyvuotas
suauge
suauges
suaugusiems
suaugusiu
suaugusiuju
suazilandia
subaciaus
subjektas
subjektu
subresta
subsp
subure
suburta
sud
sudafrica
sudan
sudanas
sudane
sudano
sudaranciu
sudarant
sudarantys
sudare
sudaro
sudaroma
sudaromas
sudaromi
sudaromos
sudarydavo
sudarymo
sudaryta
sudarytas
sudaryti
sudarytoja
sudarytojas
sudarytos
sudarytu
sudedamoji
sudege
sudegino
sudeginti
sudeti
sudeties
sudetine
sudetinga
sudetingas
sudetingos
sudetingu
sudetis
sudetyje
sudirba
sudirbo
sudirbti
suduva
suduvos
suduzo
suecia
sueme
suformavo
suformulavo
suformuoja
suformuota
suformuotas
suformuoti
suformuotos
sugababes
sugalvoja
sugalvojo
sugalvoti
sugamina
sugamino
sugaminti
sugeba
sugebejimas
sugebejimu
sugebejimus
sugebejo
sugere
sugeria
sugerti
suginciu
sugirdejo
sugirdeti
sugirdi
sugrazinti
sugriauta
sugriautas
sugriauti
sugriove
sugrizimas
sugrizo
sugrizta
sugrizti
suimtas
suimti
suiza
sujaudina
sujaudino
sujaudinti
sujunge
sujungia
sujungta
sujungtas
sujungti
sujungtos
sujungtu
sujungus
suka
sukasi
sukategorizuoti
sukaupta
sukele
sukelia
sukelti
sukileliai
sukileliu
sukilima
sukilimas
sukilime
sukilimo
sukilimu
sukilimui
sukilo
sukilti
sukimosi
sukis
sukiu
suklestejo
sukonstravo
sukontroliavo
sukontroliuoja
sukontroliuoti
sukure
sukures
sukuria
sukurima
sukurimas
sukurimo
sukurkite
sukurta
sukurtas
sukurti
sukurtos
sukurtu
sukyla
sula
sulaikyti
sulauke
sulaukes
sulaukia
sulaukusi
sulciu
sullivan
sultonas
sultonatas
sultono
sultys
sum
suma
sumaste
sumasto
sumastyti
sumatros
sumazeja
sumazejo
sumazina
sumazino
sumazintas
sumazinti
sumenko
sumeru
sumigo
sumigti
suminga
summary
summer
sumoka
sumokejo
sumoketi
sumontuoti
sumos
sumuse
sun
sunaikino
sunaikinta
sunaikintas
sunaikinti
sunaus
sunday
sunenas
sunervina
sunervino
sunervinti
sunis
sunkaus
sunki
sunkia
sunkiai
sunkiau
sunkiojo
sunkios
sunkiosios
sunkiu
sunkiuju
sunku
sunkumu
sunkus
sunkvezimiu
suns
sunu
sunui
sunumi
sunus
sunyko
sunys
suo
suoliu
suom
suomija
suomijoje
suomijos
suomiu
suopis
suorganizavo
supa
supaprastinta
super
superlyga
supertaure
supertaures
supiltas
supranta
suprantama
suprantamas
suprasti
supratima
supratimas
supratimo
suprato
suprojektavo
suprojektuotas
sur
surado
suragina
suragino
suraginti
surase
suraso
surasti
surasyma
surasymas
surasymo
surasymu
surasyti
suremontuota
surenge
surengta
surengtas
surengti
surengtos
surenka
surinam
surinamas
surinke
surinkes
surinkimo
surinko
surinkta
surinkti
surinktus
surinkusi
surio
suris
suriu
survey
susan
susapnavo
susapnuoja
susapnuoti
susaudytas
susaudyti
susibure
susidare
susidares
susidariusi
susidaro
susidarymo
susidaryti
susideda
susidirba
susidirbo
susidirbti
susidomejima
susidomejimo
susidomejo
susidure
susiduria
susidurimo
susieti
susiformavo
susiformavusi
susiformuoja
susigalvoja
susigalvojo
susigalvoti
susigamina
susigamino
susigaminti
susigere
susigeria
susigerti
susigincija
susigincijo
susigincyti
susigrazino
susigrazinti
susijaudina
susijaudino
susijaudinti
susije
susijes
susijunge
susijungia
susijungus
susijusi
susijusias
susijusios
susijusiu
susijusius
susikloste
susikure
susikurusi
susilauke
susilieja
susiliejus
susimaste
susimasto
susimastyti
susimoka
susimokejo
susimoketi
susinervina
susinervino
susinervinti
susipazino
susipazinti
susipazista
susirase
susiraso
susirasyti
susirenka
susirgo
susirinkima
susirinkimas
susirinkime
susirinkimo
susirinkimu
susirinko
susisapnavo
susisapnuoja
susisapnuoti
susisiekimas
susisiekimo
susiskaite
susiskaito
susiskaityti
susiskolina
susiskolino
susiskolinti
susitare
susitarima
susitarimas
susitarimo
susitarimu
susitelke
susitikima
susitikimai
susitikimas
susitikime
susitikimo
susitikimu
susitikimus
susitiko
susitikrina
susitikrino
susitikrinti
susitikti
susitinka
susituoke
susivagia
susivaisina
susivaisino
susivaisinti
susivienijimas
susivienijimo
susivoge
susivogti
susivoke
susivokia
susivokti
suskaite
suskaito
suskaityti
suskirstymas
suskirstymo
suskirstyta
suskirstytas
suskirstyti
suskirstytos
suskolina
suskolino
suskolinti
sustabde
sustabdyta
sustabdytas
sustabdyti
sustiprejo
sustiprino
sustiprinti
sustoja
sustojo
sustoti
susves
sutampa
sutapo
sutarciu
sutare
sutarta
sutarti
sutarties
sutartimi
sutartis
sutartyje
sutartys
suteike
suteikia
suteikiama
suteikiamas
suteikimo
suteikta
suteiktas
suteikti
suteiktos
suteka
sutelkti
sutiko
sutikrina
sutikrino
sutikrinti
sutikti
sutinka
sutinkama
sutinkamas
sutinkami
sutinkamos
sutrikimai
sutrikimas
sutrikimu
sutriuskino
sutrukde
sutrumpintai
sutuoktine
sutuoktinis
sutvarkyta
sutvarkyti
suva
suvagia
suvaidino
suvaisina
suvaisino
suvaisinti
suvalkijos
suvalku
suvaziavimas
suvaziavime
suvaziavimo
suvienijo
suvienyti
suvio
suvis
suvoge
suvogti
suvoke
suvokia
suvokimas
suvokimo
suvokti
suzaide
suzaistos
suzeista
suzeistas
suzeisti
suzino
suzinojes
suzinojo
suzinoti
sv
svajone
svajones
svajoniu
svalbard
svarba
svarbesni
svarbi
svarbia
svarbiausi
svarbiausia
svarbiausias
svarbiausios
svarbiausiu
svarbiausius
svarbios
svarbiu
svarbius
svarbos
svarbu
svarbus
svarste
svarstyti
svaru
svarus
svazilandas
svc
sveciai
svecias
sveciu
sveciuose
svecius
sved
svedai
svedas
svedasu
svedija
svedijoje
svedijos
svedu
sveicarija
sveicarijoje
sveicarijos
sveicaru
sveika
sveikas
sveikata
sveikatai
sveikatos
sveiki
sveksnos
svelnus
svenciama
svencioneliu
svencioniu
svencionys
svenciu
sventa
sventaja
sventas
sventasis
svente
sventei
sventeje
sventems
sventes
sventese
svento
sventoji
sventojo
sventoriaus
sventoriuje
sventos
sventosios
sventove
sventoves
sventu
sventuju
sventykla
sventykloje
sventyklos
sventyklu
svere
sveria
svetaine
svetaineje
svetaines
svetima
svetimas
svetimu
svetur
sviesa
sviesai
sviesiai
sviesmeciu
sviesos
sviesto
sviesus
svietejas
svietima
svietimas
svietimo
svino
svirnas
svk
svori
svorio
svoris
svyruoja
svyturio
svyturys
sw
sweet
swift
sx
sy
sydney
syki
syn
sypsena
system
systems
sz
słowianskich
słownik
t
t0
t1
t2
t3
t4
t5
t6
t7
t8
t9
ta
tabakas
tabako
table
tablesa
tablesb
tablesd
tablese
tablesf
tablesg
tablesi
tablesk
tablesl
tablesm
tablesn
tableso
tablesp
tablesr
tabless
tablesz
taciau
tad
tada
tadas
tadeusz
tado
tadzikija
tadzikijos
tadziku
tagalu
tai
taigi
taika
taikant
taikiai
taikiniu
taikinius
taiko
taikoma
taikomas
taikomi
taikomos
taikomosios
taikos
taikymas
taikymo
taikyti
tailandas
tailande
tailandia
tailando
taip
tais
taisykle
taisykles
taisykliu
taivanas
taivane
taivano
taiwan
taj
taju
takai
takais
takas
take
takeli
takelis
takeliu
tako
taksi
taktika
taku
takus
talenta
talentas
talentu
talinas
taline
talino
talis
talk
talkino
tallat
tallinn
talpa
talpina
talpos
tam
tamara
tame
tamil
tamilu
tamosaitis
tampa
tamsa
tamsiai
tamsios
tamsoje
tamsos
tamsta
tamsus
tan
tang
tango
tankai
tankas
tanki
tankiai
tankiausiai
tankio
tankis
tanko
tanku
tankumas
tankus
tanzania
tanzanija
tanzanijos
tapatybe
tapatybes
tapdamas
tapdavo
tape
tapes
tapo
taps
tapti
taptu
tapus
tapusi
tapyba
tapybos
tapyti
tapytoja
tapytojas
tapytoju
tar
tarasenka
tare
tariama
tariamai
tariamas
tariant
tarimas
tarimo
tarm
tarme
tarmes
tarmiu
tarnas
tarnauja
tarnauti
tarnautojas
tarnautoju
tarnavo
tarnyba
tarnybai
tarnyboje
tarnybos
tarnybu
tarp
tarpa
tarpas
tarpe
tarpine
tarpinis
tarpo
tarptautine
tarptautineje
tarptautines
tarptautinese
tarptautini
tarptautiniai
tarptautiniame
tarptautinio
tarptautinis
tarptautiniu
tarptautiniuose
tarptautinius
tarpu
tarpukario
tarpukariu
tarpukaryje
tarpusavio
tarpusavyje
tarpzoninis
tarsa
tarsi
tartu
tartum
taryba
tarybai
tarybine
tarybines
tarybiniais
tarybinio
tarybinis
tarybiniu
taryboje
tarybos
tarybu
tas
taska
taskai
taskais
taskas
taske
tasko
tasku
taskus
tat
tatjana
tau
taurage
taurageje
taurages
tauragnu
tauras
taure
taureje
taures
tauriu
tauro
tauta
tautai
tautas
tautavicius
tautine
tautines
tautininku
tautinio
tautinis
tautiniu
tautodailininkas
tautomis
tautoms
tautos
tautosaka
tautosakininkas
tautosakos
tautu
tautybes
tautybiu
tave
taves
tavo
tayikistan
taylor
tb
tbilisio
tc
td
te
team
teams
teatra
teatrai
teatras
teatre
teatro
teatru
teatrui
teatruose
tebera
tebu
tebuvo
technika
technikas
technikos
technikuma
technikume
technikumo
technine
technines
techninio
techninis
techniniu
technologas
technologija
technologijas
technologijos
technologiju
technology
tegu
tegul
teige
teigia
teigiama
teigiamai
teigiamas
teigiamu
teigimu
teiginiai
teiginiu
teiginys
teigti
teike
teikia
teikiama
teikiamos
teikianti
teikimo
teikti
teise
teiseja
teisejai
teisejas
teiseje
teisejo
teiseju
teisemis
teises
teisesaugos
teisetyrininkas
teisine
teisines
teisinga
teisingai
teisingas
teisinguma
teisingumas
teisingumo
teisininkas
teisininke
teisininko
teisininku
teisinio
teisinis
teisiniu
teisiskai
teisiu
teisma
teismai
teismas
teisme
teismo
teismu
teismui
teisus
teisybe
teka
tekancios
tekanti
tekejo
teketi
tekme
teko
teksaso
teksta
tekstai
tekstas
tekste
tekstile
tekstiles
teksto
tekstu
tekstuose
tekstus
tel
telefonas
telefono
telefonu
telegrafo
telegraph
telekomunikaciju
television
televizija
televizijoje
televizijos
telkiniai
telkinio
telkiniu
telkinys
telksancio
telkso
telmologinis
telpa
telsiai
telsiu
telsiuose
telugu
tema
temas
tematika
tematikos
temomis
temos
temperatura
temperaturai
temperaturoje
temperaturos
temperaturu
temu
ten
tenai
tendencija
tendencijos
tenisininkas
teniso
tenka
tenoras
teodora
teodoras
teodoro
teologas
teologija
teologijos
teorema
teoretikas
teorija
teorijoje
teorijos
teoriju
teorines
teoriskai
tera
terapija
terapijos
terasa
terasos
teresa
terese
teritorija
teritorijai
teritorijas
teritorijoje
teritorijos
teritorijose
teritoriju
teritorines
teritorinio
teritorinis
teritoriniu
termina
terminai
terminalas
terminas
termino
terminu
terra
territorio
terry
tes
tese
tesesi
tesia
tesiasi
tesinys
tesla
teslos
test
testamentas
testamento
testi
teta
teva
tevai
tevais
tevams
tevas
teviske
teviskes
tevo
tevu
tevui
tevus
tevyne
tevynei
tevynes
texas
text
tf
tfa
tg
th
than
that
the
theatre
theft
their
theory
theplantlist
there
theta
they
things
third
this
thomas
thompson
thomson
three
through
ti
tibet
tibete
tibetieciu
tibeto
tie
tiek
tiekimo
tiekti
tiem
tiems
tierra
ties
tiesa
tiese
tieses
tiesiai
tiesiog
tiesiogiai
tiesiogine
tiesiogines
tiesioginio
tiesioginis
tiesioginiu
tiesos
tiesti
tiesu
tiesus
tigras
tigro
tik
tikejima
tikejimas
tikejimo
tikejimu
tikejo
tikejosi
tiketi
tiketina
tiketis
tiki
tikima
tikimasi
tikimybe
tikina
tikinciuju
tikino
tikinti
tikintieji
tikisi
tiko
tikr
tikra
tikrai
tikrais
tikraja
tikraji
tikras
tikrasis
tikri
tikriausiai
tikrieji
tikrina
tikrinis
tikrino
tikrinta
tikrinti
tikro
tikroje
tikroji
tikrojo
tikros
tikrosios
tikrove
tikroves
tikru
tikruju
tikrus
tiksla
tikslai
tikslais
tikslams
tikslas
tiksli
tiksliai
tiksliau
tikslo
tikslu
tikslui
tikslus
tiktai
tikyba
tikybos
til
tilde
tilta
tiltai
tiltas
tilto
tiltu
tilze
tilzeje
tilzes
tim
time
times
timor
timoras
timoro
tin
tina
tinka
tinkama
tinkamai
tinkamas
tinkamos
tinkamu
tinkinta
tinkla
tinklai
tinklalapis
tinklalapyje
tinklas
tinklaviete
tinkle
tinklinio
tinklo
tinklu
tinklus
tipa
tipai
tipas
tipiskas
tipo
tipu
tipus
tirane
tirazas
tirazu
tiria
tiriant
tirianti
tirti
tis
tiskeviciu
tiskevicius
titas
title
titnago
titula
titulai
titulas
titulo
titulu
titulus
tiurku
tj
tk
tl
tm
tn
to
tobagas
tobago
tobulinimo
tobulinosi
tobulinti
today
todel
togas
togo
toje
toji
tok
tokelau
toki
tokia
tokiais
tokiam
tokias
tokie
tokiems
tokijas
tokijo
tokijuje
tokio
tokioje
tokiomis
tokios
tokiose
tokiu
tokiuose
tokius
toks
tokyo
tol
tolesni
toli
toliau
toliausiai
tolimuju
tolj
tolo
tolygiai
tolyn
tom
toma
tomai
tomas
tomatoes
tome
tomis
tomo
toms
tomu
tomy
tona
tonas
tonga
tongos
tonu
tony
too
top
tope
topo
topographie
topographisch
topu
topuose
torino
toro
toronte
toronto
tos
tose
tot
total
totoriai
totoriu
tour
town
towns
toyota
tp
tq
tr
track
trade
tradicija
tradicijas
tradicijomis
tradicijos
tradiciju
tradicine
tradicines
tradicini
tradiciniai
tradicinio
tradicinis
tradiciniu
tradicinius
tradiciskai
tragedija
tragedijos
training
trakai
traku
trakuose
trama
tramvajaus
tramvaju
tramvajus
trans
transfermarkt
translated
translation
transliteracija
transliuoti
transliuotojas
transnistria
transportas
transporto
trasa
trasoje
trasos
trasu
trauke
traukesi
traukia
traukiasi
traukiniai
traukinio
traukiniu
traukinys
traukos
traukti
trauktis
trauma
traumos
travel
tre
trecdali
trecdalis
trecia
treciadieni
treciaja
treciajame
treciaji
treciame
trecias
treciasis
trecio
trecioje
trecioji
treciojo
treciokas
trecios
treciosios
treciuoju
tree
treju
trejus
trejybes
treko
tremties
tremtiniai
tremtiniu
tremtyje
trenere
treneriai
trenerio
treneris
treneriu
treniravo
treniravosi
treniruociu
treniruotes
tres
tri
tribunolo
trijose
triju
trijuose
trikampe
trikampio
trikampis
trikampiu
trileris
trilogija
trimis
trimitas
trims
trinidad
trinidadas
trinidado
trio
tris
trisdesimt
triskart
trispalve
tristan
triuksmo
triumfas
triumfavo
triumfo
troba
trofeju
trofejus
trojos
tropinis
troskunu
true
trukde
trukdo
trukme
trukmes
truko
truksta
trukumas
trukumo
trukumu
trukus
trumpa
trumpai
trumpam
trumpas
trumpi
trumpiau
trumpo
trumpos
trumpu
trumpuju
trunka
trupe
trupes
truputi
truth
trylika
trylikos
trys
ts
tsk
tskp
tsr
tsrs
tt
tu
tuberkuliozes
tukst
tukstanciai
tukstancio
tukstanciu
tukstancius
tukstanti
tukstantis
tukstantmecio
tukstantmeciu
tukstantmetis
tukstantmetyje
tulzies
tum
tumas
tundra
tunelis
tunez
tunisas
tuniso
tuo
tuoj
tuojau
tuomet
tuometine
tuometineje
tuometines
tuometinio
tuometinis
tuometiniu
tuos
tupimo
tupiu
tur
tura
turas
turbut
turcas
ture
turedamas
turedavo
tureje
turejes
turejo
turejusi
tures
tureti
turetu
turgaus
turgus
turi
turima
turime
turincia
turincios
turinciu
turincius
turini
turinio
turiniu
turino
turint
turinti
turintiems
turintis
turintys
turinys
turio
turis
turistai
turistams
turistinis
turistu
turiu
turizmas
turizmo
turizmu
turk
turkai
turkija
turkijoje
turkijos
turkmenija
turkmenijos
turkmenistan
turkmenu
turku
turmanto
turn
turner
turnyra
turnyrai
turnyras
turnyre
turnyro
turnyru
turnyruose
turnyrus
turo
turquia
turta
turtas
turtinga
turtingas
turtingiausiu
turtingu
turto
turtu
turtus
turu
tus
tuscia
tuscias
tuvalu
tuviu
tv
tvankstos
tvarka
tvarke
tvarko
tvarkos
tvarkymo
tvarkyti
tvartas
tvenkini
tvenkiniai
tvenkinio
tvenkiniu
tvenkinys
tveres
tvirta
tvirtai
tvirtas
tvirtina
tvirtino
tvirtinti
tvirtove
tvirtoves
tvora
tvoros
tw
twanksta
twitter
two
tx
ty
tycia
tyla
tyli
tyliai
tylos
typ
type
tyre
tyrejai
tyrejas
tyrima
tyrimai
tyrimais
tyrimams
tyrimas
tyrimo
tyrimu
tyrimuose
tyrimus
tyrinejimai
tyrinejimu
tyrinejo
tyrineti
tyrinetojai
tyrinetojas
tyrinetoju
tys
tyszkiewicz
tyto
tytuvenu
tz
u
u0
u1
u2
u3
u4
u5
u6
u7
u8
u9
ua
uab
ub
uber
ubuntu
uc
ucrania
ud
udra
ue
uefa
uf
ug
uganda
ugandos
ugdymas
ugdymo
ugdyti
ugio
ugis
ugni
ugnies
ugnikalnio
ugnikalnis
ugnikalniu
ugnimi
ugnis
uh
ui
uiguru
uj
uju
uk
ukas
uki
ukiai
ukine
ukines
ukiniai
ukininkai
ukininkas
ukininko
ukininku
ukiniu
ukio
ukis
ukiu
ukiui
ukmerge
ukmergeje
ukmerges
ukr
ukraina
ukraine
ukrainian
ukrainieciai
ukrainieciu
ukrainoje
ukrainos
ukyje
ul
ulos
ulrich
ultimate
um
un
una
und
under
une
unesco
unido
unidos
unija
unijos
unik
unikali
unikaliu
unikalus
union
united
universal
universali
universalus
universe
universiteta
universitetai
universitetas
universitete
universiteto
universitetu
universitetui
universitetuose
university
unix
uo
uodega
uodegos
uogos
uogu
uoju
uola
uoliena
uolienos
uolienu
uolos
uolu
uosius
uosta
uostai
uostas
uoste
uosto
uostu
uostus
up
upe
upeje
upeli
upeliai
upelio
upelis
upeliu
upeliukas
upemis
upems
upes
upese
upevardis
upiu
uploads
upynos
upytes
uq
ur
uralo
uranas
urano
urban
urbanistika
urbanistikos
urbonas
urdu
uredija
uredijos
url
urm
urmaterialien
uruguay
urugvajaus
urugvajuje
urugvajus
urvas
urvu
urvuose
urzedowych
us
usa
usd
use
ust
ut
utc
utena
utenoje
utenos
uu
uv
uw
ux
uy
uz
uzauga
uzaugo
uzbaige
uzbaigta
uzbaigtas
uzbaigti
uzbekija
uzbekijos
uzbekistan
uzbeku
uzdara
uzdare
uzdarius
uzdaro
uzdaru
uzdarymo
uzdaryta
uzdarytas
uzdaryti
uzdarytos
uzdaviniai
uzdavinio
uzdaviniu
uzdavinius
uzdavinys
uzdegimas
uzdirba
uzdirbo
uzdirbti
uzdraude
uzdrausta
uzdraustas
uzdrausti
uzduociu
uzduoti
uzduotis
uzejus
uzeme
uzemes
uzemus
uzemusi
uzemusios
uzfiksuota
uzfiksuotas
uzfiksuoti
uzgere
uzgeria
uzgerti
uzgincija
uzgincijo
uzgincyti
uzgirdejo
uzgirdeti
uzgirdi
uzgrobe
uzima
uzimta
uzimtas
uzimti
uzjaudina
uzjaudino
uzjaudinti
uzjurio
uzkariauti
uzkariavimo
uzkariavo
uzkilo
uzkilti
uzkirsti
uzkyla
uzmaste
uzmasto
uzmastyti
uzmegzti
uzmezge
uzmiega
uzmiegojo
uzmiegoti
uzmigo
uzmigti
uzminga
uzmoka
uzmokejo
uzmoketi
uzmuse
uznakvoja
uznakvojo
uznakvoti
uznervina
uznervino
uznervinti
uzpakaline
uzpakalines
uzpaliu
uzpelkeje
uzpelkejes
uzpuola
uzpuole
uzragina
uzragino
uzraginti
uzrasai
uzrasas
uzrase
uzraso
uzrasoma
uzrasomas
uzrasu
uzrasyta
uzrasytas
uzrasyti
uzsake
uzsakyma
uzsakymu
uzsala
uzsapnavo
uzsapnuoja
uzsapnuoti
uzsidirba
uzsidirbo
uzsidirbti
uzsieme
uzsieni
uzsienieciu
uzsienio
uzsienyje
uzsigalvoja
uzsigalvojo
uzsigalvoti
uzsigere
uzsigeria
uzsigerti
uzsiima
uzsiimti
uzsimaste
uzsimasto
uzsimastyti
uzsimiega
uzsimiegojo
uzsimiegoti
uzsimigo
uzsimigti
uzsiminga
uzsimoka
uzsimokejo
uzsimoketi
uzsinakvoja
uzsinakvojo
uzsinakvoti
uzsinervina
uzsinervino
uzsinervinti
uzsirase
uzsiraso
uzsirasyti
uzsisapnavo
uzsisapnuoja
uzsisapnuoti
uzsiskaite
uzsiskaito
uzsiskaityti
uzsiskolina
uzsiskolino
uzsiskolinti
uzsitikrina
uzsitikrino
uzsitikrinti
uzsivagia
uzsivaisina
uzsivaisino
uzsivaisinti
uzsivoge
uzsivogti
uzskaite
uzskaito
uzskaityti
uzskolina
uzskolino
uzskolinti
uztenka
uztikina
uztikino
uztikinti
uztikrina
uztikrino
uztikrinti
uztruko
uztvanka
uztvankos
uztvenkus
uzupio
uzvagia
uzvaisina
uzvaisino
uzvaisinti
uzvalde
uzvencio
uzvoge
uzvogti
uzvoke
uzvokia
uzvokti
v
v0
v1
v2
v3
v4
v5
v6
v7
v8
v9
va
vabalai
vabalas
vabalninko
vabalu
vabzdziai
vabzdziais
vabzdziu
vabzdzius
vaclovas
vad
vada
vadai
vadas
vadina
vadinama
vadinamaja
vadinamas
vadinamasis
vadinami
vadinamieji
vadinamo
vadinamoji
vadinamos
vadinamosios
vadinamu
vadinasi
vadino
vadinosi
vadinta
vadintas
vadinti
vadintos
vado
vadova
vadovai
vadovas
vadovauja
vadovaujama
vadovaujamas
vadovaujami
vadovaujamos
vadovaujamu
vadovaujant
vadovaujantis
vadovauti
vadovaves
vadovavima
vadovavimo
vadovavo
vadove
vadovelis
vadoveliu
vadovo
vadovu
vadovybe
vadovybes
vadu
vadui
vadyba
vadybininkas
vadybos
vaga
vagia
vagos
vai
vaidas
vaidina
vaidino
vaidinti
vaidmeni
vaidmenis
vaidmens
vaidmenu
vaidmenys
vaidmuo
vaidotas
vaidyba
vaidybos
vaika
vaikai
vaikais
vaikams
vaikas
vaikinas
vaikinu
vaiko
vaikscioti
vaiku
vaikui
vaikus
vaikyste
vaikysteje
vaikystes
vaildas
vaineikiu
vainikas
vairas
vairo
vairuotojas
vairuotojo
vaisiai
vaisiais
vaisiakuniai
vaisiaus
vaisina
vaisingumo
vaisino
vaisinti
vaisiu
vaisius
vaislapelis
vaistai
vaistas
vaistine
vaistininkas
vaistiniu
vaistu
vaistus
vaitkevicius
vaitkus
vaiva
vaivada
vaivadija
vaivadijai
vaivadijoje
vaivadijos
vaivados
vaivorykste
vaizda
vaizdai
vaizdas
vaizdavimo
vaizdavo
vaizdo
vaizdu
vaizduoja
vaizduojama
vaizduojamas
vaizduojami
vaizduojamos
vaizduoti
vaizdus
vaizganto
vakar
vakara
vakarai
vakarais
vakaras
vakare
vakariene
vakarine
vakarineje
vakarines
vakariniame
vakarinio
vakarinis
vakariniu
vakaro
vakaru
vakaruose
vakarus
vakcina
val
valaku
valanciaus
valancius
valanda
valandas
valandos
valandu
valciu
valda
valdant
valdas
valde
valdemaras
valdes
valdininku
valdo
valdoma
valdomas
valdomi
valdomos
valdomu
valdos
valdose
valdova
valdovai
valdovas
valdove
valdoves
valdovo
valdovu
valdovui
valdu
valdyba
valdyboje
valdybos
valdyma
valdymas
valdymo
valdyti
valdytojas
valdytojo
valdytoju
valdzia
valdziai
valdzioje
valdzios
valdziusi
valencia
valensijos
valentina
valentinas
valerija
valerijonas
valerijus
valgis
valgo
valgoma
valgomas
valgomi
valgykla
valgyti
valia
valios
valiuta
valiutos
valiutu
valkininku
valley
valsciai
valsciaus
valsciu
valsciui
valsciuje
valscius
valstieciai
valstieciams
valstieciu
valstietis
valstija
valstijas
valstijoje
valstijos
valstijose
valstiju
valstybe
valstybei
valstybeje
valstybemis
valstybems
valstybes
valstybese
valstybine
valstybineje
valstybines
valstybingumo
valstybini
valstybiniai
valstybiniame
valstybinio
valstybinis
valstybiniu
valstybinius
valstybiu
valteris
valtis
valu
valymo
vamzdis
vamzdzio
vamzdziu
van
vanagas
vanda
vandeni
vandenilio
vandenilis
vandenis
vandeniu
vandeniui
vandens
vandenu
vandenyje
vandenyna
vandenynai
vandenynas
vandenyne
vandenyno
vandenynu
vandenys
vandenyse
vanduo
vanuatu
var
vard
varda
vardai
vardais
vardan
vardas
vardo
vardu
vardus
varena
varenos
vargas
vargo
vargonai
vargonininkas
vargonininkavo
vargonininku
vargonu
vargu
varianta
variantai
variantas
variantu
variantus
variety
varikli
varikliai
varikliais
variklio
variklis
varikliu
variklius
vario
varis
varliagyviu
varmijos
varna
varnas
varniu
varnos
varomas
varpa
varpai
varpas
varpine
varpines
varpo
varpos
varpu
varsuva
varsuvoje
varsuvos
vartai
vartais
vartininkas
vartininko
vartininku
vartoja
vartojama
vartojamas
vartojami
vartojamos
vartojima
vartojimas
vartojimo
vartojo
vartota
vartoti
vartotinu
vartotojai
vartotojams
vartotojas
vartotojo
vartotoju
vartotojui
vartu
vartus
varzesi
varzosi
varzovai
varzovas
varzovu
varzovus
varzybas
varzyboms
varzybos
varzybose
varzybu
varzytis
vas
vasara
vasari
vasario
vasaris
vasaromis
vasaros
vasiliauskas
vasilijus
vasingtone
vasingtono
vasku
vaticano
vatikanas
vatikano
vau
vaza
vaziavo
vaziuoja
vaziuojant
vaziuokle
vaziuoti
vazos
vb
vc
vd
vda
vdr
vdu
ve
vec
veda
vedder
vede
vedeja
vedejas
vedejo
vedeju
vedes
vedu
vedybos
vedybu
vega
vei
veida
veidai
veidas
veido
veidrodis
veidu
veik
veikala
veikalai
veikalas
veikale
veikalu
veikalus
veike
veikeja
veikejai
veikejas
veikejo
veikeju
veikejus
veikes
veikia
veikiamas
veikiancios
veikianciu
veikiant
veikianti
veikiantis
veikiausiai
veikima
veikimas
veikimo
veikla
veiklai
veikloje
veiklos
veiksma
veiksmai
veiksmas
veiksmazodis
veiksmazodziai
veiksmazodzio
veiksmazodziu
veiksmo
veiksmu
veiksmui
veiksmus
veiksniai
veiksniu
veiksnys
veikti
veikusi
veimaro
veisiasi
veisieju
veisimosi
veisle
veisles
veisliu
veiveriu
veivirzenu
veja
vejai
vejas
vejo
veju
vektoriaus
vektoriu
vektorius
vel
velai
velesni
velesniais
velesniu
velesniuose
veliau
veliava
veliavininkas
veliavoje
veliavos
veliuonos
velnias
velnio
velsas
velse
velso
veltui
veluvos
velykos
velyku
velyvojo
velyvosios
venecija
venecijoje
venecijos
venera
veneros
venesuela
venesueloje
venesuelos
venetu
venezuela
veng
vengia
vengrai
vengrija
vengrijoje
vengrijos
vengru
vengruvo
vengti
veni
venta
ventos
venus
vepriu
vepsu
vera
vercia
verciamas
verciamasi
verciasi
verde
verdi
verdis
vergai
vergu
verkiu
verlag
vermachto
veronika
versalio
versija
versijas
versijoje
versijos
versiju
version
versla
verslas
verslininkas
verslininku
verslo
verslu
versme
versmes
versmiu
versti
verstis
versus
vert
verta
vertas
verte
verteja
vertejas
vertes
vertesi
vertikaliai
vertima
vertimai
vertimas
vertimo
vertimu
vertina
vertinama
vertinamas
vertinami
vertinga
vertingas
vertingu
vertinimas
vertinimo
vertinimu
vertino
vertinti
vertus
vertybe
vertybes
vertybiniu
vertybiu
verwaltungsgeschichte
very
ves
vesi
vest
vestfalijos
vesti
vestuves
vestuviu
veteranu
veterinarijos
vetra
veze
vezes
vezio
veziu
vezliai
vezliu
vezlys
vezti
vezys
vf
vfr
vg
vgtu
vh
vi
via
vice
vicecempionas
viceministras
vicente
vicepirmininkas
viceprezidentas
victor
victoria
victrix
vid
vida
vidas
vidaus
videniskiu
video
vidine
vidines
vidini
vidiniai
vidinio
vidinis
vidiniu
vidiskiu
vidmantas
vidu
viduje
vidukles
viduramziais
viduramziu
viduri
vidurine
vidurineje
vidurines
vidurinio
vidurinis
viduriniu
vidurio
viduriu
vidurkis
vidurupio
vidurupyje
vidury
viduryje
vidurys
vidurzemio
vidus
vidutine
vidutines
vidutinio
vidutinis
vidutiniskai
vidutiniu
vie
vieksniu
vien
viena
vienai
vienam
viename
vienas
vienask
vienaskaita
vienaskaitos
vieneriu
vienerius
vieneta
vienetai
vienetas
vieneto
vienetu
vienetus
vieni
vienija
vienijanti
vieninga
vieningas
vieningos
vienintele
vieninteli
vieninteliai
vienintelis
vieninteliu
vienkiemius
vienna
vieno
vienoda
vienodai
vienodas
vienodi
vienodo
vienodos
vienoje
vienok
vienos
viens
viensedis
vientisa
vientisos
vienu
vienuoliai
vienuolika
vienuolio
vienuolis
vienuoliu
vienuolyna
vienuolynai
vienuolynas
vienuolyne
vienuolyno
vienuolynu
vienus
vienybe
vienybes
viesa
viesai
viesaja
viesas
viesasis
viesbucio
viesbuciu
viesbutis
viesbutyje
viesoji
viesojo
viesosios
viespaties
viespats
viesu
viesuju
viet
vieta
vietas
vietine
vietines
vietiniai
vietiniais
vietininkas
vietinio
vietinis
vietiniu
vietinius
vietnam
vietnamas
vietname
vietnamieciu
vietnamo
vietoj
vietoje
vietomis
vietos
vietose
vietovardis
vietovardziai
vietovardziu
vietove
vietoveje
vietoves
vietovese
vietoviu
vietu
vievio
view
vii
viii
vikaras
vikaru
vikicitatos
vikicitatose
viking
vikingu
vikipedija
vikipedijoje
vikiteka
vikizodyna
vikizodynas
viksrai
viktoras
viktorija
viktorijos
viktoro
vila
vilhelmas
vilhelmo
vilija
vilius
vilja
viljamas
viljamo
vilkai
vilkas
vilkaviskio
vilkaviskis
vilkijos
vilko
vilku
villa
vilma
vilna
vilniaus
vilnios
vilniu
vilniuje
vilnius
vilnos
vilos
vilti
vilties
viltis
vin
vincas
vincent
vincentas
vincento
vinco
vingio
vingiuota
violeta
virdzinijos
virgenes
virgilijus
virgin
virginija
virginijus
virs
virsaus
virsija
virsijo
virsininkas
virsininko
virsininku
virskinimo
virsta
virsu
virsuje
virsukalne
virsune
virsuneje
virsunes
virsunese
virsuniu
virsus
virsutine
virsutineje
virsutines
virsutiniame
virsutinio
virsutinis
virsutiniu
virti
virto
virtuali
virtualus
virtuve
virtuveje
virtuves
virusas
viruso
virusu
virve
vis
visa
visada
visados
visagino
visai
visais
visakio
visam
visame
visas
visasajunginio
visasajunginiu
visata
visatos
visciukas
visgi
visi
visiems
visinskio
visiska
visiskai
visiskas
viska
viskas
visko
viso
visoje
visokiu
visomis
visoms
visos
visose
vista
vistu
vistycio
visu
visuma
visuomene
visuomenei
visuomeneje
visuomenes
visuomenine
visuomenines
visuomenininkas
visuomeninio
visuomeninis
visuomeniniu
visuomet
visuose
visuotinai
visuotine
visuotines
visuotinio
visuotinis
visuotiniuose
visuotinojo
visur
visus
vita
vitalijus
vitamino
vitaminu
vitas
vitebsko
vitkauskas
vitkus
vizija
vizito
vj
vk
vks
vl
vladas
vladimir
vladimiras
vladimiro
vladislavas
vladislovas
vladislovo
vlado
vle
vlkk
vlodavos
vls
vm
vmatrix
vn
vns
vnt
vo
vog
voge
vogti
voice
vok
vokalai
vokalas
vokalinis
vokaliniu
vokalistas
vokaliste
vokalo
voke
vokes
vokia
vokieciai
vokieciams
vokieciu
vokietija
vokietijai
vokietijoje
vokietijos
vokietis
vokiskai
vokiskos
vokti
vol
volapiuko
volfgangas
volgos
volkswagen
volkszahlung
volstandige
voluines
volume
volynes
vom
von
voras
voruta
vos
vot
vovere
voveres
voyager
vp
vq
vr
vrk
vrm
vs
vsi
vt
vu
vulkanines
vus
vv
vw
vx
vy
vycio
vyduno
vykdant
vykdanti
vykdavo
vykde
vykdo
vykdoma
vykdomas
vykdomasis
vykdomi
vykdomoji
vykdomojo
vykdomos
vykdomosios
vykdyma
vykdymo
vykdyta
vykdyti
vykdziusi
vykes
vykintas
vyko
vyks
vyksta
vykstant
vykstantis
vykti
vykusi
vykusiame
vykusio
vykusioje
vykusios
vykusiose
vykusiu
vykusiuose
vyna
vynas
vyno
vynuoges
vynuogiu
vyr
vyra
vyrai
vyrams
vyras
vyrauja
vyravo
vyresni
vyresnio
vyresnioji
vyresniojo
vyresnis
vyresniu
vyresniuju
vyresniuoju
vyresnysis
vyriausias
vyriausiasis
vyriausioji
vyriausiojo
vyriausiosios
vyriausiuoju
vyriausybe
vyriausybei
vyriausybeje
vyriausybes
vyriausybiu
vyriska
vyriskas
vyriskos
vyriskosios
vyro
vyru
vyrui
vyrus
vyskupai
vyskupas
vyskupija
vyskupijai
vyskupijos
vyskupo
vyskupu
vyskupui
vyslos
vysniauskas
vysniu
vysokio
vystesi
vystoma
vystomas
vystosi
vystymasi
vystymasis
vystymo
vystymosi
vystyti
vystytis
vytas
vytautas
vytauto
vytautui
vytenis
vytis
vyturys
vz
w
w0
w1
w2
w3
w4
w5
w6
w7
w8
w9
wa
wake
wales
walker
wall
wallis
walt
walter
wanderers
wang
want
war
warner
wars
warszawa
was
washington
watch
water
waters
wave
way
wayback
wayne
wb
wc
wd
we
web
webcite
website
webster
week
weekly
welsh
were
werner
west
western
wf
wg
wga
wh
what
when
where
which
white
who
why
wi
wieku
wien
wii
wiki
wikimapia
wikipedia
wikisources
wild
wiley
wilhelm
will
william
williams
wilno
wilson
win
wind
windows
winners
wins
winter
with
without
wj
wk
wl
wm
wn
wo
wojewodztwo
wola
wolf
wolfgang
wom
woman
women
wood
word
work
works
world
worterbuch
wp
wq
wr
wright
wrzesnia
ws
wt
wu
wv
ww
www
wx
wy
wydawnictwo
wykaz
wynikow
wz
x
x0
x1
x2
x3
x4
x5
x6
x7
x8
x9
xa
xb
xbox
xc
xd
xe
xf
xg
xh
xi
xii
xiii
xiv
xix
xj
xk
xl
xm
xn
xo
xp
xq
xr
xs
xt
xu
xv
xvi
xvii
xviii
xw
xx
xxi
xxii
xxiii
xxiv
xy
xz
y
y0
y1
y2
y3
y4
y5
y6
y7
y8
y9
ya
yahoo
yb
yc
yd
ye
year
years
yemen
yf
yg
yh
yi
yibuti
yj
yk
yl
ylakiu
ylavos
ym
yn
yo
york
you
young
your
youtube
yp
ypac
ypatinga
ypatingai
ypatingas
ypatingo
ypatingos
ypatingu
ypatumai
ypatybes
ypatybiu
yq
yr
yra
ys
yt
yu
yv
yw
yx
yy
yz
z
z0
z1
z2
z3
z4
z5
z6
z7
z8
z9
za
zabiela
zagares
zaibas
zaibo
zaide
zaideja
zaidejai
zaidejams
zaidejas
zaidejo
zaideju
zaidejui
zaidejus
zaides
zaidima
zaidimai
zaidimas
zaidime
zaidimo
zaidimu
zaidimui
zaidimuose
zaidimus
zaidynes
zaidynese
zaidyniu
zaidzia
zaidziama
zaidziamas
zaidziamos
zaidziant
zaidziantis
zais
zaisdamas
zaisdavo
zaislu
zaisti
zaizda
zakas
zakristija
zala
zalciu
zalgirio
zalgiris
zalgiriu
zali
zalia
zalias
zaliasis
zaliava
zaliavos
zaliavu
zalioji
zaliojo
zalios
zaliosios
zaliu
zaliuju
zalos
zalsvai
zalvario
zambia
zambija
zambijos
zambruvo
zana
zanas
zandikaulio
zanras
zanro
zanru
zara
zarasai
zarasu
zarna
zarnos
zarnyno
zasis
zasliu
zasu
zb
zc
zd
ze
zealand
zebriunas
zegliavo
zegliuoja
zegliuoti
zeimelio
zeimenos
zeimiu
zelanda
zelandija
zelandijoje
zelandijos
zelenogradsko
zem
zema
zemai
zemaiciai
zemaicio
zemaiciu
zemaites
zemaitija
zemaitijoje
zemaitijos
zemaitis
zemaitkiemio
zemas
zemdirbiu
zemdirbyste
zemdirbystes
zeme
zemei
zemeje
zemelapi
zemelapiai
zemelapio
zemelapis
zemelapiu
zemelapiuose
zemelapius
zemelapyje
zememis
zemes
zemese
zemesne
zemesnes
zemesni
zemesnis
zemesniuju
zemetvarkos
zemi
zemiau
zemiausia
zemiu
zemo
zemos
zemuma
zemumoje
zemumos
zemupio
zemupyje
zemupys
zemutine
zemutineje
zemutines
zemutinio
zemutiniu
zemyn
zemyna
zemynai
zemynas
zemyne
zemynine
zemynines
zemyninis
zemyno
zemynu
zenevoje
[...]
