!
"
#
##0
##1
##10
##11
##12
##13
##14
##15
##16
##17
##18
##19
##2
##20
##21
##22
##23
##24
##25
##26
##27
##28
##29
##3
##30
##31
##32
##33
##34
##35
##36
##37
##38
##39
##4
##40
##41
##42
##43
##44
##45
##46
##47
##48
##49
##5
##50
##51
##52
##53
##54
##55
##56
##57
##58
##59
##6
##60
##61
##62
##63
##64
##65
##66
##67
##68
##69
##7
##70
##71
##72
##73
##74
##75
##76
##77
##78
##79
##8
##80
##81
##82
##83
##84
##85
##86
##87
##88
##89
##9
##90
##91
##92
##93
##94
##95
##96
##97
##98
##99
$
%
&
'
(
)
*
+
,
-
.
/
0
00
000
001
001065
00300
00355
006
007
008
01
011
02
0237
03
04
048138
05
06
07
08
09
1
10
100
1000
10000
1001
1002
1007
101
1010
1012
1014
1016
1017
102
1021
1024
103
1030
1031
1035
1037
1038
1039
104
105
1050
106
107
1073
108
1080
109
1093
11
110
1100
111
1111
112
1126
113
114
115
116
117
118
119
12
120
1200
1204
121
1217
122
1220
123
1230
124
1240
1241
125
1250
126
1260
127
1270
128
1280
129
1290
1291
13
130
1300
1301
131
132
1320
133
1330
1332
1333
1334
1335
1337
134
1340
1342
135
1350
136
1360
1365
137
1370
1371
138
1380
1382
1387
139
1390
14
140
1400
1405
141
1410
1412
1415
142
1420
1427
143
1430
1435
1437
1438
1439
144
1440
1441
145
1450
1453
1456
1458
146
1460
1461
1464
1467
147
1470
1471
1474
1475
1476
1479
148
1480
1483
149
1490
1492
1493
1494
1495
1498
15
150
1500
1501
1502
1503
1504
1505
1506
1508
151
1510
1512
1514
1515
1516
1517
1519
152
1520
1521
1522
1523
1524
1525
1526
1527
1528
1529
153
1530
1531
1532
1534
1535
1536
1538
154
1540
1541
1542
1543
1544
1545
1546
1547
1548
1549
155
1550
1551
1552
1553
1554
1555
1556
1557
1558
1559
156
1560
1561
1562
1563
1564
1565
1566
1567
1568
1569
157
1570
1571
1572
1573
1574
1575
1576
1577
1578
1579
158
1580
1582
1583
1584
1585
1586
1587
1588
1589
159
1590
1591
1592
1593
1594
1595
1596
1597
1598
1599
16
160
1600
1601
1602
1603
1604
1605
1606
1607
1608
1609
161
1610
1611
1612
1613
1614
1615
1616
1617
1618
1619
162
1620
1621
1622
1623
1624
1625
1626
1627
1628
1629
163
1630
1631
1632
1633
1634
1635
1636
1637
1638
1639
164
1640
1641
1642
1643
1644
1645
1646
1647
1648
1649
165
1650
1651
1652
1653
1654
1655
1656
1657
1658
1659
166
1660
1661
1662
1663
1664
1665
1666
1667
1668
1669
167
1670
1671
1672
1673
1674
1675
1676
1677
1678
1679
168
1680
1681
1682
1683
1684
1685
1686
1687
1688
1689
169
1690
1691
1692
1693
1694
1695
1696
1697
1698
1699
17
170
1700
1701
1702
1703
1704
1705
1706
1707
1708
1709
171
1710
1711
1712
1713
1714
1715
1716
1717
1718
1719
172
1720
1721
1722
1723
1724
1725
1726
1727
1728
1729
173
1730
1731
1732
1733
1734
1735
1736
1737
1738
1739
174
1740
1741
1742
1743
1744
1745
1746
1747
1748
1749
175
1750
1751
1752
1753
1754
1755
1756
1757
1758
1759
176
1760
1761
1762
1763
1764
1765
1766
1767
1768
1769
177
1770
1771
1772
1773
1774
1775
1776
1777
1778
1779
178
1780
1781
1782
1783
1784
1785
1786
1787
1788
1789
179
1790
1791
1792
1793
1794
1795
1796
1797
1798
1799
18
180
1800
1801
1802
1803
1804
1805
1806
1807
1808
1809
181
1810
1811
1812
1813
1814
1815
1816
1817
1818
1819
182
1820
1821
1822
1823
1824
1825
1826
1827
1828
1829
183
1830
1831
1832
1833
1834
1835
1836
1837
1838
1839
184
1840
1841
1842
1843
1844
1845
1846
1847
1848
1849
185
1850
1851
1852
1853
1854
1855
1856
1857
1858
1859
186
1860
1861
1862
1863
1864
1865
1866
1867
1868
1869
187
1870
1871
1872
1873
1874
1875
1876
1877
1878
1879
188
1880
1881
1882
1883
1884
1885
1886
1887
1888
1889
189
1890
1891
1892
1893
1894
1895
1896
1897
1898
1899
19
190
1900
1901
1902
1903
1904
1905
1906
1907
1908
1909
191
1910
1911
1912
1913
1914
1915
1916
1917
1918
1919
192
1920
1921
1922
1923
1924
1925
1926
1927
1928
1929
193
1930
1931
1932
1933
1934
1935
1936
1937
1938
1939
194
1940
1941
1942
1943
1944
1945
1946
1947
1948
1949
195
1950
1951
1952
1953
1954
1955
1956
1957
1958
1959
196
1960
1961
1962
1963
1964
1965
1966
1967
1968
1969
197
1970
1971
1972
1973
1974
1975
1976
1977
1978
1979
198
1980
1981
1982
1983
1984
1985
1986
1987
1988
1989
199
1990
1991
1992
1993
1994
1995
1996
1997
1998
1999
2
20
200
2000
2001
2002
2003
2004
2005
2006
2007
2008
2009
201
2010
2011
2012
2013
2014
2015
2016
2017
2018
2019
202
2020
2021
2022
2023
2024
203
204
205
206
2063
207
208
209
21
210
211
212
213
214
215
216
217
218
219
22
220
221
222
223
224
225
226
227
228
229
23
230
2307
231
232
233
234
2348
235
236
237
238
239
24
240
241
242
243
244
245
246
247
248
249
25
250
2500
251
252
253
254
255
256
257
258
259
26
260
261
262
263
264
265
266
267
268
269
27
270
271
272
273
274
275
276
277
278
279
28
280
281
282
283
284
285
286
287
288
289
29
290
291
292
293
294
295
296
297
298
299
3
30
300
3000
301
302
303
304
305
306
307
308
309
31
310
311
312
313
314
315
316
317
318
319
32
320
321
322
323
324
325
326
327
328
329
33
330
331
332
333
334
335
336
337
338
339
34
340
341
342
343
344
345
346
347
348
349
35
350
3500
351
352
353
354
355
356
357
358
359
36
360
361
362
363
364
365
366
367
368
369
37
370
371
372
373
374
375
376
377
378
379
38
380
381
382
383
384
385
386
387
388
389
39
390
391
392
393
394
395
396
397
398
399
4
40
400
4000
401
402
403
404
405
406
407
408
409
41
410
411
412
413
414
415
416
417
418
419
42
420
421
422
423
424
425
426
427
428
429
43
430
431
432
433
434
435
436
437
438
439
44
440
441
442
443
444
445
446
447
448
449
45
450
4500
451
452
453
454
455
456
457
458
459
46
460
461
462
463
464
465
468
47
470
471
472
474
475
476
477
478
479
48
480
481
482
484
485
486
49
490
491
492
495
499
5
50
500
5000
501
504
505
506
507
51
510
511
512
515
517
518
52
520
521
525
527
529
53
530
533
534
535
54
540
545
547
548
55
550
5500
552
555
56
560
57
570
576
58
580
59
590
6
60
600
6000
601
606
61
610
615
62
620
63
630
632
639
64
640
642
6422
65
650
66
660
6635
67
670
68
680
69
7
70
700
7000
71
710
72
720
73
737
74
740
747
75
750
76
760
77
78
79
8
80
800
8000
81
82
83
84
8416
84433
8477
85
850
85923
86
87
88
89
9
90
900
9000
901
9069
91
92
9257
927
93
94
95
950
953
955
96
960
961
963
963025977
967
97
970
973
976
978
9781905131181
98
980
985
99
997
999
:
;
<
=
>
?
@
[
\
]
^
_
`
a
aa
aachs
aaron
ab
aba
abau
abba
abbahagyta
abban
abbe
abbey
abbo
abc
abd
abdul
abe
abel
aberto
abgerufen
abha
ablak
ablaka
ablakok
ablakon
ablakot
about
abraham
abruzzo
abstract
abszolu
absztrakt
abu
ac
acacia
acade
academia
academic
academy
access
accessed
ace
acer
acid
across
act
acta
actinopterygii
action
active
activity
actor
actors
acze
ad
ada
adag
adalbert
adale
adam
adams
adapta
adat
adata
adatai
adatait
adatba
adatbank
adatgyu
adatlap
adatlapja
adatok
adatokat
adatot
adatta
add
addig
addigi
addigra
adds
ade
adelaide
adele
adhat
adhato
adj
adja
adjon
adjuk
adjunktus
adler
administration
adminisztra
adminisztrati
admira
adna
adnak
adnexarum
adni
adnia
ado
adolf
adoma
adorja
adott
adottsa
adria
adriai
adrian
adrienn
adt
adta
adtak
adtplus
adult
adva
advance
advanced
adventista
adventure
adventures
ady
adys
ae
aero
af
afc
affairs
affe
afga
afganiszta
africa
african
afrika
afrikai
afroamerikai
after
ag
aga
again
against
agatha
agave
age
agency
agent
agg
agglomera
aggo
aggteleki
ago
agra
agresszi
agresszio
agriculture
agroinform
agy
agya
agyag
agyagos
agyi
agyonlo
agyve
ah
aha
ahead
ahelyett
ahhoz
ahmad
ahmed
ahogy
ahogyan
ahol
ahonnan
ahova
ai
aid
aids
ain
air
airbus
aircraft
aires
airlines
airport
airways
ais
aise
aisne
aj
aja
ajax
ajka
ajku
ajtaja
ajto
ak
aka
akad
akada
akade
akademie
akademiens
akadt
akadtak
akar
akarat
akarata
akarja
akarjuk
akarna
akarnak
akaro
akarok
akarom
akarsz
akart
akarta
akartak
akartam
akarunk
akcio
aki
akik
akiket
akikkel
akiknek
akinek
akire
akiro
akit
akito
akivel
akka
akkal
akkor
akkora
akkori
akkoriban
akkredita
akkumula
akna
akta
akti
aktiva
aktivista
aktivita
aktua
aktuella
akusztikus
akut
akv
akva
al
ala
alabama
alacsony
alacsonyabb
alada
alagu
alain
alajos
alak
alakban
alaki
alakja
alakjai
alakok
alakot
alaku
alakul
alakula
alakulat
alakulatok
alakulnak
alakulo
alakult
alakultak
alakva
alan
alany
alanyeset
alap
alapanyaga
alapbo
alape
alapfoku
alapi
alapiskola
alapja
alapjai
alapjait
alapjelen
alapke
alapko
alapok
alapokon
alapon
alapos
alaposan
alapot
alapozta
alapozva
alaprajz
alaprajza
alaprajzu
alapszaba
alapszakasz
alapszi
alapszik
alapteru
alapto
alapu
alapul
alapulo
alapult
alapveto
alaszka
alatt
alatta
alatti
alattvalo
alba
alban
albania
albanian
albert
alberta
alberto
albion
albrecht
album
albuma
albumlista
albumok
albumon
albumot
albumra
albumro
albums
albumuk
albumukat
alci
alcsala
ale
alegyse
alejandro
alekszandr
alekszandrovics
alekszej
alelno
aleppo
alessandro
alex
alexa
alexander
alexandra
alexandre
alexandria
alexandriai
alexandrosz
alexandru
alexis
alezredes
alfa
alfabetikus
alfaj
alfaja
alfo
alfonso
alfonz
alfre
alfred
alfredo
alga
alge
algebra
algebrai
algoritmus
ali
alias
alice
alicia
alien
alig
aligha
aligned
alispa
alive
alj
alja
alka
alkalma
alkalmanke
alkalmas
alkalmasak
alkalmasnak
alkalmassa
alkalmat
alkalmatlan
alkalmaz
alkalmaza
alkalmazhato
alkalmazkoda
alkalmaznak
alkalmazni
alkalmazo
alkalmazott
alkalmazottja
alkalmazta
alkalmaztak
alkalmazva
alkalmazza
alkalmi
alkalom
alkalommal
alkatre
alkira
alko
alkohol
alkot
alkota
alkotja
alkotma
alkotnak
alkoto
alkotott
alkotta
alkottak
all
alla
allan
alle
allen
allerge
allergia
allgemeine
alliance
allison
allium
allmusic
allocine
alma
almanach
almanachja
alo
aloe
alone
alonso
aloszta
alpes
alpesi
alpha
alphabetically
alpok
alpolga
alrendje
als
also
alszik
alt
alta
altato
alternati
alternative
alti
alto
aludni
aludt
alul
alulmaradt
alulro
alumi
alva
alvila
alvin
alvo
always
am
ama
amade
amadeus
amanda
amara
amato
amaz
amazing
amazon
ambi
ambrus
amd
ame
ameddig
amellett
amellyel
amely
amelybe
amelyben
amelybo
amelyek
amelyekben
amelyekbo
amelyeken
amelyeket
amelyekkel
amelyeknek
amelyekre
amelyen
amelyet
amelyhez
amelyik
amelynek
amelyre
amelyro
amenhotep
amennyi
amennyiben
amennyire
amennyit
america
american
amerika
amerikai
amerikaiak
amerikaifutball
ami
amiatt
amibe
amiben
amibo
amie
amiga
amihez
amik
amiket
amikor
amilyen
amin
aminek
amint
amio
amire
amiro
amit
amito
amivel
ammo
amnesztia
among
amor
amore
amour
amphibia
amphibian
amphibiaweb
amsterdam
amszterdam
amszterdami
amu
amy
an
ana
anali
analitikus
analo
analysis
anastacia
anato
anatomy
ancient
and
andalu
anders
andersen
anderson
andersson
andok
andor
andorra
andra
andre
andrea
andreas
andrej
andrena
andrew
andrews
android
andrzej
andy
ane
anekdota
ange
angel
angela
angeles
angelesbe
angelesben
angelo
angels
anglia
angliai
anglika
angol
angola
angolok
angolra
angolsza
angolul
angyal
angyali
angyalok
anhalt
ani
aniko
anima
animal
animals
animation
anime
anita
anjou
ankara
ann
anna
annak
annales
annals
annama
anne
annekta
anni
annie
anniversary
anno
announced
announces
annual
annyi
annyiban
annyira
annyit
ano
anonymus
another
ans
ant
antal
antall
antant
antarktisz
ante
antenna
anthony
anthurium
anti
antige
antik
antikvarium
antiszemita
anto
antoine
antolo
anton
antoni
antonio
antonius
antropolo
antwerpen
anura
any
anya
anyag
anyaga
anyagai
anyagbo
anyagcsere
anyaggal
anyagi
anyagilag
anyagok
anyagokat
anyagokbo
anyagokkal
anyagokra
anyagot
anyagu
anyai
anyako
anyanyelve
anyanyelvi
anyanyelvu
anyja
anyjuk
anyo
ao
ap
apa
apache
apafi
apai
api
apja
apjuk
apo
apogeuma
apollo
apor
apostol
apostoli
apostolok
app
apple
application
applications
applied
apponyi
approach
april
apro
aqua
aquila
ar
ara
arab
arabok
arabul
arad
aradi
aradon
arago
aranka
arannyal
arany
aranya
aranyat
aranye
aranylemez
aranyos
aranyozott
aranysa
arata
arato
aratott
aratta
arattak
arbore
arc
arca
arcanum
arccal
arch
archaeology
archaikus
archeolo
archi
architecture
architektu
archiv
archiva
archive
archived
archives
archivum
arcke
arcok
arcu
arculata
arcza
are
area
arena
argenti
argentin
argentina
argentine
argumentum
ari
aria
arisztokra
arisztokrata
arisztotele
arizona
ark
arkansas
arm
arma
armand
armenia
arms
armstrong
army
arnold
aroma
around
arra
arre
arro
ars
arsenal
art
arte
arthur
article
articles
artist
artists
artportal
arts
artu
arturo
arze
as
asa
ash
ashley
asia
asian
asp
aspx
assisi
associated
association
associations
asszi
asszimila
asszisztens
asszisztense
asszocia
asszony
asszonya
asszonynak
asszonyok
asszonyt
ast
aston
astra
astragalus
astronautix
asz
aszerint
aszfalt
aszo
asztal
asztala
asztali
asztalon
asztalos
asztalra
aszteroida
asztma
asztrolo
asztu
at
atari
ateista
athe
athenaeum
athletes
athletic
athletics
atlanta
atlanti
atlantic
atlantis
atlantisz
atlas
atlasz
atlasza
atle
atmoszfe
atom
atomero
atomic
atomok
atp
attack
attikai
attila
atto
attribu
atv
atya
atyja
au
aube
auch
audi
audio
auf
auflage
aug
augsburg
august
augusta
auguste
augustin
augustus
auguszta
augusztus
augusztusa
augusztusban
augusztusi
aukcio
aula
aulete
aure
aurora
aus
austin
australia
australian
austria
austriancharts
ausztra
ausztria
ausztriai
author
authority
auto
automata
automatikus
automatikusan
automatiza
autono
autosport
aux
av
ava
avagy
available
avantga
avar
avarok
avata
avatta
avattak
ave
avec
avenue
aves
aviation
avibase
aviv
avni
award
awards
away
axel
axio
ay
az
aza
azaz
aze
azelo
azerbajdzsa
azeri
aznap
azo
azok
azokat
azokban
azokkal
azoknak
azokon
azokra
azon
azonban
azonki
azonnal
azonnali
azonos
azonosak
azonosi
azonossa
azt
azta
azte
azuta
azzal
aɾ
b
ba
baa
bab
baba
babe
babes
babiloni
babits
babona
babos
baby
bac
bach
back
bacso
bad
baden
badeni
bafta
bagoly
baha
bahama
bahn
bai
baidu
baike
bailey
bains
baj
baja
bajai
bajba
bajcsy
bajnok
bajnoka
bajnokcsapat
bajnokcsapatok
bajnoki
bajnokin
bajnokok
bajnoksa
bajor
bajororsza
bajta
bak
baka
baker
bako
bakony
bakonyi
bakos
bakte
bal
bala
balaku
balassa
balassagyarmat
balassi
balaton
balatonfu
balatoni
balduin
baleset
balesetben
balesete
balesetek
balesetet
balett
bali
balka
ball
balla
ballada
balo
balog
balogh
baloldali
balra
balro
balta
balti
baltimore
ban
bana
band
banda
bandita
bang
banglades
bank
banka
banki
bankok
banks
baptista
baptiste
bar
bara
baraba
barack
baranya
baranyai
barba
barbara
barbie
barcelona
barcelonai
barcsay
bari
bariton
barka
barker
barko
barlang
barlangban
barlangi
barlangja
barlangjai
barlangjainak
barlangkataszteri
barlangkutata
barlangkutato
barlangnak
barlangok
barlangot
barna
barnaba
barnes
barney
baro
barokk
baron
baross
barrett
barry
bars
bart
barta
bartha
barto
bas
basa
base
baseball
based
basel
basic
basketball
baski
bass
basszus
basszusgita
bastien
baszk
bat
bata
bates
batman
batthya
battle
bauer
bavalo
bay
bayer
bayern
baza
bazilika
bb
bba
bbak
bbal
bban
bbc
bbe
bbedmaga
bbek
bben
bbes
bbessza
bbet
bbfe
bbfejleszte
bbfejlesztett
bbi
bbiak
bbiakat
bbiakban
bbiban
bbiek
bbiekben
bbina
bbinak
bbis
bbit
bbje
bbju
bbjuta
bbjuto
bbjutott
bbke
bbnek
bbnyire
bbo
bbra
bbre
bbrendu
bbse
bbszo
bc
bd
be
bea
beach
beada
bean
bear
beast
beat
beatles
beatrice
beatrix
beats
beaumont
beautiful
beauty
beavatkoza
bebizonyi
bebo
bec
bece
beceneve
beck
becker
becsapo
becsle
becsu
bedo
bee
been
beer
beethoven
befejeze
befejezetlen
befejezett
befejezni
befejezo
befejezte
befektete
befekteto
befele
befo
befogada
befogado
befolya
before
begin
begonia
begyu
behata
behato
behi
behind
behu
bei
beijing
beiktata
beindi
being
beiratkozott
beitra
beja
bejegyezve
bejegyze
bejegyzett
bejelente
bejelentette
bejelenti
bejo
bejutni
bejutott
bejutottak
bek
bekapcsolo
beke
bekeri
bekeru
bekezde
beko
bel
bela
belarusz
bele
belee
beleegyeze
beleegyezett
belehalt
beleszeret
beleszo
belfo
belga
belgium
belgiumban
belgra
belgyo
beli
believe
belize
bell
bella
belle
belo
belova
belpolitikai
belseje
belso
belteru
belu
belva
bem
beme
bemondo
bemutata
bemutatja
bemutatkoza
bemutatkozo
bemutatkozott
bemutatni
bemutato
bemutatott
bemutatta
ben
bence
bencze
bene
benedek
benes
benfica
benga
beni
benja
benjamin
benko
benn
benne
benned
bennem
bennett
bennszu
bennu
benny
beno
benso
benson
bent
benth
benyoma
benyu
benz
beo
beograd
beolingus
beolvadt
beoszta
ber
berben
bercse
bere
bereg
beregsza
berendeze
berendezkede
berepu
berettyo
berg
bergamo
bergen
berger
bergman
beri
berig
berkeley
berkenye
berki
berlin
berlinbe
berlinben
berliner
berlini
bern
berna
bernadett
bernard
bernardo
bernhard
bernstein
berry
bert
berta
bertalan
berto
bertolt
bertrand
beru
beruha
berzsenyi
bes
besenyo
besorola
bessenyei
best
besu
besza
besze
beszerze
beszterce
beszterceba
beszu
bet
beta
betala
betarta
bete
beteg
betegek
betegse
betekinte
betelepi
betelepu
bethlen
betiltotta
beto
beton
better
betty
betu
betva
between
betya
beu
bev
beva
bevalla
bevallja
beve
beverly
bevete
bevette
bevezete
bevezetett
bevezeto
bevezette
bevona
bevonatok
bevonula
bevonult
beyonce
beyond
beza
bezere
bf
bg
bh
bha
bhuta
bi
bia
biai
bible
biblia
bibliai
bibliogra
bibliotheca
biden
bie
bienna
big
biggest
bihar
bihari
bika
bilbao
bill
billboard
billentyu
billie
billy
bimbo
bin
bina
bing
bio
biogra
biographical
biographie
biography
bioguide
bioke
biolo
biological
biology
bir
bira
bird
birdlife
birds
birka
birko
birmingham
biro
birodalma
birodalmat
birodalmi
birodalom
birodalomban
birodalomhoz
birth
birthday
birtok
birtoka
birtokai
birtokait
birtokba
birtokla
birtokok
birtokokat
birtokolt
birtokolta
birtokon
birtokos
birtokosa
birtokosai
birtokosok
birtokot
birtokre
bis
bishop
bismarck
bit
bita
bites
bius
biz
biza
bizalma
bizalmas
bizonnyal
bizony
bizonya
bizonyi
bizonyos
bizonyosan
bizonyossa
bizonysa
bizonytalan
bizonytalansa
bizonyult
bizonyultak
bizottsa
biztonsa
biztos
biztosa
biztosan
biztosi
bja
bjain
bjo
bk
bke
bkk
bkrs
bkv
bl
bla
blabbermouth
blabi
black
blackburn
blackwell
blade
blaha
blair
blake
blanc
blanchard
blanka
ble
bleach
bli
blikk
blind
blista
blo
block
blog
blogja
blogspot
bloka
blokk
blood
blu
blue
blues
bm
bmc
bme
bmg
bmw
bnf
bo
board
bob
bobby
boca
bocsa
bocskai
bod
boda
bodna
bodo
bodor
bodrog
body
boe
boeing
boga
bogarak
bogda
bogla
bogna
bogra
bogyo
bohe
boho
bois
boiss
boja
bok
boka
bokor
bokrok
bokros
boldizsa
boldog
boldogan
boldogasszony
boldogfai
boldogga
boldogok
boldogsa
boldogtalan
bolga
bolha
boli
bologna
bolond
bolt
bolti
boltja
bolton
bolyai
bolygo
bomba
bomla
bomlik
bon
bona
bonaparte
bond
bone
bonifa
bonn
bonnie
bonta
bontakozott
bontja
bontotta
bonyha
bonyoli
bonyolult
bonyolultabb
book
books
boom
boot
bor
bora
borba
borban
borbe
borbo
borda
bordeaux
border
borgo
bori
boris
borisz
borju
borko
borkorcsolya
born
bornagy
borneo
bornok
bornoka
bornokot
boro
boroda
borok
borokat
boros
borostya
borotva
borovszky
borral
bors
borsa
borso
borsod
borsodi
borsos
bort
borto
boru
borult
borussia
borvide
borzaszto
bos
bosnya
boss
bosszu
boston
bostoni
bosznia
boszniai
boszorka
bot
botanikai
botanikus
both
botond
botra
bottas
boulenger
bourbon
bowie
bowl
box
boy
boyle
boys
boz
bozo
bp
bpest
br
bra
brabham
brad
bradford
bradley
braha
brain
brand
brandenburg
brandenburgi
brandon
brandt
brandy
bras
brasil
brasso
bratislava
bratman
braun
braunschweig
bravo
bravu
brazi
brazil
bre
break
breaking
brecht
bred
brede
bredt
bree
bremen
bren
brescia
bretagne
breton
brett
bri
brian
bridge
brief
briel
brien
briga
bright
brill
bring
bristol
brit
britain
britannia
britannica
britek
british
britney
brno
bro
broadcasting
broadway
brockhaus
brod
broja
broken
bronz
bronze
bronzkori
bronzme
brooklyn
brooks
bros
brother
brothers
brown
browser
bru
bruce
bruno
bruta
brutto
bryan
bsc
bsza
bszi
bt
btk
bto
bu
bubore
buck
bucures
bud
buda
budai
budao
budapest
budapesten
budapesti
budapestre
budapestro
budava
buddha
buddhism
buddhist
buddhista
buddhizmus
buddy
bude
buenos
buffalo
building
buja
bujdoso
bujka
buk
buka
bukarest
bukarestben
bukaresti
bukkan
bukkant
bukkantak
bukott
bulga
bull
bulla
bulletin
bunda
bundesliga
bunko
bureau
burgenland
burgonya
burgundi
burja
burke
burkina
burma
burns
burton
bus
buschmann
bush
business
busszal
busz
buszja
buszok
buszt
but
buta
butler
button
buza
buzdi
buzgo
buzoga
bvsc
bwv
by
byrne
byron
bzenszki
c
ca
caban
cable
cache
caesar
caf
cafe
cage
cai
caius
cal
calabria
calais
calcio
calendar
california
call
called
calvados
cambridge
camera
cameron
camille
camp
campaign
campania
campbell
campo
campos
campus
can
canada
canadian
canberra
cancer
cannes
canterbury
canto
cao
cap
cape
capital
capitol
captain
car
carbon
card
care
career
carey
carl
carla
carlo
carlos
carmen
carnegie
carol
carolina
caroline
carpenter
carrie
carroll
carry
cars
carter
cartman
cartoon
cas
casa
casanova
case
cases
casey
cash
casino
cast
castel
castello
castle
castro
cat
catalana
catalog
catalogue
catherine
catholic
cave
cbs
cc
ccsal
ccse
cd
cdot
cdots
ce
cea
ceci
cecil
cegle
ceka
cel
cell
cella
celldo
celsius
celtic
census
censuses
cent
centena
center
centime
centra
central
centre
centro
centrum
century
cenzu
ceremo
ceremony
certifications
ceruza
cet
ceum
ceumban
cf
cgi
ch
cha
challenge
challenger
champagne
champion
champions
championship
championships
chan
chance
chang
change
changes
channel
chaos
chapelle
chapman
chapter
char
character
charente
charles
charlie
charlotte
chart
charts
chase
chdict
che
chelsea
chem
chemical
chemistry
chen
chenyi
cher
cherry
chess
chessgames
chi
chicago
chief
child
children
chile
chilei
china
chinese
chip
chloe
cho
choice
chopin
chris
christ
christian
christie
christina
christine
christmas
christoph
christophe
christopher
chrome
chronicle
chronological
chu
chuck
church
churchill
chy
ci
cia
ciai
cicero
cie
ciens
cifra
ciga
cigaretta
cik
cikk
cikkben
cikke
cikkei
cikkek
cikkeket
cikket
ciklus
ciklusa
ciklusban
cimbora
cine
cinema
cink
cio
cipo
ciprus
ciprusi
circle
circuit
circus
cirill
cirka
cirkusz
ciszterci
cit
cite
cities
citrom
city
ciudad
cium
civil
civiliza
cj
ck
cke
cken
cl
claire
clapton
clara
clark
clarke
class
classic
classical
classics
classification
claude
claudia
claudio
claudius
clay
clayton
cle
cleveland
cliff
climate
clinical
clinton
close
cloud
club
cluj
clyde
cm
cn
cnn
co
coach
coast
coburg
coca
code
codex
cohen
cok
col
cola
cold
cole
coleman
coleoptera
colin
collection
college
collegium
collins
color
colorado
columbia
columbus
com
combat
come
comedy
comenius
comes
comic
comics
coming
command
commission
committee
commodore
common
commons
communication
communications
community
como
companion
company
comparative
competition
complete
complex
componenete
computer
computing
comte
comune
comuni
con
concacaf
concert
concerto
conde
conference
confirmed
confirms
conflict
congress
congressman
connecticut
connor
conrad
conservation
constantin
consul
contemporary
content
contest
context
contract
control
conus
convention
cook
cool
cooper
copa
cope
core
cornelis
cornelius
cornell
corona
corporation
corps
corpus
cortinarius
corvin
corvina
corvinus
cos
costa
cot
could
council
count
countries
country
county
coupe
course
court
cover
covid
cox
cp
cpu
cr
cra
craig
crash
crawford
crazy
crc
cre
creek
cretaceous
crew
crime
crisis
cristina
cristo
critical
critics
croatia
croc
croix
cross
crown
cruise
cruz
cry
crystal
cs
csa
csaba
csabai
csada
csado
csai
csajkovszkij
csak
csakhamar
csakhogy
csakis
csaknem
csaku
csakugyan
csal
csala
csallo
csalo
csana
csang
csap
csapa
csapade
csapat
csapata
csapatai
csapataiban
csapatait
csapatba
csapatban
csapatbo
csapathoz
csapatkapita
csapatna
csapatnak
csapatok
csapatokat
csapatokban
csapatot
csapatta
csapattal
csapda
csapla
csapo
csapott
csarnok
csarnoka
csarnokban
csata
csatacirka
csatahajo
csatate
csatlakoza
csatlakozik
csatlakoznak
csatlakozo
csatlakozott
csatlakoztak
csatlakozzon
csatola
csatolt
csatolta
csatorna
csavargo
csban
csbe
csben
csbo
cse
csecsemo
cseh
csehorsza
csehov
csehszlova
csehu
csei
cseke
csele
cselekme
cselekve
cselekvo
cselga
csello
csempe
csen
csend
csendben
csende
csendes
csendesen
csendo
cseng
csengo
csepel
csepeli
csepp
cseppko
cser
csere
csereke
cseresznye
cserha
cserje
cserke
cserna
csett
csey
csha
csi
csicso
csido
csiga
csigolya
csik
csiko
csiky
csilla
csillag
csillaga
csillaggal
csillagkapu
csillagke
csillagko
csillagok
csillagos
csillagot
csillagvizsga
csillapi
csillogo
csin
csina
csing
csinos
csipke
csirke
csizma
csizmadia
cska
cskai
cske
csko
cskoza
csnak
csne
cso
csoba
csoda
csok
csokat
csokko
csokola
csokonai
csola
csolt
csolta
csoma
csomag
csomagola
csomo
cson
csongor
csongra
csonka
csont
csontok
csontos
csontva
csony
csonya
csonyi
csoport
csoportba
csoportban
csoportbo
csoporthoz
csoportja
csoportko
csoportme
csoportnak
csoportok
csoportokat
csoportokban
csoportos
csoportosi
csoportosula
csoportot
csoportra
csorba
csorda
csos
csosa
csosi
csot
csou
cspontja
csra
csto
csu
csuda
csuka
csuklo
csupa
csupasz
csurgo
csuvas
csy
ct
ctor
cu
cudi
cukkini
cukor
cukorbetegse
cukorgya
cukra
cukrot
cultura
cultural
culture
culturii
cum
cup
current
curtis
cut
cv
cyperus
cyrano
cyrus
cz
cza
czai
cze
czech
czi
czky
czy
d
da
daca
dacia
dad
dai
daily
dajka
dak
dakota
dal
dala
dalai
dalait
dalban
dalbo
dale
dalfesztiva
dalhoz
dallal
dallam
dallama
dallas
dalma
dalnak
dalok
dalokat
dalszerzo
dalszo
dalt
daluk
dame
damon
dan
dana
dance
dancing
danda
dangerous
dani
daniel
danko
danny
dans
dante
dara
darab
darabban
darabig
darabja
darabjai
darabok
darabokat
darabokra
darabos
darabot
dark
daro
darren
darth
darts
daru
darvas
darwin
das
dasdy
dat
data
database
date
dates
daughter
daula
dave
david
davies
davis
dawn
dawson
day
days
db
dba
dban
dbe
dben
dbo
dc
dd
ddal
ddel
de
dea
dead
deadline
deal
dean
death
debrecen
debrecenben
debreceni
debreczeni
debu
debut
dec
december
decemberben
decembere
decemberi
dedika
dee
deeann
deep
deepl
def
default
defence
defense
defini
definia
degli
dei
dek
dekameron
deket
dekeze
dekezo
deklara
dekora
del
delega
delem
delfin
delhi
deli
dell
della
delle
delmagyar
delme
delmet
delmezo
delmi
delta
deluxe
dem
deme
demeter
demi
demje
demo
demogra
demokra
demokrata
demokratikus
demonstra
den
dendrobium
deneve
deni
denis
denise
denmark
dennis
denver
department
deporta
deportivo
depresszio
der
dera
derby
dere
derek
dereka
deres
deri
deriva
deru
derva
des
desanya
desanyja
desapja
descartes
description
desert
desi
design
desjat
desmond
desse
desszertek
desvi
deszka
det
details
detekti
determina
detroit
dett
dettse
deutsch
deutsche
deutschen
deutscher
deutschland
deux
dev
deva
development
devil
devon
dex
dezso
dfa
dfb
dfo
dha
dharma
dhat
dhet
dhetett
dhoz
di
dia
diaa
diadala
diadali
diadalmaskodott
diagno
diagnosztiza
diagram
diai
diako
dialo
diamond
diana
diane
diccionario
dicio
diciona
dick
dico
dicse
dicso
dict
dictionary
did
die
diego
dienes
dies
dieter
dietrich
differencia
different
diffu
dig
dige
digest
digi
digita
digital
digitaliza
dik
dika
dikta
diktatu
dimenzio
din
dina
dinamika
dinamikus
dinamo
dinasztia
dinnye
dino
dinosaur
dinosaurs
dinoszaurusz
dinoszauruszok
dio
dion
diospyros
dioxid
diploma
diplomata
direct
direction
director
directory
direkt
dirk
dirty
dis
disco
discography
discogs
discovery
disease
disney
displaystyle
disszerta
distribution
district
diszko
diszkogra
diszkre
diszkrimina
diszno
dit
ditions
dium
divat
divatos
diversity
divi
division
dixon
diza
dizionario
dj
dja
djai
djainak
djait
djake
dje
djo
djuk
dk
dke
dkg
dko
dl
dla
dleges
dlegesen
dlelke
dlo
dm
dme
dmezo
dmitrij
dn
dna
dnak
dne
dnek
dneve
dni
dno
dns
do
dob
doba
dobja
dobo
dobogo
dobok
dobos
dobosa
dobott
doboz
dobra
dobrossy
dobta
doc
docens
docense
docs
doctor
document
documents
dodson
does
dog
dogma
doha
doi
dok
dokat
dokban
doki
dokkal
doktor
doktora
doktori
dokumenta
dokumentum
dokumentumfilm
dokumentumok
dol
dola
dolga
dolgok
dolgokat
dolgot
dolgozata
dolgozatok
dolgozik
dolgoznak
dolgozni
dolgozo
dolgozott
dolgozta
dolgoztak
dolgozza
dolja
dolla
dolni
dolo
dolog
dolt
dolta
doltsa
dom
domain
domb
dombo
dombok
dombon
dombormu
domboru
dombos
dombsa
dombvide
dome
domenico
domina
domingo
dominic
dominikai
dominique
domino
domokos
domonkos
don
dona
donald
dong
donizetti
donji
donna
donovan
doo
doom
door
dor
dora
dorf
dori
dorna
dorog
dorogi
dorothy
dorottya
dorsza
dortmund
dos
dosi
dosult
dosztojevszkij
dot
dots
dott
double
doug
douglas
dover
down
download
doyle
dr
dra
draft
drag
dragon
drake
drama
dramaturg
draw
dre
dream
dreams
drei
dresden
drew
drezda
drive
driver
dro
drog
drug
drugs
drus
dry
drz
ds
dsa
dse
dsza
dszer
dszere
dszerek
dszereket
dszerekkel
dszerrel
dszert
dszertani
dt
dta
dtak
dte
dtek
dtem
dtete
dtetett
dteto
dtette
dto
du
dua
dub
dublin
dubois
dubrovnik
duda
duden
due
duett
dugattyu
dugo
duka
duke
dula
dumas
dumbledore
dumont
duna
dunai
dunakeszi
dunaszerdahely
dunau
duncan
dunoka
duo
dupa
dupla
duran
durch
during
durva
dus
dusa
dust
dutch
dutchcharts
dv
dva
dvd
dve
dvo
dvsc
dvtk
dwds
dwellings
dx
dy
dylan
dynasty
dz
dzs
dzsa
dzser
dzsessz
dzsi
dzso
dzsu
dzsungel
e
ea
eagle
earl
early
earth
earthlink
east
eastern
eastwood
easy
eb
ebbe
ebben
ebbo
ebe
ebert
ec
echo
eco
ecology
economic
economy
ecuador
ed
edda
eddie
eddig
eddigi
ede
eden
edga
edgar
edge
edik
edina
edinburgh
edit
edited
edith
editio
edition
editor
editors
editura
edmond
edmund
edo
eds
edu
edua
eduard
eduardo
education
edward
edwards
edwin
edze
edzo
ee
eesti
effe
effect
effects
ege
eger
egerben
egerva
eget
eggyel
ego
egon
egressy
egri
egy
egya
egyara
egyazon
egybe
egyben
egybo
egye
egyebek
egyebet
egyed
egyedek
egyedi
egyedsza
egyedu
egyelo
egyena
egyene
egyenes
egyenesen
egyenke
egyenlet
egyenletes
egyenletesen
egyenli
egyenlo
egyenrangu
egyenruha
egyensu
egyes
egyesek
egyesi
egyesu
egyet
egyete
egyetem
egyetemben
egyeteme
egyetemek
egyetemeken
egyetemen
egyetemes
egyetemet
egyetemi
egyetemista
egyetemre
egyetlen
egyezik
egyezme
egyezse
egyeztete
egyfajta
egyfelo
egyforma
egyha
egyhajo
egyhangu
egyharmada
egyideju
egyido
egyik
egyike
egyiket
egyiku
egyiptom
egyiptomban
egyiptomi
egyiptomiak
egykor
egykori
egykoron
egykoru
egylet
egyma
egymaga
egymillio
egyne
egyo
egyoldalu
egypt
egyptian
egyre
egyse
egyszer
egyszeres
egyszeri
egyszerre
egyszersmind
egyszeru
egyu
egzotikus
ehelyett
eheto
ehf
ehhez
ei
eidem
eight
ein
eine
einem
einer
eines
einstein
einwohnerzahl
ej
ejte
ejtett
ejtette
ejto
ejtsd
ek
eke
eket
ekke
ekkor
ekkora
ekkoriban
ekkorra
ekkorta
ekkorto
eklektikus
eko
ekvivalens
el
ela
elada
eladja
eladni
elado
eladott
eladta
elavult
elba
elbesze
elbi
elbocsa
elbontotta
elbu
elcsere
eldo
ele
eleanor
election
electric
electronic
elefa
elega
elegendo
eleget
eleinte
eleje
eleji
elek
elektra
elektro
elektroma
elektromos
elektromossa
elektron
elektronika
elektronikai
elektronikus
elektronok
elem
eleme
elemei
elemeinek
elemeit
elemek
elemeket
elemekkel
elements
elemet
elemi
elemze
elemzo
elena
elengedhetetlen
elenye
eleono
elesett
eleste
eleve
eleven
elfa
elfeledett
elfelejtett
elfoga
elfogada
elfogadhato
elfogadja
elfogadni
elfogadott
elfogadta
elfogja
elfoglala
elfoglalja
elfoglalni
elfoglalt
elfoglalta
elfogott
elfogta
elfogyott
elgondola
elha
elhagya
elhagyatott
elhagyja
elhagyni
elhagyott
elhagyta
elhagyva
elhala
elhalad
elhalasztotta
elhalt
elhangzott
elhata
elhelyeze
elhelyezett
elhelyezkede
elhelyezkedo
elhelyezve
elhi
elho
elhu
elhunyt
eli
elindi
elindul
elindult
elinte
elisabeth
elismere
elismeri
elismero
elismert
elismerte
elit
elite
elizabeth
elja
eljegyze
eljo
eljut
eljutni
eljutott
eljutottak
elka
elkapja
elke
elkeru
elkezd
elkezdett
elkezdi
elkezdo
elkezdte
elkezdtek
elki
elko
elkobozta
elku
ella
elle
ellen
ellena
ellenben
ellene
ellenes
ellenezte
ellenfe
ellenfele
ellenfelei
ellenfelek
elleni
ellenjavallat
ellenkezo
elleno
ellense
ellensu
ellenta
ellente
ellentmonda
ellenu
ellenze
ellenzo
elliot
elliott
ellipszis
elliptikus
ellis
ellopta
elmagyara
elmarad
elmaradt
elme
elmegy
elmegyo
elmeneku
elmennek
elment
elmeru
elmese
elmonda
elmondhato
elmondja
elmondta
elmozdi
elmu
elne
elneveze
elnevezett
elno
elnyere
elnyert
elnyerte
elnyoma
elnyu
elo
eloszla
eloszta
eloszto
elpa
elpuszti
elpusztul
elpusztult
elrabla
elrabolja
elrabolta
elrendelte
elrendeze
elsa
elsaja
else
elseje
elsevier
elsie
elso
elst
elsu
elsza
elszakada
elszakadt
elszege
elszenvedett
elszi
elszigetelt
elszo
elta
eltala
elte
eltekintve
eltelt
eltelte
elterjede
elterjedt
elterjedtek
elteru
elteve
eltilta
eltiltotta
elto
eltu
elu
elutasi
elv
elva
elve
elvek
elveszett
elveszi
elveszte
elvesztett
elvesztette
elveszti
elvetette
elvette
elvi
elvileg
elvira
elvis
elviszi
elvitte
elvta
elza
em
ema
ember
emberben
embere
emberei
emberek
embereket
emberekkel
embereknek
emberi
emberise
emberke
embernek
emberre
emberrel
emberse
embert
emble
eme
emele
emelet
emelete
emeleten
emeletes
emeleti
emeli
emelkede
emelkedett
emelkedik
emelkedo
emellett
emelni
emelo
emelt
emelte
emeltek
emelve
emerson
emese
emi
emiatt
emigra
emigration
emil
emilia
emilio
emily
emle
emlegetett
emlegetik
emlegette
emli
emlo
emma
emmanuel
emmanuelle
emmi
emmy
emo
empire
en
enciclope
enciklope
enciklopedija
enciklopegyija
encyclopaedia
encyclopedia
encyclopædia
encziklope
end
endemikus
endre
ene
energetikai
energia
energiaella
energiaforra
energy
eng
enged
engede
engedelmesse
engedett
engedi
engedje
engedte
engel
engels
engem
engemet
engine
engineering
england
english
enigma
eniko
enne
ennek
enni
ennyi
ennyire
enrico
enrique
ensz
enterprise
entertainment
entita
entre
entry
environment
environmental
enye
enyedi
enyhe
enyhi
enyhu
enzim
eo
eoce
ep
epa
eperjes
eperjesi
epic
epidendrum
epikus
episode
epizo
eposz
er
era
erasmus
erde
erdei
erdeje
erdo
ere
ered
eredete
eredeti
eredetibo
eredetije
eredetileg
eredetu
eredme
erednek
eredo
ereje
ereju
erek
ereklye
eri
eric
erica
erich
ericsson
erik
erika
erke
erkel
erko
ernest
erno
ernst
ernyo
ero
erotikus
erre
erro
erste
ersze
ervin
erwin
erza
erzse
erzsi
es
esa
escape
ese
esek
eseme
esernyo
eset
esetben
esete
esetek
esetekben
esetenke
esetet
esetleg
esetleges
esetre
esett
esik
eske
esku
esnek
eso
espan
esperanto
esperes
esperesse
espn
essays
essen
essential
essze
est
este
estek
esterha
esti
estimates
esz
esze
eszembe
eszerint
eszik
eszko
eszme
eszmei
eszperantista
eszperanto
eszte
esztendeje
esztendo
eszter
eszterga
esztergom
esztergomban
esztergomi
eszterha
eszu
et
eta
etc
etelka
ethan
etika
etikai
etimolo
etio
etnic
etnikai
etnikumu
etnogra
eto
etruszk
etto
eu
eucalyptus
euge
eugen
eugene
euler
euphorbia
eur
eura
eure
euro
europa
europe
european
eurovi
eurovision
eurovoix
ev
eva
evakua
evan
evang
evange
evans
eve
evelyn
even
evening
event
events
ever
everett
everton
every
everything
evezo
evic
evidence
evil
evo
evolu
evolution
ewald
ex
exchange
exclusive
executive
exkluzi
exner
expedi
experience
experiment
experimental
explorer
expo
export
exporta
express
expressz
extended
extra
extre
extreme
eye
eyes
ez
eza
ezalatt
eze
ezek
ezekben
ezekbo
ezeken
ezeket
ezekhez
ezekkel
ezekne
ezeknek
ezekre
ezekro
ezelo
ezen
ezenki
ezentu
ezer
ezere
ezred
ezrede
ezredes
ezredfordulo
ezren
ezt
ezu
ezuta
ezzel
f
fa
faa
face
facebook
facebookon
faces
fact
factbook
facto
factor
factory
facts
fadel
fagy
fagylaltkelyhek
fagylaltok
fagyos
faha
fahe
fair
faith
faj
faja
fajai
fajban
faji
fajjal
fajke
fajnak
fajok
fajokat
fajro
fajt
fajta
fajtalista
fajuk
fakad
fakado
fake
fako
faktor
fakulta
fal
fala
falai
falain
falait
falak
falakat
falakon
falat
falco
falcon
falfestme
fall
fallal
falls
falon
false
falu
faluba
faluban
falubo
faluja
falun
falunak
faluro
falusi
falut
faluto
falva
falvak
falvakat
falvakban
fame
fami
familia
families
family
familysearch
famous
fan
fanny
fanpix
fans
fanta
fantasy
fantasztikus
fao
far
farago
faragott
farka
farkas
farkasok
farkasre
farm
farmakolo
farok
fashion
fasi
fasiszta
faso
fast
fat
fate
fatemplom
father
fato
fauna
faust
fava
fazekas
fb
fbi
fc
fd
fe
fea
fear
feat
feature
features
featuring
feb
febr
februa
february
fecske
fed
fede
federal
federation
federer
federico
fedett
fedeze
fedezett
fedezte
fedeztek
fedi
fedo
fedte
feel
fegyha
fegyver
fegyvere
fegyverek
fegyvereket
fegyverekkel
fegyveres
fegyverrel
fegyverszu
fegyvert
fegyverzete
fehe
fej
feje
fejedelem
fejedelemse
fejedelme
fejedelmek
fejedelmi
fejem
fejes
fejet
fejezet
fejezetben
fejezete
fejezetek
fejezetet
fejezi
fejezo
fejezte
fejfa
fejjel
fejleme
fejleszte
fejleszteni
fejlesztett
fejlesztette
fejlesztettek
fejleszto
fejlett
fejlettebb
fejlettse
fejlo
fejtett
fejto
feju
fejvada
feke
fekete
fekszenek
fekszik
fektetett
fektette
feku
fekve
fekvo
fel
fela
feladat
feladata
feladatai
feladatait
feladatko
feladatok
feladatokat
feladatot
feladatuk
feladta
felaja
felbomla
felbonta
felbontotta
felbukkan
felcsere
felderi
feldolgoza
feldolgozo
feldolgozta
feldu
fele
felede
felejthetetlen
felek
felekezet
felekezeten
felekezeti
felel
felelnek
felelo
felelt
felelte
felemelkede
felero
felese
felesleges
felett
felette
feletti
feleze
felfedeze
felfedezett
felfedezi
felfedezni
felfedezo
felfedezte
felfedi
felfegyverzett
felfele
felfigyelt
felfo
felfoga
felfu
felgyorsi
felgyu
felha
felhagyott
felhalmozo
felhaszna
felhatalmaza
felhi
felho
felhu
feli
felide
felipe
felirat
felirata
feliratok
feliratot
felirattal
felismere
felismerheto
felismeri
felismerte
felix
feljavi
feljebb
feljegyezte
feljegyze
feljo
feljuta
feljuto
feljutott
felke
felkele
felkelo
felkeltette
felkeresi
felkereste
felkeru
felkia
felkutata
fella
felle
fellegva
fellelheto
fellendu
fellini
felme
felmelegede
felmeno
felmente
felmentette
felmeru
felne
felno
felo
felolda
felolvasa
felolvaso
feloszla
feloszlata
feloszlatta
feloszlott
feloszta
felosztotta
felrobbantotta
felruha
felse
felso
felsorola
felsorolt
felsza
felszabadi
felszabadula
felszabadult
felszentele
felszerele
felszerelt
felszerelve
felszi
felszo
felta
feltala
feltarto
felte
felteheto
felteve
felto
feltu
felu
felv
felva
felve
felvenni
felveszi
felvetette
felvett
felvette
felvide
felvila
felvira
felvona
felvono
felvonula
felza
female
feminine
feminista
fender
fene
feneke
fenn
fenna
fennhato
fennmarada
fennmarado
fennmaradt
fennmaradtak
fennsi
fenntarta
fenntartani
fenntarthato
fenntarto
fenntartott
fense
fent
fentebb
fenti
fenyegete
fenyegetett
fenyegeti
fenyegeto
fenyegette
fenyo
fer
fercsik
ferde
ferdina
ferdinand
ferenc
ferenccel
ferences
ferencesek
ferencet
ferencne
ferencnek
ferencva
ferencz
ferenczi
ferenczy
ferguson
ferna
fernando
fero
ferrara
ferrari
ferto
fest
feste
festetics
festett
festette
festival
festme
festo
festuca
feszi
feszta
fesztiva
feszu
feuda
feudalizmust
fever
ff
fg
fi
fia
fiai
fiainak
fiait
fiake
fiam
fiat
fiatal
fiatalabb
fiatalember
fiatalkora
fiatalok
fiatalon
fiatalsa
ficko
fiction
ficus
fide
fidelio
fidesz
field
fields
fifa
fifth
figaro
fight
fighter
fighters
fighting
figura
figyelem
figyelembe
figyelemmel
figyelemre
figyelheto
figyeli
figyelme
figyelmen
figyelmet
figyelmeztete
figyelmezteti
figyelmezteto
figyelmeztette
figyelni
figyelo
figyelt
figyelte
figyeltek
fikti
file
files
filia
filip
filippo
fille
film
filmakade
filmben
filmbo
filmdi
filmdra
filmek
filmekben
filmeket
filmen
filmes
filmet
filmfesztiva
filmgya
filmhez
filmje
filmjei
filmkatalo
filmkatalogus
filmke
filmkritikusok
filmmel
filmmu
filmnek
filmportal
filmproducer
filmre
filmrendezo
films
filmsorozat
filmstu
filmszemle
filmszi
filmto
filmva
filmvi
filmvila
filmzene
filolo
filozo
fin
fina
final
finale
finals
financial
finanszi
find
fine
finland
finn
finnorsza
finnugor
finom
finoman
finomi
fio
fire
firefox
firenze
firenzei
first
fischer
fish
fishbase
fisher
fishes
fitoftora
fitoplazma
fitz
fitzgerald
fiu
fiuk
fiume
fiumei
five
fix
fizet
fizete
fizetett
fizetni
fizeto
fizette
fizettek
fizika
fizikai
fizikailag
fizikaporta
fizikus
fiziolo
fja
fjodor
fk
fkgp
fl
flag
flamand
flandria
flash
flavius
fleet
fleming
fletcher
flight
flo
flora
florence
flores
florida
floridai
flotta
flow
floyd
flu
fly
flying
fm
fn
fnak
fne
fno
fo
foci
focus
fodor
fodra
fog
foga
fogad
fogada
fogadja
fogado
fogadott
fogadta
fogadtak
fogadtata
fogak
fogalma
fogalmak
fogalmat
fogalmazo
fogalmazott
fogalmazta
fogalom
fogarasi
foge
foghato
fogja
fogjuk
foglal
foglalja
foglalkoza
foglalkozik
foglalkoznak
foglalkozni
foglalkozo
foglalkozott
foglalkoztak
foglalkoztata
foglalkoztatott
foglalkoztatta
foglalo
foglalt
foglalta
foglaltak
foglyok
foglyul
fognak
fogni
fogo
fogok
fogoly
fogom
fogott
fogsa
fogsz
fogta
fogtak
fogunk
fogva
fogyaszt
fogyaszta
fogyaszthato
fogyasztja
fogyaszto
fogyate
fogyo
fogyott
foix
fok
foka
fokhagyma
foki
fokon
fokos
fokoza
fokozat
fokozata
fokozatos
fokozatosan
fokozatot
fokozo
fokozott
fokozottan
fokozta
fokozza
foku
fol
folionet
folk
folkets
folklo
folt
folta
foltok
foltos
foly
folya
folyade
folyam
folyama
folyamat
folyamata
folyamatban
folyamatok
folyamatokat
folyamatos
folyamatosan
folyamatot
folyami
folye
folyik
folynak
folyo
folyoso
folyt
folyta
folytak
folytassa
folytat
folytata
folytatja
folytatni
folytato
folytatott
folytatta
folytattak
folyton
folytonos
folytonossa
fona
fono
font
fontaine
fonte
fontos
fontosabb
fontosak
fontosnak
fontossa
fontot
fonya
fonyo
foo
food
football
footballdatabase
footballzz
for
forbes
force
forces
ford
fordi
fordul
fordula
fordulat
fordulatot
fordulatsza
fordulhat
fordulnak
fordulo
fordult
fordultak
fordulva
foreign
forest
forever
forga
forgalma
forgalmat
forgalmaza
forgalmazo
forgalmazta
forgalmi
forgalom
forgalomba
forgalomban
forgalombo
forgata
forgato
forgatott
forgatta
forgattak
forgo
forint
forinte
forintos
forintot
form
forma
formai
formailag
format
formation
former
formula
forog
forra
forradalma
forradalmat
forradalmi
forradalom
forro
forster
fort
forte
fortuna
forum
forward
fossil
fosszi
fosszilis
foster
foszfa
fot
foto
fotogra
found
foundation
four
fourth
fowler
fox
fr
fra
frac
fradi
frakcio
franc
france
frances
francesco
franchise
francia
franciaorsza
francis
francisco
franciska
franco
franczia
frangepa
frank
frankfurt
frankfurti
franklin
frankok
frantis
franz
fraser
fre
fred
freddie
frederick
free
freebase
freedom
freeman
freiburg
frekvencia
french
fresko
freud
frey
fri
friday
friedrich
friend
friends
frigyes
friss
frissen
frissi
fritz
friuli
fro
from
front
frontembere
fronton
frontra
frost
fru
fs
fsa
ft
ftc
fu
fuchs
fulham
full
fulladt
fun
function
fund
funk
funkcio
funkciona
furcsa
furulya
fus
fusok
fussballdaten
fut
futa
futam
futama
futamgyo
futamon
futamot
futball
futnak
futni
futo
futott
futotta
futtata
future
fuvola
fvm
føroya
g
ga
gaa
gaal
gabb
gabi
gabo
gabona
gabriel
gabriella
gabrielle
gaga
gai
gaiban
gaik
gain
gainak
gait
gaival
gak
gako
gal
gala
galaktika
galaktikus
galamb
galambgomba
galambos
galaxis
galaxy
gale
galerie
gales
galgo
gali
galilei
gall
galle
gallery
gallia
game
games
gamespot
gamma
gan
gandhi
gang
ganz
gaon
gara
garai
garancia
garanta
garci
garcia
garden
gardens
gardner
gare
garfield
garonne
gary
gas
gaston
gasztrono
gat
gate
gates
gaulle
gay
gaz
gaza
gazat
gazda
gazdag
gazdagabb
gazdagi
gazdagok
gazdagon
gazdagsa
gazdano
gazdasa
gazette
gazetteer
gazik
gazo
gb
gba
gbajnok
gbajnoki
gbajnokjelo
gbajnoksa
gban
gbe
gbeese
gbeli
gben
gbi
gbiztosi
gbo
gbolt
gcikk
gcsa
gcso
gcsoport
gcsu
gdan
gdi
gdp
ge
gebben
gebbi
gebietsstand
gecse
ged
gedeon
gedet
gedetlen
gedetlense
gedett
gees
gegyetem
gehrels
gei
geiben
geik
geinek
geire
geiro
geit
geivel
gek
gekbe
gekben
gekbo
geke
geken
geket
gekhez
gekkel
geknek
gekre
gekro
gekto
gel
gelle
gem
gemeinden
gemeindeverzeichnis
gemini
gen
gender
gene
genealo
genealogy
geneastar
genera
general
generation
genesis
genetic
genetika
genetikai
genf
genfben
genfi
geni
genius
gennaio
genova
genovai
gens
genus
geo
geode
geoffrey
geogra
geographiai
geographic
geographico
geolo
geological
geometria
geometriai
geometrikus
georg
george
georges
georgia
geq
ger
gera
gerald
gerard
gere
gerecse
geredme
gerek
gerenda
gergely
gergo
gerhard
gerhardt
gerinc
gerince
gerincvelo
gerlista
germa
germain
german
germany
gero
ges
geschichte
gese
gesebb
gesei
gesek
gesellschaft
gesen
gesi
geskede
gesnek
gesse
gesztenye
get
gete
getett
geto
gets
gett
gette
getto
gez
gezheto
geznek
gezni
gezte
geztek
geztette
gezve
gfe
gfejleszte
gfu
gg
gga
ggal
ggazdasa
gge
ggel
ggele
ggeszte
ggesztette
ggetlen
ggetlenne
ggetlense
ggetlenu
ggo
ggve
ggye
ggyel
ggyu
gh
gha
ghajlat
ghajlata
ghajlati
ghajo
gharc
gharcban
ghata
gheorghe
ghez
ghi
ghost
ghoz
ghozza
ghu
ghz
gi
gia
giacomo
giai
giailag
giant
giaporta
giba
gibb
gibralta
gibson
giek
giero
gies
gig
gigja
gikus
gil
gilag
gilbert
gill
gilles
gimna
gin
gina
ginfo
gio
giorgio
giovanni
gira
girl
girls
giro
girodalmi
girodalom
gis
giscsak
gise
git
gita
gitest
gium
giuma
giumban
giumi
giuseppe
give
gizella
gizett
gja
gkatolikus
gke
gkeleti
gki
gkia
gko
gkora
gkorong
gkorongozo
gkorszak
gks
gkupa
gkutato
gla
glagya
glalap
glasgow
glass
glatz
gleg
gleges
glegesen
glen
glenn
glet
glete
gletes
gletu
glo
globa
global
globe
gloria
glory
glu
glya
gm
gmbh
gme
gmu
gna
gnak
gne
gnek
gnem
gnes
gneses
gni
gno
gnu
gnyu
go
goal
god
godine
gods
godzilla
goes
goethe
gogol
going
gok
gokat
gokba
gokban
gokbo
gokkal
goknak
gokon
gokra
gold
golden
goldoni
golf
golyo
gom
gomb
gomba
gombabetegse
gombacsala
gombafaj
gombalista
gombame
gombanapta
gombane
gombanevek
gombao
gombaporta
gombatan
gombavizsga
gombo
gombos
gomez
gon
gond
gondja
gondok
gondol
gondola
gondolat
gondolata
gondolatait
gondolatok
gondolja
gondolkoda
gondolkodo
gondolni
gondolom
gondolt
gondolta
gondoltam
gondos
gondosan
gondoskodik
gondoskodott
gondot
gondoza
gondozo
gone
gong
gonna
gonosz
gonoszsa
gonza
good
goodbye
google
gora
gordon
gore
gorilla
gorkij
gornji
gorno
gorsza
gos
gosabb
gosan
gosbarna
gosi
gosoda
gossa
gost
goston
got
gota
gotha
gott
gottfried
gould
gov
government
gp
gpa
gpedig
gpolitika
gpolitikai
gpontja
gporta
gps
gr
gra
grace
grad
graf
grafika
grafikai
grafikus
grafikusmu
graham
gramm
grammalecte
grammatika
grammy
gran
granada
grand
grande
granglista
grant
graph
graphs
grave
gravita
gray
graz
gre
great
greatest
greece
greek
green
greene
greenwood
greg
gregor
gregory
grehajta
grehajtani
grehajto
grehajtott
grendelete
grey
grid
griffin
grillen
grimm
gro
groeneveld
gross
groteszk
ground
group
groups
grove
growth
gru
gruyter
gse
gsem
gso
gsza
gszerepelt
gszerte
gszeru
gszi
gszo
gszolga
gt
gta
gtak
gtalan
gtan
gtani
gte
gtek
gtelen
gtelense
gtelenu
gtiszti
gto
gtudoma
gu
gua
guadalajara
guardian
guatemala
gue
guez
gui
guide
guido
guild
guillaume
guinea
guinness
guitar
guk
gukat
gukbo
gul
gula
gulya
gumi
gumo
gun
gundel
gunk
guns
guo
guru
gus
gusa
guske
gusok
gusta
gustav
guszta
gutenberg
guy
guyana
gva
gve
gveszte
gvete
gviselo
gvonalban
gy
gya
gyak
gyakori
gyakoriak
gyakoribb
gyakorisa
gyakorla
gyakorlat
gyakorlata
gyakorlatban
gyakorlati
gyakorlatilag
gyakorlatok
gyakorlatot
gyakorlo
gyakornok
gyakorol
gyakorolja
gyakorolt
gyakorolta
gyakorta
gyakrabban
gyakran
gyala
gyalog
gyalogezred
gyalogos
gyalogsa
gyana
gyani
gyanta
gyanu
gyapjas
gyapju
gyarapi
gyarmat
gyarmati
gyarmatosi
gyat
gyazott
gyban
gyben
gye
gyeit
gyek
gyekben
gyeket
gyel
gyelet
gyelete
gyeleti
gyelo
gyelt
gyelte
gyen
gyenge
gyengese
gyengi
gyengu
gyere
gyerek
gyereke
gyerekek
gyerekeket
gyerekeknek
gyereket
gyerekkora
gyergyo
gyermek
gyermeke
gyermekei
gyermekeik
gyermekeit
gyermekek
gyermekeke
gyermekeket
gyermekeknek
gyermeket
gyermekke
gyermekko
gyermekkora
gyermekkori
gyermeku
gyertya
gyes
gyesen
gyesse
gyet
gyfe
gyfu
gygomba
gyhata
gyhogy
gyi
gyilkos
gyilkosa
gyilkossa
gyinte
gyis
gykapo
gyminiszte
gyminiszter
gyminisztere
gyminiszteri
gymnasium
gynevezett
gyno
gyo
gyok
gyomirto
gyomno
gyomor
gyomra
gyon
gyors
gyorsabb
gyorsabban
gyorsan
gyorsasa
gyorsi
gyorskorcsolya
gyorsu
gyorsula
gyott
gypedago
gyre
gysa
gysev
gysza
gyszer
gyszere
gyszerek
gyszeres
gyszerta
gyszo
gytea
gyu
gyula
gyulafehe
gyulai
gyullada
gyult
gyurcsa
gyve
gyvezeto
gyvivo
gyzet
gyzete
gyzetes
gyzetgyo
gyzetkilome
gyzetme
gza
gzata
gze
gzet
gzetes
gzett
gzettse
gzi
gzik
gzo
gzott
h
ha
haas
haba
haben
habilita
habok
habsburg
habsburgok
hacsak
had
hada
hadak
hadat
hadba
hadd
hadereje
hadero
hadi
hadifogsa
hadihajo
hadisza
haditengere
hadja
hadmu
hadnagy
hadoszta
hadrendbe
hadsereg
hadseregbe
hadseregben
hadserege
hadsereget
hadszi
hadtest
hadteste
hadto
hadtudoma
hadu
hadveze
hadvezete
hadvisele
hagstova
hagy
hagya
hagyate
hagyja
hagyjuk
hagyma
hagyni
hagynia
hagyoma
hagyott
hagyta
hagytak
hagyva
hahn
hai
hair
haiti
haj
haja
hajdan
hajdani
hajdu
haji
hajla
hajlamos
hajlando
hajle
hajli
hajlo
hajlott
hajnal
hajnala
hajnalban
hajnali
hajo
hajra
hajsza
hajt
hajta
hajtja
hajto
hajtott
hajtotta
hajtottak
haju
hal
hala
halad
halada
haladnak
haladni
halado
haladt
haladtak
haladva
halak
halando
halat
haldoklo
hale
half
halfaj
halhatatlan
halhatatlansa
halk
halkan
hall
halla
hallani
hallanod
hallata
halle
haller
hallgat
hallgata
hallgatni
hallgato
hallgatott
hallgatta
hallhato
hallja
hallo
hallom
hallott
hallotta
hallottam
halloween
halmaz
halmaza
halmazelme
halni
halo
halom
halomsi
halott
halottak
halotti
halt
haltak
halva
ham
hama
hamar
hamarabb
hamarosan
hamburg
hamburger
hamburgi
hamilton
hamis
hamisi
hamlet
hammer
hammond
hampshire
hamvas
han
hana
hand
handball
handbook
handbuch
handedict
hands
handzsa
hanem
hang
hanga
hangeul
hangfelve
hangja
hangjai
hangme
hangok
hangokat
hangola
hangon
hangos
hangosan
hangosfilm
hangot
hangsu
hangszer
hangszerek
hangszerele
hangszeres
hangu
hangul
hangulat
hangulata
hangulatot
hangulatu
hangva
hangve
hangya
hangza
hangzik
hangzo
hangzott
hank
hanna
hannah
hannover
hans
hansa
hansen
hanyatla
happy
hara
harag
haragja
harald
harang
harangja
harangla
harangok
harangozo
harangtornya
harangtorony
harbor
harc
harca
harcba
harcban
harci
harcja
harckocsi
harckocsik
harcmu
harcok
harcokban
harcol
harcolni
harcolo
harcolt
harcoltak
harcos
harcosok
harcot
harcra
harcte
hard
hardcore
hardy
hargita
harisnya
harka
harmada
harmadik
harmadoszta
harmadszor
harmat
harmattan
harminc
harmincas
harmince
harmo
harmonika
harmonikus
harold
harper
harris
harrison
harry
harsa
harsona
hart
hartmann
harvard
harvey
has
hasa
hasade
hasi
hasmene
hasnya
hasonli
hasonlo
hasonma
haszna
hasznos
hasznosi
hasznot
hat
hata
hatalma
hatalmak
hatalmas
hatalmat
hatalmi
hatalom
hataloma
hatalommal
hatalomra
hate
hatnak
hato
hatodik
hatott
hatsza
hatszor
hattyu
hatva
hatvan
hatvanas
hatvani
haut
haute
hautes
hava
havas
havasalfo
havasi
havasok
have
haven
havi
havonta
hawaii
haydn
hayes
haza
hazae
hazafele
hazafias
hazai
hazate
hazug
hazugsa
hb
hbo
hc
hd
he
head
health
heart
hearts
heat
heaven
heavy
hector
hedvig
hegedu
hegy
hegycsu
hegye
hegyei
hegyek
hegyekben
hegyen
hegyes
hegyet
hegyi
hegyko
hegyla
hegyma
hegyre
hegyse
hegyvide
heidelberg
heinrich
heinz
hej
hek
hekta
held
hele
helen
helena
helikon
helikopter
hell
helle
heller
hello
hellyel
helmut
help
helsinki
heltai
hely
helybe
helybeli
helybeliek
helyben
helye
helyei
helyek
helyeken
helyeket
helyekre
helyen
helyenke
helyes
helyesen
helyesi
helyet
helyett
helyette
helyettes
helyettese
helyettesi
helyettu
helyeze
helyezett
helyezettek
helyezettje
helyezi
helyezik
helyezkedett
helyezkedik
helyezkednek
helyezkedtek
helyezni
helyezte
helyeztek
helyezve
helyhez
helyi
helyie
helyiek
helyig
helyise
helyke
helyko
helyne
helynek
helyo
helyre
helyrea
helyro
helyse
helyszi
helyt
helyta
helytarto
helytelen
helyto
helyu
helyzet
helyzetbe
helyzetben
helyzete
helyzetet
helyzetu
hen
henderson
henger
hengeres
henri
henrietta
henrik
henry
hepatitis
hepburn
her
herald
heraldika
heraldikai
herba
herbert
herceg
hercege
hercegek
herceget
herceggel
herceghez
hercegi
hercegne
hercegnek
hercegno
hercegovina
hercegse
herczeg
here
heritage
herman
hermann
herna
hernyo
hero
heroes
hes
hessen
het
hete
hetedik
hetek
hetente
hetes
hetet
heti
hetilap
hettita
hetven
hetvenes
heves
hevesen
hevesi
hevi
hez
hezbollah
hf
hg
hi
hia
hiba
hibrid
hidak
hidalgo
hidat
hideg
hidegen
hidegha
hidegta
hidraulikus
hidroge
hidrolo
hie
hierarchia
hierarchy
higgins
high
higher
highway
higie
hihetetlen
hilaire
hiljada
hill
hills
hilton
him
himala
himnusz
himnusza
hindi
hindu
hinni
hinto
hip
hiperakkumula
hiphop
hipote
hir
hirado
hirdete
hirdetett
hirdeti
hirdeto
hirdette
hirdettek
hirek
hirlap
hirtelen
his
hispa
histo
histoire
historia
historic
historica
historical
history
hisz
hiszem
hiszen
hiszi
hiszik
hit
hite
hitel
hiteles
hitelesi
hitelesse
hitet
hitko
hitler
hitparade
hitre
hits
hitt
hitte
hittem
hittudoma
hitu
hitva
hitvalla
hitvese
hiu
hiv
hivata
hivatal
hivatala
hivatalba
hivatalban
hivatali
hivatalnok
hivatalnokok
hivatalos
hivatalosan
hivatalossa
hivatalt
hivatkoza
hivatkozik
hivatkoznak
hivatkozott
hivatkozva
hivatott
hl
hle
hler
hlsz
hm
hms
hn
hne
ho
hockey
hoffman
hoffmann
hogy
hogyan
hogyha
hol
hold
holdak
holdas
holdat
holdfe
holding
holdja
holdon
holdra
hole
holiday
holland
hollandia
hollandiai
hollandok
hollandul
hollo
holly
hollywood
hollywoodi
holmes
holmi
holnap
holocaust
holokauszt
holott
holstein
holt
holta
holtak
holtan
holtteste
holtversenyben
holy
homa
home
hometownlocator
homloka
homlokzat
homlokzata
homme
homo
homoge
homok
homoki
homokko
homokos
homoszexua
homoszexualita
hon
honda
honduras
honey
honfita
honfoglala
honfoglalo
hong
hongkong
hongkongi
honi
honlap
honlapja
honlapon
honnan
honor
honos
honosak
honosi
hont
honve
hood
hook
hop
hope
hopkins
hora
hord
horda
hordale
hordja
hordo
hordozhato
hordozo
hordozza
hordta
horga
horn
horni
hornya
horror
horse
horst
horthy
hortoba
horva
hospital
hossz
hossza
hosszabb
hosszabbi
hosszan
hosszanti
hosszas
hosszu
host
hot
hotel
hotspur
hour
hours
house
households
housing
houston
houten
hova
hovatartoza
how
howard
howe
hoz
hozhato
hoznak
hozni
hozo
hozoma
hozott
hozta
hoztak
hozva
hozza
hozzon
hp
hr
hradec
hrer
hrsg
hrung
hrv
hrvatska
hrvatske
hrvatski
hse
hszu
htm
html
http
https
hu
hua
huang
huba
hubay
huber
hubert
hudson
hugh
hughes
hugo
hui
hull
hulla
hullade
hullott
huma
human
humanista
humanita
humboldt
humor
humorista
humoros
hun
hundred
hung
hunga
hungaria
hungariae
hungarian
hungarica
hungaricana
hungaroton
hungary
hunok
hunt
hunter
hunyad
hunyadi
hunyadiak
hunyt
hurcolta
hurley
hurrika
husza
huszadik
huszita
huszka
huszonne
huszono
huszti
hvg
hyde
hz
i
ia
iaaf
iak
ian
iata
ib
iba
iban
ibc
ibe
iben
ibm
ibn
ibo
ibolya
ibrahim
ibsen
ic
ica
icao
ice
ich
id
ida
idaho
ide
idea
idee
ideg
idegen
idegenbeli
idegenben
idegenek
idegenforgalmi
ideges
idegrendszer
idei
ideig
ideiglenes
ideiglenesen
ideje
ideju
identification
identita
identity
ideolo
ido
idol
ie
ieee
if
ifj
ifjabb
ifjak
ifju
ifjusa
ifpi
ig
iga
igaz
igaza
igazat
igazgata
igazgato
igazgatta
igazi
igazola
igazolja
igazolni
igazolt
igazolta
igazolva
igazsa
ige
igeko
igen
igencsak
igene
igeneve
iglo
ign
igna
igor
igy
igyekezett
igyekeznek
igyekeztek
igyekszik
ihlette
ihoz
ii
iii
ij
ijeszto
ik
ikarus
ikat
ike
ikertestve
iket
iki
ikko
ikon
ikra
ikrek
iktatta
il
ildiko
ili
ill
illata
illatos
ille
illega
illeszkedik
illete
illeti
illeto
illette
illetve
illi
illik
illinois
illo
illu
illustrated
illusztra
illye
ilona
ilonka
ily
ilyen
ilyenek
ilyenkor
ilyet
im
ima
image
images
imdb
ime
imma
immigration
imola
impact
imperial
implementa
import
importa
impoza
improviza
imre
in
ina
inak
inas
inc
ince
incidens
including
inclyti
ind
inda
independence
independent
index
indi
india
indiai
indian
indiana
indie
indo
indoeuro
indokla
indokolt
indokolta
indone
indul
indula
indulhat
indulhatott
indulnak
indulni
indulo
indult
indultak
indulva
industrial
industry
indy
indycar
ine
inek
infa
infla
influenza
info
infope
informa
informal
informatika
informatikai
information
infrastruktu
infravo
infty
ing
inga
ingadoza
ingatlan
ingeru
ingo
ingrid
ingyen
ingyenes
ingyenesen
injekcio
ink
inka
inkvizi
inn
inne
innen
innento
inni
innova
innsbruck
ins
insecta
inside
inspira
instagram
institut
institute
instrumenta
instrumental
int
inte
integra
integrated
intel
intellektua
intelligence
intelligencia
intelligens
intenzi
intenzita
inter
interactive
interakcio
interakti
intercity
interfe
interju
interkontinenta
interna
international
internationale
internazionale
internet
interneten
internetes
interpreta
interview
into
introduction
inva
io
ioan
ion
ioniza
ios
iowa
ip
ipa
ipar
ipara
iparban
ipari
iparmu
iparos
iparva
iphone
ipoly
ir
ira
irak
iraki
iran
iraq
irat
irata
iratai
iratban
iratkozott
iratok
iratokban
iratot
ire
ireland
irene
iri
irina
iris
irish
irma
iro
iroda
irodaha
irodalma
irodalmat
irodalmi
irodalom
irodalomban
irodalomporta
irodalomto
irodalomtudoma
iron
irt
irta
irto
is
isa
isaac
isabel
isbn
ise
isil
isis
iskola
iskolae
iskolai
iskolaigazgato
islam
islamic
island
islands
isle
ism
isme
ismer
ismerete
ismeretek
ismereteket
ismeretes
ismeretlen
ismeretse
ismeretterjeszto
ismeri
ismerik
ismerju
ismerkedett
ismerni
ismero
ismert
ismerte
ismertebb
ismertek
ismertete
ismerteti
ismerteto
ismertette
ismertse
ismertte
ismeru
iso
ispa
ispota
israel
iss
issn
issue
issues
ist
ista
isten
istene
istenek
istenem
isteni
istennek
istennel
istenno
istense
istent
istorice
istva
iszdb
iszik
iszla
iszonyu
isztambul
isztambuli
isztria
isztriai
it
ita
ital
italia
italian
italiana
italiani
italok
italt
italy
ite
item
itf
itis
ito
itogi
its
itt
itten
itteni
itthon
itunes
iu
iucn
iucnredlist
iv
iva
ivade
ival
ivan
ivanovics
ivare
ivel
ivo
ivott
ix
iz
izabella
izgalmas
izland
izlandi
izmok
izmos
izola
izom
izoto
izrael
izraelben
izraeli
izraelita
izsa
izzo
j
ja
jabb
jabban
jack
jackie
jackson
jacob
jacobi
jacques
jade
jaffa
jagello
jahre
jai
jaj
jak
jakab
jakat
jake
jakob
jam
jamaica
jamaicai
james
jamie
jan
jana
jancsi
jancso
jane
janeiro
janet
jang
janicsa
janka
janko
jankovich
jankovics
janua
january
janus
japa
japan
japanese
jar
jardic
jargon
jaroslav
jas
jasok
jason
jaste
jat
jate
jav
java
javak
javare
javascript
javaslat
javaslata
javaslatok
javaslatot
javasolja
javasolt
javasolta
javi
javier
javula
javult
jay
jaza
jazott
jazottak
jazta
jazz
jb
jba
jban
jbo
jboyd
jc
jcba
jcban
jci
jdalma
jdalmas
jdalmat
jdalom
jdalomcsillapi
jdonsa
je
jean
jeanne
jedi
jedna
jeff
jefferson
jeffrey
jeges
jegy
jegye
jegyek
jegyet
jegyezte
jegyse
jegyz
jegyze
jegyzet
jegyzetek
jegyzeteket
jegyzetekkel
jegyzett
jegyzo
jei
jeke
jel
jelben
jele
jelei
jelek
jeleket
jelen
jelena
jelene
jelenet
jelenetben
jelenete
jelenetek
jeleneteket
jelenetet
jeleni
jelenik
jelenkor
jelenle
jelenleg
jelenlegi
jelennek
jelense
jelent
jelente
jelentek
jelentenek
jelentetett
jelentett
jelentette
jelentettek
jelenthet
jelentheti
jelenti
jelentik
jelentkeze
jelentkezett
jelentkezik
jelentkeznek
jelentkezo
jelentkeztek
jelento
jeles
jelet
jelezte
jelezve
jelke
jellege
jelleggel
jellegu
jellegzetes
jellegzetesen
jellegzetesse
jellel
jelleme
jellemezte
jellemze
jellemzi
jellemzik
jellemzo
jelmeztervezo
jelo
jelszo
jelu
jelve
jelze
jelzett
jelzi
jelzik
jelzo
jemen
jen
jenkins
jennifer
jenny
jeno
jens
jensen
jer
jeremy
jereva
jeromos
jerorsza
jerry
jersey
jerusalem
jeruzsa
jesse
jessica
jesu
jesus
jet
jevgenyij
jewish
jezsuita
jfajta
jfalu
jfe
jha
jhely
jhelyi
ji
jia
jie
jik
jill
jim
jimmy
jin
jinte
jir
jisho
jj
jja
jjal
jjel
jjeli
jjo
jk
jke
jko
jkori
jl
jlatin
jlok
jn
jna
jnak
jo
joa
joachim
joan
joanne
jobb
jobba
jobban
jobbik
jobbja
jobbnak
jobboldali
jobbra
jobbro
jobs
joe
joel
joey
jog
joga
jogait
jogakade
jogelo
jogero
joggal
jogi
jogilag
jogko
jogok
jogokat
jogos
jogosi
jogosult
jogosultak
jogosultsa
jogot
jogszaba
jogto
jogtudo
jogtudoma
jogu
joguto
johan
johann
johanna
johannes
johannita
john
johnny
johns
johnson
johnston
join
joins
jok
joker
jola
jon
jonas
jonathan
jonc
jones
jong
jonnan
joo
jorda
jordan
jorge
jos
jose
josef
joseph
josh
joshua
josip
journal
journey
jovice
joy
joyce
jozef
jozefa
jp
jpest
jpesti
jpg
jpl
jr
jra
jrae
jrahasznosi
jraindi
jrava
jro
js
jsa
jsza
jszaka
jszakai
jszeru
jszo
jszu
jt
jta
jtak
jtanak
jtani
jte
jteme
jteni
jti
jtja
jto
jtott
jtotta
jtottak
jtva
jtve
ju
juan
jubileuma
jubileumi
judet
judit
judith
judy
jugoszla
juh
juha
juhar
juk
jukat
jukban
jukkal
jul
jula
jules
juli
julia
julian
julianna
julie
julien
julio
julius
julo
jult
july
jump
jun
june
jung
juni
junior
jupiter
jura
jurassic
jurij
jus
jusa
jusban
jusi
jusson
just
justice
justin
justo
jut
juta
jutalma
jutalmazta
jutalom
jutnak
jutni
juto
jutott
jutottak
juttata
juttatja
juttatott
juttatta
juventus
jva
jve
jvide
jvila
k
ka
kaba
kabare
kabinet
kacsa
kacso
kade
kadic
kagylo
kai
kairo
kairosz
kaiser
kait
kaj
kaja
kajak
kajszi
kakao
kakas
kal
kala
kaland
kalandfilm
kalandja
kalandjai
kalandok
kalandos
kalap
kalapa
kalapja
kalauz
kalcium
kalenda
kalifa
kalifornia
kaliforniai
kalligram
kallo
kalma
kalo
kalocsa
kalocsai
kamara
kamarai
kamaraszi
kambodzsa
kame
kamera
kamerun
kampa
kamra
kan
kana
kanada
kanadai
kancella
kandida
kane
kang
kanizsai
kano
kanonikus
kanonok
kansas
kant
kanta
kanton
kantonban
kanyarban
kanyargo
kanye
kap
kapa
kapacita
kapcsa
kapcsolat
kapcsolata
kapcsolatai
kapcsolatait
kapcsolatba
kapcsolatban
kapcsolatok
kapcsolatokat
kapcsolatos
kapcsolatot
kapcsolatuk
kapcsolja
kapcsolo
kapcsolt
kapcsolta
kapella
kaphato
kapita
kapitula
kapja
kapjon
kapjuk
kapnak
kapni
kapo
kaposva
kapott
kapszula
kapta
kaptak
kaptam
kapu
kapuba
kapuit
kapuja
kapuk
kapun
kapunk
kapus
kapusa
kaput
kar
kara
karakter
karaktere
karakterek
karaktert
karate
karava
karbantarta
karbona
karcolo
karcsu
kard
karddal
kardja
kardos
kardot
kare
karel
karen
karfiol
kari
karib
karibi
karika
karikatu
karikaturista
karinthy
karintia
karja
karl
karma
karmester
karmestere
karnagy
karneva
karo
karol
karolina
karon
karossze
karrier
karrierje
karriert
karszt
kart
karta
kartha
karton
kas
kassa
kassai
kaste
kasza
kaszino
kaszpi
kaszti
kat
kata
katala
katalin
kataliza
katalo
kataszteri
katasztro
katasztrofa
kate
katedra
katego
kath
katherine
katholikus
kati
katie
kato
katolicizmusporta
katolikus
katolikusnak
katolikusok
katona
katonai
katonasa
katonatiszt
kauka
kay
kaza
kazah
kazahszta
kazetta
kazincbarcika
kazinczy
kb
kba
kban
kbe
kbeli
kben
kbesze
kbo
kbs
kc
kd
kdi
kdnp
ke
kebb
kebele
keble
kecske
kecskeme
ked
kedd
kede
kedi
kedve
kedveli
kedvelik
kedvelo
kedvelt
kedvelte
kedvenc
kedvence
kedves
kedvese
kedvesem
kedvezme
kedvezo
kedvu
keep
kegyelem
kegyelme
kegyelmet
kegyes
kegyetlen
kegyetlense
kegyse
kei
kein
keinek
keit
keith
kek
kekben
keke
keken
keket
kekkel
kekkh
keko
kekre
keksala
kel
kele
kelemen
kelenfo
kelet
keleten
keleti
keletkeze
keletkezett
keletkezik
keletkeznek
keletkezo
keletkeztek
keletre
keletro
kelheto
keli
kell
kelle
kellemes
kellemetlen
kellene
keller
kellett
kelljen
kello
kelly
kelme
kelnek
kelni
kelo
kelt
kelta
kelte
keltek
kelten
keltett
keltette
keltkala
kelve
kely
kelyek
kelyfo
kelyudvarhely
kem
kember
keme
kemence
kempelen
ken
kend
kende
kendo
kendrick
kene
kennedy
kenneth
kenny
keno
kent
kentucky
kenu
keny
kenya
kenye
kenyebb
kenyek
kenyen
kenyerek
kenyeres
kenyeret
kenyi
kenykedett
kenykedik
kenykedo
kenyse
ker
kera
kere
kerei
kerek
kereke
kerekek
kerekes
kereket
kerepesi
keres
kerese
keresett
keresi
keresik
kereskede
kereskedelem
kereskedelemben
kereskedelme
kereskedelmet
kereskedelmi
kereskedo
kereslet
keresnek
keresni
kereso
kereste
kerestek
keresve
kereszt
kereszte
keresztele
keresztelo
keresztelt
keresztelte
keresztes
keresztesek
keresztet
kereszteze
keresztezi
keresztezo
keresztje
keresztne
keresztnevek
keresztu
keresztye
keret
keretbe
keretben
kerete
keretei
keretein
keretek
keretet
keri
kering
keringe
keringo
kern
kert
kertben
kerte
kertek
kertekben
kertet
kerti
kertje
kertterveze
kertva
keru
kes
kesebb
kesegyha
keselyu
keseru
kesfehe
kesfo
kesi
keskeny
kesse
kessler
keszerzo
keszthely
keszthelyi
kesztyu
ket
keta
kette
ketteju
ketten
kettes
ketto
keve
kevere
keverede
keveredett
keveredik
kevert
kevesebb
kevesebbet
kevesen
keveset
kevin
key
keys
kezd
kezde
kezdeme
kezdenek
kezdeni
kezdet
kezdetben
kezdete
kezdetei
kezdetekto
kezdeti
kezdetleges
kezdett
kezdetto
kezdetu
kezdi
kezdik
kezdo
kezdte
kezdtek
kezdve
keze
kezele
kezelheto
kezeli
kezelik
kezelni
kezelo
kezelt
kezelte
kezem
kezet
kezete
kezetes
kezett
kezik
keznek
kezni
kezo
keztek
keztet
kezteto
kezu
kf
kfe
kfejleszte
kfilm
kfoglalo
kfolyo
kft
kfu
kfuta
kg
kh
kha
khan
khata
khellyel
khely
khelye
khelyettese
khelyto
khelyu
khez
kho
khoz
ki
kia
kiaba
kiad
kiada
kiadatlan
kiadja
kiadni
kiado
kiadott
kiadta
kiadtak
kiadva
kiai
kiakna
kialaki
kialakula
kialakulo
kialakult
kibe
kibo
kibocsa
kick
kicker
kicsere
kicsi
kicsik
kicsiny
kicsinyi
kicsit
kicsoda
kicsu
kid
kideri
kideru
kido
kidolgoza
kidolgozott
kidolgozta
kids
kie
kiege
kiegyenli
kiegyensu
kiegyeze
kiejte
kiel
kiele
kiemele
kiemelkede
kiemelkedik
kiemelkedo
kiemelt
kiemelte
kiemelten
kiemelve
kiese
kiesett
kieso
kiestek
kifejeze
kifejezett
kifejezetten
kifejezo
kifejleszte
kifejlesztett
kifejlesztette
kifejlett
kifejlo
kifejte
kifejtett
kifejtette
kifele
kifizete
kifoga
kifolyo
kifosztotta
kifu
kifuto
kig
kihagya
kihagyta
kihala
kihallgata
kihalt
kihaszna
kihi
kihirdete
kihirdette
kihu
kii
kiindula
kiindulo
kiindulva
kija
kijavi
kijelente
kijelentette
kijelenti
kijelento
kijelo
kijelzo
kijev
kijevi
kijo
kijutott
kik
kikapott
kikaptak
kike
kikeru
kiket
kiki
kikia
kiknek
kiko
kiku
kila
kile
kilenc
kilencedik
kilencvenes
kill
killed
killer
killing
kilo
kilogramm
kilome
kim
kima
kimagaslo
kimaradt
kime
kiment
kimeri
kimeru
kimi
kimondja
kimondottan
kimondta
kimutata
kimutathato
kimutatta
kin
kincs
kincse
kincses
kincset
kincsta
kind
kine
kinek
kineveze
kinevezett
kinevezte
king
kinga
kingdom
kings
kinizsi
kino
kint
kinyi
kinyilatkoztata
kinyilva
kinyu
kio
kioto
kipro
kir
kira
kirby
kirk
kiru
kis
kisa
kisaja
kisalfo
kisasszony
kisbolygo
kise
kisebb
kisebbek
kisebbik
kisebbse
kisegi
kisfaludy
kisfiu
kisko
kiskoru
kiskun
kiskunfe
kiskunhalas
kisla
kislemez
kislemeze
kislemezek
kislemezen
kislemezke
kislemezlista
kislemezt
kislemezu
kislexikon
kisme
kispest
kisrege
kiss
kisse
kista
kiste
kisu
kisva
kisvasu
kisz
kisza
kiszabadi
kisze
kiszerele
kiszo
kiszolga
kiszori
kiszu
kit
kita
kitala
kitarta
kitarto
kite
kitelepi
kiterjed
kiterjede
kiterjedo
kiterjedt
kiterjeszte
kiterjesztett
kiterjesztette
kitermele
kiteru
kitevo
kito
kitty
kitu
kiu
kiutasi
kiva
kive
kivette
kivi
kiviteleze
kivitelezo
kivitelu
kivizsga
kivona
kivonat
kivont
kivonta
kivonula
kivu
kiza
kja
kjai
kjelo
kjo
kju
kk
kka
kkal
kke
kkel
kken
kkene
kkeno
kkent
kkente
kkenteni
kkentette
kkenti
kkentik
kkento
kki
kkia
kko
kkstb
kla
klarine
klasszicista
klasszika
klasszikus
klasszikusok
klaus
kle
klebelsberg
kleheto
klein
klement
kleopa
klet
klete
kletek
kleten
kletes
kletet
kleti
kletu
kli
kliens
klinika
klinikai
klip
klipben
klipet
klipje
klo
klorid
klub
klubbal
klubban
klubja
klubme
klubna
klubok
klubot
klya
km
kma
kmennyise
kmo
kmu
kn
kna
knak
kne
knek
kneve
knevet
kni
knight
knjiga
kno
know
knowledge
known
ko
koali
koch
kocka
kocsa
kocsi
kocsija
kocsik
kocsis
kocsit
kocsma
koda
kodola
kogniti
koha
koho
koine
kok
kokat
kokban
kokkal
koknak
kokon
kokra
kokte
kol
kola
kolba
koldus
kolja
kolla
kolle
kollega
kollekcio
kollekti
kolo
kolostor
kolostora
kolostorba
kolostorban
kolostort
kolozs
kolozsva
kolt
kolta
koltai
kolumbia
kolumbiai
kolumbusz
kom
koma
kombina
kome
komi
komikus
komja
komlo
kommando
kommenta
kommunika
kommunista
kommunizmus
komoly
komolyabb
komolyan
komolyzenei
komor
komp
kompatibilis
kompenza
komplett
komplex
komplexum
komplika
kompona
komponens
kompozi
kon
koncentra
koncepcio
koncert
koncertek
koncerteken
koncerteket
koncerten
koncertet
koncertfelve
koncertje
koncesszio
koncz
kondenza
kondor
konferencia
konfigura
konfliktus
konfliktusok
konfo
kong
kongo
kongrega
kongresszus
kongresszusa
kongresszusi
kongresszuson
konkre
konra
konrad
konstans
konstantin
konstantina
konstrukcio
konstrukto
konte
kontinens
kontinensen
kontinenta
kontra
konvencio
konvent
kony
konyabb
konyak
konyan
konyha
konysa
konzerva
konzervati
konzervato
konzol
konzula
konzulta
koo
koordina
kopa
kopasz
kopoltyu
koponya
koporso
kopott
koppa
koppenha
koprodukcio
kor
kora
korabeli
korai
korba
korban
korbo
korc
korcsma
korcsolya
korda
kordos
korea
koreai
korean
koreogra
korhata
kori
korig
korla
korm
korma
kormos
korne
kornis
korok
korona
koronavi
korong
koroszta
korporta
korra
korriga
korro
korrupcio
korso
korsza
korszak
korszaka
korszakban
korszeru
kort
korta
korto
koru
korukban
korunk
kos
kosa
kosai
kosake
kosan
kosi
koske
kosnak
kosok
kosokat
kosovo
kospalota
kossa
kossuth
kost
koszmosz
koszoru
koszovo
koszta
kosztola
kot
kotlik
kotta
kov
kova
koza
kozma
kozmikus
kozmosz
kozo
kozos
kozott
kozta
koztata
koztato
koztatta
kozut
kpa
kpapi
kpe
kr
kra
krajca
krakko
kramer
krapina
krasso
krate
kraus
kre
kreati
kri
krimi
kripta
krista
kristo
kriszta
krisztia
krisztina
krisztus
krite
kriterion
kritika
kritikai
kritikus
kritikusa
kritikusok
kritikusokto
kritiza
krlez
kro
kromoszo
kronolo
kru
ks
ksa
kse
ksh
ksi
ksomlyo
ksza
kszem
kszer
kszereda
kszereplo
kszi
kszik
kszo
kt
kta
kte
ktelen
ktm
kto
ktu
ku
kuba
kubai
kubinyi
kudarc
kudarca
kudarcba
kudarcot
kuglo
kuk
kukorica
kul
kulcs
kulcsa
kulcsfontossa
kultikus
kultu
kultur
kultura
kultusz
kultusza
kun
kung
kunok
kunst
kunyho
kupa
kupado
kupagyo
kupola
kura
kurato
kurd
kuri
kurt
kurta
kuruc
kus
kusita
kusz
kusza
kuszos
kutat
kutata
kutato
kutatott
kutatta
kutya
kv
kva
kvalifika
kve
kvezete
kvezeto
kvide
kvo
kvvm
kw
ky
kyle
kylie
kyo
kzo
kɔ
l
la
labda
labdaru
labor
laborato
laboratory
laci
lad
lada
lade
ladies
lado
lady
lag
lagos
lagosan
lagu
laguna
lai
lajos
lajossal
lajost
lajta
lak
laka
lakat
lakatlan
lakatos
lake
lakhelye
lakik
lakja
laknak
lako
lakoma
lakor
lakos
lakosa
lakosai
lakosainak
lakosok
lakossa
lakossagi
lakossal
lakost
lakosu
lakott
lakta
laktak
laktanya
lal
lala
lalakban
lalt
lam
lama
lamar
lambda
lambert
lampel
lamu
lan
lana
lancaster
lance
land
landi
lando
landon
lands
lane
lang
lange
langenscheidt
language
languages
lanka
lant
lantos
laosz
lap
lapa
lapban
lapi
lapja
lapkiado
lapnak
lapok
lapokat
lapokban
lapon
lapos
lapot
lapsu
lapsza
lapszerkeszto
lapto
lara
large
larousse
larry
lars
las
lassabb
lassan
lassanke
lassi
lassu
last
lasz
lasza
laszol
laszolt
laszolta
laszt
laszta
lasztanak
lasztani
laszte
laszthato
lasztja
lasztma
laszto
lasztott
lasztotta
lasztottak
lasztva
laszul
lat
lata
latai
latait
latba
latban
latbo
late
later
latera
latest
lati
latin
latino
latinul
latlan
latok
latokat
laton
latos
latot
latra
lattal
lauda
launch
launches
laura
lauren
laurence
laurent
lausanne
law
lawrence
laza
lazi
lazio
lba
lban
lbe
lbelu
lben
lbeszaki
lbo
lbu
lc
lca
lcs
lcse
lcsek
lcseleti
lcsesse
lcsey
lcsfa
lcsi
lcso
lcstorta
ld
lda
ldake
ldalatti
ldbe
ldben
ldbirtokos
ldbo
lddel
lde
ldek
ldeken
ldeket
ldemokrata
ldeni
ldes
ldesu
ldesura
ldet
ldete
ldfelszi
ldga
ldgye
ldho
ldi
ldiek
ldik
ldje
ldko
ldme
ldmu
ldnek
ldnyire
ldo
ldots
ldott
ldoza
ldozat
ldozata
ldozatai
ldozatainak
ldozati
ldozatok
ldozatot
ldozatul
ldozo
ldrajz
ldrajza
ldrajzi
ldrajzporta
ldre
ldrenge
ldro
ldse
ldszinten
ldszinti
ldtani
ldte
ldtek
ldteru
ldto
ldu
ldva
ldy
le
lea
lead
leader
leadott
league
lear
learning
leave
lebbi
lebbre
lebego
leben
lebonta
lebontotta
lebonyoli
lechner
lecke
leclerc
lecsere
lecso
lecsu
led
lede
ledo
lee
leeds
leegyszeru
leendo
lefele
lefolya
lefordi
left
lefu
leg
lega
legacy
legal
legala
legalacsonyabb
legalso
legbefolya
legde
legdra
lege
legegyszeru
legelo
legelso
legelterjedtebb
legend
legenda
legends
legeredme
legero
leges
legesen
legfeljebb
legfelso
legfiatalabb
legfo
legfontosabb
leggazdagabb
leggyakoribb
leggyakrabban
leggyorsabb
leghi
leghosszabb
legido
leginka
legismertebb
legjelento
legjellemzo
legjobb
legjobban
legjobbja
legke
legkedveltebb
legkeve
legkevesebb
legkiemelkedo
legkisebb
legkiva
legko
legkora
legku
legla
legmagasabb
legme
legnagyobb
legne
legnehezebb
lego
legrangosabb
legre
legro
legrosszabb
legsikeresebb
legsu
legsze
legszebb
legta
legto
legu
legujsznevek
leguto
legutolso
legve
legya
legyek
legyen
legyenek
legyezo
legyha
legyo
legyu
leha
lehel
lehessen
lehet
lehetetlen
lehetetlenne
lehetett
lehetne
lehetnek
leheto
lehetse
lehettek
lehu
lei
leicester
leiden
leiga
leigazolta
leigh
leinek
leipzig
leiratik
leit
leith
leivel
leja
lejjebb
lejto
lek
leke
lekede
lekereki
lekezet
lekkel
leko
leksikon
leksza
lektan
lektani
lektora
leku
lekva
lel
lela
lele
lelem
lelet
leletek
leleteket
leli
lelke
lelkek
lelkem
lelkes
lelkesede
lelkesen
lelket
lelki
lelkipa
lelku
lelme
lelmet
lelmetes
lelmeze
lelmiszer
lelmiszerek
lelmiszeripari
lelo
lelt
lelta
lelte
lem
lema
leme
lemez
lemeze
lemezei
lemezek
lemezen
lemezkiado
lemezre
lemezt
lemezu
lemi
lemli
lemond
lemonda
lemondani
lemondott
lemoso
len
lena
lencse
lendo
lendu
lendva
lendvai
lene
lenge
lengo
lengua
lengyel
lengyelek
lengyelorsza
lengyelu
lenin
leningra
lenn
lenne
lenni
lennie
lennon
lent
lenyu
lenz
leo
leon
leonard
leonardo
leone
leoni
leopa
leopold
lepa
lepe
lepidoptera
lepke
lepkefe
leq
ler
lera
lerako
lero
lerombolta
leromlott
les
lese
lesebb
lesek
lesen
lesete
lesi
lesko
leslie
lesse
lester
lesu
lesz
lesza
leszbikus
leszek
leszerele
leszerzo
lesznek
leszto
leszu
let
letarto
letbe
letben
letbo
lete
letegyu
letei
letein
leteinek
leteit
letek
letekben
leteken
leteket
letekkel
leteknek
letekre
letekro
letelepede
letelepedett
letem
leten
letes
letesen
letesi
letesse
letet
letett
letette
letetteknek
letfejleszte
letforma
lethez
leti
letik
letileg
letke
letko
letkor
letkora
letlen
letlenszeru
letlenu
letmo
letmu
letnek
leto
letrajz
letrajza
letrajzi
letrajzok
letre
letro
lett
letta
lettani
lettartama
lette
lettek
lettel
lettem
letter
letters
letto
lettorsza
letu
letvesze
leu
leum
lev
leva
leve
levego
level
levele
levelei
leveleit
levelek
leveleket
leveles
levelet
leveleze
levelezo
levelu
levente
levere
leverkusen
leverte
leves
levesbete
levesek
levo
levy
lewis
lex
lexico
lexikon
lexikona
lez
leza
lezajlott
lezuhant
lfe
lfele
lffy
lfo
lfogva
lfu
lfy
lg
lget
lgete
lgo
lgy
lgybe
lgyben
lgye
lgyek
lgyes
lgyet
lgyfa
lgyi
lgyo
lha
lhat
lhatatlan
lhatja
lhatjuk
lhatnak
lhato
lhatott
lhatta
lhatunk
lhessen
lhet
lhete
lhetetlen
lhetett
lhetnek
lheto
lhette
lhettek
lhetu
lhi
lhold
lhoz
lhu
li
lia
liai
liam
lib
liba
libanon
libanoni
libe
liber
libera
liberty
library
libretto
libri
libris
libro
licenc
lide
lido
lie
liebe
liechtenstein
liek
life
lig
liga
ligakupa
liget
ligeti
light
lights
ligue
lik
lika
like
liko
likus
likusnak
lil
lila
lili
liliom
lilla
lille
lily
lim
lima
limita
limited
limits
lin
lincoln
linda
lindsay
line
linea
linear
linek
lines
ling
lingea
linguistics
lingvolive
link
linka
linkgyu
linnaeus
linne
lint
linux
lio
lion
lionel
lipa
lipcse
lipcsei
lipo
lipszky
lipto
lira
lis
lisa
lisabb
lisak
lisan
lise
liskola
lisnak
lisok
list
lista
listavezeto
liste
listen
liszt
lisztet
lit
liter
litera
literatura
literature
literes
little
liturgia
liturgikus
litva
liu
lium
liuma
lius
liusa
liusban
liusi
live
liverpool
lives
living
livo
lix
liz
liza
lj
lja
ljai
ljainak
ljait
ljanak
lje
ljen
ljenek
ljo
ljon
lju
ljubljana
ljuk
ljunk
lk
lka
lkaha
lke
lkede
lkedo
lkelet
lkeleten
lkeleti
lkeletre
lkereskedelmi
lkira
lkitu
lko
lkoda
lkodo
lkodott
lkoza
lkozhatunk
lkozik
lkoznak
lkozni
lkozo
lkozott
lkoztak
lkozunk
lku
ll
lla
llai
llal
llala
llalat
llalata
llalati
llalatna
llalatok
llalatot
llalja
llalkoza
llalkozo
llalni
llalo
llalt
llalta
llam
llama
llamai
llamban
llambeli
llambiztonsa
llamfe
llamfo
llamhoz
llami
llamigazgata
llamnak
llamok
llamokat
llamokba
llamokban
llamokbeli
llamokbo
llamosi
llamot
llampolga
llamtana
llamtitka
llamtudoma
llamvasutak
llando
llapi
llapoda
llapodott
llapodtak
llapot
llapota
llapotba
llapotban
llapotnak
llapotok
llapotot
llapotu
llas
llat
llata
llati
llatkert
llatok
llatokat
llatorvos
llatorvosi
llatot
llattan
llattarta
llattenye
llatvila
llay
llc
lle
llehet
llel
ller
llhat
llhatott
lli
llj
llja
lljon
llna
llnak
llni
llnia
llo
lloda
llok
lloma
llott
llottak
lloyd
llt
llta
lltak
lltam
llu
llva
llya
llyal
llyede
llyedt
llyel
llyesztett
llyesztette
lma
lmagyarorsza
lmai
lme
lmeno
lmillio
lmok
lmos
lmot
lmp
lmu
ln
lna
lnak
lne
lnek
lneve
lni
lnia
lnie
lniu
lno
lnyi
lnyomo
lnyugat
lnyugati
lnyugatra
lo
loan
lobogo
local
localita
locke
locorum
lod
log
logan
logata
logato
logatott
logatottal
logatottat
logatottba
logatottban
logatottja
logatottnak
logatottsa
logatta
logika
logikai
logisztikai
logo
loir
loire
lois
lok
loka
lokaliza
lokat
loki
lokon
lokra
lola
loldala
lom
lomb
lombard
lombardia
lombhullato
lombos
lon
london
londonba
londonban
londoni
lonely
long
longdo
longoba
look
lopa
lopez
lopott
lora
lord
lorenzo
los
lost
losz
lot
lotaringia
lotaringiai
lott
lotus
lou
louis
louise
louisiana
louvre
lova
lovag
lovagi
lovagja
lovagkeresztje
lovagla
lovagok
lovagrend
lovak
lovakat
lovas
lovassa
lovat
love
low
lower
loza
lozott
lozta
lp
lpa
lpasszt
lpolitika
lpolitikai
lpont
lpontja
lra
lre
lree
lro
lsa
lseje
lso
lsu
lsz
lsza
lszeru
lszi
lsziget
lszigeten
lszla
lt
lta
ltai
ltak
ltakozo
ltal
ltala
ltali
ltaluk
ltam
ltan
ltani
ltat
ltata
ltatja
ltato
ltatott
ltatta
ltban
ltd
lte
ltek
lteke
lteket
ltele
ltem
lteme
lten
ltenek
lteni
lteru
ltestve
ltet
ltete
ltetett
lteti
ltetik
ltetni
lteto
ltette
ltetve
ltheto
lti
ltik
ltja
ltje
ltke
ltnek
lto
ltott
ltotta
ltottak
ltoza
ltozat
ltozata
ltozatai
ltozatban
ltozatlan
ltozatlanul
ltozatok
ltozatos
ltozatossa
ltozatot
ltozhat
ltozik
ltoznak
ltozo
ltozott
ltoztak
ltoztata
ltoztatja
ltoztatni
ltoztatott
ltoztatta
ltra
ltsa
ltse
ltu
ltuk
ltunk
ltva
ltve
lu
luc
luca
lucas
lucia
luciano
lucien
lucifer
lucius
lucky
lucy
ludovika
ludwig
lufthansa
lui
luigi
luis
lujza
luk
luka
luke
lul
lum
luma
lumok
luna
lunar
lunk
lus
lusa
lusban
lusignan
lusok
lust
lusta
lusu
luta
luther
luthera
lux
luxembourg
luxemburg
luxemburgi
luz
lv
lva
lve
lvett
lvevo
lvezeti
lvezeto
lvezte
lvi
lvide
lvila
lvin
lvizsga
lvo
lvonalba
lvonalban
lvonalbeli
ly
lya
lyafuta
lyai
lyainak
lyairo
lyait
lyakapacita
lyake
lyasza
lyaudvar
lyava
lyba
lyban
lybe
lyben
lybo
lye
lyebb
lyebben
lyede
lyeg
lyegke
lyei
lyek
lyeket
lyeknek
lyemelo
lyen
lyes
lyesebb
lyesen
lyesi
lyesse
lyeze
lyezett
lyezi
lyezte
lyeztetett
lyezteti
lyfi
lyfo
lyge
lyha
lyhoz
lyi
lyise
lyke
lyko
lynak
lynch
lyne
lynek
lynn
lyno
lynxeds
lyo
lyok
lyokat
lyokban
lyokkal
lyoknak
lyokro
lyom
lyon
lyos
lyosabb
lyosan
lyossa
lyoza
lyozni
lyozo
lyozott
lyozta
lyozva
lyozza
lyra
lyre
lyro
lysa
lyse
lysza
lyt
lyta
lytalan
lytalansa
lytalanul
lyto
lyu
lyuk
lyukat
lyva
lyvezeto
lyzat
lyzata
lyzet
lyzete
lyzo
lza
lzete
lzeten
lzeti
lzo
lzott
lzottan
m
ma
mac
macbeth
macdonald
macedo
macedonia
machine
macmillan
macska
mad
mada
madagaszka
madame
madara
madarai
madarak
madarakat
madatok
made
madeira
madison
madja
madnak
madni
mado
madonna
madott
madrid
madridban
madridi
madt
madta
madtak
maffia
mafilm
mag
maga
magad
magam
magamat
magas
magasabb
magasabban
magasabbra
magasan
magasba
magaslaton
magasra
magassa
magatarta
magazin
magazinban
magazine
magda
magdolna
maggie
magic
magja
magma
magna
magne
magno
magnus
magok
magokat
magot
maguk
magukat
magukkal
maguknak
magukra
magunk
magunkat
magveto
magyar
magyara
magyarban
magyarfutball
magyari
magyarnak
magyaro
magyarok
magyarokat
magyarorsza
magyaros
magyarosan
magyarosi
magyarra
magyarsa
magyarul
maha
mahasz
mahler
mai
maiak
maiden
mail
main
maine
mainly
mainstream
mainz
mait
maja
majd
majdnem
majmok
majom
major
majorsa
maka
makao
make
makedo
makes
making
makk
mako
makszim
mal
mala
malajzia
malawi
malcolm
male
mali
mallorca
malma
malmo
malom
malone
malta
mama
mammal
mammalia
mammals
man
management
manager
manapsa
manche
manchester
manda
mandarin
mandula
mandzsu
manfred
manga
manhattan
manipula
mann
mano
mans
mansell
manua
manual
manuel
many
mao
map
mappae
maps
mar
mara
marad
marada
maradando
marade
maradjon
maradnak
maradni
maradt
maradtak
maradva
marc
marca
marcel
marcell
march
marche
marco
marcus
mare
marek
margaret
margit
margo
marha
marhahu
mari
maria
mariah
marian
mariana
mariann
marianna
marianne
marie
marija
marilyn
marina
marine
marino
mario
marion
maritime
marius
mark
marka
market
marketing
marko
markus
marne
maro
marokko
maros
marosi
marosva
mars
marsall
marseille
marsh
marshall
marta
martha
marti
martin
martina
marton
marty
marvel
marvin
marx
marxista
marxizmus
mary
maryland
mas
masdar
mason
mass
massa
massachusetts
massza
masszi
master
masters
masza
maszk
maszkodik
maszkodva
maszta
masztja
masztott
masztotta
mat
mata
match
matches
mate
matematika
matematikai
matematikaporta
matematikus
math
mathbb
mathbf
mathcal
mathematical
mathematics
mathrm
matilda
matrix
matro
matt
matteo
matter
matthew
matthias
matyi
maurice
mauzo
mava
max
maxi
maxim
maxima
maximilian
maximum
maximus
maxwell
may
maya
mayer
mayor
mb
mba
mban
mbe
mben
mbje
mbo
mbor
mbox
mc
mcarthur
mccarthy
mccartney
mcdonald
mcgraw
mclaren
md
mdbg
mde
mdf
me
mea
meccs
meccse
meccsen
meccset
mece
mechanika
mechanikai
mechanikus
mechanizmus
mechanizmusa
mecklenburg
mecsek
mecset
med
meda
medal
meddig
meddo
medence
medencei
media
medical
medici
medicina
medicine
medien
medieval
medina
medita
mediterra
medre
medve
meet
meeting
meg
mega
megada
megadja
megadni
megadott
megadta
megadva
megakada
megala
megalaki
megalakul
megalakula
megalakult
megalapi
megalkota
megalkoto
megalkotta
megba
megbe
megbecsu
megbesze
megbetegede
megbetegedett
megbi
megbocsa
megbu
megbukott
megcsina
megcso
megdo
mege
megegyeze
megegyezett
megegyezik
megegyeznek
megegyezo
megegyeztek
megek
megele
megelo
megemle
megemli
megengedett
megengedte
megero
meges
megesen
meget
megfa
megfe
megfelel
megfelelo
megfelelt
megferto
megfigyele
megfigyelheto
megfigyelo
megfigyelt
megfigyelte
megfogalmaza
megfogalmazott
megfontola
megfordi
megfordult
megforma
megfosztotta
megga
meggyengu
meggyilkola
meggyilkolt
meggyilkolta
meggyo
meggyu
megha
meghajta
meghajto
meghal
meghaladja
meghalado
meghaladta
meghallgata
meghalni
meghalsz
meghalt
meghaltak
meghata
meghi
meghiba
meghiu
megho
meghonosi
meghosszabbi
meghozta
meghu
megi
megide
megindi
megindult
megint
megisme
megismere
megismerkedett
megismerkedik
megismert
megismerte
megja
megjavi
megjegyezni
megjegyezte
megjegyze
megjegyzendo
megjegyzi
megjelene
megjeleni
megjelenik
megjelennek
megjelenni
megjeleno
megjelent
megjelentek
megjelentete
megjelentetett
megjelentette
megjelo
megjo
megkapja
megkapta
megke
megkeru
megkezde
megkezdett
megkezdo
megkezdte
megki
megko
megkorona
megku
megla
megle
meglehet
megleheto
meglepete
meglepo
meglo
megma
megmagyara
megmarad
megmaradt
megmaradtak
megme
megmeneku
megmente
megmenteni
megmentette
megmenti
megmentse
megmozdula
megmu
megmunka
megmutatja
megmutatta
megne
megnehezi
megneveze
megno
megnyere
megnyerni
megnyert
megnyerte
megnyi
megnyilva
megnyita
megnyito
megnyitott
megnyitotta
megnyu
mego
megolda
megoldani
megoldhato
megoszla
megoszta
megosztott
megosztotta
megosztva
megpro
megra
megre
megrendele
megrendelo
megrendeze
megrendezett
megro
megromlott
megronga
megse
megsebesi
megsebesu
megsegi
megsemmisi
megsemmisu
megsu
megsza
megszabadi
megszakadt
megszaki
megsze
megszeme
megszerezni
megszerezte
megszerezze
megszerveze
megszervezte
megszerze
megszerzett
megszerzi
megszila
megszo
megszokott
megszori
megszu
megta
megtagadta
megtakari
megtala
megtani
megtanult
megtanulta
megtarta
megtartani
megtartja
megtartott
megtartotta
megte
megtekinte
megtekintheto
megtenni
megteremte
megteremto
megterme
megterveze
megtestesi
megtestesu
megtett
megtette
megtiltotta
megtiszti
megto
megtorla
megtudja
megtudta
megu
megva
megvalo
megvan
megvannak
megve
megverte
megvette
megvila
megvizsga
megvolt
megy
megye
megyei
megyek
megyeri
megyesze
megyu
megzene
mehmed
mei
mein
mek
meket
mekkora
mel
melanie
melbourne
meleg
melegebb
melegha
melegi
melegszendvicsek
melinda
melissa
mell
melle
mellett
mellette
melletti
mellettu
mello
mellso
mellszobra
mellu
melly
mellyben
mellyel
mellyet
mellynek
melme
melo
mely
melybe
melyben
melybo
melyek
melyekben
melyekbo
melyeken
melyeket
melyekkel
melyeknek
melyen
melyet
melyhez
melyik
melynek
melyre
melyro
mem
member
members
membra
memo
memorial
memoriam
memory
men
menede
menedzser
menedzsere
menedzsment
meneku
menesztette
menet
menete
menetele
menetrend
menetrendje
menj
menjen
menne
mennek
menni
mennie
mennydo
mennyei
mennyezete
mennyi
mennyire
mennyise
mennyit
mennyorsza
meno
ment
menta
mente
mentek
mentem
mentes
mentesse
mentette
menti
mento
mentor
mentora
mentrum
menu
menyasszony
menyasszonya
menye
menyhe
meo
mer
mera
mercedes
mercury
mere
meredek
merek
meres
merev
merhata
meri
merke
merlei
merlin
mero
merre
merriam
mert
meru
mes
mese
message
messi
messia
messier
messze
messzi
messzire
messziro
mester
mesteralak
mestere
mesterei
mesterek
mesterha
mesteri
mesterke
mesterlo
mesterse
meszes
meszsze
met
meta
metacritic
metafizika
metal
metalfo
metallica
metek
meteket
meteor
meteorolo
meth
method
methods
meti
metnek
meto
metodista
metorsza
metro
metroid
metropolis
metropolitan
metsze
metszo
metu
metz
meuse
mexico
mexiko
meyer
mez
meze
mezei
mezeje
mezey
mezi
mezo
mezopota
meztelen
mg
mh
mha
mhoz
mhz
mi
mia
miai
mialatt
miami
mianmar
miaporta
miatt
miatta
miatti
michael
michaelis
michel
michelangelo
michele
michelle
michigan
mick
mickey
microsoft
micsoda
mid
middle
midnight
mido
mie
mielo
mife
mig
migra
miguel
miha
mihai
mihail
mihajlovics
mihelyt
mihez
mik
mika
mike
mikes
miklo
miko
mikolo
mikor
mikoron
mikrobiolo
mikroszko
miksa
miksza
mikula
mikus
mil
mila
milan
milano
mile
mileg
miles
mili
military
mill
mille
millennium
millenniumi
miller
millia
millime
millio
million
mills
milne
milos
milton
mily
milyen
min
mina
mind
mindaddig
mindannyian
mindazona
mindazt
minde
mindegy
mindegyik
mindegyike
mindegyiku
mindeko
mindemellett
minden
mindenben
mindenekelo
mindenesetre
mindenevo
mindenfe
mindenfele
mindenhato
mindenhol
mindenke
mindenki
mindenkinek
mindenkit
mindenkor
mindenkori
mindennap
mindennapi
mindennek
mindenre
mindense
mindent
mindenu
mindez
mindezek
mindezt
mindha
mindhala
mindig
mindinka
mindja
mindke
mindketten
mindketto
mindma
mindnya
mindo
mindszenty
mindve
mine
minek
minerva
ming
mini
miniatu
minima
minimum
minisorozat
minister
ministerul
ministry
miniszte
miniszter
minisztere
miniszterelno
miniszteri
minisztertana
minket
minnesota
mino
minogue
minor
mint
minta
mintave
mintegy
mintha
minthogy
mintsem
mio
mioce
mir
mira
miranda
mire
miro
miroslav
mirror
mis
mise
miska
miskolc
miskolci
miskolcon
miss
mission
mississippi
missouri
misszio
missziona
miszerint
miszte
misztikus
mit
mitch
mitchell
mitikus
mito
mitolo
miuta
mivel
mivolta
mix
mixed
mj
mja
mje
mjegyu
mk
mkbt
mke
ml
mla
mlapja
mle
mlik
mlo
mls
mlsz
mm
mma
mmal
mme
mmel
mmend
mn
mnak
mnb
mne
mnek
mnem
mnemu
mnl
mno
mo
mob
mobil
mobile
mocsa
mocsarak
mocsaras
mod
mode
model
modell
modellek
modelleze
modellje
modellt
modena
modern
modernebb
moderniza
modrus
modul
modula
mogassa
mogat
mogata
mogatja
mogatni
mogato
mogatott
mogatta
mogul
mogyoro
moha
mohamed
mohammed
moho
mojo
mok
mokat
mokban
mokkal
mol
mola
molda
moldova
moldva
moldvai
molecular
molekula
molie
molja
moll
molly
molna
molni
molo
molt
molta
moltak
moly
molylepke
mom
momentum
momra
mon
mona
monaco
monarchia
mond
monda
mondana
mondanak
mondani
mondanivalo
mondat
mondatban
mondatok
mondatokat
monday
mondd
monde
mondhato
mondja
mondjuk
mondo
mondok
mondom
mondott
mondotta
mondta
mondtam
mondva
money
mongo
mongol
mongolok
moni
monica
monitor
monkey
monmouth
mono
monogra
monografia
monok
monolo
monopo
monostor
monoszlo
monroe
monster
mont
montana
monte
montenegro
montgomery
month
monthly
montpellier
montre
montreal
monumenta
monumentelor
monza
moon
moore
mor
mora
morales
mordvin
more
morfolo
morgan
mori
morning
morphologic
morris
morrison
mort
morton
morva
morvaorsza
mos
moscow
mosdo
moselle
moso
mosoly
mosolygo
mosolygott
mosolyogva
moson
mosonmagyaro
moss
mossa
most
mostan
mostana
mostani
mostly
mostoha
moszkva
moszkvai
moszlopok
mot
mother
moti
motion
motiva
moto
motogp
motor
motorja
motorkere
motorok
motorola
motoros
motorral
motors
motorsport
motort
mottevo
motto
mount
mountain
mountains
move
movement
movie
movies
moza
mozaik
mozambik
mozart
mozdi
mozdony
mozdonyok
mozdonyokat
mozdonyt
mozga
mozgalma
mozgalmak
mozgalmat
mozgalom
mozgalomban
mozgata
mozgato
mozge
mozgo
mozgott
mozi
moziban
mozifilm
mozikba
mozikban
mozilla
mozog
mozognak
mozott
mp
mpa
mpi
mr
mra
mre
mrendszerbeli
mrendszerben
mro
mrs
ms
msa
msc
mse
msza
mszereplo
mszi
mszmp
mszo
mszp
mt
mta
mtalan
mte
mti
mtk
mto
mtv
mtva
mu
much
muel
muffin
muhammad
muk
mukra
mul
mulato
mulatsa
mult
multi
multime
multiple
mulva
mun
mundo
municipal
municipii
munka
munkaero
munkahelye
munkako
munkanapta
munkane
munkaszolga
munkata
munkau
munkava
munkave
munkra
munzinger
mura
murako
muravide
murder
murphy
murray
mus
muse
museo
museum
music
musica
musical
mussolini
must
musta
musza
muszlim
muszlimok
musztafa
muta
mutat
mutatja
mutatkozik
mutatkozott
mutatnak
mutatni
mutato
mutatott
mutatta
mutattak
mutatva
muzeolo
muzsika
muzulma
mv
mve
mvevo
mw
mx
my
myers
myspace
mystery
mze
mzetes
mzett
mzo
mɑ
n
na
nach
nacional
nacionalista
nacionalna
nad
nada
nadra
nadta
nagy
nagyanyja
nagyapa
nagyapja
nagyata
nagyba
nagyban
nagybetu
nagybirtokos
nagybo
nagyboldogasszony
nagydi
nagyfejedelem
nagygombafajainak
nagygyu
nagyhatalmak
nagyherceg
nagyhercegno
nagyi
nagyja
nagyka
nagykanizsa
nagykanizsai
nagyko
nagykoru
nagykun
nagylelku
nagylemez
nagylemeze
nagylemezt
nagylemezu
nagylexikon
nagymama
nagyme
nagymester
nagymestere
nagyne
nagyobb
nagyobbak
nagyobbik
nagyok
nagyon
nagyot
nagyra
nagyre
nagysa
nagysebesse
nagysza
nagyszaba
nagyszeben
nagyszeru
nagyszombat
nagyszombatban
nagyszombati
nagyszu
nagyu
nagyva
nagyvezi
nagyvila
nai
naiak
naiul
naiv
naja
nak
naka
nal
nam
name
named
names
nami
nana
nancy
nantes
nap
napban
napfe
napfogyatkoza
napi
napig
napilap
napja
napjai
napjaiban
napjaink
napjainkban
napjainkig
napjainkra
napko
naplo
napo
napoca
napok
napokat
napokban
napokig
napokon
napoleon
napoli
napon
naponta
napos
napot
nappal
nappali
napra
napraforgo
naprendszer
naprendszerben
napro
napsu
napsuga
napsza
napta
napto
napvila
narancs
narancssa
narcke
narra
naruto
nas
nasa
naselja
naseljima
nash
nashville
nasza
naszo
nat
nata
natalie
nathan
nation
national
nationale
nations
native
nato
natos
natot
natu
natura
natural
nature
nava
naval
navarra
navarrai
naver
naviga
navy
nay
nb
nba
nban
nbc
nbe
nben
nbo
nbse
nbu
nbusz
nc
nca
nccal
nce
ncegyu
nchen
nchenben
ncheni
nchez
nchi
nci
ncmu
ncok
ncol
ncolni
ncolo
ncolt
ncos
ncosno
ncot
ncs
ncselekme
ncsi
ncsics
ncz
nd
ndarab
nde
ndelser
nder
ndes
ndez
ndi
ndk
ndo
ndok
ndor
ndorla
ndorlo
ndorne
ndorolt
ndoroltak
ndorral
ndort
ndula
ndulo
ndung
ndy
ndzsa
ne
neal
near
nebraska
nec
ned
nedves
nedvesse
need
needs
negati
negyed
negyeddo
negyede
negyedik
negyedoszta
negyven
nehe
nehezebb
nehezen
nehezi
nehogy
nei
neiben
neil
neill
neit
neje
nek
nekben
neke
neked
nekek
nekel
nekelni
nekelt
nekelte
nekem
neken
nekes
nekese
nekesek
nekeske
nekesko
nekesno
neket
neki
nekik
nekkel
nekle
nekli
neklo
nekrolo
nekta
nektek
neku
nel
nelem
nelemben
nelemporta
nella
nelme
nelmet
nelmi
nelson
nem
nembe
nembeli
nemcsak
neme
nemek
nemes
nemesek
nemesi
nemesse
nemet
nemi
nemigen
nemre
nemsoka
nemu
nemzede
nemzet
nemzetbiztonsa
nemzete
nemzetek
nemzetgazdasa
nemzetgyu
nemzeti
nemzetise
nemzetisport
nemzetiszocialista
nemzetko
nemzeto
nemzetse
nen
neo
neogo
neolo
nepa
nepomuki
ner
nero
nes
net
netben
nete
netei
netek
neteket
netet
netflix
nethata
netherlands
neti
nettel
nettudoma
netu
network
networks
neue
neumann
neurolo
nevada
neve
nevei
nevek
neveken
neveket
nevele
nevelkedett
nevelo
nevelt
nevelte
nevem
never
neves
nevet
nevete
nevetett
nevetse
nevez
neveze
nevezetes
nevezetesen
nevezetesse
nevezett
nevezetu
nevezheto
nevezi
nevezik
neveznek
nevezni
nevezo
nevezte
neveztek
nevezu
nevezve
nevezzu
neville
nevu
new
newcastle
newman
news
newton
next
nez
neze
nezo
nfa
nfalva
nfe
nffy
nfl
ng
nga
ngc
nge
ngel
ngja
ngo
ngok
ngolo
ngra
ngy
ngya
ngyi
ngyilkos
ngyilkossa
ngyo
ngyu
nh
nha
nhangzo
nhata
nhelye
nhet
nhetett
nheti
nheto
nhette
nhidra
nhidroge
nhl
nho
nhoz
ni
nia
niai
niatemplom
niatemploma
niben
nica
nicaragua
nice
nicholas
nicht
nick
nickelodeon
nico
nicola
nicolae
nicolas
nicole
nida
nie
niel
nielsen
nig
nigazgato
nige
nigel
niger
night
nights
nik
nika
nike
nikola
nikus
nimfa
nin
nina
nincs
nincsen
nincsenek
nindzsa
nine
nintendo
nio
nippon
nis
nise
nit
nitra
nitroge
nium
nius
niusa
niusban
niusi
niusto
nix
nixon
nizza
nj
nja
nje
nk
nka
nkat
nkban
nkbe
nkben
nke
nken
nket
nkho
nki
nkiada
nkje
nknek
nko
nkok
nkorma
nkre
nkrement
nku
nky
nl
nla
nlata
nlatot
nleges
nlegesse
nlja
nlo
nlott
nlotta
nm
nmaga
nme
nmu
nn
nna
nnak
nnal
nne
nnek
nnel
nnep
nnepe
nnepek
nnepelt
nnepelte
nnepi
nneple
nneplik
nnepse
nni
nno
nny
nnya
nnyal
nnye
nnyebb
nnyebben
nnyed
nnyede
nnyel
nnyen
nnyi
nnyu
no
noaa
noah
nob
nobel
noble
node
noe
noha
noir
noise
nok
nokat
nokia
nokkal
noknak
nol
nom
noma
nominations
nominees
non
nonprofit
nora
norbert
nord
norma
norman
normandia
normann
norris
north
northern
norton
norve
norway
nos
nosa
nosabb
nosan
nosi
nosnak
nosne
nossa
nossal
nost
nosz
not
note
notes
nothing
notitiae
notre
nottingham
nov
nova
nove
novel
novella
november
novemberben
novembere
novemberi
novi
novo
novum
now
nozta
nozza
np
npad
npada
npadi
npadon
npadra
npo
nr
nra
nre
nro
ns
nsa
nsav
nse
nsno
nso
nsok
nster
nsz
nsza
nszeme
nszk
nszky
nt
nta
ntai
ntak
ntana
ntarta
ntarto
ntcsontpart
nte
ntek
nteken
ntelen
ntenek
nteni
ntere
ntes
ntesek
ntete
ntetek
ntetendo
ntetett
nteti
ntetik
ntetlen
ntetlennel
ntetlent
ntetni
nteto
ntette
ntettek
ntetve
ntgen
nther
nti
ntik
ntja
nto
ntok
ntor
ntotta
ntpo
ntsa
ntsem
ntu
ntudat
ntulajdonban
ntve
nu
nuclear
nuel
nuk
nuklea
nul
nula
nulla
nult
number
numbers
numerikus
nus
nusa
nusok
nusz
nva
nvalo
nve
nvonala
nvonalu
nws
ny
nya
nyada
nyai
nyaiban
nyaik
nyainak
nyait
nyaival
nyak
nyaka
nyake
nyala
nyan
nyara
nyaralo
nyat
nyba
nyban
nybe
nyben
nybetegse
nybeve
nybi
nybiztos
nybo
nycikk
nydemokrata
nye
nyebb
nyeg
nyege
nyeges
nyegesen
nyegyetem
nyegyetemen
nyei
nyeiben
nyeibo
nyeik
nyeiket
nyein
nyeinek
nyeire
nyeiro
nyeit
nyeivel
nyek
nyekben
nyekbo
nyeke
nyeken
nyeket
nyekhez
nyekkel
nyeknek
nyekporta
nyekre
nyekro
nyekto
nyel
nyelmes
nyelo
nyelt
nyelte
nyelv
nyelvben
nyelvbo
nyelvcsala
nyelve
nyelvei
nyelvek
nyelvekben
nyelveken
nyelveket
nyelven
nyelvet
nyelvhaszna
nyelvi
nyelvja
nyelvnek
nyelvre
nyelvtan
nyelvtani
nyelvteru
nyelvto
nyelvtudoma
nyelvu
nyelvva
nyelvvel
nyem
nyen
nyer
nyereju
nyereme
nyerese
nyerges
nyeri
nyerni
nyero
nyers
nyert
nyerte
nyertek
nyertes
nyertese
nyes
nyesebb
nyesek
nyesen
nyesi
nyesse
nyesu
nyevo
nyez
nyeze
nyezett
nyezi
nyezo
nyezte
nyfaj
nyfe
nyfo
nyfu
nygyu
nyha
nyhata
nyhato
nyhez
nyhoz
nyhoza
nyhozo
nyi
nyikolaj
nyikolajevics
nyilas
nyilatkozat
nyilatkozata
nyilatkozatot
nyilatkozott
nyilatkozta
nyilva
nyilvantarto
nyira
nyiskola
nyit
nyita
nyitja
nyito
nyitott
nyitotta
nyitottak
nyitra
nyitrai
nyitva
nyj
nyja
nyka
nyke
nyko
nykora
nylag
nyle
nyleg
nyleges
nylegesen
nylet
nylete
nyletet
nylo
nymo
nynak
nyne
nynek
nynemzetse
nyo
nyok
nyokat
nyokban
nyokbo
nyokkal
nyoknak
nyokon
nyokra
nyolc
nyolcaddo
nyolcadik
nyolcas
nyolce
nyolcszo
nyolcvan
nyolcvanas
nyolo
nyolt
nyom
nyoma
nyomai
nyomait
nyomate
nyomban
nyomda
nyomdai
nyomo
nyomon
nyomoru
nyomot
nyomott
nyomoza
nyomozo
nyomta
nyomtata
nyomtatott
nyomtatva
nyomvonala
nyon
nyorsza
nyos
nyosabb
nyosan
nyosi
nyossa
nyoza
nyozhato
nyoznak
nyozni
nyozo
nyozott
nyozta
nyoztak
nyozza
nypa
nyra
nyre
nyrendeletek
nyro
nysa
nyse
nysorozat
nysza
nysze
nyszeri
nyszermunka
nyszeru
nyszo
nyszor
nyt
nyta
nytan
nytani
nytelen
nytelenek
nytelense
nytelenu
nytermeszte
nytestve
nytimes
nyto
nytu
nyu
nyuga
nyugalmazott
nyugalmi
nyugalom
nyugalomba
nyugalomra
nyugat
nyugati
nyugatne
nyugaton
nyugatra
nyugatro
nyugdi
nyugodt
nyugodtan
nyugszik
nyugtalan
nyugtalansa
nyugtato
nyugvo
nyuk
nyukat
nyul
nyulo
nyult
nyv
nyva
nyvbe
nyvben
nyvbo
nyve
nyvei
nyveit
nyvek
nyvekben
nyveket
nyvelo
nyves
nyvet
nyvezheto
nyvi
nyvila
nyvkiado
nyvklub
nyvmu
nyvnek
nyvsorozat
nyvta
nyza
nyzat
nyzata
nyzati
nyzatok
nyzatot
nyzattal
nyzet
nyzete
nyzik
nyzo
nyzott
nz
nza
nze
nzek
nzi
nzo
nzt
nzta
nzu
nzzel
o
oa
ob
obama
obce
obci
obi
obiectorumque
obituary
object
objekti
objektum
objektumok
oboa
observatory
observer
obsolete
obszervato
obyvatel
ocean
och
oclc
oct
october
od
oda
odaa
odae
odai
ode
oder
odna
odu
oeis
of
off
offensive
offenzi
office
official
officialcharts
officina
officinalis
og
ogy
oh
ohio
oil
ois
oise
oiseaux
ok
oka
okai
okb
okbo
okirat
oklahoma
okleve
oklevele
oklevelek
oklevelekben
okleveles
oklevelet
okma
okok
okokbo
okos
okot
okoz
okozhat
okoznak
okozo
okozott
okozta
okoztak
okozva
okozza
okt
okta
oktata
oktato
oktatott
oktatta
okto
ol
ola
olaf
olaj
olaja
olajat
olajok
olajos
olasz
olaszok
olaszorsza
olaszul
olcso
old
oldal
oldala
oldalain
oldalak
oldalas
oldali
oldalon
oldalra
oldalro
oldalso
oldalt
oldat
oldhato
oldja
oldo
oldott
oldotta
ole
olga
oli
olimpbase
olimpia
olimpiai
olimpiaporta
olimpikon
olive
oliver
olivetti
olivia
olivier
ollo
olly
olsen
olt
olta
oltalma
olto
olu
olvada
olvadt
olvas
olvasa
olvashato
olvasma
olvasni
olvaso
olvasott
olvassa
olvasta
oly
olyan
olyannyira
olyanok
olyat
olykor
olympedia
olympia
olympic
olympics
olympique
om
oma
omar
omega
on
once
one
online
only
onnan
ontario
op
opcio
opel
open
openen
opening
openthesaurus
opera
operae
operaha
operaporta
operati
operation
operations
operato
operatorname
operett
operettszi
optikai
optima
optimaliza
opus
or
ora
oracle
orange
oras
orato
orba
orbita
orca
orchestra
ordbok
order
ordi
oregon
org
organization
orgona
orgonista
oricon
orient
orienta
origin
original
origins
origo
orion
orlando
orle
orleans
orma
ornitolo
oro
orosha
orosz
oroszla
oroszok
oroszorsza
oroszul
orr
orra
orrszarvu
orso
orsolya
orsza
ortodox
ortutay
orvos
orvosa
orvosi
orvoske
orvosla
orvosok
orvossa
orvosto
orvostudoma
os
oscar
osiris
oskar
oslo
ost
osteichthyes
ostoba
ostrom
ostroma
ostromlo
ostromolta
osva
oswald
osz
oszaka
osze
oszk
oszka
oszlik
oszlop
oszlopa
oszlopok
oszlopos
oszlott
oszma
oszt
oszta
osztag
oszthato
osztja
oszto
osztott
osztotta
osztottak
osztra
osztva
ot
other
otp
ott
ottan
ottani
otthagyta
otthon
otthona
otthoni
otthont
otto
ottoka
ou
our
out
ov
ova
over
overview
ovice
owen
own
oxford
oxfordi
oxid
oxida
oxige
oz
p
pa
pablo
pac
pacal
pacific
pacsirta
pad
padla
padlizsa
padlo
padova
padt
page
pages
pai
paiak
pain
pajta
pajzs
pajzsot
pak
pakiszta
paks
paksi
pal
pala
palace
palacsinta
palatinus
palazzo
paleontolo
paleontology
palermo
palesztin
palesztina
pali
pallas
palm
palma
palmer
palo
palota
pamela
pan
panama
panno
pannon
pannonhalma
pannonhalmi
pannonia
pannonius
panora
pantheon
paolo
pap
papa
papaga
paper
papers
papi
papja
papnevelo
papno
papok
papot
papp
pappa
paprika
papsa
par
para
paradicsom
paradise
paraguay
parame
paramount
parancs
parancsa
parancsnok
parancsnoka
parancsnoki
parancsnoksa
parancsot
paraszt
paraszti
parasztok
parasztsa
parazita
parcella
parfe
parfu
paripa
paris
park
parkban
parker
parkja
parkok
parkolo
parkot
parks
parlament
parlamenta
parlamentbe
parlamentben
parlamenti
parma
paro
paroch
part
partbi
parti
partial
partiumque
partiza
partja
partjaina
partner
partnere
partok
parton
partra
partrasza
partvide
party
pas
pasa
pascal
pass
passeriformes
passio
passion
passzi
past
pastora
pat
pata
patak
pataki
patakok
pataky
path
patika
patka
patko
patolo
patri
patricia
patrick
patro
paul
paula
paulo
pavel
pavlovics
payne
paz
pb
pbe
pben
pbo
pc
pcsarnok
pcso
pcsoport
pdal
pdalok
pdc
pdf
pdo
pe
peace
pearl
pearson
pecse
pecsenye
pecz
peda
pedago
pedig
pedro
peer
peerage
pei
pein
peinek
peit
peivel
pek
pekben
peken
peket
peking
pekingben
pekingi
pekkel
pekre
pele
pelika
pen
pene
penge
pengo
penguin
penn
pennsylvania
penny
pentium
pentru
peny
people
per
perben
perc
percben
perccel
perce
percek
percenke
perces
percet
perciformes
percig
perckor
percre
percy
pere
pereme
perepis
perfect
performance
perife
perigeuma
perio
period
perm
permeteze
permetle
pernyo
peronoszpo
perry
person
persona
personal
personen
perspekti
persze
pert
perth
peru
perui
perzsa
perzsia
pes
pesebb
pesek
pesi
pesse
pest
pesten
pesti
pestis
pestisja
pestre
pesu
peszto
pet
petar
pete
peter
peters
peterson
petho
peti
petit
peto
petr
petra
petri
petrik
petro
petrovics
pett
pez
peze
pezett
pezi
pezik
peznek
pezo
pezsgo
pezte
pezve
pfalz
pflin
pfo
pfok
pfoku
pg
pgya
pgyu
ph
pha
phadsereg
phase
phd
phegyse
phet
phetett
phez
phi
phil
philadelphia
philip
philipp
philippe
phillip
phillips
philosophy
pho
phoenix
phone
phonetic
photo
photos
php
phylogenetic
phylogeny
physical
physics
pi
pia
piac
piaca
piaci
piacon
piacra
piano
piarista
piazza
pic
picasso
pick
picture
pictures
pie
piemont
piemonti
pierce
pierre
pies
pietro
pihene
piheno
pikkelyes
pilis
pilisi
pilisvo
pillanat
pillanata
pillanatban
pillanatnyi
pillanatra
pillango
pillanta
pille
pilo
pilot
pim
pin
pince
ping
pinjin
pink
pinte
pinus
pinyin
pio
pioneer
pipa
pipari
piper
piquet
piramis
piri
pirodalmi
pirodalom
piros
piroska
pirta
pisa
pisko
piskola
piskolai
pista
piszkos
pisztoly
pitchfork
pittsburgh
pius
piusz
pizza
pja
pjen
pjotr
pke
pkeresztje
pko
pkocsi
pkor
pkorban
pkori
pkorporta
pl
pla
plabda
place
places
plaka
plan
planck
plane
planet
plans
plant
plants
plata
platform
platina
platinalemez
platinum
plato
play
player
players
playstation
plaza
plazma
ple
please
pleisztoce
plet
plete
pletyka
plinius
plioce
plo
plural
plus
plusz
pluto
plzen
pm
pma
pmatrix
pmese
pmid
pmu
pne
pnek
pni
pno
po
poc
pocket
pod
podaci
podmaniczky
poe
pofa
poga
poha
poharas
point
pok
poke
pokol
pol
pola
poland
polariza
pole
polga
poli
police
policy
polie
poline
polish
political
politico
politics
politika
politikai
politikailag
politikaporta
politikatudoma
politikus
politikusok
politiza
politolo
pollo
polna
polo
polt
poly
polyba
polyban
polydor
polyi
poma
pomera
pompa
pompeius
pongra
pons
pont
pontban
pontbo
ponte
pontja
pontjai
pontok
pontokat
ponton
pontos
pontosabb
pontosabban
pontosan
pontossa
pontot
pontoza
pontra
pontsza
pontszerzo
ponttal
pop
pope
popolazione
popula
popular
populat
population
populations
por
pora
porcela
porno
porosz
poroszorsza
porsche
port
porta
portal
porte
porter
portfolio
portland
porto
portrait
portre
portuga
portugal
portya
porzo
pos
post
posta
postai
postsa
poszt
poszta
posztja
poszto
poszton
posztot
posztumusz
pot
potencia
potter
pour
powell
power
powers
poz
pozi
poziti
poznan
pozsega
pozsony
pozsonyban
pozsonyi
pp
ppa
ppal
ppel
ppen
ppeni
ppontja
ppu
ppuska
pr
pra
practice
praha
prajz
prajzi
prajzkutato
pravoszla
pre
preci
prefektu
prefera
prefers
prege
pregled
preliminary
premier
premiere
premierje
premontrei
present
president
press
presser
preston
preszti
pretty
preview
pri
priberam
price
pride
priest
prilis
prilisa
prilisban
prilisi
prima
prime
primer
primiti
prince
princess
princeton
principles
print
prinz
priorita
priva
private
privatiza
prix
prize
pro
proble
problem
problems
proceedings
process
processzor
processzorok
producer
producere
producerei
producerek
produceri
producerke
product
production
productions
products
produka
produkcio
produkte
prof
professional
professor
professziona
professzor
professzora
professzori
profi
profil
profile
profilja
profit
program
programban
programja
programmal
programming
programok
programokat
programot
programoza
programozo
progress
progresszi
proha
project
projekt
projektek
projektet
projektje
proleta
prometheus
promo
propaganda
properties
prost
prostitua
protection
protein
protesta
protokoll
proton
prototi
provence
provincia
provoka
pru
ps
pse
psi
pso
psport
psu
psv
psychology
psychotria
psza
pszabadsa
pszava
pszavaza
pszeru
pszi
pszichia
pszichoakti
pszicholo
pszo
pszoka
pt
pta
ptalan
pte
ptek
ptelen
ptelenedett
ptelenne
ptelense
ptete
ptette
pto
ptolemaiosz
pu
pua
pub
public
publication
publications
publicista
publika
published
publishers
publishing
publius
puccini
puccs
pudingok
puerto
puglia
puha
puhatestu
pulitzer
punk
pure
purita
purple
pus
pusa
pusai
pusfaj
pusi
puska
puskin
pusok
pusokat
pust
pusu
puszta
pusztai
puszti
pusztula
pusztult
put
puto
putyin
puy
pva
pve
pvisel
pviselet
pviselete
pviseleti
pviseli
pviselik
pviselo
pviselt
pviselte
pviseltette
px
py
pyre
pythium
python
pze
pzele
pzelet
pzeletbeli
pzelheto
pzelni
pzelt
pzelte
pzene
pzenei
pzett
pzettse
pzo
q
qi
qia
qu
qua
quad
quarterly
quartet
quatre
que
queen
queens
quentin
quercus
quest
questions
qui
quinn
quintus
quo
r
ra
raa
raauto
rab
rabbi
rabla
rablo
rabsa
rabszolga
rabszolgasa
rac
race
rachel
racing
racingline
raciona
rad
rada
radar
rade
radi
radika
radio
radioakti
radno
rado
radon
radsa
radt
radtsa
radva
rady
raf
rafael
rafe
ragado
ragadozo
ragadta
ragaszkodott
ragoza
ragyog
ragyoga
ragyogo
rai
rail
railroad
railway
rain
rainak
rainbow
rainer
rait
raj
raja
rajmund
rajna
rajnai
rajongo
rajt
rajta
rajtam
rajtau
rajthoz
rajtuk
rajz
rajza
rajzfilm
rajzfilmsorozat
rajzok
rajzola
rajzolo
rajzolt
rajzolta
rajztana
rak
rakat
rakban
rake
rakja
rakle
rako
rakodo
rakoma
rakor
rakott
rakoza
rakozo
rakoztato
rakta
ral
ralaku
rali
ralja
rally
ralph
ram
rama
ramaros
ramko
ramla
ramlo
ramo
ramot
ramszesz
ramu
ran
randall
randelt
randevu
rando
random
randy
rang
rangado
rangban
range
rangers
rangja
rangle
ranglista
rangos
rangot
rangra
rangsora
rangsorola
rangu
ranking
ranunculus
rao
raoul
rap
rapa
rapid
rapora
rapper
rapszo
rard
rare
ras
rat
rata
ratai
ratban
rate
rati
ratings
ration
ratko
ratlan
ratlanul
ratok
ratokat
raton
ratot
ratta
rattal
ratu
rau
rava
ravasz
raw
ray
raymond
raz
razabb
razfo
razon
razonosi
razsa
rb
rba
rbaj
rbajto
rban
rbe
rbeli
rben
rbesze
rbet
rbo
rboga
rbu
rc
rca
rce
rcius
rciusa
rciusban
rciusi
rcs
rcsa
rcsak
rcso
rczi
rd
rda
rdai
rde
rdek
rdeke
rdekeit
rdekek
rdekelt
rdekelte
rdekeltse
rdekes
rdekesebb
rdekesse
rdekli
rdeklo
rdeku
rdeme
rdemei
rdemel
rdemelte
rdemes
rdemkereszt
rdemrend
rdeze
rdezi
rdezo
rdezte
rdi
rdo
rdoba
rdok
rdonyi
rdos
rdot
rdsa
rdu
rduc
rdy
re
rea
read
reader
reading
ready
reaga
reakcio
real
realista
reality
realizmus
really
rebecca
rebel
rebels
rec
recenzio
recept
receptek
receptor
reciproka
record
recorded
recording
records
red
rede
redensarten
redi
redo
reduka
reed
reeder
reeves
ref
referee
reference
referencia
reform
reforma
reformja
reformok
refre
reg
regben
regcsala
rege
regede
regek
regenera
reges
reget
reggae
reggel
reggeli
reggio
regi
regia
regime
regina
regio
region
regiona
regional
regis
register
regiszter
regisztra
regna
regni
regnorum
rego
regula
regyha
rehabilita
rehaladta
rei
reich
reid
reinek
reit
reivel
rejelze
rejlik
rejlo
rejt
rejte
rejtett
rejto
rejtve
rek
rekedett
rekedtek
reket
rekkel
rekla
rekonstrua
rekonstrukcio
rekord
rekordja
rekordok
rekordot
rekszik
rektor
rektora
rekve
rekvo
rel
rela
related
relati
relations
relationships
relativita
rele
release
released
releases
relem
religion
religious
relme
relmet
relt
relte
rem
remake
reme
remek
remekmu
remeku
remember
remete
remix
remle
remmel
remmu
remove
ren
rena
renaissance
renault
rend
rendbe
rendben
rende
rendek
rendele
rendelet
rendelete
rendeletek
rendeletet
rendelkeze
rendelkezett
rendelkezik
rendelkeznek
rendelkezo
rendelkeztek
rendellenesse
rendelo
rendelt
rendelte
rendeltek
rendeltete
rendeltse
rendelve
rendes
rendesen
rendet
rendez
rendeze
rendezett
rendezi
rendezik
rendeznek
rendezni
rendezo
rendezte
rendeztek
rendezve
rendha
rendhagyo
rendi
rendiha
rendje
rendki
rendo
rendre
rendsza
rendszer
rendszerbe
rendszerben
rendszerbesorola
rendszere
rendszerek
rendszerekben
rendszereket
rendszeren
rendszeres
rendszeresen
rendszeresi
rendszeresse
rendszereze
rendszerhez
rendszerint
rendszernek
rendszerre
rendszerrel
rendszert
rendszertani
rendszeru
rendszerva
rendu
rene
renesza
rengeteg
renova
renyomula
repede
reperto
repertoa
repertorium
replika
report
reporter
reports
reprezenta
reprezentati
reprint
repte
repu
repubblica
republic
republika
republike
requiem
rer
res
research
resebb
resek
resen
reserve
resident
residente
resource
resources
resse
rest
restaura
result
results
reszko
ret
retara
retben
rete
retei
retek
retes
retet
reti
retlen
reto
retorika
retrieved
retro
rett
rette
rettege
rettel
rettenetes
rettento
rettse
retu
return
returns
reuma
reuters
rev
revealed
reveals
reverso
revi
review
reviews
revised
revolution
revue
rex
rey
reyes
reynolds
rez
rezerva
rezge
rezgo
rezheto
rezidencia
rezni
rezred
rezsim
rezso
rezte
reztem
rfa
rfaj
rfdef
rfe
rffy
rfi
rfiak
rfiakat
rfiakna
rfinak
rfine
rfit
rfiu
rfo
rfogata
rfordi
rfu
rg
rga
rgare
rge
rgek
rgen
rges
rget
rgette
rgey
rgeze
rgezo
rggyel
rgo
rgro
rgy
rgya
rgyai
rgyak
rgyakat
rgyala
rgyalja
rgyalo
rgyalt
rgyat
rgyi
rgyko
rgynek
rgyo
rgyu
rha
rhajo
rhajto
rhat
rhato
rhe
rhedt
rhegy
rhegyi
rhely
rhelyen
rhelyi
rhet
rhetetlen
rhetett
rheti
rheto
rhette
rhez
rhin
rho
rhodes
rhol
rhoz
rhuzamos
rhuzamosan
rhythm
ri
ria
riaa
riai
riak
riaszto
ric
rica
ricardo
rice
rich
richa
richard
richards
richardson
richi
richmond
richter
rick
rico
ricz
rida
ride
rideg
rido
rie
riemann
rig
riga
rigazgato
right
rightarrow
rights
rigo
rihanna
rik
rika
rikus
riley
rin
rinc
rincz
ring
ringia
rint
rinte
rintetlen
rintett
rintette
rinti
rintik
rintkeze
rinto
rio
riport
riporter
ris
risc
rise
rising
risk
rit
rita
ritka
ritkasa
ritmusgita
ritter
ritua
rium
riuma
riumba
riumban
riumi
riumok
riumokat
riumos
riumot
rius
riusok
riva
rivaliza
river
rivie
riz
rizetbe
rizni
rizs
rizsba
rizsban
rizses
rizsi
rizst
rizte
rizze
rj
rja
rjai
rje
rjegyzo
rjen
rjenek
rjhez
rjo
rjon
rju
rjuk
rk
rka
rkamra
rkane
rkapita
rkari
rkaste
rkdartists
rke
rkert
rkeze
rkezett
rkezik
rkeznek
rkezo
rkeztek
rkezve
rki
rko
rkonyi
rku
rkus
rkutata
rla
rlabda
rlap
rlapi
rlat
rle
rleg
rlek
rlet
rlete
rletek
rleteket
rletet
rleti
rli
rlik
rlo
rm
rma
rman
rmas
rmat
rmaza
rmaze
rmazik
rmaznak
rmazo
rmazott
rmazottai
rmazottja
rmaztak
rmdsz
rme
rmegye
rmegyei
rmele
rmely
rmelyik
rmendi
rmes
rmese
rmesek
rmester
rmestere
rmesteri
rmet
rmezo
rmi
rmikor
rmilyen
rmin
rmit
rmo
rmu
rn
rna
rnagy
rnai
rnak
rnap
rnapi
rnapja
rnberg
rnbergi
rne
rnek
rneve
rnevet
rni
rnia
rnie
rno
rnok
rns
rny
rnya
rnyai
rnyak
rnyalatu
rnyas
rnyasok
rnyat
rnye
rnyek
rnyeteg
rnyezet
rnyezetben
rnyezete
rnyezetet
rnyezeti
rnyezetu
rnyezetve
rnyezo
rnyfeszta
rnyi
rnyoma
rnyu
ro
road
rob
robbana
robbano
robbant
robbanta
robbie
robert
roberto
roberts
robertson
robin
robinson
robot
roche
rock
rockegyu
rocket
rocky
rockzene
rod
rodotosz
rodri
rodrigo
rodriguez
roger
rogers
rohamosan
rohan
roi
rok
rokat
rokban
rokkal
roknak
rokoko
rokon
rokona
rokonai
rokoni
rokonok
rokonsa
rokozo
rokra
rol
rola
roland
role
rolf
rolhato
roli
rolja
roll
rolling
rollyal
rolni
rolo
rolt
rolta
roltak
roly
rolyi
rolyt
rolyva
rom
roma
romagna
romain
roman
romance
romania
romano
romantika
romantikus
romba
romban
rombolo
romdimenzio
rome
romeo
romfe
romha
romi
romjai
romla
romlott
romok
romos
romsa
romsza
romsze
romszo
romszor
romszoros
romva
ron
ronald
ronaldo
ronga
rongyos
ronnie
room
roosevelt
root
roots
roppant
rorosz
roroszorsza
rorsza
ros
rosa
rosai
rosario
rosba
rosban
rosberg
rosbo
rose
rosenberg
roses
rosha
roshoz
rosi
roska
roske
rosko
rosnak
rosoda
rosok
rosokat
rosokban
roson
rospatak
rospataki
rosra
rosre
rosro
ross
rossa
rossal
rossi
rossini
rossz
rosszabb
rosszat
rosszindulatu
rosszul
rost
rosta
rosto
rosz
rota
roth
rott
rotten
rotterdam
rouge
round
rousseau
route
routledge
rova
rovar
rovaro
rovarok
rovarokat
rovarokkal
rovat
rovata
rovers
roxette
roy
royal
roz
roza
rozat
rozata
rozatlan
rozatot
rozgonyi
rozhato
rozni
rozo
rozott
rozottan
rozsda
rozsnyo
rozta
roztak
rozva
rozza
rp
rpa
rpalota
rpe
rpl
rpm
rpo
rporta
rr
rra
rral
rre
rrel
rrepu
rro
rs
rsa
rsadalma
rsadalmat
rsadalmi
rsadalom
rsadalomban
rsadalombiztosi
rsadalomtudoma
rsai
rsaik
rsainak
rsait
rsaival
rsak
rsake
rsalapi
rsas
rsasa
rse
rsege
rsek
rseke
rseki
rsekse
rseku
rselno
rsi
rso
rson
rsony
rsonyos
rsssf
rsszerkeszto
rsszerzo
rst
rsula
rsulat
rsulata
rsult
rsuralkodo
rsz
rsza
rsze
rszege
rszeru
rszerze
rszerzo
rszi
rszo
rszolga
rszonda
rt
rta
rtai
rtak
rtam
rtan
rtani
rtanu
rtatlan
rtatlansa
rtba
rtbo
rte
rted
rtek
rtekeze
rtelem
rtelemben
rtelemszeru
rtelen
rtelme
rtelmes
rtelmeze
rtelmezett
rtelmezheto
rtelmezo
rtelmezte
rtelmi
rtelmise
rtelmu
rtem
rten
rtendo
rtenek
rteni
rteru
rtes
rtesi
rtesu
rtet
rtett
rtette
rtevo
rtfo
rtfogo
rthetetlen
rtheto
rthoz
rti
rtik
rtja
rtju
rtko
rtl
rtma
rtnak
rto
rtogato
rtok
rtolo
rton
rtoni
rtorony
rtot
rtott
rtotta
rtottak
rttal
rttemberg
rttembergben
rtu
rtudoma
rtus
rtve
rtya
ru
ruanda
rubicon
rubin
ruby
rudolf
rue
rufus
rugalmas
rugalmassa
rugo
ruha
ruiz
ruk
rul
rula
rule
rules
rulja
rulnak
rulo
rult
rulta
rultak
rum
ruma
run
rung
runk
running
rupert
rus
rusa
rusbetegse
rush
rusi
rusok
rusos
russell
russia
russian
russula
rust
rusz
ruszin
rut
ruth
rv
rva
rvaha
rve
rvele
rvendett
rvere
rvi
rvide
rvila
rvo
rvoka
rvonala
ry
ryan
ryne
rz
rza
rze
rzelem
rzelmek
rzelmi
rzem
rzet
rzetben
rzete
rzetet
rzeti
rzett
rzi
rzik
rzo
rzott
rzs
rzse
rzsek
rzsfo
rzsi
rzso
rzsu
s
sa
sabb
sabbath
sablon
sablont
sachsen
sad
safety
saga
sah
sai
saiban
saibo
said
saihoz
saik
saikat
sailor
sain
sainak
saint
sainte
saira
sairo
sait
saito
saival
saja
sajna
sajnos
sajo
sajt
sajto
sajtos
sak
saka
sake
sakk
sakkolimpia
sakkozo
sakkszo
sakkvila
sakor
sal
sala
salamon
sale
salerno
sales
salgo
sally
salon
salt
salvador
salvatore
salzburg
salzburgi
sam
samantha
same
samsung
samu
samuel
san
sana
sancho
sand
sanders
sandra
sandy
sang
sanghaj
sankt
sant
santa
santiago
santo
santos
sao
sapka
sar
sara
sarah
sarja
sarka
sarkantyu
sarki
sarkvide
sarlo
sarok
sarolta
sas
sat
sata
satellite
saturday
saturn
sau
saul
sav
savage
savanyu
savaria
savas
save
savoie
savoyai
sawyer
say
says
sb
sba
sban
sbarna
sbe
sbeli
sbemutato
sben
sbo
sc
scala
scandal
scene
scha
schalke
schedule
schiller
schleswig
schmidt
schmitt
schneider
scho
school
schro
schu
schubert
schumacher
schuster
schwartz
schwarz
sci
science
sciences
scientific
scooby
scooter
score
scores
scoreshelf
scotland
scott
scottish
scout
screen
scriptstyle
scsaba
scsabai
scso
sd
sdad
sdi
se
sea
sean
search
season
seat
seattle
seb
sebastian
sebb
sebbek
sebben
sebe
sebes
sebesse
sebestye
sebesu
sebet
sebezheto
sebo
sec
second
secret
secrets
section
security
sed
see
sega
sege
segesva
segi
sehol
sei
seiben
seibo
seik
seiket
sein
seine
seinek
seink
seire
seiro
seit
seivel
sejt
sejte
sejtek
sek
sekben
sekbo
seke
seken
seket
sekhez
sekkel
sekne
seknek
sekor
sekre
sekrestye
sekro
sekto
sel
sele
selected
selection
selejtezo
selejtezte
self
selme
selmecba
selo
selyem
selymes
sem
semleges
semlegesnemu
semlegesse
semmelweis
semmi
semmife
semmike
semmilyen
semmisi
semmit
sen
senate
senators
senecio
senior
senke
senki
senkinek
senkit
senna
seoul
sepsiszentgyo
sept
september
ser
serbia
serdu
sere
sereg
serege
seregei
seregek
sereget
sereggel
serena
sergio
serie
series
serte
server
service
services
ses
sesbarna
session
set
sete
seth
sets
sett
seu
seven
sevilla
sevo
sex
seymour
sf
sfa
sfe
sfehe
sfejleszte
sfelelo
sfelo
sfo
sfoglala
sforma
sfu
sg
sga
sgomba
sgyo
sh
sha
shadow
shadows
shajo
shakespeare
shall
shane
shang
shanghai
shannon
shark
sharon
sharpe
shaw
shawn
she
sheet
sheffield
shell
shelley
sherlock
sherman
shez
shi
shield
shin
ship
ships
shirley
sho
shol
shonos
shop
short
shot
should
show
shows
shoz
shtml
shu
shueisha
si
sia
sibb
sic
sica
sich
sid
side
sidney
sido
sie
siebenbu
siegfried
siemens
sierra
siet
sietett
sietve
sig
sigma
sign
signs
sik
sika
sikat
siker
sikere
sikerei
sikereit
sikerek
sikereket
sikeres
sikeresen
sikeresnek
sikerre
sikerrel
sikert
sikertelen
sikertelenu
sikeru
siklo
sikra
silag
silent
silla
silva
silver
sim
sima
simmons
simo
simon
simone
simonyi
simple
simpson
sin
since
sinclair
sincs
sing
singapore
singer
single
singles
sio
sion
sipos
sir
sira
sis
sisak
sisakdi
sister
sit
site
sites
siva
sivatag
sivatagban
sivatagi
sive
six
size
sj
sja
sjeggyel
sjegyet
sjo
sjon
sk
ska
skala
skandina
ske
skereszt
skert
ski
sko
skoda
skodik
skodnak
skopje
skor
skori
skorpio
sku
sky
skywalker
sl
sla
slakos
slakosok
slam
sle
sleep
slo
slovenska
sm
sma
small
smallville
smart
smarty
sme
smegjelo
smile
smith
smithsonian
smo
sms
smu
sn
sna
snac
snak
snap
snapi
snapja
sncf
sne
snek
sno
snow
so
soc
soccer
soccerbase
soccerway
social
socie
society
sod
soda
sodik
sodikat
sodikke
sodlagos
sodo
sodoszta
sodott
sodperc
sodpercben
sodperccel
sodperces
sodra
sodrendu
sodro
sodszor
sofia
sofo
software
soha
sohase
sohasem
sok
soka
sokak
sokan
sokasa
sokat
sokba
sokban
sokbo
soke
sokfe
sokfele
sokhoz
sokkal
sokna
soknak
sokoldalu
sokon
sokra
sokre
sokro
sokszi
sokszo
sokszor
sokto
sol
sola
solar
solaris
solat
solata
solid
solja
solni
solo
solomon
solt
solta
solte
solyma
som
soma
some
somerset
something
somlo
somlyo
somme
somogy
somogyi
son
song
songs
sonic
sonny
sons
sony
soo
sophia
sophie
sopron
sopronban
soproni
sor
sora
sorai
soraiban
sorba
sorban
sorbo
sorhajo
sorok
sorokat
sorokban
soroksa
sorolhato
sorolja
sorolt
sorolta
soron
soros
sorozat
sorozata
sorozatba
sorozatban
sorozatbo
sorozatgya
sorozatjunkie
sorozatnak
sorozatok
sorozatokban
sorozatos
sorozatot
sorozatu
sorra
sorrend
sorrendben
sorrendet
sorrendje
sors
sorsa
sorsola
sorsolta
sorsuga
sorsza
sort
sortu
sorvezeto
sos
sosabb
sose
sosem
sossa
sot
sott
soul
sound
soundtrack
source
sources
sous
south
southampton
southern
sova
soviet
sozo
sozott
sp
spa
space
spacefacts
spain
spanish
spanyol
spanyolok
spanyolorsza
spanyolul
spartacus
spd
spears
specia
special
specializa
species
specifika
specifikus
speed
spencer
spider
spiegel
spielberg
spike
spin
spira
spirit
spiritua
split
spo
spokane
spont
sponta
spontja
sport
sporta
sporte
sportegyesu
sporteseme
sporting
sportkiado
sportko
sportlo
sportolo
sportpa
sportporta
sports
sportu
sportvezeto
spp
spring
springer
springs
sprint
spy
sqrt
squad
square
sr
sra
sre
sri
sro
ss
ssa
ssal
ssalhangzo
sse
ssel
sseldorf
ssp
ssy
ssz
ssza
sszabadsa
sszal
ssze
sszea
sszeada
sszebara
sszecsapa
sszee
sszeesku
sszefoga
sszefoglala
sszefoglalo
sszefono
sszefu
sszeg
sszege
sszegeke
sszeget
sszegu
sszegyu
sszeha
sszehasonli
sszehi
sszehozta
sszehu
sszei
sszejo
sszekapcsola
sszekapcsolo
sszeko
sszel
sszelben
sszeli
sszeno
sszeomla
sszeomlott
sszeru
sszes
sszesen
sszesi
sszesse
sszete
sszetett
sszetettben
sszetevo
sszeto
sszetu
sszeu
sszevona
sszevonta
sszhangban
sszo
sszpontosi
sszpontsza
sszu
st
sta
stabil
stabila
stabilita
stabiliza
stadion
stadionban
stadionja
stadiont
stadium
stadt
staff
stage
stalan
stan
stana
stand
standard
stanford
stani
stanisław
stanley
stanovnika
stanovnis
star
stark
stars
start
stat
state
statement
states
statikus
station
statisticae
statistical
statistics
statistik
statistikportal
statistiku
statisztika
statisztikai
stats
status
stay
stazione
stb
ste
stechnika
stechnikai
steel
stefa
stefan
stefano
stein
steiner
stella
step
stephan
stephanie
stephen
sterling
stern
sterreich
sterreichischen
steve
steven
stevens
stewart
sti
stiliza
still
stimula
sto
stock
stockholm
stockholmban
stockholmi
stoke
stone
stones
stop
store
storia
stories
storm
story
str
stra
strand
strange
strasbourg
strate
strauss
stream
streaming
street
stressz
strike
string
stro
strong
structure
struktu
struktura
sts
stu
stuart
student
studia
studies
studio
studios
studoma
study
sturm
stuttgart
stya
style
styles
su
sua
sub
subjunctive
subsp
success
sud
sue
suga
sugar
sugara
sugarasu
sugaru
sui
suite
suk
sukat
sukkal
sukra
sul
sula
sulinet
sullivan
sulo
sult
sum
sumer
summa
summary
summer
sun
sunday
sunderland
sunk
super
superior
superman
support
sur
sura
suriname
survey
sus
susan
suta
sutt
suzuki
sv
sva
sve
sven
svensk
sveti
svezeto
svila
svo
sweden
swedish
swedishcharts
sweet
swift
swing
swiss
swisscharts
switch
sy
sydney
sylvester
sylvia
symphony
syn
syndrome
syria
syrian
system
systematic
systems
sz
sza
szaba
szabad
szabadalmi
szabadedze
szabadelvu
szabadfoga
szabadi
szabadido
szabadka
szabadkai
szabadko
szabadla
szabadon
szabados
szabadsa
szabadte
szabadu
szabadula
szabadult
szablya
szabo
szabolcs
szabolcsi
szabott
szabva
szaga
szagu
szahara
szai
szak
szaka
szakabbra
szakad
szakada
szakade
szakadt
szakasz
szakasza
szakaszban
szakaszok
szakaszon
szakaszt
szakban
szakbo
szake
szakember
szakemberek
szakfolyo
szaki
szakibb
szakira
szakirodalom
szakirodalomban
szakiskola
szakkal
szakke
szakkelet
szakkeleti
szakkeletre
szakko
szakkolle
szakma
szakmai
szakmunka
szaknak
szaknyugat
szaknyugati
szaknyugatra
szakon
szakos
szakosan
szakosodott
szakoszta
szakot
szakra
szakro
szakszeru
szakszervezetek
szakszervezeti
szakteru
szal
szala
szalag
szalai
szalay
szalka
szalma
szalon
szalonna
szama
szamos
szamura
szana
szanato
szandzsa
szaniszlo
szanszkrit
szapa
szapolyai
szapori
szaporoda
szarajevo
szardi
szarka
szarkofa
szarva
szarvas
szarvasgomba
szarvasmarha
szat
szata
szatban
szathma
szati
szatirikus
szatma
szatot
szatporta
szattal
szaturnusz
szau
szava
szavai
szavait
szavak
szavakat
szavakban
szavakbo
szavakkal
szavanna
szavaza
szavazat
szavazata
szavazatok
szavazatot
szavazattal
szavazo
szavazott
szaxofon
szbe
szben
szbere
szbo
szda
szdoktori
szdsz
sze
szebb
szeben
szecesszio
szecske
szede
szedett
szedo
szedte
szeg
szege
szeged
szegeden
szegedi
szegen
szegfu
szegi
szego
szegomba
szegyesu
szei
szein
szeinek
szeit
szek
szekalja
szekben
szekbo
szekcio
szeke
szeken
szekeres
szeket
szekkel
szeknek
szekre
szeksza
szekta
szektor
szekvencia
szel
szele
szelek
szelekti
szelet
szeli
szellem
szelleme
szellemek
szellemi
szellemise
szellemu
szello
szelte
szelve
szem
szembe
szemben
szembena
szembene
szembeni
szembesu
szembesza
szemcse
szeme
szemed
szemei
szemeit
szemek
szemekkel
szemelve
szemem
szemere
szemet
szemina
szemko
szemle
szemmel
szemo
szempont
szempontbo
szempontja
szempontok
szemszo
szemtanu
szemu
szen
szena
szende
szendro
szendvics
szendvicsek
szendvicskre
szenega
szenes
szenet
szennyezo
szennyvi
szent
szente
szentek
szentelt
szentelte
szenteltek
szentelve
szentendre
szentendrei
szentes
szentesi
szentfo
szentgottha
szentgyo
szentha
szenti
szentiva
szentje
szentkira
szentle
szentma
szentmiha
szentmiklo
szentmise
szentpe
szentse
szentsze
szentte
szenved
szenvede
szenvedett
szenvedo
szenvedtek
szenza
szeo
szeparatista
szepes
szepesi
szeplo
szept
szeptember
szeptemberben
szeptembere
szeptemberi
szeptemberig
szer
szerb
szerbek
szerbhorva
szerbia
szerbiai
szerbu
szerda
szerdahelyi
szere
szerek
szereket
szerekkel
szerele
szerelem
szerelme
szerelmem
szerelmes
szerelmesek
szerelmet
szerelmi
szerelo
szerelt
szerelte
szereltek
szerelve
szerencse
szerencseja
szerep
szerepben
szerepe
szerepei
szerepek
szerepekben
szerepeket
szerepel
szerepelnek
szerepelt
szerepeltek
szerepet
szerephez
szerepja
szerepko
szereple
szereplo
szereposzta
szerepre
szerepu
szeres
szeret
szeretem
szeretet
szeretete
szeretett
szeretettel
szereti
szeretik
szeretlek
szeretne
szeretnek
szeretni
szereto
szerette
szerettek
szerettem
szerez
szerezni
szerezte
szereztek
szerezve
szerezzen
szergej
szerint
szerinte
szerinti
szerintu
szerk
szerke
szerkeszte
szerkesztett
szerkesztette
szerkeszto
szerkezet
szerkezete
szerkezetek
szerkezetet
szerkezeti
szerkezetu
szerrel
szersza
szert
szertarta
szerte
szeru
szerv
szerva
szerve
szervek
szerver
szerves
szervetlen
szervez
szerveze
szervezet
szervezetben
szervezete
szervezetek
szervezetet
szervezeti
szervezetnek
szervezett
szervezi
szervezkede
szerveznek
szervezo
szervezte
szerveztek
szervi
szerzeme
szerzetes
szerzetesek
szerzetesi
szerzett
szerzi
szerzo
szes
szese
szesede
szesi
szesu
szesze
szet
szetben
szetbo
szete
szetek
szetes
szetesen
szetet
szetfeletti
szethez
szeti
szetja
szetkalauz
szetnek
szetporta
szetre
szetro
szett
szettel
szetto
szettudo
szettudoma
szetu
szetve
szex
szexferomon
szexua
szexualita
szezon
szezonban
szezonja
szezonra
szezont
szfe
szge
szha
szhez
szi
szia
szibe
szici
szido
szig
sziget
szigetcsoport
szigete
szigetek
szigeteken
szigeteket
szigeteki
szigetekre
szigetekro
szigetele
szigetelo
szigeten
szigetet
szigeti
szigetorsza
szigetre
szigetro
szigetva
szigligeti
szigoru
szik
szikla
sziklay
szikra
szila
szile
szili
szilva
szilveszter
szilvia
szimbo
szimbolikus
szimboliza
szimfo
szimfonikus
szimmetria
szimmetrikus
szimpatiza
szimula
szindba
szindro
szine
szingapu
szinhaz
szinkron
szinkronadatba
szinkronhangja
szinkroniza
szinkronrendezo
szinkronszi
szinnyei
szinonima
szinonimaszotar
szint
szinte
szinten
szintet
szintetikus
szintetiza
szintje
szintre
szintu
szirmai
szirmay
sziro
szirom
sziszek
szita
szitako
szitua
sziva
szivattyu
szive
szivem
szjelente
szka
szke
szkel
szkelo
szkese
szket
szki
szko
szku
szla
szlaja
szlavo
szle
szleg
szlege
szleges
szlegesen
szlele
szlelheto
szlelte
szleng
szlet
szlete
szletei
szleteit
szletek
szleteket
szletes
szletesen
szletet
szlettervezo
szlo
szlova
szlove
szme
szmu
szna
sznak
szne
sznek
szneve
szni
szno
sznon
szo
szoba
szobala
szobor
szoboszlo
szobra
szobrai
szobrok
szobrokat
szobrot
szocia
szocialista
szocializmus
szociolo
szoftver
szoftverek
szojuz
szok
szoka
szokat
szokatlan
szokatlanul
szoknya
szokott
szokta
szoktak
szokva
szolga
szolgabi
szolidarita
szolnok
szolnoki
szoma
szombat
szombathely
szombathelyen
szombathelyi
szombati
szombaton
szomoru
szomsze
szon
szona
szonda
szopra
szor
szorgalmazta
szori
szoronga
szoros
szorosan
szorsza
szorul
szorulo
szorult
szorza
szorzata
szorzattal
szos
szotar
szott
szovjet
szovjetek
szovjetunio
szpe
szpolga
szponzora
szre
szrepu
szreve
szreveheto
szreveszi
szrevette
szro
szse
szt
szta
sztak
sztaki
szte
sztelep
sztenderd
szteru
sztette
sztevanovity
szto
sztor
sztori
sztorok
sztorsza
sztra
sztu
sztvevo
szu
szuahe
szubjekti
szubtro
szuda
szulejma
szulfa
szulta
szuma
szung
szunnita
szuper
szuperho
szuperkupa
szurdok
szurkolo
szuvere
szuverenita
szva
szve
t
ta
tab
taba
tabella
table
tables
tabletta
tabulis
tada
tadja
tadni
tado
tadott
tadta
tag
taga
tagada
tagadja
tagadta
taggal
tagja
tagjai
tagjainak
tagjait
tagjaival
tagjake
tagmondatban
tagok
tagola
tagolja
tagolo
tagolt
tagorsza
tagot
tagozat
tagozata
tagsa
tagu
tai
tait
taival
tajvan
tajvani
tak
taka
takare
takari
takarja
takarma
takaro
take
takes
taktika
taktikai
tal
tala
talaj
talaja
talajban
talajferto
talajon
talajt
talaju
talaki
talakula
talakult
tale
talent
tales
talja
taljai
talk
talks
tallinn
tallo
talpa
tam
tama
tamara
tan
tana
tanak
tando
tane
tanfolyamot
tang
tango
tangorin
tani
tania
taninte
taniuk
tank
tanko
tano
tansze
tanta
tanu
tanul
tanula
tanulma
tanulni
tanulo
tanulsa
tanult
tanulta
tanya
tanza
tao
tapasztalat
tapasztalata
tapasztalatai
tapasztalatait
tapasztalatok
tapasztalhato
tapasztalt
taplo
tapolca
tapolcai
tar
tara
taranto
target
tarja
tarka
tarki
tarko
tarn
taro
tarsoly
tart
tarta
tartale
tartalma
tartalmaz
tartalmaznak
tartalmazo
tartalmazott
tartalmazta
tartalmazza
tartalmi
tartalmu
tartalom
tartalomaja
tartalomjegyze
tartam
tartama
tartanak
tartani
tartja
tarto
tartoma
tartott
tartotta
tartottak
tartoza
tartoze
tartozik
tartoznak
tartozo
tartozott
tartoztak
tartsa
tartva
tarzan
tas
tasna
taszi
tat
tata
tataba
tatai
tate
tatlan
tau
taurus
tava
tavak
tavaly
tavasszal
tavasz
tavasza
tavaszi
tavat
tavi
taxi
taxon
taxonomic
taxonomy
taylor
tb
tba
tban
tbarna
tbe
tben
tbo
tc
tcr
tcsoportosi
td
tdolg
tdolgoza
tdolgozott
tdolgozta
te
tea
team
teams
tears
teasu
teatro
teau
tebb
tech
technical
technika
technikai
technolo
technology
ted
teddy
tee
teen
teendo
tefan
teg
tegben
tege
tegek
teget
tegnap
tegu
tegye
tegyen
tegyu
teha
tehe
teher
tehera
teherauto
tehersza
tehet
tehetetlense
teheto
tehetse
tei
tej
tejes
tejet
tejfo
tejszi
teju
tek
teke
teken
teket
tekint
tekinte
tekintenek
tekinteni
tekintet
tekintetben
tekintete
tekintett
tekintette
tekintettek
tekintettel
tekintheto
tekinti
tekintik
tekintju
tekinto
tekintve
tekno
tel
telben
tele
telefon
telefonon
telegraph
telei
teleinek
teleiro
teleit
telek
teleken
teleket
teleki
telekkel
telekom
telekro
telen
telenovella
telep
telepe
telepedett
telepedtek
telepek
telepen
telepesek
telepet
telepi
telepu
teles
telesen
telesse
telet
televi
television
telex
teleze
telezett
telezettse
telezheto
telezi
telezik
telezo
telezte
teli
telik
teljes
teljesebb
teljesen
teljesi
teljesse
teljesu
telke
telket
tell
tellel
telnek
telre
telt
telte
telten
telu
telve
tem
tematika
tematikus
temben
teme
temes
temesva
temete
temetkeze
temeto
temette
temple
templom
temploma
templomai
templomba
templomban
templombo
templome
templomi
templommal
templomnak
templomok
templomokat
templomot
tempo
temu
ten
tendencia
tendo
tene
tenek
tengely
tengelye
tengelyelrendeze
tenger
tengeralattja
tengerbe
tengerben
tengere
tengerek
tengeren
tengerentu
tengeri
tengermelle
tengernagy
tengerpart
tengerparti
tengerparton
tengerre
tengerszint
tengert
teni
tenie
tenisz
teniszezo
teniszporta
tenne
tennessee
tenni
tennie
tennis
tenor
tenye
tenyere
teo
teolo
ter
tera
terasz
terben
tere
terek
tereket
terem
teremben
teremt
teremte
teremteni
teremtett
teremtette
teremtme
teremto
teren
terence
terepen
teres
teresa
teret
terhe
terhele
terhes
terhesse
teri
terjed
terjede
terjedelmes
terjedelmu
terjedo
terjedt
terjedtek
terjeszkede
terjeszte
terjesztett
terjesztette
terjeszto
term
terma
terme
termel
termele
termelo
termelt
termeszte
termesztett
termesztik
termet
termett
termetu
termina
terminolo
termo
terne
ternek
ternyi
ternyire
terra
terre
terrel
terro
terror
terrorista
terry
terszelve
tert
teru
terv
terva
terve
tervei
terveit
tervek
terveket
tervet
terveze
tervezete
tervezett
tervezi
tervezik
tervezo
tervezte
terveztek
tes
tese
tesett
tesi
tesla
tesse
tesszu
test
testben
teste
testek
testet
testhossza
testi
testnevele
testo
testre
testsu
testto
testu
testve
tesu
tesz
teszi
teszik
tesznek
teszt
tesztek
tesztele
tesztelte
teszu
tet
tetben
tete
tetei
teteje
tetek
tetes
tetet
tetlen
teto
tetova
tetsze
tetszett
tetszik
tetszo
tett
tette
tettek
tettem
tetto
tettu
teve
tevo
texas
texasi
text
textil
teze
tezer
tezett
tezik
teznek
tezo
teztek
tfalusi
tfe
tfo
tfogo
tfrac
tfu
tg
th
tha
thai
thaifo
thalad
thalado
thames
than
tharmada
thassa
that
thatatlan
thatja
thatjuk
thatnak
thato
thatott
thatta
thatunk
the
theater
theatre
thefreedictionary
their
thelyeze
thelyezte
them
theme
then
theo
theodor
theodore
theory
therapy
there
theropoda
thesaurus
these
thet
theta
thetetlen
theti
thetik
theto
thette
they
thi
thing
things
think
third
this
tho
thomas
thompson
thomson
thor
thori
thory
thousand
thoz
thrash
threatened
three
thriller
through
thu
thumb
thunder
thursday
thurzo
thy
ti
tia
tiberius
tibet
tibeti
tibor
tico
tie
tien
tienne
tig
tigazola
tiger
tigris
tihame
tihanyi
tik
tika
tikai
tikalauz
tiko
tikus
til
till
tilos
tilta
tiltakoza
tiltakozott
tiltott
tiltotta
tim
tima
time
timeline
times
timo
timothy
tin
tina
tine
tini
tino
tinta
tipikus
tipikusan
tippek
tira
tirana
tirane
tirol
tiroli
tis
tisi
tisza
tiszai
tiszata
tiszt
tiszta
tisztasa
tiszte
tisztek
tisztelet
tiszteletbeli
tiszteletben
tisztelete
tiszteleti
tisztelettel
tisztelt
tisztelte
tisztesse
tisztet
tiszti
tisztikeresztje
tisztje
tisztogata
tisztse
tisztviselo
tit
tita
titanic
titel
titka
titkai
titkok
titkos
titkosi
titkosszolga
title
tito
titok
titokban
titokzatos
titula
titus
tivadar
tizedik
tizedjegyze
tizene
tizenegy
tizenegyedik
tizenha
tizenharmadik
tizenhat
tizenhatos
tizenhe
tizenke
tizenkettedik
tizenketto
tizenkilenc
tizenne
tizennegyedik
tizennyolc
tizeno
tja
tjai
tje
tju
tjuk
tjukat
tk
tka
tke
tkele
tkelo
tkelt
tkeru
tkeze
tkezo
tko
tkozott
tkp
tla
tlag
tlaga
tlagho
tlagos
tlagosan
tlan
tlanul
tle
tlen
tleni
tlense
tlenu
tlet
tlete
tletet
tlfi
tli
tlo
tm
tma
tme
tmenet
tmeneti
tmenetileg
tmeno
tment
tmillio
tmutata
tmutato
tna
tnak
tne
tnek
tnevezte
tni
tnivalo
tno
tnyelvu
tnyu
to
tobago
tod
today
todd
todor
togat
togata
togathato
togatja
togato
togatott
togatta
together
togo
toja
tojo
tok
tokaj
tokaji
tokat
tokio
tokkal
tokyo
toldala
toldale
toldi
toldy
toledo
tolja
tolkien
toll
tolla
tollazata
tolma
tolna
tolnai
tolni
tolo
tolsztoj
tolt
tolta
tolvaj
tom
toma
tomatoes
tomatoeson
tome
tommy
tomok
tomorrow
tompa
ton
toni
tonight
tonna
tony
too
top
toplista
topogra
tops
tor
tora
torainak
toraljau
torda
tordai
tori
torino
torka
torke
torkolata
torkollik
torma
torna
tornagyo
tornya
tornyok
tornyot
toro
torok
torokat
toronnyal
toronta
toronto
torony
toronyban
toros
torpedo
torral
torre
torres
torsa
torsza
tort
torta
torzi
tos
tossa
tosz
toszka
tot
tota
total
tott
totta
tottak
tottam
tottan
tottenham
tottsa
touch
toulouse
tour
touringcartimes
tourism
tournament
tours
tova
tower
town
toy
toyota
toza
tozo
tozott
tozta
tozza
tpa
tporta
tr
tra
track
tracks
tracy
trade
tradi
tradiciona
trafele
traffic
trage
tragikus
trai
trail
trailer
train
training
trale
tralevo
tran
trans
transfer
transfermarkt
transformers
transindex
transit
translate
translation
translator
transport
transportation
transzforma
tranzakcio
trauma
travel
travis
tre
treatment
treccani
tree
trehoza
trehozni
trehozo
trehozott
trehozta
trehozva
trehozza
trejo
trek
trencse
trend
trendje
tres
trevor
tri
tria
triai
trial
trianon
trianoni
trianonig
tribune
tribute
trilo
trinidad
trinity
trio
triple
trium
trivia
trix
tro
trois
trolibusz
trombita
trophy
tru
true
truha
trum
trump
trust
truth
ts
tsa
tsanak
tsd
tse
tselejtezo
tsen
tsenek
tso
tson
tssza
tsu
tsuk
tsz
tsza
tszanak
tszani
tsze
tszer
tszeres
tszerese
tszerveze
tszf
tszhato
tszhatott
tszi
tszik
tszintes
tszma
tszo
tszott
tszotta
tszottak
tszu
tt
tta
ttak
ttal
ttam
ttata
ttatott
ttatta
tte
ttek
ttekinte
tteknek
ttel
ttelepu
ttem
tten
tter
ttere
tterem
tteru
ttes
ttesben
ttese
ttesek
ttesen
ttesnek
ttessel
ttest
ttete
ttetett
tteto
ttetszo
ttette
ttfoga
tthato
tti
ttke
ttmu
tto
ttse
ttu
ttuk
ttusa
ttyo
tu
tuba
tuberkulo
tucat
tucatnyi
tucker
tud
tuda
tudat
tudata
tudatos
tudatosan
tudatossa
tudhato
tudja
tudjanak
tudjon
tudjuk
tudna
tudnak
tudni
tudnivalo
tudo
tudod
tudok
tudom
tudoma
tudor
tudott
tudsz
tudta
tudtak
tudtam
tudunk
tudva
tuhat
tul
tulajdon
tulajdona
tulajdonban
tulajdoni
tulajdonke
tulajdonos
tulajdonosa
tulajdonosai
tulajdonosok
tulajdonsa
tulajdonu
tulipa
tulja
tulro
tulso
tum
tuma
tumban
tumig
tummal
tumok
tumot
tumu
tune
tunk
tura
turbina
turbo
turista
turisztikai
turizmus
turkey
turkish
turn
turne
turner
turo
turul
tus
tusa
tusi
tusko
tusok
tust
tusz
tusza
tuszt
tv
tva
tve
tven
tvenes
tveszi
tvett
tvette
tvezeto
tvitel
tviteli
tvitt
tvo
tvonal
tvonala
tvonalak
tvonalat
tvonalon
tvr
twentieth
twenty
twilight
twin
twitter
twitteren
two
txt
ty
tya
tyja
tyler
tyo
tyol
type
typotex
tysjac
tyu
tz
tze
tzo
u
ua
uboat
uc
udmurt
udvar
udvara
udvarban
udvardy
udvarha
udvarho
udvari
udvaron
udvart
uefa
uganda
ugra
ugrik
ugro
ugrott
ugy
ugyan
ugyanabban
ugyanakkor
ugyanaz
ugyanazon
ugyanazt
ugyancsak
ugyanebben
ugyanekkor
ugyanez
ugyanezen
ugyanezt
ugyani
ugyanilyen
ugyanis
ugyanitt
ugyanolyan
ugyanott
ugyanu
ugye
ui
uj
ujj
ujja
ujra
ujsa
ujva
uk
ukra
ukraine
ukrajna
ukrajnai
ul
ula
uli
ulrich
ultima
ultimate
ultra
ultraibolya
ultratop
um
un
una
unalmas
und
under
underground
une
unesco
ung
ungarische
ungarn
ungva
uni
unio
union
unit
unita
united
univ
universal
universe
universiade
universita
universitatis
universite
university
univerza
univerzum
unix
unoka
unokahu
unokao
unokatestve
unter
until
uo
up
update
updated
upon
uporedni
upper
ur
ura
uradalma
uradalmat
uradalmi
uradalom
uradalomhoz
urai
urak
uralja
uralkoda
uralkodik
uralkodo
uralkodott
uralma
uralmat
uralom
uralta
uram
urasa
urat
urba
urban
urbe
urdu
uri
url
uruguay
uruguayan
uruguayi
us
usa
usd
use
used
user
using
uss
uszoda
usztasa
ut
uta
utah
utak
utakat
utakon
utal
utala
utalhat
utalnak
utalo
utalt
utalva
utas
utasa
utasforgalom
utasi
utasok
utassza
utast
utat
utaza
utazik
utazni
utazo
utazott
utaztak
utc
utca
utcai
uto
utole
utolja
utolso
utunk
uv
uz
v
va
vabb
vacsora
vad
vada
vadban
vaddiszno
vadhu
vadja
vado
vadon
vadot
vadriaszto
vagdalt
vagy
vagyis
vagyok
vagyon
vagyona
vagyoni
vagyont
vagytok
vagyunk
vai
vaj
vajak
vajda
vajdasa
vajon
vak
vaka
vakcina
vakmero
vakok
val
vala
valaha
valahogy
valahol
valaki
valakinek
valakit
valamely
valamelyest
valamelyik
valamelyike
valamennyi
valamennyien
valami
valamife
valamikor
valamilyen
valaminek
valamint
valamit
valamivel
valasztas
vale
valencia
valenciennes
valentin
valentine
valko
vall
valla
valle
valley
vallja
vallo
valloma
vallott
vallotta
valo
valois
value
valuta
van
vana
vancouver
vanda
vanessa
vang
vani
vannak
var
vara
varasd
varepsilon
varga
varia
variete
variety
varju
varphi
varro
varsa
varso
vas
vasa
vasas
vasbeton
vase
vasgya
vasi
vaskos
vass
vastag
vastagabb
vastagi
vastagsa
vasu
vasutak
vasutallomasok
vasutat
vasva
vaszary
vaszilij
vasziljevics
vatika
vatosan
vay
vb
vban
vbe
vben
vbo
vc
vcso
vd
ve
vebb
vebben
vec
ved
vedd
vede
vedelem
vedelme
vedelmezo
vedt
veg
vega
vegas
vegben
vegbo
vege
vegei
vegek
vegeket
veges
veget
vegeta
veggel
veggyu
vegha
vegi
vegko
vegre
vegye
vegyen
vegyes
vegyesen
vegyi
vegyipari
vegyu
vehet
vehetett
veheto
vehette
vei
veiben
veibo
veinek
veit
veivel
vej
veje
vek
vekbeli
vekben
vekbo
veke
vekede
vekedett
veken
veket
vekig
vekkel
veknek
vekre
vekszik
vekto
vektor
vekvo
vel
vele
veled
velem
velence
velencei
veleszu
velet
veletek
veleteket
veletet
veleti
veli
velik
velika
velni
velo
velt
velte
veltse
velu
velvet
vem
vemhesse
ven
vencel
vend
vende
vendo
veneto
venezia
venezuela
venezuelai
venke
venni
vennie
vente
venus
ver
vera
verba
verdi
vere
verebe
verekede
veres
verese
veress
veri
verlag
verne
vernon
vero
verona
veronica
veronika
vers
versailles
verse
versei
verseit
versek
verseket
versenge
verseny
versenyauto
versenyben
versenye
versenyek
versenyeken
versenyeket
versenyen
versenyke
versenypa
versenyre
versenysza
versenyt
versenyta
versenyze
versenyzett
versenyzo
verses
versesko
verset
version
verstappen
vert
verte
vertebrate
very
verzio
ves
vesd
vese
vesek
vesen
vesne
vesse
vesszo
vesszu
vesz
vesze
veszedelmes
veszett
veszi
veszik
vesznek
veszpre
veszte
vesztendo
vesztes
vesztese
vesztett
vesztette
vesztfa
vesztheto
veszti
veszto
vet
vete
vetek
veteket
vetel
vetele
veteli
vetelme
vetelo
vetelt
vetelte
veteme
vetera
vetet
vetett
vetette
vetettek
vetheto
veti
vetik
vetkeze
vetkezet
vetkezeti
vetkezett
vetkezik
vetkezme
vetkezo
vetkezte
vetkeztek
vetkeztete
vetkeztetni
vetnek
vetni
veto
vetse
vett
vette
vettek
vettel
vettem
vetu
vetve
veve
vevo
vez
veze
vezet
vezete
vezetett
vezethet
vezetheto
vezeti
vezetik
vezetnek
vezetni
vezeto
vezett
vezette
vezettek
vezi
vezo
vezred
vezte
vf
vfb
vfl
vfolyam
vfolyama
vfordulo
vfuto
vg
vh
vhez
vhs
vi
via
viai
vic
vice
vicente
vickers
victor
victoria
victory
viczia
vid
vida
viddel
vide
videbb
viden
video
videoton
videsen
vidfilm
vidi
vidra
vidu
vie
vienna
vienne
vietna
vietnam
view
vig
vigado
vigya
vigye
vihar
viharos
vii
viii
vik
viking
vikto
viktor
viktoria
vila
villa
village
villamos
villamosi
villamosme
villamosok
ville
villeneuve
villers
vilma
vilmos
vin
vince
vincent
vincenzo
vinci
vincze
vinni
viola
violence
vipera
vira
virati
virgin
virginia
virginiai
viro
virtua
virtual
virtuo
virus
vis
visegra
visel
visele
viseli
viselik
viselkede
viselkedik
viselnek
viselni
viselo
viselt
viselte
viseltek
vision
vissza
visszaa
visszaadta
visszae
visszaemle
visszaese
visszaesett
visszafele
visszafoglala
visszafoglalta
visszahi
visszahu
visszajelze
visszajo
visszakapta
visszakeru
visszako
visszaku
visszale
visszasza
visszaszerezte
visszaszerze
visszaszori
visszate
visszau
visszautasi
visszava
visszaverte
visszavona
visszavonta
visszavonul
visszavonula
visszavonulo
visszavonult
visszavonultak
visszhangot
vista
vistai
visual
visz
visza
viszi
viszik
viszont
viszontagsa
viszony
viszonya
viszonyai
viszonyainak
viszonyban
viszonyi
viszonylag
viszonylagos
viszonylatban
viszonyok
viszonyt
vita
vitamin
vitatott
vite
vito
vitorla
vitt
vitte
vittek
vittorio
viva
vivo
viz
vize
vizek
vizekben
vizes
vizet
vizita
vizsga
vizu
vizua
vja
vjegyze
vjuk
vk
vke
vkereso
vko
vladimir
vlagyimir
vleges
vm
vma
vmegye
vmutato
vnak
vne
vnek
vni
vnyi
vo
voda
vodka
vogue
voice
void
vok
voka
vol
vola
volabb
volabbi
volga
voli
volkswagen
volle
volna
volro
volsa
volt
volta
voltaire
voltak
voltake
voltam
voltunk
volume
volvo
vom
von
vona
vonal
vonala
vonalak
vonalakat
vonalat
vonalon
vonat
vonatkoza
vonatkozik
vonatkoznak
vonatkozo
vonatok
vonaton
vonattal
vonja
vonni
vono
vont
vonta
vontata
vontato
vonul
vonula
vonulo
vonult
vonultak
vonza
vonzo
vonzotta
vonzza
vor
vos
voseo
vosztok
vot
vott
vous
voyage
voza
vozik
vozo
vozott
vpont
vra
vre
vro
vs
vsc
vse
vsora
vsza
vszak
vszo
vt
vta
vtak
vte
vtelen
vtelenu
vtized
vtizedben
vtizeddel
vtizede
vtizedek
vtizedekben
vtizedeken
vtizedekig
vtizeden
vtizedes
vto
vu
vukova
vulgaris
vulka
vulkanikus
vum
vuma
vumok
vva
vval
vvel
vw
vy
w
wa
wade
wagner
wake
wales
walesi
walk
walker
walking
wall
wallace
walsh
walt
walter
wan
wanderers
wang
wanna
want
war
ward
warner
warren
wars
warszawa
was
washington
washingtonban
washingtoni
watch
water
waters
watson
watt
wave
way
wayback
wayne
wc
wd
we
weather
web
webb
webber
weber
weboldal
weboldala
weboldalon
website
webster
week
weekend
weekly
weeks
wehrmacht
weiss
weisz
welcome
well
wellington
wells
welt
weltfussball
wembley
wendy
wenlin
weo
werder
were
werner
wesley
wessele
west
western
what
wheeler
when
where
which
while
whisky
white
whitney
who
why
wi
wide
wie
wien
wiener
wiesbaden
wife
wii
wiki
wikide
wikime
wikipe
wikipedia
wikiszo
wikiszotar
wild
wilde
wilder
wildlife
wiley
wilhelm
wilkes
wilkinson
will
willem
william
williams
willie
willis
willy
wilson
wimbledoni
win
wind
windows
winehouse
wing
wings
winkler
winmenetrend
winner
winners
wins
winston
winter
wisconsin
wisdom
with
within
without
wo
wolf
wolfgang
wolfner
wolfram
woman
women
won
wonder
wong
wood
woods
woody
word
wordnet
words
work
working
works
world
worldfootball
worlds
worldwide
worms
worth
wortschatz
would
wp
wright
writing
ws
wta
wu
ww
wwe
www
x
xa
xavier
xbox
xe
xeno
xi
xia
xico
xii
xiii
xiv
xix
xl
xml
xp
xu
xv
xvi
xvii
xviii
xx
xxi
xxii
xxiii
xxiv
xxv
xxvi
xxvii
xxviii
xxx
xxxiii
y
ya
yabla
yahoo
yale
yamaha
yang
yard
ybl
ye
year
years
yellow
yes
yi
yo
york
yorkba
yorkban
you
young
your
youth
youtube
yu
yuan
yves
z
za
zad
zada
zadban
zadbo
zaddal
zadfordulo
zadi
zadig
zadik
zado
zadok
zadokban
zadokon
zadon
zados
zadot
zadra
zadt
zadtak
zadto
zadve
zagorje
zagreb
zai
zait
zaj
zajlik
zajlo
zajlott
zajlottak
zak
zakaria
zakat
zakban
zaklata
zala
zalaegerszeg
zalaegerszegi
zalai
zalapi
zale
zambia
zan
zanya
zappa
zara
zaragoza
zas
zasodott
zasodtak
zaspa
zassa
zasta
zat
zata
zatban
zati
zatlan
zatok
zatokat
zaton
zatos
zatot
zatra
zattal
zavalani
zavar
zavara
zavarga
zavarja
zavaro
zavarok
zavaros
zavart
zavod
zba
zban
zbe
zbegiszta
zben
zbenja
zbeszerze
zbiztonsa
zbo
zd
zda
zde
zdelem
zdelemben
zdelme
zdelmet
zdenek
zdeni
zdi
zdiva
zdo
ze
zealand
zef
zeg
zege
zei
zeit
zeitschrift
zeitung
zek
zel
zelben
zele
zelebb
zelebbi
zelebbro
zelede
zeledett
zeledik
zeledo
zelem
zelemmel
zelgo
zeli
zella
zelme
zelmek
zelmet
zelmi
zelmu
zelo
zelro
zelse
zeltla
zem
zemanyag
zembe
zemben
zeme
zemek
zemel
zemelt
zemeltet
zemeltete
zemeltetett
zemelteti
zemelteto
zemeltette
zemet
zemi
zemmo
zemple
zemu
zen
zene
zeneakade
zenei
zeneileg
zeneiskola
zenekar
zenekara
zenekarban
zenekarbo
zenekari
zenekarnak
zenekarok
zenekarra
zenekarral
zenekart
zenemu
zenepedago
zeneporta
zeneszerze
zeneszerzo
zenet
zenetana
zenete
zenetek
zenetet
zeneto
zenetudoma
zeng
zengo
zent
zenta
zentai
zepe
zepes
zepesen
zepette
zeppelin
zer
zero
zes
zese
zesi
zet
zeta
zetbe
zetben
zetbo
zete
zetei
zeteit
zetek
zetekben
zeteket
zetelte
zetes
zetesen
zetet
zeti
zetnek
zetre
zett
zettel
zettse
zetu
zeum
zeuma
zeumba
zeumban
zeumi
zeumnak
zeumok
zeumot
zeusz
zezer
zfa
zfo
zfolya
zfu
zga
zgazda
zgazdasa
zge
zgyu
zh
zha
zhajo
zhang
zhasznu
zhato
zhe
zhet
zhetetlen
zheto
zhez
zhi
zho
zhou
zhoz
zhozama
zhu
zi
zia
ziai
zichy
zig
zigazda
zigazgata
zigazgato
zija
zik
ziko
zilabda
zilahy
zileg
zimbabwe
zino
zio
zipari
zirat
zirata
ziratban
ziratos
zis
zisa
zisban
zise
zismert
zisnak
zisok
zison
zist
zisu
ziszo
zita
zium
ziuma
ziumba
ziumban
ziumi
ziumot
ziva
zja
zjegyzo
zjogi
zke
zkede
zkedvelt
zkeru
zkes
zko
zkoda
zkodik
zkodo
zkodott
zla
zlat
zlata
zle
zlekede
zlekedett
zlekedik
zlekednek
zlekedo
zlekedtek
zleme
zlet
zlete
zletek
zletember
zletet
zleti
zli
zlo
zma
zme
zmegye
zmegyei
zmillio
zmonda
zmozdony
zmu
zna
znak
znapi
zne
znek
zni
znie
zniu
znyelo
znyelvben
zo
zoe
zok
zoktata
zol
zola
zolja
zolo
zolt
zolta
zolto
zom
zoma
zon
zone
zongora
zongoramu
zongorista
zoo
zoolo
zootaxa
zora
zord
zott
zova
zpont
zpontban
zponti
zpontja
zpontok
zpontosi
zpontot
zponttal
zpontto
zpontu
zra
zre
zremu
zri
zro
zrt
zs
zsa
zsaszi
zsavo
zsde
zse
zsebe
zsebko
zsef
zsefet
zseffel
zsefne
zsefva
zselle
zsenia
zsi
zsia
zsiai
zsido
zsigmond
zsilinszky
zsinago
zsinat
zsinati
zsinaton
zsino
zsira
zslatos
zslo
zsma
zso
zsoldos
zsolnai
zsolnay
zsolt
zsolta
zsomboly
zsu
zsuzsa
zsuzsanna
zsza
zszint
zszintes
zszintesen
zszolga
zszu
zt
zta
ztak
ztam
ztarta
ztata
ztatja
ztatni
ztato
ztatott
ztatta
zte
ztek
ztem
zteru
ztes
ztese
ztesei
ztesek
ztete
ztetett
ztetheto
zteti
ztetik
ztetni
zteto
ztette
zti
zto
ztu
zturbina
zu
zuglo
zuhant
zum
zunk
zur
zuru
zus
zusi
zust
zutak
zva
zve
zvegy
zvegye
zvegyu
zvetett
zveti
zvetlen
zvetlenu
zvetve
zvezete
zvezeto
zy
zz
zza
zzal
zze
zzel
zzo
zzon
zzu
zzuk
{
|
}
~
¡
£
¤
§
©
«
¬
­
®
¯
°
±
²
³
´
µ
·
º
»
½
¿
×
ß
æ
ð
ø
ı
ł
ŋ
ɐ
ɑ
ɒ
ɔ
ɕ
ə
ɛ
ɟ
ɡ
ɣ
ɨ
ɪ
ɪn
ɪt
ɲ
ɾ
ɾa
ʃ
ʃa
ʃe
ʃi
ʌ
ʒ
ʰ
ʱ
ʲ
ʹ
ʺ
ʻ
ʼ
ʾ
ʿ
ˁ
ˈ
ˌ
ː
˙
̀
́
̂
̃
̄
̆
̇
̈
̉
̊
̋
̌
̏
̑
̓
̔
̘
̚
̛
̝
̞
̟
̠
̣
̥
̦
̧
̨
̩
̪
̮
̯
̱
̸
̹
͂
͈
͡
α
β
γ
δ
ε
ζ
η
θ
ι
κ
λ
λια
μ
ν
ντα
ξ
ο
π
ρ
ς
σ
σια
τ
υ
φ
χ
χι
ψ
ω
ϑ
ϕ
ϵ
а
б
большои
в
во
всероссии
г
года
д
демоскоп
домакинствата
е
ж
з
за
и
к
л
м
македонија
мај
муниципальным
н
на
населението
населения
национальныи
не
новыи
о
образованиям
одна
он
п
переводчик
перепись
по
попис
постоянного
р
раи
регионам
република
россии
с
ская
скои
скопје
словарь
состав
становите
т
толковыи
три
тысяча
ть
у
украі
ф
федерации
х
хиляда
частотныи
численность
что
ш
ъ
ь
ю
я
января
яндекс
і
ә
өз
ְ
ֲ
ִ
ֵ
ֶ
ַ
ָ
ֹ
ֻ
ּ
־
ׁ
א
ב
ג
ד
ה
ו
ח
ט
י
כ
ל
ם
מ
ן
נ
ס
ע
פ
צ
ק
ר
ש
ת
ا
ات
ب
ة
ت
ث
ج
ح
خ
د
ذ
ر
ز
س
ش
ص
ض
ط
ظ
ع
غ
ف
ق
ك
ل
لف
م
ن
ه
و
ى
ي
ً
َ
ُ
ِ
ّ
ْ
ٓ
ٔ
ٕ
ँ
ं
क
ख
ग
च
छ
ज
ञ
ट
ड
ण
त
थ
द
ध
न
प
फ
ब
भ
म
य
र
ल
व
श
ष
स
ह
़
ा
ि
ी
ु
ू
ृ
े
ै
ो
ौ
्
ন
ম
য
র
স
়
া
ি
ু
ে
্
ા
ો
க
ச
ட
த
ன
ப
ய
ர
ல
வ
ா
ி
ு
ெ
ே
்
ం
ర
ా
ి
ు
్
ಿ
ೆ
್
ാ
ി
്
්
ා
ก
ข
ค
ง
จ
ช
ซ
ด
ต
ถ
ท
น
บ
ป
ผ
พ
ฟ
ม
ย
ร
ล
ว
ศ
ส
ห
อ
ั
า
ิ
ี
ึ
ื
ุ
ู
็
่
้
๊
์
་
།
ན
ར
ས
ི
ུ
ེ
ོ
ာ
်
ា
្
‌
‍
‎
‐
‑
‒
–
—
―
‖
‘
’
‚
“
”
„
†
‡
•
…
‧
‰
′
″
‹
›
‿
⁡
⁽
⁾
€
ℏ
ℓ
№
™
←
↑
→
↓
↔
↦
↷
⇌
⇒
⇔
∀
∂
∃
∅
∇
∈
∏
∑
−
∖
∗
∘
√
∞
∣
∧
∨
∩
∪
∫
∼
≈
≡
≤
≥
⊂
⊆
⊗
⊢
⋅
⋮
⋯
⌊
⌋
③
④
⑦
─
│
└
├
■
►
◄
●
◻
★
☆
♠
♥
♦
♭
✩
⟨
⟩
⟶
⺀
⺄
⺆
⺈
⺊
⺌
⺕
⺝
⺸
⺼
⿰
⿱
⿲
⿳
⿴
⿵
⿶
⿷
⿸
⿹
⿺
⿻
、
。
《
》
「
」
『
』
【
】
〜
〢
あ
い
う
え
お
か
き
く
け
こ
さ
し
す
せ
そ
た
ち
っ
つ
て
と
な
に
ぬ
ね
の
は
ひ
ふ
へ
ほ
ま
み
む
め
も
ゃ
や
ゅ
ゆ
ょ
よ
ら
り
る
れ
ろ
わ
を
ん
゙
゚
ァ
ア
ィ
イ
ウ
ェ
エ
オ
カ
キ
ク
ケ
コ
サ
シ
ス
セ
ソ
タ
チ
ッ
ツ
テ
ト
ナ
ニ
ネ
ノ
ハ
ヒ
フ
ヘ
ホ
マ
ミ
ム
メ
モ
ャ
ヤ
ュ
ユ
ョ
ラ
リ
ル
レ
ロ
ワ
ン
・
ー
㇁
㇂
㇄
㇇
㇈
㇉
㇓
㐁
㐄
㐅
㐌
㐫
㐬
㐭
㐮
㐱
㑒
㒵
㒸
㒼
㓁
㓞
㔾
㕛
㕣
㖾
㘝
㚅
㚇
㚔
㚘
㝉
㝡
㝴
㝵
㞋
㞢
㞷
㠩
㠭
㠯
㡀
㡭
㡿
㢲
㢴
㣇
㣺
㥯
㪅
㫄
㫐
㫒
㫺
㬅
㬎
㬥
㬰
㲋
㳄
㷠
㸒
㸚
㸦
㼌
㼲
㽞
㿟
䀠
䂞
䍃
䏍
䒑
䖍
䖒
䖝
䖵
䙴
䚻
䜌
䝿
䡛
䧹
䪞
一
丁
丂
七
丄
丅
丆
万
丈
三
上
下
丌
不
与
丏
丐
丑
专
且
丕
世
丘
丙
业
东
丝
丞
両
丢
丣
两
严
並
丨
丩
个
丫
丬
中
丮
丰
丱
串
临
丵
丶
丷
丸
丹
为
主
丽
举
丿
乀
乂
乃
久
乆
乇
么
义
之
乌
乍
乎
乏
乐
乑
乔
乖
乗
乘
乙
乚
乛
乜
九
乞
也
习
乡
书
乱
乳
乾
亀
亂
亅
了
亇
予
争
事
二
亍
于
亏
亐
云
互
亓
五
井
亘
亚
些
亜
亞
亟
亠
亡
亢
交
亥
亦
产
亨
亩
享
京
亭
亮
亯
亰
亲
亳
亶
亷
人
亻
亼
亾
什
仁
仅
仇
今
介
仌
从
仏
仐
仑
仒
仓
仕
他
付
仙
仝
代
令
以
们
仮
仰
件
价
任
份
仿
企
伊
伏
伐
休
众
优
伙
会
伝
伞
传
伤
伯
伴
似
但
佈
位
低
住
佐
体
佔
何
佘
余
佛
作
你
佥
佩
併
使
來
侈
例
侌
侖
供
依
価
侨
侯
侵
便
係
促
俄
俗
俘
保
俞
信
修
倉
個
倍
們
倒
候
借
倠
値
倫
债
值
倾
假
偏
做
停
健
偵
偶
偷
偽
傅
傘
備
储
催
傲
傳
債
傷
傾
僅
僉
働
像
僕
僚
價
儀
億
優
儿
兀
允
兂
元
兄
充
兆
兇
先
光
兊
克
兌
免
児
兑
兒
兓
兔
党
兜
兟
入
內
全
兩
兪
八
公
六
兮
兰
共
关
兴
兵
其
具
典
兹
养
兼
冀
冂
冃
冄
内
円
冈
冉
冊
冋
册
再
冎
冏
冐
冒
冓
冖
冗
冘
写
军
农
冝
冠
冡
冥
冫
冬
冰
冲
决
况
冷
冻
净
准
凉
凍
凝
几
凡
凢
処
凭
凵
凶
凷
凸
凹
出
击
函
凾
刀
刁
刂
刃
刄
刅
分
切
刊
刍
刑
划
刕
刖
列
刘
则
刚
创
初
判
別
利
别
到
制
刷
券
刺
刻
則
削
剌
前
剑
剖
剛
剡
剣
剤
剥
剧
副
剰
割
創
剽
劇
劉
力
办
功
加
务
劣
劦
动
助
劫
劲
劳
労
劵
効
势
勁
勃
勇
勉
勒
動
務
勝
勞
勢
勤
勹
勺
勻
勾
勿
匀
匂
包
匆
匈
匊
匋
匍
匕
化
北
匚
匝
匠
匡
匪
匯
匱
匸
匹
区
医
匽
匿
區
十
卂
千
卄
卅
卆
升
午
卉
半
卌
华
协
卑
卒
卓
協
单
卖
南
単
博
卜
卝
卞
占
卡
卢
卣
卤
卦
卩
卪
卫
卬
卯
印
危
即
却
卵
卷
卸
卻
卿
厂
厃
厄
厅
历
厈
厉
压
厌
厓
厘
厚
原
厤
厥
厦
厨
厭
厲
厶
厷
厸
去
厼
厽
叀
参
參
叅
又
叉
及
友
双
反
収
叐
发
叒
叔
叕
取
受
变
叙
叚
叜
叟
口
古
句
另
叩
只
叫
召
可
台
叱
史
右
叵
叶
号
司
叹
吂
吃
各
吅
合
吉
吊
吋
同
名
后
吏
吐
向
吕
吗
君
吝
吞
吟
否
含
听
启
吳
吴
吸
吹
吾
呂
呆
呈
告
员
呙
周
味
呼
命
咅
和
咎
咖
咠
咢
咨
咸
咼
哀
品
哄
哈
哉
响
員
哥
哪
哲
唇
唐
售
唱
唾
商
啇
問
啚
啡
啬
啻
喀
善
喚
喜
喪
喬
單
営
喻
喿
嗇
嗎
嘆
嘴
器
噩
噴
嚴
囊
囗
囘
囙
囚
四
回
囟
因
团
団
囧
囬
园
困
囱
図
围
囷
固
国
图
圂
圅
圆
圈
國
圍
圏
園
圓
圖
團
土
圡
圣
圥
圧
在
圭
地
圶
场
圼
址
坂
均
坊
坏
坐
坒
块
坚
坛
坡
坦
坴
垂
型
垔
垚
埀
埃
埋
城
域
埶
執
培
基
堂
堅
堆
堇
堡
堪
堯
報
場
塁
塊
塑
塔
塚
塞
塵
境
墓
増
增
墨
壁
壇
壊
壓
壕
壘
壞
士
壬
壮
壯
声
売
壳
壴
壹
壺
壽
夂
处
夅
夆
备
変
夊
夋
夌
复
夏
夒
夕
外
夗
夘
多
夜
够
夠
夢
夥
大
夨
天
太
夫
夬
夭
央
失
夲
头
夷
夸
夹
夺
夻
夾
奂
奄
奇
奈
奉
奋
奎
奏
奐
契
奓
奔
奖
套
奚
奞
奠
奢
奥
奧
奪
奭
奮
女
奴
奶
奸
奻
好
如
妄
妆
妇
妈
妊
妖
妙
妝
妟
妥
妨
妹
妻
妾
始
姐
姑
姓
委
姜
姫
姿
威
娄
娘
娩
婁
婆
婉
婚
婦
婴
婿
媒
媳
媽
嫁
嫌
嬰
嬴
子
孑
孔
孕
孖
字
存
孙
孚
孛
孝
孟
季
孤
学
孩
孫
孰
孱
學
宀
宁
宂
它
宅
宇
守
安
宋
完
宏
宓
宗
官
定
宛
宜
宝
实
実
审
客
宣
室
宫
宮
宰
害
宴
家
容
宽
宾
宿
寄
寅
密
富
寒
寝
察
實
寧
審
寫
寬
寮
寶
寸
对
寺
寻
导
寽
対
寿
封
専
尃
射
将
將
專
尉
尊
尋
尌
對
導
小
少
尒
尓
尔
尖
尗
尚
尞
尢
尣
尤
尧
尨
尭
就
尸
尹
尺
尻
尼
尽
尾
尿
局
屁
层
居
屈
屋
屎
屏
屑
展
屖
屚
属
屠
屡
層
屬
屮
屯
屰
山
屵
屾
岁
岂
岐
岑
岗
岛
岡
岩
岳
岸
峡
峯
峰
島
峽
崇
崎
崑
崔
崖
崗
崙
崩
嵬
嶲
巂
巛
川
州
巟
巠
巡
巢
巤
工
左
巧
巨
巩
巫
差
己
已
巳
巴
巷
巸
巻
巽
巾
巿
帀
币
市
布
师
希
帐
帕
帚
帛
帝
带
師
席
帮
帯
帰
帳
帶
常
帽
幅
幕
幣
干
平
年
幵
并
幷
幸
幹
幺
幻
幼
幽
幾
广
庁
広
庄
庆
床
序
库
应
底
店
庚
府
废
度
座
庫
庭
庶
康
庸
廈
廉
廌
廛
廢
廣
廩
廳
廴
延
廷
建
廾
廿
开
弁
异
弃
弄
弇
弋
式
弓
弔
引
弗
弘
弜
弟
张
弥
弦
弯
弱
張
強
弹
强
弾
彈
彊
彌
彎
彐
彑
归
当
彔
录
彖
彗
彡
形
彥
彦
彧
彩
彭
彰
影
彳
役
彼
往
征
径
待
律
後
徑
徒
得
徙
從
御
復
循
微
徳
徵
德
徽
心
忄
必
忌
忍
志
忘
忙
応
忝
忠
忩
快
念
忽
忿
怀
态
怎
怒
怕
怖
思
怠
急
性
怨
怪
怱
总
恆
恋
恐
恒
恥
恨
恩
恭
息
恰
恶
悄
悉
悔
悟
患
悤
悪
悲
悶
悼
情
惊
惑
惜
惠
惡
惢
惧
惨
惯
想
愁
愈
意
愛
感
愣
愤
愧
愿
慈
態
慌
慎
慕
慢
慣
慧
慮
慰
慶
憂
憑
憤
憲
憶
應
懷
懸
懼
戀
戈
戉
戊
戋
戌
戍
戎
戏
成
我
戒
戔
或
战
戚
戠
戢
戦
截
戰
戲
戶
户
戸
戹
戼
戾
房
所
扁
扇
手
扌
才
扎
打
払
托
扣
执
扫
扬
扭
扮
扰
扶
批
承
技
把
抓
投
抖
抗
折
抜
护
报
抱
抵
押
抽
担
拉
拍
拓
拔
拖
招
拜
拨
括
拳
拾
拿
持
指
按
挑
挙
挥
振
捕
损
换
捨
据
捷
掃
授
掉
掌
排
掘
採
探
接
控
推
掩
措
描
提
插
揚
換
握
揭
揮
援
搅
損
搖
搭
摆
摇
摘
摩
撃
撒
撤
播
撲
擁
擊
操
擔
據
擺
擾
攪
支
攴
攵
收
攸
改
攻
放
政
敄
故
效
敏
救
敕
敖
敗
教
敝
敞
敢
散
敦
敫
敬
数
整
敵
敷
數
斂
文
斉
斊
斑
斗
料
斜
斤
斥
斩
斬
断
斯
新
斷
方
於
施
斿
旁
旅
旋
族
旗
无
旡
既
旣
日
旦
旧
旨
早
旬
旱
旲
时
旺
旾
昆
昇
昌
昍
明
昏
易
昔
昗
昜
星
映
春
昨
昬
是
昱
昴
昷
昼
显
時
晃
晋
晏
晕
晚
晤
普
景
晶
智
暇
暈
暑
暖
暗
暮
暴
曆
曇
曜
曩
曰
曲
曳
更
曷
書
曹
曼
曾
替
最
朁
會
月
有
朋
服
朔
朕
朗
望
朝
期
木
朩
未
末
本
札
朮
术
朱
朴
朵
朶
机
朿
杀
杂
权
李
杏
材
村
杜
束
条
来
杯
杰
東
杲
杳
松
板
极
构
析
林
枚
果
枝
枢
枪
枲
架
枼
柄
柏
某
染
柔
柜
查
柬
柰
柱
柳
柴
査
标
树
栓
栗
校
株
样
核
根
格
栽
桀
桃
案
桑
档
桥
桶
桼
梁
梅
梗
條
梟
梦
梨
梯
械
检
棄
棉
棋
棒
棘
棚
棟
棠
棥
森
植
検
楚
楢
業
極
楼
楽
概
榮
榴
構
槍
様
槽
樂
樊
樓
標
模
樣
権
横
樹
橋
機
橡
橫
檢
櫃
權
欠
次
欢
欣
欧
欮
欲
欶
欺
欽
款
歆
歇
歌
歐
歓
歛
歡
止
正
此
步
武
歧
歨
歩
歪
歮
歯
歰
歲
歴
歷
歸
歹
歺
死
残
殖
殘
殳
段
殷
殸
殹
殺
殻
殼
殿
毋
毌
母
每
毒
比
毕
毚
毛
毫
毳
氏
氐
民
气
気
氛
氣
氧
水
氵
氶
氷
永
氺
氾
汁
求
汇
汉
汗
汚
汝
汞
江
池
決
汽
沃
沈
沉
沒
沓
沖
沙
沝
沟
没
河
油
治
沿
況
泉
泊
法
泛
泡
波
泣
泥
注
泪
泰
泳
泵
洁
洋
洗
洛
洞
津
洪
洲
活
派
流
测
济
浦
浪
浮
浴
海
涅
消
涉
润
涨
涯
液
涼
淘
淡
淨
淫
淮
深
混
清
済
渚
減
渠
渡
温
測
港
游
湖
湯
湾
湿
満
源
準
溜
溝
溫
溶
滅
滋
滑
滞
满
滴
滿
漁
漏
演
漢
漫
漲
漸
潔
潜
潤
潮
激
濁
濃
濟
灣
火
灬
灭
灯
灰
灵
灷
災
灾
炅
炉
炎
炏
炗
炙
炭
炮
炸
点
為
烈
烏
烝
烟
烧
热
焉
焊
無
焦
焰
焱
然
焼
煙
煞
煤
照
煩
煮
熊
熏
熟
熱
燃
燈
燒
燕
營
燥
燮
爆
爐
爪
爫
爭
爯
爰
爱
爲
爵
父
爷
爺
爻
爽
爾
爿
片
版
牌
牙
牚
牛
牜
牟
牢
牧
物
牪
特
牽
犀
犬
犭
犮
犯
状
犹
狀
狂
狄
狊
狗
独
狱
狺
狼
猋
猎
猒
猛
猩
猪
猫
献
猶
獄
獎
獨
獲
獵
獻
玄
率
玉
王
玟
玨
玩
环
现
珍
珎
珠
班
現
球
理
琴
瑞
瑟
瑩
環
瓜
瓦
瓶
甘
甚
甜
生
產
産
甥
用
甫
甬
田
由
甲
申
电
甶
男
甸
甹
町
画
甾
畀
界
畏
畐
留
畜
畟
畢
略
畧
畨
番
畫
異
畱
當
畺
畾
疆
疊
疋
疌
疏
疑
疒
疫
疯
疱
疲
疼
疾
病
症
痕
痛
痢
痴
瘤
療
癶
癸
癹
発
登
發
白
百
皀
皃
的
皆
皇
皋
皐
皕
皮
皷
皿
盃
盆
盇
盈
益
盍
盎
监
盒
盖
盗
盘
盛
盜
盟
盡
監
盤
盧
目
盲
直
相
盾
省
眇
眉
看
県
眔
眞
真
眠
眷
眼
眾
着
睘
睡
督
睪
睿
瞏
瞢
瞬
瞭
瞿
矍
矛
矞
矢
矣
知
矦
短
石
矿
码
砂
研
砲
破
硫
硬
确
碎
碑
碰
碳
確
碼
磁
磊
磨
礎
礦
示
礻
礼
社
祖
祝
神
祟
祥
票
祭
祸
禀
禁
禍
福
禮
禸
禹
禺
离
禽
禾
禿
秀
私
秃
秉
秋
种
科
秘
秝
租
秤
秦
积
称
移
稅
程
税
稟
種
稱
稲
稳
稿
穀
穌
積
穩
穴
究
穷
穹
空
穿
突
窄
窒
窓
窗
窮
立
竒
站
竜
竝
竟
章
童
端
競
竹
竿
笑
笔
笛
笠
符
第
笼
筆
等
筋
筑
筒
答
策
签
简
箕
算
管
箭
箱
箴
節
範
築
篤
篭
簡
簧
簿
籍
米
类
粉
粒
粗
粛
粟
粤
粦
粧
粲
粹
精
糊
糕
糖
糞
糟
糧
糸
糹
系
紀
約
紅
紋
納
純
紙
級
紛
素
索
紧
紫
累
細
紹
終
組
経
結
絕
絜
絞
絡
給
絫
統
絲
絵
絶
經
継
続
綠
維
綱
網
綴
綿
緊
緑
緒
線
締
緣
編
緩
練
縁
縣
縮
總
績
繁
繇
織
繰
繼
續
纍
纟
红
约
级
纪
纯
纲
纳
纸
纹
线
练
组
细
织
终
绍
经
结
给
绝
绞
统
继
绪
续
维
绵
绿
缀
缓
编
缘
缩
缶
缺
网
罒
罔
罕
罗
罙
罡
罢
罪
置
罰
署
罷
羅
羊
羌
羍
美
羔
羕
羗
羞
羡
羣
群
義
羲
羸
羽
翁
翅
翏
習
翕
翟
翠
翻
翼
老
耂
考
者
耆
而
耎
耐
耑
耒
耕
耗
耳
耴
耶
耷
耻
聂
聊
职
联
聖
聚
聞
聯
聲
聶
職
聽
聿
肀
肃
肅
肉
肖
肙
肝
股
肢
肥
肩
肯
育
肴
肺
胃
胆
背
胎
胜
胞
胡
胥
胶
胸
能
脂
脆
脈
脉
脊
脏
脑
脚
脩
脫
脱
脳
脸
脾
腐
腔
腕
腦
腰
腳
腸
腹
腺
腾
腿
膏
膚
膜
膠
膨
膽
臂
臉
臓
臟
臣
臤
臧
臨
自
臬
臭
臯
臱
至
致
臺
臼
臽
臾
臿
舀
舂
舄
與
興
舉
舊
舌
舍
舛
舜
舞
舟
航
般
舰
船
艦
艮
良
色
艸
艹
艺
艾
节
芒
芔
芝
芬
芮
花
芳
芸
芺
芻
芽
苏
苔
苗
苟
若
苦
英
范
茨
茫
茶
茸
荅
草
荒
荡
荣
药
荷
荼
莆
莧
莫
莱
获
莽
菆
菊
菌
菐
菜
華
萄
营
萨
萬
落
葉
著
葛
葡
董
葬
葵
蒂
蒙
蒜
蒦
蒸
蒼
蓄
蓋
蓝
蓬
蓮
蓺
蔑
蔘
蔡
蔵
蕉
蕭
薄
薛
薦
薩
薬
薰
藍
藏
藝
藤
藥
蘇
蘭
虍
虎
虐
虒
虔
處
虖
虗
虘
虚
虛
虜
虞
號
虧
虫
虹
虽
蚤
蚩
蛇
蛋
蛛
蛮
蜀
蜂
蜜
蝎
融
螺
蟲
蠡
血
衆
行
衍
術
街
衛
衝
衣
衤
补
表
衮
衰
袁
袋
袞
被
裁
裂
装
裏
裕
補
裝
裡
裸
製
複
褭
褱
襄
襲
襾
西
覀
要
覃
覆
見
規
覓
視
覚
覧
親
観
覺
覽
觀
见
观
规
视
览
觉
角
解
触
觸
言
訁
訂
訇
計
訊
討
訓
託
記
訪
設
許
訴
診
証
詐
評
詞
試
詩
話
詳
詹
誇
誉
誌
認
誓
誕
誘
語
誠
誤
誩
說
説
読
課
調
談
請
論
諸
諾
謀
講
謝
證
識
譜
警
譯
議
譲
護
譽
讀
變
讓
讠
计
订
认
讨
让
议
讯
记
讲
许
论
设
访
证
识
诉
词
译
试
诗
诚
话
详
语
误
说
请
读
课
调
谈
谋
谢
谷
豆
豈
豊
豐
豕
豖
豙
豚
象
豦
豩
豪
豸
貇
貌
貓
貝
貞
貟
負
財
貢
貧
貨
販
貪
貫
責
貳
貴
買
貸
費
賀
賁
賃
賄
資
賈
賊
賏
賓
賔
賛
賞
賠
賢
賣
賦
質
賭
賴
購
賽
贊
贝
负
贡
财
责
贤
败
货
质
贩
购
贯
贲
贴
贵
贷
费
贿
资
赋
赏
赔
赖
赛
赞
赤
赦
赫
走
起
超
越
趣
足
跑
距
跟
跡
路
跳
踏
踪
蹇
蹤
身
躬
車
軍
軎
軟
転
軸
軽
較
載
輕
輦
輩
輪
輸
轉
轟
车
轨
转
轮
软
轰
轻
载
辈
输
辛
辜
辞
辟
辥
辦
辨
辩
辭
辯
辰
辱
農
辵
辶
边
辺
込
达
过
迎
运
近
返
还
这
进
远
连
迟
迪
迫
述
迷
迹
追
退
送
适
逃
逆
选
透
逐
途
這
通
速
造
逢
連
逮
週
進
逼
遀
遂
遇
遊
運
過
道
達
違
遗
遠
遣
適
遲
遷
選
遺
避
還
邊
邑
邕
那
邦
邪
邮
郊
郎
郡
部
郭
郵
都
鄉
酉
酋
配
酒
酓
酪
酬
酷
酸
醒
醫
釆
采
釈
释
釋
里
重
野
量
金
釒
針
鉄
鉱
銀
銃
銅
銭
銷
鋼
錄
錠
錢
錯
録
鍵
鎌
鎖
鎮
鏡
鐘
鐵
鑑
钅
针
钓
钟
钢
钱
铁
银
铺
销
锁
错
键
镇
镜
長
镸
长
門
閃
閉
開
閏
閑
閒
間
閔
関
閣
閱
閵
閻
闊
闌
闘
關
门
闪
闭
问
闲
间
闷
闹
闻
阅
阑
阔
阜
阝
队
阪
防
阳
阴
阵
阶
阻
阿
陀
附
际
陆
陈
降
限
院
陣
除
险
陪
陰
陳
陵
陶
陸
険
陽
隆
隊
隋
階
随
隐
隔
隙
際
障
隡
隨
險
隱
隶
隹
隺
隻
隼
隽
难
雀
雁
雄
雅
集
雇
雈
雋
雍
雐
雔
雙
雚
雜
雝
離
難
雨
雩
雪
雲
零
雷
電
需
震
霊
霍
霜
霝
霞
露
霸
靈
靑
青
静
靜
非
靠
靡
面
靣
革
鞋
鞭
韋
韓
韦
韩
韭
韯
韱
音
韵
韻
響
頁
頂
頃
項
順
須
預
頓
頗
領
頡
頭
頻
題
額
顎
顔
顕
願
顛
類
顧
顯
页
顶
项
顺
须
顾
顿
预
领
频
题
额
颠
風
风
飛
飞
食
飠
飯
飲
飾
餅
養
餐
餘
館
饣
饭
饰
饼
馆
首
香
馬
馮
駄
駝
駦
駱
騒
験
騰
驗
驚
马
验
骨
體
高
髟
髪
髮
鬆
鬥
鬯
鬲
鬼
魂
魄
魔
魚
魯
鮮
鱼
鲁
鲜
鳥
鳳
鳴
鷭
鷺
鸟
鸡
鹵
鹿
麃
麗
麥
麦
麵
麻
麼
黃
黄
黍
黎
黑
黒
默
點
黨
黹
黽
黾
鼎
鼓
鼠
鼻
齊
齋
齐
齒
齢
齿
龄
龍
龙
龜
龟
龠
龰
龱
龴
龵
龶
龷
龸
龹

者
艹
！
（
）
，
－
／
１
：
？
ａ
ｄ
ｅ
ｉ
ｎ
ｏ
ｒ
ｓ
ｔ
｜
～
�
𠀁
𠀃
𠀆
𠀉
𠀎
𠀐
𠁁
𠁣
𠂆
𠂇
𠂈
𠂉
𠂊
𠂋
𠂎
𠂒
𠂔
𠂛
𠂡
𠂢
𠂤
𠂬
𠂭
𠂹
𠃊
𠃋
𠃌
𠃍
𠃎
𠃑
𠃓
𠃔
𠃜
𠄌
𠄎
𠄠
𠄢
𠆢
𠆥
𠇍
𠈌
𠌵
𠓜
𠔉
𠔥
𠔼
𠔽
𠔿
𠕀
𠕁
𠕋
𠘧
𠘨
𠙻
𠙼
𠚏
𠚒
𠚤
𠚪
𠣏
𠤎
𠤕
𠥓
𠦄
𠦑
𠦝
𠧒
𠧗
𠧪
𠩺
𠪚
𠫓
𠫔
𠫤
𠬛
𠬝
𠬞
𠬢
𠬤
𠬶
𠮛
𠮦
𠮷
𠯑
𠱠
𠳮
𠷎
𡈼
𡉀
𡉵
𡌥
𡍮
𡏳
𡕒
𡕩
𡕰
𡖅
𡗗
𡗜
𡘆
𡘤
𡧱
𡨄
𡩧
𡬠
𡭽
𡰣
𡰥
𡰪
𡰯
𡰱
𡷈
𡸁
𡿨
𡿩
𡿪
𡿺
𢀖
𢀛
𢀩
𢁙
𢆉
𢆰
𢆶
𢇁
𢇇
𢉖
𢌬
𢌿
𢏚
𢑑
𢑚
𢖻
𢙣
𢛳
𢦏
𢦒
𢧵
𢼄
𢾕
𣁋
𣄼
𣅀
𣅽
𣍘
𣎳
𣎵
𣏋
𣏼
𣗥
𣥂
𣥖
𣦵
𣦼
𣧄
𣪊
𣪠
𣬉
𣳾
𣶒
𤇾
𤊽
𤐫
𤓰
𤔔
𤕨
𤣩
𤰇
𤰔
𤰞
𤴓
𤴔
𤽄
𥁑
𥁕
𥃦
𥃩
𥃭
𥇡
𥑟
𥘅
𥘈
𥝢
𥫗
𥱡
𦈢
𦉪
𦉬
𦉼
𦍌
𦍒
𦎧
𦐇
𦓔
𦔮
𦘒
𦙃
𦚏
𦣝
𦣞
𦣻
𦥑
𦥔
𦥯
𦨉
𦭝
𦰩
𧆞
𧈧
𧘇
𧰨
𧴪
𧴮
𧵩
𧾷
𨸏
𨾴
𩙿
𩠐
𩫏
𩵋
𪉷
𪜀
𪟽
𪠲
𪩲
𫇦
𫔭
𫜸
𫝀
𫠣
𫠩
𫢉
𫥞
𫩏
𫩠
𫪡
𫲽
𫶧
𬀷
𬐘
𬗌
𬙙
𬛸
𬜯
𬟩
𬯁
𬴘
𬺻
𬼉
𬼖
𭀰
𭁈
𭁨
𭅰
𭑈
𭕄
𭗼
𭤨
𭥫
𭻾
𮅕
𮊿
𮍌
𮍏
𮓗
𮥼
𮧮
廾
𰀁
𰀄
𰀈
𰀉
𰀕
𰀠
𰀡
𰀢
𰀪
𰁜
𰃮
𰆊
𰆘
𰋙
𰕎
𰢴
𰧭
𰯲
00--
01--
02--
03--
04--
05--
06--
07--
08--
09--
48--
49--
50--
51--
52--
53--
54--
55--
56--
57--
58--
59--
60--
61--
62--
63--
64--
65--
66--
67--
68--
69--
70--
71--
72--
73--
74--
75--
76--
77--
78--
79--
80--
81--
82--
83--
84--
85--
86--
87--
88--
89--
90--
91--
92--
93--
94--
95--
96--
963--
97--
978--
98--
99--
a--
aa--
ab--
aba--
abba--
abd--
abe--
abor--
ac--
acci--
acco--
ace--
acqui--
act--
ad--
ada--
adat--
add--
addit--
ade--
adjus--
admini--
ado--
ae--
aero--
af--
ag--
aga--
age--
agg--
aggo--
ago--
agui--
agy--
ah--
ai--
air--
aj--
aja--
ak--
aka--
aki--
akna--
al--
ala--
alak--
alap--
ale--
ali--
alj--
alko--
alkohol--
all--
alma--
alo--
als--
alt--
am--
ama--
ame--
amfi--
ami--
amphi--
amu--
an--
ana--
anarc--
and--
ane--
ang--
ani--
anime--
anna--
ano--
ans--
ant--
anti--
any--
anya--
anyag--
ao--
ap--
apa--
aper--
apo--
app--
appea--
apszi--
aqui--
ar--
ara--
arany--
arc--
arden--
are--
ari--
aritme--
ark--
arm--
ars--
art--
artis--
as--
ash--
asp--
aspek--
assas--
asses--
ast--
asz--
asztro--
at--
atom--
atro--
au--
auck--
auf--
aure--
aus--
auto--
av--
ava--
ave--
ay--
az--
aza--
aze--
b--
ba--
bab--
bac--
back--
bad--
bag--
bahr--
bai--
baj--
bak--
bal--
bald--
ban--
bank--
bar--
bara--
barlang--
bas--
bat--
bau--
baum--
bay--
bb--
bbi--
bd--
be--
bea--
beau--
beava--
bec--
bee--
bei--
beille--
bek--
bekap--
beke--
bel--
bele--
bem--
beme--
ben--
bene--
beni--
benn--
benyo--
beo--
beolva--
ber--
bere--
bes--
besze--
bet--
beta--
betil--
beu--
bev--
beva--
beve--
bf--
bg--
bh--
bha--
bi--
bia--
bicik--
bie--
big--
bilin--
bin--
bio--
bir--
birtok--
bis--
bit--
biz--
bl--
bla--
ble--
bli--
blo--
bloom--
blu--
bm--
bo--
bob--
bod--
bok--
bolse--
bon--
bor--
boro--
borza--
bos--
bosz--
bot--
bots--
bou--
bouc--
boul--
bour--
box--
boy--
boz--
br--
bra--
bre--
bri--
bro--
broad--
bronz--
bru--
bry--
bt--
bu--
buch--
bud--
buda--
buk--
bukov--
bundes--
burg--
burko--
bus--
busz--
but--
by--
c--
ca--
cai--
cal--
camb--
can--
cap--
car--
carni--
cas--
casa--
cast--
cat--
cau--
caul--
caw--
cc--
ce--
cel--
celeb--
cet--
ch--
cha--
char--
che--
check--
chi--
chlo--
cho--
chry--
chu--
ci--
cie--
cik--
cimba--
cinci--
cio--
cit--
ck--
cl--
clare--
cle--
clo--
cn--
co--
col--
colom--
com--
compi--
compo--
con--
conce--
conco--
contri--
contro--
corn--
corne--
corr--
cos--
cot--
cou--
coul--
cour--
cow--
cr--
cra--
cre--
creat--
crim--
crist--
cro--
crom--
crow--
cry--
cs--
csa--
csapat--
csata--
csatla--
cse--
cser--
csere--
csi--
csiga--
cso--
csoda--
csont--
csu--
ct--
cu--
cukor--
cum--
cup--
cut--
cv--
cy--
cya--
cycl--
cz--
cza--
cze--
czi--
d--
da--
dai--
dal--
dan--
danu--
darm--
das--
dat--
dau--
day--
dc--
de--
dea--
debre--
dec--
decis--
def--
dei--
dek--
del--
dela--
deli--
dem--
deme--
den--
der--
des--
det--
dev--
devec--
dex--
dha--
di--
dia--
dialek--
did--
die--
dig--
dimen--
din--
dio--
dis--
disz--
dit--
divat--
dj--
dja--
dje--
dke--
dko--
dl--
dlo--
dm--
do--
dob--
doc--
dog--
dok--
dol--
dolgo--
dolo--
dom--
don--
dopp--
dor--
dos--
dou--
down--
dr--
dra--
dre--
dro--
drog--
drum--
ds--
dt--
dta--
dte--
du--
dua--
dub--
duna--
dus--
duzza--
dv--
dva--
dve--
dvo--
dy--
dz--
dzie--
dzs--
dzsi--
e--
ea--
eb--
ebe--
ec--
eccle--
ecli--
eco--
ed--
ede--
edu--
ee--
eff--
ege--
eger--
egy--
egybe--
egye--
egzi--
ehr--
ehren--
ei--
ein--
eindho--
eisen--
ej--
ek--
el--
ela--
ele--
elect--
elektro--
elfo--
elha--
elhanyago--
eli--
elide--
elke--
elle--
ellen--
elli--
ello--
elme--
elmu--
elne--
elo--
elta--
elte--
elterje--
eluta--
elve--
elvon--
em--
ema--
ember--
eme--
emelke--
emi--
en--
end--
ene--
energia--
eng--
eo--
ep--
epide--
epilep--
epis--
equi--
er--
era--
ere--
eri--
erje--
ero--
es--
esco--
est--
estab--
esz--
et--
eta--
eter--
ethn--
ety--
eu--
eukli--
euro--
ev--
evaluat--
eve--
ever--
ex--
exhibit--
expan--
explo--
exten--
ey--
ez--
ezer--
f--
fa--
faa--
fabri--
faci--
fagy--
fahr--
fair--
faj--
fal--
falu--
fame--
fan--
far--
farok--
fat--
fc--
fe--
fede--
fegyel--
fegyver--
fej--
feje--
fekte--
fel--
felbo--
fele--
felfede--
felo--
felso--
fenn--
fer--
ferro--
fey--
ff--
fi--
fia--
figu--
filharmo--
film--
fin--
fioren--
fire--
fjo--
fl--
flo--
flu--
fluor--
fo--
foci--
fog--
foga--
foglal--
fogya--
fok--
fol--
foo--
for--
forma--
fosz--
foto--
fra--
fre--
fred--
free--
fri--
fried--
fro--
front--
fru--
ft--
fu--
fun--
fus--
fut--
g--
ga--
gai--
gak--
gal--
game--
gan--
gari--
garr--
gas--
gat--
gau--
gaz--
gazda--
gbe--
ge--
ged--
gegen--
gei--
gel--
gem--
gen--
gene--
geng--
geo--
ger--
gera--
gere--
gerje--
ges--
get--
gez--
gg--
gge--
ggo--
gh--
gha--
ghi--
gi--
gia--
gig--
gil--
gin--
gio--
gis--
gke--
gko--
gla--
gle--
gli--
glo--
glu--
gm--
gme--
gna--
gne--
go--
gobi--
god--
gok--
gold--
gom--
gon--
gond--
good--
gos--
gou--
gov--
gp--
gr--
gra--
grand--
gre--
green--
grend--
grif--
gro--
groß--
gru--
grund--
gta--
gte--
gu--
gua--
gue--
gui--
guk--
gul--
gumi--
gun--
gus--
gva--
gve--
gy--
gya--
gye--
gyen--
gyerek--
gyermek--
gyi--
gymn--
gyo--
gyors--
gyszer--
gyu--
gza--
h--
ha--
hab--
had--
hadi--
hai--
haj--
hal--
hala--
hall--
halla--
ham--
han--
hang--
hanni--
hanya--
harang--
harc--
hard--
harma--
hart--
has--
hason--
haszon--
hat--
hau--
haup--
haus--
haw--
hay--
haza--
hazu--
hb--
he--
head--
hed--
heges--
hegy--
hegyi--
hek--
hel--
hely--
hen--
her--
hercu--
hes--
het--
hete--
hexa--
hey--
hi--
hiba--
hidro--
hie--
high--
hilde--
him--
hip--
hiper--
hir--
hit--
hitel--
hivat--
hl--
hm--
hn--
ho--
hoch--
hod--
hoff--
hohen--
hol--
hold--
holt--
home--
homlo--
homok--
hon--
honisme--
hop--
horgo--
hormo--
hossz--
hot--
hoz--
hozat--
hr--
hrus--
hrvat--
hszi--
hu--
hugen--
hun--
huszon--
huza--
hy--
hydro--
hyper--
i--
ia--
ib--
ibe--
ic--
ice--
ich--
id--
ide--
idea--
ideg--
idegen--
ie--
if--
ig--
ige--
ihle--
ii--
ij--
ijed--
ik--
ike--
ikon--
il--
ill--
illat--
ille--
illu--
illy--
ilyes--
im--
ima--
immun--
impl--
impro--
impul--
in--
ina--
inc--
incor--
indi--
indo--
induk--
indus--
ine--
infe--
info--
infra--
ing--
ink--
ins--
int--
inter--
inva--
inven--
inves--
inzu--
io--
ion--
ip--
ipar--
ir--
ira--
irgal--
iri--
irodalom--
is--
isa--
iskola--
iso--
ist--
isten--
isza--
it--
ita--
itt--
iu--
iv--
iva--
iz--
izgat--
izom--
j--
ja--
jacque--
jahr--
jahrhun--
jai--
jaj--
jak--
jam--
jan--
jar--
jas--
java--
jb--
jc--
je--
jegy--
jekatye--
jel--
jele--
jellem--
jen--
jer--
jet--
jha--
ji--
jj--
jk--
jko--
jl--
jn--
jo--
joa--
jobb--
jog--
joga--
jon--
jos--
jp--
jra--
jrae--
js--
jt--
jta--
jto--
ju--
jubi--
jud--
juh--
juk--
jun--
jus--
jut--
k--
ka--
kaca--
kai--
kakuk--
kal--
kala--
kamara--
kan--
kanya--
kap--
kapa--
kapcso--
kapu--
kar--
kara--
kard--
karo--
kas--
kat--
kata--
kau--
kavic--
kazi--
kbe--
kc--
ke--
ked--
kegy--
kei--
kek--
kel--
kely--
kem--
ken--
ker--
kera--
kere--
kerek--
keret--
kes--
keser--
ket--
keve--
key--
keze--
kf--
kfe--
kg--
kh--
kha--
kho--
ki--
kia--
kibo--
kid--
kie--
kifeje--
kifo--
kigyu--
kii--
kik--
kikap--
kim--
kime--
kimon--
kin--
kine--
kinyi--
kio--
kipu--
kir--
kira--
kirch--
kirgi--
kirob--
kis--
kit--
kita--
kite--
kiu--
kive--
kivi--
kk--
kke--
kko--
kla--
kle--
kli--
klo--
klu--
klub--
km--
kn--
kna--
kni--
kno--
ko--
kogu--
kok--
kol--
kolo--
kom--
komp--
kon--
koncert--
konfu--
konku--
konver--
konzu--
koo--
kor--
korom--
korona--
kos--
kot--
kov--
koz--
kozme--
kpla--
kr--
kra--
kre--
krend--
kri--
kro--
krokodi--
kru--
krump--
kry--
ks--
ksoro--
kszent--
kta--
kte--
kto--
ku--
kul--
kulcs--
kun--
kupa--
kurz--
kus--
kutya--
kv--
kva--
kvantumme--
kve--
kvo--
kw--
ky--
l--
la--
labir--
lag--
lai--
lajstro--
lak--
lako--
lal--
lam--
lan--
land--
lap--
las--
lasz--
lat--
lau--
law--
lbe--
lc--
lcs--
lcse--
ld--
lda--
lde--
ldi--
ldo--
ldrajz--
le--
lea--
lebe--
lebon--
led--
lee--
leeres--
leg--
lege--
leha--
lehu--
lei--
lek--
leke--
lel--
lelet--
lelki--
lem--
lema--
lemez--
len--
lenyo--
leo--
leon--
lepi--
leple--
lepto--
ler--
les--
lesz--
let--
lete--
letfogy--
leti--
leu--
lev--
leve--
ley--
lezu--
lfe--
lfo--
lg--
lgy--
lha--
li--
lib--
libra--
lice--
lichten--
lie--
life--
lig--
lik--
lim--
lin--
lis--
lit--
lje--
lju--
lka--
lke--
lko--
ll--
lla--
llam--
llat--
lle--
lli--
llo--
llyes--
lma--
lme--
lmir--
lmod--
lmu--
ln--
lna--
lo--
locat--
lock--
log--
lok--
lom--
lomb--
lon--
long--
los--
loson--
lou--
lovas--
lp--
lpa--
lre--
lsz--
lt--
lta--
lte--
lto--
ltozta--
ltu--
lu--
luc--
ludo--
luft--
lum--
lus--
lve--
lvo--
ly--
lya--
lye--
lyeg--
lyo--
lyt--
lza--
m--
ma--
mac--
macro--
mad--
mag--
maga--
magas--
magyar--
mai--
makro--
mal--
man--
manga--
manif--
map--
mar--
mara--
marad--
marga--
margit--
mari--
mas--
mascu--
mat--
mau--
mauri--
may--
mb--
mc--
md--
me--
mea--
med--
media--
meg--
mega--
megfe--
megfo--
megi--
megmutat--
mego--
megpi--
megre--
megve--
megye--
mei--
mek--
mel--
meleg--
mell--
mem--
men--
mer--
merev--
mes--
mese--
mester--
met--
meta--
meur--
mexi--
mez--
mg--
mh--
mhos--
mi--
mia--
micr--
microp--
mid--
mie--
mig--
mik--
mikro--
mil--
min--
mind--
minden--
mini--
minta--
mir--
mis--
mit--
mix--
mje--
mk--
ml--
mla--
mle--
mm--
mme--
mn--
mne--
mo--
mobil--
mod--
mok--
mol--
mon--
mono--
mont--
monte--
moon--
mor--
mos--
mot--
motor--
mozd--
mozdula--
mozga--
mozi--
mozza--
mp--
mr--
ms--
mt--
mu--
mul--
mulat--
multi--
mun--
munka--
mura--
mus--
muzsi--
mv--
my--
myste--
mytho--
n--
na--
nach--
nad--
nagy--
nai--
nak--
naka--
nal--
nam--
nap--
napi--
nas--
nat--
nb--
nbe--
nc--
ncs--
ncz--
nd--
ndi--
ndok--
ndor--
ne--
nec--
ned--
neder--
nei--
nek--
neki--
nel--
nelem--
nem--
nemes--
neo--
nept--
ner--
nes--
net--
neu--
neur--
neus--
neut--
neuv--
neve--
new--
news--
nfa--
nfe--
ng--
nga--
nge--
ngo--
ngu--
ngy--
nh--
nha--
ni--
nia--
nie--
nig--
nik--
nin--
nis--
nit--
nj--
nja--
nje--
nk--
nke--
nki--
nko--
nkre--
nl--
nla--
nm--
nme--
nn--
nnep--
nnepe--
nny--
no--
nob--
nofer--
nok--
nom--
non--
nor--
nord--
north--
nos--
not--
nouv--
novgo--
nre--
ns--
nse--
nsz--
nt--
nta--
nte--
ntulaj--
nu--
nuk--
nul--
numizma--
nus--
nva--
nve--
nwa--
ny--
nya--
nyak--
nye--
nyel--
nyelv--
nyers--
nyi--
nyke--
nyle--
nyo--
nyolc--
nyom--
nyrend--
nyt--
nyter--
nyu--
nyv--
nyve--
nyvon--
nz--
nze--
o--
oa--
ob--
ober--
occ--
occide--
octav--
od--
oda--
ode--
of--
off--
offen--
og--
oh--
ok--
oka--
okos--
ol--
olaj--
old--
oldal--
ole--
oli--
om--
omni--
on--
one--
op--
open--
opera--
optim--
or--
ora--
org--
organi--
ornit--
oro--
orom--
orr--
orvos--
os--
ost--
osz--
oszt--
ot--
ott--
ou--
out--
ov--
over--
oxa--
oxy--
oz--
p--
pa--
pac--
pad--
pai--
pajzs--
pak--
pal--
paleo--
pamp--
pan--
panaszko--
panya--
pap--
papi--
par--
para--
paraszt--
part--
pas--
pass--
pat--
pav--
pavi--
pay--
paz--
pb--
pbiz--
pc--
pe--
pei--
pek--
pely--
pen--
per--
pere--
pes--
pest--
pet--
pey--
pez--
pg--
ph--
pha--
phen--
phil--
pho--
phono--
photo--
phy--
physio--
pi--
pia--
piac--
pic--
pie--
pihen--
pilis--
pilla--
pim--
pin--
pio--
pke--
pl--
pla--
play--
ple--
plo--
pm--
po--
poc--
pod--
podgo--
poe--
pok--
pol--
poli--
poly--
pont--
pop--
por--
pos--
posit--
post--
posta--
poszt--
pot--
poten--
poz--
pp--
ppon--
pr--
pra--
pre--
presb--
pri--
pristi--
pro--
program--
protek--
proto--
pru--
ps--
pseu--
psi--
pso--
psy--
psycho--
pszicho--
pte--
pu--
pub--
puff--
pul--
purp--
pus--
puszta--
put--
py--
pze--
q--
qat--
qi--
qu--
qua--
que--
quel--
qui--
quo--
r--
ra--
rab--
rac--
rad--
radio--
rado--
raf--
raga--
ragas--
rai--
raj--
rajt--
rajz--
rak--
rako--
ral--
ram--
ran--
rang--
rap--
ras--
rat--
rau--
ray--
raz--
rb--
rbe--
rbo--
rc--
rcs--
rcsa--
rcso--
rd--
rda--
rde--
rdek--
rdi--
re--
rea--
react--
real--
rec--
recon--
red--
ref--
reform--
reg--
rei--
rejte--
rek--
reked--
rel--
rem--
ren--
rend--
rept--
res--
ret--
rev--
revi--
revol--
rey--
rez--
rezis--
rezul--
rfa--
rfe--
rfi--
rfo--
rg--
rga--
rge--
rgo--
rgy--
rgya--
rha--
rhe--
rho--
rhuza--
ri--
ria--
ric--
rid--
rie--
rig--
rimas--
rin--
rint--
rio--
ris--
rit--
riz--
rja--
rje--
rjo--
rk--
rka--
rke--
rki--
rko--
rle--
rma--
rmas--
rme--
rmo--
rmu--
rn--
rne--
rnok--
rny--
rnya--
ro--
rob--
robus--
rock--
rod--
roham--
rok--
rol--
rom--
ron--
ros--
rose--
rossz--
rou--
rovat--
row--
rox--
roz--
rp--
rpa--
rpe--
rpo--
rr--
rre--
rrend--
rs--
rsa--
rse--
rsi--
rst--
rsze--
rt--
rta--
rtalma--
rte--
rtekez--
rti--
rto--
rtya--
ru--
ruha--
rul--
rum--
run--
rus--
rut--
rva--
rve--
rvi--
rvo--
ry--
rz--
rza--
rze--
rzs--
s--
sa--
sacra--
sad--
sah--
sai--
sak--
sakk--
sal--
sam--
san--
sapie--
sar--
sas--
sat--
sau--
sauro--
sav--
sax--
sb--
sba--
sbo--
sc--
scar--
sch--
scha--
sche--
schi--
schl--
schle--
schm--
scho--
schr--
schrei--
schu--
schwe--
sci--
scien--
scor--
scri--
scy--
sd--
se--
sea--
seb--
sec--
sed--
see--
sei--
sejt--
sel--
sem--
sen--
seque--
ser--
ses--
set--
sex--
sey--
sf--
sfa--
sfe--
sfo--
sg--
sh--
sha--
she--
shi--
shko--
sho--
show--
shu--
si--
sic--
sie--
sig--
sik--
siker--
silve--
sim--
sin--
sir--
sis--
sit--
sj--
sk--
ska--
ske--
ski--
sko--
sku--
sky--
sl--
sla--
sle--
slo--
sm--
sma--
sme--
smo--
smu--
sn--
sne--
snow--
so--
soc--
sod--
sok--
sol--
solut--
soly--
som--
some--
son--
sor--
sora--
sorol--
sorozat--
sors--
sos--
sp--
spa--
spec--
spek--
spektro--
spel--
sper--
spie--
spo--
sport--
sprint--
squa--
sr--
sre--
srend--
ss--
ssoro--
ssz--
ssze--
st--
sta--
staat--
star--
ste--
sti--
sto--
str--
stra--
struc--
stu--
sty--
su--
sub--
sud--
suga--
sui--
suk--
sul--
sum--
sun--
super--
supp--
sur--
sus--
sv--
sva--
sve--
svo--
swa--
swan--
swe--
sy--
symp--
syn--
sz--
sza--
szabad--
szabadalma--
szak--
szank--
sze--
szeg--
szek--
szel--
szem--
szembe--
szen--
szent--
szer--
szet--
szex--
szi--
sziget--
szikla--
szke--
szo--
szobor--
szoftver--
szt--
szta--
sztye--
szu--
szub--
szuper--
t--
ta--
tab--
tag--
tai--
taj--
tak--
taka--
tal--
talaj--
talap--
tam--
tan--
tao--
tapas--
tar--
tart--
tas--
tat--
tau--
tbili--
tbo--
tc--
td--
te--
tea--
tech--
teg--
teher--
tei--
tej--
tek--
tel--
tele--
telep--
teli--
tem--
teme--
ten--
tengely--
tenisz--
teo--
ter--
tere--
terje--
termo--
terv--
tes--
test--
teszt--
tet--
textil--
tfe--
tfo--
tg--
th--
tha--
the--
theo--
thi--
tho--
thu--
thy--
ti--
tia--
tie--
tig--
tik--
til--
tim--
tin--
tinta--
tipo--
tis--
tisza--
tiszt--
tit--
tize--
tk--
tka--
tke--
tko--
tla--
tlag--
tle--
tm--
tme--
tne--
to--
tok--
tolcs--
tom--
ton--
top--
tor--
torna--
tos--
toxi--
tr--
tra--
trans--
transz--
tre--
trend--
tri--
tribu--
tro--
trou--
tru--
ts--
tso--
tsu--
tsz--
tt--
tta--
tte--
tter--
tti--
tto--
tu--
tud--
tul--
tum--
tus--
tv--
tve--
tven--
tvo--
twe--
twi--
ty--
tyran--
tz--
tʁ--
u--
uc--
udvar--
uga--
ugo--
ugyan--
ui--
uj--
ujj--
uk--
ul--
ultra--
um--
un--
una--
und--
under--
ung--
uni--
up--
ur--
ura--
uralko--
us--
ut--
uta--
utas--
utca--
uv--
uz--
v--
va--
vacc--
vad--
vagyon--
vai--
vaj--
vak--
val--
vala--
van--
var--
varie--
vas--
vaszi--
vati--
vau--
vaza--
vbe--
vd--
ve--
vec--
ved--
veg--
vegy--
vehi--
vei--
vek--
vel--
vely--
vem--
ven--
vend--
ver--
vera--
vere--
vers--
verseny--
ves--
vese--
vesze--
vet--
vetke--
vf--
vg--
vh--
vi--
via--
vic--
vid--
video--
vie--
vig--
vihar--
villa--
villo--
vin--
viole--
viri--
virra--
vis--
vissza--
vita--
viz--
vize--
vk--
vla--
vm--
vo--
vok--
vol--
volks--
volod--
von--
vonal--
vonat--
vor--
vos--
vra--
vro--
vs--
vu--
vum--
vy--
w--
wa--
wal--
wald--
wallen--
wan--
war--
was--
wasser--
we--
web--
wedd--
wein--
wel--
wert--
west--
whe--
whis--
whit--
wi--
wie--
wiki--
wil--
win--
wissens--
witt--
witten--
wo--
wood--
word--
wrest--
writ--
wu--
wy--
wyo--
x--
xa--
xe--
xi--
xl--
xxx--
y--
ya--
ye--
yes--
yi--
yo--
yu--
z--
za--
zad--
zai--
zaj--
zak--
zala--
zan--
zas--
zat--
zbe--
zbo--
zd--
zde--
ze--
zeg--
zei--
zel--
zele--
zem--
zen--
zene--
zer--
zes--
zet--
zfo--
zha--
zhe--
zi--
zia--
zimme--
zio--
zis--
zke--
zko--
zle--
zlet--
zme--
zmu--
zna--
zne--
zo--
zok--
zol--
zom--
zongora--
zoo--
zre--
zs--
zsa--
zse--
zsi--
zso--
zsu--
zszer--
zta--
zte--
zti--
zto--
ztu--
zu--
zus--
zve--
zwe--
zy--
zze--
ß--
ð--
ø--
đ--
ł--
ſ--
ɐ--
ɑ--
ɒ--
ɕ--
ə--
ɛ--
ɡ--
ɪ--
ɲ--
ɾ--
ʁ--
ʃ--
ʋ--
ʒ--
ʝ--
α--
δ--
κ--
λ--
μ--
ν--
π--
ρ--
σ--
τ--
а--
б--
ба--
в--
ве--
г--
го--
гр--
д--
де--
девя--
до--
е--
ж--
жи--
з--
и--
к--
ка--
ко--
ку--
л--
м--
ма--
ме--
ми--
мо--
н--
но--
о--
п--
па--
пе--
пр--
про--
пя--
р--
ра--
с--
са--
се--
ск--
со--
ст--
т--
те--
то--
у--
ш--
шес--
я--
י--
ا--
و--
ي--
अ--
म--
र--
स--
ก--
น--
ย--
อ--
า--
เ--
--0
--00
--01
--1
--2
--3
--4
--5
--6
--7
--8
--9
--a
--abb
--abba
--abban
--able
--ac
--aca
--aceae
--ach
--acio
--ad
--ada
--adik
--ado
--ads
--ae
--aea
--ag
--age
--agne
--agva
--ah
--ai
--ail
--ainak
--air
--aire
--ais
--ait
--aj
--ak
--akat
--ake
--aknak
--akt
--al
--ale
--alis
--all
--alma
--alom
--alter
--am
--ament
--an
--ana
--and
--ang
--ani
--ano
--ans
--ant
--anu
--anus
--ao
--ap
--apa
--apja
--ar
--ara
--ard
--are
--aro
--art
--arta
--aru
--ary
--as
--assa
--asure
--at
--ata
--ate
--ated
--ates
--ath
--ati
--atikus
--atio
--ation
--ations
--ative
--atja
--atlan
--ato
--atok
--ator
--atos
--atra
--atta
--atu
--ature
--atus
--au
--aurus
--ava
--awa
--ax
--ay
--az
--b
--ba
--badul
--badula
--badult
--bahn
--bal
--bald
--ban
--bank
--bara
--barna
--base
--baum
--bb
--be
--beli
--ben
--ber
--berg
--bi
--bia
--bic
--bike
--bja
--ble
--bly
--bo
--boga
--bol
--bola
--book
--bor
--bott
--box
--boy
--bs
--bta
--bu
--buch
--bum
--burg
--burgi
--bury
--bus
--by
--bɒ
--c
--ca
--cal
--car
--cci
--cco
--ce
--ceae
--cens
--ceps
--cept
--cer
--ces
--cey
--ch
--che
--chi
--cht
--chte
--ci
--cia
--cide
--cin
--cing
--cio
--ciona
--cius
--ck
--cka
--cki
--cks
--cky
--cle
--co
--cock
--com
--cq
--cracy
--craft
--cs
--csa
--csala
--cse
--csek
--csi
--cske
--cso
--csu
--ct
--cta
--ction
--cts
--ctus
--cu
--cula
--cular
--cum
--cus
--cy
--cz
--czi
--czki
--d
--da
--dae
--dai
--dal
--dale
--dalom
--dam
--dan
--dar
--day
--db
--dda
--de
--ded
--deje
--del
--den
--der
--des
--det
--dett
--dge
--di
--dia
--dic
--die
--dik
--din
--dio
--dj
--dja
--dl
--dle
--dler
--dman
--dne
--dnek
--dni
--do
--doma
--don
--dor
--dos
--dot
--dott
--dou
--dox
--dra
--dre
--ds
--dt
--dta
--dte
--dtek
--du
--dva
--dve
--dy
--dzo
--e
--ea
--eal
--eau
--eb
--ebb
--ebbek
--ebben
--ec
--eca
--eck
--ects
--ed
--eda
--ede
--edett
--edik
--edo
--edt
--ee
--een
--ef
--eg
--ege
--egy
--egyu
--ei
--einek
--eit
--ej
--eje
--ek
--ekben
--ekbo
--eken
--eket
--ekhez
--eki
--ekkel
--eknek
--ekre
--ekto
--el
--ela
--ele
--elen
--ell
--ella
--elli
--ello
--elme
--elni
--elo
--elt
--elte
--em
--ement
--en
--ena
--enburg
--ence
--end
--endo
--enek
--eni
--enke
--eno
--ens
--ensa
--ense
--ensis
--ent
--enta
--ente
--ento
--ents
--enza
--eo
--eon
--ep
--epu
--er
--era
--erdo
--ere
--eren
--eri
--erle
--ern
--erna
--ero
--ers
--ert
--eru
--ery
--erzo
--es
--escu
--ese
--esen
--esi
--ess
--esse
--est
--et
--ete
--etek
--etes
--eti
--etlen
--eto
--ets
--ett
--etta
--ette
--etti
--etu
--etva
--eu
--eum
--eur
--eus
--eux
--ev
--evics
--ex
--ey
--ez
--eze
--ezett
--ezi
--ezni
--ezo
--f
--fa
--faj
--fajta
--fal
--falva
--falvi
--fc
--fe
--feld
--fen
--ff
--ffe
--ffen
--ffer
--ffy
--fi
--fia
--fied
--field
--fija
--fika
--fil
--film
--fiu
--fly
--fo
--fon
--fordi
--forma
--fort
--ft
--fu
--ful
--fy
--g
--ga
--gada
--gadja
--gadni
--gado
--gadta
--gal
--gar
--gat
--gata
--gatja
--gato
--gatta
--gazda
--gazgato
--ge
--gel
--gen
--ger
--ges
--get
--getni
--gg
--ggio
--gh
--ght
--ghy
--gi
--gia
--gic
--gica
--gical
--gie
--gies
--giz
--gja
--gl
--gle
--gn
--gne
--gni
--gny
--go
--gok
--gola
--gomba
--gon
--gos
--gra
--gram
--gro
--gs
--gt
--gu
--gus
--gva
--gve
--gy
--gya
--gye
--gyha
--gyo
--gyse
--gyta
--gyu
--h
--ha
--hajo
--hal
--halom
--ham
--hang
--hanta
--har
--hassa
--hasson
--hat
--hata
--hatatlan
--hatja
--hatjuk
--hatna
--hato
--hatta
--hattak
--hatunk
--haus
--hay
--he
--head
--hed
--hegy
--heim
--heit
--hel
--hely
--hem
--hen
--her
--hesse
--het
--hetett
--heti
--hetik
--hetju
--hetnek
--heto
--hette
--hettek
--hetu
--hez
--hi
--hia
--hic
--hida
--hin
--hip
--hl
--hm
--hma
--hman
--hn
--ho
--hof
--hogy
--hood
--hop
--hos
--hoz
--hr
--hra
--hs
--ht
--hts
--hu
--hua
--hus
--hy
--i
--ia
--iac
--iae
--iai
--iak
--ial
--iam
--ian
--iana
--ians
--ianus
--ias
--iba
--iban
--ibe
--iben
--ible
--ibo
--ibus
--ic
--ica
--ical
--ice
--ich
--ici
--icia
--icizmus
--ick
--ico
--ics
--icum
--icus
--id
--ida
--idae
--ide
--ides
--ido
--ie
--ied
--iek
--iel
--ien
--iens
--ier
--ieren
--ieri
--iers
--ies
--ieu
--if
--iff
--ifika
--ig
--ige
--ight
--igo
--ih
--ihez
--ii
--iis
--ij
--ija
--ijan
--ije
--ik
--ika
--ikai
--ikat
--ike
--iket
--iko
--ikus
--ikusan
--il
--ila
--ild
--ile
--illa
--ilo
--ilta
--im
--ima
--imi
--imo
--imoto
--in
--ina
--inak
--ine
--inek
--ines
--ing
--inger
--ingham
--ings
--ington
--ini
--ink
--ino
--ins
--inson
--int
--inte
--inus
--io
--iodactyla
--ion
--ions
--ior
--iosz
--ious
--ip
--ipar
--ipari
--ique
--ir
--ira
--ire
--iro
--irs
--is
--isch
--ische
--ise
--ish
--islav
--ism
--ismus
--ist
--ista
--ists
--isz
--iszta
--isztika
--isztikai
--isztikus
--it
--ita
--ite
--iti
--ities
--ition
--ito
--its
--itu
--ity
--itz
--iu
--ium
--ius
--iv
--iva
--ival
--ive
--ivel
--ix
--iz
--iza
--ization
--ize
--ized
--izmus
--j
--ja
--jai
--jainak
--jait
--jal
--janak
--je
--jedt
--jei
--jen
--jenek
--jes
--jet
--jev
--ji
--jk
--jka
--jla
--jlo
--jn
--jo
--joga
--jogi
--jon
--jt
--jta
--jte
--jto
--jtu
--ju
--juk
--junk
--jz
--k
--ka
--kad
--kada
--kadt
--kai
--kal
--kar
--kasz
--kat
--kba
--kban
--kbe
--kben
--kbo
--kcio
--ke
--kede
--kedett
--kednek
--kedni
--kedo
--kedtek
--kel
--ken
--ker
--keru
--keszi
--ket
--keze
--ki
--kia
--kira
--kja
--kk
--kkal
--kkel
--kl
--kla
--kle
--klub
--knak
--knek
--ko
--koda
--kodik
--kodni
--kodo
--kodott
--kodtak
--kodva
--kok
--kon
--kor
--kora
--kori
--kos
--kott
--kov
--kozik
--kozni
--kozo
--kozva
--kra
--kre
--kro
--ks
--kt
--kta
--kti
--ktikus
--kto
--ktus
--ku
--kula
--kupa
--kus
--kutato
--kuti
--ky
--l
--la
--lag
--lah
--laj
--lak
--lako
--lal
--lan
--land
--lani
--lansa
--lanul
--lap
--lapi
--lar
--las
--lat
--lav
--lay
--ld
--lda
--ldal
--ldi
--ldja
--ldo
--le
--led
--leg
--lei
--lek
--lel
--lem
--len
--lense
--lenu
--lep
--lepi
--lepu
--ler
--les
--less
--let
--lete
--leve
--ley
--lf
--lga
--lge
--lgozo
--li
--lia
--lic
--lich
--lida
--lidae
--lie
--liga
--lij
--lik
--lin
--line
--lio
--lis
--list
--lista
--lit
--lita
--lity
--liza
--lizmus
--lj
--lja
--lje
--lk
--ll
--lla
--lle
--llenes
--lles
--lli
--llo
--lls
--lly
--lm
--lma
--lmas
--lmat
--lmaza
--lme
--lmes
--lmi
--lmon
--lmu
--lmuk
--ln
--lnek
--lni
--lo
--lock
--logy
--loid
--lom
--lon
--loo
--lop
--lope
--lor
--los
--lov
--lph
--ls
--lt
--lta
--ltak
--lte
--lty
--ltz
--lu
--lude
--ludt
--lum
--lung
--lus
--lva
--lve
--ly
--lya
--lyel
--lyn
--lz
--m
--ma
--mada
--mag
--mal
--man
--mann
--mat
--matikus
--mba
--mbe
--mber
--me
--mek
--mel
--meletes
--melt
--melte
--men
--meno
--ment
--mer
--mes
--met
--mezo
--mi
--mia
--mic
--mista
--mit
--mla
--mle
--mm
--mo
--mok
--mon
--more
--mos
--mot
--mour
--mp
--mpo
--mps
--mre
--ms
--mu
--munka
--mus
--my
--mys
--n
--na
--nac
--nae
--nai
--nak
--nal
--nan
--nap
--nar
--nas
--nau
--naut
--nay
--nc
--nce
--nch
--ncia
--nco
--ncs
--ncse
--ncy
--nd
--nda
--nde
--ndez
--ndeze
--ndi
--ndje
--ndo
--ndra
--ndu
--ndul
--ne
--nea
--ned
--nek
--nel
--nem
--nen
--ner
--nes
--ness
--net
--news
--ney
--ng
--nga
--nge
--ngen
--nger
--ngi
--ngo
--ngola
--ngolt
--ngs
--ngzo
--nheim
--ni
--nia
--niba
--nic
--nich
--nics
--nie
--nih
--nii
--nik
--nil
--ning
--nis
--nista
--niu
--niuk
--niza
--nizmus
--nja
--nk
--nka
--nke
--nko
--nn
--nna
--nnai
--nne
--nni
--nno
--no
--nok
--noka
--nom
--non
--nor
--nos
--nov
--ns
--nsa
--nse
--nsis
--nski
--nt
--nta
--ntal
--ntata
--nte
--nthus
--nti
--nto
--ntos
--nts
--ntu
--ntyin
--nu
--nul
--num
--nunk
--nus
--nx
--ny
--nya
--nyag
--nyal
--nye
--nyi
--nyo
--nyt
--nyu
--nz
--nza
--o
--oa
--oc
--ock
--od
--oda
--odik
--odni
--odo
--odon
--odott
--odtak
--odva
--ody
--oe
--of
--off
--og
--oga
--oge
--ogo
--ogon
--ogra
--ogva
--ogy
--oi
--oid
--oir
--oj
--ok
--okat
--okba
--okban
--okbo
--oke
--okhoz
--okkal
--okna
--oknak
--okon
--okra
--okro
--ol
--ola
--olja
--olnak
--olni
--olo
--ologie
--ology
--olt
--olta
--olva
--om
--oma
--omat
--omba
--ombo
--ome
--omes
--omi
--omy
--omys
--on
--ona
--ond
--onda
--ondo
--one
--ong
--onga
--oni
--onia
--onja
--onke
--ono
--onok
--ons
--ont
--onta
--ony
--oo
--op
--opa
--opera
--ops
--or
--ora
--ord
--ore
--orf
--ori
--oria
--orja
--orna
--ors
--ort
--orta
--orum
--ory
--os
--osa
--osabb
--osan
--osaurus
--ose
--osi
--osko
--osok
--oss
--ossa
--osz
--ot
--ota
--ote
--oti
--oto
--ott
--otus
--ou
--our
--ous
--out
--ov
--ova
--ove
--ovi
--ovic
--ovics
--ovna
--ovo
--ovszky
--ovy
--ow
--owski
--ox
--oy
--oya
--oz
--oza
--ozik
--oznak
--ozni
--ozo
--ozott
--ozta
--ozva
--ozza
--p
--pa
--pal
--par
--pari
--park
--pc
--pcio
--pe
--ped
--pel
--per
--pes
--pet
--pf
--ph
--phia
--phus
--phy
--pi
--pilo
--pis
--pita
--pja
--pka
--plin
--plo
--po
--pol
--polis
--pon
--port
--porta
--pott
--pp
--ppe
--pre
--pri
--pro
--ps
--pt
--pta
--pte
--pu
--pus
--py
--q
--que
--ques
--r
--ra
--rad
--rae
--rage
--rai
--rak
--ral
--ram
--rar
--ras
--rat
--rba
--rbo
--rc
--rcs
--rd
--rdi
--rdo
--rds
--rdt
--re
--rea
--red
--rege
--rek
--rel
--rem
--ren
--rend
--reo
--repu
--rer
--res
--rese
--ret
--rf
--rg
--rger
--rgi
--ri
--ria
--rial
--rian
--ric
--ricum
--rid
--ridge
--rie
--ries
--rii
--rij
--rija
--rik
--ril
--rin
--rina
--rio
--ris
--rista
--rix
--riza
--rja
--rje
--rju
--rk
--rke
--rl
--rlo
--rm
--rma
--rme
--rn
--rna
--rni
--rno
--ro
--roe
--roge
--rok
--rom
--ron
--ros
--rot
--rov
--row
--rp
--rr
--rra
--rre
--rro
--rry
--rs
--rseny
--rt
--rta
--rte
--rto
--rtva
--rty
--ru
--ruha
--rum
--rupt
--rus
--rv
--rvas
--rve
--rvezo
--rvu
--ry
--rz
--rzo
--s
--sa
--sac
--sai
--sal
--san
--saurus
--sav
--sberg
--sburg
--sch
--sche
--schel
--sco
--scu
--sd
--sday
--sdorf
--se
--sebb
--sed
--sek
--sel
--sen
--ser
--ses
--set
--sey
--sfield
--sh
--sha
--ship
--shire
--si
--sia
--side
--sik
--sio
--sis
--sius
--sk
--ska
--ske
--ski
--sko
--skola
--sku
--sky
--sm
--smeret
--sni
--so
--sok
--son
--sor
--spective
--ss
--ssa
--sse
--ssen
--ssi
--sso
--sson
--ssy
--st
--sta
--ste
--sten
--ster
--sti
--stic
--stica
--sto
--stone
--stu
--su
--sus
--sy
--sz
--sza
--szal
--sze
--szel
--szem
--szer
--szeru
--szerze
--szi
--szik
--szk
--szky
--szo
--szolga
--szor
--szt
--szta
--sztheto
--szti
--sztika
--sztikai
--sztikus
--sztja
--szto
--szu
--t
--ta
--tag
--tai
--tak
--tal
--tala
--talan
--tam
--tan
--tana
--tani
--tar
--tarta
--tarto
--tas
--tat
--tatni
--tay
--te
--ted
--tei
--tein
--tek
--tel
--telen
--tem
--ten
--ter
--terme
--tes
--tet
--tett
--tevo
--th
--tha
--ti
--tia
--tic
--tica
--tics
--ticus
--tidae
--ties
--tik
--tika
--tikus
--time
--tin
--ting
--tio
--tion
--tional
--tions
--tis
--tius
--tiv
--tive
--tivus
--tiza
--tja
--tl
--tlan
--tlansa
--tlen
--tna
--tnak
--tnek
--tni
--to
--tok
--ton
--tor
--torna
--tos
--tot
--tott
--tov
--town
--tr
--tra
--tre
--tro
--try
--ts
--tt
--tta
--ttak
--tte
--ttek
--tten
--tti
--ttle
--tto
--tu
--tudo
--tudoma
--tuk
--tum
--tung
--tur
--ture
--tus
--tution
--tv
--tva
--tve
--ty
--tya
--tyu
--tz
--tzky
--u
--ua
--ual
--uation
--ub
--uba
--uc
--uca
--ucci
--uch
--uction
--ud
--uda
--udo
--ue
--uen
--uer
--ues
--uf
--ug
--ugh
--ught
--ugra
--ui
--uil
--uin
--uk
--uka
--ukat
--ukban
--ukon
--ukti
--ul
--ula
--ule
--ulnak
--ulni
--ulo
--ult
--ultak
--ulus
--um
--uma
--umba
--umban
--ume
--umi
--un
--unce
--une
--ung
--unk
--uo
--up
--ur
--ura
--ure
--ures
--urg
--uri
--uro
--urs
--urt
--urus
--us
--usa
--use
--usi
--uska
--usok
--ust
--usz
--ut
--uta
--ute
--utes
--uth
--uti
--uto
--uum
--ux
--uz
--uza
--v
--va
--vac
--vada
--val
--valo
--var
--vas
--vasu
--vat
--vata
--vation
--vazta
--ve
--vec
--vecz
--vek
--vel
--ven
--ver
--vero
--vet
--vex
--veze
--vezeto
--vezve
--vi
--via
--vic
--vich
--vics
--vide
--vila
--vile
--ville
--vin
--vira
--virus
--vita
--vits
--vna
--vo
--voj
--vszkij
--vszky
--vu
--vus
--vy
--w
--wa
--wald
--ware
--way
--we
--web
--wer
--west
--wich
--wick
--wicz
--wk
--wn
--wood
--ws
--wski
--wyn
--x
--xa
--xe
--xi
--xid
--xis
--xo
--xy
--y
--ya
--yag
--yan
--yar
--ye
--yei
--yek
--yer
--yes
--yha
--yi
--yit
--yk
--yko
--yl
--yn
--yne
--yo
--yok
--yon
--yos
--yr
--ys
--yse
--yt
--yu
--yx
--z
--za
--zac
--zal
--zar
--zat
--zd
--zdi
--ze
--zek
--zel
--zen
--zene
--zer
--zeru
--zes
--zet
--zete
--zeto
--zett
--zi
--zia
--zid
--zie
--zik
--zin
--zio
--zione
--zionista
--zis
--zit
--zk
--zka
--zki
--zkij
--zko
--zky
--zmus
--znak
--znek
--zni
--zo
--zon
--zor
--zott
--zs
--zsa
--zt
--zta
--ztak
--zte
--ztek
--ztja
--zto
--ztra
--ztu
--zu
--zug
--zuk
--zul
--zva
--zve
--zy
--zz
--zza
--zze
--zzi
--zzu
--ß
--ße
--ßen
--ø
--ı
--ł
--ław
--ɐ
--ɑ
--ɒ
--ɔ
--ə
--ɛ
--ɛɐ
--ɡ
--ɪ
--ɾ
--ʁ
--ʃ
--ʊ
--α
--ε
--η
--ι
--κο
--ο
--ος
--ς
--υ
--а
--аи
--ан
--б
--в
--ва
--г
--го
--д
--да
--е
--еи
--ение
--ер
--есет
--ет
--з
--и
--ии
--ик
--ин
--ия
--к
--ка
--кии
--ко
--л
--ла
--ль
--льныи
--м
--н
--ние
--ник
--но
--ныи
--нь
--о
--ов
--ович
--ои
--ок
--ор
--ос
--р
--ра
--с
--скии
--ста
--ся
--т
--та
--ти
--у
--х
--ы
--ыи
--ь
--я
--ر
--ن
--ون
--น
--ย
--ร
