!
"
#
##0
##1
##10
##11
##12
##13
##14
##15
##16
##17
##18
##19
##2
##20
##21
##22
##23
##24
##25
##26
##27
##28
##29
##3
##30
##31
##32
##33
##34
##35
##36
##37
##38
##39
##4
##40
##41
##42
##43
##44
##45
##46
##47
##48
##49
##5
##50
##51
##52
##53
##54
##55
##56
##57
##58
##59
##6
##60
##61
##62
##63
##64
##65
##66
##67
##68
##69
##7
##70
##71
##72
##73
##74
##75
##76
##77
##78
##79
##8
##80
##81
##82
##83
##84
##85
##86
##87
##88
##89
##9
##90
##91
##92
##93
##94
##95
##96
##97
##98
##99
$
%
&
'
(
)
*
+
,
-
.
/
0
00
000
001
002
007
01
02
03
04
05
06
07
08
09
1
10
100
1000
10000
1001
1002
101
102
1024
103
104
105
1050
106
107
108
1080
109
11
110
1100
111
112
113
114
115
116
117
118
119
12
120
1200
121
1217
122
123
124
1241
125
1250
126
127
1270
128
1280
129
1290
1291
13
130
1300
1301
131
132
1320
133
1330
1332
1333
1334
1337
134
1342
135
1350
136
137
138
1380
1387
139
14
140
1400
1405
141
1410
142
1420
1427
143
1430
1435
1439
144
1440
145
1450
1453
1456
1458
146
1460
1461
1464
1467
147
1470
1471
1475
1479
148
1480
1483
1486
149
1490
1492
1493
1494
1495
1498
1499
15
150
1500
1501
1502
1503
1504
1505
1506
1508
151
1510
1512
1513
1514
1515
1516
1517
1519
152
1520
1521
1522
1523
1524
1525
1526
1527
1528
1529
153
1530
1532
1533
1534
1535
1536
1538
154
1540
1541
1542
1543
1545
1547
1548
1549
155
1550
1551
1552
1553
1554
1555
1556
1557
1558
1559
156
1560
1561
1562
1563
1564
1565
1566
1567
1568
1569
157
1570
1571
1572
1573
1574
1575
1576
1577
1578
1579
158
1580
1582
1584
1585
1587
1588
1589
159
1590
1591
1592
1593
1594
1595
1596
1597
1598
1599
16
160
1600
1601
1602
1603
1604
1605
1606
1607
1608
1609
161
1610
1611
1612
1613
1614
1615
1616
1617
1618
1619
162
1620
1621
1622
1623
1624
1625
1626
1629
163
1630
1631
1632
1633
1634
1635
1636
1637
1638
1639
164
1640
1641
1642
1643
1644
1645
1646
1647
1648
1649
165
1650
1651
1652
1653
1654
1655
1656
1657
1658
1659
166
1660
1661
1662
1663
1664
1665
1666
1667
1668
1669
167
1670
1671
1672
1673
1674
1675
1676
1677
1678
1679
168
1680
1681
1682
1683
1684
1685
1686
1687
1688
1689
169
1690
1691
1692
1693
1694
1695
1696
1697
1698
1699
17
170
1700
1701
1702
1703
1704
1705
1706
1707
1708
1709
171
1710
1711
1712
1713
1714
1715
1716
1717
1718
1719
172
1720
1721
1722
1723
1724
1725
1726
1727
1728
1729
173
1730
1731
1732
1733
1734
1735
1736
1737
1738
1739
174
1740
1741
1742
1743
1744
1745
1746
1747
1748
1749
175
1750
1751
1752
1753
1754
1755
1756
1757
1758
1759
176
1760
1761
1762
1763
1764
1765
1766
1767
1768
1769
177
1770
1771
1772
1773
1774
1775
1776
1777
1778
1779
178
1780
1781
1782
1783
1784
1785
1786
1787
1788
1789
179
1790
1791
1792
1793
1794
1795
1796
1797
1798
1799
18
180
1800
1801
1802
1803
1804
1805
1806
1807
1808
1809
181
1810
1811
1812
1813
1814
1815
1816
1817
1818
1819
182
1820
1821
1822
1823
1824
1825
1826
1827
1828
1829
183
1830
1831
1832
1833
1834
1835
1836
1837
1838
1839
184
1840
1841
1842
1843
1844
1845
1846
1847
1848
1849
185
1850
1851
1852
1853
1854
1855
1856
1857
1858
1859
186
1860
1861
1862
1863
1864
1865
1866
1867
1868
1869
187
1870
1871
1872
1873
1874
1875
1876
1877
1878
1879
188
1880
1881
1882
1883
1884
1885
1886
1887
1888
1889
189
1890
1891
1892
1893
1894
1895
1896
1897
1898
1899
19
190
1900
1901
1902
1903
1904
1905
1906
1907
1908
1909
191
1910
1911
1912
1913
1914
1915
1916
1917
1918
1919
192
1920
1921
1922
1923
1924
1925
1926
1927
1928
1929
193
1930
1931
1932
1933
1934
1935
1936
1937
1938
1939
194
1940
1941
1942
1943
1944
1945
1946
1947
1948
1949
195
1950
1951
1952
1953
1954
1955
1956
1957
1958
1959
196
1960
1961
1962
1963
1964
1965
1966
1967
1968
1969
197
1970
1971
1972
1973
1974
1975
1976
1977
1978
1979
198
1980
1981
1982
1983
1984
1985
1986
1987
1988
1989
199
1990
1991
1992
1993
1994
1995
1996
1997
1998
1999
2
20
200
2000
2001
2002
2003
2004
2005
2006
2007
2008
2009
201
2010
2011
2012
2013
2014
2015
2016
2017
2018
2019
202
2020
2021
2022
2023
2024
203
204
205
206
207
208
209
21
210
211
212
213
214
215
216
217
218
219
22
220
221
222
223
224
225
226
227
228
229
23
230
231
232
233
234
235
236
237
238
239
24
240
241
242
243
244
245
246
247
248
249
25
250
2500
251
252
253
254
255
256
257
258
259
26
260
261
262
263
264
265
266
267
268
269
27
270
271
272
273
274
275
276
277
278
279
28
280
281
282
283
284
285
286
287
288
289
29
290
291
292
293
294
295
296
297
298
299
3
30
300
3000
301
302
303
304
305
306
307
308
309
31
310
311
312
313
314
315
316
317
318
319
32
320
321
322
323
324
325
326
327
328
329
33
330
331
332
333
334
335
336
337
338
339
34
340
341
342
343
344
345
346
347
349
35
350
3500
351
352
353
354
355
356
357
358
359
36
360
361
362
363
364
365
366
367
368
37
370
371
373
375
376
378
38
380
381
383
384
385
386
387
39
390
395
396
399
4
40
400
4000
401
402
403
404
405
406
407
408
41
410
411
412
415
417
42
420
421
423
424
425
43
430
435
44
440
444
45
450
4500
451
455
46
460
47
470
48
480
49
5
50
500
5000
501
51
510
512
52
520
53
530
54
540
55
550
5500
555
56
560
57
58
59
6
60
600
6000
601
61
610
62
63
630
639
64
640
65
650
66
6605
67
68
69
7
70
700
7000
71
72
720
73
737
74
747
75
750
76
760
77
78
79
8
80
800
8000
81
82
83
84
85
850
86
87
88
89
9
90
900
9000
91
92
93
94
95
950
96
960
963
97
976
978
98
99
999
:
;
<
=
>
?
@
\
^
_
`
a
aa
aaron
ab
aba
abau
abba
abbahagyta
abban
abbe
abbo
abc
abd
abdul
abe
abel
abgerufen
ablak
ablaka
ablakok
ablakon
ablakot
about
above
abraham
abszolu
absztrakt
abszurd
abu
ac
academia
academy
access
accessed
ace
acid
across
act
acta
actinopterygii
action
actors
ad
ada
adag
adalbert
adale
adam
adams
adapa
adapta
adat
adata
adatai
adatait
adatba
adatgyu
adathttp
adatlap
adatlapja
adatok
adatokat
adatokkal
adatot
adatszolga
adatta
adatve
add
addig
addigi
addigra
ade
adelaide
adele
adhat
adhato
adj
adja
adjon
adjuk
adjunktus
adler
admin
adminisztra
adminisztrati
adminnak
adminok
admira
admiral
admiralita
adna
adnak
adnexarum
adni
adnia
ado
adok
adolf
adom
adoma
adorja
adott
adottsa
adria
adriai
adrian
adrienn
adta
adtak
adtam
adtplus
adva
advanced
adventista
adventure
adventures
ady
ae
aero
af
afc
affe
afga
afganiszta
africa
african
afrika
afrikai
afroamerikai
after
ag
aga
again
against
agatha
agave
age
agency
agga
agglomera
aggo
aggteleki
ago
agra
agresszi
agresszio
agy
agya
agyag
agyagos
agyi
agyonlo
agyve
ah
aha
ahelyett
ahhoz
ahmad
ahmed
ahogy
ahogyan
ahol
ahonnan
ahova
ai
aids
ain
air
airbus
aircraft
aires
airlines
airport
airways
ais
aise
aisne
aj
aja
ajax
ajka
ajku
ajtaja
ajto
ak
aka
akad
akada
akade
akadnak
akadt
akadtak
akar
akarat
akarata
akarja
akarjuk
akarna
akarnak
akaro
akarod
akarok
akarom
akarsz
akart
akarta
akartak
akartam
akarunk
akat
akcio
akd
akela
akh
aki
akik
akiket
akikkel
akiknek
akinek
akire
akiro
akit
akito
akivel
akka
akkor
akkora
akkori
akkoriban
akkredita
akkumula
akna
aknaveto
ako
akta
akti
aktiva
aktivista
aktivita
aktua
akusztikus
akut
akv
akva
al
ala
alabama
alacsony
alacsonyabb
alada
alagu
alain
alajos
alak
alakban
alaki
alakja
alakjai
alakok
alakokat
alakot
alakra
alaku
alakul
alakula
alakulat
alakulata
alakulatok
alakulnak
alakulo
alakult
alakultak
alakva
alan
alany
alanya
alap
alapanyaga
alapbo
alape
alapelve
alapfoku
alapi
alapiskola
alapja
alapjai
alapjait
alapke
alapko
alapmu
alapok
alapokon
alapon
alapos
alaposan
alapot
alapozta
alapozva
alaprajz
alaprajza
alaprajzu
alapszaba
alapszakasz
alapszi
alapszik
alapteru
alapto
alapu
alapul
alapulnak
alapulo
alapult
alapveto
alaszka
alatt
alatta
alatti
alattvalo
alba
alban
albert
alberto
albion
albrecht
album
albuma
albumlista
albummal
albumok
albumon
albumot
albumra
albumro
albums
albumuk
albumukat
alci
alcsala
ale
alegyse
alejandro
alekszandr
alekszandrovics
alekszej
alelno
alensha
aleppo
alessandro
alex
alexander
alexandra
alexandre
alexandria
alexandriai
alexandrosz
alexandru
alezredes
alfa
alfaj
alfaja
alfajai
alfo
alfonso
alfonz
alfre
alfred
alfredo
alge
algebra
algebrai
algoritmus
algoritmusok
ali
alias
alice
alicia
alien
alig
aligha
alighanem
align
alignbars
alispa
alive
alj
alja
alka
alkalma
alkalmanke
alkalmas
alkalmasak
alkalmasnak
alkalmassa
alkalmat
alkalmatlan
alkalmaz
alkalmaza
alkalmazando
alkalmazhato
alkalmazkoda
alkalmaznak
alkalmazni
alkalmazo
alkalmazott
alkalmazottak
alkalmazottja
alkalmazta
alkalmaztak
alkalmazva
alkalmazza
alkalmi
alkalom
alkalommal
alkatego
alkatre
alkira
alkohol
alkot
alkota
alkotja
alkotma
alkotnak
alkotni
alkoto
alkotott
alkotta
alkottak
all
alla
allan
alle
allen
allergia
alliance
allmusic
alma
almanach
alo
alone
alonso
aloszta
alpes
alpesi
alpesisi
alpha
alpok
alpolga
alrendje
als
alsablon
also
alszik
alt
alta
alternati
alti
alto
aludni
aludt
alul
alulmaradt
alulro
alumi
alva
alvila
alvo
always
am
ama
amade
amadeus
amanda
amato
amazing
amazon
amazonas
ambi
ambrus
amd
ame
ameddig
amellett
amellyel
amely
amelybe
amelyben
amelybo
amelyek
amelyekben
amelyekbo
amelyeken
amelyeket
amelyekkel
amelyeknek
amelyekre
amelyen
amelyet
amelyhez
amelyik
amelyne
amelynek
amelyre
amelyro
amenhotep
amennyi
amennyiben
amennyire
amennyit
america
american
amerika
amerikai
amerikaiak
amerikaifutball
amfitea
ami
amiatt
amibe
amiben
amibo
amie
amiga
amihez
amik
amiket
amiknek
amikor
amilyen
amin
aminek
amint
amio
amire
amiro
amit
amito
amivel
ammo
amnesztia
amolyan
amor
amore
amour
amphibia
amsterdam
amszterdam
amszterdami
amu
amy
an
ana
anakin
anali
analitikus
analo
analysis
anarchista
anato
ancient
and
andalu
anders
andersen
anderson
andersson
andok
andor
andorra
andra
andre
andrea
andreas
andrej
andrena
andrew
andrews
android
andrzej
andy
ane
anekdota
ange
angel
angela
angeles
angelesbe
angelesben
angelo
angels
anglia
angliai
anglika
angol
angola
angolban
angolbo
angolok
angolra
angolsza
angolt
angolul
angyal
angyalfo
angyali
angyalok
anhalt
ani
aniko
anima
animal
animation
anime
anita
anjou
ankara
ann
anna
annak
annales
annama
anne
annekta
annie
anniversary
anno
annyi
annyiban
annyira
annyit
ano
anon
anonim
anonymus
another
ans
antal
antall
antant
antarktisz
antarktiszi
ante
antenna
anthony
anti
antifasiszta
antige
antik
antiochia
antiochiai
antiszemita
anto
antoine
antolo
anton
antoni
antonio
antonius
antropolo
antwerpen
anura
any
anya
anyag
anyaga
anyagbo
anyagcsere
anyaggal
anyagi
anyagilag
anyagok
anyagokat
anyagokbo
anyagokkal
anyagot
anyagu
anyai
anyako
anyanyelve
anyanyelvi
anyanyelvu
anyaorsza
anyja
anyo
ao
ap
apa
apache
apai
api
apja
apjuk
apo
apogeuma
apollo
apor
apostol
apostoli
apostolok
apple
apponyi
april
apro
aprocsillag
aquila
ar
ara
arab
arabok
arabul
arad
aradi
aradon
arago
aranka
arany
aranya
aranyat
aranye
aranykora
aranykupa
aranylemez
aranyos
aranyozott
arata
arato
aratott
aratta
arattak
arbore
arc
arca
arcanum
arccal
arch
archaikus
archeolo
archi
architecture
architektu
archiv
archiva
archive
archives
arcke
arcok
arcu
arculata
are
area
arena
argenti
argentin
argumentum
aria
arisztokra
arisztokrata
arisztotele
arizona
arkansas
arm
armand
arms
armstrong
army
arnold
aroma
around
arra
arro
ars
arsenal
art
arte
arthur
article
articles
artist
artists
artportal
arts
artu
arturo
ary
arze
as
ash
ashley
asia
asimov
asp
aspx
assaiki
assisi
association
asszi
asszimila
asszisztens
asszisztense
asszisztenske
asszocia
asszony
asszonya
asszonynak
asszonyok
asszonyt
ast
aston
astra
asz
aszerint
aszo
asztal
asztala
asztali
asztalitenisz
asztalon
asztalos
asztalra
aszteroida
asztrolo
asztu
at
atari
atatu
atc
ateista
athe
athenaeum
athletic
atlanta
atlanti
atlantic
atlantiques
atlantisz
atlas
atlasz
atlasza
atle
atmoszfe
ato
atom
atomero
atomok
atp
attack
attila
atto
attribu
atv
atya
atyja
au
aube
aude
audi
audio
auf
auflage
aug
augsburg
august
augusta
auguste
augustus
auguszta
augusztus
augusztusa
augusztusban
augusztusi
aukcio
aure
aurelius
aurora
aus
austin
australia
australian
austria
ausztra
ausztria
ausztriai
author
auto
automata
automatikus
automatikusan
automatiza
autono
aux
av
avagy
available
avak
avantga
avar
avarok
avata
avatott
avatta
avattak
ave
avenue
aves
aviation
aviv
award
awards
away
axel
axio
az
aza
azaz
aze
azelo
azerbajdzsa
azeri
aznap
azo
azok
azokat
azokban
azokbo
azokhoz
azokkal
azokna
azoknak
azokon
azokra
azokro
azon
azonban
azonki
azonnal
azonnali
azonos
azonosak
azonosi
azonossa
azt
azta
azte
azuta
azzal
b
ba
baa
bab
baba
babe
babes
babiloni
babits
babona
baby
bac
bach
back
backgroundcolors
bad
baden
badeni
bafta
bagoly
baha
bahama
bahn
bahreini
bai
bailey
baj
baja
bajai
bajba
bajcsy
bajnok
bajnoka
bajnokcsapatok
bajnoki
bajnokin
bajnokok
bajnoksa
bajom
bajor
bajororsza
bajt
bajta
bak
baka
baker
bako
bakony
bakonyi
bakos
bakte
bal
bala
balaku
balassa
balassagyarmat
balassi
balaton
balatonfu
balatoni
balduin
baleset
balesetben
balesete
balesetek
balesetet
balett
balhe
bali
balint
balka
ball
balla
ballada
ballisztikus
balmazu
balo
balog
balogh
baloldal
baloldali
balra
balro
balsza
balta
balti
baltimore
ban
bana
band
banda
bandita
bang
banglades
bank
banka
banki
bankjegy
bankjegyek
bankok
banks
baptista
baptiste
bar
bara
baraba
barack
baranya
baranyai
barba
barbara
barcelona
barcelonai
bardata
bari
barka
barko
barlang
barlangban
barlangbo
barlangi
barlangja
barlangjai
barlangjainak
barlangkataszteri
barlangkutata
barlangkutato
barlangnak
barlangok
barlangot
barna
barnaba
barnes
barney
baro
barokk
baron
baross
barra
barrett
barrichello
barry
bars
bart
barta
bartha
barto
bas
basa
base
baseball
based
basel
basic
baski
bass
basszus
basszusgita
bastien
baszk
bat
bates
batman
batthya
battista
battle
bauer
bavalo
bay
bayer
bayern
baza
bazilika
bb
bba
bbak
bbal
bban
bbc
bbe
bbedmaga
bbek
bben
bbes
bbet
bbfe
bbfejleszte
bbfejlesztett
bbi
bbiak
bbiakat
bbiakban
bbiban
bbiek
bbiekben
bbieket
bbin
bbina
bbinak
bbis
bbit
bbje
bbju
bbjuta
bbjuto
bbjutott
bbke
bbnek
bbnyire
bbo
bbra
bbre
bbrendu
bbse
bbszo
bc
bd
be
bea
beach
beada
beadva
bean
bear
beast
beat
beatles
beatrice
beatrix
beautiful
beavatkoza
beazonosi
bebizonyi
bebo
bec
bece
beceneve
beck
becker
becsapo
becsle
becsu
bedo
bee
been
beethoven
befejeze
befejezetlen
befejezett
befejezni
befejezo
befejezte
befektete
befekteto
befele
befogada
befogado
befolya
before
begin
begyu
behata
behato
behi
behind
behu
bei
beiktata
beindi
being
beiratkozott
beja
bejegyezve
bejegyze
bejegyzett
bejelente
bejelentette
bejelenti
bejelentkeze
bejo
bejutni
bejutott
bejutottak
bek
bekapcsolo
beke
bekeri
bekeru
bekezde
beko
beku
bel
bela
belarusz
bele
belee
beleegyeze
beleegyezett
belefe
belehalt
belei
beleszeret
beleszeretett
beleszo
belfo
belga
belgium
belgiumban
belgiumi
belgra
belgyo
beli
believe
belize
bell
bella
belle
belo
belova
belpolitikai
belseje
belso
belteru
belu
belva
bem
bema
beme
bemondo
bemutata
bemutatja
bemutatkoza
bemutatkozhatott
bemutatkozo
bemutatkozott
bemutatni
bemutato
bemutatott
bemutatta
bemutatva
ben
bence
bencemac
bencze
bene
benedek
benes
benfica
benga
beni
benja
benjamin
benko
benn
benne
bennem
benneteket
bennett
benno
bennszu
bennu
benny
beno
benso
bent
benyoma
benyu
benz
beo
beolvadt
beoszta
ber
berben
berber
bercse
bere
bereg
beregsza
berendeze
berendezkede
berepu
berettyo
berg
bergamo
bergen
berger
bergman
beri
berig
berkeley
berki
berlin
berlinbe
berlinben
berlini
bern
berna
bernadett
bernard
bernardo
bernhard
bernstein
beroesz
berry
bert
berta
bertalan
bertrand
beru
beruha
berzsenyi
bes
besenyo
besorola
besorolatlan
bessenyei
best
besu
besza
besze
beszerze
beszo
beszterce
beszterceba
beszu
bet
beta
betala
betarta
bete
beteg
betegek
betegse
betekinte
betelepi
betelepu
bethlen
betilta
betiltotta
beto
beton
better
betty
betu
betva
between
betya
beu
bev
beva
bevalla
bevallja
beve
beverly
bevete
bevetheto
bevett
bevette
bevezete
bevezetett
bevezetni
bevezeto
bevezette
bevezetve
bevona
bevonula
bevonult
beyonce
beyond
beza
bezere
bf
bg
bh
bha
bhuta
bi
bia
biai
biblia
bibliai
bibliogra
bibliotheca
biden
bienna
big
bihar
bihari
bika
bilbao
bill
billboard
billentyu
billie
billy
bimbo
bin
bina
binbot
bio
biogra
biography
bioke
biolo
biology
bioszfe
biotechnolo
bira
bird
birds
birka
birko
birmingham
biro
birodalma
birodalmat
birodalmi
birodalom
birodalomban
birodalomhoz
birtok
birtoka
birtokai
birtokait
birtokba
birtokla
birtokok
birtokokat
birtokolt
birtokolta
birtokos
birtokosa
birtokosai
birtokosok
birtokot
birtokre
bis
bishop
bismarck
bit
bita
bites
biz
biza
bizalma
bizalmas
bizalmat
bizalmatlansa
bizalmi
bizalom
bizonnyal
bizony
bizonya
bizonyi
bizonyos
bizonyosan
bizonyossa
bizonysa
bizonytalan
bizonytalansa
bizonyult
bizonyultak
bizottma
bizottsa
biztonsa
biztos
biztosa
biztosan
biztosi
bja
bjain
bjo
bk
bke
bkv
bl
bla
blabi
blabla
blablabla
black
blackburn
blade
blaha
blake
blanc
blanka
ble
bli
blind
blista
blo
block
blog
blogja
bloka
blokk
blokkola
blokkolni
blokkot
blood
blu
blue
blues
bm
bme
bmg
bmw
bo
board
bob
bobby
boca
bocs
bocsa
bocskai
bodna
bodo
bodor
bodrog
body
boeing
boga
bogarak
bogda
bogla
bogna
bogyo
bohe
boho
bok
boka
bokor
bokros
boldizsa
boldog
boldogan
boldogasszony
boldogfai
boldogga
boldogok
boldogsa
boldogtalan
boleszla
bolga
boli
bologna
bolond
bolsevik
bolt
bolti
bolton
bolyai
bolygo
bomba
bomla
bon
bonaparte
bond
bonifa
bonn
bonnie
bonta
bontakozott
bontani
bontja
bontotta
bonyha
bonyoli
bonyolult
bonyolultabb
book
books
bor
bora
borba
borban
borbe
borda
bordeaux
border
bori
boris
borisz
borju
bormegbesze
born
bornagy
borneo
bornok
bornoka
bornokot
boro
boroda
borok
borokat
boros
borostya
borotva
borovszky
borral
bors
borso
borsod
borsodi
borsos
bort
boru
borussia
borvide
borzaszto
bos
bosnya
bosszu
boston
bostoni
bosznia
boszniai
boszorka
bot
botanikai
botanikus
botgazda
both
botok
botond
botos
botot
botra
botswana
bottal
bottas
bottom
bourbon
bowie
bowl
box
boy
boys
bozo
bp
bpest
br
bra
brad
bradley
braha
brahma
brain
brand
brandenburg
brandenburgi
brandon
brasso
bratislava
braun
braunschweig
bravo
bravu
brazi
brazil
bre
break
brecht
bred
brede
bredt
bree
bremen
brescia
bretagne
breton
brian
bridge
brien
briga
bristol
brit
britain
britannia
britannica
britek
british
britney
brno
bro
broadway
brod
broken
bronz
bronze
bronzkori
bronzme
brooklyn
brooks
bros
brothers
brown
bru
bruce
bruno
bruta
brutto
bryan
bsc
bse
bsza
bszi
bt
btk
bto
bu
bubore
bucures
bud
buda
budai
budao
budapest
budapesten
budapesti
budapestre
budapestro
budava
buddha
buddhism
buddhist
buddhista
buddhizmus
buddhizmusban
buenos
buffalo
bug
building
buja
bujdoso
bujka
buka
bukarest
bukarestben
bukaresti
bukkan
bukkant
bukkantak
bukott
bulga
bull
bulla
bulletin
bulva
bunda
bundesliga
bunker
bunko
burgenland
burgonya
burgos
burgundi
burja
burke
burkina
burkolt
burma
burns
burrows
burton
burum
burumba
bus
bush
business
busszal
busz
buszja
buszmega
buszok
buszt
buszvonalai
but
buta
butler
button
buza
buzdi
buzgo
buzoga
bvsc
bwv
bxc
by
byron
c
ca
cache
caerbannog
caesar
caf
cafe
cai
caius
cal
calabria
calais
calcio
california
call
calvados
cambridge
cameron
camille
camp
campania
campbell
campus
can
canada
canadian
cannes
canto
canvas
cap
cape
capital
caps
captain
car
cardiff
care
carey
carl
carlo
carlos
carmen
carol
carolina
caroline
carpenter
carrie
carter
cartman
cartoon
casa
casanova
case
casey
cash
casino
cassandro
castello
castle
castro
cat
catalogue
category
catherine
catholic
cave
cba
cbs
cc
ccsal
ccse
cd
cdot
cdots
ce
cea
ceci
cecil
cegle
cel
cell
cella
celldo
celsius
celtic
census
centena
center
centime
centra
central
centre
centrum
century
cenzu
ceremo
ceres
ceruza
cesare
cest
cet
ceum
ceumban
cf
cgi
ch
cha
challenge
champagne
championship
chan
chance
change
changes
channel
chapman
chapter
charente
charles
charlie
charlotte
chart
charta
chase
che
check
chelsea
chemical
chemistry
chen
chenyi
cher
chery
chess
chevrolet
chi
chicago
child
children
chile
chilei
china
chinese
chip
chloe
choice
chopin
chou
chris
christ
christian
christie
christina
christine
christmas
christoph
christopher
chrome
chuck
church
churchill
chy
ci
cia
ciai
cicero
ciconia
ciens
cifra
ciga
cigaretta
cik
cikk
cikkbe
cikkben
cikkbo
cikkci
cikke
cikkei
cikkeinek
cikkeit
cikkek
cikkekbe
cikkekben
cikkeket
cikkekkel
cikkekne
cikkekre
cikkel
cikken
cikket
cikkhez
cikki
cikkne
cikknek
cikkre
cikkro
cikku
ciklus
ciklusa
ciklusban
cimbora
cine
cinema
cink
cio
cipo
ciprus
ciprusi
circle
circuit
circus
cirill
cirka
cirkusz
ciszterci
cit
cite
city
ciudad
cium
civil
civilek
civiliza
ck
cke
cken
cl
claire
clapton
clara
clark
clarke
class
classic
claude
claudia
claudio
claudius
clay
cle
cleveland
cliff
clinton
close
club
cluj
clyde
cm
cn
cnn
co
coa
coast
coburg
code
codex
cohen
cok
cola
cold
cole
colin
collection
college
collegium
collins
colo
color
colorado
colors
columbia
columbus
com
come
comedy
comes
comics
coming
command
comment
commission
committee
commodore
common
commons
commonsba
community
como
company
complete
complex
computer
comune
comuni
con
concacaf
concert
concerto
conde
conference
congress
conmebol
connecticut
connor
conrad
constant
constantin
constantinus
consul
consulnak
contemporary
content
control
cook
cool
cooper
copa
core
cornelis
cornelius
corner
corporation
corpus
cortinarius
corvin
corvina
corvinus
cos
costa
cot
could
council
countries
country
county
coupe
court
covid
cox
cp
cpu
cr
cra
craig
crash
crassus
crazy
cre
creek
crime
crimea
cross
crown
cruz
cry
crystal
cs
csa
csaba
csabai
csada
csado
csai
csajkovszkij
csak
csakhamar
csakhogy
csakis
csaknem
csaku
csakugyan
csala
csallo
csalo
csana
csang
csap
csapa
csapade
csapat
csapata
csapatai
csapataiban
csapatainak
csapatait
csapataival
csapatba
csapatban
csapatbo
csapathoz
csapatkapita
csapatna
csapatnak
csapatok
csapatokat
csapatokban
csapatokkal
csapatoknak
csapatot
csapatta
csapattal
csapatto
csapda
csapo
csapott
csarnok
csarnoka
csarnokban
csata
csatacirka
csatahajo
csatate
csatlakoza
csatlakozik
csatlakoznak
csatlakozni
csatlakozo
csatlakozott
csatlakoztak
csatlakozzon
csatlo
csatola
csatolt
csatolta
csatorna
csavargo
csban
csbe
csben
csbo
cse
csecsemo
cseh
csehek
csehorsza
csehov
csehszlova
csei
cseke
csele
cselekme
cselekve
cselekvo
cselga
csello
cselno
csempe
csen
csend
csendben
csende
csendes
csendesen
csendo
csengo
csepel
csepeli
csepp
cseppko
csere
csereke
cseresznye
cserha
cserje
cserke
cserna
csett
csey
csga
csha
csi
csiek
csiga
csigabi
csigolya
csik
csiko
csiky
csilla
csillag
csillaga
csillaggal
csillagkapu
csillagke
csillagko
csillagok
csillagos
csillagot
csillagvizsga
csillapi
csillogo
csimpa
csin
csina
csing
csinos
csipke
csirke
csizma
csizmadia
cska
cskai
cske
csko
cskoza
csnak
csne
cso
csoba
csoda
csok
csokat
csokola
csokonai
csola
csolt
csolta
csoma
csomag
csomagola
csomagot
csomo
cson
csongor
csongra
csonk
csonka
csont
csontok
csontos
csontva
csony
csonya
csonyi
csoport
csoportba
csoportban
csoportbo
csoporthoz
csoportja
csoportko
csoportme
csoportnak
csoportok
csoportokat
csoportokban
csoportos
csoportosi
csoportosula
csoportot
csoportra
csorba
csorda
csos
csosa
csosi
csot
cspontja
csra
css
csto
csu
csuda
csuka
csuklo
csupa
csupasz
csurla
csy
cszka
ct
cth
ctor
cu
cukor
cukorbetegse
cukorgya
cukra
cultural
culture
cum
cup
cure
current
curtis
cut
cv
cyrano
cz
cza
czai
cze
czi
czky
czy
d
da
daca
dacia
dai
daily
dajka
dak
dakota
dal
dala
dalai
dalait
dalban
dale
dalfesztiva
dalhoz
dallal
dallam
dallama
dallas
dalma
dalnak
dalok
dalokat
dalszerzo
dalszo
dalt
daluk
dame
dami
damjanich
damon
dan
dana
dance
dancing
danda
dani
daniel
danko
danny
dans
dante
dara
darab
darabban
darabig
darabja
darabjai
darabok
darabokat
darabokra
darabos
darabot
darabsza
dark
darkgrey
darth
darts
daru
darvas
darwin
das
dasdy
dat
data
database
date
dateformat
daula
dave
david
davies
davis
dawn
day
days
db
dba
dban
dbe
dben
dbo
dc
dd
ddal
ddel
de
dea
dead
dean
death
debrecen
debrecenben
debreceni
debreceniek
debreczeni
debu
dec
december
decemberben
decembere
decemberi
dedika
dee
deeann
deep
def
default
defini
definia
degli
dei
dek
deket
dekeze
dekezo
deklara
dekora
del
delega
delem
delemre
delfin
delhi
dell
della
delle
delme
delmet
delmezo
delmi
delta
deluxe
dem
deme
demeter
demje
demo
demogra
demokra
demokrata
demokratikus
demonstra
den
dencey
denesferi
deneve
deni
denis
dennis
denver
department
deporta
deportivo
depresszio
der
dera
derby
dere
derek
dereka
deres
deri
deriva
deru
derva
des
desanya
desanyja
desapja
descartes
description
design
desmond
desse
destroyer
destroyermi
desvi
deszka
deszko
det
detekti
determina
detroit
dett
dette
dettse
deutsch
deutsche
deutschen
deutschland
deux
development
devil
dex
dezso
df
dfa
dfb
dfo
dh
dha
dhanak
dharma
dhat
dhet
dhetett
dhoz
di
dia
diadali
diadalmaskodott
diagno
diagnosztiza
diagram
diai
diako
dialo
diamond
diana
diane
dick
dicse
dicso
dictionary
did
die
diego
dieter
dietrich
differencia
diffu
dig
dige
digest
digita
digital
digitaliza
dik
dika
dikta
diktatu
dikus
dilemma
dimenzio
din
dina
dinamika
dinamikus
dinamo
dinasztia
dino
dinoszaurusz
dinoszauruszok
dio
dionu
dioxid
diploma
diplomata
direct
direkt
dirty
dis
disco
discogs
discovery
disney
disszerta
dista
district
diszko
diszkogra
diszkre
diszkrimina
diszno
disztribu
dit
ditions
dium
divat
divatos
divi
divisio
division
diza
dj
dja
djabe
djai
djainak
djait
djake
dje
djegy
djo
djon
djuk
dk
dke
dko
dl
dla
dleges
dlegesen
dlelke
dlista
dlo
dm
dme
dmezo
dmitrij
dna
dnak
dne
dnek
dneve
dni
dnie
dno
dns
do
dob
doba
dobja
dobo
dobogo
dobok
doboka
dobos
dobosa
dobott
doboz
dobra
dobta
doc
docens
docense
doctor
dodi
dog
dogma
doha
doi
dok
dokat
dokban
doki
dokkal
doktor
doktora
doktori
dokumenta
dokumentum
dokumentumfilm
dokumentumok
dokumentumot
dol
dola
dolga
dolgok
dolgokat
dolgokro
dolgot
dolgozata
dolgozik
dolgoznak
dolgozni
dolgozo
dolgozott
dolgozta
dolgoztak
dolgozza
dolja
dolla
dolo
dolog
dolognak
dologra
dologro
dolt
dolta
doltsa
dom
domain
domb
dombo
dombok
dombon
dombormu
domboru
domborzata
dombsa
dombvide
dome
domenico
domina
dominancia
domingo
dominikai
domino
domokos
domonkos
don
dona
donald
done
donizetti
donna
doo
doom
door
dor
dora
dordogne
dorgan
dori
dorog
dorogi
dorothy
dorottya
dorsza
dortmund
dos
dosi
dosult
dosztojevszkij
dot
dots
dott
double
doubs
doug
douglas
down
doyle
dpu
dr
dra
draft
dragon
drake
drama
dramaturg
dre
dream
dreams
dresden
drezda
drive
dro
dry
ds
dsa
dse
dsza
dszer
dszere
dszerei
dszerek
dszereket
dszerekkel
dszerrel
dszert
dszertani
dt
dta
dtak
dte
dtek
dtem
dtete
dtetett
dteto
dtette
dto
du
dua
dub
dublin
dubois
dubrovnik
duda
duett
dugattyu
dugo
duka
duke
dula
dumas
dumbledore
duna
dunai
dunakeszi
dunaszerdahely
dunau
duncan
dunoka
duo
dupla
duplika
duran
during
durva
dus
dusa
dust
dutch
dv
dva
dvd
dve
dvo
dvsc
dvtk
dx
dy
dylan
dz
dzsa
dzsessz
dzsi
dzso
dzsu
dzsungel
e
ea
eagle
earl
early
earth
east
eastern
eastwood
easy
eb
ebbe
ebben
ebbo
ebe
ec
echo
eco
economic
ecuador
ecuadori
ed
edda
eddie
eddig
eddigi
ede
edgar
edge
edik
edina
edinburgh
edit
edited
edith
editing
edition
editor
editors
edmund
edo
eds
edu
edua
eduard
eduardo
education
edward
edwards
edwin
edze
edzo
ee
effe
effect
ege
eger
egerben
eget
eggyel
egon
egressy
egri
egy
egya
egyara
egyazon
egybe
egybei
egyben
egybo
egye
egyebek
egyebet
egyed
egyedek
egyedi
egyedsza
egyedu
egyelo
egyena
egyene
egyenes
egyenesen
egyenke
egyenlet
egyenletek
egyenletes
egyenletesen
egyenli
egyenlo
egyenrangu
egyenruha
egyensu
egyes
egyese
egyesek
egyesi
egyesu
egyet
egyete
egyetem
egyetemben
egyeteme
egyetemek
egyetemeken
egyetemen
egyetemes
egyetemet
egyetemi
egyetemista
egyetemre
egyetlen
egyeze
egyezik
egyezme
egyezse
egyeztete
egyfajta
egyfelo
egyforma
egyha
egyhajo
egyhangu
egyharmada
egyideju
egyido
egyik
egyike
egyiket
egyiku
egyiptom
egyiptomba
egyiptomban
egyiptomi
egyiptomiak
egykor
egykori
egykoron
egykoru
egylet
egyma
egymaga
egymillio
egyne
egyo
egyoldalu
egypa
egypt
egyre
egyse
egyszeme
egyszer
egyszeres
egyszeri
egyszerre
egyszersmind
egyszeru
egyu
egzotikus
ehelyett
eheto
ehf
ehhez
ei
eidem
ein
eindhoven
eine
einer
einstein
eintracht
ej
ejte
ejtett
ejtette
ejti
ejtik
ejto
ejtsd
ek
eke
eket
ekke
ekkor
ekkora
ekkoriban
ekkorra
ekkorta
ekkorto
eklektikus
eko
ekvivalens
el
ela
elada
eladja
eladni
elado
eladott
eladta
elavult
elba
elbesze
elbi
elbocsa
elbontotta
elbu
elbukott
elcsere
eldo
ele
electric
electronic
elefa
elega
elegendo
eleget
eleinte
eleje
eleji
elek
elektra
elektro
elektroma
elektromos
elektromossa
elektron
elektronika
elektronikai
elektronikus
elektronok
elem
eleme
elemei
elemeinek
elemeit
elemek
elemeket
elemekkel
elemet
elemi
elemze
elemzo
elena
elengedhetetlen
elenye
eleono
elesett
eleste
eleve
eleven
elfe
elfelejtett
elfoga
elfogada
elfogadhatatlan
elfogadhato
elfogadja
elfogadni
elfogadom
elfogadott
elfogadta
elfogja
elfoglala
elfoglalja
elfoglalni
elfoglalt
elfoglalta
elfoglalva
elfogott
elfogta
elfogult
elfogyott
elgondola
elha
elhagya
elhagyatott
elhagyja
elhagyni
elhagyott
elhagyta
elhagyva
elhala
elhalad
elhalasztotta
elhalt
elhangzott
elhanyagolhato
elhata
elhelyeze
elhelyezett
elhelyezkede
elhelyezkedo
elhelyezni
elhelyezve
elhi
elho
elhu
elhunyt
eli
elindi
elindul
elindult
elinte
elisabeth
elismere
elismeri
elismero
elismert
elismerte
elit
elizabeth
elja
eljegyezte
eljegyze
eljo
eljut
eljutni
eljutott
eljutottak
elka
elkapja
elke
elkeru
elkezd
elkezdett
elkezdi
elkezdo
elkezdte
elkezdtek
elkezdtem
elki
elko
elkobozta
elku
ella
elle
ellen
ellena
ellenben
ellene
ellenes
ellenezte
ellenfe
ellenfele
ellenfelei
ellenfelek
elleni
ellenkezo
elleno
ellenpa
ellense
ellensu
ellenta
ellente
ellentmond
ellentmonda
ellenu
ellenvete
ellenze
ellenzem
ellenzo
elliott
ellipszis
elliptikus
ellis
ellopta
elmagyara
elmarad
elmarada
elmaradt
elme
elmegy
elmegyo
elmeneku
elmennek
elment
elmeru
elmese
elmonda
elmondani
elmondhato
elmondja
elmondta
elmozdi
elmozdula
elmu
elne
elneveze
elnevezett
elno
elnyere
elnyert
elnyerte
elnyoma
elnyu
elo
elolvasni
eloszla
eloszta
elpa
elpuszti
elpusztult
elrabla
elrabolja
elrabolta
elrendelte
elrendeze
elsa
elsaja
else
elseje
elso
elst
elsu
elsza
elszakada
elszakadt
elszege
elszenvedett
elszi
elszigetelt
elszo
elta
eltala
elte
eltekintve
eltelt
eltelte
eltemetett
elterjede
elterjedt
elterjedtek
elteru
eltilta
eltiltotta
elto
eltolo
eltu
elu
elutasi
elv
elva
elve
elvek
elveszett
elveszi
elveszte
elvesztett
elvesztette
elveszti
elvet
elvetette
elvette
elvi
elvileg
elvis
elviszi
elvitte
elvont
elvta
elza
em
ema
email
ember
emberben
embere
emberei
embereit
emberek
embereket
emberekkel
embereknek
emberi
emberise
emberke
embernek
emberre
emberrel
emberro
emberse
embert
emble
eme
emele
emelet
emelete
emeleten
emeletes
emeleti
emeli
emelkede
emelkedett
emelkedik
emelkedo
emellett
emelni
emelo
emelt
emelte
emeltek
emelve
emese
emi
emiatt
emigra
emil
emilia
emilio
emily
emle
emlegetett
emlegetik
emlegette
emli
emlo
emma
emmanuel
emmi
emmy
emo
empire
en
enciklope
encyclopaedia
encyclopedia
end
endemikus
endre
ene
energetikai
energia
energiaella
energiaforra
energy
enged
engede
engedelmesse
engedett
engedi
engedik
engedje
engedme
engedte
engel
engels
engem
engemet
engineering
england
english
eniko
eniport
enne
ennek
enni
ennyi
ennyire
ennyit
enrico
enrique
ensz
enterprise
entertainment
entita
enwiki
enwikin
enye
enyhe
enyhi
enyhu
enzim
eo
eoce
ep
epa
eperjes
eperjesi
epic
epigramma
epikus
episode
epizo
epocha
eposz
equiv
er
era
erasmus
erde
erdei
erdeje
erdo
ere
ered
eredet
eredete
eredeti
eredetije
eredetileg
eredetu
eredivisie
eredme
eredo
ereje
ereju
erek
ereklye
eretnekse
eri
eric
erich
ericsson
erik
erika
erke
erkel
erko
ernest
erno
ernst
ernyo
ero
erotikus
erre
erro
error
ersze
ervin
erwin
erzse
erzsi
es
ese
esek
eseme
esernyo
eset
esetben
esete
esetek
esetekben
eseteket
esetenke
esetet
esetleg
esetleges
esetlegesen
esetre
esett
esetu
esik
esku
esnek
eso
espan
esperanto
esperes
esperesse
essen
essze
est
este
estek
esterha
esti
esz
esze
eszembe
eszerint
eszik
eszko
eszme
eszmecsere
eszmei
eszperantista
eszperanto
eszte
esztendeje
esztendo
eszter
esztergom
esztergomban
esztergomi
eszterha
eszu
et
eta
etc
etelka
etika
etikai
etimolo
etio
etnikai
eto
etruszk
etto
eu
euge
eugen
eugene
euklideszi
euler
euphorbia
eura
eure
euro
europa
europe
european
eurovi
ev
eva
evakua
evan
evang
evange
evans
eve
evelyn
event
events
ever
everton
every
everything
eveze
evezo
evic
evil
evo
evolu
evolution
ex
executive
exkluzi
expedi
experience
explorer
expo
export
exporta
express
expressz
extended
extra
extre
eye
eyes
ez
eza
ezalatt
eze
ezek
ezekben
ezekbo
ezeken
ezeket
ezekhez
ezekkel
ezekne
ezeknek
ezekre
ezekro
ezelo
ezen
ezenki
ezentu
ezer
ezere
ezred
ezrede
ezredes
ezredfordulo
ezren
ezres
ezt
ezu
ezuta
ezzel
f
fa
faa
face
facebook
facto
factor
factory
fagy
fair
faith
faj
faja
fajai
fajban
faji
fajjal
fajke
fajnak
fajok
fajokat
fajro
fajt
fajta
fakad
fakado
fako
faktor
fakulta
fal
fala
falai
falain
falait
falak
falakat
falakon
falat
falco
falcon
falfestme
fall
fallal
falls
falon
false
falu
faluba
faluban
falubo
faluja
falun
falunak
faluro
falusi
falut
faluto
falva
falvak
falvakat
falvakban
fame
fami
familia
family
fan
fanny
fanta
fantasy
fantasztikus
far
farago
faragott
farka
farkas
farkasok
farkasre
farm
farmakolo
farok
fasiszta
fasizmus
faso
fat
fatemplom
father
fato
fauna
faust
fauvirt
fava
fazekas
fb
fbi
fc
fd
fe
fea
fear
feat
feature
featuring
febr
februa
february
fecske
fed
fede
federation
federer
federico
fedett
fedeze
fedezett
fedezte
fedeztek
fedi
fedo
fedte
feedback
feel
fegyelmi
fegyha
fegyver
fegyvere
fegyverek
fegyvereket
fegyverekkel
fegyveres
fegyverrel
fegyverszu
fegyvert
fegyverzet
fegyverzete
fehe
fej
feje
fejedelem
fejedelemse
fejedelme
fejedelmek
fejedelmi
fejem
fejes
fejet
fejez
fejezet
fejezetben
fejezete
fejezetek
fejezetet
fejezeti
fejezi
fejezik
fejezo
fejezte
fejfa
fejjel
fejle
fejleme
fejleszte
fejleszteni
fejlesztett
fejlesztette
fejlesztettek
fejleszto
fejlett
fejlettebb
fejlettse
fejlo
fejtett
fejto
feju
fejvada
fekete
fekszenek
fekszik
fektetett
fektette
feku
fekve
fekvo
fel
fela
felada
feladat
feladata
feladatai
feladatairo
feladatait
feladatko
feladatok
feladatokat
feladatokro
feladatot
feladatra
feladatuk
feladni
feladta
felaja
felavata
felbocsa
felbomla
felbonta
felbontotta
felbukkan
felbukkant
felcsere
felderi
feldolgoza
feldolgozo
feldolgozott
feldolgozta
feldu
fele
felede
felek
felekezet
felekezeten
felekezeti
felel
felelnek
felelo
felelt
felelte
felema
felemelkede
felero
felese
felesleges
feleslegesen
felett
felette
feletti
feleze
felfedeze
felfedezett
felfedezi
felfedezni
felfedezo
felfedezte
felfedi
felfegyverzett
felfele
felfigyelt
felfo
felfoga
felfu
felgyorsi
felgyu
felha
felhagyott
felhalmozo
felhaszna
felhatalmaza
felhi
felho
felhu
feli
felide
felipe
felirat
felirata
feliratok
feliratot
felirattal
felismere
felismerheto
felismeri
felismerni
felismerte
felix
feljavi
feljebb
feljegyezte
feljegyze
feljelente
feljo
feljuta
feljutott
felke
felkele
felkelo
felkeltette
felkeresi
felkereste
felkeru
felkia
felku
felkutata
fella
felle
fellegva
fellelheto
fellendu
fellini
felme
felmelegede
felmeno
felmente
felmentette
felmeru
felne
felno
felo
felolda
felolvasa
felolvaso
feloszla
feloszlata
feloszlatta
feloszlott
feloszta
felosztotta
felrobbant
felrobbantotta
felruha
felse
felso
felsorola
felsorolt
felsza
felszabadi
felszabadula
felszabadult
felszentele
felszerele
felszerelt
felszereltse
felszerelve
felszi
felszo
felta
feltala
feltarto
felte
felteheto
feltenni
feltett
felteve
felto
feltu
felu
felv
felva
felve
felvenni
felveszi
felvete
felvetett
felvetette
felveto
felvett
felvette
felvevo
felvide
felvila
felvira
felvona
felvono
felvonula
felza
feminista
fender
fene
feneke
fenn
fenna
fennhato
fennmarada
fennmarado
fennmaradt
fennmaradtak
fennsi
fenntarta
fenntartani
fenntarthato
fenntarto
fenntartott
fense
fent
fentebb
fenti
fentiek
fenyegete
fenyegetett
fenyegeti
fenyegeto
fenyegette
fenyo
fer
ferde
ferdina
ferdinand
ferenc
ferenccel
ferences
ferencesek
ferencet
ferencne
ferencva
ferencz
ferenczi
ferenczy
ferguson
feridia
ferna
fernando
fero
ferrari
ferto
fest
feste
festetics
festett
festette
festival
festme
festo
feszi
feszta
fesztiva
feszu
feuda
feudalizmust
feyenoord
ff
fg
fi
fia
fiai
fiainak
fiait
fiake
fiam
fiat
fiatal
fiatalabb
fiatalember
fiatalkora
fiatalok
fiatalokat
fiatalon
fiatalsa
ficko
fiction
fide
fidesz
field
fields
fifa
figaro
fight
fighter
fighting
figura
figyelem
figyelembe
figyelembeve
figyelemmel
figyelemre
figyelheto
figyeli
figyelme
figyelmen
figyelmet
figyelmeztete
figyelmezteti
figyelmezteto
figyelmeztette
figyelni
figyelo
figyelt
figyelte
figyeltek
fikcio
fikti
file
files
filia
filip
fille
film
filmakade
filmben
filmbo
filmdi
filmdra
filmek
filmekben
filmeket
filmes
filmet
filmfesztiva
filmgya
filmhez
filmje
filmjei
filmke
filmkritikusok
filmmel
filmmu
filmnek
filmogra
filmproducer
filmre
filmrendezo
filmro
films
filmsorozat
filmstu
filmszerepei
filmszi
filmto
filmva
filmvi
filmzene
filolo
filozo
fin
fina
final
finanszi
find
fine
finn
finnorsza
finnugor
finom
finoman
finomi
fio
fiorentina
fire
firefox
firenze
firenzei
firka
first
fischer
fish
fishbase
fisher
fishes
fitzgerald
fiu
fiuk
fiume
fiumei
five
fix
fizet
fizete
fizetendo
fizetett
fizetni
fizeto
fizette
fizettek
fizika
fizikai
fizikailag
fizikus
fizikusok
fiziolo
fja
fk
fkgp
fl
flag
flamand
flandria
flash
flavius
flight
flo
flora
florence
florida
floridai
flotta
flottilla
flow
floyd
fly
flying
fm
fn
fnak
fne
fno
fo
fobe
foci
focista
fodor
fodra
fog
foga
fogad
fogada
fogadja
fogadni
fogado
fogadott
fogadta
fogadtak
fogadtata
fogak
fogalma
fogalmak
fogalmat
fogalmaz
fogalmaza
fogalmazo
fogalmazott
fogalmazta
fogalom
fogantata
fogarasi
foghato
fogja
fogjuk
foglal
foglalja
foglalkoza
foglalkozik
foglalkoznak
foglalkozni
foglalkozo
foglalkozott
foglalkoztak
foglalkoztata
foglalkoztato
foglalkoztatott
foglalkoztatta
foglalni
foglalo
foglalt
foglalta
foglaltak
foglyok
foglyokat
foglyul
fognak
fogni
fogo
fogod
fogok
fogoly
fogom
fogott
fogsa
fogsz
fogta
fogtak
fogunk
fogva
fogyaszt
fogyaszta
fogyasztja
fogyaszto
fogyate
fogyott
foix
fok
foka
foki
fokkal
fokon
fokos
fokot
fokoza
fokozat
fokozata
fokozatos
fokozatosan
fokozatot
fokozatu
fokozo
fokozott
fokozottan
fokozta
fokozza
foku
folk
folklo
folt
folta
foltok
foltos
folya
folyade
folyam
folyama
folyamat
folyamata
folyamatban
folyamatok
folyamatokat
folyamatos
folyamatosan
folyamatot
folyami
folye
folyik
folynak
folyo
folyoso
folyt
folyta
folytak
folytassa
folytat
folytata
folytatja
folytatni
folytato
folytatott
folytatta
folytattak
folyton
folytonos
folytonossa
fona
fono
font
fonte
fontos
fontosabb
fontosak
fontosnak
fontossa
fontot
fontsize
food
football
for
forbes
force
ford
fordi
fordul
fordula
fordulat
fordulatot
fordulatsza
fordulhat
fordulnak
fordulni
fordulo
fordult
fordultak
fordulva
foreign
forest
forever
forga
forgalma
forgalmat
forgalmaza
forgalmazo
forgalmi
forgalom
forgalomba
forgalomban
forgalombo
forgata
forgato
forgatott
forgatta
forgattak
forgo
forint
forinte
forintos
forintot
form
forma
formai
formailag
formula
forog
forra
forradalma
forradalmat
forradalmi
forradalom
forro
forster
fort
forte
fortuna
forum
fosszi
fosszilis
foster
foszfa
fot
foto
fotogra
found
foundation
four
fowler
fox
foxhole
fr
fra
frac
frakcio
frame
franc
france
frances
francesco
franchise
francia
franciaorsza
francis
francisco
franciska
franco
franczia
frangepa
frank
frankfurt
frankfurti
franklin
frankok
frantis
franz
fraser
fre
fred
freddie
frederick
free
freedom
freeman
freiburg
frekvencia
french
fresko
freud
fri
friedrich
friend
friends
frigyes
friss
frissen
frissi
frissu
fritz
friuli
fro
frodo
from
front
frontembere
fronton
frontra
frusztra
fs
fsa
ft
ftc
fu
fuchs
fulham
full
fulladt
fun
function
funk
funkcio
funkciona
fura
furcsa
furulya
fus
fusok
fut
futa
futam
futama
futamgyo
futamok
futamon
futamot
futball
futnak
futni
futo
futott
futotta
futsal
futtata
future
fuvola
fv
fvm
g
ga
gaa
gabb
gabi
gabo
gabona
gabriel
gabriella
gaga
gagarin
gai
gaiban
gaik
gainak
gait
gaival
gaja
gak
gako
gal
gala
galaktika
galaktikus
galamb
galambos
galaxis
galaxy
gale
galerie
galgo
gali
galilei
gall
galle
gallery
gallia
gama
game
games
gamma
gan
gandhi
ganz
gara
garai
garamond
garancia
garanta
garci
garcia
garden
gardner
gare
garfield
garonne
garros
gary
gas
gaston
gasztrono
gat
gate
gates
gaulle
gay
gaz
gaza
gazat
gazda
gazdag
gazdagabb
gazdagi
gazdagok
gazdagon
gazdagsa
gazdasa
gazik
gazo
gb
gba
gbajnok
gbajnoki
gbajnokjelo
gbajnoksa
gban
gbe
gbeese
gbeli
gben
gbi
gbiztosi
gbo
gbolt
gcsa
gcso
gcsoport
gcsu
gd
gdan
gdi
gdp
ge
gebben
gebbi
ged
gedeon
gedet
gedetlen
gedetlense
gedett
gees
gegyetem
gehrels
gei
geiben
geik
geiket
geinek
geire
geiro
geit
geivel
gek
gekbe
gekben
gekbo
geke
geken
geket
gekhez
gekkel
geknek
gekre
gekro
gekto
gel
gelle
gelso
gem
gemini
gen
gene
genealo
genera
general
generation
genesis
genetika
genetikai
genf
genfben
genfi
genius
genova
genovai
gens
gense
genus
geo
geode
geoffrey
geogra
geographic
geographico
geolo
geometria
geometriai
geometrikus
georg
george
georges
georgia
ger
gera
gerald
gerard
gere
gerecse
geredme
gerek
gerenda
gergely
gergo
gerhard
gerinc
gerince
gerincvelo
gerlista
germa
germain
german
germany
gero
gerry
gers
ges
geschichte
gese
gesebb
gesei
gesek
gesellschaft
gesen
gesi
geskede
gesnek
gesse
get
gete
getett
geto
gett
gette
getto
gez
gezheto
geznek
gezni
gezte
geztek
geztette
gezve
gfdl
gfe
gfejleszte
gfu
gg
gga
ggal
ggazdasa
gge
ggel
ggele
ggeszte
ggesztett
ggesztette
ggetlen
ggetlenek
ggetlenne
ggetlense
ggetlenu
ggo
ggve
ggye
ggyel
ggyu
gh
gha
ghajlat
ghajlata
ghajlati
ghajo
gharc
gharcban
ghata
gheorghe
ghez
ghi
ghost
ghostdestroyer
ghoz
ghozza
ghu
ghz
gi
gia
giacomo
giai
giailag
giak
giant
giba
gibb
giben
gibralta
gibson
gibt
giek
giero
gies
gif
gig
gigi
gigja
gigne
gikus
gil
gilag
gilbert
gill
gimna
gina
ginfo
gio
giorgio
giovanni
gipsz
girl
girls
giro
girodalmi
girodalom
gironde
gis
giscsak
gise
git
gita
gitest
gium
giuma
giumban
giumi
giuseppe
give
gizella
gizett
gja
gkatolikus
gke
gkeleti
gki
gkia
gkm
gko
gkora
gkorong
gkorongozo
gkorszak
gks
gkupa
gkutato
gla
glagya
glalap
glanthor
glasgow
glass
gleg
gleges
glegesen
glegesi
glen
glenn
glet
glete
gletes
gletu
glo
globa
global
globe
gloria
glory
glu
glya
gm
gmbh
gme
gmu
gna
gnak
gne
gnek
gnem
gnes
gneses
gni
gno
gnu
gnyu
go
god
godson
godzilla
goes
goethe
going
gok
gokat
gokba
gokban
gokbo
gokkal
goknak
gokon
gokra
gokro
gokto
gold
golden
golf
golyo
gom
gomb
gomba
gombafaj
gombafajok
gombos
gombot
gon
gond
gondja
gondnok
gondok
gondol
gondola
gondolat
gondolata
gondolatait
gondolatok
gondolatot
gondolja
gondolkoda
gondolkodni
gondolkodo
gondolna
gondolni
gondolod
gondolok
gondolom
gondolsz
gondolt
gondolta
gondoltam
gondos
gondosan
gondoskoda
gondoskodik
gondoskodott
gondot
gondoza
gondozo
gone
gonke
gonna
gonosz
gonza
good
goodbye
google
gora
gordon
gorilla
gorkij
gorsza
gos
gosabb
gosan
gosi
gosoda
gossa
gost
goston
got
gota
gotha
gothai
gott
gottfried
gould
gov
government
gp
gpa
gpedig
gpolitika
gpolitikai
gpontja
gps
gr
gra
grace
graf
grafika
grafikai
grafikus
grafikusmu
grafikusok
graham
gramm
grammatika
grammatikai
grammy
gran
granada
grand
grande
granglista
grant
gratula
gravita
gray
graz
gre
great
greatest
greek
green
greene
greg
gregory
grehajta
grehajtani
grehajto
grehajtott
grendelete
grey
gridcolor
griffin
grimm
grin
gro
groeneveld
groteszk
ground
group
grove
gru
gse
gsem
gso
gsza
gszerepelt
gszerte
gszeru
gszi
gszo
gszolga
gt
gta
gtak
gtalan
gtan
gte
gtelen
gtelense
gtelenu
gto
gtudoma
gu
guadalajara
guardian
guatemala
gubb
guez
guide
guido
guild
guillaume
guinea
guineai
guinness
guitar
guk
gukat
gukbo
gula
gulya
gumi
gumo
gun
gundel
gunk
guns
guru
gus
gusa
guske
gusok
gustav
guszta
gutenberg
guy
guyana
gva
gve
gveszte
gvete
gviselo
gvonalban
gy
gya
gyak
gyakori
gyakoriak
gyakoribb
gyakorisa
gyakorla
gyakorlat
gyakorlata
gyakorlatban
gyakorlati
gyakorlatilag
gyakorlatok
gyakorlatot
gyakorlo
gyakorolja
gyakorolt
gyakorolta
gyakoroltak
gyakorta
gyakrabban
gyakran
gyala
gyalog
gyalogezred
gyalogos
gyalogsa
gyana
gyani
gyanta
gyanu
gyapju
gyarapi
gyarapoda
gyarapodott
gyarmat
gyarmati
gyarmatosi
gyas
gyat
gyazott
gyban
gyben
gye
gyeit
gyek
gyekben
gyeket
gyel
gyelet
gyelete
gyeleti
gyelo
gyelte
gyen
gyenge
gyengese
gyengi
gyengu
gyere
gyerek
gyereke
gyerekek
gyerekeket
gyerekeknek
gyereket
gyerekkora
gyergyo
gyermek
gyermeke
gyermekei
gyermekeik
gyermekeit
gyermekek
gyermekeke
gyermekeket
gyermekeknek
gyermeket
gyermekke
gyermekko
gyermekkora
gyermekkori
gyermektelen
gyermeku
gyermekve
gyertya
gyes
gyesen
gyesse
gyet
gyfe
gyfu
gyhata
gyhogy
gyi
gyilkos
gyilkossa
gyimhu
gyinte
gyis
gykapo
gyminiszte
gyminiszter
gyminisztere
gyminiszteri
gymint
gymnasium
gymond
gynevezett
gyno
gyo
gyok
gyomor
gyomra
gyon
gyors
gyorsabb
gyorsabban
gyorsan
gyorsasa
gyorsforgalmi
gyorsi
gyorskorcsolya
gyorsu
gyorsula
gyott
gypedago
gyre
gysa
gysem
gysev
gysza
gyszer
gyszere
gyszerek
gyszeres
gyszerta
gyszi
gyszinte
gyszo
gyu
gyula
gyulafehe
gyulai
gyullada
gyult
gyurcsa
gyurika
gyve
gyvezeto
gyvivo
gyzet
gyzete
gyzetes
gyzetgyo
gyzetkilome
gyzetme
gza
gze
gzet
gzetes
gzett
gzettse
gzi
gzik
gzo
gzott
gzu
h
ha
hab
haba
habilita
habsburg
habsburgok
hacsak
had
hada
hadak
hadat
hadba
hadd
hadereje
hadero
hadi
hadifogsa
hadihajo
hadisza
haditana
haditengere
hadja
hadmu
hadnagy
hadoszta
hadrendbe
hadsereg
hadseregbe
hadseregben
hadserege
hadsereget
hadsereggel
hadseregnek
hadszi
hadtest
hadteste
hadto
hadtudoma
hadu
hadveze
hadvezete
hadvisele
hagy
hagya
hagyate
hagyd
hagyj
hagyja
hagyjuk
hagyma
hagyni
hagynia
hagyom
hagyoma
hagyott
hagyta
hagytak
hagytam
hagyva
hahn
hai
hainaut
haiti
haj
haja
hajdan
hajdani
hajdu
haji
hajla
hajlamos
hajlando
hajle
hajli
hajlo
hajnal
hajnala
hajnalban
hajnali
hajo
hajra
hajsza
hajt
hajta
hajtja
hajto
hajtott
hajtotta
hajtottak
haju
hal
hala
halad
halada
haladnak
haladni
halado
haladt
haladtak
haladva
halai
halak
halalozasok
halando
halat
haldoklo
hale
half
halfajok
halhatatlan
halhatatlansa
halk
halkan
hall
halla
hallani
hallanod
hallata
halle
haller
hallgat
hallgata
hallgatni
hallgato
hallgatott
hallgatta
hallhato
hallja
hallo
hallott
hallotta
hallottam
halmaz
halmaza
halmazelme
halo
halom
halomsi
halott
halottak
halotti
halt
haltak
halva
ham
hama
hamar
hamarabb
hamarosan
hamburg
hamburgban
hamburger
hamburgi
hamilton
hamis
hamisi
hamlet
hammer
hammond
hampshire
hamvas
han
hana
hand
handball
handbook
hands
hanem
hang
hanga
hangfelve
hangja
hangme
hangok
hangokat
hangola
hangon
hangos
hangosan
hangosko
hangot
hangsu
hangszer
hangszerek
hangszerele
hangszeres
hangu
hangulat
hangulata
hangulatot
hangulatu
hangve
hangya
hangza
hangzik
hangzo
hangzott
hank
hanna
hannah
hannover
hannoveri
hans
hansa
hansen
hanyatla
happy
hara
harag
haragja
haragudj
harald
harang
harangja
harangla
harangok
harangozo
harangtorony
harbor
harc
harca
harcba
harcban
harci
harcja
harcke
harckocsi
harckocsik
harcmu
harcok
harcokban
harcol
harcolni
harcolo
harcolt
harcoltak
harcos
harcosok
harcot
harcra
harcsa
harcte
hard
hardcore
hardver
hardy
hargita
harisnya
harka
harmada
harmadik
harmadoszta
harmadszor
harmat
harmattan
harminc
harmincas
harmince
harmo
harmonika
harmonikus
harold
harp
harper
harris
harrison
harry
harsa
harsona
hart
harvard
harvey
has
hasa
hasade
hasi
hasmene
hasnya
hasonli
hasonlo
hasonma
haszna
hasznos
hasznosi
hasznossa
hasznot
hat
hata
hatalma
hatalmak
hatalmas
hatalmat
hatalmi
hatalom
hataloma
hatalommal
hatalomra
hate
hatnak
hato
hatodik
hatott
hatszor
hattyu
hatva
hatvan
hatvanas
hatvani
haut
haute
hautes
hava
havas
havasalfo
havasi
have
haven
havi
havonta
hawaii
haydn
haza
hazae
hazafele
hazafias
hazai
hazaiak
hazate
hazug
hazugsa
hb
hbo
hc
hd
he
head
health
heart
hearts
heat
heaven
heavy
hector
hedvig
hegedu
hegy
hegycsu
hegye
hegyei
hegyek
hegyekben
hegyen
hegyes
hegyet
hegyi
hegyla
hegyma
hegyre
hegyse
hegyvide
heidelberg
height
heinrich
heinz
hej
hek
hekta
hele
helen
helena
helikon
helikopter
hell
hellenisztikus
heller
hello
hellyel
helmut
help
helsinki
heltai
hely
helybe
helybeliek
helyben
helye
helyei
helyek
helyeken
helyeket
helyekre
helyen
helyenke
helyes
helyesen
helyesi
helyet
helyett
helyette
helyettes
helyettese
helyettesi
helyettu
helyeze
helyezett
helyezettek
helyezettje
helyezettjei
helyezi
helyezik
helyezkedett
helyezkedik
helyezkednek
helyezkedtek
helyezni
helyezte
helyeztek
helyezve
helyhez
helyi
helyie
helyiek
helyig
helyise
helyke
helyko
helymunka
helyne
helynek
helyo
helyoszto
helyre
helyrea
helyro
helyse
helyszi
helyt
helyta
helytarto
helytelen
helytelenu
helyto
helyu
helyzet
helyzetbe
helyzetben
helyzete
helyzetekben
helyzetet
helyzetu
hen
henderson
henger
hengeres
henri
henrietta
henrik
henry
hepburn
her
heraldika
heraldikai
herbert
herceg
hercege
hercegek
herceget
herceggel
herceghez
hercegi
hercegne
hercegnek
hercegno
hercegovina
hercegovinai
hercegse
herczeg
here
heritage
herman
hermann
herna
hernyo
hero
heroes
hertha
hes
hessen
het
hete
hetedik
hetek
hetente
hetes
hetet
hetett
heti
hetilap
hettita
hetven
hetvenes
heves
hevesen
hevesi
hevi
hez
hf
hg
hi
hia
hiba
hibrid
hidak
hidalgo
hidat
hiddencat
hideg
hidegen
hidegha
hidraulikus
hidroge
hidrolo
hie
hierarchia
higgins
high
highway
higie
hihetetlen
hill
hills
hilton
himala
himnusz
himnusza
hindu
hinduizmus
hinne
hinni
hinto
hip
hiphop
hipote
hir
hirdete
hirdetett
hirdeti
hirdeto
hirdette
hirdettek
hirek
hirtelen
his
hispa
histo
histoire
historia
historical
history
hisz
hiszem
hiszen
hiszi
hiszik
hit
hite
hitel
hiteles
hitelesi
hitelesse
hitet
hitko
hitler
hitre
hits
hitt
hitte
hittem
hittudoma
hitu
hitva
hitvalla
hitvese
hiu
hiv
hivata
hivatal
hivatala
hivatalba
hivatalban
hivatali
hivatalnok
hivatalnokok
hivatalok
hivatalos
hivatalosan
hivatalossa
hivatalt
hivatkoza
hivatkozik
hivatkoznak
hivatkozni
hivatkozott
hivatkozva
hivatott
hkoala
hl
hm
hms
hn
ho
hoc
hockey
hoffmann
hogy
hogyan
hogyha
hol
hold
holdak
holdas
holdat
holding
holdja
holdkomp
holdon
holdra
hole
holiday
holland
hollandia
hollandiai
hollandok
hollo
holly
hollywood
hollywoodi
holmes
holmi
holnap
holokauszt
holott
holstein
holt
holta
holtak
holtan
holtteste
holtversenyben
holy
homa
home
hometownlocator
homloka
homlokzat
homlokzata
homo
homoge
homok
homoki
homokko
homokos
homoszexua
homoszexualita
hon
honda
honduras
honey
honfita
honfoglala
honfoglalo
hong
hongkong
hongkongi
honi
honlap
honlapja
honlapon
honnan
honor
honos
honosi
hont
honve
hood
hop
hope
hopkins
hora
horda
hordale
hordja
hordo
hordoz
hordozhato
hordozo
hordozza
hordta
horemweb
horga
horn
hornya
horror
horse
horst
horthy
hortoba
horva
hossz
hossza
hosszabb
hosszabbi
hosszan
hosszanti
hosszas
hosszu
hot
hotel
hotspur
hour
house
houston
houten
hova
hovatartoza
how
howard
howe
hoz
hozatala
hozhato
hoznak
hozni
hozo
hozoma
hozott
hozta
hoztak
hoztam
hozva
hozza
hozzon
hp
hr
hrer
hrsg
hruscsov
hrvatska
hse
htm
html
http
https
hu
huba
hubay
huber
hubert
hudson
hugh
hughes
hugo
hull
hulla
hullade
hullott
huma
human
humanista
humanita
humor
humorista
humoros
hun
hung
hunga
hungaria
hungariae
hungarian
hungarica
hungaricana
hungarikusz
hungaroton
hungary
hunok
hunt
hunter
hunyad
hunyadi
hunyadiak
hunyadym
hunyadymvita
hunyt
hurcolta
hurley
hurrika
husza
huszadik
huszita
huszonne
huszono
huszti
huwiki
hvg
hyde
hz
i
ia
iak
ian
iba
iban
ibe
iben
ibm
ibn
ibo
ibolya
ibrahim
ibsen
ic
ica
ice
ich
id
ida
idaho
ide
idea
idee
ideg
idegen
idegenbeli
idegenben
idegenek
idegenforgalmi
ideges
idegesi
idegrendszer
idei
ideig
ideiglenes
ideiglenesen
ideje
ideju
identita
ideolo
ido
idol
ie
iek
if
ifj
ifjabb
ifjak
ifju
ig
iga
igaz
igaza
igazad
igazat
igazgata
igazgato
igazi
igazola
igazolhato
igazolja
igazolni
igazolo
igazolt
igazolta
igazolva
igazsa
ige
igen
igencsak
igene
igenis
iglo
igna
igor
igy
igyekezett
igyekeznek
igyekeztek
igyekszem
igyekszik
ihlete
ihlette
ihoz
ii
iii
ijeszto
ik
ikarus
ikat
ike
ikertestve
iket
iki
ikko
ikon
ikra
ikrek
iktatta
il
ildiko
ill
illata
illatos
ille
illega
illeszkedik
illete
illeti
illeto
illette
illetve
illi
illik
illinois
illo
illu
illusztra
illye
ilona
ilonka
ily
ilyen
ilyenek
ilyeneket
ilyenkor
ilyesmi
ilyesmit
ilyet
im
ima
image
images
imagesize
imdb
ime
img
imita
imma
immanuel
imperial
implementa
import
importa
impoza
improviza
imre
in
ina
inak
inakti
inc
ince
incidens
inclyti
increment
ind
independent
index
indi
india
indiai
indian
indiana
indo
indoeuro
indok
indokla
indokolja
indokolt
indokolta
indone
indre
induka
indukcio
indul
indula
indulatu
indulhatott
indulnak
indulni
indulo
indult
indultak
indulva
industrial
indy
ine
inek
infa
infla
influenza
info
infobox
infoboxban
infoboxok
informa
informatika
informatikai
information
infrastruktu
infrastruktura
infravo
infty
ing
inga
ingadoza
ingatlan
ingatlanok
ingeru
ingo
ingrid
ingyen
ingyenes
ingyenesen
injekcio
ink
inka
inkvizi
inn
inne
innen
innento
inni
innova
innovati
innsbruck
insecta
inside
inspira
institut
institute
instrumenta
instrumental
int
inte
integra
intel
intellektua
intelligencia
intelligens
intenzi
intenzita
inter
interakcio
interakti
intercity
intercom
interface
interfe
interju
interkontinenta
interna
international
internationale
internazionale
internet
interneten
internetes
interpreta
interstate
intertoto
intervencio
interview
interwiki
intette
into
introduction
inva
io
ioan
ion
ioniza
ios
iowa
ip
ipa
ipar
ipara
iparban
ipari
iparmu
iparos
iparva
iphone
ipoly
ipv
ir
ira
irak
iraki
irat
irata
iratai
iratban
iratkozott
iratok
iratokban
iratot
irc
ire
ireland
irene
iris
irm
irma
iro
iroda
irodaha
irodalma
irodalmat
irodalmi
irodalom
irodalomban
irodalomto
irodalomtudoma
iron
ironikus
irreleva
irta
irto
is
isa
isaac
isbn
ise
isil
iskola
iskolae
iskolai
island
islands
ism
isme
ismer
ismerem
ismerete
ismeretek
ismereteket
ismeretes
ismeretlen
ismeretlenek
ismeretse
ismeretterjeszto
ismeri
ismerik
ismerju
ismerkedett
ismernek
ismerni
ismero
ismert
ismerte
ismertebb
ismertek
ismertete
ismerteti
ismerteto
ismertette
ismertse
ismertte
ismeru
iso
ispa
ispota
israel
iss
issn
issue
ist
ista
istat
isten
istene
istenek
istenem
isteni
istennek
istennel
istenno
istense
istent
istva
iszik
iszla
iszonyu
isztambul
isztambuli
isztria
it
ita
ital
italia
italiani
italok
italy
ite
item
itf
itis
ito
its
itt
itten
itteni
itthon
itunes
iucn
iv
iva
ivade
ival
ivan
ivanhoe
ivanovics
ivare
ivel
ivo
ivott
ix
iz
izabella
ize
izgalmas
izland
izlandi
izmok
izola
izom
izoto
izrael
izraelben
izraeli
izraelita
izsa
izzo
j
ja
jabb
jabban
jack
jackie
jackson
jacob
jacques
jade
jagello
jahre
jai
jaj
jak
jakab
jakat
jake
jakob
jam
jamaica
jamaicai
james
jamie
jan
jana
jancsi
jancso
jane
janeiro
janet
janicsa
janka
janko
jankovich
janua
january
janus
japa
japan
japanese
jar
jas
jasok
jason
jat
jav
java
javak
javare
javascript
javaslat
javaslata
javaslatok
javaslatokat
javaslatom
javaslatot
javaslom
javasolja
javasolna
javasolt
javasolta
javi
javier
javula
javult
jay
jaza
jazott
jazottak
jazta
jazz
jb
jba
jban
jbo
jc
jcba
jcban
jci
jdalma
jdalmas
jdalmat
jdalom
jdonsa
je
jean
jeanne
jedi
jeff
jefferson
jeffrey
jeges
jegy
jegye
jegyek
jegyet
jegyezte
jegyse
jegyz
jegyze
jegyzet
jegyzetek
jegyzeteket
jegyzetekkel
jegyzett
jegyzo
jehova
jei
jeke
jel
jelben
jele
jelei
jelek
jeleket
jelen
jelena
jelene
jelenet
jelenetben
jelenete
jelenetek
jeleneteket
jelenetet
jeleni
jelenik
jelenkor
jelenkori
jelenle
jelenleg
jelenlegi
jelennek
jelense
jelent
jelente
jelentek
jelentene
jelentenek
jelentetett
jelentett
jelentette
jelentettek
jelenthet
jelentheti
jelenti
jelentik
jelentkeze
jelentkezett
jelentkezik
jelentkeznek
jelentkezo
jelentkeztek
jelento
jeles
jelet
jelez
jelezni
jelezte
jeleztem
jelezve
jelke
jelleg
jellege
jelleggel
jellegu
jellegzetes
jellegzetesen
jellegzetesse
jellel
jelleme
jellemezte
jellemze
jellemzi
jellemzik
jellemzo
jelmeztervezo
jelo
jelszo
jelu
jelve
jelze
jelzett
jelzi
jelzik
jelzo
jen
jenkins
jennifer
jenny
jeno
jensen
jer
jeremy
jereva
jeromos
jerorsza
jerry
jersey
jeruzsa
jesse
jessica
jesu
jesus
jet
jetek
jevgenyij
jewish
jezsuita
jfajta
jfalu
jfe
jfent
jha
jhely
jhelyi
ji
jim
jimmy
jin
jj
jja
jjal
jjel
jjeli
jjo
jk
jke
jko
jkor
jkori
jl
jlatin
jlok
jlt
jn
jna
jnak
jo
joa
joachim
joan
jobb
jobba
jobban
jobbik
jobbnak
jobboldali
jobbra
jobbro
jobbsza
jobs
joe
joel
joey
jog
joga
jogai
jogainak
jogait
jogalkota
jogelo
jogero
joggal
joghato
jogi
jogilag
jogko
jogok
jogokat
jogos
jogosi
jogosult
jogosultak
jogosultsa
jogot
jogse
jogszaba
jogszeru
jogto
jogtudo
jogtudoma
jogu
joguto
jogve
johan
johann
johanna
johannes
johannita
john
johnny
johns
johnson
johnston
join
jok
joker
jola
jon
jonas
jonathan
jonc
jones
jonnan
joo
jorda
jordan
jorge
jos
jose
josef
joseph
josh
joshua
josip
journal
journey
joy
joyce
jozef
jozefa
jp
jpeg
jpest
jpesti
jpg
jr
jra
jrae
jrahasznosi
jrai
jraindi
jrakiada
jrava
jro
js
jsa
jsoos
jsza
jszaka
jszakai
jszeru
jszo
jszu
jt
jta
jtanak
jtani
jte
jteme
jteni
jti
jtja
jto
jtott
jtotta
jtottak
jtva
jtve
ju
juan
jubileuma
jubileumi
judit
judith
judy
jugoszla
juh
juha
juk
jukat
jukban
jukkal
jukon
jul
jula
jules
juli
julia
julian
julianna
julie
julien
julius
julo
jult
july
jump
june
jung
junior
jupiter
jura
jurij
jus
jusa
jusban
jusi
jusson
just
justice
justify
justin
justo
jut
juta
jutalma
jutalmazta
jutnak
jutni
juto
jutott
jutottak
juttata
juttatja
juttatni
juttatott
juttatta
jutunk
juventus
jva
jve
jvide
jvila
k
ka
kaba
kabare
kabin
kabinet
kacsa
kade
kadic
kagylo
kai
kairo
kairosz
kaiser
kait
kaj
kaja
kajak
kakao
kakas
kal
kala
kaland
kalandfilmek
kalandja
kalandjai
kalandos
kalap
kalapa
kalapja
kalauz
kalcium
kalenda
kalifa
kalifornia
kaliforniai
kalligram
kalma
kalo
kalocsa
kalocsai
kamara
kamarai
kamaraszi
kamarazene
kambodzsa
kame
kamera
kamerun
kameruni
kampa
kamra
kan
kana
kanada
kanadai
kancella
kandida
kane
kanizsai
kano
kanonikus
kanonok
kansas
kant
kanta
kanton
kanyarban
kanyargo
kap
kapa
kapacita
kapcsa
kapcsola
kapcsolat
kapcsolata
kapcsolatai
kapcsolatait
kapcsolatba
kapcsolatban
kapcsolatok
kapcsolatokat
kapcsolatos
kapcsolatosan
kapcsolatot
kapcsolatuk
kapcsolja
kapcsolo
kapcsolt
kapcsolta
kapcsolva
kaphat
kaphato
kapita
kapitula
kapja
kapjon
kapjuk
kapna
kapnak
kapni
kapo
kaposva
kapott
kapszula
kapta
kaptak
kaptam
kapu
kapuba
kapuit
kapuja
kapuk
kapun
kapunk
kapus
kapusa
kapusok
kaput
kar
kara
karakter
karaktere
karakterek
karaktereket
karaktert
karante
karate
karava
karbantarta
karbantarto
karbona
karcolo
karcsu
kard
kardja
kardos
kardot
kare
karel
karen
kari
karib
karibi
karika
karikatu
karikaturista
karinthy
karintia
karja
karl
karlsruhe
karma
karmela
karmester
karmestere
karnagy
karneva
karo
karok
karol
karolina
karon
karossze
karrier
karrierje
karriert
karszt
kart
karta
kartha
karton
kas
kassa
kassai
kaste
kasza
kaszino
kaszpi
kaszti
kat
kata
katala
katalin
kataliza
katalo
katar
katari
kataszteri
katasztro
katasztrofa
kate
katedra
katego
kategoriza
kath
katherine
katholikus
kati
katie
kato
katolikus
katolikusnak
katolikusok
katona
katonai
katonasa
katonatiszt
kattinta
kattints
kattintva
kauka
kay
kaza
kazah
kazahszta
kazak
kazetta
kazincbarcika
kazinczy
kb
kba
kban
kbe
kbeli
kben
kbesze
kbo
kc
kd
kdi
kdnp
ke
kebb
keble
kecske
kecskeme
ked
kede
kedi
kedve
kedveli
kedvelik
kedvelo
kedvelt
kedvelte
kedvem
kedvenc
kedvence
kedves
kedvese
kedvesem
kedvess
kedvezett
kedvezme
kedvezo
kedvu
keep
kefe
kegyelem
kegyelme
kegyelmet
kegyes
kegyetlen
kegyetlense
kegyse
kei
kein
keinek
keit
keith
kek
kekben
keke
keken
keket
kekkel
kekkh
keko
kekre
kel
kele
kelemen
kelenfo
kelet
keleten
keleti
keletkeze
keletkezett
keletkezik
keletkeznek
keletkezo
keletkeztek
keletne
keletre
keletro
kelheto
keli
kelik
kell
kelle
kellemes
kellemetlen
kellene
kellenek
keller
kellett
kelljen
kello
kelly
kelme
kelnek
kelni
kelo
kelt
kelta
kelte
keltek
kelten
keltett
keltette
kelto
kelve
kely
kelyek
kelyfo
kelyudvarhely
kem
kember
keme
kemence
kemenymate
ken
kend
kende
kendo
kene
kennedy
kenneth
kenny
keno
kent
kentucky
kenu
keny
kenya
kenye
kenyebb
kenyek
kenyen
kenyeres
kenyeret
kenyi
kenykedett
kenykedik
kenykedo
kenyse
ker
kera
kere
kerei
kerek
kereke
kerekek
kerekes
kereket
kereki
kerepesi
keres
kerese
keresek
keresem
keresett
keresge
keresi
keresik
kereskede
kereskedelem
kereskedelme
kereskedelmet
kereskedelmi
kereskedo
kereslet
keresnek
keresni
kereso
keresse
kereste
kerestek
kerestem
keresve
kereszt
kereszte
keresztele
keresztelo
keresztelt
keresztelte
keresztes
keresztesek
keresztet
kereszteze
keresztezi
keresztezo
keresztje
keresztne
keresztneve
keresztnevek
keresztse
keresztu
keresztye
keret
keretbe
keretben
kerete
keretei
keretein
keretek
keretet
keri
kering
keringe
keringo
kert
kertben
kerte
kertek
kertet
kerti
kertje
kertva
keru
kes
kesebb
kesegyha
keselyu
kesen
keseru
kesfehe
kesi
keskeny
kesse
kessler
keszerzo
keszthely
keszthelyi
kesztyu
ket
keta
ketosav
kette
ketteju
ketten
kettes
ketto
keve
kevere
keverede
keveredett
keveredik
kevert
kevesebb
kevesebbet
kevesen
keveset
kevin
key
kezd
kezde
kezdeme
kezdenek
kezdeni
kezdet
kezdetben
kezdete
kezdetei
kezdetek
kezdetekto
kezdeti
kezdetleges
kezdett
kezdetto
kezdetu
kezdi
kezdik
kezdju
kezdo
kezdte
kezdtek
kezdtem
kezdve
keze
kezele
kezelheto
kezeli
kezelik
kezelni
kezelo
kezelt
kezelte
kezem
kezesse
kezet
kezete
kezetes
kezett
kezik
keznek
kezni
kezo
keztet
kezteto
kezu
kf
kfe
kfejleszte
kfilm
kfilmek
kfoglalo
kfolyo
kft
kfuta
kg
kh
kha
khan
khata
khellyel
khely
khelye
khelyei
khelyettese
khelyu
khez
kho
khoz
khz
ki
kia
kiaba
kiad
kiada
kiadatlan
kiadja
kiadni
kiado
kiadott
kiadta
kiadtak
kiadva
kiai
kiakna
kialaki
kialakul
kialakula
kialakulo
kialakult
kib
kibe
kibo
kibocsa
kibontakoza
kibontakozo
kick
kicsere
kicsi
kicsik
kicsiny
kicsinyi
kicsit
kicsivel
kicsoda
kicsu
kid
kideri
kideru
kido
kidolgoza
kidolgozott
kidolgozta
kids
kie
kiege
kiegyenli
kiegyensu
kiegyeze
kiejte
kiel
kiele
kiemele
kiemelkede
kiemelkedik
kiemelkedo
kiemelt
kiemelte
kiemeltek
kiemelten
kiemelve
kiese
kiesett
kieso
kiestek
kifejeze
kifejezett
kifejezetten
kifejezni
kifejezo
kifejezte
kifejleszte
kifejlesztett
kifejlesztette
kifejlett
kifejlo
kifejte
kifejtett
kifejtette
kifele
kifinomult
kifizete
kifoga
kifolyo
kifosztotta
kifu
kifuto
kig
kiha
kihagya
kihagyta
kihala
kihallgata
kihalt
kihangsu
kihaszna
kihelyezett
kihi
kihirdete
kihirdette
kihu
kii
kiindula
kiindulo
kiindulva
kija
kijavi
kijelente
kijelentette
kijelenti
kijelento
kijelo
kijelzo
kijev
kijevi
kijo
kijutott
kik
kikapott
kikaptak
kike
kikeru
kiket
kiki
kikia
kiknek
kiko
kiku
kila
kile
kilenc
kilencedik
kilencvenes
kill
killer
kilo
kilogramm
kilome
kim
kima
kimagaslo
kimaradt
kime
kimenetele
kimeneti
kiment
kimeri
kimeru
kimi
kimondja
kimondottan
kimondta
kimutata
kimutathato
kimutatta
kincs
kincse
kincses
kincset
kincsta
kind
kine
kinek
kineveze
kinevezett
kinevezte
king
kinga
kingdom
kings
kinizsi
kino
kint
kinyi
kinyilatkoztata
kinyilva
kinyu
kio
kioszta
kioto
kipro
kipufogo
kir
kira
kirgiziszta
kirk
kiro
kirobbant
kiru
kis
kisa
kisaja
kisalfo
kisasszony
kisasszonyt
kisbetu
kisbolygo
kise
kisebb
kisebbek
kisebbik
kisebbse
kisegi
kisfaludy
kisfiu
kisgyermekke
kisko
kiskoru
kiskun
kiskunfe
kisla
kislemez
kislemeze
kislemezei
kislemezek
kislemezen
kislemezke
kislemezlista
kislemezt
kislemezu
kislexikon
kisme
kispest
kisrege
kiss
kisse
kista
kiste
kisu
kisva
kisvasu
kisz
kisza
kiszabadi
kisze
kisziva
kiszo
kiszolga
kiszori
kiszu
kit
kita
kitala
kitarta
kitarto
kitartott
kite
kitelepi
kiterjed
kiterjede
kiterjedo
kiterjedt
kiterjeszte
kiterjesztett
kiterjesztette
kitermele
kitevo
kitilta
kito
kitty
kitu
kiu
kiutasi
kiva
kive
kiveheto
kivel
kivette
kivettem
kivi
kiviteleze
kivitelezo
kivitelu
kivizsga
kivona
kivonta
kivonula
kivu
kiza
kja
kjai
kjelo
kjo
kju
kk
kka
kkal
kke
kkel
kken
kkene
kkeno
kkent
kkente
kkenteni
kkentett
kkentette
kkenti
kkentik
kkento
kki
kkia
kko
kkstb
kla
klarine
klasszicista
klasszika
klasszikus
klasszikusok
klaus
kle
klebelsberg
kleheto
klein
kleopa
klet
klete
kleten
kletes
kletet
kleti
kletu
kli
kliens
klinika
klinikai
klip
klipben
klipek
klipet
klipje
klo
klorid
klub
klubbal
klubban
klubcsapatban
klubcsapatokban
klubja
klubme
klubna
klubok
klubokban
klubot
klubvila
klya
km
kma
kmenet
kmennyise
kmo
kmondat
kmu
kn
kna
knak
kne
knek
kneve
knevek
kni
knight
know
knowledge
ko
koali
koch
kocka
kocsa
kocsi
kocsija
kocsik
kocsis
kocsit
kocsma
kocsmafal
kocsmafalon
koda
kodola
kogniti
koha
koho
kok
kokat
kokban
kokkal
koknak
kokon
kokra
kola
kolba
koldus
kolja
kolla
kolle
kollekcio
kollekti
kolo
kolostor
kolostora
kolostorai
kolostorba
kolostorban
kolostorok
kolostort
kolozs
kolozsva
kolt
kolta
koltai
kolumbia
kolumbiai
kolumbusz
kom
koma
kombina
kome
komikus
komja
komlo
kommando
kommenta
kommunika
kommunista
kommunizmus
komoly
komolyabb
komolyan
komor
komp
kompakt
kompatibilis
kompenza
komplett
komplex
komplexum
komplika
kompona
komponens
kompozi
kon
koncentra
koncepcio
koncert
koncertek
koncerteken
koncerteket
koncerten
koncertet
koncertfelve
koncertje
koncesszio
koncz
kondenza
kondor
konferencia
konfigura
konfliktus
konfliktusok
konfo
kong
kongo
kongrega
kongresszus
kongresszusa
kongresszusi
kongresszuson
konkre
konra
konrad
konstans
konstantin
konstantina
konstrukcio
konstrukti
konstrukto
konszenzus
konszolida
konsztantyin
konte
kontinens
kontinensen
kontinenta
kontra
kontroll
kontrolla
konvencio
kony
konyabb
konyak
konyan
konyha
konysa
konzerva
konzervati
konzervato
konzula
konzulta
koo
koordina
kopa
kopasz
kopo
kopoltyu
koponya
koporso
koppa
koppenha
koprodukcio
kor
kora
korabeli
korai
korba
korban
korbo
korc
korcsma
korcsolya
korda
kordos
korea
koreai
koreogra
korhata
kori
korig
korla
korm
korma
kormos
korne
korok
korona
koronavi
korong
koroszta
korra
korrekcio
korrekt
korrela
korriga
korro
korrupcio
korso
korsza
korszak
korszaka
korszakban
korszakot
korszeru
kort
korta
korto
koru
korunk
kos
kosa
kosai
kosake
kosan
kosi
koske
kosnak
kosok
kosokat
kospalota
kossa
kossuth
kost
koszmosz
koszoru
koszovo
koszta
kosztola
kot
kotta
kova
kovacsur
koza
kozma
kozmikus
kozmosz
kozo
kozos
kozott
kozta
koztata
koztato
koztatta
kpa
kpapi
kpe
kr
kra
krajca
krakko
kramer
krapina
krasso
krate
kraus
kre
krea
kreati
kreativita
kri
krimi
kripta
krisna
krista
kristo
kriszta
krisztia
krisztina
krisztus
krite
kriterion
kritika
kritikai
kritikus
kritikusa
kritikusok
kritiza
kro
kromoszo
kronolo
kru
ksa
kse
ksh
ksi
ksomlyo
ksza
kszem
kszereda
kszerek
kszereplo
kszi
kszik
kszo
kt
kta
ktalanul
kte
ktelen
ktm
kto
ktu
ku
kuba
kubai
kudarc
kudarca
kudarcba
kudarcot
kuk
kuka
kukorica
kul
kulcs
kulcsa
kulcsfontossa
kultikus
kultu
kultura
kultusz
kultusza
kumenikus
kun
kung
kunok
kunst
kunyho
kupa
kupado
kupagyo
kupame
kupola
kura
kurato
kurd
kurt
kurta
kuruc
kus
kusz
kusza
kutat
kutata
kutato
kutatott
kutatta
kutya
kv
kva
kvalifika
kve
kvezete
kvezeto
kvi
kvide
kvo
kvvm
kw
ky
kyle
kylie
kzo
l
la
labda
labdaru
labirintus
labor
laborato
laci
lad
lada
lade
ladies
lado
lady
lag
laga
lagos
lagosan
lagu
lai
laikus
lajos
lajossal
lajost
lajta
lak
laka
lakat
lakatlan
lakatos
lake
lakhelye
lakik
lakja
laknak
lako
lakoma
lakor
lakos
lakosa
lakosai
lakosainak
lakosok
lakossa
lakossagi
lakossal
lakost
lakosu
lakoszta
lakott
lakta
laktak
laktanya
lal
lala
lalakban
lalo
lalt
lam
lambda
lambert
lampel
lamu
lana
lancaster
land
landi
lando
landon
lane
lang
lange
language
languages
lanka
lantos
laosz
lap
lapa
lapban
lapi
lapja
lapkiado
lapnak
lapok
lapokat
lapokban
lapokon
lapon
lapos
lapot
lappal
lapra
lapro
lapsza
lapszerkeszto
lapto
lapva
lara
large
larry
lars
las
lassabb
lassabban
lassan
lassanke
lassi
lassu
lassza
last
lasz
lasza
laszke
laszok
laszokat
laszol
laszolni
laszolt
laszolta
laszt
laszta
lasztanak
lasztani
laszte
laszthato
lasztja
lasztma
laszto
lasztott
lasztotta
lasztottak
lasztva
laszul
lat
lata
latai
latait
latba
latban
latbo
late
latera
lati
latin
latinul
latlan
latok
latokat
laton
latos
latot
latra
lattal
laura
laurence
laurent
lausanne
law
lawrence
layer
laza
lazi
lazio
lba
lban
lbe
lbelu
lben
lbeszaki
lbo
lboksz
lbu
lc
lca
lcs
lcse
lcsek
lcseleti
lcsesse
lcsey
lcsi
lcso
ld
lda
ldake
ldalatti
ldbe
ldbirtokos
ldbo
lddel
lde
ldek
ldeken
ldeket
ldemokrata
ldeni
ldes
ldesu
ldesura
ldet
ldete
ldfelszi
ldga
ldho
ldi
ldiek
ldik
ldje
ldko
ldme
ldmu
ldnek
ldnyire
ldo
ldott
ldoza
ldozat
ldozata
ldozatai
ldozatainak
ldozati
ldozatok
ldozatot
ldozatul
ldozo
ldrajz
ldrajza
ldrajzi
ldrajzilag
ldre
ldrenge
ldro
ldse
ldszinten
ldszinti
ldtani
ldte
ldtek
ldteru
ldto
ldu
ldva
ldve
le
lea
leada
leadott
league
lear
learning
leave
lebbi
lebbre
lebego
leben
lebonta
lebontotta
lebonyoli
lech
lecke
leclerc
lecsere
lecso
lecsu
led
lede
ledo
lee
leeds
leegyszeru
leendo
lefe
lefele
lefolya
lefordi
left
lefu
leg
lega
legacy
legala
legalacsonyabb
legalso
legbefolya
legde
legdra
lege
legegyszeru
legeleje
legelo
legelso
legelterjedtebb
legend
legenda
legeredme
legero
leges
legesen
legfeljebb
legfelso
legfiatalabb
legfo
legfontosabb
legfrissebb
leggazdagabb
leggyakoribb
leggyakrabban
leggyorsabb
leggyorsabban
leghi
leghosszabb
legido
leginka
legismertebb
legjelento
legjellemzo
legjobb
legjobban
legjobbja
legjobbnak
legke
legkedveltebb
legkeve
legkevesebb
legkiemelkedo
legkisebb
legkiva
legko
legkora
legku
legla
legmagasabb
legme
legnagyobb
legne
legnehezebb
lego
legrangosabb
legre
legro
legrosszabb
legsikeresebb
legsu
legsze
legszebb
legta
legto
legu
legujsznevek
leguto
legutolso
legve
legya
legyek
legyen
legyenek
legyezo
legyha
legyo
legyu
leha
lehel
lehessen
lehet
lehetetlen
lehetetlenne
lehetett
lehetne
lehetnek
leheto
lehetse
lehettek
lehu
lei
leicester
leiga
leigazolta
leigh
leinek
leipzig
leit
leivel
leja
lejjebb
lejto
lek
leke
lekede
lekereki
lekezet
lekkel
leko
leksza
lektan
lektani
lektora
leku
lel
lela
lele
lelem
lelet
leletek
leleteket
lelheto
leli
lelke
lelkek
lelkem
lelkes
lelkesede
lelkesen
lelket
lelki
lelkipa
lelku
lelme
lelmet
lelmetes
lelmeze
lelmiszer
lelmiszerek
lelmiszeripari
lelo
lelt
lelta
lelte
lem
lema
lemaradt
leme
lemez
lemezbori
lemeze
lemezei
lemezek
lemezen
lemezkiado
lemezre
lemezt
lemezu
lemi
lemli
lemond
lemonda
lemondani
lemondott
len
lencse
lendo
lendu
lendva
lendvai
lene
lenge
lengo
lengyel
lengyelek
lengyelorsza
lengyelu
lenin
leningra
lenn
lenne
lenni
lennie
lenniu
lennon
lent
lentebb
lenti
lenyu
lenz
leo
leon
leonard
leonardo
leone
leoni
leopa
leopold
lepa
lepattano
lepke
leq
lera
lerako
lero
lerombolta
leromlott
les
lese
lesebb
lesek
lesen
lesete
lesi
lesikla
lesko
leslie
lesse
lessz
lesu
lesz
lesza
leszbikus
leszek
leszerele
leszerzo
lesznek
leszo
leszto
leszu
let
letarto
letbe
letben
letbo
lete
letegyu
letei
letein
leteinek
leteit
letek
letekben
leteken
leteket
letekkel
leteknek
letekre
letekro
letelepede
letelepedett
letem
leten
letes
letesek
letesen
letesi
letesse
letet
letett
letette
letetteknek
letfejleszte
letforma
lethez
leti
letik
letileg
letke
letko
letkor
letkora
letlen
letlenszeru
letlenu
letmo
letmu
letnek
leto
letpa
letrajz
letrajza
letrajzait
letrajzi
letrajzok
letre
letro
lett
letta
lettani
lettartama
lette
lettek
lettel
lettem
letters
letto
lettorsza
letu
letvesze
leu
leum
lev
leva
leve
levego
level
levele
levelei
levelek
leveleket
levelet
leveleze
levelezo
levelu
levente
levere
leverkusen
leverte
levezete
levo
lewis
lex
lexikon
lexikona
lexikonban
lez
leza
lezajlott
lezuhan
lezuhant
lfe
lfele
lffy
lfo
lfogva
lfu
lg
lgata
lget
lgete
lgetni
lgeto
lgo
lgy
lgybe
lgyben
lgye
lgyek
lgyes
lgyet
lgyfa
lgyi
lha
lhassa
lhat
lhatatlan
lhatja
lhatjuk
lhatna
lhatnak
lhato
lhatott
lhatta
lhatunk
lhessen
lhet
lhete
lhetetlen
lhetett
lheti
lhetne
lhetnek
lheto
lhette
lhettek
lhetu
lhi
lhoz
lhu
li
lia
liai
lib
liba
libanon
libanoni
libe
libera
libertadores
liberty
library
libretto
libri
licenc
licence
lide
lido
lie
liebe
liechtenstein
liek
life
lig
liga
ligakupa
liget
ligeti
light
lightgrey
lights
ligue
lik
lika
like
likus
lil
lila
lili
liliom
lilla
lille
lily
lim
lima
limita
limited
limits
lin
lincoln
linda
lindsay
line
linea
linear
linek
lines
link
linka
linkek
linkeket
linkelni
linkelt
linket
linkgyu
linkje
linkoman
linkre
links
linnaeus
lint
linux
linz
lio
lion
lionel
lipcse
lipcsei
lipo
lipszky
lipto
lis
lisa
lisabb
lisak
lisan
lise
liskola
lisnak
lisok
lisszabon
list
lista
listavezeto
liszt
lit
liter
litera
literatura
literature
literes
little
liturgia
liturgikus
litva
liu
lium
liuma
liumi
lius
liusa
liusban
liusi
live
liverpool
lives
living
lix
liza
lj
lja
ljai
ljait
ljak
ljanak
lje
ljen
ljenek
lji
ljo
ljon
lju
ljubljana
ljuk
ljunk
lk
lka
lkaha
lke
lkede
lkedo
lkelet
lkeleti
lkeletre
lkereskedelmi
lkira
lkitu
lko
lkoda
lkodo
lkodott
lkoza
lkozhatunk
lkozik
lkoznak
lkozni
lkozo
lkozott
lkoztak
lkoztam
lkozunk
lku
ll
lla
llai
llal
llala
llalat
llalata
llalati
llalatna
llalatok
llalatot
llalja
llalkoza
llalkozik
llalkozo
llalni
llalo
llalt
llalta
llam
llama
llamai
llamainak
llamban
llambeli
llamfe
llamfo
llamforma
llamha
llamhata
llamhoz
llami
llamigazgata
llamnak
llamok
llamokat
llamokba
llamokban
llamokbeli
llamokbo
llamosi
llamot
llampolga
llamtana
llamtitka
llamtudoma
llando
llapi
llapoda
llapodott
llapodtak
llapot
llapota
llapotba
llapotban
llapotnak
llapotok
llapotot
llapotu
llas
llat
llata
llati
llatkert
llatok
llatokat
llatorvos
llatorvosi
llatot
llattarta
llattenye
llatvila
llay
lle
llehet
llel
ller
llett
llhat
llhatott
lli
llj
llja
lljanak
lljon
llna
llnak
llni
llnia
llo
lloda
llok
lloma
llott
lloyd
llt
llta
lltak
lltam
llu
llunk
llva
llya
llyal
llyede
llyedt
llyel
llyeszte
llyesztett
llyesztette
lma
lmai
lmbt
lme
lmeno
lmezo
lmillio
lmok
lmos
lmot
lmp
lmu
ln
lna
lnak
lne
lnek
lneve
lni
lnia
lnie
lniu
lniuk
lno
lnot
lnyomo
lnyugat
lnyugati
lnyugatra
lo
lobogo
local
locke
lod
log
logan
logata
logato
logatott
logatottak
logatottal
logatottat
logatottba
logatottban
logatottja
logatottnak
logatottsa
logatta
logika
logikai
logikus
logisztikai
logo
loir
loire
lok
loka
lokaliza
lokat
loki
lokon
lokra
lola
loldala
lom
lombard
lombardia
lombhullato
lombos
lon
london
londonba
londonban
londoni
lonely
long
longoba
look
lopa
lopez
lopott
lora
lord
lorenzo
los
lost
lot
lotaringia
lotaringiai
lott
lotus
lou
louis
louise
louisiana
louvre
lova
lovag
lovagi
lovagja
lovagjai
lovagkeresztje
lovagla
lovagok
lovagrend
lovak
lovakat
lovas
lovassa
lovat
love
low
loza
lozott
lozta
lp
lpa
lpasszt
lpolitika
lpolitikai
lpont
lpontja
lpszicholo
lra
lre
lree
lrevezeto
lro
lsa
lseje
lso
lsu
lsz
lsza
lszeru
lszerzo
lsziget
lszigeten
lszla
lt
lta
ltabb
ltad
ltai
ltak
ltakozo
ltal
ltala
ltalad
ltalam
ltali
ltaluk
ltam
ltan
ltani
ltat
ltata
ltatja
ltato
ltatott
ltatta
ltban
ltd
lte
ltek
lteke
lteket
ltem
lteme
lten
ltenek
lteni
lteru
ltestve
ltet
ltete
ltetett
lteti
ltetik
ltetni
lteto
ltette
ltetve
ltheto
lti
ltik
ltja
ltje
ltke
ltnek
lto
ltok
ltott
ltotta
ltottak
ltoza
ltozat
ltozata
ltozatai
ltozatban
ltozatlan
ltozatlanul
ltozatok
ltozatokat
ltozatos
ltozatossa
ltozatot
ltozatra
ltozattal
ltozhat
ltozik
ltoznak
ltozni
ltozo
ltozott
ltoztak
ltoztat
ltoztata
ltoztathato
ltoztatja
ltoztatni
ltoztatott
ltoztatta
ltra
ltsa
ltse
ltu
ltuk
ltunk
ltva
ltve
lu
luc
luca
lucas
lucia
luciano
lucifer
lucius
lucky
lucy
ludovika
ludwig
luftwaffe
lui
luigi
luis
lujza
luk
luka
luke
lul
lum
luma
lumok
luna
lunk
lus
lusa
lusban
lusignan
lusok
lust
lusta
lusu
luta
luther
luthera
lux
luxemburg
luxemburgi
lva
lve
lvett
lvevo
lvezeto
lvezo
lvezte
lvi
lvide
lvila
lvin
lvizsga
lvo
lvonalba
lvonalban
lvonalbeli
ly
lya
lyafuta
lyai
lyainak
lyairo
lyait
lyake
lyasza
lyaudvar
lyava
lyba
lyban
lybe
lyben
lybo
lye
lyebb
lyebben
lyede
lyeg
lyege
lyegke
lyei
lyek
lyeket
lyekkel
lyeknek
lyekro
lyemele
lyemelo
lyen
lyes
lyese
lyesebb
lyesen
lyesi
lyeskede
lyesnek
lyesse
lyeze
lyezett
lyezi
lyezo
lyezte
lyeztetett
lyfi
lyfo
lyge
lyha
lyhelyzet
lyhez
lyhoz
lyi
lyise
lyke
lyko
lynak
lynch
lyne
lynek
lynette
lynn
lyno
lyo
lyok
lyokat
lyokban
lyokkal
lyoknak
lyokro
lyom
lyon
lyos
lyosabb
lyosan
lyosbi
lyossa
lyoza
lyozni
lyozo
lyozott
lyozta
lyozva
lyozza
lyra
lyre
lyro
lysa
lyse
lysza
lyt
lyta
lytalan
lytalansa
lytalanul
lyto
lyu
lyuk
lyukat
lyva
lyvezeto
lyzat
lyzata
lyzet
lyzete
lyzo
lza
lzat
lzete
lzeten
lzeti
lzo
lzott
lzottan
m
ma
mac
macbeth
macdonald
macedo
macedonia
machine
macmillan
macska
mad
mada
madagaszka
madame
madara
madarai
madarak
made
madeira
madison
madja
madnak
madni
mado
madonna
madott
madrid
madridban
madridi
madridista
madt
madta
madtak
maffia
mafilm
mag
maga
magad
magam
magamat
magamnak
magas
magasabb
magasabban
magasabbra
magasan
magasba
magaslaton
magasra
magassa
magatarta
magazin
magazinban
magazine
magda
magdolna
magella
maggie
magic
magja
magma
magna
magne
magno
magnus
magok
magot
maguk
magukat
magukban
magukkal
maguknak
magukra
magunk
magunkat
magveto
magyar
magyara
magyarban
magyari
magyarnak
magyaro
magyarok
magyarokat
magyarorsza
magyaros
magyarosan
magyarosi
magyarra
magyarsa
magyart
magyarul
maha
mahler
mai
maiak
maiden
mail
main
maine
mainstream
mainz
mait
maja
majd
majdnem
majla
majmok
majom
major
maka
makao
make
makedo
making
makk
mako
mal
mala
malajzia
malatinszky
malawi
malcolm
male
mali
mallorca
malmo
malom
mama
mammal
mammalia
man
management
manapsa
manche
manchester
manda
mandarin
mandzsu
manfred
manga
manhattan
manipula
mann
mano
mans
mansell
manua
manuel
many
mao
map
maps
mar
mara
marad
marada
maradando
marade
maradhat
maradhatott
maradjanak
maradjon
maradna
maradnak
maradni
marado
maradt
maradtak
maradva
marc
marcel
marcell
march
marche
marci
marco
marcus
mare
marek
margaret
margit
margo
marha
mari
maria
mariah
mariann
marianna
marianne
marie
marihua
marija
marilyn
marina
marine
marino
mario
marion
maritime
marius
mark
marka
market
marketing
marko
markus
marne
maro
marokko
maros
marosi
marosva
mars
marsall
marseille
marshall
marta
martha
marti
martin
martina
marton
marty
marvel
marvin
marx
marxista
marxizmus
mary
maryland
mas
mason
mass
massa
massachusetts
massza
masszi
master
masters
masza
maszk
maszkodik
maszkodva
maszta
masztani
masztja
maszto
masztott
masztotta
masztva
mat
mata
match
mate
matematika
matematikai
matematikus
matematikusok
math
mathae
mathbb
mathbf
mathcal
mathematical
mathrm
matilda
matrica
matrix
matro
matt
matteo
matthew
matthias
matyi
maurice
mauzo
mava
max
maxi
maxima
maximilian
maximum
maximus
maxwell
may
maya
mayer
mb
mba
mban
mbe
mben
mbje
mbo
mbor
mbox
mc
mccartney
mcdonald
mclaren
md
mde
mdf
mdp
me
mea
meccs
meccse
meccsen
meccset
mece
mechanika
mechanikai
mechanikus
mechanizmus
mechanizmusa
mecklenburg
mecsek
mecset
med
meda
medal
meddig
meddo
medence
medencei
media
mediawiki
medical
medici
medicina
medicine
medieval
medina
medita
mediterra
medre
medve
meeting
meg
mega
megada
megadja
megadni
megadott
megadta
megadva
megakada
megala
megalaki
megalakul
megalakula
megalakult
megalapi
megalapoza
megalkota
megalkoto
megalkotta
megba
megbe
megbecsu
megbesze
megbetegede
megbetegedett
megbi
megbocsa
megbu
megbukott
megcsina
megcso
megdo
megdupla
mege
megegyeze
megegyezett
megegyezik
megegyeznek
megegyezo
megegyeztek
megek
megele
megelo
megemle
megemli
megengedett
megengedi
megengedte
megero
meges
megesen
meget
megfe
megfejte
megfelel
megfelele
megfelelnek
megfelelo
megfelelt
megferto
megfigyele
megfigyelheto
megfigyelo
megfigyelt
megfigyelte
megfilmesi
megfogalmaza
megfogalmazott
megfontola
megfordi
megfordult
megforma
megfosztotta
megga
meggyengu
meggyilkola
meggyilkolt
meggyilkolta
meggyo
meggyu
megha
meghagyta
meghajta
meghajto
meghal
meghaladja
meghalado
meghaladta
meghallgata
meghalni
meghalsz
meghalt
meghaltak
meghata
meghi
meghiba
meghirdetett
meghiu
megho
meghonosi
meghosszabbi
meghozta
meghu
meghy
megi
megide
megilleto
megindi
megindult
megint
megisme
megismere
megismerkedett
megismert
megismerte
megja
megjavi
megjegyezni
megjegyezte
megjegyze
megjegyzem
megjegyzendo
megjegyzi
megjelene
megjeleni
megjelenik
megjelennek
megjelenni
megjeleno
megjelent
megjelentek
megjelentete
megjelentetett
megjelentette
megjelo
megjo
megkapja
megkapta
megke
megkerese
megkeru
megkezde
megkezdett
megkezdi
megkezdo
megkezdte
megki
megko
megkorona
megku
megla
megle
meglehet
megleheto
meglepete
meglepo
meglo
megma
megmagyara
megmarad
megmarada
megmaradt
megmaradtak
megme
megmeneku
megmente
megmenteni
megmentette
megmenti
megmentse
megmondani
megmozdula
megmu
megmunka
megmutatja
megmutatta
megne
megnehezi
megneveze
megno
megnyere
megnyerni
megnyert
megnyerte
megnyi
megnyilva
megnyita
megnyitja
megnyito
megnyitott
megnyitotta
megnyu
mego
megolda
megoldani
megoldhato
megoldo
megoldva
megoszla
megoszta
megosztott
megosztotta
megosztva
megpro
megra
megre
megreforma
megrendele
megrendelo
megrendeze
megrendezett
megrendu
megro
megromlott
megronga
megse
megsebesi
megsebesu
megsegi
megsemmisi
megsemmisu
megsza
megszabadi
megszakadt
megszaki
megszavazta
megsze
megszeme
megszerezni
megszerezte
megszerezze
megszerveze
megszervezte
megszerze
megszerzett
megszerzi
megszila
megszo
megszokott
megszori
megszu
megta
megtagadta
megtakari
megtala
megtani
megtanult
megtanulta
megtarta
megtartani
megtartja
megtartott
megtartotta
megte
megtekinte
megtekintheto
megtenni
megteremte
megteremto
megterme
megterveze
megtestesi
megtestesu
megtett
megtette
megtiltotta
megtiszti
megto
megtorla
megtudja
megtudni
megtudta
megu
megva
megvalo
megvan
megvannak
megve
megverte
megvette
megvi
megvila
megvizsga
megvolt
megvona
megy
megye
megyei
megyek
megyeri
megyesze
megyu
megzene
mehet
mehmed
mei
mein
mek
meket
mekkora
mel
melbourne
meleg
melegebb
melegi
melinda
melle
mellesleg
mellett
mellette
melletti
mellettu
mello
mellso
mellszobra
mellu
melly
mellyel
mellynek
melme
melo
mely
melybe
melyben
melybo
melyek
melyekben
melyekbo
melyeken
melyeket
melyekkel
melyeknek
melyen
melyet
melyhez
melyik
melyike
melyiket
melynek
melyre
melyro
membra
memo
memorial
memoriam
memory
memphis
men
menede
menedzser
menedzsere
menedzsment
meneku
menesztette
menet
menete
menetele
menetrend
menj
menjen
menju
menne
mennek
menni
mennie
mennyei
mennyezete
mennyi
mennyire
mennyise
mennyit
mennyorsza
meno
ment
menta
mente
mentek
mentelmi
mentem
menteni
mentes
mentesi
mentesse
mentette
menti
mento
mentor
mentora
mentse
menu
menyasszony
menyasszonya
menye
menyhe
meo
mer
mera
mercedes
mercilessz
mercury
mere
meredek
merek
meres
merev
meri
merlin
mero
merre
merriam
mert
meru
mes
mese
message
messia
messier
messina
messze
messzi
messzire
messziro
mester
mestere
mesterei
mesterek
mesterha
mesteri
mesterke
mesterlo
mesterse
meszes
met
meta
metacritic
metafizika
metafora
metal
metalegyu
metalfo
metallica
metek
meteket
meteor
meteorolo
meth
method
meti
metnek
meto
metodista
metorsza
metro
metropolis
metropolitan
metsze
metszo
metu
metz
meurthe
meuse
mex
mexico
mexiko
meyer
mez
meze
mezei
mezeje
mezi
mezo
mezopota
meztelen
mf
mg
mh
mha
mhoz
mhz
mi
mia
miai
mialatt
miami
mianmar
miatt
miatta
miatti
miben
mibo
michael
michel
michelangelo
michele
michelle
michigan
mick
mickey
microsoft
micsoda
mid
middle
middlesbrough
midi
midnight
mido
mie
mielo
mife
mig
migra
miguel
miha
mihail
mihajlovics
mihelyt
mik
mika
mike
mikes
miklo
miko
mikola
mikor
mikrobiolo
mikroszko
miksa
miksza
mikula
mikus
mikusok
mila
milan
milano
mile
mileg
miles
mili
military
mill
millennium
millenniumi
miller
millia
millime
millio
million
milne
milos
milton
mily
milyen
min
mina
minas
mind
mindaddig
mindannyian
mindazona
mindazt
minde
mindegy
mindegyik
mindegyike
mindegyiku
mindeko
mindemellett
minden
mindena
mindenben
mindenekelo
mindenesetre
mindenevo
mindenfe
mindenfele
mindenhato
mindenhol
mindenke
mindenki
mindenkinek
mindenkit
mindenkor
mindenkori
mindennap
mindennapi
mindennek
mindenre
mindent
mindenu
mindet
mindez
mindezek
mindezt
mindha
mindig
mindinka
mindja
mindke
mindketten
mindketto
mindma
mindnya
mindo
mindszenty
mindve
mine
minek
minerva
ming
mini
miniatu
minima
minimum
minisorozat
miniszte
miniszter
minisztere
miniszterei
miniszterek
miniszterelno
miniszteri
minisztertana
minket
minnesota
mino
minogue
minor
mint
minta
mintave
mintegy
mintha
minthogy
mintsem
mio
mioce
mir
mirage
miranda
mire
miro
miroslav
mis
mise
misibacsi
miska
miskolc
miskolci
miskolcon
miss
mission
mississippi
missouri
misszio
missziona
miszerint
miszte
misztikus
mit
mitchell
mitikus
mito
mitolo
miuta
mivel
mivolta
mix
mja
mje
mjegyu
mk
mkbt
mke
ml
mla
mlapja
mle
mlik
mlista
mlo
mls
mlsz
mm
mma
mmal
mme
mmel
mn
mnak
mnb
mne
mnek
mnemu
mnl
mno
mo
mob
mobil
mobile
mobilita
mocsa
mocsarak
mocsaras
mod
mode
model
modell
modellek
modelleket
modelleze
modellje
modellt
modena
modern
modernebb
moderniza
modul
modula
mogassa
mogat
mogata
mogatja
mogatna
mogatni
mogato
mogatom
mogatott
mogatottsa
mogatta
mogul
mogyoro
moha
mohamed
mohammed
moho
mok
mokat
mokban
mokkal
mokra
mol
mola
molda
moldova
moldva
moldvai
molecular
molekula
molie
molja
moll
molly
molna
molnak
molni
molo
molt
molta
moltak
moltke
molva
moly
momentum
momra
mon
mona
monaco
monarchia
mond
monda
mondana
mondanak
mondani
mondanivalo
mondat
mondata
mondatban
mondatok
mondatot
mondatre
mondd
monde
mondhato
mondj
mondja
mondjuk
mondo
mondod
mondok
mondom
mondott
mondotta
mondta
mondtam
mondva
money
mongo
mongol
mongolok
moni
monica
monitor
monkey
mono
monogra
monok
monolo
monopo
monostor
monoszlo
monroe
monster
mont
montana
monte
montenegro
montevideo
montgomery
montpellier
montre
monumenta
monza
moon
moonwalkr
moore
mor
mora
more
morfolo
morgan
morgo
mori
moritz
morning
morris
morrison
morva
morvaorsza
mos
moselle
moso
mosoly
mosolygo
mosolygott
mosolyogva
moson
mosonmagyaro
moss
mossa
most
mostana
mostani
mostanto
mostoha
moszkva
moszkvai
moszlopok
mot
mother
moti
motion
motiva
moto
motogp
motor
motorja
motorkere
motorok
motoros
motorral
motors
motorsport
motort
motorvonatok
mottevo
motto
mount
mountain
move
movement
movie
moza
mozaik
mozambik
mozart
mozdi
mozdony
mozdonyok
mozdonyokat
mozdonyt
mozga
mozgalma
mozgalmak
mozgalmat
mozgalom
mozgalomban
mozgata
mozgathato
mozgato
mozge
mozgo
mozgott
mozi
moziban
mozifilm
mozifilmek
mozikba
mozikban
mozilla
mozog
mozognak
mozott
mp
mpa
mpi
mr
mra
mre
mrendszerbeli
mrendszerben
mro
mrs
ms
msa
msc
mse
msza
mszereplo
mszeru
mszmp
mszo
mszp
mt
mta
mtalan
mte
mti
mtk
mto
mtv
mtva
mu
much
muel
muhammad
muk
mukra
mulatsa
mult
multi
multime
mulva
munka
munkaero
munkahelye
munkaido
munkako
munkane
munkapadon
munkaszolga
munkata
munkau
munkava
munkave
munkra
mura
murako
muravide
murder
murphy
murray
mus
muse
museo
museum
music
musical
mussolini
must
musza
muszlim
muszlimok
musztafa
muta
mutat
mutatja
mutatkozik
mutatkozott
mutatnak
mutatni
mutato
mutatott
mutatta
mutattak
mutatva
muzeolo
muzsika
muzulma
mve
mvevo
mw
mx
my
myspace
mystery
mz
mze
mzetes
mzett
mzo
n
na
nach
nacional
nacionalista
nad
nada
nadra
nadta
nagy
nagya
nagyanyja
nagyapa
nagyapja
nagyara
nagyata
nagyba
nagyban
nagybetu
nagybirtokos
nagybo
nagyboldogasszony
nagydi
nagyfejedelem
nagyfoku
nagygyu
nagyhatalmak
nagyherceg
nagyhercegne
nagyhercegno
nagyhercegse
nagyi
nagyja
nagyka
nagykanizsa
nagykanizsai
nagyko
nagykoru
nagykun
nagylelku
nagylemez
nagylemeze
nagylemezei
nagylemezek
nagylemezu
nagylexikon
nagymama
nagyme
nagymester
nagymestere
nagyne
nagyobb
nagyobbak
nagyobbik
nagyok
nagyon
nagyot
nagyra
nagyre
nagysa
nagysebesse
nagysza
nagyszaba
nagyszeben
nagyszeru
nagyszombat
nagyszombatban
nagyszombati
nagyszu
nagytibi
nagyu
nagyva
nagyvezi
nagyvila
nai
naiak
naiul
naiv
naja
nak
naka
nako
nal
nam
name
names
nami
nana
nancy
nane
nantes
nap
napban
napfe
napfogyatkoza
napi
napig
napilap
napja
napjai
napjaiban
napjaink
napjainkban
napjainkig
napjainkra
napke
napko
naplo
napo
napok
napokat
napokban
napokig
napokkal
napokon
napoli
napon
naponta
napos
naposan
napot
nappal
nappali
napra
napraforgo
naprendszer
naprendszerben
napro
napsu
napsuga
napsza
napta
napto
napvila
nara
narancs
narancssa
narcke
narra
naruto
nas
nasa
nashville
nasza
naszo
nat
nata
natalie
nathan
nation
national
nations
nato
natos
natot
natura
natural
nature
naval
navarra
navarrai
naviga
navy
nay
nb
nba
nban
nbc
nbe
nben
nbo
nbse
nbu
nbusz
nc
nca
nccal
nce
ncegyu
nchen
nchenben
nchengladbach
ncheni
nchez
nchi
nci
ncmu
ncok
ncolo
ncolt
ncos
ncosno
ncosok
ncot
ncs
ncselekme
ncsi
ncsics
ncsisa
ncurse
ncz
nd
ndarab
nde
ndes
ndez
ndi
ndk
ndo
ndok
ndor
ndorfehe
ndorla
ndorlo
ndorne
ndorolt
ndoroltak
ndorral
ndort
ndula
ndulo
ndy
ndzsa
ne
neal
near
nebraska
nec
ned
nedves
nedvesse
need
negati
negyed
negyedben
negyeddo
negyede
negyedik
negyedoszta
negyven
nehe
nehezebb
nehezebben
nehezen
nehezi
nehogy
nei
neiben
neil
neill
neit
neje
nek
nekben
neke
neked
nekek
nekel
nekelni
nekelt
nekelte
nekem
neken
nekes
nekese
nekesek
nekeske
nekesno
neket
neki
nekia
nekik
nekila
nekkel
nekle
nekli
nekrolo
nekta
nektek
neku
nel
nelem
nelemben
nella
nelme
nelmet
nelmi
nelmileg
nelson
nem
nembe
nembeli
nemcsak
neme
nemek
nemes
nemesek
nemesi
nemesse
nemet
nemhogy
nemi
nemigen
nemmel
nemre
nemsoka
nemu
nemzede
nemzet
nemzetbiztonsa
nemzete
nemzetek
nemzetgazdasa
nemzetgyu
nemzeti
nemzetise
nemzetiszocialista
nemzetko
nemzeto
nemzetse
nen
neo
neogo
nepa
nepomuki
ner
neretva
nero
nes
nesi
net
neta
netben
netbo
nete
netei
netek
neteket
neten
netet
netflix
neti
nettel
netto
nettudoma
netu
network
neue
neues
neumann
neurolo
nev
nevada
neve
nevei
neveit
nevek
neveken
neveket
nevele
nevelkedett
nevelo
nevelt
nevelte
neveltete
nevem
never
neves
nevesi
nevet
nevete
nevetse
nevez
neveze
nevezetes
nevezetesek
nevezetesen
nevezetesnek
nevezetesse
nevezett
nevezetu
nevezheto
nevezi
nevezik
neveznek
nevezni
nevezo
nevezte
neveztek
nevezu
nevezve
nevezzu
neville
nevu
new
newcastle
newman
news
newton
next
nez
neze
nezo
nfalva
nfe
nffy
nfl
nfm
ng
nga
ngc
nge
ngel
ngja
ngo
ngolo
ngy
ngyi
ngyilkos
ngyilkossa
ngyo
ngyu
nh
nha
nhangzo
nhata
nhelye
nhet
nhetett
nheti
nheto
nhette
nhidra
nhidroge
nhl
nho
nhoz
ni
nia
niai
niak
niatemplom
niatemploma
niben
nica
nicaragua
nice
nicholas
nicht
nick
nickelodeon
nico
nicola
nicolae
nicolas
nicole
nida
nie
niel
nielsen
nig
nigazgato
nige
nigel
niger
night
nights
nigsberg
nik
nika
nike
nikita
nikola
nikus
nimfa
nin
nina
nincs
nincsen
nincsenek
nindzsa
nine
nintendo
nio
nippon
nis
nise
nit
nitra
nitroge
nium
nius
niusa
niusban
niusi
nix
nixon
nizza
nja
njai
nje
nju
nk
nka
nkat
nkban
nkbe
nkben
nke
nket
nki
nkiada
nknek
nko
nkorma
nkre
nkrement
nku
nl
nla
nlata
nlatot
nleges
nlegesse
nlja
nlo
nlom
nlott
nlotta
nm
nmaga
nme
nmu
nn
nna
nnak
nnal
nne
nnek
nnel
nnep
nnepe
nnepek
nnepelt
nnepelte
nnepi
nneple
nneplik
nneplo
nnepse
nni
nny
nnya
nnyal
nnye
nnyebb
nnyebben
nnyed
nnyede
nnyel
nnyen
nnyi
nnyu
no
nobel
node
noe
noha
noir
noise
nok
nokat
nokia
nokkal
noknak
nol
nom
noma
non
nonprofit
norbert
nord
norma
norman
normandia
normandiai
normann
north
northern
norton
norve
nos
nosa
nosabb
nosan
nosi
nosnak
nosne
nossa
nossal
nost
nostra
nosz
not
note
notes
nothing
notitiae
notoc
notre
nottingham
nov
nova
novel
novella
november
novemberben
novembere
novemberi
novi
now
nozta
nozza
np
npad
npada
npadi
npadon
npadra
npo
nr
nra
nre
nro
ns
nsa
nsabb
nsan
nse
nsno
nsok
nster
nsz
nsza
nszeme
nszk
nszky
nt
nta
ntai
ntak
ntam
ntana
ntani
ntarta
ntarto
ntcsontpart
nte
ntek
nteken
nteket
ntelen
ntenek
nteni
ntere
ntes
ntesek
ntesse
ntete
ntetendo
ntetett
nteti
ntetik
ntetlen
ntetlennel
ntetlent
ntetni
nteto
ntette
ntettek
ntetu
ntetve
nther
nti
ntik
ntja
nto
ntok
ntor
ntotta
ntse
ntsem
ntu
ntudat
ntulajdonban
ntve
nu
nuclear
nuel
nuk
nuklea
nul
nula
null
nulla
nullextra
nullextrakade
nult
number
numerikus
nus
nusa
nusok
nusz
nva
nvalo
nve
nvonala
nvonalas
nvonalu
ny
nya
nyada
nyado
nyai
nyaiban
nyaik
nyaikat
nyainak
nyait
nyaival
nyak
nyaka
nyake
nyame
nyan
nyara
nyaralo
nyat
nyba
nyban
nybe
nybeli
nyben
nybeve
nybi
nybiztos
nybo
nycikk
nydemokrata
nye
nyebb
nyed
nyeg
nyege
nyegek
nyeges
nyegesen
nyeget
nyegi
nyegyetem
nyegyetemen
nyei
nyeiben
nyeibo
nyeik
nyeiket
nyein
nyeinek
nyeire
nyeiro
nyeit
nyeivel
nyek
nyekben
nyekbo
nyeke
nyeken
nyeket
nyekhez
nyekkel
nyekne
nyeknek
nyekre
nyekro
nyekto
nyel
nyelmes
nyelnek
nyelo
nyelt
nyelte
nyelv
nyelvbe
nyelvben
nyelvbo
nyelvcsala
nyelve
nyelvei
nyelvek
nyelvekben
nyelveken
nyelveket
nyelven
nyelvet
nyelvhaszna
nyelvi
nyelvja
nyelvko
nyelvnek
nyelvre
nyelvro
nyelvtan
nyelvtana
nyelvtani
nyelvteru
nyelvto
nyelvtudoma
nyelvu
nyelvva
nyelvvel
nyem
nyen
nyenyec
nyer
nyereju
nyereme
nyerese
nyerges
nyeri
nyerni
nyero
nyers
nyert
nyerte
nyertek
nyertes
nyes
nyesebb
nyesek
nyesen
nyesi
nyesse
nyesu
nyevo
nyez
nyeze
nyezett
nyezi
nyezo
nyezte
nyfaj
nyfajok
nyfe
nyfo
nyforra
nyfu
nygyu
nyha
nyhata
nyhato
nyhez
nyhoz
nyhoza
nyhozo
nyi
nyiek
nyiffi
nyikolaj
nyikolajevics
nyilas
nyilatkozat
nyilatkozata
nyilatkozatot
nyilatkozott
nyilatkozta
nyilva
nyilvantarto
nyira
nyiskola
nyit
nyita
nyitja
nyitni
nyito
nyitott
nyitotta
nyitottak
nyitra
nyitrai
nyitva
nyja
nyka
nyke
nykede
nyko
nykora
nylag
nyle
nyleg
nyleges
nylegesen
nylet
nylete
nyletet
nylista
nylo
nymo
nyna
nynak
nyne
nynek
nynemzetse
nyo
nyok
nyokat
nyokban
nyokbo
nyokkal
nyoknak
nyokon
nyokra
nyolc
nyolcaddo
nyolcadik
nyolcas
nyolce
nyolcszo
nyolcvan
nyolcvanas
nyolo
nyolt
nyom
nyoma
nyomai
nyomait
nyomate
nyomban
nyomda
nyomdai
nyomja
nyomo
nyomok
nyomon
nyomoru
nyomot
nyomott
nyomoza
nyomozo
nyomta
nyomtata
nyomtatott
nyomtatva
nyomvonala
nyon
nyorsza
nyos
nyosabb
nyosan
nyosi
nyossa
nyoza
nyozhato
nyoznak
nyozni
nyozo
nyozott
nyozta
nyoztak
nyozza
nypa
nyra
nyre
nyrendeletek
nyro
nysa
nyse
nysorozat
nysorozata
nysza
nysze
nyszer
nyszeri
nyszermunka
nyszeru
nyszo
nyszor
nyt
nyta
nytalan
nytan
nytani
nytelen
nytelenek
nyteleni
nytelennek
nytelense
nytelenu
nytermeszte
nytestve
nyto
nytu
nyu
nyuga
nyugalmazott
nyugalmi
nyugalom
nyugalomba
nyugalomra
nyugat
nyugati
nyugatne
nyugaton
nyugatra
nyugatro
nyugdi
nyugodt
nyugodtan
nyugszik
nyugtalansa
nyugvo
nyuk
nyukat
nyul
nyulo
nyult
nyultsa
nyv
nyva
nyvbe
nyvben
nyvbo
nyve
nyvei
nyveit
nyvek
nyvekben
nyveket
nyvelo
nyves
nyvet
nyvezheto
nyvi
nyvila
nyvkiada
nyvkiado
nyvklub
nyvmu
nyvnek
nyvro
nyvsorozat
nyvta
nyza
nyzat
nyzata
nyzati
nyzatok
nyzatot
nyzattal
nyzet
nyzete
nyzik
nyzo
nyzott
nz
nza
nze
nzek
nzo
nzt
nzta
nzu
nzzel
o
oa
ob
obama
obce
obi
object
objekti
objektum
objektumok
oboa
obszervato
ocean
october
octogon
od
oda
odaa
odae
odai
ode
oder
odu
of
ofc
off
offenzi
office
official
og
ogodej
ogy
oh
ohio
ois
oise
ok
oka
okai
okb
okbo
oke
okirat
okirata
oklahoma
okleve
oklevele
oklevelek
okleveles
oklevelet
okma
okok
okokbo
okos
okot
okoz
okozhat
okoznak
okozni
okozo
okozott
okozta
okoztak
okozva
okozza
okt
okta
oktata
oktato
oktatott
oktatta
okto
ol
ola
olaf
olaj
olajat
olasz
olaszok
olaszorsza
olaszul
olcso
old
oldal
oldala
oldalain
oldalak
oldalakat
oldalakon
oldalas
oldali
oldalon
oldalra
oldalro
oldalso
oldalsza
oldalt
oldani
oldat
oldhato
oldja
oldo
oldott
oldotta
olga
oli
olimpia
olimpiai
olimpikon
olimpikonok
oliv
olive
oliver
olivia
olivier
ollo
olly
olo
olta
oltalma
olvada
olvadt
olvas
olvasa
olvasd
olvashato
olvasma
olvasni
olvaso
olvasott
olvassa
olvasta
olvastam
olvasva
oly
olyan
olyankor
olyannyira
olyanok
olyat
olykor
olympia
olympic
olympique
om
oma
omar
omega
on
once
one
online
only
onnan
onnanto
ontario
op
opa
opcio
opciona
opel
open
openen
opera
operae
operaha
operati
operation
operato
operatorname
operett
operettszi
optikai
optima
optimaliza
opus
or
ora
orange
orato
orba
orbita
orchestra
order
ordi
oregon
org
organization
orgona
orgonista
oricon
orient
orienta
orientalista
orientation
original
origo
orion
orlando
orle
orleans
orma
orne
ornitolo
oro
orosha
orosz
oroszla
oroszok
oroszorsza
oroszul
orr
orra
orrszarvu
orso
orsolya
orsolyavira
orsza
ortodox
orvos
orvosa
orvosi
orvoske
orvosla
orvosok
orvossa
orvostudoma
os
oscar
osiris
oskar
oslo
ostoba
ostrom
ostroma
ostromlo
ostromolta
osva
oswald
osz
oszaka
oszcilla
osze
oszk
oszka
oszlik
oszlop
oszlopa
oszlopok
oszlopos
oszlott
oszma
oszt
oszta
osztag
osztani
oszthato
osztja
oszto
osztott
osztotta
osztottak
osztra
osztva
ot
other
otp
otrs
ott
ottan
ottani
otthagyta
otthon
otthona
otthoni
otthont
otto
ottoka
ou
our
out
ov
ova
over
owen
own
oxford
oxfordi
oxid
oxida
oxige
oz
p
pa
pablo
pacific
pad
padla
padlo
padova
padt
page
pages
pagony
pagonyfoxhole
pai
paiak
pain
pajta
pajzs
pak
pakiszta
paks
paksi
pal
pala
palace
palackposta
palatinus
palazzo
paleontolo
palermo
palesztin
palesztina
pallas
pallerti
palma
palmer
palo
palota
palotabara
pamela
pan
panama
panasz
pande
pankra
panno
pannon
pannonhalma
pannonhalmi
pannonia
pannonius
panora
pantheon
paolo
pap
papa
papaga
paper
papers
papi
papja
papno
papok
papot
papp
pappa
paprika
papsa
par
para
paradicsom
paradigma
paradise
paraguay
paraguayi
parame
paramount
parancs
parancsa
parancsnok
parancsnoka
parancsnoki
parancsnoksa
parancsot
paraszt
paraszti
parasztok
parasztsa
parazita
parcella
paripa
paris
park
parkban
parker
parkja
parkok
parkolo
parkot
parlament
parlamenta
parlamentbe
parlamentben
parlamenti
parma
parmai
paro
part
partbi
parti
partial
partikula
partiumque
partiza
partja
partjaina
partner
partnere
partok
parton
partot
partra
partrasza
partvide
party
pas
pasa
pascal
passeriformes
passio
passzi
past
pastora
pasztilla
pat
pata
patak
pataki
patakok
patika
patka
patko
patolo
patri
patricia
patrick
paul
paula
paulo
paulus
pavel
pavlovics
pb
pbe
pben
pbo
pc
pcso
pcsoport
pd
pdal
pdalok
pdc
pdf
pdo
pe
peace
peadar
pearl
pearson
pecse
peda
pedago
pedig
pedro
pei
peinek
peit
pek
pekben
peken
peket
pekhez
peking
pekingben
pekingi
pekkel
pekne
peknek
pekre
pele
peligro
pen
pene
penge
pengo
penn
pennsylvania
penny
pentium
peny
people
per
perben
perc
percben
perccel
perce
percenke
perces
percet
percig
perckor
percre
percy
perczel
pere
pereme
perepis
perfect
perfectmiss
performance
perife
perigeuma
perio
period
pernyo
perry
person
persona
perspekti
persze
pert
perth
peru
perui
perzsa
perzsia
pes
pesebb
pesek
pesi
pesse
pest
pesten
pesti
pestis
pestisja
pestre
pesu
peszto
pet
petar
pete
peter
peters
peterson
petho
peti
petit
peto
petr
petra
petri
petro
petrovics
pett
peyerk
pez
peze
pezett
pezi
pezik
peznek
pezni
pezo
pezsgo
pezte
pezve
pfalz
pfalzi
pflin
pfo
pfoku
pg
pgale
pgya
pgyu
ph
pha
phab
phadsereg
phd
phegyse
phet
phetett
phez
phi
phil
philadelphia
philip
philipp
philippe
phillips
philosophy
pho
phoenix
photo
php
pi
pia
piac
piaca
piaci
piacon
piacra
piano
piarista
piazza
picasso
picit
pick
picture
pictures
pie
piemont
piemonti
pierce
pierre
pies
pietro
pihene
piheno
pilgab
pilis
pilisvo
pillanat
pillanata
pillanatban
pillanatnyi
pillanatra
pillango
pillanta
pille
pilo
pilot
pim
pince
ping
pinjin
pink
pinte
pio
pipa
piper
piquet
piraeus
piramis
piri
pirodalmi
piros
piroska
pirta
pisa
piskola
piskolai
pista
piszkos
pisztoly
pittsburgh
pius
piusz
pja
pjen
pjotr
pk
pke
pkeresztje
pko
pkocsi
pkor
pkorban
pkori
pl
pla
plabda
place
plaka
plan
planck
planet
plant
plants
plaque
plata
plate
platform
platina
platinalemez
plato
play
player
players
playstation
plaza
plazma
ple
please
pleisztoce
plet
plete
pletyka
plioce
plotarea
plotdata
plus
plusz
pluto
plzen
pm
pma
pmatrix
pmese
pmu
pne
pnek
png
pni
po
poe
poetry
pofa
poga
poha
point
pok
poke
pokol
pol
pola
polariza
pole
polga
poli
police
policy
polie
poline
political
politico
politics
politika
politikai
politikailag
politikus
politikusok
politiza
politolo
polna
polo
polt
poly
polyba
polyban
polydor
polyi
poma
pomera
pompa
pompeius
pongra
pont
pontatlan
pontban
pontbo
ponte
pontifika
pontja
pontjai
pontjait
pontok
pontokat
ponton
pontos
pontosabb
pontosabban
pontosan
pontosi
pontossa
pontot
pontoza
pontra
pontsza
pontszerzo
ponttal
pontto
pop
pope
popula
population
popzene
por
pora
porbo
porcela
porno
porosz
poroszorsza
porrimaeszmecsere
porsche
port
porta
portal
porte
porter
portfolio
portland
porto
portrait
portre
portsmouth
portuga
portya
porzo
pos
post
posta
postai
postala
postsa
poszt
poszta
posztja
poszto
poszton
posztot
posztumusz
pot
potencia
potter
pour
powell
power
pozi
poziti
poznan
pozsega
pozsony
pozsonyban
pozsonyi
pp
ppa
ppel
ppen
ppeni
ppense
ppontja
ppu
ppuska
pr
pra
praha
prajz
prajzi
prajzkutato
praktikus
pravoszla
pre
preci
prefektu
prefera
prege
premier
premierje
premontrei
present
president
press
presser
preston
preszti
pretty
prezenta
pri
price
prilis
prilisa
prilisban
prilisi
prima
prime
primer
primiti
prince
princess
princeton
print
prinz
priorita
priva
private
privatiza
prix
prize
pro
proble
problem
problems
proceedings
processzor
processzorok
producer
producere
producerei
producerek
produceri
producerke
production
productions
produka
produkcio
prof
professor
professziona
professzor
professzora
professzori
profi
profil
profile
profilja
profit
program
programban
programja
programmal
programok
programokat
programot
programoza
programozo
progresszi
proha
project
projects
projekt
projektben
projektek
projektet
projektje
proleta
promo
propaganda
properties
property
proposals
prost
prostitua
protektora
protesta
protokoll
proton
prototi
provence
provincia
provoka
pru
ps
pse
psi
pso
psport
psu
psv
psychology
psza
pszabadsa
pszava
pszavaza
pszeru
pszi
psziche
pszichia
pszicholo
pszichotera
pszo
pszoka
pt
pta
ptalan
pte
ptek
ptelen
ptelenedett
ptelenek
ptelenne
ptelense
ptete
ptette
pti
pto
ptolemaiosz
pu
pua
public
publications
publicista
publicisztika
publika
published
publishers
publishing
publius
puccini
puccs
puerto
puglia
puha
puhatestu
pulitzer
punk
pupika
purita
purple
pus
pusa
pusai
pusfaj
pusi
puska
puskin
pusok
pusokat
pussal
pust
pusu
puszta
pusztai
puszti
pusztula
pusztult
putyin
puy
pva
pve
pvisel
pviselet
pviselete
pviseleti
pviseli
pviselik
pviselo
pviselt
pviselte
pviseltette
pwas
px
pxalensha
pxfogado
pxhardcandy
pxide
pxitt
pxivanhoe
pxkarmelaposta
pxkarmelau
pxpankus
pxrabbit
pxthe
pxu
pxvita
py
pyre
python
pze
pzele
pzeletbeli
pzelheto
pzelni
pzelt
pzelte
pzene
pzenei
pzett
pzettse
pzo
q
qu
quad
que
queen
queens
quentin
query
qui
quick
quinn
quintus
quo
r
ra
raauto
rab
rabbi
rabla
rablo
rabsa
rabszolga
rabszolgasa
race
rachel
racing
raciona
rad
rada
radar
rade
radi
radika
radio
radioakti
radno
rado
radon
radsa
radt
radtsa
radva
rady
raeder
raf
rafael
rag
ragadozo
ragadta
ragaszkoda
ragaszkodik
ragaszkodott
ragoza
ragyog
ragyogo
rai
rail
railroad
railway
rain
rainak
rainbow
rainer
rait
raj
raja
rajmund
rajna
rajnai
rajongo
rajt
rajta
rajtam
rajtau
rajthoz
rajtkocka
rajtna
rajtolt
rajtuk
rajz
rajza
rajzfilm
rajzfilmek
rajzfilmsorozat
rajzok
rajzolo
rajzolt
rajzolta
rajztana
rak
raka
rakat
rakban
rake
rakja
rakle
rakni
rako
rakodo
rakoma
rakor
rakott
rakoza
rakozo
rakoztata
rakoztato
rakta
ral
rali
ralja
ralph
ram
rama
ramaros
ramko
ramla
ramlo
ramo
ramot
ramszesz
ramu
ran
randevu
rando
random
randy
rang
rangado
rangban
range
rangers
rangja
rangle
ranglista
rangos
rangot
rangra
rangsora
rangu
rao
raoul
rap
rapa
rapid
rapper
rapszo
rard
ras
rasszista
rat
rata
ratai
ratban
rati
ratifika
ratlan
ratlanul
ratok
ratokat
raton
ratot
ratta
rattal
rau
rava
ravasz
raw
ray
raymond
raz
razabb
razfo
raziel
razsa
rb
rba
rbaj
rbajban
rbajto
rban
rbe
rbeli
rben
rbesze
rbo
rbu
rc
rca
rce
rcius
rciusa
rciusban
rciusi
rcs
rcsa
rcsak
rcso
rczi
rd
rda
rdai
rde
rdek
rdeke
rdekeit
rdekek
rdekel
rdekelne
rdekelt
rdekelte
rdekeltse
rdekes
rdekesebb
rdekesse
rdekli
rdeklo
rdeku
rdem
rdemben
rdeme
rdemel
rdemelte
rdemes
rdemi
rdemkereszt
rdemli
rdemrend
rdeze
rdezem
rdezi
rdezni
rdezo
rdezte
rdeztem
rdi
rdo
rdoba
rdok
rdonyi
rdos
rdot
rdsa
rdu
rduc
rdy
re
rea
read
reader
reading
ready
reaga
reagan
reakcio
real
realista
reality
realizmus
rebecca
recenzio
receptor
reci
record
records
red
rede
redi
redo
reduka
reed
reeder
ref
refera
reference
referencia
reform
reforma
reformja
reformok
reformokat
refre
reg
regasterios
regben
regcsala
rege
regek
regenera
reges
reget
reggae
reggel
reggeli
regi
regia
regina
regiona
regional
regiszter
regisztra
regna
regni
rego
regula
regyha
rehabilita
rehalada
rehaladta
rei
reich
reid
reinek
reit
reivel
rejelze
rejlik
rejlo
rejte
rejtett
rejto
rejtve
rek
rekedett
rekedtek
reket
rekkel
rekla
rekonstrua
rekonstrukcio
rekord
rekordja
rekordok
rekordot
rekszik
rektor
rektora
rekve
rekvo
rel
rela
related
relati
relativita
rele
release
relem
releva
religion
relme
relmet
relt
relte
rem
remake
reme
remek
remekmu
remeku
remember
remete
remix
remle
remmel
remmu
remta
ren
rena
renault
rend
rendbe
rendben
renddel
rende
rendek
rendele
rendelet
rendelete
rendeletek
rendeletet
rendelkeze
rendelkezett
rendelkezik
rendelkeznek
rendelkezo
rendelkeztek
rendellenesse
rendelo
rendelt
rendelte
rendeltek
rendeltete
rendeltse
rendelve
rendes
rendesen
rendet
rendez
rendeze
rendezett
rendezi
rendezik
rendeznek
rendezni
rendezo
rendezte
rendeztek
rendezve
rendha
rendhagyo
rendi
rendiha
rendje
rendki
rendo
rendre
rendsza
rendszer
rendszerbe
rendszerben
rendszerbesorola
rendszere
rendszerek
rendszerekben
rendszereket
rendszeren
rendszeres
rendszeresen
rendszeresi
rendszeresse
rendszereze
rendszerhez
rendszerint
rendszernek
rendszerre
rendszerrel
rendszert
rendszertani
rendszeru
rendszerva
rendu
rendve
rene
renesza
rengeteg
rengeteget
renova
renyomula
repede
reperto
repertoa
repertorium
replicarter
replika
report
reprezenta
reprezentati
reprint
repte
repu
republic
republika
requiem
rer
res
research
resebb
resedett
resek
resen
resources
resse
rest
restaura
resu
results
reszko
ret
retara
retben
rete
retei
retek
retes
retet
reti
retlen
reto
retorika
retrieved
retro
rett
rettege
rettel
rettenetes
rettento
rettse
retu
return
rev
revi
review
revolution
revue
rex
rey
reynolds
rez
rezerva
rezge
rezheto
rezidencia
rezni
rezred
rezsim
rezso
rezte
reztem
rfa
rfaj
rfajok
rfe
rffy
rfi
rfiak
rfiakat
rfiakna
rfikeresztnevek
rfine
rfit
rfiu
rfo
rfogata
rfordi
rfu
rg
rga
rgb
rge
rgei
rgek
rgen
rges
rget
rgette
rgey
rgeze
rgezo
rggyel
rgo
rgott
rgro
rgy
rgya
rgyai
rgyak
rgyakat
rgyala
rgyalja
rgyalni
rgyalo
rgyalt
rgyat
rgyi
rgyko
rgynek
rgyo
rgyu
rha
rhajo
rhajto
rhat
rhatja
rhatna
rhato
rhe
rhedt
rhegy
rhely
rhelyen
rhelyi
rhet
rhetetlen
rhetett
rheti
rhetnek
rheto
rhette
rhez
rhin
rho
rhode
rhogy
rhol
rhoz
rhuzamos
rhuzamosan
rhythm
ri
ria
riai
riak
ric
rica
ricardo
ricciardo
rice
rich
richa
richard
richards
richardson
richben
richi
richmond
richter
rick
rico
ricz
rida
ride
rideg
rido
rie
riemann
rig
riga
rigazgato
right
rightarrow
rights
rigo
rik
rika
rikus
riley
rin
rinc
rincz
ring
ringia
rint
rinte
rintetlen
rintett
rintette
rintettek
rinti
rintik
rintkeze
rinto
rio
riport
riporter
ris
risc
rise
rising
rita
ritka
ritkasa
ritmikus
ritmusgita
ritter
ritua
rium
riuma
riumainak
riumba
riumban
riumi
riumnak
riumok
riumokat
riumot
rius
riusok
riva
rivaliza
river
riz
rizetbe
rizetlen
rizheto
rizni
rizs
rizsba
rizsban
rizsi
rizst
rizte
rizve
rizze
rj
rja
rjai
rje
rjegyzo
rjen
rjenek
rjhez
rjo
rjon
rju
rjuk
rjunk
rk
rka
rkamra
rkane
rkapita
rkar
rkari
rkaste
rke
rkert
rkeze
rkezett
rkezik
rkeznek
rkezo
rkeztek
rkezve
rki
rkinek
rkit
rko
rkonyi
rku
rkus
rkutata
rla
rlabda
rlap
rlapi
rlat
rle
rleg
rlege
rlek
rlendo
rlet
rlete
rletek
rleteket
rletet
rleteze
rleti
rlevente
rli
rlik
rlo
rm
rma
rman
rmas
rmast
rmat
rmaza
rmaze
rmazik
rmaznak
rmazo
rmazott
rmazottai
rmazottja
rmaztak
rmdsz
rme
rmegye
rmegyei
rmek
rmele
rmely
rmelyik
rmendi
rmes
rmese
rmesek
rmester
rmestere
rmesterei
rmesterek
rmesteri
rmet
rmezo
rmi
rmife
rmikor
rmilyen
rmin
rmint
rmit
rmo
rmu
rn
rna
rnagy
rnai
rnak
rnap
rnapi
rnapja
rnberg
rnbergi
rne
rnek
rnemek
rneve
rnevet
rni
rnia
rnie
rniu
rno
rnok
rns
rny
rnya
rnyai
rnyak
rnyalatu
rnyas
rnyat
rnye
rnyek
rnyeteg
rnyezet
rnyezetben
rnyezete
rnyezetet
rnyezeti
rnyezetu
rnyezetve
rnyezo
rnyfeszta
rnyi
rnyoma
rnyu
ro
road
rob
robbana
robbano
robbant
robbanta
robbie
robert
roberto
roberts
robertson
robin
robinson
robot
robotok
rock
rockegyu
rocky
rockzene
rod
rodotosz
rodri
rodrigo
roger
rogers
roham
rohamosan
rohan
rok
rokat
rokban
rokkal
roknak
rokoko
rokon
rokona
rokonai
rokoni
rokonok
rokonsa
rokozo
rokra
rokrata
rol
rola
roland
rolf
rolhato
roli
rolja
roll
rolling
rollyal
rolni
rolo
rolt
rolta
roltak
roly
rolyi
rolyt
rolyva
rom
roma
romagna
roman
romance
romano
romantika
romantikus
romba
romban
rombolo
romdimenzio
rome
romeo
romfe
romha
romi
romjai
romla
romlott
romok
romos
romsa
romsza
romsze
romszo
romszor
romszoros
ron
ronald
ronaldo
ronda
ronga
ronnie
room
roosevelt
roppant
rorosz
roroszorsza
rorsza
ros
rosa
rosai
rosba
rosban
rosberg
rosbo
rose
roses
rosha
roshoz
rosi
roska
roske
rosko
rosnak
rosoda
rosok
rosokat
rosokban
roson
rospatak
rospataki
rosra
rosre
rosro
ross
rossa
rossal
rossi
rossini
rossz
rosszabb
rosszat
rosszindulatu
rosszul
rost
rosta
rosto
rosty
rosz
rota
roth
rott
rotten
rotterdam
rouge
round
rousseau
route
routledge
rova
rovarfajok
rovarok
rovarokkal
rovat
rovata
rovers
roy
royal
roz
roza
rozat
rozata
rozatlan
rozatok
rozatot
rozgonyi
rozhato
rozni
rozo
rozott
rozottan
rozsda
rozsnyo
rozta
roztak
rozva
rozza
rp
rpa
rpalota
rpe
rpedig
rpi
rpo
rporta
rr
rra
rral
rre
rrel
rrepu
rro
rruha
rs
rsa
rsadalma
rsadalmat
rsadalmi
rsadalom
rsadalomban
rsadalombiztosi
rsadalomtudoma
rsai
rsaik
rsainak
rsait
rsaival
rsak
rsake
rsalgo
rsas
rsasa
rsat
rse
rsege
rsek
rseke
rseki
rsekse
rseku
rselno
rsi
rso
rsony
rsssf
rsszerkeszto
rsszerzo
rst
rsula
rsulat
rsulata
rsult
rsunk
rsuralkodo
rsz
rsza
rsze
rszeru
rszerze
rszerzo
rszi
rszo
rszolga
rszonda
rt
rta
rtad
rtai
rtak
rtam
rtan
rtana
rtanak
rtani
rtanu
rtas
rtassa
rtatlan
rtatlansa
rtba
rtbo
rte
rted
rtek
rtekeze
rtelem
rtelemben
rtelemszeru
rtelen
rtelepu
rtelme
rtelmes
rtelmet
rtelmetlen
rtelmeze
rtelmezett
rtelmezheto
rtelmezni
rtelmezo
rtelmezte
rtelmi
rtelmise
rtelmu
rtem
rten
rtendo
rtene
rtenek
rteni
rteru
rtes
rtesi
rtesu
rtesz
rtet
rteto
rtett
rtette
rtettek
rtettem
rtevo
rtfo
rtfogo
rth
rthetetlen
rtheto
rthoz
rti
rtik
rtja
rtju
rtko
rtl
rtma
rtnak
rto
rtok
rtolo
rton
rtoni
rtot
rtott
rtotta
rtottak
rtsd
rtse
rttal
rttemberg
rttembergben
rttembergi
rtu
rtudoma
rtunk
rtus
rtve
rtya
ru
ruanda
rubens
rubicon
rubin
ruby
rudi
rudolf
rue
rugalmas
rugalmassa
rugo
ruha
ruk
rul
rula
rule
rulja
rulnak
rulo
rult
rulta
rultak
rum
ruma
run
runk
rupert
rus
rusa
rush
rusi
rusok
russell
russia
russian
russula
rust
rusz
ruszin
rut
ruth
rv
rva
rvado
rvaha
rve
rvek
rveket
rvele
rvelt
rvendett
rvere
rvi
rvide
rvila
rvo
rvoka
rvonala
ry
ryan
ryne
rz
rza
rze
rzed
rzelem
rzelmek
rzelmeket
rzelmi
rzem
rzet
rzetben
rzete
rzetek
rzetet
rzeti
rzett
rzi
rzik
rzo
rzott
rzs
rzse
rzsek
rzset
rzsfo
rzsi
rzso
s
sa
sabb
sabbath
sablon
sablonban
sablonjai
sablonnal
sablonok
sablonokat
sablont
sad
saga
sah
sai
saiban
saibo
said
saihoz
saik
saikat
sailor
saim
sain
sainak
saint
sainte
saira
sairo
sait
saito
saival
saja
sajna
sajnos
sajo
sajto
sak
saka
sake
sakk
sakkolimpia
sakkozo
sakkvila
sakor
sal
sala
salamanca
salamon
sale
salerno
salgo
sally
salt
salvador
salvatore
salzburg
salzburgi
sam
samantha
samat
same
samsung
samu
samuel
san
sancho
sandra
sandy
sankt
sant
santa
santiago
santo
santos
sao
sapka
sar
sara
sarah
sarja
sarka
sarki
sarkvide
sarlo
sarokba
sarokban
sarolta
sas
sasuke
sat
sata
satellite
saturday
saturn
saul
sav
savage
savanyu
savaria
savas
save
savoie
savoya
savoyai
sawyer
say
sayid
sb
sba
sban
sbarna
sbe
sbeli
sbemutato
sben
sbo
sc
scala
scalemajor
scaleminor
scha
schalke
schiller
schleswig
schmidt
schmitt
schneider
scho
school
schu
schubert
schumacher
schwartz
schwarz
sci
science
sciences
scientific
scooby
scooter
scotland
scott
screen
script
scriptstyle
scsaba
scsabai
scso
sd
sdi
se
sea
sean
search
season
seattle
sebastian
sebb
sebbek
sebben
sebe
sebes
sebesse
sebestye
sebesu
sebet
sebezheto
sebo
sec
second
secret
section
security
sed
sedet
sedre
see
sega
sege
segesva
segi
sehol
sei
seiben
seibo
seik
seiket
seim
sein
seine
seinek
seink
seire
seiro
seit
seivel
sejt
sejte
sejtek
sek
sekbe
sekben
sekbo
seke
seken
seket
sekhez
sekkel
sekne
seknek
sekor
sekre
sekrestye
sekro
sekto
sel
selejtezo
selejtezte
self
selme
selmecba
selo
selyem
sem
semet
semleges
semlegesi
semlegesse
semmelweis
semmi
semmibe
semmife
semmike
semmilyen
semmire
semmisi
semmit
semmivel
semre
sen
senecio
senke
senki
senkinek
senkit
senna
sepsiszentgyo
september
ser
serdu
sere
sereg
serege
seregei
seregek
sereget
sereggel
serena
sergio
serie
series
serinde
serte
server
service
services
ses
session
set
sete
sett
seven
sevilla
sex
sf
sfajok
sfajta
sfe
sfejleszte
sfelelo
sfelo
sfo
sfoglala
sfondo
sforma
sforza
sfu
sg
sga
sgomba
sgyo
sh
sha
shadow
shadows
shajo
shakespeare
shannon
sharon
shaw
she
sheffield
shell
shelye
sherlock
sherman
sherwoodi
shez
shield
shift
shirley
shivatkoza
sho
shogy
shol
shonos
shop
short
should
shova
show
shoz
shozo
shu
shuttle
si
sibb
sid
side
sidney
sido
sie
siebenbu
siegfried
siemens
sierra
siet
sietett
sietve
sig
sigma
sign
sik
sika
sikat
sikban
siker
sikere
sikerei
sikereit
sikerek
sikereket
sikeres
sikeresen
sikeresnek
sikerre
sikerrel
sikert
sikertelen
sikertelense
sikertelenu
sikeru
siklo
sikra
silag
silence
silent
silla
silva
silver
silvio
sim
sima
simo
simon
simone
simonyi
simple
simpson
sin
sinclair
sincs
sing
singer
single
singles
sinolo
sio
sion
sipos
sir
sira
sisak
sit
site
sith
siva
sivatag
sivatagban
sivatagi
six
sk
ska
skala
skandina
ske
skereszt
ski
skin
sklub
sko
skoda
skodik
skodnak
skor
skori
skorpio
sku
sky
skywalker
sl
sla
slakos
slakosok
slam
sle
sleges
slo
slovan
slovenska
sm
sma
small
smart
smarty
sme
smile
smith
smo
sms
smu
sn
sna
snak
snap
snapi
snapja
sncf
sne
snek
sni
sno
snow
so
social
socie
society
sod
soda
sodik
sodikat
sodikban
sodikke
sodlagos
sodoszta
sodott
sodperc
sodpercben
sodperccel
sodperces
sodpercet
sodra
sodrendu
sodro
sodszor
sofia
sofo
software
soha
sohase
sohasem
sok
soka
sokak
sokan
sokasa
sokat
sokba
sokban
sokbo
soke
sokfe
sokfele
sokhoz
sokkal
sokna
soknak
sokoldalu
sokon
sokra
sokre
sokro
sokszi
sokszo
sokszor
sokto
sol
sola
solaris
solat
solata
solhato
solid
solja
solma
solni
solo
solt
solta
solte
solva
solyma
som
soma
somat
some
something
somlo
somlyo
somme
somogy
somogyi
son
song
songs
sonic
sons
sony
soo
sophie
sopron
sopronban
soproni
sor
sora
sorai
soraiban
sorba
sorban
sorbo
sorhajo
sorok
sorokat
sorokban
soroksa
sorolhato
sorolja
sorolni
sorolt
sorolta
sorolva
soron
soros
sorozat
sorozata
sorozatba
sorozatban
sorozatbo
sorozatgya
sorozathoz
sorozatnak
sorozatok
sorozatokban
sorozatos
sorozatot
sorozatu
sorra
sorral
sorrend
sorrendben
sorrendet
sorrendje
sors
sorsa
sorsola
sorsolta
sorsuga
sorsza
sort
sortu
sorvezeto
sos
sosabb
sose
sosem
sossa
sott
soul
sound
source
south
southampton
southern
sova
sozo
sozott
sp
spa
space
spanyol
spanyolok
spanyolorsza
spanyolul
sparta
spartacus
spd
speakers
spears
specia
special
specialista
specializa
species
specifika
specifikus
spee
speed
spekula
spencer
sphenodon
spider
spielberg
spin
spira
spirit
spiritua
split
spo
spont
sponta
spontja
spontot
sport
sporta
sportban
sportcsarnok
sporte
sportegyesu
sporteseme
sporting
sportko
sportlo
sportolo
sportpa
sports
sportu
sportvezeto
spp
spring
springer
springs
sprint
sql
sqrt
squadron
square
sr
sra
sre
sri
sro
ss
ssa
ssal
ssalhangzo
sse
ssel
sseldorf
ssuk
ssy
ssz
ssza
sszabadsa
sszal
ssze
sszea
sszeada
sszebara
sszecsapa
sszee
sszeesku
sszefe
sszefoga
sszefoglala
sszefoglalo
sszefono
sszefu
sszeg
sszege
sszeget
sszegu
sszegyu
sszegze
sszeha
sszehasonli
sszehi
sszehu
sszei
sszejo
sszekapcsola
sszekapcsolo
sszeko
sszel
sszelben
sszeli
sszeomla
sszeomlott
sszeru
sszes
sszesen
sszesi
sszesse
sszeszerele
sszete
sszetett
sszetettben
sszetevo
sszeto
sszetu
sszeu
sszevona
sszevont
sszevonta
sszhangban
sszo
sszpontosi
st
sta
stabil
stabilita
stabiliza
stade
stadion
stadionban
stadionja
stadiont
stadt
staff
stage
stalan
stan
stana
stand
standard
stanford
stani
stanisław
stanley
star
stark
stars
start
state
states
statikus
station
statistik
statisztika
statisztikai
status
stay
stazione
stb
ste
stechnika
stechnikai
steel
stefa
stefan
stefano
stein
steiner
stella
step
stephen
sterling
stern
sterreich
steve
steven
stevens
stewart
sti
stiliza
still
stimula
sto
stockholm
stockholmban
stockholmi
stoke
stone
stones
stop
store
stories
storm
story
str
stra
strand
strange
strasbourg
strate
strauss
street
stressz
string
stro
strong
structure
struktu
struktura
sts
stu
stuart
studia
studies
studio
studios
studo
studoma
study
sturm
stuttgart
stya
style
su
sua
sub
subsp
sue
suga
sugallja
sugara
sugarasu
sugaru
suite
suk
sukat
sukban
sukkal
sukra
sul
sula
sulinet
sullivan
sulo
sult
sum
sumer
summa
summary
summer
sun
sunday
sunderland
sunk
super
superior
superman
support
sur
sura
suriname
survey
sus
susan
suta
sutt
suzuki
sv
sva
sve
svezeto
svg
svila
svo
sweet
swift
switch
sy
sydney
sylvester
sylvia
symphony
syp
system
systems
sz
sza
szaba
szabad
szabadalmi
szabadedze
szabadelvu
szabadfoga
szabadi
szabadido
szabadka
szabadkai
szabadko
szabadla
szabadon
szabados
szabadru
szabadsa
szabadte
szabadu
szabadula
szabadult
szabo
szabolcs
szabolcsi
szabott
szabva
szaga
szahara
szai
szajci
szak
szaka
szakabbra
szakad
szakada
szakade
szakadt
szakasz
szakasza
szakaszba
szakaszban
szakaszci
szakaszok
szakaszon
szakaszra
szakaszt
szakban
szakbo
szake
szakember
szakemberek
szakfolyo
szaki
szakibb
szakira
szakirodalom
szakirodalomban
szakiskola
szakkal
szakke
szakkelet
szakkeleti
szakkeletre
szakko
szakkolle
szakma
szakmai
szakmunka
szaknak
szaknyugat
szaknyugati
szaknyugatra
szakok
szakon
szakos
szakosan
szakosodott
szakoszta
szakot
szakra
szakro
szakszeru
szakszervezetek
szakszervezeti
szakteru
szal
szala
szalag
szalai
szalako
szalax
szalay
szalka
szalma
szalon
szama
szamos
szamura
szanato
szandzsa
szaniszlo
szankcio
szankciona
szanszkrit
szapa
szapolyai
szapori
szaporoda
szarajevo
szardi
szarka
szarkofa
szarmata
szarva
szarvas
szarvasmarha
szas
szat
szata
szatban
szathma
szati
szatirikus
szatma
szatot
szattal
szaturnusz
szau
szava
szavai
szavait
szavaival
szavak
szavakat
szavakban
szavakbo
szavakkal
szavaknak
szavanna
szavaz
szavaza
szavazat
szavazata
szavazati
szavazatok
szavazatot
szavazattal
szavazni
szavazo
szavazott
szavaztak
szaxofon
szbe
szben
szbere
szbo
szda
szdsz
sze
szebb
szeben
szecesszio
szecske
szede
szedett
szedni
szedo
szedte
szeg
szege
szeged
szegeden
szegedi
szegen
szegfu
szegi
szego
szei
szein
szeinek
szeit
szek
szekben
szekbo
szekcio
szeke
szeken
szekeres
szeket
szekkel
szeknek
szekre
szeksza
szekta
szektor
szekvencia
szel
szele
szelek
szelekcio
szelekti
szeli
szelim
szellem
szelleme
szellemek
szellemi
szellemise
szellemu
szello
szelte
szelve
szem
szembe
szemben
szembena
szembene
szembeni
szembesu
szembesza
szemcse
szeme
szemei
szemeit
szemek
szemekkel
szemelve
szemem
szemere
szemet
szemina
szemko
szemle
szemmel
szemo
szempont
szempontbo
szempontja
szempontok
szemro
szemszo
szemtanu
szemu
szen
szena
szende
szendro
szenega
szenes
szenet
szennyeze
szennyezo
szennyvi
szent
szente
szentek
szentele
szentelt
szentelte
szenteltek
szentendre
szentendrei
szentes
szentesi
szentfo
szentgottha
szentgyo
szentha
szenti
szentiva
szentje
szentkira
szentle
szentma
szentmiha
szentmiklo
szentmise
szentpe
szentse
szentsze
szentte
szenved
szenvede
szenvedett
szenvedo
szenvedtek
szenza
szeo
szeparatista
szepes
szepesi
szeplo
szept
szeptember
szeptemberben
szeptembere
szeptemberi
szer
szerb
szerbek
szerbia
szerbiai
szerbu
szerda
szere
szerek
szereket
szerekkel
szerele
szerelem
szerelme
szerelmem
szerelmes
szerelmesek
szerelmet
szerelmi
szerelo
szerelt
szerelte
szereltek
szerelve
szerencse
szerencseja
szerep
szerepben
szerepe
szerepei
szerepek
szerepekben
szerepeket
szerepel
szerepeljen
szerepelnek
szerepelni
szerepelt
szerepeltek
szerepet
szerephez
szerepja
szerepko
szereple
szereplo
szereposzta
szerepre
szerepu
szerepva
szeres
szeret
szeretem
szeretet
szeretete
szeretett
szeretettel
szereti
szeretik
szeretlek
szeretne
szeretnek
szeretni
szereto
szerette
szerettek
szerettem
szerez
szerezni
szerezte
szereztek
szerezve
szerezzen
szergej
szerint
szerinte
szerinted
szerintem
szerinti
szerintu
szerk
szerke
szerkeszt
szerkeszte
szerkeszteni
szerkesztett
szerkesztette
szerkesztheto
szerkeszto
szerkezet
szerkezete
szerkezetek
szerkezetet
szerkezeti
szerkezetu
szerkta
szerrel
szersza
szert
szertarta
szerte
szeru
szerv
szerva
szerve
szervek
szerver
szerves
szervetlen
szervez
szerveze
szervezet
szervezetben
szervezete
szervezetek
szervezetet
szervezeti
szervezetnek
szervezett
szervezi
szervezkede
szerveznek
szervezni
szervezo
szervezte
szerveztek
szerzeme
szerzetes
szerzetesek
szerzetesi
szerzett
szerzi
szerzo
szes
szese
szesede
szesi
szesu
szesze
szet
szetben
szete
szetek
szetes
szetesen
szetet
szetfeletti
szetfo
szethez
szeti
szetnek
szetre
szetro
szett
szettel
szetto
szettudo
szettudoma
szetu
szetve
szex
szexua
szexualita
szezon
szezona
szezonban
szezonja
szezonok
szezonra
szezont
szezonto
szfe
szge
szha
szhez
szi
szia
sziasztok
szibe
szici
szida
szido
sziget
szigetcsoport
szigete
szigetei
szigetek
szigeteken
szigeteket
szigeteki
szigetekre
szigetele
szigetelo
szigeten
szigetet
szigeti
szigetorsza
szigetre
szigetro
szigetszentmiklo
szigetva
szigligeti
szigori
szigoru
szik
szikla
szikra
szila
szilas
szile
szili
szilva
szilveszter
szilvia
szimbo
szimbolikus
szimboliza
szimfo
szimfonikus
szimmetria
szimmetrikus
szimpa
szimpatikus
szimpatiza
szimpla
szimula
szindba
szindro
szingapu
szinkron
szinkronhang
szinkronhangja
szinkroniza
szinkronrendezo
szinkronszi
szinnyei
szinonima
szint
szinte
szinten
szintet
szintetikus
szintetiza
szintje
szintre
szintu
szirmai
sziro
sziszek
sziszte
szita
szitako
szitua
sziva
szivattyu
szive
szivem
szjelente
szk
szka
szke
szkelo
szkese
szket
szki
szko
szku
szla
szlaja
szlavo
szleg
szlege
szleges
szlegesen
szlele
szlelheto
szlelt
szlelte
szlet
szlete
szletei
szleteit
szletek
szleteket
szletes
szletesebb
szletesebben
szletesen
szletet
szlettervezo
szlo
szlova
szlove
szme
szmu
szna
sznak
szne
sznek
szneve
szni
szno
sznon
szo
szoba
szobor
szoboszlo
szobra
szobrai
szobrok
szobrokat
szobrot
szocia
szocialista
szocializmus
szociolo
szoftver
szoftverek
szojuz
szok
szoka
szokat
szokatlan
szokatlanul
szoknya
szokott
szokta
szoktak
szoktam
szoktuk
szokva
szolga
szolgabi
szolidarita
szolnok
szolnoki
szoma
szombat
szombathely
szombathelyen
szombathelyi
szombati
szombaton
szomoru
szomsze
szon
szona
szonda
szonettek
szopra
szor
szorgalmazta
szori
szoronga
szoros
szorosan
szorsza
szorul
szorulo
szorult
szorza
szorzata
szorzattal
szos
szot
szott
szovjet
szovjetek
szovjetunio
szpe
szpilo
szpolga
szponzora
szre
szrepu
szreve
szreveheto
szreveszi
szrevette
szro
szse
szszeru
szt
szta
sztak
szte
sztelep
sztem
sztenderd
szteru
sztette
sztevanovity
szto
sztor
sztori
sztorok
sztorsza
sztra
sztu
sztvevo
sztyeppe
szu
szubcsonk
szubjekti
szubtro
szuda
szulejma
szulfa
szulta
szuma
szunnita
szuper
szuperho
szuperkupa
szurdok
szurkolo
szuvere
szuverenita
szva
szve
szvsz
t
ta
taba
tabella
table
tabletta
tacsipacsi
tada
tadja
tadni
tado
tadott
tadta
tafu
tag
taga
tagada
tagadja
tagado
tagadta
tagbo
taggal
tagja
tagjai
tagjainak
tagjait
tagjaival
tagjake
tagok
tagokat
tagola
tagolja
tagolo
tagolt
tagorsza
tagot
tagozat
tagozata
tagsa
tagu
tai
tait
taival
tajvan
tajvani
tak
taka
takar
takare
takari
takarja
takarma
takaro
take
taktika
taktikai
tal
tala
talaj
talaja
talajon
talajt
talaki
talakula
talakult
tales
talja
taljai
talk
tallinn
tam
tama
tamara
tambo
tan
tana
tanak
tando
tane
tanfolyamot
tang
tango
tani
tania
taninte
taniuk
tank
tanko
tano
tansze
tanta
tanu
tanul
tanula
tanulma
tanulni
tanulo
tanulsa
tanult
tanulta
tanultak
tanya
tanza
tao
tapasztalat
tapasztalata
tapasztalatai
tapasztalatait
tapasztalatok
tapasztalatokat
tapasztalhato
tapasztalt
tapolca
tapolcai
tar
tara
taranto
target
tarja
tarka
tarki
tarn
taro
tarsoly
tart
tarta
tartale
tartalma
tartalmak
tartalmat
tartalmaz
tartalmaznak
tartalmazo
tartalmazott
tartalmazta
tartalmazza
tartalmi
tartalmilag
tartalmu
tartalom
tartalomjegyze
tartalommal
tartam
tartama
tartana
tartanak
tartani
tarthato
tartja
tartjuk
tarto
tartok
tartom
tartoma
tartott
tartotta
tartottak
tartoza
tartoze
tartozik
tartoznak
tartozo
tartozott
tartoztak
tartsa
tartunk
tartva
tarzan
tas
task
tasna
tasz
taszi
tat
tata
tataba
tatai
tate
tatlan
tau
taurus
tava
tavai
tavak
tavaly
tavasszal
tavasz
tavasza
tavaszi
tavat
tavi
taxon
taxonomic
taylor
tba
tban
tbarna
tbe
tben
tbo
tc
tcsoportosi
tdolg
tdolgoza
tdolgozott
tdolgozta
te
tea
team
teams
teatro
teau
tebb
teborg
tech
technical
technika
technikai
technikailag
technolo
technology
ted
tedd
teddy
teemeah
teendo
tefan
teg
tegben
tege
tegek
teget
tegnap
tegu
tegye
tegyen
tegyu
teha
tehe
teher
tehera
teherauto
tehersza
tehet
tehetetlense
teheti
tehetne
teheto
tehetse
tei
tej
teju
tek
tekercs
teket
tekint
tekinte
tekintenek
tekinteni
tekintet
tekintetben
tekintete
tekintett
tekintette
tekintettek
tekintettel
tekinthetju
tekintheto
tekinti
tekintik
tekintju
tekintve
tekno
tel
tela
telben
tele
telefon
telefonon
telefonsza
telei
teleinek
teleiro
teleit
telek
teleken
teleket
teleki
telekkel
telekom
telen
telenovella
telep
telepedett
telepedtek
telepek
telepen
telepesek
telepet
telepi
telepu
teles
telesek
telesen
telesse
telet
televi
television
teleze
telezett
telezettse
telezheto
telezi
telezik
telezo
telezte
telezve
telhez
teli
telik
teljes
teljesebb
teljesen
teljesi
teljesko
teljesse
teljesu
telke
telket
tell
tellel
telnek
telni
telre
telro
telt
telte
telten
telto
telu
telve
tem
tematika
tematikus
temben
teme
temes
temesva
temete
temetkeze
temeto
temette
template
temple
templom
temploma
templomai
templomba
templomban
templombo
templome
templomi
templommal
templomnak
templomok
templomokat
templomot
tempo
temu
ten
tendencia
tendo
tene
tenek
tengely
tengelye
tengelyelrendeze
tenger
tengeralattja
tengerbe
tengerben
tengere
tengerek
tengeren
tengerentu
tengeri
tengermelle
tengernagy
tengerpart
tengerparti
tengerparton
tengerre
tengerszint
tengert
teni
tenie
tenisz
teniszbajnoksa
teniszezo
teniu
tenne
tennessee
tenni
tennie
tennis
tenor
tenye
teo
teolo
ter
tera
terben
tere
terei
terek
tereket
terem
teremben
teremt
teremte
teremteni
teremtett
teremtette
teremtme
teremto
teren
terep
terepen
teres
teresa
teret
terhe
terhele
terhes
terhesse
teri
terjed
terjede
terjedelme
terjedelmes
terjedelmu
terjedo
terjedt
terjedtek
terjeszkede
terjeszte
terjeszteni
terjesztett
terjesztette
terjeszto
term
terma
terme
termek
termel
termele
termelo
termelt
termeszte
termesztett
termet
termett
termetu
termina
terminolo
terminus
termo
terne
ternek
ternyi
ternyire
terra
terre
terrel
terro
terror
terrorista
terrorta
terry
terszelve
tert
teru
terv
terva
tervben
terve
tervei
terveit
tervek
terveket
tervet
terveze
tervezet
tervezete
tervezett
tervezi
tervezik
tervezo
tervezte
terveztek
tes
tesco
tese
tesett
tesi
tesla
tesse
tesszu
test
testben
teste
testek
testet
testhossza
testi
testnevele
testo
testre
testsu
testto
testu
testve
tesu
tesz
teszek
teszem
teszi
teszik
tesznek
teszt
tesztek
tesztele
tesztelte
tesztet
tesztpilo
teszu
tet
tetben
tete
tetei
teteje
tetek
tetes
tetet
tetlen
teto
tetova
tetsze
tetszett
tetszik
tetszo
tett
tette
tetted
tettek
tettem
tettse
tettu
teve
tevo
texaner
texas
texasi
text
textdata
texti
textil
textilipar
teze
tezer
tezett
tezik
teznek
tezo
teztek
tfalusi
tfe
tfede
tfo
tfogo
tforma
tfrac
tfu
tg
tgr
tgrvita
th
tha
thai
thaifo
thalad
thalado
thali
than
tharmada
thassa
that
thatatlan
thatja
thatjuk
thatna
thatnak
thato
thatod
thatott
thatta
thatunk
the
theater
theatre
their
thelyeze
thelyezte
them
then
theo
theodor
theodore
theory
there
theropoda
these
thet
theta
thetek
thetetlen
theti
thetik
theto
thette
they
thi
thing
things
think
third
this
tho
thomas
thompson
thomson
thor
thori
thory
thorype
thotmesz
thoz
thrash
three
thriller
thrillerek
through
thu
thumb
thurzo
thy
ti
tia
tiberius
tibet
tibeti
tibor
tica
tico
tie
tienne
tig
tigazola
tiger
tigris
tihame
tihanyi
tik
tika
tikai
tikalauz
tiko
tikus
tilalma
tilalom
till
tilos
tilta
tiltakoza
tiltakozo
tiltakozott
tiltja
tiltott
tiltotta
tim
tima
time
timeaxis
times
timis
timish
timo
timothy
timur
tina
tine
tino
tinta
tipikus
tipikusan
tipogra
tira
tirana
tirol
tiroli
tisza
tiszai
tiszau
tiszt
tiszta
tisztasa
tiszte
tisztek
tisztelet
tiszteletbeli
tiszteletben
tisztelete
tiszteleti
tisztelettel
tisztelt
tisztelte
tisztesse
tisztet
tiszti
tisztikeresztje
tisztje
tisztogata
tisztse
tisztviselo
tit
tita
titanic
titeket
titka
titkai
titkok
titkos
titkosi
titkosszolga
title
tito
titok
titokban
titokzatos
titula
titus
tivadar
tizedik
tizedjegyze
tizene
tizenegy
tizenegyedik
tizenha
tizenharmadik
tizenhat
tizenhatos
tizenhe
tizenke
tizenkettedik
tizenketto
tizenne
tizennegyedik
tizennyolc
tizeno
tja
tjai
tje
tju
tjuk
tjukat
tk
tka
tke
tkele
tkelo
tkelt
tkeru
tkeze
tkezo
tko
tkozott
tkp
tla
tlag
tlaga
tlagho
tlagos
tlagosan
tlan
tlanul
tle
tlem
tlen
tleni
tlense
tlenu
tlet
tlete
tletek
tletet
tleve
tli
tlo
tm
tma
tmb
tme
tmenet
tmeneti
tmenetileg
tmeno
tment
tmillio
tmutata
tmutato
tna
tnak
tne
tnek
tneveze
tnevezni
tnevezte
tni
tnivalo
tno
tnyelvu
tnyu
to
tobago
tod
today
todd
togat
togata
togathato
togatja
togato
togatott
togatottsa
togatta
together
togo
toja
tojo
tok
tokaj
tokaji
tokat
tokio
tokkal
tokyo
toldala
toldale
toldalu
toldi
toldy
toledo
tolera
tolerancia
tolja
tolkien
toll
tolla
tollazata
tolma
tolna
tolnai
tolni
tolo
tolsztoj
tolt
tolta
tolvaj
tom
toma
tomatoes
tommy
tomorrow
tompa
ton
toni
tonight
tonna
tony
too
tool
tools
top
toplista
topogra
topolo
tor
tora
torai
torainak
toraljau
torda
tordai
tori
torino
torka
torke
torkolata
torkollik
torma
torna
tornagyo
tornak
tornya
tornyai
tornyok
tornyot
toro
torok
torokat
torokkal
toronnyal
toronta
toronto
torony
toronyban
toros
torpedo
torral
torre
torres
torsa
torsza
tort
torta
torzi
tos
tossa
tosz
toszka
tot
tota
total
tott
totta
tottak
tottam
tottan
tottenham
tottsa
touch
toulouse
tour
tours
tova
tower
town
toy
toyota
toza
tozo
tozott
tozta
tozza
tpa
tr
tra
track
tracy
trade
tradi
tradiciona
trafele
trage
tragikus
trahagyott
trai
train
trale
tralevo
tran
trans
transfermarkt
transformers
transit
translate
translation
transport
transzforma
tranzakcio
trauma
travis
tre
tree
trehoza
trehozni
trehozo
trehozott
trehozta
trehozva
trehozza
trejo
trek
trencse
trend
tres
trevor
tri
tria
triai
trianon
trianoni
trianonig
tribute
trilo
trinidad
trio
tripla
triple
trium
trivia
trix
tro
trolibusz
troll
trombita
trophy
tru
true
truha
trum
trump
trust
truth
ts
tsa
tsanak
tsd
tse
tselejtezo
tsen
tsenek
tso
tson
tssza
tsu
tsuk
tsz
tsza
tszanak
tszani
tsze
tszer
tszeres
tszerese
tszerveze
tszf
tszhato
tszhatott
tszik
tszintes
tszma
tszo
tszott
tszotta
tszottak
tszu
tszva
tt
tta
ttak
ttal
ttam
ttata
ttatott
ttatta
tte
tted
ttei
ttek
ttekinte
ttekintheto
tteknek
ttel
ttelepi
ttelepu
ttem
tten
ttere
tterem
tteremben
tteru
ttes
ttesben
ttese
ttesek
ttesen
ttesnek
ttessel
ttest
ttete
ttetett
tteto
ttetszo
ttette
ttfoga
tthato
tti
ttke
ttmu
tto
ttse
ttu
ttuk
ttusa
ttyo
tu
tuba
tucat
tucatnyi
tud
tuda
tudakozo
tudat
tudata
tudatos
tudatosan
tudatossa
tudhato
tudja
tudjanak
tudjon
tudjuk
tudna
tudnak
tudne
tudni
tudnivalo
tudo
tudod
tudok
tudom
tudoma
tudor
tudott
tudsz
tudta
tudtak
tudtam
tudtommal
tudunk
tudva
tul
tulajdon
tulajdona
tulajdonban
tulajdoni
tulajdonke
tulajdonne
tulajdonos
tulajdonosa
tulajdonosai
tulajdonosi
tulajdonosok
tulajdonsa
tulajdonu
tulipa
tulja
tulro
tulso
tum
tuma
tumban
tummal
tumok
tumokat
tumot
tumu
tune
tunk
tura
turbina
turbo
turista
turisztikai
turizmus
turn
turne
turner
turo
turul
tus
tusa
tusban
tusi
tusok
tust
tusz
tusza
tuszt
tv
tva
tve
tven
tvenes
tvenni
tverte
tveszi
tvett
tvette
tvezeto
tvitel
tviteli
tvizsga
tvo
tvonal
tvonala
tvonalai
tvonalak
tvonalat
tvonalon
tvr
twin
twitter
two
ty
tya
tyja
tyler
tyo
type
typotex
tyu
tz
u
ua
uc
udvar
udvara
udvarba
udvarban
udvarha
udvarho
udvari
udvaron
udvart
uefa
ufo
uganda
ugra
ugrik
ugro
ugrott
ugy
ugyan
ugyanabban
ugyanakkor
ugyanannyi
ugyanaz
ugyanazok
ugyanazon
ugyanazt
ugyanazzal
ugyancsak
ugyanebben
ugyanekkor
ugyanez
ugyanezen
ugyanezt
ugyani
ugyanilyen
ugyanis
ugyanitt
ugyanolyan
ugyanott
ugyanu
ugye
ui
uj
ujj
ujja
ujra
ujsa
ujva
uk
ukra
ukrajna
ukrajnai
ul
ula
uli
ulrich
ultima
ultimate
ultra
um
un
una
unalmas
und
under
underground
une
unesco
ung
ungarn
ungva
unicode
unio
union
unit
unita
united
universal
universe
universita
universitatis
university
univerza
univerzum
unix
unoka
unokahu
unokao
unokatestve
uo
up
update
upon
upright
ur
ura
uradalma
uradalmi
uradalom
uradalomhoz
urai
urak
uralja
uralkoda
uralkodik
uralkodo
uralkodott
uralma
uralmat
uralom
uralta
uram
urasa
urat
urba
urban
uri
url
urna
uruguay
uruguayi
us
usa
usb
usd
use
used
user
users
using
uss
uszoda
usztasa
ut
uta
utah
utak
utakat
utakon
utal
utala
utalhat
utalnak
utalo
utalt
utalva
utas
utasa
utasi
utasok
utasokat
utassza
utast
utat
utaza
utazik
utazni
utazo
utazott
utaztak
utc
utca
utcai
uto
utole
utolja
utolso
utrecht
utunk
uv
v
va
vabb
vacsora
vad
vada
vadaro
vadban
vaddiszno
vader
vadja
vado
vadon
vadot
vadszederke
vag
vagy
vagyis
vagyok
vagyon
vagyona
vagyoni
vagyont
vagytok
vagyunk
vai
vajda
vajdasa
vajon
vak
vaka
vakcina
vakmero
vakok
val
vala
valaha
valahogy
valahol
valahova
valaki
valakinek
valakit
valamely
valamelyest
valamelyik
valamelyike
valamennyi
valamennyien
valamennyire
valami
valamie
valamife
valamikor
valamilyen
valamint
valamit
valamivel
vale
valencia
valenciennes
valentin
vall
valla
valladolid
valle
valley
vallja
vallo
valloma
vallott
vallotta
valo
valois
value
valuta
vamente
van
vancouver
vanda
vandalizmus
vanessa
vannak
var
vara
varasd
varepsilon
varga
vargaa
varia
variete
varju
varphi
varro
varsa
varso
vas
vasa
vasas
vasbeton
vase
vasgya
vasi
vass
vastag
vastagabb
vastagi
vastagsa
vasu
vasutak
vasutas
vasutat
vasva
vaszary
vaszilij
vatika
vatosan
vay
vb
vban
vbe
vben
vbo
vc
vcso
vd
ve
vebb
vebben
vec
ved
vedd
vede
vedelem
vedelme
vedelmezo
vedt
veg
vega
vegas
vegbe
vegben
vegbo
vege
vegei
vegek
vegekben
vegeket
veges
veget
vegeta
vegeze
veggel
veggyu
vegha
vegi
vegko
vegre
vegye
vegyen
vegyes
vegyesen
vegyi
vegyipari
vegyu
vehet
vehetett
vehetnek
veheto
vehette
vehettek
vei
veiben
veibo
veinek
veit
veivel
veje
vek
vekbeli
vekben
vekbo
vekede
vekedett
veken
veket
vekig
vekkel
veknek
vekre
vekszik
vekto
vektor
vekvo
vel
vela
vele
veled
velem
velence
velencei
veleszu
velet
velete
veletek
veleteket
veletet
veleti
veli
velik
velni
velo
velt
velte
veltse
velu
velve
vem
ven
vencel
vend
vende
vendo
vendvide
veneto
venezia
venezuela
venezuelai
venke
venne
venni
vennie
vente
venus
ver
vera
verba
verdi
vere
verebe
verekede
veres
verese
veress
veri
verlag
verne
vero
verona
veronica
veronika
vers
versailles
verse
versei
verseit
versek
verseket
versenge
verseny
versenyauto
versenyben
versenybo
versenye
versenyek
versenyeken
versenyeket
versenyen
versenyhe
versenyke
versenynapta
versenypa
versenyre
versenysza
versenyt
versenyta
versenyze
versenyzett
versenyzo
verses
versesko
verset
version
verstappen
vert
verte
vertical
very
verzio
ves
vesd
vesdi
vese
vesebben
vesek
vesen
vesse
vesszo
vesszu
vesz
vesze
veszedelmes
veszem
veszett
veszi
veszik
vesznek
veszpre
veszte
vesztendo
vesztes
vesztese
vesztett
vesztette
vesztfa
vesztheto
veszti
veszto
vet
vete
vetei
vetek
veteket
vetel
vetele
veteli
vetelme
vetelo
vetelt
vetelte
vetera
vetet
vetett
vetette
vetettek
vetheto
veti
vetik
vetkeze
vetkezet
vetkezetes
vetkezetesen
vetkezeti
vetkezett
vetkezik
vetkezme
vetkeznek
vetkezo
vetkezte
vetkeztek
vetkeztete
vetkeztetni
vetnek
vetni
veto
vetse
vett
vette
vettek
vettel
vettem
vetu
vetve
veve
vevo
vez
veze
vezet
vezete
vezetett
vezethet
vezetheto
vezeti
vezetik
vezetnek
vezetni
vezeto
vezette
vezettek
vezi
vezo
vezred
vezte
vf
vfb
vfl
vfolyam
vfolyama
vfordulo
vh
vhez
vhs
vi
via
viai
vibra
vic
vicc
vicces
vicente
victor
victoria
viczia
vid
vida
viddel
vide
videbb
viden
video
videoja
videoton
videsen
vidfilm
vidfilmek
vidi
vidpa
vidra
vidu
vie
vienna
vienne
vietna
view
vig
vigado
vigasza
vigya
vigye
vihar
viharos
vii
viii
vik
viking
vikto
viktor
viktoria
vila
villa
village
villamos
villamosenergia
villamosi
villamosme
villamosok
villanueva
ville
villeneuve
vilma
vilmos
vin
vince
vincent
vincenzo
vinci
vincze
vinni
viola
vipera
vira
virgin
virginia
virginiai
viro
virrado
virtua
virtual
virtuo
vis
visegra
visel
visele
viseli
viselik
viselkede
viselkedik
viselnek
viselo
viselt
viselte
viseltek
vision
vissza
visszaa
visszaadta
visszacsatola
visszae
visszaemle
visszaese
visszaesett
visszafele
visszafoglala
visszafoglalta
visszafordi
visszahi
visszahu
visszajelze
visszajo
visszakapta
visszakeru
visszako
visszaku
visszale
visszameno
visszasza
visszaszerezni
visszaszerezte
visszaszerze
visszaszori
visszate
visszau
visszautasi
visszava
visszaverte
visszavona
visszavonta
visszavonul
visszavonula
visszavonulo
visszavonult
visszavonultak
visszhang
visszhangot
vista
visual
visz
visza
viszi
viszik
viszont
viszontagsa
viszony
viszonya
viszonyai
viszonyban
viszonyi
viszonylag
viszonylagos
viszonylatban
viszonyok
viszonyokat
viszonyt
vita
vitalap
vitalapja
vitalapom
vitalapon
vitalapra
vitamin
vitathato
vitatja
vitatkozni
vitatott
vite
vito
vitorla
vitorlavita
vitt
vitte
vittek
vittorio
viva
vivo
vize
vizek
vizekben
vizes
vizet
vizsga
vizu
vizua
vja
vjuk
vk
vke
vko
vladimir
vlagyimir
vleges
vm
vma
vmegye
vnak
vnapok
vne
vnek
vni
vnyi
vo
voda
voice
void
vok
voka
vol
vola
volabb
volabbi
voldemort
volga
voli
volkswagen
volle
volna
volne
volro
volsa
volt
volta
voltaire
voltak
voltake
voltam
voltunk
volume
volvo
vom
von
vona
vonal
vonala
vonalak
vonalakat
vonalat
vonalban
vonalon
vonat
vonatkoza
vonatkozik
vonatkoznak
vonatkozo
vonatkozott
vonatok
vonattal
vonja
vonni
vono
vont
vonta
vontata
vontato
vonul
vonula
vonulo
vonult
vonultak
vonza
vonzo
vonzotta
vonzza
vor
vori
vos
vosges
vosztok
vot
vott
vous
voxfax
voza
vozik
vozo
vozott
voztak
vra
vre
vro
vs
vsc
vse
vsora
vsz
vsza
vszak
vszo
vt
vta
vtak
vte
vtelen
vtelenu
vtized
vtizedben
vtizeddel
vtizede
vtizedek
vtizedekben
vtizedeken
vtizedekig
vtizeden
vtizedes
vto
vu
vukova
vulka
vulkanikus
vum
vuma
vumok
vungadu
vva
vval
vvel
vw
vy
w
wa
wade
wagner
wake
wales
walesi
walk
walker
walking
wall
wallace
walsh
walt
walter
wan
wanderers
wang
wanna
want
war
ward
warner
warren
wars
warszawa
was
washington
washingtonban
washingtoni
watch
water
waters
watson
watt
wave
way
wayne
wc
wd
we
web
webb
webber
weber
webes
weboldal
weboldala
weboldalak
weboldalon
website
webster
week
weekly
wehrmacht
weimari
weiner
weiss
weisz
welcome
well
wellington
wells
welt
wembley
wendy
weo
werder
were
werner
wesley
wessele
west
western
what
when
where
which
while
whisky
white
whitepixels
whitney
who
why
wi
width
wie
wien
wiener
wiesbaden
wii
wiki
wikiben
wikidata
wikiforra
wikike
wikiko
wikime
wikimedia
wikin
wikipe
wikipedia
wikis
wikit
wikitana
wikizoli
wild
wilde
wilder
wiley
wilhelm
will
willem
william
williams
willie
willis
willy
wilson
wimbledoni
win
wind
windows
wing
wings
winkler
winston
winter
wisconsin
wite
with
without
wmf
wo
wolf
wolfgang
wolfner
wolfsburg
woman
women
wonder
wood
woods
woody
word
words
work
working
works
world
wormhole
would
wp
wright
ws
wt
wta
wu
wwe
www
x
xavier
xbox
xi
xia
xiaolong
xii
xiii
xiv
xix
xl
xml
xnull
xp
xs
xv
xvi
xvii
xviii
xx
xxi
xxii
xxiii
xxlvenom
xxv
xxvi
xxx
xxxiii
xy
y
ya
yahoo
yale
yamaha
yard
ybl
ye
year
years
yellow
yes
yo
yonne
york
yorkba
yorkban
you
young
your
youth
youtube
yu
yves
z
za
zad
zada
zadban
zadbo
zaddal
zadfordulo
zadi
zadig
zadik
zado
zadok
zadokban
zadokon
zadon
zados
zadot
zadra
zadt
zadtak
zadto
zadve
zagorje
zagreb
zagyvasa
zai
zait
zaj
zajlik
zajlo
zajlott
zajlottak
zak
zakat
zakban
zaklata
zala
zalaegerszeg
zalaegerszegi
zalai
zalapi
zale
zam
zambia
zan
zanya
zappa
zara
zaragoza
zas
zasodott
zasodtak
zaspa
zassa
zasta
zat
zata
zatba
zatban
zati
zatlan
zatok
zatokat
zaton
zatos
zatot
zatra
zattal
zavar
zavara
zavarga
zavarja
zavaro
zavarok
zavaros
zavart
zavarta
zba
zban
zbe
zbegiszta
zbele
zben
zbeni
zbenja
zbeszerze
zbiztonsa
zbo
zd
zda
zde
zdelem
zdelemben
zdelme
zdelmet
zdenek
zdeni
zdi
zdiva
zdo
ze
zealand
zed
zef
zeg
zege
zei
zeit
zeitschrift
zeitung
zek
zel
zelben
zele
zelebb
zelebbi
zelebbro
zelede
zeledett
zeledik
zeledo
zeledte
zelem
zelemmel
zelemre
zelgo
zeli
zella
zelme
zelmei
zelmek
zelmet
zelmi
zelmu
zelo
zelro
zelse
zeltla
zem
zemanyag
zembe
zemben
zeme
zemek
zemel
zemelo
zemelt
zemeltet
zemeltete
zemeltetett
zemelteti
zemelteto
zemeltette
zemet
zemi
zemmo
zemple
zemu
zen
zene
zeneakade
zenei
zeneileg
zeneiskola
zenekar
zenekara
zenekarban
zenekarbo
zenekari
zenekarnak
zenekarok
zenekarra
zenekarral
zenekart
zenemu
zenepedago
zenesza
zeneszerze
zeneszerzo
zenet
zenetana
zenete
zenetek
zeneteket
zenetet
zeneto
zenetro
zenfekvo
zengg
zengo
zenj
zeno
zent
zenta
zentai
zenyit
zepe
zepes
zepesen
zepette
zeppelin
zer
zero
zes
zese
zesi
zet
zetbe
zetben
zetbo
zete
zetei
zeteit
zetek
zetekben
zeteket
zetelte
zetes
zetesen
zetet
zeti
zetnek
zetre
zett
zettel
zettse
zetu
zeum
zeuma
zeumai
zeumba
zeumban
zeumi
zeumnak
zeumok
zeumot
zeusz
zezer
zfa
zfo
zfolya
zfu
zga
zgazda
zgazdasa
zge
zgyu
zha
zhajo
zhasznu
zhata
zhatatlan
zhato
zhet
zhetetlen
zheto
zhez
zho
zhoz
zhu
zi
zia
ziai
ziasi
zichy
zig
zigazda
zigazgata
zigazgato
zija
zik
ziko
zilabda
zileg
zimbabwe
zimmy
zio
zipari
zirat
zirata
ziratban
ziratok
ziratos
zis
zisa
zisban
zise
zismert
zisok
zison
zisra
zist
zisu
zita
zium
ziuma
ziumba
ziumban
ziumi
ziumot
ziva
zja
zjegyzo
zjogi
zke
zkede
zkedvelt
zkeru
zkes
zkincs
zko
zkoda
zkodik
zkodo
zkodott
zla
zlat
zlata
zlatos
zle
zlekede
zlekedett
zlekedik
zlekednek
zlekedo
zlekedtek
zleme
zlet
zleta
zlete
zletek
zletember
zletemberek
zletet
zleti
zlettel
zli
zlo
zma
zme
zmegye
zmegyei
zmillio
zmonda
zmozdonyok
zmu
zna
znak
znapi
zne
znek
znevele
zni
znie
zniu
znyelo
znyelvben
zo
zogu
zok
zokniba
zoktata
zol
zola
zoli
zolja
zolo
zolt
zolta
zolto
zom
zoma
zon
zone
zongora
zongoramu
zongorista
zoo
zoolo
zora
zord
zorro
zott
zpont
zpontban
zponti
zpontja
zpontok
zpontosi
zpontot
zponttal
zpontto
zpontu
zra
zre
zreja
zremu
zri
zro
zrt
zs
zsa
zsarola
zsaszi
zsde
zse
zsebe
zsebko
zsef
zsefet
zseffel
zsefne
zsefva
zselle
zsenia
zsi
zsia
zsiai
zsido
zsigmond
zsilinszky
zsinago
zsinat
zsinaton
zsinatot
zsino
zsira
zslo
zsma
zso
zsoldos
zsolnai
zsolnay
zsolt
zsolta
zsomboly
zsu
zsuzsa
zsuzsanna
zsza
zszint
zszintes
zszintesen
zszolga
zszu
zt
zta
ztak
ztam
ztarta
ztata
ztatja
ztatni
ztato
ztatott
ztatta
zte
ztek
ztem
ztemeto
zteru
ztes
ztese
ztesei
ztesek
ztete
ztetett
ztetheto
zteti
ztetik
ztetni
zteto
ztette
zti
ztisztviselo
zto
ztu
zturbina
zu
zuglo
zuhana
zuhant
zum
zunk
zur
zus
zusi
zust
zutak
zva
zve
zvegy
zvegye
zvegyu
zvetett
zveti
zvetlen
zvetlenu
zvetve
zvezda
zvezete
zvezeto
zy
zz
zza
zzal
zze
zzel
zzen
zzo
zzon
zzu
zzuk
{
|
}
~

¡
£
¤
§
©
«
¬
­
®
°
±
²
³
´
µ
·
¹
º
»
½
¿
×
ß
æ
ø
ħelyi
ħelyo
ı
ł
ło
ɐ
ɘ
ə
ɛ
ʃ
ʒ
ʲ
ʻ
ʼ
ʾ
ʿ
ˁ
ˈ
ː
˙
̀
́
̂
̃
̄
̆
̇
̈
̉
̊
̋
̌
̓
̔
̛
̣
̦
̧
̨
̭
̮
̯
̱
̸
͂
͡
α
β
γ
δ
ε
η
θ
ι
κ
λ
μ
ν
ξ
ο
π
ρ
ς
σ
τ
υ
φ
χ
ψ
ω
а
б
в
всероссии
г
года
д
демоскоп
е
з
и
к
л
м
н
на
населения
национальныи
о
он
п
перепись
по
р
раи
регионам
россии
с
ская
состав
т
у
ф
ю
я
і
ְ
ִ
ֵ
ֶ
ַ
ָ
ֹ
ּ
ׁ
א
ב
ה
ו
י
ל
מ
נ
ר
ש
ת
ا
ٔ
ं
क
त
द
न
म
य
र
व
स
ा
ि
ी
ु
े
ो
्
া
்
ั
ิ
ี
ุ
่
་
ོ
‎
‐
‑
‒
–
—
―
‘
’
‚
“
”
„
†
‡
•
…
‰
′
″
›
※
€
№
™
←
↑
→
↓
↔
↷
⇒
⇔
∅
∈
−
√
∞
∪
∫
≈
≡
≤
≥
⊆
③
④
⑦
─
│
═
▒
■
►
●
★
☎
♠
♥
♦
✉
✍
✎
✮
⺀
⺄
⺆
⺈
⺊
⺌
⺕
⺝
⺸
⺼
⿰
⿱
⿲
⿳
⿴
⿵
⿶
⿷
⿸
⿹
⿺
⿻
、
。
《
》
「
」
〢
あ
い
う
お
か
き
く
け
こ
さ
し
す
た
ち
っ
て
と
な
に
の
は
へ
ま
ら
り
る
れ
を
ん
゙
゚
ア
イ
ウ
オ
カ
キ
ク
コ
サ
シ
ス
タ
チ
ッ
テ
ト
ナ
ノ
ハ
ヒ
フ
ホ
マ
ム
ャ
ュ
ユ
ラ
リ
ル
レ
ロ
ン
・
ー
㇁
㇂
㇄
㇇
㇈
㇉
㇓
㐁
㐄
㐅
㐌
㐫
㐬
㐭
㐮
㐱
㑒
㒵
㒸
㒼
㓁
㓞
㔾
㕛
㕣
㖾
㘝
㚅
㚇
㚔
㚘
㝉
㝡
㝴
㝵
㞋
㞢
㞷
㠩
㠭
㠯
㡀
㡭
㡿
㢲
㢴
㣇
㣺
㥯
㪅
㫄
㫐
㫒
㫺
㬅
㬎
㬥
㬰
㲋
㳄
㷠
㸒
㸚
㸦
㼌
㼲
㽞
㿟
䀠
䂞
䍃
䏍
䒑
䖍
䖒
䖝
䖵
䙴
䚻
䜌
䝿
䡛
䧹
䪞
一
丁
丂
七
丄
丅
丆
万
丈
三
上
下
丌
不
与
丏
丐
丑
专
且
丕
世
丘
丙
业
东
丞
丢
丣
两
严
並
丨
丩
个
丫
丬
中
丮
丰
丱
串
丵
丶
丷
丸
丹
为
主
丽
丿
乀
乂
乃
久
乆
乇
么
义
之
乌
乍
乎
乏
乐
乑
乔
乖
乗
乘
乙
乚
乛
乜
九
乞
也
习
乡
乳
乾
亀
亅
了
亇
予
争
事
二
亍
于
亏
亐
云
互
亓
五
井
亘
亚
亜
亞
亟
亠
亡
亢
交
亥
亦
产
亨
亩
享
京
亭
亮
亯
亰
亲
亳
亶
亷
人
亻
亼
亾
仁
今
介
仌
从
仐
仑
仒
仓
仕
他
付
仝
代
令
以
任
企
伊
伏
伐
休
会
伯
但
位
何
佘
余
作
佥
使
來
侈
侌
侖
侯
侵
便
保
俞
信
修
倉
倍
候
倠
備
僉
僕
儿
兀
允
兂
元
兄
充
兆
兇
先
光
兊
克
兌
免
兑
兒
兓
兔
党
兜
兟
入
全
兩
兪
八
公
六
兮
兰
共
关
兵
其
具
典
兹
兼
冀
冂
冃
冄
内
冈
冉
冊
冋
册
再
冎
冏
冐
冒
冓
冖
冗
冘
军
农
冝
冡
冥
冫
冬
冷
几
凡
凢
凯
凵
凶
凷
凸
凹
出
函
凾
刀
刁
刂
刃
刄
刅
分
切
刍
刑
刕
刖
列
刘
则
初
別
利
别
到
制
刺
則
削
剌
前
剡
剽
劉
力
功
加
劦
助
劫
劳
劵
勃
勇
勉
勒
動
務
勞
勤
勹
勺
勻
勾
勿
匀
匂
包
匆
匈
匊
匋
匍
匕
化
北
匚
匝
匡
匪
匱
匸
匹
区
医
匽
匿
區
十
卂
千
卄
卅
卆
升
午
卉
半
卌
华
卑
卒
卓
单
卖
南
卜
卝
卞
占
卡
卢
卣
卤
卦
卩
卪
卬
卯
印
危
即
却
卵
卷
卸
卻
厂
厃
厄
历
厈
厉
厌
厓
厘
厚
原
厤
厥
厨
厭
厲
厶
厷
厸
去
厼
厽
叀
参
參
叅
又
叉
及
友
双
反
叐
发
叒
叔
叕
取
受
叚
叜
叟
口
古
句
另
叩
只
召
可
台
叱
史
右
叵
号
司
叹
吂
各
吅
合
吉
吊
吋
同
名
后
吏
向
吕
君
吝
吞
否
含
启
吳
吴
吹
吾
呂
呆
呈
告
员
呙
周
命
咅
和
咎
咠
咢
咨
咸
咼
哀
品
哉
員
哥
哲
唐
商
啇
問
啚
啬
啻
善
喜
喬
單
喿
嗇
噩
嚴
囊
囗
囘
囙
囚
四
回
囟
因
囧
囬
困
囱
囷
固
国
圂
圅
國
圍
圓
土
圡
圣
圥
在
圭
地
圶
圼
坐
坒
坚
坴
垂
垔
垚
埀
埋
城
埶
執
基
堂
堅
堆
堇
堯
塞
墨
壘
士
壬
壯
声
壳
壴
壹
壺
壽
夂
处
夅
夆
备
夊
夋
夌
复
夏
夒
夕
外
夗
夘
多
夜
夢
大
夨
天
太
夫
夬
夭
央
失
夲
头
夷
夸
夹
夻
夾
奂
奄
奇
奈
奉
奎
奏
奐
契
奓
奔
奚
奞
奠
奢
奥
奭
女
奴
奻
好
如
妄
妙
妟
妥
妻
妾
姑
委
姜
威
娄
婁
婴
嬰
嬴
子
孑
孔
孕
孖
字
存
孚
孛
孝
孟
季
孤
学
孫
孱
學
宀
宁
宂
它
宅
宇
守
安
宋
完
宏
宓
宗
官
定
宛
宜
宝
客
宣
室
宮
宰
害
家
容
宾
宿
寄
寅
密
富
寒
察
寧
審
寫
寬
寮
寸
对
寺
寻
寽
対
寿
封
尃
射
将
將
專
尉
尊
尋
尌
對
小
少
尒
尓
尔
尖
尗
尚
尞
尢
尣
尤
尧
尨
尭
就
尸
尹
尺
尻
尼
尽
尾
尿
局
居
屈
屋
屎
屏
屑
展
屖
屚
属
屠
屡
屬
屮
屯
屰
山
屵
屾
岁
岂
岑
岡
岩
岳
岸
峯
島
崇
崑
崔
崖
崙
崩
嵬
嶲
巂
巛
川
州
巟
巠
巢
巤
工
左
巧
巨
巩
巫
差
己
已
巳
巴
巷
巸
巽
巾
巿
帀
市
布
希
帚
帛
帝
带
師
席
帶
常
干
平
年
幵
并
幷
幸
幺
幻
幼
幽
幾
广
広
庄
床
底
店
庚
府
度
庫
庭
庶
康
庸
廉
廌
廛
廣
廩
廴
延
廷
建
廾
廿
开
弁
弃
弄
弇
弋
式
弓
弔
引
弗
弘
弜
弟
弥
弦
弱
張
強
强
彊
彌
彎
彐
彑
当
彔
录
彖
彗
彡
形
彥
彦
彧
彭
彳
役
彼
往
待
律
徒
得
徙
從
復
微
徵
心
忄
必
忌
忍
志
忝
忠
忩
快
念
忽
忿
思
怠
急
怱
恆
恒
恩
恭
息
悉
患
悤
悲
悶
惠
惡
惢
愁
愈
意
愛
感
慈
慧
慮
憂
憲
應
戀
戈
戉
戊
戋
戌
戍
戎
成
我
戒
戔
或
戚
戠
戢
截
戲
戶
户
戹
戼
戾
房
所
扁
扇
手
扌
才
打
托
执
承
折
拉
拜
拿
掌
推
提
摩
支
攴
攵
收
攸
改
放
政
敄
敏
敕
敖
敗
敝
敞
敢
散
敦
敫
敬
数
敷
數
斂
文
斉
斊
斗
斤
斥
斩
斬
斯
新
方
於
施
斿
旁
旋
族
无
旡
既
旣
日
旦
旧
旨
早
旬
旱
旲
时
旾
昆
昇
昌
昍
明
昏
易
昔
昗
昜
星
春
昬
是
昱
昴
昷
時
晃
晋
晏
普
景
晶
智
暑
暴
曇
曩
曰
曲
曳
更
曷
書
曹
曼
曾
替
最
朁
會
月
有
朋
服
朔
朕
朗
望
朝
木
朩
未
末
本
札
朮
术
朱
朵
朶
朿
杀
李
杏
杜
束
条
来
東
杲
杳
松
析
林
枚
果
枝
枲
枼
某
柔
查
柬
柰
柴
栗
桀
桑
桼
梁
條
梟
梨
棘
棠
棥
森
楚
業
楽
榮
樂
樊
欠
次
欣
欮
欲
欶
欽
款
歆
歇
歛
止
正
此
步
武
歨
歪
歮
歯
歰
歲
歴
歷
歸
歹
歺
死
殳
段
殷
殸
殹
殺
殻
殿
毋
毌
母
每
毒
比
毕
毚
毛
毳
氏
氐
民
气
氣
水
氵
氶
氷
永
氺
氾
求
汝
汞
江
沃
沓
沙
沝
河
泉
法
波
泣
泥
泰
洛
洞
津
洪
活
派
流
浦
浪
浮
海
淡
淮
清
渚
渠
湯
滿
漸
火
灬
灭
灰
灵
灷
炅
炎
炏
炗
炙
炭
為
烈
烏
烝
焉
無
焦
焱
然
煞
熊
熏
燕
營
燮
爪
爫
爭
爯
爰
爱
爲
爵
父
爻
爽
爾
爿
片
版
牙
牚
牛
牜
牟
牢
牧
物
牪
牽
犀
犬
犭
犮
狂
狄
狊
独
狺
猋
猒
猪
献
獻
玄
率
玉
王
玟
玨
珎
班
琴
瑟
瑩
瓜
瓦
甘
甚
生
産
用
甫
甬
田
由
甲
申
电
甶
男
甸
甹
画
甾
畀
界
畏
畐
留
畜
畟
畢
畧
畨
番
畫
異
畱
當
畺
畾
疊
疋
疌
疑
疒
疾
癶
癸
癹
登
發
白
百
皀
皃
的
皆
皇
皋
皐
皕
皮
皷
皿
盃
盆
盇
盈
益
盍
盎
监
盒
盖
盛
盡
監
盤
盧
目
直
相
盾
省
眇
眉
看
眔
眞
真
眷
眼
眾
着
睘
睪
睿
瞏
瞢
瞿
矍
矛
矞
矢
矣
知
矦
短
石
破
碎
磊
磨
示
礻
礼
社
神
祟
票
祭
禀
禁
禸
禹
禺
离
禽
禾
禿
秀
秃
秉
秋
科
秝
秦
移
稟
穀
穌
穴
究
穹
空
穿
突
窄
窒
立
竒
竜
竝
竟
章
童
竹
笑
笠
筆
等
答
箕
算
箴
節
篤
篭
米
粉
粛
粟
粤
粦
粲
糞
糸
糹
系
約
納
素
索
紫
累
細
絜
絫
絲
經
維
綿
縣
繇
纍
纟
缶
网
罒
罔
罕
罗
罙
罡
罢
罪
署
罷
羅
羊
羌
羍
美
羔
羕
羗
羞
羡
羣
群
義
羲
羸
羽
翁
翏
習
翕
翟
翠
翼
老
耂
考
者
耆
而
耎
耑
耒
耳
耴
耶
耷
聂
聊
聖
聚
聶
聿
肀
肃
肅
肉
肖
肙
肥
肩
肯
育
肴
胃
背
胡
胥
能
脊
脩
膚
臣
臤
臧
自
臬
臭
臯
臱
至
致
臺
臼
臽
臾
臿
舀
舂
舄
與
興
舉
舌
舍
舛
舜
舞
舟
般
艮
良
色
艸
艹
艾
芒
芔
芬
芮
花
芳
芺
芻
苔
苗
苟
若
苦
英
茶
茸
荅
草
荒
荣
荼
莆
莧
莫
莽
菆
菊
菐
華
萬
落
葉
著
葛
董
葵
蒙
蒦
蒼
蓋
蓬
蓺
蔑
蔡
蕉
蕭
薄
薛
薦
薰
藍
藏
藥
蘭
虍
虎
虐
虒
虔
處
虖
虗
虘
虚
虛
虜
虞
虫
虽
蚤
蚩
蜀
蜜
蟲
蠡
血
行
衍
衛
衣
衤
表
衮
衰
袁
袞
褭
褱
襄
襾
西
覀
要
覃
見
規
覓
覧
親
覽
见
角
解
言
訁
訇
計
記
詹
語
誩
諸
讠
词
谷
豆
豈
豊
豐
豕
豖
豙
象
豦
豩
豪
豸
貇
貝
貞
貟
負
貢
貧
貪
貫
責
貳
貴
買
費
賁
資
賈
賏
賓
賔
賛
賞
賢
賣
質
賴
贊
贝
贡
责
贯
贲
贵
赖
赞
赤
赦
走
越
足
路
蹇
身
躬
車
軍
軎
軟
輦
车
辛
辜
辟
辥
辰
辱
農
辵
辶
边
达
过
近
连
迷
追
退
送
逆
逐
通
速
造
逢
連
逮
進
遀
遂
過
道
達
遣
適
遷
遺
邊
邑
邕
那
邦
邪
郎
郡
部
郭
都
鄉
酉
酋
配
酓
釆
采
里
重
野
量
金
釒
錢
钅
長
镸
长
門
閃
閉
開
閏
閑
閒
間
閔
閵
閻
闌
门
间
闷
阑
阜
阝
阿
降
陳
陶
隆
隊
隋
隡
隨
隱
隶
隹
隺
隻
隼
隽
难
雀
雁
集
雈
雋
雍
雐
雔
雙
雚
雜
雝
離
難
雨
雩
雪
雲
零
雷
需
霍
霜
霝
霞
霸
靈
靑
青
非
靡
面
靣
革
韋
韦
韭
韯
韱
音
頁
頃
項
須
頗
頡
頻
顛
页
風
风
飛
飞
食
飠
養
饣
首
香
馬
馮
駦
马
骨
高
髟
鬥
鬯
鬲
鬼
魚
魯
鮮
鱼
鲁
鳥
鳳
鸟
鹵
鹿
麃
麗
麥
麦
麻
黃
黄
黍
黎
黑
黒
黨
黹
黽
黾
鼎
鼓
鼠
鼻
齊
齋
齐
齒
齿
龍
龙
龜
龟
龠
龰
龱
龴
龵
龶
龷
龸
龹
者
艹
（
）
，
？
𝖆
𝖇
𝖊
𝖑
𝖔
𝖕
𝖘
𝖙
𝖚
🚇
🚊
🚌
🚍
🚎
𠀁
𠀃
𠀆
𠀉
𠀎
𠀐
𠁁
𠁣
𠂆
𠂇
𠂈
𠂉
𠂊
𠂋
𠂎
𠂒
𠂔
𠂛
𠂡
𠂢
𠂤
𠂬
𠂭
𠂹
𠃊
𠃋
𠃌
𠃍
𠃎
𠃑
𠃓
𠃔
𠃜
𠄌
𠄎
𠄠
𠄢
𠆢
𠆥
𠇍
𠈌
𠌵
𠓜
𠔉
𠔥
𠔼
𠔽
𠔿
𠕀
𠕁
𠕋
𠘧
𠘨
𠙻
𠙼
𠚏
𠚒
𠚤
𠚪
𠣏
𠤎
𠤕
𠥓
𠦄
𠦑
𠦝
𠧒
𠧗
𠧪
𠩺
𠪚
𠫓
𠫔
𠫤
𠬛
𠬝
𠬞
𠬢
𠬤
𠬶
𠮛
𠮦
𠮷
𠯑
𠱠
𠳮
𠷎
𡈼
𡉀
𡉵
𡌥
𡍮
𡏳
𡕒
𡕩
𡕰
𡖅
𡗗
𡗜
𡘆
𡘤
𡧱
𡨄
𡩧
𡬠
𡭽
𡰣
𡰥
𡰪
𡰯
𡰱
𡷈
𡸁
𡿨
𡿩
𡿪
𡿺
𢀖
𢀛
𢀩
𢁙
𢆉
𢆰
𢆶
𢇁
𢇇
𢉖
𢌬
𢌿
𢏚
𢑑
𢑚
𢖻
𢙣
𢛳
𢦏
𢦒
𢧵
𢼄
𢾕
𣁋
𣄼
𣅀
𣅽
𣍘
𣎳
𣎵
𣏋
𣏼
𣗥
𣥂
𣥖
𣦵
𣦼
𣧄
𣪊
𣪠
𣬉
𣳾
𣶒
𤇾
𤊽
𤐫
𤓰
𤔔
𤕨
𤣩
𤰇
𤰔
𤰞
𤴓
𤴔
𤽄
𥁑
𥁕
𥃦
𥃩
𥃭
𥇡
𥑟
𥘅
𥘈
𥝢
𥫗
𥱡
𦈢
𦉪
𦉬
𦉼
𦍌
𦍒
𦎧
𦐇
𦓔
𦔮
𦘒
𦙃
𦚏
𦣝
𦣞
𦣻
𦥑
𦥔
𦥯
𦨉
𦭝
𦰩
𧆞
𧈧
𧘇
𧰨
𧴪
𧴮
𧵩
𧾷
𨸏
𨾴
𩙿
𩠐
𩫏
𩵋
𪉷
𪜀
𪟽
𪠲
𪩲
𫇦
𫔭
𫜸
𫝀
𫠣
𫠩
𫢉
𫥞
𫩏
𫩠
𫪡
𫲽
𫶧
𬀷
𬐘
𬗌
𬙙
𬛸
𬜯
𬟩
𬯁
𬴘
𬺻
𬼉
𬼖
𭀰
𭁈
𭁨
𭅰
𭑈
𭕄
𭗼
𭤨
𭥫
𭻾
𮅕
𮊿
𮍌
𮍏
𮓗
𮥼
𮧮
廾
𰀁
𰀄
𰀈
𰀉
𰀕
𰀠
𰀡
𰀢
𰀪
𰁜
𰃮
𰆊
𰆘
𰋙
𰕎
𰢴
𰧭
𰯲
00--
01--
02--
03--
04--
05--
06--
07--
08--
37--
38--
39--
41--
42--
43--
44--
45--
46--
47--
48--
49--
50--
51--
52--
53--
54--
55--
56--
57--
58--
59--
60--
61--
62--
63--
64--
65--
66--
67--
68--
69--
70--
71--
72--
73--
74--
75--
76--
77--
78--
79--
80--
81--
82--
83--
84--
85--
86--
87--
88--
89--
90--
91--
92--
93--
94--
95--
96--
97--
98--
99--
a--
aa--
ab--
aba--
abba--
abd--
abe--
abor--
abron--
abru--
ac--
acco--
ace--
ad--
ada--
adat--
add--
ade--
admin--
ado--
ae--
aero--
af--
ag--
aga--
agga--
aggo--
ago--
agy--
ah--
ai--
air--
aj--
aja--
ak--
aka--
aki--
akna--
al--
ala--
alak--
alap--
ale--
alga--
ali--
alj--
alkohol--
all--
alo--
als--
alt--
am--
ama--
ame--
ami--
amu--
an--
ana--
and--
ander--
ane--
ang--
ani--
anime--
anna--
ano--
ans--
antho--
anti--
any--
anya--
anyag--
ao--
ap--
apa--
apo--
appl--
apszi--
aqu--
aqui--
ar--
ara--
arany--
arc--
arden--
are--
arit--
arkan--
arm--
ars--
art--
artis--
as--
ash--
asp--
aspek--
associa--
ast--
asz--
aszimmet--
at--
atom--
atro--
au--
auck--
aus--
auten--
auti--
auto--
av--
ave--
avig--
ay--
az--
aza--
b--
ba--
bab--
bac--
back--
bad--
bag--
bahr--
bai--
baj--
bajnok--
bak--
bal--
ban--
bank--
bar--
bara--
barba--
barlang--
bas--
basil--
bat--
bau--
bay--
bb--
bbe--
bbi--
bc--
be--
bea--
beava--
bec--
bee--
bei--
beille--
bekap--
beke--
bel--
bele--
bem--
beme--
ben--
bene--
benn--
bent--
benyo--
beo--
beolva--
ber--
bere--
bes--
besze--
bet--
beta--
bete--
betil--
beu--
bev--
beva--
beve--
bf--
bg--
bh--
bha--
bi--
bia--
big--
bin--
bio--
birtok--
bis--
bit--
biz--
bla--
ble--
bli--
blo--
blog--
blu--
bm--
bo--
bok--
bon--
bor--
boro--
borza--
bos--
bosz--
bot--
bou--
boul--
bour--
box--
br--
bra--
brad--
bre--
brig--
brigh--
bro--
broadca--
bronz--
bru--
bry--
bu--
buch--
bud--
buda--
bug--
buko--
bundes--
burg--
burko--
bus--
busz--
but--
by--
c--
ca--
cai--
cal--
camb--
can--
cap--
capito--
car--
carni--
casa--
caste--
cat--
cc--
ce--
cel--
celeb--
cent--
cet--
ch--
cha--
char--
che--
chi--
cho--
chol--
chron--
chry--
ci--
cik--
cikk--
cimba--
cinci--
cio--
cit--
ck--
cl--
clar--
clare--
cle--
clo--
cn--
co--
coa--
coleop--
colla--
colle--
com--
come--
commu--
con--
conco--
copy--
corn--
corne--
cos--
cot--
coul--
coun--
cow--
cr--
cra--
craw--
cre--
creat--
crim--
crist--
crit--
cro--
croa--
crom--
cry--
cs--
csa--
csapat--
csata--
csatla--
cse--
csen--
csere--
csi--
csillag--
cso--
csoda--
csont--
csu--
cu--
cukor--
cum--
cv--
cy--
cycl--
cz--
cza--
cze--
czi--
d--
da--
dagan--
dai--
dal--
dan--
darm--
das--
dat--
day--
dc--
dd--
de--
dea--
dec--
def--
dei--
dek--
del--
dem--
den--
der--
des--
det--
devec--
dex--
df--
dh--
dha--
di--
dia--
dialek--
did--
die--
diff--
differe--
dig--
din--
dio--
dis--
discuss--
disz--
dit--
divat--
dix--
dj--
dja--
dje--
dke--
dko--
dl--
dlo--
dm--
do--
dob--
doc--
documen--
dog--
dok--
dol--
dolgo--
dolo--
dom--
don--
dor--
dos--
dr--
dra--
dre--
dro--
dru--
ds--
dt--
dta--
dte--
du--
dua--
dub--
duna--
dus--
duzza--
dv--
dvo--
dy--
dz--
dzsi--
e--
ea--
eb--
ebe--
ec--
eco--
ed--
ede--
ee--
eff--
ege--
eger--
egy--
egybe--
egye--
egzi--
ei--
ein--
eisen--
ej--
ek--
el--
ela--
ele--
elect--
elektro--
elfe--
elfo--
elha--
elhi--
eli--
elide--
elke--
elle--
ellen--
ello--
elme--
elmu--
elne--
elo--
elpus--
elron--
elta--
elte--
elterje--
eluta--
elv--
elve--
em--
ema--
ember--
eme--
emelke--
emeri--
emi--
en--
end--
ene--
energia--
entom--
eny--
eo--
ep--
epilep--
epis--
equ--
equi--
er--
era--
ere--
eri--
erje--
ero--
es--
est--
esz--
et--
eta--
eter--
etno--
eu--
euro--
ev--
eve--
evide--
ex--
exam--
exper--
expl--
exten--
ey--
ez--
ezer--
ezot--
f--
fa--
faa--
fabr--
fagy--
fair--
faj--
fal--
falu--
fame--
fan--
far--
farkas--
fat--
fb--
fe--
fede--
fegyel--
fegyver--
fej--
fekte--
fel--
felbo--
fele--
felejt--
felfede--
felo--
felso--
fene--
fenn--
fer--
ferro--
ff--
fi--
fia--
figu--
filharmo--
film--
fin--
fire--
fjo--
fl--
fletc--
flo--
fluo--
fo--
foci--
fog--
foga--
fogva--
fogya--
fok--
font--
for--
forma--
fosz--
foto--
fr--
fra--
fre--
fred--
free--
fri--
fried--
fro--
front--
fu--
fun--
fus--
fut--
g--
ga--
gai--
gak--
gal--
gan--
garr--
gas--
gat--
gau--
gaz--
gazda--
gba--
gbe--
ge--
ged--
gei--
gel--
gem--
gen--
gene--
geng--
geo--
ger--
gere--
gerje--
ges--
get--
gez--
gg--
gge--
ggo--
gh--
gha--
ghi--
gi--
gia--
gif--
gig--
gil--
gio--
gis--
gke--
gki--
gko--
gla--
gle--
glo--
glouc--
glu--
gm--
gme--
gna--
gne--
gno--
go--
gobi--
god--
gok--
gold--
gom--
gon--
gond--
good--
gorba--
gos--
gou--
gp--
gr--
gra--
graf--
gre--
grend--
grif--
gro--
gru--
gse--
gta--
gte--
gu--
guar--
gug--
guk--
gumi--
gun--
gus--
gve--
gverse--
gy--
gya--
gyakoro--
gye--
gyen--
gyerek--
gyermek--
gyi--
gyo--
gyors--
gyszer--
gyu--
gza--
h--
ha--
hab--
had--
hadi--
hai--
haj--
hal--
hala--
halla--
ham--
han--
hang--
hanni--
hanya--
harang--
harc--
harma--
hart--
has--
hason--
haszon--
hat--
hato--
hau--
haup--
haw--
hay--
haza--
hazu--
he--
hed--
heges--
hegy--
heid--
heil--
hel--
hely--
hen--
hepat--
her--
hercu--
hes--
het--
hete--
hex--
hey--
hez--
hezbo--
hi--
hiba--
hidro--
hie--
high--
hilde--
hinde--
hip--
hiper--
hir--
hit--
hitel--
hivat--
hivatko--
hl--
hm--
hn--
ho--
hod--
hoff--
hohen--
hol--
hold--
holt--
home--
homlo--
homok--
hon--
hop--
horgo--
horizon--
hormo--
horror--
hosp--
hossz--
hot--
hoz--
hr--
hrva--
hszi--
hu--
hugen--
hun--
huszon--
huza--
hy--
hydro--
i--
ia--
ibe--
ic--
ich--
id--
ide--
idea--
ideg--
idegen--
ie--
if--
ig--
ige--
igy--
igyeke--
ihl--
ii--
ije--
ik--
ike--
ikon--
il--
ill--
ille--
illu--
im--
ima--
immu--
immunrend--
impl--
impro--
impul--
in--
ina--
inc--
inclu--
indep--
indi--
indus--
info--
ing--
ink--
insta--
int--
inter--
inves--
inzu--
io--
ion--
ip--
ipar--
ir--
ira--
irat--
irgal--
irodalom--
is--
isa--
iskola--
iso--
isten--
isza--
it--
ita--
itt--
iv--
iva--
iz--
izgat--
izom--
j--
ja--
jahrhun--
jaj--
jak--
jam--
jan--
jar--
jas--
java--
jazz--
jb--
jc--
jdalom--
je--
jegy--
jekatye--
jel--
jellem--
jen--
jer--
jha--
ji--
jj--
jk--
jl--
jn--
jo--
joa--
jobb--
jog--
joga--
jon--
jos--
jp--
jra--
jrae--
js--
jt--
jta--
jto--
ju--
jubi--
jud--
juh--
juk--
jus--
jut--
k--
ka--
kaca--
kai--
kaj--
kal--
kaland--
kalo--
kan--
kanya--
kap--
kapa--
kapcso--
kapu--
kar--
kara--
kard--
kas--
kaszt--
kat--
kata--
katona--
katti--
kavic--
kazi--
kbe--
kc--
kd--
ke--
ked--
kegy--
kei--
kek--
kel--
kely--
kem--
ken--
ker--
kera--
kere--
kerek--
keret--
kes--
keser--
ket--
keve--
key--
keze--
kf--
kfe--
kg--
kh--
kha--
kho--
ki--
kia--
kibo--
kie--
kifo--
kigyu--
kiha--
kii--
kik--
kikap--
kim--
kime--
kimon--
kine--
kinyi--
kio--
kir--
kira--
kiro--
kis--
kit--
kita--
kite--
kitil--
kiu--
kive--
kivi--
kk--
kki--
kko--
kla--
kle--
kli--
klo--
klub--
km--
kn--
kna--
ko--
kok--
kom--
komp--
kon--
koncert--
konfu--
konku--
konver--
konzu--
koo--
kor--
korom--
korona--
koru--
kos--
kot--
koz--
kozme--
kpla--
kr--
kra--
kre--
krend--
kri--
kro--
krokodi--
kru--
ksa--
kte--
kto--
ku--
kul--
kulcs--
kun--
kupa--
kurz--
kus--
kutya--
kuz--
kva--
kvantumme--
kve--
kvi--
kvo--
kw--
ky--
l--
la--
lag--
lai--
lajstro--
lak--
lako--
lal--
lam--
land--
lap--
las--
lasz--
lat--
lau--
law--
lbe--
lc--
lcs--
lcse--
ld--
lda--
lde--
ldi--
ldo--
le--
lea--
lebe--
lebon--
led--
lee--
leeres--
lefe--
leg--
lege--
legit--
leha--
lei--
lek--
leke--
lel--
lelet--
lelki--
lem--
lema--
leme--
lemez--
len--
lenyo--
leo--
leple--
lepto--
lero--
les--
lesz--
let--
leti--
leu--
lev--
leve--
lex--
ley--
lfe--
lfo--
lg--
lgy--
lha--
li--
lib--
lice--
lichten--
lie--
lig--
lik--
lim--
lin--
lingu--
link--
lis--
lit--
lja--
lje--
lju--
lka--
lke--
lko--
ll--
lla--
llal--
llam--
llapo--
llat--
lle--
lli--
llo--
lma--
lme--
lmir--
lmod--
lmu--
ln--
lna--
lo--
lock--
log--
logarit--
lok--
lom--
lon--
long--
los--
loson--
lou--
lovas--
lp--
lpa--
lre--
lsz--
lt--
lta--
lte--
ltek--
lto--
ltu--
lu--
luc--
ludo--
luft--
lum--
lus--
luxus--
lve--
lvi--
lvo--
ly--
lya--
lye--
lyo--
lyt--
m--
ma--
mac--
mad--
mag--
maga--
magas--
magyar--
mai--
makro--
mal--
man--
manif--
map--
mar--
mara--
marga--
margit--
mas--
mat--
mau--
mauri--
may--
maza--
mb--
mc--
mccar--
mccle--
md--
me--
mea--
med--
meg--
mega--
megenge--
megfe--
megfo--
meggyi--
megi--
megmutat--
mego--
megostro--
megpi--
megpilla--
megve--
megye--
mei--
mek--
mel--
meleg--
men--
menet--
mer--
merev--
mes--
mese--
mester--
met--
meta--
mex--
mez--
mf--
mg--
mh--
mhos--
mi--
mia--
micr--
mid--
mie--
mig--
miha--
mik--
mikro--
min--
mina--
mind--
minden--
mini--
minta--
mir--
mis--
mit--
mje--
mk--
mke--
mla--
mle--
mm--
mme--
mn--
mne--
mo--
mobil--
mod--
mok--
mol--
mon--
mono--
mont--
mor--
mos--
motor--
mozd--
mozdula--
mozi--
mozza--
mp--
mpa--
mr--
mrend--
ms--
mt--
mta--
mte--
mu--
multi--
munici--
munka--
mura--
mus--
muzsi--
my--
n--
na--
nad--
nagy--
nai--
nak--
naka--
nal--
nam--
nano--
nap--
napi--
napo--
nas--
nat--
nb--
nbe--
nc--
ncs--
ncz--
nd--
nde--
ndi--
ndok--
ndor--
ne--
nec--
ned--
nei--
nek--
neki--
nel--
nelem--
nem--
nemes--
neo--
nepo--
nept--
ner--
nes--
net--
neu--
neur--
neus--
neut--
nev--
neve--
new--
news--
nfe--
ng--
nga--
nge--
ngo--
ngu--
ngy--
nh--
nha--
ni--
nia--
nie--
nig--
nik--
nin--
nis--
nit--
nje--
nk--
nki--
nko--
nkre--
nl--
nla--
nm--
nmaguk--
nme--
nn--
nnep--
nnepe--
nny--
no--
nobi--
nofer--
nok--
nom--
non--
nor--
nord--
nos--
not--
nouv--
nov--
novgo--
np--
nre--
ns--
nsa--
nse--
nsz--
nt--
nta--
nte--
ntulaj--
nu--
nuk--
numizma--
nus--
nva--
nve--
ny--
nya--
nyak--
nye--
nyeg--
nyel--
nyelv--
nyers--
nyi--
nyirok--
nyjavas--
nyo--
nyolc--
nyom--
nyrend--
nyszer--
nyt--
nyter--
nyu--
nyv--
nyve--
nyvon--
nz--
nze--
o--
oa--
ob--
obeli--
ober--
och--
oct--
octav--
od--
oda--
ode--
of--
off--
offen--
offic--
og--
oh--
ok--
oka--
okos--
ol--
olaj--
old--
oldal--
oli--
olyas--
om--
oma--
on--
one--
op--
open--
opera--
or--
ora--
org--
oro--
orr--
orvos--
os--
osz--
oszt--
ot--
ott--
ou--
out--
ov--
over--
oz--
p--
pa--
pacsi--
pad--
pai--
pak--
pal--
pala--
paleo--
pamp--
pan--
panya--
pap--
papi--
par--
para--
paraszt--
part--
pas--
pat--
pav--
pavi--
pay--
paza--
pb--
pbiz--
pc--
pcsar--
pe--
pei--
pelle--
pen--
per--
pere--
pes--
pest--
pet--
pez--
ph--
pha--
pho--
phy--
physi--
pi--
pia--
piac--
picc--
pie--
pihen--
pilis--
pilla--
pirod--
pix--
pk--
pke--
pl--
pla--
play--
ple--
pm--
po--
podgo--
podmani--
poe--
pok--
pol--
poli--
poly--
pont--
pop--
por--
poron--
pos--
posit--
posta--
poszt--
pot--
pp--
ppon--
pr--
pra--
pract--
pre--
prece--
presb--
pri--
pro--
profes--
program--
projekt--
pru--
ps--
pseu--
psi--
pso--
psy--
psych--
pte--
pu--
publi--
pul--
punk--
pus--
puszta--
px--
py--
pze--
q--
qu--
que--
qui--
r--
ra--
rab--
rad--
rado--
raf--
rag--
ragasz--
rai--
raj--
rajt--
rajz--
rak--
rako--
ral--
rali--
ram--
ran--
rang--
rap--
ras--
rat--
rau--
ray--
raz--
rb--
rbe--
rbo--
rc--
rcs--
rcsa--
rcso--
rd--
rda--
rde--
rdek--
rdem--
rdi--
re--
rea--
rece--
red--
reduk--
ref--
reform--
reg--
rege--
regi--
rei--
rejt--
rejte--
rek--
reked--
rel--
rem--
ren--
rend--
rende--
repti--
res--
ret--
rev--
revi--
revol--
rey--
rez--
rfa--
rfe--
rfi--
rfo--
rg--
rga--
rge--
rgy--
rgya--
rha--
rhe--
rho--
rhu--
ri--
ria--
ric--
rid--
rie--
rimas--
rin--
rint--
rio--
ris--
ritm--
rium--
riz--
rja--
rje--
rjo--
rk--
rka--
rke--
rki--
rko--
rle--
rma--
rmas--
rme--
rmo--
rmu--
rn--
rne--
rnok--
rny--
rnya--
rnyezet--
ro--
rob--
robus--
roche--
rock--
rod--
roham--
rok--
rol--
rom--
ron--
ros--
rose--
rosod--
rossz--
rou--
rova--
row--
rox--
roz--
rp--
rpa--
rpe--
rpi--
rpo--
rr--
rre--
rrend--
rs--
rsa--
rse--
rsi--
rsze--
rt--
rta--
rtalma--
rte--
rtekez--
rth--
rti--
rtl--
rto--
rtya--
ru--
ruha--
rul--
rum--
run--
rus--
rut--
rv--
rva--
rve--
rverse--
rvi--
rvo--
ry--
rz--
rza--
rze--
rzs--
s--
sa--
sablon--
sacra--
sah--
sai--
sakk--
sal--
salbu--
sam--
san--
sapie--
sar--
sas--
sat--
sau--
sav--
sax--
sb--
sba--
sbo--
sc--
scar--
sch--
sche--
schen--
schi--
schl--
scho--
schr--
schu--
schwe--
sci--
scien--
scor--
scy--
sd--
se--
sea--
seb--
sec--
sed--
see--
sei--
sejt--
sel--
selec--
sely--
sem--
sen--
seque--
ser--
ses--
set--
sex--
sey--
sf--
sfe--
sfo--
sg--
sgya--
sh--
sha--
shang--
she--
shko--
sho--
show--
shu--
si--
sie--
sig--
sik--
siker--
sim--
sin--
sing--
sir--
sit--
sk--
ska--
ske--
ski--
sko--
sku--
sky--
sl--
sla--
sle--
slo--
sm--
sma--
sme--
smeg--
smo--
smu--
sn--
sne--
snow--
sny--
so--
soccer--
sod--
sok--
sol--
soly--
som--
some--
son--
sor--
sora--
sorol--
sorozat--
sors--
sos--
sound--
sp--
spa--
spec--
spek--
spektro--
spie--
spo--
sport--
sprint--
squ--
sr--
sre--
srend--
ss--
ssoro--
ssz--
ssze--
st--
sta--
star--
stati--
ste--
sti--
sto--
stock--
str--
strea--
stu--
sty--
su--
sub--
suga--
suk--
sul--
sum--
sun--
super--
supp--
sur--
sus--
sv--
sva--
sve--
svo--
swan--
swe--
swi--
sy--
symp--
sz--
sza--
szabad--
szabadalma--
szak--
sze--
szeg--
szek--
szel--
szem--
szembe--
szen--
szent--
szer--
szet--
szex--
szi--
szikla--
szinkron--
szke--
szlet--
szo--
szobor--
szoftver--
szok--
szt--
szta--
szu--
szub--
szuper--
t--
ta--
tabu--
tag--
tai--
taj--
tak--
tal--
talaj--
talap--
tam--
tan--
tank--
tao--
tapas--
tapi--
tar--
tart--
tas--
tat--
tau--
tbi--
tbo--
tc--
te--
tea--
tech--
teg--
teher--
tei--
tej--
tek--
tel--
tele--
telep--
teli--
tem--
teme--
ten--
tengely--
tenger--
teo--
ter--
tera--
terep--
terje--
termo--
terri--
terror--
terv--
tes--
test--
teszt--
tet--
text--
tfe--
tfo--
tg--
tgon--
th--
tha--
the--
theo--
thi--
tho--
thu--
ti--
tie--
tig--
tim--
tisza--
tiszt--
tit--
tized--
tizen--
tk--
tka--
tke--
tko--
tla--
tlag--
tm--
tme--
tmoz--
tna--
tne--
to--
tok--
tom--
tomec--
ton--
top--
tor--
torko--
torna--
tos--
tosz--
tour--
toxi--
tr--
tra--
trans--
transz--
tre--
tri--
tro--
tropi--
trou--
tru--
ts--
tse--
tso--
tsz--
tszer--
tt--
tta--
tte--
tti--
tto--
tu--
tuber--
tud--
tul--
tum--
tus--
tv--
tve--
tven--
tvo--
twe--
twi--
ty--
tyo--
tyran--
tz--
u--
uc--
udm--
udvar--
ugo--
ugyan--
uj--
ujj--
uk--
ul--
ultra--
um--
un--
una--
und--
under--
ung--
ungaris--
univer--
universi--
up--
ur--
ura--
uralko--
us--
user--
ut--
uta--
utas--
utca--
v--
va--
vad--
vag--
vagyon--
vai--
vak--
val--
vala--
van--
var--
vas--
vaszi--
vau--
vaza--
vbe--
vd--
ve--
vec--
ved--
veg--
vegy--
vei--
vek--
veked--
vel--
vely--
vem--
ven--
ver--
vera--
vere--
vers--
verseny--
ves--
vese--
vesze--
vet--
vetke--
vf--
vh--
vi--
via--
vic--
vid--
video--
vie--
vig--
vihar--
villa--
vin--
viol--
viri--
virra--
vis--
vissza--
visual--
vita--
vize--
vla--
vm--
vo--
vok--
vol--
volod--
von--
vonal--
vonat--
vor--
vos--
voya--
vra--
vro--
vu--
vulg--
vum--
vy--
w--
wa--
wal--
wald--
wallen--
wan--
war--
was--
we--
web--
wein--
wel--
west--
whe--
whis--
whit--
wi--
wie--
wiki--
wil--
wild--
win--
wissens--
witt--
witten--
wo--
wolve--
wood--
wri--
wt--
wu--
wy--
wyo--
x--
xan--
xen--
xi--
xl--
xxx--
y--
ya--
ye--
yo--
yu--
z--
za--
zad--
zai--
zaj--
zak--
zala--
zalkalma--
zam--
zan--
zas--
zat--
zbe--
zbo--
zd--
ze--
zed--
zeg--
zei--
zel--
zem--
zen--
zene--
zer--
zes--
zet--
zfo--
zha--
zi--
zia--
zimme--
zio--
zis--
zke--
zko--
zle--
zlet--
zme--
zmu--
zna--
zne--
zo--
zok--
zol--
zom--
zongora--
zoo--
zre--
zs--
zsa--
zse--
zsi--
zso--
zsu--
zszer--
zta--
zte--
zti--
zto--
ztu--
zu--
zus--
zve--
zwe--
zy--
đ--
τ--
в--
д--
и--
к--
м--
н--
о--
с--
ск--
т--
--0
--00
--01
--03
--1
--11
--13
--17
--19
--2
--21
--23
--27
--29
--3
--31
--33
--37
--38
--39
--4
--41
--43
--47
--49
--5
--51
--53
--57
--59
--6
--61
--63
--67
--69
--7
--71
--73
--77
--79
--8
--81
--83
--87
--89
--9
--91
--93
--97
--99
--a
--abb
--abba
--abbak
--abban
--abi
--able
--ac
--aceae
--ach
--active
--ad
--ada
--ade
--adi
--adik
--ado
--adt
--ae
--afa
--ag
--age
--agva
--ah
--ai
--ail
--ainak
--aine
--ait
--aj
--aja
--ak
--akat
--ake
--aknak
--aku
--al
--ald
--ale
--ali
--alis
--all
--alma
--alom
--am
--ama
--an
--ana
--and
--ang
--ani
--ano
--ans
--ant
--anu
--anus
--ap
--apa
--apja
--ar
--ara
--ard
--ari
--aro
--art
--arta
--aru
--ary
--as
--asan
--assa
--at
--ata
--ate
--ath
--ati
--atic
--atika
--atikus
--ation
--ative
--atja
--atlan
--atni
--ato
--atta
--atu
--atus
--au
--aurus
--ava
--awa
--ax
--ay
--az
--b
--ba
--badul
--badula
--badult
--bal
--bald
--ban
--bara
--bb
--be
--beja
--beli
--ben
--ber
--berg
--bi
--bie
--bit
--bja
--ble
--bo
--boga
--bol
--bola
--bor
--bot
--bott
--box
--boy
--bs
--bta
--bu
--buch
--bum
--burg
--burgi
--bury
--bus
--by
--c
--ca
--cae
--cal
--car
--cco
--ce
--ceae
--cens
--cer
--ces
--ch
--che
--chi
--cho
--cht
--chus
--ci
--cia
--cin
--cio
--ciona
--cipo
--ck
--cka
--cki
--cks
--cky
--co
--craft
--cs
--csa
--csala
--cse
--csek
--csere
--csi
--cske
--cso
--csoport
--csu
--ct
--ctus
--cu
--cus
--cy
--cz
--czi
--czki
--d
--da
--dad
--dae
--dai
--dal
--dalom
--dar
--dat
--day
--dbe
--dd
--dda
--de
--ded
--deje
--del
--den
--der
--des
--det
--dett
--dge
--di
--dia
--die
--dik
--din
--dio
--dj
--dja
--dl
--dle
--dler
--dna
--dne
--dnek
--dni
--do
--dok
--doma
--don
--dorf
--dos
--dot
--dott
--dox
--doza
--dra
--dre
--ds
--dt
--dta
--dte
--dtek
--du
--dva
--dve
--dvin
--dy
--dzo
--e
--ea
--eau
--eb
--ebb
--ebbe
--ebbek
--ebben
--ec
--eca
--eck
--ect
--ed
--eda
--ede
--edett
--edik
--edni
--edo
--edt
--edzo
--ee
--ef
--eg
--ege
--egi
--ego
--egy
--egyu
--eh
--ei
--eim
--einek
--eit
--ej
--eje
--ek
--ekben
--ekbo
--eken
--eket
--ekhez
--eki
--ekkel
--ekne
--eknek
--ekre
--ekto
--el
--ela
--ele
--elen
--ell
--ella
--elli
--ello
--elme
--elni
--elo
--elt
--elte
--em
--emu
--en
--ena
--enberg
--enburg
--ence
--end
--endo
--enek
--eni
--enia
--enke
--eno
--ens
--ense
--ensis
--ent
--ente
--ents
--eny
--enza
--eo
--eon
--ep
--eplo
--er
--era
--erdo
--ere
--erme
--ern
--ero
--ers
--ert
--eru
--erve
--ery
--erzo
--es
--escu
--ese
--esi
--ess
--esse
--est
--et
--ete
--etek
--etes
--eti
--etlen
--etni
--eto
--ets
--ett
--etta
--ette
--etti
--etu
--eum
--eur
--eus
--ev
--evics
--evna
--ex
--ey
--ez
--eze
--ezett
--ezi
--ezni
--ezo
--f
--fa
--faj
--fajta
--fal
--falva
--falvi
--fe
--feld
--felu
--felve
--fen
--fer
--ff
--ffer
--ffy
--fi
--fia
--field
--fija
--fika
--fil
--film
--filmek
--fiu
--fly
--fo
--fok
--fon
--fordi
--forma
--ft
--fu
--ful
--fy
--g
--ga
--gada
--gadja
--gal
--gar
--gata
--gatja
--gatni
--gato
--gatta
--gazda
--gazgato
--ge
--gel
--gen
--ger
--ges
--get
--getni
--gg
--gh
--ghy
--gi
--gia
--gica
--gical
--gie
--gikus
--ging
--giz
--giza
--gj
--gl
--gle
--gler
--gma
--gni
--go
--gok
--gola
--gomba
--gon
--gos
--got
--gra
--gram
--graph
--gro
--gs
--gtato
--gu
--gua
--gue
--gus
--gva
--gve
--gy
--gya
--gye
--gyha
--gyni
--gyo
--gyse
--gyu
--h
--ha
--hajo
--hal
--halas
--halom
--ham
--han
--hanta
--har
--hassa
--hasson
--hat
--hata
--hatatlan
--hatja
--hatjuk
--hatna
--hatnak
--hato
--hatsz
--hatta
--hattak
--hatunk
--haus
--hay
--he
--head
--hegy
--heim
--hel
--hely
--helyi
--hen
--her
--hesse
--het
--heti
--hetik
--hetju
--hetne
--hetnek
--heto
--hette
--hettek
--hetu
--hez
--hh
--hi
--hia
--hiba
--hin
--hip
--hl
--hm
--hn
--ho
--hof
--hogy
--hop
--hos
--hoz
--hr
--hra
--hs
--ht
--http
--hu
--hus
--hy
--i
--ia
--iae
--iai
--iak
--ial
--iam
--ian
--iana
--ianus
--ias
--ib
--iba
--iban
--ibe
--iben
--ibo
--ic
--ica
--ical
--ice
--ich
--ici
--icizmus
--ick
--ico
--ics
--icsi
--icum
--icus
--id
--ida
--idae
--ide
--ido
--ie
--ied
--iek
--iel
--ien
--ier
--ieri
--ies
--if
--ification
--iformes
--ig
--ige
--ight
--ih
--ihez
--ihoz
--ii
--ij
--ija
--ije
--ik
--ika
--ikai
--ikat
--ike
--iket
--iko
--ikus
--ikusan
--il
--ila
--ild
--ile
--ilia
--ilo
--im
--ima
--imi
--imo
--in
--ina
--inak
--ine
--inek
--ing
--inger
--ings
--ington
--ini
--inic
--ink
--ino
--ins
--inson
--int
--inte
--inus
--io
--ion
--ions
--ior
--iosz
--ious
--ipar
--ique
--ir
--ira
--ire
--iro
--is
--isch
--ische
--ischen
--ish
--islav
--ism
--ist
--ista
--isz
--iszta
--isztika
--isztikus
--isztra
--it
--ita
--ite
--iti
--ito
--itu
--ity
--itz
--iu
--ium
--ius
--iv
--iva
--ival
--ive
--ivel
--ix
--iz
--iza
--izmus
--j
--ja
--jai
--jainak
--jait
--jal
--janak
--je
--jei
--jel
--jelo
--jen
--jenek
--jes
--jev
--ji
--jka
--jla
--jlo
--jn
--jo
--jog
--joga
--jogi
--jon
--jt
--jta
--jte
--jto
--jtu
--ju
--juk
--junk
--jz
--jza
--k
--ka
--kad
--kada
--kadt
--kai
--kal
--kar
--kasz
--kat
--kba
--kban
--kbe
--kben
--kbo
--kcio
--ke
--kede
--kedett
--kednek
--kedni
--kedo
--kedtek
--kel
--ken
--ker
--keru
--keszi
--ket
--keze
--kezni
--kezve
--ki
--kia
--kig
--kij
--kin
--kins
--kira
--kja
--kk
--kkal
--kkel
--kle
--klub
--knak
--knek
--kno
--ko
--koda
--kodik
--kodnak
--kodni
--kodo
--kodott
--kodtak
--kodva
--kok
--kon
--kor
--kori
--kos
--kot
--kott
--kov
--kovits
--kozik
--kozna
--kozni
--kozo
--kozva
--kra
--kre
--kro
--ks
--kt
--kta
--ktek
--kti
--kto
--ktus
--ku
--kus
--ky
--l
--la
--lada
--lag
--lah
--lak
--lako
--lal
--lan
--land
--lani
--lansa
--lanul
--lap
--lapi
--lar
--las
--lat
--lata
--lav
--lay
--ld
--lda
--ldi
--ldja
--ldo
--ldt
--le
--leg
--lei
--lek
--lel
--lem
--lemben
--len
--lena
--lense
--lenu
--lep
--lepi
--lepu
--ler
--les
--less
--let
--lete
--ley
--lf
--lga
--lge
--lgozo
--li
--lia
--lic
--lidae
--lies
--liga
--lij
--lik
--lin
--line
--ling
--lio
--lip
--lis
--list
--lista
--lit
--lita
--liza
--lizmus
--lj
--lja
--lje
--lju
--lk
--ll
--lla
--lle
--llenes
--lli
--llo
--lly
--lm
--lma
--lmat
--lmaza
--lme
--lmes
--lmi
--lmon
--lmu
--lmuk
--lna
--lne
--lnek
--lni
--lo
--lock
--logy
--lok
--lom
--lon
--loo
--lope
--lor
--los
--lov
--lph
--ls
--lt
--lta
--ltak
--lte
--ltz
--lu
--lude
--lung
--lus
--lv
--lva
--lve
--ly
--lyel
--lz
--m
--ma
--mada
--mag
--mal
--man
--mat
--matikus
--mba
--mbe
--mben
--mber
--mbo
--mbola
--me
--mek
--mel
--mele
--meletes
--melt
--melte
--men
--ment
--mer
--mes
--met
--mezo
--mi
--mia
--mic
--mie
--mio
--mista
--mit
--mla
--mle
--mo
--mok
--mon
--more
--mos
--mot
--mour
--mouth
--mp
--mpo
--mra
--mre
--ms
--mu
--mund
--munka
--mus
--my
--mys
--n
--na
--nae
--nai
--nak
--nal
--nap
--nar
--nat
--nau
--nberg
--nc
--nce
--nch
--ncia
--nco
--ncs
--ncse
--ncy
--nd
--nda
--nde
--nder
--ndeze
--ndi
--ndje
--ndo
--ndra
--ndu
--ndul
--ndult
--ne
--nea
--ned
--nek
--nel
--nem
--nemu
--nen
--nencia
--ner
--nes
--ness
--net
--ney
--ng
--nga
--nge
--ngen
--nger
--ngi
--ngo
--ngola
--ngs
--ngzo
--nheim
--ni
--nia
--niba
--nic
--nich
--nics
--nie
--nik
--ning
--nis
--nista
--nit
--niu
--niuk
--niza
--nizmus
--nja
--nk
--nka
--nke
--nko
--nn
--nna
--nnai
--nne
--nni
--no
--nod
--nok
--nom
--nor
--nos
--nov
--ns
--nsa
--nse
--nsis
--nska
--nski
--nson
--nsz
--nt
--nta
--ntal
--nte
--nthus
--nti
--nto
--nts
--ntu
--ntyu
--nu
--nul
--num
--nunk
--nus
--nx
--ny
--nya
--nyag
--nyal
--nye
--nyi
--nyo
--nyt
--nyu
--nz
--o
--oa
--obor
--oc
--oce
--ock
--od
--oda
--odat
--odik
--odnak
--odni
--odo
--odon
--odott
--odtak
--odva
--oe
--of
--off
--og
--oga
--oge
--ogo
--ogra
--oi
--oid
--ok
--okat
--okba
--okban
--okbo
--oke
--okhoz
--okkal
--okna
--oknak
--okon
--okra
--okro
--okto
--ol
--ola
--ole
--olja
--olna
--olnak
--olni
--olo
--olt
--olta
--olva
--om
--oma
--omat
--ome
--omi
--omon
--omy
--omys
--on
--ona
--ond
--onda
--one
--ong
--onga
--oni
--onia
--onja
--onke
--ono
--onok
--ons
--ont
--onta
--onulo
--ony
--oo
--op
--ops
--or
--ora
--ord
--ore
--orf
--ori
--oria
--orja
--orna
--ornok
--ors
--ort
--orta
--orum
--ory
--os
--osa
--osabb
--osan
--osaurus
--osi
--osok
--oss
--ossa
--ost
--osz
--ot
--ota
--ote
--oto
--ott
--ou
--ous
--out
--ov
--ova
--ove
--ovic
--ovics
--ovits
--ovna
--ovo
--ovy
--ow
--ox
--oy
--oz
--oza
--ozik
--oznak
--ozni
--ozo
--ozott
--ozta
--ozva
--ozza
--p
--pa
--pal
--pan
--par
--pari
--park
--pc
--pcio
--pe
--ped
--pel
--per
--pes
--pf
--ph
--phia
--phie
--phus
--phy
--pi
--pin
--pis
--pja
--pje
--pka
--ple
--plo
--plom
--po
--pok
--pol
--polis
--pon
--pot
--pott
--pozo
--pp
--ppe
--pra
--pre
--pri
--pro
--ps
--pt
--pta
--pte
--pu
--py
--q
--que
--r
--ra
--rac
--rae
--rai
--rak
--ral
--ram
--rara
--ras
--rat
--rba
--rbo
--rc
--rcolt
--rcus
--rd
--rdi
--rdo
--rdt
--re
--rec
--red
--redme
--rege
--rek
--rekt
--rel
--rem
--ren
--rend
--reo
--repu
--res
--resi
--resni
--ret
--rezve
--rf
--rg
--rger
--rgi
--ri
--ria
--ric
--ricum
--rid
--rie
--ries
--rij
--rija
--rik
--rin
--rina
--rio
--ris
--rista
--rit
--rix
--riza
--rja
--rje
--rju
--rk
--rke
--rks
--rl
--rlo
--rly
--rm
--rma
--rme
--rmo
--rn
--rna
--rni
--ro
--roe
--roge
--rok
--rom
--ron
--ror
--ros
--rov
--row
--rp
--rr
--rra
--rre
--rro
--rs
--rseny
--rt
--rta
--rte
--rto
--rtva
--ru
--ruha
--rum
--rus
--rv
--rvas
--rve
--rvezo
--rvu
--ry
--rz
--rzat
--s
--sa
--sal
--san
--sau
--saurus
--sbach
--sberg
--sburg
--scape
--sch
--sche
--sco
--scribe
--scu
--sd
--sdorf
--se
--sebb
--sed
--sek
--sel
--sen
--set
--sey
--sh
--shi
--ship
--shire
--si
--sia
--sics
--sik
--sion
--sis
--sius
--sk
--ska
--ske
--ski
--sko
--skola
--sku
--sky
--sm
--smeret
--snek
--so
--sok
--son
--sor
--sot
--sport
--spot
--ss
--ssa
--sse
--ssen
--ssi
--sso
--sson
--ssu
--ssy
--ssz
--sszu
--st
--sta
--ste
--sten
--ster
--sti
--stic
--sto
--stone
--stu
--su
--suk
--sus
--sy
--sz
--sza
--szal
--szd
--sze
--szel
--szem
--szer
--szeru
--szerze
--szi
--szik
--szky
--szo
--szolga
--szor
--szt
--szta
--szti
--sztik
--sztika
--sztikai
--sztikus
--sztja
--szto
--sztve
--szu
--sław
--t
--ta
--tag
--tai
--tak
--tal
--tala
--talan
--tam
--tan
--tana
--tani
--tar
--tarta
--tarto
--tas
--tassa
--tat
--tata
--tatni
--tato
--tatta
--tay
--tca
--te
--ted
--tein
--tek
--tel
--tem
--ten
--ter
--terme
--tes
--tet
--tett
--tevo
--th
--ti
--tia
--tic
--tics
--tidae
--ties
--tik
--tika
--tikus
--til
--tila
--tile
--time
--tin
--ting
--tings
--tio
--tion
--tional
--tions
--tis
--tius
--tive
--tiza
--tizmus
--tja
--tl
--tlan
--tlen
--tna
--tnak
--tnek
--tni
--to
--tok
--tom
--ton
--tor
--torna
--tos
--tot
--tott
--tov
--town
--tr
--tra
--tre
--tro
--tron
--try
--ts
--tt
--tta
--ttak
--ttal
--tte
--ttek
--tten
--tti
--tto
--ttyu
--tu
--tuda
--tudo
--tudoma
--tuk
--tula
--tum
--tur
--ture
--tus
--tva
--tve
--ty
--tya
--tyu
--tz
--tzky
--u
--ua
--ual
--ub
--uba
--uc
--uca
--uch
--uction
--ud
--uda
--udo
--udoma
--ue
--uen
--uer
--uf
--ug
--uga
--ugh
--ught
--ugra
--ui
--uin
--uk
--uka
--ukat
--ukban
--uke
--ukon
--ul
--ula
--ule
--ulnak
--ulni
--ulo
--ult
--ultak
--ulus
--um
--uma
--umban
--ument
--uments
--umi
--umok
--un
--ung
--unk
--unt
--up
--ur
--ura
--ure
--urg
--uri
--uro
--urs
--urus
--us
--usi
--uska
--usok
--ust
--usz
--uszi
--ut
--uta
--ute
--uth
--uto
--ux
--uz
--uza
--v
--va
--vac
--vada
--vai
--vak
--val
--valo
--vas
--vasu
--vat
--vata
--vation
--ve
--vecz
--vek
--vel
--ven
--ver
--vero
--vet
--veze
--vezeto
--vezni
--vezve
--vi
--vic
--vich
--vics
--vide
--vila
--vile
--ville
--vira
--vit
--vita
--vits
--viza
--vizmus
--vna
--vo
--voj
--vonal
--vszkij
--vszky
--vu
--vus
--vy
--w
--wa
--wald
--way
--we
--web
--ween
--well
--wer
--wick
--wicz
--wk
--wn
--wood
--worth
--ws
--wski
--wyn
--x
--xa
--xe
--xi
--xid
--y
--ya
--yag
--yan
--yar
--ye
--yei
--yek
--yer
--yes
--yesu
--yha
--yi
--yk
--yl
--yn
--yne
--yo
--yok
--yolo
--yon
--yos
--yr
--ys
--yse
--yt
--yu
--yx
--z
--za
--zal
--zar
--zat
--zd
--ze
--zek
--zel
--zen
--zene
--zenei
--zer
--zeru
--zet
--zete
--zeto
--zett
--zi
--zia
--zie
--zik
--zin
--zio
--zionista
--zis
--zka
--zki
--zko
--zky
--zmus
--zna
--zne
--znek
--zni
--zo
--zog
--zolga
--zon
--zor
--zott
--zs
--zsa
--zt
--zta
--zte
--ztek
--ztja
--zto
--ztra
--zu
--zuk
--zul
--zva
--zve
--zy
--zz
--zza
--zze
--zzi
--zzu
--ß
--ße
--ı
--ł
--α
--ι
--ς
--а
--в
--е
--и
--м
--н
--о
--ов
--ович
--р
--скии
--т
--я
