!
"
#
##a
##aa
##ab
##ac
##ad
##ae
##af
##ag
##ah
##ai
##aj
##ak
##al
##am
##an
##ao
##ap
##aq
##ar
##as
##at
##au
##av
##aw
##ax
##ay
##az
##b
##ba
##bb
##bc
##bd
##be
##bf
##bg
##bh
##bi
##bj
##bk
##bl
##bm
##bn
##bo
##bp
##bq
##br
##bs
##bt
##bu
##bv
##bw
##bx
##by
##bz
##c
##ca
##cb
##cc
##cd
##ce
##cf
##cg
##ch
##ci
##cj
##ck
##cl
##cm
##cn
##co
##cp
##cq
##cr
##cs
##ct
##cu
##cv
##cw
##cx
##cy
##cz
##d
##da
##db
##dc
##dd
##de
##df
##dg
##dh
##di
##dj
##dk
##dl
##dm
##dn
##do
##dp
##dq
##dr
##ds
##dt
##du
##dv
##dw
##dx
##dy
##dz
##e
##ea
##eb
##ec
##ed
##ee
##ef
##eg
##eh
##ei
##ej
##ek
##el
##em
##en
##eo
##ep
##eq
##er
##es
##et
##eu
##ev
##ew
##ex
##ey
##ez
##f
##fa
##fb
##fc
##fd
##fe
##ff
##fg
##fh
##fi
##fj
##fk
##fl
##fm
##fn
##fo
##fp
##fq
##fr
##fs
##ft
##fu
##fv
##fw
##fx
##fy
##fz
##g
##ga
##gb
##gc
##gd
##ge
##gf
##gg
##gh
##gi
##gj
##gk
##gl
##gm
##gn
##go
##gp
##gq
##gr
##gs
##gt
##gu
##gv
##gw
##gx
##gy
##gz
##h
##ha
##hb
##hc
##hd
##he
##hf
##hg
##hh
##hi
##hj
##hk
##hl
##hm
##hn
##ho
##hp
##hq
##hr
##hs
##ht
##hu
##hv
##hw
##hx
##hy
##hz
##i
##ia
##ib
##ic
##id
##ie
##if
##ig
##ih
##ii
##ij
##ik
##il
##im
##in
##io
##ip
##iq
##ir
##is
##it
##iu
##iv
##iw
##ix
##iy
##iz
##j
##ja
##jb
##jc
##jd
##je
##jf
##jg
##jh
##ji
##jj
##jk
##jl
##jm
##jn
##jo
##jp
##jq
##jr
##js
##jt
##ju
##jv
##jw
##jx
##jy
##jz
##k
##ka
##kb
##kc
##kd
##ke
##kf
##kg
##kh
##ki
##kj
##kk
##kl
##km
##kn
##ko
##kp
##kq
##kr
##ks
##kt
##ku
##kv
##kw
##kx
##ky
##kz
##l
##la
##lb
##lc
##ld
##le
##lf
##lg
##lh
##li
##lj
##lk
##ll
##lm
##ln
##lo
##lp
##lq
##lr
##ls
##lt
##lu
##lv
##lw
##lx
##ly
##lz
##m
##ma
##mb
##mc
##md
##me
##mf
##mg
##mh
##mi
##mj
##mk
##ml
##mm
##mn
##mo
##mp
##mq
##mr
##ms
##mt
##mu
##mv
##mw
##mx
##my
##mz
##n
##na
##nb
##nc
##nd
##ne
##nf
##ng
##nh
##ni
##nj
##nk
##nl
##nm
##nn
##no
##np
##nq
##nr
##ns
##nt
##nu
##nv
##nw
##nx
##ny
##nz
##o
##oa
##ob
##oc
##od
##oe
##of
##og
##oh
##oi
##oj
##ok
##ol
##om
##on
##oo
##op
##oq
##or
##os
##ot
##ou
##ov
##ow
##ox
##oy
##oz
##p
##pa
##pb
##pc
##pd
##pe
##pf
##pg
##ph
##pi
##pj
##pk
##pl
##pm
##pn
##po
##pp
##pq
##pr
##ps
##pt
##pu
##pv
##pw
##px
##py
##pz
##q
##qa
##qb
##qc
##qd
##qe
##qf
##qg
##qh
##qi
##qj
##qk
##ql
##qm
##qn
##qo
##qp
##qq
##qr
##qs
##qt
##qu
##qv
##qw
##qx
##qy
##qz
##r
##ra
##rb
##rc
##rd
##re
##rf
##rg
##rh
##ri
##rj
##rk
##rl
##rm
##rn
##ro
##rp
##rq
##rr
##rs
##rt
##ru
##rv
##rw
##rx
##ry
##rz
##s
##sa
##sb
##sc
##sd
##se
##sf
##sg
##sh
##si
##sj
##sk
##sl
##sm
##sn
##so
##sp
##sq
##sr
##ss
##st
##su
##sv
##sw
##sx
##sy
##sz
##t
##ta
##tb
##tc
##td
##te
##tf
##tg
##th
##ti
##tj
##tk
##tl
##tm
##tn
##to
##tp
##tq
##tr
##ts
##tt
##tu
##tv
##tw
##tx
##ty
##tz
##u
##ua
##ub
##uc
##ud
##ue
##uf
##ug
##uh
##ui
##uj
##uk
##ul
##um
##un
##uo
##up
##uq
##ur
##us
##ut
##uu
##uv
##uw
##ux
##uy
##uz
##v
##va
##vb
##vc
##vd
##ve
##vf
##vg
##vh
##vi
##vj
##vk
##vl
##vm
##vn
##vo
##vp
##vq
##vr
##vs
##vt
##vu
##vv
##vw
##vx
##vy
##vz
##w
##wa
##wb
##wc
##wd
##we
##wf
##wg
##wh
##wi
##wj
##wk
##wl
##wm
##wn
##wo
##wp
##wq
##wr
##ws
##wt
##wu
##wv
##ww
##wx
##wy
##wz
##x
##xa
##xb
##xc
##xd
##xe
##xf
##xg
##xh
##xi
##xj
##xk
##xl
##xm
##xn
##xo
##xp
##xq
##xr
##xs
##xt
##xu
##xv
##xw
##xx
##xy
##xz
##y
##ya
##yb
##yc
##yd
##ye
##yf
##yg
##yh
##yi
##yj
##yk
##yl
##ym
##yn
##yo
##yp
##yq
##yr
##ys
##yt
##yu
##yv
##yw
##yx
##yy
##yz
##z
##za
##zb
##zc
##zd
##ze
##zf
##zg
##zh
##zi
##zj
##zk
##zl
##zm
##zn
##zo
##zp
##zq
##zr
##zs
##zt
##zu
##zv
##zw
##zx
##zy
##zz
$
%
&
'
(
)
*
+
,
-
.
/
0
00
000
0000
0001
0002
0003
0004
001
002
00381
007
009
01
0119248
0137
02
028
03
04
05
0569
06
07
0750
08
09
0932
0a
0b
0c
0d
0e
0f
0g
0h
0i
0j
0k
0l
0m
0n
0o
0p
0q
0r
0s
0t
0u
0v
0w
0x
0y
0z
1
10
100
1000
10000
1001
1002
1007
101
1016
102
1021
103
1038
104
105
1051
106
107
108
1080
1086
109
1093
11
110
1100
111
1111
112
1126
113
114
115
1150
116
117
1172
118
119
12
120
1200
121
122
123
1230
1231
1234
124
12412
125
1250
126
127
128
1287
129
1295
13
130
1300
1305
131
1310
132
133
1331
134
135
1350
136
1364
1365
137
1370
1371
138
139
14
140
1400
1409
141
1410
142
1421
1425
1426
1429
143
144
1440
145
1450
1454
146
1460
1462
1466
1467
147
1470
1471
148
1480
149
1492
1493
15
150
1500
1504
1505
1506
151
1510
1515
1517
152
1520
1521
1524
1525
1526
1528
1529
153
1530
1532
1535
1536
154
1540
1545
1549
155
1550
1551
1553
1555
1556
1557
1558
1559
156
1560
1561
1562
1563
1564
1565
1566
1567
1568
1569
157
1570
1571
1572
1573
1574
1575
1576
1577
1578
1579
158
1580
1581
1582
1583
1584
1585
1586
1587
1588
1589
159
1590
1591
1592
1595
1596
1597
1598
1599
16
160
1600
1601
1602
1603
1604
1605
1606
1607
1608
1609
161
1610
1611
1612
1613
1614
1615
1616
1617
1618
1619
162
1620
1621
1622
1623
1624
1625
1626
1627
1628
1629
163
1630
1631
1632
1633
1634
1635
1636
1637
1638
1639
164
1640
1641
1642
1643
1644
1645
1646
1647
1648
1649
165
1650
1651
1652
1653
1654
1655
1656
1657
1658
1659
166
1660
1661
1662
1663
1664
1665
1666
1667
1668
1669
167
1670
1671
1672
16728
1673
1674
1675
1676
1677
1678
1679
168
1680
1681
1682
1683
1684
1685
1686
1687
1688
1689
169
1690
1693
1694
1695
1696
1697
1698
1699
17
170
1700
1701
1702
1703
1704
1705
1706
1707
1708
1709
171
1710
1711
1712
1713
1714
1715
1716
1717
1718
1719
172
1720
1721
1722
1723
1724
1725
1726
1727
1728
1729
173
1730
1731
1732
1733
1734
1735
1736
1737
1738
1739
174
1740
1741
1742
1743
1744
1745
1746
1747
1748
1749
175
1750
1751
1752
1753
1754
1755
1756
1757
1758
1759
176
1760
1761
1762
1763
1764
1765
1766
1767
1768
1769
177
1770
1771
1772
1773
1774
1775
1776
1777
1778
1779
178
1780
1781
1782
1783
1784
1785
1786
1787
1788
1789
179
1790
1791
1792
1793
1794
1795
1796
1797
1798
1799
18
180
1800
1801
1802
1803
1804
1805
1806
1807
1808
1809
181
1810
1811
1812
1813
1814
1815
1816
1817
1818
1819
182
1820
1821
1822
1823
1824
1825
1826
1827
1828
1829
183
1830
1831
1832
1833
1834
1835
1836
1837
1838
1839
184
1840
1841
1842
1843
1844
1845
1846
1847
1848
1849
185
1850
1851
1852
1853
1854
1855
1856
1857
1858
1859
186
1860
1861
1862
1863
1864
1865
1866
1867
1868
1869
187
1870
1871
1872
1873
1874
1875
1876
1877
1878
1879
188
1880
1881
1882
1883
1884
1885
1886
1887
1888
1889
189
1890
1891
1892
1893
1894
1895
1896
1897
1898
1899
19
190
1900
1901
1902
1903
1904
1905
1906
1907
1908
1909
191
1910
1911
1912
1913
1914
1915
1916
1917
1918
1919
192
1920
1921
1922
1923
1924
1925
1926
1927
1928
1929
193
1930
1931
1932
1933
1934
1935
1936
1937
1938
1939
194
1940
1941
1942
1943
1944
1945
1946
1947
1948
1949
195
1950
1951
1952
1953
1954
1955
1956
1957
1958
1959
196
1960
1961
1962
1963
1964
1965
1966
1967
1968
1969
197
1970
1971
1972
1973
1974
1975
1976
1977
1978
1979
198
1980
1981
1982
1983
1984
1985
1986
1987
1988
1989
199
1990
1991
1992
1993
1994
1995
1996
1997
1998
1999
1999404
1a
1b
1c
1d
1e
1f
1g
1h
1i
1j
1k
1l
1m
1n
1o
1p
1q
1r
1s
1t
1u
1v
1w
1x
1y
1z
2
20
200
2000
2001
2002
2003
2004
2005
2006
2007
2008
2009
201
2010
2011
2012
2013
2014
2015
2016
2017
2018
2019
202
2020
2021
2022
2023
203
204
205
206
207
208
209
21
210
211
212
213
214
215
216
217
218
219
22
220
221
222
223
224
225
226
227
228
229
2290
23
230
231
232
233
2335
234
235
236
237
238
239
24
240
241
242
243
244
245
246
247
248
249
25
250
2500
251
252
253
254
255
256
257
258
259
25923521
26
260
261
262
263
264
265
266
267
268
269
27
270
271
272
273
274
275
276
277
278
279
28
280
281
282
283
284
285
286
287
288
2880
289
29
290
291
292
293
294
295
296
297
298
299
2a
2b
2c
2d
2e
2f
2g
2h
2i
2j
2k
2l
2m
2n
2o
2p
2q
2r
2s
2t
2u
2v
2w
2x
2y
2z
3
30
300
3000
301
302
3020
303
304
305
306
307
308
309
31
310
311
312
313
314
315
316
317
318
319
32
320
321
322
323
324
325
326
327
328
329
33
330
331
332
333
334
335
336
337
338
339
34
340
341
342
343
344
345
346
347
348
349
35
350
3500
351
352
353
354
355
356
357
358
359
36
360
361
362
363
364
365
366
367
368
369
37
370
371
372
373
374
375
376
377
378
379
38
380
381
382
383
384
385
386
387
388
389
39
390
391
392
393
394
395
396
397
398
399
3a
3b
3c
3d
3e
3f
3g
3h
3i
3j
3k
3l
3m
3n
3o
3p
3q
3r
3s
3t
3u
3v
3w
3x
3y
3z
4
40
400
4000
401
402
403
404
405
406
407
408
409
41
410
411
412
413
414
415
416
417
418
419
42
420
421
422
423
424
425
426
427
428
429
43
430
431
432
433
434
435
436
437
438
439
44
440
441
4418965
442
443
444
445
446
447
448
449
45
450
4500
451
452
453
454
455
456
457
458
459
46
460
461
462
463
464
465
466
467
468
469
47
470
471
472
473
474
475
476
477
478
479
48
480
481
482
483
484
485
486
487
488
489
49
490
491
492
493
494
495
496
497
498
499
4a
4b
4c
4d
4e
4f
4g
4h
4i
4j
4k
4l
4m
4n
4o
4p
4q
4r
4s
4t
4u
4v
4w
4x
4y
4z
5
50
500
5000
501
502
503
504
505
506
507
508
509
51
510
511
512
513
514
515
516
517
518
519
52
520
521
522
523
524
525
526
527
528
529
53
530
531
532
533
534
535
536
537
538
539
54
540
541
542
543
544
545
546
547
548
549
55
550
551
552
553
554
555
556
557
558
559
56
560
561
562
563
564
565
566
567
568
569
57
570
571
572
573
574
575
576
577
578
579
58
580
5802
581
582
583
584
585
586
587
588
589
59
590
591
592
593
594
595
596
597
598
599
5a
5b
5c
5d
5e
5f
5g
5h
5i
5j
5k
5l
5m
5n
5o
5p
5q
5r
5s
5t
5u
5v
5w
5x
5y
5z
6
60
600
6000
601
602
603
604
605
606
607
608
609
61
610
611
612
613
614
615
616
617
618
619
62
620
621
622
623
624
625
626
627
628
629
63
630
631
632
633
634
635
636
637
638
639
64
640
641
642
643
644
645
646
647
648
649
65
650
651
652
653
654
655
656
657
658
659
66
660
661
662
663
664
665
666
667
668
669
67
670
671
672
673
674
675
676
677
678
679
68
680
681
682
683
684
685
686
687
688
689
69
690
691
692
693
694
695
696
697
698
699
6a
6b
6c
6d
6e
6f
6g
6h
6i
6j
6k
6l
6m
6n
6o
6p
6q
6r
6s
6t
6u
6v
6w
6x
6y
6z
7
70
700
7000
7005
701
702
703
704
705
706
707
7073
708
709
71
710
7104
711
712
713
714
715
716
717
718
7188
719
72
720
721
722
723
724
725
726
727
728
729
73
730
731
732
733
734
735
736
737
738
739
74
740
741
742
743
744
745
746
747
748
749
75
750
751
752
753
754
755
756
757
758
759
76
760
761
762
763
764
765
766
767
768
769
77
770
771
772
773
774
775
776
777
778
779
78
780
781
782
785
786
787
79
790
791
792
794
795
799
7a
7b
7c
7d
7e
7f
7g
7h
7i
7j
7k
7l
7m
7n
7o
7p
7q
7r
7s
7t
7u
7v
7w
7x
7y
7z
8
80
800
8000
801
802
803
804
805
806
807
808
809
81
810
811
812
813
814
815
816
817
818
819
82
820
821
822
823
824
825
826
827
828
829
83
830
831
832
833
834
835
836
837
838
839
84
840
841
842
843
844
845
846
847
848
85
850
851
85177
852
853
854
855
857
85773
858
859
86
860
861
862
863
864
865
866
867
868
869
87
870
871
872
873
875
8759
876
877
878
88
880
881
88147
882
884
885
886
887
888
889
89
890
89188
893
894
895
896
89648
897
898
899
8a
8b
8c
8d
8e
8f
8g
8h
8i
8j
8k
8l
8m
8n
8o
8p
8q
8r
8s
8t
8u
8v
8w
8x
8y
8z
9
90
900
901
902
903
904
905
906
907
908
91
910
911
912
913
914917
915
916
917
918
919
92
920
921
922
923
924
925
926
927
928
929
93
930
931
932
933
934
935
936
937
938
939
94
940
941
942
943
944
945
946
948
949
95
950
951
954
955
956
957
958
959
96
960
961
962
963
964
965
966
967
968
969
97
970
971
972
973
975
977
978
979
98
980
981
982
983
984
985
986
987
988
989
99
990
991
992
993
995
997
999
9a
9b
9c
9d
9e
9f
9g
9h
9i
9j
9k
9l
9m
9n
9o
9p
9q
9r
9s
9t
9u
9v
9w
9x
9y
9z
:
;
<
=
>
?
@
[
[CLS]
[MASK]
[PAD]
[SEP]
[UNK]
\
]
^
_
`
a
a0
a1
a2
a3
a4
a5
a6
a7
a8
a9
aa
aaa
aaron
aas
ab
aba
abablewo
abc
abd
abel
abo
aborcji
about
abp
abraham
abrahama
abram
absolutna
absolutnie
absolwenci
absolwent
absolwentem
absolwentka
absolwentow
abu
aby
abym
abys
abyscie
abysmy
ac
academia
academic
academie
academy
access
ace
ach
achilles
acid
act
acta
actes
action
actor
acz
aczkolwiek
ad
ada
adam
adama
adamczyk
adamem
adams
adaptacja
adaptacji
adela
adelaide
adiunkt
adiutant
adler
adm
administraciones
administracja
administracje
administracji
administracyjna
administracyjne
administracyjnego
administracyjnej
administracyjnie
administracyjny
administracyjnych
administracyjnym
administration
administrator
administratora
administratorem
admirał
admirała
adolf
adolfa
adres
adresem
adresowych
adresu
adrian
adriana
ads
adult
advanced
adventure
adventures
adwentystow
adwokat
adwokata
ae
aequo
aero
aeroklub
aeroklubu
af
afc
afera
affairs
afganistan
afganistanie
afganistanu
africa
african
afryce
afryka
afrykanskich
afryki
after
ag
again
against
agaricomycetes
agaricomycotina
agata
agaty
age
agenci
agencja
agencje
agencji
agency
agent
agenta
agentow
agh
aglomeracji
agnes
agnieszka
agnieszkaa
agnieszki
agora
agresji
aguilera
ah
aha
ahmad
ahmed
ai
aids
ain
air
aircraft
aires
airlines
airplay
airport
airways
aj
ak
akademia
akademicka
akademicki
akademickich
akademickie
akademickiego
akademickiej
akademickim
akademicky
akademie
akademii
akademja
akc
akcent
akcentem
akcie
akcja
akcjach
akcje
akcji
akcyjna
akt
akta
aktach
aktem
aktor
aktora
aktorem
aktorka
aktorki
aktorow
aktorska
aktorskiej
aktorzy
aktow
aktu
aktualizacja
aktualizowany
aktualna
aktualne
aktualnie
aktualnosci
aktualny
akty
aktywna
aktywne
aktywnie
aktywnosc
aktywnosci
aktywny
aktywnych
aktywnym
akurat
akustyczna
akwarium
akwitania
akwitanii
al
ala
alabama
alain
alan
alana
aland
alarm
alaska
alb
alba
albania
albanii
albanski
albatros
albert
alberta
alberto
albertyna
albin
albina
albo
albowiem
alboz
albrecht
albrechta
album
albumem
albumie
albumow
albums
albumu
albumy
aldrich
ale
alec
alei
aleja
alejandro
aleje
aleksander
aleksandr
aleksandra
aleksandrem
aleksandrii
aleksandrow
aleksandrowicz
aleksego
aleksiej
aleksy
alem
aleppo
ales
alessandro
alex
alexa
alexander
alexandera
alexandra
alexandre
alexis
alez
alfa
alfabet
alfabetu
alfabetyczna
alfons
alfonsa
alfonso
alfred
alfreda
alfredo
algierii
algorytm
ali
alianckich
aliantow
alice
alicja
alina
alisci
alive
alkohol
alkoholu
all
alla
allah
allan
alle
allegro
allen
allgemeine
alliance
allmovie
allmusic
alma
almanach
almayer
alojzy
alone
alonso
alosza
alp
alpach
alpejska
alpejski
alpejskie
alpejskim
alpha
alpine
alpy
als
alt
alternatywa
alternatywna
alternatywnych
alto
aluminium
alvarez
always
am
amanda
amateur
amator
amatorow
amatorskich
amazon
ambasada
ambasador
ambasadora
ambasadorem
ambasady
ambasadzie
amber
ambicje
ambicji
ambona
ambrozy
amd
amelia
amen
amer
america
american
ameryce
ameryka
amerykanie
amerykanin
amerykanka
amerykanow
amerykanska
amerykanski
amerykanskich
amerykanskie
amerykanskiego
amerykanskiej
amerykanskim
amerykansko
ameryke
ameryki
ami
among
amor
amore
amory
amour
amsterdam
amsterdamie
amt
amunicja
amunicji
amy
an
ana
analiz
analiza
analize
analizie
analizy
analogicznie
analysis
anat
anatol
anatolij
anatomia
anatomii
ancient
and
anders
andersa
andersen
anderson
andersson
andre
andrea
andreas
andrei
andres
andrew
andrews
andriej
android
andrzej
andrzeja
andrzejem
andy
andzia
aneks
aneta
anetka
ang
angel
angela
angeles
angelo
angels
angielska
angielski
angielskich
angielskie
angielskiego
angielskiej
angielskim
angielsko
angielsku
angiosperm
anglia
anglicy
anglie
anglii
anglik
anglika
anglikow
anglji
anglo
angoli
anhalt
ani
ania
anie
aniela
aniele
anieli
anielka
animacji
animal
animals
animator
anime
animowany
animowanych
anioł
anioła
aniołem
aniołow
aniołowie
anioły
anita
anizeli
ann
anna
annaa
annales
annals
annapolis
anne
annie
anniversary
anno
announced
announces
annual
anny
ano
anonimowy
another
ant
antek
antenie
anteny
anthony
anti
antiochii
antoine
antologia
antologii
anton
antona
antoni
antonia
antoniego
antonimy
antonin
antonina
antoniny
antonio
antos
antropologii
antwerpii
antycznej
any
anzelm
ao
ap
apaczow
aparat
aparatow
aparatu
apel
apertura
apetyt
apg
aplikacja
aplikacje
aplikacji
apollo
apostolska
apostolski
apostolskiego
apostolskiej
apostolskim
apostoł
apostoła
apostołow
apple
applications
applied
april
aptekarz
apteki
aq
ar
ara
arab
arabia
arabic
arabii
arabow
arabowie
arabska
arabski
arabskich
arabskie
arabskiego
arabskiej
arabskim
aragonii
aramis
aranzacja
arc
arch
archanioła
archeolog
archeologia
archeologiczne
archeologicznych
archeologii
archidiecezja
archidiecezji
archipelag
archipelagu
archit
architecture
architekt
architekta
architektoniczne
architektonicznych
architektow
architektura
architekture
architektury
architekturze
archiv
archive
archives
archiwalne
archiwalnych
archiwow
archiwum
arct
arcta
arcy
arcybiskup
arcybiskupa
arcybiskupem
arcydzieła
arcydzieło
are
area
arena
arenie
areszcie
aresztowac
aresztowana
aresztowania
aresztowaniu
aresztowano
aresztowany
aresztowanych
aresztu
argentina
argentyna
argentynie
argentynski
argentyny
argument
argumentow
argumenty
aria
arizona
arka
arkadiusz
arkady
arkansas
arkusz
armand
armat
armata
armaty
armenia
armenii
armia
armie
armii
armja
armji
arms
armstrong
army
arnold
aron
around
ars
arsenal
arsenał
art
artagnan
artagnana
arte
arthur
arthura
article
artis
artist
artists
arts
artur
artura
artykule
artykuł
artykułem
artykułow
artykułu
artykuły
artyleria
artylerie
artylerii
artyleryjskie
artysci
artysta
artystami
artyste
artystka
artystki
artystow
artysty
artystyczna
artystyczne
artystycznego
artystycznej
artystyczny
artystycznych
artystycznym
arystokracji
arystokrata
arystotelesa
as
asa
ashley
asia
asiago
asian
asp
aspekt
aspektow
aspekty
associated
association
asteroid
aston
astr
astragalus
astronautow
astronom
astronomia
astronomical
astronomiczna
astronomiczne
astronomii
astronomy
astrophysics
asynch
asyst
asystent
asystenta
asystentem
asystentow
asyzu
asz
at
atak
ataki
atakiem
atakow
ataku
atakuje
atanazy
atari
aten
atenach
ateny
athlete
athletes
athletic
athletics
athos
atlancie
atlanta
atlantic
atlantyku
atlas
atlasie
atletico
atletyki
atmosfera
atmosfere
atmosfery
atmosferycznych
atmosferze
atoli
atom
atomow
atomowa
atomowej
atomy
atos
atp
atrakcja
atrakcje
atrakcji
att
attack
au
auckland
audi
audio
audycje
audycji
auf
aug
august
augusta
auguste
augustyn
augustyna
aurora
aus
auschwitz
austin
australia
australian
australii
australijska
australijski
australijskiego
australijskiej
austria
austriacka
austriacki
austriackich
austriackie
austriackiego
austriackiej
austriackim
austriancharts
austrii
austro
aut
auta
autentycznych
author
authority
auto
autobus
autobusow
autobusowe
autobusowy
autobusu
autobusy
automatyczna
automatyczne
automatycznie
automobile
autonomicznej
autonomie
autonomii
autor
autora
autorami
autorem
autorka
autorki
autorow
autorskich
autorskie
autorstwa
autorstwo
autorytatywna
autorytet
autorzy
autosan
autostrad
autostrada
autostrady
aux
av
ave
avec
avengers
avenue
aviation
avn
aw
awans
awansowac
awansowali
awansowany
awansował
awansowała
awansowały
awansu
awantura
awantury
award
awards
awarii
away
awf
awiw
awiwie
ax
axel
ay
az
azeby
azebym
azebys
azerbejdzan
azerbejdzanu
azerski
azja
azjatyckich
azjatyckiej
azji
azotu
azs
azyi
b
b0
b1
b2
b3
b4
b5
b6
b7
b8
b9
ba
bab
baba
babcia
babe
babka
babki
baby
bac
bach
back
baczac
bacznie
bacznosc
bacznosci
bad
bada
badac
badacz
badacze
badaczy
badajac
badan
badania
badaniach
badaniami
badanie
badaniem
badaniu
badanych
badawcza
badawcze
badawczego
badawczej
badawczo
badawczy
badawczych
badawczym
badał
baden
badenia
badz
badzcie
bafta
bagna
bagno
bahia
bahn
bailey
bajbuza
bajek
bajka
bajki
bak
baker
baknał
bakterie
bakterii
baku
bal
baldwin
bale
balet
baletu
bali
balkon
ball
ballada
ballady
balon
balsamo
baltimore
balu
balzac
ban
band
banda
bandera
bandy
bandyta
bandytow
bang
bank
banki
bankier
bankiera
banknotow
banknoty
bankow
banks
banku
baonu
baptiste
bar
baran
barana
baranow
baranowski
baranski
barbara
barbarab
barbary
barbon
barcelona
barcelonie
barcelony
bardziej
bardzo
bari
barki
barnes
barokowa
barokowe
barokowy
barokowym
baroku
baron
barona
baronie
baronowa
baronowej
barrett
barry
bartek
bartosz
bartoszewicz
bartłomiej
bartłomieja
baru
barw
barwa
barwach
barwami
barwe
barwie
barwne
barwy
barzo
bas
base
baseball
baseballista
based
basen
basenie
basenu
basia
basic
basidiomycota
basista
basket
basketball
baskijski
basn
basni
basnie
basowa
bass
basta
baszta
baszty
bat
batalion
batalionem
batalionie
batalionow
batalionu
bataliony
bateria
baterie
baterii
batman
batorego
batory
battle
batua
bauer
bawaria
bawarii
bawełny
bawi
bawia
bawiac
bawic
bawili
bawił
bawiła
baxter
bay
bayerisches
bayern
baz
baza
bazakolejowa
baze
bazie
bazy
bazylei
bazyli
bazylice
bazylika
bazyliki
bał
bała
bałtyckiego
bałtyckiej
bałtyk
bałtyku
bałwany
bb
bbc
bc
bd
be
beach
beast
beat
beata
beatles
beautiful
beauty
beben
bebny
beck
becker
becky
beczek
beczki
beda
bedac
bedaca
bedace
bedacego
bedacej
bedacy
bedacych
bedacym
bede
bednarek
bedzie
bedziecie
bedziem
bedziemy
bedziesz
been
beer
beethoven
beethovena
befolkning
before
begin
begonia
behind
bei
beijing
being
bel
bela
belgia
belgii
belgijski
belgijskiego
belgijskiej
belgium
belgrad
belgradzie
believe
belize
belka
belki
bell
bella
belle
bellona
bem
ben
bene
benedykt
benedykta
benedyktynow
beniamin
beniowski
benjamin
bennett
benny
benson
benth
benvenuto
benz
berg
bergamo
bergen
berger
berkeley
berlin
berlina
berliner
berlinie
berlinskiej
bernard
bernarda
bernardo
bernardynow
bernhard
bernie
berry
berta
bertrand
berło
beskid
beskidu
beskidzie
best
bestia
bestsellery
bet
beta
beth
better
betty
between
beverly
beyonce
beyond
bez
bezkarnie
bezkregowce
bezmyslnie
bezpieczenstwa
bezpieczenstwo
bezpieczna
bezpieczne
bezpiecznie
bezpieczny
bezposredni
bezposrednia
bezposrednich
bezposrednie
bezposredniego
bezposredniej
bezposrednim
bezposrednio
bezpowrotnie
bezpłatnie
bezpłatny
bezrobocia
bezrobocie
bezskutecznie
bezustannie
bezwarunkowo
bezwatpienia
bezwiednie
bezwzgledna
bezwzglednie
bezwładnie
bełchatow
bf
bg
bh
bi
biada
biali
biathlon
biał
biała
białe
białego
białegostoku
białej
białek
białem
białemi
białka
białko
biało
białorus
białorusi
białoruska
białoruski
białoruskiego
białoruskiej
białoruskim
białosci
białostockie
białostockiego
białostockiej
białostockim
biały
białych
białym
białymi
białymstoku
białystok
bibcode
bibl
bible
biblia
biblii
biblijna
biblijne
biblijnej
biblijnych
bibliografia
bibliotece
bibliotek
biblioteka
biblioteke
biblioteki
bibsys
bic
bicia
bicie
biec
bieda
biedak
biedaka
biedakow
biede
biedna
biedne
biednego
biednej
biedni
biedny
biednych
biednym
biedy
biedz
biedzie
bieg
biegac
biegach
biegacz
biegaczka
biegał
biegi
biegiem
biegli
biegna
biegnac
biegnaca
biegnie
biegow
biegowa
biegu
biegun
bieguna
biegł
biegła
biegły
biel
bielecki
bieli
bielizna
bielizne
bielizny
bielska
bielski
bielskiego
bielsko
bielsku
bien
biennale
bierz
bierze
biezace
biezacych
big
bih
bij
bija
bijac
bije
bilans
bilbao
bilet
biletow
bilety
bili
bill
billa
billboard
billerman
billie
billot
billy
bin
bio
biochem
biografia
biograficzna
biograficzny
biograficznym
biografie
biografii
biogram
biogramy
biographical
biographie
biography
biol
biolib
biolog
biologia
biological
biologicznych
biologii
biology
biora
biorac
bioracych
biore
bip
bird
birdlife
birds
birkenau
birmingham
birth
bis
bishop
biskup
biskupa
biskupem
biskupi
biskupia
biskupie
biskupiej
biskupow
biskupowi
biskupstwa
biskupstwo
bit
bitew
bito
bitwa
bitwach
bitwe
bitwie
bitwy
bity
biuletyn
biura
biurka
biurko
biurku
biuro
biurze
bizancjum
biznes
biznesu
bił
biła
biło
biły
bj
bk
bl
blabbermouth
blacha
blachy
black
blackwell
blada
blade
bladej
blado
bladosc
blady
bladych
blair
blake
blanc
blanca
blanka
blask
blaski
blaskiem
blasku
blaszka
blaszki
blbnb
blind
bliska
bliski
bliskich
bliskie
bliskiego
bliskiej
bliskim
blisko
bliskosc
bliskosci
blizej
blizka
blizko
bliznich
blizniego
blizsza
blizsze
blizszych
blizzard
blm
bloch
block
blog
blogspot
blok
bloki
blokow
bloku
blond
blondynka
blood
bloom
blp
blu
blue
blues
bm
bmatrix
bmw
bn
bncf
bne
bnf
bo
board
boat
bob
boba
bobby
boc
boca
bochenek
bocian
boczna
boczne
bocznej
boczny
bocznych
bocznym
bodaj
body
boeing
bog
boga
bogaci
bogactw
bogactwa
bogactwem
bogactwo
bogata
bogate
bogatego
bogatej
bogato
bogaty
bogatych
bogatym
bogdan
bogdana
bogdanowicz
bogi
bogiem
bogini
bogom
bogow
bogowie
bogu
bogumił
bogusław
bogusława
bohater
bohatera
bohaterami
bohaterem
bohaterka
bohaterki
bohaterow
bohaterowie
bohdan
bohdana
boi
bois
boiska
boisko
boisku
boisz
boj
boja
bojac
bojazn
bojazni
boje
bojowa
bojowe
bojowego
bojowej
bojownikow
bojowy
bojowych
boju
bok
bokach
boki
bokiem
bokmal
bokow
boks
bokser
boku
bol
bole
bolem
bolesc
bolesci
bolescia
bolesna
bolesne
bolesnej
bolesnie
bolesny
bolesław
bolesława
boli
boliwia
boliwii
bolko
bolonii
bolszewicka
bolszewickiej
bolszewikow
bolu
bom
bomb
bomba
bombardowania
bombowcow
bomby
bon
bona
bonaparte
bond
bone
bonn
bonus
book
books
boom
bor
bordeaux
borek
boris
borkowski
born
borneo
borow
borowski
boru
bory
borys
borysa
bos
bose
boska
boski
boskich
boskie
boskiego
boskiej
bosn
bosni
bosnia
bosniacki
boso
boss
boston
bostonie
bostw
bostwa
bostwo
bot
botanic
botanica
botanical
botaniczny
botanik
botanika
botaniki
botanique
botany
bourbon
bowiem
bowl
box
boxing
boxrec
boxshall
boy
boyd
boys
boza
boze
bozego
bozej
bozena
bozy
bozych
bozym
bp
bpa
bq
br
brac
braci
bracia
bracie
braciom
bracmi
bractwa
bractwo
brad
bradley
brain
brak
braki
brakiem
braknie
brakowało
braku
brakuje
brakło
brali
bram
brama
brame
bramek
bramie
bramka
bramkarz
bramkarza
bramkarzem
bramke
bramki
bramy
brand
brandenburg
brandon
brant
branzy
brasil
brasławskim
brat
brata
bratanek
bratanka
bratem
braterstwa
braterstwo
bratislava
bratu
bratysława
bratysławie
braun
bravo
brawo
braz
brazil
brazowa
brazowe
brazowy
brazowym
brazu
brazylia
brazylii
brazylijska
brazylijski
brazylijskiej
brał
brała
brało
brały
break
breslau
bret
bretanii
brian
bridge
brien
brighton
brill
brisbane
bristol
britain
britannica
british
brnie
brno
broadway
brod
broda
brode
brody
broken
bron
broni
bronia
broniac
bronic
bronili
bronisław
bronisława
bronił
broniła
brooke
brooklyn
brooks
bros
brother
brothers
browar
brown
browning
brt
bruce
brudna
brudne
brudny
brudnych
bruhl
bruk
bruksela
brukseli
bruku
brunatne
bruno
brutalnie
brutto
brwi
brwiami
bryan
bryczka
bryg
brygada
brygade
brygady
brygadzie
bryt
brytania
brytanii
brytyjczycy
brytyjczykow
brytyjska
brytyjski
brytyjskich
brytyjskie
brytyjskiego
brytyjskiej
brytyjskim
brytyjsko
bryła
bryły
brzeg
brzegach
brzegami
brzegi
brzegiem
brzegow
brzegu
brzek
brzemie
brzesc
brzesciu
brzeski
brzeskiego
brzeskim
brzezinski
brzmi
brzmiał
brzmiała
brzmiało
brzmiały
brzmienia
brzmienie
brzmieniu
brzoza
brzozowski
brzozy
brzuch
brzucha
brzuchu
brzydka
brzydki
brzydkie
bs
bt
bu
buckingham
bud
buda
budapest
budapeszcie
budapeszt
budda
buddy
buddyzm
buddyzmu
budowa
budowac
budowane
budowania
budowanie
budowano
budował
budowe
budowie
budowla
budowlane
budowlanego
budowlany
budowlanych
budowle
budowli
budownictwa
budownictwo
budowniczy
budowy
buduja
buduje
budy
budynek
budynkach
budynkami
budynki
budynkiem
budynkow
budynku
budza
budzac
budzet
budzetu
budzi
budzic
budził
budziła
budziło
budziły
buenos
buffalo
bug
building
bujna
bujne
buk
bukareszcie
bukareszt
bukiet
bukowski
bull
bulla
bulletin
bulwar
bundeslidze
bundesliga
bundesligi
bunt
buntu
buondi
burchard
bureau
burgin
burgundia
burgundii
burke
burkina
burmistrz
burmistrza
burmistrzem
burns
burt
burton
burundi
burz
burza
burze
burzy
bus
bush
business
but
butach
butelek
butelka
butelke
butelki
butler
butow
buty
buzassyova
bułg
bułgaria
bułgarii
bułgarska
bułgarski
bułgarskiego
bułgarskiej
bułki
bv
bw
bwa
bx
by
byc
bycia
bycie
bydgoska
bydgoski
bydgoskie
bydgoskiego
bydgoskiej
bydgoskim
bydgoszcz
bydgoszczy
bydle
bydz
bydła
bydło
byk
byka
byle
byleby
byli
byliby
bylibysmy
bylina
bylismy
bym
bynajmniej
byron
bys
bysmy
bystre
bystro
bystry
bystrzyca
byt
bytnosci
bytom
bytomiu
bytu
bywa
bywac
bywaj
bywaja
bywali
bywał
bywała
bywało
bywały
był
była
byłaby
byłabym
byłam
byłas
byłby
byłbym
byłbys
byłego
byłej
byłem
byłes
było
byłoby
były
byłyby
byłych
byłym
bz
bł
bład
błagac
błagam
błagał
błazej
błazen
błedem
błedna
błedne
błednie
błedow
błedu
błedy
błedzie
błekit
błekitna
błekitne
błekitnej
błekitny
błekitnych
błekitnym
błocie
błogosławi
błogosławieni
błogosławienstwa
błogosławienstwo
błogosławiona
błogosławiony
błogosławił
błonie
błony
błota
błotem
błoto
błysk
błyskawica
błyskawice
błyskawicznie
błyski
błysnał
błysneły
błyszczaca
błyszczace
błyszczacy
błyszczacych
błyszczały
c
c0
c1
c2
c3
c4
c5
c6
c7
c8
c9
ca
cafe
cage
cagematch
cal
cala
calais
calcio
caldwell
cale
calgary
cali
california
call
cambridge
camera
cameron
camp
campaign
campbell
campeonato
campo
can
canada
canadian
canal
cancer
cangjie
cannes
canterbury
cantic
cap
cape
capital
cappellaro
captain
car
cara
cardiff
cardinals
care
carey
carfolio
cargo
carl
carla
carlo
carlos
carlosa
carmen
carol
carolina
caroline
carroll
cars
carskiej
carter
casa
case
cases
casey
cassino
cast
castillo
castle
castro
cat
catalog
catalogue
catherine
catholic
causa
cave
cała
całe
całego
całej
całem
całemi
całemu
całkiem
całkowicie
całkowita
całkowite
całkowitego
całkowitej
całkowity
całkowitym
cało
całokształt
całosc
całosci
całowac
całował
całujac
całuje
cały
całych
całym
cb
cba
cbs
cc
cd
cdot
ce
cebula
cebule
cebuli
cech
cecha
cechach
cechami
ceche
cechu
cechuja
cechuje
cechy
cecylia
cegieł
cegły
cel
cela
celach
cele
celem
celestial
celestyn
celi
celina
cell
celna
celnej
celnych
celow
celowo
celu
cen
cena
cene
cenie
cenił
cenne
cenny
cennych
censo
census
center
centra
central
centrala
centrali
centralna
centralne
centralnego
centralnej
centralny
centralnych
centralnym
centre
centro
centrum
century
centymetrow
ceny
cenzury
cera
ceramiki
ceremonia
ceremonialnym
ceremonie
ceremonii
ceremonji
cerkiew
cerkwi
cerkwie
certyfikat
cesar
cesarska
cesarski
cesarskich
cesarskie
cesarskiego
cesarskiej
cesarskim
cesarstwa
cesarstwie
cesarstwo
cesarz
cesarza
cesarzem
cesarzowa
cesarzowej
cesarzowi
cesia
ceske
cesky
cest
cet
cev
cezar
cezara
cezary
ceł
cf
cfiv
cg
ch
cha
chacie
chad
chains
challenge
challenger
chamber
champion
champions
championship
championships
chan
chana
chang
change
changes
channel
chaos
chaosu
chapter
char
charakter
charakterem
charakterow
charakteru
charaktery
charakterystyczna
charakterystyczne
charakterystyczny
charakterystycznych
charakterystycznym
charakterystyka
charakterystyki
charakteryzuja
charakteryzuje
charakterze
charge
charkow
charkowie
charles
charlesa
charley
charlie
charlotte
charlus
charny
chart
charts
chase
chat
chata
chate
chateau
chaty
chałupie
chałupy
chca
chcac
chce
chcecie
chcemy
chcesz
chciano
chciał
chciała
chciałaby
chciałabym
chciałam
chciałby
chciałbym
chciałbys
chciałem
chciałes
chciało
chciały
chciec
chciej
chcieli
chcielismy
chciwie
chciwosc
chciwy
che
chec
checi
checia
checklist
chelsea
chem
chemia
chemical
chemiczna
chemiczne
chemicznego
chemicznej
chemiczny
chemicznych
chemicznym
chemii
chemik
chemistry
chen
cher
chesneau
chess
chester
chetnie
chevrolet
chełm
chełmie
chełmskiej
chi
chicago
chicanef
chief
child
children
chile
chin
china
chinach
chinczycy
chinczyk
chinczykow
chinese
chinska
chinski
chinskich
chinskie
chinskiego
chinskiej
chinskim
chiny
chirurg
chirurgii
chleb
chleba
chlebem
chlebie
chlebowski
chmiel
chmielewski
chmielnicki
chmielnickiego
chmur
chmura
chmurami
chmury
cho
choc
chocby
chocbym
chociaz
chociazby
chod
chodz
chodza
chodzac
chodzcie
chodze
chodzi
chodzic
chodzie
chodzili
chodził
chodziła
chodziło
chodziły
chodzmy
choice
chojnice
cholera
cholery
chopin
chopina
chor
chora
choragiew
choragwi
choragwie
chorazego
chorazy
chore
chorego
chorej
chorem
chorki
chorob
choroba
chorobach
chorobe
chorobie
choroby
chorow
choru
chorw
chorwacja
chorwacji
chorwacki
chory
chorych
chorym
chorze
chorzow
chorzowie
chorzy
chowa
chowac
chował
chr
chris
christ
christian
christiana
christie
christina
christine
christmas
christo
christoph
christopher
chrobrego
chromosomow
chroni
chronic
chronione
chronionego
chronionych
chronologia
chryste
chrystus
chrystusa
chrystusem
chrystusie
chrzanowski
chrzaszcz
chrzaszcza
chrzaszcze
chrzciciela
chrzcielnica
chrzescijan
chrzescijanie
chrzescijanin
chrzescijanska
chrzescijanski
chrzescijanskich
chrzescijanskie
chrzescijanskiego
chrzescijanskiej
chrzescijansko
chrzescijanstwa
chrzescijanstwo
chrzest
chrzestna
chrztu
chuck
chuda
chude
chudy
church
churchill
chustka
chustke
chustki
chwale
chwali
chwalic
chwalił
chwała
chwałe
chwały
chwil
chwila
chwilach
chwilami
chwile
chwili
chwilke
chwilowe
chwilowo
chwycic
chwycił
chwyciła
chwyta
chwytac
chwytajac
chwytał
chyba
chytry
chytrze
chłod
chłodem
chłodna
chłodne
chłodnicy
chłodno
chłodny
chłodu
chłop
chłopa
chłopak
chłopaka
chłopaki
chłopca
chłopcem
chłopcow
chłopcu
chłopcy
chłopcze
chłopczyk
chłopi
chłopie
chłopiec
chłopow
chłopska
chłopskich
chłopskie
chłopskiej
ci
cia
ciag
ciagiem
ciagle
ciagna
ciagnac
ciagnał
ciagneła
ciagneło
ciagneły
ciagnie
ciagu
ciagła
ciagłe
ciagłego
ciagłej
ciagły
ciagłych
ciagłym
ciasne
ciasno
ciasta
ciasto
ciaza
ciazy
ciał
ciała
ciałem
ciało
cicha
ciche
cichego
cichej
cicho
cichocki
cichu
cichutko
cichy
cichych
cichym
cie
ciebie
cieczy
ciekaw
ciekawa
ciekawe
ciekawego
ciekawie
ciekawosc
ciekawosci
ciekawoscia
ciekawy
ciekawych
ciekawym
ciele
ciemna
ciemne
ciemnego
ciemnej
ciemno
ciemnosc
ciemnosci
ciemnosciach
ciemny
ciemnych
ciemnym
cien
cieni
cienia
cienie
cieniem
cieniu
cienka
cienki
cienkich
cienkie
ciepła
ciepłe
ciepłego
ciepłej
ciepłem
ciepło
ciepły
ciepłych
ciepłym
cierpi
cierpia
cierpiał
cierpiała
cierpie
cierpiec
cierpien
cierpienia
cierpienie
cierpieniem
cierpliwie
cierpliwosc
cierpliwosci
ciesla
ciesnina
ciesniny
ciesza
ciesze
cieszy
cieszyc
cieszyn
cieszynie
cieszynski
cieszynskiego
cieszynskim
cieszył
cieszyła
cieszyły
ciezar
ciezarem
ciezarow
ciezaru
ciezka
ciezki
ciezkich
ciezkie
ciezkiego
ciezkiej
ciezkiem
ciezkim
ciezko
ciezkosci
cincinnati
cinema
cinii
cioci
ciocia
ciociu
cios
ciosem
ciosu
ciosy
ciotka
ciotke
ciotki
circle
circuit
cis
cisnac
cisnał
cisnien
cisnienia
cisnienie
cisza
cisze
ciszej
ciszy
cit
cities
city
ciudad
civil
cj
ck
ckm
cl
claire
clara
clarence
clark
clarke
class
classic
classical
classification
claude
claudia
claudio
clausura
clay
clement
cleveland
climate
clinical
clinton
clio
clive
close
cloud
club
cm
cmentarna
cmentarz
cmentarza
cmentarze
cmentarzu
cmentarzy
cn
cnn
cnot
cnota
cnote
cnoty
co
coach
coast
coby
code
codex
cody
codzien
codzienna
codzienne
codziennego
codziennej
codziennie
codzienny
codziennych
codziennym
cofa
cofac
cofajac
cofnac
cofnał
cofneła
cohen
cokolwiek
col
cold
cole
coleoptera
colin
coliseum
collection
college
collegium
collins
colon
color
colorado
columbia
columbus
com
combat
combined
come
comedy
comes
comic
comics
coming
command
commission
committee
committees
common
commons
commonwealth
communication
communications
community
como
company
compass
competition
complete
complex
componenete
computer
comte
con
conajmniej
conan
concacaf
concept
concern
concert
conference
congo
congress
connecticut
connor
conor
conrad
conservation
construction
contemporary
content
contest
continental
contra
contract
control
convention
conway
cook
cool
cooper
cop
copa
copepoda
coprawda
copredzej
copyright
coraz
corce
core
corek
corka
corkami
corke
corki
corko
cornell
corocznie
corona
corporation
corps
corpus
cos
coscie
cosel
coskolwiek
cosmy
costa
cote
could
council
countries
country
county
coupe
court
courtney
cover
covid
cox
coz
cozby
cozes
cozetta
cozto
cp
cq
cr
cracovia
craig
crash
crawford
crawley
crazy
crc
creation
creative
credits
creek
cretaceous
crew
crime
crisis
critic
critical
crosby
cross
crown
cruz
cry
crystal
cs
csi
cska
ct
cu
cud
cuda
cudem
cudna
cudne
cudnie
cudow
cudowna
cudowne
cudownego
cudownie
cudowny
cudu
cudza
cudze
cudzego
cudzej
cudzich
cudzoziemcow
cudzoziemcy
cudzych
cugle
cukier
cukrem
cukru
cultural
culture
cum
cup
cure
curie
curling
curlingu
current
curtis
cut
cv
cw
cwiczen
cwiczenia
cwiczeniach
cwierc
cwiercfinale
cwiercfinał
cwiercfinału
cwierci
cx
cy
cycling
cyclingarchives
cyfr
cyfra
cyfrowa
cyfrowe
cyfrowej
cyfrowy
cyfrowych
cyfry
cyfryzacji
cygan
cyganka
cygara
cygaro
cykl
cyklu
cylinder
cypr
cyprian
cypru
cyr
cyrku
cyrus
cyryl
cyryla
cystersow
cyt
cytadeli
cytat
cytaty
cytryny
cywilizacja
cywilizacji
cywilizacyi
cywilna
cywilne
cywilnego
cywilnej
cywilny
cywilnych
cywilnym
cywilow
cywinski
cz
czapce
czapka
czapke
czapki
czar
czarna
czarne
czarnego
czarnej
czarnem
czarnemi
czarni
czarniecki
czarno
czarnogora
czarnogory
czarnogorze
czarny
czarnych
czarnym
czarnymi
czarow
czarownica
czarownice
czartoryskich
czary
czas
czasach
czasami
czasem
czasie
czasopism
czasopisma
czasopismach
czasopismie
czasopismo
czasow
czasowe
czasownik
czasownika
czasowniki
czasownikowa
czasowo
czasteczek
czasteczki
czastek
czastka
czastke
czastki
czasu
czasy
czaszka
czaszke
czaszki
czci
czcia
czcigodny
cze
czech
czechach
czechami
czechosłowacja
czechosłowacji
czechosłowackiej
czechow
czechy
czego
czegos
czegoz
czeka
czekac
czekaj
czekaja
czekajac
czekali
czekam
czekał
czekała
czekałem
czekało
czekały
czekolady
czeladz
czeladzi
czele
czem
czemkolwiek
czempredzej
czems
czemu
czemus
czemuz
czemze
czerni
czerpie
czerwca
czerwcu
czerwiec
czerwinski
czerwona
czerwone
czerwonego
czerwonej
czerwonemi
czerwoni
czerwono
czerwony
czerwonych
czerwonym
czerwonymi
czes
czesc
czesci
czescia
czesciach
czesciami
czesciej
czesciowa
czesciowo
czesi
czeska
czeski
czeskich
czeskie
czeskiego
czeskiej
czeskim
czesnik
czeste
czesto
czestochowa
czestochowie
czestochowskiej
czestochowy
czestokroc
czestotliwosc
czestotliwosci
czestych
czestym
czesław
czesława
czesławc
czole
czoła
czołem
czołg
czołgi
czołgow
czołgu
czołno
czoło
czołowa
czołowce
czołowej
czołowki
czołowych
czterdziesci
czterdziestu
czterech
czterej
czterema
czternascie
czternastu
czterokrotnie
czterokrotny
cztery
czterysta
czuc
czucia
czuja
czujac
czuje
czujesz
czule
czuli
czuwa
czuwac
czuwał
czuł
czuła
czułam
czułe
czułem
czułki
czułosc
czułosci
czułoscia
czuły
czwarta
czwarte
czwartego
czwartej
czwartek
czwarty
czwartym
czworka
czworo
czy
czyby
czyja
czyjas
czyje
czyjes
czyli
czyliz
czym
czyms
czyn
czynach
czynem
czyni
czynia
czyniac
czynic
czynie
czynienia
czynili
czynisz
czynił
czyniła
czyniło
czyniły
czynna
czynne
czynnego
czynnej
czynnie
czynnik
czynnika
czynniki
czynnikiem
czynnikow
czynnosc
czynnosci
czynny
czynnym
czynow
czynu
czyny
czys
czysta
czyste
czystego
czystej
czystem
czysto
czystosc
czystosci
czysty
czystych
czystym
czyta
czytac
czytaj
czytajac
czytam
czytamy
czytania
czytanie
czytaniu
czytał
czytała
czytałem
czytelnicy
czytelnik
czytelnika
czytelnikow
czyz
czyzby
człek
człeka
człon
członek
członka
członkami
członki
członkiem
członkini
członkinia
członkom
członkostwa
członkostwo
członkow
członkowie
członkowskich
członow
człowiecze
człowiek
człowieka
człowiekiem
człowiekowi
człowieku
d
d0
d1
d2
d3
d4
d5
d6
d7
d8
d9
da
dab
dabrowa
dabrowie
dabrowka
dabrowska
dabrowski
dabrowskiego
dabrowy
dac
dach
dachau
dachem
dachow
dachu
dachy
dacie
dadza
dae
dag
dai
daily
daisy
daj
daja
dajac
dajaca
dajace
dajacy
dajcie
daje
dajesz
dajmy
dajze
dakota
dal
dala
dale
dalece
dalej
daleka
daleki
dalekich
dalekie
dalekiego
dalekiej
dalekim
daleko
dali
dalibog
dallas
dalsza
dalsze
dalszego
dalszej
dalszy
dalszych
dalszym
dam
dama
damaszku
dame
damian
damy
dan
dana
dance
dancing
dane
danego
danej
dania
danie
daniel
daniela
danii
danny
dano
dans
dante
danuta
dany
danych
danym
danymi
dar
darem
daremne
daremnie
daria
dario
dariusz
dark
darmo
darmstadt
darow
darowac
darował
daru
daruj
daruje
darwin
dary
das
dasz
dat
data
database
date
datenverarbeitung
dates
datos
datowane
datowany
datuje
daty
dave
david
davida
davidd
davidson
davies
davis
davisa
daw
dawac
dawaj
dawali
dawano
dawał
dawała
dawało
dawały
dawid
dawida
dawki
dawn
dawna
dawne
dawnego
dawnej
dawnemu
dawni
dawniej
dawniejszych
dawno
dawny
dawnych
dawnym
dawszy
day
days
daza
dazac
dazen
dazenia
dazenie
dazy
dazyc
dazył
dał
dała
dałby
dałbym
dałem
dałes
dało
dały
db
dba
dbac
dbał
dbnl
dc
dd
ddr
de
dead
deadline
deal
dean
death
debata
debaty
debiucie
debiut
debiutancki
debiutanckim
debiutował
debiutowała
debiutu
deblu
debow
debu
debut
deby
dec
december
dech
decyduje
decyzja
decyzje
decyzji
dedykowane
dee
deep
def
defence
defense
definicja
definicje
definicji
definiuje
degli
dei
deka
dekady
dekadzie
dekanacie
dekanat
dekanatow
dekanatu
deklaracja
deklaracje
deklaracji
deklinacja
dekoracja
dekoracje
dekoracji
dekret
dekretem
dekretu
del
delegacja
delegacji
delegat
delegatem
delegatow
delfin
delfina
delhi
delikatna
delikatne
delikatnie
delikatnosc
delikatny
dell
della
delle
delta
deluxe
dem
demo
demografia
demokracja
demokracji
demokratow
demokratyczna
demokratyczne
demokratycznego
demokratycznej
demokratyczny
demokratycznych
demon
demonstracji
den
denis
dennis
denver
deon
departamencie
departament
departamentu
department
depesze
deportivo
deputowanego
deputowany
deputowanych
deputowanym
der
derby
derek
dereneczna
derenek
des
desce
description
desek
desert
design
deska
deskach
deski
deszcz
deszcze
deszczem
deszczu
det
details
detektyw
detroit
deutsch
deutsche
deutschen
deutscher
deutschland
deux
development
devil
devon
df
dg
dh
di
diabeł
diabła
diagram
diakon
dialekt
dialekty
dialog
dialogi
dialogu
diamond
diana
diane
diaz
dick
dictionaries
dictionary
dictionnaire
did
die
diecezja
diecezjalne
diecezjalny
diecezje
diecezji
diego
dies
dieter
dietrich
diety
dig
digital
din
dinamo
dino
dinosaur
dinozaurow
dinozaury
dioecesis
dir
direct
director
directory
dirty
disco
discography
discogs
discover
discovery
disease
disney
displaystyle
distance
distribution
district
diversity
division
dj
djabeł
djabli
djabła
djvu
dk
dl
dla
dlaczego
dlaczegoz
dlan
dlatego
dm
dmitrij
dmytro
dn
dna
dnem
dni
dnia
dniach
dniami
dnie
dniem
dniu
dno
do
dobe
dobek
dobie
dobitnie
dobor
dobr
dobra
dobrach
dobranoc
dobre
dobrego
dobrej
dobrem
dobro
dobrobyt
dobrobytu
dobroc
dobroci
dobrocia
dobroczynnosci
dobrodziej
dobrodziejstwa
dobrodzieju
dobrowolnie
dobry
dobrych
dobrym
dobrymi
dobrze
dobrzy
dobudowano
doby
dobył
doc
docent
dochod
dochodow
dochodu
dochody
dochodza
dochodzac
dochodzenie
dochodzi
dochodzic
dochodził
dochodziła
dochodziło
dochodziły
dociera
doctor
document
doczekac
doczekał
doczekała
doda
dodac
dodaj
dodajac
dodaje
dodajemy
dodanie
dodano
dodatek
dodatki
dodatkiem
dodatkowa
dodatkowe
dodatkowego
dodatkowej
dodatkowo
dodatkowy
dodatkowych
dodatkowym
dodatku
dodawac
dodawał
dodał
dodała
dodge
does
dog
dogrywce
doha
doi
dojazd
dojdzie
dojechac
dojrzał
dojrzała
dojrzałe
dojrzałosci
dojrzały
dojrzec
dojsc
dok
dokad
dokonac
dokonaj
dokonali
dokonana
dokonane
dokonania
dokonano
dokonany
dokonanych
dokonał
dokonała
dokonały
dokonczyc
dokonczył
dokonuje
dokoła
doktor
doktora
doktorat
doktorem
doktorow
doktorowi
doktorska
doktoryzował
doktorze
doktryna
doktryny
dokumencie
dokument
dokumentach
dokumentacja
dokumentacji
dokumentalny
dokumentalnych
dokumentow
dokumentu
dokumenty
dokładna
dokładne
dokładnie
dokładniej
dokładnoscia
dokładny
dola
dolarow
dole
dolegliwosci
doli
dolin
dolina
dolinach
doline
dolinie
doliny
dolna
dolne
dolnego
dolnej
dolnoslaskie
dolnoslaskiego
dolnoslaskim
dolny
dolnych
dolnym
dom
domach
domacinstava
domaga
domagał
domain
domami
dombi
dome
domek
domem
domena
domenico
domeny
domesday
domingo
domini
dominiczak
dominik
dominika
dominikanow
dominique
domino
dominuja
dominujaca
dominuje
domki
domkow
domku
domostw
domostwa
domow
domowa
domowe
domowego
domowej
domowi
domowy
domowych
domowym
domu
domy
domysla
domyslac
domyslajac
domyslam
domyslał
domyslec
domyslic
domyslił
domysły
don
dona
donald
donalda
dong
donieck
doniesc
doniesienia
doniosł
donna
donsker
doo
dookoła
door
dopiero
dopoki
dopomodz
dopoty
doprawdy
doprowadza
doprowadzi
doprowadzic
doprowadził
doprowadziła
doprowadziło
doprowadziły
dopuscic
dopuscił
dopuszcza
dopływ
dopływem
dora
doradca
doradcow
doradcy
dorasta
dorastał
dorobek
dorobkiem
dorobku
dorosli
doroszewskiego
dorosła
dorosłe
dorosły
dorosłych
dorota
dorothy
doroty
dorozka
dorozki
dortmund
dorzecza
dorzeczu
dorzucił
dos
dosc
dosiegnac
doskonale
doskonalenia
doskonała
doskonałe
doskonałego
doskonałej
doskonałosc
doskonałosci
doskonały
doskonałym
dostac
dostaje
dostali
dostane
dostanie
dostaniesz
dostarcza
dostarczono
dostarczyc
dostarczył
dostateczna
dostatecznie
dostatek
dostaw
dostawca
dostawy
dostał
dostała
dostałem
dostało
dostały
dostep
dostepna
dostepne
dostepny
dostepnych
dostepu
dostojnosc
dostojny
dostrzec
dostrzedz
dostrzega
dostrzegł
dostrzegła
dostrzegłem
doswiadczen
doswiadczenia
doswiadczenie
doswiadczeniem
doswiadczeniu
doswiadczony
dosyc
doszczetnie
doszedł
doszedłem
doszedłszy
doszli
doszła
doszło
doszły
dosł
dosłownie
dot
dotad
dotarli
dotarł
dotarła
dotarły
dotknac
dotknał
dotkneła
dotkniecie
dotkniety
dotrzec
dotrzymac
dots
dotychczas
dotychczasowa
dotychczasowe
dotychczasowego
dotychczasowej
dotychczasowy
dotychczasowych
dotycza
dotyczaca
dotyczace
dotyczacej
dotyczacy
dotyczacych
dotyczacymi
dotyczy
dotyczyła
dotyczyło
dotyczyły
dotyka
dotykac
dotykajac
double
doug
douglas
dowcip
dowcipu
dowiaduje
dowie
dowiedziawszy
dowiedział
dowiedziała
dowiedziałem
dowiedziec
dowiedzieli
dowiem
dowiesc
dowiesz
dowiodł
down
download
dowod
dowodca
dowodce
dowodcow
dowodcy
dowodem
dowodow
dowodu
dowody
dowodza
dowodzac
dowodzacy
dowodzenia
dowodzenie
dowodzi
dowodzic
dowodził
dowodzona
dowodztwa
dowodztwem
dowodztwie
dowodztwo
dowolna
dowolne
dowolnego
dowolnej
dowolnie
dowolny
dowolnym
doyle
doznaje
doznawał
doznał
doznała
dozorca
dozorcy
dozwolone
doł
dołacza
dołaczyc
dołaczyli
dołaczył
dołaczyła
dołega
dołu
doły
dp
dq
dr
dra
drab
drabina
drabinka
drabiny
draft
drag
dragon
dragonow
drahy
drake
drama
dramacie
dramat
dramatow
dramatu
dramaturg
dramaty
dramatyczne
dramatyczny
dramatycznym
drapiezne
draw
dream
dreams
dreczyc
dreszcz
dreszcze
dreszczem
drew
drewna
drewniana
drewniane
drewnianego
drewnianej
drewniany
drewnianych
drewnianym
drewnie
drewno
drezna
dreznie
drezno
drgnał
drgneła
drive
drobiu
drobna
drobne
drobnego
drobnej
drobno
drobny
drobnych
drobnym
drobnymi
drodze
drog
droga
drogach
drogami
droge
drogi
drogich
drogie
drogiego
drogo
drogowe
drogowego
drogowy
drogowych
drogowym
drudzy
druga
drugi
drugich
drugie
drugiego
drugiej
drugiem
drugiemu
drugim
drugoligowego
drugoplanowa
druk
drukarni
drukarnia
drukiem
drukowane
druku
druzyn
druzyna
druzynami
druzyne
druzynie
druzynowe
druzynowej
druzynowo
druzynowy
druzynowych
druzynowym
druzyny
drzac
drzaca
drzace
drzacemi
drzacy
drzacym
drzavni
drzał
drzała
drzały
drze
drzec
drzenie
drzeniem
drzew
drzewa
drzewach
drzewami
drzewem
drzewie
drzewnego
drzewo
drzwi
drzwiach
drzwiami
drzwiczki
drzwiom
drzy
ds
dt
du
dub
dubarry
dubisz
dublet
dublin
dublinie
dubois
duch
ducha
duchem
duchow
duchowa
duchowe
duchowego
duchowej
duchowienstwa
duchowienstwo
duchowna
duchowne
duchownego
duchownej
duchowni
duchowny
duchownych
duchownym
duchowy
duchowych
duchowym
duchu
duchy
duda
dudek
due
duecie
duet
duetu
dukatow
duke
duma
dumas
dumał
dume
dumna
dumne
dumnie
dumny
dumnym
dumy
dun
dunaj
dunaju
duncan
dunin
dunska
dunski
dunskiego
dunskiej
duo
dur
durham
during
dusseldorf
dusz
dusza
dusze
duszpasterska
duszy
dutch
dutchcharts
duty
dux
duza
duze
duzego
duzej
duzo
duzy
duzych
duzym
duzymi
dv
dvd
dw
dwa
dwadziescia
dwaj
dwakroc
dwanascie
dwie
dwiema
dwiescie
dwoch
dwoje
dwojga
dwojka
dwojke
dwojki
dwom
dwoma
dwor
dworach
dworca
dworcu
dworek
dworem
dworku
dworow
dworska
dworski
dworskich
dworskie
dworskiej
dworu
dwory
dworzan
dworzanin
dworze
dworzec
dwu
dwuch
dwudziestego
dwudziestoleciu
dwudziestu
dwudziesty
dwukrotna
dwukrotnie
dwukrotny
dwumeczu
dwunasta
dwunastej
dwunastu
dwustu
dwutlenku
dx
dy
dyabeł
dyabła
dyc
dydaktyczna
dylan
dym
dymem
dymisji
dymitr
dymitra
dymow
dymu
dymy
dynama
dynamo
dynastia
dynastii
dypl
dyplom
dyplomacji
dyplomata
dyplomatyczna
dyplomatyczne
dyplomatycznej
dyplomatycznych
dyplomu
dyr
dyrekcja
dyrekcji
dyrekcyi
dyrektor
dyrektora
dyrektorem
dyrektorow
dyrektywy
dyrygent
dyscyplin
dyscyplina
dyscyplinach
dyscyplinie
dyscypliny
dysk
dyskiem
dyskografia
dysku
dyskusja
dyskusje
dyskusji
dyskwalifikacja
dyslokacja
dyslokacyjne
dysponował
dysponuje
dyspozycji
dystans
dystansach
dystansie
dystrybucja
dystrybucji
dystrykcie
dystrykt
dystryktu
dyw
dywan
dywersji
dywizja
dywizje
dywizji
dywizjon
dywizjonu
dyzma
dz
dziac
dziad
dziada
dziadek
dziadka
dziadow
dziale
dział
działa
działac
działacz
działacza
działacze
działaczem
działaczka
działaczy
działaja
działajac
działajaca
działajace
działajacego
działajacej
działajacy
działajacych
działalnosc
działalnosci
działalnoscia
działan
działania
działaniach
działaniami
działanie
działaniem
działaniu
działał
działała
działało
działały
działek
działka
działki
działo
działu
działy
dzieci
dzieciach
dzieciak
dzieciatka
dzieciatkiem
dzieciatko
dziecie
dziecieca
dzieciece
dzieciecej
dzieciecia
dzieciecy
dzieciecych
dziecinna
dziecinne
dziecinnych
dziecinstwa
dziecinstwie
dziecinstwo
dzieciom
dziecka
dzieckiem
dziecko
dziecku
dziecmi
dziedzic
dziedzica
dziedzicem
dziedzictwa
dziedzictwo
dziedziczka
dziedzin
dziedzina
dziedzinach
dziedzinca
dziedzincu
dziedzinie
dziedziniec
dziedziny
dziejach
dzieje
dziejow
dziekan
dziekana
dziekanem
dzieki
dziekowac
dziekuje
dziekujemy
dziela
dzielac
dziele
dzieli
dzielic
dzielił
dzieliła
dzielnego
dzielnic
dzielnica
dzielnicach
dzielnice
dzielnicy
dzielnie
dzielny
dzielnych
dzielnym
dzien
dzienna
dzienne
dziennego
dziennie
dziennik
dziennika
dziennikarka
dziennikarstwa
dziennikarz
dziennikarza
dziennikarze
dziennikarzy
dzienniki
dziennikow
dzienniku
dzienny
dzierzawca
dzierzawe
dziesiata
dziesiatce
dziesiate
dziesiatej
dziesiatki
dziesiaty
dziesiec
dziesieciolecia
dziesieciu
dziewczat
dziewcze
dziewczecia
dziewczeta
dziewczyna
dziewczyne
dziewczynie
dziewczynka
dziewczynke
dziewczynki
dziewczyny
dziewiata
dziewiate
dziewiatej
dziewiaty
dziewica
dziewice
dziewicy
dziewiec
dziewiecdziesiatych
dziewieciu
dziewka
dziewki
dzieł
dzieła
dziełach
dziełami
dziełem
dzieło
dzik
dzika
dziki
dzikich
dzikie
dzikiego
dzikiej
dzikim
dziko
dziob
dziobem
dziobie
dzis
dzisiaj
dzisiejsza
dzisiejsze
dzisiejszego
dzisiejszej
dzisiejszy
dzisiejszych
dzisiejszym
dzisienski
dzisienskim
dzisnienskim
dziura
dziure
dziury
dziw
dziwaczne
dziwi
dziwic
dziwie
dziwił
dziwna
dziwne
dziwnego
dziwnej
dziwnem
dziwnie
dziwny
dziwnych
dziwnym
dziwy
dzungli
dzw
dzwiek
dzwieki
dzwiekiem
dzwiekow
dzwiekowa
dzwiekowej
dzwieku
dzwigac
dzwon
dzwonek
dzwoni
dzwonka
dzwonki
dzwonnica
dzwonow
dzwonu
dzwony
dłon
dłoni
dłonia
dłoniach
dłonie
dłonmi
dług
długa
długi
długich
długie
długiego
długiej
długiem
długiemi
długim
długimi
długo
długoletnia
długosc
długosci
długosz
długosza
długow
długu
dłuzej
dłuzsza
dłuzsze
dłuzszego
dłuzszej
dłuzszy
dłuzszym
e
e0
e1
e2
e3
e4
e5
e6
e7
e8
e9
ea
eagle
earl
early
earth
east
eastern
eb
eberhard
ebird
ebl
ebu
ec
ech
echa
echem
echo
ecole
ecology
economic
economics
ed
eddie
eden
edgar
edge
edicions
edinburgh
edit
edith
edition
editions
edmonton
edmund
edmunda
edouard
eds
edu
eduard
eduardo
education
edukacja
edukacje
edukacji
edukacyjna
edukacyjne
edukacyjnych
edward
edwarda
edwards
edwin
edycja
edycjach
edycje
edycji
edynburgu
edyta
edytuj
ee
eesti
ef
efekcie
efekt
efektem
efektow
efektu
efekty
effect
effects
effendi
eg
egipcie
egipski
egipskich
egipskie
egipskiej
egipt
egiptu
ego
egoizm
egypt
egzamin
egzaminu
egzekucja
egzekucje
egzekucji
egzemplarz
egzemplarze
egzemplarzy
egzystencji
eh
ehf
ei
eight
ein
eine
einer
ej
ek
ekai
ekipa
ekipie
ekipy
ekologii
ekon
ekonom
ekonomia
ekonomiczna
ekonomiczne
ekonomicznego
ekonomicznej
ekonomiczny
ekonomicznych
ekonomicznym
ekonomii
ekonomista
ekran
ekranie
ekranu
eks
ekspansji
ekspedycja
ekspedycji
ekspert
ekspertow
eksperyment
eksperymentow
eksperymenty
eksploatacji
eksplozji
eksport
ekspozycja
ekspozycji
ekstraklasa
ekstraklasie
ekstraklasy
ekwadoru
ekwadorze
el
elblag
elblagu
election
elections
electric
electronic
elegancki
elektroniczna
elektroniczne
elektronicznej
elektroniczny
elektronicznych
elektroniki
elektronow
elektrowni
elektrownia
elektryczna
elektryczne
elektrycznego
elektrycznej
elektryczny
elektrycznych
elektrycznym
element
elementami
elementem
elementow
elementu
elementy
elena
eleonora
elewacja
elewacje
elewacji
eli
elias
eliasz
eliminacja
eliminacjach
eliminacje
eliminacji
eliminacyjnym
elisabeth
elita
elite
eliteprospects
elity
eliza
elizabeth
ella
elle
ellen
elliot
elliott
ellis
else
elsevier
elvis
elza
elzbieta
elzbiete
elzbiety
em
emanuel
emery
emerytowany
emeryture
emi
emigracji
emigrantow
emil
emila
emile
emilia
emilii
emily
emisja
emisje
emisji
emitowane
emitowany
emma
emmanuel
emmy
emocje
emocji
empik
empire
ems
emu
en
enciklopedija
encyclopaedia
encyclopedia
encyclopædia
encyklopedia
encyklopedii
encyklopedja
encyklopedyczny
end
endemicznie
energetyki
energia
energicznie
energie
energii
energja
energji
energy
engineering
england
english
enpr
enrico
enrique
ent
enterprise
entertainment
entidades
entry
environment
environmental
eo
eol
ep
eparchia
eparchii
epic
epidemia
epidemii
episkopatu
episode
epitafium
epitet
epizod
epoce
epoka
epoke
epoki
epsilon
eq
er
era
erazm
eric
erica
erich
erik
ernest
ernesta
ernst
erwin
ery
erygowana
eryk
es
esa
esc
escape
eschmeyer
esctoday
eseista
eska
eskadra
eskadry
espana
espanola
esperanto
espn
espnscrum
essen
essex
est
estadio
este
estonia
estonian
estonii
estonski
et
eta
etap
etapach
etapem
etapie
etapow
etapu
etapy
etat
etc
etienne
etiopii
etniczna
etnicznej
etnicznych
ett
etyka
etyki
etymologia
etymologiczny
eu
eugene
eugenia
eugeniusz
eugeniusza
eunis
eur
euro
eurobasket
euroligi
europa
europaea
europe
european
europejczykow
europejska
europejski
europejskich
europejskie
europejskiego
europejskiej
europejskim
europie
europy
eurosport
eurovision
eurowizja
eurowizji
euskaltzaindia
ev
eva
evans
eve
event
events
ever
every
everything
evidence
evil
evolution
ew
ewa
ewae
ewakuacji
ewangelia
ewangelicki
ewangelickiego
ewangelicko
ewangelii
ewe
ewelina
ewentualnie
ewentualnych
ewidencji
ewolucja
ewolucji
ewrc
ewy
ex
exchange
exclusive
experience
explorer
expo
express
extended
extra
extragalactic
extreme
ey
eye
eyes
ez
ełk
f
f0
f1
f2
f3
f4
f5
f6
f7
f8
f9
fa
fabian
fabio
fabryce
fabrycy
fabryk
fabryka
fabrykach
fabryke
fabryki
fabularny
fabularnych
fabuła
fabuły
face
facebook
facet
factfinder
facto
factor
factory
facts
fair
faith
fajka
fajke
fajki
fakt
faktem
faktow
faktu
fakty
faktycznie
fal
fala
falach
falami
falcon
fale
fali
fall
falls
false
fame
familia
families
familii
family
famous
famousfix
fan
fanny
fanow
fantastyczna
fantastyczne
fantastyka
fantasy
fantazja
fantazji
fantazya
fantazyi
far
faraon
faraona
farba
farby
farerski
farm
fasada
fasady
fasadzie
fashion
faso
fast
father
fauna
fauny
faz
faza
faze
fazie
fazy
fałdy
fałsz
fałszu
fałszywa
fałszywe
fałszywie
fałszywy
fałszywych
fałszywym
fb
fbi
fc
fd
fe
fear
feat
feature
featuring
february
federacja
federacje
federacji
federal
federalna
federalnego
federalnej
federalni
federation
federico
feel
felicjan
feliks
feliksa
felipe
felix
female
fenomen
fer
ferdinand
ferdynand
ferdynanda
ferenc
ferguson
fernandez
fernando
ferrari
festival
festiwal
festiwalach
festiwalu
ff
fg
fh
fi
fia
fiat
fiba
fiction
fide
fidzi
field
fifa
fig
figaro
fight
fighter
fighting
figur
figura
figure
figurki
figuruje
figury
fiji
fikcyjna
fila
filadelfii
filar
file
files
filharmonii
filia
filialny
filii
filip
filipa
filipin
filipinach
filipiny
filizanke
film
filmach
filmem
filmie
filmoteki
filmow
filmowa
filmowe
filmowego
filmowej
filmowy
filmowych
filmowym
filmpolski
films
filmu
filmweb
filmy
filolog
filologii
filoz
filozof
filozofa
filozofia
filozoficzna
filozoficzne
filozoficznego
filozoficzny
filozoficznych
filozoficznym
filozofie
filozofii
filozofji
filozofow
filozofowie
fin
fina
final
finale
finalista
finals
finanse
finansow
finansowa
finansowania
finansowe
finansowego
finansowej
finansowo
finansowy
finansowych
finansowym
finał
finałach
finałow
finałowego
finałowej
finałowy
finałowym
finału
find
fine
finland
finlandia
finlandii
finn
finska
finski
finskiej
fiodor
firanki
fire
firm
firma
firme
firmie
firmy
first
fis
fischer
fish
fishbase
fisher
fishes
fivb
five
fiz
fizjograficznych
fizjologii
fizyczna
fizyczne
fizycznego
fizycznej
fizycznie
fizyczny
fizycznych
fizycznym
fizyk
fizyka
fizyki
fj
fk
fl
flag
flaga
flage
flagi
flash
fleet
fleksyjna
fleming
flet
fletcher
flight
flocie
flora
florence
florencja
florencji
flores
florian
floriana
florida
flory
floryda
florydzie
flota
flote
floty
flotylla
flotylli
flowering
floyd
fly
flying
fm
fn
fo
focus
foeldeak
fogg
foka
folk
folkminnen
folwark
folwarku
fonetyczne
fontaine
fontanna
fontanny
fontenoy
food
foot
football
footballdatabase
for
forbes
force
forces
ford
forda
foreign
forest
forever
forlag
form
forma
formach
formacie
formacja
formacje
formacji
formalna
formalne
formalnie
formalnosci
formami
format
formation
formatu
forme
former
formie
formowania
formowanie
formula
formule
formuła
formuły
formy
forster
fort
fortecy
fortepian
fortepianie
fortepianu
fortu
fortuna
fortune
fortuny
fortyfikacje
fortyfikacji
forum
forward
fosa
foster
fotel
fotelu
foto
fotograf
fotografia
fotograficzne
fotograficznego
fotograficzny
fotograficznych
fotografie
fotografii
fotoklubu
fototeka
found
foundation
fouquet
four
fox
fp
fq
fr
fra
frac
fragment
fragmentow
fragmentu
fragmenty
frak
frakcji
frana
franc
francais
francaise
france
frances
francesca
francesco
franche
francis
francisco
franciszek
franciszka
franciszkanin
franciszkanow
francja
francje
francji
franco
francois
francuscy
francuska
francuski
francuskich
francuskie
francuskiego
francuskiej
francuskim
francusko
francusku
francuz
francuza
francuzi
francuzka
francuzow
francya
francyi
franek
frank
franka
frankfurcie
frankfurt
franklin
frankow
frantisek
franz
franza
fraser
fraza
frazeologiczne
frazeologiczny
frazowy
fred
frederic
frederick
fredro
fredry
free
freedom
freeman
freestyle
fregata
frekwencja
french
freski
fricke
friday
friedman
friedrich
friedricha
friend
friends
fritz
from
froncie
front
frontem
frontu
frost
fryderyk
fryderyka
fs
ft
fu
fuji
full
fun
function
fund
fundacja
fundacje
fundacji
fundamenty
fundusz
fundusze
funduszu
funduszy
fungi
fungorum
funkcja
funkcje
funkcji
funkcjonariusz
funkcjonariusze
funkcjonariuszy
funkcjonowac
funkcjonowania
funkcjonowanie
funkcjonował
funkcjonowała
funkcjonowało
funkcjonowały
funkcjonuja
funkcjonuje
funt
funta
funtow
fur
fury
futbol
futbolu
futra
futro
future
fuzji
fv
fw
fx
fy
fz
g
g0
g1
g2
g3
g4
g5
g6
g7
g8
g9
ga
gabinecie
gabinet
gabinetu
gabriel
gabriela
gada
gadac
gadaj
gadaja
gadał
gadow
gady
gaga
gaj
gajewski
gaju
gal
gala
galaktyce
galaktyk
galaktyka
galaktyki
galaxy
gale
galeria
galerie
galerii
galeryi
gali
galicji
galicyi
galicyjski
galicyjskiego
galicyjskiej
galilei
galizien
gallery
galopem
gama
game
gamerankings
games
gamespot
gamma
ganek
gang
gankiem
ganku
gaon
gara
garbuska
garcia
garden
gardens
garderoby
gardiner
gardle
gardner
gardła
gardło
gare
garmisch
garnek
garnizon
garnizonu
garsc
garsci
garstka
gary
gas
gaston
gate
gatunek
gatunkami
gatunki
gatunkiem
gatunkow
gatunkowa
gatunkowej
gatunkowy
gatunku
gaun
gay
gaz
gazda
gazecie
gazet
gazeta
gazetach
gazete
gazette
gazetteer
gazety
gazow
gazu
gazy
gałaz
gałazka
gałazki
gałezi
gałeziach
gałezie
gb
gbif
gbrathletics
gc
gcatholic
gd
gdansk
gdanska
gdanski
gdanskie
gdanskiego
gdanskiej
gdanskim
gdansku
gdiplus
gdy
gdyby
gdybym
gdybys
gdybyscie
gdybysmy
gdym
gdyni
gdynia
gdys
gdysmy
gdyz
gdzie
gdzieby
gdzieindziej
gdziekolwiek
gdzieniegdzie
gdzies
gdziez
ge
geba
gebe
geby
gedeon
gemeinde
gen
gender
gene
genealogia
genealogiczne
genera
generacja
generacji
general
generale
generalna
generalnego
generalnej
generalnie
generalny
generalnym
generation
generał
generała
generałem
generałow
generałowie
genericorum
genesis
genewie
geneza
geniusz
genow
genowefa
gentleman
genui
genus
geo
geodecie
geodeta
geodezie
geodezji
geoffrey
geogr
geograf
geografia
geograficzna
geograficzne
geograficznego
geograficznej
geograficzno
geograficzny
geograficznych
geograficznym
geografii
geographic
geographical
geol
geolog
geologia
geologiczne
geologiczny
geologii
geometrii
geoportal
geoportalu
georg
georga
george
georges
georgia
gerald
gerard
gerarda
gerhard
germain
german
germany
germplasm
gertruda
ges
geschichte
gesellschaft
gesi
gest
gesta
gestapo
geste
gestej
gestem
gesto
gestosc
gestosci
gesty
gestych
gestym
get
getamap
getcie
gets
getta
getto
gf
gg
gh
ghost
gi
gia
giacomo
giant
gibson
gier
giełda
giełdzie
gigancie
gigant
gil
gilbert
gilberta
gill
gilles
gimnazjum
gimnazyum
gina
ginac
ginie
giorgio
giovanni
giovanniego
girl
girls
giro
gitara
gitary
gitarze
gitarzysta
giuseppe
give
gj
gk
gks
gl
glasgow
glass
gleb
glebie
gleby
glen
glenn
glina
gliny
gliwicach
gliwice
glob
global
globu
gloger
gloria
glory
gm
gmach
gmachu
gmachy
gmbh
gmin
gmina
gmine
gminie
gminna
gminnego
gminnej
gminny
gminnych
gminy
gmt
gn
gnd
gniazd
gniazda
gniazdo
gniew
gniewa
gniewac
gniewał
gniewem
gniewie
gniewnie
gniewny
gniewu
gniezdzie
gniezna
gnieznie
gnieznienski
gnieznienskiego
gnieznienskiej
gniezno
gnu
go
goal
god
godna
godne
godnego
godnie
godnosc
godnosci
godnoscia
godny
godnym
gods
gody
godz
godzi
godzien
godzilla
godzin
godzina
godzinach
godzinami
godzine
godzinie
godziny
godła
godło
goes
goethe
goethego
gogh
gogin
going
gol
gola
gold
golden
goldman
gole
golf
goli
gomez
gone
goni
gonic
goniec
gonił
gonzaga
gonzalez
good
google
gor
gora
goraca
gorace
goracego
goracej
gorach
goraco
goracy
goracych
goracym
goraczce
goraczka
goraczke
goraczki
goraczkowo
goral
gorale
gorali
gorami
goran
gorce
gordon
gordona
gore
gorka
gorki
gorliwie
gorliwosc
gorna
gorne
gornego
gornej
gornictwa
gornicza
gorniczej
gorniczo
gornik
gornika
gornikow
gorny
gornych
gornym
gorska
gorski
gorskich
gorskie
gorskiego
gorskiej
gorskim
gorsza
gorsze
gorszego
gorszy
gory
gorycz
gorycza
goryczy
gorynski
gorze
gorzej
gorzka
gorzki
gorzkie
gorzko
gorzow
gorzowie
gosc
gosci
goscia
goscie
gosciem
goscinca
goscincu
gosciniec
goscinnie
goscinny
goscinnym
gosciom
goscił
goscmi
gospel
gospoda
gospodarce
gospodarcza
gospodarcze
gospodarczego
gospodarczej
gospodarczy
gospodarczych
gospodarczym
gospodarka
gospodarke
gospodarki
gospodarstw
gospodarstwa
gospodarstwach
gospodarstwie
gospodarstwo
gospodarz
gospodarza
gospodarze
gospodarzem
gospodarzy
gospody
gospodyni
gospodynia
gospodynie
gospodzie
got
goteborg
gotow
gotowa
gotowac
gotował
gotowe
gotowi
gotowosc
gotowosci
gotowy
gotowych
gotuje
gotycka
gotycki
gotyckie
gotyckim
gould
gouv
gov
government
gowarzewski
goya
gozdawa
gołab
gołebie
gołebiowski
gp
gq
gr
gra
graba
grabowski
grac
grace
grach
gracz
gracza
gracze
graczem
graczy
grad
graf
graficzna
graficzne
graficzny
grafik
grafika
grafike
grafiki
graham
graja
grajac
grajaca
grajacego
grajacy
grajacych
grali
gram
gramatyczny
gramatyka
gramatyki
grammy
gran
granat
granatow
grand
grande
grani
grania
granic
granica
granicach
granicami
granice
granicy
graniczna
graniczne
granicznego
granicznej
graniczny
granicznych
granicznym
graniczy
granie
granitu
grant
grave
gray
grazyna
grał
grała
grały
gre
great
greatest
grecja
grecji
grecka
grecki
greckich
greckie
greckiego
greckiej
greckim
greckokatolicka
greco
grecy
greece
greek
green
greene
greenwood
greg
gregor
gregory
grekow
grenadierow
grenlandii
grenoble
grey
griffin
grin
grn
grob
grobach
grobem
grobie
grobow
grobowa
grobowca
grobowcu
grobowiec
grobu
groby
groch
grod
grodek
grodna
grodnie
grodno
grodu
grodzie
grodzienskiego
grodzienskim
grodzisk
grodziska
grodzisko
grodzki
grom
gromad
gromada
gromade
gromadka
gromadki
gromady
gromadzi
gromadzie
gromadzkich
gromadzkiej
gromadzkimi
grona
gronie
grono
gross
grosz
grosza
grosze
groszy
grot
grota
groty
ground
group
grove
groza
grozac
grozba
grozby
grozi
grozic
groził
groziła
groziło
grozna
grozne
groznego
groznie
grozny
groznym
grozy
gruba
grube
grubego
grubej
grubo
grubosc
grubosci
gruby
grubych
grubym
grudnia
grudniu
grudziadz
grudziadzu
grudzien
gruncie
grunt
grunta
gruntow
gruntownej
gruntownie
gruntu
grunty
grup
grupa
grupach
grupami
grupe
grupie
grupowa
grupowej
grupy
gruszczynski
gruszki
gruz
gruzach
gruzinski
gruzja
gruzji
gruzy
gry
gryf
grywał
grzbiecie
grzbiet
grzbietem
grzbietowym
grzbietu
grze
grzebien
grzech
grzechem
grzechow
grzechu
grzechy
grzecznie
grzecznosc
grzecznosci
grzecznoscia
grzeczny
grzegorz
grzegorza
grzegorzg
grzmot
grzyb
grzybow
grzyby
grzywien
grzywny
gs
gt
gu
guadalajara
guardian
guatemala
gubernator
gubernatora
gubernatorem
gubernatorstwa
guberni
gubernia
guide
guido
guillaume
guinea
guitar
gun
gunter
gunther
guru
gus
gust
gustav
gustaw
gustawa
gustu
guy
guza
guzik
guziki
guðmundur
gv
gw
gwar
gwara
gwardia
gwardii
gwardji
gwary
gwatemali
gwałt
gwałtem
gwałtowna
gwałtowne
gwałtownego
gwałtownie
gwałtownoscia
gwałtowny
gwałtownych
gwałtownym
gwałtu
gwiazd
gwiazda
gwiazdami
gwiazde
gwiazdka
gwiazdkowy
gwiazdozbiorze
gwiazdy
gwiezdne
gwinea
gwinei
gx
gy
gz
gzack
gł
głab
gładka
gładki
gładkie
gładko
głaz
głazow
głazy
głebi
głebia
głebie
głebiej
głebin
głeboka
głeboki
głebokich
głebokie
głebokiego
głebokiej
głebokiem
głebokim
głeboko
głebokosc
głebokosci
głod
głodem
głodny
głodu
głogow
głos
głosami
głosem
głosi
głosicieli
głosie
głosił
głosna
głosne
głosniej
głosno
głosny
głosnym
głosow
głosowania
głosowanie
głosowaniu
głosu
głosy
głow
głowa
głowach
głowacki
głowami
głowe
głowie
głowka
głowke
głowki
głowna
głowne
głownego
głownej
głowni
głownie
głowny
głownych
głownym
głownymi
głowy
głucha
głuche
głucho
głuchy
głuchym
głupi
głupia
głupich
głupie
głupiec
głupim
głupio
głupota
głupstwa
głupstwo
h
h0
h1
h2
h3
h4
h5
h6
h7
h8
h9
ha
haag
haas
hab
haben
habilitacje
habilitowanego
habilitowany
habilitował
habsburg
habsburgow
hacienda
had
hadze
hai
haiti
hal
hala
hale
halef
half
halfpipe
hali
halina
hall
halle
hallera
halo
halowe
halowych
ham
hamburg
hamburgu
hamilton
hamlet
hammer
hampshire
han
hana
hanba
hanbe
hanby
hancock
hand
handbook
handbuch
handel
handlarz
handlem
handlowa
handlowe
handlowego
handlowej
handlowo
handlowy
handlowych
handlowym
handlu
hanja
hanka
hanna
hannah
hans
hansa
hansen
hanyu
happy
har
harald
harasimowicz
harbert
harbor
harcerstwa
harcerzy
hard
hardcore
hardy
harmonia
harmonii
harold
harper
harris
harrison
harry
hart
harvard
harvey
has
haseł
hasle
hassan
hastings
hasła
hasłem
hasło
hat
hate
hauts
have
haven
hawk
hayes
hałas
hałasem
hałasu
hb
hbar
hbo
hc
hd
he
head
heads
health
heart
hearts
heat
heather
heaven
heavy
heavyweight
hebr
hebrajski
hebrajskim
hector
heer
heidelberg
heidelbergu
heidi
heinrich
heinricha
heinz
hej
hektarow
hektor
hel
hela
helen
helena
helene
helenka
heleny
helgason
hell
heller
hello
helmut
help
helsinkach
helsinki
helu
hen
henderson
henr
henri
henry
henryk
henryka
henrykh
henrykiem
henryku
hepburna
her
herald
heraldyka
herb
herbarz
herbata
herbate
herbaty
herbem
herbert
herberta
herbie
herbow
herbowa
herbu
herby
hercegowinie
hercegowiny
here
heritage
herkules
herman
hermana
hermann
hernandez
hero
heroes
herschel
het
hetman
hetmana
hey
heyst
hełm
hełmem
hf
hg
hh
hi
hierarchii
hierarchy
hieronim
hieronima
higgins
high
higher
highway
higieny
hilary
hill
hills
him
hindi
hip
hiperonimy
hiphopedia
hipolit
hipolita
hiponimy
hipoteza
hipoteze
hipotezy
his
hist
histoire
historia
historic
historical
historie
historii
historiografii
historja
historje
historji
history
historya
historycy
historyczna
historyczne
historycznego
historycznej
historycznie
historyczno
historyczny
historycznych
historycznym
historye
historyi
historyk
historyka
historykow
hiszp
hiszpan
hiszpania
hiszpanie
hiszpanii
hiszpanji
hiszpanow
hiszpanska
hiszpanski
hiszpanskich
hiszpanskie
hiszpanskiego
hiszpanskiej
hiszpanskim
hit
hitler
hitlera
hitlerowskie
hitlerowskiej
hitparade
hits
hiv
hiztegi
hj
hk
hl
hm
hms
hn
ho
hoc
hockey
hodowla
hodowli
hof
hoffman
hoffmann
hojnie
hokeista
hokej
hokeja
hokeju
hol
hola
holandia
holandii
hold
hole
holender
holenderska
holenderski
holenderskich
holenderskiego
holenderskiej
holland
holly
hollywood
holmes
holocaust
holonimy
holotyp
holstein
holt
holy
home
homer
homera
homme
homo
honda
hong
hongkongu
honor
honoris
honorowa
honorowe
honorowego
honorowej
honorowy
honorowym
honoru
hood
hook
hop
hope
hopkins
hora
horn
horror
horse
horst
horyzoncie
horyzont
horyzontu
hospital
host
hostingasp
hot
hotel
hotele
hoteli
hotelu
hour
house
housing
houston
how
howard
hoyo
hołd
hp
hq
hr
hrabia
hrabianka
hrabiego
hrabiemu
hrabina
hrabine
hrabino
hrabiny
hrabio
hrabiow
hrabstwa
hrabstwie
hrabstwo
hrvatske
hs
ht
htm
html
http
https
hu
huber
hubert
huberta
hucie
hudson
hugh
hughes
hugo
huk
hukiem
huknał
hull
human
humanistycznych
humor
humoru
humorze
hung
hunt
hunter
huragan
hustota
huta
huty
huzarow
hv
hw
hx
hy
hyde
hydra
hydronimy
hymn
hymnu
hymny
hyundai
hz
i
i0
i1
i2
i3
i4
i5
i6
i7
i8
i9
ia
iaaf
iak
iako
ian
iast
iata
iau
ib
ibm
ibn
ibrahim
ibu
ic
icao
ice
ich
icht
id
ida
idac
idaca
idace
idacego
idacy
idacych
ide
idea
idealna
ideał
ideałem
ideałow
ideału
ideały
idee
idei
identyczne
identyczny
identyfikacji
identyfikatory
ideologia
ideologii
ido
idol
idz
idzcie
idzie
idziemy
idziesz
idzmy
ie
iego
iest
iey
if
ifpi
ig
ign
ignacego
ignacy
igor
igrzysk
igrzyska
igrzyskach
igrzyskami
igła
igły
ih
ihf
ihm
ii
iihf
iii
ij
ik
ikona
ikony
il
ile
ilekroc
ilez
ilja
illinois
illustrated
ilosc
ilosci
iloscia
ilosciach
ilu
ilustracje
ilustracji
ilustracyami
ilustrowana
ilustrowany
im
image
images
imc
imdb
imie
imienia
imieniem
imienin
imieniny
imieniu
imiesłow
imigrantow
imion
imiona
impact
imperial
imperium
import
imprez
impreza
imprezach
imprezie
imprezy
ims
in
ina
inaczej
inaturalist
inc
include
ind
indeks
indeksu
indeksy
independent
index
india
indiach
indian
indiana
indianapolis
indianie
indicativo
indie
indii
individual
indjan
indonesia
indonez
indonezji
indonezyjski
indoor
industrial
industry
indyan
indyjska
indyjski
indyjskich
indyjskiego
indyjskiej
indyjskim
indywidualna
indywidualne
indywidualnego
indywidualnej
indywidualnie
indywidualnosci
indywidualny
indywidualnych
indywidualnym
indziej
ine
info
inform
informacja
informacje
informacji
informacyjna
informacyjne
informacyjny
informacyjnych
information
informator
informatyka
informatyki
informuje
infrastructure
infrastruktura
infrastruktury
infty
ing
ingmar
ingrid
inicjatorem
inicjatyw
inicjatywa
inicjatywy
inkardynowany
inn
inna
inne
innego
innej
innem
innemi
innemu
inni
innocenty
innsbruck
innsbrucku
inny
innych
innym
innymi
ino
inowrocław
insee
inside
inskrypcja
inspektor
inspektora
inspektorat
inspektoratu
inspektorem
inspiracja
inspiracje
inspiracji
instalacja
instalacje
instalacji
instancji
institut
instituta
institute
institutet
institution
instituto
institutul
instrukcja
instrukcje
instrukcji
instruktor
instruktorem
instrument
instrumentach
instrumental
instrumentow
instrumentu
instrumenty
instynkt
instynktem
instynktownie
instytucie
instytucja
instytucjach
instytucje
instytucji
instytut
instytutem
instytutu
int
integracji
integrated
intel
inteligencja
inteligencji
inteligentny
intelligence
intencji
intensywne
intensywnie
inter
interactive
interes
interesa
interesach
interesami
interesem
interesie
interesow
interesowac
interesował
interesu
interesujace
interesuje
interesy
interfejs
interfilmes
interia
interlingua
international
internationale
internecie
internet
internetowa
internetowe
internetowej
internetowy
internetowych
internetowym
internetu
internowany
interpress
interpretacja
interpretacje
interpretacji
interview
interwencja
interwencji
into
intro
introduction
intryg
intrygi
inwalidow
inwazja
inwazji
inwentarz
inwestycja
inwestycje
inwestycji
inz
inzynier
inzyniera
inzynierem
inzynieria
inzynierii
inzynierow
io
ioc
ion
iowa
ip
ipa
ipac
ipc
ipn
ipni
iq
ir
ira
irak
iraku
iran
iranie
iranu
irb
ireland
irena
irene
ireneusz
ireny
irina
iris
irish
irlandia
irlandii
irlandzki
irlandzkiego
iron
ironia
ironicznie
ironja
is
isaac
isbn
isc
iscie
isere
isis
iskra
iskry
isl
islam
islamu
island
islandii
islands
islandzki
isle
isni
iso
israel
iss
issf
issn
issue
ist
istituto
istna
istniał
istniała
istniało
istniały
istniec
istnieja
istniejaca
istniejace
istniejacego
istniejacej
istniejacy
istniejacych
istnieje
istnienia
istnienie
istnieniu
istny
istocie
istot
istota
istote
istotna
istotne
istotnie
istotny
istotnych
istotnym
istoty
istvan
isu
it
ita
italia
italian
italiana
italiano
italii
italy
itd
itf
ithaca
itis
itp
its
itunes
iu
iucn
iuz
iv
ivan
iw
iwan
iwana
iwanow
iwanowicz
iwo
iwona
ix
iy
iz
iza
izaak
izabela
izabeli
izabella
izb
izba
izbe
izbie
izby
izdebce
izdebki
izrael
izraela
izraelska
izraelski
izraelskich
izraelskie
izraelskiego
izraelskiej
izraelsko
izraelu
izydor
j
j0
j1
j2
j3
j4
j5
j6
j7
j8
j9
ja
jabym
jabłek
jabłka
jabłko
jabłonowski
jabłonski
jacek
jacekj
jacht
jachtu
jack
jacka
jackal
jackie
jackiem
jackson
jacksona
jacob
jacques
jacy
jacys
jad
jada
jadac
jadacy
jadalnej
jadalni
jade
jadra
jadro
jadrowej
jadrowych
jadwiga
jadwigi
jadzia
jadł
jadła
jadło
jaeger
jagiellonczyka
jagiellonia
jagiellonska
jagiellonskiego
jagiellonskiej
jagiellonskim
jagiełło
jagiełły
jagody
jaguar
jahr
jaj
jaja
jajka
jajko
jajowate
jak
jaka
jakakolwiek
jakas
jakaz
jakby
jakbym
jakbys
jake
jakem
jakesmy
jakgdyby
jaki
jakich
jakichkolwiek
jakichs
jakie
jakiego
jakiegokolwiek
jakiegos
jakiej
jakiejkolwiek
jakiejs
jakiekolwiek
jakiem
jakiemi
jakiems
jakies
jakiez
jakikolwiek
jakim
jakimi
jakimkolwiek
jakims
jakis
jakiz
jakkolwiek
jako
jakob
jakoba
jakoby
jakos
jakosc
jakosci
jakotez
jakoz
jaksa
jakto
jakub
jakuba
jakubj
jakubowski
jakze
jakzez
jam
jama
james
jamesa
jamie
jamy
jan
jana
jane
janeiro
janek
janem
janet
janie
janina
janiny
janj
janka
jankowski
janow
janowi
janowski
januar
january
janusz
janusza
januszj
januszowo
januszpol
jap
japan
japanese
japonczycy
japonczykow
japonia
japonii
japonska
japonski
japonskich
japonskie
japonskiego
japonskiej
japonskim
jar
jardow
jarmark
jarmarku
jarosova
jarosław
jarosława
jarosławiu
jarosławj
jarzmo
jas
jasia
jasiek
jasinski
jaskin
jaskini
jaskinia
jaskinie
jaskrawo
jasna
jasne
jasnego
jasnej
jasnem
jasnie
jasniej
jasniejsze
jasno
jasnosc
jasnosci
jasny
jasnych
jasnym
jason
jastrzab
jastrzebia
jastrzebie
jastrzebiec
jaszczurki
java
javier
jaw
jaweon
jawie
jawnie
jawor
jaworski
jay
jazda
jazde
jazdy
jazyka
jazz
jazzowy
jazzu
jał
jałmuzne
jałmuzny
jb
jc
jd
je
jean
jeana
jeanne
jechac
jechali
jechał
jechała
jeczał
jeden
jedenascie
jedenasta
jedenastej
jedenastu
jedenasty
jedli
jedna
jednak
jednakowe
jednakowo
jednakowoz
jednakze
jedne
jednego
jednej
jednem
jednemu
jedni
jedno
jednoczesnie
jednoczesnym
jednogłosnie
jednolita
jednolitego
jednosc
jednosci
jednostce
jednostek
jednostka
jednostkach
jednostkami
jednostke
jednostki
jednoznacznie
jednych
jednym
jedrzej
jedwabiu
jedwabna
jedwabne
jedyna
jedyne
jedynego
jedynej
jedynem
jedynie
jedynka
jedyny
jedynym
jedynymi
jedz
jedza
jedzenia
jedzenie
jedzie
jedziemy
jedziesz
jedzmy
jeff
jefferson
jeffrey
jego
jegomosc
jegomosci
jehowy
jej
jejmosc
jek
jeki
jekiem
jeknał
jelcz
jelen
jelena
jelenia
jeleniej
jelita
jemu
jenca
jencow
jency
jenerał
jenerała
jeniec
jenkins
jennifer
jenny
jeno
jens
jensen
jeremy
jerome
jerozolima
jerozolimie
jerozolimy
jerry
jersey
jerusalem
jeruzalem
jerzego
jerzy
jerzyj
jerzym
jesc
jesien
jesieni
jesienia
jesienna
jesienne
jesiennej
jesienny
jesli
jesliby
jesse
jessica
jest
jestem
jestes
jestescie
jestesmy
jestto
jestze
jesus
jeszcze
jet
jewgienij
jewish
jez
jezdzca
jezdzcow
jezdzcy
jezdzi
jezdzic
jezdzie
jezdziec
jezdził
jezeli
jezeliby
jezik
jezior
jeziora
jeziorach
jeziorem
jezioro
jeziorze
jezli
jezu
jezuici
jezuita
jezuitow
jezus
jezusa
jezusowego
jezyk
jezyka
jezykach
jezykami
jezyki
jezykiem
jezykow
jezykowa
jezykowe
jezykowej
jezykowych
jezykoznawca
jezykoznawstwa
jezyku
jeła
jf
jg
jh
ji
jidysz
jim
jima
jimmy
jin
jiri
jiten
jj
jk
jl
jm
jn
jo
joachim
joachima
joan
joanna
joannaj
joanne
joanny
joao
job
jobling
joe
joel
joey
johan
johann
johanna
johannes
johansson
john
johna
johnem
johnj
johnny
johns
johnson
johnsona
join
joins
joint
jolanta
jon
jonas
jonathan
jones
jonesa
jonow
jordan
jordana
jordanii
jorge
jork
jorku
jos
jose
josef
joseph
josepha
josh
joshua
jougan
journal
journey
jowisz
jowisza
joy
joyce
jozef
jozefa
jozefem
jozefie
jozefj
jozefowi
jozia
jozio
jp
jpg
jpl
jq
jr
js
jt
ju
juan
juana
juarez
jubileusz
jubileuszowy
jubileuszu
judaizmu
judete
judith
judo
judoinside
judoka
judy
jugosławia
jugosławii
julek
jules
julia
julian
juliana
julie
julii
julio
julius
juliusz
juliusza
julja
juljan
juljana
julka
july
jump
jumping
jun
june
jung
junior
juniorek
juniorow
juniors
juniorski
juniorskich
juniorskiej
jura
jurczak
jurek
jurgen
jurgiel
jurij
jury
jurysdykcji
jusci
juss
just
justice
justin
justowska
justyn
justyna
jutra
jutro
juventus
juz
juzci
juzem
jv
jw
jx
jy
jz
jɛ
k
k0
k1
k2
k3
k4
k5
k6
k7
k8
k9
ka
kabaret
kabina
kabiny
kac
kacala
kacie
kacper
kaczka
kaczki
kaczmarek
kaczmarski
kaczynski
kaczynskiego
kadencja
kadencje
kadencji
kadetow
kadr
kadra
kadry
kadrze
kadłub
kadłuba
kaftan
kai
kairze
kaiser
kaj
kajdany
kajetan
kajuty
kal
kalendarium
kalendarz
kalendarza
kalendarzu
kalibru
kalifornia
kalifornii
kalina
kalinowski
kaliski
kaliskiego
kaliskiej
kalisz
kalisza
kaliszu
kambodzy
kamen
kamera
kameralna
kamerdyner
kamery
kamien
kamieni
kamienia
kamieniach
kamieniami
kamienic
kamienica
kamienice
kamienicy
kamienie
kamieniem
kamieniu
kamienna
kamienne
kamiennego
kamiennej
kamienny
kamiennych
kamiennym
kamil
kamila
kaminski
kamionka
kampania
kampanie
kampanii
kan
kanada
kanady
kanadyjska
kanadyjski
kanadyjskiego
kanadyjskiej
kanadzie
kanale
kanapie
kanapy
kanał
kanałem
kanałow
kanału
kanały
kancelaria
kancelarii
kancelarji
kancelaryi
kanclerz
kanclerza
kanclerzem
kandydaci
kandydat
kandydata
kandydatem
kandydatow
kandydature
kandydował
kane
kangxi
kania
kanon
kanonicznego
kanonik
kanonika
kanonikow
kansas
kant
kantonie
kantor
kanwa
kapela
kapelan
kapelusz
kapelusza
kapelusze
kapeluszem
kapeluszu
kapiel
kapieli
kapitalizmu
kapitan
kapitana
kapitanem
kapitanie
kapitanowi
kapitał
kapitału
kapitały
kapitulacji
kapituła
kapituły
kaplica
kaplice
kaplicy
kapliczka
kapliczki
kappa
kapral
kaprys
kapucynow
kapusta
kapusty
kapłan
kapłana
kapłanem
kapłani
kapłanow
kapłanskie
kar
kara
karabin
karabinow
karabinu
karabiny
karac
karaibow
karate
karcie
karczma
karczmie
karczmy
kard
kardynał
kardynała
kardynałem
kardynałow
kare
karel
karen
kareta
karety
kariera
kariere
kariery
karierze
kark
karku
karl
karla
karlsruhe
karmelitow
karmic
karne
karnego
karny
karnych
karnym
karol
karola
karolem
karolina
karoliny
karolowi
karpat
karpatach
karpaty
kart
karta
kartach
karte
kartek
kartka
kartke
kartki
kartofle
kartofli
kartograficzne
kartografie
kartografii
karty
kary
karze
karzeł
kas
kasa
kase
kasia
kasie
kask
kaska
kasper
kasprowicz
kassel
kastylii
kasy
kasza
kaszel
kasztelan
kasztelana
kasztelanowa
kaszub
kaszubska
kaszubski
kat
kata
katach
katalog
katalogu
katalonii
katalonski
katarzyna
katarzynak
katarzyne
katarzyny
katastra
katastrofa
katastrofie
katastrofy
kate
katedra
katedralnej
katedre
katedry
katedrze
kategoria
kategoriach
kategorie
kategorii
katem
katherine
katie
katolicka
katolicki
katolickich
katolickie
katolickiego
katolickiej
katolickim
katolicy
katolicyzm
katolik
katolikow
katow
katowic
katowicach
katowice
katowickiego
katowickiej
katy
katyn
katyniu
katynskiej
kaukazu
kaw
kawa
kawaler
kawalera
kawalerem
kawaleria
kawalerii
kawalerow
kawalerowie
kawalerski
kawalerskim
kawał
kawałek
kawałka
kawałki
kawałkiem
kawałkow
kawe
kawiarni
kawiarnia
kawy
kay
kaz
kaza
kazac
kazachski
kazachstan
kazachstanie
kazachstanu
kazali
kazan
kazania
kazanie
kazaniu
kazano
kazał
kazała
kazałem
kazda
kazde
kazdego
kazdej
kazdem
kazdemu
kazdy
kazdym
kaze
kazesz
kazimiera
kazimierz
kazimierza
kazimierzk
kazimierzu
kazmierz
kazni
kaznodzieja
kb
kc
kd
ke
kedy
kedys
keep
keith
keller
kelly
kelner
ken
kenii
kennedy
kenneth
kenny
kent
kentucky
kepa
kepy
kes
ketrzyn
kevin
kew
key
keyboard
keys
kf
kg
kgb
kh
khan
khl
ki
kia
kibic
kibicow
kibucu
kichot
kick
kid
kids
kiedy
kiedykolwiek
kiedym
kiedys
kiedysmy
kiedyz
kiej
kielc
kielcach
kielce
kieleckiego
kieleckiej
kieleckim
kielich
kielicha
kieliszek
kier
kierowac
kierowana
kierowane
kierowania
kierowanie
kierowany
kierował
kierowała
kierowca
kierowcow
kierowcy
kierownictwa
kierownictwem
kierownictwo
kierownicy
kierownik
kierownika
kierownikiem
kierujac
kieruje
kierunek
kierunkach
kierunki
kierunkiem
kierunkow
kierunku
kieszen
kieszeni
kieszeniach
kieszenie
kieszonkowy
kij
kijem
kijow
kijowa
kijowie
kijowski
kijowskiego
kijowskiej
kilka
kilkadziesiat
kilkakroc
kilkakrotnie
kilkanascie
kilkaset
kilkoma
kilkoro
kilku
kilkudziesieciu
kilkukrotnie
kilkunastu
kilkuset
kill
killed
killer
kilogramow
kilograms
kilometrow
kim
kims
kin
kina
kind
king
kinga
kingdom
kings
kingston
kinie
kino
kioto
kirk
kiss
kit
kiti
kiwajac
kiwał
kiwnał
kj
kk
kl
klacz
kladu
klan
klanu
klara
klarnet
klary
klas
klasa
klasach
klase
klasie
klasy
klasyczna
klasyczne
klasycznego
klasycznej
klasyczny
klasycznych
klasycznym
klasyfikacja
klasyfikacje
klasyfikacji
klasyfikowany
klasztor
klasztorem
klasztorne
klasztorny
klasztornych
klasztorow
klasztoru
klasztory
klasztorze
klatce
klatka
klatke
klatki
klatwa
klatwy
klaus
klawiszowe
klał
klein
klejnot
klejnotow
klejnoty
klemens
klemensa
kleopatra
klesce
klesk
kleska
kleske
kleski
klient
klienta
klientow
kliknij
klimacie
klimat
klimatu
klinice
klinika
kliniki
klip
klon
klotylda
klub
klubach
klubem
klubie
klubow
klubowe
klubowych
klubu
kluby
klucz
klucza
klucze
kluczem
kluczowa
kluczowe
kluczowych
kluczy
km
kmdr
kmicic
kn
knesetu
kniaz
knight
know
knowledge
known
ko
koalicja
koalicje
koalicji
kobieca
kobiece
kobiecego
kobiecej
kobiecie
kobiecy
kobiecych
kobiet
kobieta
kobietach
kobietami
kobiete
kobietom
kobiety
koch
kocha
kochac
kochaj
kochaja
kochali
kocham
kochamy
kochana
kochane
kochanek
kochania
kochanie
kochanka
kochanke
kochanki
kochankiem
kochankow
kochankowie
kochanku
kochanowski
kochanowskiego
kochany
kochasz
kochał
kochała
kochałam
kochałem
kocioł
kod
kodeks
kodeksu
kodow
kodowanie
kodu
kody
kogo
kogokolwiek
kogos
kogoz
kogut
kol
kolacje
kolacji
kolan
kolana
kolanach
kolano
kolarstwie
kolarstwo
kolarz
kolce
kole
kolebki
koleda
koledzy
kolega
kolegami
kolege
kolegi
kolegium
kolegow
kolei
kolej
koleja
kolejce
koleje
kolejka
kolejki
kolejna
kolejne
kolejnego
kolejnej
kolejno
kolejnosc
kolejnosci
kolejny
kolejnych
kolejnym
kolejnymi
kolejowa
kolejowe
kolejowego
kolejowej
kolejowy
kolejowych
kolejowym
kolekcja
kolekcje
kolekcji
koln
kolokacje
kolonia
kolonie
kolonii
kolonistow
kolor
kolorach
kolorado
kolorem
kolorow
kolorowe
kolorowych
koloru
kolory
kolorze
kolumbia
kolumbii
kolumn
kolumna
kolumnach
kolumnami
kolumne
kolumnie
kolumny
kom
komanczow
komandor
komandora
komandorski
komandorskim
kombatantow
kombi
kombinacja
kombinacje
kombinacji
komedia
komedii
komediowy
komedji
komedyi
komenda
komendant
komendanta
komendantem
komende
komendy
komentarz
komentarze
komet
kometa
komety
komik
komiks
komiksow
komiksu
komin
komina
kominie
kominka
kominku
komisariat
komisariatu
komisarz
komisarza
komisarzem
komisarzy
komisja
komisje
komisji
komitecie
komitet
komitetow
komitetu
komnacie
komnaty
komor
komora
komorek
komorka
komorkach
komorki
komorkowej
komornik
komorowski
komorowskiego
komory
komorze
kompania
kompanie
kompanii
kompetencje
kompetencji
kompilacja
kompilacji
kompleks
kompleksie
kompleksu
kompletna
kompletnie
komplett
kompozycja
kompozycje
kompozycji
kompozytor
kompozytora
kompozytorka
kompozytorow
komputer
komputera
komputerow
komputerowa
komputerowe
komputerowej
komputerowych
komputery
komu
komunalnych
komunalnym
komunikacja
komunikacje
komunikacji
komunikacyjne
komunikacyjnych
komunikat
komunikaty
komunisci
komunistow
komunistyczna
komunistyczne
komunistycznego
komunistycznej
komunistyczny
komunistycznych
komunizm
komunizmu
komus
kon
konca
koncach
konce
koncem
koncentracji
koncentracyjnego
koncentracyjnych
koncentruje
koncepcja
koncepcje
koncepcji
koncercie
koncern
koncernu
koncert
koncertach
koncertow
koncertowa
koncertował
koncertowej
koncertowy
koncertu
koncerty
koncie
koncow
koncowa
koncowe
koncowej
koncowka
koncowki
koncowy
koncowym
koncu
koncza
konczac
konczy
konczyc
konczyn
konczyny
konczył
konczyła
kondracki
kondygnacje
kondygnacji
konfederacja
konfederacji
konferencja
konferencje
konferencji
konfiguracji
konflikcie
konflikt
konfliktow
konfliktu
konflikty
konfrontacji
kong
konga
kongo
kongregacji
kongres
kongresie
kongresu
koni
konia
koniach
konie
koniec
konieczna
konieczne
koniecznie
koniecznosc
koniecznosci
koniecznoscia
konieczny
koniem
konin
koniom
koniu
koniugacja
konjugation
konklawe
konkretne
konkretnego
konkretnych
konkurencja
konkurencjach
konkurencje
konkurencji
konkurs
konkursach
konkursie
konkursow
konkursu
konkursy
konmi
konna
konnej
konno
konny
konnych
konopnicka
konopnickiej
konrad
konrada
konsekrowany
konsekwencja
konsekwencje
konsekwencji
konsekwentnie
konserwacji
konserwator
konserwatorium
konserwatywna
konserwatywnej
konskich
konskie
konsole
konsoli
konsorcjum
konspiracji
konspiracyjna
konstancja
konstantego
konstantin
konstanty
konstantyn
konstantyna
konstantynopola
konstantynopolu
konstrukcja
konstrukcje
konstrukcji
konstruktor
konstruktorow
konstytucja
konstytucje
konstytucji
konstytucyjnego
konsul
konsula
konsulat
konsumentow
kontakt
kontaktow
kontaktu
kontakty
kontekscie
kontent
konto
kontra
kontrabas
kontrakt
kontraktu
kontrast
kontrola
kontrole
kontroli
kontrolna
kontrowersje
kontuzji
kontynencie
kontynentalnego
kontynentu
kontynuacja
kontynuacje
kontynuacji
kontynuowac
kontynuował
kontynuowała
konwencja
konwencji
konwentu
konwoj
konwulsyjnie
kop
kopa
kopac
kopaln
kopalni
kopalnia
kopalniach
kopalnie
kopenhadze
kopenhaga
kopernik
kopernika
koperte
kopia
kopie
kopiec
kopii
kopuła
kopuły
kopy
kopyt
kopyta
kor
kora
koranu
korczak
korea
korean
koreanski
koreanskiej
korei
korekt
korespondencja
korespondencje
korespondencji
korespondent
korespondentem
kornik
koron
korona
koronacji
korone
koronie
koronki
koronnego
koronnej
koronny
koronnych
korony
korporacji
korpus
korpusem
korpusie
korpusu
kortach
korwin
kory
koryta
korytarz
korytarza
korytarzu
koryto
korzen
korzeni
korzeniami
korzenie
korzysc
korzysci
korzysta
korzystac
korzystaja
korzystajac
korzystali
korzystania
korzystanie
korzystał
korzystne
kos
kosa
kosc
kosci
kosciele
koscielna
koscielne
koscielnego
koscielnej
koscielny
koscielnych
koscielnym
koscioł
koscioła
kosciołach
kosciołek
kosciołem
kosciołow
kosciołowi
koscioły
kosciuszki
kosciuszko
kosmiczna
kosmiczne
kosmicznego
kosmicznej
kosmiczny
kosmicznych
kosmos
kosmosu
kosowa
kostek
kostiumy
kostka
kostke
kostki
kosy
kosz
kosza
koszalin
koszalinie
koszalinskiej
koszalinskim
koszar
koszarach
koszary
koszt
koszta
kosztem
kosztow
kosztowac
kosztował
kosztowała
kosztowało
kosztowne
kosztownosci
kosztuje
koszty
koszula
koszule
koszuli
koszyk
koszykarka
koszykarz
koszykowce
koszykowka
koszykowki
kot
kota
kotlina
kotlinie
kotliny
kotow
kotwice
koty
kotła
kotłow
kotły
kowal
kowala
kowalczyk
kowalska
kowalski
kownie
koz
koza
kozacy
kozak
kozakow
kozioł
kozle
kozy
kozła
kozłowski
koł
koła
kołach
kołek
kołem
kołka
kołko
kołku
kołnierz
koło
kołobrzeg
kołobrzegu
kołowym
kp
kpp
kpr
kpt
kpzr
kq
kr
kradziez
kradziezy
krag
krain
kraina
kraine
krainie
krainy
kraj
krajach
krajami
kraje
krajem
krajewski
krajobraz
krajobrazowego
krajobrazowy
krajobrazu
krajow
krajowa
krajowe
krajowego
krajowej
krajowi
krajowy
krajowych
krajowym
kraju
krak
krakow
krakowa
krakowie
krakowska
krakowski
krakowskich
krakowskie
krakowskiego
krakowskiej
krakowskiem
krakowskim
krakowsko
kramer
krancu
krasinskiego
krasnowolski
kraszewski
kraszewskiego
krata
krater
kratky
kraty
krausa
krawczyk
krawedz
krawedzi
krawiec
kraza
krazek
krazenia
krazownik
krazowniki
krazownikow
krazy
krazyły
kreacji
krecac
kreci
krecic
krecił
krecz
kredyt
kredytu
kregi
kregow
kregu
kreis
kreowany
kres
kresach
kresek
kresow
kresowych
kresu
kresy
kreta
krew
krewna
krewnego
krewni
krewny
krewnych
krewnym
kriegsmarine
krnlk
krok
krokami
kroki
krokiem
krokow
kroku
krol
krola
krolem
krolestwa
krolestwem
krolestwie
krolestwo
krolewcu
krolewicz
krolewicza
krolewna
krolewska
krolewski
krolewskich
krolewskie
krolewskiego
krolewskiej
krolewskim
krolik
krolikowski
krolow
krolowa
krolowe
krolowej
krolowi
krolowie
krolu
kronice
kronik
kronika
kroniki
kropel
kropki
kropla
kroplami
krople
kropli
krosnie
krosno
krotka
krotki
krotkich
krotkie
krotkiego
krotkiej
krotkiem
krotkim
krotko
krotkometrazowy
krotnie
krotny
krotsza
krotsze
krotszy
krow
krowa
krowe
krowy
krs
krucyfiks
kruk
krwawa
krwawe
krwawej
krwawo
krwawy
krwawych
krwi
krwia
kryc
kryjac
kryje
kryjowki
krym
krymie
kryminalne
krymu
krynica
krynicy
krystian
krystyna
krystyny
kryształy
kryteria
kryteriow
kryterium
kryty
krytyce
krytycy
krytyczna
krytyczne
krytycznej
krytycznie
krytyczny
krytyk
krytyka
krytyke
krytyki
krytykow
krytykował
kryzys
kryzysu
krył
krzak
krzakach
krzakami
krzaki
krzakow
krzeseł
krzesle
krzesła
krzesło
krzew
krzewow
krzewy
krzyczac
krzyczał
krzyczała
krzyczec
krzyczeli
krzyczy
krzyk
krzyki
krzykiem
krzyknał
krzykneła
krzyku
krzysztof
krzysztofa
krzysztofem
krzysztofk
krzywa
krzywda
krzywde
krzywdy
krzywe
krzyz
krzyza
krzyzackiego
krzyzacy
krzyzakow
krzyze
krzyzem
krzyzowa
krzyzowej
krzyzu
krzyzyk
ks
ksawerego
ksawery
ksiadz
ksiag
ksiazat
ksiazce
ksiaze
ksiazeca
ksiazecej
ksiazecia
ksiazecy
ksiazecych
ksiazek
ksiazeta
ksiazk
ksiazka
ksiazkach
ksiazkami
ksiazke
ksiazki
ksiaznica
ksiecia
ksieciem
ksieciu
ksiedza
ksiedze
ksiedzem
ksiedzu
ksiega
ksiegach
ksiegarni
ksiegarnia
ksiege
ksiegi
ksiestwa
ksiestwem
ksiestwie
ksiestwo
ksieza
ksieze
ksiezna
ksiezne
ksieznej
ksiezniczka
ksiezniczke
ksiezniczki
ksiezny
ksiezy
ksiezyc
ksiezyca
ksiezycu
ksng
ksw
kształcenia
kształcenie
kształcie
kształcił
kształt
kształtach
kształtem
kształtow
kształtowania
kształtowanie
kształtu
kształty
kt
kto
ktoby
ktokolwiek
ktora
ktoraby
ktoras
ktore
ktoreby
ktoredy
ktorego
ktoregos
ktorej
ktorem
ktoremi
ktoremu
ktoren
ktory
ktoryby
ktorych
ktorym
ktorymi
ktorys
ktorzy
ktorzyby
ktos
ktoz
ktozby
ku
kuba
kubanski
kubek
kubiak
kubie
kubitsky
kubus
kuby
kucharka
kucharz
kuchni
kuchnia
kuchnie
kujawski
kujawsko
kukurydzy
kul
kula
kulami
kule
kulesza
kuli
kulin
kult
kultu
kultur
kultura
kulturalna
kulturalne
kulturalnego
kulturalnej
kulturalno
kulturalny
kulturalnych
kulturalnym
kulture
kulturowa
kulturowe
kulturowego
kulturowej
kulturowych
kultury
kulturze
kun
kunst
kup
kupa
kupca
kupcow
kupcy
kupe
kupi
kupic
kupie
kupiec
kupił
kupiła
kupiłem
kupna
kupno
kupowac
kupuje
kupy
kur
kura
kurek
kuria
kurier
kurii
kurjer
kurs
kursach
kursie
kurskim
kursow
kursu
kursuja
kursy
kursywa
kurt
kury
kurz
kurzu
kurzynski
kutno
kutowa
kuziemko
kuzni
kuznia
kuzyn
kuzyna
kuzynie
kuzynka
kuzynki
kv
kw
kwadrans
kwadrat
kwadratowa
kwadratowych
kwadratu
kwalifikacjach
kwalifikacje
kwalifikacji
kwalifikacyjnej
kwalifikant
kwantowej
kwartalnik
kwartał
kwartet
kwas
kwasow
kwasu
kwatera
kwatery
kwaterze
kwestia
kwestie
kwestii
kwestja
kwestje
kwestji
kwestya
kwestye
kwestyi
kwi
kwiat
kwiatach
kwiatami
kwiatek
kwiatem
kwiatki
kwiatkowski
kwiatow
kwiatowe
kwiatu
kwiaty
kwiecie
kwiecien
kwiecinski
kwietnia
kwietniu
kwitnie
kwota
kwote
kwoty
kx
ky
kyle
kz
kładac
kładzie
kładł
kłamac
kłamie
kłamstwa
kłamstwem
kłamstwo
kłaniajac
kłaniał
kłasc
kłeby
kłodzka
kłodzkiej
kłodzko
kłodzku
kłopot
kłopotow
kłopotu
kłopoty
kłosy
kłotni
kłotnie
kłusem
kɔ
l
l0
l1
l2
l3
l4
l5
l6
l7
l8
l9
la
laan
lab
labirynt
laboratorium
laboratory
lac
lacher
lad
lada
ladies
ladowa
ladowania
ladowanie
ladowe
ladowych
ladu
lady
ladzie
lahti
lake
lalek
lalka
lalki
lam
lama
lambda
lambert
lamp
lampa
lampart
lampe
lampka
lampy
lan
lancaster
lance
land
landesamt
landkreis
lane
lang
lange
language
languages
lara
large
larry
lars
larwy
las
lasach
lasami
lasek
lasem
laska
laske
laski
lasku
lasow
last
lasu
lasy
laszlo
lat
lata
latac
latach
latami
latarni
latarnia
latarnie
late
latem
latin
lato
latosinski
latter
laty
launch
laura
laureaci
laureat
laureatem
laureatka
laureatow
lauren
laurence
laurent
laury
law
lawrence
lazurowe
lb
lc
lccn
ld
le
lea
lead
leader
leaders
league
learning
least
leben
lec
leca
lech
lecha
lechia
leci
lecia
leciał
leciały
lecie
leciec
lecz
leczenia
leczenie
leczeniu
lecznicza
lecznicze
leczniczych
leczyc
led
ledwie
ledwo
lee
leeds
left
leg
legacy
legales
legend
legenda
legende
legends
legendy
legia
legii
legion
legionistow
legionow
legionu
legnica
legnicy
legum
leicester
leichtathletik
leiden
leigh
leipzig
lek
leka
lekac
lekajac
lekam
lekarka
lekarska
lekarski
lekarskich
lekarskie
lekarskiego
lekarskiej
lekarskim
lekarstwa
lekarstwo
lekarz
lekarza
lekarze
lekarzem
lekarzy
lekał
lekcja
lekcje
lekcji
lekcye
leki
lekiem
lekka
lekki
lekkich
lekkie
lekkiego
lekkiej
lekkim
lekko
lekkoatleta
lekkoatletka
lekkoatletyce
lekkoatletycznych
lekkoatletyka
lekow
leksikon
leksykon
lektor
lektury
leku
len
lena
lenin
lenina
leningradzie
leniwie
leo
leon
leona
leonard
leonarda
leonardo
leone
leonid
leopold
leopolda
lepiej
lepsi
lepsza
lepsze
lepszego
lepszej
lepszy
lepszych
lepszym
leqslant
les
lescharts
lesie
leslie
lesna
lesne
lesnego
lesnej
lesnictwa
lesniczowka
lesny
lesnych
lesnym
leszczynski
leszczynskiego
leszek
leszka
lesznie
leszno
lesław
let
leta
letni
letnia
letnich
letnie
letniego
letniej
letnim
letter
letters
level
levi
levy
lew
lewa
lewandowski
lewe
lewego
lewej
lewica
lewicy
lewin
lewis
lewo
lewy
lewym
lex
lexikon
lexin
leza
lezac
lezaca
lezace
lezacego
lezacej
lezacy
lezacych
lezacym
lezał
lezała
lezało
lezały
lezec
lezeli
lezy
lf
lg
lgbt
lh
li
lib
liban
libanie
libanu
liber
liberalna
liberalnej
libertadores
liberty
libii
library
libris
lica
lice
licencja
licencje
licencji
license
liceum
licha
licho
licz
licza
liczac
liczaca
liczace
liczacy
liczb
liczba
liczbach
liczbe
liczbie
liczby
licze
liczebnik
liczebniki
liczebnosc
liczebnosci
liczna
liczne
liczni
licznie
liczny
licznych
licznym
licznymi
liczy
liczyc
liczył
liczyła
liczyło
liczyły
lider
lidera
liderem
liderow
liderzy
lidia
lidze
liege
lietuviu
life
lig
liga
lige
light
lights
ligi
ligowe
ligowy
ligowych
ligowym
ligue
lih
like
likwidacja
likwidacje
likwidacji
lil
lili
lilia
liliput
lille
lillehammer
lily
lim
lima
limit
limited
limits
lin
lina
lincoln
linda
linde
lindl
lindsay
line
lines
lingard
lingua
linia
liniach
liniami
linie
linii
liniowa
liniowej
liniowych
linja
linje
linji
link
linked
linkiem
linnaeus
linux
liny
lion
lions
lip
lipa
lipca
lipcu
lipiec
lipinski
lipsk
lipsku
lipy
lis
lisa
lisc
lisci
liscia
lisciach
lisciastych
liscie
lisciowa
lisciowy
liscmi
list
lista
listach
listal
listami
liste
listem
listki
listkow
listopad
listopada
listopadowego
listopadzie
listow
lists
listu
listy
lisy
lit
liter
litera
literacka
literacki
literackich
literackie
literackiego
literackiej
literackim
literacko
literami
literat
literatow
literatura
literature
literatury
literaturze
litere
litery
litewska
litewski
litewskich
litewskie
litewskiego
litewskiej
litewskim
litewsko
litosc
litosci
litoscia
litra
litrow
little
liturgiczne
liturgii
litwa
litwe
litwie
litwinow
litwy
liu
live
liverpool
liverpoolu
lives
living
liwrow
liza
lizbonie
lj
lk
ll
lloyd
lm
ln
lnb
lo
loara
loary
local
locales
localitati
loch
lochu
locie
lod
lodem
lodomerii
lodomeryi
lodow
lodowa
lodowiec
lodu
lody
lodz
lodzie
log
logan
logika
logiki
logo
lokaj
lokaja
lokal
lokalizacja
lokalizacje
lokalizacji
lokalna
lokalne
lokalnego
lokalnej
lokalnie
lokalny
lokalnych
lokalnym
lokalu
lokata
lokate
lokaty
lokomotyw
lokomotywa
lokomotywy
lola
lombardia
london
londyn
londynie
londynskiego
londynu
lonely
long
look
lopez
lord
lorda
lordow
lorenzo
los
losach
losem
losie
losow
losowanie
losowi
lost
losu
losy
lot
lotach
lotaryngii
lotem
lotnictwa
lotnictwo
lotnicza
lotnicze
lotniczego
lotniczej
lotniczy
lotniczych
lotniczym
lotnikow
lotniska
lotnisko
lotnisku
lotow
lotu
lotus
loty
lou
louis
louisa
louise
lourdes
love
low
lower
lozy
lp
lq
lr
ls
lsid
lt
ltd
lu
lub
luba
lubelska
lubelski
lubelskie
lubelskiego
lubelskiej
lubelskim
lubi
lubia
lubicz
lubie
lubimyczytac
lubin
lubisz
lubił
lubiła
lublin
lublina
lublinie
lubo
lubomirski
lubomirskiego
lubuskiego
lubuskim
luc
luca
lucas
lucia
lucjan
lucjana
lucky
lucy
lucyna
lud
ludem
ludmiła
ludnosc
ludnosci
ludnoscia
ludow
ludowa
ludowe
ludowego
ludowej
ludowi
ludowy
ludowych
ludowym
ludu
ludwig
ludwiga
ludwik
ludwika
ludwiki
ludwiku
ludy
ludzi
ludziach
ludzie
ludziom
ludzka
ludzki
ludzkich
ludzkie
ludzkiego
ludzkiej
ludzkiem
ludzkim
ludzkosc
ludzkosci
ludzmi
lufa
luftwaffe
lufy
luigi
luis
luisa
luiza
luka
lukas
luke
luki
luksemburg
luksemburga
luksemburgu
luksemburski
luna
lupin
lustra
lustro
lutego
lutra
luty
lutym
lv
lw
lwa
lwow
lwowa
lwowie
lwowska
lwowski
lwowskich
lwowskiego
lwowskiej
lwowskim
lwy
lx
ly
lynch
lynn
lynx
lyon
lz
lzej
m
m0
m1
m2
m3
m4
m5
m6
m7
m8
m9
ma
mabberley
mac
macdonald
macedonia
macedonii
macedonski
machina
machinalnie
machine
machnał
macicy
macie
maciej
macieja
maciejm
maciek
macierz
macierzy
macierzystego
macierzystej
macierzystym
macius
macko
macmillan
macocha
mad
madagaskaru
madagaskarze
madame
made
madeleine
madison
madonna
madonny
madra
madre
madrego
madrid
madrosc
madrosci
madry
madrycie
madryt
madrytu
madrze
madzia
mafia
mag
magazine
magazyn
magazynie
magazynow
magazynu
magazyny
magda
magdalena
magdaleny
magia
magic
magiczne
magii
magister
magisterium
magisterskie
magistra
magnetycznego
magnum
magnus
magyar
mahomet
mahometa
mai
maia
maiden
mail
main
maine
maj
maja
majac
majaca
majace
majacego
majacej
majacy
majacych
majacym
majatek
majatki
majatkiem
majatkow
majatku
majdan
majestat
majestatu
majetnosci
majewski
major
majora
majorem
majster
maju
mak
maka
make
makes
maki
making
makowski
maks
maksym
maksymalna
maksymalnej
maksymalnie
maksymalny
maksymilian
maksymiliana
mal
mala
malarka
malarstwa
malarstwie
malarstwo
malarz
malarza
malarze
malarzem
malarzy
malawi
malcie
malcolm
malczyce
male
malec
malenka
malenki
malenkie
malezji
mali
malinowski
malmo
malowac
malowane
malowania
malowany
malował
malowała
malowidła
malta
maltanski
malty
maluje
malwina
mam
mama
mame
mamie
mammal
mammals
mamo
mamusia
mamy
man
management
manager
manche
manchester
mandat
mandatow
mandatu
mandaty
manewr
manfred
manga
mangi
manhattan
mania
manifest
mann
mans
manteuffla
manual
manuel
manuela
many
mao
map
mapa
mapach
mape
mapie
mapka
maps
mapy
mar
mara
marathon
maraton
marc
marca
marcel
marcela
marceli
march
marcin
marcina
marcinm
marco
marcu
marcus
mare
marek
marekm
margaret
margrabia
margrabiego
margrabina
mari
maria
mariam
marian
mariana
marianna
mariano
marie
marii
marilyn
marina
marine
marino
mario
marion
maritime
mariusz
marja
marji
marjusz
mark
marka
market
marketing
marketingu
marki
markiem
markiewicz
markiz
markiza
marko
markowski
marks
marksa
markus
marmur
marmuru
marna
marne
marnie
maroka
maroko
mars
marsa
marshall
marsylii
marsz
marszałek
marszałka
marszałkiem
marszu
marta
martha
martin
martina
martinez
martwa
martwe
martwego
martwi
martwy
martwych
martwym
marty
martyna
marvel
marx
mary
marya
maryi
maryja
maryla
maryland
marynarce
marynarka
marynarki
marynarz
marynarza
marynarze
marynarzy
marynia
marysia
marzec
marzen
marzena
marzenia
marzeniach
marzenie
marzeniem
marzy
marzyc
marzył
mas
masa
masakra
masakry
mase
masie
maska
maske
maski
masle
mason
masowa
masowe
masowego
masowej
masowo
masowych
mass
massa
massachusetts
master
mastering
masters
masy
masyw
masywie
masywu
masz
maszt
maszyn
maszyna
maszyne
maszynie
maszynowe
maszynowego
maszynowy
maszynowych
maszyny
masła
masłem
masło
mat
mata
matce
match
matches
matchu
matejki
matek
matematyczne
matematycznej
matematyczno
matematycznych
matematyk
matematyka
matematyki
mater
materia
materialnej
materiał
materiałem
materiałow
materiału
materiały
materii
materjał
materjału
materji
materyi
mateusz
mateusza
mathbb
mathbf
mathcal
mathematics
mathfrak
mathrm
matka
matke
matki
matko
matrix
matt
matthew
matthias
matura
mature
matylda
maurice
maurycego
maurycy
mauzoleum
mawiał
max
maxa
may
maya
mayer
maz
mazowiecka
mazowiecki
mazowieckie
mazowieckiego
mazowieckiej
mazowieckim
mazowsza
mazowsze
mazowszu
mazur
mazurek
mazurskie
mazurskiego
mazurskim
mazury
mała
małe
małego
małej
małem
małemi
małgorzata
małgorzatam
małgorzaty
małgosia
mało
małopolsce
małopolska
małopolski
małopolskie
małopolskiego
małopolskim
małp
małpa
małpy
mały
małych
małym
małymi
małzenski
małzenskie
małzenskiego
małzenstw
małzenstwa
małzenstwem
małzenstwie
małzenstwo
małzonek
małzonka
małzonki
małzonkow
małzonkowie
mb
mbp
mc
mcdonald
mchu
mclaren
md
me
meble
mebli
mecenas
mecenasa
mech
mechaniczna
mechaniczne
mechaniczny
mechanicznych
mechanik
mechanika
mechaniki
mechanizm
mechanizmow
mechanizmu
mechanizmy
mecz
meczach
meczarni
meczarnie
mecze
meczem
meczennica
meczennicy
meczennik
meczennika
meczennikow
meczenska
meczenstwa
meczenstwo
meczet
meczow
meczowe
meczu
meczy
meczyc
med
medal
medale
medalem
medali
medalisci
medalista
medalistka
medalu
media
mediach
medical
medicine
medieval
mediolan
mediolanie
mediolanu
mediow
medium
medrcow
medrzec
medycyna
medycyne
medycynie
medycyny
medyczna
medyczne
medycznego
medycznej
medyczny
medycznych
meet
meeting
mega
mego
mej
meka
meke
meki
meksyk
meksykanska
meksykanski
meksykanskiej
meksyku
mel
melbourne
melissa
melodia
melodie
mem
members
memi
memorial
memoriał
memory
memphis
memu
men
menedzer
menem
mennicy
menu
mer
mera
mercedes
merck
mercury
meronimy
mes
meska
meski
meskich
meskie
meskiego
meskiej
meskim
meskoosobowy
meskorzeczowy
meskozwierzecy
mestwa
mestwo
met
meta
metacritic
metal
metali
metallum
metalowa
metalowe
metalowej
metalowy
metalowych
metalu
meter
method
metod
metoda
metodami
metode
metody
metodzie
metr
metra
metres
metro
metropolia
metropolii
metropolita
metropolitan
metropolity
metrow
metry
mety
metz
mexico
meyer
meza
mezczyzn
mezczyzna
mezczyznami
mezczyzne
mezczyzni
mezczyznie
mezczyzny
mezem
meznie
mezoregionie
mezow
mezowi
mezowie
mezu
mf
mff
mg
mgle
mgnienie
mgnieniu
mgr
mgła
mgłe
mgły
mh
mhz
mi
mia
miami
mianem
miano
mianowania
mianowano
mianowany
mianował
mianowicie
miar
miara
miare
miary
miast
miasta
miastach
miastami
miasteczek
miasteczka
miasteczko
miasteczku
miastem
miasto
miastu
miał
miała
miałaby
miałam
miałby
miałbym
miałem
miałes
miało
miałoby
miały
michael
michaela
michaelm
michaił
michaiła
michale
michalina
michalski
michał
michała
michałem
michałm
michel
michele
michelle
michigan
mick
mickiewicz
mickiewicza
microsoft
mid
middle
midi
midnight
mie
miec
miecz
miecza
mieczami
miecze
mieczem
mieczkowska
miecznik
mieczysław
mieczysława
miedz
miedzi
miedzy
miedzyczasie
miedzynarodowa
miedzynarodowe
miedzynarodowego
miedzynarodowej
miedzynarodowy
miedzynarodowych
miedzynarodowym
miedzywojennego
miedzywojennym
miej
miejsc
miejsca
miejscach
miejscami
miejsce
miejscem
miejscowa
miejscowe
miejscowego
miejscowej
miejscowi
miejscowosc
miejscowosci
miejscowoscia
miejscowosciach
miejscowosciami
miejscowy
miejscowych
miejscowym
miejscu
miejska
miejski
miejskich
miejskie
miejskiego
miejskiej
miejskim
miejsko
miekka
miekki
miekkich
miekkie
miekkim
miekko
mielczarek
mielec
mieli
mielismy
mienia
mienie
mierza
mierzac
mierze
mierzy
mierzyc
mierzył
miesa
miesci
miescie
miescił
miesciła
miesciło
miesciły
miesem
miesiac
miesiaca
miesiacach
miesiacami
miesiace
miesiacem
miesiacu
miesiecy
miesiecznie
miesiecznik
miesiecznika
miesien
miesni
miesnia
miesnie
mieso
miesza
mieszac
mieszajac
mieszana
mieszane
mieszanej
mieszanina
mieszany
mieszanych
mieszał
mieszcza
mieszczan
mieszczanie
mieszczanin
mieszka
mieszkac
mieszkaja
mieszkajac
mieszkajacy
mieszkajacych
mieszkali
mieszkalna
mieszkalne
mieszkalny
mieszkalnych
mieszkam
mieszkan
mieszkanca
mieszkancami
mieszkancem
mieszkancom
mieszkancow
mieszkancy
mieszkania
mieszkanie
mieszkaniec
mieszkaniowe
mieszkaniowej
mieszkaniu
mieszkanka
mieszkał
mieszkała
mieszkało
mieszko
miewa
miewał
mig
migowy
migracji
miguel
mija
mijajac
mijał
mika
mike
miki
mikołaj
mikołaja
mikroregionie
miksowanie
mil
mila
milady
milan
milano
milcz
milczac
milczaca
milczace
milczacy
milczał
milczała
milczec
milczeli
milczenia
milczenie
milczeniem
milczeniu
milczy
mile
miles
mili
miliarda
miliardow
milicji
milion
miliona
milionow
miliony
militari
military
miljonow
miljony
mill
miller
millera
million
mills
milordzie
milowe
milton
milwaukee
mimo
mimowoli
mimowolnie
min
mina
minas
minał
mind
mine
miner
mineralnych
minerałow
mineła
mineło
mineły
mini
minialbum
minie
minimalna
minimum
minionych
minister
ministerio
ministerstwa
ministerstwie
ministerstwo
ministra
ministrem
ministrow
ministrowie
ministry
minnesota
minor
minsk
minska
minskiego
minskim
minsku
minucie
minut
minuta
minutach
minute
minuty
miny
miod
miodem
miodu
mir
mira
mirabeau
miranda
mirek
miriam
mirosław
mirosława
mirror
mis
misia
misja
misje
misji
misjonarz
misjonarzy
miss
mission
missisipi
missouri
mister
mistrz
mistrza
mistrzami
mistrzem
mistrzostw
mistrzostwa
mistrzostwach
mistrzostwo
mistrzow
mistrzowie
mistrzowski
mistrzowskiego
mistrzu
mistrzyni
mistrzynia
mistrzynie
misy
mit
mitchell
mitologia
mitologii
mitsubishi
mittermeier
mity
mix
mixed
mixtape
miła
miłe
miłego
miłej
miło
miłosc
miłosci
miłoscia
miłosciwy
miłosierdzia
miłosierdzie
miłosierny
miłosna
miłosne
miłosnikow
miłosnych
miłosz
miłuje
miły
miłych
miłym
mj
mjr
mk
mkol
mks
ml
mlade
mlb
mld
mlecznej
mleka
mlekiem
mleko
mln
mm
mma
mn
mna
mnich
mnicha
mnichow
mnie
mniej
mniejsza
mniejsze
mniejszego
mniejszej
mniejszosc
mniejszosci
mniejszy
mniejszych
mniejszym
mniemanie
mniemaniu
mniemał
mnisi
mniszek
mnoga
mnogiej
mnostwa
mnostwem
mnostwo
mo
mobile
mobilizacji
moc
moca
mocarstw
mocarstwa
moce
mocna
mocne
mocnego
mocniej
mocno
mocny
mocnych
mocnym
mocy
moczu
mod
moda
mode
model
modele
modelem
modeli
modelka
modelu
modern
modernizacja
modernizacje
modernizacji
modernizmu
modli
modlic
modlitw
modlitwa
modlitwe
modlitwie
modlitwy
modlił
modliła
moduł
modułu
mody
modyfikacje
modyfikacji
modz
modły
moga
mogac
mogaca
mogace
mogacy
mogacych
moge
mogile
mogiła
mogiły
mogli
mogliby
moglibysmy
moglismy
mogł
mogła
mogłaby
mogłabym
mogłam
mogłby
mogłbym
mogłbys
mogłem
mogłes
mogło
mogłoby
mogły
mogłyby
mohamed
mohammed
moi
moich
moim
moimi
moj
moja
moje
mojego
mojej
mojem
mojemi
mojemu
mojmir
mojzesz
mojzesza
mokra
mokre
mol
mole
molecular
moll
molly
momencie
moment
momentu
mon
monachium
monaco
monako
monarcha
monarchii
monarchy
monaster
monasteru
monasterze
monde
monet
moneta
monete
monety
money
mongolia
mongolii
monica
monika
monitor
moniuszki
monografia
monografie
monografii
monotypowy
monroe
monsieur
monster
mont
montana
montaz
montazu
monte
montevideo
montgomery
montpellier
montreal
montrealu
monument
moon
moore
mor
mora
moralna
moralne
moralnego
moralnej
moralnie
moralnosc
moralnosci
moralny
moralnych
moralnym
morawski
mord
morderca
mordercy
morderstwa
morderstwo
mordu
more
moreno
morfem
morfologia
morg
morgan
morgow
moritz
mormon
morning
morris
morrison
morska
morski
morskich
morskie
morskiego
morskiej
morskim
morton
morz
morza
morze
morzem
morzu
mos
mosc
mosci
moscickiego
moscie
moscow
moskale
moskali
moskiewski
moskiewskiego
moskiewskiej
moskiewskim
moskwa
moskwie
moskwy
most
mostek
mostem
mostow
mostu
mosty
moszawu
mot
mother
motion
moto
motogp
motor
motors
motorsport
motyka
motyl
motyla
motyle
motyli
motylkowym
motyw
motywem
motywow
motywy
moulin
mount
mountain
mountains
mouret
move
movement
movie
movies
mow
mowa
mowca
mowcie
mowe
mowi
mowia
mowiac
mowiacego
mowiacy
mowic
mowicie
mowie
mowienia
mowili
mowilismy
mowimy
mowiono
mowisz
mowił
mowiła
mowiłam
mowiłem
mowiłes
mowiło
mowiły
mowmy
mowy
moy
mozart
mozarta
mozdzierzy
moze
mozeby
mozecie
mozemy
mozesz
mozg
mozgu
mozliwa
mozliwe
mozliwie
mozliwosc
mozliwosci
mozliwoscia
mozliwy
mozliwych
mozna
moznaby
moznosc
moznosci
moznych
mołdawii
mp
mpk
mq
mr
mrok
mroku
mrowki
mroz
mrozu
mrs
mruczac
mruczał
mruknał
mrz
ms
msw
mswojsk
msz
msza
msze
mszy
mt
mtv
mu
mub
much
mucha
muchy
muhafaza
muhafazie
muhafazy
muhammad
muldach
muller
multico
munchen
mundart
mundialu
mundur
munduru
mundury
mundurze
municipal
municipii
munster
mur
murach
murami
murder
murek
murem
murow
murowana
murowane
murowany
murphy
murray
muru
mury
murze
murzyn
murzyna
murzynow
mus
musee
museo
museum
musi
musiano
musiał
musiała
musiałam
musiałby
musiałem
musiało
musiały
music
musica
musical
musicalu
musicians
musicie
musieli
musielismy
musik
musimy
musisz
must
mustafa
musza
musze
muszka
muszli
muz
muza
muzea
muzeow
muzeum
muzułmanie
muzułmanow
muzyce
muzycy
muzyczna
muzyczne
muzycznego
muzycznej
muzyczny
muzycznych
muzycznym
muzyk
muzyka
muzyke
muzyki
muzykow
mv
mvcr
mvp
mw
mx
my
mych
myle
myli
mylic
mylisz
mylił
mylnie
mym
mysl
mysla
myslac
myslach
myslami
myslał
myslała
myslałam
myslałem
mysle
myslec
mysleli
myslenia
myslenie
mysli
myslicie
myslisz
mysliwca
mysliwcow
mysliwi
mysliwiec
mysliwska
mysliwski
mysliwskich
mysliwskie
mysliwskiego
mysliwy
mysliwych
mysmy
mysz
myszy
mz
mzk
mzw
młoda
młode
młodego
młodej
młodemu
młodosc
młodosci
młodsza
młodsze
młodszego
młodszy
młodszych
młodszym
młodu
młody
młodych
młodym
młodymi
młodzi
młodzienca
młodziencem
młodziencow
młodziency
młodziencze
młodzieniec
młodziez
młodzieza
młodziezowa
młodziezowe
młodziezowej
młodziezowy
młodziezowych
młodziezy
młot
młotem
młyn
młyna
młyny
n
n0
n1
n2
n3
n4
n5
n6
n7
n8
n9
na
nabiera
nabla
nabozenstw
nabozenstwa
nabozenstwo
nabrac
nabrał
nabrała
nabyc
nabycia
nabył
nach
nachylenie
nachylił
nacional
nacisk
naciskiem
nacisku
nacjonalistow
naczelna
naczelne
naczelnego
naczelnej
naczelnik
naczelnika
naczelnikiem
naczelny
naczelnym
naczyn
naczynia
naczynie
naczyniowych
nad
nadac
nadaja
nadajac
nadaje
nadal
nadali
nadana
nadane
nadania
nadanie
nadaniem
nadaniu
nadano
nadany
nadaremnie
nadawac
nadawane
nadawania
nadawanie
nadawany
nadawał
nadawały
nadał
nadała
nadchodzi
nade
nadejdzie
nademna
nader
nadeszła
nadewszystko
nadlesnictwa
nadlesnictwo
nadmiar
nadmiaru
nadmierna
nadmiernie
nadrenia
nadszedł
nadto
naduzyc
naduzycia
nadworna
nadwozia
nadwozie
nadziei
nadzieja
nadzieje
nadzor
nadzorczej
nadzorem
nadzorował
nadzoru
nadzwyczaj
nadzwyczajna
nadzwyczajne
nadzwyczajnego
nadzwyczajnej
nadzwyczajnie
nadzwyczajny
nadzwyczajnych
nadzwyczajnym
naekranie
naftowej
naga
nagano
nagi
nagich
nagie
nagle
nagran
nagrana
nagrane
nagrania
nagranie
nagraniu
nagrany
nagrał
nagrała
nagrobek
nagrobki
nagrobkow
nagrobne
nagrod
nagroda
nagrode
nagrody
nagrodzony
nagła
nagłe
nagłego
nagłej
nagły
nagłym
naiwna
naiwnie
najazd
najazdu
najbardziej
najblizej
najblizsza
najblizsze
najblizszego
najblizszej
najblizszy
najblizszych
najblizszym
najbogatszych
najchetniej
najczesciej
najdalej
najdawniejszych
najdrozsza
najdrozszy
najdłuzej
najdłuzsza
najdłuzszy
najgorsza
najgorsze
najgorszy
najgorszym
najgorzej
najjasniejsza
najjasniejszy
najlepiej
najlepsi
najlepsza
najlepsze
najlepszego
najlepszej
najlepszy
najlepszych
najlepszym
najlepszymi
najmniej
najmniejsza
najmniejsze
najmniejszego
najmniejszej
najmniejszy
najmniejszych
najmniejszym
najmocniej
najmłodsza
najmłodszy
najmłodszych
najmłodszym
najnizszego
najnizszym
najnowsza
najnowsze
najnowszej
najnowszych
najpewniej
najpiekniejsza
najpiekniejsze
najpiekniejszy
najpiekniejszych
najpierw
najpopularniejsze
najpopularniejszych
najpozniej
najprawdopodobniej
najpredzej
najprzod
najrozmaitszych
najstarsza
najstarsze
najstarszego
najstarszy
najstarszych
najstarszym
najsw
najswietsza
najswietszego
najswietszej
najszybciej
najwazniejsza
najwazniejsze
najwazniejszy
najwazniejszych
najwazniejszym
najwidoczniej
najwiecej
najwieksza
najwieksze
najwiekszego
najwiekszej
najwiekszem
najwiekszy
najwiekszych
najwiekszym
najwiekszymi
najwybitniejszych
najwyrazniej
najwyzej
najwyzsza
najwyzsze
najwyzszego
najwyzszej
najwyzszem
najwyzszy
najwyzszych
najwyzszym
najzupełniej
najłatwiej
nakaz
nakazał
nakazuje
nakladatelstvo
nakoniec
nakrecony
nakryta
nakryty
nakształt
nakład
nakładem
nakładzie
nakłonic
nalegał
naleza
nalezaca
nalezace
nalezacego
nalezacej
nalezacy
nalezacych
nalezacym
nalezał
nalezała
nalezało
nalezałoby
nalezały
naleze
nalezec
nalezeli
nalezy
nalezycie
nam
namalowany
namalował
name
named
names
nami
namiestnik
namiestnika
namietna
namietnie
namietnosc
namietnosci
namietnoscia
namiocie
namiot
namiotu
namioty
namowa
namowic
namyslał
namysle
namysłu
nan
nana
nancy
nanowo
nantes
naogoł
naokoł
naokoło
naomi
naostatek
naowczas
napad
napadu
napady
napadł
napasc
napasci
napastnik
napastnika
napastnikow
naped
napedem
napedowy
napedu
napedzany
napewno
napełnia
napełnił
napic
napiecia
napiecie
napis
napisac
napisali
napisami
napisana
napisane
napisanego
napisanej
napisania
napisano
napisany
napisał
napisała
napisałem
napisem
napisu
napisy
napisze
napoj
napoje
napojow
napoju
napoleon
napoleona
napoleonskich
napotkał
napowrot
napozor
napoł
naprawde
naprawic
naprawy
napredce
naprozno
naprzeciw
naprzeciwko
naprzemian
naprzod
naprzykład
napływ
narade
narady
naraz
narazac
narazic
narazie
narazony
narciarka
narciarska
narciarski
narciarskich
narciarskie
narciarstwie
narciarstwo
narciarz
nareszcie
narkotykow
narod
narodem
narodow
narodowa
narodowe
narodowego
narodowej
narodowi
narodowo
narodowosc
narodowosci
narodowy
narodowych
narodowym
narodowymi
narodu
narody
narodzenia
narodzenie
narodzie
narodzin
narodziny
narodził
narrator
naruszenie
narzadow
narzeczona
narzeczonego
narzeczonej
narzeczony
narzedzi
narzedzia
narzedzie
narzedziem
nas
nasa
nasada
nasady
naselja
nashville
nasi
nasienie
nasion
nasiona
nasladowac
nassau
nast
nastapi
nastapic
nastapił
nastapiła
nastapiło
nastapiły
nastał
nastała
nastepca
nastepce
nastepcow
nastepcy
nastepna
nastepne
nastepnego
nastepnej
nastepnie
nastepny
nastepnych
nastepnym
nastepowałby
nastepstw
nastepstwa
nastepstwem
nastepstwie
nastepujaca
nastepujace
nastepujaco
nastepujacy
nastepujacych
nastepuje
nastroj
nastroju
nasz
nasza
nasze
naszego
naszej
naszem
naszemi
naszemiasto
naszemu
naszych
naszyjnik
naszym
naszymi
natalia
natalie
natan
natarcia
natarcie
natchnienia
natchnienie
natenczas
natezenia
natezenie
nathan
nation
national
nationale
nations
nato
natomiast
natur
natura
natural
naturalna
naturalne
naturalnego
naturalnej
naturalnie
naturalny
naturalnych
naturalnym
nature
natury
naturze
natychmiast
nauce
nauczania
nauczanie
nauczaniu
nauczał
nauczy
nauczyc
nauczyciel
nauczyciela
nauczyciele
nauczycielem
nauczycieli
nauczycielka
nauczycielki
nauczył
nauczyła
nauk
nauka
naukach
nauke
nauki
naukowa
naukowcow
naukowcy
naukowe
naukowego
naukowej
naukowiec
naukowo
naukowy
naukowych
naukowym
nauru
naval
naver
navin
navy
navypedia
nawa
nawet
nawiasach
nawiazac
nawiazania
nawiazanie
nawiazał
nawiazuje
nawie
nawiedzenia
nawierzchni
nawpoł
nawskros
nawy
nawzajem
nazad
nazajutrz
nazal
nazbyt
nazewnictwa
nazewnictwo
nazionale
nazistow
nazvy
nazw
nazwa
nazwac
nazwach
nazwali
nazwami
nazwana
nazwane
nazwano
nazwany
nazwał
nazwała
nazwe
nazwie
nazwisk
nazwiska
nazwiskiem
nazwisko
nazwisku
nazwy
nazywa
nazywac
nazywaja
nazywajac
nazywali
nazywam
nazywamy
nazywana
nazywane
nazywano
nazywany
nazywasz
nazywał
nazywała
nałecz
nb
nba
nbc
nbp
nc
ncaa
ncbi
nd
ndk
ndl
ne
neapolu
near
nebraska
ned
nedza
nedze
nedzna
nedzne
nedzny
nedzy
need
negatywne
negatywnie
negocjacje
negocjacji
neighbourhood
neil
neilw
nekrolog
nekrologi
nel
nelson
nemo
neo
neogotycki
neogotyckim
nepal
nepalskiego
nepalu
nepomucena
nerek
nerwow
nerwowe
nerwowego
nerwowo
nerwowy
nerwy
nestor
net
netflix
netherlands
netreba
netrebka
netto
network
neue
neustadt
nevada
never
new
newcastle
newman
newport
news
newsweek
newton
newtona
next
nf
ng
ngc
nguyen
nh
nhl
ni
nia
niby
nic
nice
nicei
nich
nicholas
nicht
nici
nick
nicola
nicolas
nicole
nicosc
nicosci
niczego
niczem
niczym
nid
niderl
nie
nieba
niebardzo
niebawem
niebem
niebezpieczenstw
niebezpieczenstwa
niebezpieczenstwem
niebezpieczenstwie
niebezpieczenstwo
niebezpieczna
niebezpieczne
niebezpiecznego
niebezpiecznie
niebezpieczny
niebezpiecznych
niebie
niebieska
niebieski
niebieskich
niebieskie
niebieskiego
niebieskiej
niebieskim
niebiesko
niebios
niebiosa
niebo
nieboszczyk
nieboszczyka
niebu
niecałe
niech
niechaj
niechby
niechcenia
niechec
niecheci
niechecia
niechetnie
niechludow
niechybnie
niechze
niecierpliwie
niecierpliwosc
niecierpliwosci
niecierpliwoscia
nieco
nieczynny
nied
niedaleko
niedawna
niedawno
niedbale
niedobrze
niedokonany
niedola
niedole
niedoli
niedosc
niedostatek
niedostatku
niedostepne
niedziela
niedziele
niedzieli
niedzwiedz
niedzwiedzi
niedzwiedzia
niedzwiedzie
niedzwiedzki
niedługo
niegdys
niegdzie
niego
nieistniejaca
nieistniejacy
niej
niejaka
niejaki
niejakiego
niejakim
niejako
niejasne
niejeden
niejedna
niejednego
niejedno
niejednokrotnie
niekiedy
niekompletna
niekoniecznie
niektore
niektorych
niektorym
niektorzy
nielada
nieledwie
nieliczne
nielicznych
nielsen
niem
niema
niemal
niemasz
niemała
niemało
niemca
niemcami
niemcom
niemcow
niemcy
niemczech
nieme
niemi
niemiec
niemieccy
niemiecka
niemiecki
niemieckich
niemieckie
niemieckiego
niemieckiej
niemieckim
niemieckimi
niemiecko
niemiecku
niemka
niemniej
niemoc
niemozliwa
niemozliwe
niemu
niemy
nienawidze
nienawidzi
nienawidził
nienawisc
nienawisci
nienawiscia
nieobecnosc
nieobecnosci
nieodm
nieokreslony
nieomal
nieopodal
niepewna
niepewne
niepewnosc
niepewnosci
niepewny
niepewnym
niepełnosprawnych
niepodległej
niepodległosc
niepodległosci
niepodległosciowego
niepodległosciowy
niepodobienstwem
niepodobna
niepojeta
niepokalanego
niepokoic
niepokoj
niepokojem
niepokoju
nieporozumien
niepostrzezenie
niepotrzebne
niepotrzebnie
niepowodzenia
niepowodzeniem
nieprawda
nieprawdaz
nieprzechodni
nieprzerwanie
nieprzyjaciel
nieprzyjaciela
nieprzyjaciele
nieprzyjacielem
nieprzyjacioł
nieprzytomny
nieraz
nieregularne
nierownie
nierownosci
nierozrozniajacych
nieruchoma
nieruchome
nieruchomo
nieruchomosci
nieruchomy
nieruchomych
nierzadko
niesc
niesie
nieskonczenie
nieskonczona
nieskonczone
nieskonczonosc
nieskonczonosci
niesli
niesmiało
niespełna
niespodzianie
niespodzianka
niespodziewanie
niespokojna
niespokojne
niespokojnie
niespokojny
niesprawdzonych
niesprawiedliwosc
niestety
nieszczesc
nieszczescia
nieszczescie
nieszczesciem
nieszczesciu
nieszczesliwa
nieszczesliwe
nieszczesliwego
nieszczesliwej
nieszczesliwi
nieszczesliwy
nieszczesliwych
nieszczesliwym
nieszczesna
nieszczesny
niesłusznie
niesłychana
niesłychane
niesłychanie
nietylko
nieubłagana
nieufnosc
nieufnosci
nieustajacej
nieustanne
nieustannie
niewatpliwie
niewiadomo
niewiast
niewiasta
niewiasty
niewidzialna
niewidzialne
niewidzialny
niewiele
niewielka
niewielki
niewielkich
niewielkie
niewielkiego
niewielkiej
niewielkim
niewielu
niewiem
niewinna
niewinne
niewinnego
niewinnosc
niewinnosci
niewinny
niewinnych
niewola
niewole
niewoli
niewolnica
niewolnictwa
niewolnicy
niewolnik
niewolnika
niewolnikami
niewolnikiem
niewolnikow
niewyraznie
niezadowolenia
niezadowolenie
niezadowolony
niezadługo
niezalezna
niezalezne
niezaleznego
niezaleznej
niezaleznie
niezaleznosc
niezaleznosci
niezalezny
niezaleznych
niezaleznym
niezawodnie
niezbedna
niezbedne
niezbedny
niezbednych
niezbyt
niezdolny
niezle
niezliczone
niezliczonych
niezmierna
niezmiernie
nieznacznie
nieznajoma
nieznajomego
nieznajomy
nieznana
nieznane
nieznanego
nieznanej
nieznany
nieznanych
nieznanym
nieznosna
nieznosny
niezrozumiałe
niezupełnie
niezwykle
niezwykła
niezwykłe
niezwykłego
niezwykłej
niezwykły
niezwykłych
niezwykłym
niezwłocznie
niezywotny
nieładzie
niełatwo
nigdy
nigdzie
nigel
niger
nigeria
nigerii
night
nijaki
nik
nike
nikim
nikita
nikodem
nikogo
nikomu
nikołaj
nikołaja
nikt
nil
nilu
nim
nimi
nina
nine
niniejszego
niniejszej
niniejszy
ninja
nintendo
niosa
niosac
niosł
niosła
niska
niski
niskich
niskie
niskiego
niskiej
niskim
nisko
nissan
niszczac
niszczenia
niszczenie
niszczy
niszczyc
niszczyciel
niszczyciele
niszczycieli
nitki
niz
nizej
nizeli
nizinie
niziny
nizko
nizli
nizsza
nizsze
nizszego
nizszej
nizszy
nizszych
nizszym
nj
nk
nkc
nkwd
nl
nla
nm
nmos
nmp
nn
no
nobel
nobla
noble
noc
noca
nocach
nocami
noce
nocleg
noclegu
nocna
nocne
nocnego
nocnej
nocny
nocnych
nocnym
nocy
nodze
noel
nog
noga
nogach
nogami
noge
nogi
nokaut
nokia
nomina
nominacja
nominacje
nominacji
nominees
nominowana
nominowani
nominowany
nominum
non
nor
nora
norbert
nord
nordic
norfolk
norm
norma
normal
normalna
normalne
normalnego
normalnej
normalnie
normalny
normalnych
normalnym
norman
normandia
normandii
normy
norske
north
northern
norton
norw
norwegia
norwegii
norweska
norweski
norweskiego
norweskiej
norwida
nory
norymberdze
nos
nosa
nosem
nosi
nosic
nosie
nosili
nosił
nosiła
nosiło
nosiły
nosza
noszace
noszacy
nosze
noszenia
not
nota
notable
notatki
note
notes
nothing
notowania
notowanie
notowany
notre
nottingham
noty
nouvelle
nov
nova
novel
november
novi
now
nowa
nowak
nowakowski
nowe
nowego
nowej
nowele
nowem
nowemi
nowemu
nowi
nowicki
nowina
nowine
nowiny
nowo
nowoczesna
nowoczesne
nowoczesnego
nowoczesnej
nowoczesny
nowoczesnych
nowogrecki
nowogrodzkim
nowosci
nowoscia
nowozelandzki
nowozytnej
nowozytnych
nowsze
nowszych
nowy
nowych
nowym
nowymi
noz
noza
nozdrza
noze
nozem
nozki
nozna
noznej
np
nq
nr
nrd
ns
nsdap
nsk
nsz
nszz
nt
nta
nu
nuclear
nuda
nudne
nudy
nudzi
nudzic
nukat
number
numbers
numer
numerem
numerow
numeru
numery
numerze
nuncjusz
nur
nurt
nurtu
nut
nuta
nute
nuty
nuz
nv
nw
nx
nxt
ny
nynorsk
nysa
nysy
nytimes
nz
o
o0
o1
o2
o3
o4
o5
o6
o7
o8
o9
oa
ob
oba
obadwaj
obaj
obalenia
obalic
obaw
obawa
obawe
obawia
obawiac
obawiajac
obawiam
obawiał
obawiała
obawie
obawy
obca
obce
obcego
obcej
obchodow
obchody
obchodza
obchodzi
obchodzic
obchodził
obchodziła
obchodziło
obchodzone
obchodzono
obcich
obcine
obcy
obcych
obcym
obczyznie
obdarzony
obdarzył
obec
obecna
obecne
obecnego
obecnej
obecni
obecnie
obecnosc
obecnosci
obecnoscia
obecny
obecnych
obecnym
obejmowac
obejmował
obejmowała
obejmowało
obejmowały
obejmuja
obejmujac
obejmujaca
obejmujace
obejmujacego
obejmujacy
obejmuje
obejrzawszy
obejrzał
obejrzała
obejrzec
obejsc
obejscia
obejscie
obejsciu
obelisk
oberzy
obficie
obfite
obfitosc
obfitosci
obfity
obiad
obiadu
obiady
obie
obiecał
obiecujac
obiecuje
obiecywał
obiedzie
obieg
obiegu
obiekcie
obiekt
obiektem
obiektow
obiektu
obiekty
obiema
obietnic
obietnica
obietnice
obietnicy
obin
obituary
objac
objasnic
objasnienia
objasnienie
objasnił
objaw
objawem
objawia
objawienia
objawienie
objawił
objawow
objawy
objał
objecia
objeciach
objecie
objeciu
objeta
objete
objetosc
objetosci
objety
objetych
objeła
oblezenia
oblezenie
oblezeniu
oblicza
oblicze
obliczem
obliczen
obliczenia
obliczu
obliczyc
obnizenia
obnizenie
oboje
obojetna
obojetne
obojetnie
obojetnosc
obojetnosci
obojetnoscia
obojetny
obojetnym
obojga
obok
obory
obowiazany
obowiazek
obowiazki
obowiazkiem
obowiazkow
obowiazku
obowiazujaca
obowiazujace
obowiazujacych
obowiazuje
oboz
obozach
obozem
obozie
obozow
obozu
obozy
obr
obrac
obraca
obracac
obracajac
obracał
obrad
obrady
obraz
obraza
obrazach
obrazami
obrazek
obrazem
obrazen
obrazic
obrazie
obraził
obrazki
obrazow
obrazu
obrazy
obrał
obreb
obrebie
obrobki
obrocic
obrocił
obrona
obronca
obroncow
obroncy
obrone
obronic
obronie
obronił
obroniła
obronna
obronne
obronnej
obronnosci
obronny
obronnych
obrony
obrot
obrotow
obrotowy
obrotu
obrzadku
obrzedach
obrzedow
obrzedy
obrzezach
obsada
obsady
observatory
obserwacja
obserwacje
obserwacji
obserwator
obserwatora
obserwatorium
obserwatorow
obserwowac
obserwował
obserwuje
obszar
obszarach
obszarem
obszarow
obszaru
obszary
obszarze
obszerna
obszerne
obszernej
obszerny
obsługa
obsługe
obsługi
obsługiwana
obsługiwane
obsługiwany
obsługiwał
obsługuje
obu
obudzic
obudził
obudziła
oburacz
oburzenia
oburzenie
oburzeniem
oburzony
oburzył
obuwia
obuwie
obwieszczenie
obwod
obwodnica
obwodnicy
obwodowego
obwodowej
obwodu
obwodzie
oby
obyczaj
obyczajach
obyczaje
obyczajem
obyczajow
obyczaju
obydwa
obydwaj
obydwie
obydwoch
obydwu
obyvatel
obyvatelstva
obywatel
obywatela
obywatele
obywatelem
obywateli
obywatelom
obywatelska
obywatelskich
obywatelskie
obywatelskiego
obywatelskiej
obywatelstwa
obywatelstwo
obłakany
obłed
obłok
obłoki
obłokow
obłoku
obłomow
oc
ocalenia
ocalenie
ocalic
ocalił
occ
ocean
oceanem
oceanie
oceanii
oceanu
ocen
ocena
ocene
ocenia
ocenic
ocenie
ocenił
oceny
och
ochmistrzyni
ochoczo
ochota
ochote
ochotnicza
ochotniczej
ochotnik
ochotnikow
ochoty
ochrona
ochrone
ochronie
ochronna
ochrony
ocierajac
ocknał
oclc
october
octu
oczach
oczami
oczekiwac
oczekiwali
oczekiwania
oczekiwanie
oczekiwaniu
oczekiwano
oczekiwał
oczekiwała
oczekujac
oczekuje
oczom
oczow
oczu
oczy
oczyma
oczyscic
oczywiscie
oczywista
oczywiste
od
oda
odbedzie
odbic
odbicia
odbicie
odbiera
odbierac
odbija
odbijały
odbiorcow
odbiorcy
odbił
odbudowa
odbudowano
odbudowany
odbudowe
odbudowy
odbyc
odbyciu
odbywa
odbywac
odbywaja
odbywajacy
odbywajacych
odbywał
odbywała
odbywało
odbywały
odbył
odbyła
odbyło
odbyły
odc
odchodza
odchodzac
odchodzi
odchodził
odcien
odcieniem
odcinek
odcinka
odcinkach
odcinki
odcinkow
odcinku
odczas
odczuc
odczuwa
odczuwac
odczuwał
odczuł
odczytac
odczytał
odda
oddac
oddaj
oddaja
oddajac
oddaje
oddala
oddalenia
oddaleniu
oddali
oddalic
oddalił
oddalona
oddalone
oddalony
oddam
oddana
oddane
oddania
oddanie
oddano
oddany
oddanych
oddawac
oddawał
oddawna
oddał
oddała
oddałem
oddech
oddechem
oddechu
oddychac
oddychał
oddziale
oddział
oddziałach
oddziałami
oddziałem
oddziałow
oddziału
oddziały
oddziaływania
oddziaływanie
oddziela
oddzielne
oddzielnie
oddzielnych
oddzielona
oddzielone
ode
odebrac
odebrano
odebrał
odebrała
odegrał
odejsc
odejscia
odejscie
odejsciu
odemnie
oden
oder
oderwac
oderwał
odessa
odessie
odeszli
odeszła
odetchnac
odetchnał
odezwac
odezwał
odezwała
odgadnac
odgadł
odgrywa
odgrywaja
odgrywał
odgłos
odgłosy
odjazdu
odjechac
odjechał
odjezdzie
odkad
odkryc
odkrycia
odkrycie
odkryciu
odkryli
odkryta
odkryte
odkryto
odkryty
odkrytych
odkrywa
odkrywca
odkrył
odkryła
odległa
odległe
odległej
odległosc
odległosci
odległych
odmawia
odmawiac
odmawiał
odmian
odmiana
odmiane
odmianie
odmiany
odmienna
odmienne
odmienny
odmiennych
odmowa
odmowic
odmowił
odmowiła
odmowy
odnajduje
odnalazł
odnalezc
odnaleziono
odniesc
odniesienia
odniesieniu
odniesli
odniosł
odniosła
odniosło
odnoga
odnosi
odnosic
odnosił
odnosnie
odnosza
odnoszac
odnoszacy
odnotowano
odnowy
odnoza
odnozy
odonata
odpadow
odpadł
odpadła
odparł
odparła
odparłem
odpoczac
odpoczynek
odpoczynku
odpornosc
odpornosci
odpowiada
odpowiadac
odpowiadaja
odpowiadajac
odpowiadajaca
odpowiadajace
odpowiadajacy
odpowiadam
odpowiadał
odpowiadała
odpowiadały
odpowie
odpowiedni
odpowiednia
odpowiednich
odpowiednie
odpowiedniego
odpowiedniej
odpowiednik
odpowiednikiem
odpowiednim
odpowiednio
odpowiedz
odpowiedzi
odpowiedzia
odpowiedzialna
odpowiedzialne
odpowiedzialnosc
odpowiedzialnosci
odpowiedzialny
odpowiedzialnym
odpowiedział
odpowiedziała
odpowiedziałem
odpowiedziec
odpowiedzieli
odpowiem
odprawił
odprowadzic
odprowadził
odra
odrazu
odrebna
odrebne
odrebny
odrebnych
odrobina
odrobine
odrodzenia
odrodzenie
odroznia
odroznic
odroznienia
odroznieniu
odry
odrzekł
odrzekła
odrzekłem
odrzuca
odrzucic
odrzucił
odrzuciła
odrzucona
odsetek
odstapic
odstapił
odstepach
odsunał
odszedł
odszkodowania
odszukac
odsłoniecie
odsłonieto
odsłoniety
odtad
odtworzyc
odwaga
odwage
odwagi
odwaznie
odwazny
odwazył
odwiedza
odwiedzac
odwiedzał
odwiedzic
odwiedzin
odwiedziny
odwiedził
odwołania
odwołanie
odwołany
odwołał
odwołuje
odwracajac
odwrocic
odwrocił
odwrociła
odwrot
odwrotnie
odwrotu
odwłoka
odziany
odziedziczył
odziemkowski
odzienie
odziez
odziezy
odznacza
odznaczaja
odznaczał
odznaczen
odznaczeni
odznaczenia
odznaczenie
odznaczona
odznaczony
odznaczył
odznaka
odznake
odznaki
odzwierny
odzyskac
odzyskanej
odzyskania
odzyskanie
odzyskaniu
odzyskanych
odzyskał
odzyskała
odzywa
odzywał
odłozyc
oe
of
ofensywa
ofensywy
ofercie
oferta
oferte
oferty
oferuja
oferuje
off
office
official
officialcharts
ofiar
ofiara
ofiarami
ofiare
ofiarom
ofiarowac
ofiarował
ofiaruje
ofiary
oficer
oficera
oficerami
oficerem
oficerow
oficerowie
oficerska
oficerski
oficerskie
oficerskiej
oficerskim
oficial
oficjalna
oficjalne
oficjalnego
oficjalnej
oficjalnie
oficjalny
oficjalnych
oficjalnym
oficyna
oficyny
ofierze
ofm
og
ogarnał
ogarneła
ogarneło
ogarnia
ogarniał
ogien
oglada
ogladac
ogladajac
ogladali
ogladania
ogladał
ognia
ognie
ogniem
ognisk
ogniska
ognisko
ognisku
ognista
ogniste
ognisty
ogniu
ogniwa
ogniwo
ogole
ogolna
ogolne
ogolnego
ogolnej
ogolnie
ogolnokształcace
ogolnokształcacego
ogolnopolska
ogolnopolski
ogolnopolskiego
ogolnopolskiej
ogolnopolskim
ogolnosci
ogolny
ogolnych
ogolnym
ogon
ogona
ogonek
ogonem
ogoł
ogołem
ogołu
ogranicza
ograniczen
ograniczenia
ograniczenie
ograniczona
ograniczone
ograniczony
ograniczonym
ograniczyc
ogrod
ogrodach
ogrodek
ogrodem
ogrodku
ogrodnik
ogrodnika
ogrodow
ogrodu
ogrody
ogrodzenia
ogrodzenie
ogrodzie
ogrom
ogromna
ogromne
ogromnego
ogromnej
ogromnie
ogromny
ogromnych
ogromnym
ogłasza
ogłosic
ogłosili
ogłosił
ogłosiła
ogłosiło
ogłoszenia
ogłoszenie
ogłoszeniu
ogłoszona
ogłoszone
ogłoszono
ogłoszony
oh
ohio
oho
oi
oil
oj
ojca
ojcem
ojciec
ojcow
ojcowie
ojcu
ojcze
ojczystej
ojczystym
ojczyzna
ojczyzne
ojczyznianej
ojczyznie
ojczyzny
ok
oka
okaz
okazac
okazali
okazał
okazała
okazało
okazały
okaze
okazja
okazje
okazji
okazow
okazujac
okazuje
okazy
okazywac
okazywał
okazywała
okiem
okien
okienka
okienko
okiennice
oklahoma
oklaski
okna
oknach
oknami
oknem
oknie
okno
oko
okolic
okolica
okolicach
okolice
okolicy
okoliczne
okolicznosc
okolicznosci
okolicznosciach
okolicznych
około
okragła
okragłe
okragłego
okragły
okrazajaca
okrazenia
okrazenie
okrazeniu
okrecie
okreg
okregach
okregi
okregow
okregowa
okregowe
okregowego
okregowej
okregowy
okregowym
okregu
okres
okresach
okresem
okresie
okresla
okreslaja
okreslana
okreslane
okreslano
okreslany
okreslenia
okreslenie
okresleniem
okreslic
okreslił
okreslona
okreslone
okreslonego
okreslonej
okreslono
okreslony
okreslonych
okreslonym
okresow
okresowo
okresu
okresy
okret
okretach
okretami
okretem
okretow
okretu
okrety
okropna
okropne
okropnego
okropnie
okropny
okrucienstwa
okrucienstwo
okrutna
okrutne
okrutnie
okrutny
okryta
okryte
okryty
okrył
okrzyk
okrzykami
okrzyki
okrzykiem
oksytania
oku
okulary
okupacja
okupacji
okupowanej
okupowanych
okładce
okładka
okładki
ol
ola
olaf
olbrzym
olbrzyma
olbrzymi
olbrzymia
olbrzymich
olbrzymie
olbrzymiego
olbrzymiej
olbrzymim
olbrzymow
old
ole
oleg
olej
oleju
olga
olgi
olgierd
olimpbase
olimpia
olimpiada
olimpiadach
olimpiady
olimpijczyk
olimpijka
olimpijscy
olimpijska
olimpijski
olimpijskich
olimpijskie
olimpijskiego
olimpijskiej
olimpijskim
olimpijskimi
olis
oliver
olivia
olivier
oliwa
oliwy
olszewski
olsztyn
olsztyna
olsztynie
olsztynskiego
olsztynskim
olympedia
olympiad
olympic
olympics
olympique
om
omal
omar
omega
omylił
on
ona
once
one
onego
onej
onet
ongi
oni
online
only
ono
ontario
onufry
onych
onyx
onz
oo
op
opactwa
opactwo
opada
opadaja
opadow
opady
opadł
opadła
opadły
opanowac
opanowania
opanował
opanowała
oparcia
oparciu
oparta
oparte
opartego
opartej
oparty
opartych
oparł
oparła
oparłszy
opat
opata
opatrznosc
opatrznosci
opatrzone
opatrzył
opcja
opcje
opcji
open
opening
opera
operacja
operacje
operacji
operacyjna
operacyjne
operacyjnego
operacyjnej
operacyjny
operacyjnych
operacyjnym
operation
operator
operatora
operatorem
operatorname
operatorow
opere
operowa
operowy
opery
operze
opi
opiece
opieka
opieke
opieki
opiekun
opiekuna
opiekunem
opiera
opierac
opieraja
opierajac
opierał
opierała
opinia
opinie
opinii
opinje
opinji
opis
opisac
opisana
opisane
opisania
opisanie
opisano
opisany
opisanych
opisał
opisem
opisie
opisow
opisu
opisujac
opisuje
opisy
opisywac
opisywany
opisywał
opodal
opoka
opola
opole
opolski
opolskie
opolskiego
opolskiej
opolskim
opolu
opon
opony
opor
oporu
opowiada
opowiadac
opowiadaja
opowiadajac
opowiadali
opowiadan
opowiadania
opowiadanie
opowiadaniu
opowiadano
opowiadał
opowiadała
opowie
opowiedz
opowiedział
opowiedziała
opowiedziałem
opowiedziec
opowiem
opowiesc
opowiesci
opoznienie
opozycja
opozycji
opr
oprac
opracowan
opracowana
opracowane
opracowania
opracowanie
opracowaniu
opracowano
opracowany
opracował
oprawa
oprocz
oprogramowania
oprogramowanie
oprzec
opublikowana
opublikowane
opublikowanego
opublikowanej
opublikowano
opublikowany
opublikowanych
opublikował
opublikowała
opus
opusci
opuscic
opuscili
opusciwszy
opuscił
opusciła
opusciły
opuszcza
opuszczac
opuszczaja
opuszczajac
opuszczał
opuszczenia
opuszczenie
opuszczeniu
opuszczona
opuszczone
opuszczony
opłat
opłata
opłaty
oq
or
orange
orase
oraz
orbicie
orbite
orbity
orchestra
orcid
ordbok
order
orderem
orderow
orderu
ordery
ordnance
ordnancesurvey
ordre
ordynacji
ordynariuszem
ordynat
oregon
orez
oreza
orezem
org
organ
organach
organami
organem
organicznej
organiczny
organicznych
organisms
organista
organizacja
organizacjach
organizacjami
organizacje
organizacji
organizacyi
organizacyjna
organizacyjne
organizacyjnego
organizacyjnej
organizacyjny
organizacyjnych
organization
organizator
organizatorem
organizatorow
organizatorzy
organizm
organizmie
organizmow
organizmu
organizmy
organizowac
organizowane
organizowania
organizowanie
organizowany
organizowanych
organizowanym
organizował
organizuje
organow
organu
organy
oricon
orientacje
orientacji
origin
original
origins
orkan
orkiestra
orkiestre
orkiestry
orlando
orle
orleans
orlen
orlik
ormianski
orne
ornit
ornithology
oro
orp
orszak
orszaku
ortografiach
ortograficzny
orwinska
oryg
oryginale
oryginalna
oryginalne
oryginalnego
oryginalnej
oryginalnie
oryginalny
oryginalnych
oryginalnym
oryginał
oryginału
orzechow
orzechy
orzeczenia
orzeczenie
orzeszkowa
orzeł
orła
orłem
orłow
orłowski
orły
os
osa
osad
osada
osade
osadnictwa
osadnictwo
osadnicy
osadnicza
osadnikow
osady
osadzic
osadzie
osadził
osadzona
osadzone
osadzony
osadzonych
osaka
osborne
osc
oscar
oscara
osemka
osi
osiadł
osiadła
osiaga
osiagaja
osiagajac
osiagał
osiagnac
osiagnał
osiagneła
osiagneły
osiagniec
osiagniecia
osiagniecie
osiagnieciem
osiagnieciu
osiedla
osiedlac
osiedle
osiedli
osiedlic
osiedlił
osiedlu
osiek
osiem
osiemdziesiatych
osiemnascie
osioł
oskar
oskara
oskarzenia
oskarzenie
oskarzonego
oskarzony
oskarzonych
oskarzył
oslo
osm
osma
osmanskiego
osme
osmego
osmej
osmielił
osmiu
osmy
osmym
osob
osoba
osobach
osobami
osobe
osobie
osobiscie
osobista
osobiste
osobistego
osobistej
osobistosci
osobisty
osobistych
osobistym
osobliwa
osobliwie
osobliwosci
osobliwy
osobna
osobne
osobnej
osobnik
osobnika
osobniki
osobnikow
osobno
osobny
osobnych
osobnym
osobom
osobowa
osobowe
osobowego
osobowosc
osobowosci
osobowy
osobowych
osoby
osp
osrodek
osrodka
osrodkach
osrodki
osrodkiem
osrodkow
osrodku
ossolineum
ossolinskich
ost
ostateczna
ostateczne
ostatecznego
ostatecznej
ostatecznie
ostatecznosci
ostateczny
ostatecznym
ostatek
ostatka
ostatku
ostatni
ostatnia
ostatnich
ostatnie
ostatniego
ostatniej
ostatniem
ostatnim
ostatnimi
ostatnio
ostoja
ostra
ostre
ostrego
ostrej
ostro
ostrow
ostrowie
ostrowski
ostrowskiego
ostroznie
ostroznosc
ostroznosci
ostroznoscia
ostrozny
ostry
ostrych
ostrym
ostrza
ostrzał
ostrzału
ostrze
ostrzezenie
oswiadczenia
oswiadczenie
oswiadczyc
oswiadczył
oswiadczyła
oswiata
oswiaty
oswiecenia
oswiecenie
oswiecim
oswiecimiu
oswietlenia
oswietlenie
oswietlone
oszalał
oszczednosci
oszczedzac
oszczedzic
oszczepem
oszukac
oszustwo
osła
osłabienia
osłabienie
osłona
osłony
osłupiały
ot
otacza
otaczaja
otaczajace
otaczajacy
otaczajacych
otaczał
otaczała
otaczało
otaczały
otarł
otchłan
otchłani
otello
other
oto
otoczenia
otoczenie
otoczeniem
otoczeniu
otoczona
otoczone
otoczony
otoczyli
otoczył
otoz
otrzyma
otrzymac
otrzymali
otrzymane
otrzymania
otrzymaniu
otrzymawszy
otrzymał
otrzymała
otrzymałem
otrzymało
otrzymały
otrzymuja
otrzymujac
otrzymuje
otrzymujemy
otrzymywali
otrzymywał
otto
otton
ottona
otuchy
otwarcia
otwarcie
otwarciu
otwarta
otwarte
otwartego
otwartej
otwartem
otwartemi
otwarto
otwarty
otwartych
otwartym
otwarły
otwiera
otwierac
otwieraja
otwierajac
otwierał
otwierały
otwor
otworem
otworow
otworu
otwory
otworz
otworze
otworzono
otworzy
otworzyc
otworzywszy
otworzył
otworzyła
otworzyły
ou
oun
our
out
ov
over
overline
overview
ow
owa
owad
owadow
owady
owalny
owca
owce
owczesna
owczesne
owczesnego
owczesnej
owczesnie
owczesny
owczesnych
owczesnym
owczych
owdzie
owe
owego
owej
owem
owen
owernia
owi
owiec
own
owo
owoc
owocami
owoce
owocem
owocow
owocu
owoz
owsa
owszem
owy
owych
owym
owłosione
ox
oxford
oy
oz
ozdob
ozdoba
ozdobiona
ozdobione
ozdobiony
ozdobna
ozdobne
ozdoby
ozenic
ozenił
oznacza
oznaczac
oznaczaja
oznaczajace
oznaczajacego
oznaczajacy
oznaczania
oznaczał
oznaczało
oznaczenia
oznaczenie
oznaczeniem
oznaczona
oznaczone
oznaczono
oznaczony
oznaczyc
oznajmic
oznajmił
oznajmujacego
oznak
oznaka
oznaki
ozwał
ozwała
ozywiona
ozywiony
ołeksandr
ołow
ołowiu
ołowkiem
ołtarz
ołtarza
ołtarze
ołtarzem
ołtarzu
ołtarzy
p
p0
p1
p2
p3
p4
p5
p6
p7
p8
p9
pa
pablo
pac
pacha
pachnie
pacierz
pacierze
pacific
pacjent
pacjenta
pacjentow
pacyfiku
paczke
paczki
pada
padac
padaja
padajac
padał
padały
paderewskiego
padli
padnie
padł
padła
padło
padły
page
pain
pairs
pajak
pak
paki
pakiet
pakietu
pakistan
pakistanie
pakistanu
pakt
pal
pala
palac
palace
palais
palatynat
palazzo
palca
palcach
palcami
palce
palcem
palcow
pale
palec
palenia
palermo
palestine
palestynie
palestyny
pali
palic
paliw
paliwa
paliwo
palił
paliła
paliły
palm
palma
palmer
palmy
palnej
pamiatek
pamiatka
pamiatke
pamiatki
pamiatkowa
pamiatkowe
pamiatkowy
pamiec
pamieci
pamiecia
pamieta
pamietac
pamietaj
pamietajcie
pamietam
pamietamy
pamietasz
pamietał
pamietnik
pamietniki
pan
pana
panama
panamerykanskich
panami
pancerna
pancerne
pancernego
pancernej
pancernik
pancerny
pancernych
pancerz
pandemii
panem
pani
pania
panicz
panicza
paniczu
panie
panien
panienka
panienke
panienki
panienko
panna
panne
pannie
panno
panny
panom
panorama
panow
panowac
panowania
panowanie
panowaniem
panował
panowała
panowało
panowie
panska
panski
panskich
panskie
panskiego
panskiej
panskiem
panskim
panstw
panstwa
panstwach
panstwami
panstwem
panstwie
panstwo
panstwowa
panstwowe
panstwowego
panstwowej
panstwowy
panstwowych
panstwowym
panstwu
pantera
panu
panujaca
panujacego
panujacej
panujacy
panujacych
panuje
paolo
pap
papa
paper
papers
papier
papierami
papierem
papierosa
papierosow
papierosy
papierow
papierowych
papieru
papiery
papierz
papierze
papieski
papieskiego
papieskiej
papieskim
papiez
papieza
papiezem
papiezy
par
para
parach
parada
paradise
parafia
parafiach
parafialna
parafialnego
parafialny
parafialnym
parafian
parafie
parafii
paragwaju
paralympic
parametrow
parametry
parami
paraolimpijskich
parasol
pare
paris
parish
park
parker
parki
parkiem
parking
parkow
parks
parku
parlamencie
parlament
parlamentarne
parlamentarnego
parlamentarnych
parlamentarzysta
parlamentu
parliament
parobek
parowa
parowe
parowiec
part
partenkirchen
parterze
partia
partiach
partial
partie
partii
partja
partje
partji
partner
partnera
partnerem
partnerka
partnerow
partnerskie
party
partya
partyi
partyjnej
partyjny
partyjnych
partyzantow
paru
pary
paryska
paryski
paryskich
paryskiego
paryskiej
paryskim
paryz
paryza
paryzu
parze
pas
pasa
pasazer
pasazerow
pasazerowie
pasazerski
pasazerskich
pasazerskie
pasc
pascal
pasek
pasem
pasie
pasja
pasji
paski
pasma
pasmie
pasmo
pasow
pass
past
pasterz
pasterza
pasterze
pasterzy
pastor
pastora
pastwe
pastwiska
pasy
pasza
paszport
paszy
pat
patent
path
patients
patriarcha
patriarchatu
patriarchy
patricia
patrick
patrol
patrole
patron
patrona
patronatem
patronem
patryk
patrz
patrza
patrzac
patrzał
patrzała
patrzcie
patrze
patrzec
patrzy
patrzyc
patrzyli
patrzył
patrzyła
patrzyłem
patrzyły
pau
paul
paula
pauli
paulina
paulo
paulson
pavel
paweł
pawełek
pawełp
pawilon
pawilonu
pawlak
pawła
pawłem
pawłowski
pax
pay
paz
pazdziernik
pazdziernika
pazdziernikowej
pazdzierniku
pazury
pałac
pałace
pałacem
pałacow
pałacowy
pałacu
pałacyk
pałacyku
pałka
pb
pc
pchnał
pchniecie
pchnieciu
pchor
pd
pdf
pe
peace
peak
pearl
ped
pedagog
pedagogicke
pedagogiczna
pedagogiczne
pedagogicznego
pedagogicznej
pedagogika
pedagogiki
pedem
pedersen
pedow
pedro
pedu
pedy
pedzi
pedzic
pedził
pedzla
pejzaz
pejzaze
pek
peka
pekin
pekinie
pekinu
pen
pencroff
penguin
pennsylvania
pensje
pensji
pensyi
pensylwania
people
per
percy
perepiat
perez
pereł
perfect
performance
period
perkusista
perkusja
perkusji
perkusyjne
peron
perony
perry
pers
persji
perski
perskiej
person
personal
personalidade
personalna
personalne
personalny
personel
personelu
perspektywa
perspektywie
perspektywy
perth
peru
perła
perły
pet
peta
pete
peter
petera
peters
petersburg
petersburga
petersburgu
petit
petla
petle
petli
petr
petra
petrackovej
petrus
pewien
pewna
pewne
pewnego
pewnej
pewnem
pewni
pewnie
pewno
pewnosc
pewnosci
pewnoscia
pewny
pewnych
pewnym
pełen
pełka
pełna
pełne
pełnego
pełnej
pełnem
pełnemi
pełni
pełnia
pełniac
pełniaca
pełniacy
pełnic
pełnienia
pełnił
pełniła
pełno
pełnomocnik
pełnomocnika
pełny
pełnych
pełnym
pf
pfalz
pg
pgc
pge
pgr
ph
phi
phil
philadelphia
philip
philipp
philippe
philips
phillips
philosophy
phoenix
photo
php
phylogenetic
phylogeny
physical
physics
pi
piana
pianino
pianista
pianistka
piano
piany
piasek
piaski
piaskiem
piaskowca
piasku
piast
piastow
piastował
piata
piate
piatego
piatej
piatek
piatki
piatku
piaty
piatym
pic
picia
pickwick
picture
pictures
piec
pieca
piecdziesiat
piecdziesieciu
piece
piecem
piech
piechota
piechote
piechoty
pieciokrotnie
piecioma
piecioro
pieciu
pieciuset
piecset
piecu
piecze
pieczec
pieczeci
pieczen
pieczenia
piekarz
piekielna
piekle
piekna
piekne
pieknego
pieknej
pieknem
pieknemi
pieknie
piekniejsza
piekno
pieknosc
pieknosci
pieknoscia
piekny
pieknych
pieknym
piekos
piekła
piekło
pielegniarka
pielgrzymki
pielgrzymow
pien
pieniadz
pieniadza
pieniadze
pieniedzmi
pieniedzy
pieniezna
pieniezne
pienieznych
pieprz
pieprzu
pierce
pierre
piers
pierscien
pierscieni
pierscienia
pierscienie
pierscionek
piersi
piersia
piersiach
piersiowej
pierwej
pierwiastek
pierwiastki
pierwiastkow
pierwotna
pierwotne
pierwotnego
pierwotnej
pierwotnie
pierwotny
pierwotnych
pierwotnym
pierwsi
pierwsza
pierwsze
pierwszego
pierwszej
pierwszem
pierwszemu
pierwszenstwo
pierwszy
pierwszych
pierwszym
pierwszymi
pies
piesc
piesci
piescia
piesciami
piesn
piesni
piesnia
pieszczoty
pieszo
pieszy
pieszych
pieta
pieter
pietkiewicz
pietnascie
pietnastu
pietno
pietra
pietro
pietrzak
pietrze
pija
pijany
pije
pik
pil
pili
pilnie
pilno
pilnowac
pilnował
pilnuje
piloci
pilot
pilota
pilotem
pilotow
pink
pinus
pinyin
pionier
pionierow
pionowe
pionowo
pior
piora
piorem
piorkowej
pioro
piorun
pioruna
piorunem
piorunow
pioruny
piosence
piosenek
piosenka
piosenkarka
piosenkarki
piosenkarz
piosenkarza
piosenke
piosenki
piotr
piotra
piotrem
piotrkow
piotrkowie
piotrkowskiego
piotrowi
piotrowicz
piotrowski
piotrp
piotrus
piotrze
piraci
piramida
piramidy
piratow
pireneje
pis
pisac
pisali
pisana
pisane
pisania
pisanie
pisano
pisany
pisanych
pisarcikova
pisarka
pisarz
pisarza
pisarze
pisarzem
pisarzy
pisał
pisała
pisałem
piskleta
pism
pisma
pismach
pismem
pismie
pismiennictwa
pismiennictwie
pismo
pisowni
pisownia
pisownie
pistolet
pistoletow
pistoletu
pistolety
pisz
pisza
piszac
pisze
piszemy
pit
pitoux
pitt
pittsburgh
pius
piusa
piw
piwa
piwnice
piwnicy
piwo
pił
piła
piłce
piłka
piłkarka
piłkarska
piłkarski
piłkarskich
piłkarskie
piłkarskiego
piłkarskiej
piłkarz
piłkarza
piłkarze
piłkarzem
piłkarzy
piłke
piłki
piłsudski
piłsudskiego
piły
pj
pk
pkb
pkp
pks
pkt
pku
pkw
pl
plac
place
placem
places
placid
placow
placowek
placowka
placowke
placowki
placu
plakat
plam
plama
plamami
plamy
plan
planach
planem
planet
planeta
planete
planetoid
planetoida
planetoidy
planety
planie
planow
planowana
planowane
planowania
planowano
planował
plant
plantes
plants
planu
planuje
plany
plastyczne
plastycznych
plasujac
plasuje
plata
plate
plater
platform
platforma
platforme
platformie
platformy
platinum
platon
platona
platynowe
platynowej
play
player
players
playstation
plaza
plaze
plazy
pleban
plebania
plebanii
plebiscycie
plebiscytu
plecach
plecami
plecow
plecy
plejada
plemie
plemienia
plemion
plemiona
plik
pliki
plikow
pliku
plk
pln
plon
plos
plot
plotek
plotki
plus
pluton
plutonu
plwabn
plymouth
pm
pmc
pmcid
pmid
pn
pna
pni
pnia
pnie
po
pob
pobiegł
pobiegła
pobierał
pobity
pobił
pobladł
pobladła
pobliskich
pobliskiego
pobliskiej
pobliskim
poblizu
poboru
pobozna
pobozne
poboznego
poboznosc
poboznosci
pobozny
poboznych
pobudek
pobudki
pobycie
pobyt
pobytu
pocałowac
pocałował
pocałowała
pocałunek
pocałunkami
pocałunku
pocet
pochod
pochodna
pochodne
pochodni
pochodnia
pochodnie
pochodu
pochodza
pochodzaca
pochodzace
pochodzacego
pochodzacej
pochodzacy
pochodzacych
pochodzacym
pochodzenia
pochodzenie
pochodzeniu
pochodzi
pochodzic
pochodzie
pochodził
pochodziła
pochodziło
pochodziły
pochowana
pochowani
pochowano
pochowany
pochowanych
pochowku
pochwalic
pochwalił
pochwała
pochwałe
pochwały
pochwy
pochwycic
pochwycił
pochwyciła
pochylajac
pochylił
pochyliła
pochylona
pochylony
pociag
pociaga
pociagi
pociagiem
pociagnac
pociagnał
pociagneła
pociagow
pociagu
pocichu
pociecha
pocieche
pociechy
pocieszac
pocieszał
pocieszenia
pocieszyc
pocisk
pociskami
pociski
pociskow
pocisku
poco
pocoz
pocty
pocz
poczac
poczatek
poczatkach
poczatki
poczatkiem
poczatkow
poczatkowa
poczatkowe
poczatkowej
poczatkowo
poczatkowych
poczatkowym
poczatku
poczawszy
poczał
poczałem
poczciwa
poczciwe
poczciwego
poczciwy
poczecia
poczekac
poczekaj
poczeli
poczem
poczet
poczeto
poczeła
poczeło
poczeły
pocznie
poczta
poczte
pocztowa
pocztowe
pocztowy
pocztowych
poczty
poczucia
poczucie
poczuciem
poczuł
poczuła
poczułem
poczyna
poczynajac
poczynał
pod
podac
podaj
podaja
podajac
podaje
podali
podan
podana
podane
podania
podanie
podano
podany
podarował
podatek
podatki
podatkow
podatku
podawac
podawana
podawane
podawano
podawał
podazył
podał
podała
podbiegł
podbite
podboj
podboju
podchorazych
podchwycił
podczas
poddac
poddaje
poddane
poddani
poddania
poddanie
poddano
poddany
poddanych
poddał
podejmowania
podejmował
podejmuje
podejrzany
podejrzanych
podejrzen
podejrzenia
podejrzenie
podejsc
podejscia
podejscie
podeszła
podgatunek
podgatunki
podgatunkow
podgatunku
podhalanskich
podhale
podium
podjac
podjał
podjecia
podjecie
podjeli
podjeta
podjeto
podjeła
podjeły
podkarpackiego
podkarpackim
podkomorzy
podkresla
podkreslał
podkreslic
podkreslił
podla
podlasiu
podlaska
podlaski
podlaskie
podlaskiego
podlaskiej
podlaskim
podle
podlega
podlegaja
podlegał
podlegała
podlegały
podległych
podmiot
podmiotow
podmiotu
podmioty
podniecony
podniesc
podniesie
podniesienia
podniesienie
podniesiona
podniesiono
podniesiony
podniesionym
podniesli
podniosł
podniosła
podniosłem
podniosło
podniosłszy
podniosły
podnosi
podnosic
podnosił
podnosiła
podnosiły
podnosza
podnoszac
podnoszenia
podnoszenie
podnoza
podoba
podobac
podobał
podobała
podobało
podobienstwa
podobienstwo
podobna
podobne
podobnego
podobnej
podobnem
podobni
podobnie
podobniez
podobno
podobny
podobnych
podobnym
pododdział
pododdziałow
pododdziały
podoficer
podoficerow
podowczas
podpis
podpisac
podpisali
podpisana
podpisania
podpisanie
podpisaniu
podpisano
podpisany
podpisał
podpisała
podpisu
podporucznik
podporucznika
podporzadkowanie
podpułkownik
podpułkownika
podrecznik
podrecznika
podrecznikow
podreczny
podrodzina
podrodziny
podroz
podrozach
podroze
podrozni
podroznik
podrozny
podroznych
podrozowac
podrozował
podrozy
podrzedu
podstaw
podstawa
podstawach
podstawe
podstawie
podstawkowych
podstawowa
podstawowe
podstawowego
podstawowej
podstawowy
podstawowych
podstawowym
podstawy
podstep
podsumowanie
podszedł
poduszke
poduszki
podw
podwodne
podwodny
podwodnych
podwojna
podwojne
podwojnego
podwojnej
podwojnie
podwojny
podwojnych
podwojnym
podworza
podworze
podworzu
podwozie
podwyzszenia
podwładnych
podyplomowe
podziale
podział
podziałem
podziału
podziały
podziekowac
podziekowanie
podziekował
podziel
podzielic
podzielił
podzielona
podzielone
podzielono
podzielony
podziemia
podziemiach
podziemna
podziemne
podziemnego
podziemnej
podziemny
podziemnych
podziw
podziwem
podziwiac
podziwiał
podziwu
podłodze
podłoga
podłoge
podłogi
podłoza
podłoze
podłozu
podług
podłuzne
podły
poe
poeci
poecie
poemat
poematu
poems
poet
poeta
poete
poetka
poetow
poety
poetycka
poetycki
poetyckie
poetyckiej
poezja
poezje
poezji
poezya
poezye
poezyi
pogan
poganskich
pogarda
pogarde
pogardliwie
pogardy
poglad
pogladach
pogladow
pogladu
poglady
pogoda
pogode
pogodna
pogodne
pogodny
pogody
pogodzic
pogodzie
pogon
pogoni
pogorze
pogotowiu
pogranicza
pograniczu
pograzona
pograzony
pograzył
pogrzeb
pogrzebie
pogrzebu
pogłoski
poinformowano
poinformował
poinformowała
point
pojac
pojade
pojawi
pojawia
pojawiac
pojawiaja
pojawiał
pojawiały
pojawic
pojawienia
pojawienie
pojawili
pojawił
pojawiła
pojawiło
pojawiły
pojazd
pojazdow
pojazdu
pojazdy
pojał
pojda
pojde
pojdz
pojdzie
pojdziemy
pojdziesz
pojec
pojechac
pojechali
pojechał
pojechała
pojecia
pojecie
pojeciem
pojeciu
pojednania
pojedyncza
pojedyncze
pojedynczego
pojedynczej
pojedynczo
pojedynczy
pojedynczych
pojedynczym
pojedynek
pojedynki
pojedynkow
pojedynku
pojedzie
pojedziemy
pojedziesz
pojemnosc
pojemnosci
pojezierza
pojezierze
pojezierzu
pojmował
pojmuje
pojmujesz
pojsc
pojutrze
pokarm
pokarmowego
pokarmu
pokaz
pokazac
pokazano
pokazał
pokazała
pokazało
pokaze
pokazuja
pokazujac
pokazuje
pokazy
pokazywac
pokazywał
poki
pokiwał
pokochał
pokoi
pokoik
pokoiku
pokoj
pokojach
pokoje
pokojow
pokojowa
pokojowe
pokojowego
pokojowej
pokojowka
pokojowy
pokojowych
pokoju
pokolen
pokolenia
pokolenie
pokoleniu
pokonac
pokonali
pokonania
pokonaniu
pokonany
pokonał
pokonała
pokonujac
pokora
pokornie
pokorny
pokory
pokrajac
pokrewienstwa
pokrewienstwo
pokrewne
pokrewnych
pokroj
pokryc
pokrycia
pokrycie
pokryta
pokryte
pokryty
pokrytych
pokryw
pokrywa
pokrywaja
pokrywy
pokrył
pokusa
pokute
pokuty
pokład
pokładu
pokłady
pokładzie
pokłon
pol
pola
polach
polacy
polak
polaka
polakami
polakiem
polakom
polakow
polami
polana
poland
polanie
polany
pole
polecen
polecenia
polecenie
poleciał
polecił
polega
polegac
polegajaca
polegajace
polegajacy
polegała
polegli
poległ
poległych
polem
polen
police
policja
policjanci
policjant
policjanta
policjantow
policje
policji
policy
policyi
policyjny
policzalny
policzek
policzkach
policzki
polish
polit
politechnice
politechnika
politechniki
political
politics
politolog
polityce
politycy
polityczna
polityczne
politycznego
politycznej
politycznie
polityczno
polityczny
politycznych
politycznym
polityk
polityka
polityke
polityki
politykow
polka
polki
polna
polny
polo
pologne
polona
polonia
poloniae
polonica
polonii
polowa
polowac
polowania
polowanie
polowaniu
polowej
polowy
polowych
polsat
polsce
polscy
polska
polske
polski
polskich
polskie
polskiego
polskiej
polskiem
polskiemu
polskieradio
polskim
polskimi
polsko
polsku
polszczyzny
polu
pomaga
pomagac
pomagaja
pomagajac
pomagał
pomagała
pomału
pomiar
pomiarow
pomiaru
pomiary
pomiedzy
pomiescic
pomieszanie
pomieszczen
pomieszczenia
pomieszczenie
pomijajac
pomimo
pomnik
pomnika
pomniki
pomnikiem
pomnikow
pomoc
pomoca
pomocnicza
pomocnicze
pomocniczy
pomocniczych
pomocniczym
pomocnik
pomocnika
pomocnikiem
pomocnikow
pomocy
pomodz
pomogł
pomogła
pomogło
pomorska
pomorski
pomorskich
pomorskie
pomorskiego
pomorskiej
pomorskim
pomorza
pomorze
pomorzu
pomost
pomowic
pomoze
pompy
pomscic
pomysl
pomyslał
pomyslała
pomyslałem
pomysle
pomyslec
pomysli
pomyslnie
pomysł
pomysłodawca
pomysłow
pomysłu
pomysły
pomyłka
ponad
ponadto
ponczochy
pone
poniatowski
poniatowskiego
poniedziałek
poniekad
poniesc
poniesli
poniewaz
poniosł
poniosła
poniosło
ponizej
ponizsza
pono
ponowne
ponownego
ponownie
pont
ponumerowanych
ponura
ponure
ponuro
ponury
ponurym
pop
popadł
poparcia
poparcie
poparciem
poparł
popatrzał
popatrzył
pope
popedził
popełnia
popełnic
popełnił
popierał
popiersie
popioł
popis
popkiller
popołudnia
popołudnie
popołudniu
poprawa
poprawe
poprawiajac
poprawic
poprawione
poprawił
poprawiła
poprawki
poprawnie
poprawy
poprosic
poprosił
poprosiła
poprostu
poprosze
poprowadził
poprzeczka
poprzedni
poprzednia
poprzednich
poprzednie
poprzedniego
poprzedniej
poprzednik
poprzednika
poprzednikow
poprzednim
poprzednio
poprzek
poprzez
populacional
populacja
populacje
populacji
popular
popularna
popularne
popularnego
popularnej
popularnosc
popularnosci
popularnoscia
popularny
popularnych
popularnym
populatia
population
populations
popłoch
popłochu
popłynał
por
pora
porada
poradnia
poradnik
porady
poradzic
poradził
poranek
poranku
poranny
poraz
porazce
porazka
porazke
porazki
porcelany
porcie
pore
poreba
porecz
poreczy
porno
poronin
porosniete
porostow
porownac
porownania
porownanie
porownaniu
porozumiec
porozumienia
porozumienie
porozumieniu
porsche
port
porta
portal
portalu
portem
porter
porthos
portland
porto
portoryko
portow
portrait
portret
portretow
portretu
portrety
portsmouth
portu
portugal
portugalia
portugalii
portugalski
portugalskiej
portuguesa
porty
porucznik
porucznika
porucznikiem
porusza
poruszac
poruszaja
poruszajac
poruszania
poruszał
poruszały
poruszenia
poruszenie
poruszony
poruszyc
poruszył
poruszyła
porwac
porwali
porwanie
porwany
porwał
porwała
pory
porywa
porzadek
porzadkiem
porzadkowy
porzadku
porzadnie
porzadny
porze
porzucic
porzucił
posade
posady
posadzce
posadzic
posadził
posadzke
posadzki
posag
posagi
posagow
posagu
posciel
poscieli
poscig
poscigu
poselski
poselstwa
poselstwo
posepna
posepne
posepnie
posepny
posesji
poseł
posiada
posiadac
posiadaja
posiadajac
posiadajaca
posiadajace
posiadajacy
posiadajacych
posiadali
posiadam
posiadamy
posiadania
posiadanie
posiadaniu
posiadał
posiadała
posiadało
posiadały
posiadłosc
posiadłosci
posiasc
posiedzen
posiedzenia
posiedzenie
posiedzeniu
position
posiłek
posiłki
posiłkow
posiłku
poskoczył
posle
poslubic
poslubił
poslubiła
posmiertnie
pospiech
pospiechem
pospiechu
pospiesznie
pospieszył
pospolicie
pospolita
pospolite
pospolitego
pospolitej
pospolity
pospolitych
pospołu
posredni
posrednia
posrednictwem
posrednie
posrednio
posrod
posrodku
post
postac
postaci
postacia
postaciami
postacie
postanawia
postanowien
postanowienia
postanowienie
postanowieniem
postanowieniu
postanowili
postanowiono
postanowił
postanowiła
postanowiłem
postapic
postapił
postapiła
postaram
postaw
postawa
postawe
postawic
postawie
postawiono
postawiony
postawił
postawiła
postawy
postep
postepek
postepowac
postepowania
postepowanie
postepowaniem
postepowaniu
postepował
postepu
postepuje
postepy
posterunek
posterunku
postoju
postrach
postrzegł
posunał
posuwac
posuwał
poswieca
poswiecał
poswiecenia
poswiecenie
poswiecic
poswiecił
poswieciła
poswiecona
poswiecone
poswieconej
poswiecono
poswiecony
poswieconych
poszanowania
poszanowanie
poszczegolne
poszczegolnych
poszedł
poszedłem
poszli
poszlismy
poszukac
poszukiwan
poszukiwania
poszukiwanie
poszukiwaniu
poszła
poszło
poszły
posła
posłac
posłanca
posłanie
posłaniec
posłanka
posłano
posłał
posłem
posłow
posłowie
posłuchac
posłuchaj
posługe
posługi
posługiwac
posługiwał
posługuja
posługuje
posłuszenstwa
posłuszenstwo
posłuszna
posłuszny
posłusznym
posłuzyc
posłyszawszy
posłyszał
pot
potajemnie
potasu
potedze
potega
potege
potegi
potem
potencjalnie
potencjalnych
potencjał
potencjału
potezna
potezne
poteznego
poteznej
poteznie
potezny
poteznych
poteznym
poto
potocki
potockiego
potocznie
potoczył
potok
potoki
potokiem
potokow
potoku
potomek
potomka
potomkow
potomkowie
potomstwa
potomstwo
potopu
potrafi
potrafia
potrafie
potrafili
potrafisz
potrafił
potrafiła
potraw
potrawa
potrawy
potrosze
potrwa
potrzasajac
potrzasnał
potrzeb
potrzeba
potrzebe
potrzebie
potrzebna
potrzebne
potrzebny
potrzebnych
potrzebowac
potrzebowali
potrzebował
potrzebowała
potrzebuja
potrzebuje
potrzebujemy
potrzebujesz
potrzeby
potter
potu
potwierdza
potwierdzaja
potwierdzenia
potwierdzenie
potwierdził
potwierdziła
potwierdziły
potwierdzone
potwierdzono
potwor
potwora
potworne
potworow
potwory
poty
potyczki
potym
poufale
pour
povazaj
pow
powaga
powage
powagi
powazkach
powazki
powazkowskim
powazna
powazne
powaznego
powaznej
powaznie
powazny
powaznych
powaznym
powell
power
powiada
powiadaja
powiadam
powiadasz
powiadał
powiat
powiatach
powiatem
powiatow
powiatowa
powiatowe
powiatowego
powiatowej
powiatowy
powiatowych
powiatowym
powiatu
powiaty
powiazane
powiazania
powiazanych
powie
powiecie
powiedz
powiedza
powiedzcie
powiedzenia
powiedziane
powiedziano
powiedziawszy
powiedział
powiedziała
powiedziałam
powiedziałem
powiedziałes
powiedziec
powiedzieli
powiedzielismy
powiedzmy
powiek
powiekami
powieki
powiem
powiemy
powierzchni
powierzchnia
powierzchnie
powierzchownosc
powierzchownosci
powierzono
powierzyc
powierzył
powiesc
powiesci
powiescia
powiesic
powiesz
powietrza
powietrze
powietrzem
powietrzna
powietrzne
powietrznej
powietrznych
powietrzu
powiew
powinien
powinienem
powinienes
powinna
powinnam
powinnas
powinni
powinnismy
powinno
powinnosc
powinnosci
powinny
powiodł
powiodła
powiodło
powitac
powitania
powitanie
powitał
powod
powodem
powodow
powodowac
powodowało
powodu
powoduja
powodujac
powoduje
powody
powodz
powodzenia
powodzenie
powodzeniem
powodzi
powojennej
powojennych
powoli
powolna
powolne
powolnie
powolny
powolnym
powoz
powozem
powozie
powozow
powozu
powozy
powołana
powołania
powołanie
powołaniu
powołano
powołany
powołał
powołujac
powołuje
powraca
powracac
powracajac
powracał
powroce
powroci
powrocic
powrocie
powrocili
powrociwszy
powrocił
powrociła
powrociły
powrot
powrotem
powrotnej
powrotu
powstac
powstaja
powstajace
powstaje
powstali
powstan
powstancow
powstancy
powstancze
powstania
powstanie
powstaniec
powstaniem
powstaniu
powstawac
powstawania
powstawanie
powstawały
powstał
powstała
powstałe
powstałego
powstałej
powstało
powstały
powstałych
powstrzymac
powstrzymał
powszechna
powszechne
powszechnego
powszechnej
powszechnie
powszechny
powszechnych
powszechnym
powszedni
powtarza
powtarzac
powtarzaja
powtarzajac
powtarzam
powtarzał
powtarzała
powtore
powtornie
powtorzyc
powtorzył
powtorzyła
powyzej
powyzsze
powyzszego
powyzszych
powział
powłoka
poz
poza
pozadana
pozadany
pozajscie
pozar
pozarna
pozarnej
pozarow
pozaru
pozary
pozarze
pozatem
pozbawic
pozbawienia
pozbawiona
pozbawione
pozbawiony
pozbawionych
pozbawił
pozbyc
pozdrowienie
pozegnac
pozegnania
pozegnanie
pozegnawszy
pozegnał
poziom
poziomem
poziomie
poziomow
poziomu
poziomy
pozna
poznac
poznaj
poznaja
poznaje
poznali
poznan
poznania
poznanie
poznaniu
poznanska
poznanski
poznanskich
poznanskie
poznanskiego
poznanskiej
poznanskim
poznasz
poznawszy
poznał
poznała
poznałem
poznego
poznej
pozniej
pozniejsza
pozniejsze
pozniejszego
pozniejszej
pozniejszy
pozniejszych
pozniejszym
pozno
poznym
pozor
pozorem
pozorna
pozornie
pozorow
pozoru
pozory
pozostac
pozostaja
pozostajac
pozostaje
pozostali
pozostana
pozostanie
pozostawac
pozostawał
pozostawała
pozostawało
pozostawały
pozostawia
pozostawiajac
pozostawic
pozostawiono
pozostawił
pozostał
pozostała
pozostałe
pozostałej
pozostało
pozostałosc
pozostałosci
pozostałoscia
pozostały
pozostałych
pozostałymi
pozwala
pozwalac
pozwalaja
pozwalajac
pozwalajace
pozwalam
pozwalał
pozwalała
pozwalało
pozwalały
pozwol
pozwola
pozwolcie
pozwole
pozwolenia
pozwolenie
pozwoleniem
pozwoli
pozwolic
pozwolisz
pozwolił
pozwoliła
pozwoliło
pozwoliły
pozwolono
pozycja
pozycjach
pozycje
pozycji
pozyczki
pozyczyc
pozyskac
pozyskania
pozyskał
pozyteczne
pozytek
pozytku
pozytywna
pozytywne
pozytywnie
pozywienia
pozywienie
poł
połaczen
połaczenia
połaczenie
połaczeniem
połaczeniu
połaczona
połaczone
połaczono
połaczony
połaczonych
połaczyc
połaczył
połaczyła
połaniecki
połautomatycznie
połciezkiej
połfinale
połfinał
połfinałow
połfinału
połfinały
połgłosem
połkuli
połnoc
połnocna
połnocne
połnocnego
połnocnej
połnocno
połnocny
połnocnych
połnocnym
połnocy
połowa
połowe
połowie
połowy
połozenia
połozenie
połozeniem
połozeniu
połozona
połozone
połozonego
połozonej
połozono
połozony
połozonych
połozonym
połozyc
połozył
połozyła
połozyłem
połsredniej
połtora
południa
południe
południem
południowa
południowe
południowego
południowej
południowo
południowoafrykanski
południowokoreanski
południowy
południowych
południowym
południu
połwysep
połwyspie
połwyspu
poły
pp
ppor
ppr
pps
ppłk
pq
pr
prac
praca
pracach
pracami
prace
pracowac
pracowali
pracował
pracowała
pracowało
pracowni
pracownia
pracownicy
pracownie
pracownik
pracownika
pracownikiem
pracownikow
practice
pracuja
pracujac
pracujacego
pracujacy
pracujacych
pracuje
pracy
prad
pradem
pradesh
prado
pradow
pradu
prady
pradze
praga
pragi
pragna
pragnac
pragnał
pragnałbym
pragnałem
pragne
pragneli
pragneła
pragnie
pragnien
pragnienia
pragnienie
pragnieniem
pragniesz
praha
praktyce
praktyczna
praktyczne
praktycznie
praktyczny
praktycznych
praktyk
praktyka
praktyke
praktyki
praktykował
prasa
prasie
prasowa
prasowe
prasowego
prasowej
prasowy
prasowych
prasy
prasł
praw
prawa
prawach
prawami
prawd
prawda
prawde
prawdopodobienstwa
prawdopodobienstwo
prawdopodobna
prawdopodobne
prawdopodobnie
prawdy
prawdzie
prawdziwa
prawdziwe
prawdziwego
prawdziwej
prawdziwem
prawdziwie
prawdziwy
prawdziwych
prawdziwym
prawe
prawego
prawej
prawem
prawica
prawicy
prawidłowa
prawidłowo
prawie
prawił
prawna
prawne
prawnego
prawnej
prawnicze
prawnie
prawnik
prawnika
prawnikow
prawny
prawnych
prawnym
prawo
prawom
prawosławia
prawosławna
prawosławnego
prawosławnej
prawosławni
prawosławny
prawosławnych
prawosławnym
prawu
prawy
prawym
prałat
pre
prebivalci
precikow
precz
predko
predkosc
predkosci
predkoscia
predzej
prefekt
prefekta
prefektura
prefektury
prefekturze
preferuje
preliminary
premier
premiera
premiere
premierem
premiery
premierze
premierzy
premio
present
presente
president
press
prestizowych
preston
pretekstem
pretensje
pretty
prezbiter
prezbiterium
prezent
prezentacja
prezentacji
prezenter
prezentowane
prezentował
prezentuje
prezes
prezesa
prezesem
prezydenci
prezydenckich
prezydenckie
prezydent
prezydenta
prezydentem
prezydentowi
prezydiow
prezydium
pri
price
pride
prima
prime
primera
primo
prince
princess
princeton
print
private
prix
prize
prl
pro
prob
proba
probach
probe
probie
probki
problem
problemami
problematyka
problemem
problemow
problemu
problemy
proboszcz
proboszcza
proboszczem
probowac
probowali
probowano
probował
probowała
probuja
probujac
probuje
proby
proc
procedura
procedure
procedury
proceedings
procent
proces
procesach
procesem
procesie
procesor
procesow
procesu
procesy
proch
prochu
prochwicz
prochy
procyclingstats
procz
prod
producenci
producent
producenta
producentem
producentow
production
productions
produkcja
produkcjach
produkcje
produkcji
produkcyjnych
produkowana
produkowane
produkowano
produkowany
produkowanych
produkt
produktem
produktow
produktu
produkty
produkuje
prof
profesjonalna
profesjonalny
profesor
profesora
profesorem
profesorow
profesorowie
profesorze
professional
professor
profil
profile
profilu
prog
progi
progiem
program
programach
programem
programie
programme
programow
programowania
programowanie
programowej
programu
programy
progress
progu
proj
project
projekcie
projekt
projektach
projektami
projektant
projektantem
projektem
projektow
projektowania
projektu
projekty
prokop
prokurator
prokuratora
prokuratura
prokuratury
proletarjatu
prom
promien
promieni
promieniach
promieniami
promienie
promieniowania
promieniowanie
promieniu
promocja
promocje
promocji
promotor
promotorem
promowany
promował
promujacy
propaganda
propagandy
proponował
proponuje
proporcja
proporcje
propozycja
propozycje
propozycji
propulsion
prorektor
prorok
proroka
prorokow
pros
prosb
prosba
prosbe
prosby
prosi
prosic
prosili
prosimy
prosił
prosiła
prosiłem
prosta
proste
prostego
prostej
prosto
prostokata
prostota
prostoty
prostu
prosty
prostych
prostym
prosza
proszac
prosze
proszek
proszynski
protest
protestantow
protestow
protestu
protesty
protokoł
protokołu
protokoły
prototyp
prototypu
province
prowadza
prowadzac
prowadzaca
prowadzace
prowadzacego
prowadzacej
prowadzacy
prowadzacych
prowadzacym
prowadzenia
prowadzenie
prowadzeniu
prowadzi
prowadzic
prowadzili
prowadził
prowadziła
prowadziło
prowadziły
prowadzona
prowadzone
prowadzonego
prowadzonej
prowadzono
prowadzony
prowadzonych
prowadzonym
prowansja
prowincja
prowincjach
prowincje
prowincji
prowincyi
proza
prozaik
prozna
prozne
prozni
prozno
proznosc
proznosci
prozy
prudnik
prus
prusach
pruska
pruski
pruskich
pruskie
pruskiego
pruskiej
pruskim
prusy
pruszkow
prymas
prymasa
prywatna
prywatne
prywatnego
prywatnej
prywatnie
prywatny
prywatnych
prywatnym
prze
przebacz
przebaczenia
przebaczenie
przebaczy
przebaczyc
przebic
przebieg
przebiega
przebiegaja
przebiegał
przebiegała
przebiegu
przebiegł
przebiegła
przebiegły
przeboje
przebojem
przebojow
przebudowa
przebudowana
przebudowano
przebudowany
przebudowe
przebudowie
przebudowy
przebudzenie
przebyc
przebycia
przebywa
przebywac
przebywaja
przebywajac
przebywali
przebywał
przebywała
przebył
przechadzac
przechadzał
przechadzke
przechadzki
przechodni
przechodniow
przechodza
przechodzac
przechodzi
przechodzic
przechodzili
przechodził
przechodziła
przechodziły
przechowuje
przechowywane
przechowywania
przechowywany
przeciag
przeciagle
przeciagu
przecie
przecietnie
przeciez
przecina
przeciw
przeciwienstwie
przeciwko
przeciwlotnicze
przeciwlotniczej
przeciwna
przeciwne
przeciwnego
przeciwnej
przeciwnicy
przeciwnie
przeciwnik
przeciwnika
przeciwnikiem
przeciwnikow
przeciwny
przeciwnych
przeciwnym
przeczucia
przeczucie
przeczuwał
przeczytac
przeczytaj
przeczytał
przed
przeddzien
przede
przedemna
przedewszystkiem
przedmiescia
przedmiesciach
przedmiescie
przedmiesciu
przedmiocie
przedmiot
przedmiotem
przedmiotow
przedmiotu
przedmioty
przedmowa
przedni
przednia
przednich
przednie
przedniego
przedniej
przednim
przedostac
przedostał
przedplecze
przedpokoju
przedsiebiorca
przedsiebiorcow
przedsiebiorcy
przedsiebiorczosci
przedsiebiorstw
przedsiebiorstwa
przedsiebiorstwie
przedsiebiorstwo
przedsiewziec
przedsiewziecia
przedsiewziecie
przedstawia
przedstawiac
przedstawiaja
przedstawiajac
przedstawiajaca
przedstawiajace
przedstawiajacy
przedstawiajacych
przedstawiał
przedstawiała
przedstawiały
przedstawic
przedstawiciel
przedstawiciela
przedstawicielami
przedstawiciele
przedstawicielem
przedstawicieli
przedstawien
przedstawienia
przedstawienie
przedstawieniu
przedstawiona
przedstawione
przedstawiono
przedstawiony
przedstawił
przedstawiła
przedszkole
przedtem
przedwczesnie
przedziale
przedział
przedziału
przedzie
przedłuzenia
przedłuzenie
przedłuzył
przeglad
przegladu
przegladzie
przegrali
przegrana
przegranej
przegrany
przegranych
przegranym
przegrał
przegrała
przegrywajac
przejac
przejazd
przejazdu
przejał
przejdzie
przejechac
przejechał
przejecia
przejecie
przejeciem
przejeciu
przejeli
przejeta
przejete
przejety
przejeła
przejeło
przejeły
przejmował
przejmuje
przejsc
przejscia
przejsciach
przejscie
przejsciem
przejsciowo
przejsciowy
przejsciu
przekaz
przekazac
przekazana
przekazane
przekazania
przekazanie
przekazano
przekazany
przekazał
przekazała
przekazu
przekazuje
przeklenstwa
przeklenstwo
przekleta
przeklete
przeklety
przekona
przekonac
przekonan
przekonana
przekonani
przekonania
przekonanie
przekonaniem
przekonaniu
przekonany
przekonasz
przekonawszy
przekonał
przekonała
przekonałem
przekracza
przekroczyc
przekroczył
przekroczyła
przekroj
przekroju
przekształcenia
przekształcenie
przekształcona
przekształcone
przekształcono
przekształcony
przekł
przekład
przekładu
przekłady
przekładzie
przeleciał
przemawia
przemawiac
przemawiał
przemian
przemiana
przemianowana
przemianowano
przemianowany
przemiany
przemienienia
przemknał
przemoc
przemoca
przemocy
przemowic
przemowienia
przemowienie
przemowił
przemowiła
przemyski
przemyskiej
przemysl
przemysla
przemysle
przemyslu
przemysł
przemysław
przemysłowa
przemysłowe
przemysłowego
przemysłowej
przemysłowiec
przemysłowy
przemysłowych
przemysłowym
przemysłu
przen
przenajswietszej
przeniesc
przeniesienia
przeniesienie
przeniesieniu
przeniesiona
przeniesione
przeniesiono
przeniesiony
przeniesli
przenika
przeniknac
przeniosł
przeniosła
przenosi
przenosic
przenoszac
przenoszenia
przenoszeniu
przeor
przepadł
przepasc
przepasci
przepascia
przepedzic
przepis
przepisami
przepisow
przepisy
przepraszam
przeprawy
przeprowadza
przeprowadzac
przeprowadzenia
przeprowadzenie
przeprowadzeniu
przeprowadzic
przeprowadzili
przeprowadził
przeprowadziła
przeprowadzona
przeprowadzone
przeprowadzonej
przeprowadzono
przeprowadzony
przeprowadzonych
przepustka
przepych
przepychem
przepychu
przepływ
przepływa
przepływu
przeraza
przerazenia
przerazenie
przerazeniem
przeraził
przerazliwie
przerazliwy
przerazona
przerazony
przerwa
przerwac
przerwami
przerwana
przerwane
przerwania
przerwał
przerwała
przerwało
przerwe
przerwie
przerwy
przerywa
przerywajac
przerywał
przesadow
przesady
przesladowan
przesladowania
przesliczna
przesliczne
przest
przestac
przestajac
przestaje
przestali
przestan
przestanie
przestawał
przestał
przestała
przestało
przestały
przestepcow
przestepstw
przestepstwa
przestepstwo
przestrach
przestrachem
przestrachu
przestraszona
przestraszony
przestrzen
przestrzeni
przestrzenia
przestrzenie
przestrzennego
przestrzennej
przesunał
przesuniecie
przesuniety
przeszedł
przeszedłszy
przeszkadza
przeszkadzac
przeszkadzał
przeszkadzało
przeszkod
przeszkoda
przeszkodami
przeszkode
przeszkody
przeszkodzic
przeszkodzie
przeszli
przeszła
przeszłego
przeszło
przeszłosc
przeszłosci
przeszłoscia
przeszły
przetarg
przeto
przetoz
przetrwac
przetrwał
przetrwała
przetrwały
przetwarzania
przewaga
przewage
przewagi
przewaznie
przewiduje
przewidywał
przewidziec
przewieziono
przewieziony
przewodnictwem
przewodniczaca
przewodniczacego
przewodniczacy
przewodniczacym
przewodniczył
przewodnik
przewodnika
przewodnikiem
przewodnikow
przewodu
przewoznik
przewozow
przewozu
przewozy
przewrocił
przewrot
przewrotu
przewyzsza
przez
przeze
przezegnał
przezemnie
przezen
przeznaczenia
przeznaczenie
przeznaczeniem
przeznaczona
przeznaczone
przeznaczonego
przeznaczono
przeznaczony
przeznaczonych
przeznaczył
przezroczyste
przezyc
przezycia
przezywa
przezył
przezyła
przeł
przełecz
przełeczy
przełom
przełomie
przełomu
przełozona
przełozonego
przełozony
przełozonych
przełozonym
przełozył
przod
przodem
przodkow
przodkowie
przodu
przodzie
przy
przybedzie
przybiegł
przybiera
przybierac
przyblizeniu
przybrac
przybrana
przybrał
przybrała
przybyc
przybycia
przybycie
przybyciem
przybyciu
przybyli
przybylismy
przybylski
przybysz
przybysza
przybyszow
przybytku
przybywa
przybywaja
przybywali
przybywał
przybywszy
przybył
przybyła
przybyłego
przybyłem
przybyło
przybyły
przybyłych
przychodza
przychodze
przychodzi
przychodzic
przychodzili
przychodził
przychodziła
przychodziło
przychodziły
przycisnał
przyczem
przyczyn
przyczyna
przyczyne
przyczynek
przyczynia
przyczynic
przyczynił
przyczyniła
przyczyniło
przyczyniły
przyczyny
przyda
przydac
przydomek
przydział
przydzielony
przygladac
przygladajac
przygladał
przygod
przygoda
przygodach
przygode
przygody
przygotowac
przygotowan
przygotowana
przygotowane
przygotowania
przygotowanie
przygotowaniu
przygotowano
przygotowany
przygotował
przygotowała
przygotowuje
przygotowywał
przyimek
przyjac
przyjaciel
przyjaciela
przyjaciele
przyjacielem
przyjacielowi
przyjacielu
przyjacioł
przyjaciołka
przyjaciołke
przyjaciołki
przyjaciołmi
przyjaciołom
przyjazd
przyjazdu
przyjazn
przyjazne
przyjazni
przyjaznie
przyjał
przyjda
przyjde
przyjdz
przyjdzie
przyjdziesz
przyjechac
przyjechali
przyjechał
przyjechała
przyjechałem
przyjecia
przyjecie
przyjeciem
przyjeciu
przyjedzie
przyjeli
przyjemna
przyjemne
przyjemnie
przyjemnosc
przyjemnosci
przyjemnoscia
przyjemny
przyjeta
przyjete
przyjeto
przyjety
przyjetych
przyjezdza
przyjezdzac
przyjezdzie
przyjeła
przyjeło
przyjeły
przyjmie
przyjmowac
przyjmowania
przyjmowano
przyjmował
przyjmowała
przyjmuja
przyjmujac
przyjmuje
przyjrzec
przyjsc
przykra
przykre
przykrego
przykro
przykrosc
przykrosci
przykry
przykład
przykładami
przykładem
przykładow
przykładowo
przykładu
przykłady
przykładzie
przyladek
przyladka
przylega
przym
przymierza
przymierze
przymiotnik
przymiotniki
przymiotow
przymioty
przymus
przymusowej
przymusu
przynajmniej
przynaleznosc
przynaleznosci
przynies
przyniesc
przyniesie
przyniesiono
przyniesli
przyniosł
przyniosła
przyniosło
przyniosły
przynosi
przynosił
przynosza
przynoszac
przyp
przypada
przypadek
przypadkach
przypadki
przypadkiem
przypadkow
przypadkowo
przypadku
przypadł
przypadła
przypadło
przypatrujac
przypatrywac
przypatrywał
przypis
przypisac
przypisane
przypisuje
przypomina
przypominac
przypominaja
przypominajac
przypominajaca
przypominajace
przypominajacy
przypominam
przypominasz
przypominał
przypominała
przypominały
przypomniawszy
przypomniał
przypomniała
przypomniałem
przypomniec
przypomnij
przypowiesci
przyprowadzic
przyprowadził
przypuscic
przypuscmy
przypuszcza
przypuszczac
przypuszczajac
przypuszczalnie
przypuszczam
przypuszczał
przypuszczałem
przypuszczenia
przypuszczenie
przyroda
przyrodnicze
przyrodniczego
przyrodniczo
przyrodniczych
przyrodnik
przyrody
przyrodzie
przyrost
przyrzad
przyrzadow
przyrzady
przyrzeczenia
przyrzeczenie
przyrzekam
przyrzekł
przysiadł
przysiagł
przysiega
przysiegam
przysiege
przysiegi
przysiegłych
przysiołek
przyspieszenie
przyspieszyc
przysposobienia
przystan
przystanał
przystanek
przystani
przystankow
przystanku
przystapic
przystapili
przystapiono
przystapił
przystapiła
przystapiło
przystał
przystało
przystoi
przystojny
przystosowane
przysunał
przyszedł
przyszedłem
przyszedłszy
przyszli
przyszła
przyszłam
przyszłe
przyszłego
przyszłej
przyszło
przyszłosc
przyszłosci
przyszły
przyszłych
przyszłym
przysł
przysłał
przysłow
przysłowek
przysłowia
przysłowie
przysłowkowa
przysługe
przysługuje
przytacza
przytem
przytomnosc
przytomnosci
przytomny
przytułek
przytułku
przywiazana
przywiazania
przywiazanie
przywiazany
przywiazał
przywilej
przywileje
przywilejow
przywileju
przywiozł
przywitał
przywodca
przywodcow
przywodcy
przywołac
przywołał
przywrocenia
przywrocenie
przywroceniu
przywrocic
przywrocił
przywrocono
przywykł
przyznac
przyznaj
przyznaje
przyznam
przyznana
przyznane
przyznania
przyznanie
przyznano
przyznany
przyznawana
przyznawane
przyznawał
przyznał
przyznała
przyzwoicie
przyzwyczajenia
przyłaczenie
przyłaczona
przyłaczono
przyłaczył
przyłozył
ps
psa
psalm
psalmow
psami
psem
pseud
pseudo
pseudonim
pseudonimem
psi
psia
psie
psl
psow
psuje
psy
psych
psychiatra
psychiatry
psychiczne
psychicznie
psychicznych
psycholog
psychologia
psychologiczne
psychologii
psychology
pszczoł
pszczoły
pszenicy
pt
ptactwa
ptactwo
ptak
ptaka
ptaki
ptakow
ptaszek
ptbnp
pttk
pu
pub
public
publicas
publication
publications
publicysta
publiczna
publiczne
publicznego
publicznej
publicznie
publicznosc
publicznosci
publiczny
publicznych
publicznym
publikacja
publikacjach
publikacje
publikacji
publikowane
publikował
publikuje
publishers
publishing
puchar
pucharach
pucharow
pucharowe
pucharu
pucharze
pudełka
pudełko
puerto
puli
puls
punk
punkcie
punkt
punktach
punktacja
punktami
punktem
punktow
punktowy
punktu
punkty
pure
purple
purpura
pusc
puscic
puscili
puscił
pusciła
pusta
puste
pustego
pustej
pustelnik
pustka
pustke
pustki
pusto
pusty
pustych
pustym
pustyni
pustynia
pustynie
puszcza
puszczac
puszczajac
puszczał
puszcze
puszczy
put
pułapka
pułapke
pułapki
puławy
pułk
pułki
pułkiem
pułkow
pułkownik
pułkownika
pułkownikiem
pułkowniku
pułku
pv
pw
pwm
pwn
pwril
px
py
pycha
pychy
pyeongchang
pysk
pyszny
pyta
pytac
pytaj
pytajac
pytali
pytam
pytan
pytania
pytaniami
pytanie
pytaniem
pytasz
pytał
pytała
pytałem
python
pył
pyłu
pz
pzl
pzla
pzpn
pzpr
pzwl
płac
płaca
płace
płaci
płacic
płacił
płacy
płacz
płacza
płaczac
płacze
płaczem
płaczu
płakac
płakał
płakała
płaska
płaski
płaskich
płaskie
płaskim
płaskowyzu
płaszcz
płaszcza
płaszczem
płaszczu
płaszczyzna
płaszczyznie
płaszczyzny
płat
płatki
płatkow
płaza
płazow
płazy
płci
płciowa
płciowy
płd
płec
płetwy
płk
płock
płocka
płocki
płockiego
płockiej
płocku
płomien
płomieni
płomienia
płomieniach
płomienie
płomieniem
płoneły
płonie
płot
płotem
płotki
płotna
płotnem
płotnie
płotno
płuc
płuca
płycie
płyn
płyna
płynac
płynaca
płynace
płynacy
płynacych
płynał
płyneła
płyneły
płynie
płynu
płyt
płyta
płytach
płyte
płytka
płytki
płyty
pływac
pływaczka
pływak
pływania
pływanie
pływaniu
q
q0
q1
q2
q3
q4
q5
q6
q7
q8
q9
qa
qb
qc
qd
qe
qf
qg
qh
qi
qj
qk
ql
qm
qn
qo
qp
qq
qr
qs
qt
qu
quad
qualification
quartet
quasi
que
quebec
queen
queens
queensland
qui
quinn
quo
quod
qv
qw
qx
qy
qz
r
r0
r1
r2
r3
r4
r5
r6
r7
r8
r9
ra
rabin
rabina
race
rachel
rachowac
rachuby
rachunek
rachunki
rachunkow
rachunku
raciborz
racing
racja
racje
racji
racye
racyi
racz
raczej
raczka
raczke
raczki
raczy
raczył
raczyła
rad
rada
radami
radar
radby
radbym
radca
radcy
rade
radia
radio
radiowa
radiowe
radiowej
radiowy
radiowych
radiu
radnego
radny
radnych
radnym
radom
radomia
radomiu
radomski
radomskiego
radomskiej
radomskim
radosc
radosci
radoscia
radosna
radosne
radosnie
radosny
radosław
radwanska
rady
radza
radze
radzi
radzic
radzie
radziecka
radziecki
radzieckich
radzieckie
radzieckiego
radzieckiej
radzieckim
radzima
radziwiłł
radziwiłła
radził
raf
rafael
rafaela
rafał
rafała
raffles
rail
railway
rain
rainbow
raj
rajd
rajdowych
rajdu
rajdzie
rajmund
rajska
raju
rak
raka
rakiet
rakieta
rakietowe
rakietowy
rakietowych
rakiety
rakow
rakowickim
ralf
rally
ralph
ram
rama
ramach
ramie
ramienia
ramieniem
ramieniu
ramion
ramiona
ramionach
ramionami
ramirez
ramon
ramovsa
ramy
ran
rana
randy
randze
rane
ranek
ranem
ranga
range
rangers
rangi
rangle
ranglisten
raniony
ranka
rankiem
ranking
rankingu
ranna
ranne
rannego
ranny
rannych
rano
ranunculus
rany
rap
raper
rapera
rapid
raporcie
raport
raportu
raporty
raptem
ras
rasa
rasmussen
rasy
rate
rating
ratowac
ratowania
ratuj
ratuje
ratunek
ratunku
ratusz
ratusza
ratuszu
raul
raula
raw
rawa
rawicz
ray
raymond
raz
raza
razach
razem
razie
razu
razy
rb
rc
rd
rdzen
rdzenia
re
read
reading
ready
reakcja
reakcje
reakcji
reaktywowano
real
realgm
reality
realizacja
realizacje
realizacji
realizowane
realizuje
realna
realne
realnej
realu
rebecca
rebelianci
rebeliantow
rebis
rece
recenzja
recenzje
recenzji
record
recording
records
recueil
recze
reczna
recznej
recznie
reczny
red
redagował
redakcja
redakcje
redakcji
redakcyjnego
redaktor
redaktora
redaktorem
redaktorzy
redukcji
reed
reeder
reedycja
reelekcje
referat
referatu
reference
referendum
refleksje
reflektory
reform
reforma
reformacji
reforme
reformie
reformy
reg
regent
reggae
regiment
regimentu
regina
region
regionach
regional
regionalna
regionalne
regionalnego
regionalnej
regionalny
regionalnych
regionalnym
regionie
regionow
regionu
regiony
regioset
register
registro
regni
regulacji
regulamin
regulaminu
regularna
regularne
regularnego
regularnie
regularny
regularnych
reguł
reguła
regułami
reguły
rehabilitacji
reich
reid
reims
rej
rejencji
rejent
rejestr
rejestracji
rejestru
rejestrze
rejon
rejonach
rejonie
rejonow
rejonowego
rejonowy
rejonu
rejony
rejs
reka
rekach
rekami
rekaw
rekawiczki
rekawy
reke
reki
reklama
reklamy
rekoma
rekonstrukcja
rekonstrukcji
rekopis
rekopisow
rekopisu
rekopisy
rekord
rekordem
rekordow
rekordy
rekordzista
rekreacji
rektor
rektora
rektorem
reku
rel
relacja
relacjach
relacje
relacji
relacyjny
relations
relay
release
released
releases
religia
religie
religii
religijna
religijne
religijnego
religijnej
religijny
religijnych
religijnym
religion
religious
religja
religji
relikwie
remis
remix
remo
remoncie
remont
remontu
ren
renal
renata
renault
rene
renesansu
renowacji
renty
renu
reorganizacji
reorganizujacej
repertuaru
report
reportaz
reporter
reports
represje
represji
reprezentacja
reprezentacje
reprezentacji
reprezentacyjna
reprezentacyjne
reprezentanci
reprezentant
reprezentanta
reprezentantem
reprezentantka
reprezentantow
reprezentował
reprezentowała
reprezentowało
reprezentuja
reprezentujaca
reprezentujacy
reprezentujacych
reprezentuje
reprint
republic
republica
republice
republici
republicki
republik
republika
republikanskiej
republike
republiki
republiky
requiem
res
research
resortu
resources
restauracja
restauracje
restauracji
result
results
reszta
reszte
resztek
resztki
reszty
retrieved
return
returns
reuters
rev
reveal
revealed
reveals
review
reviews
revised
revision
revolution
revue
rewanz
rewasz
rewizji
rewizyjnej
rewolucja
rewolucje
rewolucji
rewolucyi
rewolucyjna
rewolucyjnego
rewolucyjnej
rewolucyjny
rewolucyjnych
rewolwer
rex
rey
reynolds
rez
rezerw
rezerwacie
rezerwat
rezerwatu
rezerwaty
rezerwie
rezerwowego
rezerwowy
rezerwowym
rezerwy
rezimu
rezultacie
rezultat
rezultatem
rezultatow
rezultatu
rezultaty
rezydencja
rezydencje
rezydencji
rezygnacja
rezygnacje
rezygnacji
rezyser
rezysera
rezyserem
rezyseria
rezyserie
rezyserii
rezyserka
rf
rfc
rfn
rfsrr
rg
rh
rhein
rheinland
rho
rhodes
ri
riaa
ricardo
rice
rich
richard
richarda
richardr
richards
richardson
richelieu
richmond
richter
rick
ricky
ride
rider
right
rightarrow
rights
rihanna
ring
ringu
rinuncia
rio
rise
rising
risk
rism
rita
ritter
river
rj
rk
rkp
rl
rm
rmf
rn
rna
ro
road
rob
robak
robbie
robert
roberta
robertem
roberto
robertr
roberts
robertson
robi
robia
robiac
robic
robie
robienia
robili
robimy
robin
robinson
robisz
robił
robiła
robiłem
robiło
robiły
robocie
robocza
roboczego
roboczej
roboczy
robot
robota
robote
robotnicy
robotnicza
robotniczego
robotniczej
robotniczych
robotnik
robotnika
robotnikow
roboty
rocha
rochester
rock
rocka
rockowa
rockowego
rockowej
rockowy
rocky
roczna
roczne
rocznego
rocznica
rocznice
rocznicy
rocznie
rocznik
rocznika
roczniki
roczny
rod
rodakow
rodan
rodem
rodin
rodow
rodowod
rodrigo
rodriguez
rodu
rody
rodza
rodzaj
rodzaje
rodzajem
rodzajnika
rodzajow
rodzaju
rodzenstwa
rodzenstwo
rodzi
rodzic
rodzicami
rodzice
rodzicom
rodzicow
rodzin
rodzina
rodzine
rodzinie
rodzinna
rodzinne
rodzinnego
rodzinnej
rodzinny
rodzinnych
rodzinnym
rodziny
rog
rogach
rogami
roger
rogera
rogers
rogi
rogow
rogu
roi
roj
rok
rokiem
roku
rol
rola
rolach
roland
rolanda
role
rolf
roli
roll
rolling
rollins
roln
rolne
rolnego
rolnej
rolnictwa
rolnictwie
rolnictwo
rolnicza
rolnicze
rolniczego
rolniczej
rolniczo
rolniczy
rolniczych
rolnik
rolnikow
rolnych
rom
roma
roman
romana
romania
romano
romanr
romans
romansu
romantyczna
romantycznej
romantyzmu
rome
romeo
romuald
romualda
ron
ronald
ronda
rondo
ronnie
ronr
room
ropy
ros
rosa
rosario
rose
rosen
rosja
rosjan
rosjanie
rosjanin
rosje
rosji
roslin
roslina
roslinami
roslinne
roslinnosc
roslinnosci
roslinnoscia
roslinnych
rosliny
rosna
rosnac
rosnaca
rosnace
rosnacych
rosnie
rosoł
ross
rossi
rostow
rosy
rosyi
rosyjska
rosyjski
rosyjskich
rosyjskie
rosyjskiego
rosyjskiej
rosyjskim
rosyjsko
rosł
rosła
rosło
rosły
roth
rotmistrz
rotmistrza
rotten
rouen
rouge
round
rousseau
roussillon
route
routledge
row
rower
rowerow
rowerowa
rowerowe
rowerowy
rowna
rownan
rownania
rownanie
rowne
rownego
rownej
rowni
rownie
rowniez
rownina
rownine
rowninie
rowniny
rowno
rownoczesnie
rownolegle
rownoległe
rownoległy
rownomiernie
rownosc
rownosci
rownowage
rownowagi
rowny
rownych
rownym
rows
rowu
rowy
roy
royal
roz
roza
rozalia
rozanca
rozancowej
rozaniec
rozbic
rozbicia
rozbioru
rozbiorze
rozbite
rozbitkow
rozbity
rozbił
rozbudowa
rozbudowana
rozbudowano
rozbudowany
rozbudowe
rozbudowy
rozbuduj
rozciaga
rozczarowanie
rozdania
rozdz
rozdziale
rozdział
rozdziałow
rozdziału
rozdziały
rozdziela
rozdzielczosci
rozdzielone
roze
rozebrana
rozebrano
rozebrany
rozegrana
rozegrane
rozegrano
rozegrany
rozegranych
rozegranym
rozegrał
rozegrała
rozejm
rozejrzał
rozerwac
rozesmiał
rozesmiała
rozeszli
rozeszła
rozgladajac
rozgladał
rozgniewany
rozgrywa
rozgrywaja
rozgrywane
rozgrywano
rozgrywany
rozgrywanych
rozgrywek
rozgrywkach
rozgrywki
rozgrywkowej
rozgłos
rozgłosni
rozgłosu
rozia
rozk
rozkaz
rozkazami
rozkazał
rozkazem
rozkazow
rozkazu
rozkazujacego
rozkazuje
rozkazy
rozkosz
rozkosza
rozkosze
rozkoszne
rozkoszy
rozkwit
rozkwitu
rozkład
rozkładu
rozlegał
rozlegały
rozległ
rozległa
rozległe
rozległo
rozległy
rozległych
rozmaite
rozmaitosci
rozmaitych
rozmawia
rozmawiac
rozmawiajac
rozmawiali
rozmawiał
rozmawiała
rozmiar
rozmiarach
rozmiarow
rozmiary
rozmieszczenia
rozmieszczenie
rozmieszczone
rozmow
rozmowa
rozmowach
rozmowe
rozmowic
rozmowie
rozmowy
rozmyslac
rozmyslan
rozmyslania
rozmyslał
rozna
rozne
roznego
roznej
roznemi
rozni
roznia
roznic
roznica
roznice
roznicy
roznie
rozniły
roznorodne
roznorodnosc
roznorodnosci
roznorodnych
rozny
roznych
roznym
roznymi
rozowa
rozowe
rozowy
rozowych
rozpacz
rozpacza
rozpaczliwie
rozpaczy
rozpadu
rozpadzie
rozpalone
rozpietosc
rozpoczac
rozpoczał
rozpoczecia
rozpoczecie
rozpoczeciem
rozpoczeciu
rozpoczeli
rozpoczeta
rozpoczeto
rozpoczeła
rozpoczeło
rozpoczeły
rozpocznie
rozpoczyna
rozpoczynaja
rozpoczynajac
rozpoczynał
rozporzadzenia
rozporzadzenie
rozporzadzeniem
rozpoznac
rozpoznania
rozpoznanie
rozpoznawczy
rozpraw
rozprawa
rozprawe
rozprawie
rozprawy
rozproszone
rozpusty
rozroznic
rozrywek
rozrywka
rozrywki
rozrzucone
rozsadek
rozsadku
rozsmiał
rozsmiała
rozstac
rozstali
rozstania
rozstrzelany
rozstrzygnac
rozstrzygniecia
rozszerza
rozszerzenia
rozszerzenie
rozszerzone
rozum
rozumem
rozumiał
rozumiała
rozumie
rozumiec
rozumiecie
rozumieja
rozumiejac
rozumieli
rozumiem
rozumiemy
rozumienia
rozumieniu
rozumiesz
rozumna
rozumny
rozumowania
rozumowanie
rozumu
rozwazania
rozwazał
rozwiazac
rozwiazan
rozwiazana
rozwiazania
rozwiazanie
rozwiazaniem
rozwiazaniu
rozwiazano
rozwiazany
rozwiazał
rozwija
rozwijac
rozwijaja
rozwijał
rozwijała
rozwinac
rozwinał
rozwineła
rozwiniecie
rozwinieta
rozwiniete
rozwiniety
rozwod
rozwodu
rozwoj
rozwojem
rozwojowi
rozwoju
rozy
rozycki
rozłozył
rp
rpa
rpl
rq
rr
rs
rsssf
rt
rtm
ru
ruben
rubin
rubla
ruble
rubli
ruby
ruch
ruchach
ruchami
ruchem
ruchome
ruchow
ruchu
ruchy
rud
ruda
rude
rudolf
rudolfa
rudy
rudzie
rue
rufie
rugby
rugbysta
ruggiero
ruin
ruina
ruinach
ruine
ruiny
ruiz
rukszenice
rulers
rules
rum
rumble
rumience
rumiencem
rumieniac
rumieniec
rumunia
rumunii
rumunska
rumunski
rumunskiej
run
runa
runał
rund
runda
rundach
runde
rundy
rundzie
running
rury
rus
rush
rusi
ruska
ruski
ruskich
ruskie
ruskiego
ruskiej
russell
russia
russian
rusza
ruszac
ruszaj
ruszajac
ruszał
ruszy
ruszyc
ruszyli
ruszylismy
ruszył
ruszyła
ruszyły
ruth
rutkowski
rv
rw
rx
ry
ryan
ryb
ryba
rybacy
rybak
rybakow
rybe
rybka
rybnik
ryby
ryc
rycerska
rycerski
rycerskich
rycerskie
rycerskiego
rycerskiej
rycerstwa
rycerstwo
rycerz
rycerza
rycerze
rycerzem
rycerzy
rychlej
rychło
rydze
ryga
ryk
ryknał
rylands
rynek
rynkach
rynki
rynku
rys
rysach
rysow
rysownik
rysunek
rysunki
rysunkow
rysunku
rysy
ryszard
ryszarda
ryszardr
rytm
rytmiczna
rywala
rywalem
rywali
rywalizacja
rywalizacje
rywalizacji
rywalizowali
rywalizowały
ryz
ryzu
ryzyka
ryzyko
rz
rzad
rzadach
rzadami
rzadca
rzadem
rzadka
rzadki
rzadkich
rzadkie
rzadko
rzadow
rzadowa
rzadowe
rzadowego
rzadowej
rzadowi
rzadowych
rzadu
rzady
rzadzacej
rzadzi
rzadzic
rzadzie
rzadziej
rzadził
rzec
rzece
rzecz
rzecza
rzeczach
rzeczami
rzecze
rzeczka
rzecznik
rzecznika
rzeczownik
rzeczowniki
rzeczownikow
rzeczownikowa
rzeczpospolita
rzeczpospolitej
rzeczy
rzeczypospolitej
rzeczywiscie
rzeczywista
rzeczywiste
rzeczywistego
rzeczywistej
rzeczywistosc
rzeczywistosci
rzeczywistoscia
rzeczywisty
rzeczywistych
rzeczywistym
rzedami
rzedem
rzedow
rzedu
rzedy
rzedzie
rzek
rzeka
rzekami
rzeke
rzeki
rzekli
rzekomo
rzekł
rzekła
rzekłbys
rzekłem
rzekłszy
rzemieslnik
rzemieslnikow
rzemiosła
rzemiosło
rzesza
rzesze
rzeszow
rzeszowa
rzeszowie
rzeszowskiego
rzeszowskim
rzeszy
rzez
rzezb
rzezba
rzezbe
rzezbiarz
rzezbiarza
rzezby
rzezi
rzuca
rzucac
rzucaja
rzucajac
rzucali
rzucał
rzucała
rzucały
rzuci
rzucic
rzucie
rzucili
rzuciwszy
rzucił
rzuciła
rzuciłem
rzuciły
rzucona
rzucone
rzucony
rzut
rzutach
rzutem
rzutow
rzutu
rzym
rzymian
rzymianie
rzymie
rzymska
rzymski
rzymskich
rzymskie
rzymskiego
rzymskiej
rzymskim
rzymskokatolicka
rzymskokatolicki
rzymskokatolickiego
rzymskokatolickiej
rzymu
s
s0
s1
s2
s3
s4
s5
s6
s7
s8
s9
sa
sabina
sachsen
sacz
sacza
saczu
sad
sadach
sadem
sadow
sadowa
sadowe
sadowego
sadowej
sadownictwa
sadowski
sadowy
sadowych
sadu
sady
sadza
sadzac
sadze
sadzi
sadzic
sadzie
sadzili
sadzisz
sadził
sadziła
sadziłem
sadzono
safety
saga
said
saint
sainte
saints
sakrament
sakramentu
sakre
sakry
saksofon
saksonia
saksonii
sal
sala
salach
sale
sales
sali
sally
salomon
salomona
salon
salonach
saloni
salonie
saloniku
salonow
salonu
salony
salt
salvador
salvator
salzburg
sam
sama
samca
samce
samcow
same
samego
samej
samem
samemi
samemu
sami
samic
samica
samice
samicy
samiec
samiti
samo
samoa
samobojstwa
samobojstwo
samochod
samochodem
samochodow
samochodowe
samochodowego
samochodowy
samochodowych
samochodowym
samochodu
samochody
samochodzie
samodzielna
samodzielne
samodzielnego
samodzielnej
samodzielnie
samodzielny
samolocie
samolot
samolotach
samolotem
samolotow
samolotu
samoloty
samoobrona
samoobrony
samorzad
samorzadowa
samorzadowe
samorzadowiec
samorzadowy
samorzadowych
samorzadu
samorzadzie
samotna
samotne
samotnej
samotnie
samotnosc
samotnosci
samotny
samotnych
sampa
samson
samsung
samuel
samuela
samych
samym
san
sanatorium
sanchez
sanczo
sand
sandomierski
sandomierskiego
sandomierskiej
sandomierz
sandomierzu
sandra
sanie
sankt
sanktuarium
sanocka
sanocki
sanockiego
sanockiej
sanok
sanoka
sanoku
sans
sanskr
sanskryt
sant
santa
santiago
santo
santos
sao
saperow
sapieha
sapporo
sara
sarah
sarajewie
sargatal
sarny
sars
sary
sas
sasiad
sasiada
sasiadka
sasiadow
sasiaduje
sasiednich
sasiednie
sasiedniego
sasiedniej
sasiednim
sasiedzi
sasiedztwa
sasiedztwie
sasiedztwo
satelita
satelitarna
satelitarne
satelitow
satelity
saturday
saturn
saturna
satyryk
saudyjskiej
saul
saunders
savage
save
sawa
sawicki
say
says
sazu
sb
sbn
sc
scb
scen
scena
scenach
scenariusz
scenariusza
scenarzysta
scene
scenie
scenografia
sceny
schedule
schemat
schematismus
schlesien
schleswig
schltr
schmidt
schneider
schodach
schodami
schodow
schody
schodza
schodzi
schodzic
schodził
scholar
school
schorr
schowac
schował
schronic
schronienia
schronienie
schroniska
schronisko
schronił
schulz
schwycił
schwytac
schwytany
schylił
schyłku
sci
sciagnac
sciagnał
scian
sciana
scianach
scianami
sciane
scianie
sciany
sciekow
science
sciences
scientific
sciezce
sciezek
sciezka
sciezke
sciezki
sciga
scigac
scigania
scigał
sciskajac
sciskał
scisle
scislej
scisnał
scisła
scisłe
scisłej
scisły
scisłych
scisłym
scooby
score
scotland
scott
scotta
scottish
screen
sd
se
sea
sean
search
season
seattle
sebastian
sebastiana
sec
secesyjnej
second
secret
section
security
sed
sedan
sedis
sedlo
seds
sedzia
sedziego
sedzina
sedziow
sedziowie
see
segunda
sein
seine
seiyu
sejm
sejmie
sejmiku
sejmowa
sejmowe
sejmowej
sejmu
sek
sekcja
sekcje
sekcji
sekret
sekretarka
sekretarz
sekretarza
sekretarzem
seks
seksualna
seksualne
seksualnej
seksualnych
sektor
sektora
sektorze
sekty
sekund
sekunde
sekundy
sekwana
sekwencji
selected
selekcji
selekcjonera
self
seligman
semi
seminarium
sen
senacie
senat
senator
senatora
senatorow
senatorowie
senatu
senegalu
senior
seniorow
seniorskiej
senna
senne
sennor
sens
sensie
sensu
sep
september
ser
sera
serafin
serb
serbia
serbii
serbow
serbska
serbski
serbskiego
serbskiej
serc
serca
sercach
serce
sercem
sercu
serdeczna
serdeczne
serdecznie
serdeczny
serdecznym
sergio
sergiusz
serhij
seria
serial
serialach
seriale
seriali
serialu
serie
series
serii
serjo
servadac
server
service
services
serwer
serwis
serwisach
serwisie
serwisu
seryo
sesja
sesje
sesji
set
setek
seth
setki
setow
seul
seulu
seven
sevens
seweryn
seweryna
sewilli
sex
sexual
sez
sezon
sezonach
sezonem
sezonie
sezonow
sezonu
sezony
sf
sfer
sfera
sferach
sfere
sfery
sferze
sformowana
sformowano
sformowany
sg
sggw
sh
shadow
shakespeare
shane
shanghai
shannon
sharon
sharp
shatterhand
shaw
she
sheffield
sherlock
sherman
shi
shin
ship
ships
shirley
shooting
short
shot
should
show
shows
si
sia
siada
siadac
siadaj
siadajac
siadał
siadł
siadła
siana
siano
siarki
siatka
siatkarka
siatkarz
siatki
siatkowej
siatkowki
sic
sich
side
sidney
sidła
sie
siebie
siec
sieci
siecia
siedem
siedemdziesiat
siedemdziesiatych
siedemnascie
siedlcach
siedlce
siedleckiego
siedlisk
siedliska
siedlisko
siedm
siedmiu
siedza
siedzac
siedzaca
siedzace
siedzacego
siedzacy
siedzacych
siedze
siedzenia
siedzenie
siedzi
siedział
siedziała
siedziałem
siedziało
siedziały
siedzib
siedziba
siedzibe
siedzibie
siedziby
siedziec
siedzieli
siega
siegaja
siegajac
siegajace
siegał
siegnac
siegnał
siegneła
siekiera
siekiery
sielsowiecie
sielsowietu
sien
sieni
sienkiewicz
sienkiewicza
sieradzkiego
siergiej
sierot
sierota
sieroty
sierp
sierpien
sierpnia
sierpniu
sierra
sierz
sierzant
sierzanta
siewka
siewki
sig
sigma
sign
signs
sikora
sikorski
sikorskiego
sile
silent
silesia
silna
silne
silnego
silnej
silnie
silniej
silniejsza
silniejsze
silniejszy
silnik
silnika
silnikami
silniki
silnikiem
silnikow
silny
silnych
silnym
silva
silver
sim
simbad
simon
simona
simone
simple
simpson
sin
sina
since
sine
sing
singapore
singapur
singapurze
singel
singer
singh
singiel
singla
single
singlem
singles
singli
singlu
siodle
siodma
siodme
siodmego
siodmej
siodmy
siodmym
siodła
siodło
siostr
siostra
siostrami
siostre
siostro
siostry
siostrze
siostrzenca
siostrzenica
siostrzeniec
sip
sir
sit
site
sito
siwa
siwe
siwy
siwych
six
size
sił
siła
siłach
siłami
siłe
siłom
siły
sj
sk
ska
skad
skadze
skakac
skala
skale
skali
skaliste
skalistych
skalna
skalne
skalnych
skamieniałosci
skan
skandal
skandalu
skandynawii
skarb
skarbca
skarbiec
skarbnik
skarbow
skarbu
skarby
skarg
skarga
skarge
skargi
skarnik
skarzyc
skarzył
skating
skazana
skazani
skazano
skazany
skazanych
skazał
skazy
skał
skała
skałach
skałami
skałe
skały
ski
skierowac
skierowana
skierowane
skierowano
skierowany
skierował
skierowała
skiing
skijumping
skinał
skineła
skinienie
skinieniem
sklasyfikowany
sklep
sklepach
sklepie
sklepienia
sklepienie
sklepieniem
sklepow
sklepu
sklepy
skoczek
skoczkow
skoczni
skocznia
skoczył
skoczyła
skoda
skok
skokach
skoki
skokiem
skokinarciarskie
skokow
skoku
skomplikowane
skomponował
skonczeniu
skonczona
skonczone
skonczonej
skonczony
skonczy
skonczyc
skonczywszy
skonczył
skonczyła
skonczyło
skonczyły
skonstruowany
skor
skora
skore
skorka
skorki
skoro
skorowidz
skorupa
skorupiakow
skorupy
skory
skorze
skorzystac
skorzystał
skowronska
skr
skrajnie
skraju
skreca
skrecił
skrocie
skrocona
skromna
skromne
skromnej
skromnie
skromnosc
skromny
skromnym
skroni
skronie
skrot
skrotowiec
skrycie
skrzetuski
skrzydeł
skrzydle
skrzydła
skrzydłach
skrzydłami
skrzydłem
skrzydło
skrzydłowego
skrzyni
skrzynia
skrzynie
skrzynki
skrzypcach
skrzypce
skrzypek
skrzypiec
skrzywił
skrzyzowania
skrzyzowanie
skrzyzowaniu
skupia
skupic
skupienia
skupiona
skupione
skupił
skuteczna
skuteczne
skutecznie
skutecznosc
skutecznosci
skuteczny
skutek
skutki
skutkiem
skutkow
skutkowało
skutku
skwapliwie
skwer
sky
skład
składa
składac
składaja
składajac
składajaca
składajace
składajacy
składajacych
składali
składane
składania
składał
składała
składało
składały
składek
składnia
składnik
składniki
składnikow
składow
składowa
składu
składy
składzie
skłodowskiej
skłonic
skłonił
skłoniła
skłoniło
skłonnosc
skłonnosci
skłonny
sl
slad
sladami
sladem
sladow
sladu
slady
slalom
slalomie
slam
slang
slask
slaska
slaski
slaskich
slaskie
slaskiego
slaskiej
slaskim
slasko
slasku
sld
sledczego
sledczy
sledzac
sledzi
sledzic
sledził
sledztwa
sledztwo
sleep
slepa
slepe
slepo
slepy
sliczna
sliczne
slicznie
sliczny
slimak
slov
slovak
slovarji
slovenija
slovenije
slovenske
slovenskeho
slovenskej
slovenski
slovnik
slub
slubem
slubie
slubow
slubu
sluby
sm
smackdown
smak
smakiem
smaku
small
smazyc
smiac
smiał
smiała
smiałe
smiałem
smiało
smiałosc
smiałosci
smiały
smie
smiech
smiechem
smiechu
smiechy
smieci
smieja
smiejac
smieje
smieli
smiem
smierc
smierci
smiercia
smiertelna
smiertelne
smiertelnej
smiertelnie
smiertelny
smiertelnych
smiertelnym
smiesz
smieszna
smieszne
smieszny
smietana
smietany
smigłowce
smigłowcow
smith
smitha
smithsonian
smok
smoka
smolensk
smolenska
smolensku
sms
smuga
smugi
smukła
smutek
smutkiem
smutku
smutna
smutne
smutnego
smutnej
smutnie
smutno
smutny
smutnych
smutnym
sn
snac
snadz
sncf
snem
sni
sniadania
sniadanie
sniadaniu
snie
snieg
sniegi
sniegiem
sniegu
sniezna
snieznej
sniło
snooker
snow
snu
sny
so
soba
sobie
sobieski
sobieskiego
sobol
sobor
soboru
soborze
sobota
sobote
soboty
soc
soccer
soccerbase
soccerway
socha
sochaczew
social
societe
society
socjaldemokratycznej
socjalistow
socjalistyczna
socjalistycznego
socjalistycznej
socjalistyczny
socjalistycznych
socjalizm
socjalizmu
socjolog
socjologia
socjologii
soczi
sodu
sofia
sofie
sofii
software
sojusz
sojuszu
sojuz
sok
sokoł
sokoła
sokołow
sokołowski
sokrates
soku
sol
sola
solar
solaris
sole
soli
solidarnosc
solidarnosci
solo
solowa
solowy
som
some
somerset
something
son
sonata
sonda
sondy
sonet
sonety
song
songs
sonia
sonic
sons
sony
sophie
sopocie
sopot
sopran
sos
sosem
sosen
sosna
sosnowcu
sosnowiec
sosny
soul
sound
soundtrack
source
sous
south
southampton
southern
soviet
sowa
sowiecka
sowieckich
sowieckie
sowieckiego
sowieckiej
sowietow
sołecka
sołectwa
sołectwo
sołtys
sp
spa
spac
space
spacer
spada
spadaja
spadały
spadek
spadkiem
spadkobierca
spadkobiercy
spadku
spadnie
spadł
spadła
spadło
spadły
spain
spali
spalic
spalili
spalił
spalona
spalone
spalony
spanish
sparta
spartak
sparty
spasc
spał
spała
spd
special
species
specifications
specjalista
specjalistow
specjalizował
specjalizujaca
specjalizujacy
specjalizuje
specjalna
specjalne
specjalnego
specjalnej
specjalnie
specjalnosc
specjalnosci
specjalny
specjalnych
specjalnym
spedza
spedzał
spedzic
spedził
spedziła
spedzonych
speed
speedway
spektakl
spektaklu
spencer
spełni
spełnia
spełniac
spełniaja
spełniał
spełnic
spełnienia
spełnienie
spełnione
spełnił
spi
spia
spiacego
spider
spiegel
spiesz
spieszac
spiesznie
spieszy
spieszyc
spieszył
spiew
spiewa
spiewac
spiewaczka
spiewaja
spiewajac
spiewak
spiewali
spiewał
spiewała
spiewały
spiewem
spiewu
spiewy
spij
spin
spiralna
spirit
spis
spisał
spisek
spisie
spisku
spisow
spisu
spisy
split
splunał
spoczac
spoczał
spoczynek
spoczynku
spoczywa
spoczywaja
spoczywał
spoczywała
spod
spodem
spodni
spodnie
spodoba
spodu
spodziewa
spodziewac
spodziewajac
spodziewali
spodziewam
spodziewano
spodziewał
spodziewała
spodziewałem
spoglada
spogladac
spogladajac
spogladali
spogladał
spogladała
spoilertv
spojnik
spojrz
spojrzawszy
spojrzał
spojrzała
spojrzałem
spojrzec
spojrzeli
spojrzen
spojrzenia
spojrzenie
spojrzeniem
spojrzeniu
spojrzy
spojrzyj
spokoj
spokojem
spokojna
spokojne
spokojnego
spokojnej
spokojni
spokojnie
spokojny
spokojnym
spokoju
spokrewniony
spolu
sponsorem
spor
spora
sporadycznie
spore
sporo
sporow
sport
sportach
sporting
sportow
sportowa
sportowcow
sportowe
sportowefakty
sportowego
sportowej
sportowiec
sportowy
sportowych
sportowym
sports
sportu
sporu
spory
sporzadził
sposob
sposobami
sposobem
sposobie
sposobnosc
sposobnosci
sposobow
sposobu
sposoby
sposrod
spostrzega
spostrzegli
spostrzegł
spostrzegła
spostrzegłem
spostrzegłszy
spostrzezenia
spotka
spotkac
spotkali
spotkamy
spotkan
spotkania
spotkaniach
spotkanie
spotkaniu
spotkawszy
spotkał
spotkała
spotkałem
spotkało
spotkały
spotyka
spotykac
spotykaja
spotykali
spotykamy
spotykana
spotykane
spotykany
spotykał
spowiedz
spowiedzi
spowodowac
spowodowana
spowodowane
spowodowany
spowodował
spowodowała
spowodowało
spowodowały
spoz
spoza
spozywczego
spozywczy
spozywczych
społce
społdzielni
społdzielnia
społeczenstw
społeczenstwa
społeczenstwie
społeczenstwo
społeczenstwu
społeczna
społeczne
społecznego
społecznej
społecznie
społeczno
społecznosc
społecznosci
społecznosciowych
społeczny
społecznych
społecznym
społek
społem
społgłoska
społka
społke
społki
sprak
sprakradets
spraw
sprawa
sprawach
sprawami
sprawca
sprawcow
sprawcy
sprawdz
sprawdza
sprawdzic
sprawe
sprawi
sprawia
sprawiac
sprawiaja
sprawiał
sprawiała
sprawiało
sprawiały
sprawic
sprawie
sprawiedliwego
sprawiedliwie
sprawiedliwosc
sprawiedliwosci
sprawiedliwy
sprawiedliwych
sprawił
sprawiła
sprawiło
sprawiły
sprawnosc
sprawnosci
sprawowania
sprawował
sprawowała
sprawozdania
sprawozdanie
sprawuje
sprawy
sprincie
spring
springer
springfield
springs
sprint
sprinter
sprinterka
sprobowac
sprobował
sprobuj
sprobuje
sprowadza
sprowadzic
sprowadził
sprowadzono
sprzeciw
sprzeciwia
sprzeciwiac
sprzeciwiał
sprzeciwu
sprzeczne
sprzecznosc
sprzecznosci
sprzed
sprzedac
sprzedaje
sprzedana
sprzedano
sprzedany
sprzedawac
sprzedawał
sprzedawca
sprzedaz
sprzedazy
sprzedał
sprzedała
sprzet
sprzetow
sprzetu
sprzety
sprzyja
sprzymierzonych
spuscic
spuscił
spusciła
spuszczajac
spuszczał
spuszczona
spuszczonemi
spytac
spytał
spytała
spytałem
spłonał
spłoneła
spływa
spływały
sq
sqrt
squad
square
sr
srbiji
srebra
srebrem
srebrna
srebrne
srebrnego
srebrnej
srebrny
srebrnych
srebrnym
srebro
sredni
srednia
srednica
srednice
srednich
srednicy
srednie
sredniego
sredniej
srednim
srednio
sredniowiecza
sredniowiecze
sredniowieczna
sredniowieczne
sredniowiecznego
sredniowiecznej
sredniowieczny
sredniowiecznych
sredniowieczu
sri
srod
sroda
srode
srodek
srodka
srodkach
srodkami
srodki
srodkiem
srodkow
srodkowa
srodkowe
srodkowego
srodkowej
srodkowo
srodkowy
srodkowych
srodkowym
srodku
srodmiescia
srodmiescie
srodowisk
srodowiska
srodowiskiem
srodowisko
srodowisku
srodze
srodziemnego
srodziemnomorskich
srodziemnym
sroga
srogi
srogie
sroka
srr
ss
ssaka
ssaki
ssakow
st
sta
stabila
stac
stach
stacja
stacjach
stacjami
stacje
stacji
stacjonował
stacjonowała
stacyi
stad
stada
stade
stadion
stadionie
stadionu
stadiony
stadium
stado
stadt
staff
staffa
stage
staja
stajac
staje
stajni
stajnia
stajnie
stal
stale
stali
stalin
stalina
stalinogrodzie
stalowa
stalowe
stalowej
stalowych
stambule
stamtad
stan
stana
stanac
stanach
stanami
stanawszy
stanał
stanałem
stand
standard
standardow
standardowa
standardowe
standardowy
standardu
standardy
standardzie
standaryzacji
standing
standings
stane
staneli
stanem
staneła
staneło
staneły
stanford
stanice
stanie
stanisław
stanisława
stanisławem
stanisławow
stanisławowie
stanisławs
stankiewicz
stanley
stanova
stanovnistva
stanow
stanowcza
stanowczo
[...]
