!
"
#
##0
##1
##10
##11
##12
##13
##14
##15
##16
##17
##18
##19
##2
##20
##21
##22
##23
##24
##25
##26
##27
##28
##29
##3
##30
##31
##32
##33
##34
##35
##36
##37
##38
##39
##4
##40
##41
##42
##43
##44
##45
##46
##47
##48
##49
##5
##50
##51
##52
##53
##54
##55
##56
##57
##58
##59
##6
##60
##61
##62
##63
##64
##65
##66
##67
##68
##69
##7
##70
##71
##72
##73
##74
##75
##76
##77
##78
##79
##8
##80
##81
##82
##83
##84
##85
##86
##87
##88
##89
##9
##90
##91
##92
##93
##94
##95
##96
##97
##98
##99
$
%
&
'
(
)
*
+
,
-
.
/
0
00
000
0000
0001
0002
0003
0004
001
002
00381
007
009
01
0119248
0137
02
028
03
04
05
0569
06
07
0750
08
09
0932
1
10
100
1000
10000
1001
1002
1007
101
1016
102
1021
103
1038
104
105
1051
106
107
108
1080
1086
109
1093
11
110
1100
111
1111
112
1126
113
114
115
1150
116
117
1172
118
119
12
120
1200
121
122
123
1230
1231
1234
124
12412
125
1250
126
127
128
1287
129
1295
13
130
1300
1305
131
1310
132
133
134
135
1350
136
1364
1365
137
1370
1371
138
139
14
140
1400
1409
141
1410
142
1421
1425
1426
1429
143
144
1440
145
1450
1454
146
1460
1462
1466
1467
147
1470
1471
148
1480
149
1492
1493
15
150
1500
1504
1505
1506
151
1510
1515
1517
152
1520
1521
1523
1524
1525
1526
1528
1529
153
1530
1532
1535
1536
154
1540
1543
1545
1547
1549
155
1550
1551
1552
1553
1555
1556
1557
1558
1559
156
1560
1561
1562
1563
1564
1565
1566
1567
1568
1569
157
1570
1571
1572
1573
1574
1575
1576
1577
1578
1579
158
1580
1581
1582
1583
1584
1585
1586
1587
1588
1589
159
1590
1591
1592
1593
1595
1596
1597
1598
1599
16
160
1600
1601
1602
1603
1604
1605
1606
1607
1608
1609
161
1610
1611
1612
1613
1614
1615
1616
1617
1618
1619
162
1620
1621
1622
1623
1624
1625
1626
1627
1628
1629
163
1630
1631
1632
1633
1634
1635
1636
1637
1638
1639
164
1640
1641
1642
1643
1644
1645
1646
1647
1648
1649
165
1650
1651
1652
1653
1654
1655
1656
1657
1658
1659
166
1660
1661
1662
1663
1664
1665
1666
1667
1668
1669
167
1670
1671
1672
16728
1673
1674
1675
1676
1677
1678
1679
168
1680
1681
1682
1683
1684
1685
1686
1687
1688
1689
169
1690
1693
1694
1695
1696
1697
1698
1699
17
170
1700
1701
1702
1703
1704
1705
1706
1707
1708
1709
171
1710
1711
1712
1713
1714
1715
1716
1717
1718
1719
172
1720
1721
1722
1723
1724
1725
1726
1727
1728
1729
173
1730
1731
1732
1733
1734
1735
1736
1737
1738
1739
174
1740
1741
1742
1743
1744
1745
1746
1747
1748
1749
175
1750
1751
1752
1753
1754
1755
1756
1757
1758
1759
176
1760
1761
1762
1763
1764
1765
1766
1767
1768
1769
177
1770
1771
1772
1773
1774
1775
1776
1777
1778
1779
178
1780
1781
1782
1783
1784
1785
1786
1787
1788
1789
179
1790
1791
1792
1793
1794
1795
1796
1797
1798
1799
18
180
1800
1801
1802
1803
1804
1805
1806
1807
1808
1809
181
1810
1811
1812
1813
1814
1815
1816
1817
1818
1819
182
1820
1821
1822
1823
1824
1825
1826
1827
1828
1829
183
1830
1831
1832
1833
1834
1835
1836
1837
1838
1839
184
1840
1841
1842
1843
1844
1845
1846
1847
1848
1849
185
1850
1851
1852
1853
1854
1855
1856
1857
1858
1859
186
1860
1861
1862
1863
1864
1865
1866
1867
1868
1869
187
1870
1871
1872
1873
1874
1875
1876
1877
1878
1879
188
1880
1881
1882
1883
1884
1885
1886
1887
1888
1889
189
1890
1891
1892
1893
1894
1895
1896
1897
1898
1899
19
190
1900
1901
1902
1903
1904
1905
1906
1907
1908
1909
191
1910
1911
1912
1913
1914
1915
1916
1917
1918
1919
192
1920
1921
1922
1923
1924
1925
1926
1927
1928
1929
193
1930
1931
1932
1933
1934
1935
1936
1937
1938
1939
194
1940
1941
1942
1943
1944
1945
1946
1947
1948
1949
195
1950
1951
1952
1953
1954
1955
1956
1957
1958
1959
196
1960
1961
1962
1963
1964
1965
1966
1967
1968
1969
197
1970
1971
1972
1973
1974
1975
1976
1977
1978
1979
198
1980
1981
1982
1983
1984
1985
1986
1987
1988
1989
199
1990
1991
1992
1993
1994
1995
1996
1997
1998
1999
1999404
2
20
200
2000
2001
2002
2003
2004
2005
2006
2007
2008
2009
201
2010
2011
2012
2013
2014
2015
2016
2017
2018
2019
202
2020
2021
2022
2023
2024
203
204
205
206
207
208
209
21
210
211
212
213
214
215
216
217
218
219
22
220
221
222
223
224
225
226
227
228
229
2290
23
230
231
232
233
2335
234
235
236
237
238
239
24
240
241
242
243
244
245
246
247
248
249
25
250
2500
251
252
253
254
255
256
257
258
259
25923521
26
260
261
262
263
264
265
266
267
268
269
27
270
271
272
273
274
275
276
277
278
279
28
280
281
282
283
284
285
286
287
288
2880
289
29
290
291
292
293
294
295
296
297
298
299
3
30
300
3000
301
302
3020
303
304
305
306
307
308
309
31
310
311
312
313
314
315
316
3166
317
318
319
32
320
321
322
323
324
325
326
327
328
329
33
330
331
332
333
334
335
336
337
338
339
34
340
341
342
343
344
345
346
347
348
349
35
350
3500
351
352
353
354
355
356
357
358
359
36
360
361
362
363
364
365
366
367
368
369
37
370
371
372
373
374
375
376
377
378
379
38
380
381
382
383
384
385
386
387
388
389
39
390
391
392
393
394
395
396
397
398
399
4
40
400
4000
401
402
403
404
405
406
407
408
409
41
410
411
412
413
414
415
416
417
418
419
42
420
421
422
423
424
425
426
427
428
429
43
430
431
432
433
434
435
436
437
438
439
44
440
441
4418965
442
443
444
445
446
447
448
449
45
450
4500
451
452
453
454
455
456
457
458
459
46
460
461
462
463
464
465
466
467
468
469
47
470
471
472
473
474
475
476
477
478
479
48
480
481
482
483
484
485
486
487
488
489
49
490
491
492
493
494
495
496
497
498
499
5
50
500
5000
501
502
503
504
505
506
507
508
509
51
510
511
512
513
514
515
516
517
518
519
52
520
521
522
523
524
525
526
527
528
529
53
530
531
532
533
534
535
536
537
538
539
54
540
541
542
543
544
545
546
547
548
549
55
550
551
552
553
554
555
556
557
558
559
56
560
561
562
563
564
565
566
567
568
569
57
570
571
572
573
574
575
576
577
578
579
58
580
5802
581
582
583
584
585
586
587
588
589
59
590
591
592
593
594
595
596
597
598
599
6
60
600
6000
601
602
603
604
605
606
607
608
609
61
610
611
612
613
614
615
616
617
618
619
62
620
621
622
623
624
625
626
627
628
629
63
630
631
632
633
634
635
636
637
638
639
64
640
641
642
643
644
645
646
647
648
649
65
650
651
652
653
654
655
656
657
658
659
66
660
661
662
663
664
665
666
667
668
669
67
670
671
672
673
674
675
676
677
678
679
68
680
681
682
683
684
685
686
687
688
689
69
690
691
692
693
694
695
696
697
698
699
7
70
700
7000
7005
701
702
703
704
705
706
707
7073
708
709
71
710
7104
711
712
713
714
715
716
717
718
7188
719
72
720
721
722
723
724
725
726
727
728
729
73
730
731
732
733
734
735
736
737
738
739
74
740
741
742
743
744
745
746
747
748
749
75
750
751
752
753
754
755
756
757
758
759
76
760
761
762
763
764
765
766
767
768
769
77
770
771
772
773
774
775
776
777
778
779
78
780
781
782
785
786
787
788
79
790
791
792
794
795
799
8
80
800
8000
801
802
803
804
805
806
807
808
809
81
810
811
812
813
814
815
816
817
818
819
82
820
821
822
823
824
825
826
827
828
829
83
830
831
832
833
834
835
836
837
838
839
84
840
841
842
843
844
845
846
847
848
85
850
851
85177
852
853
854
855
857
85773
858
859
86
860
861
862
863
864
865
866
867
868
869
87
870
871
872
873
875
8759
876
877
878
88
880
881
88147
882
884
885
886
887
888
889
89
890
89188
893
894
895
896
89648
897
898
899
9
90
900
9000
901
902
903
904
905
906
907
908
91
910
911
912
913
914917
915
916
917
918
919
92
920
921
922
923
924
925
926
927
928
929
93
930
931
932
933
934
935
936
937
938
939
94
940
941
942
943
944
945
946
948
949
95
950
951
953
954
955
956
957
958
959
96
960
961
962
963
964
965
966
967
968
969
97
970
971
972
973
975
977
978
979
98
980
981
982
983
984
985
986
987
988
989
99
990
991
992
993
997
999
:
;
<
=
>
?
@
[
\
]
^
_
`
a
aa
aaa
aaron
aas
ab
aba
abablewo
abc
abd
abdul
abe
abel
abo
aborcji
about
abp
abraham
abrahama
abram
absolutna
absolutnie
absolwenci
absolwent
absolwentem
absolwentka
absolwento
abu
aby
abym
abys
ac
acade
academia
academic
academy
access
ace
ach
achilles
acid
acie
acja
ack
ackiego
act
acta
actes
action
actor
acy
acz
aczkolwiek
ad
ada
adam
adama
adamczyk
adamem
adams
adaptacja
adaptacji
adas
adela
adelaide
aden
adiunkt
adiutant
adler
adm
administraciones
administracja
administracje
administracji
administracyjna
administracyjne
administracyjnego
administracyjnej
administracyjnie
administracyjny
administracyjnych
administracyjnym
administration
administrator
administratora
administratorem
admirał
admirała
adna
adne
adnego
adnej
adnemu
adnych
adnym
adolf
adolfa
adres
adresem
adresowych
adresu
adrian
adriana
ads
adult
advanced
adventure
adventures
adwentysto
adwokat
adwokata
adwokatem
ae
aequo
aero
aeroklub
aeroklubu
af
afc
afera
affairs
afgan
afganistanie
afganistanu
africa
african
afryce
afryka
afrykan
afryki
after
ag
aga
again
against
agan
agaricomycetes
agaricomycotina
agata
agaty
age
agenci
agencja
agencje
agencji
agency
agent
agenta
agento
agh
agiel
agle
aglomeracji
agnes
agnieszka
agnieszkaa
agnieszki
agora
agresji
aguilera
ah
aha
ahmad
ahmed
ai
aids
ain
air
aircraft
aires
airlines
airplay
airport
airways
ais
aise
aj
aja
ajs
ak
aka
akade
akademia
akademicka
akademicki
akademickich
akademickie
akademickiego
akademickiej
akademickim
akademicky
akademie
akademii
akademja
akc
akcent
akcentem
akcie
akcja
akcjach
akcje
akcji
akcyjna
aki
ako
akt
akta
aktach
aktem
akto
aktor
aktora
aktorem
aktorka
aktorki
aktoro
aktorska
aktorskiej
aktorzy
aktu
aktualizacja
aktualna
aktualne
aktualnie
aktualnos
aktualny
akty
aktywna
aktywne
aktywnie
aktywnos
aktywny
aktywnych
aktywnym
akurat
akustyczna
akwarium
akwitania
akwitanii
al
ala
alabama
alain
alan
alana
aland
alarm
alaska
alb
alba
alban
albania
albanii
albatros
albert
alberta
alberto
albertyna
albin
albina
albo
albowiem
alboz
albrecht
albrechta
album
albumem
albumie
albumo
albums
albumu
albumy
aldrich
ale
alec
alego
alei
aleja
alejandro
aleje
aleksander
aleksandr
aleksandra
aleksandrem
aleksandrii
aleksandro
aleksandrowicz
aleksego
aleksiej
aleksy
alem
aleppo
ales
alessandro
alex
alexa
alexander
alexandera
alexandra
alexandre
alexis
alez
alfa
alfabet
alfabetu
alfabetyczna
alfons
alfonsa
alfonso
alfred
alfreda
alfredo
algierii
algorytm
ali
alianckich
alianto
alice
alicja
alina
alis
alive
alkohol
alkoholu
all
alla
allah
allan
alle
allegro
allen
allgemeine
alliance
allmovie
allmusic
alma
almanach
almayer
alo
alojzy
alone
alonso
alosza
alp
alpach
alpejska
alpejski
alpejskie
alpejskim
alpha
alpine
alpy
als
also
alt
alternatywa
alternatywna
alternatywnych
alto
alu
aluminium
always
am
amanda
amateur
amator
amatoro
amatorskich
amazon
ambasada
ambasador
ambasadora
ambasadorem
ambasady
ambasadzie
amber
ambicje
ambicji
ambona
ambroz
amd
ame
amelia
amen
amer
america
american
ameryce
ameryka
amerykan
amerykanie
amerykanin
amerykanka
amerykano
ameryke
ameryki
ami
among
amor
amore
amory
amour
amsterdam
amsterdamie
amt
amunicja
amunicji
amy
an
ana
analiz
analiza
analize
analizie
analizy
analogicznie
analysis
anat
anatol
anatolij
anatomia
anatomii
ancient
and
andarmerii
andarmi
andarmo
anders
andersa
andersen
anderson
andersson
andre
andrea
andreas
andrei
andrew
andrews
andriej
andrij
android
andrzej
andrzeja
andrzejem
andy
andzia
ane
aneks
aneta
anetka
ang
angaz
angel
angela
angeles
angelo
angels
angielska
angielski
angielskich
angielskie
angielskiego
angielskiej
angielskim
angielsko
angielsku
angiosperm
angle
anglia
anglicy
anglie
anglii
anglik
anglika
anglikan
angliko
anglji
anglo
angloje
angoli
anhalt
ani
ania
anie
aniec
aniela
aniele
anieli
anielka
aniem
animacji
animal
animals
animation
animator
anime
animowany
animowanych
anioł
anioła
aniołem
anioło
aniołowie
anioły
anita
aniu
aniz
anka
anke
anki
ann
anna
annaa
annales
annals
annapolis
anne
annie
anniversary
anno
announced
announces
annual
anny
ano
anonimowy
another
anowski
ans
ant
anta
ante
antek
antenie
anteny
anthony
anti
antiochii
anto
antoine
antologia
antologii
anton
antona
antoni
antonia
antoniego
antonimy
antonina
antoniny
antonio
antos
antropologii
antwerpii
anty
antycznej
anu
any
anych
anzelm
ao
ap
apaczo
aparat
aparato
aparatu
apel
apertura
apetyt
apg
aplikacja
aplikacje
aplikacji
apollo
apostolska
apostolski
apostolskiego
apostolskiej
apostolskim
apostoł
apostoła
apostoło
apple
applications
applied
april
aptekarz
apteki
ar
ara
arab
arabia
arabic
arabii
arabo
arabowie
arabska
arabski
arabskich
arabskie
arabskiego
arabskiej
arabskim
aragon
aragonii
aramis
aranz
arbitraz
arc
arch
archanioła
archeolog
archeologia
archeologiczne
archeologicznych
archeologii
archidiecezja
archidiecezji
archipelag
archipelagu
archit
architecture
architekt
architekta
architekto
architektoniczne
architektonicznych
architektura
architekture
architektury
architekturze
archiv
archive
archives
archiwa
archiwalne
archiwalnych
archiwo
archiwum
arct
arcta
arcy
arcybiskup
arcybiskupa
arcybiskupem
arcybiskupi
arcydzieła
arcydzieło
arcyksie
are
area
arem
arena
arenie
areszcie
aresztowac
aresztowana
aresztowania
aresztowaniu
aresztowano
aresztowany
aresztowanych
aresztu
argentina
argentyn
argentyna
argentynie
argentyny
argument
argumento
argumenty
ari
aria
arizona
arka
arkadiusz
arkady
arkansas
arki
arkusz
armand
armat
armata
armaty
armen
armenia
armenii
armia
armie
armii
armja
armji
arms
armstrong
army
arna
arnej
arni
arnold
aro
aron
around
ars
arsenal
arsenał
art
artagnan
artagnana
arte
artem
arthur
arthura
article
artis
artist
artists
arto
artobliwie
artowac
artował
arts
artu
artuje
artur
artura
arty
artykule
artykuł
artykułem
artykuło
artykułu
artykuły
artyleria
artylerii
artyleryjskie
artys
artysta
artystami
artyste
artystka
artystki
artysto
artysty
artystyczna
artystyczne
artystycznego
artystycznej
artystyczny
artystycznych
artystycznym
aru
ary
arystokracji
arystokrata
arystotelesa
arze
as
asa
ashley
asia
asiago
asian
asne
asp
aspekt
aspekto
aspekty
associated
association
asteroid
aston
astr
astragalus
astronauto
astronom
astronomia
astronomical
astronomiczna
astronomiczne
astronomii
astronomy
astrophysics
asynch
asyst
asystent
asystenta
asystentem
asystento
asyz
asz
at
atak
ataki
atakiem
atako
ataku
atakuja
atakuje
atanazy
atari
aten
atenach
ateny
athle
athlete
athletes
athletic
athletics
athos
atlancie
atlanta
atlantic
atlantyku
atlas
atlasie
atle
atletyki
atmosfera
atmosfere
atmosfery
atmosferycznych
atmosferze
atoli
atom
atomo
atomowa
atomowej
atomy
atos
atp
atrakcja
atrakcje
atrakcji
att
attack
au
auckland
audi
audio
audycje
audycji
auf
aug
august
augusta
auguste
augusto
augustyn
augustyna
aurora
aus
auschwitz
austin
australia
australian
australii
australijska
australijski
australijskiego
australijskiej
austria
austriacka
austriacki
austriackich
austriackie
austriackiego
austriackiej
austriackim
austriancharts
austrii
austro
aut
auta
autentycznos
autentycznych
author
authority
auto
autobus
autobuso
autobusowa
autobusowe
autobusowy
autobusu
autobusy
automatyczna
automatyczne
automatycznie
automobile
autonomicznej
autonomii
autor
autora
autorami
autorem
autorka
autorki
autoro
autorskich
autorskie
autorstwa
autorstwo
autorytatywna
autorytet
autorzy
autosan
autostrad
autostrada
autostrady
aux
av
ava
ave
avec
avengers
avenue
aviation
avn
avni
aw
awa
awans
awansowac
awansowali
awansowany
awansował
awansowała
awansowały
awansu
awansuja
awantura
awantury
award
awards
awarii
away
awca
awe
awf
awiw
awiwie
awy
axel
az
azerbejdz
azerski
azja
azjatyckich
azjatyckiej
azji
azotu
azs
azyi
ał
ała
ałam
ałem
ało
ałoba
ałobe
ałobie
ałoby
ałos
ałowac
ałował
ałuja
ałuje
ały
b
ba
bab
baba
babcia
babe
babilon
babka
babki
baby
bac
bach
back
bacz
bacza
bacznie
bacznos
baczyn
bad
bada
badac
badacz
badacza
badacze
badaczy
badaja
badan
badania
badaniach
badaniami
badanie
badaniem
badaniu
badawcza
badawcze
badawczego
badawczej
badawczo
badawczy
badawczych
badawczym
badał
baden
badenia
bafta
bagaz
bagna
bagnety
bagno
bahia
bahn
bailey
bajek
bajka
bajki
baker
bakterie
bakterii
baku
bal
baldwin
bale
balet
baletu
bali
balkon
ball
ballad
ballada
ballady
balon
balsamo
baltic
baltimore
balu
balzac
bami
ban
band
banda
bandaz
bandera
bandy
bandyta
bandyto
bang
bank
banki
bankier
bankiera
banknoto
banknoty
banko
bankowos
banks
banku
baonu
baptiste
bar
baran
barana
barano
baranowski
baraz
barbara
barbarab
barbary
barbarzyn
barbicane
barbon
barcelona
barcelonie
barcelony
bardzie
bardziej
bardzo
bari
barki
barnes
barokowa
barokowe
barokowy
barokowym
baroku
baron
barona
baronie
barono
baronowa
baronowej
barrett
barry
bartek
bartosz
bartoszewicz
bartłomiej
bartłomieja
baru
barw
barwa
barwach
barwami
barwe
barwie
barwne
barwy
barzo
bas
base
baseball
baseballista
based
basen
basenie
basenu
basia
basic
basidiomycota
basista
basket
basketball
baskijski
basowa
bass
basta
bastien
baszta
baszty
bat
bata
batalion
batalionem
batalionie
bataliono
batalionu
bataliony
bateria
baterie
baterii
batman
batorego
batory
battle
batua
bauer
bawaria
bawarii
bawełny
bawi
bawia
bawic
bawili
bawił
bawiła
baxter
bay
bayerisches
bayern
baz
baza
bazakolejowa
baze
bazie
bazuja
bazy
bazylei
bazyli
bazylice
bazylika
bazyliki
bał
bała
bałem
bałkan
bałtyckiego
bałtyckiej
bałtyk
bałtyku
bałwany
bb
bbc
bc
bce
bcie
bd
be
beach
beast
beat
beata
beatles
beautiful
beauty
bec
beck
becker
becky
beczek
beczki
been
beer
beethoven
beethovena
befolkning
before
begin
behind
bei
beijing
being
bek
bel
bela
belek
belgia
belgii
belgijski
belgijskiego
belgijskiej
belgium
belgrad
belgradzie
believe
belize
belka
belki
bell
bella
belle
bellona
bem
ben
bene
benedykt
benedykta
benedyktyn
benedyktyno
beniamin
beniowski
benjamin
bennett
benny
benson
benth
benvenuto
benz
ber
berg
bergamo
bergen
berger
berkeley
berlin
berlina
berliner
berlinie
bernard
bernarda
bernardo
bernardyn
bernardyno
bernhard
bernie
berry
berta
bertrand
berło
beskid
beskidu
beskidzie
best
bestia
bestsellery
bet
beta
beth
better
betty
between
beverly
bevo
beyonce
beyond
bez
bezboz
bezbrzez
bezczelnos
bezczynnos
bezdroz
bezirk
bezkarnie
bezkre
bezmys
bezpieczen
bezpieczna
bezpieczne
bezpiecznie
bezpieczny
bezpos
bezpowrotnie
bezpłatnie
bezpłatny
bezrobocia
bezrobocie
bezsennos
bezskutecznie
bezustannie
bezuz
bezwa
bezwarunkowo
bezwiednie
bezwzgle
bezwładnie
bełchato
bełz
bf
bg
bi
bia
biada
biaja
biali
biarz
biarza
biathlon
biathlonie
biał
biała
białe
białego
białegostoku
białej
białek
białem
białemi
białka
białko
biało
białorus
białorusi
białoruska
białoruski
białoruskiego
białoruskiej
białoruskim
białos
białostockie
białostockiego
białostockiej
białostockim
biały
białych
białym
białymi
białymstoku
białystok
bibcode
bibl
bible
biblia
biblii
biblijna
biblijne
biblijnej
biblijnych
bibliografia
bibliotece
bibliotek
biblioteka
biblioteke
biblioteki
bibsys
bic
bica
bice
bicia
bicie
bicki
bie
biec
bieda
biedak
biedaka
biedako
biede
biedna
biedne
biednego
biednej
biedni
biedny
biednych
biednym
biedy
biedz
bieg
biegac
biegach
biegacz
biegaczka
biegaja
biegał
biegi
biegiem
biegli
biegna
biegnie
biego
biegowa
biegu
biegun
bieguna
biegł
biegła
biegły
biej
biel
bielecki
bieli
bielizna
bielizne
bielizny
bielska
bielski
bielskiego
bielsko
bielsku
bien
bienia
bienie
bieniu
biennale
bierz
bierze
bieta
biete
biety
biez
big
bih
bij
bija
bije
bik
bilans
bilbao
bilet
bileto
bilety
bili
bill
billa
billboard
billerman
billie
billot
billy
bin
bina
bing
biny
bio
biochem
biodra
biografia
biograficzna
biograficzny
biograficznym
biografie
biografii
biogram
biogramy
biographical
biographie
biography
biol
biolib
biolog
biologia
biological
biologicznych
biologii
biology
biona
bione
biony
bionych
biora
biorca
biorco
biorcy
biorczos
biore
biorstw
biorstwa
biorstwie
biorstwo
biowski
bip
bird
birdlife
birds
birkenau
birman
birmingham
birth
bis
bishop
biskup
biskupa
biskupem
biskupi
biskupia
biskupie
biskupiej
biskupo
biskupowi
biskupstwa
biskupstwo
bit
bita
bite
bitew
bito
bitwa
bitwach
bitwe
bitwie
bitwy
bity
biu
biuletyn
biura
biurka
biurko
biurku
biuro
biurze
biz
bizancjum
bizantyn
biznes
biznesu
bił
biła
biło
biły
bjo
bk
bka
bke
bki
bko
bl
bla
blabbermouth
blacha
blachy
black
blackwell
blada
blade
bladej
blado
blados
blady
bladych
blair
blake
blanc
blanca
blanka
blanki
blask
blaski
blaskiem
blasku
blaszka
blaszki
blbnb
ble
bledna
blewski
bli
blicas
blind
bliska
bliski
bliskich
bliskie
bliskiego
bliskiej
bliskim
blisko
bliskos
bliz
blizka
blizko
blizkos
blizzard
blm
bloch
block
blog
blogspot
blok
bloki
bloko
bloku
blokuja
blond
blondynka
blood
blp
blu
blue
blues
bluz
bm
bmatrix
bmw
bn
bna
bnc
bncf
bne
bnego
bnej
bnf
bnie
bno
bnos
bny
bnych
bo
board
boat
bob
boba
bobby
boc
boca
bochen
bochenek
bocian
boczna
boczne
bocznej
boczny
bocznych
bocznym
bodaj
body
bodz
boeing
boga
bogaci
bogactw
bogactwa
bogactwem
bogactwo
bogata
bogate
bogatego
bogatej
bogato
bogaty
bogatych
bogatym
bogdan
bogdana
bogdanowicz
bogi
bogiem
bogini
bogo
bogom
bogowie
bogu
bogumił
bogusław
bogusława
bohater
bohatera
bohaterami
bohaterem
bohaterka
bohaterki
bohatero
bohaterowie
bohdan
bohdana
boi
bois
boiska
boisko
boisku
boiss
boisz
boja
bojaz
boje
bojo
bojowa
bojowe
bojowego
bojowej
bojowniko
bojowy
bojowych
boju
bok
boka
bokach
boki
bokich
bokie
bokiego
bokiej
bokiem
bokim
bokma
boko
bokos
boks
bokser
boksie
boku
bola
boles
bolesna
bolesne
bolesnej
bolesny
bolesław
bolesława
boli
boliwia
boliwii
bolko
bolonii
bolszewicka
bolszewickiej
bolszewikami
bolszewiko
bom
bomb
bomba
bombardowania
bombowco
bomby
bon
bona
bonaparte
bond
bone
bonn
bonus
book
books
boom
bor
bordeaux
borek
boris
borkowski
born
borneo
boro
borowski
boru
bory
borys
borysa
borze
bos
bose
boska
boski
boskich
boskie
boskiego
boskiej
boso
boss
boston
bostonie
bot
botanic
botanica
botanical
botaniczny
botanik
botanika
botaniki
botanique
botany
bourbon
bowa
bowac
bowali
bowano
bował
bowała
bowałem
bowe
bowego
bowej
bowie
bowiem
bowl
bowy
bowych
box
boxing
boxrec
boxshall
boy
boyd
boys
boz
bp
bpa
br
bra
brac
braci
bracia
bracie
braciom
bractwa
bractwo
brad
bradley
brain
brak
braki
brakiem
braknie
brakowało
braku
brakuja
brakuje
brakło
brali
bram
brama
brame
bramek
bramie
bramka
bramkarz
bramkarza
bramkarzem
bramke
bramki
bramy
bran
brand
brandenburg
brandon
brant
branz
brasil
brasławskim
brat
brata
bratanek
bratanka
bratem
braterstwa
braterstwo
bratislava
bratu
bratysława
bratysławie
braun
bravo
brawo
brazil
brazylia
brazylii
brazylijska
brazylijski
brazylijskiej
brał
brała
brało
brały
bre
break
breaking
breslau
bret
bretanii
breton
brian
briana
bridge
brien
brighton
brill
brisbane
bristol
britain
britannica
british
brna
brnie
brno
bro
broadway
broda
brode
brody
broken
bron
broni
bronia
bronic
bronili
bronisław
bronisława
bronił
broniła
brooke
brooklyn
brooks
bros
brother
brothers
browa
browar
browaru
browie
brown
browning
browska
browski
browskiego
browy
broz
brt
bru
bruce
brudna
brudne
brudny
brudnych
bruk
bruksela
brukseli
bruku
brunatne
brunet
bruno
brutalnie
brutalnos
brutto
brwi
brwiami
bryan
bryczka
brydz
bryg
brygada
brygade
brygady
brygadzie
bryt
brytania
brytanii
brytyjczycy
brytyjczyko
brytyjska
brytyjski
brytyjskich
brytyjskie
brytyjskiego
brytyjskiej
brytyjskim
brytyjsko
bryła
bryły
brze
brzeg
brzegach
brzegami
brzegi
brzegiem
brzego
brzegu
brzemie
brzes
brzeski
brzeskiego
brzeskim
brzez
brzezin
brzmi
brzmia
brzmiał
brzmiała
brzmiało
brzmiały
brzmienia
brzmienie
brzmieniu
brzo
brzoza
brzozowski
brzozy
brzuch
brzucha
brzuchu
brzydka
brzydki
brzydkie
bs
bska
bski
bsza
bsze
bszych
bt
bu
buckingham
bud
buda
budapest
budapeszcie
budapeszt
budda
buddy
buddyzm
buddyzmu
budki
budowa
budowac
budowane
budowania
budowanie
budowano
budował
budowe
budowie
budowla
budowlane
budowlanego
budowlany
budowlanych
budowle
budowli
budownictwa
budownictwo
budowniczy
budowy
buduja
buduje
budy
budynek
budynkach
budynkami
budynki
budynkiem
budynko
budynku
budz
budza
budzi
budzic
budził
budziła
budziło
budziły
budzyn
buenos
buffalo
bug
bugu
building
buj
buja
buje
bujna
bujne
buk
bukareszcie
bukareszt
bukiet
bukowski
bull
bulla
bulletin
bulwar
bun
bundeslidze
bundesliga
bundesligi
bunt
buntu
buondi
burbon
burchard
bureau
burgin
burgundia
burgundii
burke
burmistrz
burmistrza
burmistrzem
burns
burt
burton
burundi
burz
burza
burze
burzy
bus
bush
business
but
buta
butach
butelek
butelka
butelke
butelki
butler
buto
buty
buza
bułg
bułgaria
bułgarii
bułgarska
bułgarski
bułgarskiego
bułgarskiej
bułki
bwa
by
byc
bycia
bycie
bydgoska
bydgoski
bydgoskie
bydgoskiego
bydgoskiej
bydgoskim
bydgoszcz
bydgoszczy
bydle
bydz
bydła
bydło
byk
byka
byle
byleby
byli
byliby
bylibys
bylina
bylis
bym
bynajmnie
bynajmniej
byron
bys
bystre
bystro
bystros
bystry
bystrzyca
byt
bytnos
bytom
bytomiu
bytu
bywa
bywac
bywaj
bywaja
bywali
bywał
bywała
bywało
bywały
był
była
byłaby
byłabym
byłam
byłas
byłby
byłbym
byłbys
byłego
byłej
byłem
byłes
było
byłoby
były
byłyby
byłych
byłym
bz
bł
bła
błagac
błagaja
błagam
błagał
błaz
błazen
błe
błocie
błogosławi
błogosławien
błogosławieni
błogosławiona
błogosławiony
błogosławił
błon
błonie
błony
błota
błotem
błoto
błysk
błyskawica
błyskawice
błyskawicy
błyskawicznie
błyski
błysna
błysne
błyszcza
błyszczały
c
ca
cac
cach
cafe
cage
cagematch
caja
cal
cala
calais
calcio
caldwell
cale
calgary
cali
california
call
cam
cambridge
camera
cameron
cami
camp
campaign
campbell
campeonato
campo
can
canada
canadian
canal
cancer
cangjie
cania
canie
cannes
canterbury
cantic
cap
cape
capital
cappellaro
captain
car
cara
cardiff
cardinals
care
career
carey
carfolio
cargo
carl
carla
carlo
carlos
carlosa
carmen
caro
carol
carolina
caroline
carrie
carroll
cars
carskiej
carter
casa
case
cases
casey
cassino
cast
castillo
castle
castro
cat
catalana
catalog
catalogue
catherine
catholic
causa
cave
cał
cała
całe
całego
całej
całem
całemi
całemu
całkiem
całkowicie
całkowita
całkowite
całkowitego
całkowitej
całkowity
całkowitym
cało
całokształt
całos
całowac
całował
całuja
całuje
cały
całych
całym
cba
cbs
cc
cd
cdot
ce
cebula
cebule
cebuli
cech
cecha
cechach
cechami
ceche
cechu
cechuja
cechuje
cechy
cecylia
cegieł
cego
cegły
cej
cel
cela
celach
cele
celem
celestial
celestyn
celi
celina
cell
celna
celnej
celnych
celo
celowo
celu
cem
cemi
cemu
cen
cena
cene
ceni
cenia
cenie
ceniem
ceniu
cenił
cenne
cenny
cennych
censo
census
center
centra
central
centrala
centrali
centralna
centralne
centralnego
centralnej
centralny
centralnych
centralnym
centre
centro
centrum
century
centymetro
ceny
cenzury
cera
ceramiki
ceremonia
ceremonialnym
ceremonie
ceremonii
ceremonji
cerkiew
cerkwi
cerkwie
certyfikat
ces
cesarska
cesarski
cesarskich
cesarskie
cesarskiego
cesarskiej
cesarskim
cesarstwa
cesarstwie
cesarstwo
cesarz
cesarza
cesarzem
cesarzowa
cesarzowej
cesarzowi
cesarzy
cesia
cest
cet
cev
cezar
cezara
cezary
ceł
cf
cfiv
ch
cha
chacie
chad
chains
challenge
challenger
cham
chamber
champion
champions
championship
championships
chan
chana
chang
change
changes
channel
chaos
chaosu
chapter
char
charakter
charakterem
charaktero
charakteru
charaktery
charakterystyczna
charakterystyczne
charakterystyczny
charakterystycznych
charakterystycznym
charakterystyka
charakterystyki
charakteryzuja
charakteryzuje
charakterze
charge
charko
charkowie
charles
charlesa
charley
charlie
charlotte
charlus
charny
chart
charts
chase
chat
chata
chate
chaty
chałupie
chałupy
chca
chce
chcecie
chcemy
chcesz
chciano
chciał
chciała
chciałaby
chciałabym
chciałam
chciałby
chciałbym
chciałbys
chciałem
chciałes
chciało
chciały
chciec
chciej
chcieli
chcielis
chciwie
chciwos
chciwy
che
checklist
chelsea
chem
chemia
chemical
chemiczna
chemiczne
chemicznego
chemicznej
chemiczny
chemicznych
chemicznym
chemii
chemik
chemistry
chen
cher
cherson
chesneau
chess
chester
chevrolet
chełm
chełmie
chełmin
chełmskiej
chi
chicago
chief
child
children
chile
chilijski
chin
china
chinach
chinese
chiny
chirurg
chirurgii
chleb
chleba
chlebem
chlebie
chlebowski
chmiel
chmielewski
chmielnicki
chmielnickiego
chmur
chmura
chmurami
chmury
cho
choc
chociaz
chodz
chodza
chodze
chodzi
chodzic
chodzie
chodzili
chodził
chodziła
chodziłem
chodziło
chodziły
choice
choin
chojnice
cholera
cholery
chopin
chopina
chor
chora
chore
chorego
chorej
choro
choroba
chorobach
chorobe
chorobie
choroby
chorw
chorwacja
chorwacji
chorwacki
chorwackiego
chory
chorych
chorym
chorzo
chorzowie
chorzy
chowa
chowac
chowaja
chował
chr
chris
christ
christian
christiana
christie
christina
christine
christmas
christo
christoph
christopher
chro
chrobrego
chromosomo
chroni
chronia
chronic
chronione
chronionego
chronionych
chronologia
chrus
chryste
chrystus
chrystusa
chrystusem
chrystusie
chrza
chrzanowski
chrzciciela
chrzcielnica
chrze
chrzes
chrzest
chrzestna
chrztu
chu
chuck
chuda
chude
chudy
church
churchill
chusta
chustka
chustke
chustki
chwala
chwale
chwali
chwalic
chwalił
chwała
chwałe
chwały
chwieja
chwil
chwila
chwilach
chwilami
chwile
chwili
chwilke
chwilowe
chwilowo
chwycic
chwycił
chwyciła
chwyta
chwytac
chwytaja
chwytał
chyba
chytros
chytry
chytrze
chyz
chło
chłodem
chłodna
chłodne
chłodnicy
chłodno
chłodny
chłodu
chłop
chłopa
chłopak
chłopaka
chłopaki
chłopca
chłopcem
chłopco
chłopcu
chłopcy
chłopcze
chłopczyk
chłopi
chłopie
chłopiec
chłopo
chłopska
chłopskich
chłopskie
chłopskiej
ci
cia
ciach
ciami
cian
ciana
cianach
cianami
ciane
cianek
cianie
cianki
ciany
ciasne
ciasno
ciasta
ciasto
ciastych
ciał
ciała
ciałem
ciało
cic
cicha
ciche
cichego
cichej
cicho
cichocki
cichos
cichu
cichutko
cichy
cichych
cichym
ciciel
ciciela
cicielami
ciciele
cicielem
cicieli
cicielka
cicki
cickiego
cie
ciebie
ciec
cieczy
ciej
ciekaw
ciekawa
ciekawe
ciekawego
ciekawi
ciekawie
ciekawos
ciekawy
ciekawych
ciekawym
cieko
ciekła
ciekłe
ciekłos
ciekły
ciel
ciela
ciele
cieli
cielna
cielne
cielnego
cielnej
cielny
cielnych
cielnym
ciem
ciemie
ciemna
ciemne
ciemnego
ciemnej
ciemno
ciemnobra
ciemnos
ciemny
ciemnych
ciemnym
cien
cieni
cienia
cienie
cieniem
cienio
cieniu
cienka
cienki
cienkich
cienkie
cienko
cienne
ciennych
ciepła
ciepłe
ciepłego
ciepłej
ciepłem
ciepło
ciepły
ciepłych
ciepłym
cierpi
cierpia
cierpiał
cierpiała
cierpie
cierpiec
cierpien
cierpienia
cierpienie
cierpieniem
cierpliwie
cierpliwos
cies
ciesza
ciesze
cieszy
cieszyc
cieszyn
cieszynie
cieszył
cieszyła
cieszyły
ciez
cig
ciga
cigac
cigach
cigaja
cigania
cigał
cigi
cigna
cigo
cigowy
cigu
cijan
cijanie
cijanin
cik
ciki
ciko
cili
cilis
cim
cimiu
cimy
cin
cina
cincinnati
cine
cinema
cinie
ciniec
cinii
cinne
cinnie
cinnos
cinny
cinnym
ciny
cio
cioboju
cioci
ciocia
ciociu
ciokrotnie
ciokrotny
ciolecia
cioletni
cioletnia
ciom
cioma
cionek
ciorga
cioro
cios
ciosem
ciosu
ciosy
ciotka
ciotke
ciotki
ciowa
ciowe
ciowego
ciowej
ciowi
ciowo
ciowy
ciowych
ciowym
cioł
cioła
ciołach
ciołem
cioło
ciołowi
cioły
circle
circuit
cis
cisk
ciska
ciskac
ciskaja
ciskał
ciskała
cisku
cisna
cisne
cisz
cisza
cisze
ciszej
ciszy
cisła
cisław
cisłe
cisłej
cisłos
cisły
cisłych
cisłym
cit
cities
city
ciu
ciudad
ciuset
ciuszki
ciuszko
civil
ciwa
ciwe
ciwego
ciwej
ciwem
ciwie
ciwos
ciwszy
ciwy
ciwych
ciwym
ciz
cił
ciła
ciłam
ciłem
ciłes
ciło
ciły
cjan
ck
cka
cke
cken
cki
ckiego
ckm
cl
claire
clara
clare
clarence
clark
clarke
class
classic
classical
classification
claude
claudia
claudio
clausura
clav
clay
cle
clean
clecia
clermont
cleveland
climate
clinical
clinton
clio
clive
close
cloud
club
cm
cmentarna
cmentarz
cmentarza
cmentarze
cmentarzu
cmentarzy
cn
cnn
cno
cnota
cnote
cnoty
co
coach
coast
coby
code
codex
cody
codzien
codzienna
codzienne
codziennego
codziennej
codziennie
codzienny
codziennych
codziennym
cofa
cofac
cofaja
cofna
cofne
cofnie
cohen
cokolwiek
col
cold
cole
coleoptera
colin
collection
college
collegium
collins
colo
colon
color
colorado
columbia
columbus
com
combat
combined
come
comedy
comes
comic
comics
coming
command
comme
commission
committee
committees
common
commons
commonwealth
communication
communications
community
como
company
comparative
compass
competition
complete
complex
componenete
computer
comte
con
cona
conajmniej
conan
concacaf
concept
concern
concert
conde
cone
conego
conej
conference
congo
congress
connecticut
connor
cono
conor
conrad
conservation
const
construction
contemporary
content
contest
continental
contra
contract
control
convention
conway
cony
conych
conym
cook
cool
cooper
copa
copepoda
coprawda
copre
copyright
coraz
core
cornell
corocznie
corona
corporation
corps
corpus
cos
cosel
costa
could
council
countries
country
county
coupe
court
courtney
cover
covid
cowa
cowe
cowego
cowej
cowi
cowy
cowych
cowym
cox
coz
cozetta
cp
cr
cracovia
craig
crash
crawford
crawley
crazy
crc
cre
creative
credits
creek
cretaceous
crew
crime
crisis
critic
critical
crosby
cross
crown
cruz
cry
crystal
cs
csi
cska
ctor
cu
cuch
cucha
cuchem
cuchna
cucho
cuchu
cuchy
cud
cuda
cudem
cudna
cudne
cudnie
cudo
cudotwo
cudowna
cudowne
cudownego
cudownie
cudowny
cudu
cudza
cudze
cudzego
cudzej
cudzi
cudzoziemco
cudzoziemcy
cudzoziemiec
cudzych
cugle
cukier
cukrem
cukru
cultural
culture
cum
cup
cure
curie
curling
curlingu
current
curtis
cut
cv
cy
cych
cycling
cyclingarchives
cyfr
cyfra
cyfrowa
cyfrowe
cyfrowej
cyfrowy
cyfrowych
cyfry
cyfryzacji
cygan
cyganka
cygara
cygaro
cykl
cyklu
cylinder
cym
cymi
cynku
cypr
cyprian
cypru
cyprze
cyr
cyrku
cyrus
cyryl
cyryla
cysterso
cyt
cytadeli
cytat
cytaty
cytryny
cywilizacja
cywilizacji
cywilizacyi
cywilna
cywilne
cywilnego
cywilnej
cywilny
cywilnych
cywilnym
cywilo
cywin
cz
cza
czac
czaja
czak
czam
czamy
czania
czapce
czapka
czapke
czapki
czar
czarna
czarne
czarnego
czarnej
czarnem
czarnemi
czarni
czarnia
czarnie
czarniecki
czarno
czarnogo
czarnoksie
czarnosko
czarny
czarnych
czarnym
czarnymi
czaro
czarownica
czarownice
czartoryskich
czaruja
czary
czas
czasach
czasami
czasem
czasie
czaso
czasopis
czasopism
czasopisma
czasopismach
czasopismo
czasowe
czasownik
czasownika
czasowniki
czasownikowa
czasowo
czasu
czasy
czaszka
czaszke
czaszki
czał
czała
czało
czały
czce
czci
czcia
czcigodny
cze
czec
czech
czechach
czechami
czecho
czechosłowacja
czechosłowacji
czechosłowackiej
czechy
czego
czegos
czegoz
czej
czek
czeka
czekac
czekaj
czekaja
czekali
czekam
czekał
czekała
czekałem
czekało
czekały
czekolady
czelabin
czeladz
czeladzi
czele
czelus
czem
czempre
czems
czemu
czemus
czemuz
czemz
czen
czeni
czenia
czenie
czeniem
czeniu
czennica
czennicy
czennik
czennika
czenniko
czerni
czerpia
czerpie
czerwca
czerwcu
czerwiec
czerwien
czerwin
czerwona
czerwone
czerwonego
czerwonej
czerwonemi
czerwoni
czerwono
czerwonosko
czerwony
czerwonych
czerwonym
czerwonymi
czes
czesi
czeska
czeski
czeskich
czeskie
czeskiego
czeskiej
czeskim
czesław
czesława
czesławc
czka
czkach
czkami
czke
czki
czkowe
czkowo
czkowski
czna
czne
cznego
cznej
czni
cznie
cznik
cznika
czniki
cznikiem
czniko
czniku
cznos
czny
cznych
cznym
czo
czochy
czole
czona
czone
czonego
czonej
czono
czonos
czony
czonych
czonym
czowa
czowe
czowy
czoła
czołem
czołg
czołgi
czołgo
czołgu
czoło
czołowa
czołowe
czołowej
czołowych
czte
czterdzies
czterdziestu
czterech
czterej
czterema
czternas
czternastu
czterokrotnie
czterokrotny
cztery
czterysta
czu
czuc
czucia
czuja
czuje
czujesz
czujnos
czuk
czule
czuli
czuwa
czuwac
czuwaja
czuwał
czuł
czuła
czułam
czułe
czułem
czułki
czułos
czuły
czwarta
czwarte
czwartego
czwartej
czwartek
czwarty
czwartym
czwo
czworo
czworoka
czy
czyby
czyc
czyce
czych
czycy
czyja
czyje
czyjes
czyk
czyka
czykami
czykiem
czyko
czyli
czyliz
czym
czyms
czymy
czyn
czyna
czynach
czynem
czyni
czynia
czynic
czynie
czynienia
czynili
czynisz
czynił
czyniła
czyniło
czyniły
czynna
czynne
czynnego
czynnej
czynnie
czynnik
czynnika
czynniki
czynnikiem
czynniko
czynnos
czynny
czynnym
czyno
czynu
czyny
czys
czysta
czyste
czystego
czystej
czystem
czysto
czystos
czysty
czystych
czystym
czysz
czyta
czytac
czytaj
czytaja
czytam
czytamy
czytania
czytanie
czytaniu
czytał
czytała
czytałem
czytelni
czytelnicy
czytelnik
czytelnika
czytelniko
czytelnikom
czywszy
czyz
czyzn
czyzna
czyznami
czyzne
czyzny
czył
czyła
czyłem
czyło
czyły
człek
człeka
człon
członek
członka
członkami
członki
członkiem
członkini
członkinia
członko
członkom
członkostwa
członkostwo
członkowie
członkowskich
człono
człowiecze
człowieczek
człowieczen
człowiek
człowieka
człowiekiem
człowiekowi
człowieku
d
da
dac
dach
dachau
dachem
dacho
dachu
dachy
dacie
dadza
dae
dag
dai
daily
daisy
daj
daja
dajcie
daje
dajesz
dajmy
dajz
dakota
dal
dala
dale
dalece
dalej
daleka
daleki
dalekich
dalekie
dalekiego
dalekiej
dalekim
daleko
dali
dalibo
dalis
dallas
dalnos
dalsza
dalsze
dalszego
dalszej
dalszy
dalszych
dalszym
dam
dama
damaszku
dame
dami
damian
damie
damy
dan
dana
dance
dancing
dane
danego
danej
dania
danie
daniel
daniela
daniem
danii
daniu
danny
dano
dans
dante
danuta
dany
danych
danym
danymi
dar
darem
daremne
daremnie
daria
dariusz
dark
darmo
darmstadt
daro
darowac
darował
daru
daruj
daruje
darwin
dary
das
dasz
daszyn
dat
data
database
date
datenverarbeitung
dates
datos
datowane
datowany
datuje
daty
dave
david
davida
davidd
davidson
davies
davis
davisa
daw
dawac
dawaj
dawali
dawano
dawał
dawała
dawało
dawały
dawid
dawida
dawki
dawn
dawna
dawne
dawnego
dawnej
dawnemu
dawni
dawnie
dawniej
dawniejsze
dawniejszych
dawno
dawny
dawnych
dawnym
dawszy
day
days
dał
dała
dałam
dałby
dałbym
dałem
dałes
dało
dały
db
dba
dbac
dbaja
dbał
dbnl
dc
dca
dce
dco
dcy
dd
ddr
de
dead
deadline
deal
dean
death
debaty
debiucie
debiut
debiutancki
debiutanckim
debiutował
debiutowała
debiutu
debiutuja
deblu
debut
dec
december
dech
decki
deckim
decyduja
decyduje
decyzja
decyzje
decyzji
dee
deep
def
defence
defense
definicja
definicje
definicji
definiuje
degli
dego
dei
dej
dek
deka
dekady
dekadzie
dekanacie
dekanat
dekanato
dekanatu
dekanaty
deklaracja
deklaracje
deklaracji
deklinacja
dekoracja
dekoracje
dekoracji
dekret
dekretem
dekretu
del
delegacja
delegacji
delegat
delegatem
delegato
delfin
delfina
delhi
delikatna
delikatne
delikatnie
delikatnos
delikatny
deliry
dell
della
delle
delta
deluxe
dem
demo
demografia
demokracja
demokracji
demokrato
demokratyczna
demokratyczne
demokratycznego
demokratycznej
demokratyczny
demokratycznych
demon
demonstracji
demu
den
denis
dennis
denver
deon
departamencie
departament
departamento
departamentu
department
depesze
deportivo
deputowanego
deputowany
deputowanych
deputowanym
der
derby
derek
dereneczna
derenek
des
desce
description
desek
desert
design
designated
deska
deskach
deski
deszcz
deszcze
deszczem
deszczu
det
details
detektyw
detroit
dets
deutsch
deutsche
deutschen
deutscher
deutschland
deux
development
devil
devon
deł
dhe
di
dia
diabeł
diabła
diagram
diakon
dialekt
dialekty
dialog
dialogi
dialogu
diamond
diana
diane
dick
dictionaries
dictionary
dictionnaire
did
die
diecezja
diecezjalne
diecezjalny
diecezje
diecezji
diego
dies
dieter
dietrich
diety
dig
digital
din
dina
dinamo
dino
dinosaur
dinozauro
dinozaury
dio
dioecesis
dir
direct
director
directory
dirty
disco
discography
discogs
discover
discovery
disease
disney
displaystyle
distance
distribution
district
diversity
divisio
division
dj
djabeł
djabli
djabła
djabło
djana
djvu
dk
dka
dke
dki
dkiem
dko
dkos
dkowac
dkowana
dkowane
dkowania
dkowanie
dkowany
dkował
dkowy
dku
dl
dla
dlaczego
dlaczegoz
dlan
dlatego
dle
dliwos
dm
dma
dme
dmego
dmej
dmies
dmitrij
dmy
dmym
dmytro
dn
dna
dne
dnego
dnej
dnem
dni
dnia
dniach
dniaja
dniami
dnice
dnicy
dnie
dniem
dnieniem
dnik
dnika
dnikiem
dniko
dniono
dniu
dno
dnos
dny
dnych
dnym
do
dobe
dobek
dobie
dobitnie
dobo
dobra
dobrach
dobranoc
dobre
dobrego
dobrej
dobrem
dobro
dobrobyt
dobrobytu
dobroc
dobroci
dobrocia
dobroczyn
dobroczynnos
dobrodziej
dobrodziejstwa
dobrodzieju
dobrowolnie
dobrowolski
dobry
dobrych
dobrym
dobrymi
dobrzan
dobrze
dobrzy
dobrzyn
dobudowano
doby
dobywaja
dobył
doc
docent
docho
dochodo
dochodu
dochody
dochodza
dochodzenie
dochodzi
dochodzic
dochodził
dochodziła
dochodziło
dochodziły
dociera
docieraja
doctor
document
doczekac
doczekał
doczekała
doda
dodac
dodaj
dodaja
dodaje
dodajemy
dodanie
dodano
dodatek
dodatki
dodatkiem
dodatkowa
dodatkowe
dodatkowego
dodatkowej
dodatkowo
dodatkowy
dodatkowych
dodatkowym
dodatku
dodawac
dodawał
dodał
dodała
dodge
does
dog
dogla
dogrywce
doha
doi
dojazd
dojdzie
dojechac
dojez
dojrzał
dojrzała
dojrzałe
dojrzałos
dojrzały
dojrzec
dojrzewaja
dojs
dok
doka
dokon
dokonac
dokonaj
dokonali
dokonana
dokonane
dokonania
dokonano
dokonany
dokonanych
dokonał
dokonała
dokonały
dokonuja
dokonuje
dokoła
dokto
doktor
doktora
doktorat
doktorem
doktoro
doktorowi
doktorska
doktoryzował
doktorze
doktorzy
doktryna
doktryny
dokumencie
dokument
dokumentach
dokumentacja
dokumentacji
dokumentalny
dokumentalnych
dokumento
dokumentu
dokumenty
dokładna
dokładne
dokładnie
dokładniej
dokładnos
dokładny
dola
dolaro
dole
dolegliwos
doli
dolin
dolina
dolinach
doline
dolinie
doliny
dolly
dolna
dolne
dolnego
dolnej
dolnos
dolnołuz
dolny
dolnych
dolnym
dolores
dom
domac
domach
domaga
domagaja
domagał
domain
domami
doman
dombi
domek
domem
domena
domenico
domeny
domesday
domieszka
domingo
domini
dominiczak
dominik
dominika
dominikan
dominikano
dominique
domino
dominuja
dominuje
domki
domko
domku
domo
domostw
domostwa
domowa
domowe
domowego
domowej
domowi
domowy
domowych
domowym
domu
domy
domys
domysły
don
dona
donald
donalda
dong
donieck
donies
doniesienia
donio
doniosłos
donna
donos
donosza
donsker
doo
dookoła
door
dope
dopie
dopiero
dopo
dopomo
doprawdy
doprowadza
doprowadzaja
doprowadzi
doprowadzic
doprowadził
doprowadziła
doprowadziło
doprowadziły
dopus
dopuszcza
dopuszczaja
dopływ
dopływem
dora
doradca
doradco
doradcy
dorasta
dorastaja
dorastał
doraz
dore
doro
dorobek
dorobkiem
dorobku
doros
doroszewskiego
dorosła
dorosłe
dorosłego
dorosły
dorosłych
dorota
dorothy
doroty
doroz
dortmund
dorzecza
dorzeczu
dorzucił
dos
dosia
dosie
doskonale
doskonalenia
doskonała
doskonałe
doskonałego
doskonałej
doskonałos
doskonały
doskonałym
dosta
dostac
dostaja
dostaje
dostali
dostane
dostanie
dostaniesz
dostarcza
dostarczaja
dostarczono
dostarczyc
dostarczył
dostateczna
dostatecznie
dostatek
dostaw
dostawca
dostawszy
dostawy
dostał
dostała
dostałem
dostało
dostały
doste
dostojen
dostojnos
dostojny
dostrzec
dostrzedz
dostrzega
dostrzegł
dostrzegła
dostrzez
dosyc
doszcze
doszedł
doszedłem
doszedłszy
doszli
doszła
doszło
doszły
dosł
dosłownie
dot
dota
dotarli
dotarł
dotarła
dotarły
dotkna
dotkne
dotknie
dotrzec
dotrzymac
dots
dotychczas
dotychczasowa
dotychczasowe
dotychczasowego
dotychczasowej
dotychczasowy
dotychczasowych
dotycza
dotyczy
dotyczyła
dotyczyło
dotyczyły
dotyka
dotykac
dotykaja
double
doug
douglas
dowa
dowac
dowania
dowanie
dował
dowcip
dowcipu
dowe
dowego
dowej
dowi
dowiaduje
dowie
dowiec
dowiedziawszy
dowiedział
dowiedziała
dowiedziałem
dowiedziec
dowiedzieli
dowiem
dowies
dowiesz
dowio
down
downictwa
download
dowo
dowodem
dowodo
dowodu
dowody
dowodza
dowodzenia
dowodzenie
dowodzi
dowodzic
dowodził
dowodzona
dowolna
dowolne
dowolnego
dowolnej
dowolnie
dowolny
dowolnym
dowy
dowych
dowym
dowymi
doyle
doz
doznaja
doznaje
doznawał
doznał
doznała
dozorca
dozorcy
dozwolone
doła
dołe
dołoz
dołu
doły
dp
dr
dra
drab
drabina
drabinka
drabiny
draft
dragon
dragono
drake
drama
dramacie
dramat
dramato
dramatu
dramaturg
dramaty
dramatyczne
dramatyczny
dramatycznych
dramatycznym
drapiez
draw
draz
drco
dre
dream
dreams
drego
dreszcz
dreszcze
dreszczem
drew
drewna
drewniana
drewniane
drewnianego
drewnianej
drewniany
drewnianych
drewnianym
drewnie
drewno
drez
drezna
drezno
drgaja
drgna
drgne
drive
driver
dro
drobiu
drobna
drobne
drobnego
drobnej
drobno
drobny
drobnych
drobnym
drobnymi
drodze
droga
drogach
drogami
droge
drogi
drogich
drogie
drogiego
drogo
drogowe
drogowego
drogowy
drogowych
drogowym
drop
dros
drowa
drował
drowej
drowych
droz
drudzy
drug
druga
drugi
drugich
drugie
drugiego
drugiej
drugiem
drugiemu
drugim
drugoligowego
drugoplanowa
drugorze
druja
druk
drukarni
drukarnia
drukiem
drukowane
druku
druz
drwia
dry
drych
drz
drze
drzec
drzej
drzemia
drzew
drzewa
drzewach
drzewami
drzewem
drzewie
drzewnego
drzewo
drzwi
drzwiach
drzwiami
drzwiczki
drzwiom
ds
dt
du
dub
dubarry
dubisz
dublin
dublinie
dubois
duch
ducha
duchem
ducho
duchowa
duchowe
duchowego
duchowej
duchowien
duchowna
duchowne
duchownego
duchownej
duchowni
duchowny
duchownych
duchownym
duchowos
duchowy
duchowych
duchowym
duchu
duchy
duda
dudek
due
duecie
duet
duetu
duja
dukato
duke
duma
dumas
dumał
dume
dumna
dumne
dumnie
dumny
dumnym
dumy
dun
dunaj
dunajca
dunaju
duncan
dunin
duo
dur
durham
during
dus
dusz
dusza
dusze
duszpasterska
duszy
dutch
dutchcharts
duty
dux
duz
dvd
dw
dwa
dwadzies
dwaj
dwakroc
dwanas
dwie
dwiema
dwies
dwo
dwoje
dwojga
dwom
dwoma
dworach
dworca
dworcu
dworek
dworem
dworku
dworo
dworska
dworski
dworskich
dworskie
dworskiej
dworu
dwory
dworzan
dworzanin
dworze
dworzec
dwu
dwuch
dwudziestego
dwudziestoleciu
dwudziestu
dwudziesty
dwuje
dwukrotna
dwukrotnie
dwukrotny
dwumeczu
dwunasta
dwunastej
dwunastu
dwustu
dwutlenku
dx
dy
dyabeł
dyabli
dyabła
dyc
dydaktyczna
dylan
dyliz
dym
dymem
dymia
dymisje
dymisji
dymitr
dymitra
dymo
dymu
dymy
dynama
dynamo
dynastia
dynastii
dypl
dyplom
dyplomacji
dyplomata
dyplomatyczna
dyplomatyczne
dyplomatycznej
dyplomatycznych
dyr
dyrekcja
dyrekcji
dyrekcyi
dyrektor
dyrektora
dyrektorem
dyrektoro
dyrektywy
dyrygent
dys
dyscyplin
dyscyplina
dyscyplinach
dyscyplinie
dyscypliny
dysk
dyskiem
dyskografia
dysku
dyskusja
dyskusje
dyskusji
dyskwalifikacja
dyslokacja
dyslokacyjne
dysponował
dysponuja
dysponuje
dyspozycji
dystans
dystansach
dystansie
dystrybucja
dystrybucji
dystrykcie
dystrykt
dystryktu
dysza
dyw
dywan
dywersji
dywizja
dywizje
dywizji
dywizjon
dywizjonu
dyz
dyzma
dz
dza
dzac
dzach
dzaja
dzali
dzam
dzana
dzane
dzania
dzanie
dzaniu
dzano
dzany
dzanych
dzał
dzała
dzca
dzcy
dze
dzej
dzem
dzen
dzenia
dzenie
dzeniem
dzeniu
dzi
dzia
dziac
dziach
dziad
dziada
dziadek
dziadka
dziado
dziale
dziami
dział
działa
działac
działacz
działacza
działacze
działaczem
działaczka
działaczy
działaja
działalnos
działan
działania
działaniach
działaniami
działanie
działaniem
działaniu
działał
działała
działało
działały
działek
działka
działki
działo
działu
działy
dzic
dzicie
dzie
dziec
dzieci
dziecia
dzieciach
dzieciak
dziecie
dziecin
dziecinna
dziecinne
dziecinnych
dzieciom
dziecka
dzieckiem
dziecko
dziecku
dziedzic
dziedzica
dziedzicem
dziedzictwa
dziedzictwo
dziedziczka
dziedzin
dziedzina
dziedzinach
dziedzinie
dziedziniec
dziedziny
dziego
dzieja
dziejach
dzieje
dziejo
dziekan
dziekana
dziekanem
dziela
dziele
dzieli
dzielic
dzielił
dzieliła
dzielna
dzielnego
dzielnic
dzielnica
dzielnicach
dzielnice
dzielnicy
dzielnie
dzielnos
dzielny
dzielnych
dzielnym
dziem
dziemnego
dziemnomorskich
dziemnym
dziemy
dzien
dzienna
dzienne
dziennego
dziennie
dziennik
dziennika
dziennikarka
dziennikarstwa
dziennikarz
dziennikarza
dziennikarze
dziennikarzy
dzienniki
dzienniko
dzienniku
dzienny
dziernik
dziernika
dziernikowej
dzierniku
dzierz
dzierzy
dzierzyn
dziesia
dziesie
dziesz
dziewcza
dziewcze
dziewczyna
dziewczyne
dziewczynie
dziewczynka
dziewczynke
dziewczynki
dziewczyny
dziewia
dziewic
dziewica
dziewice
dziewicy
dziewie
dziewka
dziewki
dzieł
dzieła
dziełach
dziełami
dziełem
dzieło
dzik
dzika
dziki
dzikich
dzikie
dzikiego
dzikiej
dzikim
dziko
dzikos
dzili
dzilis
dzimy
dzin
dzina
dzio
dziobem
dziobie
dziowie
dzis
dzisiaj
dzisiejsza
dzisiejsze
dzisiejszego
dzisiejszej
dzisiejszy
dzisiejszych
dzisiejszym
dzisien
dzisz
dziura
dziure
dziury
dziw
dziwaczne
dziwi
dziwic
dziwie
dziwił
dziwna
dziwne
dziwnego
dziwnej
dziwnem
dziwnie
dziwny
dziwnych
dziwnym
dziwo
dziwszy
dziwy
dził
dziła
dziłam
dziłem
dziło
dziły
dzka
dzki
dzkich
dzkie
dzkiego
dzkiej
dzkim
dzla
dzmi
dzna
dzne
dzny
dzona
dzone
dzonego
dzonej
dzono
dzony
dzonych
dzonym
dztw
dztwa
dztwach
dztwem
dztwie
dztwo
dzu
dzwon
dzwonek
dzwoni
dzwonia
dzwonka
dzwonki
dzwonnica
dzwono
dzwonu
dzwony
dzy
dzyczasie
dzynarodo
dzynarodowa
dzynarodowe
dzynarodowego
dzynarodowej
dzynarodowy
dzynarodowych
dzynarodowym
dzypan
dzywojennego
dzywojennym
dł
dła
dłach
dłem
dło
dłon
dłoni
dłonia
dłoniach
dłonie
dłosło
dłowe
dłowego
dłowych
dług
długa
długi
długich
długie
długiego
długiej
długiem
długiemi
długim
długimi
długo
długoletnia
długos
długosz
długosza
długu
dłuz
e
ea
eagle
earl
early
earth
east
eastern
eberhard
ebird
ebl
ebne
ebra
ebrak
ebrowski
ebu
eby
ebym
ebys
ec
ech
echa
echem
echo
ecie
ecology
economic
economics
eczka
eczke
eczki
ed
eddie
eden
edgar
edge
edicions
edinburgh
edit
edition
editions
edmonton
edmund
edmunda
eds
edu
eduard
eduardo
education
edukacja
edukacje
edukacji
edukacyjna
edukacyjne
edukacyjnych
edward
edwarda
edwards
edwin
edycja
edycjach
edycje
edycji
edynburgu
edyta
edytuj
ee
eesti
ef
efekcie
efekt
efektem
efekto
efektu
efekty
efektywnos
effect
effects
effendi
egipcie
egipski
egipskich
egipskie
egipskiej
egipt
egiptu
eglarz
eglugi
egna
egnac
egnaj
egnaja
egnali
egnam
egnania
egnanie
egnawszy
egnał
egnała
ego
egoizm
egypt
egzamin
egzaminu
egzekucja
egzekucje
egzekucji
egzemplarz
egzemplarze
egzemplarzy
egzystencji
eh
ehf
ei
eight
ein
eine
einer
ej
ejsze
ek
ekai
ekipa
ekipie
ekipy
ekologii
ekon
ekonom
ekonomia
ekonomiczna
ekonomiczne
ekonomicznego
ekonomicznej
ekonomiczny
ekonomicznych
ekonomicznym
ekonomii
ekonomista
ekran
ekranie
ekranu
eks
ekspansji
ekspedycja
ekspedycji
ekspert
eksperto
eksperyment
eksperymento
eksperymenty
eksploatacji
eksplozji
eksport
ekspozycja
ekspozycji
ekstraklasa
ekstraklasie
ekstraklasy
ekwadoru
ekwadorze
ekwipaz
el
ela
elaza
elazem
elazna
elazne
elaznego
elaznej
elazny
elaznych
elaznym
elazo
elbla
election
elections
electric
electronic
elegancki
elektroniczna
elektroniczne
elektronicznej
elektroniczny
elektronicznych
elektroniki
elektrono
elektrowni
elektrownia
elektryczna
elektryczne
elektrycznego
elektrycznej
elektrycznos
elektryczny
elektrycznych
elektrycznym
element
elementami
elementem
elemento
elementu
elementy
elen
elena
eleonora
elewacja
elewacje
elewacji
eli
elias
eliasz
eliby
eliminacja
eliminacjach
eliminacje
eliminacji
elis
elisabeth
elita
elite
eliteprospects
elity
eliza
elizabeth
ella
elle
ellen
elliot
elliott
ellis
else
elsevier
elvis
elwira
elz
em
emanuel
emery
emerytowany
emeryture
emi
emigracji
emigranto
emil
emila
emilia
emilii
emilka
emily
emisja
emisje
emisji
emitowane
emitowany
emma
emmanuel
emmy
emocje
emocji
empik
empire
ems
emu
emy
en
ena
enciklopedija
encyclopaedia
encyclopedia
encyclopædia
encyklopedia
encyklopedii
encyklopedja
encyklopedyczny
encyklopedyja
end
endemicznie
energetycznej
energetyki
energia
energicznie
energie
energii
energja
energji
energy
engineering
england
english
eni
enia
eniach
eniami
enic
enie
eniem
eniom
eniu
enił
enpr
enrico
enrique
ent
enterprise
entertainment
entidades
entry
environment
environmental
eol
ep
eparchia
eparchii
epic
epidemia
epidemii
episkopatu
episode
epitafium
epitet
epizod
epoce
epoka
epoke
epoki
epsilon
er
era
eraja
erazm
erem
eric
erica
erich
erik
ernest
ernesta
ernst
ero
eromskiego
erowie
erski
erskich
erskie
erskiego
eruja
erwin
ery
erygowana
eryk
es
esa
esc
escape
eschmeyer
esctoday
eseista
eska
eskadra
eskadry
eske
esky
espan
esperanto
espn
espnscrum
essen
essex
est
esta
estadio
este
eston
estonia
estonian
estonii
esz
esza
et
eta
etap
etapach
etapem
etapie
etapo
etapu
etapy
etat
etc
ethnologue
etiopii
etniczna
etnicznej
etnicznych
eto
ett
etu
etyka
etyki
etymologia
etymologiczny
eu
euge
eugene
eugenia
eugeniusz
eugeniusza
eunis
eur
euro
eurobasket
euroligi
europa
europaea
europe
european
europejczyko
europejska
europejski
europejskich
europejskie
europejskiego
europejskiej
europejskim
europie
europy
eurosport
eurovision
eurowizja
eurowizji
euskaltzaindia
ev
eva
evans
eve
event
events
ever
every
everything
evic
evidence
evil
evolution
ew
ewa
ewae
ewakuacji
ewangelia
ewangelicki
ewangelickiego
ewangelicko
ewangelii
ewe
ewelina
ewentualnie
ewentualnych
ewidencji
ewo
ewolucja
ewolucji
ewrc
ewska
ewski
ewy
ex
exchange
exclusive
experience
explorer
expo
express
extended
extra
extragalactic
extreme
eye
eyes
ez
ełk
f
fa
fabian
fabio
fabryce
fabrycy
fabryk
fabryka
fabrykach
fabryke
fabryki
fabularny
fabularnych
fabuła
fabuły
face
facebook
facet
factfinder
facto
factor
factory
facts
fair
faith
fajka
fajke
fajki
fakt
faktem
fakto
faktu
fakty
faktycznie
fal
fala
falach
falami
falcon
fale
fali
fall
falls
false
fame
familia
families
familii
family
famous
famousfix
fan
fanny
fano
fantastyczna
fantastyczne
fantastyka
fantasy
fantazja
fantazji
fantazya
fantazyi
far
faraon
faraona
farba
farby
farerski
farm
fasada
fasade
fasady
fasadzie
fashion
faso
fast
father
fauna
fauny
faz
faza
faze
fazie
fazy
fałdy
fałsz
fałszu
fałszywa
fałszywe
fałszywego
fałszywie
fałszywy
fałszywych
fałszywym
fbi
fc
fe
fear
feat
feature
featuring
february
federacja
federacje
federacji
federalna
federalnego
federalnej
federalni
federation
federico
fedorowicz
feel
felicjan
feliks
feliksa
felipe
felix
female
fenomen
fer
ferdinand
ferdynand
ferdynanda
ferenc
ferguson
ferna
fernando
ferrari
festival
festiwal
festiwalach
festiwalu
ff
fi
fia
fiat
fiba
fiction
fide
fidz
field
fifa
fig
figaro
fight
fighter
fighting
figur
figura
figure
figurki
figurowym
figuruje
figury
fiji
fikcyjna
filadelfii
filar
file
files
filharmonii
filia
filialny
filii
filip
filipa
filipin
filipinach
filipiny
filiz
film
filmach
filmem
filmie
filmo
filmoteki
filmowa
filmowe
filmowego
filmowej
filmowy
filmowych
filmowym
filmpolski
films
filmu
filmweb
filmy
filolog
filologii
filoz
filozof
filozofa
filozofia
filozoficzna
filozoficzne
filozoficznego
filozoficzny
filozoficznych
filozoficznym
filozofie
filozofii
filozofji
filozofo
filozofowie
fin
fina
final
finale
finalista
finals
finanse
finanso
finansowa
finansowania
finansowe
finansowego
finansowej
finansowo
finansowy
finansowych
finansowym
finał
finałach
finało
finałowego
finałowej
finałowy
finałowym
finału
finały
find
fine
finland
finlandia
finlandii
finn
fiodor
firanki
fire
firm
firma
firme
firmie
firmy
first
fis
fischer
fish
fishbase
fisher
fishes
fivb
five
fiz
fizjograficznych
fizjologii
fizyczna
fizyczne
fizycznego
fizycznej
fizycznie
fizyczny
fizycznych
fizycznym
fizyk
fizyka
fizyki
fk
fl
flag
flaga
flage
flagi
flash
fleet
fleksyjna
fleming
flet
fletcher
flight
flo
flocie
flora
florence
florencja
florencji
flores
florian
floriana
florida
flory
floryda
florydzie
flota
flote
floty
flotylla
flotylli
flow
flowering
floyd
fly
flying
fm
fo
focus
foeldeak
fogg
foka
folk
folkminnen
folwark
folwarku
fonetyczne
fontaine
fontanna
fontanny
fontenoy
food
foot
football
footballdatabase
for
forbes
force
forces
ford
forda
foreign
forest
forever
form
forma
formach
formacie
formacja
formacje
formacji
formalna
formalne
formalnie
formalnos
formami
format
formation
formatu
forme
former
formie
formowania
formowanie
formula
formule
formuła
formuły
formy
fort
fortecy
fortepian
fortepianie
fortepianu
fortu
fortuna
fortune
fortuny
fortyfikacje
fortyfikacji
forum
forward
fosa
foster
fotel
fotelu
foto
fotograf
fotografia
fotograficzne
fotograficznego
fotograficzny
fotograficznych
fotografie
fotografii
fotoklubu
fototeka
found
foundation
fouquet
four
fourth
fox
fr
fra
frac
fragment
fragmento
fragmentu
fragmenty
frak
frakcji
frana
franc
france
frances
francesca
francesco
franche
francis
francisco
franciszek
franciszka
franciszkan
franciszkanie
franciszkanin
franciszkano
francja
francje
francji
franco
francuscy
francuska
francuski
francuskich
francuskie
francuskiego
francuskiej
francuskim
francusko
francusku
francuz
francuza
francuzi
francuzka
francuzo
francya
francyi
franek
frank
franka
frankfurcie
frankfurt
franklin
franko
frantis
franz
franza
fraser
fraza
frazeologiczne
frazeologiczny
frazowy
fre
fred
frederick
fredro
fredry
free
freedom
freeman
freestyle
fregata
fregaty
frekwencja
french
freski
fricke
friday
friedman
friedrich
friedricha
friend
friends
fritz
fro
from
froncie
front
frontem
frontu
frost
fryderyk
fryderyka
ft
fu
fuji
full
fun
function
fund
fundacja
fundacje
fundacji
fundamento
fundamenty
fundusz
fundusze
funduszu
funduszy
fungi
fungorum
funkcja
funkcje
funkcji
funkcjonalnos
funkcjonariusz
funkcjonariusze
funkcjonariuszy
funkcjonowac
funkcjonowania
funkcjonowanie
funkcjonował
funkcjonowała
funkcjonowało
funkcjonowały
funkcjonuja
funkcjonuje
funt
funta
funto
furman
fury
futbol
futbolu
futra
futro
future
fuzji
g
ga
gabinecie
gabinet
gabinetu
gabriel
gabriela
gabrjel
gac
gach
gad
gada
gadac
gadaj
gadaja
gadał
gado
gady
gaga
gaj
gaja
gajewski
gajo
gaju
gal
gala
galaktyce
galaktyk
galaktyka
galaktyki
galaxy
gale
galeria
galerie
galerii
galerji
galeryi
gales
gali
galicji
galicyi
galicyjski
galicyjskiego
galicyjskiej
galilei
galizien
gallery
galopem
gam
gama
game
games
gamespot
gami
gamma
gamy
gane
ganek
gang
gania
ganie
gankiem
ganku
gano
gaon
gara
garaz
garbuska
garci
garcia
garden
gardens
garderoby
gardiner
gardle
gardner
gardła
gardło
gare
garmisch
garnek
garni
garnia
garnizon
garnizonu
garrett
gars
garstka
garwolin
gary
gas
gasna
gaston
gate
gates
gatunek
gatunkami
gatunki
gatunkiem
gatunko
gatunkowa
gatunkowej
gatunkowy
gatunku
gaun
gawe
gawron
gay
gaz
gazda
gazecie
gazet
gazeta
gazetach
gazete
gazette
gazetteer
gazety
gazo
gazowych
gazu
gazy
gał
gała
gałe
gało
gały
gb
gbif
gbrathletics
gc
gcatholic
gdan
gdansk
gdiplus
gdy
gdyby
gdybym
gdybys
gdym
gdyni
gdynia
gdys
gdyz
gdzie
gdzieby
gdzieindziej
gdziekolwiek
gdzieniegdzie
gdzies
gdziez
ge
gedeon
gemeinde
gen
gender
gene
genealogia
genealogiczne
genealogy
genera
generacja
generacji
general
generale
generalna
generalnego
generalnej
generalnie
generalny
generalnym
generation
generał
generała
generałem
generało
generałowie
genericorum
genesis
genewie
geneza
geniusz
geno
genowefa
gentleman
genu
genui
genus
geo
geode
geodecie
geodeta
geodezji
geoffrey
geogr
geograf
geografia
geograficzna
geograficzne
geograficznego
geograficznej
geograficzno
geograficzny
geograficznych
geograficznym
geografii
geographic
geographical
geol
geolog
geologiczne
geologiczny
geologii
geometrii
geoportal
geoportalu
georg
georga
george
georges
georgia
ger
gerald
gerard
gerhard
germain
german
germany
germplasm
gertruda
ges
geschichte
gesellschaft
gest
gestapo
gestem
get
getamap
getcie
gets
getta
getto
gg
ghost
gi
gia
giacomo
giant
gibson
gie
giel
gielny
giem
gier
gierska
gierski
gierskich
gierskie
gierskiego
gierskiej
gierskim
giew
giełda
giełdy
giełdzie
gigancie
gigant
gil
gilbert
gilberta
gill
gilles
gimnazjum
gimnazyum
gina
gine
ginie
giorgio
giovanni
giovanniego
girl
girls
giro
gitara
gitary
gitarze
gitarzysta
giuseppe
give
giz
gks
gl
gla
glasgow
glass
gle
gleb
glebie
gleby
glem
glen
glenn
gli
glin
glina
gliny
gliwicach
gliwice
glob
global
globo
globu
gloger
glone
glony
gloria
glory
glowego
glu
gm
gmach
gmachu
gmachy
gmbh
gmin
gmina
gmine
gminie
gminna
gminne
gminnego
gminnej
gminny
gminnych
gminy
gmt
gna
gnd
gne
gniarka
gniazd
gniazda
gniazdo
gnie
gniew
gniewa
gniewac
gniewał
gniewem
gniewie
gniewnie
gniewny
gniewu
gniez
gniezna
gniezno
gnij
gnu
gnus
go
goal
god
godna
godne
godnego
godnie
godnos
godny
godnych
godnym
gods
gody
godz
godza
godzi
godzien
godzilla
godzin
godzina
godzinach
godzinami
godzine
godzinie
godziny
godła
godło
goes
goethe
goethego
gogh
gogin
going
gol
gola
gold
golden
goldman
gole
golf
goli
gomez
gon
gone
goni
gonia
gonic
goniec
gonił
gonza
gonzaga
good
google
gora
gordon
gordona
gore
goreja
gorliwie
gorliwos
gorsza
gorsze
gorszego
gorszy
gorycz
gorycza
goryczy
goryn
gorze
gorzej
gorzka
gorzki
gorzkie
gorzko
gorzo
gorzowie
gos
gospel
gospoda
gospodarce
gospodarcza
gospodarcze
gospodarczego
gospodarczej
gospodarczy
gospodarczych
gospodarczym
gospodarka
gospodarke
gospodarki
gospodarstw
gospodarstwa
gospodarstwach
gospodarstwie
gospodarstwo
gospodarz
gospodarza
gospodarze
gospodarzem
gospodarzy
gospody
gospodyni
gospodynia
gospodynie
gospodzie
gostyn
got
goto
gotowa
gotowac
gotowania
gotował
gotowe
gotowi
gotowos
gotowy
gotowych
gotuja
gotuje
gotycka
gotycki
gotyckie
gotyckim
gould
gouv
gov
government
gowa
gowarzewski
gowce
gowco
gowe
gowego
gowej
gowy
gowych
gowym
goya
goz
gozdawa
goła
gołe
gp
gr
gra
graba
grabiez
grabo
grabowski
grac
grace
grach
gracz
gracza
gracze
graczem
graczy
grad
graf
graficzna
graficzne
graficzny
graficznych
grafik
grafika
grafike
grafiki
graham
graja
grali
gram
gramatyczny
gramatyka
gramatyki
grami
grammy
gran
grana
granat
granato
granaty
grand
grande
grani
grania
granic
granica
granicach
granicami
granice
granicy
granicza
graniczna
graniczne
granicznego
granicznej
graniczny
granicznych
granicznym
graniczy
granie
granitu
grano
grant
grave
gray
graz
grał
grała
grały
gre
great
greatest
grecja
grecji
grecka
grecki
greckich
greckie
greckiego
greckiej
greckim
greckokatolicka
greco
grecy
greece
greek
green
greene
greenwood
greg
gregor
gregorian
gregory
greko
grenadiero
grenlandii
grenoble
grey
griffin
grin
grn
gro
grobach
grobem
grobie
grobo
grobowa
grobowca
grobowcu
grobowiec
grobu
groby
groch
grodna
grodnie
grodno
grodu
grodzie
grodzien
grodzisk
grodziska
grodzisko
grodzki
grom
gromad
gromada
gromade
gromadka
gromadki
gromady
gromadza
gromadzi
gromadzie
gromadzkich
gromadzkiej
gromadzkimi
gron
grona
gronie
grono
gross
grosz
grosza
grosze
groszy
grot
grota
groty
ground
group
grove
groz
groza
grozi
grozic
groził
groziła
groziło
grozy
gru
gruba
grube
grubego
grubej
grubo
grubos
gruby
grubych
grubym
grudnia
grudniu
grudzia
grudzien
gruncie
grunt
grunta
grunto
gruntownej
gruntownie
gruntu
grunty
grup
grupa
grupach
grupami
grupe
grupie
grupowa
grupowej
grupy
gruszczyn
gruszki
gruz
gruzach
gruzin
gruzja
gruzji
gruzy
gry
gryf
grywał
gryz
gryza
grza
grzbiecie
grzbiet
grzbietem
grzbietowym
grzbietu
grze
grzebien
grzech
grzechem
grzecho
grzechu
grzechy
grzecznie
grzecznos
grzeczny
grzegorz
grzegorza
grzegorzg
grzes
grzmia
grzmot
grzy
grzyb
grzybo
grzyby
grzywien
grzywny
gs
gt
gu
guadalajara
guardian
guatemala
gubernator
gubernatora
gubernatorem
gubernatorstwa
gubernatorzy
guberni
gubernia
gubin
gue
guez
guide
guido
guillaume
guillermo
guinea
guitar
gun
guru
gus
gust
gustav
gustaw
gustawa
gustu
guy
guz
guza
guzik
guziki
guðmundur
gw
gwar
gwara
gwardia
gwardii
gwardji
gwary
gwatemali
gwałt
gwałtem
gwałtowna
gwałtowne
gwałtownego
gwałtownie
gwałtownos
gwałtowny
gwałtownych
gwałtownym
gwałtu
gwi
gwiaz
gwiazd
gwiazda
gwiazdami
gwiazde
gwiazdka
gwiazdki
gwiazdkowy
gwiazdozbiorze
gwiazdy
gwie
gwiezdne
gwinea
gwinei
gwiz
gwoz
gyo
gz
gł
gła
gładka
gładki
gładkie
gładko
głaz
głazo
głazy
głby
głbym
głbys
głe
głego
głej
głem
gło
głodem
głodny
głodu
głogo
głos
głosami
głosem
głosi
głosicieli
głosie
głosił
głoso
głosowania
głosowanie
głosowaniu
głosu
głosuja
głosy
głosza
głowa
głowach
głowacki
głowami
głowe
głowie
głowy
głucha
głuche
głucho
głuchy
głuchym
głupi
głupia
głupich
głupie
głupiec
głupiego
głupim
głupio
głupota
głupoty
głupstwa
głupstwo
gły
głych
głym
h
ha
haag
hab
haben
habilitacje
habilitowanego
habilitowany
habilitował
habsburg
habsburgo
hacienda
had
hadz
hadze
hai
haiti
hajno
hal
hala
hale
halef
half
halfpipe
hali
halina
hall
halle
hallera
halo
halowe
halowych
ham
hamburg
hamburgu
hamilton
hamlet
hammer
hampshire
hamuja
han
hana
hancock
hand
handbook
handbuch
handel
handlarz
handlem
handlowa
handlowe
handlowego
handlowej
handlowo
handlowy
handlowych
handlowym
handlu
hanja
hanka
hanna
hannah
hans
hansa
hansen
hanyu
happy
har
harald
harasimowicz
harbert
harbor
harcerstwa
harcerzy
hard
hardcore
hardy
harmonia
harmonii
harold
harper
harris
harrison
harry
hart
harvard
harvey
has
haseł
hassan
hastings
hasła
hasłem
hasło
hat
hate
haubic
hauts
have
haven
hawk
hayes
hałas
hałasem
hałasu
hbar
hbo
hc
hd
he
head
heads
health
heart
hearts
heat
heather
heaven
heavy
heavyweight
hebr
hebrajski
hebrajskim
heer
heidelberg
heidelbergu
heidi
heinrich
heinricha
heinz
hej
hektaro
hektor
hel
hela
helen
helena
helene
helenka
heleny
helgason
hell
heller
hello
helmut
help
helsinkach
helsinki
helu
hen
henderson
henr
henri
henrik
henry
henryk
henryka
henrykh
henrykiem
henryku
hepburna
her
herald
heraldyka
herb
herbarz
herbata
herbate
herbaty
herbem
herbert
herberta
herbie
herbo
herbowa
herbu
herby
hercegowina
hercegowinie
hercegowiny
here
heritage
herkules
herman
hermana
hermann
herna
hero
heroes
herschel
het
hetman
hetmana
hey
heyst
hełm
hełmem
hi
hierarchii
hierarchy
hieronim
hieronima
higgins
high
higher
highway
higieny
hilary
hill
hills
him
hindi
hip
hiperonimy
hiphopedia
hipolit
hipolita
hiponimy
hipoteza
hipoteze
hipotezy
his
hist
histo
histoire
historia
historic
historical
historie
historii
historiografii
historja
historje
historji
history
historya
historycy
historyczna
historyczne
historycznego
historycznej
historycznie
historyczno
historyczny
historycznych
historycznym
historye
historyi
historyk
historyka
historyko
hiszp
hiszpan
hiszpania
hiszpanie
hiszpanii
hiszpanji
hiszpano
hit
hitler
hitlera
hitlerowskie
hitlerowskiej
hitparade
hits
hiv
hiztegi
hk
hl
hla
hm
hms
ho
hoc
hockey
hodowla
hodowli
hof
hoffman
hoffmann
hojnie
hojnos
hokeista
hokej
hokeja
hokeju
hol
hola
holandia
holandii
hold
hole
holender
holenderska
holenderski
holenderskich
holenderskie
holenderskiego
holenderskiej
holland
holly
hollywood
holmes
holocaust
holonimy
holotyp
holstein
holsztyn
holt
holy
home
homer
homera
homme
homo
honda
hong
hongkongu
honor
honoris
honorowa
honorowe
honorowego
honorowej
honorowy
honorowym
honoru
hood
hook
hop
hope
hopkins
hora
horn
horror
horse
horst
horyzoncie
horyzont
horyzontu
hospital
host
hostingasp
hot
hotel
hotele
hoteli
hotelu
hour
hours
house
housing
houston
how
howard
hoyo
hoz
hołd
hr
hrabia
hrabianka
hrabiego
hrabiemu
hrabina
hrabine
hrabinie
hrabino
hrabiny
hrabio
hrabstwa
hrabstwie
hrabstwo
hrer
hrvatske
hs
htm
html
http
https
hu
huber
hubert
huberta
hucie
hudson
hugh
hughes
hugo
hugona
huk
hukiem
hukna
hull
human
humanistycznych
humor
humoru
humorze
hunt
hunter
huragan
hus
hustota
huta
huty
huzaro
hy
hyde
hydra
hydronimy
hymn
hymnu
hymny
hyundai
i
ia
iaaf
iak
iako
ian
iast
iata
iau
ib
ibm
ibn
ibrahim
ibu
ic
icao
ice
ich
icht
id
ida
ide
idea
idealna
ideał
ideałem
ideało
ideału
ideały
idee
idei
identyczne
identyczny
identyfikacji
identyfikator
identyfikatory
ideologia
ideologii
ido
idol
idz
idzie
idziemy
idziesz
ie
iego
iest
iey
iez
if
ifpi
ig
ign
ignacego
ignacy
igor
igrzysk
igrzyska
igrzyskach
igrzyskami
igła
igły
ihf
ihm
ii
iihf
iii
ij
ik
ikona
ikony
ikova
il
ile
ilekroc
ilez
ilja
illinois
illustrated
ilos
ilu
ilustracje
ilustracji
ilustracyami
ilustrowana
ilustrowany
im
image
images
imc
imdb
imie
imienia
imieniem
imienin
imieniny
imieniu
imiesło
imigranto
imion
imiona
impact
imperial
imperium
imponuja
import
imprez
impreza
imprezach
imprezie
imprezy
ims
imu
in
ina
inacze
inaczej
inaturalist
inc
include
ind
indeks
indeksu
indeksy
independent
index
india
indiach
indian
indiana
indianapolis
indianie
indicativo
indie
indii
individual
indjan
indonesia
indonez
indonezji
indonezyjski
indoor
industrial
industry
indyan
indyjska
indyjski
indyjskich
indyjskiego
indyjskiej
indyjskim
indywidualna
indywidualne
indywidualnego
indywidualnej
indywidualnie
indywidualnos
indywidualny
indywidualnych
indywidualnym
indziej
ine
info
inform
informacja
informacje
informacji
informacyjna
informacyjne
informacyjnej
informacyjny
informacyjnych
information
informator
informatyka
informatyki
informuja
informuje
infrastructure
infrastruktura
infrastruktury
infty
ing
ingmar
ingrid
inicjatorem
inicjatyw
inicjatywa
inicjatywy
inkardynowany
inn
inna
inne
innego
innej
innem
innemi
innemu
inni
innocenty
innsbruck
innsbrucku
inny
innych
innym
innymi
ino
inowrocław
ins
insee
inside
inskrypcja
inspekcji
inspektor
inspektora
inspektorat
inspektoratu
inspektorem
inspiracja
inspiracje
inspiracji
instalacja
instalacje
instalacji
instancji
instava
institut
institute
institutet
institution
instituto
institutul
instrukcja
instrukcje
instrukcji
instruktor
instruktorem
instrument
instrumentach
instrumental
instrumento
instrumentu
instrumenty
instynkt
instynktem
instynktownie
instytucie
instytucja
instytucjach
instytucjami
instytucje
instytucji
instytut
instytutem
instytutu
int
integracji
integralna
integrated
intel
inteligencja
inteligencji
inteligentny
intelligence
intencje
intencji
intensywne
intensywnie
intensywnos
inter
interactive
interes
interesa
interesach
interesami
interesem
interesie
intereso
interesowac
interesował
interesu
interesuja
interesuje
interesy
interfejs
interfilmes
interia
interlingua
international
internationale
internecie
internet
internetowa
internetowe
internetowej
internetowy
internetowych
internetowym
internetu
internowany
interpress
interpretacja
interpretacje
interpretacji
interview
interwencja
interwencji
into
intro
introduction
intryg
intrygi
inwalido
inwazja
inwazji
inwentarz
inwestycja
inwestycje
inwestycji
inz
io
ioc
ion
ional
iowa
ip
ipa
ipac
ipc
ipn
ipni
ir
ira
irak
iraku
iran
iranie
iranu
irb
ireland
irena
irene
ireneusz
ireny
irina
iris
irish
irlandia
irlandii
irlandzki
irlandzkiego
iron
ironia
ironicznie
ironja
is
isaac
isbn
ise
iskra
iskry
isl
islam
islamu
island
islandia
islandii
islands
islandzki
isle
isni
iso
israel
iss
issf
issn
issue
ist
istituto
istna
istniał
istniała
istniało
istniały
istniec
istnieja
istnieje
istnienia
istnienie
istnieniu
istny
istocie
istot
istota
istote
istotna
istotne
istotnie
istotny
istotnych
istotnym
istoty
istva
isu
it
ita
italia
italian
italiana
italiano
italii
italy
itd
itf
ithaca
itis
itp
its
itunes
iu
iucn
ius
iuz
iv
iva
ivan
iwan
iwana
iwano
iwanow
iwanowicz
iwo
iwona
ix
iz
iza
izaak
izabela
izabeli
izabella
izb
izba
izbe
izbie
izby
izdebce
izdebki
izrael
izraela
izraelska
izraelski
izraelskich
izraelskie
izraelskiego
izraelskiej
izraelsko
izraelu
izydor
ił
iłz
j
ja
jabym
jabłek
jabłka
jabłko
jabłon
jabłoni
jabłonowski
jac
jacek
jacekj
jacht
jachtu
jack
jacka
jackal
jackie
jackiem
jackson
jacksona
jacob
jacques
jacy
jacys
jad
jada
jadalne
jadalnej
jadalni
jade
jadwiga
jadwigi
jadzia
jadł
jadła
jadłem
jadło
jaeger
jagiellon
jagiellonia
jagiełło
jagiełły
jagnie
jago
jagody
jaguar
jahr
jaime
jaj
jaja
jajka
jajko
jajowate
jak
jaka
jakas
jakaz
jakby
jakbym
jakbys
jake
jakem
jakes
jakgdyby
jaki
jakich
jakichkolwiek
jakichs
jakie
jakiego
jakiegokolwiek
jakiegos
jakiej
jakiejkolwiek
jakiejs
jakiekolwiek
jakiem
jakiemi
jakiems
jakies
jakiez
jakikolwiek
jakim
jakimi
jakimkolwiek
jakims
jakimz
jakis
jakiz
jakkolwiek
jako
jakob
jakoby
jakos
jakoz
jaksa
jakto
jakub
jakuba
jakubj
jakubowski
jakz
jam
jama
james
jamesa
jamie
jamy
jan
jana
jane
janeiro
janek
janem
janet
janie
janina
janiny
janj
janka
jankowski
jano
janowi
janowski
januar
january
janusz
janusza
januszj
januszowo
januszpol
jap
japan
japanese
japon
japonia
japonii
jar
jardo
jarmark
jarmarku
jarocin
jaros
jarosław
jarosława
jarosławiu
jarosławj
jarza
jarze
jarzmo
jas
jasia
jasiek
jasien
jasin
jasiu
jaskin
jaskini
jaskinia
jaskinie
jasko
jaskrawe
jaskrawo
jasna
jasne
jasnego
jasnej
jasnem
jasno
jasnos
jasny
jasnych
jasnym
jason
jastrza
jastrze
jaszczurki
java
javier
jaw
jaweon
jawie
jawne
jawnie
jaworski
jay
jaz
jazda
jazde
jazdy
jazyka
jazz
jazzowy
jazzu
jałmuz
jca
jce
jcie
jcik
jco
jcy
jcza
jcze
jczych
jda
jde
jdz
jdzie
jdziemy
jdziesz
je
jean
jeana
jeanne
jechac
jechali
jechał
jechała
jeden
jedenas
jedenasta
jedenastej
jedenastu
jedenasty
jedli
jedna
jednak
jednakowe
jednakowo
jednakowoz
jednakz
jedne
jednego
jednej
jednem
jednemu
jedni
jedno
jednoczes
jednoczesnym
jednogłos
jednolita
jednolitego
jednomys
jednoroz
jednos
jednostce
jednostek
jednostka
jednostkach
jednostkami
jednostke
jednostki
jednoznacznie
jednych
jednym
jedwabiu
jedwabna
jedwabne
jedyna
jedyne
jedynego
jedynej
jedynem
jedynie
jedynka
jedyny
jedynym
jedynymi
jedz
jedza
jedzenia
jedzenie
jedzie
jedziemy
jedziesz
jeff
jefferson
jeffrey
jego
jegomos
jehowy
jej
jejmos
jek
jelcz
jelen
jelena
jelenia
jelenie
jeleniej
jeleniogo
jelita
jem
jemu
jen
jenerał
jenerała
jeniec
jenkins
jennifer
jenny
jeno
jens
jensen
jeremy
jerome
jerozolima
jerozolimie
jerozolimy
jerry
jersey
jerusalem
jeruzalem
jerzego
jerzy
jerzyj
jerzym
jes
jeseni
jesien
jesieni
jesienia
jesienna
jesienne
jesiennej
jesienny
jesse
jessica
jest
jestem
jestes
jestto
jestz
jesu
jesus
jeszcze
jet
jewgienij
jewish
jez
jezik
jezior
jeziora
jeziorach
jeziorami
jeziorem
jezioro
jeziorze
jezu
jezuici
jezuita
jezuito
jezus
jezusa
jezusowego
ji
jidysz
jim
jima
jimmy
jin
jir
jiten
jk
jka
jkach
jke
jki
jn
jna
jne
jnego
jnej
jnie
jnik
jnos
jny
jnych
jnym
jo
joa
joachim
joachima
joan
joanna
joannaj
joanne
joanny
job
jobling
joe
joel
joey
johan
johann
johanna
johannes
johansson
john
johna
johnem
johnj
johnny
johns
johnson
johnsona
join
joins
joint
jolanta
jon
jonas
jonathan
jones
jonesa
jono
jordan
jordana
jordanii
jorge
jork
jorku
jos
jose
josef
josefa
joseph
josepha
josh
joshua
jougan
journal
journey
jowisz
jowisza
joy
joyce
jp
jpg
jr
jrz
js
jskoku
jstor
jstwa
jstwie
jstwo
jt
jta
jtem
jto
ju
juan
juana
jubileusz
jubileuszowy
jubileuszu
judaizmu
judet
judith
judo
judoinside
judoka
judy
jugosławia
jugosławii
jugosłowian
julek
jules
julia
julian
juliana
julie
julii
julio
julius
juliusz
juliusza
julja
juljan
juljana
julka
july
jump
jumping
jun
june
jung
junior
juniorek
junioro
juniors
juniorski
juniorskich
juniorskiej
jura
jurczak
jurek
jurgiel
jurij
jury
jurysdykcji
jus
juss
just
justice
justin
justowska
justyn
justyna
jutra
jutro
juventus
juz
jw
jx
jz
jɛ
k
ka
kabaret
kabina
kabiny
kac
kach
kacper
kaczka
kaczki
kaczmarek
kaczyn
kadencja
kadencje
kadencji
kadeto
kadr
kadra
kadry
kadrze
kadłub
kadłuba
kaftan
kai
kairze
kaiser
kaj
kaja
kajdany
kajetan
kajuty
kal
kalendarium
kalendarz
kalendarza
kalendarzu
kali
kalibru
kalifornia
kalifornii
kalina
kalinowski
kaliski
kaliskiego
kaliskiej
kalisz
kalisza
kaliszu
kalwin
kam
kambodz
kamen
kamera
kameralna
kamerdyner
kamerun
kamery
kami
kamien
kamieni
kamienia
kamieniach
kamieniami
kamienic
kamienica
kamienice
kamienicy
kamienie
kamieniem
kamieniu
kamienna
kamienne
kamiennego
kamiennej
kamienny
kamiennych
kamiennym
kamil
kamila
kamin
kamionka
kampania
kampanie
kampanii
kan
kana
kanada
kanady
kanadyjska
kanadyjski
kanadyjskiej
kanadzie
kanale
kanapie
kanapy
kanał
kanałem
kanało
kanału
kanały
kancelaria
kancelarii
kancelarji
kancelaryi
kanclerz
kanclerza
kanclerzem
kandydaci
kandydat
kandydata
kandydatem
kandydato
kandydature
kandydował
kane
kangxi
kania
kanie
kanon
kanonicznego
kanonik
kanonika
kanoniko
kansas
kant
kanton
kantonie
kantonu
kantor
kanwa
kany
kanych
kapela
kapelan
kapelana
kapelusz
kapelusza
kapelusze
kapeluszem
kapeluszu
kapitalizmu
kapitan
kapitana
kapitanem
kapitanie
kapitanowi
kapitał
kapitału
kapitały
kapitulacji
kapituła
kapituły
kaplic
kaplica
kaplice
kaplicy
kapliczka
kapliczki
kappa
kapral
kaprys
kapucyno
kapus
kapusta
kapusty
kapłan
kapłana
kapłanem
kapłani
kapłano
kar
kara
karabin
karabino
karabinu
karabiny
karac
karaibo
karas
karate
karcie
karczma
karczmie
karczmy
kard
kardynał
kardynała
kardynałem
kardynało
kare
karel
karen
kareta
karety
kariera
kariere
kariery
karierze
karin
kark
karku
karl
karla
karlsruhe
karmelito
karmia
karmic
karne
karnego
karnos
karny
karnych
karnym
karol
karola
karolem
karolina
karoliny
karolk
karolowi
karpat
karpatach
karpaty
karpin
karski
kart
karta
kartach
karte
kartek
kartka
kartke
kartki
kartofle
kartofli
kartograficzne
kartografie
kartografii
kartoteka
karty
kary
karze
karzeł
kas
kasa
kase
kasia
kasie
kask
kasper
kasprowicz
kassel
kastylii
kasy
kasza
kasze
kaszel
kasztelan
kasztelana
kasztelanowa
kaszub
kaszubska
kaszubski
kat
kata
katalog
katalogu
katalon
katalonii
katarzyna
katarzynak
katarzyne
katarzyny
katastra
katastrofa
katastrofie
katastrofy
kate
katedra
katedralnej
katedre
katedry
katedrze
kategoria
kategoriach
kategorie
kategorii
katherine
katie
kato
katolicka
katolicki
katolickich
katolickie
katolickiego
katolickiej
katolickim
katolicy
katolicyzm
katolik
katoliko
katowic
katowicach
katowice
katowickiego
katowickiej
katy
katyn
katyniu
kaukazu
kaw
kawa
kawaler
kawalera
kawalerem
kawaleria
kawalerii
kawalero
kawalerowie
kawalerski
kawalerskim
kawał
kawałek
kawałka
kawałki
kawałkiem
kawałko
kawałku
kawe
kawiarni
kawiarnia
kawiczki
kawie
kawy
kay
kaz
kazac
kazachski
kazachstan
kazachstanie
kazachstanu
kazali
kazan
kazania
kazanie
kazaniu
kazano
kazał
kazała
kazałem
kazimiera
kazimierz
kazimierza
kazimierzk
kazimierzu
kaznodzieja
kał
kała
kałuz
kały
kb
kc
ke
keep
keith
keller
kelly
kelner
ken
kenii
kennedy
kenneth
kenny
kent
kentucky
kevin
kew
key
keyboard
keys
kg
kgb
kh
khan
khl
ki
kia
kibic
kibico
kibucu
kich
kichot
kick
kid
kids
kie
kiedy
kiedykolwiek
kiedym
kiedys
kiedyz
kiego
kiej
kielc
kielcach
kielce
kieleckiego
kieleckiej
kieleckim
kielich
kielicha
kieliszek
kiem
kien
kier
kierowac
kierowana
kierowane
kierowania
kierowanie
kierowany
kierował
kierowała
kierowca
kierowco
kierowcy
kierownictwa
kierownictwem
kierownictwo
kierownicy
kierownik
kierownika
kierownikiem
kieruja
kieruje
kierunek
kierunkach
kierunki
kierunkiem
kierunko
kierunku
kieszen
kieszeni
kieszeniach
kieszenie
kieszonkowy
kiewicz
kij
kijem
kijo
kijowa
kijowie
kijowski
kijowskiego
kijowskiej
kilin
kilka
kilkadziesia
kilkakroc
kilkakrotnie
kilkanas
kilkaset
kilkoma
kilkoro
kilku
kilkudziesie
kilkukrotnie
kilkunastu
kilkuset
kill
killed
killer
kilo
kilogramo
kilograms
kilometro
kim
kimi
kims
kin
kina
kind
king
kinga
kingdom
kings
kingston
kinie
kino
kioto
kirk
kis
kiss
kit
kiti
kitna
kitne
kitnej
kitny
kitnych
kitnym
kitu
kiwaja
kiwał
kiwna
kk
kka
kki
kkich
kkie
kkim
kko
kkos
kl
kla
klacz
klad
kladu
klan
klanu
klara
klarnet
klary
klas
klasa
klasach
klase
klasie
klasy
klasyczna
klasyczne
klasycznego
klasycznej
klasyczny
klasycznych
klasycznym
klasyfikacja
klasyfikacje
klasyfikacji
klasyfikowany
klasztor
klasztorem
klasztorne
klasztorny
klasztornych
klasztoro
klasztoru
klasztory
klasztorze
klatce
klatka
klatke
klatki
klaudyusz
klaus
klawiszowe
kle
klein
klejnot
klejnoto
klejnoty
klemens
klemensa
kleopatra
kli
klient
klienta
kliento
kliknij
klimacie
klimat
klimatu
klin
klinice
klinicznych
klinika
kliniki
klip
klon
klotylda
klub
klubach
klubem
klubie
klubo
klubowe
klubowych
klubu
kluby
klucz
klucza
klucze
kluczem
kluczowa
kluczowe
kluczowych
kluczy
km
kmdr
kmicic
kn
kna
kne
knego
knej
knem
knemi
knesetu
knez
kniaz
knie
kniejsza
kniejsze
kniejszy
kniejszych
knight
kno
knos
know
knowledge
known
kny
knych
knym
ko
koalicja
koalicje
koalicji
kobie
kobieca
kobiece
kobiecego
kobiecej
kobiecie
kobiecy
kobiecych
kobiet
kobieta
kobietach
kobietami
kobiete
kobietom
kobiety
koc
koch
kocha
kochac
kochaj
kochaja
kochali
kocham
kochamy
kochan
kochana
kochane
kochanek
kochani
kochania
kochanie
kochanka
kochanke
kochanki
kochankiem
kochanko
kochankowie
kochanku
kochanowski
kochanowskiego
kochany
kochasz
kochał
kochała
kochałam
kochałem
kocioł
kod
koda
kodeks
kodeksu
kodo
kodowanie
kodu
kody
kodzie
kogo
kogokolwiek
kogos
kogut
kojes
kol
kola
kolacje
kolacji
kolan
kolana
kolanach
kolano
kolarstwie
kolarstwo
kolarz
kolce
kole
kolebki
koledzy
kolega
kolegami
kolege
kolegi
kolegium
kolego
kolei
kolej
koleja
kolejce
koleje
kolejka
kolejki
kolejna
kolejne
kolejnego
kolejnej
kolejno
kolejnos
kolejny
kolejnych
kolejnym
kolejnymi
kolejowa
kolejowe
kolejowego
kolejowej
kolejowy
kolejowych
kolejowym
kolekcja
kolekcje
kolekcji
kolez
kolokacje
kolon
kolonia
kolonie
kolonii
kolonisto
kolor
kolorach
kolorado
kolorem
koloro
kolorowe
kolorowych
koloru
kolory
kolorze
kolumbia
kolumbii
kolumbijski
kolumn
kolumna
kolumnach
kolumnami
kolumne
kolumnie
kolumny
kolwiek
kom
koma
komanczo
komandor
komandora
komandorski
komandorskim
kombatanto
kombi
kombinacja
kombinacje
kombinacji
komedia
komedii
komediowy
komedji
komedyi
komenda
komendant
komendanta
komendantem
komende
komendy
komentarz
komentarze
komentarzy
komet
kometa
komety
komik
komiks
komikso
komiksu
komin
komina
kominie
kominka
kominku
komino
komisariat
komisariatu
komisarz
komisarza
komisarzem
komisarzy
komisja
komisje
komisji
komitecie
komitet
komiteto
komitetu
komnacie
komnaty
komo
komora
komornik
komorowski
komorowskiego
komory
komorze
kompania
kompanie
kompanii
kompetencje
kompetencji
kompilacja
kompilacji
kompleks
kompleksie
kompleksu
kompletna
kompletnie
komplett
kompozycja
kompozycje
kompozycji
kompozytor
kompozytora
kompozytorka
kompozytoro
komputer
komputera
komputero
komputerowa
komputerowe
komputerowej
komputerowych
komputery
komu
komunalnych
komunalnym
komunikacja
komunikacje
komunikacji
komunikacyjne
komunikacyjnych
komunikat
komunikaty
komunis
komunisto
komunistyczna
komunistyczne
komunistycznego
komunistycznej
komunistyczny
komunistycznych
komunizm
komunizmu
komuny
komus
kon
konaja
konary
koncentracji
koncentracyjnego
koncentracyjnych
koncentruja
koncentruje
koncepcja
koncepcje
koncepcji
koncercie
koncern
koncernu
koncert
koncertach
koncerto
koncertowa
koncertował
koncertowe
koncertowej
koncertowy
koncertu
koncerty
koncie
kondracki
kondygnacje
kondygnacji
konfederacja
konfederacji
konferencja
konferencje
konferencji
konfiguracji
konflikcie
konflikt
konflikto
konfliktu
konflikty
konfrontacji
kong
konga
kongo
kongregacji
kongres
kongresie
kongresu
koni
konia
koniach
konie
koniec
konieczna
konieczne
koniecznie
koniecznos
konieczny
koniem
konin
koniom
koniu
koniugacja
konjugation
konklawe
konkretne
konkretnego
konkretnych
konkurencja
konkurencjach
konkurencje
konkurencji
konkurs
konkursach
konkursie
konkurso
konkursu
konkursy
konna
konnej
konno
konny
konnych
konopnicka
konopnickiej
konrad
konrada
konsekrowany
konsekwencja
konsekwencje
konsekwencji
konsekwentnie
konserwacji
konserwator
konserwatorium
konserwatywna
konserwatywnej
konsole
konsoli
konsorcjum
konspiracji
konspiracyjna
konstancja
konstantego
konstantin
konstanty
konstantyn
konstantyna
konstantynopola
konstantynopolu
konstrukcja
konstrukcje
konstrukcji
konstrukcyjne
konstruktor
konstytucja
konstytucje
konstytucji
konstytucyjnego
konsul
konsula
konsulat
konsultacji
konsumento
kontakt
kontakto
kontaktu
kontakty
konteks
kontent
konto
kontra
kontrabas
kontrakt
kontraktu
kontrast
kontrola
kontrole
kontroli
kontrolna
kontrowersje
kontuzje
kontuzji
kontynencie
kontynentalnego
kontynento
kontynentu
kontynuacja
kontynuacje
kontynuacji
kontynuowac
kontynuował
kontynuowała
kontynuuja
konwencja
konwencji
konwentu
konwo
konwulsyjnie
kop
kopa
kopac
kopaln
kopalni
kopalnia
kopalniach
kopalnie
kopenhadze
kopenhaga
kopernik
kopernika
koperte
kopia
kopie
kopiec
kopii
kopis
kopiso
kopisu
kopisy
kopnie
kopuła
kopuły
kopy
kopyt
kopyta
kor
kora
koran
koranu
korczak
korczyn
korea
korean
korei
korekt
korespondencja
korespondencje
korespondencji
korespondent
korespondentem
koron
korona
koronacji
korone
koronie
koronki
koronnego
koronnej
koronny
koronnych
korony
korporacji
korpus
korpusem
korpusie
korpusu
kortach
korwin
kory
koryta
korytarz
korytarza
korytarzu
koryto
korzen
korzeni
korzeniami
korzenie
korzys
korzysta
korzystac
korzystaja
korzystali
korzystania
korzystanie
korzystał
korzystne
kos
kosa
kosin
kosmiczna
kosmiczne
kosmicznego
kosmicznej
kosmiczny
kosmicznych
kosmos
kosmosu
kosowa
kostek
kostiumy
kostka
kostke
kostki
kosy
kosz
kosza
koszalin
koszalinie
koszar
koszarach
koszary
kosze
koszt
koszta
kosztem
koszto
kosztowac
kosztował
kosztowała
kosztowało
kosztowne
kosztownos
kosztuje
koszty
koszula
koszule
koszuli
koszyk
koszykarka
koszykarz
koszyko
kot
kota
kotlina
kotlinie
kotliny
koto
kotwice
koty
kotła
kotło
kotły
kova
kovej
kowa
kowac
kowal
kowala
kowalczyk
kowalska
kowalski
kowanie
kował
kowała
kowe
kowej
kowien
kownie
kowska
kowski
kowy
kowych
koz
koza
kozacy
kozak
kozako
kozioł
kozy
kozła
kozłowski
koła
kołach
kołem
kołnierz
koło
kołobrzeg
kołobrzegu
kołowym
kołysza
kołła
kp
kpp
kpr
kpt
kpzr
kr
kra
kradziez
krain
kraina
kraine
krainie
krainy
kraj
krajach
krajami
kraje
krajem
krajen
krajewski
krajo
krajobraz
krajobrazowego
krajobrazowy
krajobrazu
krajowa
krajowe
krajowego
krajowej
krajowi
krajowy
krajowych
krajowym
kraju
krak
krako
krakow
krakowa
krakowie
krakowska
krakowski
krakowskich
krakowskie
krakowskiego
krakowskiej
krakowskiem
krakowskim
krakowsko
kran
kras
krasin
krasnowolski
kraszewski
kraszewskiego
krata
krater
kraty
krausa
krawczyk
krawe
krawiec
kre
kreacji
krecz
kredyt
kredytu
kreis
kreowany
kres
kresach
kresek
kreso
kresowych
kresu
kresy
krew
krewna
krewnego
krewni
krewny
krewnych
krewnym
kriegsmarine
krnlk
kro
kroc
krocza
krok
krokami
kroki
krokiem
kroko
kroku
kronice
kronik
kronika
kroniki
kropel
kropki
kropla
kroplami
krople
kropli
kros
krosno
krotnie
krotny
krotoszyn
krowa
krowe
krowy
krs
kru
krucyfiks
kruk
kruz
krwawa
krwawe
krwawej
krwawo
krwawy
krwawych
krwi
krwia
krwionos
kryc
kryja
kryje
kryjo
krym
krymie
kryminalne
krymu
krynica
krynicy
krystian
krystyna
krystyny
kryształy
kryteria
kryterio
kryterium
kryty
krytyce
krytycy
krytyczna
krytyczne
krytycznej
krytycznie
krytyczny
krytyk
krytyka
krytyke
krytyki
krytyko
krytykował
kryzys
kryzysu
krył
krza
krzak
krzakach
krzakami
krzaki
krzako
krzemien
krzes
krzeseł
krzesła
krzesło
krzew
krzewo
krzewy
krzycza
krzyczał
krzyczała
krzyczec
krzyczeli
krzyczy
krzyk
krzyki
krzykiem
krzykna
krzykne
krzyku
krzysztof
krzysztofa
krzysztofem
krzysztofk
krzywa
krzywda
krzywde
krzywdy
krzywe
krzyz
ks
ksawerego
ksawery
ksi
ksia
ksie
ksng
ksw
ksza
kszac
kszaja
ksze
kszego
kszej
kszem
kszenia
kszenie
kszona
kszone
kszono
kszony
kszos
kształca
kształcenia
kształcenie
kształcie
kształcił
kształt
kształtach
kształtem
kształto
kształtowania
kształtowanie
kształtu
kształty
kszy
kszyc
kszych
kszym
kszymi
kszył
kszyła
kt
kto
ktoby
ktokolwiek
ktos
ku
kuba
kuban
kubek
kubiak
kubie
kubitsky
kubus
kuby
kuc
kucharka
kucharz
kuchni
kuchnia
kuchnie
kuczyn
kuja
kujawski
kujawsko
kuje
kujemy
kukurydzy
kul
kula
kulami
kule
kulesza
kuli
kulin
kult
kultu
kultur
kultura
kulturalna
kulturalne
kulturalnego
kulturalnej
kulturalno
kulturalny
kulturalnych
kulturalnym
kulture
kulturowe
kulturowego
kulturowej
kulturowych
kultury
kulturze
kun
kunst
kup
kupa
kupca
kupco
kupcy
kupe
kupi
kupic
kupie
kupiec
kupił
kupiła
kupiłem
kupna
kupno
kupowac
kupuja
kupuje
kupy
kur
kura
kurcze
kurek
kuria
kurier
kurii
kurjer
kurs
kursach
kursie
kurskim
kurso
kursu
kursuja
kursy
kursywa
kurt
kurta
kury
kurz
kurzu
kurzyn
kus
kusza
kutno
kutowa
kuz
kuziemko
kuzyn
kuzyna
kuzynie
kuzynka
kuzynki
kv
kw
kwadrans
kwadrat
kwadratowa
kwadratowych
kwadratu
kwalifikacjach
kwalifikacje
kwalifikacji
kwalifikacyjnej
kwalifikant
kwantowej
kwartalnik
kwartet
kwarty
kwas
kwaso
kwasu
kwatera
kwatery
kwaterze
kwestia
kwestie
kwestii
kwestja
kwestje
kwestji
kwestya
kwestye
kwestyi
kwiat
kwiatach
kwiatami
kwiatek
kwiatem
kwiatki
kwiatkowski
kwiato
kwiatowe
kwiatu
kwiaty
kwiecie
kwiecien
kwiecin
kwietnia
kwietniu
kwitna
kwitnie
kwota
kwote
kwoty
ky
kyj
kyle
kyo
kz
kł
kła
kłada
kładzie
kładł
kłamac
kłamie
kłamstwa
kłamstwem
kłamstwo
kłaniaja
kłaniał
kłas
kłe
kło
kłodzka
kłodzkiej
kłodzko
kłodzku
kłopot
kłopoto
kłopotu
kłopoty
kłos
kłosy
kłusem
kły
kɔ
l
la
laan
lab
labirynt
laboratorium
laboratory
lac
lach
lacher
lad
lada
ladami
ladem
ladies
lado
ladowac
ladowan
ladowania
ladowanie
ladował
ladu
laduja
laduje
lady
lahti
laja
lak
lake
lalek
lali
lalka
lalki
lam
lama
lambda
lambert
lami
lamp
lampa
lampart
lampe
lampka
lampy
lamy
lan
lana
lancaster
lance
land
landesamt
landkreis
lane
lang
lange
language
languages
lania
lanie
lanka
lano
lany
lara
large
larry
lars
larwy
larz
las
lasach
lasami
lasek
lasem
laska
laske
laski
laskowski
lasku
laso
last
lasu
lasy
lasz
lat
lata
latac
latach
lataja
latami
latarni
latarnia
latarnie
late
latem
latin
lato
latosin
latter
laty
launch
laura
laureaci
laureat
laureatem
laureatka
laureato
lauren
laurence
laurent
laury
law
lawrence
lay
lazurowe
lał
lała
lałam
lałem
lały
lb
lc
lccn
lcie
ld
le
lea
lead
leader
leaders
league
learning
least
leb
leben
lec
leca
lech
lecha
lechia
leci
lecia
leciał
leciały
lecie
leciec
lecz
leczenia
leczenie
leczeniu
lecznicza
lecznicze
leczniczych
leczyc
led
ledczego
ledczy
ledwie
ledwo
ledza
ledzi
ledzic
ledził
ledztwa
ledztwo
lee
leeds
left
leg
legacy
legend
legenda
legends
legendy
legia
legii
legion
legionisto
legiono
legionu
legnica
legnicy
lego
legum
leicester
leichtathletik
leiden
leigh
leipzig
lej
leja
lek
lekarka
lekarska
lekarski
lekarskich
lekarskie
lekarskiego
lekarskiej
lekarskim
lekarstwa
lekarstwo
lekarz
lekarza
lekarze
lekarzem
lekarzy
lekcewaz
lekcja
lekcje
lekcji
lekcye
leki
lekka
lekki
lekkich
lekkie
lekkiego
lekkiej
lekkim
lekko
lekkoatleta
lekkoatletka
lekkoatletyce
lekkoatletyczne
lekkoatletycznych
lekkoatletyka
lekkomys
lekkos
leko
leksikon
leksykon
lektor
lektury
leku
leli
lem
len
lena
lenia
lenie
leniem
lenin
lenina
leningradzie
leniu
leniwie
leo
leon
leona
leonard
leonarda
leonardo
leone
leonid
leopold
leopolda
lep
lepa
lepe
lepia
lepie
lepiej
lepo
lepsza
lepsze
lepszego
lepszej
lepszy
lepszych
lepszym
lepy
leqslant
les
lescharts
lesie
leslie
lestw
lestwa
lestwem
lestwie
lestwo
leszczyn
leszek
leszekl
leszka
lesznie
leszno
lesław
let
leta
letni
letnia
letnich
letnie
letniego
letniej
letnim
letter
letters
level
levi
lew
lewa
lewandowski
lewcu
lewe
lewego
lewej
lewica
lewicy
lewicz
lewicza
lewin
lewis
lewna
lewo
lewska
lewski
lewskich
lewskie
lewskiego
lewskiej
lewskim
lewy
lewym
lex
lexikon
lexin
lez
lgbt
li
lia
lib
liban
libanie
libanu
liber
liberalna
liberalnej
libertadores
liberty
libia
libii
library
libris
liby
libys
lic
lica
lice
licencja
licencje
licencji
license
liceum
licha
licho
licie
licy
licz
licza
liczb
liczba
liczbach
liczbe
liczbie
liczby
licze
liczebnik
liczebniki
liczebnos
liczna
liczne
licznego
licznej
liczni
licznie
liczny
licznych
licznym
licznymi
liczy
liczyc
liczył
liczyła
liczyło
liczyły
lider
lidera
liderem
lidero
liderzy
lidia
lidze
lie
liechtenstein
lietuviu
life
lig
liga
lige
light
lights
ligi
ligowe
ligowy
ligowych
ligowym
ligue
lih
lij
lik
like
likowski
likwidacja
likwidacje
likwidacji
lil
lili
lilia
liliput
lille
lillehammer
lily
lim
lima
limak
limit
limited
limits
limy
lin
lina
linach
linami
lincoln
linda
linde
lindl
lindsay
line
lines
lingard
linguistics
linia
liniach
liniami
linie
linii
liniowa
liniowe
liniowej
liniowych
linja
linje
linji
link
linked
linki
linkiem
linnaeus
linne
linnos
linnych
linux
liny
linz
lion
lions
lip
lipa
lipca
lipcu
lipiec
lipin
lipsk
lipsku
lipy
lis
lisa
list
lista
listach
listal
listami
liste
listem
lister
listki
listko
listo
listopad
listopada
listopadowego
listopadzie
lists
listu
listy
lisy
lisz
lit
liter
litera
literacka
literacki
literackich
literackie
literackiego
literackiej
literackim
literacko
literami
literat
literato
literatura
literature
literatury
literaturze
litere
litery
litewska
litewski
litewskich
litewskie
litewskiego
litewskiej
litewskim
litewsko
litos
litra
litro
little
liturgia
liturgiczne
liturgii
litwa
litwe
litwie
litwin
litwy
liu
liv
live
liverpool
liverpoolu
lives
living
liwa
liwca
liwco
liwe
liwego
liwej
liwem
liwi
liwia
liwiaja
liwic
liwie
liwiec
liwiony
liwił
liwiła
liwiło
liwos
liwro
liwska
liwski
liwskich
liwskie
liwskiego
liwsza
liwszy
liwszym
liwy
liwych
liwym
liwymi
lix
liz
liza
lizbonie
lizgna
lizna
lił
liła
liłem
lka
lkerung
ll
ller
lloyd
lm
ln
lna
lnb
lne
lnego
lnej
lnem
lni
lnicy
lnie
lniej
lnik
lnika
lnikiem
lniko
lnocie
lnokształca
lnopolska
lnopolski
lnopolskiego
lnopolskiej
lnopolskim
lnos
lnot
lnota
lnote
lnoty
lny
lnych
lnym
lnymi
lo
loara
loary
local
locales
localita
loch
lochu
locie
lodem
lodo
lodomerii
lodomeryi
lodowa
lodowiec
lodu
lody
lodz
lodzie
log
logan
logika
logiki
logo
lojalnos
lokaj
lokaja
lokal
lokalizacja
lokalizacje
lokalizacji
lokalna
lokalne
lokalnego
lokalnej
lokalnie
lokalny
lokalnych
lokalnym
lokalu
lokata
lokate
lokaty
lokomotyw
lokomotywa
lokomotywy
lola
lom
lombardia
lona
london
londyn
londynie
londynu
lone
lonego
lonej
lonely
long
lono
lony
lonych
lonym
look
lopez
lord
lorda
lordo
lorenzo
los
losach
losem
losie
loso
losowanie
losowi
lost
losu
losy
lot
lotach
lotaryngii
lotem
lotnictwa
lotnictwo
lotnicza
lotnicze
lotniczego
lotniczej
lotniczy
lotniczych
lotniczym
lotnik
lotniko
lotniska
lotnisko
lotnisku
loto
lotu
lotus
loty
lou
louis
louisa
louise
lourdes
love
low
lowa
lowe
lowej
lower
lowi
lowie
lowiec
lowo
lowy
lowych
loz
lp
ls
lsid
lski
lt
ltd
lu
lub
luba
lubelska
lubelski
lubelskie
lubelskiego
lubelskiej
lubelskim
lubem
lubi
lubia
lubic
lubicz
lubie
lubiez
lubimyczytac
lubin
lubisz
lubił
lubiła
lublin
lublina
lublinie
lubna
lubo
lubomirski
lubomirskiego
lubos
lubu
lubuskie
lubuskiego
lubuskim
luby
luc
luca
lucas
lucia
lucjan
lucjana
lucky
lucy
lucyna
lud
ludem
ludmiła
ludnos
ludo
ludobo
ludowa
ludowe
ludowego
ludowej
ludowi
ludowy
ludowych
ludowym
ludu
ludwig
ludwiga
ludwik
ludwika
ludwiki
ludwiku
ludy
ludz
ludzi
ludziach
ludzie
ludziom
ludzka
ludzki
ludzkich
ludzkie
ludzkiego
ludzkiej
ludzkim
ludzkos
luer
lufa
luftwaffe
lufy
lui
luigi
luis
luisa
luiza
luka
luke
luki
luksemburg
luksemburga
luksemburgu
luksemburski
luna
lupin
lustra
lustro
lutego
luteran
lutra
luty
lutym
luz
lv
lwa
lwo
lwowa
lwowie
lwowska
lwowski
lwowskich
lwowskiego
lwowskiej
lwowskim
lwy
ly
lynch
lynn
lynx
lyon
lz
m
ma
mabberley
mac
macdonald
macedon
macedonia
macedonii
machina
machinalnie
machine
machiny
machna
macicy
macie
maciej
macieja
maciejm
maciek
macierz
macierzy
macierzyn
macierzystego
macierzystej
macierzystym
macius
macmillan
macocha
maczyc
maczył
mad
madagaskaru
madagaskarze
madame
made
madeleine
madison
madonna
madonny
madrid
madrycie
madryt
madrytu
madzia
mafia
mag
magazine
magazyn
magazynie
magazyno
magazynu
magazyny
magda
magdalena
magdalenam
magdaleny
maggie
magia
magic
magiczne
magii
magister
magisterium
magisterskie
magistra
magnetycznego
magnum
magnus
magyar
mahomet
mahometa
mai
maia
maiden
mail
main
maine
maj
maja
majdan
maje
majestat
majestatu
majewski
majo
major
majora
majorem
majster
majtko
maju
mak
make
makes
making
mako
makowski
maks
maksym
maksymalna
maksymalnej
maksymalnie
maksymalny
maksymilian
maksymiliana
mal
mala
malarka
malarstwa
malarstwie
malarstwo
malarz
malarza
malarze
malarzem
malarzy
malawi
malcie
malcolm
malczyce
male
malec
malen
malezji
mali
malin
malinowski
malmo
malowac
malowane
malowania
malowany
malował
malowała
malowało
malowidła
malta
maltan
malty
maluja
maluje
malwina
mam
mama
mame
mamie
mammal
mammals
mamo
mamusia
mamy
man
management
manager
manche
manchester
mandat
mandato
mandatu
mandaty
mandz
manewr
manfred
manga
mangi
manhattan
mania
manifest
mann
mans
manteuffla
manual
manuel
manuela
many
mao
map
mapa
mapach
mape
mapie
mapka
maps
mapy
mar
mara
marathon
maraton
maratonie
marc
marca
marcel
marcela
marceli
march
marche
marcin
marcina
marcinm
marco
marcu
marcus
mare
marek
marekm
margaret
margrabia
margrabiego
margrabina
mari
maria
mariam
marian
mariana
marianna
mariano
marie
marii
marilyn
marina
marine
marino
mario
marion
maritime
mariusz
marja
marji
marjusz
mark
marka
marke
market
marketing
marketingu
marki
markiem
markiewicz
markiz
markiza
marko
markowski
marks
marksa
markus
marmur
marmuru
marna
marne
marnie
maroka
marokan
maroko
maroku
mars
marsa
marshall
marsylii
marsz
marszałek
marszałka
marszałkiem
marszu
marta
martha
marti
martin
martina
martwa
martwe
martwego
martwi
martwy
martwych
martwym
marty
martyna
marvel
marx
mary
marya
maryi
maryja
maryla
maryland
maryna
marynarce
marynarka
marynarki
marynarz
marynarza
marynarze
marynarzy
marynia
marys
marysia
marza
marzec
marzen
marzena
marzenia
marzeniach
marzenie
marzeniem
marzy
marzyc
marzył
mas
masa
masakra
masakry
mase
masie
maska
maske
maski
mason
masowa
masowe
masowego
masowej
masowo
masowych
mass
massa
massachusetts
master
mastering
masters
masy
masyw
masywie
masywu
masz
maszt
maszyn
maszyna
maszyne
maszynie
maszynowe
maszynowego
maszynowy
maszynowych
maszyny
masła
masłem
masło
mat
mata
matce
match
matches
matchu
mate
matejki
matek
matematyczne
matematyczno
matematycznych
matematyk
matematyka
matematyki
mater
materia
materialnej
materiał
materiałem
materiało
materiału
materiały
materii
materjał
materjału
materji
materyi
mateusz
mateusza
mateuszm
mathbb
mathbf
mathcal
mathematics
mathfrak
mathrm
matka
matke
matki
matko
matrix
matt
matthew
matthias
matura
mature
matury
matylda
maurice
mauro
maurycego
maurycy
mauzoleum
mawiał
max
maxa
may
maya
mayer
maz
mazowiecka
mazowiecki
mazowieckie
mazowieckiego
mazowieckiej
mazowieckim
mazowsza
mazowsze
mazowszu
mazur
mazurek
mazurskie
mazurskiego
mazurskim
mazury
mała
małe
małego
małej
małem
małemi
małgorzata
małgorzatam
małgorzate
małgorzaty
małgosia
mało
małopolsce
małopolska
małopolski
małopolskie
małopolskiego
małopolskim
małp
małpa
małpy
mały
małych
małym
małymi
małz
mb
mbp
mc
mcdonald
mchu
mclaren
md
me
meble
mebli
mecenas
mecenasa
mech
mechaniczna
mechaniczne
mechaniczny
mechanicznych
mechanik
mechanika
mechaniki
mechanizm
mechanizmo
mechanizmu
mechanizmy
mecz
meczach
mecze
meczem
meczet
meczo
meczowe
meczu
med
medal
medale
medalem
medali
medalis
medalista
medalistka
medalu
media
mediach
medical
medicine
medieval
medio
mediolan
mediolanie
mediolanu
medium
medycyna
medycyne
medycynie
medycyny
medyczna
medyczne
medycznego
medycznej
medyczny
medycznych
meet
meeting
mega
mego
mej
meksyk
meksykan
meksyku
mel
melbourne
melodia
melodie
melon
mem
members
memi
memorial
memoriał
memory
memphis
memu
men
menadz
menedz
menem
mennicy
ment
menu
mer
mera
mercedes
merck
mercury
meronimy
mes
met
meta
metacritic
metal
metali
metallum
metalowa
metalowe
metalowej
metalowy
metalowych
metalu
meter
method
metod
metoda
metodami
metode
metody
metodzie
metr
metra
metres
metro
metropolia
metropolii
metropolita
metropolitan
metropolity
metry
metryki
mety
metz
mexico
meyer
mez
mezoregionie
mff
mg
mgle
mgnienie
mgnieniu
mgr
mgła
mgłe
mgły
mhz
mi
mia
miac
miali
miami
miana
mianem
miano
mianowania
mianowano
mianowany
mianował
mianowicie
miar
miara
miare
miary
miast
miasta
miastach
miastami
miasteczek
miasteczka
miasteczko
miasteczku
miastem
miasto
miastu
miaz
miał
miała
miałaby
miałam
miałby
miałbym
miałe
miałem
miałes
miało
miałoby
miałos
miały
miałym
mic
michael
michaela
michaelm
michaił
michaiła
michale
michalski
michał
michała
michałem
michałm
michel
michele
michelle
michigan
mick
mickiewicz
mickiewicza
microsoft
mid
middle
midi
midnight
mie
miec
miech
miecha
miechac
miechaja
miechał
miechała
miechem
miechna
miechne
miechnie
miecho
miechu
miechy
mieci
miecie
miecz
miecza
mieczami
miecze
mieczem
mieczkowska
miecznik
mieczysław
mieczysława
miedz
miedzi
miedzy
miej
mieja
mieje
miejsc
miejsca
miejscach
miejscami
miejsce
miejscem
miejscowa
miejscowe
miejscowego
miejscowej
miejscowi
miejscowos
miejscowy
miejscowych
miejscowym
miejscu
miejska
miejski
miejskich
miejskie
miejskiego
miejskiej
miejskim
miejsko
mielczarek
miele
mielec
mieli
mielibys
mielis
mielił
miem
miemy
mienia
mienie
miennictwa
miennictwie
mierc
mierci
miercia
miertelna
miertelne
miertelnego
miertelnej
miertelnie
miertelnos
miertelny
miertelnych
miertelnym
miertne
miertnie
mierz
mierza
mierze
mierzy
mierzyc
mierzył
mies
miesia
miesie
miesz
miesza
mieszac
mieszaja
mieszan
mieszana
mieszane
mieszanej
mieszanina
mieszany
mieszanych
mieszcza
mieszczan
mieszczanie
mieszczanin
mieszek
mieszka
mieszkac
mieszkaja
mieszkali
mieszkalna
mieszkalne
mieszkalny
mieszkalnych
mieszkam
mieszkan
mieszkania
mieszkanie
mieszkaniec
mieszkaniowe
mieszkaniowej
mieszkaniu
mieszkanka
mieszkał
mieszkała
mieszkało
mieszko
mieszna
mieszne
miesznos
mieszny
mietana
mietany
miewa
miewaja
miewał
mig
migne
migowy
migracji
miguel
migłowce
migłowco
mija
mijaja
mijał
mika
mike
miki
mikołaj
mikołaja
mikroregionie
miksowanie
mil
mila
milady
milan
milano
milcz
milcza
milczał
milczała
milczec
milczeli
milczenia
milczenie
milczeniem
milczeniu
milczy
mile
miles
mili
miliarda
miliardo
milicji
milimetro
milion
miliona
miliono
miliony
milita
militari
military
miljono
miljony
mill
miller
millera
million
mills
milordzie
milos
milton
milwaukee
mimo
mimowoli
mimowolnie
min
mina
minas
mind
mine
miner
mineralnych
minerało
mini
minialbum
minie
minimalna
minimum
minionych
minister
ministerio
ministerstwa
ministerstwie
ministerstwo
ministra
ministrem
ministro
ministrowie
ministry
minnesota
minor
minucie
minus
minut
minuta
minutach
minute
minuty
miny
mio
miodem
miodu
miotaja
mir
mira
mirabeau
miranda
mirek
miriam
mirosław
mirosława
mirror
mirza
mis
misia
misja
misje
misji
misjonarz
misjonarzy
miss
missa
mission
missisipi
missouri
mister
mistrz
mistrza
mistrzami
mistrzem
mistrzo
mistrzostw
mistrzostwa
mistrzostwach
mistrzostwo
mistrzowie
mistrzowski
mistrzowskiego
mistrzu
mistrzyn
mistrzyni
mistrzynia
mistrzynie
misy
mit
mitchell
mito
mitologia
mitologii
mitre
mitsubishi
mittermeier
mity
miu
mix
mixed
mixtape
miła
miłe
miłego
miłej
miło
miłos
miłosierdzia
miłosierdzie
miłosierny
miłosna
miłosne
miłosnych
miłosz
miłuja
miłuje
miły
miłych
miłym
mjr
mk
mkol
mks
ml
mlade
mlb
mld
mlecznej
mleka
mlekiem
mleko
mln
mm
mma
mn
mna
mnich
mnicha
mnicho
mnie
mniej
mniejsza
mniejsze
mniejszego
mniejszej
mniejszos
mniejszy
mniejszych
mniejszym
mniemanie
mniemaniu
mniemał
mnisi
mniszek
mno
mnoga
mnogiej
mnogos
mnoz
mo
mobile
mobilizacji
moc
moca
mocarstw
mocarstwa
moce
mocna
mocne
mocnego
mocniej
mocno
mocny
mocnych
mocnym
mocy
moczu
mod
moda
mode
model
modele
modelem
modeli
modelka
modelu
modern
modernizacja
modernizacje
modernizacji
modernizmu
modla
modli
modlic
modlitw
modlitwa
modlitwe
modlitwie
modlitwy
modlił
modliła
moduł
modułu
mody
modyfikacje
modyfikacji
modły
moga
moge
mogile
mogiła
mogiły
mogli
mogliby
moglibys
moglis
mogła
mogłaby
mogłabym
mogłam
mogłem
mogłes
mogło
mogłoby
mogły
mogłyby
mohamed
mohammed
moi
moich
moie
moim
moimi
moja
moje
mojego
mojej
mojem
mojemi
mojemu
mojmir
mojz
mokra
mokre
mol
mole
molecular
moll
molly
momencie
moment
momentu
mon
monachium
monaco
monako
monarcha
monarchie
monarchii
monarcho
monarchy
monaster
monasteru
monasterze
monde
monet
moneta
monete
monety
money
mongolia
mongolii
monica
monika
monitor
moniuszki
monografia
monografie
monografii
monotypowy
monroe
monsieur
monster
mont
montana
montaz
monte
montevideo
montgomery
month
montpellier
montreal
montrealu
monument
moon
moore
mor
mora
morales
moralna
moralne
moralnego
moralnej
moralnie
moralnos
moralny
moralnych
moralnym
moraw
morawski
mord
morderca
morderco
mordercy
morderstwa
morderstwo
mordu
more
moreno
morfem
morfologia
morgan
morgo
moritz
mormon
morning
moro
morris
morrison
morska
morski
morskich
morskie
morskiego
morskiej
morskim
morton
morza
morze
morzem
morzu
mos
moscow
mosie
moskale
moskali
moskiewski
moskiewskiego
moskiewskiej
moskiewskim
moskwa
moskwie
moskwy
most
mostek
mostem
mosto
mostu
mosty
moszawu
mot
mother
motion
moto
motogp
motor
motors
motorsport
motyka
motyl
motyla
motyle
motyli
motylkowym
motyw
motywem
motywo
motywy
moulin
mount
mountain
mountains
mouret
move
movement
movie
movies
mowa
mowe
mowie
mowy
moz
mozart
mozarta
mołdawii
mp
mpk
mr
mra
mro
mrok
mroku
mroz
mrozu
mrozy
mrs
mrucza
mruczał
mrukna
mruz
mrz
ms
msw
mswojsk
msz
msza
msze
mszy
mt
mtv
mu
mub
much
mucha
mucho
muchy
muhafaza
muhafazie
muhafazy
muhammad
muldach
multico
mun
mundart
mundial
mundialu
mundur
munduru
mundury
mundurze
municipal
municipii
mur
murach
murami
murder
murek
murem
muro
murowana
murowane
murowany
murphy
murray
muru
mury
murze
murzyn
murzyna
murzyno
mus
muse
museo
museum
musi
musiano
musiał
musiała
musiałam
musiałby
musiałem
musiało
musiały
music
musica
musical
musicalu
musicians
musicie
musieli
musielis
musik
musimy
musisz
must
mustafa
musza
musze
muszka
muszli
muszyn
muz
muza
muzea
muzeo
muzeum
muzułman
muzułmanie
muzułmano
muzyce
muzycy
muzyczna
muzyczne
muzycznego
muzycznej
muzyczny
muzycznych
muzycznym
muzyk
muzyka
muzyke
muzyki
muzyko
mvcr
mvp
mw
mx
my
mych
myla
myle
myli
mylic
mylisz
mylił
mylnie
mym
mys
mystery
mysz
myszy
mz
mzk
mzw
mło
młoda
młode
młodego
młodej
młodemu
młodo
młodos
młodsza
młodsze
młodszego
młodszy
młodszych
młodszym
młodu
młody
młodych
młodym
młodymi
młodzi
młodzian
młodzien
młodzieniec
młodziez
młot
młotem
młyn
młyna
młyno
młyny
n
na
nabiera
nabieraja
nabo
naboz
nabrac
nabrał
nabrała
nabrzez
naby
nabyc
nabycia
nabył
nach
nachylenie
nachylił
nacia
nacieraja
nacional
nacisk
naciskiem
nacisku
nacisna
nacjonalisto
naco
naczelna
naczelne
naczelnego
naczelnej
naczelnik
naczelnika
naczelnikiem
naczelny
naczelnym
naczyn
naczynia
naczynie
naczyniowych
nad
nada
nadac
nadaja
nadaje
nadal
nadali
nadana
nadane
nadania
nadanie
nadaniem
nadaniu
nadano
nadany
nadaremnie
nadawac
nadawane
nadawania
nadawanie
nadawany
nadawał
nadawała
nadawały
nadał
nadała
nadbiegł
nadbrzez
nadbudo
nadchodza
nadchodzi
nadcia
nadcis
nade
nadejdzie
nadejs
nademna
nader
nadeszła
nadewszystko
nadles
nadmiar
nadmiaru
nadmierna
nadmiernie
nado
nadrenia
nadrze
nadszedł
nadto
naduz
nadwere
nadwis
nadworna
nadwozia
nadwozie
nadwyz
nadziei
nadzieja
nadzieje
nadzo
nadzorczej
nadzorem
nadzorował
nadzoru
nadzwyczaj
nadzwyczajna
nadzwyczajne
nadzwyczajnego
nadzwyczajnej
nadzwyczajnie
nadzwyczajny
nadzwyczajnych
nadzwyczajnym
naekranie
naftowej
naga
nagano
nagi
nagich
nagie
nagla
nagle
nago
nagos
nagran
nagrana
nagrane
nagrania
nagranie
nagraniu
nagrany
nagrał
nagrała
nagro
nagrobek
nagrobki
nagrobko
nagrobne
nagroda
nagrode
nagrody
nagrodzony
nagła
nagłe
nagłego
nagłej
nagło
nagły
nagłym
naiwna
naiwnie
naiwnos
naja
najazd
najazdu
najbardzie
najbardziej
najbliz
najbogatszych
najche
najcie
najcze
najdalej
najdawniejszych
najdroz
najdłuz
naje
najez
najgore
najgorsza
najgorsze
najgorszy
najgorszym
najgorzej
najgłe
najjas
najkro
najlepie
najlepiej
najlepsi
najlepsza
najlepsze
najlepszego
najlepszej
najlepszy
najlepszych
najlepszym
najlepszymi
najlz
najmnie
najmniej
najmniejsza
najmniejsze
najmniejszego
najmniejszej
najmniejszy
najmniejszych
najmniejszym
najmocniej
najmłodsza
najmłodszy
najmłodszych
najmłodszym
najniz
najnowsza
najnowsze
najnowszej
najnowszych
najpewniej
najpie
najpierw
najpo
najpopularniejsze
najpopularniejszych
najpote
najpowaz
najprawdopodobniej
najpre
najprzo
najro
najrozmaitsze
najrozmaitszych
najs
najstarsza
najstarsze
najstarszego
najstarszy
najstarszych
najstarszym
najszcze
najszybciej
najwaz
najwczes
najwidoczniej
najwie
najwybitniejszych
najwyraz
najwyz
najz
najzupełniej
najłatwiej
nakaz
nakazał
nakazuja
nakazuje
nakladatel
nakoniec
nakre
nakres
nakryta
nakryty
nakształt
nakład
nakładem
nakładzie
nakłonic
nal
nalegał
nalez
nam
namalowany
namalował
name
named
names
nami
namie
namiestnik
namiestnika
namiocie
namiot
namioto
namiotu
namioty
namo
namowa
namys
namysłu
nan
nana
nancy
nanowo
nantes
nao
naogo
naoko
naokoło
naomi
naostatek
napad
napadnie
napadu
napady
napadł
napas
napastnik
napastnika
napastniko
nape
napewno
napełnia
napełniaja
napełnił
napic
napie
napis
napisac
napisali
napisami
napisana
napisane
napisanego
napisanej
napisania
napisano
napisany
napisał
napisała
napisałem
napisem
napisy
napisze
napo
napoje
napojo
napoju
napoleon
napoleona
napotkał
napowro
napozo
naprawde
naprawic
naprawy
napre
napro
naprzeciw
naprzeciwko
naprzemian
naprzo
naprzykład
napływ
narade
narady
narastaja
naraz
narazic
narazie
narciarka
narciarska
narciarski
narciarskich
narciarskie
narciarstwie
narciarstwo
narciarz
nareszcie
narkotyko
naro
narodem
narodo
narodowa
narodowe
narodowego
narodowej
narodowi
narodowo
narodowos
narodowy
narodowych
narodowym
narodowymi
narodu
narody
narodzenia
narodzenie
narodzie
narodzin
narodziny
narodził
naroz
narrator
naruszenie
narza
narze
narzeczona
narzeczonego
narzeczonej
narzeczony
nas
nasa
nasada
nasady
naselja
nash
nashville
nasi
nasienie
nasion
nasiona
nassau
nast
nasta
nastał
nastała
naste
nastre
nastro
nastroju
nasz
nasza
nasze
naszego
naszej
naszem
naszemi
naszemiasto
naszemu
naszych
naszyjnik
naszym
naszymi
nat
natalia
natalie
natalja
natan
natarcia
natarcie
natchna
natchnienia
natchnienie
nate
natenczas
nathan
nation
national
nationale
nations
natkna
nato
natomiast
natre
natur
natura
natural
naturalna
naturalne
naturalnego
naturalnej
naturalnie
naturalny
naturalnych
naturalnym
nature
natury
naturze
natychmiast
natychmiastowego
nauce
nauczania
nauczanie
nauczaniu
nauczał
nauczy
nauczyc
nauczyciel
nauczyciela
nauczyciele
nauczycielem
nauczycieli
nauczycielka
nauczycielki
nauczył
nauczyła
nauk
nauka
naukach
nauke
nauki
naukowa
naukowco
naukowcy
naukowe
naukowego
naukowej
naukowiec
naukowo
naukowy
naukowych
naukowym
nauru
naval
naver
navin
navy
navypedia
nawa
nawe
nawet
nawia
nawiasach
nawiasem
nawie
nawiedzenia
nawierzchni
nawpo
nawro
nawskros
nawy
nawzajem
nazad
nazajutrz
nazal
nazawsze
nazbyt
nazewnictwa
nazewnictwo
nazionale
nazisto
nazw
nazwa
nazwac
nazwach
nazwali
nazwami
nazwana
nazwane
nazwano
nazwany
nazwał
nazwała
nazwe
nazwie
nazwisk
nazwiska
nazwiskiem
nazwisko
nazwisku
nazwy
nazywa
nazywac
nazywaja
nazywali
nazywam
nazywamy
nazywana
nazywane
nazywano
nazywany
nazywasz
nazywał
nazywała
nałe
nałoz
nb
nba
nbc
nbp
nc
ncaa
ncbi
nchen
nchez
nd
nde
nder
ndez
ndk
ndl
ne
neapol
neapolitan
neapolu
near
nebraska
nec
ned
need
negatywne
negatywnie
nego
negocjacje
negocjacji
neighbourhood
neil
neilw
nej
nek
nekrolog
nekrologi
nel
nelson
nem
nemi
nemo
nemu
nen
neo
neogotycki
neogotyckim
nepal
nepalskiego
nepalu
nepomucena
ner
nerek
nerwo
nerwowe
nerwowego
nerwowo
nerwowy
nerwy
nes
nestor
net
netflix
netherlands
netreba
netrebka
netto
network
neu
neue
neustadt
neutralnos
nevada
never
new
newcastle
newman
newport
news
newsweek
newton
newtona
next
nez
ng
nga
ngc
ngel
nh
nhl
ni
nia
niac
niach
niacki
niacy
niadania
niadanie
niadaniu
niaja
niak
niaka
niako
niami
nian
nianej
niania
niał
niała
niało
niały
niby
nic
nica
nice
nicei
nich
nicholas
nicht
nici
nick
nicka
nicki
nickiego
nico
nicola
nicolas
nicole
nicos
nicowane
nicowanie
nictwa
nictwo
nicy
nicza
nicze
niczego
niczem
niczka
niczke
niczki
niczo
niczy
niczym
nid
niderl
nie
nieba
niebardzo
niebawem
niebe
niebem
niebezpieczen
niebezpieczna
niebezpieczne
niebezpiecznego
niebezpiecznie
niebezpieczny
niebezpiecznych
niebezpiecznym
niebian
niebie
niebieska
niebieski
niebieskich
niebieskie
niebieskiego
niebieskiej
niebieskim
niebiesko
niebios
niebiosa
niebo
nieboszczyk
nieboszczyka
niebu
niec
niecałe
niech
niechaj
niechby
niechca
niechcenia
nieche
niechludow
niechybnie
niechz
niecierpliwie
niecierpliwos
nieco
nieczynny
nied
niedaleko
niedawna
niedawno
niedbale
niedobrze
niedokon
niedokonany
niedola
niedole
niedoli
niedorzecznos
niedos
niedostatek
niedostatku
niedoste
niedowierzaja
niedowierzaniem
niedołe
nieduz
niedz
niedziela
niedziele
niedzieli
niedługo
nieg
niegdys
niegdzie
niegi
niegiem
niego
niegu
nieistnieja
niej
nieja
niejaka
niejaki
niejakiego
niejakim
niejako
niejasne
niejeden
niejedna
niejednego
niejedno
niejednokrotnie
niejsi
niejsza
niejsze
niejszego
niejszej
niejszem
niejszos
niejszy
niejszych
niejszym
niejszymi
niekiedy
niekompletna
niekoniecznie
niekto
nielada
nieledwie
nieliczne
nielicznych
nielitos
nielsen
niem
niema
niemaja
niemal
niemasz
niemała
niemało
niemca
niemcami
niemco
niemcom
niemcy
niemczech
nieme
niemen
niemi
niemiec
niemieccy
niemiecka
niemiecki
niemieckich
niemieckie
niemieckiego
niemieckiej
niemieckim
niemieckimi
niemiecko
niemieckoje
niemiecku
niemka
niemnie
niemniej
niemoc
niemocy
niemowle
niemoz
niemu
niemy
nien
nienawidza
nienawidze
nienawidzi
nienawidził
nienawis
nieni
nienia
nienie
nieniem
nieniu
nieobecnos
nieodm
nieodste
nieodła
nieoficjalne
nieokres
nieomal
nieopodal
nieostroz
niepamie
niepewna
niepewne
niepewnos
niepewny
niepewnym
niepełnosprawnos
niepełnosprawnych
niepodległej
niepodległos
niepodobien
niepodobna
niepoje
niepokalanego
niepoko
niepokoi
niepokoic
niepokoja
niepokojem
niepokoju
nieporo
nieporozumien
nieporozumienia
nieporozumienie
nieporza
niepostrzez
nieposłuszen
niepotrzebne
niepotrzebnie
niepowodzenia
niepowodzeniem
niepoz
nieprawda
nieprawdaz
nieprawidłowos
nieprawos
nieprzechodni
nieprzerwanie
nieprzyjaciel
nieprzyjaciela
nieprzyjaciele
nieprzyjacielem
nieprzyjacio
nieprzyjemnos
nieprzytomny
nieraz
nieregularne
niero
nierozro
nierozsa
nierozwaz
nieruchoma
nieruchome
nieruchomo
nieruchomos
nieruchomy
nieruchomych
nierza
nierzadko
nies
niesie
nieskon
niespełna
niespodzianie
niespodzianka
niespodzianke
niespodziewana
niespodziewanie
niespodziewany
niespokojna
niespokojne
niespokojnie
niespokojnos
niespokojny
niesprawdzonych
niesprawiedliwos
niestety
nieszcze
niesłusznie
niesłychana
niesłychane
niesłychanie
nietknie
nietyle
nietylko
nieubłagana
nieufnos
nieugie
nieustaja
nieustanne
nieustannie
nieuz
niewa
niewaja
niewaz
niewdzie
niewiadomo
niewiast
niewiasta
niewiasty
niewidzialna
niewidzialne
niewidzialny
niewiele
niewielka
niewielki
niewielkich
niewielkie
niewielkiego
niewielkiej
niewielkim
niewielu
niewiem
niewies
niewinna
niewinne
niewinnego
niewinnos
niewinny
niewinnych
niewola
niewole
niewoli
niewolnica
niewolnictwa
niewolnicy
niewolnik
niewolnika
niewolnikami
niewolnikiem
niewolniko
niewska
niewski
niewskiego
niewydolnos
niewyraz
niewyro
niewystarczaja
niewłas
niez
niezadowolenia
niezadowolenie
niezadowolony
niezadługo
niezalez
niezawodnie
niezbe
niezbyt
niezdolny
niezgodne
niezliczone
niezliczonych
niezmierna
niezmierne
niezmiernie
nieznacznie
nieznajoma
nieznajomego
nieznajomy
nieznana
nieznane
nieznanego
nieznanej
nieznany
nieznanych
nieznanym
nieznos
niezre
niezro
niezrozumiałe
niezupełnie
niezwycie
niezwykle
niezwykła
niezwykłe
niezwykłego
niezwykłej
niezwykły
niezwykłych
niezwykłym
niezwłocznie
nieładzie
niełatwo
nigdy
nigdzie
nigel
niger
nigeria
nigerii
night
nij
nijaki
nik
nika
nikach
nikami
nikczemnos
nike
niki
nikiem
nikim
nikita
nikna
niko
nikodem
nikogo
nikomu
nikołaj
nikołaja
nikt
niktby
niku
nil
nili
nilu
nim
nimi
nin
nina
nine
ninie
niniejszego
niniejszej
niniejszy
ninja
nintendo
niny
nio
niona
nione
nionego
nionej
niono
niony
nionych
nionym
niosa
niosła
niowa
niowej
niowie
nis
niska
niski
niskich
niskie
niskiego
niskiej
niskim
nisko
nissan
niszcza
niszczenia
niszczenie
niszczy
niszczyc
niszczyciel
niszczyciele
niszczycieli
nitki
niu
niwa
niwin
niz
nizinie
niziny
nizkie
nizko
nił
niła
niło
niły
nk
nka
nkc
nkwd
nl
nla
nm
nmos
nmp
nn
no
nobel
nobla
noble
noc
noca
nocach
nocami
noce
nocleg
noclegu
nocna
nocne
nocnego
nocnej
nocny
nocnych
nocnym
nocy
nodze
noe
noga
nogach
nogami
noge
nogi
nokaut
nokia
nomina
nominacja
nominacje
nominacji
nominees
nominowana
nominowani
nominowany
nominum
non
nor
nora
norbert
nord
nordic
norfolk
norm
norma
normal
normalna
normalne
normalnego
normalnej
normalnie
normalny
normalnych
normalnym
norman
normandia
normandii
normy
norodne
norodnos
norodnych
norske
north
northern
norton
norw
norwegia
norwegii
norweska
norweski
norweskiego
norweskiej
norwida
nory
norymberdze
nos
nosa
nosem
nosi
nosic
nosie
nosili
nosił
nosiła
nosiło
nosiły
nosza
nosze
noszenia
not
nota
notable
notatki
note
notes
nothing
notowania
notowanie
notowany
notre
nottingham
noty
nouvelle
nov
nova
novel
november
novi
novo
novy
now
nowa
nowak
nowakowski
nowe
nowego
nowej
nowem
nowemi
nowemu
nowi
nowicki
nowin
nowina
nowine
nowiny
nowo
nowoczesna
nowoczesne
nowoczesnego
nowoczesnej
nowoczesny
nowoczesnych
nowogrecki
nowogro
nowos
nowosa
nowoz
nowozelandzki
nowsze
nowszych
nowy
nowych
nowym
nowymi
noz
nozdrza
np
nr
nrd
ns
nsdap
nsk
nsky
nster
nsz
nszz
nt
nta
nther
nu
nuclear
nuda
nudne
nudy
nudzi
nudzic
nukat
number
numbers
numer
numerem
numero
numeru
numery
numerze
nuncjusz
nur
nurt
nurtu
nut
nuta
nute
nuty
nuz
nxt
ny
nych
nye
nyi
nym
nymi
nynorsk
nysa
nytimes
nz
o
ob
oba
obadwaj
obaj
obalenia
obalic
obaw
obawa
obawe
obawia
obawiac
obawiaja
obawiam
obawiał
obawiała
obawie
obawy
obc
obca
obce
obcego
obcej
obchodo
obchody
obchodza
obchodzi
obchodzic
obchodził
obchodziła
obchodziło
obchodzone
obchodzono
obci
obcia
obcie
obcy
obcych
obcym
obczyz
obdarzony
obdarzył
obec
obecna
obecne
obecnego
obecnej
obecni
obecnie
obecnos
obecny
obecnych
obecnym
obejmowac
obejmował
obejmowała
obejmowało
obejmowały
obejmuja
obejmuje
obejrzawszy
obejrzał
obejrzała
obejrzec
obejs
obelisk
oberz
obficie
obfite
obfitos
obfity
obiad
obiadem
obiadu
obiady
obie
obiecał
obiecuja
obiecuje
obiecywał
obiedzie
obieg
obiegu
obiekcie
obiekt
obiektem
obiekto
obiektu
obiekty
obiema
obietnic
obietnica
obietnice
obietnicy
obin
obituary
obja
objas
objaw
objawem
objawia
objawiaja
objawienia
objawienie
objawił
objawo
objawy
obje
oble
oblegaja
oblicza
oblicze
obliczem
obliczen
obliczenia
obliczu
obliczyc
oblubien
obmys
obnaz
obniz
obo
oboje
obojga
obok
obory
obowia
obozach
obozem
obozie
obozo
obozu
obozy
obr
obra
obrac
obraca
obracac
obracaja
obracał
obrad
obrady
obraz
obrazach
obrazami
obrazek
obrazem
obrazic
obrazie
obraził
obrazki
obrazo
obrazu
obrazy
obrał
obre
obro
obron
obrona
obrone
obronic
obronie
obronił
obroniła
obronna
obronne
obronnej
obronnos
obronny
obronnych
obrony
obroto
obrotowy
obrotu
obroz
obrza
obrze
obrzez
obsada
obsady
observations
observatory
obserwacja
obserwacje
obserwacji
obserwator
obserwatora
obserwatorium
obserwatoro
obserwowac
obserwował
obserwuja
obserwuje
obszar
obszarach
obszarem
obszaro
obszaru
obszary
obszarze
obszedł
obszerna
obszerne
obszernej
obszernie
obszerny
obsługa
obsługe
obsługi
obsługiwana
obsługiwane
obsługiwał
obsługuja
obsługuje
obu
obudzic
obudził
obudziła
obura
oburzenia
oburzenie
oburzeniem
oburzony
oburzył
obuwia
obuwie
obwia
obwieszczenie
obwo
obwodnica
obwodnicy
obwodowego
obwodowej
obwodu
obwodzie
oby
obyczaj
obyczajach
obyczaje
obyczajem
obyczajo
obyczaju
obydwa
obydwaj
obydwie
obydwo
obydwu
obyvatel
obywatel
obywatela
obywatele
obywatelem
obywateli
obywatelom
obywatelska
obywatelskich
obywatelskie
obywatelskiego
obywatelskiej
obywatelstwa
obywatelstwo
obła
obłe
obłok
obłoki
obłoko
obłoku
obłomow
obłoz
oc
ocalenia
ocalenie
ocalic
ocalił
occ
ocean
oceanem
oceania
oceanie
oceanii
oceanu
ocen
ocena
ocene
ocenia
oceniaja
ocenic
ocenie
ocenił
oceny
och
ochmistrzyni
ochoczo
ochota
ochote
ochotnicza
ochotniczej
ochotnik
ochotniko
ochoty
ochrona
ochrone
ochronie
ochronna
ochrony
ochłona
ocia
ocie
ocieraja
ockna
oclc
october
octu
oczach
oczami
oczekiwac
oczekiwali
oczekiwania
oczekiwanie
oczekiwaniu
oczekiwano
oczekiwał
oczekiwała
oczekuja
oczekuje
oczo
oczom
oczu
oczy
oczyma
oczys
oczyszczenia
oczywis
oczywista
oczywiste
od
oda
odbe
odbic
odbicia
odbicie
odbiera
odbierac
odbieraja
odbija
odbijaja
odbijały
odbiorco
odbiorcy
odbił
odbudowa
odbudowano
odbudowany
odbudowe
odbudowy
odbyc
odbyciu
odbywa
odbywac
odbywaja
odbywał
odbywała
odbywało
odbywały
odbył
odbyła
odbyło
odbyły
odc
odchodza
odchodzi
odchodził
odcia
odcie
odcien
odcieniem
odcinek
odcinka
odcinkach
odcinki
odcinko
odcinku
odczas
odczuc
odczuwa
odczuwac
odczuwał
odczuł
odczytac
odczytał
odda
oddac
oddaj
oddaja
oddaje
oddala
oddalaja
oddalenia
oddaleniu
oddali
oddalic
oddalił
oddalona
oddalone
oddalony
oddam
oddana
oddane
oddania
oddanie
oddano
oddany
oddanych
oddawac
oddawał
oddawna
oddał
oddała
oddałem
oddech
oddechem
oddechu
oddychac
oddychaja
oddychał
oddziale
oddział
oddziałach
oddziałami
oddziałem
oddziało
oddziału
oddziały
oddziaływania
oddziaływanie
oddziela
oddzielaja
oddzielne
oddzielnie
oddzielnych
oddzielona
oddzielone
ode
odebrac
odebrano
odebrał
odebrała
odegrał
odejdz
odejs
odemnie
oden
odepchna
oder
oderwac
oderwał
odessa
odessie
odeszli
odeszła
odetchna
odetchne
odezwac
odezwał
odezwała
odgadna
odgadł
odgałe
odgraz
odgrywa
odgrywaja
odgrywał
odgłos
odgłosy
odja
odjazdu
odje
odjechac
odjechał
odjez
odka
odkryc
odkrycia
odkrycie
odkryciu
odkryli
odkryta
odkryte
odkryto
odkryty
odkrytych
odkrywa
odkrywaja
odkrywca
odkrył
odkryła
odległa
odległe
odległej
odległos
odległych
odmawia
odmawiac
odmawiaja
odmawiał
odme
odmian
odmiana
odmiane
odmianie
odmiany
odmienna
odmienne
odmienny
odmiennych
odmo
odmowa
odmowy
odnajduje
odnalazł
odnalez
odnaleziono
odnies
odniesienia
odniesieniu
odnio
odniosła
odniosło
odno
odnoga
odnos
odnosi
odnosic
odnosił
odnosza
odnotowano
odnowy
odonata
odpado
odpadł
odpadła
odparł
odparła
odparłem
odpe
odpocza
odpoczynek
odpoczynku
odpornos
odpowiada
odpowiadac
odpowiadaja
odpowiadam
odpowiadał
odpowiadała
odpowiadały
odpowie
odpowiedni
odpowiednia
odpowiednich
odpowiednie
odpowiedniego
odpowiedniej
odpowiednik
odpowiednikiem
odpowiednim
odpowiednio
odpowiedz
odpowiedzi
odpowiedzia
odpowiedzialna
odpowiedzialne
odpowiedzialnos
odpowiedzialny
odpowiedzialnym
odpowiedział
odpowiedziała
odpowiedziałem
odpowiedziec
odpowiedzieli
odpowiem
odprawił
odprowadzic
odprowadził
odpus
odpychaja
odra
odraz
odrazu
odre
odro
odrobina
odrobine
odrodzenia
odrodzenie
odrowa
odry
odrzan
odrzekł
odrzekła
odrzekłem
odrzuca
odrzucaja
odrzucic
odrzucił
odrzuciła
odrzucona
ods
odsetek
odsta
odste
odsuna
odsune
odsunie
odszedł
odszkodowania
odszukac
odsłaniaja
odsłonie
odta
odtra
odtworzyc
odwaga
odwage
odwagi
odwaz
odwiedza
odwiedzac
odwiedzaja
odwiedzał
odwiedzic
odwiedzin
odwiedziny
odwiedził
odwołania
odwołanie
odwołany
odwołał
odwołuja
odwołuje
odwracaja
odwro
odwrotnie
odwrotu
odwłoka
odz
odziany
odziedziczył
odziemkowski
odzienie
odziez
odznacza
odznaczaja
odznaczał
odznaczen
odznaczeni
odznaczenia
odznaczenie
odznaczeniowa
odznaczona
odznaczony
odznaczył
odznaka
odznake
odznaki
odzyskac
odzyskanej
odzyskania
odzyskanie
odzyskaniu
odzyskanych
odzyskał
odzyskała
odzywa
odzywaja
odzywał
odła
odłoz
of
ofensywa
ofensywy
ofercie
oferta
oferte
oferty
oferuja
oferuje
off
office
official
officialcharts
ofiar
ofiara
ofiarami
ofiare
ofiarom
ofiarowac
ofiarował
ofiaruje
ofiary
oficer
oficera
oficerami
oficerem
oficero
oficerowie
oficerska
oficerski
oficerskie
oficerskiej
oficerskim
oficial
oficjalna
oficjalne
oficjalnego
oficjalnej
oficjalnie
oficjalny
oficjalnych
oficjalnym
oficyna
oficyny
ofierze
ofm
og
ogarna
ogarne
ogarnia
ogarniaja
ogarniał
ogarnie
ogien
ogla
ogle
ognia
ognie
ogniem
ognisk
ogniska
ognisko
ognisku
ognista
ogniste
ognisty
ogniu
ogniwa
ogniwo
ogo
ogon
ogona
ogonek
ogonem
ogranicza
ograniczaja
ograniczen
ograniczenia
ograniczenie
ograniczona
ograniczone
ograniczony
ograniczonym
ograniczyc
ogro
ogrodach
ogrodem
ogrodnik
ogrodnika
ogrodo
ogrodu
ogrody
ogrodzenia
ogrodzenie
ogrodzie
ogrom
ogromna
ogromne
ogromnego
ogromnej
ogromnie
ogromny
ogromnych
ogromnym
ogłasza
ogłosic
ogłosili
ogłosił
ogłosiła
ogłosiło
ogłoszenia
ogłoszenie
ogłoszeniu
ogłoszona
ogłoszone
ogłoszono
ogłoszony
oh
ohio
oho
ohydne
oil
ois
oise
oj
ojca
ojcem
ojciec
ojco
ojcowie
ojcowska
ojcowskie
ojcu
ojcze
ojczystym
ojczyz
ojczyzna
ojczyzne
ojczyzny
ok
oka
okalaja
okaz
okazac
okazali
okazał
okazała
okazało
okazały
okazja
okazje
okazji
okazo
okazuja
okazuje
okazy
okazywac
okazywał
okazywała
okiem
okien
okienka
okienko
okiennice
oklahoma
oklaski
okna
oknach
oknami
oknem
oknie
okno
oko
okolic
okolica
okolicach
okolice
okolicy
okoliczne
okolicznos
okolicznych
okon
około
okra
okre
okres
okresach
okresem
okresie
okreso
okresowo
okresu
okresy
okropna
okropne
okropnego
okropnie
okropnos
okropny
okrucien
okrutna
okrutne
okrutnie
okrutny
okryta
okryte
okryty
okrywa
okrywaja
okrył
okrzyk
okrzykami
okrzyki
okrzykiem
oksytania
oku
okulary
okupacja
okupacji
okupowanej
okładce
okładka
okładki
ol
ola
olaf
olbrzym
olbrzyma
olbrzymi
olbrzymia
olbrzymich
olbrzymie
olbrzymiego
olbrzymiej
olbrzymim
olbrzymo
old
ole
oleg
olej
oleju
oles
olga
olgi
olgierd
oli
olimpbase
olimpia
olimpiada
olimpiadach
olimpiady
olimpijczyk
olimpijka
olimpijscy
olimpijska
olimpijski
olimpijskich
olimpijskie
olimpijskiego
olimpijskiej
olimpijskim
olimpijskimi
olis
oliver
olivia
olivier
oliwa
oliwy
ols
olszewski
olsztyn
olsztyna
olsztynie
olympedia
olympiad
olympic
olympics
olympique
om
omal
omar
omega
omina
omo
omylił
on
ona
onaty
once
one
onegdaj
onego
onej
onek
onem
onemi
onemu
onet
ongi
oni
onie
onies
onka
onke
onki
onko
onkowie
online
only
ono
onos
ontario
onufry
ony
onych
onym
onymi
onyx
onz
oo
op
opactwa
opactwo
opada
opadaja
opado
opady
opadł
opadła
opadły
opalin
opamie
opanowac
opanowania
opanował
opanowała
oparcia
oparciu
oparta
oparte
opartego
opartej
oparty
opartych
oparł
oparła
oparłszy
opat
opata
opato
opatrznos
opatrzone
opatrzył
opcja
opcje
opcji
ope
open
opening
opera
operacja
operacje
operacji
operacyjna
operacyjne
operacyjnego
operacyjnej
operacyjny
operacyjnych
operacyjnym
operation
operator
operatora
operatorem
operatorname
operatoro
opere
operowa
operowy
operuja
opery
operze
opi
opiece
opieka
opieke
opieki
opiekun
opiekuna
opiekunem
opiera
opierac
opieraja
opierał
opierała
opinia
opinie
opinii
opinje
opinji
opis
opisac
opisana
opisane
opisania
opisanie
opisano
opisany
opisanych
opisał
opisem
opisie
opiso
opisu
opisuja
opisuje
opisy
opisywac
opisywany
opisywał
opo
opodal
opoka
opola
opole
opolski
opolskie
opolskiego
opolskiej
opolskim
opolu
opon
opony
oporu
opowiada
opowiadac
opowiadaja
opowiadali
opowiadan
opowiadania
opowiadanie
opowiadaniu
opowiadano
opowiadał
opowiadała
opowie
opowiedz
opowiedział
opowiedziała
opowiedziałem
opowiedziec
opowiem
opowies
opozycja
opozycji
opr
oprac
opracowan
opracowana
opracowane
opracowania
opracowanie
opracowaniu
opracowano
opracowany
opracował
oprawa
opro
oprogramowania
oprogramowanie
oprze
oprzec
opublikowana
opublikowane
opublikowanego
opublikowanej
opublikowano
opublikowany
opublikowanych
opublikował
opublikowała
opus
opuszcza
opuszczac
opuszczaja
opuszczał
opuszczała
opuszczenia
opuszczenie
opuszczeniu
opuszczona
opuszczone
opuszczony
opłat
opłata
opłaty
or
ora
orange
oranz
oras
oraz
orbicie
orbite
orbity
orchestra
orcid
ordbok
order
orderem
ordero
orderu
ordery
ordnance
ordnancesurvey
ordre
ordynacji
ordynariuszem
ordynat
ore
oregon
org
organ
organach
organami
organem
organicznej
organiczny
organicznych
organisms
organista
organizacja
organizacjach
organizacjami
organizacje
organizacji
organizacyi
organizacyjna
organizacyjne
organizacyjnego
organizacyjnej
organizacyjny
organizacyjnych
organization
organizator
organizatorem
organizatoro
organizatorzy
organizm
organizmie
organizmo
organizmu
organizmy
organizowac
organizowane
organizowanego
organizowania
organizowanie
organizowano
organizowany
organizowanych
organizowanym
organizował
organizuja
organizuje
organo
organu
organy
oricon
orientacje
orientacji
origin
original
origins
orkan
orkiestra
orkiestre
orkiestry
orla
orlando
orle
orlean
orleans
orlik
ormian
orne
ornit
ornithology
oro
orp
orszak
orszaku
ortografiach
ortograficzny
orwin
oryg
oryginale
oryginalna
oryginalne
oryginalnego
oryginalnej
oryginalnie
oryginalnos
oryginalny
oryginalnych
oryginalnym
oryginał
oryginału
orzecho
orzechy
orzeczenia
orzeczenie
orzeszkowa
orzez
orzeł
orła
orłem
orłowski
orły
os
osa
osad
osada
osade
osadnictwa
osadnictwo
osadnicy
osadnicza
osadniko
osady
osadzie
osadził
osadzona
osadzone
osadzony
osaka
osborne
oscar
oscara
osi
osia
osiadł
osiadła
osie
osiedla
osiedlac
osiedle
osiedli
osiedlic
osiedlił
osiedlu
osiek
osiem
osiemdziesia
osiemnas
osin
osioł
oskar
oskara
oskarz
oslo
osman
oso
osoba
osobach
osobami
osobe
osobie
osobis
osobista
osobiste
osobistego
osobistej
osobistos
osobisty
osobistych
osobistym
osobliwa
osobliwe
osobliwie
osobliwos
osobliwy
osobna
osobne
osobnego
osobnik
osobnika
osobniki
osobniko
osobno
osobny
osobnych
osobnym
osobom
osobowa
osobowe
osobowego
osobowos
osobowy
osobowych
osoby
osp
ossolin
ossolineum
ost
ostateczna
ostateczne
ostatecznego
ostatecznej
ostatecznie
ostatecznos
ostateczny
ostatecznym
ostatek
ostatka
ostatku
ostatni
ostatnia
ostatnich
ostatnie
ostatniego
ostatniej
ostatniem
ostatnim
ostatnimi
ostatnio
ostoja
ostra
ostre
ostrego
ostrej
ostro
ostros
ostrowie
ostrowski
ostrowskiego
ostroz
ostrołe
ostry
ostrych
ostrym
ostrza
ostrzał
ostrzału
ostrze
ostrzez
oszalał
oszcze
oszczepem
oszukac
oszustwo
osła
osłabienia
osłabienie
osłaniaja
osłona
osłonie
osłony
osłupiały
ot
otacza
otaczaja
otaczali
otaczał
otaczała
otaczało
otaczały
otarł
otchłan
otchłani
otello
other
oto
otoczenia
otoczenie
otoczeniem
otoczeniu
otoczona
otoczone
otoczony
otoczyc
otoczyli
otoczył
otrza
otrzyma
otrzymac
otrzymali
otrzymane
otrzymania
otrzymaniu
otrzymawszy
otrzymał
otrzymała
otrzymałem
otrzymało
otrzymały
otrzymuja
otrzymuje
otrzymujemy
otrzymywali
otrzymywał
otto
otton
ottona
otuchy
otwarcia
otwarcie
otwarciu
otwarta
otwarte
otwartego
otwartej
otwartemi
otwarto
otwartos
otwarty
otwartych
otwartym
otwarły
otwiera
otwierac
otwieraja
otwierał
otwierały
otwo
otworem
otworo
otworu
otwory
otworze
otworzono
otworzy
otworzyc
otworzywszy
otworzył
otworzyła
otworzyły
ou
oun
our
out
ov
ova
over
overline
overview
ow
owa
owac
owad
owado
owady
owalny
owana
owane
owanego
owania
owanie
owaniu
owany
owanych
ował
owała
owały
owca
owce
owco
owczych
owdzie
owe
owego
owej
owem
owen
owernia
owi
owie
owiec
owinie
own
ownik
ownika
owniki
owniko
owo
owoc
owocami
owoce
owocem
owoco
owocowych
owocu
owsa
owszem
owy
owych
owym
owłosione
oxford
oz
ozdo
ozdoba
ozdobiona
ozdobione
ozdobiony
ozdobna
ozdobne
ozdoby
ozie
oznacza
oznaczac
oznaczaja
oznaczania
oznaczał
oznaczało
oznaczenia
oznaczenie
oznaczeniem
oznaczona
oznaczone
oznaczono
oznaczony
oznaczonych
oznaczyc
oznajmic
oznajmił
oznajmiła
oznajmuja
oznak
oznaka
oznaki
ozwał
ozwała
oła
ołeksandr
ołnierz
ołnierza
ołnierzami
ołnierze
ołnierzem
ołnierzom
ołnierzy
oło
ołowiu
ołtarz
ołtarza
ołtarze
ołtarzem
ołtarzu
ołtarzy
p
pa
pablo
pac
pach
pacha
pachna
pachnie
pachole
pacierz
pacierze
pacific
pacjent
pacjenta
pacjento
pacyfiku
paczke
paczki
pada
padac
padaja
padał
padały
paderewskiego
padli
padnie
padł
padła
padło
padły
page
pages
pago
pain
pairs
paja
paje
pak
pakiet
pakietu
pakistan
pakistanie
pakistanu
pakt
pal
pala
palace
palais
palatynat
palazzo
palca
palcach
palcami
palce
palcem
palco
pale
palec
palenia
palermo
palestine
palestyn
palestynie
palestyny
pali
palic
paliw
paliwa
paliwo
palił
paliła
paliły
palm
palma
palmer
palmy
palna
palnej
pami
pamia
pamie
pan
pana
panama
panamerykan
panami
pancerna
pancerne
pancernego
pancernej
pancernik
pancerniki
pancerny
pancernych
pancerz
pandemii
panem
pani
pania
panicz
panicza
paniczu
panie
panien
panienka
panienke
panienki
panienko
panna
panne
pannie
panno
panny
pano
panom
panorama
panowac
panowania
panowanie
panowaniem
panował
panowała
panowało
panowie
pantera
panu
panuja
panuje
paolo
pap
papa
paper
papers
papier
papierami
papierem
papiero
papierosa
papieroso
papierosy
papierowych
papieru
papiery
papierz
papierze
papieski
papieskiego
papieskiej
papieskim
papiez
par
para
parach
parada
paradise
parafia
parafiach
parafialna
parafialnego
parafialny
parafialnym
parafian
parafie
parafii
paragwaju
paraliz
paralympic
parametro
parametry
parami
paraolimpijskich
parasol
pare
paris
parish
park
parker
parki
parkiem
parking
parko
parks
parku
parlamencie
parlament
parlamentarne
parlamentarnego
parlamentarnych
parlamentarzysta
parlamentu
parliament
paro
parobek
parowa
parowe
parowiec
part
partenkirchen
parterze
partia
partiach
partial
partie
partii
partja
partje
partji
partner
partnera
partnerem
partnerka
partnero
partnerskie
party
partya
partyi
partyjnej
partyjny
partyjnych
partyzanto
paru
pary
paryska
paryski
paryskich
paryskiego
paryskiej
paryskim
paryz
parze
pas
pasa
pasaz
pascal
pasek
pasem
pasie
pasja
pasji
paski
pasma
pasmo
paso
pasoz
pass
past
pasterz
pasterza
pasterze
pasterzy
pastor
pastora
pastwe
pastwiska
pasy
pasza
paszcze
paszport
paszy
pat
patent
pater
path
patients
patriarcha
patriarchatu
patriarchy
patricia
patrick
patrol
patrole
patron
patrona
patronatem
patronem
patrycja
patryk
patrz
patrza
patrzał
patrzała
patrzcie
patrze
patrzec
patrzy
patrzyc
patrzyli
patrzył
patrzyła
patrzyłem
patrzyły
pau
paul
paula
pauli
paulina
paulo
paulson
pavel
paweł
pawełek
pawełp
pawilon
pawilonu
pawlak
pawlikowski
pawła
pawłem
pawło
pawłowski
pax
pay
paz
pazury
pała
pałac
pałace
pałacem
pałaco
pałacowy
pałacu
pałacyk
pałacyku
pałaja
pałka
pb
pc
pca
pce
pchna
pchnie
pchor
pco
pcy
pcza
pczos
pczy
pd
pdf
pe
peace
peak
pearl
pedagog
pedagogicke
pedagogiczna
pedagogiczne
pedagogicznego
pedagogicznej
pedagogika
pedagogiki
pedersen
pedro
peggy
pejzaz
pek
pekin
pekinie
pekinu
pelplin
pem
pen
pencroff
penguin
pennsylvania
pensje
pensji
pensyi
pensylwania
people
per
percy
perepiat
pereł
perfect
performance
period
perkusista
perkusja
perkusji
perkusyjne
peron
perony
perry
pers
persji
perski
perskiej
perso
person
personal
personalidade
personalna
personalne
personalno
personalny
personel
personelu
perspektywa
perspektywie
perspektywy
perth
peru
peruwian
perła
perły
pete
peter
petera
peters
petersburg
petersburga
petersburgu
petit
petr
petra
petrus
pewien
pewna
pewne
pewnego
pewnej
pewnem
pewni
pewnie
pewno
pewnos
pewny
pewnych
pewnym
pez
pełen
pełka
pełna
pełne
pełnego
pełnej
pełnem
pełnemi
pełni
pełnia
pełnic
pełnienia
pełnił
pełniła
pełno
pełnometraz
pełnomocnik
pełnomocnika
pełny
pełnych
pełnym
pfalz
pg
pgc
pge
pgr
ph
phase
phi
phil
philadelphia
philip
philipp
philippe
philips
phillips
philosophy
phoenix
photo
photos
php
phylogenetic
phylogeny
physical
physics
pi
pia
piaja
piana
piane
pianino
pianista
pianistka
piano
piany
piasek
piaski
piaskiem
piaskowca
piasku
piast
piasta
piasto
piastował
pic
picia
picie
pickwick
picture
pictures
pie
piec
pieca
piece
piecem
piech
piechem
piechota
piechote
piechoty
piechu
piecu
piecza
piecze
pieczen
pieczenia
piekarz
piekielna
piekieł
piekle
piekła
piekło
piel
piele
pielgrzymki
pielgrzymo
pieli
pien
pienia
pienie
pieniem
pienin
pieniu
pieprz
pieprzu
pierce
pierre
piers
piersi
piersia
piersiach
piersiowej
pierwe
pierwej
pierwiastek
pierwiastki
pierwiastko
pierwotna
pierwotne
pierwotnego
pierwotnej
pierwotnie
pierwotny
pierwotnych
pierwotnym
pierwsi
pierwsza
pierwsze
pierwszego
pierwszej
pierwszem
pierwszemu
pierwszen
pierwszorze
pierwszy
pierwszych
pierwszym
pierwszymi
pies
piesza
pieszczoty
piesze
piesznie
pieszo
pieszy
pieszyc
pieszych
pieszył
pieszyła
pietkiewicz
pietro
pietrzak
piew
piewa
piewac
piewaczka
piewaja
piewak
piewali
piewał
piewała
piewały
piewem
piewu
piewy
pij
pija
pijan
pijany
pije
pik
pil
pili
pilnie
pilno
pilnos
pilnowac
pilnował
pilnuja
pilnuje
piloci
pilot
pilota
pilotaz
pilotem
piloto
pin
ping
pink
pinus
pinyin
pio
piona
pione
pionier
pioniero
piono
pionowe
pionowo
piony
piorun
pioruna
piorunem
pioruno
pioruny
piosence
piosenek
piosenka
piosenkarka
piosenkarki
piosenkarz
piosenkarza
piosenke
piosenki
piotr
piotra
piotrem
piotrko
piotrkowie
piotrkowskiego
piotrowi
piotrowicz
piotrowski
piotrp
piotrus
piotrze
piraci
piramida
piramidy
pirato
pireneje
pis
pisa
pisac
pisali
pisana
pisane
pisania
pisanie
pisaniu
pisano
pisany
pisanych
pisarka
pisarz
pisarza
pisarze
pisarzem
pisarzy
pisał
pisała
pisałem
piskle
pism
pisma
pismach
pismem
pismo
pisowni
pisownia
pisownie
pistolet
pistoleto
pistoletu
pistolety
pisz
pisza
pisze
piszemy
pit
pita
pitoux
pitt
pittsburgh
pius
piusa
piw
piwa
piwnice
piwnicy
piwo
piwszy
piz
pił
piła
piłce
piłem
piłka
piłkarka
piłkarska
piłkarski
piłkarskich
piłkarskie
piłkarskiego
piłkarskiej
piłkarz
piłkarza
piłkarze
piłkarzem
piłkarzy
piłke
piłki
piło
piłsudski
piłsudskiego
piły
pk
pkb
pke
pki
pko
pkp
pks
pkt
pku
pkw
pl
pla
plac
place
placem
places
placid
placo
placu
plakat
plam
plama
plamami
plamy
plan
planach
planem
planet
planeta
planete
planetoid
planetoida
planetoidy
planety
planie
plano
planowana
planowane
planowania
planowano
planował
plant
plantes
plants
planu
planuje
plany
plastyczne
plastycznych
plastyko
plasuja
plasuje
plata
plate
plater
platform
platforma
platforme
platformie
platformy
platinum
platon
platona
platynowe
platynowej
play
player
players
playstation
plaz
plaza
pleban
plebania
plebanii
plebiscycie
plebiscytu
plecach
plecami
pleco
plecy
plejada
plemie
plemienia
plemion
plemiona
ples
plik
pliki
pliko
pliku
plk
pln
plon
plos
plot
plotek
plotki
plus
pluton
plutonu
plwabn
plymouth
pm
pmc
pmcid
pmid
pn
pna
pne
pnego
pnej
pni
pnia
pnie
pnione
pniony
pnos
pny
pnych
pnym
po
pob
pobiegł
pobiegła
pobierał
pobiez
pobity
pobił
pobladł
pobladła
pobliskich
pobliskiego
pobliskiej
pobliskim
pobliz
pobo
poboru
poboz
pobrzez
pobudek
pobudki
pobycie
pobyt
pobytu
pobłaz
poc
pocałowac
pocałował
pocałowała
pocałunek
pocałunkami
pocałunku
pocho
pochodna
pochodne
pochodni
pochodnia
pochodnie
pochodu
pochodza
pochodzenia
pochodzenie
pochodzeniu
pochodzi
pochodzic
pochodzie
pochodził
pochodziła
pochodziło
pochodziły
pochowana
pochowani
pochowano
pochowany
pochowanych
pochwalic
pochwalił
pochwała
pochwałe
pochwały
pochwy
pochwycic
pochwycił
pochwyciła
pochylaja
pochylił
pochyliła
pochylona
pochylony
pochyłos
pochłona
pochłone
pochłonie
pocia
pocichu
pocie
pociecha
pocieche
pociechy
pocieszac
pocieszaja
pocieszał
pocieszenia
pocieszyc
pocisk
pociskami
pociski
pocisko
pocisku
poco
pocz
pocza
poczciwa
poczciwe
poczciwego
poczciwy
pocze
poczekac
poczekaj
poczem
poczet
pocznie
poczta
poczte
poczto
pocztowa
pocztowe
pocztowy
pocztowych
poczty
poczucia
poczucie
poczuciem
poczuł
poczuła
poczułem
poczyna
poczynaja
poczynał
pod
poda
podac
podaj
podaja
podaje
podali
podan
podana
podane
podania
podanie
podano
podany
podarował
podatek
podatki
podatko
podatku
podawac
podawana
podawane
podawano
podawał
podał
podała
podbiegł
podbite
podbo
podboju
podbro
podchodza
podchora
podchwycił
podcia
podczas
podczaszy
poddac
poddaja
poddaje
poddan
poddane
poddani
poddania
poddanie
poddano
poddany
poddanych
poddał
podejmowania
podejmował
podejmuja
podejmuje
podejrzanego
podejrzany
podejrzanych
podejrzen
podejrzenia
podejrzenie
podejs
podeszła
podgatunek
podgatunki
podgatunko
podgatunku
podgo
podhalan
podhale
podium
podja
podje
podkarpackie
podkarpackiego
podkarpackim
podkomorzy
podkres
podl
podlasiu
podlaska
podlaski
podlaskie
podlaskiego
podlaskiej
podlaskim
podle
podlega
podlegaja
podlegał
podlegała
podlegały
podległych
podmiot
podmioto
podmiotu
podmioty
podniecony
podnies
podniesie
podniesienia
podniesienie
podniesiona
podniesiono
podniesiony
podniesionym
podnio
podniosła
podniosłem
podniosło
podniosły
podno
podnosi
podnosic
podnosił
podnosiła
podnosiły
podnosza
podnoszenia
podnoszenie
podo
podoba
podobac
podobał
podobała
podobało
podobien
podobna
podobne
podobnego
podobnej
podobnem
podobni
podobnie
podobniez
podobno
podobny
podobnych
podobnym
pododdział
pododdziało
pododdziały
podoficer
podoficero
podpis
podpisac
podpisali
podpisana
podpisania
podpisanie
podpisaniu
podpisano
podpisany
podpisał
podpisała
podpisu
podpisuja
podporucznik
podporucznika
podporza
podpułkownik
podpułkownika
podraz
podre
podro
podrodzina
podrodziny
podrze
pods
podse
podstaw
podstawa
podstawach
podstawe
podstawie
podstawkowych
podstawowa
podstawowe
podstawowego
podstawowej
podstawowy
podstawowych
podstawowym
podstawy
podste
podsumowanie
podsuna
podszedł
podtrzymuja
poduszke
poduszki
podw
podwaz
podwo
podwodne
podwodny
podwodnych
podwozie
podwyz
podwładnych
podyplomowe
podz
podziale
podział
podziałem
podziału
podziały
podzie
podziel
podzielic
podzielił
podzielona
podzielone
podzielono
podzielony
podziemia
podziemiach
podziemna
podziemne
podziemnego
podziemnej
podziemny
podziemnych
podziw
podziwem
podziwiac
podziwiał
podziwu
podła
podłe
podłodze
podłoga
podłoge
podłogi
podłos
podłoz
podług
podłuz
podły
poe
poeci
poecie
poemat
poematu
poems
poeta
poete
poetka
poeto
poety
poetycka
poetycki
poetyckie
poetyckiej
poezja
poezje
poezji
poezya
poezye
poezyi
pogan
pogarda
pogarde
pogardliwie
pogardy
pogawe
pogla
pogne
pogo
pogoda
pogode
pogodna
pogodne
pogodny
pogody
pogodzic
pogodzie
pogon
pogoni
pogotowiu
pogra
pogranicza
pograniczu
pogro
pogrzeb
pogrzebie
pogrzebu
pogłe
pogłoski
poinformowano
poinformował
poinformowała
point
poja
pojade
pojawi
pojawia
pojawiac
pojawiaja
pojawiał
pojawiały
pojawic
pojawienia
pojawienie
pojawili
pojawił
pojawiła
pojawiło
pojawiły
pojazd
pojazdo
pojazdu
pojazdy
poje
pojechac
pojechali
pojechał
pojechała
pojednania
pojedyn
pojedyncza
pojedyncze
pojedynczego
pojedynczej
pojedynczo
pojedynczy
pojedynczych
pojedynczym
pojedynek
pojedynki
pojedynko
pojedynku
pojedzie
pojedziemy
pojedziesz
pojemnos
pojezierza
pojezierze
pojezierzu
pojmował
pojmuja
pojmuje
pojmujesz
pojutrze
poka
pokarm
pokarmowego
pokarmu
pokaz
pokazac
pokazano
pokazał
pokazała
pokazało
pokazuja
pokazuje
pokazy
pokazywac
pokazywał
pokiwał
poko
pokochał
pokoi
pokoik
pokoiku
pokojach
pokoje
pokojo
pokojowa
pokojowe
pokojowego
pokojowej
pokojowy
pokojowych
pokoju
pokolen
pokolenia
pokolenie
pokoleniu
pokonac
pokonali
pokonania
pokonaniu
pokonany
pokonał
pokonała
pokonuja
pokora
pokornie
pokorny
pokory
pokrajac
pokre
pokrewien
pokrewne
pokrewnych
pokro
pokryc
pokrycia
pokrycie
pokryta
pokryte
pokryty
pokrytych
pokryw
pokrywa
pokrywaja
pokrywy
pokrył
pokusa
pokute
pokuty
pokład
pokładu
pokłady
pokładzie
pokło
pokłon
pol
pola
polach
polacy
polak
polaka
polakami
polakiem
polako
polakom
polami
polan
polana
poland
polanie
polany
pole
polecaja
polecen
polecenia
polecenie
poleciał
polecił
polega
polegac
polegaja
polegała
polegli
poległ
poległych
polem
polen
poli
police
policja
policjanci
policjant
policjanta
policjanto
policje
policji
policy
policyi
policyjny
policzalny
policzek
policzkach
policzki
polis
polish
polit
politechnice
politechnika
politechniki
political
politics
politolog
politowaniem
polityce
politycy
polityczna
polityczne
politycznego
politycznej
politycznie
polityczno
polityczny
politycznych
politycznym
polityk
polityka
polityke
polityki
polityko
polka
polki
polna
polny
polo
pologne
polona
polonia
poloniae
polonica
polonii
polowa
polowac
polowania
polowanie
polowaniu
polowej
polowy
polowych
polsat
polsce
polscy
polska
polskaw
polske
polski
polskich
polskie
polskiego
polskiej
polskiem
polskiemu
polskieradio
polskim
polskimi
polsko
polskoje
polskos
polsku
polszczyzny
polu
poluja
pomaga
pomagac
pomagaja
pomagał
pomagała
pomaran
pomału
pomiar
pomiaro
pomiaru
pomiary
pomie
pomies
pomieszczen
pomieszczenia
pomieszczenie
pomijaja
pomimo
pomina
pominie
pomnaz
pomnik
pomnika
pomniki
pomnikiem
pomniko
pomnoz
pomo
pomoc
pomoca
pomocnicza
pomocnicze
pomocniczy
pomocniczych
pomocniczym
pomocnik
pomocnika
pomocnikiem
pomocniko
pomocy
pomogła
pomogło
pomorska
pomorski
pomorskich
pomorskie
pomorskiego
pomorskiej
pomorskim
pomorza
pomorze
pomorzu
pomost
pomoz
pompy
poms
pomys
pomysł
pomysło
pomysłodawca
pomysłu
pomysły
pomyłka
pon
ponad
ponadto
pone
poniatowski
poniatowskiego
poniedziałek
ponieka
ponies
poniewaz
ponio
poniosła
poniosło
poniz
pono
ponosza
ponowne
ponownego
ponownie
pont
ponumerowanych
ponura
ponure
ponuro
ponury
ponurym
pop
popadł
poparcia
poparcie
poparciem
poparł
popatrzał
popatrzył
popchna
pope
popełnia
popełnic
popełnienia
popełnione
popełnił
popieraja
popierał
popiersie
popio
popis
popkiller
popołudnia
popołudnie
popołudniu
poprawa
poprawe
poprawia
poprawiaja
poprawic
poprawione
poprawił
poprawiła
poprawki
poprawnie
poprawnos
poprawy
poprosic
poprosił
poprosiła
poprostu
poprosze
poprowadził
poprzedni
poprzednia
poprzednich
poprzednie
poprzedniego
poprzedniej
poprzednik
poprzednika
poprzedniko
poprzednim
poprzednio
poprzedzaja
poprzek
poprzez
populacional
populacja
populacje
populacji
popular
popularna
popularne
popularnego
popularnej
popularnos
popularny
popularnych
popularnym
populat
population
populations
popłoch
popłochu
popłyna
popłyne
por
pora
porada
poradnia
poradnik
porady
poradzic
poradził
poranek
poranku
poranny
porastaja
poraz
porcelany
porcie
pore
porno
poro
poronin
poros
porosto
porozumiec
porozumienia
porozumienie
porozumieniu
porsche
port
porta
portal
portalu
portem
porter
porthos
portland
porto
portoryko
portrait
portret
portreto
portretu
portrety
portsmouth
portu
portugal
portugalia
portugalii
portugalski
portugalskiej
porty
porucznik
porucznika
porucznikiem
porusza
poruszac
poruszaja
poruszania
poruszał
poruszały
poruszenia
poruszenie
poruszony
poruszyc
poruszył
poruszyła
porwac
porwali
porwanie
porwany
porwał
porwała
pory
porywa
porywaja
porza
porze
porzucic
porzucił
porzuciła
pos
posa
posade
posady
posadzce
posadził
posadzke
posadzki
posag
posagu
pose
poselski
poselstwa
poselstwo
posesji
poseł
posia
posiada
posiadac
posiadaja
posiadali
posiadam
posiadamy
posiadania
posiadanie
posiadaniu
posiadał
posiadała
posiadało
posiadały
posiadłos
posiedzen
posiedzenia
posiedzenie
posiedzeniu
position
posiłek
posiłki
posiłko
posiłku
poskoczył
pospiesznie
pospieszył
pospo
pospolicie
pospolita
pospolite
pospolitego
pospolity
pospolitych
pospołu
post
posta
postac
postaci
postacia
postaciami
postacie
postanawia
postanawiaja
postanowien
postanowienia
postanowienie
postanowieniem
postanowieniu
postanowili
postanowiono
postanowił
postanowiła
postanowiłem
postaram
postaw
postawa
postawe
postawic
postawie
postawiono
postawiony
postawił
postawiła
postawy
poste
posterunek
posterunku
posto
postoju
postrach
postrzegł
posuna
posune
posunie
posuwac
posuwaja
posuwał
poszanowania
poszanowanie
poszczego
poszedł
poszedłem
poszli
poszlis
poszukac
poszukiwan
poszukiwania
poszukiwanie
poszukiwaniu
poszukuja
poszukuje
poszła
poszło
poszły
posła
posłac
posłan
posłanie
posłaniec
posłaniu
posłanka
posłano
posłał
posłem
posło
posłowie
posłuchac
posłuchaj
posługe
posługi
posługiwac
posługiwał
posługuja
posługuje
posłuszen
posłuszna
posłusznie
posłuszny
posłusznym
posłuz
posłyszawszy
posłyszał
pot
potajemnie
potasu
pote
potem
potencjalnie
potencjalnych
potencjał
potencjału
poto
potocki
potockiego
potocznie
potoczył
potok
potoki
potokiem
potoko
potoku
potomek
potomka
potomko
potomkowie
potomstwa
potomstwo
potop
potopu
potra
potrafi
potrafia
potrafie
potrafili
potrafisz
potrafił
potrafiła
potraw
potrawa
potrawy
potro
potrosze
potrwa
potrza
potrzeb
potrzeba
potrzebe
potrzebie
potrzebna
potrzebne
potrzebny
potrzebnych
potrzebowac
potrzebowali
potrzebował
potrzebowała
potrzebuja
potrzebuje
potrzebujemy
potrzebujesz
potrzeby
potter
potu
potwierdza
potwierdzaja
potwierdzenia
potwierdzenie
potwierdził
potwierdziła
potwierdziły
potwierdzone
potwierdzono
potwo
potwora
potworne
potworo
potwory
potyczki
potym
poufale
poufałos
pour
povaz
pow
powa
powac
powaga
powage
powagi
powali
powania
powanie
powaniem
powaniu
powaz
pował
powała
powałby
powało
powały
powe
powell
power
powia
powiada
powiadaja
powiadam
powiadasz
powiadał
powiat
powiatach
powiatem
powiato
powiatowa
powiatowe
powiatowego
powiatowej
powiatowy
powiatowych
powiatowym
powiatu
powiaty
powie
powiecie
powiedz
powiedza
powiedzcie
powiedzenia
powiedziane
powiedziano
powiedziawszy
powiedział
powiedziała
powiedziałam
powiedziałbym
powiedziałem
powiedziałes
powiedzie
powiedziec
powiedzieli
powiedzielis
powiedzmy
powiek
powiekami
powieki
powiem
powiemy
powierzchni
powierzchnia
powierzchnie
powierzchownos
powierzono
powierzyc
powierzył
powies
powiesic
powiesz
powietrza
powietrze
powietrzem
powietrzna
powietrzne
powietrznej
powietrznych
powietrzu
powiew
powinien
powinienem
powinienes
powinna
powinnam
powinnas
powinni
powinnis
powinno
powinnos
powinny
powio
powiodła
powiodło
powis
powitac
powitania
powitanie
powitał
powlo
powo
powodem
powodo
powodowac
powodowało
powodu
powoduja
powoduje
powody
powodzenia
powodzenie
powodzeniem
powodzi
powojennej
powojennych
powoli
powolna
powolne
powolnie
powolnos
powolny
powolnym
powozem
powozie
powozo
powozu
powozy
powołana
powołanej
powołania
powołanie
powołaniu
powołano
powołany
powołał
powołuja
powołuje
powraca
powracac
powracaja
powracał
powro
powrocie
powrotem
powrotnej
powrotu
pows
powstac
powstaja
powstaje
powstali
powstan
powstania
powstanie
powstaniec
powstaniem
powstaniu
powstawac
powstawania
powstawanie
powstawały
powstał
powstała
powstałe
powstałego
powstałej
powstało
powstały
powstałych
powstrzymac
powstrzymał
powszechna
powszechne
powszechnego
powszechnej
powszechnie
powszechny
powszechnych
powszechnym
powszedni
powszednie
powtarza
powtarzac
powtarzaja
powtarzam
powtarzał
powtarzała
powto
powyz
powzia
powzie
powłoka
poz
poza
pozarza
pozatem
pozbawic
pozbawienia
pozbawiona
pozbawione
pozbawiony
pozbawionych
pozbawił
pozbyc
pozdrowienie
poziom
poziomem
poziomie
poziomo
poziomu
poziomy
pozna
poznac
poznaj
poznaja
poznaje
poznali
poznalis
poznan
poznania
poznanie
poznaniu
poznasz
poznawszy
poznał
poznała
poznałam
poznałem
pozo
pozorem
pozorna
pozornie
pozoro
pozoru
pozory
pozostac
pozostaja
pozostaje
pozostali
pozostana
pozostanie
pozostawac
pozostawał
pozostawała
pozostawało
pozostawały
pozostawia
pozostawiaja
pozostawic
pozostawiono
pozostawił
pozostał
pozostała
pozostałe
pozostałej
pozostało
pozostałos
pozostały
pozostałych
pozostałymi
pozwala
pozwalac
pozwalaja
pozwalam
pozwalał
pozwalała
pozwalało
pozwalały
pozwo
pozwola
pozwole
pozwolenia
pozwolenie
pozwoleniem
pozwoli
pozwolic
pozwolisz
pozwolił
pozwoliła
pozwoliło
pozwoliły
pozwolono
pozycja
pozycjach
pozycje
pozycji
pozyskac
pozyskania
pozyskał
pozytywna
pozytywne
pozytywnie
poł
poła
połaniecki
połkna
poło
połowa
połowe
połowie
połowy
połoz
południa
południe
południem
południowa
południowe
południowego
południowej
południowi
południowo
południowoafrykan
południowokorean
południowy
południowych
południowym
południu
poły
połyskuja
pp
ppor
ppr
pps
ppłk
pr
pra
prac
praca
pracach
pracami
prace
pracowac
pracowali
pracował
pracowała
pracowało
pracowały
pracowni
pracownia
pracownicy
pracownie
pracownik
pracownika
pracownikiem
pracowniko
practice
pracuja
pracuje
pracy
pradesh
prado
pradze
praga
pragi
pragna
pragne
pragnie
pragnien
pragnienia
pragnienie
pragnieniem
pragniesz
praha
praktyce
praktyczna
praktyczne
praktycznie
praktyczny
praktycznych
praktyk
praktyka
praktyke
praktyki
praktykował
prasa
prasie
prasowa
prasowe
prasowego
prasowej
prasowy
prasowych
prasy
prasł
praw
prawa
prawach
prawami
prawd
prawda
prawde
prawdopodobien
prawdopodobna
prawdopodobne
prawdopodobnie
prawdy
prawdzie
prawdziwa
prawdziwe
prawdziwego
prawdziwej
prawdziwem
prawdziwie
prawdziwos
prawdziwy
prawdziwych
prawdziwym
prawe
prawego
prawej
prawem
prawica
prawicy
prawidłowa
prawidłowo
prawie
prawił
prawna
prawne
prawnego
prawnej
prawnicze
prawnie
prawnik
prawnika
prawniko
prawny
prawnych
prawnym
prawo
prawobrzez
prawom
prawos
prawosławia
prawosławna
prawosławnego
prawosławnej
prawosławni
prawosławny
prawosławnych
prawosławnym
prawu
prawy
prawym
praz
prałat
pre
prebivalci
precz
prefekt
prefekta
prefektura
prefektury
prefekturze
preferuje
preliminary
premier
premiera
premiere
premierem
premiery
premierze
premierzy
premio
present
presente
president
press
prestiz
preston
pretekstem
pretensje
pretty
prezbiter
prezbiterium
prezent
prezentacja
prezentacji
prezenter
prezentowane
prezentował
prezentuja
prezentuje
prezes
prezesa
prezesem
prezydenci
prezydenckich
prezydenckie
prezydent
prezydenta
prezydentem
prezydentowi
prezydio
prezydium
pri
price
pride
prima
prime
primera
primo
prince
princess
princeton
print
private
prix
prize
prl
pro
problem
problemami
problematyka
problemem
problemo
problemu
problemy
proboszcz
proboszcza
proboszczem
proc
procedura
procedury
proceedings
procent
proces
procesach
procesem
procesie
proceso
procesor
procesoro
procesu
procesy
proch
prochu
prochwicz
prochy
procyclingstats
prod
producenci
producent
producenta
producentem
producento
production
productions
produkcja
produkcjach
produkcje
produkcji
produkcyjnych
produkowana
produkowane
produkowano
produkowany
produkowanych
produkt
produktem
produkto
produktu
produkty
produkuja
produkuje
prof
profesjonalna
profesjonalny
profesor
profesora
profesorem
profesoro
profesorowie
profesorze
professional
professor
profil
profile
profilu
progi
progiem
program
programach
programem
programie
programme
programo
programowania
programowanie
programowej
programu
programy
progress
progression
progu
proj
project
projekcie
projekt
projektach
projektami
projektant
projektantem
projektem
projekto
projektowania
projektowanie
projektu
projekty
prokop
prokurator
prokuratora
prokuratura
prokuratury
proletarjatu
prom
promien
promieni
promieniach
promieniami
promienie
promienieja
promieniowania
promieniowanie
promieniu
promo
promocja
promocje
promocji
promotor
promotorem
promowanie
promowany
promował
promuja
propaganda
propagandy
proponował
proponuje
proporcja
proporcje
propozycja
propozycje
propozycji
propulsion
prorektor
prorok
proroka
proroko
pros
prosi
prosic
prosili
prosimy
prosił
prosiła
prosiłem
prosta
proste
prostego
prostej
prosto
prostoka
prostota
prostoty
prostu
prosty
prostych
prostym
prosza
prosze
proszek
proszku
protest
protestanto
protesto
protestu
protestuja
protesty
protoko
protokołu
protokoły
prototyp
prototypu
province
prowadz
prowadza
prowadzenia
prowadzenie
prowadzeniu
prowadzi
prowadzic
prowadzili
prowadził
prowadziła
prowadziło
prowadziły
prowadzona
prowadzone
prowadzonego
prowadzonej
prowadzono
prowadzony
prowadzonych
prowadzonym
prowansja
prowincja
prowincjach
prowincje
prowincji
prowincyi
proza
prozaik
prozy
prudnik
prus
prusa
prusach
pruska
pruski
pruskich
pruskie
pruskiego
pruskiej
pruskim
prusy
pruszko
prymas
prymasa
prywatna
prywatne
prywatnego
prywatnej
prywatnie
prywatny
prywatnych
prywatnym
prza
prze
przebacz
przebaczenia
przebaczenie
przebaczy
przebaczyc
przebic
przebieg
przebiega
przebiegaja
przebiegał
przebiegała
przebiegu
przebiegł
przebiegła
przebiegłos
przebiegły
przebo
przeboje
przebojem
przebojo
przebudowa
przebudowana
przebudowano
przebudowany
przebudowe
przebudowie
przebudowy
przebudzenie
przebyc
przebycia
przebywa
przebywac
przebywaja
przebywali
przebywał
przebywała
przebył
przechadzac
przechadzaja
przechadzał
przechadzke
przechadzki
przechodni
przechodnio
przechodza
przechodzi
przechodzic
przechodzili
przechodził
przechodziła
przechodziły
przechowuje
przechowywane
przechowywania
przechowywany
przecia
przecie
przeciez
przecina
przecinaja
przeciw
przeciwien
przeciwko
przeciwlotnicze
przeciwlotniczej
przeciwna
przeciwne
przeciwnego
przeciwnej
przeciwnicy
przeciwnie
przeciwnik
przeciwnika
przeciwnikiem
przeciwniko
przeciwnos
przeciwny
przeciwnych
przeciwnym
przecza
przecze
przeczucia
przeczucie
przeczuwaja
przeczuwał
przeczytac
przeczytaj
przeczytał
przed
przeddzien
przede
przedemna
przedewszystkiem
przedmies
przedmiocie
przedmiot
przedmiotem
przedmioto
przedmiotu
przedmioty
przedmowa
przedni
przednia
przednich
przednie
przedniego
przedniej
przednim
przedostac
przedostał
przedplecze
przedpokoju
przeds
przedsie
przedstawia
przedstawiac
przedstawiaja
przedstawiał
przedstawiała
przedstawiało
przedstawiały
przedstawic
przedstawiciel
przedstawiciela
przedstawicielami
przedstawiciele
przedstawicielem
przedstawicieli
przedstawien
przedstawienia
przedstawienie
przedstawieniu
przedstawiona
przedstawione
przedstawiono
przedstawiony
przedstawił
przedstawiła
przedszkole
przedtem
przedwczes
przedziale
przedział
przedziału
przedzie
przedłoz
przedłuz
przegla
przegrali
przegrana
przegranej
przegrany
przegranych
przegranym
przegrał
przegrała
przegrywaja
przeja
przejaz
przejazd
przejazdu
przejdz
przejdzie
przeje
przejechac
przejechał
przejez
przejmował
przejmuja
przejmuje
przejs
przeka
przekaz
przekazac
przekazana
przekazane
przekazania
przekazanie
przekazano
przekazany
przekazał
przekazała
przekazu
przekazuja
przekazuje
przekle
przeklen
przekona
przekonac
przekonan
przekonana
przekonani
przekonania
przekonanie
przekonaniem
przekonaniu
przekonany
przekonasz
przekonawszy
przekonał
przekonała
przekonałem
przekonywaja
przekracza
przekraczaja
przekre
przekres
przekro
przekroczyc
przekroczył
przekroczyła
przekroju
przekształcenia
przekształcenie
przekształcona
przekształcone
przekształcono
przekształcony
przekł
przekład
przekładu
przekłady
przekładzie
przelatuja
przele
przeleciał
przemawia
przemawiac
przemawiaja
przemawiał
przemian
przemiana
przemianowana
przemianowano
przemianowany
przemiany
przemienienia
przemijaja
przemkna
przemkne
przemo
przemoc
przemoca
przemocy
przemoz
przemys
przemyski
przemyskiej
przemysł
przemysław
przemysłowa
przemysłowe
przemysłowego
przemysłowej
przemysłowiec
przemysłowy
przemysłowych
przemysłowym
przemysłu
przen
przenajs
przenies
przeniesienia
przeniesienie
przeniesieniu
przeniesiona
przeniesione
przeniesiono
przeniesiony
przenika
przenikaja
przenikliwos
przenikna
przenio
przeniosła
przenos
przenosi
przenosic
przenosza
przenoszenia
przenoszeniu
przeobraz
przeor
przepadł
przepas
przepe
przepełnione
przepie
przepio
przepis
przepisami
przepiso
przepisy
przepraszam
przeprawy
przeprowadza
przeprowadzac
przeprowadzaja
przeprowadzenia
przeprowadzenie
przeprowadzeniu
przeprowadzic
przeprowadzili
przeprowadził
przeprowadziła
przeprowadzona
przeprowadzone
przeprowadzonej
przeprowadzono
przeprowadzony
przeprowadzonych
przepus
przepustka
przepych
przepychem
przepychu
przepłyna
przepływ
przepływa
przepływaja
przepływu
przeraz
przeraził
przero
przerwa
przerwac
przerwami
przerwana
przerwane
przerwania
przerwany
przerwał
przerwała
przerwało
przerwe
przerwie
przerwy
przerywa
przerywaja
przerywał
przes
przesa
przesady
przesia
przest
przesta
przestac
przestaja
przestaje
przestali
przestan
przestanie
przestawał
przestał
przestała
przestało
przestały
przeste
przestrach
przestrachem
przestrachu
przestraszona
przestraszony
przestraszył
przestrzen
przestrzeni
przestrzenia
przestrzeniach
przestrzenie
przestrzennego
przestrzennej
przesuna
przesune
przesunie
przesuwaja
przeszedł
przeszedłszy
przeszkadza
przeszkadzac
przeszkadzał
przeszkadzało
przeszko
przeszkoda
przeszkodami
przeszkode
przeszkody
przeszkodzic
przeszkodzie
przeszli
przeszła
przeszłego
przeszło
przeszłos
przeszły
przesłuchania
przetarg
przeto
przetoz
przetrwac
przetrwał
przetrwała
przetrwały
przetrza
przetwarzania
przetwo
przewaga
przewage
przewagi
przewaz
przewiduja
przewiduje
przewidywał
przewidziec
przewieziono
przewieziony
przewo
przewodnictwem
przewodnicza
przewodniczył
przewodnik
przewodnika
przewodnikiem
przewodniko
przewodu
przewoz
przewozo
przewozu
przewozy
przewro
przewrotu
przewyz
przez
przeze
przezemnie
przezen
przezie
przeznaczenia
przeznaczenie
przeznaczeniem
przeznaczona
przeznaczone
przeznaczonego
przeznaczono
przeznaczony
przeznaczonych
przeznaczył
przezornos
przezwycie
przeł
przeła
przełe
przełom
przełomie
przełomu
przełoz
przo
przodem
przodko
przodkowie
przodu
przodzie
przy
przybe
przybiegł
przybiera
przybierac
przybieraja
przybliz
przybrac
przybrana
przybrał
przybrała
przybrzez
przybyc
przybycia
przybycie
przybyciem
przybyciu
przybyli
przybylis
przybylski
przybysz
przybysza
przybyszo
przybytku
przybywa
przybywaja
przybywali
przybywał
przybywszy
przybył
przybyła
przybyłego
przybyłem
przybyło
przybyły
przybyłych
przyc
przychodza
przychodze
przychodzi
przychodzic
przychodzili
przychodził
przychodziła
przychodziło
przychodziły
przychylnos
przycia
przycis
przyciskaja
przycisna
przycisne
przyczem
przyczo
przyczyn
przyczyna
przyczyne
przyczynek
przyczynia
przyczyniaja
przyczynic
przyczynił
przyczyniła
przyczyniło
przyczyniły
przyczyny
przyda
przydac
przydomek
przydroz
przydział
przydzielony
przygla
przygne
przygo
przygoda
przygodach
przygode
przygody
przygotowac
przygotowan
przygotowana
przygotowane
przygotowania
przygotowanie
przygotowaniu
przygotowano
przygotowany
przygotował
przygotowała
przygotowuja
przygotowuje
przygotowywał
przyimek
przyja
przyjaciel
przyjaciela
przyjaciele
przyjacielem
przyjacielowi
przyjacielu
przyjacio
przyjaciołom
przyjaz
przyjazd
przyjazdu
przyjazne
przyjda
przyjde
przyjdz
przyjdzie
przyjdziesz
przyje
przyjechac
przyjechali
przyjechał
przyjechała
przyjechałem
przyjedzie
przyjemna
przyjemne
przyjemnie
przyjemnos
przyjemny
przyjez
przyjmie
przyjmowac
przyjmowania
przyjmowano
przyjmował
przyjmowała
przyjmuja
przyjmuje
przyjrzec
przyjs
przykle
przykra
przykre
przykrego
przykro
przykros
przykry
przykład
przykładami
przykładem
przykłado
przykładowo
przykładu
przykłady
przykładzie
przyla
przylega
przylegaja
przym
przymierza
przymierze
przymiotnik
przymiotniki
przymioto
przymioty
przymkna
przymknie
przymruz
przymus
przymusowej
przymusu
przynajmnie
przynajmniej
przynalez
przyne
przynies
przyniesie
przyniesiono
przynio
przyniosła
przyniosło
przyniosły
przynosi
przynosił
przynosza
przyp
przypada
przypadaja
przypadek
przypadkach
przypadki
przypadkiem
przypadko
przypadkowo
przypadku
przypadł
przypadła
przypadło
przypatruja
przypatrywac
przypatrywał
przypis
przypisac
przypisane
przypisuja
przypisuje
przypomina
przypominac
przypominaja
przypominam
przypominasz
przypominał
przypominała
przypominały
przypomniawszy
przypomniał
przypomniała
przypomniałem
przypomniec
przypomnij
przypowies
przyprowadzic
przyprowadził
przypus
przypuszcza
przypuszczac
przypuszczaja
przypuszczalnie
przypuszczam
przypuszczał
przypuszczałem
przypuszczenia
przypuszczenie
przyro
przyroda
przyrodnicze
przyrodniczego
przyrodniczo
przyrodniczy
przyrodniczych
przyrodnik
przyrody
przyrodzie
przyrost
przyrza
przyrzeczenia
przyrzeczenie
przyrzekam
przyrzekł
przys
przysia
przysiadł
przysie
przysio
przyspieszenie
przysposobienia
przysta
przystan
przystana
przystanek
przystani
przystanko
przystanku
przystał
przystało
przyste
przystoi
przystojny
przystosowane
przysuna
przyszedł
przyszedłem
przyszedłszy
przyszli
przyszła
przyszłam
przyszłe
przyszłego
przyszłej
przyszło
przyszłos
przyszły
przyszłych
przyszłym
przysł
przysłał
przysło
przysłowia
przysłowie
przysługe
przysługuja
przysługuje
przytacza
przyte
przytem
przytomnos
przytomny
przytułek
przytułku
przywia
przywiez
przywilej
przywileje
przywilejo
przywileju
przywio
przywitał
przywo
przywoz
przywołac
przywołał
przywro
przywykł
przyznac
przyznaj
przyznaja
przyznaje
przyznam
przyznana
przyznane
przyznania
przyznanie
przyznano
przyznany
przyznawana
przyznawane
przyznawał
przyznał
przyznała
przyzwoicie
przyzwoitos
przyzwyczajenia
przyzwyczajony
przyła
przyłoz
ps
psa
psalm
psalmo
psami
psem
pseud
pseudo
pseudonim
pseudonimem
psi
psia
psie
psl
pso
psp
pstra
pstw
pstwa
pstwem
pstwie
pstwo
psuje
psy
psych
psychiatra
psychiatry
psychiczne
psychicznie
psychicznych
psycholog
psychologia
psychologiczne
psychologii
psychology
pszczo
pszczoły
pszczyn
pszenicy
pt
ptactwa
ptactwo
ptak
ptaka
ptaki
ptako
ptaszek
ptaszki
ptbnp
pttk
pu
pub
public
publication
publications
publicysta
publiczna
publiczne
publicznego
publicznej
publicznie
publicznos
publiczny
publicznych
publicznym
publikacja
publikacjach
publikacje
publikacji
publikowane
publikował
publikuja
publikuje
publishers
publishing
puchar
pucharach
pucharo
pucharowe
pucharu
pucharze
pudełka
pudełko
pudło
puerto
puja
puje
puli
puls
punk
punkcie
punkt
punktach
punktacja
punktami
punktem
punkto
punktowy
punktu
punkty
pure
purple
purpura
purpurowe
pus
pusta
puste
pustego
pustej
pustelnik
pustka
pustke
pustki
pusto
pusty
pustych
pustym
pustyni
pustynia
pustynie
puszcza
puszczac
puszczaja
puszczał
puszcze
puszczy
put
pułapka
pułapke
pułapki
puławy
pułk
pułki
pułkiem
pułko
pułkownik
pułkownika
pułkownikiem
pułkowniku
pułku
pw
pwm
pwn
pwril
py
pycha
pychy
pyeongchang
pym
pysk
pyszny
pyta
pytac
pytaj
pytaja
pytali
pytam
pytan
pytania
pytaniami
pytanie
pytaniem
pytasz
pytał
pytała
pytałem
python
pył
pyłu
pzl
pzla
pzpn
pzpr
pzwl
płac
płaca
płace
płaci
płacic
płacił
płacy
płacz
płacza
płacze
płaczem
płaczu
płakac
płakał
płakała
płaska
płaski
płaskich
płaskie
płaskim
płaskorzez
płaskowyz
płaszcz
płaszcza
płaszczem
płaszczu
płaszczyz
płaszczyzna
płaszczyzny
płat
płatki
płatko
płatnos
płaza
płazo
płazy
płci
płciowa
płciowy
płd
płec
płetwy
płk
pło
płock
płocka
płocki
płockiego
płockiej
płocku
płodnos
płodu
płomien
płomieni
płomienia
płomieniach
płomienie
płomieniem
płon
płona
płone
płonie
płot
płotem
płotki
płuc
płuca
płycie
płyn
płyna
płyne
płynie
płynu
płyt
płyta
płytach
płyte
płytka
płytki
płyty
pływac
pływaczka
pływaja
pływak
pływania
pływanie
pływaniu
q
qu
quad
qualification
quartet
quasi
que
quebec
queen
queens
queensland
qui
quinn
quo
quod
r
ra
rabin
rabina
raby
rac
race
rach
rachel
rachowac
rachuby
rachunek
rachunki
rachunko
rachunkowos
rachunku
racibo
racing
racja
racje
racji
racye
racyi
racz
racze
raczej
raczy
raczyn
raczył
raczyła
rad
rada
radami
radar
radby
radbym
radca
radcy
rade
radia
radio
radiofonii
radiowa
radiowe
radiowej
radiowy
radiowych
radiu
radnego
radny
radnych
radnym
radom
radomia
radomiu
radomski
radomskiego
radomskiej
radomskim
rados
radosna
radosne
radosny
radosław
radwan
rady
radz
radza
radze
radzi
radzic
radzie
radziecka
radziecki
radzieckich
radzieckie
radzieckiego
radzieckiej
radzieckim
radzima
radziwiłł
radziwiłła
radziwiłło
radził
radzyn
raf
rafael
rafaela
rafał
rafała
raffles
rai
rail
railway
rain
rainbow
raj
raja
rajd
rajdowe
rajdowych
rajdu
rajdzie
rajmund
rajska
raju
rak
raka
rakiet
rakieta
rakietowe
rakietowy
rakietowych
rakiety
rako
rakowickim
ral
rale
ralf
rali
rally
rallye
ralph
ram
rama
ramach
rami
ramie
ramienia
ramieniem
ramieniu
ramion
ramiona
ramionach
ramionami
ramo
ramovs
ramy
ran
rana
randy
randze
rane
ranek
ranem
ranga
range
rangers
rangi
rangle
ranglisten
raniony
ranka
rankiem
ranking
rankingu
ranna
ranne
rannego
ranny
rannych
rano
ranunculus
rany
rap
raper
rapera
rapid
raporcie
raport
raportu
raporty
raptem
rard
ras
rasa
rasin
rasmussen
rasy
rat
rate
rating
ration
ratowac
ratowania
ratuj
ratuja
ratuje
ratunek
ratunku
ratusz
ratusza
ratuszu
rau
raul
raw
rawa
rawicz
rawski
ray
raymond
raz
raza
razach
razem
razie
razu
razy
rb
rc
rca
rcami
rce
rchb
rco
rcy
rcza
rcze
rczego
rczej
rczos
rczy
rczych
rd
rdzen
rdzenia
re
rea
read
reading
ready
reakcja
reakcje
reakcji
reaktywowano
real
realgm
reality
realizacja
realizacje
realizacji
realizowane
realizuja
realizuje
really
realna
realne
realnej
realu
rebecca
rebelianci
rebelianto
rebis
reby
rec
recenzja
recenzje
recenzji
record
recording
recordings
records
recueil
red
redagował
redakcja
redakcje
redakcji
redakcyjnego
redaktor
redaktora
redaktorem
redaktorzy
redni
rednia
rednica
rednice
rednich
rednictwem
rednicy
rednie
redniego
redniej
rednim
rednio
redniowiecza
redniowiecze
redniowieczna
redniowieczne
redniowiecznego
redniowiecznej
redniowieczny
redniowiecznych
redniowieczu
redukcji
reed
reeder
reedycja
reelekcje
referat
referatu
reference
referendum
refleksje
refleksji
reflektory
reform
reforma
reformacji
reforme
reformie
reformy
reg
regent
reggae
regiment
regimentu
regina
region
regionach
regional
regionalna
regionalne
regionalnego
regionalnej
regionalny
regionalnych
regionalnym
regionie
regiono
regionu
regiony
regioset
register
registro
regni
rego
regos
regulacji
regulamin
regulaminu
regularna
regularne
regularnego
regularnie
regularny
regularnych
reguluja
reguł
reguła
regułami
reguły
rehabilitacji
reich
reid
reims
rej
rejencji
rejent
rejestr
rejestracji
rejestru
rejestrze
rejon
rejonach
rejonie
rejono
rejonowego
rejonowy
rejonu
rejony
rejs
rek
reklama
reklamy
rekonstrukcja
rekonstrukcji
rekord
rekordem
rekordo
rekordy
rekordzista
rekreacji
rektor
rektora
rektorem
rel
relacja
relacjach
relacje
relacji
relacyjny
relations
relationships
relay
release
released
releases
religia
religie
religii
religijna
religijne
religijnego
religijnej
religijny
religijnych
religijnym
religion
religious
religja
religji
relikwie
rem
remi
remis
remix
remo
remoncie
remont
remontu
remu
ren
renata
renault
rene
renesansu
renic
renice
renowacji
renty
renu
reorganizacji
reorganizuja
repertuaru
report
reportaz
reporter
reports
represje
represji
reprezentacja
reprezentacje
reprezentacji
reprezentacyjne
reprezentanci
reprezentant
reprezentanta
reprezentantem
reprezentantka
reprezentanto
reprezentowac
reprezentował
reprezentowała
reprezentowało
reprezentuja
reprezentuje
reprint
republic
republice
republici
republik
republika
republikan
republike
republiki
republiky
requiem
res
research
resortu
resources
restauracja
restauracje
restauracji
result
results
reszta
reszte
resztek
resztkami
resztki
reszty
retrieved
return
returns
reuters
rev
reveal
revealed
reveals
review
reviews
revised
revision
revolution
revue
rewanz
rewasz
rewizji
rewizyjnej
rewolucja
rewolucje
rewolucji
rewolucyi
rewolucyjna
rewolucyjnego
rewolucyjnej
rewolucyjny
rewolucyjnych
rewolwer
rex
rey
reynolds
rez
rezerw
rezerwacie
rezerwat
rezerwatu
rezerwaty
rezerwie
rezerwowego
rezerwowy
rezerwowym
rezerwy
rezultacie
rezultat
rezultatem
rezultato
rezultatu
rezultaty
rezydencja
rezydencje
rezydencji
rezygnacja
rezygnacje
rezygnacji
rfc
rfn
rfsrr
rg
rgen
rhein
rheinland
rho
rhodes
ri
ria
riaa
ric
rica
ricardo
rice
rich
richard
richarda
richardr
richards
richardson
richelieu
richmond
richter
rick
ricky
rico
ride
rider
ridge
rie
rifle
right
rightarrow
rights
rihanna
riley
ring
ringu
rinuncia
rio
rise
rising
risk
rism
rita
ritter
river
rk
rka
rkach
rkami
rke
rki
rko
rkowa
rkowe
rkowej
rkowych
rkp
rku
rm
rmf
rn
rna
rne
rnego
rnej
rni
rnia
rnictwa
rnicza
rniczej
rniczo
rnie
rnik
rnika
rniko
rnos
rnołuz
rny
rnych
rnym
ro
road
rob
robak
robbie
robert
roberta
robertem
roberto
robertr
roberts
robertson
robi
robia
robic
robie
robienia
robili
robimy
robin
robinson
robisz
robił
robiła
robiłem
robiło
robiły
robo
robocie
robocza
roboczego
roboczej
roboczy
robot
robota
robote
robotnicy
robotnicza
robotniczego
robotniczej
robotniczych
robotnik
robotnika
robotniko
roboty
roc
rocha
rochester
rock
rocka
rockowa
rockowej
rockowy
rocks
rocky
roczna
roczne
rocznego
rocznica
rocznice
rocznicy
rocznie
rocznik
rocznika
roczniki
roczny
rod
roda
rodako
rodan
rode
rodek
rodem
rodin
rodka
rodkach
rodkami
rodki
rodkiem
rodko
rodkowa
rodkowe
rodkowego
rodkowej
rodkowo
rodkowy
rodkowych
rodkowym
rodku
rodo
rodowisk
rodowiska
rodowiskiem
rodowisko
rodowisku
rodowo
rodri
rodrigo
rodriguez
rodu
rody
rodza
rodzaj
rodzaje
rodzajem
rodzajnika
rodzajo
rodzaju
rodzen
rodzi
rodzic
rodzicami
rodzice
rodzico
rodzicom
rodzie
rodzin
rodzina
rodzine
rodzinie
rodzinna
rodzinne
rodzinnego
rodzinnej
rodzinny
rodzinnych
rodzinnym
rodziny
rogach
rogami
roger
rogera
rogers
rogi
rogo
rogoz
rogu
roi
rok
rokiem
roku
rola
rolach
roland
rolanda
role
rolf
roli
roll
rolling
rollins
roln
rolne
rolnego
rolnej
rolnictwa
rolnictwie
rolnictwo
rolnicza
rolnicze
rolniczego
rolniczej
rolniczo
rolniczy
rolniczych
rolnik
rolniko
rolnych
rom
roma
roman
romana
romania
romano
romanr
romans
romansu
romantyczna
romantycznej
romantyzmu
rome
romeo
romero
romuald
romualda
ron
ronald
ronda
rondo
ronnie
ronr
room
ropy
ros
rosa
rosario
rose
rosen
rosja
rosjan
rosjanie
rosjanin
rosje
rosji
rosna
roso
ross
rossi
rosy
rosyi
rosyjscy
rosyjska
rosyjski
rosyjskich
rosyjskie
rosyjskiego
rosyjskiej
rosyjskim
rosyjsko
rosła
rosło
rosły
roth
rotmistrz
rotmistrza
rotten
rotterdam
rouen
rouge
round
rousseau
route
routledge
row
rower
rowero
rowerowa
rowerowe
rowerowy
rowo
rows
rowu
rowy
roy
royal
roz
rozalia
rozbic
rozbicia
rozbiez
rozbijaja
rozbio
rozbioru
rozbiorze
rozbite
rozbitko
rozbity
rozbił
rozbo
rozbudowa
rozbudowana
rozbudowano
rozbudowany
rozbudowe
rozbudowy
rozbuduj
rozchodza
rozcia
rozczarowanie
rozdania
rozdraz
rozdroz
rozdz
rozdziale
rozdział
rozdziało
rozdziału
rozdziały
rozdziela
rozdzielaja
rozdzielczos
rozdzielone
rozdzieraja
rozebrana
rozebrano
rozebrany
rozegrana
rozegrane
rozegrano
rozegrany
rozegranych
rozegranym
rozegrał
rozegrała
rozejm
rozejrzał
rozerwac
rozes
rozeszli
rozeszła
rozgałe
rozgla
rozgniewany
rozgora
rozgrywa
rozgrywaja
rozgrywane
rozgrywano
rozgrywany
rozgrywanych
rozgrywek
rozgrywkach
rozgrywki
rozgrywkowej
rozgłos
rozgłosu
rozja
rozjas
rozk
rozkaz
rozkazami
rozkazał
rozkazem
rozkazo
rozkazu
rozkazuja
rozkazuje
rozkazy
rozkosz
rozkosza
rozkosze
rozkoszne
rozkoszy
rozkwit
rozkwitu
rozkład
rozkładaja
rozkładu
rozlegał
rozlegały
rozległ
rozległa
rozległe
rozległo
rozległy
rozległych
rozluz
rozmaite
rozmaitos
rozmaitych
rozmawia
rozmawiac
rozmawiaja
rozmawiali
rozmawiał
rozmawiała
rozmiar
rozmiarach
rozmiaro
rozmiary
rozmieszczenia
rozmieszczenie
rozmieszczone
rozmnaz
rozmo
rozmowa
rozmowach
rozmowe
rozmowie
rozmowy
rozmys
rozpacz
rozpacza
rozpaczliwie
rozpaczy
rozpadu
rozpadzie
rozpalone
rozpe
rozpie
rozpocza
rozpocze
rozpocznie
rozpoczyna
rozpoczynaja
rozpoczynał
rozporza
rozpos
rozpoznac
rozpoznania
rozpoznanie
rozpoznawczy
rozpraw
rozprawa
rozprawe
rozprawie
rozprawy
rozproszone
rozpus
rozpusty
rozpłakała
rozro
rozrywek
rozrywka
rozrywki
rozrza
rozrzucone
rozs
rozsa
rozstac
rozstali
rozstania
rozstrzelany
rozstrzygaja
rozstrzygna
rozstrzygnie
rozszerza
rozszerzaja
rozszerzenia
rozszerzenie
rozszerzone
roztropnos
roztrza
rozum
rozumem
rozumiał
rozumiała
rozumie
rozumiec
rozumiecie
rozumieja
rozumieli
rozumiem
rozumiemy
rozumienia
rozumieniu
rozumiesz
rozumna
rozumny
rozumowania
rozumowanie
rozumu
rozwaz
rozwia
rozwija
rozwijac
rozwijaja
rozwijał
rozwijała
rozwina
rozwine
rozwinie
rozwo
rozwodu
rozwojem
rozwojowi
rozwoju
rozws
rozz
rozła
rozłoz
rp
rpa
rpl
rr
rs
rska
rski
rskich
rskie
rskiego
rskiej
rskim
rsssf
rt
rte
rterbuch
rtm
ru
rubiez
rubin
rubla
rubli
ruby
ruch
ruchach
ruchami
ruchem
rucho
ruchome
ruchomych
ruchu
ruchy
rud
ruda
rude
rudolf
rudolfa
rudy
rudzie
rue
rufie
rugby
rugbysta
ruggiero
ruin
ruina
ruinach
ruine
ruiny
ruiz
ruja
ruksze
rukszenice
rule
rulers
rules
rum
rumble
rumien
rumienia
rumieniec
rumun
rumunia
rumunii
run
runa
rund
runda
rundach
runde
rundy
rundzie
rune
running
rury
rus
rush
rusi
rusin
ruska
ruski
ruskich
ruskie
ruskiego
russell
russia
russian
rusza
ruszac
ruszaj
ruszaja
ruszał
ruszy
ruszyc
ruszyli
ruszylis
ruszył
ruszyła
ruszyły
ruth
rutkowski
rv
rwa
rwsze
rwszy
ry
ryan
ryb
ryba
rybacy
rybak
rybako
rybe
rybin
rybka
rybnik
ryboło
ryby
ryc
rycerska
rycerski
rycerskich
rycerskie
rycerskiego
rycerstwa
rycerstwo
rycerz
rycerza
rycerze
rycerzy
rych
rychlej
rychło
rydze
ryga
ryk
rykna
rylands
rym
rymi
rynek
rynkach
rynki
rynku
ryo
rys
rysach
ryso
rysownik
rysuja
rysunek
rysunki
rysunko
rysunku
rysy
ryszard
ryszarda
ryszardr
rytm
rytmiczna
ryu
rywala
rywalem
rywali
rywalizacja
rywalizacje
rywalizacji
rywalizowali
rywalizowały
rywalizuja
ryz
ryzyka
ryzyko
rz
rza
rzach
rzad
rzadka
rzadki
rzadkich
rzadkie
rzadko
rzadkos
rzadziej
rze
rzec
rzece
rzecz
rzecza
rzeczach
rzeczami
rzecze
rzeczka
rzecznik
rzecznika
rzeczownik
rzeczowniki
rzeczowniko
rzeczownikowa
rzeczpospolita
rzeczpospolitej
rzeczy
rzeczypospolitej
rzeczywis
rzeczywista
rzeczywiste
rzeczywistego
rzeczywistej
rzeczywistos
rzeczywisty
rzeczywistych
rzeczywistym
rzek
rzeka
rzekami
rzeke
rzeki
rzekli
rzekomo
rzekł
rzekła
rzekłbys
rzekłem
rzekłszy
rzem
rzemies
rzemiosła
rzemiosło
rzesza
rzesze
rzeszo
rzeszowa
rzeszowie
rzeszowskiego
rzeszowskim
rzeszy
rzewnie
rzez
rzezi
rzu
rzuc
rzuca
rzucac
rzucaja
rzucali
rzucał
rzucała
rzucały
rzuci
rzucic
rzucie
rzucili
rzuciwszy
rzucił
rzuciła
rzuciłem
rzuciły
rzucona
rzucone
rzucony
rzut
rzutach
rzutem
rzuto
rzutu
rzy
rzyby
rzyc
rzym
rzymian
rzymianie
rzymie
rzymscy
rzymska
rzymski
rzymskich
rzymskie
rzymskiego
rzymskiej
rzymskim
rzymskokatolicka
rzymskokatolicki
rzymskokatolickiego
rzymskokatolickiej
rzymu
rzył
rzyła
s
sa
sabina
sabotaz
sac
sachsen
sad
sadowski
sady
safety
saga
said
saint
sainte
saints
saja
sakrament
sakramentu
sakre
sakry
saksofon
saksonia
saksonii
sal
sala
salach
sale
sales
sali
salisbury
sally
salomon
salomona
salon
salonach
saloni
salonie
saloniku
salono
salonu
salony
salt
salvador
salvator
salzburg
sam
sama
samca
samce
samco
same
samego
samej
samem
samemi
samemu
sami
samic
samica
samice
samicy
samiec
samiti
samo
samoa
samobiez
samobo
samocho
samochodem
samochodo
samochodowe
samochodowego
samochodowy
samochodowych
samochodowym
samochodu
samochody
samochodzie
samodzielna
samodzielne
samodzielnego
samodzielnej
samodzielnie
samodzielnos
samodzielny
samolocie
samolot
samolotach
samolotem
samoloto
samolotu
samoloty
samoobrona
samoobrony
samorza
samos
samotna
samotne
samotnie
samotnos
samotny
samotnych
sampa
samson
samsung
samuel
samuela
samych
samym
san
sanatorium
sanczo
sand
sanders
sandomierski
sandomierskiego
sandomierskiej
sandomierz
sandomierzu
sandra
sanie
sankt
sanktuarium
sanocka
sanocki
sanockiego
sanockiej
sanok
sanoka
sanoku
sans
sanskryt
sant
santa
santiago
santo
santos
sapero
sapieha
sapporo
sar
sara
sarah
sarajewie
sargatal
sarny
sars
sary
sas
satelita
satelitarna
satelitarne
satelito
satelity
saturday
saturn
saturna
satyryk
saudyjskiej
saul
saunders
savage
save
sawa
sawicki
say
says
sazu
sał
sb
sbn
sc
scar
scb
sce
scen
scena
scenach
scenariusz
scenariusza
scenarzysta
scene
scenie
scenografia
sceny
scha
schedule
schemat
schematismus
schlesien
schleswig
schltr
schmidt
schneider
scho
schodach
schodami
schodo
schody
schodza
schodzi
schodzic
schodził
scholar
school
schorr
schowac
schował
schro
schronic
schronienia
schronienie
schroniska
schronisko
schronił
schu
schulz
schwycił
schwytac
schwytany
schylił
schyłku
sci
science
sciences
scientific
scooby
scopusauthorid
score
scotland
scott
scotta
scottish
screen
scy
sd
se
sea
sean
search
season
seattle
sebastia
sebastian
sebastiana
sec
secesyjnej
sechrest
second
secret
section
security
sed
sedan
sedis
sedlo
seds
see
segunda
sein
seine
seiyu
sejm
sejmie
sejmiku
sejmowa
sejmowe
sejmowej
sejmu
sek
sekcja
sekcje
sekcji
sekret
sekretarka
sekretarz
sekretarza
sekretarzem
seks
seksualna
seksualne
seksualnej
seksualnych
sektor
sektora
sektorze
sekty
sekund
sekunde
sekundy
sekwana
sekwencji
selected
selekcji
selekcjonera
selekcjonerzy
self
seligman
sem
semi
seminarium
semka
sen
senacie
senat
senator
senatora
senatoro
senatorowie
senatu
senegalu
senior
senioro
seniorskiej
senna
senne
sennor
sennos
sens
sensie
sensu
sep
september
ser
sera
serafin
serafina
serb
serbia
serbii
serbo
serbska
serbski
serbskiego
serbskiej
serc
serca
sercach
serce
sercem
sercu
serdeczna
serdeczne
serdecznie
serdecznos
serdeczny
serdecznym
sergio
sergiusz
serhij
seria
serial
serialach
seriale
seriali
serialu
serie
series
serii
serjo
servadac
server
service
services
serwer
serwis
serwisach
serwisie
serwisu
seryo
ses
sesja
sesje
sesji
set
setek
seth
setki
seto
seul
seulu
seven
sevens
seweryn
seweryna
sewilli
sex
sexual
sez
sezon
sezonach
sezonem
sezonie
sezono
sezonu
sezony
sf
sfer
sfera
sferach
sfere
sfery
sferze
sformowana
sformowano
sformowany
sg
sh
shadow
shakespeare
shall
shane
shanghai
shannon
sharon
sharp
shatterhand
shaw
she
sheffield
sherlock
sherman
shi
shin
ship
ships
shirley
sho
shooting
short
shot
should
show
shows
shu
si
sia
siad
siada
siadac
siadaj
siadaja
siadał
siadka
siado
siaduja
siaduje
siadł
siadła
siana
siano
siarki
siatka
siatkarka
siatkarz
siatki
siatko
siatkowej
sic
sich
side
sidney
sidła
sie
siebie
siec
sieci
siecia
siedem
siedemdziesia
siedemdziesie
siedemnas
siedlcach
siedlce
siedleckiego
siedlisk
siedliska
siedlisko
siedm
siedmiu
siednich
siednie
siedniego
siedniej
siednim
siedza
siedze
siedzenia
siedzenie
siedzi
siedział
siedziała
siedziałem
siedziało
siedziały
siedzib
siedziba
siedzibe
siedzibie
siedziby
siedziec
siedzieli
siedztwa
siedztwie
siedztwo
siekiera
siekiery
sielsowiecie
sielsowietu
sien
sieni
sienia
sienie
sienkiewicz
sienkiewicza
sieradzkiego
siergiej
sierot
sierota
sieroty
sierp
sierpien
sierpnia
sierpniu
sierra
siers
sierz
siewka
sig
sigma
sign
signs
sikora
sikorski
sikorskiego
sil
sila
sile
silent
silesia
silna
silne
silnego
silnej
silnie
silniej
silniejsza
silniejsze
silniejszy
silnik
silnika
silnikami
silniki
silnikiem
silniko
silny
silnych
silnym
silva
silver
sim
simbad
simon
simona
simone
simons
simple
simpson
sin
sina
since
sine
sing
singapore
singapur
singapurze
singel
singer
singh
singiel
singla
single
singlem
singles
singli
singlu
sio
siodle
siodła
siodło
siostra
siostrami
siostre
siostro
siostry
siostrze
siostrzen
siostrzenica
siostrzeniec
sip
sir
sis
sit
site
sito
siwa
siwe
siwy
siwych
six
size
sił
siła
siłach
siłami
siłe
siłom
siły
sj
sk
ska
skacza
skakac
skala
skale
skali
skaliste
skalistych
skalna
skalne
skalnych
skamieniałos
skan
skandal
skandalu
skandynawii
skarb
skarbca
skarbiec
skarbnik
skarbo
skarbu
skarby
skarg
skarga
skarge
skargi
skarnik
skarz
skating
skaz
skazan
skazana
skazani
skazano
skazany
skazanych
skazał
skazy
skał
skała
skałach
skałami
skałe
skały
ske
ski
skich
skie
skiego
skiej
skiem
skiemi
skiemu
skierowac
skierowana
skierowane
skierowano
skierowany
skierował
skierowała
skiing
skijumping
skim
skimi
skin
skina
skine
skinienie
skinieniem
sklasyfikowany
sklep
sklepach
sklepie
sklepienia
sklepienie
sklepieniem
sklepo
sklepu
sklepy
sknił
skno
sknota
sknote
sknoty
sko
skoczek
skoczko
skoczni
skocznia
skoczył
skoczyła
skok
skokach
skoki
skokiem
skokinarciarskie
skoko
skoku
skomplikowana
skomplikowane
skomponował
skon
skonstruowany
skoosobowy
skoro
skorowidz
skorupa
skorupiako
skorupy
skorzeczowy
skorzystac
skorzystał
skos
skotorowa
skotorowej
skowron
skozwierze
skr
skrajnie
skraju
skre
skres
skro
skromna
skromne
skromnie
skromnos
skromny
skromnym
skroni
skroniach
skronie
skrycie
skrze
skrzetuski
skrzydeł
skrzydle
skrzydła
skrzydłach
skrzydłami
skrzydłem
skrzydło
skrzydłowego
skrzyn
skrzyni
skrzynia
skrzynie
skrzynki
skrzypcach
skrzypce
skrzypek
skrzypiec
skrzywił
skrzyz
sku
skupia
skupiaja
skupic
skupienia
skupiona
skupione
skupił
skuteczna
skuteczne
skutecznie
skutecznos
skuteczny
skutek
skutkach
skutki
skutkiem
skutko
skutkowało
skutku
skwapliwie
skwer
sky
skład
składa
składac
składaja
składali
składane
składania
składał
składała
składało
składały
składek
składki
składnia
składnik
składniki
składniko
składo
składowa
składu
składy
składzie
skłania
skłodowskiej
skłonic
skłonił
skłoniła
skłoniło
skłonnos
skłonny
sl
sla
slalom
slalomie
slam
slang
sld
sleep
slov
slovak
slovarji
slovenija
slovenije
slovenske
slovenskej
slovenski
slovni
sm
sma
smackdown
smak
smakiem
smaku
small
smaz
sme
smego
smej
smith
smitha
smithsonian
smok
smoka
smolen
smoła
sms
smuga
smugi
smukła
smutek
smutkiem
smutku
smutna
smutne
smutnego
smutnej
smutnie
smutno
smutny
smutnych
smutnym
smy
smym
sn
sna
snac
snadz
sncf
sne
snego
snem
sno
snooker
snow
snu
snuja
sny
so
soba
sobczak
sobie
sobieski
sobieskiego
sobo
sobol
soboru
soborze
sobota
sobote
soboty
soc
soccer
soccerbase
soccerway
socha
sochaczew
social
socie
society
socjaldemokratycznej
socjalisto
socjalistyczna
socjalistycznego
socjalistycznej
socjalistyczny
socjalistycznych
socjalizm
socjalizmu
socjolog
socjologia
socjologii
soczi
sodu
sofia
sofie
sofii
software
sojusz
sojuszu
sojuz
sok
soko
sokoła
sokoło
sokołowski
sokrates
soku
sol
sola
solar
solaris
sole
soli
solidarnos
solo
solowa
solowy
som
somalii
some
somerset
something
son
sonata
sonda
sondaz
sondy
sonet
sonety
song
songs
sonia
sonic
sons
sony
sophie
sopocie
sopot
sopran
sos
sosem
sosen
sosna
sosnowcu
sosnowiec
sosny
soul
sound
soundtrack
source
sous
south
southampton
southern
soviet
sowa
sowiecka
sowieckich
sowieckie
sowieckiego
sowieckiej
sowieto
sowin
sołecka
sołectwa
sołectwo
sołtys
sp
spa
spac
space
spacer
spada
spadaja
spadały
spadek
spadkiem
spadkobierca
spadkobierco
spadkobiercy
spadku
spadnie
spadł
spadła
spadło
spadły
spain
spali
spalic
spalili
spalił
spalona
spalone
spalony
spanish
sparaliz
sparta
spartak
sparty
spas
spał
spała
spd
spe
special
species
specifications
specjalista
specjalisto
specjalizował
specjalizuja
specjalizuje
specjalna
specjalne
specjalnego
specjalnej
specjalnie
specjalnos
specjalny
specjalnych
specjalnym
speed
speedway
spektakl
spektaklu
spencer
spełni
spełnia
spełniac
spełniaja
spełniał
spełnic
spełnienia
spełnienie
spełnione
spełnił
spider
spie
spiegel
spiesza
spiesznie
spieszyc
spieszył
spin
spiralna
spirit
spis
spisał
spisek
spisie
spisku
spiso
spisu
spisy
spiz
spla
split
spluna
spo
spocza
spocze
spoczynek
spoczynku
spoczywa
spoczywaja
spoczywał
spoczywała
spod
spodem
spodni
spodnie
spodoba
spodu
spodzie
spodziewa
spodziewac
spodziewaja
spodziewali
spodziewam
spodziewano
spodziewał
spodziewała
spodziewałem
spogla
spoilertv
spojrzawszy
spojrzał
spojrzała
spojrzałem
spojrzec
spojrzeli
spojrzen
spojrzenia
spojrzenie
spojrzeniem
spojrzeniu
spojrzy
spojrzyj
spoko
spokojem
spokojna
spokojne
spokojnego
spokojnej
spokojni
spokojnie
spokojnos
spokojny
spokojnym
spokoju
spokrewniony
spolu
sponsorem
spora
sporadycznie
spore
sporo
sport
sportach
sporting
sporto
sportowa
sportowco
sportowe
sportowefakty
sportowego
sportowej
sportowiec
sportowy
sportowych
sportowym
sports
sportu
sporu
spory
sporza
spos
sposo
sposobami
sposobem
sposobie
sposobnos
sposobo
sposobu
sposoby
spostrzega
spostrzegli
spostrzegł
spostrzegła
spostrzegłem
spostrzegłszy
spostrzez
spote
spotka
spotkac
spotkali
spotkalis
spotkamy
spotkan
spotkania
spotkaniach
spotkanie
spotkaniu
spotkawszy
spotkał
spotkała
spotkałem
spotkało
spotkały
spotyka
spotykac
spotykaja
spotykali
spotykamy
spotykana
spotykane
spotykany
spotykał
spowiedz
spowiedzi
spowodowac
spowodowana
spowodowane
spowodowany
spowodował
spowodowała
spowodowało
spowodowały
spoz
spoza
społeczen
społeczna
społeczne
społecznego
społecznej
społecznie
społeczno
społecznos
społeczny
społecznych
społecznym
społem
spra
spraw
sprawa
sprawach
sprawami
sprawca
sprawco
sprawcy
sprawdz
sprawdza
sprawdzic
sprawe
sprawi
sprawia
sprawiac
sprawiaja
sprawiał
sprawiała
sprawiało
sprawiały
sprawic
sprawie
sprawiedliwego
sprawiedliwie
sprawiedliwos
sprawiedliwy
sprawiedliwych
sprawił
sprawiła
sprawiło
sprawiły
sprawnos
sprawowania
sprawował
sprawowała
sprawozdania
sprawozdanie
sprawuja
sprawuje
sprawy
spre
sprincie
spring
springer
springfield
springs
sprint
sprinter
sprinterka
spro
sprowadza
sprowadzaja
sprowadzic
sprowadził
sprowadzono
sprza
sprze
sprzeciw
sprzeciwia
sprzeciwiac
sprzeciwiaja
sprzeciwiał
sprzeciwu
sprzeczne
sprzecznos
sprzed
sprzedac
sprzedaja
sprzedaje
sprzedana
sprzedane
sprzedano
sprzedany
sprzedawac
sprzedawał
sprzedawca
sprzedaz
sprzedał
sprzedała
sprzyja
sprzyjaja
sprzymierzen
sprzymierzonych
sprzysie
spus
spuszczaja
spuszczał
spuszczona
spuszczonemi
spytac
spytał
spytała
spytałem
spłona
spłone
spłyne
spływa
spływaja
spływały
sqrt
squad
square
sr
srbiji
srebra
srebrem
srebrna
srebrne
srebrnego
srebrnej
srebrny
srebrnych
srebrnym
srebro
sri
srodze
sroga
srogi
srogie
sroka
sroz
srr
ss
ssa
ssaka
ssaki
ssako
sseldorf
ssyova
st
sta
stabila
stabilnos
stac
stach
stacja
stacjach
stacjami
stacje
stacji
stacjonował
stacjonowała
stacjonuja
stacyi
stad
stada
stade
stadion
stadionie
stadionu
stadiony
stadium
stado
stadt
staff
staffa
stage
staja
staje
stajni
stajnia
stajnie
stal
stale
stali
stalin
stalina
stalinogrodzie
stalowa
stalowe
stalowej
stalowych
stambule
stamta
stan
stana
stanach
stanami
stand
standard
standardo
standardowa
standardowe
standardowy
standardu
standardy
standardzie
standaryzacji
standing
standings
stane
stanem
stanford
stanie
stanisław
stanisława
stanisławem
stanisławo
stanisławowie
stanisławs
stankiewicz
stanley
stano
stanova
stanovnis
stanowcza
stanowczo
stanowczos
stanowczy
stanowczym
stanowi
stanowia
stanowic
stanowili
stanowisk
stanowiska
stanowiskach
stanowiskiem
stanowisko
stanowisku
stanowił
stanowiła
stanowiło
stanowiły
stanu
stany
star
stara
starac
staraj
staraja
starali
staram
staran
starania
staranie
staraniem
staraniom
starannie
starano
starał
starała
starałem
starc
starca
starcia
starcie
starciu
starco
starcy
starczy
starczyło
stare
starego
starej
staremu
stargard
staro
staropolska
staropolski
staros
starosta
staroste
starostwa
starostwo
starosty
staroz
starr
stars
starsi
starsza
starsze
starszego
starszej
starszen
starszy
starszych
starszym
starszyzna
start
starto
startowa
startowali
startował
startowała
startu
startuja
startuje
starty
staruszek
staruszka
staruszki
stary
starych
starym
starzec
starzy
stas
stasia
staszica
stat
state
statek
states
station
statistic
statistica
statistical
statistics
statistik
statistiku
statistisches
statistiska
statki
statkiem
statko
statku
stats
statsf
status
statusu
statut
statutu
statystyczna
statystyczne
statystycznego
statystyczny
statystycznych
statystycznym
statystyka
statystyki
staw
stawac
stawali
stawał
stawała
stawało
stawały
stawce
stawem
stawia
stawiac
stawiaja
stawiał
stawic
stawie
stawił
stawka
stawki
stawo
stawu
stawy
stay
staz
stał
stała
stałe
stałego
stałej
stałem
stało
stałos
stały
stałych
stałym
ste
steczek
steczki
steel
stefan
stefana
stefania
stefanie
stefano
stefcia
stego
stein
stej
stek
stella
stem
step
stepan
stephan
stephanie
stephen
stepy
ster
stercza
stern
sternau
sternik
sternika
sterowania
sterowanie
sterreich
steru
steruja
steve
steven
stevens
stewart
sti
stica
still
stka
stke
stki
sto
stochowa
stochowie
stochowskiej
stochowy
stock
stockholm
stoczni
stocznia
stoczył
stodoła
stodoły
stoi
stoja
stoje
stok
stokach
stoki
stoko
stokroc
stoku
stole
stolica
stolice
stolicy
stolik
stolika
stoliku
stolnik
stone
stop
stopa
stopami
stope
stopie
stopien
stopklatka
stopni
stopnia
stopniach
stopnie
stopniem
stopniowo
stopniu
stopy
store
storia
stories
storm
story
stos
stosie
stosowac
stosowana
stosowane
stosowanej
stosowania
stosowanie
stosowano
stosowany
stosowanych
stosował
stosowna
stosowne
stosownie
stosu
stosuja
stosuje
stosunek
stosunkach
stosunki
stosunkiem
stosunko
stosunkowo
stosunku
stosy
stotliwos
stowarzyszen
stowarzyszenia
stowarzyszenie
stowarzyszeniu
stoz
stołecznego
stołem
stoło
stołu
stoły
str
stra
stracenia
strach
strachem
strachu
straci
stracic
stracie
stracili
straciwszy
stracił
straciła
straciłem
straciło
straciły
stracona
stracone
stracony
straconych
strajk
strajku
strange
strasbg
strasburgu
straszliwa
straszliwe
straszliwego
straszliwej
straszliwie
straszliwy
straszna
straszne
strasznego
strasznej
strasznie
straszny
strasznych
strasznym
strat
strata
strate
strategia
strategiczne
strategicznych
strategie
strategii
straty
straz
straße
stre
street
stref
strefa
strefe
strefie
strefy
stres
strike
string
stro
strojach
stroje
strojo
stroju
strome
stromych
stron
strona
stronach
strone
strong
strongman
stronie
stronnictwa
stronnictwo
stronniko
strony
strop
structure
struga
strugi
struktur
struktura
strukturach
strukture
struktury
strukturze
strumien
strumieni
strumienia
strumienie
strumieniem
struny
strwoz
strychu
stryj
stryja
stryju
strzał
strzała
strzałami
strzało
strzału
strzały
strze
strzedz
strzega
strzegł
strzela
strzelac
strzelaja
strzelania
strzelaniu
strzelał
strzelba
strzelbe
strzelby
strzelca
strzelcem
strzelco
strzelcy
strzelec
strzelecka
strzelecki
strzeleckiego
strzeleckiej
strzelił
strzez
strzyz
sts
stsze
stu
stuart
studenci
studenckich
student
studenta
studento
studia
studiach
studies
studio
studios
studiował
studiowała
studiu
studium
studni
studnia
studnie
study
studyjne
studyjny
stuleci
stulecia
stulecie
stuleciu
stuttgarcie
stuttgart
stva
stvo
stw
stwa
stwach
stwami
stwarza
stwem
stwie
stwierdza
stwierdzaja
stwierdzenia
stwierdzenie
stwierdzic
stwierdził
stwierdziła
stwierdzono
stwo
stwom
stworzen
stworzenia
stworzenie
stworzeniem
stworzeniu
stworzona
stworzone
stworzono
stworzony
stworzyc
stworzyli
stworzył
stworzyła
stwowa
stwowe
stwowego
stwowej
stwowy
stwowych
stwowym
stwu
sty
stych
styczen
stycznia
styczniowego
styczniowym
styczniu
stycznos
styl
style
stylem
styles
stylu
stym
stypendium
stypendysta
stłumiony
stłumionym
su
sua
sub
submarine
submarines
subsp
substancja
substancje
substancji
sucha
suche
suchego
suchej
sucho
suchy
suchych
suchym
sud
sudan
sudanu
sudetach
sudeto
sudoc
sue
suffolk
sufit
sufitu
sugeruja
sugeruje
sui
suite
sukces
sukcesem
sukcesie
sukcesji
sukceso
sukcesu
sukcesy
sukien
sukienke
sukienki
sukna
sukni
suknia
suknie
sul
sulejo
sullivan
sum
suma
sume
sumie
sumienia
sumienie
sumieniem
sumieniu
sumiennie
summary
summer
summit
sumy
sun
suna
sunday
sune
super
supergigant
supernova
supernovae
supernowa
superpuchar
superpucharu
suplement
supplement
support
sur
surdut
surduta
surowa
surowco
surowe
surowego
surowej
surowo
surowos
surowy
surowych
surowym
survey
survivor
sus
susan
sussex
suszy
suv
suwalskiego
suwałkach
suwałki
suwerennos
suzuki
sułtan
sułtana
sv
sven
svensk
svenska
sw
swa
swann
swe
sweden
swedish
swedishcharts
sweet
swego
swej
swem
swemi
swemu
swift
swimming
swiss
swo
swoboda
swobode
swobodna
swobodne
swobodnego
swobodnie
swobodny
swobody
swoich
swoie
swoim
swoimi
swoja
swoje
swojego
swojej
swojem
swojemi
swojemu
swych
swym
swymi
sx
sy
syberie
syberii
sycylii
sydney
sygn
sygnał
sygnało
sygnału
sygnały
sykna
sylwan
sylwester
sylwetka
sylwetki
sylwia
sylwja
symbol
symbole
symbolem
symboli
symboliczne
symboliczny
symbolizuja
symbolizuje
symbolu
symfonia
symfoniczna
symphony
syn
syna
synagoga
synagogi
synami
syndrome
synem
syno
synod
synodu
synom
synonim
synonimy
synowi
synowie
synteza
syntezy
synu
sypia
sypialni
syrena
syria
syrii
syrop
system
systemach
systematic
systematics
systematyczna
systematycznie
systematyka
systemem
systemie
systemo
systems
systemu
systemy
sytuacja
sytuacjach
sytuacje
sytuacji
sz
sza
szabla
szable
szabli
szablon
szac
szach
szachach
szachista
szachisto
szachowe
szachownicy
szachy
szacie
szacuje
szacunek
szacunkiem
szacunko
szacunkowych
szacunku
szafa
szafer
szafera
szafran
szafy
szaja
szal
szale
szaleja
szalen
szalenie
szalona
szalone
szalonego
szalony
szalonym
szambelan
szambelana
szampana
szan
szanghaju
szanowac
szanowny
szans
szansa
szanse
szantaz
szanuja
szanuje
szany
szara
szaran
szare
szarego
szarej
szaro
szarpia
szarpna
szary
szarych
szarym
szarz
szat
szata
szatach
szatan
szatana
szate
szaty
szał
szału
szcz
szcza
szczał
szczała
szcze
szczeblu
szczecin
szczecina
szczecinek
szczecinie
szczego
szczelina
szczeliny
szczelnie
szczenie
szczep
szczepan
szczepana
szczepu
szczera
szczere
szczerego
szczeros
szczery
szczerym
szczerze
szczupła
szczupły
szczur
szczury
szczy
szczycie
szczyt
szczytach
szczytami
szczytem
szczyto
szczytu
szczyty
szczyz
szczyzna
szczyzny
sze
szedł
szedłem
szef
szefa
szefem
szefowie
szego
szej
szekspir
szekspira
szela
szelest
szem
szematyzm
szemu
szenia
szenie
szepca
szepcza
szepna
szepne
szept
szeptac
szeptali
szeptał
szeptała
szeptem
szepty
szer
szereg
szeregach
szeregi
szeregiem
szerego
szeregowych
szeregu
szeroka
szeroki
szerokich
szerokie
szerokiego
szerokiej
szerokiemi
szerokim
szeroko
szerokos
szersza
szersze
szerszy
szerszym
szeryf
szerzej
szes
szesnas
szesnastu
szewc
szewczyk
szkic
szkice
szkielet
szklana
szklane
szklanka
szklanke
szklanki
szko
szkocja
szkocji
szkocki
szkockiego
szkoda
szkode
szkodliwe
szkody
szkodzi
szkodzic
szkole
szkolenia
szkolenie
szkoleniowa
szkoleniowca
szkoleniowcem
szkolna
szkolne
szkolnego
szkolnej
szkolnictwa
szkolnictwo
szkolno
szkolny
szkolnych
szkolnym
szkoła
szkołach
szkołe
szkoły
szkła
szkło
szla
szlachcic
szlachcica
szlachcicem
szlachcie
szlachecka
szlachecki
szlacheckich
szlacheckie
szlacheckiego
szlacheckiej
szlachetna
szlachetne
szlachetnego
szlachetnej
szlachetnos
szlachetny
szlachetnych
szlachetnym
szlachta
szlachte
szlachty
szlak
szlaki
szlakiem
szlako
szlaku
szli
szlis
szlo
szlubowska
szmat
szmaty
szmer
szmeru
sznur
sznurek
sznury
szo
szopy
szorstko
szos
szosa
szosie
szosowy
szosowym
szosy
szpada
szpade
szpady
szpary
szpieg
szpiego
szpiku
szpital
szpitala
szpitalach
szpitale
szpitali
szpitalu
szt
sztab
sztabie
sztabu
sztafecie
sztafeta
sztafety
sztandar
sztandaru
sztandary
sztetl
sztokholm
sztokholmie
sztuce
sztuczna
sztuczne
sztucznego
sztucznie
sztuczny
sztucznych
sztuk
sztuka
sztukach
sztuke
sztuki
szturm
szturmu
sztylet
sztywna
sztywne
sztywny
szu
szubienicy
szuflady
szuka
szukac
szukaj
szukaja
szukali
szukam
szukania
szukał
szukała
szukałem
szulc
szum
szumem
szumia
szw
szwadron
szwadronu
szwagier
szwagra
szwajcar
szwajcaria
szwajcarii
szwajcarska
szwajcarski
szwajcarskiego
szwajcarskiej
szwarc
szwecja
szwecji
szwed
szwedo
szwedzi
szwedzka
szwedzki
szwedzkich
szwedzkie
szwedzkiego
szwedzkiej
szwedzkim
szwedzko
szwejk
szwolez
szy
szyb
szybciej
szybe
szybka
szybki
szybkich
szybkie
szybkiego
szybkiej
szybkim
szybko
szybkos
szyby
szyc
szych
szyderczo
szydersko
szyderstwa
szyderstwem
szyderstwo
szydło
szyi
szyja
szyje
szyk
szyku
szyldem
szym
szyman
szymi
szymon
szymona
szyn
szynku
szynowy
szył
szła
szło
szły
sł
sła
słaba
słabe
słabego
słabej
słabiej
słabna
słabo
słabos
słabsze
słaby
słabych
słabym
sław
sława
sławe
sławie
sławin
sławna
sławne
sławnego
sławny
sławnych
sławnym
sławomir
sławy
sło
słodka
słodki
słodkich
słodkie
słodkiej
słodkim
słodko
słodycz
słodycza
słodyczy
słoma
słomy
słon
słoneczna
słoneczne
słonecznego
słonecznej
słoneczny
słonecznych
słonecznym
słonia
słoniowej
słow
słowa
słowach
słowacja
słowacji
słowacka
słowacki
słowackich
słowackie
słowackiego
słowackiej
słowacko
słowami
słowem
słowen
słowenia
słowenii
słowian
słowianie
słowie
słowik
słowniczek
słownik
słownika
słownikach
słowniki
słowniku
słowo
słowom
słowotwo
słowy
słszy
słuch
słucha
słuchac
słuchacze
słuchaczy
słuchaj
słuchaja
słuchajcie
słuchali
słucham
słuchał
słuchała
słuchałem
słuchu
słudzy
sług
sługa
sługe
sługi
słup
słupa
słupka
słupsk
słupsku
słupy
słuszna
słuszne
słusznie
słusznos
słuz
sły
słychac
słyna
słynie
słynna
słynne
słynnego
słynnej
słynny
słynnym
słysza
słyszał
słyszała
słyszałam
słyszałem
słyszałes
słysze
słyszec
słyszeli
słyszelis
słyszy
słyszysz
t
ta
tab
tabaki
tabela
tabele
tabeli
table
tablic
tablica
tablice
tablicy
tabor
taboru
tac
tach
tacy
tadeusz
tadeusza
tadeuszt
tadz
tag
tai
taiwpn
taj
taja
tajcie
tajemna
tajemne
tajemnic
tajemnica
tajemnice
tajemnicy
tajemnicza
tajemnicze
tajemniczego
tajemniczej
tajemniczo
tajemniczy
tajemniczych
tajemniczym
tajemnie
tajlandii
tajna
tajne
tajnego
tajnej
tajny
tajnych
tajnym
tajski
tajwan
tak
taka
take
takes
taki
takich
takie
takiego
takiej
takiem
takiemi
takiemu
takim
takimi
tako
takowe
takoz
takso
takson
takt
taktyczny
taktyka
taktyki
takz
tal
talaro
tale
talent
talentem
talento
talentu
talerz
talerze
tales
tali
talk
talks
tallinn
tam
tama
tamara
tamci
tami
tamta
tamte
tamtego
tamtej
tamtejszego
tamtejszej
tamtejszych
tamtejszym
tamten
tamto
tamtych
tamtym
tamy
tamz
tan
tana
tancerka
tancerz
tane
tang
tango
tani
tania
tanie
taniec
tany
tanzanii
tar
tara
taras
tarcza
tarcze
tarczy
targ
targach
targi
targo
targowa
targu
tarno
tarnopol
tarnopolskiego
tarnowa
tarnowie
tarnowski
tarnowskich
tarnowskie
tarnowskiego
tarnowskiej
tartu
tarło
tas
tasz
tata
tatar
tataro
tatarzy
tate
tatiana
tatisticky
tatr
tatrach
tatry
tatrzan
tatus
tau
taxonomic
taxonomy
taylor
taz
tał
tała
tały
tb
tbilisi
tce
tchna
tchnienie
tchnieniem
tcho
tchu
te
team
teams
teatr
teatrach
teatralna
teatralne
teatralnej
teatralny
teatralnych
teatralnym
teatrem
teatro
teatru
teatry
teatrze
teau
teborg
tech
techn
technical
technice
techniczna
techniczne
technicznego
technicznej
techniczny
technicznych
technicznym
technik
technika
technike
techniki
techniko
technikum
technologia
technologie
technologii
technology
teczne
ted
tedy
teen
tego
tegoz
tej
tejz
tek
teki
teks
teksas
teksasie
tekst
tekstach
tekstem
teksto
tekstu
teksty
tel
tela
tele
teledysk
teledyski
teledysku
telefon
telefono
telefonu
telegram
telegrams
telegraph
telekomunikacji
telemagazyn
teleskop
television
telewizja
telewizje
telewizji
telewizyjna
telewizyjne
telewizyjnego
telewizyjnej
telewizyjny
telewizyjnych
telewizyjnym
tell
tem
temat
tematem
temato
tematu
tematy
tematyce
tematyczne
tematyka
tembardziej
temi
temperament
temperamentu
temperatur
temperatura
temperature
temperatury
temperaturze
tempie
temple
tempo
temu
ten
tendencje
tenis
tenisa
tenisista
tenisistka
tenisowe
tenisowy
tennessee
tennis
tenor
tent
tenz
teodor
teodora
teofil
teofila
teolog
teologia
teologiczne
teologicznego
teologicznej
teologicznych
teologicznym
teologie
teologii
teoretyczne
teoretycznej
teoretycznie
teoretyk
teoria
teorie
teorii
teorja
teorji
teoryi
ter
tera
terapia
terapii
teraz
teren
terenach
terenem
terenie
tereno
terenowe
terenowych
terenu
tereny
teresa
teresy
termin
terminal
terminem
terminie
termino
terminologia
terminologii
terminu
terminy
terms
terra
territorial
terror
terroru
terry
teryt
terytoria
terytorialnego
terytorialnej
terytorialny
terytorialnych
terytorialnym
terytorio
terytorium
terytorjalnie
tes
test
testamencie
testament
testamentu
testo
testu
testy
texas
text
tez
tezy
tfrac
tg
th
tha
than
that
the
theater
theatre
thefutoncritic
theguardian
their
them
theme
then
theo
theodor
theodore
theory
therapy
there
these
thet
theta
they
thing
things
think
third
this
thomas
thomasa
thompson
thomson
thor
those
threatened
three
thriller
through
throw
thu
thunder
ti
tica
tichon
tico
tie
tienne
tiger
til
tilastopaja
till
tim
time
times
timing
timothy
tina
tirana
tiranie
title
titles
tituta
tj
tk
tka
tkach
tkami
tkanek
tkanin
tkanina
tkaniny
tkanki
tke
tki
tkich
tkie
tkiego
tkiej
tkiem
tkim
tkliwos
tkna
tknie
tko
tkometraz
tkos
tkowa
tkował
tkowe
tkowego
tkowej
tkowo
tkowski
tkowy
tkowych
tkowym
tku
tkuja
tkwi
tkwia
tky
tla
tle
tlen
tlenu
tli
tm
tna
tnas
tnastu
tnasty
tne
tnego
tnej
tnem
tni
tnia
tniaja
tnicy
tnie
tniej
tnienia
tnik
tnika
tniki
tniko
tno
tnos
tny
tnych
tnym
to
toalety
toba
tobago
tobias
tobie
tobliwos
toby
tobym
toc
tocza
toczy
toczył
toczyła
toczyły
today
todd
todor
together
togo
tojan
tok
tokio
tokrzyski
tokrzyskie
tokrzyskiego
tokrzyskim
toku
tokyo
toledo
tolerancji
tolkien
tom
toma
tomach
tomas
tomasz
tomasza
tomaszewski
tomaszo
tomaszowie
tomaszt
tomatoes
tomek
tomie
tomik
tomka
tommy
tomo
tomorrow
tomu
tomy
ton
tona
tone
tonem
tonga
toni
tonie
tonight
tono
tonu
tony
too
tool
top
tophit
topic
topo
topograficzna
topola
topoli
tor
torach
torby
torebki
torino
toro
toronto
torowy
torped
torpedo
torpedy
torre
torres
tort
torter
tortur
tortury
toru
torun
torunia
toruniu
tory
torze
tos
total
totez
touch
tour
touring
tournament
tourne
tours
tow
towa
towar
towaro
towarowy
towarowych
towaru
towary
towarzyski
towarzyskich
towarzyskie
towarzyskiego
towarzyskim
towarzystw
towarzystwa
towarzystwem
towarzystwie
towarzystwo
towarzysz
towarzysza
towarzyszami
towarzysze
towarzyszem
towarzyszka
towarzyszke
towarzyszki
towarzyszo
towarzyszom
towarzyszu
towarzyszy
towarzyszyc
towarzyszył
towarzyszyła
towarzyszyły
towe
tower
towiec
town
towns
township
towych
toyota
toz
tp
tpic
tpie
tpienia
tpienie
tpił
tpliwa
tpliwe
tpliwie
tpliwos
tr
tra
trac
traca
trace
traci
tracic
tracił
track
tracks
tracy
trad
trade
trading
tradycja
tradycje
tradycji
tradycyjna
tradycyjne
tradycyjnego
tradycyjnej
tradycyjnie
tradycyjny
tradycyjnych
tradycyjnym
traf
trafi
trafia
trafiaja
trafic
trafiony
trafił
trafiła
trafiło
trafiły
trafnie
tragedia
tragedii
tragiczna
tragiczne
tragicznie
tragiczny
train
training
trakcie
trakt
traktat
traktatu
traktowac
traktowane
traktowania
traktowany
traktował
traktuja
traktuje
tramwaj
tramwaje
tramwajo
tramwajowa
tramwajowej
tramwaju
trans
transakcji
transfer
transfermarkt
transferu
transformacji
transkrypcja
translation
transliteracja
transmisji
transport
transportowych
transportu
trap
tras
trasa
trase
trasie
trasy
travel
travers
travis
traw
trawa
trawe
trawie
trawy
trb
tre
treatment
treccani
tree
trek
trend
trener
trenera
trenerem
trenerska
trenerzy
trening
treningi
treningu
trenowac
trenował
tres
trevor
tri
trial
tribune
tribute
trinity
trio
triple
triumf
triumfował
tro
troby
troche
trofeum
trojan
troje
trojmiasto
tron
trondheim
tronie
tronu
trop
trophy
tropicos
trosk
troska
troski
troskliwie
troskliwos
troszcza
troszczyc
troszke
trowy
trucizna
trucizne
trucizny
truck
trud
trudem
trudna
trudne
trudnej
trudniej
trudno
trudnos
trudny
trudnych
trudnym
trudo
trudu
trudy
true
truja
trumna
trumne
trumnie
trumny
trump
trup
trupa
trupem
trupo
trupy
trust
truth
trwa
trwac
trwaja
trwania
trwał
trwała
trwałe
trwało
trwałos
trwały
trwodze
trwoga
trwoge
trwogi
trwoz
tryb
trybie
trybu
trybuna
trybunalski
trybunał
trybunałem
trybunału
trybuny
trylogii
tryumf
tryumfem
tryumfu
tryumfuja
trz
trza
trzask
trzaskiem
trzcin
trzcina
trzciny
trze
trzeba
trzebaby
[...]
