!
"
#
##0
##1
##10
##11
##12
##13
##14
##15
##16
##17
##18
##19
##2
##20
##21
##22
##23
##24
##25
##26
##27
##28
##29
##3
##30
##31
##32
##33
##34
##35
##36
##37
##38
##39
##4
##40
##41
##42
##43
##44
##45
##46
##47
##48
##49
##5
##50
##51
##52
##53
##54
##55
##56
##57
##58
##59
##6
##60
##61
##62
##63
##64
##65
##66
##67
##68
##69
##7
##70
##71
##72
##73
##74
##75
##76
##77
##78
##79
##8
##80
##81
##82
##83
##84
##85
##86
##87
##88
##89
##9
##90
##91
##92
##93
##94
##95
##96
##97
##98
##99
$
%
&
'
(
)
*
+
,
-
.
/
0
00
000
001
002
003
007
01
02
03
04
05
06
07
08
09
1
10
100
1000
10000
1001
101
102
1024
103
104
105
1050
106
107
108
1080
1086
109
11
110
1100
111
112
113
1130
114
115
1150
116
117
118
1180
119
12
120
1200
1204
121
122
1220
123
1230
1234
124
1240
1241
125
1250
1253
1254
1257
126
1260
1269
127
1270
1278
128
1280
1282
1287
1288
129
1290
1291
1294
1295
1296
13
130
1300
1305
1308
1309
131
1310
1312
132
1320
1325
1326
1327
1328
133
1330
1333
1335
1337
134
1340
1345
1346
1348
135
1350
136
1360
1364
137
1370
1375
1377
1378
138
1380
1382
1384
1385
1386
1387
1388
1389
139
1390
1392
1394
1397
1398
1399
14
140
1400
1401
1402
1405
1408
1409
141
1410
1411
1412
1413
1414
1415
1417
1418
1419
142
1420
1421
1422
1424
1425
1426
1427
1428
1429
143
1430
1431
1432
1433
1434
1435
1437
1439
144
1440
1441
1442
1443
1444
1445
1447
1448
1449
145
1450
1452
1453
1454
1455
1456
1457
1458
1459
146
1460
1461
1462
1463
1464
1465
1466
1467
1468
1469
147
1470
1471
1472
1473
1474
1475
1476
1477
1478
1479
148
1480
1482
1483
1484
1485
1487
1488
1489
149
1490
1491
1492
1493
1494
1495
1496
1497
1498
1499
15
150
1500
1501
1502
1503
1504
1505
1506
1507
1508
1509
151
1510
1511
1512
1513
1514
1515
1516
1517
1518
1519
152
1520
1521
1522
1523
1524
1525
1526
1527
1528
1529
153
1530
1531
1532
1533
1534
1535
1536
1537
1538
1539
154
1540
1541
1542
1543
1544
1545
1546
1547
1548
1549
155
1550
1551
1552
1553
1554
1555
1556
1557
1558
1559
156
1560
1561
1562
1563
1564
1565
1566
1567
1568
1569
157
1570
1571
1572
1573
1574
1575
1576
1577
1578
1579
158
1580
1581
1582
1583
1584
1585
1586
1587
1588
1589
159
1590
1591
1592
1593
1594
1595
1596
1597
1598
1599
16
160
1600
1601
1602
1603
1604
1605
1606
1607
1608
1609
161
1610
1611
1612
1613
1614
1615
1616
1617
1618
1619
162
1620
1621
1622
1623
1624
1625
1626
1627
1628
1629
163
1630
1631
1632
1633
1634
1635
1636
1637
1638
1639
164
1640
1641
1642
1643
1644
1645
1646
1647
1648
1649
165
1650
1651
1652
1653
1654
1655
1656
1657
1658
1659
166
1660
1661
1662
1663
1664
1665
1666
1667
1668
1669
167
1670
1671
1672
1673
1674
1675
1676
1677
1678
1679
168
1680
1681
1682
1683
1684
1685
1686
1687
1688
1689
169
1690
1691
1692
1693
1694
1695
1696
1697
1698
1699
17
170
1700
1701
1702
1703
1704
1705
1706
1707
1708
1709
171
1710
1711
1712
1713
1714
1715
1716
1717
1718
1719
172
1720
1721
1722
1723
1724
1725
1726
1727
1728
1729
173
1730
1731
1732
1733
1734
1735
1736
1737
1738
1739
174
1740
1741
1742
1743
1744
1745
1746
1747
1748
1749
175
1750
1751
1752
1753
1754
1755
1756
1757
1758
1759
176
1760
1761
1762
1763
1764
1765
1766
1767
1768
1769
177
1770
1771
1772
1773
1774
1775
1776
1777
1778
1779
178
1780
1781
1782
1783
1784
1785
1786
1787
1788
1789
179
1790
1791
1792
1793
1794
1795
1796
1797
1798
1799
18
180
1800
1801
1802
1803
1804
1805
1806
1807
1808
1809
181
1810
1811
1812
1813
1814
1815
1816
1817
1818
1819
182
1820
1821
1822
1823
1824
1825
1826
1827
1828
1829
183
1830
1831
1832
1833
1834
1835
1836
1837
1838
1839
184
1840
1841
1842
1843
1844
1845
1846
1847
1848
1849
185
1850
1851
1852
1853
1854
1855
1856
1857
1858
1859
186
1860
1861
1862
1863
1864
1865
1866
1867
1868
1869
187
1870
1871
1872
1873
1874
1875
1876
1877
1878
1879
188
1880
1881
1882
1883
1884
1885
1886
1887
1888
1889
189
1890
1891
1892
1893
1894
1895
1896
1897
1898
1899
19
190
1900
1901
1902
1903
1904
1905
1906
1907
1908
1909
191
1910
1911
1912
1913
1914
1915
1916
1917
1918
1919
192
1920
1921
1922
1923
1924
1925
1926
1927
1928
1929
193
1930
1931
1932
1933
1934
1935
1936
1937
1938
1939
194
1940
1941
1942
1943
1944
1945
1946
1947
1948
1949
195
1950
1951
1952
1953
1954
1955
1956
1957
1958
1959
196
1960
1961
1962
1963
1964
1965
1966
1967
1968
1969
197
1970
1971
1972
1973
1974
1975
1976
1977
1978
1979
198
1980
1981
1982
1983
1984
1985
1986
1987
1988
1989
199
1990
1991
1992
1993
1994
1995
1996
1997
1998
1999
2
20
200
2000
2001
2002
2003
2004
2005
2006
2007
2008
2009
201
2010
2011
2012
2013
2014
2015
2016
2017
2018
2019
202
2020
2021
2022
2023
2024
2025
2029
203
2030
204
2044
205
206
207
208
209
21
210
2100
211
212
213
214
215
216
217
218
219
22
220
2200
221
222
223
224
225
226
227
228
229
2290
2293
23
230
2300
231
232
233
2335
234
235
236
237
238
239
24
240
2400
241
242
243
244
245
246
247
248
249
25
250
2500
251
252
253
254
255
256
257
258
259
26
260
2600
261
262
263
264
265
266
267
268
269
27
270
2700
271
272
273
274
275
276
277
278
279
28
280
2800
281
282
283
284
285
286
287
288
2880
289
29
290
291
292
293
294
295
296
297
298
299
3
30
300
3000
3001
301
302
3020
303
304
305
306
307
308
309
31
310
311
312
313
314
315
316
3166
317
318
319
32
320
3200
321
322
323
324
325
326
327
328
329
33
330
331
332
333
334
335
336
337
338
339
34
340
341
342
343
344
345
346
347
348
349
35
350
3500
351
352
353
354
355
356
357
358
359
36
360
361
362
363
364
365
366
367
368
369
37
370
371
372
373
374
375
376
377
378
379
38
380
381
382
383
384
385
386
387
388
389
39
390
391
392
393
394
395
396
397
398
399
4
40
400
4000
401
402
403
404
405
406
407
408
409
41
410
411
412
413
414
415
416
417
418
419
42
420
421
422
423
424
425
426
427
428
429
43
430
431
432
433
434
435
436
437
438
439
44
440
441
442
443
444
445
446
447
448
449
45
450
4500
451
452
453
454
455
456
457
458
459
46
460
461
462
463
464
465
466
467
468
469
47
470
471
472
473
475
476
478
479
48
480
481
482
483
484
485
486
488
49
490
491
492
493
495
496
498
499
5
50
500
5000
501
502
503
504
505
506
507
508
509
51
510
511
512
513
514
515
516
517
518
52
520
521
522
523
525
527
53
530
531
533
534
535
536
54
540
541
543
545
55
550
5500
551
552
555
56
560
565
57
570
575
576
58
580
585
59
590
6
60
600
6000
601
603
604
605
609
61
610
613
614
615
618
62
620
625
63
630
631
634
636
638
64
640
65
650
66
660
666
667
67
670
675
68
680
69
690
7
70
700
7000
701
705
707
71
710
72
720
727
73
730
737
74
740
747
75
750
76
760
767
77
770
777
78
780
787
79
797
8
80
800
8000
802
805
81
810
82
820
83
830
84
840
845
85
850
86
860
87
870
8759
88
880
89
9
90
900
9000
91
911
92
93
94
95
950
96
960
963
965
97
978
98
980
99
999
:
;
<
=
>
?
@
\
^
_
`
a
aa
aaa
aarhus
aaron
aarona
ab
aba
abba
abbas
abbey
abbott
abc
abchazji
abd
abdul
abdykacji
abe
abel
aberdeen
abi
abo
aborcji
about
above
abp
abraham
abrahama
abs
absolutna
absolwenci
absolwent
absolwentem
absolwentka
absolwento
abteilung
abu
aby
abym
abys
ac
acade
academia
academic
academy
acc
access
ace
ach
acid
acja
acje
acji
acka
acki
ackich
ackiego
ackim
acoustic
act
acta
action
active
acy
aczkolwiek
ad
ada
adam
adama
adamczyk
adamem
adamo
adams
adaptacja
adaptacje
adaptacji
adaptowany
adelaide
aden
adiunkt
adiunkta
adiunktem
adiutant
adiutanta
adiutantem
adler
adm
administracja
administracje
administracji
administracyjna
administracyjne
administracyjnego
administracyjnej
administracyjnie
administracyjno
administracyjny
administracyjnych
administracyjnym
administracyjnymi
administration
administrator
administratora
administratorem
admiral
admiralicji
admirał
admirała
admirałowie
adna
adne
adnego
adnej
adnych
adnym
adobe
adolf
adolfa
adres
adresem
adresu
adria
adrian
adriana
adult
advance
advanced
adventure
adventures
adwentysto
adwokaci
adwokacka
adwokackiej
adwokat
adwokata
adz
ae
aek
aequo
aero
aeroklub
aeroklubu
af
afc
afera
afery
affaires
affairs
afgan
afganistan
afganistanie
afganistanu
africa
african
afroamerykan
afryce
afryka
afrykan
afryke
afryki
after
ag
again
against
agan
agaricales
agaricomycetes
agaricomycetidae
agaricomycotina
agaricus
agata
agaty
age
agenci
agencja
agencje
agencji
agency
agent
agenta
agentem
agentka
agento
agh
aglomeracji
agnes
agnieszka
agnieszki
agora
agostino
agresja
agresji
aguilera
aguilery
ah
ahl
ahmad
ahmed
ai
aids
aim
ain
air
airbus
aircraft
aires
airlines
airplay
airport
airways
ais
aise
aisne
aix
aj
aja
ajax
ak
aka
akademia
akademicka
akademicki
akademickich
akademickie
akademickiego
akademickiej
akademickim
akademie
akademii
akarcie
akcent
akceptacji
akcie
akcja
akcjach
akcje
akcji
akcyjna
akcyjne
akcyjnej
aki
akira
ako
akordeon
akrobatyczne
aks
akt
akta
aktach
aktem
akto
aktor
aktora
aktorem
aktorka
aktorke
aktorki
aktoro
aktorska
aktorski
aktorskie
aktorskiego
aktorskiej
aktorskim
aktorstwa
aktorstwo
aktorzy
aktu
aktualizacja
aktualizacji
aktualizowany
aktualna
aktualne
aktualnej
aktualnie
aktualnos
aktualny
aktualnych
aktualnym
akty
aktywacji
aktywisto
aktywna
aktywne
aktywnego
aktywnej
aktywnie
aktywnos
aktywny
aktywnych
aktywnym
aktywo
akumulatoro
akurat
akustyczna
akustyczne
akwarium
akwinu
akwitania
akwitanii
al
ala
alabama
alain
alaksandr
alan
alana
aland
alarm
alasce
alaska
alaski
alb
alba
alban
albania
albanii
albany
albatros
albert
alberta
alberto
albertville
albin
albion
albo
albowiem
albrecht
albrechta
album
albumach
albumem
albumie
albumo
albums
albumu
albumy
aldo
ale
alec
alego
alegre
alei
aleja
alejandro
aleje
aleksander
aleksandr
aleksandra
aleksandrem
aleksandrii
aleksandro
aleksandrowicz
aleksandry
aleksandryjskiej
aleksego
aleksiej
aleksieja
aleksy
aleppo
alessandro
alex
alexa
alexander
alexandra
alexandre
alexis
alfa
alfabet
alfabetu
alfons
alfonsa
alfonso
alfred
alfreda
alfredo
algebra
algebry
algieria
algierii
algorytm
algorytmo
algorytmu
algorytmy
ali
alianci
alianckich
alianckie
alianto
alias
alicante
alice
alicia
alicja
alicji
align
alignbars
alina
alison
alive
alkohol
alkoholu
all
alla
allah
allan
alle
allegro
allen
allena
allgemeine
alliance
allier
allison
allmusic
alma
almanach
alne
alojzego
alojzy
alone
alonso
alp
alpach
alpejscy
alpejska
alpejski
alpejskie
alpejskiej
alpejskim
alpen
alpha
alphonse
alpine
alpy
als
alt
alta
alter
alternatywa
alternatywna
alternatywne
alternatywnego
alternatywnej
alternatywny
alternatywnych
alternatywy
alto
alu
aluminium
always
alzacji
am
amanda
amateur
amator
amatoro
amatorska
amatorski
amatorskich
amatorskie
amatorskiego
amatorskiej
amatorskim
amazing
amazon
amazonki
ambasada
ambasador
ambasadora
ambasadorem
ambasadorowie
ambasady
ambasadzie
amber
ambicje
ambona
ambrose
ambroz
amd
ame
amelia
america
american
americans
ameryce
ameryka
amerykan
amerykanie
amerykanin
amerykanina
amerykanka
amerykano
ameryke
ameryki
ami
amiens
amiga
amin
aminokwaso
amnestii
amor
amore
amos
amour
ampezzo
amsterdam
amsterdamie
amsterdamu
amt
amunicja
amunicje
amunicji
amy
an
ana
anach
anaheim
analiz
analiza
analize
analizie
analizuja
analizy
analogiczne
analogicznie
analysis
anarchis
anastasija
anatol
anatolii
anatolij
anatomia
anatomii
ancient
and
andaluzji
andarmerii
andegawen
anders
andersa
andersen
anderson
andersona
andersson
ando
andory
andra
andre
andrea
andreas
andreasa
andrei
andrej
andrew
andrews
andriej
andrieja
andrij
android
andrzej
andrzeja
andrzejem
andrzejewski
andy
ane
aneksji
aneta
ang
angaz
angel
angela
angeles
angelo
angels
angers
angielscy
angielska
angielski
angielskich
angielskie
angielskiego
angielskiej
angielskim
angielsko
angielskoje
angielsku
angle
anglia
anglicy
anglie
anglii
anglik
anglikan
angliko
anglo
angloje
angola
angoli
anhalt
ani
ania
anie
aniec
aniela
aniem
animacja
animacji
animal
animals
animation
animator
anime
animowane
animowanego
animowany
animowanych
animowanym
anioł
anioła
anioło
anioły
anita
aniu
aniz
anka
ankara
anki
ankry
ann
anna
annales
anne
annie
anniversary
anno
annual
anny
ano
anonimowe
anonimowy
another
anowski
ans
ant
anta
antarktydy
ante
antena
antenie
anteny
anthony
anti
antiochii
anto
antoine
antologia
antologie
antologii
anton
antona
antoni
antonia
antoniego
antonim
antonina
antoniny
antonio
antropolog
antropologia
antropologii
antwerpia
antwerpii
anty
antycznej
antycznych
antykatolickich
antykomunistycznego
antykomunistycznej
antypapiez
antyrza
anu
anulowany
any
anych
ao
ap
aparat
aparato
aparatu
aparatury
aparaty
apel
apelacyjny
apelu
apertura
apg
api
aplikacja
aplikacje
aplikacji
apogeum
apokalipsy
apollo
apostolscy
apostolska
apostolski
apostolskich
apostolskiego
apostolskiej
apostolskim
apostoł
apostoła
apostoło
apple
applications
april
apteka
apweb
ar
ara
arab
arabia
arabii
arabo
arabowie
arabska
arabski
arabskich
arabskie
arabskiego
arabskiej
arabskim
arad
aragon
aragonii
aranz
arbitraz
arc
arch
archanioła
archeolodzy
archeolog
archeologia
archeologiczne
archeologicznego
archeologicznych
archeologii
archeologo
archidiecezja
archidiecezji
archimandryta
archimandryty
archipelag
archipelagu
architecture
architekci
architekt
architekta
architektem
architekto
architektoniczna
architektoniczne
architektonicznego
architektonicznej
architektoniczny
architektonicznych
architektonicznym
architektura
architekture
architektury
architekturze
archiv
archive
archives
archiwa
archiwach
archiwalne
archiwalnych
archiwo
archiwum
arcybiskup
arcybiskupa
arcybiskupem
arcybiskupi
arcybiskupstwa
arcyksia
arcyksie
arcymistrz
arcymistrzowie
ardeny
ardz
are
area
arem
arena
arenie
areny
areszcie
areszt
aresztowan
aresztowana
aresztowani
aresztowania
aresztowanie
aresztowaniem
aresztowaniu
aresztowano
aresztowany
aresztowanych
aresztu
argentina
argentyn
argentyna
argentynie
argentyny
args
argument
argumento
argumentuja
argumenty
ari
aria
arian
arie
ariel
arizona
ark
arka
arkadiusz
arkady
arkansas
arki
arkusz
arles
arlington
arm
armand
armando
armat
armata
armate
armaty
armen
armenia
armenii
armia
armie
armii
armijnego
armijny
armin
armor
arms
armstrong
army
arna
arne
arnej
arno
arnold
arnolda
aro
arol
aron
around
arowe
arowej
arowych
arrow
ars
arsenal
arsenalu
arsenał
arsenału
art
artagnan
arte
arthur
arthura
article
artis
artist
artists
arts
artur
artura
arturo
artykule
artykuł
artykułach
artykuło
artykułu
artykuły
artyleria
artylerie
artylerii
artyleryjska
artyleryjski
artyleryjskich
artyleryjskie
artyleryjskiego
artyleryjskim
artys
artysta
artystami
artyste
artystka
artystki
artysto
artysty
artystyczna
artystyczne
artystycznego
artystycznej
artystyczny
artystycznych
artystycznym
aru
ary
arystokracja
arystokracji
arystokrata
arystoteles
arystotelesa
arze
as
asa
asad
asada
asahi
ascomycota
ash
ashley
asia
asian
aso
asp
aspekcie
aspekt
aspekto
aspekty
aspen
asrr
ass
asseco
assembly
associated
association
astana
asteroid
aston
astra
astronauci
astronauta
astronauto
astronom
astronoma
astronomia
astronomiczne
astronomicznego
astronomicznych
astronomii
astronomowie
asuncio
asy
asyrii
asys
asyst
asyste
asystenci
asystent
asystenta
asystentem
asystentka
asystento
asystował
asysty
asyz
asz
aszur
at
ata
atak
atakach
atakami
ataki
atakiem
atako
atakowac
atakował
ataku
atakuja
atakuje
atari
atc
ateis
atelier
aten
atenach
ateneum
ateny
athletic
athletics
athos
atlancie
atlanta
atlantic
atlantis
atlanty
atlantyckie
atlantyckiego
atlantyckim
atlantyk
atlantyku
atlas
atle
atletyki
atmosfera
atmosfere
atmosfery
atmosferyczne
atmosferycznych
atmosferze
atolu
atom
atomo
atomowa
atomowej
atomowych
atomu
atomy
atp
atrakcja
atrakcje
atrakcji
atrakcyjnos
atrapa
atrybuty
attache
attack
attyka
atut
au
aube
auckland
aude
audi
audio
auditorium
audrey
audycja
audycje
audycji
auf
augsburg
augsburski
augsburskiego
augsburskim
august
augusta
auguste
augustin
augusto
augustus
augustyn
augustyna
aukcji
aurora
aus
auschwitz
austin
australia
australian
australie
australii
australijczyk
australijscy
australijska
australijski
australijskich
australijskie
australijskiego
australijskiej
australijskim
austria
austriaccy
austriacka
austriacki
austriackich
austriackie
austriackiego
austriackiej
austriackim
austriacko
austriacy
austriak
austriako
austrie
austrii
austro
aut
auta
autentycznos
authority
auto
autobiografia
autobus
autobuso
autobusowa
autobusowe
autobusowy
autobusowych
autobusu
autobusy
autokefalicznego
automat
automatyczna
automatyczne
automatycznego
automatycznie
automatyczny
automatyki
autonomia
autonomiczna
autonomiczne
autonomicznego
autonomicznej
autonomiczny
autonomicznym
autonomie
autonomii
autoportret
autor
autora
autorami
autorem
autorka
autorki
autoro
autorska
autorski
autorskich
autorskie
autorskiego
autorstwa
autorstwo
autorytet
autorzy
autosan
autostrad
autostrada
autostrady
autostradzie
aux
auxerre
av
ava
ave
avec
avengers
avenue
aviation
aw
awa
awangardy
awans
awanse
awansem
awansie
awansowac
awansowali
awansowany
awansował
awansowała
awansowało
awansowały
awansu
awansuja
award
awards
awaria
awarii
away
awca
awd
awe
awers
awersie
awf
awiw
awiwie
awiwu
aws
awy
ax
axel
az
azerbejdz
azerski
aziz
azja
azjatyckich
azjatyckie
azjatyckiej
azje
azji
azotu
azs
azul
azyl
ał
ała
ałmaty
ało
ałoby
ały
b
ba
baas
baba
babci
babcia
babilon
babilonu
babin
babka
baby
bac
baca
bach
bacha
bachelor
back
bacz
baczyn
bad
bada
badacz
badacza
badacze
badaczy
badaja
badan
badane
badania
badaniach
badaniami
badanie
badaniem
badaniom
badaniu
badanych
badawcza
badawcze
badawczego
badawczej
badawczo
badawczy
badawczych
badawczym
badał
baden
badenia
badenii
bae
bafta
bagaz
bagdadu
bagdadzie
bagien
bagna
bagno
bahia
bahn
bahrajnu
bailey
bajek
bajka
bajki
baker
bakterie
bakterii
baku
bal
bala
baldwin
balet
baletu
bali
balin
ball
ballad
ballada
ballady
ballet
baltic
baltimore
balu
balustrada
bami
ban
banacha
band
banda
bandera
bandy
bang
bangkok
bangkoku
bangladeszu
bani
banja
bank
banki
bankier
banknoto
banknoty
banko
bankowego
bankowos
banks
banku
baonu
baptiste
baptysto
bar
bara
baran
barano
baranowski
baraz
barbara
barbare
barbary
barbarzyn
barcelona
barcelonie
barcelony
bardziej
bardzo
bari
bariere
bariery
barki
barnes
barokowa
barokowe
barokowy
barokowym
baroku
baron
barona
barrett
barrichello
barry
barskiej
bart
bartek
bartolomeo
barton
bartosz
bartosza
bartłomiej
bartłomieja
baru
barw
barwa
barwach
barwe
barwie
barwne
barwy
baryton
barze
bas
base
baseball
baseballis
baseballista
based
basel
basen
basenie
basenu
basic
basidiomycota
basis
basista
basket
basketball
basko
basowa
bass
bastien
bastion
baszta
baszty
bat
batalion
batalionem
batalionie
bataliono
batalionu
bataliony
bate
bateria
baterie
baterii
bates
bath
batman
batorego
batory
battista
battle
bauer
bawaria
bawarii
bawełny
bay
bayer
bayern
bayernu
bayley
bayreuth
baz
baza
bazach
baze
bazie
bazuja
bazuje
bazy
bazylea
bazylego
bazylei
bazyli
bazylice
bazylika
bazyliki
bałkan
bałkanach
bałtycka
bałtyckich
bałtyckie
bałtyckiego
bałtyckiej
bałtyckim
bałtyk
bałtyku
bb
bbc
bc
bce
bd
bdfutbol
be
beach
bear
beast
beat
beata
beatles
beatrice
beatrycze
beatyfikowani
beau
beaumont
beautiful
beauty
beaux
beaver
bec
beck
becker
becky
bedford
bednarek
bee
been
beer
beethoven
beethovena
before
begin
behind
bei
being
bejrucie
bek
bel
bela
bele
belg
belgia
belgii
belgijscy
belgijska
belgijski
belgijskie
belgijskiego
belgijskiej
belgijskim
belgrad
belgradu
belgradzie
believe
belize
belka
belki
bell
bella
belle
bellona
belo
bem
bema
ben
bena
bene
benedykt
benedykta
benedyktyn
benedyktyno
benes
benfica
benito
benjamin
benjamina
bennett
benny
benson
benton
benz
benzynowy
ber
berg
bergamo
bergen
berger
bergman
berkeley
berkshire
berlin
berlina
berlinem
berliner
berlinie
bernard
bernarda
bernardino
bernardo
bernardyn
bernardyno
bernhard
bernie
berno
berry
bert
bertrand
bes
beskid
beskidu
beskidzie
best
bestia
bet
beta
beth
betlejem
betonu
better
betty
between
beverly
beyonce
beyond
bez
bezkre
bezpartyjny
bezpieczen
bezpieczna
bezpieczne
bezpiecznie
bezpos
bezpłatne
bezpłatnie
bezpłatny
bezrobocia
bezrobocie
bezrobotnych
bezskutecznie
bezwzgle
bezwładnos
bełchato
bełz
bf
bg
bi
bia
biaja
biali
bialskim
biarz
biarza
biarze
biathlon
biathlonie
biathlonista
biathlonistka
biał
biała
białe
białego
białegostoku
białej
białek
białka
białko
biało
białorus
białoruscy
białorusi
białorusia
białorusini
białorusino
białoruska
białoruski
białoruskich
białoruskie
białoruskiego
białoruskiej
białoruskim
białostocka
białostocki
białostockie
białostockiego
białostockiej
białostockim
białowieskiej
białowiez
biały
białych
białym
białymi
białymstoku
białystok
bible
biblia
biblie
biblii
biblijna
biblijne
biblijnego
biblijnej
biblijny
biblijnych
bibliografia
bibliografii
bibliotece
bibliotek
biblioteka
bibliotekarz
biblioteke
biblioteki
bic
bica
bice
bicia
bicie
bicki
bickim
bicy
bie
biec
biednych
bieg
biegach
biegacz
biegacze
biegaczka
biegaczy
biegi
biegiem
biegle
biegna
biegnie
biego
biegowa
biegowe
biegu
biegun
bieguna
biegła
biej
biel
bielan
bielany
bielecki
bielefeld
bieli
bielin
bielsk
bielska
bielski
bielskich
bielskiego
bielskiej
bielskim
bielsko
bielsku
biem
bien
bienia
bienie
biennale
bierze
bieszczadach
bieta
biete
biety
biez
big
bihor
bija
bik
bilans
bilansu
bilbao
bilet
bileto
bilety
bill
billa
billboard
billie
billy
bin
bina
bing
bingham
binowych
bio
biochemii
biografia
biograficzna
biograficzne
biograficzny
biograficznym
biografie
biografii
biogram
biogramy
biographie
biography
biolog
biologia
biologiczna
biologiczne
biologicznej
biologicznych
biologii
biology
biona
bione
biony
biora
biorca
biorco
biorcy
biorczos
biorstw
biorstwa
biorstwach
biorstwem
biorstwie
biorstwo
biosfery
biotechnologii
biotop
bip
bird
birdlife
birds
birkenau
birman
birmingham
birmy
bis
bischofshofen
bishop
biskup
biskupa
biskupem
biskupi
biskupia
biskupie
biskupiego
biskupiej
biskupim
biskupo
biskupowi
biskupstwa
biskupstwo
bismarck
bismarcka
bissau
bit
bita
bite
bitew
bito
bitwa
bitwach
bitwe
bitwie
bitwy
bity
biu
biuletyn
biur
biura
biurem
biuro
biurowe
biurowiec
biurze
biz
bizancjum
bizantyjskiego
bizantyjsko
bizantyn
biznes
biznesie
biznesmen
biznesowych
biznesu
bił
biłgoraj
bjo
bk
bka
bke
bki
bko
bkowane
bks
bl
bla
blacha
blachy
black
blackburn
blade
blair
blake
blanc
blanca
blanche
blanco
blask
blast
blaszka
blaszki
ble
blewski
blin
blind
blinie
bliska
bliski
bliskich
bliskie
bliskiego
bliskiej
bliskim
blisko
bliskos
bliss
bliz
blizzard
block
blog
blok
blokada
blokade
blokady
bloki
bloko
bloku
blokuja
blood
bloom
blu
blue
blues
bluesa
bluetooth
bm
bmatrix
bmg
bmw
bn
bna
bne
bnego
bnej
bnie
bniony
bno
bnos
bny
bnych
bnym
bo
boa
board
boat
bob
boba
bobby
boboli
bobsleista
bobsleje
boc
boca
bochen
bochni
bochnia
bochum
bocian
bockim
boczna
boczne
bocznego
bocznej
bocznie
boczny
bocznych
bocznym
bocznymi
body
bodz
boeing
boeinga
boga
bogactwa
bogactwo
bogata
bogate
bogatego
bogatej
bogato
bogaty
bogatych
bogatym
bogdan
bogdana
bogiem
bogini
boginie
bogo
bogowie
bogu
bogumił
bogumiła
bogurodzicy
bogusław
bogusława
bogusławskiego
bohater
bohatera
bohaterami
bohaterem
bohaterka
bohaterki
bohatero
bohaterowie
bohdan
bohdana
boi
bois
boiska
boiskach
boisko
boisku
boja
boje
bojo
bojowa
bojowe
bojowego
bojowej
bojownicy
bojowniko
bojowy
bojowych
bojowym
boju
bok
boka
bokach
boki
bokich
bokie
bokiego
bokiej
bokiem
bokim
boko
bokos
boks
bokser
bokserzy
boksie
boksu
boku
boldsymbol
boles
bolesnej
bolesław
bolesława
boli
bolid
bolidu
boliwia
boliwii
bolko
bologna
bolonia
bolonii
bolszewicka
bolszewickiej
bolszewicy
bolszewikami
bolszewiko
bolton
bom
bomb
bomba
bombami
bombardowan
bombardowania
bombardowanie
bombe
bombowca
bombowce
bombowco
bombowe
bombowego
bombowiec
bombowy
bombowych
bombowym
bomby
bon
bonaparte
bond
bone
bones
boniecki
bonn
bonnie
bono
bonus
bonusowe
boogie
book
books
boom
boone
boot
booto
bor
bora
bordeaux
border
borek
boris
borki
borkowski
born
borneo
boro
borough
borowski
boru
borussia
borussii
bory
borys
borysa
borze
bos
bosch
boska
boskie
boskiej
boss
boston
bostonie
bostonu
boszniacy
bot
botafogo
botanicznego
botaniczny
botanik
botanika
botaniki
bottom
boulevard
boulogne
bound
bourbon
bowa
bowac
bowali
bowano
bował
bowała
bowały
bowe
bowego
bowej
bowie
bowiem
bowl
bowo
bowy
bowych
bowym
box
boxing
boxshall
boy
boya
boyd
boyle
boys
boz
bp
bpa
br
bra
brac
braci
bracia
bracie
bractwa
bractwo
brad
bradford
bradley
brady
braga
brain
brak
braki
brakiem
brakowało
braku
brakuja
brakuje
brali
bram
brama
bramce
brame
bramek
bramie
bramka
bramkami
bramkarz
bramkarza
bramkarzem
bramkarzy
bramke
bramki
bramy
bran
branco
brand
brandenburg
brandenburgia
brandenburgii
brandon
brandt
brandu
braniewie
braniewo
branz
brasil
brasileiro
brasławskim
brat
brata
bratanek
bratanka
bratem
bratislava
bratu
bratysława
bratysławie
braun
brave
bravo
brazylia
brazylii
brazylijczyk
brazylijscy
brazylijska
brazylijski
brazylijskie
brazylijskiego
brazylijskiej
brazylijskim
brał
brała
brało
brały
brda
brdy
bre
break
breaking
breckenridge
bree
brema
bremie
brenda
brendan
brent
brescia
brescii
breslau
bret
bretania
bretanii
breton
brett
brez
brian
briana
bridge
bridges
brien
brigade
bright
brighton
brigitte
brindisi
brisbane
bristol
bristolu
britain
british
britney
brnie
brno
bro
broadcasting
broadway
broadwayu
broda
brodnica
brodnicy
brody
broken
bron
broni
bronia
bronic
bronili
bronisław
bronisława
bronił
broniła
brook
brooke
brooklyn
brooklynie
brooks
bros
brother
brothers
browa
browar
browaru
browary
browie
brown
browna
browning
browska
browski
browskiego
browskim
browy
broz
brt
bru
bruce
brugge
bruins
bruksela
brukseli
brunatne
brunatnego
brunatny
brunei
bruno
brunona
brunszwik
brunszwiku
brutalnie
brutto
bryan
bryant
brydz
bryg
brygad
brygada
brygade
brygady
brygadzie
brytania
brytanie
brytanii
brytyjczycy
brytyjczyk
brytyjczyko
brytyjscy
brytyjska
brytyjski
brytyjskich
brytyjskie
brytyjskiego
brytyjskiej
brytyjskim
brytyjskimi
brytyjsko
bryła
bryły
brze
brzeg
brzegach
brzegami
brzegi
brzegiem
brzego
brzegowa
brzegowej
brzegu
brzes
brzeska
brzeski
brzeskiego
brzeskiej
brzeskim
brzesko
brzez
brzezin
brzeziny
brzmi
brzmia
brzmiał
brzmiała
brzmienia
brzmienie
brzmieniu
brzo
brzoza
brzozo
brzozowski
brzozy
brzuch
brzucha
brzusznej
bs
bsc
bska
bski
bskiego
bsrr
bt
bu
buck
bucks
bud
buda
budapest
budapeszcie
budapeszt
budapesztu
budda
buddhism
buddy
buddyjska
buddyjskich
buddyjskie
buddyzm
buddyzmu
budowa
budowac
budowana
budowane
budowania
budowanie
budowano
budowany
budowanych
budowe
budowie
budowla
budowlana
budowlane
budowlanego
budowlanej
budowlani
budowlany
budowlanych
budowlanym
budowle
budowli
budownictwa
budownictwie
budownictwo
budowniczy
budowniczych
budowy
buduja
buduje
budy
budynek
budynkach
budynkami
budynki
budynkiem
budynko
budynku
budz
budza
budzi
budzyn
buenos
buffalo
bug
bugiem
bugu
building
buja
buje
buk
bukareszcie
bukareszt
bukowiec
bukowina
bukowski
bull
bulla
bulle
bullet
bulletin
bulli
bulls
bund
bundeslidze
bundesliga
bundesligi
bundestagu
bunt
buntu
burbon
burbono
bureau
burgos
burgundia
burgundii
burke
burkina
burmistrz
burmistrza
burmistrzem
burmistrzowie
burn
burning
burns
burt
burte
burton
burundi
bury
burz
burza
burze
burzy
bus
bush
busha
business
but
butler
buto
butterfly
buty
buza
bułg
bułgaria
bułgarii
bułgarscy
bułgarska
bułgarski
bułgarskich
bułgarskie
bułgarskiego
bułgarskiej
bułgarskim
bwa
by
byc
bycia
bycie
bydgoska
bydgoski
bydgoskich
bydgoskie
bydgoskiego
bydgoskiej
bydgoskim
bydgoszcz
bydgoszcza
bydgoszczy
bydła
bydło
byka
byle
byli
bylina
byliny
bym
byrne
byron
bys
bystra
bystrzyca
bystrzycy
byt
byto
bytom
bytomia
bytomiu
bytu
bywa
bywaja
bywał
był
była
byłaby
byłby
byłe
byłego
byłej
byłem
było
byłoby
były
byłyby
byłych
byłym
bzura
bł
bła
błaz
błe
błogosławien
błogosławieni
błogosławiona
błogosławiony
błon
błona
błonie
błonko
błony
błota
błyskawica
błyszcza
c
ca
cac
cach
caen
cafe
cage
cagliari
caja
cal
cala
calais
calcio
caldero
cale
calgary
cali
california
call
calowe
calvados
calvin
cam
cambridge
cambridgeshire
camera
cameron
cami
camille
camp
campbell
campeonato
campo
campos
can
canada
canadian
canal
cancer
candy
cania
canie
cannes
canon
canterbury
cao
cap
cape
capital
capitol
cappella
captain
car
cara
caracas
card
cardiff
cardinals
care
carex
carey
cargo
caritas
carl
carla
carlisle
carlo
carlos
carlosa
carlton
carmen
carnegie
caro
carol
carolina
caroline
carpenter
carr
carrie
carroll
cars
carskich
carskie
carskiej
carson
carter
cartoon
casa
casablanca
case
cases
casey
cash
casino
cass
cassidy
cassino
castello
castillo
casting
castle
castro
cat
catalogue
catalunya
catarina
catch
cathedral
catherine
catholic
cato
causa
cave
cał
cała
całe
całego
całej
całkiem
całkowicie
całkowita
całkowite
całkowitego
całkowitej
całkowity
całkowitych
całkowitym
całobrzegie
całokształt
całos
cały
całych
całym
cb
cba
cbs
cc
cd
cdot
cdp
cdu
ce
cech
cecha
cechach
cechami
ceche
cechu
cechuja
cechuje
cechy
cecil
cecilia
cecylia
cegielnia
cegieł
cego
cegła
cegły
cej
cel
celach
celami
cele
celem
celi
cell
celna
celne
celnego
celnej
celnos
celny
celnych
celo
celom
celownik
celowo
celtic
celtics
celu
cem
cemetery
cemu
cen
cena
cene
ceni
cenia
ceniach
cenie
ceniem
ceniony
ceniu
cenne
cenny
cennych
census
center
centra
central
centrala
centrale
centrali
centralna
centralne
centralnego
centralnej
centralnie
centralny
centralnych
centralnym
centre
centro
centrum
century
centymetro
ceny
cenzura
cenzury
ceramika
ceramiki
ceremonia
ceremonialnym
ceremonie
ceremonii
ceres
cerkiew
cerkwi
cerkwia
cerkwie
cerro
certyfikat
certyfikaty
cesare
cesarska
cesarski
cesarskich
cesarskie
cesarskiego
cesarskiej
cesarskim
cesarsko
cesarstwa
cesarstwem
cesarstwie
cesarstwo
cesarz
cesarza
cesarze
cesarzem
cesarzowa
cesarzowej
cesarzowi
cesarzy
cest
cet
cev
cewki
cezar
cezara
cezarei
cezary
cf
ch
cha
chad
chains
challenge
challenger
chamber
chamonix
champ
champion
champions
championship
championships
chan
chana
chance
chandler
chang
change
changes
channel
chanty
chaos
chaosu
chapel
chapelle
chapman
chapter
charakter
charakterem
charakteru
charakterystyczna
charakterystyczne
charakterystycznego
charakterystycznej
charakterystyczny
charakterystycznych
charakterystycznym
charakterystycznymi
charakterystyka
charakterystyki
charakteryzował
charakteryzuja
charakteryzuje
charakterze
charente
charentes
charge
charko
charkowa
charkowie
charkowskim
charleroi
charles
charlesa
charleston
charlie
charliego
charlotte
chart
charts
charytatywna
charytatywne
charytatywnej
chase
chat
chata
chatham
chaty
chca
chce
chcemy
chcesz
chciał
chciała
chciały
chcieli
che
checklist
chelsea
chemia
chemical
chemicy
chemiczna
chemiczne
chemicznego
chemicznej
chemiczny
chemicznych
chemicznym
chemie
chemii
chemik
chemika
chemins
chemioterapii
chemnitz
chen
cher
cherry
cherson
cherza
cheshire
chess
chessbase
chester
chevrolet
chełm
chełmie
chełmin
chełmnie
chełmski
chełmskiego
chełmskiej
chełmskim
chełmz
chi
chiapas
chiba
chicago
chief
child
children
chile
chili
chilijski
chin
china
chinach
chinami
chinese
chiny
chip
chirurdzy
chirurg
chirurgii
chivas
chl
chleb
chleba
chloe
chmiel
chmielewski
chmielnicki
chmielnickiego
chmielnickim
chmur
chmura
chmury
cho
choc
chociaz
chodz
chodza
chodzi
chodzic
chodzie
chodził
chodziło
choi
choice
chojnice
cholery
chopin
chopina
chor
chora
chorego
choreograf
choreografia
choro
choroba
chorobach
chorobami
chorobe
chorobie
choroby
chorwaccy
chorwaci
chorwacja
chorwacji
chorwacka
chorwacki
chorwackie
chorwackiego
chorwackiej
chorwato
chory
chorych
chorym
chorzo
chorzowie
chorzy
chris
chrisa
chrisem
christ
christi
christian
christiana
christie
christina
christine
christmas
christo
christoph
christophe
christopher
christophera
chrl
chrobrego
chrobry
chromosomo
chroni
chronia
chronic
chronicles
chronione
chronionego
chroniony
chronionych
chronologia
chronologicznie
chronologii
chrus
chrysler
chrystiana
chrystus
chrystusa
chrystusem
chrystusie
chrza
chrzanowski
chrzciciel
chrzciciela
chrzcielnica
chrzes
chrzest
chrzestna
chrztu
chu
chuck
chudy
chung
church
churchill
chutor
chwała
chwały
chwila
chwilach
chwile
chwili
chwilowo
chyba
chłodnicy
chłodzenia
chłonnych
chłop
chłopak
chłopaka
chłopca
chłopco
chłopcy
chłopi
chłopie
chłopiec
chłopo
chłopska
chłopskich
chłopskie
chłopskiego
chłopskiej
ci
cia
ciach
ciami
cian
ciana
cianach
cianami
ciane
cianek
cianie
cianki
ciany
ciasta
ciaste
ciasto
ciastych
ciał
ciała
ciałem
ciało
cic
cice
cicha
cicho
cichy
ciciel
ciciela
cicielami
ciciele
cicielem
cicieli
cicielka
cicki
cickiego
cie
ciebie
ciechano
ciechanowie
ciechanowskiego
ciecz
ciecza
cieczy
ciej
ciek
ciekawa
ciekawe
ciekawostki
cieki
cieko
ciekły
ciel
ciele
cielna
cielne
cielnego
cielnej
cielny
cielnych
cielnym
ciem
ciemna
ciemne
ciemnej
ciemno
ciemnobra
ciemnos
ciemny
ciemnych
ciemnym
cien
cieni
cienia
cienie
cieniem
cieniu
cienka
cienki
cienkie
cienne
ciennych
cieplna
cieplnej
ciepła
ciepłe
ciepło
ciepły
ciepłym
cierpi
cierpia
cierpiał
cierpienia
cierpienie
cierzyna
cies
ciesza
cieszy
cieszyn
cieszyna
cieszynie
cieszył
cieszyła
cieszyły
ciez
cig
cigach
cigaja
cigania
cigał
cigi
cigiem
cigo
cigowe
cigowego
cigowy
cigowych
cigowym
cigu
cijan
cijanie
cik
ciki
ciko
cili
cim
cimiu
cin
cina
cincinnati
cindy
cine
cinema
cinie
cinne
cinnie
cinny
cinnym
ciny
cio
ciobo
cioboju
cioka
ciokrotnie
ciokrotny
ciolecia
cioletni
cioletnia
ciom
cioma
ciopisarz
ciorga
cioro
cios
cioso
ciotka
ciotki
ciowa
ciowe
ciowego
ciowej
ciowo
ciowy
ciowych
ciowym
ciowymi
cioł
cioła
ciołach
ciołem
cioło
ciołowi
cioły
circ
circle
circuit
circus
cis
cisza
ciszy
cisła
cisłe
cisłego
cisłej
cisłych
cisłym
cit
cities
citroe
citta
city
ciu
ciudad
ciuszki
ciuszko
ciuszkowskiej
civic
civil
ciwa
ciwe
ciwego
ciwej
ciwie
ciwos
ciwszy
ciwy
ciwych
ciwym
cizna
cił
ciła
ciło
ciły
ck
cka
cke
cken
cki
ckiego
ckim
ckm
cl
claire
clara
clare
clarence
clark
clarka
clarke
clash
class
classic
classics
claude
claudia
claudio
clausura
clav
clay
clayton
cle
clean
clecia
clermont
cleveland
cliff
clifford
clinton
clive
close
cloud
club
clube
clubu
clyde
cm
cmentarna
cmentarz
cmentarza
cmentarze
cmentarzem
cmentarzu
cmentarzy
cmentarzysko
cn
cno
cnoty
co
coa
coast
coat
cobar
cobra
coca
code
codex
cody
codzienne
codziennego
codziennej
codziennie
codziennych
codziennym
coenagrionidae
cofna
cofnie
cohen
cokole
cokolwiek
col
cola
cold
cole
coleman
colin
coliseum
collection
college
collegium
collins
colo
colon
color
colorado
colors
columbia
columbus
com
combat
come
comedy
comes
comic
comics
coming
command
commander
commando
commission
committee
commodore
common
commons
communications
community
como
company
competition
complete
complex
computer
comte
con
cona
conan
concacaf
concept
concern
concert
concerto
concordia
conde
cone
conego
conej
conference
congress
connecticut
connection
connor
cono
conrad
conrada
constantin
construction
contact
contemporary
content
conti
continental
contra
control
convention
conway
cony
conych
conym
cook
cooka
cooke
cool
cooper
coopera
cop
copa
copepoda
copper
coraz
core
corinthians
cork
cornell
corner
coroczne
corocznie
corona
corporation
corps
corpus
corre
corte
cortina
corun
cos
costa
could
council
count
country
county
coupe
court
cov
coventry
cover
covery
covid
cowa
cowe
cowego
cowej
cowi
cowy
cowych
cowym
cox
cp
cr
cracovia
cracovii
craig
crash
crawford
crazy
cre
creative
creed
creek
crew
crime
crimson
crisis
cristina
cristo
croix
crosby
cross
crown
cruz
cruzeiro
crvena
cry
crystal
cs
csi
cska
css
csu
ct
ctor
cu
cuch
cucha
cuchem
cucho
cuchy
cud
cuda
cudo
cudotwo
cudowne
cudowny
cudzoziemco
cudzoziemcy
cukier
cukrowni
cukru
cultural
culture
cum
cumberland
cunningham
cup
cure
curie
curling
curlingu
current
curtis
cut
cv
cw
cx
cy
cyceron
cycerona
cych
cyclingarchives
cyclopidae
cyfr
cyfra
cyfrowa
cyfrowe
cyfrowego
cyfrowej
cyfrowy
cyfrowych
cyfrowym
cyfry
cyfryzacji
cygan
cykl
cykle
cykli
cykliczne
cyklicznie
cyklu
cylinder
cylindra
cylindrowy
cylindryczne
cym
cymi
cynku
cypr
cyprian
cypriana
cypru
cyprze
cyr
cyrus
cyryl
cyryla
cysterso
cyt
cytadeli
cytat
cytaty
cywilizacja
cywilizacji
cywilna
cywilne
cywilnego
cywilnej
cywilny
cywilnych
cywilnym
cywilo
cywin
cz
cza
czach
czaja
czajka
czajkowski
czajkowskiego
czak
czaki
czako
czane
czania
czanie
czany
czapla
czaplin
czarna
czarne
czarnecki
czarnego
czarnej
czarni
czarnieckiego
czarno
czarnogo
czarnoksie
czarnosko
czarny
czarnych
czarnym
czarnymi
czaro
czarownic
czarownica
czarownice
czartoryski
czartoryskich
czartoryskiego
czary
czas
czasach
czasami
czasem
czasie
czaso
czasopis
czasopism
czasopisma
czasopismach
czasopismo
czasowa
czasowe
czasowej
czasownik
czasownika
czasowniki
czasowniko
czasowo
czasowych
czasowym
czasu
czasy
czaszka
czaszki
czał
czci
czcionka
cze
czech
czecha
czechach
czechami
czecho
czechosłowaccy
czechosłowacja
czechosłowacji
czechosłowacka
czechosłowacki
czechosłowackie
czechosłowackiego
czechosłowackiej
czechy
czeczen
czeczenii
czego
czegos
czej
czek
czeka
czekac
czekaja
czekał
czeki
czekolady
czelabin
czele
czem
czempionatu
czemu
czen
czeni
czenia
czeniach
czenie
czeniem
czeniu
czennica
czennicy
czennik
czennika
czenniko
czerni
czerpia
czerwca
czerwcu
czerwiec
czerwien
czerwieni
czerwin
czerwona
czerwone
czerwonego
czerwonej
czerwoni
czerwono
czerwony
czerwonych
czerwonym
czerwonymi
czes
czescy
czesi
czeska
czeski
czeskich
czeskie
czeskiego
czeskiej
czeskim
czesko
czesław
czesława
czka
czke
czki
czkowski
czna
czne
cznego
cznej
czni
cznie
cznik
cznika
czniki
cznikiem
czniko
czniku
cznos
czny
cznych
cznym
czo
czole
czona
czone
czonego
czonej
czono
czonos
czony
czonych
czonym
czonymi
czornomorca
czowa
czowe
czowej
czowie
czowy
czoła
czołg
czołgami
czołgi
czołgo
czołgu
czoło
czołowa
czołowe
czołowej
czołowy
czołowych
czołowym
czterdzies
czterdziestu
czterdziestych
czterech
czterej
czterema
czternas
czternastu
czternasty
czterokrotnie
czterokrotny
czteroletni
czteroletniego
cztery
czu
czuja
czuje
czujnik
czujniki
czuk
czuł
czuła
czułki
czułko
czułos
czwarta
czwarte
czwartego
czwartej
czwartek
czwartorze
czwarty
czwartym
czwo
czworo
czworoka
czy
czyc
czyca
czyce
czych
czyckiego
czycy
czyk
czyka
czykami
czykiem
czyko
czykom
czyli
czym
czyms
czyn
czynach
czyni
czynia
czynic
czynie
czynienia
czynił
czynna
czynne
czynnego
czynnej
czynnie
czynnik
czynnika
czynnikami
czynniki
czynnikiem
czynniko
czynnos
czynny
czynnych
czynnym
czyno
czynu
czyny
czys
czysta
czyste
czystego
czystej
czystki
czysto
czystos
czysty
czyta
czytac
czytaja
czytania
czytanie
czytał
czytelni
czytelnik
czytelnika
czytelniko
czywszy
czyz
czyzn
czyzna
czyznami
czyzne
czyzny
czył
czyła
czyło
czyły
człon
członek
członka
członkami
członkiem
członkini
członkinia
członkinie
członko
członkom
członkostwa
członkostwo
członkowie
członkowskich
członkowskie
człono
członu
człony
człowiek
człowieka
człowiekiem
człowiekowi
człowieku
d
da
dac
dach
dachami
dachau
dachem
dacho
dachu
dachy
dacie
daddy
daewoo
dai
daily
daisy
daj
daja
daje
dak
dakar
dakota
dal
dala
dale
dalej
daleka
daleki
dalekie
dalekiego
dalekim
daleko
dalekobiez
dali
dallas
dalmacji
dalmatyn
dalnos
dalsza
dalsze
dalszego
dalszej
dalszy
dalszych
dalszym
dalton
dam
dama
damaszek
damaszku
dame
dami
damian
damiana
damon
damy
dan
dana
dance
dancing
dane
danego
danej
dangerous
dania
danie
daniel
daniela
daniele
danielem
danielle
daniels
daniem
danii
danny
dano
dans
dante
danuta
dany
danych
danym
danymi
danzig
daphne
dar
daria
dariusz
dariusza
dark
darki
darkness
darmo
darmstadt
daro
darren
darwin
darwina
dary
das
daszyn
dat
data
database
date
dateformat
dates
datowana
datowane
datowanie
datowany
datuje
daty
dave
david
davida
davidem
davidson
davies
davis
davisa
davos
dawac
dawał
dawała
dawało
dawały
dawid
dawida
dawka
dawki
dawn
dawna
dawne
dawnego
dawnej
dawni
dawniej
dawno
dawny
dawnych
dawnym
dawson
day
days
dał
dała
dało
dały
db
dbał
dc
dca
dcami
dce
dco
dcy
dd
ddr
de
dead
dean
dear
death
debata
debaty
debiucie
debiut
debiutancka
debiutancki
debiutanckiego
debiutanckim
debiutant
debiutanto
debiutem
debiutował
debiutowała
debiutu
debiutuja
deblowych
deblu
deborah
dec
decca
december
decki
deckiego
deckim
decyduja
decyduje
decyzja
decyzje
decyzji
dedykowana
dedykowane
dedykowany
dee
deep
deer
def
default
defence
defense
defensywnego
definicja
definicje
definicji
definitywnie
definiuja
definiuje
degli
dego
degradacji
dei
dej
dek
dekade
dekady
dekadzie
dekanacie
dekanat
dekanato
dekanatu
dekanaty
deklaracja
deklaracje
deklaracji
deklaruja
deklaruje
dekoracja
dekoracje
dekoracji
dekret
dekretem
dekretu
del
delaware
delegaci
delegacja
delegacje
delegacji
delegat
delegata
delegatem
delegato
delegatury
delhi
delikatne
delikatnie
dell
della
delle
delta
delty
deluxe
dem
dema
dembin
demo
demografia
demokraci
demokracja
demokracje
demokracji
demokrato
demokratyczna
demokratyczne
demokratycznego
demokratycznej
demokratyczny
demokratycznych
demokratycznym
demon
demono
demonstracja
demonstracje
demonstracji
demonstranto
demontaz
demony
demu
den
denis
denise
dennis
denver
departamencie
departament
departamento
departamentu
department
depeche
deportacji
deportes
deportivo
depresja
depresje
depresji
deputowana
deputowanego
deputowani
deputowany
deputowanych
deputowanym
der
derby
derbyshire
derek
des
desant
desantowych
desantu
desce
desert
design
desire
deskach
deski
destiny
deszcz
deszczowe
deszczowej
deszczu
det
detale
detektyw
detektywa
detroit
deutsch
deutsche
deutschen
deutscher
deutsches
deutschland
deux
development
devil
devils
devon
dewiza
dexter
deł
dfb
dh
dharmy
di
dia
diabeł
diabła
diagnostyce
diagnostyka
diagnostyki
diagnoza
diagram
diakon
diakona
dialekt
dialekto
dialektu
dialekty
dialog
dialogi
dialogu
diamond
diamonds
diana
diane
dick
dickinson
dictionary
did
didier
didz
die
diecezja
diecezjalne
diecezjalnego
diecezjalni
diecezjalny
diecezjalnych
diecezjalnym
diecezje
diecezji
diego
dieriewnia
dies
diesel
diesla
dieta
dieter
dietrich
diety
dig
digital
dijon
din
dina
dinama
dinamo
ding
dino
dinozauro
dinozaury
dio
dioecesis
dion
dionizy
dir
direct
dirk
dirty
disc
disco
discogs
discovery
disease
disney
disneya
distinguished
district
ditions
divisio
division
divisione
dixon
dj
djufl
dk
dka
dki
dkiem
dko
dkos
dkowac
dkowana
dkowane
dkowania
dkowanie
dkowano
dkowany
dkował
dkowe
dkowej
dku
dl
dla
dlaczego
dlatego
dm
dma
dme
dmego
dmej
dmies
dmitrij
dmy
dmym
dmytro
dn
dna
dne
dnego
dnej
dnem
dnf
dni
dnia
dniach
dniaja
dnicy
dniczka
dnie
dniem
dnieniem
dniepr
dniepropetrowsk
dniepru
dnik
dnika
dnikiem
dniko
dniono
dnipro
dniu
dno
dnos
dnowskim
dns
dny
dnych
dnym
do
dobe
dobie
dobo
doboru
dobra
dobrach
dobre
dobrego
dobrej
dobro
dobrobytu
dobroczynnos
dobrowolnie
dobrowolski
dobry
dobrych
dobrym
dobrzan
dobrze
dobrzyn
dobudowana
dobudowano
doby
doc
docelowo
docent
docenta
docentem
docho
dochodo
dochodu
dochody
dochodza
dochodzenia
dochodzenie
dochodzi
dochodzic
dochodziło
dociera
docieraja
doctor
doczekał
doczekała
dodac
dodaja
dodaje
dodana
dodane
dodanie
dodano
dodany
dodatek
dodatki
dodatkiem
dodatko
dodatkowa
dodatkowe
dodatkowego
dodatkowej
dodatkowo
dodatkowy
dodatkowych
dodatkowym
dodatkowymi
dodatku
dodawanie
dodał
dodała
dodge
dog
dogrywce
dogrywka
dogs
dohc
doi
dojazd
dojdzie
dojechac
dojechał
dojez
dojrzałe
dojrzałos
dojrzewaja
dojrzewania
dojs
dok
doka
dokon
dokonac
dokonali
dokonan
dokonana
dokonane
dokonanej
dokonania
dokonanie
dokonaniu
dokonano
dokonany
dokonanych
dokonał
dokonała
dokonało
dokonały
dokonuja
dokonuje
dokonywane
dokonywania
dokonywano
dokonywał
dokre
doktor
doktora
doktoranckie
doktorat
doktorem
doktoro
doktorska
doktorskich
doktorskiej
doktoryzował
doktorzy
doktryna
doktryny
dokumencie
dokument
dokumentach
dokumentacja
dokumentacje
dokumentacji
dokumentalne
dokumentalnego
dokumentalny
dokumentalnych
dokumentalnym
dokumentem
dokumento
dokumentu
dokumentuja
dokumenty
dokładna
dokładne
dokładnie
dokładniej
dokładnos
dokładny
dol
dolaro
dole
dolegliwos
dolin
dolina
dolinach
dolinami
doline
dolinie
dolinki
doliny
dolna
dolne
dolnego
dolnej
dolnos
dolny
dolnych
dolnym
dolores
dom
domach
domagaja
domagali
domagał
domagała
doman
dome
domek
domem
domena
domenico
domeny
domesday
domieszka
dominacja
dominacje
dominacji
domingo
domini
dominic
dominik
dominika
dominikan
dominikanie
dominikanin
dominikano
dominikany
dominique
dominium
domino
dominuja
dominuje
domknie
domko
domku
domo
domostw
domowa
domowe
domowego
domowej
domowy
domowych
domowym
domu
domy
domys
don
dona
donald
donalda
donau
donem
dong
donieck
donieckim
doniecku
doniesien
doniesienia
donna
donos
donovan
doo
dookoła
doom
door
doors
dopełniacz
dopełnienie
dopiero
doping
dopo
doprowadza
doprowadzaja
doprowadzenie
doprowadzic
doprowadził
doprowadziła
doprowadziło
doprowadziły
doprowadzono
dopus
dopuszcza
dopuszczaja
dopuszczalna
dopuszczalne
dopuszczony
dopływ
dopływem
dopływo
dopływu
dopływy
dora
doradca
doradco
doradcy
dorasta
dorastaja
dorastał
dorastała
doraz
dorazowo
dordogne
dore
doris
doro
dorobek
dorobkiem
dorobku
dorosłe
dorosłego
dorosłej
dorosły
dorosłych
dorota
dorothy
doroty
dorset
dortmund
dorzecza
dorzecze
dorzeczu
dos
doskonale
doskonalenia
doskonała
doskonałe
doskonałos
doskonały
doskonałym
dostac
dostaja
dostaje
dostali
dostarcza
dostarczaja
dostarczane
dostarczanie
dostarczenia
dostarczenie
dostarczone
dostarczono
dostarczyc
dostarczył
dostatecznie
dostaw
dostawca
dostawe
dostawy
dostał
dostała
dostało
dostały
doste
dostosowane
dostosowania
dostosowanie
dostrzec
dostrzega
dostrzegł
dostrzez
dosyc
doszcze
doszedł
doszli
doszła
doszło
doszły
dosł
dosłownie
dot
dota
dotacje
dotacji
dotarcie
dotarciu
dotarli
dotarł
dotarła
dotarło
dotarły
dotkna
dotkne
dotknie
dotrzec
dots
dotychczas
dotychczasowa
dotychczasowe
dotychczasowego
dotychczasowej
dotychczasowy
dotychczasowych
dotychczasowym
dotycza
dotyczy
dotyczyc
dotyczył
dotyczyła
dotyczyło
dotyczyły
dotyk
douard
double
doubs
doug
douglas
douglasa
dover
dow
dowa
dowac
dowania
dowanie
dowaniu
dował
dowała
dowcy
dowe
dowego
dowej
dowi
dowiaduje
dowiec
dowiedział
dowiedziała
dowiedziec
dowisko
down
downictwa
download
dowo
dowodem
dowodo
dowodu
dowody
dowodza
dowodzenia
dowodzenie
dowodzi
dowodził
dowodzona
dowodzone
dowodzonej
dowodzony
dowodzonych
dowolna
dowolne
dowolnego
dowolnej
dowolnie
dowolny
dowolnych
dowolnym
dowy
dowych
dowym
dowymi
doyle
doz
doznał
doznała
dozwolone
doła
dołe
dołoz
dołu
doły
dp
dr
dra
drabinka
drafcie
draft
draftu
drag
dragon
dragono
dragons
drake
drama
dramacie
dramat
dramatic
dramato
dramatu
dramaturdzy
dramaturg
dramaty
dramatyczna
dramatyczne
dramatycznego
dramatyczny
dramatycznych
dramatycznym
drapiez
draz
dre
dream
dreams
drego
dresden
dreszczowce
dreszczowcu
drew
drewna
drewniana
drewniane
drewnianego
drewnianej
drewniany
drewnianych
drewnianym
drewnianymi
drewnie
drewno
drez
drezden
drezna
drezno
drgan
drgania
drive
driver
dro
drobiu
drobna
drobne
drobny
drobnych
drobnymi
drodze
droga
drogach
drogami
droge
drogi
drogowa
drogowe
drogowego
drogowej
drogowy
drogowych
drogowym
drohiczyn
drop
dros
drowa
drowe
drowego
drowej
drowych
droz
druga
drugi
drugich
drugie
drugiego
drugiej
drugim
drugoligowego
drugoligowym
drugoplanowa
drugoplanowe
drugoplanowej
drugoplanowy
drugorze
druja
druk
drukarni
drukarnia
drukarnie
drukiem
druko
drukowane
druku
drum
drutu
druz
drwe
dry
drz
drze
drzej
drzeja
drzew
drzewa
drzewach
drzewami
drzewem
drzewie
drzewnego
drzewny
drzewo
drzwi
drzwiach
drzwiami
ds
dt
du
dub
dubaj
dubaju
dubbing
dubbingu
dublin
dublinie
dubois
duc
duch
ducha
duchem
ducho
duchowa
duchowe
duchowego
duchowej
duchowien
duchowna
duchowne
duchownego
duchownej
duchowni
duchowny
duchownych
duchownym
duchowos
duchowy
duchowych
duchowym
duchu
duchy
duda
dudek
dudley
dudy
due
duecie
duet
duetu
duff
duja
duke
dukla
dukli
duma
dumy
dun
dunaj
dunajca
dunajcem
dunaju
duncan
dundee
dunin
dunn
duo
dur
durch
durham
during
dus
dust
dusz
dusza
duszanbe
dusze
duszpasterska
duszpasterskiej
duszpasterstwa
duszpasterstwo
duszpasterz
duszpasterzem
duszy
duty
dux
duz
dvd
dw
dwa
dwadzies
dwaj
dwanas
dwie
dwiema
dwo
dwoje
dwoma
dworca
dworcem
dworcu
dworek
dworem
dworku
dworska
dworski
dworskich
dworskie
dworskiego
dworskiej
dworu
dwory
dworzanin
dworze
dworzec
dwu
dwucze
dwudziesta
dwudziestego
dwudziestolecia
dwudziestoleciu
dwudziestu
dwudziesty
dwudziestych
dwuje
dwukrotna
dwukrotnie
dwukrotny
dwukrotnym
dwuletni
dwuletnia
dwumecz
dwumeczu
dwumiesie
dwunasta
dwunaste
dwunastu
dwunasty
dwupie
dwuspadowym
dwutlenek
dwutlenku
dx
dy
dydaktyczna
dydaktyczne
dydaktycznej
dydaktyczny
dydaktycznych
dydaktyki
dying
dyktatora
dyktatury
dylan
dylana
dym
dymisje
dymisji
dymitr
dymitra
dymo
dymorfizm
dynama
dynamics
dynamiczna
dynamiczne
dynamicznie
dynamiczny
dynamika
dynamiki
dynamo
dynastia
dynastie
dynastii
dypl
dyplom
dyplomaci
dyplomacji
dyplomata
dyplomatyczna
dyplomatyczne
dyplomatycznej
dyplomatyczny
dyplomatycznych
dyplomowany
dyplomu
dyr
dyrekcja
dyrekcji
dyrektor
dyrektora
dyrektorem
dyrektorka
dyrektoro
dyrektorzy
dyrektywa
dyrektywy
dyrygenci
dyrygent
dyrygenta
dyrygentem
dyscyplin
dyscyplina
dyscyplinach
dyscyplinie
dyscypliny
dysk
dyskiem
dysko
dyskografia
dyskryminacji
dysku
dyskusja
dyskusje
dyskusji
dyskwalifikacja
dyskwalifikacje
dyskwalifikacji
dysponował
dysponowała
dysponuja
dysponuje
dyspozycji
dystans
dystansach
dystansie
dystansu
dystrybucja
dystrybucje
dystrybucji
dystrykcie
dystrykt
dystrykto
dystryktu
dystrykty
dyw
dywersji
dywizja
dywizje
dywizji
dywizjon
dywizjonem
dywizjonie
dywizjono
dywizjonu
dywizjony
dywizyjnej
dyz
dz
dza
dzac
dzaja
dzali
dzana
dzane
dzania
dzanie
dzaniu
dzany
dzanych
dzał
dzała
dze
dzej
dzem
dzen
dzeni
dzenia
dzeniach
dzeniami
dzenie
dzeniem
dzeniu
dzi
dzia
dziach
dziadek
dziadka
dziale
dziami
dział
działa
działac
działach
działacz
działacza
działaczami
działacze
działaczem
działaczka
działaczy
działaja
działali
działalnos
działami
działan
działania
działaniach
działaniami
działanie
działaniem
działaniom
działaniu
działał
działała
działało
działały
działce
działek
działem
działka
działke
działki
działko
działo
działu
działy
działyn
dzic
dzie
dziec
dzieci
dziecia
dziecie
dziecin
dzieciom
dziecka
dzieckiem
dziecko
dziecku
dziectwo
dziedzic
dziedzica
dziedzicem
dziedzictwa
dziedzictwo
dziedziczenia
dziedzin
dziedzina
dziedzinach
dziedzinie
dziedziniec
dziedziny
dziego
dziejach
dzieje
dziejo
dziekan
dziekana
dziekanem
dziela
dziele
dzieli
dzielił
dzieliła
dzielnic
dzielnica
dzielnicach
dzielnicami
dzielnice
dzielnicy
dzielnos
dzielone
dziem
dziemia
dziemne
dziemnego
dziemnomorskich
dziemnym
dziemy
dzien
dzienna
dzienne
dziennie
dziennik
dziennika
dziennikarka
dziennikarstwa
dziennikarstwo
dziennikarz
dziennikarza
dziennikarze
dziennikarzem
dziennikarzy
dzienniki
dzienniko
dzienniku
dzienny
dziernik
dziernika
dziernikowej
dzierniku
dzierz
dzierzy
dzierzyn
dziesia
dziesie
dziesz
dziewcza
dziewcze
dziewczyna
dziewczyne
dziewczynie
dziewczynka
dziewczynki
dziewczyny
dziewia
dziewica
dziewicy
dziewie
dzieł
dzieła
dziełach
dziełami
dziełem
dzieło
dzik
dzika
dziki
dzikich
dzikie
dzikiego
dzikiej
dzikim
dziko
dzili
dzin
dzinie
dziny
dzio
dzioba
dziobem
dziobie
dziobowej
dziowie
dzis
dzisiaj
dzisiejsza
dzisiejsze
dzisiejszego
dzisiejszej
dzisiejszy
dzisiejszych
dzisiejszym
dzisien
dziura
dziury
dziwna
dziwne
dziwny
dził
dziła
dziło
dziły
dzka
dzki
dzkich
dzkie
dzkiego
dzkiej
dzkim
dzla
dzona
dzone
dzonego
dzonej
dzono
dzony
dzonych
dzonym
dztw
dztwa
dztwach
dztwem
dztwie
dztwo
dztwu
dzu
dzwon
dzwonnica
dzwonnice
dzwonnicy
dzwono
dzwony
dzy
dzyczasie
dzyn
dzynarodo
dzynarodowa
dzynarodowe
dzynarodowego
dzynarodowej
dzynarodowy
dzynarodowych
dzynarodowym
dzynarodowymi
dzypan
dzyrzecz
dzywojennego
dzywojenny
dzywojennych
dzywojennym
dł
dła
dłach
dłami
dłem
dło
dłon
dłoni
dłonie
dłowe
dłowego
dłowy
dłowych
dług
długa
długi
długich
długie
długiego
długiej
długim
długimi
długo
długodystansowcy
długodystansowiec
długograja
długoletni
długoletnia
długos
długosz
długosza
długotrwałe
długu
dłuta
dłuz
e
ea
eagle
eagles
earl
early
earth
east
easter
eastern
easy
eb
eberhard
ebl
ebra
ebu
eby
ec
ecclesia
echa
echem
echo
ecie
economic
economics
ed
eda
eddie
eddy
eden
edgar
edgara
edge
edinburgh
edit
edith
edition
edmonton
edmund
edmunda
edo
eds
edu
eduard
eduarda
eduardo
education
edukacja
edukacje
edukacji
edukacyjna
edukacyjne
edukacyjnej
edukacyjny
edukacyjnych
edward
edwarda
edwardem
edwards
edwin
edycja
edycjach
edycje
edycji
edynburgu
edyta
edytor
eerste
ef
efekcie
efekt
efektem
efekto
efektu
efekty
efektywnos
effect
egida
egipcie
egipscy
egipska
egipski
egipskich
egipskie
egipskiego
egipskiej
egipt
egiptem
egiptu
eglarstwo
eglarz
eglarze
egluga
eglugi
egmont
egnanie
egnał
ego
egz
egzamin
egzamino
egzaminu
egzaminy
egzekucja
egzekucje
egzekucji
egzekutywy
egzemplarz
egzemplarza
egzemplarze
egzemplarzy
egzystencji
ehf
ei
eight
ein
eindhoven
eine
einer
einstein
einsteina
ej
ek
ekip
ekipa
ekipe
ekipie
ekipy
ekologia
ekologiczna
ekologiczne
ekologicznej
ekologiczny
ekologicznych
ekologii
ekonomia
ekonomiczna
ekonomiczne
ekonomicznego
ekonomicznej
ekonomiczno
ekonomiczny
ekonomicznych
ekonomicznym
ekonomie
ekonomii
ekonomiki
ekonomis
ekonomista
ekonomistka
ekran
ekranie
ekranizacja
ekranizacji
ekranu
ekrany
ekshumacji
ekspansja
ekspansje
ekspansji
ekspedycja
ekspedycje
ekspedycji
eksperci
ekspert
ekspertem
eksperto
eksperyment
eksperymentalnej
eksperymento
eksperymentu
eksperymenty
eksploatacja
eksploatacje
eksploatacji
eksploatowane
eksploracji
eksplozja
eksplozje
eksplozji
eksponato
eksponaty
eksport
eksportu
ekspozycja
ekspozycje
ekspozycji
ekspresji
ekspresowa
ekspresowej
eksterminacji
ekstraklasa
ekstraklasie
ekstraklasy
ekstraligi
ekwador
ekwadoru
ekwadorze
el
ela
elastycznos
elaza
elazna
elazne
elaznego
elaznej
elazny
elaznych
elaznym
elazo
elbla
eleanor
electric
electro
electronic
elekcji
elektor
elektora
elektorem
elektoro
elektorzy
elektroniczna
elektroniczne
elektronicznego
elektronicznej
elektroniczny
elektronicznych
elektronika
elektroniki
elektrono
elektrony
elektrotechniki
elektrowni
elektrownia
elektrownie
elektryczna
elektryczne
elektrycznego
elektrycznej
elektrycznie
elektrycznos
elektryczny
elektrycznych
elektrycznym
elektryfikacji
element
elementami
elementarnych
elementem
elemento
elementu
elementy
elen
elena
eleonora
elewacja
elewacje
elewacji
elfo
eli
elias
eliasz
eliasza
eliminacja
eliminacjach
eliminacje
eliminacji
eliminacyjne
eliminacyjnej
eliminacyjnych
eliminacyjnym
elimination
eliminuja
eliptyczna
eliptyczne
elisabeth
elit
elita
elite
elity
eliza
elizabeth
ella
elle
ellen
ellie
elliot
elliott
ellis
else
elseif
elvis
elz
em
emanuel
emanuela
emerson
emerytowany
emeryture
emerytury
emeryturze
emi
emigracja
emigracje
emigracji
emigracyjny
emigranci
emigranto
emil
emila
emilia
emilii
emilio
emily
emirato
emisja
emisje
emisji
emitowana
emitowane
emitowanego
emitowany
emituja
emma
emmanuel
emmy
emocje
emocji
empire
ems
emu
emy
en
ena
encyclopedia
encyklopedia
encyklopedii
encyklopedyczny
end
endemicznie
endemiczny
endemitem
endurance
enemy
energetyczna
energetyczne
energetycznego
energetycznej
energetycznych
energetyka
energetyki
energia
energie
energii
energy
engine
engineering
england
english
eni
enia
eniach
eniami
enie
eniem
eniom
eniowe
eniu
enił
enough
enrico
enrique
ensemble
ententy
enter
enterprise
entertainment
entomolog
enzo
enzym
enzymo
enzymu
enzymy
eo
ep
eparchia
eparchii
epic
epidemia
epidemii
episcopatus
episkopat
episkopatu
epitafium
epitet
epizod
epizody
epoce
epoka
epoki
epsilon
er
era
eredivisie
erem
erfurt
eric
erica
erich
ericha
erie
erik
erika
erka
erne
ernest
ernesta
ernesto
ernst
ernsta
erny
ero
eromskiego
erowie
erozji
ers
erska
erski
erskich
erskie
erskiego
erskiej
eruja
erwin
ery
erygowana
erygowano
erygował
eryk
eryka
erytrei
erywan
erywaniu
erze
es
esa
escape
eseista
esej
eseje
esejo
eska
eskadr
eskadra
eskadre
eskadry
eske
eskorty
esky
esp
espan
esperanto
espn
essays
essen
essex
est
esta
estadio
este
estetyki
esther
eston
estonia
estonii
estudiantes
esz
esza
eszowego
et
eta
etap
etapach
etapem
etapie
etapo
etapu
etapy
etat
etatu
etc
eternal
ethan
etiopia
etiopii
etiuda
etniczna
etniczne
etnicznej
etnicznych
etnograf
etnografia
etnograficzne
eto
eton
etowej
etowych
etu
etyka
etyki
etymologia
eu
eucharystii
euganejska
euge
eugen
eugene
eugenia
eugeniusz
eugeniusza
eure
euro
eurobasket
eurocup
eurodeputowany
euroligi
europa
europe
european
europejczyko
europejska
europejski
europejskich
europejskie
europejskiego
europejskiej
europejskim
europie
europy
eurowizji
eustachy
ev
eva
evan
evans
eve
evelyn
evening
event
events
ever
every
everybody
everything
evic
evil
evo
evolution
ew
ewa
ewakuacja
ewakuacje
ewakuacji
ewakuowano
ewakuowany
ewakuował
ewangelia
ewangelicka
ewangelicki
ewangelickiego
ewangelickiej
ewangelickim
ewangelicko
ewangelicy
ewangelie
ewangelii
ewangeliko
ewangelisto
ewangelisty
ewe
ewelina
ewentualne
ewentualnego
ewentualnej
ewentualnie
ewentualnych
ewicz
ewidencji
ewie
ewo
ewolucja
ewolucje
ewolucji
ewska
ewski
ewy
ex
exchange
executive
exeter
exhibition
experience
explorer
expo
express
extended
extra
extreme
eye
eyes
ez
ełk
ełku
f
fa
fabian
fabio
fabryce
fabryczna
fabryczne
fabryczny
fabryk
fabryka
fabryke
fabryki
fabularne
fabularny
fabularnych
fabuła
fabułe
fabuły
face
facebook
facebooku
facto
factor
factory
fair
faith
fakt
faktach
faktem
fakto
faktu
fakty
faktyczna
faktycznie
faktycznym
fal
fala
falco
falcon
fale
fali
fall
falling
falls
false
falun
fame
familijne
family
fan
fani
fanny
fano
fantastyczna
fantastyczne
fantastycznonaukowe
fantastyka
fantastyki
fantasy
far
faraon
faraona
farb
farba
farby
farm
farmacji
farmer
farmie
fasada
fasade
fasady
fasadzie
fashion
faso
fast
fat
fatal
fate
father
fatimskiej
fauna
fauny
faust
faz
faza
faze
fazie
fazy
fałszywa
fałszywe
fałszywy
fałszywych
fb
fbi
fc
fe
fear
feat
featuring
federacja
federacje
federacji
federal
federalna
federalne
federalnego
federalnej
federalny
federalnych
federalnym
federation
federico
feel
felicjan
felietonista
felietony
feliks
feliksa
felipe
felix
female
femme
fenerbahc
fer
ferdinand
ferdinanda
ferdynand
ferdynanda
ferenc
ferguson
fermentacji
ferna
fernando
ferrari
ferreira
ferry
fest
festival
festiwal
festiwalach
festiwale
festiwali
festiwalu
fever
ff
fi
fia
fiap
fiat
fiata
fiba
fiction
fide
fidz
field
fields
fiemme
fifa
fight
fighter
fighting
figur
figura
figure
figurka
figurki
figurowa
figurowe
figurowego
figurowi
figurowym
figuruje
figury
fikcyjna
fikcyjne
filadelfia
filadelfii
filantrop
filar
filarach
filaro
filary
file
files
filharmonia
filharmonii
filia
filialna
filialne
filialny
filie
filii
filip
filipa
filipin
filipinach
filipiny
filippo
film
filmach
filmem
filmfare
filmie
filmo
filmografia
filmowa
filmowco
filmowe
filmowego
filmowej
filmowi
filmowy
filmowych
filmowym
films
filmu
filmweb
filmy
filolog
filologia
filologicznego
filologie
filologii
filozof
filozofa
filozofia
filozoficzna
filozoficzne
filozoficznego
filozoficznej
filozoficzno
filozoficzny
filozoficznych
filozoficznym
filozofie
filozofii
filozofo
filozofowie
filtr
filtro
filtry
fin
fina
final
finale
finalista
finalistka
finalisto
financial
finanse
finanso
finansowa
finansowania
finansowanie
finansowe
finansowego
finansowej
finansowo
finansowy
finansowych
finansowym
finansowymi
finał
finałach
finało
finałowa
finałowe
finałowego
finałowej
finałowy
finałowych
finałowym
finału
finały
find
fine
finlandia
finlandii
finn
fiodor
fiodora
fiorentina
fire
firm
firma
firme
firmie
firmy
first
fis
fischer
fish
fisher
fitness
fitzgerald
five
fizjograficznych
fizjologia
fizjologii
fizyce
fizycy
fizyczna
fizyczne
fizycznego
fizycznej
fizycznie
fizyczny
fizycznych
fizycznym
fizyk
fizyka
fizyke
fizyki
fizyko
fk
fl
flag
flaga
flage
flagi
flagowy
flair
flamengo
flames
flandrii
flash
fleet
fleming
flet
fletcher
flight
flo
flocie
floor
flora
florence
florencja
florencji
flores
floret
florian
floriana
florida
flory
floryda
florydy
florydzie
flota
flote
floty
flotylla
flotylli
flow
flower
flowers
floyd
fluminense
fly
flying
fm
fn
fo
focus
foeldeak
fokker
folia
folk
folkloru
follow
folwark
folwarku
fon
fontaine
fontana
fontanna
fontanny
fontsize
food
foot
football
footballdatabase
for
forall
forbes
force
forces
forcie
ford
forda
fordon
foreign
forest
forever
form
forma
formach
formacie
formacja
formacje
formacji
formalna
formalne
formalnego
formalnej
formalnie
formalnych
formalnym
formami
format
formatu
formaty
forme
formie
formowania
formowanie
formuja
formula
formule
formuła
formułe
formuły
formy
forster
fort
fortepian
fortepianie
fortepianowe
fortepianowy
fortepianu
forto
fortu
fortuna
fortune
fortuny
forty
fortyfikacje
fortyfikacji
forum
forward
fosa
foster
fosy
fot
fotball
fotel
fotele
foto
fotograf
fotografa
fotografia
fotograficzna
fotograficzne
fotograficznego
fotograficznej
fotograficzny
fotograficznych
fotograficznym
fotografie
fotografii
fotografiko
fotografowie
fotoklubu
found
foundation
four
fox
fr
fra
frac
fragm
fragmencie
fragment
fragmentach
fragmentami
fragmentem
fragmento
fragmentu
fragmenty
frakcja
frakcje
frakcji
frame
franc
france
frances
francesca
francesco
franche
francis
francisa
francisca
francisco
franciszek
franciszka
franciszkan
franciszkanie
franciszkanin
franciszkano
franciszki
franciszkiem
francja
francje
francji
franco
francuscy
francuska
francuski
francuskich
francuskie
francuskiego
francuskiej
francuskim
francuskimi
francusko
francuskoje
francusku
francuz
francuza
francuzi
francuzo
frank
franka
frankfurcie
frankfurt
frankfurtu
frankie
frankiwsk
franklin
franklina
franko
frankonia
frantis
franz
franza
fraser
fre
fred
freda
freddie
freddy
frederick
fredrik
fredro
fredry
free
freedom
freeman
freestyle
fregata
fregaty
freiburg
frekwencja
frekwencji
french
frentzen
fresk
freski
fresko
freud
friday
friedman
friedrich
friedricha
friend
friends
fritz
fritza
friuli
fro
from
froncie
front
frontach
frontem
frontier
frontowa
frontowej
frontu
frost
frunzego
fryburg
fryburgu
fryderyk
fryderyka
fs
fso
fsrr
ft
fu
fuji
fukuoka
fulham
full
fun
function
fund
fundacja
fundacje
fundacji
fundamento
fundamenty
fundationis
fundator
fundatora
fundatorem
fundusz
fundusze
funduszu
funduszy
fungi
fungorum
funk
funkcja
funkcje
funkcji
funkcjonalnos
funkcjonariusz
funkcjonariusze
funkcjonariuszy
funkcjonowac
funkcjonowania
funkcjonowanie
funkcjonowaniu
funkcjonował
funkcjonowała
funkcjonowało
funkcjonowały
funkcjonuja
funkcjonuje
funto
fury
futbol
futbolu
futsalu
future
fuzja
fuzji
fw
fx
g
ga
gabi
gabinecie
gabinet
gabinetu
gabon
gabriel
gabriela
gabriele
gabrielle
gac
gach
gad
gado
gady
gadz
gaga
gagarina
gaj
gaja
gajo
gal
gala
galaktyce
galaktyk
galaktyka
galaktyki
galatasaray
galaxy
gale
galeria
galerie
galerii
gali
galicja
galicji
galicyi
galicyjscy
galicyjskiego
galicyjskiej
galii
galilei
gallen
gallery
gama
game
games
gami
gamma
gamy
gan
gandhi
gane
gang
gangster
gangu
gania
ganie
gao
garaz
garci
garcia
garden
gardens
gardner
gardła
gardło
gare
garfield
garland
garmisch
garni
garnia
garnizon
garnizonie
garnizonu
garonna
garrett
garwolin
gary
gas
gaston
gate
gates
gatunek
gatunkami
gatunki
gatunkiem
gatunko
gatunkowa
gatunkowej
gatunkowy
gatunku
gaulle
gaun
gawe
gawron
gay
gaz
gazecie
gazem
gazet
gazeta
gazete
gazety
gazo
gazowa
gazowe
gazowej
gazowych
gazu
gazy
gał
gała
gałe
gało
gały
gb
gcatholic
gd
gdan
gdy
gdyby
gdybym
gdyn
gdyni
gdynia
gdyz
gdzie
gdzies
ge
gear
gejo
gemeinde
gemini
gen
gender
gene
genealogia
genealogiczne
generacja
generacje
generacji
general
generalna
generalne
generalnego
generalnej
generalni
generalnie
generalny
generalnych
generalnym
generation
generator
generatory
generał
generała
generałem
generało
generałowie
generuja
generuje
genesis
genetyczna
genetyczne
genetycznie
genetycznych
genetyka
genetyki
genewa
genewie
geneza
genie
geno
genu
genuen
genui
geny
geodezji
geoffrey
geograf
geografia
geograficzna
geograficzne
geograficznego
geograficznej
geograficzno
geograficzny
geograficznych
geograficznym
geografii
geographic
geoinformacji
geolog
geologia
geologiczna
geologiczne
geologicznego
geologicznej
geologicznych
geologii
geometria
geometrii
georg
georga
george
georges
georgi
georgia
georgii
geqslant
ger
gerais
gerald
gerard
gerarda
gerhard
germain
german
germany
gers
ges
geschichte
gesellschaft
gest
gestapo
get
getcie
getta
getto
getyndze
gg
ghan
ghana
ghanie
ghany
gheorghe
ghost
ghz
gi
gia
giacomo
gianni
giant
giants
gibraltar
gibraltaru
gibson
gie
giel
gielny
giem
gieorgij
gier
gierscy
gierska
gierski
gierskich
gierskie
gierskiego
gierskiej
gierskim
giew
giełda
giełdy
giełdzie
gif
gigancie
gigant
giganta
gil
gilbert
gilberta
gildii
gilles
gimnastyczna
gimnastycznego
gimnastyk
gimnastyka
gimnazjum
gina
ginie
giorgio
giovanni
giovanniego
girl
girls
giro
girolamo
gitar
gitara
gitare
gitary
gitarze
gitarzys
gitarzysta
gitarzysty
giulio
giuseppe
give
giz
gks
gl
gla
glasgow
glass
gle
gleb
gleba
glebach
glebie
gleby
glem
glen
glenn
gli
glin
glina
gliny
gliwic
gliwicach
gliwice
gliwicki
glob
global
globalna
globalne
globalnego
globalnej
globe
globo
globu
glona
glone
glony
gloria
glory
gloucester
gloucestershire
glowego
glu
glukozy
gm
gmach
gmachu
gmbh
gmin
gmina
gminach
gminami
gmine
gminie
gminna
gminne
gminnego
gminnej
gminny
gminnych
gminy
gmt
gna
gne
gniarka
gniarki
gniazd
gniazda
gniazdo
gniazduja
gnie
gniew
gniewu
gniez
gniezna
gniezno
gniko
gnu
go
god
godnos
gods
godz
godzilla
godzilli
godzin
godzina
godzinach
godzine
godzinie
godzinnego
godziny
godła
godło
goes
goethe
goethego
gogh
gogha
goi
goia
going
gol
gola
golami
golan
gold
goldberg
golden
goldman
goldwyn
gole
golf
goli
gollob
golu
gomez
gon
gone
gong
gonna
gontem
gonza
good
goodbye
google
gora
gordon
gordona
gore
gorsza
gorsze
gorszy
gorzej
gorzelnia
gorzo
gorzowie
gorzowskiego
gos
gospel
gospodarce
gospodarcza
gospodarcze
gospodarczego
gospodarczej
gospodarczo
gospodarczy
gospodarczych
gospodarczym
gospodarka
gospodarke
gospodarki
gospodarstw
gospodarstwa
gospodarstwach
gospodarstwie
gospodarstwo
gospodarz
gospodarza
gospodarzami
gospodarze
gospodarzem
gospodarzy
gospodyni
gostyn
gostynin
gosłupa
got
gotha
goto
gotowa
gotowe
gotowos
gotowy
gotowych
gottfried
gotycka
gotycki
gotyckie
gotyckiego
gotyckiej
gotyckim
gotyku
gould
gov
government
gowa
gowarzewski
gowce
gowco
gowe
gowego
gowej
gowo
gowy
gowych
gowym
goya
goz
gozbio
gozo
goła
gołe
gołym
gp
gps
gpu
gr
gra
grab
grabiez
grabo
grabowska
grabowski
grac
grace
grach
gracz
gracza
gracze
graczem
graczy
grad
graeme
graf
graffiti
graficy
graficzna
graficzne
graficznego
graficznej
graficzny
graficznych
grafik
grafika
grafike
grafiki
graham
grahama
graja
grali
gram
grama
gramatyka
gramatyki
grami
grammy
gramo
gran
grana
granat
granato
granaty
grand
grande
grane
grani
grania
granic
granica
granicach
granicami
granice
granicy
granicza
graniczna
graniczne
granicznego
granicznej
graniczny
granicznych
granicznym
graniczy
granie
granitu
grant
granta
grany
grave
graves
grawitacji
gray
grayson
graz
grazu
grał
grała
grały
gre
great
greatest
greccy
grecja
grecje
grecji
grecka
grecki
greckich
greckie
greckiego
greckiej
greckim
grecko
greckokatolicka
greckokatolicki
greckokatolickiego
greco
grecy
greek
green
greene
greenwich
greenwood
greg
gregor
gregorian
gregory
greki
greko
grenadiero
grenlandii
grenoble
grey
gridcolor
griffin
grigorij
grimaldi
grimm
grn
gro
grobach
grobem
grobie
grobo
grobowa
grobowca
grobowcu
grobowiec
grobu
groby
grodna
grodnie
grodno
grodu
grodzien
grodzisk
grodziska
grodzisko
grodzisku
grodzki
grodzkie
grom
gromad
gromada
gromade
gromadgromady
gromady
gromadza
gromadzenia
gromadzenie
gromadzi
gromadzie
gromadzkich
gromadzkiej
gromadzkimi
gron
grona
gronie
groningen
grono
groove
gross
grosso
grosz
grosze
groszy
grot
grota
groty
ground
group
grove
groz
grozi
grozy
groß
gru
gruba
grube
grubego
grubos
gruby
gruczoło
gruczołu
gruczoły
grudnia
grudniu
grudzia
grudzien
grudzin
gruncie
grunt
gruntach
grunto
gruntowna
gruntownej
gruntownie
gruntu
grunty
grunwald
grunwaldem
grunwaldu
grunwaldzka
grup
grupa
grupach
grupami
grupe
grupie
grupowa
grupowe
grupowej
grupowych
grupuja
grupy
gruz
gruzin
gruzja
gruzji
gry
gryf
gryfa
gryfice
grywał
gryzonie
grzbiecie
grzbiet
grzbietem
grzbietowa
grzbietowej
grzbietowym
grzbietu
grzbiety
grze
grzebien
grzech
grzecho
grzechu
grzechy
grzegorz
grzegorza
grzy
grzyb
grzyba
grzybo
grzybowski
grzyby
grzywa
grzywien
grzywny
gs
gsm
gt
gu
guadalajara
guarani
guard
guardian
gubernator
gubernatora
gubernatorem
gubernatorstwa
gubernatorstwie
gubernatorzy
guberni
gubernia
gubin
gue
guerra
guerre
guerrero
guez
guide
guido
guillaume
guillermo
guitar
gujana
gujanie
gujany
gun
gunnar
guns
guru
gus
gusen
gustav
gustava
gustave
gustavo
gustaw
gustawa
gutie
guy
guz
guza
gwara
gwarancje
gwarancji
gwarantuja
gwarantuje
gwardia
gwardii
gwardyjskiej
gwary
gwatemala
gwatemali
gwałtowne
gwałtownie
gwałtowny
gwałtu
gwi
gwiaz
gwiazd
gwiazda
gwiazdami
gwiazde
gwiazdka
gwiazdki
gwiazdowa
gwiazdozbio
gwiazdozbiorze
gwiazdy
gwie
gwiezdne
gwinea
gwinei
gwoz
gymnasium
gyo
gł
gła
gładka
gładki
gładkie
głaz
głby
głe
głego
głej
gło
głodu
głogo
głogowa
głogowie
głos
głosami
głosem
głosi
głosicieli
głosił
głoso
głosowania
głosowanie
głosowaniu
głosowe
głosowi
głosowy
głosu
głosuja
głosy
głosza
głowa
głowacki
głowe
głowica
głowice
głowicy
głowie
głowy
gły
głych
głym
h
ha
hab
habilitacje
habilitacyjna
habilitowanego
habilitowany
habilitował
habilitowała
habsburg
habsburga
habsburgo
had
hadz
hadze
hagen
hahn
hai
haitan
haiti
hajfa
hajno
hal
hala
hale
half
halfpipe
hali
halicki
halifax
halina
haliny
hall
halle
haller
hallera
halloween
halo
halowa
halowe
halowy
halowych
ham
hama
hamburg
hamburga
hamburger
hamburgu
hamilton
hamiltona
hamlet
hammer
hammond
hamowania
hampshire
hampton
hamuja
hamuje
hamulce
hamulec
han
hana
hancock
hand
handbook
handbuch
handel
handlem
handlowa
handlowe
handlowego
handlowej
handlowo
handlowy
handlowych
handlowym
handlu
hands
hank
hanka
hanna
hannah
hanny
hanower
hanoweru
hanowerze
hans
hansa
hansen
hapoelu
happy
hara
harald
harbor
harbour
harcerek
harcerska
harcerski
harcerskich
harcerskie
harcerskiego
harcerskiej
harcerstwa
harcerze
harcerzy
hard
hardcore
hardy
hare
harmonia
harmonii
harmonijka
harmonogram
harold
harolda
harper
harriet
harris
harrison
harry
hart
hartford
harvard
harvarda
harvey
has
hasan
haseł
hassan
hastings
hasła
hasłem
hasło
hat
hate
haubic
haubice
haus
haute
hauts
have
haven
havilland
hawajach
hawaje
hawanie
hawk
hawker
hawkins
hawks
hayes
hałas
hałasu
hb
hbo
hc
hd
he
head
health
heart
hearts
heat
heath
heather
heaven
heavy
heavyweight
hebr
hebrajski
hebrajskiego
hebrajskim
hector
hee
heerenveen
heidelberg
heidelbergu
heidi
height
heights
heine
heinrich
heinricha
heinz
hej
hektaro
hel
helen
helena
helene
heleny
hell
heller
hello
helmut
help
helsinek
helsinkach
helsinki
helu
henderson
hendrix
henri
henrik
henry
henryk
henryka
henrykiem
henrykowi
hepburn
her
herald
herb
herbarz
herbaty
herbem
herbert
herberta
herbie
herbo
herbowa
herbowni
herbu
herby
hercegowina
hercegowinie
hercegowiny
hercules
here
herezje
heritage
herkules
herkulesa
herman
hermana
hermann
hermanna
herna
hero
heroes
herrera
herschel
herzog
hesja
hesji
het
hetman
hetmana
hey
hełm
hełmem
hg
hi
hierarchia
hierarchii
hierarchy
hieroglif
hieronim
hieronima
higgins
high
higher
highway
higieny
hilary
hill
hilla
hills
hilton
him
himmler
hindi
hip
hipolit
hipolita
hipotez
hipoteza
hipoteze
hipotezy
his
hist
histoire
historia
historica
historical
historie
historii
historiografii
history
historycy
historyczna
historyczne
historycznego
historycznej
historycznie
historyczno
historyczny
historycznych
historycznym
historyk
historyka
historyko
hiszp
hiszpan
hiszpania
hiszpanie
hiszpanii
hiszpano
hit
hitchcock
hitem
hitler
hitlera
hitlerowco
hitlerowcy
hitlerowskich
hitlerowskie
hitlerowskiej
hito
hits
hity
hiv
hk
hl
hle
hm
hmcs
hms
hne
ho
hobart
hoc
hochschule
hockey
hodowla
hodowle
hodowli
hof
hoffman
hoffmann
hogan
hohenzollern
hokeis
hokeista
hokej
hokeja
hokejowe
hokejowy
hokeju
hokkaido
hol
holandia
holandii
hold
holden
holding
hole
holender
holenderscy
holenderska
holenderski
holenderskich
holenderskie
holenderskiego
holenderskiej
holenderskim
holendrzy
holiday
holland
holly
hollywood
holmes
holocaust
holocaustu
holotyp
holotypu
holstein
holsztyn
holsztynie
holt
holy
home
homel
homelskim
homer
homera
homme
homo
homoseksualne
homoseksualnych
honda
honduras
hondurasu
honey
hong
hongkon
hongkong
hongkongu
honolulu
honor
honorable
honoris
honorowa
honorowe
honorowego
honorowej
honorowi
honorowy
honorowych
honorowym
honoru
honsiu
hood
hook
hop
hope
hopkins
hopowe
hora
horace
horizon
horizontal
horizonte
horn
horod
horror
horroru
horse
horst
horyzont
horyzonty
hospicjum
hospital
hot
hotel
hotele
hoteli
hotelu
hotspur
hour
hours
house
houston
how
howard
howarda
howe
hołd
hołdzie
hp
hr
hrabia
hrabiego
hrabina
hrabiny
hrabio
hrabiowie
hrabstw
hrabstwa
hrabstwie
hrabstwo
hradec
hrer
hrera
hrsg
hs
htm
html
http
https
hu
huang
huber
hubert
huberta
hucie
hudson
hufca
hufiec
hugh
hughes
hugo
hugona
hui
hulk
hull
human
humanistyczne
humanistycznego
humanistycznej
humanistycznych
humanistycznym
humanitarna
humanitarnej
humor
humoru
hunt
hunter
huragan
hurricane
hurt
hus
husajn
husajna
huta
hutniczej
hutu
huty
huzaro
hy
hybrid
hyde
hydra
hymn
hymnu
hyun
hyundai
hz
i
ia
iaaf
ian
iana
iata
ib
iba
ibf
ibm
ibn
ibrahim
ibuti
ic
ica
icao
ice
ich
ichi
icon
ictvi
id
ida
idaho
ide
idea
idee
idei
identyczna
identyczne
identyczny
identyfikacja
identyfikacje
identyfikacji
ideo
ideologia
ideologii
idol
idy
idz
idzie
ie
ieee
if
ifbb
ifk
ig
iga
iglastych
ignacego
ignacio
ignacy
igor
igora
igrzysk
igrzyska
igrzyskach
igrzyskami
igły
ihm
ihor
ii
iihf
iii
ij
ik
ikko
ikon
ikona
ikonografii
ikonostas
ikony
il
ile
ilja
illinois
illustrated
iloczyn
ilona
ilos
ilustracja
ilustracjami
ilustracje
ilustracji
ilustrator
ilustrowana
ilustrowany
ilustruja
im
image
imagesize
imdb
img
imie
imienia
imieniem
imieniny
imieniu
imigranto
imion
imiona
impact
imperial
imperium
implementacja
implementacji
imponuja
import
importu
imprez
impreza
imprezach
impreze
imprezie
imprezy
impuls
imu
in
ina
inaczej
inauguracja
inc
incertae
increment
incydent
incydentu
indeks
indeksu
indeksuja
indeksy
independence
independent
independiente
index
india
indiach
indian
indiana
indianapolis
indianie
indie
indii
indonezja
indonezji
indonezyjski
indre
industrial
industries
industry
indy
indyjscy
indyjska
indyjski
indyjskich
indyjskie
indyjskiego
indyjskiej
indyjskim
indywidualna
indywidualne
indywidualnego
indywidualnej
indywidualnie
indywidualny
indywidualnych
indywidualnym
indziej
ine
infekcji
inflacji
info
informacja
informacjami
informacje
informacji
informacyjna
informacyjne
informacyjnego
informacyjnej
informacyjny
informacyjnych
information
informator
informatyczne
informatycznych
informatyk
informatyka
informatyki
informuja
informuje
infrastruktura
infrastrukture
infrastruktury
infty
ingerencji
ingolstadt
ingres
ingrid
inhibitory
inicjator
inicjatorem
inicjatoro
inicjatyw
inicjatywa
inicjatywe
inicjatywy
inkardynowany
inkwizycji
inkwizytor
inn
inna
inne
innego
innej
inni
innocentego
innocenty
innowacje
innowacji
innsbruck
innsbrucku
inny
innych
innym
innymi
inowrocław
inowrocławiu
ins
insert
inside
inskrypcja
inskrypcje
inskrypcji
inspekcji
inspektor
inspektora
inspektorat
inspektoratu
inspektorem
inspiracja
inspiracje
inspiracji
inspirowana
inspirowane
inspirowany
instalacja
instalacje
instalacji
instancji
institut
institute
institution
instrukcja
instrukcje
instrukcji
instruktor
instruktora
instruktorem
instruktoro
instrument
instrumentach
instrumental
instrumentalna
instrumentalne
instrumentalny
instrumento
instrumentu
instrumenty
instytucie
instytucja
instytucjach
instytucjami
instytucje
instytucji
instytut
instytutem
instytuto
instytutu
instytuty
insurekcji
insygnia
int
integracja
integracji
integralna
integralne
integralnos
intel
intelektualisto
intelektualna
intelektualnej
inteligencja
inteligencje
inteligencji
intelligence
intencji
intensywna
intensywne
intensywnego
intensywnej
intensywnie
intensywnos
intensywny
intensywnych
intensywnym
inter
interactive
interakcje
interakcji
intercity
intercontinental
interes
intereso
interesował
interesu
interesuja
interesuje
interesy
interfejs
interfejsu
interior
internacional
international
internationale
internecie
internet
internetowa
internetowe
internetowego
internetowej
internetowy
internetowych
internetowym
internetu
internowani
internowania
internowany
internowanych
interpress
interpretacja
interpretacje
interpretacji
intertoto
interu
interview
interwencja
interwencje
interwencji
into
intro
introduction
inwalido
inwazja
inwazje
inwazji
inwentarz
inwestoro
inwestycja
inwestycje
inwestycji
inwestycyjnych
inz
io
ioc
ion
ios
iowa
ip
iphone
ipn
ipswich
ir
ira
irak
iraku
iran
iranie
iranu
irb
ireland
irena
irene
ireneusz
ireny
irina
iris
irish
irl
irlandia
irlandii
irlandzcy
irlandzka
irlandzki
irlandzkie
irlandzkiego
irlandzkiej
iron
irvine
irving
is
isa
isaac
isabel
isabelle
isbn
ise
isis
iskra
iskry
islam
islamskiego
islamskiej
islamu
island
islandia
islandii
islands
islandzki
isle
iso
israel
iss
issn
issue
ist
istituto
istniał
istniała
istniało
istniały
istniec
istnieja
istnieje
istnienia
istnienie
istnieniu
istocie
istot
istota
istote
istotna
istotne
istotnie
istotny
istotnych
istotnym
istoty
istryjskiej
istva
it
ita
italia
italian
italiana
italii
italy
itd
item
itf
ito
itp
its
itunes
iu
iucn
iure
ius
iv
iva
ivan
ivana
ivo
iwan
iwana
iwano
iwanofrankiwskim
iwanow
iwanowicz
iwo
iwona
ix
iz
izaak
izaaka
izabela
izabeli
izabella
izb
izba
izbe
izbie
izby
izolacji
izrael
izraela
izraelczycy
izraelem
izraelscy
izraelska
izraelski
izraelskich
izraelskie
izraelskiego
izraelskiej
izraelskim
izraelsko
izraelu
izydor
ił
iława
iłz
j
ja
jabłon
jac
jacek
jacht
jachtu
jack
jacka
jackie
jackiem
jackson
jacksona
jacob
jacoba
jacobs
jacqueline
jacques
jad
jada
jadalne
jade
jadwiga
jadwige
jadwigi
jae
jag
jagiellon
jagiellonia
jagiellonii
jagiellono
jagiełło
jagiełły
jagody
jaguar
jahr
jaime
jaj
jaja
jajo
jajowate
jak
jaka
jakas
jakby
jake
jaki
jakich
jakichkolwiek
jakie
jakiego
jakiegokolwiek
jakiegos
jakiej
jakiejkolwiek
jakiejs
jakiekolwiek
jakies
jakikolwiek
jakim
jakimi
jakims
jakis
jakkolwiek
jako
jakob
jakoby
jakos
jakub
jakuba
jakubowski
jakz
jam
jama
jamajce
jamajka
jamajki
jamajski
james
jamesa
jamesem
jamie
jamy
jan
jana
jane
janeiro
janek
janem
janet
jang
janicki
janie
janina
janiny
janka
jankowska
jankowski
janne
jano
janowi
janowie
janowski
jantar
january
janusz
janusza
januszem
jap
japan
japanese
japon
japonia
japonie
japonii
jar
jaracza
jardo
jarocin
jarocinie
jaroslav
jarosz
jarosław
jarosława
jarosławia
jarosławiu
jarza
jarze
jas
jasien
jasin
jaskin
jaskini
jaskinia
jaskinie
jasko
jasna
jasne
jasnej
jasno
jasnobra
jasnogo
jasnos
jasnoz
jasny
jasnych
jason
jasona
jassy
jastrza
jastrze
jaszczurki
jasło
java
javier
jaw
jawnie
jawor
jaworski
jaworzno
jay
jaya
jaz
jazda
jazde
jazdy
jazz
jazzowa
jazzowe
jazzowego
jazzowej
jazzowi
jazzowy
jazzowych
jazzu
jca
jce
jcik
jco
jcy
jcza
jcze
je
jean
jeana
jeanne
jechac
jechał
jeden
jedenas
jedenasta
jedenastce
jedenaste
jedenastki
jedenastu
jedenasty
jedi
jedna
jednak
jednakz
jedne
jednego
jednej
jednemu
jedni
jedno
jednoczes
jednoczesnym
jednogłos
jednolis
jednolita
jednolite
jednolitego
jednolity
jednomys
jednonawowa
jednonawowy
jednorodzinnych
jednoroz
jednos
jednostce
jednostek
jednostka
jednostkach
jednostkami
jednostke
jednostki
jednostkom
jednostkowa
jednotorowa
jednoznacznie
jednych
jednym
jednymi
jedyna
jedyne
jedynego
jedynej
jedynie
jedynka
jedynki
jedyny
jedynym
jedynymi
jedza
jedzenia
jedzenie
jedzie
jeff
jeffa
jefferson
jeffrey
jego
jehowy
jej
jek
jekaterynburg
jekatierina
jelcz
jelen
jelena
jeleni
jelenia
jeleniej
jeleniogo
jelit
jelita
jemen
jemenu
jemu
jen
jena
jenieckich
jenkins
jennifer
jenny
jeno
jens
jensen
jeremy
jericho
jerome
jerozolima
jerozolimie
jerozolimy
jerry
jersey
jerzego
jerzy
jerzym
jes
jesien
jesieni
jesienia
jesienna
jesiennej
jesionika
jesse
jessica
jessie
jest
jestem
jestes
jesu
jesus
jeszcze
jet
jewgienij
jewish
jez
jezdni
jezior
jeziora
jeziorach
jeziorami
jeziorem
jezioro
jeziorze
jezuici
jezuita
jezuito
jezus
jezusa
jezusowego
ji
jidysz
jill
jim
jima
jimi
jimmy
jin
jir
jiu
jk
jka
jkach
jke
jki
jna
jne
jnego
jnej
jnia
jnie
jnos
jny
jnych
jnym
jo
joa
joachim
joachima
joan
joanna
joanne
joannito
joanny
joe
joego
joel
joey
johan
johana
johann
johanna
johannes
johannesa
johansson
john
johna
johnem
johnny
johns
johnson
johnsona
johnston
joint
joker
jolanta
jon
jona
jonas
jonathan
jonathana
jones
jonesa
jong
jono
jonsson
jony
jordan
jordana
jordania
jordanii
jorge
jork
jorku
jos
jose
josef
josefa
joseph
josepha
josh
joshua
journal
journey
jowisza
joy
joyce
jozef
jp
jpeg
jpg
jr
js
jskok
jskoku
jstw
jstwa
jstwie
jstwo
jt
jta
jtem
ju
juan
juana
jubileusz
jubileuszowa
jubileuszowy
jubileuszowym
jubileuszu
judaizm
judaizmu
judd
judei
judith
judo
judocy
judoczka
judoka
judy
jugosławia
jugosławii
jugosłowian
jules
julia
julian
juliana
julie
julien
julii
julio
julius
juliusz
juliusza
july
jump
jun
june
jung
jungle
junior
juniorek
junioro
juniors
juniorska
juniorskich
juniorskiej
juniorzy
junkers
juno
junosza
jura
jurek
jurij
jurija
juroro
jury
jurysdykcje
jurysdykcji
jus
juss
just
justice
justify
justin
justyna
jutro
juventus
juventusu
juz
jw
k
ka
kabaret
kabaretu
kabina
kabine
kabinie
kabiny
kabli
kac
kach
kacper
kaczka
kaczki
kaczmarek
kaczmarski
kaczor
kaczyn
kaddafiego
kadencja
kadencje
kadencji
kadeto
kadr
kadra
kadre
kadry
kadrze
kadłub
kadłuba
kadłubem
kadłubie
kai
kair
kairze
kaiser
kaiserliche
kaiserslautern
kaj
kaja
kajakarstwo
kajakarz
kajakarze
kajetan
kajetana
kal
kaledonii
kalendarium
kalendarz
kalendarza
kalendarzu
kaliber
kalibru
kalifornia
kalifornii
kalifornijskim
kalina
kalinowski
kaliska
kaliski
kaliskie
kaliskiego
kaliskiej
kaliskim
kalisz
kalisza
kaliszu
kalwaria
kalwarii
kalwin
kambodz
kamen
kamer
kamera
kameralna
kameralnej
kameralny
kamerun
kamerunie
kamerunu
kamery
kami
kamien
kamieni
kamienia
kamieniami
kamienic
kamienica
kamienice
kamienicy
kamienie
kamieniec
kamieniem
kamieniu
kamienna
kamienne
kamiennego
kamiennej
kamienny
kamiennych
kamiennym
kamil
kamila
kamin
kamionka
kampania
kampaniach
kampanie
kampanii
kampus
kamuflaz
kan
kana
kanada
kanady
kanadyjczycy
kanadyjscy
kanadyjska
kanadyjski
kanadyjskich
kanadyjskie
kanadyjskiego
kanadyjskiej
kanadyjskim
kanadzie
kanale
kanalizacji
kanaryjskich
kanał
kanałach
kanałami
kanałem
kanało
kanału
kanały
kancelaria
kancelarie
kancelarii
kanclerz
kanclerza
kanclerzem
kandydaci
kandydat
kandydata
kandydatem
kandydatka
kandydato
kandydature
kandydatury
kandydował
kandydowała
kane
kang
kania
kanie
kanon
kanonicy
kanoniczne
kanonicznego
kanonierka
kanonierki
kanonik
kanonika
kanonikiem
kanoniko
kanonu
kansas
kant
kanton
kantonie
kantonu
kantor
kanye
kapela
kapelan
kapelana
kapelanem
kapeli
kapelusz
kapelusza
kapitalizmu
kapitan
kapitana
kapitanem
kapitanowie
kapitał
kapitału
kapitulacja
kapitulacji
kapituła
kapitułe
kapituły
kaplic
kaplica
kaplice
kaplicy
kapliczka
kapliczki
kappa
kapral
kapucyno
kapus
kapłan
kapłana
kapłanem
kapłani
kapłano
kar
kara
karabin
karabinek
karabino
karabinu
karabiny
karaibo
karas
karate
karcie
karczma
karczmy
kard
kardynał
kardynała
kardynałem
kardynało
kardynałowie
kare
karel
karen
kariera
kariere
kariery
karierze
karin
karkonosze
karl
karla
karlowackiej
karlsruhe
karma
karmel
karmelito
karna
karne
karnego
karnej
karny
karnych
karnym
karol
karola
karolem
karolin
karolina
karolinie
karoliny
karolowi
karpackich
karpat
karpatach
karpaty
karpin
kart
karta
kartach
karte
kartek
kartka
kartke
kartki
kartografii
karty
kary
karze
karzeł
kas
kasa
kaseta
kasety
kasia
kask
kasper
kasprowicza
kasprzak
kassel
kastylii
kasy
kaszb
kasztelan
kasztelana
kasztelanowie
kaszub
kaszubska
kaszubski
kaszubskie
kaszubskiego
kat
kata
katalog
katalogu
katalon
katalonii
kataru
katarzyna
katarzyne
katarzyny
katastrof
katastrofa
katastrofie
katastrofy
katastru
kate
katedr
katedra
katedralna
katedralnej
katedre
katedry
katedrze
kategoria
kategoriach
kategorie
kategorii
katherine
kathleen
kathy
katie
katoliccy
katolicka
katolicki
katolickich
katolickie
katolickiego
katolickiej
katolickim
katolicy
katolicyzm
katolicyzmu
katolik
katolikami
katoliko
katowic
katowicach
katowice
katowickiego
katowickiej
katowickim
katy
katyn
katyniu
kaukaz
kaukazie
kaukazu
kaw
kawa
kawaler
kawalerem
kawaleria
kawalerii
kawalero
kawalerowie
kawalerski
kawalerskim
kawasaki
kawałek
kawałki
kawałko
kawe
kawiarni
kawiarnia
kawiarnie
kawy
kay
kaz
kazachscy
kazachski
kazachskiej
kazachstan
kazachstanie
kazachstanu
kazan
kazania
kazanie
kazaniu
kazał
kazimiera
kazimierz
kazimierza
kazimierzem
kazimierzowi
kazimierzu
kaznodzieja
kaznodziejska
kałuz
kb
kc
kd
ke
keep
kefar
kei
keith
keller
kelly
kelner
ken
kenia
kenii
kennedy
kenneth
kenny
kent
kentucky
kerr
kerry
kevin
kevina
key
keyboard
keys
kf
kg
kgb
kh
khan
khl
khz
ki
kia
kibice
kibico
kibuc
kibucu
kich
kichot
kick
kid
kids
kie
kiedy
kiedykolwiek
kiedys
kiego
kiej
kielc
kielcach
kielce
kielecki
kieleckiego
kieleckiej
kieleckim
kielich
kielicha
kiem
kien
kienniczy
kier
kierowac
kierowali
kierowana
kierowane
kierowanej
kierowania
kierowanie
kierowany
kierowanych
kierowanym
kierował
kierowała
kierowca
kierowcami
kierowco
kierowcy
kierownica
kierownictwa
kierownictwem
kierownictwo
kierownicy
kierownicze
kierowniczego
kierowniczka
kierownik
kierownika
kierownikiem
kieruja
kieruje
kierunek
kierunkach
kierunki
kierunkiem
kierunko
kierunku
kies
kieszeni
kiewicz
kiez
kij
kijo
kijowa
kijowie
kijowska
kijowski
kijowskiego
kijowskiej
kijowskim
kilin
kilka
kilkadziesia
kilkakrotnie
kilkanas
kilkaset
kilkoma
kilku
kilkudziesie
kilkukrotnie
kilkunastu
kilkuset
kill
killer
killing
kilogramo
kilometr
kilometra
kilometro
kilometry
kilonii
kim
kimi
kin
kina
kinach
kind
kinematografii
king
kinga
kingdom
kings
kingston
kinie
kino
kinowa
kinowym
kioto
kirby
kirche
kirgistanu
kirk
kirkut
kiryka
kis
kiss
kiszynio
kiszyniowie
kit
kitna
kitne
kitnej
kitny
kitnym
kitty
kitzbu
kk
kka
kkich
kkie
kl
kla
klad
kladu
klan
klanu
klapy
klara
klarnet
klary
klarysek
klas
klasa
klasach
klase
klasie
klasse
klasy
klasycystyczna
klasycystyczny
klasycystycznym
klasycyzmu
klasyczna
klasyczne
klasycznego
klasycznej
klasyczny
klasycznych
klasycznym
klasyfikacja
klasyfikacje
klasyfikacji
klasyfikowane
klasyfikowany
klasztor
klasztorem
klasztorne
klasztornego
klasztorny
klasztornych
klasztoro
klasztorowi
klasztoru
klasztory
klasztorze
klatce
klatka
klatke
klatki
klaudia
klaudiusz
klaus
klawiatury
klawisze
klawiszowe
klawiszowiec
kle
klein
klejnot
klemens
klemensa
kleopatra
kleru
klient
klienta
kliento
klimacie
klimat
klimato
klimatu
klimatyczne
klimatycznych
klimatyzacje
klin
klinice
kliniczne
klinicznego
klinicznej
kliniczny
klinicznych
klinika
kliniki
klip
klon
klono
klub
klubach
klubami
klubem
klubie
klubo
klubowa
klubowe
klubowej
klubowi
klubowy
klubowych
klubu
kluby
klucz
klucza
klucze
kluczem
kluczowa
kluczowe
kluczowych
kluczowym
kluczy
kluz
km
kmdr
kn
kna
kne
knej
knesetu
kniarz
kniaz
knicks
knie
kniejsze
kniejszych
knight
knights
kno
knos
know
knowledge
knowles
knox
kny
knych
ko
koalicja
koalicje
koalicji
kobayashi
kobe
kobieca
kobiece
kobiecego
kobiecej
kobiecie
kobiecy
kobiecych
kobiet
kobieta
kobietami
kobiete
kobietom
kobiety
kobra
kobryn
kobylin
koc
koch
kocha
kochac
kochaja
kocham
kochan
kochanek
kochanka
kochanki
kochankowie
kochanowski
kochanowskiego
kocioł
kod
koda
kodeks
kodeksie
kodeksu
kodo
kodowania
kodu
koduja
kody
kodzie
kogo
kogos
kogucia
koguciej
kojes
kol
kola
kolana
kolarka
kolarskiego
kolarstwie
kolarstwo
kolarz
kolarze
kolarzy
kolbe
kolbego
kolce
kolco
kole
koledzy
kolega
kolegami
kolegi
kolegiackiej
kolegiata
kolegiaty
kolegium
kolego
kolei
kolej
koleja
kolejarz
kolejce
koleje
kolejek
kolejka
kolejkach
kolejki
kolejna
kolejne
kolejnego
kolejnej
kolejni
kolejnictwa
kolejno
kolejnos
kolejny
kolejnych
kolejnym
kolejnymi
kolejowa
kolejowe
kolejowego
kolejowej
kolejowy
kolejowych
kolejowym
kolekcja
kolekcjach
kolekcje
kolekcji
kolekcjoner
kolez
kolizji
kolon
kolonia
koloniach
kolonialnej
kolonialnych
kolonie
kolonii
kolonisto
kolonizacja
kolonizacji
kolor
kolorach
kolorado
kolorem
koloro
kolorowe
kolorowych
koloru
kolory
kolorze
kolumba
kolumbia
kolumbii
kolumbijski
kolumn
kolumna
kolumnach
kolumnami
kolumne
kolumnie
kolumny
kolwiek
kom
koma
koman
komandor
komandora
komandorski
komandorskim
komandoso
kombatanto
kombi
kombinacja
kombinacje
kombinacji
komedia
komedie
komedii
komediodramacie
komediowe
komediowy
komediowym
komend
komenda
komendanci
komendant
komendanta
komendantem
komende
komendy
komendzie
komentarz
komentarze
komentarzem
komentarzy
komentator
komercyjne
komercyjnego
komercyjny
komercyjnych
komercyjnym
komet
kometa
komety
komik
komiks
komikso
komiksu
komiksy
komin
komisariat
komisariatu
komisarz
komisarza
komisarze
komisarzem
komisarzy
komisja
komisjach
komisje
komisji
komitacie
komitatu
komitecie
komitet
komitetem
komiteto
komitetu
komitety
komo
komora
komorowski
komorowskiego
komory
komorze
kompania
kompanie
kompanii
kompetencje
kompetencji
kompilacja
kompilacje
kompilacji
kompilacyjne
kompilacyjny
kompleks
kompleksie
komplekso
kompleksu
kompleksy
komplet
kompletna
kompletne
kompletnie
kompletny
komponento
komponował
kompozycja
kompozycje
kompozycji
kompozytor
kompozytora
kompozytorem
kompozytorka
kompozytoro
kompozytorzy
kompresji
komputer
komputera
komputerach
komputero
komputerowa
komputerowe
komputerowego
komputerowej
komputerowy
komputerowych
komputery
komputerze
komsomołu
komu
komunalnej
komunalny
komunalnych
komunalnym
komunii
komunikacja
komunikacje
komunikacji
komunikacyjna
komunikacyjne
komunikacyjnego
komunikacyjny
komunikacyjnych
komunikat
komunikaty
komunis
komunisto
komunistyczna
komunistyczne
komunistycznego
komunistycznej
komunistyczny
komunistycznych
komunistycznym
komunizmu
komuny
kon
konarski
konarskiego
koncentracja
koncentracji
koncentracyjnego
koncentracyjnych
koncentracyjnym
koncentruja
koncentruje
koncepcja
koncepcje
koncepcji
koncercie
koncern
koncernu
koncert
koncertach
koncertem
koncerto
koncertowa
koncertował
koncertowe
koncertowej
koncertowy
koncertowych
koncertu
koncerty
koncesje
koncesji
koncie
kondycji
kondygnacjach
kondygnacje
kondygnacji
konfederaci
konfederacja
konfederacje
konfederacji
konfederato
konferencja
konferencjach
konferencje
konferencji
konfiguracja
konfiguracji
konflikcie
konflikt
konflikto
konfliktu
konflikty
konfrontacji
kong
konga
kongo
kongregacja
kongregacji
kongres
kongresie
kongreso
kongresowe
kongresowego
kongresowym
kongresu
kongresy
koni
konia
konie
koniec
konieczna
konieczne
koniecznos
konieczny
konin
koninie
koniu
koniunkcja
konklawe
konkretna
konkretne
konkretnego
konkretnej
konkretnie
konkretnych
konkretnym
konkurencja
konkurencjach
konkurencje
konkurencji
konkurs
konkursach
konkursie
konkurso
konkursu
konkursy
konna
konne
konnego
konnej
konny
konnych
konopczyn
konopka
konopnicka
konopnickiej
konrad
konrada
konsekracja
konsekracji
konsekrowana
konsekrowany
konsekrował
konsekwencja
konsekwencje
konsekwencji
konsekwentnie
konserwacja
konserwacji
konserwator
konserwatora
konserwatorium
konserwatorskie
konserwatysto
konserwatywna
konserwatywnej
konserwatywnych
konsola
konsole
konsoli
konsorcjum
konspiracji
konspiracyjna
konspiracyjnej
konstancja
konstancji
konstantego
konstantin
konstanty
konstantyn
konstantyna
konstantynopola
konstantynopolitan
konstantynopolu
konstrukcja
konstrukcjach
konstrukcje
konstrukcji
konstrukcyjne
konstrukcyjnych
konstrukcyjnym
konstruktor
konstruktora
konstruktoro
konstruktorzy
konstytucja
konstytucje
konstytucji
konstytucyjna
konstytucyjne
konstytucyjnego
konstytucyjnej
konstytucyjny
konsul
konsula
konsulat
konsulatu
konsultacje
konsultacji
konsultant
konsultantem
konsumento
konsumpcji
konta
kontakcie
kontakt
kontaktach
kontakto
kontaktu
kontakty
konteks
kontekst
kontekstu
konto
kontra
kontrabas
kontradmirał
kontradmirała
kontrakt
kontraktem
kontrakto
kontraktu
kontrakty
kontratak
kontrataku
kontrola
kontrole
kontroler
kontroli
kontrolna
kontrolne
kontrolnych
kontrolowac
kontrolowana
kontrolowane
kontroluja
kontroluje
kontrowersje
kontrowersji
kontrowersyjna
kontrwywiadu
kontuzja
kontuzje
kontuzji
kontynencie
kontynent
kontynentach
kontynentalnego
kontynentalnej
kontynentalny
kontynentalnych
kontynentalnym
kontynento
kontynentu
kontyngentu
kontynuacja
kontynuacje
kontynuacji
kontynuowac
kontynuowali
kontynuowana
kontynuowane
kontynuowania
kontynuowanie
kontynuowano
kontynuował
kontynuowała
kontynuowały
kontynuuja
kontynuuje
konwencja
konwencje
konwencji
konwent
konwentu
konwersji
konwo
konwojo
konwoju
konwokacyjny
koordynacja
koordynacji
koordynatorem
kop
kopa
kopaln
kopalni
kopalnia
kopalniach
kopalnie
kopciuszek
kopczyn
kopenhadze
kopenhaga
kopenhagi
kopernik
kopernika
kopia
kopie
kopiec
kopii
kopis
kopiso
kopisu
kopisy
kopnie
koprodukcji
kopuła
kopułe
kopuły
kopy
kor
kora
koranu
korczak
korczaka
korczyn
korea
korean
korei
korekty
korespondencja
korespondencje
korespondencji
korespondent
korespondentem
korfantego
kornwalii
koron
korona
koronacja
koronacji
koronacyjny
korone
koronie
koronna
koronnego
koronnej
koronni
koronny
koronnych
koronowany
korony
korporacja
korporacje
korporacji
korpus
korpusem
korpusie
korpuso
korpusu
korpusy
korsyka
kortach
korty
korupcji
korwin
kory
korybuta
koryta
korytarz
korytarza
korytarzy
koryto
korzen
korzeni
korzeniach
korzeniami
korzenie
korzys
korzysta
korzystac
korzystaja
korzystali
korzystania
korzystanie
korzystał
korzystne
kos
kosin
kosmiczna
kosmiczne
kosmicznego
kosmicznej
kosmiczny
kosmicznych
kosmonauta
kosmonauto
kosmos
kosmosie
kosmosu
koso
kosowa
kosowie
kostaryce
kostaryka
kostarykan
kostaryki
kostiumy
kostka
kostki
kostrzyn
koszalin
koszalinie
koszar
koszarach
koszary
koszt
kosztem
koszto
kosztował
kosztowała
koszty
koszule
koszyce
koszykarka
koszykarki
koszykarski
koszykarz
koszykarze
koszyko
kot
kota
kotlina
kotlinie
kotliny
koto
kotwica
koty
kotła
kotło
kotły
kova
kowa
kowal
kowalczyk
kowalewski
kowalik
kowalska
kowalski
kowalskiego
kowatych
kowe
kowego
kowej
kowiak
kowice
kowien
kownie
kowno
kowo
kowska
kowski
kowskiego
kowy
kowych
kowym
koz
koza
kozacy
kozak
kozako
kozioł
kozy
kozłowski
koła
kołach
kołami
kołem
koło
kołobrzeg
kołobrzegu
kołobrzeskiej
kołodziej
kołowy
kołowym
kołła
kp
kpn
kpp
kpr
kpt
kpzr
kr
kra
kradziez
krain
kraina
krainie
krainy
kraj
krajach
krajami
kraje
krajem
krajen
krajewski
krajo
krajobraz
krajobrazowego
krajobrazowy
krajobrazu
krajobrazy
krajowa
krajowe
krajowego
krajowej
krajowy
krajowych
krajowym
krajoznawczego
kraju
krako
krakow
krakowa
krakowem
krakowie
krakowscy
krakowska
krakowski
krakowskich
krakowskie
krakowskiego
krakowskiej
krakowskiem
krakowskim
krakowsko
kramer
kran
kras
krasickiego
krasin
kraszewski
kraszewskiego
krater
krateru
krawczyk
krawe
kre
kreacja
kreacje
kreacji
kredy
kredyt
kredyto
kredytu
kreis
kreowany
kres
kresach
kresko
kreso
kresowych
kresy
krew
krewni
krewnych
kriegsmarine
kris
kriz
krn
kro
krok
kroki
krokiem
kroko
kroku
kronice
kronik
kronika
kronikarz
kroniki
krople
kros
krosna
krosno
krotnie
krotny
krotoszyn
krowy
krs
krtani
kru
kruchta
krucjaty
krucyfiks
kruk
krupa
kruz
krwawa
krwawe
krwi
krwia
krwionos
kryja
kryje
kryjo
krym
krymie
kryminalna
kryminalne
kryminalnej
kryminalny
kryminalnych
kryminalnym
krymu
krynica
krynicy
krypcie
krypta
kryptonim
kryptonimem
krypty
krystian
krystyna
krystyny
kryształo
kryształowa
kryształy
kryta
kryte
kryteria
kryterio
kryterium
kryty
krytyce
krytycy
krytyczna
krytyczne
krytycznej
krytycznie
krytyczny
krytycznych
krytyk
krytyka
krytyke
krytyki
krytyko
krytykowany
krytykował
krytykuja
kryzys
kryzysem
kryzysie
kryzysu
krzemien
krzew
krzewo
krzewy
krzyk
krzysztof
krzysztofa
krzysztofem
krzywa
krzywe
krzywej
krzywoustego
krzywy
krzyz
ks
ksawerego
ksawery
ksia
ksie
ksw
ksza
kszaja
kszania
kszanie
ksze
kszego
kszej
kszenia
kszenie
kszeniem
kszeniu
kszo
kszona
kszone
kszonej
kszono
kszony
kszonym
kszos
kształca
kształcenia
kształcenie
kształcie
kształcił
kształciła
kształt
kształtem
kształtowania
kształtowanie
kształtowaniu
kształtowała
kształtu
kształtuja
kształty
kszy
kszyc
kszych
kszym
kszymi
kszył
kszyła
kszyło
kt
kto
ktos
ku
kuala
kuba
kuban
kube
kubiak
kubica
kubie
kuby
kuc
kucharz
kuchni
kuchnia
kuchnie
kuczyn
kujaw
kujawach
kujawski
kujawskiej
kujawskim
kujawsko
kuje
kukiz
kukurydzy
kul
kula
kule
kulesza
kuli
kulinaria
kuliste
kulminacja
kult
kultem
kultu
kultur
kultura
kulturach
kulturalna
kulturalne
kulturalnego
kulturalnej
kulturalno
kulturalny
kulturalnych
kulturalnym
kulture
kulturowa
kulturowe
kulturowego
kulturowej
kulturowo
kulturowy
kulturowych
kulturowym
kultury
kulturze
kumbrii
kun
kung
kunst
kupca
kupco
kupcy
kupic
kupiec
kupił
kupiła
kupna
kupuja
kur
kurator
kuria
kurier
kuriera
kurii
kurs
kursach
kursie
kurska
kurskiego
kurskim
kurso
kursowały
kursu
kursuja
kursuje
kursy
kurt
kurta
kus
kustosz
kuter
kutnie
kutno
kutro
kutry
kutuzowa
kuwejtu
kuz
kuzyn
kuzyna
kuzynem
kuzynka
kv
kw
kwadrat
kwadratowa
kwadratowy
kwadratowych
kwadratu
kwalifikacjach
kwalifikacje
kwalifikacji
kwalifikacyjna
kwalifikacyjne
kwalifikacyjnej
kwalifikuja
kwantowa
kwantowej
kwartale
kwartalnik
kwartalnika
kwartet
kwas
kwaso
kwasu
kwasy
kwatera
kwatery
kwaterze
kwestia
kwestiach
kwestie
kwestii
kwh
kwiat
kwiatach
kwiatami
kwiatkowska
kwiatkowski
kwiato
kwiatostan
kwiatostany
kwiatowe
kwiatu
kwiaty
kwidzyn
kwiecien
kwiecin
kwietnia
kwietniu
kwitna
kwitnie
kwitnienia
kwk
kwota
kwote
kwoty
ky
kyj
kyle
kyo
kyu
kz
kła
kłada
kładzie
kłamstwa
kłe
kło
kłodzka
kłodzkiej
kłodzko
kłodzku
kłopoto
kłopoty
kłos
l
la
label
labirynt
laboratorium
laboratory
laboratoryjnych
labry
lac
lach
lacjum
lad
ladami
ladem
ladies
lado
ladowan
ladowania
ladu
laduja
lady
lagos
laguna
lahti
laja
lak
lake
lakers
lalek
lali
lalka
lalki
lam
lambda
lambert
lami
lamp
lampa
lampy
lan
lana
lancashire
lancaster
lance
lancetowate
lanckoron
land
landau
landesamt
landkreis
landtagu
lane
lanego
lanej
lang
lange
langle
language
langwedocji
lania
lanie
lanka
lanki
lano
lany
lanych
lara
larka
larry
lars
larsen
larsson
larstwie
larstwo
larw
larwa
larwy
larz
larze
las
lasach
lasami
lasek
lasem
laser
laska
laski
laso
last
lasu
lasy
lat
lata
latac
latach
lataja
latami
latarni
latarnia
latarnie
latał
late
latek
latem
lateran
latin
latina
lato
laty
latynoamerykan
lauda
laura
laureaci
laureat
laureatem
laureatka
laureatki
laureato
lauren
laurence
laurent
laurie
laury
law
lawrence
layer
lazio
lazurowe
lał
lała
lb
lc
lcea
ld
le
lea
leader
league
learning
least
leave
leb
leben
lebu
lec
leca
lecce
lech
lecha
lechem
lechia
lechii
lecia
lecie
lecz
leczenia
leczenie
leczeniu
lecznicza
lecznicze
leczniczych
leczonych
led
ledczego
ledczy
ledwie
ledwo
ledzenia
ledzenie
ledzic
ledztwa
ledztwie
ledztwo
lee
leeds
left
leg
legacy
legalnie
legat
legend
legenda
legendarnego
legendarny
legende
legends
legendy
legia
legii
legion
legionisto
legiono
legionu
legnica
legnickiego
legnickiej
legnicy
lego
legum
leicester
leigh
leipzig
lej
lejtnant
lek
lekami
lekarka
lekarska
lekarski
lekarskich
lekarskie
lekarskiego
lekarskiej
lekarskim
lekarz
lekarza
lekarze
lekarzem
lekarzy
lekcewaz
lekcja
lekcje
lekcji
leki
lekka
lekki
lekkich
lekkie
lekkiego
lekkiej
lekkim
lekko
lekkoatleci
lekkoatleta
lekkoatletka
lekkoatletyce
lekkoatletyczne
lekkoatletyczny
lekkoatletycznych
lekkoatletyka
lekkoatletyki
lekkos
leko
leksykon
lektor
lektorem
lektury
leku
leliwa
lem
len
lena
lenia
lenie
leniem
lenin
lenina
leningrad
leningradu
leningradzie
leningradzkiego
leniu
lenno
lennon
lennox
lenny
lens
leo
leon
leona
leonard
leonarda
leonardo
leone
leonid
leopold
leopolda
lepiej
lepsza
lepsze
lepszego
lepszej
lepszy
lepszych
lepszym
leqslant
leroy
les
lesie
leslie
lesotho
lester
lestw
lestwa
lestwem
lestwie
lestwo
leszczyn
leszek
leszka
lesznie
leszno
lesław
let
letni
letnia
letnich
letnie
letniego
letniej
letnim
letter
letters
level
leverkusen
levi
levy
lew
lewa
lewandowski
lewcu
lewe
lewego
lewej
lewica
lewicki
lewicowe
lewicowych
lewicy
lewicz
lewin
lewis
lewisa
lewna
lewo
lewobrzez
lewscy
lewska
lewski
lewskich
lewskie
lewskiego
lewskiej
lewskim
lewy
lewym
lex
lexikon
lez
lgbt
lgp
li
lia
liam
liang
liban
libanie
libanu
liber
liberalna
liberalnej
liberalno
liberalnych
liberało
libercu
liberec
liberii
libero
libertadores
liberty
libia
libii
libr
library
libretta
libretto
libri
lic
lica
lice
licencja
licencjackie
licencjat
licencjata
licencje
licencji
liceum
licy
licza
liczb
liczba
liczbach
liczbe
liczbie
liczbowe
liczby
liczebnos
liczna
liczne
liczni
licznie
liczny
licznych
licznym
licznymi
liczy
liczyc
liczył
liczyła
liczyło
liczyły
lider
lidera
liderem
liderka
lidero
liderzy
lidia
lidze
lidzkim
lie
liebe
liechtenstein
liechtensteinu
lies
life
lifting
liftingu
lig
liga
ligach
lige
light
lightning
lights
ligi
ligota
ligowa
ligowe
ligowego
ligowej
ligowy
ligowych
ligowym
ligue
lihi
liiga
lik
lika
like
likowski
likwidacja
likwidacje
likwidacji
lil
lili
lilia
lille
lillehammer
lily
lim
lima
limaki
limassol
limfocyto
limie
limit
limited
limitowana
limits
lin
lina
linach
linami
lincoln
lincolnshire
linda
lindgren
lindl
lindsay
lindsey
line
linegrey
liner
lines
linia
liniach
liniami
linie
linii
liniowa
liniowe
liniowego
liniowej
liniowo
liniowy
liniowych
link
linked
linki
linko
linna
linnaeus
linne
linnos
linnych
linoz
linux
liny
linz
lio
lion
lionel
lions
lip
lipa
lipca
lipcu
lipiec
lipin
lipowa
lipowej
lipsk
lipska
lipski
lipsku
lipy
liryka
lis
lisa
lisowski
list
lista
listach
liste
listem
listki
listko
listo
listopad
listopada
listopadowego
listopadowym
listopadzie
listu
listy
lisy
lit
liter
litera
literacka
literacki
literackich
literackie
literackiego
literackiej
literackim
literacko
literami
literat
literato
literatur
literatura
literature
literatury
literaturze
litere
litery
litewscy
litewska
litewski
litewskich
litewskie
litewskiego
litewskiej
litewskim
litewsko
litos
litra
litro
little
liturgia
liturgiczne
liturgicznych
liturgii
litwa
litwe
litwie
litwino
litwy
liu
liv
live
liverpool
liverpoolu
lives
living
livorno
liwa
liwca
liwce
liwco
liwe
liwego
liwej
liwi
liwia
liwiaja
liwiał
liwiała
liwiało
liwiały
liwic
liwie
liwiec
liwienia
liwienie
liwin
liwił
liwiła
liwiło
liwiły
liwos
liwska
liwski
liwskich
liwskie
liwskiego
liwskiej
liwsko
liwy
liwych
liwym
lix
liz
lizbona
lizbonie
lizbony
lił
liła
lka
lks
ll
ller
llera
lloyd
lm
ln
lna
lne
lnego
lnej
lnicy
lnie
lnik
lnika
lniko
lnocie
lnodoste
lnokształca
lnopolska
lnopolski
lnopolskich
lnopolskie
lnopolskiego
lnopolskiej
lnopolskim
lnos
lnot
lnota
lnote
lnoty
lny
lnych
lnym
lnymi
lo
loara
loary
local
location
loch
locie
lockheed
lodo
lodomerii
lodomeryi
lodowa
lodowca
lodowiec
lodu
lodzie
log
logan
logika
logiki
logo
loir
loire
lojalnos
lok
lokacie
lokacje
lokacji
lokal
lokali
lokalizacja
lokalizacje
lokalizacji
lokalizacyjne
lokalna
lokalne
lokalnego
lokalnej
lokalnie
lokalny
lokalnych
lokalnym
lokalnymi
lokalu
lokata
lokate
lokaty
lokomotyw
lokomotywa
lokomotywy
lokowane
lola
lombard
lombardia
lombardii
lona
london
londyn
londynie
londynu
lone
lonego
lonej
lonely
long
lono
lony
lonych
lonym
look
looking
lopez
lord
lorda
lordem
lordo
lorenzo
lorraine
los
losach
loso
losowania
losowanie
lost
losu
losy
lot
lotach
lotaryn
lotaryngii
lotki
lotnictwa
lotnictwie
lotnictwo
lotnicy
lotnicza
lotnicze
lotniczego
lotniczej
lotniczy
lotniczych
lotniczym
lotnik
lotniko
lotnisk
lotniska
lotnisko
lotniskowca
lotniskowce
lotniskowco
lotniskowiec
lotnisku
loto
lotos
lotu
lotus
loty
lou
louis
louisa
louise
louisville
lourdes
love
lover
low
lowa
lowcy
lowe
lowej
lower
lowi
lowie
lowiec
lowy
lowych
lowym
loz
lozannie
lp
lr
ls
lski
lt
ltd
lu
lub
luban
lubelska
lubelski
lubelskie
lubelskiego
lubelskiej
lubelskim
lubelszczyz
lubi
lubia
lubic
lubicz
lubie
lubin
lubił
lubiła
lublana
lublanie
lublin
lublina
lublinie
lubna
lubo
lubomirski
lubomirskich
lubomirskiego
lubu
lubuskie
lubuskiego
lubuskiej
lubuskim
luby
luc
luca
lucas
lucia
luciano
lucjan
lucjana
lucky
lucy
lucyna
lud
ludem
ludmiła
ludnos
ludo
ludobo
ludowa
ludowe
ludowego
ludowej
ludowi
ludowo
ludowy
ludowych
ludowym
ludu
ludwig
ludwiga
ludwik
ludwika
ludwiki
ludwikiem
ludy
ludz
ludzi
ludziach
ludzie
ludziom
ludzka
ludzki
ludzkich
ludzkie
ludzkiego
ludzkiej
ludzkim
ludzkos
lufa
luftwaffe
lufy
lugano
lui
luigi
luis
luisa
luiza
luizjana
luka
lukas
luke
luki
luksemburg
luksemburga
luksemburgu
luksemburski
luksemburskiego
lumpur
luna
lund
lustra
lustro
lutego
luteran
luther
lutnia
lutra
luty
lutym
luwr
lux
luz
luza
luzowej
luzy
lv
lvarez
lw
lwa
lwo
lwowa
lwowem
lwowie
lwowska
lwowski
lwowskich
lwowskie
lwowskiego
lwowskiej
lwowskim
lwp
lwy
ly
lynch
lynette
lynn
lyon
lyonie
lyonu
lz
lzs
m
ma
maastricht
mac
maccabi
macdonald
macedon
macedonia
macedonii
machine
macicy
maciej
macieja
maciejem
maciejewski
macierz
macierzy
macierzyn
macierzysta
macierzystego
macierzystej
macierzystym
mack
mackenzie
macmillan
mad
madagaskar
madagaskaru
madagaskarze
madame
made
madeleine
madison
madonna
madonny
madrid
madrycie
madryt
madrytu
mae
mafia
mafii
mag
magazine
magazyn
magazynach
magazynie
magazyno
magazynu
magazyny
magda
magdalena
magdaleny
magdeburg
magellana
maggie
maggiore
magia
magic
magiczna
magiczne
magiczny
magii
magister
magisterium
magisterska
magisterskich
magisterskie
magistra
magistrala
magistrali
magistratu
magna
magnetyczne
magnetycznego
magnetycznych
magnezu
magnum
magnus
maguire
magyar
mahometa
mai
maiden
mail
main
maine
mainz
maj
maja
majdan
maje
majewski
majewskiego
majo
major
majora
majorem
majorowie
maju
mak
makau
make
making
mako
makowski
maks
maksim
maksimum
maksym
maksymalna
maksymalne
maksymalnego
maksymalnej
maksymalnie
maksymalny
maksymalnym
maksymilian
maksymiliana
mal
mala
malarka
malarska
malarskie
malarstwa
malarstwem
malarstwie
malarstwo
malarz
malarza
malarze
malarzem
malarzy
malawi
malbork
malborku
malcie
malcolm
male
malec
maleja
maleje
malen
malezja
malezji
mali
malik
malin
malinowski
mallorca
malmo
malowane
malowania
malowanie
malował
malowideł
malowidła
malta
maltan
malte
malty
maly
mam
mama
mammals
mamy
man
mana
management
manager
mancha
manche
manchester
manchesterem
manchesteru
manchesterze
mandacie
mandat
mandato
mandatu
mandaty
mandz
manewr
manewro
manewru
manewry
manfred
manga
mangi
manhattan
manhattanie
manifest
manifestacja
manifestacje
manifestacji
manili
mann
manna
mannheim
mans
manteuffla
mantui
manual
manualna
manuel
manuela
manuskrypt
manuskrypty
many
mao
map
mapa
mapach
mape
mapie
maple
mapper
maps
mapy
mar
mara
marathon
maraton
maratonie
marc
marca
marcel
marcela
marceli
marcello
marcelo
march
marche
marchii
marcin
marcina
marcinem
marciniak
marcinkowskiego
marco
marcos
marcu
marcus
mare
marek
margaret
margrabia
margrabiego
marguerite
mari
maria
mariah
marian
mariana
marianna
marianne
marianny
mariano
mariawito
maribor
marie
marii
marija
marilyn
marin
marina
marine
marines
marino
mario
marion
maritime
mariupol
mariusz
mariusza
mark
marka
marke
market
marketing
marketingu
marki
markiem
markiewicz
markiz
markiza
marko
markowski
marks
marksa
marksizmu
markus
marmurowa
marmuru
marna
maroka
marokan
maroko
maroku
mars
marsa
marsh
marshall
marshalla
marsylia
marsylii
marsz
marszałek
marszałka
marszałkiem
marszałkowie
marszałkowskiej
marszu
marta
martha
marti
martin
martina
martinem
martinez
martini
martino
martwa
martwe
martwego
martwy
martwych
martwym
marty
martyna
maru
marusza
marvel
marvin
marx
mary
maryi
maryja
maryjne
maryla
maryland
marynarce
marynarka
marynarke
marynarki
marynarz
marynarze
marynarzy
marzec
marzen
marzena
marzenia
marzenie
mas
masa
masakra
masakry
masaz
mase
masie
maska
maske
maski
mason
masowa
masowe
masowego
masowej
masowo
masowy
masowych
masowym
mass
massa
massachusetts
massimo
master
mastering
masters
masy
masyw
masywie
masywna
masywne
masywu
masz
maszeruja
maszt
maszyn
maszyna
maszyne
maszynie
maszynowe
maszynowego
maszynowej
maszynowy
maszynowych
maszyny
mat
mata
matce
match
matchu
mate
matejki
matek
matematycy
matematyczna
matematyczne
matematycznego
matematycznej
matematyczno
matematycznych
matematyk
matematyka
matematyke
matematyki
mater
materia
materiale
materialna
materialne
materialnej
materialnych
materiał
materiałach
materiałami
materiałem
materiało
materiału
materiały
materii
mateusz
mateusza
math
mathbb
mathbf
mathcal
mathfrak
mathieu
mathrm
matka
matke
matki
mato
matrix
matt
matta
matteo
matter
matthew
matthews
matthias
matti
matura
mature
matury
maturze
matylda
mauretanii
maurice
mauro
maurycego
maurycy
mauthausen
mauzoleum
max
maxa
maxi
maxim
maximilian
maxwell
may
maya
mayer
mayo
maz
mazda
mazowiecka
mazowiecki
mazowieckich
mazowieckie
mazowieckiego
mazowieckiej
mazowieckim
mazowsza
mazowsze
mazowszu
mazur
mazurach
mazurek
mazurkiewicz
mazurski
mazurskie
mazurskiego
mazurskim
mazury
mała
małe
małego
małej
małgorzata
małgorzate
małgorzaty
mało
małopolsce
małopolska
małopolski
małopolskie
małopolskiego
małopolskiej
małopolskim
małp
małpa
małpy
mały
małych
małym
małymi
małysz
małz
mb
mba
mbox
mbp
mc
mccarthy
mccartney
mcdonald
mcdonnell
mcintyre
mclaren
mcmahon
md
me
meble
mebli
mecenas
mechaniczna
mechaniczne
mechanicznego
mechanicznej
mechaniczny
mechanicznych
mechanicznym
mechanik
mechanika
mechaniki
mechanizm
mechanizmem
mechanizmo
mechanizmu
mechanizmy
mecie
mecz
meczach
mecze
meczem
meczet
meczetu
meczo
meczu
med
medal
medalami
medale
medalem
medali
medalis
medalista
medalistka
medalisto
medalowa
medalowej
medalu
medelli
media
mediach
medialna
medialnej
mediawiki
medical
medicine
medieval
medina
medio
mediolan
mediolanie
mediolanu
medium
medycyna
medycyne
medycynie
medycyny
medyczna
medyczne
medycznego
medycznej
medyczny
medycznych
medycznym
medytacji
meet
meeting
meg
mega
megabase
megan
mego
meiji
mein
meklemburgia
meklemburgii
meksyk
meksykan
meksykiem
meksyku
mel
melanie
melbourne
melchior
melissa
melodia
melodie
melodii
melodramacie
melody
memoria
memorial
memoriał
memory
memphis
men
menadz
mendoza
menedz
menem
mennica
mennicy
mention
menu
mer
mera
mercedes
mercury
mercy
meredith
merlin
mes
mesa
message
met
meta
metacritic
metal
metali
metallica
metalowa
metalowe
metalowego
metalowej
metalowi
metalowy
metalowych
metalowym
metalu
metamorficznych
metanu
metałurha
meteor
method
metod
metoda
metodami
metode
metodego
metodologia
metodologii
metody
metodzie
metr
metra
metro
metropolia
metropolii
metropolita
metropolitalnego
metropolitalnej
metropolitan
metropolite
metropolity
metrowa
metrowej
metrowy
metry
metryka
metrze
mety
metz
meurthe
mewa
mexico
meyer
mez
mezopotamii
mezoregionie
mf
mff
mfk
mg
mgm
mgr
mgła
mgławica
mgły
mhl
mhz
mi
mia
miami
miana
mianem
miano
mianowani
mianowania
mianowano
mianowany
mianował
mianowicie
miar
miara
miare
miary
miast
miasta
miastach
miastami
miasteczek
miasteczka
miasteczko
miasteczku
miastem
miasto
miastu
miaz
miał
miała
miałaby
miałby
miałem
miało
miałoby
miały
miałyby
michael
michaela
michaelem
michaił
michaiła
michajłowicz
michal
michalski
michał
michała
michałem
michało
michałowski
michel
michela
michele
michelle
michigan
mick
mickey
mickiewicz
mickiewicza
microsoft
mid
middle
middlesbrough
midi
midnight
midway
mie
miec
miech
miechem
miechu
mieci
miecz
miecza
mieczami
miecze
mieczem
mieczysław
mieczysława
miednicy
miedz
miedzi
miedziana
miejsc
miejsca
miejscach
miejscami
miejsce
miejscem
miejscowa
miejscowe
miejscowego
miejscowej
miejscowi
miejscowos
miejscowy
miejscowych
miejscowym
miejscu
miejska
miejski
miejskich
miejskie
miejskiego
miejskiej
miejskim
miejsko
mielcu
mielec
mieli
mienia
mienie
miennictwa
miennictwie
mierc
mierci
miercia
miertelna
miertelne
miertelnie
miertelnos
miertelny
miertelnych
miertne
miertnie
mierza
mierze
mierzy
mierzył
mies
miesia
miesie
mieszan
mieszana
mieszane
mieszanej
mieszanina
mieszaniny
mieszanka
mieszanki
mieszany
mieszanych
mieszanym
mieszcza
mieszczan
mieszczanie
mieszk
mieszka
mieszkac
mieszkaja
mieszkali
mieszkalna
mieszkalne
mieszkalny
mieszkalnych
mieszkalnym
mieszkan
mieszkania
mieszkanie
mieszkaniec
mieszkaniowa
mieszkaniowe
mieszkaniowego
mieszkaniowej
mieszkaniowych
mieszkaniu
mieszkał
mieszkała
mieszkało
mieszkały
mieszko
mig
mighty
migracje
migracji
miguel
migłego
migłowca
migłowce
migłowco
migłowiec
mija
mika
mike
miki
mikołaj
mikołaja
mikołajczyk
mikołajo
mikroregion
mikroregionie
miks
miksowanie
mikulski
mil
mila
milady
milan
milano
milcza
milczenie
mile
miles
mili
miliarda
miliardo
milicja
milicje
milicji
milimetro
milion
miliona
miliono
miliony
militari
militarna
militarne
militarnej
militarnych
military
milk
mill
millennium
miller
millera
million
mills
milo
milos
milton
milwaukee
mimi
mimo
min
mina
minas
mind
mine
mineiro
mineralne
mineralnych
minerał
minerało
minerały
ming
mini
minialbum
minialbumy
miniatura
miniatury
minie
minimalna
minimalne
minimum
miniserial
miniserialu
minister
ministerstwa
ministerstwie
ministerstwo
ministerstwu
ministra
ministrem
ministro
ministrowi
ministrowie
minneapolis
minnesota
minor
minowych
minucie
minus
minut
minutach
minute
minuty
miny
mio
miodu
miokrotnie
mioma
miorskim
mir
mira
miracle
mirage
miranda
miriam
miro
miroslav
mirosław
mirosława
mirror
mis
misja
misjach
misje
misji
misjonarz
misjonarze
misjonarzy
miss
mission
missisipi
mississippi
missouri
mistrz
mistrza
mistrzami
mistrzem
mistrzo
mistrzostw
mistrzostwa
mistrzostwach
mistrzostwami
mistrzostwo
mistrzowie
mistrzowska
mistrzowski
mistrzowskich
mistrzowskie
mistrzowskiego
mistrzowskiej
mistrzyn
mistrzyni
mistrzynia
misyjna
mit
mitch
mitchell
mito
mitologia
mitologii
mitsubishi
mitu
mity
miu
mix
mixtape
miz
miła
miłos
miłosierdzia
miłosna
miłosne
miłosz
miłosza
miły
mjr
mk
mks
ml
mlb
mld
mlecznej
mleka
mleko
mln
mls
mm
mma
mn
mna
mnich
mnicha
mnichem
mnicho
mnie
mniej
mniejsza
mniejsze
mniejszego
mniejszej
mniejszos
mniejszy
mniejszych
mniejszym
mniejszymi
mnisi
mnisze
mniszek
mniszka
mno
mnogiej
mnogos
mnoz
mo
mob
mobile
mobilizacja
mobilizacji
mobilne
mobilnych
moc
moca
mocarstw
mocarstwa
moce
mocna
mocne
mocnego
mocno
mocny
mocnym
mocy
moczowego
moczu
mod
moda
mode
model
modelach
modele
modelem
modeli
modelka
modelki
modelowania
models
modelu
modena
modern
modernizacja
modernizacje
modernizacji
modernizmu
modla
modlin
modlitw
modlitwa
modlitwe
modlitwie
modlitwy
module
moduł
moduło
modułu
moduły
mody
modyfikacja
modyfikacje
modyfikacji
moga
moge
mogile
mogiła
mogiły
mogli
moguncji
mogła
mogłaby
mogło
mogłoby
mogły
mogłyby
mohamed
mohammad
mohammed
mohylewskim
moi
moich
moim
moja
moje
mojego
mojej
mojz
mokoto
mokra
mokre
mol
molekularne
molekularnej
molina
moll
molly
momencie
moment
momentem
momentu
mon
mona
monachium
monaco
monako
monarcha
monarchia
monarchie
monarchii
monarchy
monaster
monasteru
monasterze
monde
monet
moneta
monete
monety
money
mongolia
mongolii
mongoło
monica
monika
monitor
monitoring
monitoringu
monitorowania
monitorowanie
moniuszki
monk
monkey
mono
monografia
monografie
monografii
monopol
monotypowego
monotypowy
monroe
mons
monster
mont
montana
montaz
monte
monterrey
montevideo
montgomery
montowane
montpellier
montreal
montrealu
monty
monument
monza
moon
moore
mora
morale
morales
moralna
moralne
moralnego
moralnej
moralnos
moralnych
moran
moraw
morawach
morawski
morawskiego
morawsko
mord
morderca
mordercy
morderstw
morderstwa
morderstwo
mordo
mordu
more
moreno
morfologia
morfologiczne
morgan
morgana
morgi
moritz
mormon
morning
moro
morris
morrison
morse
morska
morski
morskich
morskie
morskiego
morskiej
morskim
morton
morza
morze
morzem
morzu
mos
moscow
moses
mosie
moskiewska
moskiewski
moskiewskiego
moskiewskiej
moskiewskim
moskwa
moskwe
moskwie
moskwy
moss
most
mostek
mostem
mosto
mostu
mosty
moszaw
moszawu
mosze
mother
motion
moto
motocykl
motocykle
motocykli
motogp
motor
motorowych
motors
motorsport
motoryzacyjnych
motyka
motyl
motyla
motyle
motyli
motylkowym
motyw
motywach
motywami
motywem
motywo
motywy
mount
mountain
mountains
move
movement
movie
mowa
mowe
mowie
mowy
moz
moza
mozaika
mozaiki
mozambiku
mozart
mozarta
mozela
mołdawia
mołdawii
mołdawski
mp
mpk
mr
mra
mro
mroczna
mroczne
mroczny
mroku
mroz
mrs
ms
msc
msw
mswojsk
msz
msza
msze
mszy
mt
mtb
mtv
mu
much
mucha
mucho
mudz
muhafazie
muhammad
muhammada
muldach
muldy
multi
mun
mundial
mundialu
mundur
munduru
mundury
municipal
mur
murach
murami
murder
murem
murman
muro
murowana
murowane
murowanej
murowany
murowanych
murphy
murray
muru
mury
murze
mus
muse
museo
museum
musi
musiał
musiała
musiało
musiały
music
musica
musical
musicalu
musieli
musik
musimy
must
mustafa
musza
musze
muszej
muszla
muszli
muszyn
mutacja
mutacje
mutacji
muz
muza
muzea
muzeach
muzealne
muzealnej
muzealnych
muzeo
muzeum
muzułman
muzułmanie
muzułmano
muzyce
muzycy
muzyczna
muzyczne
muzycznego
muzycznej
muzyczni
muzyczny
muzycznych
muzycznym
muzyk
muzyka
muzykami
muzyke
muzyki
muzykiem
muzyko
muzykolog
mvp
mw
mx
my
mychajło
mydlanej
myers
mykobiota
mykoła
mylic
mylnie
mys
myself
mysterio
mystery
mystic
mysz
myszy
mysłowice
mzk
młoda
młode
młodego
młodej
młodos
młodsza
młodsze
młodszego
młodszej
młodszy
młodszych
młodszym
młody
młodych
młodym
młodymi
młodzi
młodzien
młodzieniec
młodziez
młot
młotem
młyn
młyna
młyno
młyny
n
na
nabla
nabo
naboi
naboz
nabrzez
nabycia
nabywco
nabył
nabyła
nac
nach
nachylenie
nacia
nacieraja
nacional
nacisk
naciskiem
nacisku
nacjonalisto
nacjonalizm
naczelna
naczelne
naczelnego
naczelnej
naczelnik
naczelnika
naczelnikiem
naczelny
naczelnych
naczelnym
naczyn
naczynia
naczynie
naczyniowych
nad
nada
nadac
nadaja
nadaje
nadal
nadali
nadana
nadane
nadania
nadanie
nadaniem
nadaniu
nadano
nadany
nadawana
nadawane
nadawania
nadawanie
nadawany
nadawał
nadawca
nadawco
nadawcy
nadał
nadała
nadbrzez
nadbudo
nadchodza
nadcia
nadcis
nadejs
nadiez
nadles
nadmiar
nadmierna
nadmierne
nadmorska
nadrenia
nadrenii
nadrodzina
nadrza
nadrze
nadszedł
nadto
naduz
nadwis
nadwornego
nadworny
nadwozia
nadwozie
nadwyz
nadz
nadziei
nadzieja
nadzieje
nadzo
nadzorczej
nadzorem
nadzorował
nadzoru
nadzoruja
nadzwyczajne
nadzwyczajnego
nadzwyczajnej
nadzwyczajny
nadzwyczajnym
naftowa
naftowego
naftowej
naga
nagano
nagasaki
nagi
nagie
nagle
nago
nagrac
nagrali
nagran
nagrana
nagrane
nagrania
nagraniach
nagranie
nagraniu
nagrano
nagrany
nagrał
nagrała
nagro
nagrobek
nagrobki
nagrobko
nagrobna
nagroda
nagrodami
nagrode
nagrody
nagrodzona
nagrodzone
nagrodzony
nagrywaja
nagrywania
nagrywanie
nagrywał
nagy
nagło
nagłos
nai
nairobi
naja
najazd
najazdo
najazdu
najbardziej
najbliz
najbogatszych
najcenniejszych
najche
najcie
najcze
najdalej
najdroz
najdłuz
najemniko
najez
najgorszy
najgłe
najjas
najkro
najlepiej
najlepsi
najlepsza
najlepsze
najlepszego
najlepszej
najlepszy
najlepszych
najlepszym
najlepszymi
najliczniej
najliczniejsza
najmniej
najmniejsza
najmniejsze
najmniejszej
najmniejszy
najmniejszych
najmłodsza
najmłodszy
najmłodszych
najmłodszym
najniz
najnowoczes
najnowsza
najnowsze
najnowszej
najnowszych
najpewniej
najpie
najpierw
najpo
najpopularniejsza
najpopularniejsze
najpopularniejszych
najpopularniejszym
najpote
najpowaz
najprawdopodobniej
najs
najstarsza
najstarsze
najstarszego
najstarszej
najstarszy
najstarszych
najstarszym
najszybciej
najszybsze
najsłynniejszych
najwaz
najwczes
najwie
najwybitniejszych
najwyraz
najwyz
nakajima
nakamura
nakaz
nakazał
nakazuja
nakazuje
nakre
nakryta
nakryte
nakryty
nakład
nakładem
nakładzie
nalez
nalot
naloto
nalotu
naloty
nam
namalowane
namalowany
namalował
name
nami
namibii
namie
namiestnik
namiestnika
namiestnikiem
namo
namowa
nan
nana
nancy
nantes
naomi
napad
napadu
napas
napastnicy
napastnik
napastnika
napastniko
nape
napie
napis
napisac
napisach
napisali
napisami
napisana
napisane
napisanej
napisania
napisano
napisany
napisanych
napisał
napisała
napisem
napiso
napisy
napo
napoje
napojo
napoleon
napoleona
napoli
napraw
naprawa
naprawde
naprawy
napre
naprowadzania
naprzeciw
naprzeciwko
naprzo
napływ
narastaja
naraz
narciarka
narciarscy
narciarska
narciarski
narciarskich
narciarskie
narciarskiego
narciarskiej
narciarskim
narciarstwa
narciarstwie
narciarstwo
narciarz
narciarze
narew
narkotykami
narkotyko
naro
narodo
narodowa
narodowe
narodowego
narodowej
narodowejuchwała
narodowi
narodowo
narodowos
narodowy
narodowych
narodowym
narodowymi
narodu
narody
narodzenia
narodzenie
narodzin
narodzinach
narodziny
narodził
naroz
narracja
narracji
narrator
naruszenia
naruszenie
narutowicza
narwi
narza
narze
narzeczona
nas
nasa
nasada
nasade
nasady
nascar
nash
nashville
nasi
nasilenie
nasion
nasiona
nassau
nasta
nastawienie
naste
nastolatek
nastolatka
nastolatko
nastro
nastroje
nastrojo
nasz
nasza
nasze
naszego
naszej
naszych
naszym
nat
natalia
natalie
natalii
natalja
natarcia
natarcie
nate
nathan
nation
national
nationale
nations
nato
natomiast
natura
natural
naturalna
naturalne
naturalnego
naturalnej
naturalnie
naturalny
naturalnych
naturalnym
nature
natury
naturze
natychmiast
natychmiastowego
nauce
nauczania
nauczanie
nauczaniu
nauczał
nauczyc
nauczyciel
nauczyciela
nauczycielami
nauczyciele
nauczycielem
nauczycieli
nauczycielka
nauczycielki
nauczycielskie
nauczycielskiego
nauczycielskim
nauczycielstwa
nauczył
nauk
nauka
naukach
nauke
nauki
naukowa
naukowca
naukowco
naukowcy
naukowe
naukowego
naukowej
naukowiec
naukowo
naukowy
naukowych
naukowym
naukowymi
nauru
naval
navarro
navy
naw
nawa
nawarry
nawe
nawet
nawia
nawiasach
nawiasie
nawie
nawiedzenia
nawierzchni
nawierzchnia
nawierzchnie
nawigacji
nawodnych
nawodnym
nawozo
nawro
nawrocki
nawy
nawzajem
nazajutrz
nazewnictwa
nazewnictwo
naziemne
naziemnej
naziemnych
nazionale
nazis
nazisto
nazistowski
nazistowskich
nazistowskie
nazw
nazwa
nazwac
nazwach
nazwali
nazwami
nazwana
nazwane
nazwanego
nazwanej
nazwano
nazwany
nazwał
nazwała
nazwe
nazwie
nazwisk
nazwiska
nazwiskami
nazwiskiem
nazwisko
nazwisku
nazwy
nazywa
nazywac
nazywaja
nazywali
nazywamy
nazywana
nazywane
nazywanego
nazywanej
nazywano
nazywany
nazywanych
nazywał
nazywała
nałe
nałoz
nb
nba
nbc
nbp
nc
ncaa
nchen
nchengladbach
nchez
nd
nde
nder
ndez
ndor
ne
neal
neamt
neapol
neapolitan
neapolu
near
nebraska
nec
neckar
ned
need
negatywna
negatywne
negatywnie
negatywny
negatywnych
nego
negocjacjach
negocjacje
negocjacji
negro
neil
neila
neill
nej
nek
nekrolog
nekropolia
nekropolii
nel
nelly
nelson
nelsona
nem
nen
neo
neogotycka
neogotycki
neogotyckim
neon
neoroman
nep
nepal
nepalskiego
nepalu
nepomucena
neptuna
nerek
nerki
nerw
nerwo
nerwowego
nerwowy
nerwu
nes
nestor
net
netflix
netto
network
neu
neue
neumann
neurolog
neurologii
neustadt
neutralnos
neutrono
nevada
never
neville
new
newark
newcastle
newman
newport
news
newskiego
newton
newtona
next
nez
nf
nfl
ng
nga
ngc
ngel
nguye
nh
nhl
ni
nia
niac
niach
niacki
niadanie
niaja
niak
niaka
niako
niami
niane
nianej
niania
nianie
niany
niał
niała
niały
niby
nic
nica
niccolo
nice
nicei
nich
nicholas
nicholson
nicht
nici
nick
nicka
nickelodeon
nicki
nickiego
nickim
nicky
nico
nicola
nicolae
nicolas
nicolasa
nicole
nicowana
nicowane
nicowania
nicowanie
nicowany
nicowanych
nictwa
nictwie
nictwo
nicy
nicza
nicze
niczego
niczej
niczka
niczke
niczki
niczo
niczy
niczych
niczym
nid
niderlando
niderlandzkiego
nie
nieangloje
nieba
niebawem
niebe
niebem
niebezpieczen
niebezpieczna
niebezpieczne
niebezpieczny
niebezpiecznych
niebian
niebie
niebieska
niebieski
niebieskich
niebieskie
niebieskiego
niebieskiej
niebieskim
niebiesko
niebios
niebo
niecałe
niech
niechaj
nieche
nieco
nieczynna
nieczynny
niedaleko
niedawna
niedawno
niedobo
niedokon
niedoste
nieduz
niedz
niedziela
niedziele
niedzieli
niedługo
nieg
niegdys
niego
niegu
nieistnieja
niej
niejako
niejednogłos
niejednokrotnie
niejsi
niejsza
niejsze
niejszego
niejszej
niejszos
niejszy
niejszych
niejszym
niejszymi
niekiedy
niekoniecznie
niekorzystne
niekto
nielegalna
nielegalne
nielegalnie
nielegalnych
nieletnich
nieliczne
nielicznych
nielsen
niem
niema
niemaja
niemal
niemalz
niemca
niemcami
niemco
niemcom
niemcy
niemczech
nieme
niemen
niemiec
niemieccy
niemiecka
niemiecki
niemieckich
niemieckie
niemieckiego
niemieckiej
niemieckim
niemieckimi
niemiecko
niemieckoje
niemiecku
niemka
niemniej
niemodlin
niemowla
niemowle
niemoz
niemu
niemy
nien
nienawis
nienazwane
nieni
nienia
nienie
nieniem
nieniu
nieobecnos
nieoczekiwanie
nieoficjalna
nieoficjalne
nieoficjalnie
nieoficjalny
nieokres
nieopodal
niepewna
niepewne
niepewnos
niepełnosprawnos
niepełnosprawnych
niepodległego
niepodległej
niepodległos
niepodległych
niepokalanego
niepokalanej
niepoko
nieporozumien
nieposiadaja
niepowodzenia
niepowodzeniem
niepoz
nieprawidłowos
nieprzerwanie
nieprzyjaciel
nieprzyjaciela
niepubliczne
nieraz
nieregularne
nieregularnie
niero
nierozstrzygnie
nieruchome
nieruchomos
nieruchomych
nierzadko
nies
niesie
niesklasyfikowany
nieskon
niespełna
niespodziewanie
niestety
nieszcze
nietoperzy
nietypowe
nieudana
nieudane
nieudanej
nieudany
nieudanych
nieudanym
nieufnos
nieukon
nieustaja
nieustannie
nieuz
niewa
niewaz
niewidomych
niewiele
niewielka
niewielki
niewielkich
niewielkie
niewielkiego
niewielkiej
niewielkim
niewielkimi
niewielu
niewinnos
niewoli
niewolnictwa
niewolnicy
niewolnikami
niewolniko
niewska
niewski
niewskiego
niewydawane
niewydolnos
niewyjas
niewyraz
niewystarczaja
niewłas
niez
niezadowolenie
niezalez
niezamieszkana
niezawisłos
niezawodnos
niezbe
niezbyt
niezgodne
nieznacznie
nieznana
nieznane
nieznanego
nieznanej
nieznany
nieznanych
nieznanym
niezwia
niezwykle
niezwykła
niezwykłe
niezwłocznie
nig
nigdy
nigdzie
nigel
niger
nigeria
nigerii
nigeryjski
night
nights
nik
nika
nikach
nikami
nikaragui
nike
niki
nikiem
nikita
nikki
niklu
niko
nikodem
nikogo
nikola
nikomu
nikon
nikołaj
nikołaja
nikołajewicz
nikt
niku
nil
nili
nilsson
nilu
nim
nimi
nin
nina
nine
ninie
ninja
nino
nintendo
niny
nio
niona
nione
nionego
niono
niony
nionych
niosa
niowa
niowe
niowej
niowie
niowieckiego
niowych
nippon
nis
niska
niski
niskich
niskie
niskiego
niskiej
niskim
nisko
nissan
niszcza
niszczenia
niszczenie
niszczy
niszczyciel
niszczyciela
niszczycielami
niszczyciele
niszczycielem
niszczycieli
niu
niwa
nixon
niz
nizina
nizinie
nizinnych
niziny
nił
niła
niło
niły
nk
nka
nkwd
nl
nm
nmp
nn
no
noah
nobla
noble
noblis
noc
noca
noce
nocna
nocne
nocnego
nocnej
nocny
nocnych
nocnym
nocy
noe
noel
noga
nogach
nogami
noge
nogi
noir
noise
nokaut
nokia
nolan
nominacja
nominacje
nominacji
nominale
nominowana
nominowane
nominowani
nominowany
non
nor
nora
norbert
nord
norfolk
norm
norma
normalna
normalne
normalnego
normalnej
normalnie
normalny
normalnych
normalnym
norman
normandia
normandii
norme
normy
norodne
norodnos
norodnych
norris
norrko
norte
north
northampton
northamptonshire
northern
northumberland
norton
norweg
norwegia
norwegii
norwescy
norweska
norweski
norweskich
norweskie
norweskiego
norweskiej
norweskim
norwez
norwich
norwid
norwida
nory
norymberdze
norymberga
nos
nosa
nosi
nosic
nosili
nosił
nosiła
nosiło
nosiły
nosoroz
nosza
noszenia
noszona
noszony
not
nota
notatki
note
notes
nothing
notowana
notowane
notowania
notowaniu
notowany
notre
nottingham
notuja
notuje
noty
nov
nova
nove
novel
november
novi
novo
now
nowa
nowacki
nowak
nowaka
nowakowski
nowe
nowego
nowej
nowela
nowele
noweli
nowemu
nowi
nowicjatu
nowicki
nowina
nowiny
nowo
nowoczes
nowoczesna
nowoczesne
nowoczesnego
nowoczesnej
nowoczesnos
nowoczesny
nowoczesnych
nowoczesnym
nowodziewiczym
nowogro
nowogrodzie
nowojorskiego
nowojorskiej
nowojorskim
nowos
nowosa
nowotwo
nowotworo
nowotworowych
nowotworu
nowotwory
nowoz
nowozelandzcy
nowozelandzki
nowsze
nowszych
nowy
nowych
nowym
nowymi
noz
np
nr
nrd
ns
nsa
nsdap
nster
nsz
nszz
nt
nter
nther
nu
nuclear
nudnos
number
numer
numerach
numeracji
numerami
numerem
numero
numeru
numery
numerze
nuncjusz
nur
nurcie
nurkowania
nurkuja
nurt
nurtem
nurtu
nurty
nuty
nwa
nxt
ny
nya
nych
nyi
nym
nymi
nysa
nyse
nysie
nysy
o
oak
oakland
ob
oba
obaj
obalenia
obaleniu
obalony
obama
obawiaja
obawiał
obawie
obawy
obce
obcego
obchodo
obchody
obchodza
obchodzi
obchodził
obchodzone
obchodzono
obcia
obcokrajowco
obcy
obcych
obcym
obczyz
obec
obecna
obecne
obecnego
obecnej
obecni
obecnie
obecnos
obecny
obecnych
obecnym
obejmowac
obejmował
obejmowała
obejmowało
obejmowały
obejmuja
obejmuje
obejrzało
obejrzec
obejs
obelisk
oberstdorfie
obficie
obfitos
obiad
obie
obiecał
obiecuja
obiecuje
obieg
obiegu
obiekcie
obiekt
obiektach
obiektami
obiektem
obiekto
obiektu
obiekty
obiema
obietnice
obja
objas
objaw
objawami
objawia
objawienia
objawienie
objawo
objawy
obje
oblatany
oble
oblicza
oblicze
obliczen
obliczenia
obliczu
oblotu
oblubien
obniz
obo
oboje
obojga
obok
obowia
obozach
obozem
obozie
obozo
obozu
obozy
obr
obra
obracaja
obrad
obradach
obrady
obraz
obrazach
obrazami
obrazem
obrazie
obrazki
obrazo
obrazu
obrazuja
obrazy
obre
obro
obrocie
obron
obrona
obrone
obronic
obronie
obronił
obroniła
obronna
obronne
obronnego
obronnej
obronnos
obronny
obronnych
obronnym
obrony
obroto
obrotowa
obrotowego
obrotowy
obrotu
obroz
obrza
obrze
obrzez
obs
obsada
obsady
obsadzie
obsadził
obsadzony
observatory
obserwacja
obserwacje
obserwacji
obserwacyjnych
obserwator
obserwatora
obserwatorium
obserwatoro
obserwatorzy
obserwowac
obserwowana
obserwowane
obserwowano
obserwowany
obserwował
obserwuja
obserwuje
obszar
obszarach
obszarami
obszarem
obszaro
obszaru
obszary
obszarze
obszerna
obszerne
obszerny
obsłudze
obsługa
obsługe
obsługi
obsługiwana
obsługiwane
obsługiwany
obsługiwał
obsługiwała
obsługuja
obsługuje
obsłuz
obu
obudowy
obupłciowe
obwieszczenia
obwo
obwodach
obwodnica
obwodnicy
obwodo
obwodowego
obwodowej
obwodowych
obwodu
obwody
obwodzie
obyczaje
obyczajo
obyczajowe
obyczajowy
obydwa
obydwaj
obydwie
obydwu
obywatel
obywatela
obywatele
obywatelem
obywateli
obywatelom
obywatelska
obywatelski
obywatelskich
obywatelskie
obywatelskiego
obywatelskiej
obywatelstwa
obywatelstwo
obła
obłe
obłoz
oc
ocalałych
ocalenia
ocalic
ocean
oceanem
oceania
oceanie
oceanii
oceanu
ocen
ocena
ocene
ocenia
oceniaja
ocenic
ocenie
ocenił
oceny
och
ochotnicy
ochotnicza
ochotniczej
ochotniczo
ochotnik
ochotnika
ochotniko
ochrona
ochrone
ochroniarz
ochronie
ochronna
ochronne
ochrony
ochrzczony
ochrzczonych
october
oczach
oczami
oczekiwan
oczekiwania
oczekuja
oczekuje
oczu
oczy
oczyma
oczys
oczyszczania
oczyszczenia
oczywis
od
oda
odbe
odbic
odbicia
odbicie
odbiegaja
odbiera
odbieraja
odbijaja
odbio
odbiorca
odbiorco
odbiorcy
odbiornik
odbioru
odbudowa
odbudowana
odbudowano
odbudowany
odbudowe
odbudowie
odbudowy
odbyc
odbycia
odbyciu
odbywa
odbywac
odbywaja
odbywania
odbywał
odbywała
odbywało
odbywały
odbył
odbyła
odbyło
odbyły
odc
odchodza
odchodzi
odcia
odcie
odcieniem
odcinek
odcinka
odcinkach
odcinki
odcinkiem
odcinko
odcinku
odczyt
odczytu
odczyty
oddac
oddaja
oddaje
oddali
oddalona
oddalone
oddalony
oddana
oddane
oddania
oddanie
oddano
oddany
oddanych
oddał
oddała
oddechowego
oddechowych
oddelegowany
oddziale
oddział
oddziałach
oddziałami
oddziałem
oddziało
oddziałom
oddziału
oddziałuja
oddziały
oddziaływan
oddziaływania
oddziaływanie
oddziela
oddzielaja
oddzielna
oddzielne
oddzielnie
oddzielny
oddzielnych
oddzielona
oddzielone
oddzielony
ode
odebrac
odebrano
odebrał
odebrała
odegrał
odegrała
odejs
odense
oder
odessa
odessie
odessy
odeszli
odeszła
odgałe
odgrywa
odgrywac
odgrywaja
odgrywał
odgrywała
odgłosy
odjez
odka
odkryc
odkrycia
odkrycie
odkryciu
odkryli
odkryta
odkryte
odkryto
odkryty
odkrytych
odkrywa
odkrywaja
odkrywca
odkrywcy
odkrył
odkryła
odległa
odległe
odległos
odległych
odmawia
odmawiaja
odmian
odmiana
odmianach
odmiane
odmianie
odmiany
odmienna
odmienne
odmienny
odmiennych
odmo
odmowa
odmowe
odmowy
odnajduje
odnalazł
odnalez
odnalezienia
odnalezienie
odnalezione
odnaleziono
odnaleziony
odnies
odniesienia
odniesienie
odniesieniu
odniesionych
odnio
odniosła
odniosło
odniosły
odno
odnoga
odnogi
odnos
odnosi
odnosic
odnosił
odnosiła
odnosza
odnotowano
odnotował
odnowienia
odnowienie
odnowiona
odnowiono
odnowiony
odnowił
odnowy
odpadaja
odpadli
odpado
odpadł
odpadła
odparł
odpoczynek
odpoczynku
odporne
odpornos
odpowiada
odpowiadac
odpowiadaja
odpowiadał
odpowiadała
odpowiedni
odpowiednia
odpowiednich
odpowiednie
odpowiedniego
odpowiedniej
odpowiednik
odpowiednika
odpowiedniki
odpowiednikiem
odpowiednim
odpowiednio
odpowiedz
odpowiedzi
odpowiedzia
odpowiedzialna
odpowiedzialne
odpowiedzialnego
odpowiedzialni
odpowiedzialnos
odpowiedzialny
odpowiedzialnych
odpowiedzialnym
odpowiedział
odpowiedziała
odpowiedziec
odprawiane
odprawił
odra
odre
odrestaurowany
odro
odrodzenia
odrodzenie
odrowa
odry
odrzan
odrze
odrzekł
odrzuca
odrzucaja
odrzucenia
odrzucenie
odrzucili
odrzucił
odrzuciła
odrzucona
odrzucone
odrzucony
ods
odsetek
odsiecz
odsta
odste
odsunie
odszedł
odszkodowania
odszkodowanie
odsłona
odsłonie
odta
odtwarzania
odtwo
odtworzenia
odtworzenie
odtworzono
odtworzyc
odwaga
odwage
odwagi
odwaz
odwecie
odwiedza
odwiedzaja
odwiedzał
odwiedzic
odwiedził
odwiedziła
odwilz
odwołane
odwołania
odwołanie
odwołaniu
odwołano
odwołany
odwołał
odwołuja
odwołuje
odwro
odwrocie
odwrotna
odwrotnie
odwrotu
odwłok
odwłoka
odz
odziedziczył
odziez
odznacza
odznaczaja
odznaczen
odznaczeni
odznaczenia
odznaczeniami
odznaczenie
odznaczeniem
odznaczona
odznaczony
odznaczył
odznak
odznaka
odznake
odznaki
odzwierciedla
odzwierciedlaja
odzwierciedlenie
odzyskac
odzyskanej
odzyskania
odzyskanie
odzyskaniu
odzyskanych
odzyskał
odzyskała
odła
odłoz
of
ofensywa
ofensywe
ofensywnego
ofensywy
ofercie
oferowane
oferowany
ofert
oferta
oferte
oferty
oferuja
oferuje
off
office
official
ofiar
ofiara
ofiarami
ofiare
ofiarom
ofiarował
ofiary
oficer
oficera
oficerami
oficerem
oficero
oficerowie
oficerska
oficerski
oficerskie
oficerskiej
oficerskim
oficjalna
oficjalne
oficjalnego
oficjalnej
oficjalnie
oficjalny
oficjalnych
oficjalnym
oficyna
oficyny
oflagu
ofm
og
ogarnie
ogien
ogin
ogla
ogle
ognia
ogniem
ogniowe
ogniska
ognisko
ogniu
ogniw
ogniwa
ogniwo
ogo
ogon
ogona
ogonek
ogonem
ogonie
ogpu
ogranicza
ograniczaja
ograniczen
ograniczenia
ograniczenie
ograniczeniem
ograniczona
ograniczone
ograniczonej
ograniczono
ograniczony
ograniczonym
ograniczyc
ograniczył
ogro
ogrodach
ogrodem
ogrodnik
ogrodo
ogrodowej
ogrodu
ogrody
ogrodzenia
ogrodzenie
ogrodzie
ogromna
ogromne
ogromnego
ogromnej
ogromny
ogromnych
ogromnym
ogrzewania
ogrzewanie
ogł
ogłasza
ogłaszaja
ogłosili
ogłosił
ogłosiła
ogłosiło
ogłosiły
ogłoszenia
ogłoszenie
ogłoszeniu
ogłoszona
ogłoszone
ogłoszono
ogłoszony
oh
ohio
ohv
oil
ois
oise
ojca
ojcem
ojciec
ojco
ojcowie
ojcu
ojcze
ojczystym
ojczyz
ojczyzna
ojczyzne
ojczyzny
ok
oka
okalaja
okaz
okazac
okazali
okazał
okazała
okazałe
okazało
okazały
okazja
okazje
okazji
okazjonalnie
okazo
okazuje
okazy
oke
okiem
okien
oklahoma
okna
oknach
oknami
oknem
oknie
okno
oko
okolic
okolica
okolicach
okolice
okolicy
okoliczne
okolicznos
okolicznych
okon
okopowej
około
okra
okre
okres
okresach
okresem
okresie
okreso
okresowe
okresowo
okresu
okresy
okrucien
okrytonasiennych
oksfordzie
oksytania
oku
okulary
okupacja
okupacje
okupacji
okupacyjne
okupacyjnej
okupacyjnych
okupanta
okupowanej
okupowanych
okwiatu
okładce
okładka
okładke
okładki
ol
ola
olaf
olafa
olbrzym
olbrzymi
olbrzymia
olbrzymie
old
ole
oleg
olej
olejny
oleju
oles
olga
olgi
olgierd
olimpbase
olimpia
olimpiada
olimpiadach
olimpiady
olimpiadzie
olimpii
olimpijczycy
olimpijczyk
olimpijka
olimpijscy
olimpijska
olimpijski
olimpijskich
olimpijskie
olimpijskiego
olimpijskiej
olimpijskim
olimpijskimi
olis
oliveira
oliver
olivera
olivia
olivier
oliwa
olsen
olszewski
olsztyn
olsztyna
olsztynie
olympia
olympic
olympique
om
omaha
oman
omar
omega
omo
on
ona
onaty
once
one
onego
onej
onemu
onet
oni
onie
onka
onki
onko
onkologii
onkowie
online
only
ono
onos
ontario
ony
onych
onym
onymi
onz
oo
op
opactwa
opactwie
opactwo
opada
opadaja
opadami
opado
opady
opalin
opancerzenie
opancerzone
opancerzonych
opanowac
opanowali
opanowania
opanowanie
opanowaniu
opanował
oparciu
oparta
oparte
opartego
opartej
oparto
oparty
opartych
opartym
oparł
opat
opata
opatem
opato
opatrznos
opatrzone
opatrzył
opcja
opcje
opcji
opcjonalnie
ope
opel
open
oper
opera
operacja
operacjach
operacje
operacji
operacyjna
operacyjne
operacyjnego
operacyjnej
operacyjno
operacyjny
operacyjnych
operacyjnym
operation
operations
operator
operatora
operatorem
operatorname
operatoro
operatorzy
opere
operetki
operowa
operował
operowe
operowy
operuja
opery
operze
opiece
opieka
opieke
opieki
opiekował
opiekuja
opiekuje
opiekun
opiekuna
opiekunem
opiera
opieraja
opierał
opierała
opinia
opinie
opinii
opis
opisac
opisali
opisana
opisane
opisano
opisany
opisanych
opisał
opisała
opisem
opisie
opiso
opisu
opisuja
opisuje
opisy
opisywana
opisywane
opisywany
opisywał
opo
opoczyn
opodatkowania
opola
opole
opolska
opolski
opolskie
opolskiego
opolskiej
opolskim
opolu
opon
opony
opornos
oporu
opowiada
opowiadaja
opowiadan
opowiadania
opowiadanie
opowiadał
opowiedział
opowiedziała
opowies
opozycja
opozycje
opozycji
opozycyjna
opozycyjnych
opr
oprac
opracowali
opracowan
opracowana
opracowane
opracowanego
opracowania
opracowaniach
opracowanie
opracowaniem
opracowaniu
opracowano
opracowany
opracował
opracowała
opracowywanie
oprawa
oprawe
oprawy
opro
oprogramowania
oprogramowanie
optyczne
optycznych
opublikowana
opublikowane
opublikowanej
opublikowano
opublikowany
opublikowanych
opublikowanym
opublikował
opublikowała
opublikowało
opus
opuszcza
opuszczaja
opuszczenia
opuszczenie
opuszczeniu
opuszczona
opuszczone
opuszczony
opłat
opłata
opłaty
or
ora
oran
orange
oranz
oratorium
oraz
orbicie
orbita
orbite
orbity
orchestra
orchidaceae
order
orderem
ordero
orderu
ordery
ordre
ordynacja
ordynacji
ordynariusz
ordynariusza
ordynariusze
ordynariuszem
ore
oregon
org
organ
organach
organami
organem
organiczna
organiczne
organicznej
organiczny
organicznych
organista
organizacja
organizacjach
organizacjami
organizacje
organizacji
organizacyjna
organizacyjne
organizacyjnego
organizacyjnej
organizacyjno
organizacyjny
organizacyjnych
organizacyjnym
organization
organizator
organizatora
organizatorem
organizatoro
organizatorzy
organizm
organizmie
organizmo
organizmu
organizmy
organizowac
organizowana
organizowane
organizowanego
organizowanej
organizowania
organizowanie
organizowaniu
organizowano
organizowany
organizowanych
organizowanym
organizował
organizowała
organizuja
organizuje
organo
organu
organy
oricon
orient
orientacja
orientacje
orientacji
orientation
orientowana
origin
original
origins
orion
orkan
orkiestr
orkiestra
orkiestre
orkiestry
orla
orlando
orle
orlean
orleanie
orleans
orleanu
orlen
orlik
ormian
orne
oro
orograficznie
orp
orszan
ortodoksyjnego
orton
oryg
oryginale
oryginalna
oryginalne
oryginalnego
oryginalnej
oryginalnie
oryginalny
oryginalnych
oryginalnym
oryginał
oryginału
orzecho
orzechy
orzeczenia
orzeczenie
orzekaja
orzekł
orzeł
orła
orłem
orło
orłowski
orły
os
osa
osace
osad
osada
osadach
osade
osadnictwa
osadnictwo
osadnicy
osadnicza
osadniko
osado
osadowych
osady
osadzie
osadzona
osadzone
osadzono
osadzony
osadzonych
osaka
osborne
oscar
oscara
oscaro
osetii
osi
osia
osiadł
osiadła
osie
osiedla
osiedle
osiedlem
osiedli
osiedlili
osiedlił
osiedlu
osiek
osiem
osiemdziesia
osiemnas
osiemnastu
osin
oskar
oskara
oskarz
oslo
osman
osnabru
oso
osoba
osobach
osobami
osobe
osobie
osobis
osobista
osobiste
osobistego
osobistej
osobistos
osobisty
osobistych
osobistym
osobliwos
osobna
osobne
osobnego
osobnik
osobnika
osobniki
osobniko
osobno
osobny
osobnych
osobnym
osobom
osobowa
osobowe
osobowego
osobowej
osobowos
osobowy
osobowych
osobowym
osoby
osp
ossolin
ossolineum
ost
ostanie
ostateczna
ostateczne
ostatecznego
ostatecznej
ostatecznie
ostateczny
ostatecznym
ostatni
ostatnia
ostatnich
ostatnie
ostatniego
ostatniej
ostatnim
ostatnimi
ostatnio
ostoja
ostra
ostrawa
ostrawie
ostre
ostrego
ostrej
ostro
ostrowa
ostrowcu
ostrowi
ostrowie
ostrowiec
ostrowska
ostrowski
ostrowskiego
ostrowskim
ostroz
ostrołe
ostry
ostrych
ostrym
ostrza
ostrzał
ostrzałem
ostrzału
ostrzez
oswald
oszacowano
oszcze
oszczepem
oszmian
osłabienia
osłabienie
osłaniaja
osłaniał
osłona
osłone
osłonie
osłony
ot
otacza
otaczaja
other
oto
otoczenia
otoczenie
otoczeniem
otoczeniu
otoczona
otoczone
otoczony
otrzyma
otrzymac
otrzymali
otrzymane
otrzymania
otrzymanie
otrzymaniu
otrzymał
otrzymała
otrzymało
otrzymały
otrzymuja
otrzymuje
otrzymujemy
otrzymywali
otrzymywania
otrzymywał
otrzymywała
ottawa
otto
otton
ottona
otwarcia
otwarcie
otwarciem
otwarciu
otwarta
otwarte
otwartego
otwartej
otwarto
otwarty
otwartych
otwartym
otwiera
otwieraja
otwo
otwocku
otworem
otworo
otworu
otwory
otworzono
otworzyc
otworzyli
otworzył
otworzyła
otworzyło
ou
oun
our
out
ov
ova
over
overline
ow
owa
owac
owad
owadami
owado
owady
owali
owalne
owalny
owalnym
owana
owane
owanego
owania
owanie
owaniem
owaniu
owany
owanych
ował
owała
owca
owce
owco
owcy
owczych
owe
owego
owej
owen
owens
owernia
owernii
owi
owie
owiec
own
ownik
ownika
owniki
owniko
owo
owoc
owocami
owoce
owocem
owocniki
owoco
owy
owych
owym
owymi
owłosiona
owłosione
owłosiony
oxford
oxfordshire
oz
ozdoba
ozdobiona
ozdobione
ozdobiony
ozdobna
ozdobne
ozdobnych
ozdoby
oznacza
oznaczac
oznaczaja
oznaczane
oznaczania
oznaczany
oznaczał
oznaczała
oznaczało
oznaczen
oznaczenia
oznaczenie
oznaczeniem
oznaczona
oznaczone
oznaczono
oznaczony
oznaczonych
oznajmił
oznaka
oznaki
ozpn
oła
ołe
ołeksandr
ołnierz
ołnierza
ołnierzami
ołnierze
ołnierzem
ołnierzom
ołnierzy
oło
ołomun
ołomunieckim
ołowiu
ołtarz
ołtarza
ołtarze
ołtarzem
ołtarzu
ołtarzy
p
pa
pabianicach
pablo
pac
pace
pach
pacific
pacjenci
pacjent
pacjenta
pacjento
pack
pacyfik
pacyfikacji
pacyfiku
pada
padaja
paderewskiego
padewskiego
padwie
padwy
padł
padła
padło
padły
page
pages
pago
paige
pain
paja
paje
pak
pakiet
pakieto
pakietu
pakiety
pakistan
pakistanie
pakistanu
pakt
paktu
pal
pala
palace
palais
palatynacie
palatynat
palatynatu
palau
palazzo
palca
palcami
palce
palco
pale
palec
palenia
palenie
paleontolog
palermo
palestyn
palestyna
palestynie
palestyny
pali
paliw
paliwa
paliwem
paliwo
palm
palma
palmas
palmeiras
palmer
palmy
palnej
pam
pamela
pami
pamia
pamie
pan
pana
panama
panamerykan
panamie
panamy
pancerna
pancerne
pancernego
pancernej
pancernik
pancernika
pancerniki
pancerniko
pancerny
pancernych
pancernym
pancerz
pancerza
pandemia
pandemii
panel
panele
panelu
panem
pani
pania
panic
panie
panien
panna
pannie
panny
pano
panorama
panoramy
panowania
panowanie
panowaniem
panował
panowała
panowie
pantera
panu
panuja
panuje
panzer
paola
paolo
pap
papa
paper
papers
papier
papiero
papieroso
papieru
papierze
papieska
papieski
papieskie
papieskiego
papieskiej
papieskim
papiez
papua
papui
par
para
parach
parada
parade
paradise
paradoks
parafia
parafiach
parafialna
parafialne
parafialnego
parafialnej
parafialny
parafialnych
parafialnym
parafian
parafie
parafii
paragwaj
paragwaju
paraliz
parametr
parametro
parametry
parami
paramount
parana
paranaense
paraolimpijskich
parasol
parcele
pardubice
pare
paris
parish
parishes
park
parkach
parker
parki
parkiem
parking
parkingu
parko
parkowa
parkowy
parku
parlamencie
parlament
parlamentarna
parlamentarne
parlamentarnego
parlamentarnej
parlamentarnych
parlamentarzys
parlamentarzysta
parlamentem
parlamentu
parma
parmy
parodia
parowa
parowe
parowiec
parowo
parowozo
parowozy
parowy
parowych
part
partenkirchen
parter
parterowy
parterze
partia
partiach
partial
partiami
partie
partii
partner
partnera
partnerami
partnerem
partnerka
partnero
partnerska
partnerskie
partnerzy
party
partyjna
partyjnego
partyjnej
partyjny
partyjnych
partyzanci
partyzancka
partyzancki
partyzanckich
partyzanckie
partyzanckiego
partyzanckim
partyzantka
partyzantki
partyzanto
paru
pary
paryska
paryski
paryskich
paryskiego
paryskiej
paryskim
paryz
parze
parzyste
pas
pasa
pasami
pasaz
pascal
pasek
pasem
pasie
pasja
pasje
pasji
paskami
paski
pasm
pasma
pasmo
paso
pasoz
pass
passe
passion
past
pasterza
pasterzy
pastor
pastora
pastorem
pastwiska
pasy
pasza
paszkowski
paszy
pasławski
pasłe
pat
patent
patento
path
patologii
patria
patriarcha
patriarchat
patriarchatu
patriarche
patriarchowie
patriarchy
patricia
patrick
patricka
patrioto
patriotyczna
patriotyczne
patriotycznego
patriotycznych
patrol
patrole
patroli
patrolu
patron
patrona
patronat
patronatem
patronem
patronka
patrono
patrycja
patryk
patrz
patrza
patterson
pau
paul
paula
paulem
pauli
paulina
pauline
paulista
paulo
pavel
paweł
pawiaka
pawieł
pawilon
pawilonu
pawlak
pawlicki
pawlikowska
pawła
pawłem
pawło
pawłowski
pax
pay
payne
paz
pałac
pałace
pałacem
pałaco
pałacowo
pałacowy
pałacu
pałacyk
pb
pbs
pc
pca
pce
pchnie
pchor
pck
pco
pcy
pcza
pczej
pczos
pczyni
pd
pdf
pe
peace
peak
pearl
pearson
pec
peck
pedagodzy
pedagog
pedagogiczna
pedagogiczne
pedagogicznego
pedagogicznej
pedagogiczny
pedagogicznych
pedagogicznym
pedagogika
pedagogiki
pedersen
pedro
peggy
pejzaz
pek
pekin
pekinie
pekinu
pelplin
pem
pen
pendz
penn
pennsylvania
penny
pensje
pensji
pensjonat
pensylwania
pensylwanii
people
per
percy
pereira
perfect
performance
period
perkins
perkusis
perkusista
perkusisty
perkusja
perkusji
perkusyjne
peron
perono
perony
perry
pers
persji
perski
perskiego
perskiej
person
personal
personalna
personalne
personalny
personel
personelu
persons
perspektywa
perspektywie
perspektywy
perth
peru
peruwian
perła
perły
pesa
pet
pete
peter
petera
peterem
peters
petersburg
petersburga
petersburgu
petersburskiego
petersburskiej
peterson
petit
petr
petra
petro
peugeot
pewien
pewna
pewne
pewnego
pewnej
pewnie
pewno
pewnos
pewny
pewnych
pewnym
pewnymi
pez
pezizomycotina
pełen
pełna
pełne
pełnego
pełnej
pełni
pełnia
pełnic
pełnie
pełnienia
pełnienie
pełnili
pełnił
pełniła
pełniły
pełnometraz
pełnomocnik
pełnomocnika
pełnomocnikiem
pełny
pełnych
pełnym
pf
pfalz
pfk
pg
pgc
pge
pgr
ph
phane
phantom
phi
phil
philadelphia
philip
philipa
philipp
philippe
philips
phillip
phillips
philosophy
phm
phoenix
photo
php
physical
physics
pi
pia
pianino
pianis
pianista
pianistka
piano
pias
piasecki
piaseczno
piaseczyn
piasek
piaski
piasko
piaskowca
piasku
piast
piasta
piasto
piastował
piastowie
piaszczyste
piaszczystych
piazza
pic
picia
pick
picture
pictures
pie
piec
pieca
piece
piech
piechocie
piechota
piechote
piechoty
piecze
piekary
piekła
piekło
piele
pielgrzymek
pielgrzymka
pielgrzymki
pielgrzymo
pieli
pielisko
piemont
pien
pienia
pienie
pieniem
pienin
pieniu
pier
pierce
piero
pierre
piers
piersi
piersiowa
piersiowej
pierwiastek
pierwiastka
pierwiastki
pierwiastko
pierwotna
pierwotne
pierwotnego
pierwotnej
pierwotnie
pierwotny
pierwotnych
pierwotnym
pierwowzorem
pierwowzoru
pierwsi
pierwsza
pierwsze
pierwszego
pierwszej
pierwszen
pierwszoligowego
pierwszoplanowa
pierwszorze
pierwszy
pierwszych
pierwszym
pierwszymi
pierzei
pies
piesza
piesze
pieszej
pieszo
pieszy
pieszych
pieta
pietro
pietrzak
piew
piewa
piewac
piewaczka
piewaczki
piewaja
piewak
piewali
piewana
piewane
piewania
piewał
piewała
piewnik
piewu
pijaro
pik
pikardii
pikseli
pil
pilastrami
pile
pili
pilica
pilicy
piloci
pilot
pilota
pilotaz
pilotem
piloto
pilskiego
pilznen
pilzno
pin
pine
ping
pink
pinto
pinus
pinyin
pio
pion
piona
pione
pioneer
pionier
pioniero
piono
pionowa
pionowe
pionowego
pionowej
pionowo
pionowy
pionowych
piony
piorun
piosence
piosenek
piosenka
piosenkami
piosenkarka
piosenkarki
piosenkarz
piosenkarza
piosenke
piosenki
piotr
piotra
piotrem
piotrko
piotrkowa
piotrkowie
piotrkowskiego
piotrkowskiej
piotrkowskim
piotrowi
piotrowski
piper
piraci
piramida
piramidy
pirates
pirato
pireneje
pis
pisac
pisali
pisana
pisane
pisania
pisanie
pisaniu
pisano
pisany
pisanych
pisarka
pisarki
pisarz
pisarza
pisarze
pisarzem
pisarzy
pisał
pisała
pisemna
piskle
pism
pisma
pismach
pismem
pismo
pisowni
pisownia
pistolet
pistoleto
pistoletu
pistolety
pisz
pisza
pisze
pit
pitt
pittsburgh
pius
piusa
piw
piwa
piwnicach
piwnice
piwnicy
piwo
piz
pił
piła
piłce
piłka
piłkarka
piłkarki
piłkarscy
piłkarska
piłkarski
piłkarskich
piłkarskie
piłkarskiego
piłkarskiej
piłkarskim
piłkarz
piłkarza
piłkarze
piłkarzem
piłkarzy
piłke
piłki
piło
piłsudski
piłsudskiego
piły
pjongczangu
pk
pka
pkb
pke
pki
pko
pkp
pks
pkt
pku
pkw
pkwn
pl
pla
plac
place
placem
placid
placo
placu
plakat
plakatu
plakaty
plam
plama
plamami
plamkami
plamki
plamy
plan
planach
planami
planecie
planem
planet
planeta
planete
planetoid
planetoida
planetoidy
planety
planicy
planie
plano
planowana
planowane
planowanego
planowanej
planowania
planowanie
planowano
planowany
planowanych
planowanym
planował
plant
plantacji
planu
planuja
planuje
plany
plasował
plastyczne
plastycznej
plastycznych
plastyk
plastyki
plastyko
plasuja
plasuje
plata
plate
plater
platform
platforma
platformach
platforme
platformie
platformy
platon
platona
platyna
platynowa
platynowej
platyny
play
player
players
playhouse
playoff
playstation
plaz
plaza
please
pleban
plebania
plebanii
plebiscycie
plebiscyt
plebiscytu
plecami
pleco
plecy
plejstocen
plemie
plemienia
plemion
plemiona
ples
plh
plik
pliki
pliko
pliku
plk
plot
plotarea
plotdata
plotki
plus
plut
pluton
plutonem
plutono
plutonu
plutony
plymouth
pm
pn
pna
pncd
pne
pnego
pnej
pneumatyczny
png
pni
pnia
pnie
pniona
pnione
pniono
pniony
pnos
pny
pnych
pnym
pnymi
po
pobiera
pobieraja
pobierania
pobierał
pobity
pobił
pobliskich
pobliskie
pobliskiego
pobliskiej
pobliskim
pobliz
pobo
poboru
poboz
pobrali
pobrania
pobrzez
pobycie
pobyt
pobytu
pocałunek
pocho
pochodna
pochodne
pochodnych
pochodza
pochodzenia
pochodzenie
pochodzeniu
pochodzi
pochodzic
pochodzili
pochodził
pochodziła
pochodziło
pochodziły
pochowana
pochowane
pochowani
pochowano
pochowany
pochowanych
pochwalił
pochwy
pocia
pocie
pocieszenia
pocisk
pociskami
pociski
pociskiem
pocisko
pocisku
pocz
pocza
poczdamie
pocze
poczet
poczta
poczte
poczto
pocztowa
pocztowe
pocztowy
pocztowych
poczty
poczucia
poczucie
poczwo
poczynaja
pod
poda
podac
podaja
podaje
podali
podan
podana
podane
podania
podanie
podaniu
podano
podany
podarował
podatek
podatki
podatko
podatkowe
podatkowego
podatkowych
podatku
podatnos
podawana
podawane
podawania
podawanie
podawany
podawał
podaz
podał
podała
podało
podbite
podbo
podboju
podchora
podczas
podczaszy
podczerwieni
poddac
poddaja
poddaje
poddana
poddane
poddania
poddanie
poddano
poddany
poddanych
poddał
podde
podejmowac
podejmowane
podejmowania
podejmowanie
podejmowanych
podejmował
podejmuja
podejmuje
podejrzanych
podejrzenia
podejrzewa
podejs
podgatunek
podgatunki
podgatunko
podgatunku
podgo
podgorica
podgrupa
podgrupy
podhala
podhalan
podhale
podium
podja
podje
podkarpackie
podkarpackiego
podkarpackim
podklasa
podkomorzy
podkres
podlasia
podlasiu
podlaska
podlaski
podlaskie
podlaskiego
podlaskiej
podlaskim
podlega
podlegaja
podlegał
podlegała
podlegały
podległa
podległe
podległych
podlesie
podmiejskich
podmiot
podmiotem
podmioto
podmiotu
podmioty
podmokłych
podnies
podniesienia
podniesienie
podniesiona
podniesiono
podniesiony
podnio
podno
podnosi
podnosza
podnoszenia
podnoszenie
podnoszeniu
podoba
podobien
podobna
podobne
podobnego
podobnej
podobnie
podobno
podobny
podobnych
podobnym
podobnymi
pododdział
pododdziało
pododdziały
podoficer
podoficero
podoficerowie
podolski
podolskiego
podolskim
podolu
podopieczni
podpis
podpisac
podpisali
podpisana
podpisane
podpisania
podpisanie
podpisaniu
podpisano
podpisany
podpisał
podpisała
podpisało
podpisały
podpiso
podpisuja
podporucznicy
podporucznik
podporucznika
podporucznikiem
podporza
podpułkownicy
podpułkownik
podpułkownika
podre
podro
podrodzina
podrodziny
podrza
podrze
pods
podsekretarz
podsekretarza
podstaw
podstawa
podstawe
podstawie
podstawowa
podstawowe
podstawowego
podstawowej
podstawowy
podstawowych
podstawowym
podstawowymi
podstawy
podste
podsumowanie
podsumowuja
podtrzymuja
podwaz
podwia
podwo
podwodna
podwodne
podwodnego
podwodnej
podwodny
podwodnych
podwodnym
podwozia
podwozie
podwoziu
podwyz
podyplomowe
podyplomowych
podz
podzespoło
podziale
podział
podziałem
podziało
podziału
podziały
podzie
podzielic
podzielił
podzieliła
podzielona
podzielone
podzielono
podzielony
podzielonych
podziemia
podziemiach
podziemiu
podziemna
podziemne
podziemnego
podziemnej
podziemny
podziemnych
podziemnym
podziwiac
podła
podłodze
podłoga
podłogi
podłoz
podług
podłuz
poe
poeci
poemat
poematu
poems
poeta
poete
poetka
poeto
poety
poetycka
poetycki
poetyckich
poetyckie
poetyckiej
poezja
poezje
poezji
poezye
pogan
pogarszaja
pogla
pogo
pogoda
pogodowych
pogody
pogodzic
pogon
pogoni
pogotowia
pogra
pogranicza
pogranicze
pograniczu
pogrzeb
pogrzebie
pogrzebu
pogłe
pogłoski
poinformowano
poinformował
poinformowała
point
poitiers
poitou
poj
poja
pojawi
pojawia
pojawiac
pojawiaja
pojawiał
pojawiała
pojawiały
pojawic
pojawienia
pojawienie
pojawieniem
pojawili
pojawił
pojawiła
pojawiło
pojawiły
pojazd
pojazdach
pojazdami
pojazdem
pojazdo
pojazdu
pojazdy
poje
pojechał
pojednania
pojedyncza
pojedyncze
pojedynczego
pojedynczej
pojedynczo
pojedynczy
pojedynczych
pojedynczym
pojedynek
pojedynkach
pojedynki
pojedynko
pojedynku
pojemnos
pojezierza
pojezierze
pojezierzu
pokarm
pokarmowego
pokarmu
pokaz
pokazac
pokazano
pokazał
pokazała
pokazo
pokazuja
pokazuje
pokazy
poke
poker
poko
pokoi
pokoje
pokojo
pokojowa
pokojowe
pokojowego
pokojowej
pokojowy
pokojowych
pokoju
pokolen
pokolenia
pokolenie
pokonac
pokonali
pokonana
pokonani
pokonania
pokonanie
pokonaniu
pokonany
pokonał
pokonała
pokonały
pokonuja
pokonuje
pokrewien
pokrewnych
pokro
pokrycia
pokrycie
pokryta
pokryte
pokryto
pokryty
pokryw
pokrywa
pokrywaja
pokrywy
pokład
pokładowe
pokładowego
pokładowy
pokładu
pokłady
pokładzie
pol
pola
polach
polacy
polak
polaka
polakami
polakiem
polako
polakom
polan
polana
poland
polanie
polany
polaris
polaryzacji
pole
polecen
polecenia
polecenie
polecił
polega
polegac
polegaja
polegał
polegała
polegli
poległ
poległo
poległych
poległym
polek
polem
polen
polesie
poleskim
poli
police
polichromia
polichromie
policja
policjanci
policjant
policjanta
policjanto
policje
policji
policy
policyjna
policyjne
policyjnej
policyjnych
poligon
poligonie
polis
polish
politechnice
politechnika
politechniki
political
politics
politolog
politologii
polityce
politycy
polityczna
polityczne
politycznego
politycznej
polityczni
politycznie
polityczno
polityczny
politycznych
politycznym
politycznymi
polityk
polityka
polityke
polityki
politykiem
polityko
polka
polki
polkowice
polna
polnego
polny
polo
polodowcowe
pologne
polona
polonez
polonia
poloniae
polonica
polonii
polonistyki
polowa
polowan
polowania
polowanie
polowe
polowego
polowej
polowy
polowych
polsat
polsatu
polsce
polscy
polska
polske
polski
polskich
polskie
polskiego
polskiej
polskiemu
polskim
polskimi
polsko
polskoje
polskos
polsku
polu
poluja
pom
pomaga
pomagac
pomagaja
pomagali
pomagał
pomagała
pomaran
pomiar
pomiaro
pomiarowych
pomiaru
pomiary
pomie
pomies
pomieszczen
pomieszczenia
pomieszczeniach
pomieszczenie
pomieszczeniu
pomijaja
pomimo
pominie
pomnik
pomnika
pomniki
pomnikiem
pomniko
pomniku
pomo
pomoc
pomoca
pomocnicza
pomocnicze
pomocniczego
pomocniczej
pomocniczy
pomocniczych
pomocniczym
pomocnik
pomocnika
pomocnikiem
pomocy
pomogła
pomordowanych
pomorska
pomorski
pomorskich
pomorskie
pomorskiego
pomorskiej
pomorskim
pomorza
pomorze
pomorzu
pomp
pompa
pompy
pomys
pomysł
pomysło
pomysłodawca
pomysłu
pomysły
pon
ponad
ponadto
poniatowski
poniatowskiego
poniedziałek
poniedziałku
ponies
poniewaz
ponio
poniosła
poniosło
poniosły
poniz
ponosza
ponowna
ponowne
ponownego
ponownej
ponownie
ponowny
ponownym
pont
ponte
pontyfikatu
ponumerowanych
pop
popadł
poparcia
poparcie
poparciem
poparciu
poparł
poparła
pope
popełnienia
popełnione
popełnił
popiera
popieraja
popierania
popierał
popiersie
popiełuszki
popowa
popowe
popowi
popołudniowych
poprawa
poprawe
poprawek
poprawia
poprawiaja
poprawic
poprawie
poprawione
poprawił
poprawiła
poprawki
poprawnie
poprawnos
poprawy
poprosił
poprowadził
poprowadzono
poprzeczka
poprzeczna
poprzeczne
poprzedni
poprzednia
poprzednich
poprzednie
poprzedniego
poprzedniej
poprzednik
poprzednika
poprzedniko
poprzednim
poprzednio
poprzedzaja
poprzedzone
poprzez
popu
populacja
populacje
populacji
popular
popularna
popularne
popularnego
popularnej
popularnie
popularnos
popularny
popularnych
popularnym
popularyzacji
popularyzator
population
popytu
popłyna
por
pora
poradnik
poradzic
porasta
porastaja
poraz
porcelany
porcie
pore
porno
poro
porodu
poros
porosto
porozumien
porozumienia
porozumienie
porozumieniem
porozumieniu
porsche
port
porta
portal
portale
portalem
portalu
portem
porter
portland
porto
portorykan
portoryko
portrait
portrecie
portret
portreto
portretu
portrety
portsmouth
portu
portugal
portugalia
portugalii
portugalscy
portugalska
portugalski
portugalskiego
portugalskiej
portugalskim
porty
portyk
porucznicy
porucznik
porucznika
porucznikiem
porusza
poruszac
poruszaja
poruszania
poruszanie
poruszał
porwanie
porwany
pory
porza
porze
porzucił
pos
posa
posade
posady
poselska
poselski
poselskiego
poselskiej
poselstwa
poselstwo
posesji
poseł
posiada
posiadac
posiadacz
posiadaczem
posiadaczy
posiadaja
posiadali
posiadania
posiadanie
posiadaniu
posiadanych
posiadał
posiadała
posiadało
posiadały
posiadłos
posiedzen
posiedzenia
posiedzenie
posiedzeniu
position
posiłki
posiłko
pospolita
pospolite
pospolitego
pospolity
post
posta
postac
postaci
postacia
postaciami
postacie
postanawia
postanawiaja
postanowien
postanowienia
postanowienie
postanowieniem
postanowili
postanowiono
postanowił
postanowiła
postanowiło
postanowiły
postaw
postawa
postawe
postawic
postawie
postawiona
postawione
postawiono
postawiony
postawił
postawskim
postawy
poste
posterunek
posterunki
posterunko
posterunku
posto
postoju
postrzegane
postrzegany
postrzelony
postu
postulat
postulato
postulaty
postulował
posunie
poszczego
poszedł
poszerzenie
poszkodowanych
poszukiwan
poszukiwania
poszukiwanie
poszukiwaniu
poszukiwany
poszukuja
poszukuje
poszła
posła
posłan
posłanka
posłanki
posłał
posłem
posło
posłowie
posługe
posługi
posługiwac
posługiwał
posługuja
posługuje
posłuszen
posłuz
pot
potajemnie
potasu
pote
potem
potencjalne
potencjalnie
potencjalnych
potencjał
potencjału
potocki
potockich
potockiego
potocznie
potok
potoki
potokiem
potoko
potoku
potomek
potomka
potomko
potomkowie
potomstwa
potomstwo
potop
potopu
potra
potrafi
potrafia
potrafił
potraw
potrawy
potro
potrzeb
potrzeba
potrzebe
potrzebie
potrzebna
potrzebne
potrzebny
potrzebnych
potrzebował
potrzebuja
potrzebuje
potrzeby
potter
potwierdza
potwierdzaja
potwierdzenia
potwierdzenie
potwierdzic
potwierdził
potwierdziła
potwierdziło
potwierdziły
potwierdzona
potwierdzone
potwierdzono
potwierdzony
potwo
potwora
potworo
potwory
potyczki
pour
pow
powa
powac
powali
powania
powanie
powaniem
powaniu
powaz
pował
powała
powało
powały
powell
power
powers
powia
powiat
powiatach
powiatem
powiato
powiatowa
powiatowe
powiatowego
powiatowej
powiatowy
powiatowych
powiatowym
powiatu
powiaty
powie
powiecie
powiecieuchwała
powiedz
powiedział
powiedziała
powiedziec
powiem
powierzchni
powierzchnia
powierzchnie
powierzchniowe
powierzchniowych
powierzono
powierzył
powies
powieszenie
powietrza
powietrze
powietrzem
powietrzna
powietrzne
powietrznego
powietrznej
powietrzny
powietrznych
powietrzu
powikłan
powinien
powinna
powinni
powinno
powinnos
powinny
powiodła
powis
powo
powodem
powodo
powodowac
powodowało
powodowały
powodu
powoduja
powoduje
powody
powodzenia
powodzenie
powodzeniem
powodzi
powojenna
powojenne
powojennego
powojennej
powojenny
powojennych
powojennym
powoli
powołana
powołane
powołanego
powołanej
powołania
powołanie
powołaniem
powołaniu
powołano
powołany
powołał
powołała
powołuja
powołuje
powoływano
powoływany
powraca
powracaja
powro
powrocie
powrotem
powrotnej
powrotu
powst
powstac
powstaja
powstaje
powstan
powstania
powstanie
powstaniec
powstaniem
powstaniu
powstawac
powstawania
powstawanie
powstawaniu
powstawał
powstawały
powstał
powstała
powstałe
powstałego
powstałej
powstało
powstały
powstałych
powstałym
powstrzymac
powszechna
powszechne
powszechnego
powszechnej
powszechnie
powszechny
powszechnych
powszechnym
powtarza
powtarzaja
powto
powyz
powłoki
poz
poza
pozarza
pozbawienia
pozbawienie
pozbawiona
pozbawione
pozbawiony
pozbawionych
pozbawił
pozbyc
pozew
poziom
pozioma
poziomach
poziome
poziomem
poziomie
poziomo
poziomu
poziomy
poznac
poznaja
poznaje
poznali
poznan
poznania
poznanie
poznaniem
poznaniu
poznał
poznała
pozornie
pozostac
pozostaja
pozostaje
pozostali
pozostanie
pozostawał
pozostawała
pozostawało
pozostawały
pozostawia
pozostawiaja
pozostawiono
pozostawił
pozostał
pozostała
pozostałe
pozostałej
pozostało
pozostałos
pozostały
pozostałych
pozostałym
pozostałymi
pozwala
pozwalaja
pozwalał
pozwalała
pozwalało
pozwalały
pozwolenia
pozwolenie
pozwoli
pozwolic
pozwolił
pozwoliła
pozwoliło
pozwoliły
pozwolono
pozycja
pozycjach
pozycje
pozycji
pozyskac
pozyskania
pozyskanie
pozyskał
pozyskiwania
pozytywna
pozytywne
pozytywnie
pozytywny
pozytywnych
pozytywnym
poł
poła
poło
połowa
połowe
połowie
połowy
połoz
połtawa
południa
południe
południowa
południowe
południowego
południowej
południowo
południowoafrykan
południowoamerykan
południowoczeskim
południowokorean
południowomorawskim
południowy
południowych
południowym
południu
pp
ppanc
ppena
ppor
ppr
pps
ppł
ppłk
pr
pra
prac
praca
pracach
pracami
prace
pracodawco
pracodawcy
pracowac
pracowali
pracował
pracowała
pracowało
pracowały
pracowni
pracownia
pracownicy
pracownie
pracownik
pracownika
pracownikami
pracownikiem
pracowniko
pracownikom
practice
pracuja
pracuje
pracy
pradesh
prado
pradze
pradziad
praga
pragi
pragna
pragne
pragnie
pragnienia
pragnienie
praha
praktyce
praktyczna
praktyczne
praktycznie
praktycznych
praktyk
praktyka
praktyke
praktyki
praktykował
praktykuja
prapremiera
prasa
prase
prasie
praskiego
praskiej
prasowa
prasowe
prasowego
prasowej
prasowi
prasowy
prasowych
prasowym
prasy
pratt
praw
prawa
prawach
prawami
prawda
prawde
prawdopodobien
prawdopodobna
prawdopodobne
prawdopodobnie
prawdy
prawdziwa
prawdziwe
prawdziwego
prawdziwej
prawdziwie
prawdziwos
prawdziwy
prawdziwych
prawdziwym
prawe
prawego
prawej
prawem
prawica
prawicy
prawidłowa
prawidłowe
prawidłowego
prawidłowo
prawie
prawna
prawne
prawnego
prawnej
prawnicy
prawnicze
prawniczej
prawniczka
prawniczych
prawnie
prawnik
prawnika
prawnikiem
prawniko
prawno
prawny
prawnych
prawnym
prawo
prawobrzez
prawosławia
prawosławie
prawosławna
prawosławne
prawosławnego
prawosławnej
prawosławni
prawosławny
prawosławnych
prawosławnym
prawy
prawym
praz
prałat
pre
precyzyjne
prefekt
prefekta
prefektem
prefektura
prefektury
prefekturze
preferencji
preferuja
preferuje
preis
premie
premier
premiera
premiere
premierem
premierowego
premiership
premiery
premierze
premierzy
premio
premium
preparato
preparaty
present
presents
president
presja
presji
press
prestiz
preston
pretekstem
pretendenta
pretendento
pretensje
pretty
prezbiter
prezbitera
prezbiterat
prezbiterem
prezbiterium
prezent
prezentacja
prezentacje
prezentacji
prezenter
prezenterka
prezentowana
prezentowane
prezentowany
prezentował
prezentuja
prezentuje
prezes
prezesa
prezesem
prezesi
prezydenci
prezydencki
prezydenckich
prezydenckie
prezydenckiej
prezydenckim
prezydent
prezydenta
prezydentem
prezydento
prezydentowi
prezydentury
prezydium
pri
price
pride
priest
prima
prime
primera
primo
prince
princess
princeton
print
priorytet
private
prix
prize
prl
pro
problem
problemach
problemami
problematyka
problematyki
problemem
problemo
problems
problemu
problemy
proboszcz
proboszcza
proboszczem
proboszczowie
proc
procedur
procedura
procedure
procedury
proceedings
procent
proces
procesach
procesami
procesem
procesie
procesji
proceso
procesor
procesora
procesoro
procesory
process
procesu
procesy
prochu
prochy
prod
producenci
producent
producenta
producentami
producentem
producentka
producento
production
productions
produkcja
produkcjach
produkcje
produkcji
produkcyjna
produkcyjne
produkcyjnej
produkcyjny
produkcyjnych
produkcyjnym
produkowac
produkowana
produkowane
produkowano
produkowany
produkowanych
produkt
produktami
produktem
produkto
produktu
produkty
produkuja
produkuje
prodziekan
prodziekana
prodziekanem
prof
profesjonalna
profesjonalne
profesjonalnego
profesjonalnej
profesjonalny
profesjonalnych
profesjonalnym
profesor
profesora
profesorem
profesoro
profesorowie
professional
professor
profil
profile
profilu
profit
program
programach
programem
programie
programo
programowa
programowania
programowanie
programowej
programu
programy
progress
progresywnego
progu
proj
project
projekcie
projekt
projektach
projektami
projektanci
projektant
projektanta
projektantem
projektantka
projektanto
projektem
projekto
projektowania
projektowanie
projektowaniu
projektował
projektowe
projektu
projekty
prokurator
prokuratora
prokuratura
prokuratury
prolog
prom
promien
promieni
promienia
promienie
promieniotwo
promieniowania
promieniowanie
promieniu
promo
promocja
promocje
promocji
promocyjne
promocyjny
promotor
promotorem
promowac
promowania
promowanie
promowany
promował
promowała
promu
promuja
promuje
pron
proofread
propaganda
propagandy
propagowanie
propaguja
properties
property
proponował
proponuja
proponuje
proporcje
proporcji
propozycja
propozycje
propozycji
prorektor
prorektora
prorektorem
prorok
proroka
proroko
pros
prosi
prosic
prosił
prospekt
prosta
proste
prostego
prostej
prosto
prostoka
prostopadle
prostu
prosty
prostych
prostym
prostytucji
prosza
prosze
protes
protest
protestanccy
protestanci
protestancka
protestancki
protestanckich
protestanckie
protestanto
protestantyzm
protestantyzmu
protesto
protestu
protestuja
protesty
protocol
protoko
protokołu
protokoły
protoplasta
prototyp
prototypo
prototypu
prototypy
providence
prowadza
prowadzenia
prowadzenie
prowadzeniem
prowadzeniu
prowadzi
prowadzic
prowadzili
prowadził
prowadziła
prowadziło
prowadziły
prowadzona
prowadzone
prowadzonego
prowadzonej
prowadzono
prowadzony
prowadzonych
prowadzonym
prowansja
prowansji
prowincja
prowincjach
prowincje
prowincji
proza
prozaicy
prozaik
prozy
pru
prudnik
prudnika
prudniku
prus
prusa
prusach
prusami
pruska
pruski
pruskich
pruskie
pruskiego
pruskiej
pruskim
prusy
pruszcz
pruszko
pruszkowie
prva
prymas
prymasa
prywatna
prywatne
prywatnego
prywatnej
prywatnie
prywatny
prywatnych
prywatnym
prywatyzacji
prze
przebic
przebieg
przebiega
przebiegac
przebiegaja
przebiegał
przebiegała
przebiegiem
przebiegu
przebił
przebo
przeboje
przebojem
przebojo
przebudowa
przebudowana
przebudowane
przebudowano
przebudowany
przebudowe
przebudowie
przebudowy
przebudzenie
przebywa
przebywac
przebywaja
przebywali
przebywania
przebywał
przebywała
przebywało
przechodza
przechodzi
przechodził
przechodziła
przechowywana
przechowywane
przechowywania
przechowywanie
przechowywany
przecia
przecie
przeciez
przecina
przecinaja
przeciw
przeciwciał
przeciwciała
przeciwdziałania
przeciwien
przeciwko
przeciwlotnicza
przeciwlotnicze
przeciwlotniczej
przeciwlotniczy
przeciwlotniczych
przeciwna
przeciwnej
przeciwnicy
przeciwnie
przeciwnik
przeciwnika
przeciwnikami
przeciwnikiem
przeciwniko
przeciwny
przeciwnych
przeciwnym
przeciwpancerne
przeciwpancernej
przeciwpancerny
przeciwpancernych
przeciwpoz
przeciwstawic
przed
przeddzien
przede
przedgo
przedmies
przedmiocie
przedmiot
przedmiotem
przedmioto
przedmiotu
przedmioty
przedmos
przedmowa
przedni
przednia
przednich
przednie
przedniego
przedniej
przednim
przednionape
przedostac
przedostatnie
przedostał
przedplecza
przedplecze
przedr
przedsie
przedsionek
przedstawia
przedstawiaja
przedstawiana
przedstawiane
przedstawiany
przedstawiał
przedstawiała
przedstawiały
przedstawic
przedstawiciel
przedstawiciela
przedstawicielami
przedstawiciele
przedstawicielem
przedstawicieli
przedstawicielka
przedstawicielstwa
przedstawicielstwo
przedstawien
przedstawienia
przedstawieniach
przedstawienie
przedstawieniem
przedstawieniu
przedstawiona
przedstawione
przedstawiono
przedstawiony
przedstawionych
przedstawił
przedstawiła
przedszkola
przedszkole
przedtem
przedterminowych
przedwczes
przedwojenne
przedwojennego
przedwojennej
przedwojenny
przedwojennych
przedziale
przedział
przedziału
przedłoz
przedłuz
przegla
przegrali
przegrana
przegrane
przegranej
przegrany
przegranych
przegranym
przegrał
przegrała
przegrały
przegrywaja
przeja
przejawia
przejawiaja
przejazd
przejazdu
przeje
przejechał
przejez
przejmowanie
przejmuja
przejmuje
przejs
przeka
przekaz
przekazac
przekazali
przekazana
przekazane
przekazania
przekazanie
przekazaniu
przekazano
przekazany
przekazał
przekazała
przekazo
przekazu
przekazuja
przekazuje
przekazywane
przekazywania
przekazywanie
przekierowania
przekle
przekonac
przekonan
przekonania
przekonanie
przekonaniu
przekonany
przekonał
przekonuja
przekonuje
przekracza
przekraczac
przekraczaja
przekro
przekroczenia
przekroczenie
przekroczeniu
przekroczyc
przekroczył
przekroczyła
przekroczyły
przekroju
przekształca
przekształcaja
przekształcen
przekształcenia
przekształcenie
przekształceniu
przekształcic
przekształcił
przekształciła
przekształcona
przekształcone
przekształconej
przekształcono
przekształcony
przekł
przekład
przekładni
przekładnia
przekłado
przekładu
przekłady
przekładzie
przeliczeniu
przelot
przelotu
przemawia
przemawiaja
przemian
przemiana
przemianowana
przemianowane
przemianowano
przemianowany
przemiany
przemienienia
przemieszczaja
przemieszczania
przemo
przemoc
przemocy
przemys
przemyska
przemyski
przemyskiego
przemyskiej
przemyskim
przemysł
przemysła
przemysław
przemysława
przemysłem
przemysłowa
przemysłowe
przemysłowego
przemysłowej
przemysłowiec
przemysłowo
przemysłowy
przemysłowych
przemysłowym
przemysłu
przenajs
przenies
przeniesienia
przeniesienie
przeniesieniem
przeniesieniu
przeniesiona
przeniesione
przeniesiono
przeniesiony
przenio
przeniosła
przenos
przenosi
przenosic
przenosza
przenoszenia
przenoszenie
przenoszona
przenoszone
przeobraz
przepas
przepio
przepis
przepisach
przepisami
przepiso
przepisy
przeprawa
przeprawy
przeprowadza
przeprowadzaja
przeprowadzana
przeprowadzane
przeprowadzania
przeprowadzano
przeprowadzał
przeprowadzce
przeprowadzenia
przeprowadzenie
przeprowadzeniu
przeprowadzic
przeprowadzili
przeprowadził
przeprowadziła
przeprowadziły
przeprowadzona
przeprowadzone
przeprowadzonego
przeprowadzonej
przeprowadzono
przeprowadzony
przeprowadzonych
przeprowadzonym
przepustowos
przepłyna
przepływ
przepływa
przepływaja
przepływu
przeraz
przero
przerwa
przerwac
przerwami
przerwana
przerwane
przerwania
przerwanie
przerwano
przerwany
przerwał
przerwała
przerwe
przerwie
przerwy
przerzuto
przes
przesa
przesiedlen
przestaje
przestarzałe
przestał
przestała
przestało
przestały
przeste
przestrzegania
przestrzen
przestrzeni
przestrzenia
przestrzeniach
przestrzenie
przestrzenna
przestrzenne
przestrzennego
przestrzennej
przestrzenny
przesuna
przesunie
przesuwaja
przesyłania
przeszedł
przeszko
przeszkoda
przeszkodami
przeszkody
przeszkolenie
przeszli
przeszła
przeszło
przeszłos
przeszły
przesłanie
przesłanki
przesłuchan
przesłuchania
przesłuchanie
przetarg
przetargu
przeto
przetoz
przetransportowany
przetrwac
przetrwania
przetrwanie
przetrwał
przetrwała
przetrwało
przetrwały
przetrzymywany
przetwarzania
przetwarzanie
przetwo
przetłumaczona
przetłumaczone
przetłumaczył
przewaga
przewage
przewagi
przewaz
przewiduja
przewiduje
przewidywano
przewidywał
przewidziane
przewidziano
przewidziany
przewidzianych
przewieziono
przewieziony
przewo
przewodnictwem
przewodnicza
przewodniczył
przewodnik
przewodnika
przewodnikiem
przewodniko
przewodo
przewodu
przewody
przewodza
przewodził
przewoz
przewozo
przewozu
przewozy
przewro
przewrotu
przewyz
przez
przezen
przeznaczenia
przeznaczenie
przeznaczeniem
przeznaczona
przeznaczone
przeznaczonego
przeznaczonej
przeznaczono
przeznaczony
przeznaczonych
przeznaczonym
przeznaczył
przezwycie
przeł
przeła
przełajowych
przełajowym
przełe
przełom
przełomem
przełomie
przełomu
przełoz
przełyku
przo
przodka
przodko
przodkowie
przodu
przy
przybiera
przybieraja
przybliz
przybrał
przybrzez
przybycia
przybycie
przybyciem
przybyciu
przybyli
przybylski
przybywa
przybywaja
przybył
przybyła
przybyło
przybyły
przybyłych
przychodnia
przychodo
przychody
przychodza
przychodzi
przychylnos
przycia
przyczo
przyczyn
przyczyna
przyczyne
przyczynek
przyczynia
przyczyniaja
przyczynic
przyczynił
przyczyniła
przyczyniło
przyczyniły
przyczyny
przydatne
przydatnos
przydomek
przydroz
przydział
przydzielona
przydzielono
przydzielony
przygla
przygo
przygoda
przygodach
przygode
przygodowe
przygody
przygotowac
przygotowan
przygotowana
przygotowane
przygotowanej
przygotowania
przygotowaniach
przygotowanie
przygotowaniem
przygotowaniu
przygotowano
przygotowany
przygotowanych
przygotował
przygotowała
przygotowuja
przygotowuje
przygotowywał
przyja
przyjaciel
przyjaciela
przyjaciele
przyjacielem
przyjacio
przyjaz
przyjdzie
przyje
przyjechał
przyjechała
przyjemnos
przyjez
przyjmowac
przyjmowania
przyjmowanie
przyjmował
przyjmuja
przyjmuje
przyjs
przykos
przykład
przykładami
przykładem
przykłado
przykładowe
przykładowo
przykładu
przykłady
przykładzie
przyla
przylega
przylegaja
przymierza
przymierze
przymiotnik
przymusowe
przymusowej
przymusowo
przymusowych
przynajmniej
przynalez
przynies
przynio
przyniosła
przyniosło
przyniosły
przynosi
przynosza
przyp
przypada
przypadaja
przypadek
przypadkach
przypadki
przypadkiem
przypadko
przypadkowo
przypadku
przypadł
przypadła
przypadło
przypadły
przypie
przypiecze
przypis
przypisana
przypisane
przypisuja
przypisuje
przypisy
przypisywane
przypisywano
przypisywany
przypomina
przypominac
przypominaja
przypominał
przyporza
przypowies
przypus
przypuszcza
przypuszczac
przypuszczalnie
przyroda
przyrodnicze
przyrodniczego
przyrodniczo
przyrodniczy
przyrodniczych
przyrodniczym
przyrodnik
przyrody
przyrodzie
przyrost
przyrza
przys
przysadki
przysie
przysio
przyspieszenia
przyspieszenie
przysposobienia
przysta
przystan
przystanek
przystani
przystanki
przystankiem
przystanko
przystanku
przyste
przystosowana
przystosowane
przystosowany
przyszedł
przyszli
przyszła
przyszłe
przyszłego
przyszłej
przyszło
przyszłos
przyszły
przyszłych
przyszłym
przysło
przysługuja
przysługuje
przytacza
przytomnos
przywia
przywilej
przywileje
przywilejo
przywileju
przywio
przywo
przywro
przyznac
przyznaja
przyznaje
przyznana
przyznane
przyznania
przyznanie
przyznano
przyznany
przyznawana
przyznawane
przyznawano
przyznawany
przyznawał
przyznał
przyznała
przyznało
przyła
przyłe
przyłoz
ps
psa
psalm
psalmo
psem
pseud
pseudonim
pseudonimem
pseudonimie
pseudonimu
psi
psie
psk
psl
pso
psp
pstra
pstw
pstwa
pstwem
pstwie
pstwo
psv
psy
psychiatra
psychiatrii
psychiatrycznego
psychiczne
psychicznego
psychicznie
psychicznych
psycholodzy
psycholog
psychologia
psychologiczne
psychologiczny
psychologicznych
psychologie
psychologii
psychology
psz
pszczo
pszczoły
pszczyn
pszenicy
pt
ptak
ptaka
ptaki
ptako
ptolemeusza
pttk
pu
public
publications
publicys
publicysta
publicystka
publicystyka
publiczna
publiczne
publicznego
publicznej
publicznie
publicznos
publiczny
publicznych
publicznym
publikacja
publikacjach
publikacje
publikacji
publikowana
publikowane
publikowanych
publikował
publikowała
publikuja
publikuje
publishers
publishing
puchar
pucharach
pucharo
pucharowa
pucharowe
pucharowej
pucharowych
pucharowym
pucharu
puchary
pucharze
puczu
puebla
puerto
puja
puje
pula
puli
pulitzera
puls
puma
punk
punkcie
punkt
punktach
punktacja
punktacji
punktami
punktem
punkto
punktowa
punktowane
punktowy
punktowych
punktowym
punktu
punktuja
punkty
pure
purple
pus
pusta
puste
pustelnik
pusty
pustyni
pustynia
pustynie
puszcza
puszczy
put
putin
puy
puzon
puł
pułap
pułapka
pułapki
pułaskiego
puławach
puławy
pułk
pułki
pułkiem
pułko
pułkownicy
pułkownik
pułkownika
pułkownikiem
pułku
pułtusku
pw
pwn
pwst
px
py
pysk
pyta
pytaja
pytan
pytania
pytanie
python
pył
pyłu
pz
pzl
pzpn
pzpr
pzwl
płac
płaca
płacenia
płacic
płacza
płaska
płaski
płaskich
płaskie
płaskim
płaskorzez
płaskowyz
płaszcz
płaszcza
płaszczyz
płaszczyzna
płaszczyzny
płat
płata
płatki
płatko
płatnos
płaty
płaz
płaza
płazo
płazy
płci
płciowa
płciowego
płciowy
płciowych
płd
płec
płetwa
płetwy
płk
płn
pło
płock
płocka
płocki
płockiego
płockiej
płockim
płocku
płodnos
płodu
płomien
płon
płona
płotkarze
płotki
płowdiw
płuc
płuca
płycie
płyn
płyna
płyne
płynie
płynnos
płyno
płynu
płyt
płyta
płytach
płytami
płyte
płytek
płytka
płytki
płytkich
płytkie
płytowa
płyty
pływacy
pływaczka
pływaja
pływak
pływania
pływanie
pływaniu
pływał
q
qi
qing
qu
quad
quartet
quasi
que
quebec
quebecu
queen
queens
queensland
quentin
quest
qui
quick
quincy
quinn
quito
quo
r
ra
rabat
rabin
rabina
rac
race
rach
rachel
rachuby
rachunek
rachunkowos
rachunku
racia
racibo
raciborzu
racing
racje
racji
raczej
raczyn
rad
rada
radami
radar
radaru
radca
radcy
rade
radia
radiem
radio
radiofonii
radiostacje
radiostacji
radiowa
radiowe
radiowego
radiowej
radiowy
radiowych
radiowym
radiu
radlin
radna
radnego
radni
radny
radnych
radnym
radom
radomia
radomiu
radomska
radomski
radomskiego
radomskiej
radomskim
radomsko
radomszczan
rados
radosław
radwan
rady
radykalna
radykalne
radykalnej
radykalnych
radz
radzi
radzie
radzieccy
radziecka
radziecki
radzieckich
radzieckie
radzieckiego
radzieckiej
radzieckim
radziwiłł
radziwiłła
radziwiłło
radzyn
rae
raf
rafael
rafaela
rafał
rafała
rage
rai
rail
railway
rain
rainbow
rainer
raj
raja
rajd
rajdach
rajdo
rajdowe
rajdowy
rajdowych
rajdu
rajdy
rajdzie
rajmund
raju
rak
raka
rakiem
rakiet
rakieta
rakietowe
rakietowego
rakietowy
rakietowych
rakiety
rako
rakowickim
ral
rale
rali
rally
ralph
ram
rama
ramach
ramat
rami
ramie
ramienia
ramieniu
ramion
ramiona
ramionach
ramionami
ramo
ramone
ramos
ramy
ran
rana
randall
randy
randze
ranem
ranga
range
ranger
rangers
rangi
rangle
rania
rankiem
ranking
rankingi
rankingu
ranne
ranny
rannych
rano
rany
rap
raper
rapera
raperzy
rapid
rapids
raporcie
raport
raporto
raportu
raporty
rard
ras
rasa
rase
rasy
rat
rate
ration
ratowac
ratowania
ratownictwa
ratuja
ratuje
ratunek
ratunkowa
ratunkowego
ratusz
ratusza
ratuszu
ratyfikacji
rau
raven
ravensbru
raw
rawa
rawicz
ray
raya
raymond
raz
raza
razem
razie
razu
razy
rb
rc
rca
rcami
rcd
rce
rco
rcy
rcza
rcze
rczego
rczej
rczos
rczy
rczych
rczyni
rd
rde
rdoba
rdz
rdzen
rdzenia
rdzennych
re
rea
read
reading
ready
reaguja
reaguje
reakcja
reakcje
reakcji
reaktor
reaktora
reaktywacja
reaktywacji
reaktywowano
reaktywowany
real
realem
reality
realizacja
realizacje
realizacji
realizm
realizmu
realizowac
realizowana
realizowane
realizowano
realizowany
realizowanych
realizował
realizuja
realizuje
realna
realne
realnej
realu
rebecca
rebel
rebelianci
rebelianto
rebelii
rebis
rec
recenzent
recenzento
recenzja
recenzje
recenzji
recepcja
receptora
receptoro
receptory
recife
recki
record
recording
recordings
records
red
redagował
redakcja
redakcje
redakcji
redakcyjnego
redaktor
redaktora
redaktorem
redaktorka
redaktoro
redaktorzy
redni
rednia
rednica
rednice
rednich
rednictwem
rednicy
rednie
redniego
redniej
rednim
rednio
redniodystansowcy
redniowiecza
redniowiecze
redniowieczna
redniowieczne
redniowiecznego
redniowiecznej
redniowieczny
redniowiecznych
redniowiecznym
redniowieczu
reds
redukcja
redukcje
redukcji
reed
reedycja
reedycji
reelekcje
referat
referatu
reference
referendum
referent
refleksje
refleksji
reflektorami
reflektoro
reflektory
reform
reforma
reformacja
reformacji
reforme
reformie
reformy
regent
regenta
reggae
reggio
regia
regiment
regimentu
regina
region
regionach
regional
regionalna
regionalne
regionalnego
regionalnej
regionalny
regionalnych
regionalnym
regionem
regionie
regiono
regionu
regiony
regis
register
regni
rego
regos
regulacja
regulacje
regulacji
regulamin
regulaminem
regulaminu
regularna
regularne
regularnego
regularnej
regularnie
regularny
regularnych
regularnym
regulowane
reguluja
reguluje
reguł
reguła
reguły
rehabilitacji
rei
reich
reichstagu
reid
reigns
reilly
reims
reinhard
rej
reja
rejencji
rejestr
rejestracja
rejestracje
rejestracji
rejestro
rejestru
rejestrze
rejon
rejonach
rejonie
rejono
rejonowego
rejonowej
rejonowy
rejonu
rejony
rejs
rejsu
rejsy
rek
reklam
reklama
reklamach
reklamie
reklamowej
reklamowych
reklamy
rekomendacji
rekonstrukcja
rekonstrukcje
rekonstrukcji
rekord
rekordem
rekordo
rekordowa
rekordu
rekordy
rekordzista
rekordzistka
rekreacja
rekreacji
rekreacyjne
rekruto
rektor
rektora
rektorem
rektorzy
relacja
relacjach
relacje
relacji
relations
relatywnie
release
relief
religia
religie
religii
religijna
religijne
religijnego
religijnej
religijnos
religijny
religijnych
religijnym
religijnymi
religion
relikwie
relikwii
rem
remake
rembertowie
remember
remiks
remiksy
remis
remisem
remisu
remisy
remix
remixes
remiza
remo
remoncie
remont
remonto
remontowany
remontowe
remontu
remonty
remu
ren
renaissance
renata
renato
renault
rene
renesansowa
renesansowe
renesansowy
renesansu
rennes
reno
renowacja
renowacje
renowacji
renu
reorganizacja
reorganizacje
reorganizacji
reorganizuja
repasaz
repertuar
repertuaru
repertuarze
replika
report
reportaz
reporter
repozytorium
represje
represji
reprezentacja
reprezentacjach
reprezentacje
reprezentacji
reprezentacyjna
reprezentacyjne
reprezentacyjnej
reprezentacyjny
reprezentanci
reprezentant
reprezentanta
reprezentantem
reprezentantka
reprezentantki
reprezentanto
reprezentowac
reprezentowali
reprezentowana
reprezentowane
reprezentowania
reprezentowany
reprezentował
reprezentowała
reprezentowało
reprezentuja
reprezentuje
reprint
reprise
republic
republice
republik
republika
republikan
republikanie
republikano
republike
republiki
requiem
require
rer
res
research
reserve
resorcie
resort
resortu
resources
restauracja
restauracje
restauracji
restrukturyzacji
result
results
reszta
reszte
resztek
resztki
reszty
retoryki
retrieved
return
reunion
reveal
reveala
revenge
review
revolution
revue
rewanz
rewers
rewersie
rewitalizacji
rewizji
rewizyjnej
rewolucja
rewolucje
rewolucji
rewolucjonista
rewolucyjna
rewolucyjne
rewolucyjnego
rewolucyjnej
rewolucyjny
rewolucyjnych
rex
rey
reyes
reykjavi
reymonta
reynolds
rez
reza
rezerw
rezerwach
rezerwacie
rezerwat
rezerwato
rezerwatu
rezerwaty
rezerwie
rezerwowa
rezerwowego
rezerwowej
rezerwowy
rezerwowych
rezerwowym
rezerwy
rezolucja
rezolucje
rezolucji
rezultacie
rezultat
rezultatem
rezultato
rezultatu
rezultaty
rezydencja
rezydencje
rezydencji
rezygnacja
rezygnacje
rezygnacji
rezygnuja
rfn
rfsrr
rg
rgb
rgen
rgy
rhein
rheinland
rho
rhode
rhodes
rhythm
ri
ria
riazan
ric
rica
ricardo
riccardo
rice
rich
richard
richarda
richardem
richards
richardson
richelieu
richie
richmond
richter
rick
ricky
rico
ride
rider
ridge
riding
rie
rieure
right
rightarrow
rights
rihanna
riley
rin
ring
ringu
rio
riot
ripley
rise
rising
rita
rite
ritter
river
rivera
rivers
riverside
rk
rka
rkach
rkami
rke
rki
rko
rkowa
rkowe
rkowego
rkowej
rkowy
rkowych
rkp
rku
rlitz
rm
rmf
rn
rna
rnberg
rne
rnego
rnej
rni
rnia
rniak
rnictwa
rnictwo
rnicza
rnicze
rniczego
rniczej
rniczo
rniczy
rniczych
rnie
rnik
rnika
rnikiem
rniko
rnos
rny
rnych
rnym
ro
road
rob
robbie
robert
roberta
robertem
roberto
roberts
robertson
robi
robia
robic
robin
robinson
robił
robo
robocza
robocze
roboczej
roboczych
robot
robota
robotnicy
robotnicza
robotnicze
robotniczego
robotniczej
robotniczo
robotniczy
robotniczych
robotnik
robotnika
robotniko
roboty
rocco
roch
rocha
roche
rochester
rock
rocka
rockefeller
rocket
rockets
rockowa
rockowe
rockowego
rockowej
rockowi
rockowy
rockowych
rocky
roczna
roczne
rocznego
rocznej
rocznica
rocznice
rocznicy
rocznie
rocznik
rocznika
roczniki
roczniko
roczny
rocznych
rocznym
rod
roda
rodak
rodaka
rodakiem
rodako
rodan
rode
rodek
rodem
rodka
rodkach
rodkami
rodki
rodkiem
rodko
rodkowa
rodkowe
rodkowego
rodkowej
rodkowo
rodkowoafrykan
rodkowoczeskim
rodkowy
rodkowych
rodkowym
rodku
rodney
rodo
rodos
rodowicz
rodowisk
rodowiska
rodowiskach
rodowiskiem
rodowisko
rodowiskowe
rodowiskowych
rodowisku
rodowo
rodri
rodrigo
rodriguez
rodu
rody
rodza
rodzaj
rodzajach
rodzajami
rodzaje
rodzajem
rodzajo
rodzajowa
rodzajowe
rodzaju
rodzen
rodzi
rodzicami
rodzice
rodzico
rodzicom
rodzie
rodzimej
rodzimych
rodzimym
rodzin
rodzina
rodzinach
rodzinami
rodzine
rodzinie
rodzinna
rodzinne
rodzinnego
rodzinnej
rodzinny
rodzinnych
rodzinnym
rodzinom
rodziny
roger
rogera
rogers
rogi
rogo
rogoz
rogu
roh
rohan
roi
rok
rokiem
rokowania
roku
rola
rolach
roland
rolanda
role
rolf
roli
roll
rolling
rollins
rolls
rolna
rolne
rolnego
rolnej
rolnictwa
rolnictwem
rolnictwie
rolnictwo
rolnicy
rolnicza
rolnicze
rolniczego
rolniczej
rolniczo
rolniczy
rolniczych
rolniczym
rolnik
rolniko
rolnych
rom
roma
roman
romana
romance
romanem
romania
romano
romanow
romanowa
romans
romansu
romantyczna
romantyczne
romantycznej
romantyzmu
rome
romeo
romero
romo
romowie
romuald
romualda
ron
rona
ronald
ronalda
ronda
rondo
ronnie
room
roosevelt
roosevelta
roots
ropa
ropy
ros
rosa
rosario
rose
rosemary
rosen
roses
rosi
rosja
rosjan
rosjanie
rosjanin
rosjanka
rosje
rosji
rosna
ross
rossa
rossi
rosso
rosto
rostock
rosy
rosyjscy
rosyjska
rosyjski
rosyjskich
rosyjskie
rosyjskiego
rosyjskiej
rosyjskim
rosyjskimi
rosyjsko
rosyjskoje
roszczen
roszczenia
rosła
rot
roth
rotmistrz
rotmistrza
rotten
rotterdam
rotterdamie
rouen
rouge
round
rousseau
roussillon
route
routledge
rover
rovers
row
rower
rowero
rowerowa
rowerowe
rowerowy
rowerowych
rowo
rowu
roy
royal
royale
royce
roz
rozbicia
rozbicie
rozbiciu
rozbiez
rozbio
rozbioru
rozbiorze
rozbita
rozbite
rozbitko
rozbity
rozbił
rozbo
rozbudowa
rozbudowana
rozbudowane
rozbudowano
rozbudowany
rozbudował
rozbudowe
rozbudowie
rozbudowy
rozchodza
rozcia
rozcie
rozcien
rozdania
rozdroz
rozdz
rozdziale
rozdział
rozdziało
rozdziału
rozdziały
rozdziela
rozdzielaja
rozdzielczos
rozdzielone
rozebrana
rozebrane
rozebrano
rozebrany
rozegrana
rozegrane
rozegraniu
rozegrano
rozegrany
rozegranych
rozegranym
rozegrał
rozegrała
rozegrały
rozejm
rozejmu
rozformowany
rozgałe
rozgrywa
rozgrywaja
rozgrywana
rozgrywane
rozgrywanego
rozgrywania
rozgrywano
rozgrywany
rozgrywanych
rozgrywanym
rozgrywał
rozgrywała
rozgrywek
rozgrywka
rozgrywkach
rozgrywki
rozgrywkowej
rozgrywkowy
rozgłos
rozk
rozkaz
rozkazał
rozkazem
rozkazo
rozkazu
rozkazy
rozkwit
rozkwitu
rozkład
rozkładaja
rozkładu
rozkładzie
rozległa
rozległe
rozległy
rozległych
rozmaite
rozmaitos
rozmaitych
rozmawia
rozmawiac
rozmawiaja
rozmawiał
rozmiar
rozmiarach
rozmiaro
rozmiaru
rozmiary
rozmieszczenia
rozmieszczenie
rozmieszczone
rozmieszczonych
rozmnaz
rozmo
rozmowa
rozmowach
rozmowe
rozmowie
rozmowy
rozmys
rozpaczy
rozpad
rozpadu
rozpadzie
rozpadł
rozpatrzenia
rozpe
rozpie
rozpocza
rozpocze
rozpocznie
rozpoczyna
rozpoczynaja
rozpoczynał
rozporza
rozpos
rozpowszechniania
rozpowszechnianie
rozpowszechnione
rozpowszechniony
rozpoznac
rozpoznaje
rozpoznania
rozpoznanie
rozpoznawania
rozpoznawcza
rozpoznawcze
rozpoznawczy
rozpoznawczych
rozpraw
rozprawa
rozprawe
rozprawy
rozpre
rozproszeniu
rozproszone
rozprzestrzenienie
rozprzestrzeniony
rozro
rozrodu
rozrywka
rozrywki
rozrywkowe
rozrywkowej
rozrza
rozsa
rozstaw
rozstawie
rozstawieni
rozstawiona
rozstawione
rozstawionych
rozstrzelali
rozstrzelanie
rozstrzelano
rozstrzelany
rozstrzygaja
rozstrzygna
rozstrzygnie
rozszerza
rozszerzaja
rozszerzenia
rozszerzenie
rozszerzona
rozszerzone
rozszerzony
rozszerzył
roztwo
roztworu
rozum
rozumiana
rozumie
rozumiec
rozumienia
rozumienie
rozumieniu
rozumu
rozwadowski
rozwaz
rozwia
rozwiedli
rozwija
rozwijac
rozwijaja
rozwijania
rozwijanie
rozwijany
rozwijał
rozwijała
rozwijało
rozwina
rozwine
rozwinie
rozwiodła
rozwo
rozwodu
rozwodzie
rozwojem
rozwojowa
rozwojowe
rozwojowi
rozwojowych
rozwoju
rozła
rozłamu
rozłoz
rp
rpa
rpg
rr
rrez
rs
rsc
rshavn
rska
rski
rskich
rskie
rskiego
rskiej
rskim
rsssf
rstwa
rt
rte
rth
rtm
ru
rube
rubens
rubiez
rubin
rubli
ruby
ruch
ruchem
rucho
ruchome
ruchomych
ruchu
ruchy
rud
ruda
rude
rudnicki
rudnik
rudolf
rudolfa
rudy
rudzie
rue
rufie
rufowej
rugby
rugbysta
ruin
ruinach
ruine
ruiny
ruiz
ruja
rule
rules
rum
rumble
rumun
rumunia
rumunie
rumunii
run
runa
rund
runda
rundach
runde
rundy
rundzie
rune
running
rupert
rur
rurki
rurocia
rury
rus
rush
rusi
rusin
ruska
ruski
ruskich
ruskie
ruskiego
ruskiej
russell
russella
russia
russian
russo
rusza
ruszenia
ruszyc
ruszyli
ruszył
ruszyła
ruszyły
ruth
rutherford
rutkowski
ruz
rv
rva
rvi
rw
rwandy
rwd
ry
ryan
ryana
ryb
ryba
rybacka
rybak
rybako
rybami
rybin
rybnik
rybniku
ryboło
ryby
rycerska
rycerski
rycerskiego
rycerstwa
rycerz
rycerza
rycerze
rycerzy
rych
rydza
rydze
ryga
rygi
ryjo
rym
rymi
rynek
rynkach
rynki
rynkiem
rynko
rynkowej
rynku
ryo
rypin
rys
rysownik
rysunek
rysunki
rysunko
rysunku
rysy
ryszard
ryszarda
rytm
rytmiczna
rytmu
ryu
rywal
rywala
rywalami
rywalem
rywali
rywalizacja
rywalizacje
rywalizacji
rywalizowali
rywalizował
rywalizowały
rywalizuja
ryz
ryzyka
ryzykiem
ryzyko
rz
rza
rzach
rzadka
rzadki
rzadkich
rzadkie
rzadko
rzadkos
rzadziej
rzana
rze
rzece
rzecz
rzecza
rzeczna
rzeczne
rzecznik
rzecznika
rzecznikiem
rzecznych
rzeczownik
rzeczowniki
rzeczowniko
rzeczpospolita
rzeczpospolitej
rzeczy
rzeczypospolitej
rzeczywis
rzeczywista
rzeczywiste
rzeczywistego
rzeczywistej
rzeczywistos
rzeczywisty
rzeczywistych
rzeczywistym
rzek
rzeka
rzekach
rzekami
rzeke
rzeki
rzekome
rzekomo
rzekł
rzekła
rzem
rzemies
rzemiosła
rzemiosło
rzesza
rzesze
rzeszo
rzeszowa
rzeszowie
rzeszowskiego
rzeszowskiej
rzeszowskim
rzeszy
rzez
rzezi
rzu
rzuca
rzucaja
rzucie
rzucił
rzuciła
rzut
rzutach
rzuto
rzutu
rzuty
rzy
rzym
rzymem
rzymian
rzymianie
rzymie
rzymscy
rzymska
rzymski
rzymskich
rzymskie
rzymskiego
rzymskiej
rzymskim
rzymskokatolicka
rzymskokatolicki
rzymskokatolickie
rzymskokatolickiego
rzymskokatolickiej
rzymskokatolickim
rzymu
rzył
rzyła
s
sa
saab
saale
saarbru
sabaudia
sabaudii
sabina
sabine
sabotaz
sabrina
sac
sachsen
sachsenhausen
sacra
sacramento
sad
sadowski
sady
safari
safety
saga
sagi
sai
said
sailor
saint
sainte
saints
saka
sakralna
sakralne
sakralnej
sakralnych
sakrament
sakramento
sakramentu
sakre
sakry
saksofon
saksofonista
sakson
saksonia
saksonii
sal
sala
salach
sale
salem
salerno
salezjan
sali
salisbury
sally
salomon
salomona
salon
salonie
salonikach
saloniki
salonu
salt
salvador
salvatore
salwadoru
salzburg
salzburgu
sam
sama
samantha
samara
sambor
samca
samce
samco
same
samego
samej
samemu
sami
samic
samica
samice
samicy
samiec
samiti
sammy
samo
samoa
samobiez
samobo
samocho
samochodach
samochodami
samochodem
samochodo
samochodowe
samochodowego
samochodowej
samochodowy
samochodowych
samochodowym
samochodu
samochody
samochodzie
samodzielna
samodzielne
samodzielnego
samodzielnej
samodzielnie
samodzielnos
samodzielny
samodzielnych
samodzielnym
samogłosek
samogłoska
samogłoski
samolocie
samolot
samolotach
samolotami
samolotem
samoloto
samolotu
samoloty
samoobrona
samoobrony
samorza
samos
samotna
samotnie
samotnos
samotny
samozwan
sample
samson
samsung
samuel
samuela
samych
samym
samymi
san
sanatorium
sanczo
sand
sanders
sandomierski
sandomierskie
sandomierskiego
sandomierskiej
sandomierskim
sandomierz
sandomierza
sandomierzu
sandra
sandy
saneczkarstwie
sang
sanguszko
sanitarne
sanitarnego
sanitarnej
sanitarny
sanitarnych
sankcje
sankcji
sankt
sanktuarium
sanocka
sanocki
sanockiego
sanockiej
sanockim
sanok
sanoka
sanokiem
sanoku
sans
sant
santa
santana
santander
santi
santiago
santo
santos
sanu
saona
sap
sapero
sapieha
sapporo
sar
sara
saragossa
sarah
sarajewie
sarajewo
sardynii
sarny
sarp
sars
sarthe
sary
sas
sasha
saski
saskiego
saskiej
satelita
satelitarne
satelitarnej
satelite
satelito
satelity
satellite
sato
saturday
saturn
saturna
satyry
satyryk
saudyjska
saudyjskiej
saul
savage
savannah
save
sawa
sawicki
sawy
say
sb
sc
scale
scalemajor
scaleminor
scar
scarlett
sce
scen
scena
scenach
scenami
scenariusz
scenariusza
scenariusze
scenariuszy
scenarzys
scenarzysta
scenarzystka
scene
sceniczna
sceniczne
scenicznych
scenie
scenograf
scenografia
scenografie
scenografii
sceny
scha
schalke
schemat
schematu
schengen
schiller
schillera
schleswig
schmidt
schneider
scho
schodach
schodami
schodo
schodowa
schody
schodza
school
schro
schron
schronienia
schronienie
schroniska
schronisko
schu
schulz
schumacher
schwarz
schwerin
schwytany
schyłku
sci
science
sciences
scientific
scooby
score
scotland
scott
scotta
scottish
scratche
scream
screen
scy
sd
sdprr
sdrp
se
sea
sean
search
season
seattle
sebastia
sebastian
sebastiana
sec
secesji
secesyjna
secesyjnej
second
secret
secrets
section
security
sed
sedan
sede
sedis
sedlo
see
sega
segment
segmento
segmentu
segunda
sei
sein
seine
seiyu
sejm
sejmie
sejmik
sejmiku
sejmowa
sejmowe
sejmowej
sejmu
sejmy
sek
sekcja
sekcje
sekcji
sekret
sekretariat
sekretariatu
sekretarka
sekretarz
sekretarza
sekretarze
sekretarzem
sekrety
seks
seksu
seksualna
seksualne
seksualnego
seksualnej
seksualnos
seksualnych
sektor
sektora
sektorze
sekty
sekund
sekunde
sekundy
sekwana
sekwencja
sekwencje
sekwencji
selby
seldz
selekcji
selekcjoner
selekcjonera
selekcjonerem
selekcjonerzy
self
sem
seminaria
seminario
seminarium
semka
sen
senacie
senat
senator
senatora
senatorem
senatoro
senatorowie
senatu
senegalu
senior
seniora
seniorek
senioro
seniorska
seniorskiej
senna
sens
sensacyjne
sensacyjnym
sensie
sensu
sentai
seo
separacji
separatysto
september
sequel
ser
sera
serafin
serb
serbia
serbii
serbo
serbowie
serbscy
serbska
serbski
serbskich
serbskie
serbskiego
serbskiej
serc
serca
serce
sercem
sercowego
sercu
serena
serge
sergio
sergiusz
sergiusza
serhij
seria
seriach
serial
serialach
seriale
seriali
serialu
serie
series
serii
serra
server
service
services
serwer
serwera
serwero
serwis
serwisie
serwiso
serwisu
serwisy
seryjna
seryjnej
seryjnie
seryjny
sesja
sesjach
sesje
sesji
session
sessions
set
seta
setach
setek
seth
setki
sety
seul
seulu
seven
sevens
severin
sevilla
seweryn
seweryna
sewilli
sex
seymour
sezon
sezonach
sezonem
sezonie
sezono
sezonowo
sezonu
sezony
sf
sfer
sfera
sfery
sferze
sformowana
sformowano
sformowany
sformułowanie
sformułował
sg
sggw
sh
sha
shadow
shadows
shah
shake
shakespeare
shall
shane
shanghai
shannon
sharon
sharp
shaun
shaw
shawn
she
sheffield
shell
shelley
shepherd
sherman
shi
shield
shift
shin
shine
ship
ships
shirley
sho
shooting
shop
shore
short
shot
should
show
shrek
shropshire
shu
si
sia
siad
siada
siado
siaduja
siaduje
siarki
siatka
siatkarka
siatkarki
siatkarski
siatkarskie
siatkarz
siatkarze
siatki
siatko
siatkowa
siatkowej
sic
sid
side
sidney
sie
siebie
siec
sieci
siecia
sieciach
siedem
siedemdziesia
siedemnas
siedemnastu
siedlcach
siedlce
siedlec
siedlecki
siedleckiego
siedleckiej
siedlisk
siedliska
siedliskach
siedlisko
siedmiogrodu
siedmiokrotnie
siedmioma
siedmiu
siednia
siednich
siednie
siedniego
siedniej
siednim
siednimi
siedza
siedzenia
siedzi
siedział
siedzib
siedziba
siedzibe
siedzibie
siedziby
siedztwie
sielsowiecie
sielsowiet
sielsowietu
siemens
siemion
sien
sienia
sienica
sienice
sienie
sienkiewicz
sienkiewicza
sieradz
sieradzkiego
sieradzkim
sieradzu
siergiej
siergieja
sierocin
sierot
sierp
sierpien
sierpnia
sierpniu
sierra
siers
sierz
sigma
sign
signum
sikora
sikorski
sikorskiego
sile
silence
silent
silesia
silna
silne
silnego
silnej
silnie
silniej
silniejsze
silnik
silnika
silnikami
silniki
silnikiem
silniko
silniku
silny
silnych
silnym
silva
silver
sim
simmons
simon
simona
simone
simple
simpson
sims
sin
since
sinclair
sing
singapur
singapuru
singapurze
singel
singer
singh
singiel
singla
singlami
single
singlem
singles
singli
singlowych
singlu
sint
sio
siodło
siostra
siostrami
siostre
siostry
siostrzana
siostrzen
sir
sister
sisters
sit
sitcomie
site
situ
six
sił
siła
siłach
siłami
siłe
siłom
siłowni
siłownia
siły
sj
sjo
sk
ska
skacza
skala
skale
skali
skaliste
skalistych
skalna
skalne
skalnej
skalny
skalnych
skamieniałos
skandal
skandalu
skandynawii
skandynawskich
skansen
skarb
skarbiec
skarbnik
skarbo
skarbowej
skarbu
skarby
skarga
skarge
skargi
skarz
skaz
skazan
skazana
skazane
skazani
skazano
skazany
skazanych
skazał
skazuja
skał
skała
skałach
skałki
skały
ske
ski
skich
skicross
skie
skiego
skiej
skiem
skiemu
skierniewicach
skierniewice
skierniewickiego
skierowana
skierowane
skierowano
skierowany
skierowanych
skierował
skim
skimi
skimprzynalez
skin
sklasyfikowana
sklasyfikowane
sklasyfikowany
sklasyfikowanych
sklep
sklepach
sklepie
sklepienia
sklepienie
sklepieniem
sklepieniu
sklepo
sklepu
sklepy
skm
sko
skoczek
skoczkini
skoczko
skoczkowie
skoczni
skocznia
skoczył
skoje
skok
skokach
skoki
skoko
skoku
skomplikowana
skomplikowane
skomplikowanych
skomponowana
skomponowany
skomponował
skon
skonstruowany
skonstruował
skopje
skoro
skorowidz
skorupiako
skorupy
skorzystac
skorzystał
skos
skotorowa
skotorowe
skotorowej
skotorowy
skowron
skr
skraj
skrajna
skrajne
skrajnej
skrajnie
skrajnych
skraju
skre
skres
skro
skromne
skromny
skrytykował
skrzydeł
skrzydle
skrzydła
skrzydłach
skrzydłami
skrzydłem
skrzydło
skrzydłowego
skrzyn
skrzyni
skrzynia
skrzynie
skrzypcach
skrzypce
skrzypek
skrzypiec
skrzyz
sku
skupia
skupiaja
skupiał
skupiała
skupic
skupienia
skupiona
skupione
skupionych
skupiska
skupił
skuteczna
skuteczne
skutecznego
skutecznie
skutecznos
skuteczny
skutek
skutki
skutkiem
skutko
skutkowało
skutku
skutkuje
skwer
sky
skład
składa
składac
składaja
składane
składania
składanka
składał
składała
składało
składały
składek
składnik
składniki
składnikiem
składniko
składo
składowa
składowe
składowych
składu
składy
składzie
skłodowskiej
skłoniło
skłonnos
sl
slalom
slalomie
slalomu
slam
sld
sleep
slopestyle
slovenska
slovenske
slow
sm
sma
smackdown
smak
smaku
small
smart
smaz
sme
smego
smej
smile
smith
smitha
smok
smoka
smolen
sms
smukłe
smy
smyczkowy
smym
sn
sna
snake
sncf
sne
snego
sno
snow
snowcross
snu
sny
so
soba
sobczak
sobie
sobieski
sobieskiego
sobo
soboru
soborze
sobota
sobote
soboty
soc
soccer
socha
sochaczew
social
socie
sociedad
society
socjaldemokrato
socjaldemokratyczna
socjaldemokratyczne
socjaldemokratycznej
socjalis
socjalisto
socjalistyczna
socjalistyczne
socjalistycznego
socjalistycznej
socjalistyczny
socjalistycznych
socjalizm
socjalizmu
socjalne
socjalnej
socjalnych
socjolog
socjologia
socjologii
soczi
sodu
sofia
sofii
soft
software
soho
sojusz
sojuszniko
sojuszu
sojuz
sok
soko
sokoła
sokoło
sokołowski
soku
sol
sola
solar
solaris
soldier
sole
solec
soli
solid
solidarnos
solis
solista
solistka
solistki
solisto
solo
solomon
solowa
solowe
solowej
solowy
somalii
some
somerset
something
somma
sommer
son
sonata
sonaty
sonda
sondaz
sondy
sonety
song
songs
sonia
sonic
sonny
sons
sony
soo
sophia
sophie
sopocie
sopot
sopotu
sopran
sos
sosna
sosnowcu
sosnowiec
sosnowski
sosny
soul
sound
sounds
soundtrack
source
sous
south
southampton
southern
soviet
sowa
sowie
sowieci
sowiecka
sowiecki
sowieckich
sowieckie
sowieckiego
sowieckiej
sowieckim
sowieto
sowin
sołecka
sołectwa
sołectwo
sołtys
sołtysa
sp
spa
spac
space
spacer
spada
spadaja
spadek
spadkiem
spadkobierca
spadkobierco
spadkobiercy
spadkowy
spadku
spadochroniarzy
spadochronowe
spadochronowej
spadł
spadła
spadło
spadły
spain
spalania
spalili
spalin
spalinowe
spalinowych
spalił
spalona
spalone
spalono
spalony
spanish
sparaliz
sparta
spartak
spartaka
spartan
sparty
spd
spe
spears
special
species
specjalis
specjalista
specjalistka
specjalisto
specjalisty
specjalistyczne
specjalistycznych
specjalizacja
specjalizacje
specjalizacji
specjalizował
specjalizuja
specjalizuje
specjalna
specjalne
specjalnego
specjalnej
specjalnie
specjalnos
specjalny
specjalnych
specjalnym
specjalnymi
spectrum
specyficzna
specyficzne
specyficzny
specyficznych
specyfikacja
specyfikacji
speed
speedway
spektakl
spektaklach
spektakle
spektakli
spektaklu
spektrum
spencer
spełnia
spełniac
spełniaja
spełniał
spełnic
spełnienia
spełnione
spichlerz
spider
spie
spike
spin
spiralna
spiralne
spirit
spis
spisał
spisek
spisie
spisku
spisu
spisy
spitfire
spiz
spla
splicie
split
spo
spocze
spoczynku
spoczywa
spoczywaja
spod
spodnie
spodu
spodzie
spogla
spojrzenie
spoko
spokojna
spokojne
spokojnego
spokojnie
spokojny
spokojnym
spokoju
spokrewnione
spokrewniony
sponsora
sponsorem
sponsoro
spora
sporadycznie
sporcie
spore
sporna
sporo
sport
sportach
sportem
sporting
sportingu
sporto
sportowa
sportowca
sportowco
sportowcy
sportowe
sportowego
sportowej
sportowi
sportowiec
sportowo
sportowy
sportowych
sportowym
sports
sportu
sporty
sporu
spory
sporza
sporze
spos
sposo
sposobem
sposobie
sposobo
sposobu
sposoby
spostrzez
spotkac
spotkali
spotkan
spotkania
spotkaniach
spotkanie
spotkaniu
spotkał
spotkała
spotkało
spotkały
spotyka
spotykaja
spotykana
spotykane
spotykany
spotykał
spowodowac
spowodowana
spowodowane
spowodowanej
spowodowany
spowodowanych
spowodował
spowodowała
spowodowało
spowodowały
spowoduje
spoz
spoza
społeczen
społeczna
społeczne
społecznego
społecznej
społeczni
społecznie
społeczno
społecznos
społeczny
społecznych
społecznym
społecznymi
spra
spraw
sprawa
sprawach
sprawami
sprawca
sprawco
sprawcy
sprawdza
sprawdzaja
sprawdzenia
sprawdzenie
sprawdzic
sprawe
sprawia
sprawiaja
sprawie
sprawiedliwego
sprawiedliwos
sprawiedliwy
sprawiedliwych
sprawił
sprawiła
sprawiło
sprawiły
sprawnie
sprawnos
sprawowac
sprawowali
sprawowania
sprawowanie
sprawował
sprawowała
sprawozdania
sprawozdanie
sprawuja
sprawuje
sprawy
spre
sprincie
spring
springer
springfield
springs
sprint
sprinter
sprinterka
sprinterskich
sprinterzy
spro
sprowadza
sprowadzic
sprowadził
sprowadzono
sprowadzony
sprza
sprze
sprzeciw
sprzeciwiaja
sprzeciwiał
sprzeciwił
sprzeciwu
sprzeczne
sprzecznos
sprzed
sprzedac
sprzedaja
sprzedaje
sprzedali
sprzedana
sprzedane
sprzedano
sprzedany
sprzedanych
sprzedawane
sprzedawany
sprzedawca
sprzedaz
sprzedał
sprzedała
sprzyja
sprzyjaja
sprzymierzen
sprzymierzonych
spurs
spus
spytał
spłaszczone
spłona
spłone
spływa
spływaja
sqrt
squad
squadron
square
sr
srebra
srebrem
srebrna
srebrne
srebrnego
srebrnej
srebrny
srebrnych
srebrnym
srebro
srebrze
sri
sroka
srr
ss
ssa
ssaka
ssaki
ssako
ssc
sse
sseldorf
sseldorfie
st
sta
stabilizacji
stabilna
stabilnos
stabilny
stac
stacja
stacjach
stacjami
stacje
stacji
stacjonarne
stacjonował
stacjonowała
stacjonowały
stacjonuja
stada
stade
stadio
stadion
stadionie
stadionu
stadiony
stadium
stado
stadt
staff
staffa
stafford
staffordshire
stage
staja
staje
stajni
stajnia
stajnie
stal
stala
stale
stali
stalin
stalina
stalinogrodzie
stalinowskich
stalinowskiej
stalowa
stalowe
stalowej
stalowy
stalowych
stambule
stambuł
stambułu
stamta
stan
stana
stanach
stanami
stand
standard
standardem
standardo
standardowa
standardowe
standardowego
standardowej
standardowo
standardowy
standardowych
standardowym
standardu
standardy
standardzie
standing
stane
stanem
stanford
stanice
stanie
stanisław
stanisława
stanisławem
stanisławo
stanisławowi
stanisławowie
stankiewicz
stanley
stanleya
stano
stanowczo
stanowego
stanowej
stanowi
stanowia
stanowic
stanowili
stanowisk
stanowiska
stanowiskach
stanowiskiem
stanowisko
stanowisku
[...]
