!
"
#
##0
##1
##10
##11
##12
##13
##14
##15
##16
##17
##18
##19
##2
##20
##21
##22
##23
##24
##25
##26
##27
##28
##29
##3
##30
##31
##32
##33
##34
##35
##36
##37
##38
##39
##4
##40
##41
##42
##43
##44
##45
##46
##47
##48
##49
##5
##50
##51
##52
##53
##54
##55
##56
##57
##58
##59
##6
##60
##61
##62
##63
##64
##65
##66
##67
##68
##69
##7
##70
##71
##72
##73
##74
##75
##76
##77
##78
##79
##8
##80
##81
##82
##83
##84
##85
##86
##87
##88
##89
##9
##90
##91
##92
##93
##94
##95
##96
##97
##98
##99
$
%
&
'
(
)
*
+
,
-
.
/
0
00
000
0004
001
002
003
004
005
006
007
01
010
0100000
02
020
022
0261
03
030
0362
04
05
050
06
07
08
09
099
1
10
100
1000
10000
1001
1002
1003
1004
1005
1006
1007
1008
1009
101
1010
1011
1012
1013
1014
1015
1016
1017
1018
1019
102
1020
1021
1022
1023
1024
1025
1026
1027
1028
1029
103
1030
1031
1032
1033
1034
1035
1036
1037
1038
1039
104
1040
1041
1042
1043
1044
1045
1046
1047
1048
1049
105
1050
1051
1052
1053
1054
1055
1056
1057
1058
1059
106
1060
1061
1062
1063
1064
1065
1066
1067
1068
1069
107
1070
1071
1072
1073
1074
1075
1076
1077
1078
1079
108
1080
1081
1082
1083
1084
1085
1086
1087
1088
1089
109
1090
1091
1092
1093
1094
1095
1096
1097
1098
1099
11
110
1100
1101
1102
1103
1104
1105
1106
1107
1108
1109
111
1110
1111
1112
1113
1114
1115
1116
1117
1118
1119
112
1120
1121
1122
1123
1124
1125
1126
1127
1128
1129
113
1130
1131
1132
1133
1134
1135
1136
1137
1138
1139
114
1140
1141
1142
1143
1144
1145
1146
1147
1148
1149
115
1150
1151
1152
1153
1154
1155
1156
1157
1158
1159
116
1160
1161
1162
1163
1164
1165
1166
1167
1168
1169
117
1170
1171
1172
1173
1174
1175
1176
1177
1178
1179
118
1180
1181
1182
1183
1184
1185
1186
1187
1188
1189
119
1190
1191
1192
1193
1194
1195
1196
1197
1198
1199
12
120
1200
1201
1202
1203
1204
1205
1206
1207
1208
1209
121
1210
1211
1212
1213
1214
12148
1215
1216
1217
1218
1219
122
1220
1221
1222
1223
1224
1225
1226
1227
1228
1229
123
1230
1231
1232
1233
1234
1235
1236
1237
1238
1239
124
1240
1241
1242
1243
1244
1245
1246
1247
1248
1249
125
1250
1251
1252
1253
1254
1255
1256
1257
1258
1259
126
1260
1261
1262
1263
1264
1265
1266
1267
1268
1269
127
1270
1271
1272
1273
1274
1275
1276
1277
1278
1279
128
1280
1281
1282
1283
1284
1285
1286
1287
1288
1289
129
1290
1291
1292
1293
1294
1295
1296
1297
1298
1299
13
130
1300
1301
1302
1303
1304
1305
1306
1307
1308
1309
131
1310
1311
1312
1313
1314
1315
1316
1317
1318
1319
132
1320
1321
1322
1323
1324
1325
1326
1327
1328
1329
133
1330
1331
1332
1333
1334
1335
1336
1337
1338
1339
134
1340
1341
1342
1343
1344
1345
1346
1347
1348
1349
135
1350
1351
1352
1353
1354
1355
1356
1357
1358
1359
136
1360
1361
1362
1363
1364
1365
1366
1367
1368
1369
137
1370
1371
1372
1373
1374
1375
1376
1377
1378
1379
138
1380
1381
1382
1383
1384
1385
1386
1387
1388
1389
139
1390
1391
1392
1393
1394
1395
1396
1397
1398
1399
14
140
1400
1401
1402
1403
1404
1405
1406
1407
1408
1409
141
1410
1411
1412
1413
1414
1415
1416
1417
1418
1419
142
1420
1421
1422
1423
1424
1425
1426
1427
1428
1429
143
1430
1431
1432
1433
1434
1435
1436
1437
1438
1439
144
1440
1441
1442
1443
1444
1445
1446
1447
1448
1449
145
1450
1451
1452
1453
1454
1455
1456
1457
1458
1459
146
1460
1461
1462
1463
1464
1465
1466
1467
1468
1469
147
1470
1471
1472
1473
1474
1475
1476
1477
1478
1479
148
1480
1481
1482
1483
1484
1485
1486
1487
1488
1489
149
1490
1491
1492
1493
1494
1495
1496
1497
1498
1499
15
150
1500
1501
1502
1503
1504
1505
1506
1507
1508
1509
151
1510
1511
1512
1513
1514
1515
1516
1517
1518
1519
152
1520
1521
1522
1523
1524
1525
1526
1527
1528
1529
153
1530
1531
1532
1533
1534
1535
1536
1537
1538
1539
154
1540
1541
1542
1543
1544
1545
1546
1547
1548
1549
155
1550
1551
1552
1553
1554
1555
1556
1557
1558
1559
156
1560
1561
1562
1563
1564
1565
1566
1567
1568
1569
157
1570
1571
1572
1573
1574
1575
1576
1577
1578
1579
158
1580
1581
1582
1583
1584
1585
1586
1587
1588
1589
159
1590
1591
1592
1593
1594
1595
1596
1597
1598
1599
16
160
1600
1601
1602
1603
1604
1605
1606
1607
1608
1609
161
1610
1611
1612
1613
1614
1615
1616
1617
1618
1619
162
1620
1621
1622
1623
1624
1625
1626
1627
1628
1629
163
1630
1631
1632
1633
1634
1635
1636
1637
1638
1639
164
1640
1641
1642
1643
1644
1645
1646
1647
1648
1649
165
1650
1651
1652
1653
1654
1655
1656
1657
1658
1659
166
1660
1661
1662
1663
1664
1665
1666
1667
1668
1669
167
1670
1671
1672
1673
1674
1675
1676
1677
1678
1679
168
1680
1681
1682
1683
1684
1685
1686
1687
1688
1689
169
1690
1691
1692
1693
1694
1695
1696
1697
1698
1699
17
170
1700
1701
1702
1703
1704
1705
1706
1707
1708
1709
171
1710
1711
1712
1713
1714
1715
1716
1717
1718
1719
172
1720
1721
1722
1723
1724
1725
1726
1727
1728
1729
173
1730
1731
1732
1733
1734
1735
1736
1737
1738
1739
174
1740
1741
1742
1743
1744
1745
1746
1747
1748
1749
175
1750
1751
1752
1753
1754
1755
1756
1757
1758
1759
176
1760
1761
1762
1763
1764
1765
1766
1767
1768
1769
177
1770
1771
1772
1773
1774
1775
1776
1777
1778
1779
178
1780
1781
1782
1783
1784
1785
1786
1787
1788
1789
179
1790
1791
1792
1793
1794
1795
1796
1797
1798
1799
18
180
1800
1801
1802
1803
1804
1805
1806
1807
1808
1809
181
1810
1811
1812
1813
1814
1815
1816
1817
1818
1819
182
1820
1821
1822
1823
1824
1825
1826
1827
1828
1829
183
1830
1831
1832
1833
1834
1835
1836
1837
1838
1839
184
1840
1841
1842
1843
1844
1845
1846
1847
1848
1849
185
1850
1851
1852
1853
1854
1855
1856
1857
1858
1859
186
1860
1861
1862
1863
1864
1865
1866
1867
1868
1869
187
1870
1871
1872
1873
1874
1875
1876
1877
1878
1879
188
1880
1881
1882
1883
1884
1885
1886
1887
1888
1889
189
1890
1891
1892
1893
1894
1895
1896
1897
1898
1899
19
190
1900
1901
1902
1903
1904
1905
1906
1907
1908
1909
191
1910
1911
1912
1913
1914
1915
1916
1917
1918
1919
192
1920
1921
1922
1923
1924
1925
1926
1927
1928
1929
193
1930
1931
1932
1933
1934
1935
1936
1937
1938
1939
194
1940
1941
1942
1943
1944
1945
1946
1947
1948
1949
195
1950
1951
1952
1953
1954
1955
1956
1957
1958
1959
196
1960
1961
1962
1963
1964
1965
1966
1967
1968
1969
197
1970
1971
1972
1973
1974
1975
1976
1977
1978
1979
198
1980
1981
1982
1983
1984
1985
1986
1987
1988
1989
199
1990
1991
1992
1993
1994
1995
1996
1997
1998
1999
2
20
200
2000
2001
2002
2003
2004
2005
2006
2007
2008
2009
201
2010
2011
2012
2013
2014
2015
2016
2017
2018
2019
202
2020
2021
2022
2023
2024
2025
203
2030
204
205
206
2060
207
208
209
2094
21
210
2100
211
212
213
214
215
216
217
2173
218
219
22
220
221
222
223
224
225
226
227
228
229
23
230
2305
2307
231
232
233
234
235
236
237
238
239
24
240
2400
241
241600000
242
243
244
245
246
247
248
249
25
250
2500
251
252
253
254
255
256
257
258
259
26
260
261
262
263
264
265
266
267
268
269
27
270
27022
271
272
273
274
275
276
277
278
279
28
280
281
282
283
284
285
286
287
288
289
29
290
291
292
293
294
295
296
297
298
299
3
30
300
3000
301
302
303
304
305
306
307
3077
308
309
31
310
311
312
313
314
315
316
3166
317
318
319
32
320
321
322
323
324
325
326
327
328
329
33
330
331
332
333
334
335
336
337
338
339
34
340
341
342
343
344
345
346
347
348
349
35
350
3500
351
352
353
354
355
356
357
358
359
36
360
361
362
363
364
365
366
367
368
369
37
370
371
372
373
374
375
376
377
378
379
38
380
381
382
383
384
385
386
387
388
389
39
390
391
392
393
394
395
396
397
398
399
4
40
400
4000
401
402
403
404
405
406
407
408
409
41
410
411
412
413
414
415
416
417
418
419
42
420
421
422
423
424
425
426
427
428
429
43
430
431
432
433
4331
434
435
436
437
438
439
44
440
441
442
443
444
445
446
447
448
449
45
450
451
452
453
454
455
456
457
458
459
46
460
461
462
463
464
465
466
467
468
469
47
470
471
472
473
474
475
476
477
478
479
48
480
481
482
483
484
485
486
487
488
489
49
490
491
492
493
494
495
496
497
498
499
5
50
500
5000
501
502
503
504
505
506
507
508
509
51
510
511
512
513
514
515
516
517
518
519
52
520
521
522
523
524
525
526
527
528
529
53
530
531
532
533
534
535
536
537
538
539
54
540
541
542
543
544
545
546
547
548
549
55
550
551
552
553
554
555
556
557
558
559
56
560
561
562
563
564
565
566
567
568
569
57
570
571
572
573
574
575
576
577
578
579
58
580
581
582
583
584
585
586
587
588
589
59
590
591
592
593
594
595
596
597
598
599
6
60
600
6000
601
6011075
602
603
604
605
606
607
608
609
61
610
611
612
613
614
615
616
617
618
619
62
620
621
622
623
624
625
626
627
628
629
63
630
631
632
633
634
635
636
637
638
639
64
640
641
642
643
644
645
646
647
648
649
65
650
651
652
653
654
655
656
657
658
659
66
660
661
662
663
664
665
666
667
668
669
67
670
671
672
673
674
675
676
678
679
68
680
681
682
683
684
685
686
687
688
689
69
690
691
692
693
694
695
696
697
698
699
7
70
700
7000
701
702
703
704
705
706
707
708
709
71
710
711
712
713
714
715
716
717
718
719
72
720
721
722
723
724
725
726
727
728
729
73
730
731
732
733
734
735
736
737
738
739
74
740
741
742
743
744
745
746
747
748
749
75
750
751
752
7527
753
754
755
756
757
758
759
76
760
761
762
763
764
765
766
767
768
769
77
770
771
772
773
774
775
776
777
778
779
78
780
781
782
783
785
786
787
788
789
79
790
791
792
793
794
795
796
797
798
799
8
80
800
8000
801
802
803
804
805
806
808
809
81
810
811
812
813
814
815
816
817
818
819
82
820
821
822
823
824
825
826
827
828
829
83
830
832
833
834
835
836
837
838
839
84
840
841
842
843
844
845
846
847
848
849
85
850
851
852
853
854
855
856
857
858
859
86
860
861
862
863
864
865
866
867
869
87
870
871
872
873
874
875
876
877
878
879
88
880
881
882
883
884
885
88506
886
887
888
889
89
890
891
892
893
894
895
896
897
89784
898
899
9
90
900
9000
901
902
90286
903
904
905
906
907
90773
908
909
91
910
9103
911
912
913
914
915
916
917
918
919
92
920
921
922
923
924
925
926
927
928
929
93
930
931
932
933
934
935
936
937
938
939
94
940
941
942
943
944
945
946
947
948
949
95
950
951
952
953
954
955
956
957
958
959
96
960
961
962
963
964
965
966
967
968
969
97
970
971
972
973
974
975
976
977
978
979
98
980
981
982
983
984
985
986
987
988
989
99
990
991
992
993
994
995
995095
996
996923
997
998
999
99918
:
;
<
=
>
?
@
[
\
]
^
_
`
a
aa
aab
aaben
aabenbart
aabent
aabne
aabnede
aachen
aaf
aagaard
aage
aah
aalborg
aalesund
aall
aam
aamodt
aand
aandelige
aandsliv
aaptos
aar
aarbog
aarene
aaret
aarhundrede
aarhus
aarlig
aaron
aars
aarsag
aarsagen
aarvik
aas
aase
aasen
aasland
aasmund
aass
aat
ab
abacetus
abart
abba
abbas
abbe
abbed
abbeden
abbedisse
abbey
abbor
abbott
abby
abc
abcnyheter
abd
abdallah
abdel
abdiserte
abdomen
abdul
abdullah
abe
abel
aber
aberdeen
abigail
abitur
abkhasia
abonnement
abonnenter
abort
about
above
abraham
abrahamsen
abrams
abs
absalon
absolut
absolute
absolutt
absolutte
absorbert
abstract
abstrakt
abstrakte
abu
abuse
ac
acade
academia
academic
academy
acanthocinini
acanthops
accademia
accademiadellescienze
access
accessed
accident
according
account
ace
aceh
acer
achievement
achille
acid
acleris
acm
acmaeodera
acoustic
acre
across
act
acta
action
active
activity
actor
actors
actress
acts
ad
ada
adalbert
adam
adams
adb
add
addis
addison
ade
adeccoligaen
adel
adelaide
adele
adelen
adelig
adelige
adels
adelskalender
adelsmann
adelsmenn
adenauer
adephaga
adferd
adgang
adgangen
adhd
adiabene
adil
adj
adjektiv
adjunkt
adjutant
adjø
adkomst
adlbauer
adler
adlet
adm
administrasjon
administrasjonen
administrasjonssenter
administrasjonssenteret
administrasjonssentrum
administration
administrativ
administrative
administrativt
administrator
administrere
administrerende
administrerer
administreres
administrert
admiral
admiralen
adobe
adolf
adolfo
adolph
adolphe
adoptert
adopterte
adoretus
adressa
adresse
adresseavisen
adressen
adresser
adressesøk
adria
adrian
adriaterhavet
adrien
adskillig
adskillige
adskilt
adskilte
adult
adv
advance
advanced
advare
advarer
advarsel
advarsler
advart
advarte
advent
adventure
adventures
advisory
advokat
advokaten
advokater
advokatfirmaet
ae
aegus
aegypti
aegyptus
aero
aerospace
af
afc
afdeling
afdøde
aff
affair
affaires
affairs
affinis
affære
affæren
affærer
afghan
afghanistan
afghanistans
afghansk
afghanske
afgjort
afgjøre
afgjørelse
afgjørende
afhandling
afi
afl
afonso
africa
african
africanus
afrika
afrikaans
afrikamesterskapet
afrikansk
afrikanske
afrikas
afrique
afro
afroamerikanske
afrodite
afsked
afskrift
afsnit
afsted
aften
aftenblad
aftenbladet
aftenen
aftenposten
aftenpostens
after
aftonbladet
ag
aga
again
against
agamemnon
agatha
agder
agderposten
age
aged
agency
agenda
agent
agenten
agenter
ager
ages
aggresjon
aggressiv
aggressive
agmund
agnar
agnes
agnete
ago
agon
agostino
agra
agree
agreement
agricola
agricultural
agriculture
agrippa
agrypnus
agtede
agusti
ah
ahead
ahmad
ahmed
aho
ahom
ai
aid
aids
aif
aik
ailech
ailig
aim
aime
ain
aina
air
airbus
aircraft
aires
airline
airlines
airport
airways
ais
aise
ait
aix
aj
ajaw
ajax
ajman
ak
aka
akademi
akademie
akademien
akademiens
akademiet
akademiets
akademiker
akademikere
akademis
akademisk
akademiske
akbar
aker
akers
akerselva
akershus
akhaia
akilles
aking
akira
akkompagnert
akkurat
akkusativ
akl
akp
akropolis
aks
akse
aksel
akselerasjon
aksen
aksent
aksept
akseptere
aksepterer
akseptert
aksepterte
aksjene
aksjer
aksjeselskap
aksjon
aksjonen
aksjoner
aksum
akt
akter
aktet
aktig
aktige
aktiv
aktive
aktivist
aktivister
aktivitet
aktiviteten
aktivitetene
aktiviteter
aktivt
aktor
aktuell
aktuelle
aktuelt
aktør
aktørene
aktører
akustisk
akustiske
akutt
al
ala
alabama
aladdin
alain
alam
alamut
alan
alarm
alaska
alasmidonta
alauddin
alb
alba
alban
albania
albanias
albansk
albanske
albany
albert
alberta
alberto
albertoni
albertville
albin
albion
albrecht
albrekt
album
albumene
albumet
albumets
albums
albus
alcohol
aldeles
alder
alderen
alders
aldersbestemte
aldo
aldrende
aldri
aldrig
ale
alec
alejandro
aleksandar
aleksander
aleksanders
aleksandersen
aleksandr
aleksandra
aleksandrovitsj
aleksej
alen
alenc
alene
aleocharinae
aleppo
alessandro
alex
alexander
alexandra
alexandre
alexandria
alexandru
alexios
alexis
alf
alfa
alfabet
alfabetet
alfabetisk
alfons
alfonso
alfred
alfredo
algarve
algebra
alger
algerie
algerisk
ali
alias
alice
alicia
alien
aliens
aligned
alina
alison
alive
alkohol
alkoholisme
all
alla
allah
allan
allard
alle
allegro
allen
aller
allerede
alles
allesammen
alley
allgemeine
alliance
allianse
alliansen
allianser
allied
alliert
allierte
alliertes
alligevel
allikevel
allison
allkunne
allmenn
allmenne
allmennheten
allment
allmovie
allmusic
allocine
allround
allsidig
allsvenskan
allt
alltid
alluaud
alm
alma
almeida
almindelig
almindelige
almindelighed
almindeligt
alminnelig
alminnelige
alminnelighet
almost
almue
almuen
alna
alnæs
alogie
alois
alone
along
alonso
alpene
alper
alpes
alpha
alphonse
alpin
alpine
alpinist
alpint
als
alsace
alsaker
also
alstahaug
alt
alta
alte
alten
altenburg
alter
alteret
alternativ
alternative
alternativer
alternativet
alternativt
altertavle
altertavlen
altfor
alticinae
alticini
altid
altieri
alting
alto
altomfotball
altona
altsa
altsaa
altsammen
aluminium
alumni
alv
alvarez
alvdal
alver
alves
alvin
alvor
alvorlig
alvorlige
always
alzheimers
am
amadeus
amager
amalia
amalie
aman
amanda
amandaprisen
amanuensis
amar
amara
amateur
amatør
amatørbokser
amatører
amazing
amazon
amazonas
ambassade
ambassaden
ambassador
ambassadør
ambassadøren
amber
ambisiøse
ambisjoner
ambrose
amd
ame
amelia
amen
america
american
americana
americans
americas
amerika
amerikaner
amerikanere
amerikaneren
amerikanerne
amerikansk
amerikanske
amerikas
amfi
amfibier
amfipoder
ami
amiens
amin
amir
amma
ammad
ammon
ammunisjon
amne
amnesty
amon
among
amor
amore
amos
amour
ampedus
ampelisca
ampezzo
amphipoda
ampurias
amr
amsterdam
amt
amtet
amtmann
amtstidende
amund
amundsen
amy
an
ana
analog
analoge
analyse
analysen
analyser
analysere
analysis
analytisk
anastasia
anastasija
anatolia
anatolij
anatomi
anatomy
anbefale
anbefaler
anbefales
anbefaling
anbefalinger
anbefalt
anbefalte
anbud
anc
ancient
and
anda
andaluci
ande
andebu
andel
andelen
anden
andenes
andens
andensteds
andenæs
anderledes
anders
andersen
andersens
anderson
anderssen
andersson
andes
andesfjellene
andet
andorra
andra
andre
andrea
andreas
andreassen
andrei
andrej
andreplass
andreplassen
andres
andresen
andrew
andrewes
andrews
andrey
android
andronikos
andrzej
andy
andøya
ane
aner
anerkjenne
anerkjennelse
anerkjenner
anerkjennes
anerkjent
anerkjente
anette
anfall
anfører
anføres
anført
anførte
ang
anga
angaaende
angaar
ange
angel
angela
angeles
angelica
angelina
angell
angelo
angels
angelsaksisk
angelsaksiske
anger
angewandte
angi
angir
angis
angitt
angivelig
angivelige
angivelse
angives
angkor
anglia
anglikanske
anglo
angola
angoule
angreb
angrep
angrepene
angrepet
angribe
angripe
angriper
angriperne
angst
angus
anhalt
anhui
ani
animal
animals
animasjon
animasjonsfilm
animation
anime
animert
animerte
anita
anja
anjou
ankara
anke
anker
ankers
anket
anklage
anklagene
anklager
anklaget
ankom
ankommer
ankommet
ankomst
ankomsten
anla
anlagt
anledning
anledningen
anledninger
anlegg
anlegge
anleggene
anlegget
anliggende
anliggender
anlæg
anløp
anm
anmeldelse
anmeldelser
anmelder
anmelderen
anmelderne
anmeldt
anmodet
anmodning
ann
anna
annalene
annaler
annalerne
annales
annals
annan
annas
annat
anne
annektert
annekterte
annen
annenhver
annerledes
annes
annet
annethvert
annette
annex
anni
annie
annika
anniversary
anno
annonse
annonsert
annonserte
annotated
announce
announced
announcement
announces
annuaire
annual
anonym
anonyme
anonymt
anordning
another
ans
ansa
ansaa
ansaaes
ansatt
ansatte
ansbach
anse
anseede
anseelse
ansees
anseet
anser
anses
ansett
ansette
ansettelse
ansgar
ansigt
ansigtet
ansikt
ansikter
ansiktet
anskaffet
ansla
anslag
anslagsvis
anslo
anstrengelser
anstrengt
ansvar
ansvaret
ansvarlig
ansvarlige
ansvarsomra
ant
anta
antage
antagelig
antageligvis
antagelse
antagelsen
antager
antages
antaget
antakelig
antal
antall
antallet
antar
antarctic
antarctica
antarktis
antarktisekspedisjonen
antarktiske
antas
antatt
antatte
ante
antenne
antennen
antennene
antenner
anthem
anthology
anthony
anthropology
anti
antigonos
antigua
antikk
antikke
antikken
antikkens
antikvar
antiller
antiokia
antiokos
antiquities
antiquity
antisemittiske
antisemittisme
anto
antog
antoine
antoinette
antok
antologi
antologien
anton
antoni
antonia
antonio
antonius
antonsen
antony
antropologi
antwerpen
antyde
antyder
antydet
antydning
anund
anuradhapura
anvende
anvendelse
anvendelser
anvender
anvendes
anvendt
anvendte
anwar
any
anything
ao
ap
apache
apartheid
ape
aper
apg
aphodius
api
apicalis
apocrita
apodasyini
apoditrysia
apogonia
apollo
apollodorus
apollon
apomecynini
apostelen
apostlenes
apostolisk
apostoliske
apotek
apoteker
apoteket
app
apparat
apparater
apparatet
apparatturn
appeal
appell
appellerte
appendix
apple
appleton
application
applications
applied
applikasjoner
appointed
approach
apr
april
aps
aq
aqua
aquino
aquitaine
ar
ara
arab
arabere
araberne
arabia
arabisk
arabiske
arafat
arago
aragon
arakan
aram
arameisk
arbeid
arbeide
arbeidene
arbeider
arbeiderbevegelsen
arbeiderbevegelsens
arbeiderblad
arbeiderbladet
arbeidere
arbeiderklassen
arbeiderne
arbeidernes
arbeiderparti
arbeiderpartiet
arbeiderpartiets
arbeidet
arbeidets
arbeids
arbeidsgiver
arbeidsgruppe
arbeidskraft
arbeidsledighet
arbeidsliv
arbeidslivet
arbeidsoppgaver
arbeidsplass
arbeidsplassen
arbeidsplasser
arbejde
arbo
arbor
arc
arcade
arch
archaeological
archaeology
archbishop
arche
archer
archery
archibald
archie
architecture
archiv
archival
archive
archived
archives
archivio
arcot
arctic
ard
are
area
areal
arealer
arealet
arealstatistikk
areas
arena
arenaen
arenaer
arenberg
arendal
arendals
arendt
ares
argentina
argentinas
argentine
argentinsk
argentinske
argos
argulus
argument
argumenter
argumenterer
argumentert
argumenterte
argumentet
argyll
ari
aria
arias
arie
ariel
arild
aristokratiet
aristokratiske
aristoteles
arizona
ark
arkaisk
arkaiske
arkansas
arkeolog
arkeologen
arkeologer
arkeologi
arkeologia
arkeologisk
arkeologiske
arkhangelsk
arkipelet
arkitekt
arkitekten
arkitektene
arkitekter
arkitektkontor
arkitektkontoret
arkitektonisk
arkitektoniske
arkitektur
arkitektura
arkitekturen
arkitekturhistorie
arkiv
arkivdato
arkivene
arkiver
arkiveringsdato
arkivert
arkivet
arkivportalen
arkivverket
arkon
arkont
arktis
arktisk
arktiske
arles
arlington
arm
armagnac
armand
armando
arme
armed
armeen
armen
armene
armenere
armenerne
armenia
armenian
armensk
armenske
armer
armin
armorica
arms
armstrong
army
arn
arna
arnaud
arne
arneberg
arnes
arnesen
arnfinn
arno
arnold
arnstein
arnt
arntzen
arnulf
aron
around
arr
arrangement
arrangementer
arrangementet
arrangere
arrangerer
arrangeres
arrangert
arrangerte
arrangør
arrangørene
arrangører
arrest
arrestasjonen
arrestere
arrestert
arresterte
arrondissement
arrow
ars
arsenal
arslan
art
artdatabanken
arte
artemis
arten
artene
artens
arter
arthropod
arthur
article
articles
artikel
artikkel
artikkelen
artikkelnavnet
artiklene
artikler
artilleri
artilleriet
artist
artisten
artistene
artister
artistic
artistnavnet
artists
artium
artnet
artois
arts
artsbestemmelse
artsdatabanken
artsdatabankens
artsopplysninger
artsrik
artsrike
artstre
artukidenes
artur
arturo
artwork
aruba
arup
arv
arve
arvelig
arvelige
arven
arverett
arvet
arvid
arving
arvingen
arvinger
arxiv
as
asa
asbjørn
asbjørnsen
aschehoug
aschehougs
aserbajdsjan
aserbajdsjansk
asfalt
ash
asher
ashley
ashton
asia
asialekene
asiamesterskapet
asian
asiatisk
asiatiske
ask
aske
askeladden
askeland
asken
askepott
asker
askim
askøy
aslak
aslaug
asle
asp
aspects
aspekt
aspekter
aspen
aspx
ass
assassin
assault
assembly
assessment
assessor
assing
assistanse
assistant
assistent
assistenttrener
assisterende
assistert
associated
association
associations
assosiasjoner
assosiert
assyria
assyriske
asta
astacidea
astacoidea
astana
astarac
astejs
astenus
asterix
asteroid
asteroide
asteroidefamilien
asteroiden
asteroider
asteroiderelaterte
aston
astor
astri
astrid
astro
astrologi
astronaut
astronom
astronomen
astronomer
astronomi
astronomical
astronomirelaterte
astronomisk
astronomiske
astronomy
astrophysical
astrophysics
astrup
asturias
asyl
at
ata
atabeg
atelier
atferd
athen
athene
athenerne
athens
athenske
athina
athle
athlete
athletes
athletic
athletics
atkins
atkinson
atlanta
atlanteren
atlanterhavet
atlantic
atlantis
atlas
atle
atmosfære
atmosfæren
atmosfærisk
atmosfæriske
atmosphere
atmospheric
atom
atomene
atomer
atomic
atomva
atp
atropatene
atskilt
att
attack
attacks
atte
atten
attende
attentat
attentatet
atter
attila
attorney
attraktiv
attraktive
au
aube
aubert
aubrey
auch
auckland
aud
audi
audinet
audio
audition
auditorium
audrey
audun
auf
auflage
aug
augsburg
august
augusta
auguste
augusti
augustin
augustine
augusto
augustus
aukra
aukrust
auksjon
aumale
aune
aura
aurdal
aure
aurelius
aurivillius
aurland
aurora
aurskog
aurum
aus
auschwitz
ausgewa
aust
austad
austevoll
austin
austra
australia
australian
australias
australis
australsk
australske
austrasia
austre
austrheim
austria
austrian
aut
author
authorities
authority
authors
auto
autobiography
automatisk
automatiske
automobile
autonom
autonome
autonomi
autorisert
autorite
autoritet
autoriteter
autoritetsdatabase
autoritetspost
autority
autosport
auvergne
aux
auxerre
av
ava
available
avaldsnes
avansert
avanserte
avant
avatar
avbildet
avbildninger
avbrudd
avbrutt
avbryte
avbrøt
avd
avdekke
avdekket
avdeling
avdelingen
avdelingene
avdelinger
avduket
avdøde
ave
avec
avengers
avenue
avery
aves
avfall
avfyrt
avføring
avga
avgang
avganger
avgi
avgift
avgifter
avgir
avgitt
avgjorde
avgjort
avgjør
avgjøre
avgjørelse
avgjørelsen
avgjørelser
avgjørende
avgjøres
avgrenses
avgrenset
avhandling
avhandlingen
avhandlinger
avhenger
avhengig
avhengige
avhengighet
avholde
avholdes
avholdt
avhør
aviation
avibase
avignon
avinor
avis
avisa
avisen
avisene
avisens
aviser
aviv
avkall
avkastning
avklart
avkom
avkommet
avl
avla
avlagt
avlang
avlange
avlangt
avledet
avlegge
avlet
avlinger
avlyst
avløp
avløst
avløste
avoir
avon
avro
avrundede
avrundet
avsatt
avsatte
avsette
avsidesliggende
avska
avskaffe
avskaffet
avskjed
avskjediget
avsky
avsla
avslag
avslo
avslutning
avslutningen
avslutte
avsluttende
avslutter
avsluttes
avsluttet
avsløre
avslører
avsløres
avslørt
avslørte
avsmalnende
avsnitt
avsnittet
avsta
avstamning
avstand
avstanden
avstander
avsted
avstemning
avstemningen
avtale
avtalen
avtaler
avtalt
avtar
avtok
avtrykk
avvik
avvikende
avviker
avviklet
avvise
avviser
avvisning
avvist
avviste
aw
awa
award
awarded
awards
away
awenekongo
awiil
ax
axel
axelsen
ay
ayutthaya
az
azam
azcapotzalco
azerbaijan
aziz
b
ba
baad
baade
baaden
baal
baand
baard
baarli
baba
babe
babel
babelio
babies
baby
babycenter
babylon
babylonia
babylonske
babynamefacts
babynames
bac
bach
bache
bachelor
bachelorgrad
bachs
back
backer
background
backs
backstreet
bacon
bad
bade
baden
bader
badet
badminton
badmintonspiller
bae
baehr
baekje
baez
bafta
bag
bagdad
bagge
baglerne
baguirmi
baha
bahadur
bahamas
bahia
bahmani
bahn
bahnhof
bahrain
bai
bailey
baillargeon
bailly
baird
baja
bak
bakbeina
baker
bakeri
bakerst
bakerste
bakfra
bakga
bakgrunn
bakgrunnen
bakgrunnsvokal
bakgrunnvokal
bakhjørnene
bakhjørner
bakkanten
bakke
bakken
bakkene
bakker
bakkropp
bakkroppen
baklengs
bakover
bakr
bakre
baksiden
bakterien
bakterier
baktria
baku
bakvingen
bakvingene
bal
bala
balance
balanse
balansen
balduin
baldwin
balfour
balhae
bali
balkan
balke
ball
ballad
ballade
balladen
ballader
ballard
ballen
baller
ballet
ballett
balliol
ballklub
ballklubb
balsfjord
balthasar
baltiae
baltic
baltikum
baltimore
baltisk
baltiske
baly
bamble
bambus
bamos
bamum
ban
banco
band
banda
bande
banden
bandene
bandet
bandets
bandmedlemmene
bandt
bandy
bane
banebrytende
banedata
banen
banene
banens
baneparametre
baner
banesykling
bang
bange
bangkok
bangladesh
banjo
bank
banke
banken
bankene
bankens
banker
banket
banks
banksjef
banner
bannister
banten
bao
baptist
baptiste
bar
bara
barack
barangayer
barangays
barbados
barbara
barbarene
barbarossa
barber
barberini
barbra
barbro
barbu
barbuda
barcelona
barclay
bardu
bardufoss
bare
barentshavet
bari
bark
barkbiller
barken
barker
barlow
barn
barna
barnard
barnas
barndom
barndommen
barne
barnebarn
barnebok
barnebokforfatter
barnebøker
barnehage
barnehagen
barnehager
barnehjem
barnes
barneskole
barneskolen
barnet
barnets
barney
barns
barnsley
baroda
barokk
barokken
baron
barr
barra
barratt
barre
barrett
barrier
barrieren
barrow
barry
barrymore
barskog
bart
barth
bartlett
bartolomeo
barton
bartrær
baryton
bas
base
baseball
baseballspiller
based
basel
basen
baser
baserer
basert
baserte
basic
basil
basileios
basileus
basilewsky
basin
basis
baskerland
basketball
basketballrelaterte
basketballspiller
baskisk
baskiske
bass
basseng
bassenget
bassgitar
bassist
bassisten
basso
bastian
bastien
basutoland
bat
bataljon
bataljonen
bataljoner
bate
bates
bath
batista
batman
batteri
batteriene
batterier
batteriet
battista
battle
battlefield
bau
baudouin
bauer
baugen
baumann
baxter
bay
bayan
bayer
bayerische
bayern
bayerns
bayerske
bayreuth
bb
bbc
bbcs
bbkl
bc
bcrich
bd
bdfa
bdfutbol
be
bea
beach
bean
bear
bearbeidelse
bearbeidet
beard
bears
beast
beat
beate
beatles
beatrice
beatrix
beats
beau
beaufort
beaumont
beautiful
beauty
beaux
beaver
bebe
bebodd
bebodde
beboere
beboerne
bebyggelse
bebyggelsen
bebygget
bec
became
because
bech
bechyne
beck
becker
beckett
become
becomes
bed
beda
bede
bedehus
beder
bedford
bedrageri
bedre
bedret
bedrift
bedriften
bedriftene
bedriftens
bedrifter
bedring
bedst
bedste
bedt
bedømme
bee
been
beer
beethoven
beethovens
beetle
beetles
beevor
befal
befaling
befandt
befant
befestede
befestet
befestninger
befinner
befolkede
befolket
befolkning
befolkningen
befolkningens
befolkningsregister
befolkningsregistercentralen
befolkningsta
befolkningstathet
befolkningsvekst
before
befri
befridd
beg
bega
begav
begavelse
begavet
begeistret
begeistring
begge
begikk
begin
beginning
begins
begivenhed
begivenheder
begivenhet
begivenhetene
begivenheter
begjær
begravd
begravdeioslo
begravelse
begravelsen
begravelser
begravet
begreb
begrense
begrensede
begrenser
begrenses
begrenset
begrensning
begrensninger
begrep
begrepene
begreper
begrepet
begrunnelse
begrunnelsen
begrunnet
begynde
begyndelse
begyndelsen
begynder
begyndt
begyndte
begynne
begynnelse
begynnelsen
begynner
begynt
begynte
beha
behag
behagelig
behandle
behandler
behandles
behandlet
behandling
behandlingen
behavior
behersket
behind
behold
beholde
beholder
beholdt
behov
behovet
behring
behøvede
behøver
bei
beijing
beijings
beilstein
bein
beina
being
beirut
beite
beiter
beitra
bekjempe
bekjempelse
bekjempet
bekjendt
bekjendte
bekjent
bekjente
bekk
bekken
bekker
beklager
beklaget
bekostning
bekrefte
bekreftede
bekreftelse
bekreftende
bekrefter
bekreftet
bekymret
bekymring
bekymringer
bel
bela
belagt
belarus
belarusisk
belastning
bele
belegg
beleiret
beleiring
beleiringen
belfast
belgia
belgias
belgique
belgisk
belgiske
belgium
beliebtesten
believe
beliggende
beliggenhet
beliggenheten
belize
bell
bella
bellamy
belle
bello
bells
beloozero
below
belt
belte
beltet
belysning
belz
belønnet
belønning
beløp
beløpet
bemannede
bemannet
bembidion
bemerkelsesverdig
bemerkelsesverdige
bemerket
ben
bena
bendik
bendiksen
bendjoya
benedetto
benedict
benedicte
benedikt
benektet
benene
benet
benevento
benevnelsen
benevnes
benevnt
benezit
benfica
bengal
bengali
bengals
bengt
bengtsson
benin
benito
benjamin
benken
benker
bennett
benny
benoi
bensin
bensinstasjon
benson
bent
bente
bentheim
bentiske
bentley
benton
benytte
benyttede
benytter
benyttes
benyttet
benz
beograd
beordrer
beordret
beowulf
ber
bera
beredskap
beregne
beregnes
beregnet
beregning
beregningen
beregninger
beretning
beretningen
beretninger
beretter
berettes
berettet
berettiget
berg
bergan
bergarter
berge
bergen
bergenhus
bergens
bergensavisen
bergensbanen
bergenske
berger
bergersen
berget
berggren
berggrunnen
bergh
bergljot
berglund
bergman
bergmann
bergs
bergstro
berit
berkeley
berkshire
berleva
berlin
berliner
berlingske
berlins
bermuda
bern
bernadotte
bernard
bernardino
bernardo
bernburg
bernd
berner
bernerio
bernhard
bernhauer
bernhoft
bernie
bernstein
bernt
berntsen
bero
berre
berry
bert
bertel
bertelsen
bertha
berthe
berthold
bertil
bertram
bertrand
beruset
berwick
beryktede
beryktet
berømmelse
berømt
berømte
berører
berøring
berørt
berørte
bes
besalu
besatt
besatte
beseglet
beseire
beseirer
beseiret
besetning
besetningen
besiddelse
besiddelser
besittelse
besittelser
beskaffenhed
besked
beskjed
beskjeden
beskjedne
beskjeftiget
beskrev
beskrevet
beskrevne
beskrive
beskrivelse
beskrivelsen
beskrivelser
beskrivende
beskriver
beskrives
beskyldninger
beskyldt
beskyldte
beskytte
beskyttelse
beskyttende
beskytter
beskyttet
beslag
beslaglagt
beslektede
beslektet
beslutning
beslutningen
beslutninger
besluttede
besluttet
best
besta
bestaaende
bestaar
bestand
bestanden
bestander
bestandig
beste
bestefar
bestefaren
besteforeldre
besteg
bestemme
bestemmelse
bestemmelsen
bestemmelsene
bestemmelser
bestemmer
bestemmes
bestemor
bestemt
bestemte
bestille
bestilling
bestillingsverk
bestilt
bestilte
bestimmungsschlu
besto
bestod
bestræbelser
bestselgende
bestykning
bestyrelse
bestyrer
besøg
besøge
besøgte
besøk
besøke
besøkende
besøker
besøket
besøksdato
besøkt
besøkte
bet
beta
betale
betaler
betales
betaling
betalt
betalte
betegne
betegnelse
betegnelsen
betegnelsene
betegnelser
betegner
betegnes
betegnet
beth
betingelse
betingelsen
betingelsene
betingelser
betinget
betjene
betjener
betjenes
betjent
betjente
betlehem
betong
betragte
betragtede
betragtedes
betragtes
betragtet
betragtning
betrakte
betraktelig
betrakter
betraktes
betraktet
betraktning
betraktninger
betre
better
bettina
betty
between
bety
betydde
betyde
betydelig
betydelige
betyder
betydning
betydningen
betydninger
betydningsfull
betydningsfulle
betyr
betænkning
betød
beundrer
beundret
beundring
bevare
bevarede
bevares
bevaret
bevaring
bevaringsverdige
bevart
bevarte
bevege
bevegelig
bevegelige
bevegelse
bevegelsen
bevegelsene
bevegelsens
bevegelser
beveger
beveget
beverly
bevilget
bevis
bevise
bevisene
beviser
beviset
bevisst
bevissthet
bevisstheten
bevisstløs
bevist
beviste
bevitnet
bevo
bevolking
bevægelse
bevæpnede
bevæpnet
beweb
bey
beyer
beylerbey
beyond
bezdek
bf
bg
bhutan
bhutans
bhutto
bi
bianca
bianchi
biathlon
biathlonresults
bibcode
bibel
bibelen
bibelens
bibelsk
bibelske
bible
biblical
bibliografi
bibliographisches
bibliography
bibliotek
bibliotekar
biblioteker
biblioteket
bibliothe
bibliotheca
bibliothek
bibsys
bicolor
bid
biden
bidra
bidrag
bidragene
bidraget
bidragsyter
bidragsytere
bidrar
bidratt
bidro
bidrog
bie
bielefeld
bien
bier
big
biggest
bihar
bijapur
bikaner
bike
bil
bilag
bilbao
bild
bilde
bildebok
bildedatabase
bildegalleri
bildende
bildene
bilder
bildet
bildung
bilen
bilene
bilens
biler
bilferge
bill
billag
billboard
bille
billedbok
billede
billeder
billedhugger
billedhuggeren
billedkunst
billedkunstner
billen
billene
billens
biller
billerman
billett
billetter
billie
billig
billige
billigere
billion
bills
billy
bilopphøggers
bilprodusenten
bilruter
biltrafikk
bilulykke
bin
bind
binde
bindende
binder
bindet
binding
bing
bingen
bio
biodiversity
biograf
biografi
biografico
biografie
biografien
biografier
biografisch
biografisk
biografiske
biografiskt
biographical
biographie
biographies
biographisch
biographisches
biography
biol
biolog
biologi
biological
biologien
biologisk
biologiske
biology
biondi
bios
bipolar
bir
birch
bird
birdlife
birds
birger
birgit
birgitta
birgitte
biri
birkebeinerne
birkeland
birkenes
birmingham
birolle
biroller
birth
birthday
biruni
bis
bisatt
bisby
bishnupur
bishop
biskop
biskopen
biskopene
biskopens
biskoper
biskoppen
biskoppens
biskopper
biskopperne
biskopsdømme
bislett
bismarck
bispedømme
bispedømmer
bispedømmet
bispen
bispesete
bispeviet
bissau
bista
bistand
bit
bitcoin
bite
biter
bithynia
bitre
bits
bitt
bitter
bittesma
bivirkninger
bj
bjarne
bjarte
bjelke
bjelland
bjerg
bjerke
bjerknes
bjerkreim
bjo
bjugn
bjølsen
bjørg
bjørgen
bjørgvin
bjørk
bjørke
bjørklund
bjørn
bjørnar
bjørndal
bjørndalen
bjørneboe
bjørnen
bjørnsen
bjørnson
bjørnsons
bjørnstad
bjørnstjerne
bjørvika
bk
bl
bla
blaa
black
blackburn
blackmore
blackpool
blackwell
blad
bladbiller
blade
bladene
blader
bladet
bladkompaniet
blair
blake
blakstad
blamey
blanc
blanchard
blanche
blanco
bland
blande
blandede
blander
blandes
blandet
blanding
blandingen
blandt
blank
blanke
blankenburg
blankt
blant
blast
ble
blei
blek
bleke
blekinge
blev
bleve
bleven
blevet
blevne
bli
blica
blick
blik
blikk
blikket
blind
blinde
blindern
blindvei
blink
blir
bliss
blit
blitt
blitz
blive
bliver
blix
blo
bloch
block
blod
bloda
blodet
blodig
blodige
blog
blogg
bloggen
blogger
blogspot
blois
blokade
blokaden
blokk
blokken
blokkene
blokker
blokkere
blokkert
blokkerte
blom
blomst
blomsten
blomstene
blomster
blomsterbukker
blomsterfluer
blomstrende
blomstrer
blomstret
blonde
blood
bloody
bloom
bloomberg
bloomsbury
blot
blotte
blow
blu
blue
bluegrass
blues
bly
bløtdyr
bløte
bm
bmatrix
bmc
bmg
bmw
bmx
bn
bne
bner
bnf
bnp
bnr
bo
boa
board
boat
bob
bobby
bobkjører
bobsleigh
boca
boccia
bod
bodd
bodde
bode
boden
bodil
bodilprisen
bodin
body
bodø
boe
boeck
boede
boeing
boende
boer
boet
bog
bogen
boghandel
bogota
bogtrykkeri
boheman
bohemond
bohr
bohusla
boikott
boikottet
bois
boisduval
bok
boka
boken
bokens
bokfo
bokforlag
bokform
bokhandel
bokhylla
bokklubben
bokma
boks
boksen
bokser
bokserien
boksing
boksingrelaterte
bokstav
bokstavelig
bokstaven
bokstavene
bokstaver
boktrykkeri
bol
bold
boldsymbol
bolesław
boleyn
boli
bolig
boligbyggelag
boligen
boliger
bolighus
boligomra
bolivia
bolle
bologna
bolsjevikene
bolstad
bolt
bolton
bom
bomb
bombardier
bombay
bombe
bombeangrep
bombefly
bomben
bomber
bombet
bombing
bombingen
bombus
bombycoidea
bompenger
bomull
bon
bonan
bonaparte
bond
bonde
bonden
bondepartiet
bondevik
bone
bonelli
bones
bonifatius
bonn
bonnevie
bonnie
bonnier
bonniers
bono
bonus
bonusspor
boogie
book
bookdet
booker
books
boom
boone
boot
booth
bor
bora
borch
borchgrevink
bord
borde
bordeaux
border
bordet
bordoni
bordtennis
bordtennisspiller
bore
boreal
borealis
borer
boret
borettslag
borg
borge
borgen
borger
borgere
borgerkrig
borgerkrigen
borgerlig
borgerlige
borgermester
borgermesteren
borgerne
borgerskap
borgerskapet
borges
borgesyssel
borghild
borglund
borgmester
borgmesterfakta
borgund
boring
boris
borkman
born
bornella
borneo
bornholm
bornu
borough
borowiec
borre
bort
borte
bortebane
borten
bortenfor
borteseier
bortført
bortgang
bortimot
bortover
bortsett
borussia
bos
bosatt
bosatte
bosch
bosetning
bosetningen
bosetningene
bosetninger
bosette
bosettere
bosetting
bosnia
bosnisk
bosporanske
bosporos
boss
bosted
boston
bot
botanical
botaniker
botanikk
botanikkrelaterte
botanisk
botaniske
botany
both
botswana
bouchard
boucher
boulevard
boulogne
bound
bourbon
bourgeois
bourgogne
bourgoin
bourne
bournemouth
bousfield
bouvier
bow
bowie
bowl
bowling
bowls
bowman
box
boxing
boxofficemojo
boxrec
boy
boyd
boye
boyer
boyle
boys
bp
bpb
br
bra
braaten
brabant
bracciano
brachinus
brad
bradford
bradley
bradshaw
brady
brage
brageprisen
bragernes
bragt
bragte
brahe
brahms
brain
brakk
brakt
brakte
branch
brand
brandenburg
brandenburgs
brandes
brandon
brandt
brann
brannen
branner
bransjen
brant
brasil
brasiliansk
brasilianske
brasils
brass
brassband
brast
bratberg
bratislava
bratland
bratsberg
bratsj
bratt
bratte
braun
braunschweig
braut
brave
bravo
brazil
bre
break
breaking
breaks
brechlin
brecht
bred
breda
bredba
bredd
bredde
breddegrad
breddegrader
bredden
bredder
brede
bredere
bredest
bredo
bredt
breen
brees
bregner
breivik
brekke
bremanger
bremen
bremens
bremer
bremnes
bremser
brenda
brendan
brenna
brennan
brenne
brennende
brenner
brennevin
brenning
brennpunkt
brensel
brenselkilden
brenselstypen
brent
brente
brescia
breslau
brest
bretagne
breton
brett
brettet
breuning
brev
breve
brevene
brevet
brevik
brewer
brewster
brexit
briain
brian
bricka
bride
bridge
bridges
bridget
brief
brieg
brien
brienne
brigade
brigadegeneral
brigaden
brigader
briggs
bright
brighton
brigitte
brikke
brikker
brill
briller
bring
bringe
bringer
bringes
bringsværd
brisbane
bristol
brit
brita
britain
britannia
britannica
britene
britenes
briter
british
britishbabynames
britisk
britiske
britt
brittany
britton
brno
bro
broad
broadcast
broadcasting
broadway
broch
brochmann
brock
brockhaus
brockstedt
brodd
broder
broen
broene
broer
broken
brokete
bromwich
broncos
bronse
bronsealder
bronsealderen
bronsefinalen
bronsemedalje
bronsemedaljen
bronsemedaljer
bronx
bronze
brook
brooke
brooklyn
brooks
bror
broren
brorens
brorskap
bros
brosjyre
brother
brothers
broun
brower
brown
browne
browning
browns
browser
brreg
brt
bru
brua
bruce
bruckner
brud
brudd
bruddet
bruden
bruer
brug
bruge
bruger
bruges
brugge
brugt
brugte
bruk
bruke
bruken
bruker
brukere
brukeren
brukergrensesnitt
brukerne
brukes
bruket
brukket
bruksomra
brukt
brukte
brumunddal
brun
brundtland
brune
brunei
brungule
brunlig
brunlige
brunner
bruno
brunrøde
bruns
brunsvart
brunsvarte
brunswick
brunt
brus
brussel
brussels
brustad
brutal
brutale
brutalt
brutt
brutto
brutus
bruun
bruxelles
bry
bryan
bryant
bryce
bryde
brygge
bryggen
brygger
bryggeri
bryggeriet
bryllup
bryllupet
bryn
bryne
brynjulf
bryr
bryst
brystet
brystskjoldet
bryte
bryter
brytes
bryting
brytingrelaterte
brændte
brænne
brød
brødre
brødrene
brøgger
brøndby
brønn
brønnen
brønner
brønnøy
brønnøysund
brønnøysundregistrene
brøt
bs
bsd
bt
bu
bua
buccaneers
buch
buchanan
buck
buckingham
buckley
bucures
bud
budapest
buddha
buddhism
buddhisme
buddhismen
buddhist
buddhistisk
buddhistiske
buddy
budet
budget
budsjett
budsjettet
budskap
budskapet
budstikka
budstikke
budt
bue
buen
buenos
buer
bueskyting
bueskytter
buet
buffalo
buffy
bug
bugge
bugguide
build
building
buildings
built
buk
buken
bukhara
bukken
bukser
bukt
bukta
bukten
bul
bulgarerne
bulgaria
bulgarias
bulgarsk
bulgarske
bull
bulle
bullen
bullet
bulletin
bulls
bund
bunden
bundesamt
bundesliga
bundeswehr
bundet
bunker
bunn
bunndyr
bunnen
bunyoro
buprestidae
buprestoidea
bur
burde
bureau
burg
burgeon
burger
burgess
burgh
burgos
burgund
burke
burkina
burma
burmeister
burn
burnett
burning
burnley
burns
burr
burt
burton
burundi
bury
bus
busch
bush
business
busk
busker
buskerud
buss
bussen
bussene
busser
buster
but
butikk
butikken
butikkene
butikker
butler
butt
butte
butterflies
butterfly
button
buur
buy
buzz
bv
bwf
bwfbadminton
bwv
by
bya
byarkiv
bybrannen
byde
bydel
bydelen
bydelene
bydeler
bydelsoversikt
bydistrikt
bydistriktet
bye
byen
byene
byens
byer
byes
byfogd
byfylke
byga
bygd
bygda
bygde
bygdebok
bygden
bygdene
bygder
bygdøy
bygg
bygge
byggede
byggenummer
bygger
bygges
bygget
byggetrinn
bygging
byggingen
byggmester
byggverk
byggverket
bygland
bygning
bygningen
bygningene
bygningens
bygninger
bygningsloven
bygningsregistrering
bykjernen
bykommune
byleksikon
byomra
byprefekturet
byr
byra
byrd
byrge
byrne
byron
bys
bysantinsk
bysantinske
bysants
bystatus
byste
bystyre
bystyret
bytte
byttedyr
bytter
byttes
byttet
byzantine
byzantium
bær
bære
bærekraftig
bærende
bærer
bæres
bærum
bærums
bø
bød
bøde
bøder
bøe
bøger
bøkene
bøker
bøler
bølge
bølgelengde
bølgelengder
bølgen
bølgene
bølger
bømlo
bøn
bøndene
bønder
bønderne
bønn
bønner
bør
børge
børn
børnene
børre
børresen
børs
børsen
børster
bøter
bøyd
bøye
bøyer
bøyes
bøyning
bøyningen
bøyningsform
bøyningstabell
c
ca
cabinet
cable
cache
cadillac
caesar
caetani
caf
cafe
cage
cai
cain
cairo
cal
calabria
calais
calcio
calcutta
caldwell
cale
caledonia
calendar
calgary
california
call
calle
called
calling
calls
calman
calvin
cam
cambarellus
cambaridae
cambarus
cambridge
camden
came
camel
camera
cameron
camilla
camille
camillo
cammermeyer
cammermeyers
camp
campaign
campbell
camping
campo
campos
campus
can
canada
canadas
canadian
canadisk
canadiske
canal
canaria
canberra
cancer
cand
cande
candy
canelones
canis
cannabis
cannes
cannon
canoe
canoeing
canon
canterbury
canto
canton
cantraf
canyon
cao
cap
capacity
cape
capital
capitano
capitol
capo
cappelen
cappelens
cappella
caprella
caprelloidea
capri
caproni
captain
capua
car
carabidae
caraboidea
carabus
caracol
carbon
carcassonne
card
cardiff
cardinal
cardinals
cardiophorus
care
career
carey
cargo
caribbean
carina
carl
carla
carlisle
carlo
carlos
carlsen
carlson
carlsson
carlton
carmen
carnegie
carol
carola
carole
carolina
caroline
carolyn
carpegna
carpenter
carr
carrara
carrie
carroll
carry
cars
carson
carsten
carter
cartoon
carvalho
cary
cas
casa
casablanca
case
cases
casey
cash
casimir
casino
caspar
casper
cass
cassandra
cassidinae
cassidy
cassini
cassius
cast
castberg
castell
castello
castelnau
castiarina
castilla
castillo
castle
castro
cat
catalana
catalog
catalogue
catalogus
catalonia
catarina
catch
cate
category
caterino
catharina
cathedral
catherine
catholic
cathrine
catilina
cato
cats
cause
causes
cave
cavendish
cb
cbc
cbs
cc
cd
cdot
cdots
cdt
cdu
ce
ceara
cebu
cecil
cecilia
cecilie
cedsci
celebration
celebrity
celius
cell
celle
cellen
cellene
celler
cellino
cello
celsius
celtic
cembalo
cemetery
censo
censos
census
cent
centennial
center
centimeter
central
centralbyra
centralteatret
centre
centro
centrum
centuries
century
ceo
cephalothorax
cerambycidae
cerambycinae
cerda
cerdanya
ceremony
ceres
cerl
cerro
certain
ces
cesare
cessna
cet
cetoniidae
cetoniinae
cev
ceylon
cf
cfr
cgi
ch
cha
chad
chain
chair
chairman
challenge
challenger
challenges
chalon
chalukya
chamber
chamberlain
chambers
chamonix
champa
champagne
champion
champions
championship
championships
champs
chan
chance
chandela
chandler
chandra
chang
change
changed
changes
changing
changsha
channel
chanyu
chao
chaos
chapel
chaplin
chapman
chapter
chapuis
character
characteristics
charadriiformes
charakene
charaxes
charge
chargers
charity
charles
charleston
charlie
charlotte
charlton
chart
charter
chartres
charts
chase
chassis
chat
chateau
chaucer
chaudoir
chavtur
che
check
checklist
chef
chelsea
chemical
chemistry
chemnitz
chemsak
chen
cheng
chengdu
chengyang
chenla
cher
chera
cherry
cheshire
chess
chessgames
chester
chet
chevalier
chevrolat
chevrolet
chi
chiang
chicago
chief
chiefs
chiesa
chiffres
child
childhood
children
chile
chilensk
chilenske
chiles
chili
chin
china
chine
chinensis
chinese
ching
chiny
chip
chisholm
chlaenius
chloe
cho
choi
choice
choir
chola
chong
chongqing
chonnacht
chopin
chorsbrødrene
chr
chre
chris
christ
christen
christendommen
christendommens
christenret
christensen
christer
christi
christian
christiane
christiania
christianiai
christianity
christians
christiansborg
christiansen
christie
christiern
christina
christine
christmas
christne
christoffer
christoph
christophe
christopher
christophersen
christus
christy
chron
chronic
chronicle
chronicles
chronologie
chronology
chrysler
chrysolina
chrysomelidae
chrysomeloidea
chu
chuck
chun
chung
church
churches
churchill
ci
cia
cicero
cicindela
cidades
cie
cincinnati
cindy
cine
cinema
cinemagia
cinerama
cio
circle
circuit
circumstances
circus
cirka
cirkus
cite
cities
citizen
citroe
citta
city
citypopulation
ciudad
civic
civil
civilization
ck
cke
cken
cker
cl
cla
claes
claim
claims
clair
claire
clan
clancy
clapton
clara
clare
clarence
clarendon
clark
clarke
clarkson
clash
class
classic
classical
classics
classification
classifiche
claude
claudia
claudio
claudius
claus
clausen
clav
clay
clayton
cle
clean
clear
clemens
clement
clemente
clements
cleopatra
clermont
cleveland
cliff
clifford
clifton
climate
clinical
clint
clinton
clio
clive
clock
close
closer
cloud
clouds
clown
club
cluster
clut
clyde
cm
cn
cnn
co
coach
coal
coast
coastal
cobos
cobra
coburg
coca
cochran
cochrane
cod
code
codex
cody
coe
coelolepida
coffee
cognitive
cohen
coiffait
col
cola
cold
coldevin
cole
coleman
coleoptera
coleopterorum
colhuacan
colin
coliseum
coll
collaboration
collar
colle
collected
collection
collections
collective
college
collegium
collett
collier
collin
collins
colo
colombia
colombiansk
colombianske
colombias
colombo
colonel
colonial
colonna
color
colorado
colosseum
colossus
colt
colts
columba
columbia
columbus
com
combat
combined
come
comeback
comedy
comes
comet
comic
comiclopedia
comics
coming
comite
command
commander
commentary
comments
commerce
commercial
comminges
commission
commissioner
committee
commodore
common
commons
commonwealth
commune
communes
communication
communications
communist
communities
community
como
compagnie
companies
companion
company
comparative
comparison
compendium
competition
competitions
complete
complex
composer
composite
composition
comprehensive
compton
computer
computing
comte
comunes
comuni
con
conan
concacaf
concept
concepts
concert
concerto
conchobair
concise
concordia
conde
conditions
confederation
confederations
conference
confirmed
confirms
conflict
congo
congress
connacht
connecticut
connection
connell
connie
connolly
connor
conor
conquest
conrad
conservation
conservative
conspiracy
constable
constance
constant
constantin
constantine
constitution
construction
contact
conte
contemporary
content
contest
context
conti
continental
contract
contribution
contributions
control
controversy
convention
conway
cook
cooke
cookøyene
cool
coop
cooper
cooperation
coordinator
cop
copa
copelatus
copenhagen
copleymedaljen
copy
cora
core
corey
cork
cornelia
cornelis
cornelius
cornell
corner
cornwall
corona
coronavirus
corp
corporate
corporation
corps
corpus
corte
cortina
cos
cosimo
cost
costa
costantino
costello
cotton
could
council
count
counter
counties
countries
country
counts
county
countys
coupe
courage
course
court
courtney
cov
coventry
cover
coverdesign
coveret
coverla
coverversjon
covid
cowboy
cowboys
cox
cp
cph
cq
cr
craft
craig
cramer
crane
crash
crassus
crawford
crayfish
crazy
cre
cream
creation
creative
credits
creed
creek
crew
cricket
crime
crimes
criminal
crimson
crisis
cristian
cristin
cristina
cristo
critical
critics
croatia
croatian
croce
croix
cromwell
crosby
cross
crossing
crow
crowley
crown
cru
cruise
cruises
cruiseskip
crustacea
crustacean
crustaceans
cruz
cry
cryptocephalus
crystal
cs
csfd
csi
cska
cst
csu
ct
cths
ctor
cu
cuba
cubansk
cubanske
cubas
cucujiformia
cullen
cult
cultural
culture
cultures
cum
cumberland
cummings
cunha
cunningham
cup
cupen
cupfinalen
cupmester
cupvinnercupen
curac
curculionidae
curculionoidea
cure
curie
curling
curlingspiller
current
curry
curse
curt
curtis
curtiss
cut
cv
cycle
cyclebase
cycling
cyclingnews
cyclocephala
cynthia
cypridina
cypridinidae
cypridinodes
cyprus
cyril
cyrus
cytherella
cytherelloidea
cz
czech
czso
cæsar
cæsars
d
da
daa
daae
dab
dachau
daddy
dae
dag
dagar
dagblad
dagbladet
dagbladets
dagbok
dagboken
dagbøker
dage
dagen
dagene
dagens
dager
dagers
dages
dagfinn
daggry
daglig
daglige
dagliglivet
dagligtale
dagmar
dagny
dags
dagsavis
dagsavisen
dagsburg
dagslys
dagsommerfugler
dagsrevyen
dagtid
dahl
dahle
dahls
dahomey
dai
daily
daimler
daisy
dakar
dakia
dakota
dal
dalai
dalarna
dale
dalen
dalene
dalens
daler
dalføre
dalføret
dali
dallas
dalmatia
dalriada
dalton
daly
dam
damaskus
dame
damen
damene
damer
damian
damien
damm
dammen
dammer
damon
damp
dampba
dampen
dampmaskin
dampskibsselskab
dampskip
dams
dan
dana
dance
dancer
dancing
dane
danger
dangerous
dani
daniae
daniel
daniela
daniele
danielle
daniels
danielsen
danielsson
danilevsky
danish
danmark
danmarks
danna
danne
dannebrogordenen
dannede
dannelse
dannelsen
danner
dannes
dannet
danny
dans
danse
dansen
danser
dansere
danset
dansk
danske
danskefilm
danskene
dansker
danskernes
danskfilmogtv
dante
danzig
daphne
dar
darby
dardania
dareios
darfur
dario
darja
dark
darkness
darling
darlington
darmstadt
darren
darwin
daryl
das
dash
dass
dat
data
database
databasen
databaseolympics
dataene
datamaskin
datamaskinen
datamaskiner
datas
date
dateres
dateret
datering
dateringen
datert
dates
datidens
dativ
dato
datoen
datoer
datoverdier
datter
datteren
datterselskap
datterselskapet
daughter
dauphine
dauða
dave
davenport
david
davids
davidsen
davidson
davies
davis
davos
davy
daværende
dawla
dawn
daworks
dawson
day
days
dayton
db
dbladbiller
dbpedia
dbu
dc
dd
dde
ddr
ddrs
de
dead
deadline
deadly
deal
dean
dear
death
deaths
debate
debatt
debatten
debatter
debbie
debian
deborah
debut
debutalbum
debutalbumet
debuten
debuterte
dec
decade
decapod
decapoda
decbr
decca
december
deces
decision
declaration
declared
decline
dedikert
dedisert
dee
deel
deels
deep
def
default
defence
defense
defensiv
defensive
defensor
definere
definerer
defineres
definert
definerte
definisjon
definisjonen
definisjoner
definition
definitive
definitivt
deg
degli
deheubarth
dei
deichman
deilig
deim
deira
dejean
dekan
dekar
dekk
dekke
dekker
dekkes
dekket
dekkvingene
dekkvingenes
dekkvinger
dekning
dekor
dekorasjon
dekorasjoner
dekorative
dekorert
dekorerte
dekret
del
delaktig
delaware
dele
delegasjon
delegasjonen
delegat
delegater
delen
delene
deler
deles
delfi
delgado
delgruppe
delgruppen
delhi
delias
delillos
deling
delingen
dell
della
delle
delomra
dels
delstat
delstaten
delstatene
delstatens
delstater
delt
delta
deltagelse
deltagende
deltager
deltagere
deltagerne
deltakelse
deltakende
deltaker
deltakere
deltakerne
deltar
deltatt
delte
deltok
deluxe
delvis
dem
demand
demens
demeter
demetrios
demetrius
demi
demning
demningen
demninger
demo
democracy
democratic
demografi
demokraten
demokratene
demokratenes
demokrati
demokratiet
demokratisk
demokratiske
demon
demonax
demoner
demonstrantene
demonstranter
demonstrasjon
demonstrasjonene
demonstrasjoner
demonstrere
demonstrert
demonstrerte
demontert
demonym
dempe
den
dende
dendronotus
dene
deng
dengang
denis
denise
denmark
denne
dennem
dennes
dennis
denny
dens
denver
denverbroncos
departement
departementene
departementer
departementet
departementets
department
deplasement
deportert
deportivo
depot
depresjon
depresjonen
depression
deputy
der
deraf
derav
derbent
derby
derbyshire
dere
derefter
derek
deres
deretter
derfor
derfra
derhen
derhos
deri
deriblant
derimod
derimot
derinde
deris
deriverte
dermanland
dermed
dernest
dernæst
derom
deroppe
derover
derpa
derpaa
dersom
dertil
derved
des
descartes
description
descriptions
desember
desert
desgphoto
design
designer
designet
desire
desktop
desmiphorini
desmond
desperat
desperate
despot
dess
dessau
desse
dessuten
dessverre
destinasjoner
destiny
desto
destruction
desuden
desværre
det
detail
details
detalj
detaljene
detaljer
detaljert
detaljerte
detective
detektiv
detektiven
detroit
dets
detta
dette
deus
deutsch
deutsche
deutschen
deutscher
deutsches
deutschland
deutschlands
deuve
deux
dev
deva
developers
development
devil
devils
devold
devon
dewey
dexter
df
dfb
dformede
dgivende
dgiver
dgivere
dgivning
dh
dhabi
dhaka
dharma
dhus
dhuset
di
dia
diabetes
diagnose
diagnosen
diagnostisert
diagram
dialekt
dialekten
dialektene
dialekter
dialog
dialogen
dialogue
diamant
diamanter
diameter
diameteren
diamond
diamonds
diana
diane
diario
diary
dias
diaz
dick
dickens
dickinson
dickson
dictionaries
dictionary
dictionnaire
did
didier
didn
didrik
die
died
diego
diem
dies
diesel
dieselmotor
diesen
diet
dieter
dietrich
dietrichson
dietz
dieu
difference
different
diffusion
dig
dige
diger
digest
dighet
digi
digital
digitalarkivet
digitale
digitalisering
digitalisert
digitaliserte
digitalt
digitaltmuseum
digt
digte
digter
dikt
diktator
diktatoren
diktatur
diktaturet
diktene
dikter
diktere
dikteren
diktet
diktning
diktsamling
diktsamlingen
diktsamlinger
dillenburg
dillon
dimensjon
dimensjoner
diminutiv
din
dina
dinamo
dine
ding
dingen
dino
dinosaur
dio
diocese
diodorus
diogenes
dion
dionysos
dipati
dipl
diplom
diplomat
diplomatarium
diplomaten
diplomater
diplomati
diplomatisk
diplomatiske
diplomer
diptera
dir
direct
direction
director
directors
directory
direkte
direktoratet
direktør
direktøren
dirigent
dirigenten
dirigert
dirigerte
dirk
dirty
dis
disaster
disc
disco
discography
discogs
discovered
discovery
discussion
disease
diseases
disipler
disiplin
disipliner
disk
diskografi
diskos
diskoskast
diskriminering
diskusjon
diskusjonen
diskusjoner
diskutere
diskuterer
diskuteres
diskutert
diskuterte
diskvalifisert
disney
disneys
disorder
disorders
display
displaystyle
disponent
disponerer
disposisjon
disse
dissertation
disses
distance
distanse
distansen
distansene
distanser
distant
distinguished
distinkt
distinkte
distribueres
distribuert
distribusjon
distribusjonen
distribution
district
distrikt
distriktene
distrikter
distriktet
distriktets
distrowatch
dit
ditions
ditlev
ditmarsken
ditrysia
ditt
div
diverse
diversity
divine
diving
divisio
division
divisjon
divisjonen
divisjonene
divisjoner
divisjonsrunden
dix
dixie
dixon
diz
dizionario
dj
djevelen
djevelens
djibouti
djurga
djurhuus
djvu
djævelen
dk
dl
dm
dmann
dmitrij
dn
dna
dnb
dns
dnt
dnv
do
dobbel
dobbelt
dobbelte
dobbeltsculler
doble
doblet
doc
doctor
document
documentary
documentation
documents
dodge
does
dog
doge
dogs
doha
doherty
doi
doing
dok
dokka
doktor
doktoravhandling
doktoren
doktorgrad
doktorgraden
dokument
dokumentar
dokumentaren
dokumentarfilm
dokumentarfilmen
dokumentasjon
dokumentene
dokumenter
dokumentere
dokumenterer
dokumentert
dokumenterte
dokumentet
dole
doll
dollar
dolls
dolly
dolmen
dolores
dolphins
dom
domain
domba
dome
domene
domenenavn
domener
domenet
domenico
domesday
domestic
dominans
dominant
dominere
dominerende
dominerer
domineres
dominert
dominerte
domingo
dominic
dominica
dominik
dominikanske
dominique
domino
domkirke
domkirken
domme
dommen
dommer
dommere
dommeren
dommerne
domnaill
domnall
domstol
domstolen
domstolene
domstoler
don
donald
donasjoner
donau
done
donert
donerte
donetsk
dong
donghai
donna
donnchad
donne
donnell
donovan
dons
doo
doom
door
doors
doping
dora
dorcadion
doria
doris
dorothea
dorothy
dorset
dortmund
dos
dose
dosent
doser
dot
dotter
douard
double
doubleday
doubles
doug
douglas
dover
dovre
dovrebanen
dovrefjell
down
downing
download
downloaded
downs
doyle
dp
dq
dr
dra
drab
dracula
drafn
draft
draftet
drag
drage
dragen
drager
dragon
dragons
drak
drake
drakk
drakt
drakten
drakter
drama
dramaet
dramafilm
dramafilmen
dramaserie
dramaserien
dramatic
dramatiker
dramatikeren
dramatikk
dramatisk
dramatiske
drammen
drammens
drammensveien
drangedal
drap
drapene
drapet
drar
drastisk
dratt
draw
dre
dream
dreams
drei
dreide
dreie
dreier
drenerer
dreng
drepe
dreper
drept
drepte
dresden
dress
dressur
dreux
drev
drevet
drevne
drew
dreyer
dreyers
dreyfus
drift
driften
drifter
driftes
drikk
drikke
drikken
drikker
drikkevann
drink
dristig
dristige
driv
drive
drivende
driver
drives
drivkraft
drivstoff
dro
drog
droge
dronning
dronningen
dronningens
dronninger
drop
droppet
druce
druer
drug
drugs
drukket
drukne
druknet
drum
drummond
dry
dryopteris
dræbe
dræbt
dræbte
drøbak
drøftet
drøm
drømme
drømmen
drømmer
drømte
drøye
drøyt
ds
dsb
dsm
dt
dte
du
duan
dub
dubai
dublin
dubois
duc
duck
dudley
due
duell
duett
duff
duffy
duft
dugnad
duisburg
duk
dukas
duke
dukke
dukker
dukket
dukketeater
dum
dumas
dumdum
dumme
dumnonia
dumont
dun
dunbar
duncan
duncker
dundee
dunkerque
dunn
duo
duoen
dupont
dur
durch
durham
during
dus
dusin
dust
dustin
dutch
duty
duun
dux
dvd
dverg
dvergedderkopper
dvergene
dverger
dvs
dw
dwight
dx
dy
dyb
dybdahl
dybde
dybdekart
dybden
dybe
dybt
dybwad
dyck
dyd
dyder
dygtig
dying
dyke
dykker
dyktig
dyktige
dyktighet
dylan
dynamic
dynamical
dynamics
dynamisk
dynamiske
dynamitt
dynamo
dynasti
dynastidae
dynastiene
dynastiet
dynastiets
dynastinae
dynasty
dynt
dyntaxa
dyp
dype
dypere
dypeste
dypet
dypt
dyr
dyra
dyre
dyrearter
dyreliv
dyrelivet
dyrene
dyrenes
dyrere
dyreste
dyret
dyrke
dyrker
dyrkes
dyrket
dyrking
dyrt
dyschirius
dyscolus
dz
dæ
dækket
dø
død
dødd
døde
dødelig
dødelige
døden
dødens
dødes
dødsa
dødsannonse
dødsfall
dødsfallet
dødsstraff
dødt
døende
døgn
døgnet
døgnfluer
dømme
dømmende
dømmer
dømmes
dømt
dømte
døpefonten
døpt
døpte
dør
døra
døren
dørene
dører
døtre
døtrene
døve
e
ea
each
eagle
eagles
ear
earl
earle
earliest
early
earth
earthquake
east
easter
eastern
eastwood
easy
eat
eaton
eau
eb
ebba
ebbe
eberhard
eberson
ebert
ebird
ebok
ebu
ec
ece
echo
eckhoff
eclipse
ecm
eco
ecology
economic
economics
economie
economist
economy
ecuador
ed
eda
edaphus
edda
edderkopp
edderkoppdyr
edderkoppene
edderkoppens
edderkopper
eddie
eddy
edel
eden
eder
eders
edgar
edge
edicions
edinburgh
edison
edit
edited
edith
edition
editions
editor
editorial
editors
edle
edmond
edmonton
edmund
edna
edo
edouard
eds
edt
edu
eduard
eduardo
education
educational
edvard
edvards
edvardsen
edvin
edward
edwards
edwin
ee
eeg
een
eesti
eet
ef
effect
effects
effekt
effekten
effektene
effekter
effektiv
effektive
effektivitet
effektivt
effter
efta
efter
efterat
efterhaanden
eftermand
eftermiddagen
efterretning
efterretningen
efterretninger
eftersom
eg
egeberg
egede
egeerhavet
egeland
egen
egenskab
egenskap
egenskapen
egenskapene
egenskaper
egentlig
egentlige
egersund
eget
egg
egge
eggen
eggene
egget
eggum
egil
egils
egmont
egn
egne
egnede
egnen
egner
egnet
ego
egon
egte
egypt
egypterne
egyptian
egyptisk
egyptiske
egypts
ehf
ei
eia
eichmann
eid
eide
eidem
eidet
eidfjord
eidsberg
eidskog
eidsva
eidsvold
eidsvoll
eie
eiede
eiendeler
eiendom
eiendommen
eiendommene
eiendommer
eier
eierandel
eiere
eieren
eierne
eierskap
eierskapet
eies
eiet
eight
eigi
eigil
eik
eika
eiker
eileen
eilert
eilertsen
eilif
eiliv
ein
einar
einarsson
eindhoven
eine
einem
einer
eines
einstein
eira
eirik
eis
eisenach
eisenberg
eisenhower
eit
eitt
eivind
ej
ejendom
ejendomme
ejer
ek
ekeberg
ekegren
ekko
ekman
eks
eksakt
eksakte
eksamen
eksempel
eksempelet
eksempelvis
eksemplar
eksemplarer
eksemplene
eksempler
eksemplet
eksil
eksistens
eksistensen
eksistere
eksisterende
eksisterer
eksistert
eksisterte
ekskludert
eksklusiv
eksklusive
eksklusivt
eksotiske
ekspanderte
ekspansjon
ekspansjonen
ekspedisjon
ekspedisjonen
ekspedisjoner
ekspedisjonssjef
eksperiment
eksperimentell
eksperimentelle
eksperimentelt
eksperimenter
eksperimentere
eksperimenterte
eksperimentet
ekspert
eksperter
ekspertise
eksplisitt
eksploderte
eksplosiver
eksplosjon
eksplosjonen
eksponering
eksport
eksporten
eksportert
ekstern
eksterne
ekstra
ekstraomganger
ekstraordinær
ekstraordinære
ekstrem
ekstreme
ekstremt
ekte
ektefelle
ektefellen
ektemann
ektemannen
ektemannens
ekteparet
ekteskap
ekteskapet
ekvator
ekvatorial
ekvivalent
el
elaine
elateridae
elateroidea
elben
eldar
elden
elder
eldre
eldste
ele
eleanor
elected
election
elections
electoral
electric
electricity
electronic
elefant
elefanter
elegans
elegant
elegante
elektor
elektra
elektrisitet
elektrisk
elektriske
elektro
elektromagnetisk
elektromagnetiske
elektron
elektronene
elektroner
elektronet
elektronikk
elektronisk
elektroniske
element
elementene
elementer
elementet
elements
elena
eleonora
eleonore
elephant
elev
eleven
elevene
elevenes
elever
elfenbenskysten
elg
eli
elia
elias
eliassen
elig
elige
eliminere
eliminert
elin
eline
eliot
elis
elisa
elisabet
elisabeth
elise
elite
eliten
eliteprospects
eliteserien
eliza
elizabeth
ell
ella
elle
ellefsen
ellen
eller
ellers
elleve
ellevte
ellevteplass
ellie
elling
ellingsen
elliot
elliott
elliptiske
ellis
elmer
elongata
elsa
else
elsen
elser
elsevier
elske
elskede
elsker
elskerinne
elsket
elster
elton
elv
elva
elvas
elvdal
elvekraftverk
elven
elvene
elvenett
elvens
elver
elverum
elvira
elvis
elymais
em
emacs
emanuel
embede
embeder
embedet
embedseksamen
embedsmann
embedsmenn
embedsmænd
embete
embeter
embetet
embetseksamen
embetsmann
embetsmenn
emblem
emergency
emeritus
emerson
emery
emi
emich
emigrerte
emil
emile
emilia
emilie
emilio
emily
emir
emirater
emirates
emiratet
emma
emmanuel
emmy
emne
emner
emnet
emperor
empire
empires
empirisk
ems
en
enciclope
enciclopedia
enciklopedija
encyclopaedia
encyclope
encyclopedia
encyclopædia
encyklopedi
end
enda
endaa
endda
ende
endeel
endel
endelig
endelige
endelsen
endemisk
endemiske
enden
endene
endepunkt
ender
endestasjon
ending
endnu
endog
endogsaa
endre
endrer
endres
endresen
endret
endring
endringen
endringene
endringer
endro
ends
endt
endte
endvidere
ene
enebakk
eneboliger
enemy
ener
enerett
energi
energidirektorat
energien
energiforsyning
energikilder
energirelaterte
energiselskapet
energisk
energy
enes
enesta
eneste
eng
engang
engasjement
engasjere
engasjert
engasjerte
engebretsen
engel
engelbert
engelen
engels
engelsk
engelske
engelskmennene
engelskspra
engelsktalende
engelstad
engen
enger
engerdal
engern
engine
engineering
engineers
england
englands
engler
english
enhet
enheten
enhetene
enheter
enhetlig
enhetsregisteret
enhver
enig
enige
enighet
enigma
enke
enkel
enkelt
enkeltdistanse
enkeltdistanser
enkelte
enkeltpersoner
enkeltrenn
enkeltserie
enkeltsta
enkeltvis
enkemann
enken
enkle
enklere
enkleste
enn
enna
enno
ennu
enoplometopus
enorm
enorme
enormt
enough
enri
enrico
enrique
ens
ensemble
ensemblet
ensfarget
ensidig
enslig
ensom
ensomhet
ensomme
enstemmig
entall
enten
enter
enterprise
enterprises
entertainment
entomologica
entomological
entomologisk
entomology
entre
entreprenør
entries
entry
entydig
enumeratio
environment
environmental
enzo
enzyklopa
eo
eocen
eoghain
eos
ep
eparki
ephemeroptera
epic
epigynet
epinotia
epirus
episk
episke
episkopalgenealogi
episode
episoden
episodene
episoder
eple
epoke
epoken
eponymos
epos
epstein
eptir
equestrian
equipment
er
era
erasmus
ere
erfare
erfaren
erfarer
erfaring
erfaringene
erfaringer
erfarne
erfurt
erhard
erholde
erhverve
erhvervet
eric
erica
erich
erichsen
erichson
ericson
ericsson
erik
erika
eriks
eriksen
eriksson
erikssøn
erin
erindre
erindring
erindringer
eritrea
erkebiskop
erkebiskopen
erkebiskoppen
erkebiskoppens
erkebispedømme
erkebispedømmet
erkebispen
erkehertug
erkjende
erkjennelse
erklære
erklærede
erklærer
erklæring
erklæringen
erklært
erklærte
erland
erlandsen
erlend
erling
erlingsson
erlingssøn
erna
ernest
ernesto
ernie
ernst
ernæring
ero
erobre
erobrede
erobrer
erobreren
erobret
erobring
erobringen
erobringer
eros
erosjon
erotisk
erotiske
ers
erstatning
erstatt
erstatte
erstatter
erstattes
erstattet
eru
ervervet
erwin
es
esa
esbjerg
esc
escape
eschscholtz
eske
eskil
esp
espan
espe
espeland
espen
esperanto
espinosa
espn
espnfc
ess
essay
essays
essen
essential
essex
est
esta
estadi
estadio
estado
estate
estatisticas
este
esteban
ester
estetikk
estetisk
estetiske
esther
estimates
estimativas
estimert
estisk
estiske
estland
estlands
estonia
estonian
et
eta
etablere
etablerer
etableres
etablering
etableringen
etablert
etablerte
etappe
etappen
etappene
etappens
etapper
etappeseier
etappeseire
etasje
etasjer
etat
etaten
etater
etc
ete
eter
eternal
ethan
ethel
ethics
ethnic
ethnologue
ethvert
etienne
etikk
etiopia
etiopisk
etiopiske
etisk
etiske
etne
etnisitet
etnisk
etniske
etnost
etruskisk
etruskiske
ett
etta
ette
etter
etterforske
etterforsker
etterforsket
etterforskning
etterforskningen
etterfulgt
etterfulgte
etterfølge
etterfølgende
etterfølger
etterfølgere
etterfølgeren
etterhvert
etterkant
etterkommer
etterkommere
etterkommerne
etterkrigstiden
etterlater
etterlatt
etterlatte
etterligne
etterligner
etterlot
ettermiddag
ettermiddagen
etternavn
etternavnet
etterpa
etterretning
etterretningstjenesten
ettersom
etterspurt
etterspørsel
etterspørselen
ettertid
ettertiden
ettertraktet
etymologi
etymologisk
etymology
eu
euconnus
eucosma
eufrat
euge
eugen
eugene
eugenio
eulepidoptera
euler
eumalacostraca
eumolpinae
eun
eunidia
eur
eurasia
euro
eurobasket
eurohockey
europa
europacupen
europaea
europakommisjonen
europaligaen
europameisterschaften
europamester
europamesterskap
europamesterskapet
europaparlamentet
europara
europas
europatouren
europavei
europe
european
europeere
europeerne
europeisk
europeiske
europæiske
eurosport
eurovision
eurovoix
eus
eusebius
ev
eva
evakuere
evakuering
evakueringen
evakuert
evaluation
evaluering
evan
evangeliene
evangeliet
evangelisk
evangeliske
evangelium
evans
eve
evelyn
even
evenes
evening
evensen
event
events
eventsmeetings
eventuell
eventuelle
eventuelt
eventyr
eventyrer
eventyret
ever
everest
everett
evert
everton
every
everybody
everyone
everything
evic
evidence
evig
evige
evil
evje
evne
evnen
evner
evol
evolusjon
evolution
evolutionary
evripides
ewald
ewing
ex
examen
excel
excellence
except
exchange
exclusive
executive
exempel
exempler
exeter
exhibition
exile
exit
exocentrus
expansion
expedition
experience
experiment
experimental
expert
exploration
explorer
expo
exposition
express
expressen
extended
extra
extreme
ey
eyde
eye
eyes
eyof
eystein
eysteins
eyvind
ez
eða
eøs
f
fa
faa
faae
faaet
faar
faarlund
faat
faber
fabian
fabio
fabius
fabricius
fabrikk
fabrikken
fabrikkene
fabrikker
fabritius
fabrizio
face
facebook
faces
facility
fact
factbook
facto
factor
factory
facts
factsheet
faculty
fader
faderen
faderens
faders
faen
fag
fagbokforlaget
fagel
fagene
fagernes
faget
fagfelt
fagfeltet
fagfolk
fagforening
fagforeninger
faglig
faglige
faglitteratur
fagomra
fagrskinna
failure
fair
fairbanks
fairmaire
fairy
faith
fakta
faktaark
faktisk
faktiske
faktor
faktoren
faktorene
faktorer
faktum
fakultet
fakulteter
fakultetet
falch
falck
falcon
falcons
fald
falde
falden
falder
faldne
faldt
falk
falkenberg
falkland
falklandsøyene
fall
falle
fallen
fallende
faller
fallet
fallicambarus
falling
fallout
falls
fallskjerm
falne
false
falsen
falsk
falske
falskt
falt
falun
fame
familie
familiegruppen
familiemedlemmer
familien
familiene
familiens
familier
families
familjebok
family
famous
fan
fana
fanden
fandt
fandtes
fane
fang
fange
fangeleir
fangen
fangene
fangenskap
fanger
fanges
fanget
fangst
fangsten
fanny
fans
fansen
fant
fantasi
fantastic
fantastisk
fantastiske
fantasy
fantes
fantomet
fao
faq
far
fara
farah
farao
fare
faren
farens
farer
farewell
farfar
farge
fargede
fargen
fargene
farger
fargerike
farget
fargevariable
farinella
farlig
farlige
farligste
farm
farmen
farmer
farnese
farrell
fars
farssiden
farsund
fart
fartein
farten
fartøy
fartøyene
fartøyer
fartøyet
farvann
farvannet
farve
farvel
farver
fasade
fasaden
fascinert
fascismen
fascistiske
fase
fasen
faser
faset
fasettøyne
fasettøynene
fashion
fasiliteter
faso
fast
fastboende
faste
fasting
fastlagt
fastland
fastlandet
fastlands
fastsatt
fastsatte
fastsette
fastsla
fastslo
fat
fatal
fate
father
fatt
fatte
fattet
fattig
fattigdom
fattige
fattigste
fauna
faunaeur
fauske
faust
fauvel
favorite
favoritt
favorittene
favoritter
favre
favør
faxon
faxonius
fay
faye
fb
fbi
fbref
fc
fci
fd
fdp
fe
fear
fearnley
feat
feature
features
featuring
feb
feber
febr
februar
february
federal
federation
federico
fedora
fedre
feel
feeling
feet
fei
feide
feil
feilaktig
feilen
feilet
feire
feirer
feires
feiret
feiring
feiringen
fejl
fekk
fekter
fekting
felder
fele
felice
felipe
felix
fell
felle
feller
felles
fellesbetegnelse
fellesra
fellesskap
fellesskapet
fellesstart
fellesstarten
fellestrekk
fellow
fellows
felt
feltene
felter
feltet
feltmarskalk
feltritt
felttog
felttoget
fem
fema
female
fembio
feminisme
feminist
feministisk
femkamp
femme
femmes
femte
femten
femtende
femteplass
femti
fencing
fender
feng
fengsel
fengselet
fengselsstraff
fengsler
fengslet
fennoscandiae
fenomen
fenomener
fenomenet
fenrik
fer
ferd
ferden
ferdes
ferdig
ferdige
ferdigheter
ferdigstilt
ferdinand
ferdinando
ferdsel
ferenc
ferge
fergeforbindelse
fergen
ferger
fergus
ferguson
ferie
ferje
ferna
fernand
fernandes
fernandez
fernando
ferrara
ferrari
ferreira
ferrer
ferry
fersk
ferske
ferskvann
ferskvannskreps
fest
festdag
feste
festen
fester
festes
festet
festival
festivalen
festivaler
festning
festningen
festningene
festninger
festningsverk
festskrift
festspillene
fet
fett
fetter
fetzner
fever
few
fezensac
ff
ffer
ffk
fg
fgg
fi
fia
fiasko
fiat
fiba
fiber
fichier
fiction
fide
fidel
fie
field
fields
fiende
fienden
fiendens
fiender
fiendtlig
fiendtlige
fiering
fifa
fifas
fife
fifth
fifty
fig
fight
fighter
fighters
fighting
figur
figure
figuren
figurene
figurer
figures
fih
fiji
fik
fikk
fiksjon
fiktiv
fiktive
fil
fila
filadelfia
file
filen
filene
filer
files
filharmoniske
filip
filipino
filippinene
filippinenes
filippinere
filippinsk
filippinske
filippo
film
filmatisering
filmatisert
filmdatabas
filmdatabasen
filme
filmen
filmene
filmens
filmer
filmet
filmfestival
filmfestivalen
filmfront
filminstitut
filminstituttet
filmkomedie
filmmusikk
filmmusikken
filmografi
filmportal
filmprodusent
filmregissør
filmrelaterte
films
filmselskapet
filmskaper
filmskuespiller
filmweb
filolog
filologi
filosof
filosofen
filosofer
filosofi
filosofia
filosofien
filosofisk
filosofiske
filter
fin
fina
final
finale
finalen
finalene
finaler
finaleresultater
finalerunden
finalist
finally
finals
finance
financial
finans
finansdepartementet
finansiell
finansielle
finansiere
finansieres
finansiering
finansieringen
finansiert
finansierte
finanskrisen
finansminister
find
finde
finder
findes
finding
finds
fine
finere
fineste
finger
fingre
fingrene
finjarn
fink
finland
finlands
finmarken
finn
finne
finnene
finner
finnes
finnish
finnmark
finns
finnsnes
finnur
fins
finsk
finske
finskspra
fint
fiolett
fiolin
fiolinist
fiona
firda
fire
firea
fired
firenze
firer
firerbob
firi
firkantede
firkantet
firm
firma
firmaer
firmaet
firmaets
first
firth
fis
fisa
fischer
fish
fishbase
fisher
fishes
fisk
fiske
fiskeba
fisken
fisker
fiskere
fiskeri
fiskerne
fisket
fiskevær
fitjar
fitzgerald
fitzpatrick
fivb
five
fja
fjeld
fjeldet
fjeldstad
fjell
fjellene
fjellet
fjellkjede
fjellkjeden
fjellomra
fjells
fjelltopp
fjelltoppen
fjelltopper
fjerde
fjerdedel
fjerdeplass
fjern
fjerne
fjerner
fjernere
fjernes
fjernet
fjerning
fjernsyn
fjernsynet
fjernsynskommentatorer
fjernsynsteatret
fjernt
fjernvarme
fjodor
fjor
fjora
fjord
fjordane
fjordarm
fjorden
fjordene
fjorder
fjorten
fjortende
fjær
fjærdrakt
fjærdrakten
fjære
fjærvinger
fjørtoft
fjøs
fk
fl
fla
flaade
flag
flagg
flaggbærer
flaggbærere
flaggermus
flagget
flaggskip
flaggskipet
flags
flak
flames
flamme
flammer
flamsk
flamske
flandern
flanke
flash
flaske
flasker
flat
flatanger
flate
flaten
flater
flatt
flavius
fleet
fleetwood
fleire
fleischer
flekk
flekkefjord
flekker
fleksibel
fleksnes
fleming
flemming
flensburg
fler
flera
flere
flertall
flertallet
flest
fleste
flesteparten
fletcher
fleutiaux
flg
flid
flight
flikvinger
flink
flint
flittig
flo
floden
flok
flokk
flokken
flokker
flom
flommen
flood
floor
flor
flora
florence
flores
florett
florian
florida
florø
flott
flotte
flow
flower
flowering
flowers
floyd
flu
flue
fluene
fluer
flugt
flukt
flukten
flux
fly
flyene
flyers
flyet
flyets
flyfoto
flygende
flyger
flygere
flygtede
flying
flykte
flykter
flyktet
flyktning
flyktningene
flyktninger
flynn
flyplass
flyplassen
flyplasser
flyr
flyselskap
flyselskapet
flystasjon
flyt
flyte
flytende
flyter
flytta
flytte
flytter
flyttes
flyttet
flytting
flyttingen
flytypen
flyva
flyvende
flyver
flyvning
flyvninger
fløi
fløt
fløy
fløyen
fløyet
fløyte
fløyter
fm
fn
fns
fo
focus
fod
fogd
fogden
fogderi
foged
foix
fokker
fokus
fokusere
fokuserer
fokusert
fokuserte
fokuset
fol
foley
folk
folke
folkeavstemning
folkeavstemningen
folkeblad
folkeeventyr
folkeforbundet
folkegruppe
folkegrupper
folkehelseinstituttet
folkehøgskole
folkehøyskole
folkelig
folkelige
folkemengde
folkemengden
folkeminne
folkemord
folkemordet
folkemunne
folkemuseum
folkemusikk
folkene
folkeparti
folkepartiet
folkerepublikken
folkerike
folkeskolen
folkeslag
folket
folketall
folketallet
folketelling
folketellingen
folketellinger
folketellingsforma
folketinget
folketro
folkets
folkevalgt
folkevalgte
folkevandringstiden
folkeviser
folklore
folkma
folks
folldal
follo
follow
following
fond
fonda
fondet
fonds
fontaine
fontana
food
fool
foot
football
footballdatabase
footballsite
for
fora
forakt
foran
forandre
forandrer
forandres
forandret
forandring
forandringen
forandringer
forankret
foranlediget
foranstaltning
foranstaltninger
forargelse
forat
forbandt
forbannelse
forbauset
forbedre
forbedrede
forbedret
forbedring
forbedringer
forbehold
forbeholdt
forbeina
forberede
forberedelse
forberedelsene
forberedelser
forberedende
forbereder
forberedt
forberedte
forbes
forbi
forbiga
forbilde
forbilder
forbinde
forbindelse
forbindelsen
forbindelsene
forbindelser
forbinder
forbindes
forble
forblev
forbli
forblir
forblitt
forbrenning
forbruk
forbruker
forbrukere
forbrytelse
forbrytelsen
forbrytelser
forbud
forbudet
forbudt
forbudte
forbund
forbundet
forbundets
forbundne
forbundsdagen
forbundsra
forbundsrepublikken
forby
forbyr
forbød
force
forces
ford
fordeel
fordel
fordele
fordelen
fordelene
fordeler
fordeles
fordeling
fordelingen
fordelt
fordelte
fordi
fordommer
fordrede
fordrevet
fordring
fordringer
fordums
fordypning
fordømt
fordømte
fore
forebygge
forebyggende
forebygging
foredrag
foredragsholder
forega
foregaaende
foregik
foregikk
foreign
forekom
forekomme
forekommende
forekommer
forekommet
forekomst
forekomsten
forekomster
forela
foreldet
foreldre
foreldreløse
foreldrene
foreldrenes
foreleser
forelesninger
foreligger
forelsker
forelsket
forelæsninger
foreløbig
foreløpig
foreløpige
forene
forenede
forening
foreningen
foreningens
foreninger
forenings
forenklet
forent
forente
foresla
foreslo
forespørsel
forest
foresta
forestie
forestille
forestiller
forestilling
forestillingen
forestillingene
forestillinger
foreta
foretage
foretak
foretaket
foretar
foretas
foretatt
foretog
foretok
foretrakk
foretrekker
foretrukket
foretrukne
forever
forez
forf
forfall
forfalt
forfatning
forfatningen
forfatter
forfattere
forfatteren
forfatterens
forfatterkatalogen
forfatterliste
forfatterne
forfattersentrums
forfatterskap
forfatterskapet
forfattet
forfedre
forfedrene
forferdelig
forflytte
forflyttet
forfremmet
forfulgt
forfulgte
forfædre
forfølge
forfølgelse
forfølgelsen
forget
forgiftet
forgjenger
forgjengere
forgjengeren
forgjeves
forgjæves
forgotten
forha
forhandle
forhandler
forhandlet
forhandlingene
forhandlinger
forhandlingerne
forhen
forhenværende
forhindre
forhindrer
forhindret
forhistorie
forhistorisk
forhistoriske
forhold
forholde
forholdene
forholder
forholdet
forholdsvis
forholdt
forhør
forhøyet
forinden
forkant
forkanten
forkastet
forkjemper
forklare
forklarer
forklares
forklaring
forklaringen
forklaringer
forklart
forklarte
forkledd
forkortede
forkortelse
forkortelsen
forkortes
forkortet
forkropp
forkroppen
forl
forlade
forladt
forlag
forlaget
forlagets
forlags
forlagt
forlangte
forlate
forlater
forlatt
forlegger
forleggeren
forlenge
forlengelse
forlengelsen
forlenget
forlig
forliget
forlik
forlis
forliset
forliste
forlod
forlot
forlovede
forlovet
forlængst
forløb
forløp
forløper
forløperen
form
forma
formand
formann
formannen
formannskap
formannskapet
formannskapsdistrikt
formasjon
formasjonen
formasjoner
format
formater
formatet
formation
forme
formede
formedelst
formel
formelen
formelig
formell
formelle
formelt
formen
formene
former
formet
formiddag
formiddagen
formidle
formidler
formidlet
formidling
formode
formodentlig
formodning
formoe
forms
formue
formuen
formula
formulert
formulerte
fornavn
fornavnet
fornebu
fornemme
fornemmelig
fornemste
fornuft
fornuftig
fornybar
fornye
fornyelse
fornyet
fornærmet
fornødne
fornøyd
forord
forordet
forordning
forordningen
forordninger
forover
forpligtelse
forpliktelser
forpliktet
forra
forrest
forresten
forretning
forretningen
forretninger
forretningsmann
forretningsmannen
forrige
forræderi
forsaavidt
forsamling
forsamlingen
forsamlinger
forsberg
forside
forsiden
forsikre
forsikret
forsikring
forsiktig
forsinkelser
forsinket
forsker
forskere
forskeren
forskerne
forsket
forskjel
forskjell
forskjellen
forskjellene
forskjeller
forskjellig
forskjellige
forskning
forskningen
forsknings
forskningsdata
forskningsdatas
forskningsdokumentasjonssystemet
forskningsinstitutt
forskningsra
forskrift
forskriften
forskrifter
forslag
forslagene
forslaget
forsoning
forsta
forstaa
forstaaelse
forstaaes
forstaar
forstad
forstaden
forstand
forstander
forstedene
forsteder
forster
forsterke
forsterker
forsterket
forsterkninger
forsto
forstod
forstyrre
forstyrrelse
forstyrrelser
forstyrret
forstørrede
forstørrelse
forstørret
forsvandt
forsvant
forsvar
forsvare
forsvarer
forsvarerne
forsvaret
forsvarets
forsvarlig
forsvarsdepartementet
forsvarsminister
forsvarssjef
forsvarsspiller
forsvart
forsvarte
forsvinne
forsvinner
forsvunnet
forsyne
forsyner
forsynet
forsyninger
forsynt
forsøg
forsøge
forsøgte
forsøk
forsøke
forsøkene
forsøker
forsøket
forsøksheat
forsøksheatene
forsøksheatet
forsøkt
forsøkte
forsørge
fort
fortalt
fortalte
forte
fortegnelse
fortelle
forteller
fortelleren
fortelles
fortelling
fortellingen
fortellingene
fortellinger
fortere
fortet
forth
fortid
fortiden
fortidsminneforeningen
fortjener
fortjeneste
fortjenester
fortjenstmedalje
fortjenstorden
fortjent
fortjente
fortolkning
fortrinnsvis
fortrolig
fortrolige
fortsatt
fortsatte
fortsette
fortsettelse
fortsettelsen
fortsetter
fortuna
fortune
fortvilelse
fortvilet
fortykkede
fortælle
fortæller
fortælles
fortælling
fortællingen
fortællinger
forud
foruden
forum
forurenset
forurensning
forut
foruten
forutsatt
forutsetning
forutsetninger
forutsetter
forvalte
forvalter
forvaltes
forvaltet
forvaltning
forvaltningen
forvandle
forvandler
forvandlet
forvandling
forvaring
forveien
forveksles
forvekslet
forveksling
forvente
forventede
forventer
forventes
forventet
forventning
forventninger
forverret
forvillet
forvingen
forvingene
forvingens
forvirrende
forvirret
forvirring
forvist
forward
forældre
forøvrig
forøvrigt
fosen
fosnes
foss
fosse
fossen
fosser
fossil
fossile
fossiler
fossilworks
fossum
foster
fot
fotball
fotballag
fotballaget
fotballdommer
fotballen
fotballforbund
fotballforbundet
fotballkarriere
fotballklubb
fotballklubben
fotballklubber
fotballkrets
fotballrelaterte
fotballspiller
fotballspillere
fotballspilleren
fotballstadion
fotballtrener
fotballturneringen
foten
fotfeste
foto
fotograf
fotografen
fotografer
fotografert
fotografi
fotografier
fots
fotspor
fougner
found
foundation
foundations
founder
four
fourth
fowler
fox
fr
fra
fraa
frac
fraflyttet
fragment
fragmenter
fraksjon
fraksjonen
fraksjoner
frakt
frakte
frakter
fraktes
fraktet
fram
framework
framfor
framføring
framført
framførte
framgang
framme
framover
framsta
framstille
framstilling
framstilt
framstilte
framtid
framtida
framtiden
framtidige
framtredende
framveksten
fran
franc
france
frances
francesca
francesco
franchise
francis
francisco
francisturbin
franck
franco
francois
frank
franken
frankenstein
frankerne
frankernes
frankfurt
frankfurter
frankie
frankiske
franklin
frankrige
frankrike
frankrikerelaterte
frankrikes
franks
frans
fransk
franske
franskmannen
franskmenn
franskmennene
franskspra
frantis
frants
frantz
franz
frara
frasen
fraser
fratatt
fratra
frau
frauen
fravær
fraværende
fraværet
fre
freak
frecuentes
fred
fredag
freddie
freddy
fredede
fredelig
fredelige
freden
fredensborg
frederic
frederick
frederik
frederikke
frederiks
frederiksberg
frederiksborg
fredet
fredløs
fredløse
fredning
fredningen
fredrik
fredrikke
fredriksen
fredrikshald
fredriksstad
fredrikstad
fredriksten
freds
fredsavtale
fredsavtalen
fredsbevarende
fredspris
fredstid
free
freebase
freebsd
freedom
freeman
freestyle
freestylekjører
fregatten
frei
freiburg
freie
freiherr
frekvens
frekvensen
frekvenser
frelse
frelsers
frelsesarmeen
frelsesarmeens
frelst
frem
fremad
frembringe
fremdeles
fremdrift
fremfor
fremføre
fremfører
fremføres
fremføring
fremført
fremførte
fremga
fremgaar
fremgang
fremgangsma
fremgangsmaade
fremhevet
fremholdt
fremkant
fremkom
fremkommer
fremlagt
fremme
fremmed
fremmede
fremmedspra
fremmer
fremmet
fremover
fremragende
fremre
fremsatt
fremsatte
fremskritt
fremskrittspartiet
fremst
fremsta
fremste
fremstille
fremstiller
fremstilles
fremstilling
fremstillingen
fremstillinger
fremstilt
fremstilte
fremsto
fremstod
fremt
fremtid
fremtiden
fremtidens
fremtidig
fremtidige
fremtredende
fremveksten
french
frequency
frequent
fresh
freud
frey
fri
frich
frida
friday
fridtjof
frie
friedman
friedrich
friend
friends
friendship
friere
friesland
frifunnet
frigg
frigitt
frigjort
frigjør
frigjøre
frigjøring
frigjøringen
frihed
frihet
friheten
friidrett
friidrettrelaterte
friidrettsforbund
friidrettsforbundet
friidrettsutøver
friis
frikjent
friksjon
friluftsliv
frimerke
frimerker
frimurerorden
frisch
frisinnede
frisk
friske
friskt
frist
fristaten
fristil
frit
fritatt
frithjof
fritid
fritt
frittsta
frittsvevende
fritz
friuli
frivillig
frivillige
fro
frode
frodig
froeschle
frogn
frogner
frokost
froland
from
fromme
fron
front
fronten
fronter
frontfigur
frontier
frontiers
frosset
frost
frosta
frp
fru
frue
fruen
frukt
fruktbare
frukten
fruktene
frukter
fry
fryd
frydenlund
frygia
frygt
frykt
fryktelig
frykten
frykter
fryktet
fryser
frænde
frænder
frø
frøene
frøken
frølich
frøy
frøya
frøydis
fs
ft
ftp
fu
fuchs
fuck
fuel
fuge
fugl
fuglearter
fuglekunnskap
fuglen
fuglenavn
fuglene
fugler
fuglspinnere
fujian
fujiwara
fuktig
fuktige
fuktighet
fuld
fulde
fuldkommen
fuldmagt
fuldstændig
fuldstændigt
fuldt
fulgt
fulgte
fulham
full
fulle
fuller
fullføre
fullfører
fullføres
fullført
fullførte
fullmakt
fullmakter
fullmektig
fullstendig
fullstendige
fullt
fulltekst
fullverdig
fun
funan
function
fund
fundament
fundamental
fundamentale
fundamentet
fundet
funeral
funet
fungere
fungerende
fungerer
fungert
fungerte
funk
funksjon
funksjonalitet
funksjonelle
funksjonen
funksjonene
funksjoner
funksjonshemmede
funn
funnene
funnet
funnstedet
funny
fur
fure
furer
further
furu
furuholmen
furuset
fury
fusion
fusjon
fusjonen
fusjonert
fusjonerte
fussballdaten
futsal
future
futurum
fuzhou
fv
fw
fy
fylde
fylke
fylkene
fylker
fylkes
fylkesbaatane
fylkeskommune
fylkeskommunen
fylkesleksikon
fylkesmann
fylkesmannen
fylkesordfører
fylkesra
fylkesting
fylkestinget
fylkestingsvalget
fylkesveg
fylkesvei
fylket
fylkets
fyll
fylle
fyller
fylles
fyllingen
fyllingsdalen
fylt
fylte
fyn
fyr
fyre
fyresdal
fyret
fyri
fyringsolje
fyrir
fyrr
fyrst
fyrstbispedømmet
fyrste
fyrstedømmet
fyrsteerkebiskop
fyrsten
fyrster
fyrstinne
fyrta
fysiker
fysikeren
fysikk
fysikken
fysiologi
fysisk
fysiske
fædrelandsvennen
fælles
fængsel
fær
færd
færder
færdig
færdige
færre
færrest
færøerne
færøyene
færøyenes
færøysk
færøyske
fød
fødder
føde
fødeby
føder
føderal
føderale
føderalt
føderasjon
føderasjonen
fødes
fødested
fødestedet
fødsel
fødselen
fødselsa
fødselsdag
fødsler
født
fødte
føle
følelse
følelsen
følelsene
følelser
føler
føles
følge
følgelig
følgen
følgende
følger
følges
følget
følsomme
følt
følte
før
førde
føre
føren
førend
fører
førere
føreren
førerne
føres
føroya
først
første
førsteamanuensis
førstelag
førstelaget
førsteplass
førsteplassen
førstesekretær
førstnevnte
førstningen
ført
førte
førtes
førti
føttene
føtter
føydale
g
ga
gaa
gaae
gaaer
gaaet
gaar
gaard
gaarde
gaarden
gaarder
gaardnavne
gaat
gabon
gabriel
gabriela
gabriele
gabrielle
gabrielsen
gad
gaddafi
gade
gaden
gaeta
gaetano
gaga
gage
gahan
gahr
gaia
gail
gaius
gal
gala
galaksen
galakser
galatia
galaxy
gale
galeazzo
galen
galerucinae
gales
galicia
galicja
galilea
galilei
galileo
galina
galitsj
gallagher
galle
gallen
galleri
gallerier
galleriet
gallery
gallia
gallimard
galliske
gallo
galloway
galskap
galt
galtung
galtvort
gama
gamal
gambia
game
gamefaqs
gamer
games
gamespot
gaming
gamla
gamle
gamlebyen
gamma
gammal
gammarida
gammaridae
gammaridea
gammarus
gammel
gammeldags
gammelengelsk
gammelgresk
gammelnorsk
gammelt
gan
gandhi
gang
ganga
gangadynastiets
gange
gangen
gangene
ganger
ganglbauer
ganske
gansu
gao
gap
gar
garantert
garanti
garborg
garci
garcia
gard
garde
garden
gardens
gardermoen
gardiner
gardman
gardner
gards
gareth
garfield
garland
garman
garmisch
garn
garnison
garnisonen
garrett
garrison
gartner
gary
gas
gascogne
gaspar
gass
gassen
gasser
gasskraftverk
gaston
gata
gate
gaten
gatene
gater
gates
gattung
gauldal
gaulle
gaup
gausdal
gauss
gaustad
gaute
gav
gave
gaven
gaver
gaves
gavin
gay
gaya
gaza
gazastripen
gazette
gazetteer
gb
gbif
gbr
gc
gdan
ge
gear
geelmuyden
gegen
gegenwart
geilo
geir
geiranger
geirr
geistlig
geistlige
geistligheden
geit
geiter
gejstlige
gel
geldern
gemeente
gemeinden
gemeindeverzeichnis
gemeinsame
gemini
gen
gender
gene
genealogics
genealogy
geneastar
gener
genera
general
generaldirektør
generalen
generalene
generaler
generalforsamling
generalforsamlingen
generalguvernør
generalkaptein
generalkonsul
generalløytnant
generalmajor
generalsekretær
generalstaben
generalvikar
generasjon
generasjonen
generasjoner
generasjons
generating
generation
generator
generatorer
generell
generelle
generelt
generere
generic
genes
genesis
genet
genetic
genetics
genetikk
genetisk
genetiske
geni
genitiv
genius
gennaio
gennem
genocide
genom
genome
genova
genre
gent
gentleman
genus
geo
geoff
geoffrey
geoffroy
geograf
geografi
geografirelaterte
geografisk
geografiske
geographic
geographical
geographies
geography
geolog
geologi
geological
geologisk
geologiske
geology
geometri
geometridae
geometrisk
geometriske
geonames
georg
george
georgernes
georges
georgetown
georgia
georgias
georgij
georgios
georgisk
georgiske
geoservices
ger
gera
gerais
gerald
gerard
gerd
gerda
gerdil
gerhard
gerhardsen
gerlach
germain
german
germania
germaniae
germaniske
germansk
germanske
germany
germar
gerrard
gerry
gert
gertrud
gertrude
gerundium
ges
gesandter
geschichte
gesellschaft
gest
gesta
gestapo
gestro
get
gets
getting
getty
getz
gevinst
gevær
gg
ghana
ghanesisk
ghassanidene
ghassanidenes
ghazi
gheorghe
ghost
ghosts
gi
giacomo
gian
gianni
giant
giants
gibb
gibbons
gibbs
gibraltar
gibson
gid
gideon
gift
gifte
gifter
giftermaal
giftet
giftig
giftige
gigantisk
gik
gikk
gil
gilbert
gilde
gildeska
giles
gill
gille
gilles
gillespie
gilmour
gimbart
gimle
gina
gion
giordano
giorgio
giovanni
gir
girard
giray
girkasse
girl
girls
giro
girolamo
gis
giske
gisle
gisler
gissel
gissur
gistel
git
gitar
gitaren
gitarer
gitarist
gitaristen
gitt
gitte
giulia
giulio
giuseppe
giv
give
given
giver
gives
givet
givne
gjaldt
gjedde
gjekk
gjeld
gjelde
gjelden
gjeldende
gjelder
gjemme
gjemmer
gjems
gjemt
gjemte
gjena
gjenbruk
gjendiktning
gjenerobre
gjenerobret
gjenforening
gjenforeningen
gjenforent
gjeng
gjengen
gjenger
gjengi
gjengir
gjengitt
gjengivelse
gjengjeld
gjeninnført
gjeninnsatt
gjenkjenne
gjenlevende
gjennem
gjennom
gjennombrudd
gjennombruddet
gjennomføre
gjennomfører
gjennomføres
gjennomføring
gjennomføringen
gjennomført
gjennomførte
gjennomga
gjennomgang
gjennomgikk
gjennomsiktig
gjennomsiktige
gjennomslag
gjennomsnitt
gjennomsnittet
gjennomsnittlig
gjennomsnittlige
gjenoppbygd
gjenoppbygget
gjenoppbygging
gjenoppbyggingen
gjenoppdaget
gjenopprette
gjenopprettet
gjenoppta
gjenopptatt
gjenopptok
gjenreist
gjensidig
gjensidige
gjenskape
gjenspeiler
gjenspeiles
gjensta
gjenstand
gjenstandene
gjenstander
gjenta
gjentar
gjentas
gjentatt
gjentatte
gjentok
gjenutgitt
gjenvalg
gjenvalgt
gjenvinne
gjenværende
gjer
gjera
gjerde
gjerdrum
gjermund
gjerne
gjerning
gjerninger
gjerpen
gjerstad
gjertsen
gjesdal
gjest
gjestebud
gjestene
gjesteopptredener
gjester
gjestet
gjette
gjorde
gjort
gjældende
gjælder
gjærevoll
gjødsel
gjødselbiller
gjør
gjøre
gjøres
gjøvik
gjøvikbanen
gl
gla
glacier
glad
glade
gladys
glans
glansvinger
glas
glasgow
glass
glasset
glassverk
glatt
glatte
gled
glede
gleden
gleder
gleditsch
glemme
glemmer
glemselen
glemt
glemte
glen
glenea
glenn
gli
glimrende
glimt
glinsende
glipp
glo
global
globale
globalt
globe
globo
glogau
glomma
gloppen
gloria
glory
glossata
gloucester
glover
glu
gluntan
glywysing
glæde
glødende
gm
gmbh
gn
gnaeus
gnager
gnagere
gnd
gnome
gnr
gnu
go
goa
goal
goals
gob
goble
god
gode
goder
godes
godfrey
godkjenne
godkjennelse
godkjennes
godkjenning
godkjent
godkjente
godman
gods
godseier
godset
godt
godta
godtar
godtatt
godtok
godwin
godzilla
goebbels
goes
goethe
gog
gogh
goguryeo
goia
going
gojoseon
gol
gold
goldberg
golden
goldman
goldwyn
golf
golfklubb
golfspiller
goliathini
gomes
gomez
gon
gonc
gondor
gone
gong
gonna
gonza
gonzaga
gonzalez
gonzalo
good
goodbye
goodman
goodwin
google
gorbatsjov
gordon
gore
gorham
gorm
gory
goryeo
gospel
got
goterne
gotha
gothic
gotisk
gotiske
gotland
gott
gottfried
gottlieb
gottorp
gould
gouv
gov
government
governor
gp
gps
gr
gra
graa
grace
gracilis
grad
graden
gradene
grader
graduate
gradvis
graeme
graf
graff
graffiti
grafiker
grafikk
grafisk
grafiske
graham
gram
grammar
grammatikk
grammofon
grammy
gran
grana
granada
granater
grand
grande
grandis
grane
granger
granitt
granlund
granske
granskning
grant
grants
granvin
grappa
gras
grass
gratis
grav
gravd
grave
graven
gravene
gravenhorst
graver
graves
gravferdsetaten
gravhauger
gravid
gravide
gravitasjon
gravlagt
gravlund
gravlunden
gravminnebase
gravminnedata
gravminner
gravplass
gravsted
gravstedet
gray
graz
gre
great
greater
greatest
greb
greece
greek
green
greene
greenland
greenwich
greenwood
greer
grefsen
greg
gregers
gregg
gregor
gregorianske
gregorio
gregorius
gregory
grei
greide
greie
greier
greiner
greit
grekere
grekerne
gren
grenada
grenadinene
grend
grenda
grenen
grenene
grener
grenland
grenoble
grensa
grense
grensen
grensene
grenseomra
grenser
grensesnitt
grenset
grenzau
grep
grepet
gresk
greske
gress
gresset
gressitt
greta
grete
grethe
grev
greve
greven
grevinne
grevskap
grevskapet
grey
gribe
grid
grieg
griegs
griffin
griffith
griffiths
grigorij
grim
grimm
grimstad
grini
grip
gripe
griper
gris
griser
gro
grobben
grong
groningen
gronkowski
groove
grop
groper
gror
grorud
groruddalen
gross
grosserer
grosso
groth
grotte
grotten
ground
group
groups
grov
grove
groven
groves
grovt
grow
growing
growth
große
gru
grubenhagen
gruber
grue
gruffydd
grund
grunde
grunden
grundig
grundlag
grundtvig
grunn
grunne
grunnen
grunnene
grunner
grunnet
grunnfarge
grunnkrets
grunnkretsen
grunnkretser
grunnla
grunnlag
grunnlaget
grunnlagt
grunnlegge
grunnleggelse
grunnleggelsen
grunnleggende
grunnlegger
grunnleggeren
grunnleggerne
grunnlov
grunnloven
grunnlovens
grunnskole
grunnskolen
grunnstoff
grunnstoffet
grunt
gruppa
gruppas
gruppe
gruppeleder
gruppen
gruppene
gruppens
grupper
gruppering
grupperinger
gruppespill
gruppespillet
grus
grusom
grusomme
gruve
gruvedrift
gruvedriften
gruven
gruvene
gruver
gruyter
gry
grytten
grændser
græske
grøn
grøndahl
grønland
grønlands
grønlandsk
grønlandske
grønn
grønne
grønneberg
grønnlig
grønnsaker
grønt
gs
gskola
gskolan
gsm
gt
gu
gua
guadalajara
guam
guangdong
guangxi
guangzhou
guard
guardian
guastalla
guatemala
gub
gud
gudbrand
gudbrandsdalen
guddom
guddommelig
guddommelige
guddommen
guddommer
gude
guden
gudene
gudenes
guder
gudinne
gudinnen
gudmund
gudrun
gudrød
guds
gudstjeneste
gudstjenesten
gudstjenester
gue
guernsey
guerra
guerre
guerrero
guest
guevara
guez
gugark
guggenheim
guglielmo
gui
guide
guides
guido
guignot
guild
guillaume
guillermo
guilty
guinea
guineas
guinness
guitar
guizhou
gujarat
guk
gul
gulaktig
gulaktige
gulbrandsen
gulbrun
gulbrune
guld
guldberg
gule
gulen
gulf
gull
gullalder
gullbasse
gullbasser
gullet
gullmedalje
gullmedaljen
gullmedaljer
gullruten
gult
gulv
gulvet
gummi
gun
gundersen
gunhild
gunn
gunnar
gunnarsson
gunnerus
gunnhild
guns
gunst
gunstig
gunstige
gunvor
guo
gur
guri
gurjara
guro
guru
gus
gustaf
gustafsson
gustav
gustave
gustavo
gustavsen
gut
guten
gutenberg
guthorm
guthrie
gutie
gutt
gutta
gutten
guttenavn
guttene
gutter
guttorm
guttormsen
guvernementet
guvernør
guvernøren
guy
guyana
guys
guzma
gv
gvaviðurskifti
gwalior
gwen
gwent
gwh
gwynedd
gwynek
gyalpo
gyatso
gylden
gyldendal
gyldendals
gyldendalske
gyldenløve
gyldig
gyldige
gyldne
gyllen
gyllenhal
gylne
gymnas
gymnaset
gymnasium
gymnast
gymnastics
gymnastikk
gynt
gyo
gypsy
gyrophaena
gyula
gælisk
gæliske
gøteborg
gøy
h
ha
haab
haag
haakon
haakons
haakonssøn
haakonssøns
haaland
haalogaland
haand
haanden
haandskrift
haandskrifter
haar
haard
haarde
haardt
haas
haben
haber
habitat
habitater
habsburg
hachberg
hackett
had
hadde
hade
hadeland
hades
hadrian
hadsel
hafa
haffde
haffner
haffue
haffuer
hafslund
haft
haga
hage
hageby
hagen
hagens
hager
hagerup
hagle
hagstofa
hagstova
hahn
hai
haifa
hail
haile
hainan
hair
haiti
haitis
hakim
hal
halden
hale
halen
haley
half
halfdan
halfpipe
halifax
hall
halland
halldor
halle
hallen
haller
hallingdal
hallo
halloween
hallvard
halmstad
halo
hals
halsen
halv
halva
halvannen
halvard
halvbror
halvdan
halvdel
halvdelen
halve
halveringstid
halvkule
halvkulen
halvma
halvmaraton
halvor
halvorsen
halvparten
halvsøster
halvt
halvveis
halvøy
halvøya
ham
hama
hamad
hamar
hamarkameratene
hamars
hamarøy
hamas
hambro
hamburg
hamburger
hamburgs
hamid
hamilton
hamkam
hamlet
hamm
hammarby
hammer
hammeren
hammerfest
hammond
hampshire
hampton
hamre
hamsun
han
hana
hanariket
hanau
hancock
hand
handball
handbook
handbuch
handel
handelen
handels
handelsfla
handelshøyskole
handelshøyskolen
handelsmann
handelsmenn
handelssenter
handelsskip
handelssted
handle
handler
handlet
handling
handlingen
handlingene
handlinger
handlingsplan
hands
hane
hang
hangarskip
hangul
hangzhou
hank
hankjønn
hann
hanna
hannah
hanne
hannem
hannen
hannene
hannens
hanner
hannes
hannibal
hanno
hannover
hanns
hanoi
hanom
hans
hansa
hansaby
hansard
hansards
hansen
hansens
hanshaugen
hanson
hanssen
hansson
hansteen
hanthawaddy
hao
happened
happiness
happy
har
hara
harald
haralds
haraldsen
haraldsson
haram
harbin
harbor
harbour
harcourt
hard
hardanger
hardangervidda
hardcore
hardcourt
harde
hardere
harding
hardingfele
hardra
hardrock
hardt
hardy
hare
hareid
hareide
hari
harket
harlan
harlem
harley
harlow
harm
harme
harmoni
harmonisk
harmoniske
harmony
harold
harpalinae
harpe
harper
harpercollins
harr
harriet
harrington
harris
harrison
harry
harstad
hart
hartford
hartmann
hartvig
harvard
harvest
harvey
has
hasan
hasle
hass
hassan
hasse
hassel
hast
hastighet
hastigheten
hastigheter
hastings
hat
hatch
hate
hater
hatet
hatt
hatten
hattfjelldal
haug
haugan
hauge
haugen
hauger
haugerud
haugesund
haugesunds
haugland
hauk
haukeland
haus
haute
hav
hava
havanna
havarerte
havbunnen
havde
have
havel
haven
haver
haves
havet
havets
havilland
havn
havna
havne
havneby
havnebyen
havnen
havnene
havneomra
havner
havnet
havniva
havomra
havre
havs
havt
hawaii
hawk
hawker
hawkins
hawks
hawley
hay
hayashi
hayden
haydn
hayes
haymarket
hayward
hazel
hba
hbo
hbw
hc
hd
he
head
headache
heads
health
hear
heard
heart
hearts
heat
heath
heather
heats
heaven
heavy
heavyweight
hebei
hebraisk
hebraiske
hebridene
heckert
hector
hed
hedda
heddaprisen
hedder
hede
hedemarken
hedensk
hedenske
hedenstad
heder
hederspris
hederstegn
hedmark
hedninger
hedre
hedret
hedvig
hee
heel
heelt
heer
heerenveen
hefir
hefte
hefter
heftet
heftig
heftige
hege
hegel
hegerberg
hegge
hegnar
hegra
hei
heia
heiberg
heide
heidelberg
heidi
heights
heil
heile
heiligen
heilo
heilongjiang
heilt
heim
heimdal
heimevernet
heimskringla
hein
heine
heinemann
heinrich
heinz
heist
hejian
hekk
hekkeløp
hekker
heks
hektar
hel
hela
held
heldig
heldige
heldigvis
hele
heleid
helen
helena
helene
helg
helga
helge
helgeland
helgen
helgenen
helgener
helgesen
helhet
helhetlig
helikopter
helikopteret
helikoptre
helium
hell
helland
hellas
helle
hellenistisk
hellenistiske
heller
helleristninger
hellespontiske
hellig
helligdom
helligdommen
hellige
helliges
helligka
hello
helm
helmer
helmut
help
helse
helsedirektoratet
helsen
helseorganisasjon
helsepersonell
helsevesenet
helsingborg
helsingfors
helsingør
helsinki
helst
helt
heltall
heltberg
helten
helter
heltid
helvete
hem
hemmelig
hemmelige
hemmelighet
hemmeligheten
hemmeligheter
hemmer
hemmet
hemnes
hemsedal
hen
henan
hende
hendelse
hendelsen
hendelsene
hendelser
hendene
hender
henderson
hendes
hendrich
hendrik
hendrix
hendt
hendte
henføres
henge
hengende
henger
hengt
henhold
henholdsvis
henie
henimod
henlagt
henley
hennar
henne
hennes
henning
henover
henrette
henrettelse
henrettelsen
henrettelser
henrettet
henri
henrich
henriette
henrik
henriks
henriksen
henrique
henry
henryk
henseende
henseender
hensigt
hensikt
hensikten
hensiktsmessig
henspiller
hensyn
henta
hente
henter
hentes
hentet
henved
henvende
henvendelse
henvender
henvendte
henvise
henviser
henvisning
henvist
henviste
hepburn
her
hera
herad
heraf
herakles
herald
heraldisk
heraldiske
herav
herb
herbert
herbst
hercegovina
hercules
herder
here
herefter
heretter
herfra
heri
heritage
herje
herjet
herkomst
herkules
herlig
herlige
herman
hermann
hermansen
hermed
hermes
hermine
herna
hernes
herning
hero
herodes
herodot
herodotos
heroes
heroin
heroiske
herom
herpaa
herr
herre
herred
herredømme
herredømmet
herrega
herrelag
herrelandslag
herrelandslaget
herren
herrene
herrenes
herrens
herrer
herrera
herresyklister
herrich
herrmann
herschel
herske
herskede
herskende
hersker
herskere
herskeren
herskerne
hersket
hersleb
hertil
hertug
hertugdømmet
hertugen
hertugene
hertugens
hertuginne
hertz
hertzberg
herunder
herved
herzegovina
herzog
herøy
hesiod
hesperiidae
hesperioidea
hess
hessen
hest
heste
hestekrefter
hesten
hestene
hester
hestesport
het
hete
hetende
heter
heteroneura
hetland
hette
heuristikk
hev
hevde
hevder
hevdes
hevdet
heve
hever
hevet
hevn
hevne
hewitson
hey
heydrich
heyerdahl
hf
hg
hhv
hi
hibernian
hicks
hid
hidalgo
hidden
hide
hidtil
hierarchy
hierarki
hierarkisk
hieronymus
higgins
high
higher
highland
highway
hiin
hiint
hilary
hilda
hilde
hildegard
hill
hillary
hillestad
hills
hilmar
hilse
hilsen
hilste
hilton
him
himalaya
himalayan
himjar
himlen
himmel
himmelen
himmelens
himmelske
himmler
hin
hinanden
hindenburg
hinder
hindi
hindre
hindrer
hindret
hindring
hindringer
hindu
hinduer
hinduismen
hine
hinn
hins
hinsides
hint
hip
hiphop
hippolyte
hirden
hiroshima
hirsch
his
hisn
hispania
hispinae
hist
histeridae
histo
histoire
historia
historians
historic
historical
historie
historielag
historien
historiene
historiens
historiep
historier
historierelaterte
histories
historiker
historikere
historikeren
historikerne
historikk
historische
historisches
historisk
historiske
history
hit
hitchcock
hitler
hitlers
hitlisten
hitlistene
hitra
hits
hitta
hittil
hiv
hizbollah
hja
hjaa
hjalmar
hjalp
hjel
hjelm
hjelmeland
hjelmen
hjelp
hjelpe
hjelpebiskop
hjelpemiddel
hjelpemidler
hjelper
hjeltnes
hjem
hjemby
hjembyen
hjemkomst
hjemkomsten
hjemland
hjemlandet
hjemlige
hjemløse
hjemme
hjemmebane
hjemmebanen
hjemmefra
hjemmefronten
hjemmehørende
hjemmekamp
hjemmekampene
hjemmekamper
hjemmel
hjemmeseier
hjemmeside
hjemmesiden
hjemmesider
hjemmet
hjemmets
hjemsted
hjemstedet
hjerne
hjernen
hjerneslag
hjerte
hjerteformet
hjerteinfarkt
hjerter
hjertet
hjertets
hjo
hjort
hjortebille
hjortebiller
hjorth
hjul
hjulene
hjulet
hjulpet
hjælp
hjælpe
hjørne
hjørnene
hjørner
hjørnet
hk
hl
hle
hler
hlten
hm
hmen
hms
hn
hne
ho
hob
hobbs
hobby
hobson
hoc
hochmeister
hochschule
hockey
hockeydb
hode
hodepine
hoder
hodet
hodets
hodgson
hoe
hoel
hoem
hof
hoff
hoffet
hoffman
hoffmann
hogan
hogd
hogg
hogne
hohenzollern
hokkaido
hokksund
hol
holberg
holbergs
hold
holde
holden
holdent
holdeplass
holdeplassen
holder
holdes
holding
holdning
holdningen
holdninger
holdt
holdtes
hole
holger
holiday
holland
hollandsk
hollandske
hollow
holloway
holly
hollywood
holm
holman
holmberg
holmboe
holme
holmen
holmenkollen
holmer
holmes
holmestrand
holmsen
holocaust
holom
holometabole
holst
holstein
holsten
holt
holta
holte
holter
holtermann
holthuis
holy
holzschuh
homburg
home
homer
homers
homme
homo
homofil
homofile
homofili
hon
honda
honduras
honey
hong
hongkong
honning
hono
honolulu
honom
honor
honorary
honore
honorius
honour
honours
honum
hood
hook
hooker
hooper
hoover
hop
hope
hopen
hopkins
hopp
hoppbakke
hoppe
hopper
hoppet
hoppuka
horace
hordaland
horde
hordens
hordes
horisontal
horisontale
horisontalt
horisonten
horizon
horn
hornbille
hornbiller
horne
hornene
hornet
hornnes
horror
horse
horsens
horst
horten
horthy
horton
horus
hos
hospital
hospitalet
hospitallerordenen
hoss
host
hot
hotel
hotell
hoteller
hotellet
hotels
hotspur
hou
houghton
hour
hours
house
houses
housing
houston
hov
hovden
hove
hoved
hoveda
hovedartikkel
hovedbanen
hovedbase
hovedbelteasteroide
hovedbygning
hovedbygningen
hoveddelen
hovedet
hovedfag
hovedfokus
hovedga
hovedinngangen
hovedkirke
hovedkontor
hovedkontoret
hovedkvarter
hovedkvarteret
hovedma
hovedmesterskapet
hovedomra
hovedoppgave
hovedperson
hovedpersonen
hovedpersonene
hovedrolle
hovedrollen
hovedrollene
hovedsak
hovedsakelig
hovedsete
hovedstad
hovedstaden
hovedstadens
hovedtrener
hovedtyper
hovedvei
hovedveien
hovedvekt
hovedverk
hovedøya
hovin
hovland
how
howard
howden
howe
howell
hoyo
hoysalariket
hp
hr
hren
hrer
hrsg
hrung
hrvatska
hs
hsd
htc
htm
html
http
https
hu
hua
huang
huawei
hub
hubbard
hubble
hubei
huber
hubert
hud
huden
hudskjelettet
hudson
hue
huer
huffington
hug
hugge
hugget
hugh
hughes
hugo
hui
huitfeldt
hukommelse
hul
hulda
hule
hulen
huler
hull
hullet
hulrom
human
humaniora
humanist
humanistisk
humanistiske
humanitær
humanitære
humbert
humblot
humboldt
hume
humler
humlesnurr
hummere
humor
humoristisk
humoristiske
humphrey
humør
hun
hunan
hund
hunde
hunden
hundene
hunder
hunderase
hunderaser
hundre
hundrea
hundred
hundrede
hundrevis
hung
hungarian
hungary
hunger
hungersnød
hunkjønn
hunn
hunnen
hunnene
hunnens
hunner
hunt
hunter
hunting
hur
hurdal
hurdles
hurley
hurra
hurricane
hurt
hurtig
hurtigba
hurtige
hurtigere
hurtigløp
hurtigruten
hurtigt
hurum
hus
husarrest
husayn
husband
husby
husdyr
husdyrhold
huse
huseby
husene
huser
huset
husets
husholdning
husholdninger
hushovd
husk
huske
husker
huskes
husket
husmor
hussain
hussein
husstander
hustad
hustru
hustruen
hustruer
hutchinson
huus
huxley
huygens
hv
hva
hvad
hval
hvalba
hvaler
hvalfangst
hvelvede
hvelvet
hvem
hver
hverandre
hverandres
hverdag
hverdagen
hverken
hverr
hvert
hverv
hvete
hvid
hvide
hvile
hvileperiode
hviler
hvilke
hvilken
hvilket
hvilte
hvis
hvisket
hvit
hvite
hviterussisk
hviterussiske
hviterussland
hvitt
hvo
hvor
hvoraf
hvorav
hvordan
hvorefter
hvoretter
hvorfor
hvorfra
hvorhen
hvori
hvoriblandt
hvorimod
hvorledes
hvormed
hvorom
hvorpa
hvorpaa
hvortil
hvorved
hvorvidt
hyacinthe
hybrid
hyde
hyderabad
hydraena
hydro
hydrogen
hydrologiska
hydrophilidae
hye
hyggelig
hygiene
hylle
hyllest
hyllet
hymenoptera
hymn
hymne
hyperiidea
hypotese
hypotesen
hypoteser
hyppig
hyppige
hyppigere
hytta
hytte
hytten
hytter
hyun
hyundai
hz
hæder
hænde
hænder
hænderne
hændte
hær
hæren
hærene
hærens
hærer
hærfører
hætta
hævet
hødd
høeg
høegh
høg
høgre
høgskole
høgskolen
høgskulen
høi
høide
høie
høiere
høieste
høifødt
høiland
høire
høist
høit
høj
høje
højere
højst
højt
høland
hønefoss
hør
høre
hørende
hører
høres
hørespill
høring
hørt
hørte
hørtes
høst
høsten
høstet
høstutstillingen
høvding
høvdingen
høvdinger
høvik
høy
høyanger
høybra
høyde
høydehopp
høyden
høydene
høydepunkt
høydepunkter
høydepunktet
høyder
høye
høyem
høyere
høyereliggende
høyest
høyeste
høyesteprest
høyesterett
høyesterettsadvokat
høyesterettsdommer
høykommissær
høykommisær
høyland
høylandet
høyre
høyres
høyresiden
høyskole
høyskolen
høyskoler
høyst
høyt
høytidelig
høytsta
i
ia
iaaf
iaafworldchampionships
iain
ialfald
iallfall
ian
iat
iata
iau
ib
iba
ibc
iberia
iberiske
ibge
ibid
iblandt
iblant
ibm
ibn
iboende
ibrahim
ibsen
ibsens
ibsf
ibu
ic
ica
icao
icar
icarus
ice
iceland
icf
ich
icke
icon
id
ida
idag
idaho
idar
ide
idea
ideal
idealer
ideas
ideell
ideelle
ideelt
ideen
ideene
ideer
identification
identifikator
identifisere
identifiserer
identifiseres
identifisert
identifiserte
identisk
identiske
identitet
identiteten
identity
ideologi
ideologisk
ideologiske
idet
idetmindste
idol
idrett
idretten
idretter
idrettsanlegg
idrettsforbund
idrettsforening
idrettshall
idrettskrets
idrettslag
idrettslaget
idrettsleder
idrettsleksikon
idrettspark
idrettsutøver
idrettsutøvere
idris
idømt
ie
ieee
if
ifk
ifpi
ifra
ifraa
ifriqiya
ifølge
iført
ig
iga
igaar
igang
igangsatt
igen
igjen
igjennem
igjennom
iglesias
ign
ignacio
ignatius
ignaz
ignorert
igor
ihf
ihjel
ihr
ihre
ii
iihf
iii
iiis
iij
iis
ij
ik
ike
ikke
ikkje
ikt
il
ila
ild
ilde
ilden
iliaden
iliff
ilja
ill
ille
illegal
illegale
illinois
illustrasjon
illustrasjoner
illustrated
illustratør
illustrere
illustrerer
illustreret
illustrert
illustrerte
im
image
images
imago
imam
imdb
imellem
imellom
imens
imereti
imf
imidlertid
imiona
immanuel
immateriell
immigranter
imo
imod
imorgen
imot
impact
imperativ
imperator
imperfektum
imperial
imperiet
imperium
implementert
implications
imponerende
imponert
imponerte
import
important
importert
importerte
impossible
impulser
imslp
in
ina
inc
incertae
inch
incheon
including
incorporated
ind
indbyggere
indbyggerne
indbyrdes
inde
indeholde
indeholder
indeholdt
indeks
indeksen
inden
indenfor
independence
independent
indere
inderlig
inderøy
index
indfandt
indfinde
indflydelse
indfødte
indførelse
indført
indhold
india
indiahavet
indian
indiana
indianapolis
indianere
indianerne
indians
indianske
indias
indica
indie
indikasjon
indikasjoner
indikativ
indikere
indikerer
indikert
indikerte
indirekte
indisk
indiske
individ
individene
individer
individet
individual
individuell
individuelle
individuelt
indledning
indo
indoeuropeisk
indoeuropeiske
indokina
indonesia
indonesisk
indoor
indre
indretning
indtil
indtog
indtraf
indtryk
indtægter
indus
industcards
industri
industrial
industrialiseringen
industriell
industrielle
industrielt
industrien
industrier
industries
industriomra
industry
indviet
ine
inebase
inei
inen
inermis
infanteri
infanteridivisjon
infanteriet
infanteriregiment
infantry
infeksjon
infeksjoner
inferior
inferno
infinitiv
infinity
inflasjon
influence
influert
info
informasjon
informasjonen
informasjonsside
informasjonsteknologi
informatikk
informatikkrelaterte
information
informere
informerer
informert
informerte
infoside
infostradasports
infraorden
infrastruktur
infrastrukturen
infty
ing
inga
ingar
inge
ingebjørg
ingeborg
ingebrigtsen
ingemar
ingen
ingeniør
ingeniøren
ingeniører
ingenlunde
ingenting
inger
ingerid
inges
ingolf
ingredienser
ingrid
ingstad
ingunn
ingvald
ingvar
ingvild
inich
initiativ
initiative
initiativet
initiativtaker
injury
inka
inkariket
inki
inkje
inkji
inkl
inkludere
inkluderer
inkludert
inkluderte
inklusive
inn
inna
innad
innan
innb
innbefatter
innbefattet
innblandet
innblanding
innblikk
innbrakte
innbringende
innbuktet
innbygger
innbyggere
innbyggerne
innbyggertall
innbyggertallet
innbyrdes
innbytter
inndele
inndeles
inndeling
inndelingen
inndelinger
inndelt
inne
innebandy
innebar
innebygd
innebære
innebærer
inneha
innehadde
innehar
innehaver
inneholde
inneholder
inneholdt
innen
innendørs
innenfor
innenlands
innenriks
innenriksdepartementet
innenriksminister
inner
innerst
innerste
innfellbart
innflytelse
innflytelsen
innflytelsesrik
innflytelsesrike
innfødte
innføre
innføres
innføring
innføringen
innført
innførte
innga
inngang
inngangen
inngikk
inngrep
innhentet
innhold
innholdet
inni
innimellom
innkalling
innkalt
innkjøp
innkjøpt
innlagt
innlandet
innledende
innleder
innledet
innledning
innledningen
innledningsheatet
innledningsvis
innlegg
innlemmet
innløp
innløpet
innocens
innocent
innom
innovasjon
innovation
innovative
innover
innpa
innpass
innredet
innretning
innretninger
innrettet
innrømmer
innrømmet
innsa
innsamling
innsats
innsatsen
innsatt
innsatte
innsbruck
innser
innsiden
innsikt
innsjø
innsjødatabase
innsjøen
innsjøene
innsjøer
innskrevet
innskriften
innslag
innsnevret
innspill
innspilling
innspillingen
innspillingene
innspillinger
innspilt
innstiftet
innstilling
innstilt
innsyn
innta
inntak
inntar
inntatt
inntekt
inntektene
inntekter
inntil
inntog
inntok
inntraff
inntreffer
inntrykk
innvalgt
innvandrere
innvandret
innvandring
innvandringen
innvendig
innvielsen
innviet
innvilget
innvirkning
innvotert
inquiry
ins
inscriptions
insecta
insects
insee
insekt
insektene
insekter
inside
insider
insisterer
insisterte
inskripsjon
inskripsjonen
inskripsjoner
inspektør
inspirasjon
inspirasjonen
inspirasjonskilde
inspirere
inspirert
inspirerte
instagram
installasjon
installasjoner
installere
installert
instans
institusjon
institusjonen
institusjonene
institusjoner
institut
institute
institutet
institution
institutions
instituto
institutt
instituttet
instruksjoner
instruktør
instrument
instrumental
instrumentene
instrumenter
instrumentet
instruments
insulin
int
intakt
inte
integralet
integrasjon
integrated
integration
integrere
integrering
integrert
integrerte
integritet
intel
intellektuell
intellektuelle
intelligence
intelligens
intelligent
intens
intense
intensitet
intensiv
intensjon
intensjoner
intenst
inter
interactive
interception
interceptions
interessant
interessante
interesse
interessen
interesseorganisasjon
interesser
interessert
interesserte
interest
interim
interior
interiør
interiøret
interkommunalt
intermedia
intern
internal
internasjonal
internasjonale
internasjonalt
international
internationale
internazionale
interne
internert
internet
internett
internettside
internt
interpretation
interstate
intervall
intervensjon
interview
intervju
intervjuer
intervjuet
intet
into
intriger
intro
introduction
introduksjon
introduksjonen
introdusere
introduserer
introdusert
introduserte
invadere
invadert
invaderte
invasion
invasjon
invasjonen
invasjoner
inventar
invention
inverness
investere
investeringer
investert
investigation
investment
investor
investorer
invisible
invitasjon
invitational
inviterer
invitert
inviterte
involverer
involvert
involverte
io
ioc
iok
ion
iona
ioner
ios
iowa
ip
ipa
ipc
ipcc
iphone
ipsc
ipswich
ir
ira
irak
irakisk
irakiske
iraks
iran
iranian
iranica
irans
iransk
iranske
iraq
ire
ireann
ireland
irene
irer
irgens
irina
iris
irish
irland
irlands
irma
irmler
iron
ironi
ironisk
irsk
irske
irvine
irving
irwin
is
isa
isaac
isabart
isabel
isabella
isabelle
isachsen
isageum
isak
isaksen
isbjørn
isbn
isbre
isbreen
isbreer
isdans
ise
isen
isenburg
isfdb
isfjorden
ishockey
ishockeyklubb
ishockeyrelaterte
ishockeyspiller
ishockeyturneringen
isis
iskandar
isl
isla
islam
islamic
islamsk
islamske
island
islands
islandsk
islandske
isle
isles
ismail
isn
iso
isolasjon
isolde
isolert
isolerte
isotoper
ispa
ispahbed
israel
israeli
israels
israelsk
israelske
iss
issf
issn
issue
issues
ist
istanbul
istand
istat
isteden
istedenfor
istedet
istedetfor
istid
istiden
istituto
istria
istva
isu
isuresults
især
it
ita
italia
italian
italiana
italiane
italiani
italiano
italiarelaterte
italias
italien
italienerne
italiensk
italienske
italy
item
itf
ithaca
itis
ito
its
ittf
itu
itunes
itv
iu
iucn
iucnredlist
iucns
ius
iv
iva
ivan
ivanov
ivanovitsj
ivar
ivareta
ivaretar
ivaretatt
ivars
iveland
iver
iverksatt
iverksatte
iverksette
iversen
ivo
ivrig
ivrige
ivs
ivy
iwf
ix
iz
izz
iøvrigt
j
ja
jack
jackie
jackson
jacksons
jacksonville
jacob
jacobi
jacobs
jacobsen
jacobson
jacoby
jacopo
jacqueline
jacques
jade
jae
jaffa
jaffna
jag
jage
jager
jagerfly
jaget
jagger
jaguar
jaguars
jah
jahn
jahr
jahrbuch
jahre
jahren
jahrhundert
jahrhunderts
jai
jaime
jaintia
jaipur
jak
jakarta
jake
jakob
jakobs
jakobsen
jakt
jakte
jakten
jakter
jaktet
jaktstart
jaktstarten
jakub
jam
jamaica
jamaicansk
jamal
james
jameson
jamie
jammu
jan
jana
jane
janeiro
janet
jang
janis
janne
jansen
janson
janssen
jansson
januar
januari
january
januensium
janus
janusz
japan
japanerne
japanese
japans
japansk
japanske
japonica
jaqeli
jar
jared
jarl
jarle
jarlen
jarlens
jarls
jarlsberg
jaroslav
jaroslavl
jarvis
jason
jasper
jau
java
javier
jay
jaya
jayavarman
jayne
jaza
jazeera
jazz
jazzbasen
jazzfestival
jazzmusiker
jałoszyn
jd
je
jean
jeanette
jeanne
jeannel
jebsen
jedlicka
jeff
jefferson
jeffrey
jeg
jeger
jegere
jehovas
jei
jekaterina
jelena
jeløy
jemen
jemens
jemteland
jen
jena
jenkins
jenna
jennifer
jennings
jenny
jens
jensen
jenssen
jensson
jenta
jente
jentene
jenter
jeong
jeppe
jer
jeremy
jerevan
jern
jernalder
jernalderen
jernbane
jernbaneklubb
jernbaneklubbs
jernbanelinjen
jernbanemuseum
jernbanen
jernbanenettet
jernbaner
jernbanestasjon
jernbanestasjonen
jernbaneverket
jernkorset
jernmalm
jernverk
jerome
jerry
jersey
jerusalem
jerv
jerzy
jesper
jespersen
jess
jesse
jessen
jessheim
jessica
jessie
jesu
jesuitt
jesuittene
jesuittenes
jesuitter
jesuittordenen
jesus
jet
jets
jevgenij
jevn
jevnaker
jevnbrede
jevne
jevnlig
jevnt
jewel
jewish
jews
jf
jfr
ji
jia
jian
jiang
jiangsu
jiangxi
jibei
jie
jilin
jill
jim
jime
jimi
jimmy
jin
jinan
jing
jir
jk
jmen
jmeni
jn
jo
joa
joachim
joakim
joan
joanna
joaqui
job
jobb
jobbe
jobben
jobber
jobbet
jobs
joe
joel
joensen
joey
joh
johan
johann
johanna
johanne
johannes
johannesburg
johannesen
johannessen
johans
johansen
johansson
john
johnny
johns
johnsen
johnson
johnsons
johnston
johnstone
johor
johs
join
joins
joint
joker
jokke
jolof
jomfru
jomfruen
jomfruøyer
jon
jonas
jonathan
joner
jones
jong
joniske
jonny
jons
jonsson
jonssøn
jord
jorda
jordal
jordan
jordas
jordbruk
jordbruket
jordbruksomra
jordebok
jordegods
jorden
jordens
jordi
jordiske
jordkloden
jordlopper
jordoverflaten
jordskjelv
jordskjelvet
jordsmonnet
jorge
jorsett
jorunn
jos
jose
josef
josefine
josefs
josefus
joseon
josep
joseph
josephine
josh
joshua
josip
jostein
jotunheimen
journal
journalist
journalisten
journalister
journalistikk
journals
journey
joy
joyce
jozef
jp
jpl
jr
js
jstor
ju
jua
juan
juana
juba
jubel
jubileet
jubileum
juda
judas
judd
jude
judea
judge
judith
judo
judoinside
judoka
judorelaterte
judy
juegos
juel
juell
jugoslavia
jugoslavias
jugoslavisk
jugoslaviske
jul
julaften
juledag
julen
julenissen
jules
juli
julia
julian
juliana
juliane
julie
julien
juliet
julija
julio
julius
july
jump
jumping
jun
june
jung
jungle
juni
junior
juniorer
juniorklassen
juniormesterskap
juniormesterskapet
juniperus
junker
junkers
juno
jupiter
jupiters
jur
jura
jurassic
jure
juridisk
juridiske
jurij
juris
jurisdiksjon
jurist
juristen
jurister
jury
juryen
juryens
jus
juss
just
justert
justice
justin
justinian
justis
justisdepartementet
justisminister
justus
juul
juventus
jvfr
jylland
jæger
jæren
jøde
jødedom
jødedommen
jødene
jødenes
jøder
jødisk
jødiske
jølster
jørgen
jørgensen
jørn
jørstad
jørund
k
ka
kaare
kaas
kabel
kabul
kadamba
kafe
kaffe
kagge
kahn
kai
kaia
kaifa
kairo
kaiser
kaizers
kaj
kaja
kajakk
kakatiya
kake
kakheti
kala
kalatsjuri
kald
kalde
kalder
kaldere
kaldes
kaldet
kaldt
kaldte
kaldtes
kalender
kalenderen
kaliber
kalif
kalifatet
kalifen
kaliningrad
kalk
kalkstein
kall
kalla
kalle
kallenavn
kallenavnet
kaller
kalles
kallis
kalmar
kalsium
kalt
kalte
kalvik
kam
kamarupa
kambodsja
kambodsjas
kamera
kameraer
kameraet
kamerat
kamerater
kamerun
kamformede
kamil
kammer
kammeret
kammerherre
kammermusikk
kammerorkester
kamp
kampanje
kampanjen
kampanjer
kampen
kampene
kampens
kamper
kampf
kampfakta
kampreferat
kampsport
kamre
kan
kanaan
kanadisk
kanadiske
kanal
kanalen
kanalene
kanalens
kanaler
kanariøyene
kand
kandidat
kandidaten
kandidatene
kandidater
kandidatur
kandy
kane
kang
kangleipak
kangxi
kangyur
kanin
kaniner
kann
kannik
kano
kanon
kanonba
kanonen
kanonene
kanoner
kanoniske
kanonprisen
kanoriket
kansas
kansellert
kanske
kanskje
kansler
kansleren
kant
kanten
kantene
kanter
kanton
kantonen
kaos
kap
kapasitet
kapasiteten
kapell
kapellan
kapellet
kapellmester
kapital
kapitel
kapitlene
kapitler
kapitlet
kapittel
kapittelet
kapitulasjon
kapitulasjonen
kapitulerte
kaplan
kapp
kappa
kappadokia
kappe
kappgang
kappkolonien
kappløpet
kapret
kaptein
kapteinen
kar
kara
karakhanidenes
karakter
karakteren
karakterene
karakterer
karakteriserer
karakteriseres
karakterisert
karakteriserte
karakteristisk
karakteristiske
karaman
karantene
karasjok
karate
karbon
karbondioksid
kardinal
kardinalen
kardinalene
kardinaler
karel
karelen
karen
kari
karia
karibia
karibiske
karim
karin
karine
karl
karlheinz
karls
karlsen
karlsruhe
karlsson
karlstad
karlsøy
karma
karmøy
karol
karoline
karosseri
karpatene
karpe
karrie
karriere
karrieren
karsten
kart
kartago
kartet
kartlagt
kartlegge
kartlegging
kartli
kartotek
kartverk
kartverket
kasakhstan
kasakhstansk
kashmir
kasimir
kaspar
kasper
kaspiske
kasse
kassel
kasser
kasserer
kassett
kast
kasta
kaste
kastede
kaster
kastes
kastet
kasus
kat
katalansk
katalanske
katalog
katalogen
katalognr
katalognummer
katarina
katastrofale
katastrofe
katastrofen
kate
katedral
katedralen
katedralskole
kategori
kategorien
kategoriene
kategorier
kategorisert
katharina
katharine
katherine
kathleen
kathrine
kathryn
kathy
katie
katja
kato
katolikk
katolikkene
katolikker
katolisismen
katolsk
katolske
katrin
katrina
katrine
katt
katten
katter
katy
katzenelnbogen
kaufman
kaufmann
kaukasus
kaunas
kautokeino
kautsky
kavaleri
kavaleriet
kavli
kay
kaye
kazakh
kazan
kazimierz
kb
kbhvn
kbruk
kc
kde
ke
keane
kedah
keegan
keeney
keep
keeper
keiser
keiserdømmet
keisere
keiseren
keiserens
keiserinne
keiserlig
keiserlige
keiserne
keiserrike
keiserriket
keith
keladi
keller
kelley
kelly
keltisk
keltiske
kelvin
kemp
ken
kendall
kene
kennedy
kennel
kenneth
kenny
kensington
kent
kentucky
kenya
kenyansk
kepler
ker
kerala
keramikk
kern
kernel
kerr
kerremans
kerry
kerstin
ket
ketil
kets
kevin
key
keyboard
keyboardist
keyboards
keynes
keys
keyser
kf
kfamilien
kfum
kg
kgb
kgl
kh
khagan
khaganatet
khaimah
khalid
khalifa
khalil
khan
khanatet
khandesh
khazarer
khiva
khl
khmer
khmerriket
khorasan
khoresm
khrusjtsjov
ki
kia
kick
kicker
kid
kidnappet
kids
kieffer
kiel
kielland
kiesenwetter
kiev
kil
kilde
kildekode
kildekvalitet
kilden
kildene
kilder
kilikia
kill
killed
killer
killing
kills
kilo
kilometer
kilosklassen
kilwa
kim
kimoto
kina
kinas
kinck
kind
kinder
kindernamen
kindred
kine
kinesere
kineserne
kinesisk
kinesiske
king
kingdom
kings
kingsley
kingston
kinn
kino
kinoen
kinoer
kirby
kirche
kirchen
kirchenlexikon
kircke
kirgisistan
kiribati
kirk
kirka
kirke
kirkebygg
kirkega
kirkehistorie
kirkeleksikon
kirkelig
kirkelige
kirkemusikk
kirken
kirkene
kirkenes
kirkens
kirkenær
kirker
kirkerommet
kirkes
kirkesamfunn
kirkesogn
kirkestaten
kirkested
kirkesøk
kirkiu
kirkja
kirschenhofer
kirsten
kirsti
kiruna
kirurg
kirurgi
kirurgisk
kishii
kiss
kiste
kisten
kistner
kit
kitchen
kittelsen
kitts
kitty
kiva
kjartan
kje
kjede
kjedelig
kjeden
kjeld
kjeldsen
kjelkehockey
kjell
kjeller
kjelleren
kjelsa
kjem
kjemi
kjemikalier
kjemiker
kjemikeren
kjemirelaterte
kjemisk
kjemiske
kjempe
kjemper
kjempet
kjende
kjender
kjendes
kjendis
kjendiser
kjendt
kjendte
kjenne
kjenner
kjennes
kjennetegn
kjennetegnes
kjennetegnet
kjennskap
kjent
kjente
kjerne
kjernefysisk
kjernefysiske
kjernekraftverk
kjernen
kjerneomra
kjerringa
kjersti
kjetil
kjevene
kjever
kji
kjole
kjæledyr
kjær
kjære
kjæreste
kjæresten
kjærlig
kjærlighed
kjærlighet
kjærligheten
kjærlighetens
kjøbe
kjøbenhavn
kjøbmand
kjøbmænd
kjød
kjøkken
kjøkkenet
kjøl
kjølen
kjølig
kjølige
kjølvannet
kjønn
kjønnene
kjønnsfordeling
kjønnsmodne
kjønnsorganer
kjøp
kjøpe
kjøper
kjøpes
kjøpesenter
kjøpesenteret
kjøpet
kjøpmann
kjøpmannen
kjøpmenn
kjøpstad
kjøpt
kjøpte
kjør
kjøre
kjørefelt
kjører
kjøres
kjøretøy
kjøretøyer
kjøretøyet
kjøring
kjørt
kjørte
kjøtt
kjøttet
kk
kke
kl
kla
klage
klager
klaget
klaksvi
klan
klanen
klang
klannere
klar
klara
klare
klarer
klarere
klargjør
klarinett
klart
klarte
klas
klasse
klassekampen
klassen
klassene
klasser
klasserom
klassifikasjon
klassifiseres
klassifisering
klassifisert
klassiker
klassikere
klassisk
klassiske
klatre
klatrer
klatret
klatring
klaus
klaver
kle
kledd
kledt
klein
kleine
kleiva
kleive
klekkes
klemens
kleopatra
klepp
kleppe
kler
kleve
kleven
klient
klienten
klienter
klientstat
klig
klige
klikk
klima
klimaendringer
klimaet
klingenberg
klinger
klinikk
klinisk
kliniske
klipp
klippe
klippen
klippene
klipper
klippet
klm
klo
kloden
klok
kloke
klokka
klokke
klokken
klokkene
klokker
klokkeslett
klokketa
kloster
klosteret
klosterets
klostre
klostrene
klostret
klostrets
klotar
klub
klubb
klubbe
klubbeformede
klubben
klubbene
klubbens
klubber
klubbhus
klubblag
klubbløs
klug
klypa
klæbu
klæder
klær
klærne
klør
km
kn
knapp
knappe
knapper
knapt
kne
knebøyde
kneet
kner
knet
knew
knight
knights
kning
kniv
kniven
kniver
knjaz
knm
knockout
knop
knopf
know
knowledge
knowles
known
knows
knox
knud
knudsen
knudtzon
knuse
knusende
knust
knuste
knut
knute
knutepunkt
knuts
knutsen
knutsson
knytte
knytter
knyttes
knyttet
knøler
ko
koalisjon
koalisjonen
koalisjonsregjering
kobayashi
kobber
koble
kobles
koblet
kobling
koch
koda
kode
koden
kodenavn
kodenavnet
koder
kognitiv
kognitive
koht
koirala
kok
kokain
kokk
kokken
kokt
kola
kolbe
kolbein
kolbjørn
kolbotn
kold
kolde
kolding
koldt
kollaps
kollapset
kollega
kollegaer
kolleger
kollegiet
kollegium
kollektiv
kollektive
kollektivt
kolliderte
kollisjon
koloni
kolonien
koloniene
kolonier
kolonisering
kolonistene
kolonister
kolonitiden
kolonne
kolonnen
kolsa
kolsrud
kolstad
kom
koma
kombinasjon
kombinasjonen
kombinasjoner
kombinere
kombinerer
kombineres
kombinert
kombinerte
kombinertløper
komedie
komedien
komedier
komet
kometen
kometer
komi
komiker
komintern
komisk
komiske
komite
komiteen
komiteens
komiteer
komma
kommagene
kommandant
kommandanten
kommanderende
kommandert
kommanderte
kommando
kommandoen
kommandoer
kommandør
komme
kommen
kommende
kommentar
kommentarer
kommentator
kommentatorer
kommenterer
kommentert
kommenterte
kommer
kommersiell
kommersielle
kommersielt
kommet
kommisjon
kommisjonen
kommission
kommissær
kommun
kommuna
kommunal
kommunale
kommunalreformen
kommunalt
kommune
kommunedata
kommunen
kommunene
kommunens
kommuner
kommunes
kommunesammensla
kommunesenteret
kommunestyre
kommunestyret
kommunestyrevalget
kommuneva
kommunevalget
kommunikasjon
kommunikasjonen
kommunisere
kommuniserer
kommunisme
kommunismen
kommunist
kommunistene
kommunister
kommunistisk
kommunistiske
kommunistparti
kommunistpartiet
kommunistpartiets
komne
komnenos
komorene
kompakt
kompani
kompanier
kompaniet
komparativ
kompensasjon
kompetanse
kompetansesenter
kompleks
komplekse
komplekset
komplekst
komplett
komplette
komplikasjoner
komplisert
kompliserte
komponent
komponentene
komponenter
komponere
komponert
komponerte
komponist
komponisten
komponistene
komponister
komposisjon
komposisjonen
komposisjoner
kompost
kompromiss
kon
kona
kondisjonalis
kone
konen
koner
konferanse
konferansen
konferanser
konfidens
konfiskert
konflikt
konflikta
konflikten
konfliktene
konflikter
konfrontasjon
konfronterer
konføderasjonen
konfødererte
kong
konge
kongebok
kongebrev
kongedømme
kongedømmene
kongedømmer
kongedømmet
kongedømmets
kongefamilien
kongehus
kongehuset
kongelig
kongelige
kongemakten
kongen
kongene
kongenes
kongens
kongepokal
kongepokalen
konger
kongeriget
kongerike
kongeriket
kongerne
kongers
konges
kongesagaer
kongl
kongo
kongregasjonen
kongress
kongressen
kongsberg
kongsga
kongsgaarden
kongsvinger
konjunktiv
konklavet
konkluderer
konkludert
konkluderte
konklusjon
konklusjonen
konklusjoner
konkret
konkrete
konkurranse
konkurransen
konkurransene
konkurranser
konkurrent
konkurrenten
konkurrentene
konkurrenter
konkurrere
konkurrerende
konkurrerer
konkurrert
konkurrerte
konkurs
kononenko
konow
konrad
kons
konsekvens
konsekvensene
konsekvenser
konsekvent
konsensus
konsentrasjon
konsentrasjonen
konsentrasjoner
konsentrasjonsleir
konsentrasjonsleiren
konsentrasjonsleirer
konsentrere
konsentrert
konsentrerte
konsept
konsepter
konseptet
konsern
konsernet
konsernsjef
konsert
konsertalbum
konserten
konsertene
konserter
konserthus
konsertopptak
konservatisme
konservativ
konservative
konservativt
konservator
konservatoriet
konsesjon
konsilet
konsonant
konsonanter
konspirasjon
konspirasjonsteorier
konsson
konstabel
konstant
konstantin
konstantinopel
konstituerende
konstituert
konstitusjon
konstitusjonelle
konstitusjonelt
konstitusjonen
konstruere
konstruert
konstruerte
konstruksjon
konstruksjonen
konstruksjoner
konsul
konsulen
konsulent
kontakt
kontakte
kontakten
kontakter
kontaktet
kontekst
kontinent
kontinental
kontinentalcupen
kontinentale
kontinenter
kontinentet
kontinuerlig
kontinuerlige
konto
kontor
kontorer
kontoret
kontorsjef
kontrabass
kontrakt
kontrakten
kontrakter
kontrast
kontreadmiral
kontroll
kontrollen
kontrollere
kontrollerer
kontrolleres
kontrollert
kontrollerte
kontrovers
kontroversiell
kontroversielle
kontroversielt
konvensjon
konvensjonell
konvensjonelle
konvensjonen
konversationsleksikon
konvertere
konvertert
konverterte
koordinatene
koordinater
koordinere
koosseis
kopervik
kopi
kopier
kopiere
kopiert
kopp
kopper
koptisk
kor
koranen
korea
koreakrigen
korean
koreansk
koreanske
korearelaterte
koreas
koren
koreograf
koret
korets
korfu
korint
korn
kornet
kornicker
koronaviruspandemien
korps
korpset
korrekt
korrekte
korrespondanse
korrespondent
korrupsjon
korrupte
kors
korset
korsets
korsfarerne
korsika
korskirke
korstog
korstoget
kort
kortbane
kortbaneløp
korte
kortene
kortere
korteste
kortet
kortfattet
kortfilm
kortfilmen
kortfilmer
kortform
kortvarig
kortvarige
kortvinger
kos
kosmos
kosovo
koss
kost
kostbar
kostbare
kostbart
koste
koster
kostet
kosthold
kostnad
kostnaden
kostnadene
kostnader
kostymer
kotte
kova
koya
koyunlu
kr
kra
kraatz
krabbe
krabber
kraft
kraften
kraftig
kraftige
kraftigere
kraftigste
kraftproduksjon
kraftstasjon
kraftstasjonen
kraftutbygging
kraftverk
kraftverkene
kraftverket
krag
kragerø
kraj
krako
kramer
krangel
krangler
krans
krasjet
krater
krateret
kraus
krav
kravene
kravet
kreativ
kreative
kreativitet
krebs
kreditert
kreditt
kreds
kreert
kreft
kreftene
krefter
krefting
kreis
krelaterte
krenket
kreps
krepsdyr
krepsdyrene
kreta
krets
kretsen
kretsene
kretser
krevd
krevde
kreve
krevende
krever
kreves
krevet
krf
krieg
krieger
krig
krigen
krigene
krigens
kriger
krigere
krigføring
krigføringen
krigsa
krigsfanger
krigsforbrytelser
krigskorset
krigsminister
krigsskip
krigsskolen
krigstjeneste
krigsutbruddet
krim
kriminalitet
kriminalroman
kriminell
kriminelle
krimkrigen
kring
kringkasteren
kringkastet
kringkasting
kringkastingsorkestret
kris
krise
krisen
kriser
krishna
kristelig
kristelige
kristen
kristendom
kristendommen
kristendommens
kristensen
kristent
kristi
kristian
kristiania
kristians
kristiansand
kristiansen
kristiansund
kristin
kristina
kristine
kristne
kristofer
kristoffer
kristoffersen
kristus
kriteriene
kriterier
kritik
kritiker
kritikere
kritikerne
kritikerprisen
kritikk
kritikken
kritikker
kritiserer
kritisert
kritiserte
kritisk
kritiske
kritt
kro
kroatia
kroatias
kroatisk
kroatiske
krog
krogh
krogstad
krohg
krohn
krok
kroken
kromosomer
krone
kronen
kronens
kroner
kronet
kronikk
kroning
kroningen
kronisk
kronkolonien
kronologi
kronologisk
kronprins
kronprinsen
kronprinsesse
kropf
kropp
kroppen
kroppens
kroppsbygning
kroppsform
kroppsformen
kroppslengden
kru
krumme
krupp
kruse
krutt
krydder
krypdyr
kryper
kryss
krysse
krysser
krysseren
krysses
krysset
krzysztof
kræfter
krønike
krøniken
krøniker
krøyer
ks
ksetra
kt
ktory
ku
kuala
kuben
kubikkmeter
kubrick
kul
kulde
kulden
kule
kuleformet
kulen
kuler
kulestøt
kull
kullkraftverk
kulminerte
kult
kulten
kultur
kulturarv
kulturdepartementet
kulturell
kulturelle
kulturelt
kulturen
kulturer
kulturhistorie
kulturhistorisk
kulturhistoriske
kulturhus
kulturhuset
kulturlandskap
kulturliv
kulturminister
kulturminne
kulturminneforvaltning
kulturminner
kulturminnesøk
kulturminnet
kulturnav
kulturnett
kulturpris
kulturra
kulturrevolusjonen
kultursenter
kulturverksted
kumar
kumul
kun
kunde
kunden
kundene
kunder
kundskab
kung
kungliga
kunming
kunna
kunne
kunnet
kunngjorde
kunngjort
kunngjøring
kunnskap
kunnskapen
kunnskaper
kunnskapsdepartementet
kunnskapsforlaget
kunst
kunsta
kunstakademi
kunstakademiet
kunsten
kunster
kunstforening
kunstgress
kunstha
kunsthistorie
kunsthistoriker
kunsthøgskolen
kunstig
kunstige
kunstindeks
kunstindustriskole
kunstløp
kunstløper
kunstmaler
kunstmuseum
kunstner
kunstnere
kunstneren
kunstneres
kunstnerforbundet
kunstnerisk
kunstneriske
kunstnerleksikon
kunstnerne
kunstnernes
kunstnerpersonligheter
kunstsenter
kunstverk
kuomintang
kupert
kupp
kuppet
kur
kurator
kurdisk
kurdiske
kurdistan
kurfyrste
kurie
kurland
kurs
kursen
kurset
kursiv
kurt
kurve
kurven
kurver
kusine
kusj
kutt
kutte
kuttet
kuwait
kv
kva
kvad
kvadet
kvadratisk
kvadratkilometer
kvadratmeter
kvalifisere
kvalifiserer
kvalifisering
kvalifiseringen
kvalifiseringskamp
kvalifiseringsrunde
kvalifiseringsrunden
kvalifisert
kvalifiserte
kvalitet
kvaliteten
kvaliteter
kvam
kvamme
kvar
kvart
kvartal
kvartaler
kvartalet
kvarter
kvartett
kvartetten
kvartfinale
kvartfinalen
kvarts
kveg
kveld
kvelden
kven
kvensk
kvik
kvikksølv
kvinde
kvinder
kvinesdal
kvinne
kvinnelandslag
kvinnelandslaget
kvinnelig
kvinnelige
kvinnen
kvinnenavn
kvinnenavnet
kvinnene
kvinnenes
kvinnens
kvinner
kvinners
kvinnesaksforening
kvinnherad
kvist
kvister
kviteseid
kvitnes
kvitrud
kvitt
kvitte
kvæfjord
kvænangen
kværner
kw
ky
kyi
kyiv
kyle
kylie
kylling
kyo
kyoto
kypros
kyr
kyrene
kyrillisk
kyrka
kyrkje
kyrkjebø
kyros
kyrre
kyss
kysser
kyst
kysten
kyster
kystlinje
kystlinjen
kystomra
kyu
kz
københavn
københavns
kølle
køllebiller
kɔ
l
la
laa
laag
lab
label
laboissiere
labor
laboratoriet
laboratorio
laboratorium
laboratory
labour
labrador
lac
lacordaire
lacroix
lad
ladakh
lade
laden
lader
ladet
ladies
ladning
ladningen
ladninger
lady
laftet
lag
laga
lagd
lagde
lage
lagene
lager
lages
laget
lagets
lagkamerat
lagkonkurranse
lagkonkurransen
lagmand
lagmanden
lagmann
lagmannsrett
lagmannsretten
lagmedlem
lago
lagos
lagrange
lagre
lagrer
lagres
lagret
lagring
lagskyting
lagsprint
lagt
lagtempo
lagtinget
laguna
lahej
lahtis
lai
laighin
laila
lake
lakes
laks
lakseva
lal
lam
lama
lamar
lamarck
lamb
lambda
lambert
lambertseter
lambiek
lamborghini
lameere
lamiinae
lammet
lampe
lan
lancashire
lancaster
lance
lancia
land
landa
landareal
landau
landbruk
landbruket
landbruksskole
landdagen
lande
landemerke
landene
landenes
lander
landes
landessternwarte
landet
landets
landevei
landeveisritt
landeveissykling
landeveissyklist
landeveisøvelser
landflyktighet
landgang
landgreve
landhockey
landhockeyrelaterte
landhockeyspiller
landhockeyturneringen
landing
landkommune
landkreis
landlige
landma
landmark
landna
landomra
lands
landsby
landsbyen
landsbyene
landsbyer
landsbygda
landscape
landsdekkende
landsdelen
landsforbund
landsforening
landsforeningen
landskaber
landskamp
landskamper
landskap
landskaper
landskapet
landskapsvernomra
landskoden
landslag
landslaget
landslagsma
landslagssjef
landslagsspiller
landslagstrener
landslov
landsmann
landsmannen
landsmenn
landsmænd
landsmøte
landsmøtet
landsomfattende
lane
lang
langa
langbane
langdistanse
langdistanseløp
lange
langeland
langes
langesund
langhalekreps
langhus
langkirke
langobardenes
langrenn
langrennrelaterte
langrennsløper
langs
langsga
langsiktig
langsiktige
langsom
langsomme
langsommere
langsomt
langstrakt
langstrakte
langt
language
languages
langvarig
langvarige
lanham
lanka
lanserer
lanseres
lansering
lanseringen
lansert
lanserte
lantma
laos
laporte
lapper
lapperne
lappland
lar
lara
large
largest
lariket
larisa
larm
larry
lars
larsen
larson
larssen
larsson
larve
larven
larvene
larvens
larver
larvestadiet
larvik
las
laser
lasse
lassen
last
laste
lastebil
lastebiler
lasten
laster
lastes
lasteskip
lastet
lat
lata
late
later
latest
lathrobium
latimer
latin
latinsk
latinske
latreille
latt
latter
latvia
latvias
latvisk
latviske
lauenburg
launch
launches
laura
laurel
lauren
laurence
laurent
laurentius
laurie
laurits
lauritz
lauritzen
lausanne
lausitz
laut
lav
lava
lave
lavere
lavest
laveste
lavik
lavlandet
lavt
lavtrykk
law
lawrence
laws
lawson
lay
lazio
lb
lc
ld
ldrar
le
lea
leach
lead
leader
leaders
leadership
leading
leads
leaf
league
leagues
leah
leander
learn
learning
leary
least
leave
leaves
leaving
lebanon
leben
lebesby
lebia
lebiinae
lech
leconte
lecter
lecture
lectures
led
leda
ledd
leddene
leddet
leddete
leddyr
lede
ledede
ledelse
ledelsen
ledende
leder
ledere
lederen
lederne
lederskap
lederskapet
ledes
ledet
ledetra
ledig
ledige
ledsager
ledsaget
lee
leeds
lees
lefe
left
leg
lega
legacy
legal
legasjonen
legat
legatus
lege
legeforening
legeme
legemer
legemet
legemiddel
legemidler
legen
legend
legendarisk
legendariske
legendary
legende
legenden
legender
legends
legene
leger
legg
legge
leggen
leggene
legger
legges
legion
legislative
legitime
legitimitet
lego
legs
lehmann
lei
leibniz
leicester
leid
leide
leiden
leie
leiega
leier
leiesoldater
leif
leigh
leikanger
leilighed
leilighet
leiligheten
leiligheter
leiningen
leinster
leiodidae
leipzig
leir
leira
leire
leiren
leirene
leirer
leirvik
leiv
lejlighed
lek
leka
leke
leken
lekene
leker
leksikon
leksvik
lektor
lem
lemaire
lemmer
lemo
len
lena
lende
lendermænd
lene
lengde
lengdefurer
lengdehopp
lengden
lengderibber
lengdestriper
lenge
lenger
lengre
lengsel
lengst
lengste
lenin
leningrad
lenke
lenken
lenker
lenket
lennart
lennon
lennox
lenny
lens
lensherre
lensmann
lensmannen
lenvik
leo
leon
leonard
leonardo
leone
leonhard
leonid
leopard
leopold
lepidoptera
lepidopterologisk
lepidopterorum
lepper
leptusa
ler
lerche
lere
leren
lerenga
leroy
lerret
les
lese
leser
lesere
leseren
leserne
leses
lesing
lesja
lesley
leslie
lesning
lesotho
less
lessons
lest
leste
lester
lestokk
lesund
let
lete
leter
leting
lett
lette
letter
lettere
letterman
letters
lettest
letteste
lettet
lettres
lettvekt
leuchtenberg
leuven
lev
levande
levanger
levanten
levd
levde
leve
levea
levede
leveka
level
levende
lever
leverandør
leverandører
levere
leveren
leverer
leveres
levering
leverkusen
levert
leverte
levesett
levet
levetid
levevis
levi
levin
levine
levnet
levningene
levninger
levy
lewis
lewisohn
lex
lexicon
lexikon
lexington
lez
lfchistory
lform
lforskjell
lg
lga
lgang
lgivende
lhasa
lhuahca
li
lia
liam
lian
liang
liaoning
liard
lib
libanesiske
libanon
libanonfjellet
libe
liber
liberal
liberale
liberalt
liberation
liberia
liberty
libraries
library
libre
libretto
libri
libris
libro
libya
license
lich
lichtenberg
lid
lidd
liddell
lide
lidelse
lidelsen
lidelser
liden
lidenskap
lider
lidet
lidt
lie
liebe
liebherr
liebke
liechtenstein
liechtensteins
lied
lieder
liegnitz
lien
lier
lierne
lies
lieutenant
life
lifetime
lig
liga
ligacupen
ligaen
ligaens
ligakamper
ligama
ligatabell
lige
ligefrem
ligeledes
ligeoverfor
ligesaa
ligesom
ligg
ligge
liggende
liggendis
ligger
ligget
lighed
light
lightning
lights
lightweight
ligne
lignende
ligner
lignet
ligning
ligningen
ligninger
ligue
lijiang
lik
like
likeledes
likene
liker
likesa
likesom
likestilling
likestilt
liket
likevekt
likevel
likeverdige
likhet
likheten
likheter
likhetstrekk
liknende
likner
liksom
likt
likte
lil
lili
lill
lilla
lille
lilleasia
lillebjørn
lillebror
lillehammer
lillesand
lillestrøm
lillian
lillo
lilly
lily
lim
lima
limburg
lime
limit
limited
limits
lin
lina
lincoln
lind
linda
lindahl
lindberg
linde
lindeman
linden
linderud
lindesnes
lindgren
lindholm
lindqvist
lindroth
lindsay
lindsey
lindstro
lindstrøm
lindstøl
line
linear
linebacker
lines
lineær
lineære
ling
linge
lingen
lingene
linger
lingua
linguistic
linguistics
lingvistikk
linja
linje
linjen
linjene
linjer
linjeskip
link
linkedin
linko
links
linn
linnaeus
linne
linnean
linsley
linus
linux
linuxkjernen
linz
lio
lion
lionel
lions
lippe
liquid
lis
lisa
lisbeth
lisboa
lise
lisens
lisensen
lisensiert
list
lista
liste
listen
listene
lister
listet
lists
liszt
lit
lita
litauen
litauens
litauisk
litauiske
lite
litelig
litelige
liten
liter
literary
literatur
literature
liters
litet
lithuania
litt
litte
litteratur
litteraturen
litteraturhistorie
litteraturhuset
litteraturkritiker
litteraturpris
litteraturpriser
litteraturvitenskap
litterær
litterære
litterært
little
littlefield
liturgi
liturgiske
liu
liv
livba
live
livene
liverpool
lives
livet
livets
living
livingston
livius
livland
livlig
livlige
livnærte
livre
livs
livsstil
livssyn
livstid
livsvarig
lix
liz
liza
lje
ljubljana
ljudmila
lk
lkerung
ll
lla
llag
llc
lle
ller
lloyd
llskapet
llywelyn
lm
ln
lne
lns
lo
loc
local
locale
locatemyname
location
loch
lock
locke
lockheed
lod
loddrett
lode
lodge
loe
lofoten
loft
loftet
lofthus
log
logaland
logan
loge
logen
logic
logikk
logisk
logiske
logistikk
logo
logoen
loi
loire
lois
lojal
lojale
lojalitet
lok
lokal
lokalbefolkningen
lokale
lokalene
lokaler
lokalet
lokalhistorie
lokalhistoriewiki
lokalhistorisk
lokalisering
lokalisert
lokalitet
lokaliteter
lokallag
lokalpolitiker
lokalregjeringens
lokalsamfunn
lokalsamfunnet
lokalt
loke
lokk
lokke
lokket
lokomotiv
lokomotivene
lokomotiver
lokomotivet
lola
lom
lombardi
lombardia
lommen
lonchura
london
londons
lone
lonely
lonesome
long
longest
longicorn
longicornis
longman
longyearbyen
look
looking
loon
loop
lopes
lopez
lord
lordkansler
lords
lorentz
lorentzen
lorenz
lorenzo
lorraine
los
lose
loss
lost
lot
lothar
lothe
lothian
lothringen
lotta
lotte
lotus
lou
louis
louisa
louise
louisiana
louvre
lov
lovbrudd
lovdata
love
loved
lovede
loven
lovende
lovene
lovens
lover
lovers
loves
lovet
lovette
lovforslag
lovgivende
lovgivning
lovgivningen
loving
lovlig
lovlige
lovte
lovverk
lovverket
low
lowe
lowell
lower
lowry
lp
lpga
lr
ls
lselv
lsetting
lsk
lsordboka
lt
ltd
lte
ltid
lu
luang
lublin
luc
luca
lucanidae
lucaninae
lucanus
lucas
lucca
lucia
luciano
lucido
lucie
lucien
luciobarbus
lucius
luck
lucky
lucy
ludovico
ludovisi
ludvig
ludvigsen
ludwig
lue
luft
lufta
luften
luftfart
luftforsvaret
luftforsvarets
lufthansa
lufthavn
lufthavnen
luftwaffe
luge
lui
luigi
luis
luise
luiz
luka
lukas
luke
lukke
lukkede
lukker
lukket
luksus
lukt
lulea
lulesamisk
lulu
lumpur
luna
lunar
lund
lunda
lundberg
lunde
lunden
lundgren
lunds
lune
lunge
lungebetennelse
lungene
lunger
lunner
luo
lupus
lure
lurer
lurt
lurte
lurøy
lus
luster
luther
lutheran
luthers
luthersk
lutherske
luton
lutz
lux
luxembourg
luxembourgs
luxemburg
luzon
lv
lvakt
lvarez
lvaro
lven
lviv
ly
lycaenidae
lycaeninae
lyche
lyd
lydbilde
lyde
lyden
lyder
lydia
lydighet
lydopptak
lydsporet
lydtekniker
lykia
lykke
lykkedes
lykkelig
lykkelige
lykken
lykkes
lyktes
lyle
lyn
lynch
lyndon
lyng
lyngby
lyngdal
lyngen
lynn
lynne
lynx
lyon
lyons
lyrics
lyriker
lyrikk
lyrisk
lyriske
lys
lysa
lysaker
lysbiller
lyse
lysende
lyser
lysere
lyset
lysets
lysgra
lyst
lystad
lyste
lystig
lytte
lytter
lyttet
læge
lægge
lægger
lægges
længe
længer
længere
lær
lærd
lærdal
lærde
lærdom
lære
lærebok
lærebøker
læren
lærer
lærere
læreren
lærerhøgskole
lærerne
lærerskole
lærerutdanning
læresteder
læring
lærling
lært
lærte
læse
læser
læst
læste
løb
løbe
løber
løbet
lød
lødingen
løft
løfte
løfter
løftet
løgn
løgner
løgtingið
løk
løken
løkke
løkken
løn
lønn
lønning
løp
løpe
løpebane
løpebiller
løpende
løpene
løper
løpere
løperne
løpet
lørdag
lørenskog
løs
løse
løselig
løser
løses
løslatt
løsnet
løsning
løsningen
løsninger
løst
løste
løsøre
løten
løv
løve
løven
løvenskiold
løver
løvfellende
løvland
løvskog
løvstrø
løvtrær
løy
løypa
løype
løytnant
m
ma
maa
maade
maader
maal
maaned
maaneder
maarten
maas
maaske
maaskee
maastricht
maate
maatte
maattet
mabel
mabille
mac
macao
macau
macbeth
macdonald
mach
machado
machiavelli
machine
machines
macintosh
mack
mackay
mackenzie
macleay
macmillan
macrolepidoptera
mactutor
mad
madagascar
madagaskar
madam
madame
made
madeira
madeleine
madison
madness
madonna
madrid
mads
madsen
madurai
mae
mafia
mafiaen
mag
magadha
magasin
magasiner
magasinet
magazin
magazine
magda
magdalena
magdalene
magdeburg
mage
magen
maggie
magi
magic
magisk
magiske
magister
magistrat
magna
magnar
magne
magnet
magnetfelt
magnetfeltet
magnetisk
magnetiske
magnhild
magnu
magnum
magnus
magnussen
magnusson
magre
magt
magten
magyar
maha
maharaja
maharajadhiraja
maharashtra
mahdi
mahler
mahmood
mahmoud
mahmud
mahomes
mai
maiden
maier
mail
main
maine
mainstream
mainz
mais
maison
maj
maja
majapahit
majerski
majestet
majesty
major
majoritet
majoriteten
majorstuen
mak
make
makedonia
makedonsk
makedonske
maker
makes
making
maks
maksim
maksimal
maksimale
maksimalt
maksimum
makt
makta
makten
makter
maktet
maktkamp
maktoum
makuria
mal
mala
malacostraca
malaria
malawi
malaya
malaysia
malaysisk
malcolm
maldivene
male
maler
malere
maleren
maleri
maleriene
malerier
maleriet
malerkunst
mali
malik
malin
maling
maliriket
mall
malla
malladynastiets
malling
mallorca
mallory
malm
malmo
malone
malt
malta
maltas
malte
maltin
malvik
malwa
mama
mamma
mammals
man
management
manager
manageren
manchester
mand
mandag
mandal
mandarin
mandat
mandater
mandela
manden
mandibler
mandolin
mands
mandsjuria
mane
manfred
mang
manga
mange
mangea
mangekamp
mangel
mangelen
mangelfull
mangen
manger
mangfold
mangfoldet
mangfoldig
mangfoldige
mangle
manglende
mangler
manglerud
manglet
mangt
manhattan
mani
manifest
manila
manipur
manitoba
mann
manna
manne
mannen
mannens
mannerheim
mannheim
manni
manning
mannlig
mannlige
manns
mannskap
mannskaper
mannskapet
mannskor
mannsnavn
mannsnavnet
manor
mans
mansfield
mansur
mantua
manu
manual
manuel
manuell
manuelt
manufacturing
manus
manuset
manusforfatter
manuskript
manuskripter
manuskriptet
manx
many
mao
maobadi
maos
map
maps
mar
mara
maranha
maratha
marathon
maraton
maratonløpet
maravarman
marburg
marc
marcantonio
marcel
marcello
marcellus
marcelo
march
marche
marcia
marcin
marco
marcos
marcus
marcussen
mardin
mare
marek
maren
mareritt
margaret
margareta
margarete
margarita
margin
margit
margot
margrete
margrethe
marguerite
mari
maria
mariakirken
marian
mariana
mariann
marianne
mariano
marias
marie
marienlyst
marija
marilyn
marin
marina
marine
marinen
marinens
mariner
marines
marino
marinus
mario
marion
marit
marita
maritim
maritime
maritimt
marius
marjorie
mark
marka
markant
markante
markanvandning
marked
markeder
markedet
markedsandel
markedsføres
markedsføring
markedsført
marken
marker
markere
markerer
markeres
markering
markeringen
markert
markerte
market
marketing
markgreve
marki
markku
markløpere
marko
marks
markus
marlborough
marlene
marley
marlowe
marmor
marne
marokkansk
marokko
marquis
marriage
married
mars
marsden
marseille
marseul
marsh
marshal
marshall
marsj
marsjen
marsjere
marsjerte
marskalk
marstrand
mart
marta
marte
martens
martha
marthe
marthinsen
marti
martial
martin
martina
martinau
martine
martinez
martini
martino
martins
martinsen
martinus
marts
marty
martyr
marvel
marvin
marwar
marx
marxismen
marxist
marxistisk
mary
maryland
marzban
mas
masal
mask
maske
masker
maskin
maskinen
maskinene
maskiner
maskingevær
maskinvare
mason
masovia
mass
massa
massachusetts
massacre
massakre
massakren
masse
massen
massene
masser
massimo
massiv
massive
massivt
mast
masten
master
mastergrad
mastering
masteroppgave
masters
mat
mata
mataram
match
matches
matchid
mate
matematiker
matematikeren
matematikk
matematikken
matematisk
matematiske
maten
mater
material
materiale
materialene
materialer
materialet
materials
materie
materiell
materielle
mateu
mathbb
mathbf
mathematical
mathematics
mathias
mathiesen
mathieu
mathilde
mathis
mathisen
mathrm
mati
matias
matilda
matlaging
mato
matrise
matrix
mats
matt
matte
mattei
matteo
matter
matteus
matthew
matthews
matthias
matti
mattias
mattilsynet
mattis
matvarer
maud
maur
maureen
maurene
maurer
mauretania
maurice
mauritania
mauritius
maurits
mauritz
maurizio
mauro
maurstad
mausoleum
max
maxim
maximilian
maximus
maxwell
may
maya
maybe
mayen
mayer
maynard
mayo
mayor
mazandaran
maðr
mb
mba
mbox
mc
mccain
mccarthy
mccartney
mccoy
mcdonald
mcdonnell
mcfarland
mcgill
mcgraw
mcgregor
mckenzie
mckinley
mclaren
mclean
mcmahon
md
mdalen
mdg
me
meadows
mean
meaning
meaningofname
means
meaux
mechanics
mecklenburg
mecyclothorax
med
medal
medalje
medaljen
medaljene
medaljer
medaljevinnere
medallists
medals
medarbeider
medarbeidere
medas
meddele
meddelelser
meddeler
meddeles
meddelt
meddelte
medeier
medens
medforfatter
medfødt
medføre
medfører
medført
medførte
medgift
medhold
media
medical
medici
medicine
mediebedriftenes
medien
mediene
medier
medieval
medikamenter
medina
medisin
medisiner
medisinsk
medisinske
meditasjon
mediterranean
medium
medkonsekratorer
medkonsekrerende
medlem
medlemmene
medlemmer
medlemmet
medlemskap
medlemsland
medlemslandene
medley
medredaktør
medregnet
medvedev
medvirkende
medvirker
medvirket
medvirkning
meer
meest
meet
meeting
meets
meg
mega
megan
megas
megen
meget
mehmed
mehmet
mei
meier
meieri
meigen
meilleursprenoms
mein
meine
meiningen
meir
meissen
meister
meißen
mek
mekanikk
mekanisk
mekaniske
mekanisme
mekanismen
mekanismer
mekka
meksikansk
meksikanske
mektig
mektige
mektigste
mel
meland
melanie
melanotus
melbourne
melchior
meld
meldal
melde
melder
melding
meldingen
meldinger
meldt
meldte
melhus
melissa
melk
melkeveien
mellem
mellom
mellomdistanse
mellomdistanseløp
mellomkrigstiden
mellomrom
mellomstor
mellomstore
mellomtiden
mellomvekt
melo
melodi
melodien
melodier
melodifestivalen
melody
melolonthinae
melvin
meløy
member
members
memoarer
memoir
memoirs
memorial
memoriam
memories
memory
memphis
men
mena
mend
mendelssohn
mendes
mendoza
mene
mener
menes
meng
mengde
mengden
mengder
menguc
menig
menige
menighet
menigheten
menighetene
menighetens
menigheter
menighetsra
mening
meningen
meninger
meningsma
menn
mennene
mennenes
menneske
menneskeheten
menneskehetens
menneskelig
menneskelige
menneskeliv
menneskene
menneskenes
mennesker
menneskerettighetene
menneskerettigheter
menneskers
menneskeskapte
mennesket
menneskets
menom
mens
ment
mental
mentale
mentalt
mente
mentor
mer
mera
mercedes
mercer
mercia
mercury
mercy
mere
meredith
merete
merit
meritt
meritter
merk
merkbart
merke
merkede
merkel
merkelig
merkelige
merkeligt
merkenavnet
merker
merkes
merket
merking
merkmalen
merkur
merlin
merrill
merry
mes
mesa
mesopotamia
message
messe
messen
messenger
messer
messias
messier
messina
messing
mest
meste
mesteparten
mester
mestere
mesteren
mesterligaen
mesterskap
mesterskapene
mesterskapet
mesterskapsrekord
mesterverk
mestre
mestselgende
mestvinnende
met
meta
metacritic
metal
metall
metaller
metallglans
metallica
metallisk
metalliske
metallum
metamorfose
metan
meteorolog
meteorologi
meteorologisk
meteorologiska
meteorologiske
meter
meters
metersklassen
metheny
method
methods
metode
metoden
metodene
metoder
metopa
metopoides
metres
metriske
metro
metroen
metropolis
metropolitan
metropolitt
mette
metz
meurthe
mewar
mexico
mexicos
meyer
meyers
meyrick
mez
með
mf
mfl
mfon
mg
mgl
mgm
mgp
mhz
mi
mia
miami
mic
mich
michael
michaels
michal
michał
michel
michelangelo
michele
michelet
michelle
michelsen
michigan
mick
mickey
microsoft
mid
midd
middag
middel
middelalder
middelalderen
middelalderens
middelalderske
middelhavet
middelhavslekene
middelhavsomra
middelklassen
middels
middelsstor
middelsstore
middelvannføringen
middle
middlesbrough
middlesex
middleton
mide
midgard
midi
midlands
midlene
midler
midlere
midlertidig
midlertidige
midnatt
midnight
midt
midtbane
midtbanen
midtbanespiller
midten
midterste
midtfure
midtpunkt
midtre
midtstopper
midtveis
midtvesten
midtøsten
mie
mifflin
mig
might
mighty
migrasjon
migration
migrene
miguel
mijll
mika
mikael
mikal
mike
mikhail
mikhailovitsj
mikkel
mikkelsen
miklo
mikroorganismer
mikroprosessorer
miks
mikset
miksing
mil
mila
milan
milano
mild
milde
mildere
mildred
mildt
mile
miles
milet
milita
militante
military
milits
militsen
militum
militær
militære
militæret
militærhistorie
militært
militærtjeneste
miljo
miljø
miljødirektoratet
miljødirektoratets
miljøer
miljøet
miljøpartiet
miljøstatus
miljøverndepartementet
milk
mill
mille
millennium
miller
milliard
milliarder
millimeter
million
millioner
millionær
millom
mills
milne
milorg
milos
milton
milwaukee
mimi
min
mina
minas
mind
mindanao
minde
minder
mindes
mindre
mindrea
mindretall
minds
mindst
mindste
mine
miner
mineral
mineraler
minerva
ming
minh
mini
minimal
minimum
miniserie
minister
ministeren
ministerialbok
ministeriet
ministerpresident
ministerra
ministerstvo
ministre
ministry
mink
minna
minne
minneapolis
minneord
minnepris
minner
minnes
minneside
minnesmerke
minnesmerker
minnesmerket
minnesota
minnet
minogue
minor
minoritet
minoriteten
minoriteter
minoritetsspra
minsk
minske
minsket
minst
minste
minus
minut
minute
minutes
minutt
minutter
minutters
minuttet
minutus
mio
mir
mira
miracle
miranda
mirandola
miriam
miro
miroslav
mirror
mirza
mis
misbruk
misfornøyd
misforsta
mishandling
misjon
misjonen
misjonær
misjonærene
misjonærer
mislikte
mislykkede
mislykkes
mislykket
mislyktes
misnøye
miss
missa
missil
missile
missiler
missilet
missing
mission
missionary
missions
mississippi
missouri
mistanke
miste
mistenker
mistenkt
mistenkte
mister
mistet
mit
mitch
mitchell
mitochondrial
mitsubishi
mitt
mitte
mitteleuropas
mix
mixed
mja
mjelde
mjøen
mjøndalen
mjøsa
mk
ml
mlb
mli
mm
mma
mn
mo
moa
mobbing
moberg
mobil
mobile
mobilisering
mobilitet
mobiltelefon
mobiltelefoner
mobygames
mod
mode
model
modell
modellen
modellene
modeller
models
moden
modena
moder
moderat
moderate
moderen
moderklubben
modern
moderne
modernisering
modernisert
modifisert
modifiserte
modig
modige
modne
modsat
modsatte
modstand
modsætning
modtage
modtaget
modtog
modulen
modum
modus
moe
moen
moers
moesia
mogens
mogulriket
moh
mohamed
mohammad
mohammed
mohan
mohn
mohr
moi
mojo
mol
moland
molde
moldova
molecular
molekyl
molekyler
molekylær
molina
moll
molly
molotov
moltke
moment
moments
mon
mona
monaco
monark
monarken
monarker
monarki
monarkiet
monday
monde
money
mongolene
mongolia
mongolsk
mongolske
monica
monika
monitor
monk
monkey
monmouth
monn
monne
mono
monochamini
monolepta
monopol
monotypisk
monrad
monroe
monroes
mons
monsen
monsieur
monster
monsteret
monsters
monstre
mont
montagu
montana
montbe
monte
montefeltro
montenegro
monteres
montering
montert
montevideo
montferrat
montgomery
month
monthly
months
montpellier
montre
montreal
montreux
montserrat
monty
monument
monumenta
monumentale
monumenter
monumentet
monuments
moody
moon
moore
mor
mora
moral
moralen
morales
moralsk
moralske
moran
moray
mord
morder
morderen
mordet
more
morea
moren
moreno
morens
morfar
morfologi
morgan
morgannwg
morgen
morgenbladet
morgenen
morgenstierne
mori
moria
moritz
morken
morkinskinna
mormor
morning
moro
morphology
morris
morrison
morrow
mors
morse
morsma
morsom
morsomme
morsomt
morssiden
mort
morten
mortensen
mortimer
morton
mos
mosambik
moscow
mose
mosebok
moselle
moser
moses
mosjøen
moske
moskeen
moskva
moslimin
moss
most
moster
mosul
mosvik
mot
motangrep
motbakkeløp
mote
moten
mother
moths
motion
motiv
motivasjon
motivene
motiver
motivert
motivet
moto
motor
motorba
motoren
motorene
motorer
motoriserte
motorola
motors
motorsport
motorsykkel
motorsykler
motorvei
motorveien
motorveier
motsatt
motsatte
motschulsky
motsetning
motsetningen
motsetninger
motsta
motstand
motstanden
motstander
motstandere
motstanderen
motstanderens
motstanderne
motstandsbevegelsen
motstandsmann
motstridende
motta
mottakelse
mottaker
mottakere
mottakeren
mottar
mottatt
mottatte
motto
mottoet
mottok
motvillig
motvirke
motzfeldt
mount
mountain
mountains
mouse
mouth
move
movement
moves
movie
moviemeter
movies
moving
mowinckel
mozart
mozarts
mp
mr
mrauk
mrd
mrs
ms
msc
mstislav
mt
mtland
mtv
mu
mub
mubarak
much
mueller
muh
muhammad
muhammed
mul
mulig
mulige
muligens
muliggjør
mulighet
muligheten
mulighetene
muligheter
muligt
muller
mulsant
multi
multimedia
multiple
mulu
mumbai
mumhan
mumlet
mun
munch
munchchr
munchs
mund
munden
mundi
mundo
munich
municipal
municipality
munk
munke
munkeliv
munken
munkene
munker
munn
munndelene
munnen
munner
munning
munningen
munnspill
munro
munster
munter
munthe
muntlig
muntlige
muntre
munzinger
mur
murad
murder
murdoch
muren
murene
murer
murmansk
murom
murphy
murray
murstein
mus
musa
muse
museer
museet
museets
museo
museum
museums
music
musica
musical
musicalics
musicbrainz
musician
musicians
musik
musikal
musikalen
musikaler
musikalsk
musikalske
musiker
musikere
musikeren
musikerne
musikk
musikka
musikkalbum
musikkalbumet
musikken
musikkens
musikkgruppe
musikkhøgskole
musikkinstrumenter
musikkonservatoriet
musikkonservatorium
musikkorps
musikkpris
musikkprodusent
musikkrelaterte
musikkvideo
musikkvideoen
musikkvideoer
musique
muskler
muslim
muslimene
muslimer
muslimsk
muslimske
muslinger
muslingkreps
mussolini
must
mustafa
mustang
muus
muzaffar
mv
mvp
mw
mx
my
myanmar
mycelbiller
mye
myers
mygg
myhre
myk
myke
mykje
mykland
myklebust
mykt
myndig
myndighed
myndighet
myndigheten
myndighetene
myndighetenes
myndigheter
mynt
mynten
myntene
mynter
myodocopa
myodocopida
myodocopina
myoglossata
myr
myra
myrdal
myrde
myrdet
myren
myrer
myromra
myself
mysen
mysore
myspace
mysterier
mysteriet
mysterium
mystery
mystisk
mystiske
myte
myten
mytene
myter
myth
mythology
myths
mytisk
mytiske
mytologi
mytologien
mytologiske
myzomela
mæ
mægtig
mægtige
mæland
mænd
mænds
mængde
mærke
mærkelige
møbler
møde
møder
mødet
mødre
mødte
møkk
møll
mølle
møller
mønster
mønsteret
mønstre
mønstret
mørch
møre
mørk
mørkbrun
mørkbrune
mørke
mørkere
mørket
mørkets
mørkt
møte
møtene
møter
møtes
møtested
møtet
møtt
møtte
møttes
n
na
naa
naade
naaede
naaet
naar
nabla
nabo
naboen
naboer
nabolag
nabolaget
nabolandene
nabolandet
nach
nacht
nacional
nacionales
nacionalidad
nad
nadia
nadu
nag
nagano
nagasaki
nagy
nahuatl
nairobi
najc
najpopularniejsze
nakamura
naked
naken
nakken
nakne
nal
nam
namdal
namdalen
name
named
names
namgyal
namibia
naming
namn
namnso
namnstatistik
namntja
namsos
namur
nan
nana
nancy
nanjing
nanna
nannestad
nansen
nansens
nantes
nanzhao
naob
naomi
napier
napole
napoleon
napoleons
napoleonskrigene
napoli
napp
nar
narayan
narkotika
narnia
naro
narr
narrative
naruto
narva
narve
narvik
nas
nasa
nasas
nascar
nascimento
nash
nashville
nasi
nasir
nasjon
nasjonal
nasjonalbibliotek
nasjonalbiblioteket
nasjonalbibliotekets
nasjonale
nasjonalforsamling
nasjonalforsamlingen
nasjonalgalleriet
nasjonalisme
nasjonalister
nasjonalistisk
nasjonalistiske
nasjonalitet
nasjonalmuseet
nasjonalpark
nasjonalparken
nasjonalparker
nasjonalra
nasjonalsang
nasjonalsangen
nasjonalsosialismen
nasjonalsosialistene
nasjonalsosialistiske
nasjonalt
nasjonen
nasjonene
nasjonens
nasjoner
nassau
nasser
nat
natal
natalia
natalie
natalja
natasha
nate
nathalie
nathan
nathaniel
nation
national
nationalbibliothek
nationale
nationalnyckeln
nationaltheatret
nationen
nations
native
nato
natos
natt
natta
nattaktive
natten
nattens
nattfly
nattsvermere
nattverden
natur
natura
natural
naturbase
nature
naturen
naturens
naturfag
naturforvaltning
naturgass
naturhistorisk
naturlig
naturlige
naturligt
naturligviis
naturligvis
naturminne
naturreservat
naturreservatet
naturressurser
naturtyper
naturvitenskap
naturvitenskapelige
naumann
nauru
nautiske
nav
nava
naval
navarra
navarro
navigasjon
navn
navne
navnedag
navnekomite
navnene
navneopplysninger
navnestatistikk
navnet
navngitt
navngitte
navnlig
navy
nawab
naxos
nayak
nayaka
nazi
nazionale
nazismen
nazistene
nazistenes
nazister
nazistiske
nazwiska
nb
nba
nbc
nberg
nbl
nc
ncaa
ncbi
nchen
nchez
ncipe
nd
nda
ndalsnes
ndb
ndball
ndballandslaget
ndballforbund
ndballforbundet
ndballklubb
ndballrelaterte
ndballspiller
ndbok
nde
ndel
ndelig
ndelige
nden
ndene
nder
ndet
ndez
ndfull
ndia
ndigen
ndr
nds
ndtak
ndtere
ndterer
ndtering
ndverk
ndverker
ndverkere
ndverks
ne
nea
neal
near
neat
nebb
nebbet
nebbmunner
nebraska
neburg
nec
ned
nedbør
nedbøren
nedbørfelt
nedbørfeltet
nede
neden
nedene
nedenes
nedenfor
nedens
neder
nederlag
nederlaget
nederland
nederlandene
nederlands
nederlandse
nederlandsk
nederlandske
nederlenderne
neders
nederst
nederste
nedfelt
nedgang
nedgangen
nedkjempet
nedlagt
nedlagte
nedlasting
nedleggelsen
nedlig
nedover
nedre
nedrykk
nedsatt
nedsatte
nedsettende
nedskrevet
nedstammer
nedstammet
nedtegnelser
nedtegnet
need
needs
negativ
negative
negativt
neger
negras
negro
nei
neil
neill
nej
nejms
nekor
nekrolog
nektar
nekte
nektende
nekter
nektet
nel
nell
nelly
nelson
nema
nemesis
nemlig
nemours
nen
nene
nens
nentwig
neo
neolepidoptera
neolittisk
neolittiske
neon
neotropisk
neotropiske
nepal
nepali
nepals
neppe
neptun
neptune
ner
nergaard
nerløkka
nero
nerver
nervesystemet
nes
nesbø
nese
nesen
neset
nesna
nesodden
ness
nesseby
nesset
nest
neste
nesten
nestformann
nestkommanderende
nestleder
nestor
net
netflix
netherlands
netop
nett
nettavisen
nettbibelen
nettbuss
netter
nettet
netto
nettopp
nettside
nettsiden
nettsidene
nettsider
nettsted
nettsteder
nettstedet
nettutgaven
nettverk
nettverket
network
networks
neu
neuburg
neue
neuf
neumann
neustadt
neustria
neutral
nevada
never
nevers
neville
nevis
nevne
nevner
nevnes
nevneverdig
nevnt
nevnte
nevø
nevøen
new
newark
newcastle
newfoundland
newman
newport
news
newspaper
newspapers
newton
newtons
newzealandsk
newzealandske
next
nez
nf
nfc
nff
nfl
nfls
ng
nga
ngc
ngd
nge
ngel
ngen
nger
nggi
ngo
ngu
nguye
nguyen
nh
nherr
nhh
nhl
nhm
nho
ni
nia
niall
nic
nica
nicaragua
niccolo
nice
nicholas
nichols
nicholson
nicht
nick
nickerson
nicky
nico
nicola
nicolae
nicolai
nicolas
nicolaus
nicolay
nicolaysen
nicole
nicolson
nidaros
nidarosdomen
nie
nieder
niedersachsen
niedersalm
niels
nielsen
nielsens
niende
niendeplass
nier
niese
nietzsche
nif
nig
nigel
niger
nigeria
nigeriansk
night
nightmare
nights
nigra
nigsberg
nigstuhl
nik
nike
nikea
nikita
nikkel
niklas
nikola
nikolai
nikolaj
nikolas
nikolaus
nil
nilen
nils
nilsen
nilssen
nilsson
nilssøn
nilssøns
nin
nina
nine
ning
ningen
ninger
ninja
nintendo
ninth
nio
nirvana
nis
nissan
nissen
nissens
nitrogen
nittedal
nitten
nittende
niva
nixon
nizam
nj
nja
nk
nkc
nkf
nkl
nko
nkp
nl
nla
nm
nme
nn
nna
nndb
nne
nner
nnich
nnkf
no
noah
nobel
nobelprisen
nobelprisvinner
nobelprize
nobels
nobelstiftelsen
noble
nobody
noch
noctuidae
node
noe
noel
noen
noenlunde
noensinne
nogaj
nogen
nogenlunde
nogensinde
noget
nogle
noir
noise
nok
nokia
noko
nokon
nokre
noksa
noksaa
noksom
nolan
nombres
nome
nomenclature
nomenklatur
nomes
nomina
nominasjon
nominasjoner
nominatformen
nomination
nominations
nominees
nominert
nominerte
noms
nomura
non
nonne
nonner
noor
noord
noosfere
nor
nora
norad
norberg
norbert
nord
nordahl
nordal
nordamerikanske
nordberg
nordby
norddal
norden
nordenden
nordenfjeldske
nordenfor
nordens
nordenskio
norderhov
nordfjord
nordheim
nordhordland
nordic
nordin
nordishavet
nordisk
nordiska
nordiske
nordkapp
nordkoreanske
nordkysten
nordland
nordlands
nordlandsbanen
nordli
nordlig
nordlige
nordligste
nordlys
nordmand
nordmann
nordmannen
nordmark
nordmarka
nordmenn
nordmennene
nordmænd
nordmændene
nordmændenes
nordmøre
nordnes
nordnorsk
nordnorske
nordover
nordpolen
nordre
nordregionen
nordreisa
nordrhein
nordsamisk
nordsida
nordsiden
nordsjøen
nordstoga
nordstrand
nordtyske
norduest
nordvest
nordvestlige
nordvestover
nordvestre
nordøst
nordøstlige
nordøstover
nordøstre
nordøstregionen
nore
noreg
noregs
norfolk
norge
norges
norgescupen
norgeshistorie
norgeskart
norgesmester
norgesmestere
norgesmesterskap
norgesmesterskapet
norheim
norlep
norli
norm
norma
normal
normalbakke
normalbakken
normaldistansen
normale
normalt
norman
normand
normandie
normann
normannerne
normannisk
normanniske
normdatei
normer
norra
norris
norrko
norrman
norrøn
norrøne
norrønt
nors
norse
norsk
norske
norskehavet
norskekysten
norskspra
norstedt
norte
north
northampton
northern
northug
northumberland
northumbria
northwest
norton
nortraship
norum
norv
norvegiae
norvegica
norway
norwegen
norwegiae
norwegian
norwegiancharts
norwich
nos
not
notable
notat
notater
note
noter
notert
noterte
notes
nothing
notices
notodden
notre
nottingham
nou
nouveau
nouvelle
nouvelles
nov
nova
novak
novbr
novel
novelle
novellen
noveller
novellesamling
november
novgorod
novi
novo
novus
now
npr
nr
nrk
nrks
ns
nsb
nsbs
nsd
nsdap
nsf
nske
nsson
nst
nste
nster
nt
ntb
nte
nter
nth
nther
ntnu
ntnus
nu
nuclear
nueva
nuevo
nukat
null
num
numa
number
numbered
numbers
numedal
numerisk
numidia
nummer
nummerert
nummererte
nummeret
numre
numrering
nun
nuntius
nur
nuremberg
nuværende
nv
nve
nves
ny
nya
nyborg
nybygde
nybygg
nybyggere
nydalen
nyde
nye
nyere
nyeste
nyetablerte
nyfødte
nyga
nygaard
nyheten
nyhetene
nyheter
nyhetsbrev
nyhus
nyi
nyinnspilling
nykommer
nyland
nylig
nymfene
nymphalidae
nynorsk
nynorskordboka
nyopprettede
nyquist
nyre
nys
nyskapende
nystartede
nyt
nyte
nyter
nytimes
nytt
nytta
nytte
nyttig
nyttige
nyvalg
nz
nær
nære
nærheden
nærhet
nærheten
næring
næringen
næringer
nærings
næringsdrivende
næringsliv
næringslivet
næringslivsleder
næringsplanten
næringsstoffer
næringsvirksomhet
nærliggende
nærme
nærmede
nærmer
nærmere
nærmest
nærmeste
nærmet
næromra
nært
nærvær
nærværelse
nærværende
nærøy
nærøysund
næs
næss
næst
næste
næsten
nævne
nævner
nævnes
nævnt
nævnte
nød
nødhjelp
nødig
nødt
nødvendig
nødvendige
nødvendighet
nødvendigt
nødvendigvis
nøie
nøje
nøkkel
nøkkelen
nøt
nøtter
nøtterøy
nøyaktig
nøyaktige
nøyaktighet
nøye
nøytral
nøytrale
nøytralitet
nøytralt
o
oak
oakland
oasis
ob
oba
obama
obenberger
oberst
oberstdorf
oberstløytnant
obituary
object
objects
objekt
objektene
objekter
objektet
objektiv
oblast
obligatorisk
obligatoriske
obo
obos
obs
obscura
obscurus
observasjon
observasjonene
observasjoner
observations
observatoire
observatoriet
observatorium
observatory
observatør
observatører
observer
observere
observeres
observert
observerte
obsidian
oc
occidentalis
ocean
och
ochs
ochthebius
oclc
oct
octavius
october
od
oda
odal
odd
odda
oddbjørn
odde
odden
odds
oddvar
ode
odense
odeon
oder
odescalchi
odessa
odin
odins
odisha
odo
odysseen
odyssevs
odyssey
oecd
oedichirus
of
off
offensiv
offensive
offensiven
offentlig
offentlige
offentliggjorde
offentliggjort
offentlighet
offentligheten
offer
offeret
office
officer
official
officials
officiel
offiser
offiseren
offiserene
offiserer
offisiell
offisielle
offisielt
offshore
offuer
oficial
ofoten
ofre
ofrene
ofret
ofte
oftedal
oftere
oftest
og
ographique
ogsa
ogsaa
ogso
ogullari
oh
ohaus
ohio
ohm
ohne
oil
oilers
ois
oise
ok
okkupantene
okkupasjon
okkupasjonen
okkupasjonsmakten
okkupere
okkupert
okkuperte
oklahoma
okse
oksygen
okt
oktober
ol
ola
olaf
olafs
olai
olaus
olav
olavs
olavsmedaljen
olavsson
old
oldebarn
oldefar
oldenborrer
oldenburg
oldest
oldfield
oldham
oldtid
oldtiden
oldtidens
ole
oleg
oleksandr
olga
oli
oliveira
oliver
olivia
olivier
olje
oljen
olle
olof
ologie
olsen
olsenbanden
olsens
olson
olsson
oluf
olympedia
olympia
olympiad
olympiastadion
olympic
olympics
olympique
olympisk
olympiske
om
oman
omar
omarbeidet
ombord
ombudsmand
ombygd
ombygget
ombygging
ombyggingen
omdannes
omdannet
omdiskutert
omdømme
omdøpt
omega
omegatiming
omegn
omer
omfang
omfanget
omfatte
omfattende
omfatter
omfattes
omfattet
omformet
omga
omgang
omganger
omgir
omgitt
omgivelsene
omgivelser
omgjort
omhandlede
omhandler
omhandlet
omhyggelig
omkamp
omkom
omkommer
omkommet
omkomne
omkranset
omkrets
omkring
omkringliggende
omland
omliggende
omnibus
omorganisering
omorganisert
omra
omraade
omreisende
omringet
omsetning
omsetningen
omsider
omslag
omslaget
omsorg
omsorgsdepartementet
omspillet
omstendighetene
omstendigheter
omstridt
omstridte
omstændighed
omstændigheder
omtale
omtalen
omtaler
omtales
omtalt
omtalte
omtrent
omtrentlig
omukama
omvendt
omvendte
omverdenen
on
once
ond
onde
ondskap
ondt
one
ones
onkel
onkelen
online
only
ono
onomastica
onomastiche
onore
ons
onsdag
onstad
ontario
onthophagus
op
opdaget
opdal
ope
opel
open
opening
opens
opera
operaen
operaer
operasanger
operasjon
operasjonen
operasjonene
operasjoner
operation
operations
operativ
operative
operativsystem
operativsystemer
operativsystemet
operativt
operatør
operatører
operere
opererer
opereres
operert
opererte
opfatning
opfordring
opført
opgave
ophold
opholde
opholdt
opinion
opium
oplandene
oplysning
oplysninger
opmærksom
opmærksomhed
opover
opp
oppa
opparbeidet
oppbevares
oppbevaring
oppbevart
oppbygging
oppbyggingen
oppbygning
oppdaga
oppdage
oppdagelse
oppdagelsen
oppdagelser
oppdagelsesreisende
oppdager
oppdageren
oppdages
oppdaget
oppdal
oppdater
oppdatering
oppdateringer
oppdatert
oppdeling
oppdelingen
oppdelt
oppdrag
oppdragelse
oppdraget
oppdratt
oppdrett
oppe
oppega
oppfant
oppfatning
oppfatningen
oppfatninger
oppfatte
oppfatter
oppfattes
oppfattet
oppfinnelse
oppfinnelsen
oppfinnelser
oppfinner
oppfinneren
oppfordrer
oppfordret
oppfordring
oppfostret
oppfunnet
oppfylle
oppfyller
oppfylt
oppfylte
oppfølger
oppfølgere
oppfølgeren
oppfølging
oppføre
oppfører
oppføring
oppføringen
oppføringer
oppførsel
oppført
oppførte
oppga
oppgav
oppgave
oppgaven
oppgavene
oppgaver
oppgi
oppgir
oppgis
oppgitt
oppgjør
oppgjøret
oppgradering
oppgradert
opphav
opphavet
opphavsrett
opphengt
oppheve
opphevet
opphold
oppholde
oppholder
oppholdet
oppholdt
opphørte
opphøyd
opphøyde
opphøyet
oppi
oppkalt
oppkjøp
oppkjøpet
opplag
opplaget
opplagstall
opplagt
oppland
opplegg
opplevd
opplevde
oppleve
opplevelse
opplevelsen
opplevelser
opplever
oppleves
opplyser
opplysning
opplysningene
opplysninger
opplysningstiden
opplyst
opplyste
opplæring
opplæringen
oppløse
oppløsning
oppløsningen
oppløst
oppløste
oppma
oppmerksom
oppmerksomhet
oppmerksomheten
oppmuntre
oppmuntret
oppna
oppnevnt
opposisjon
opposisjonen
opposition
oppover
oppreist
opprett
oppretta
opprette
opprettelse
opprettelsen
opprettes
opprettet
opprettholde
opprettholder
opprettholdt
opprinnelig
opprinnelige
opprinnelse
opprinnelsen
opprykk
opprør
opprørere
opprørerne
opprøret
opprørske
opprørt
oppsal
oppsatt
oppsetning
oppsetningen
oppsetninger
oppsett
oppsikt
oppsiktsvekkende
oppskrift
oppskrifter
oppslag
oppslagsordet
oppslagsverk
oppslutning
oppsta
oppstanden
oppstart
oppstarten
oppsto
oppstod
oppsummering
oppsving
oppsyn
oppsøke
oppsøker
oppsøkte
opptak
opptakene
opptaket
opptatt
opptegnelser
opptil
opptra
opptre
opptreden
opptredener
opptrer
opptrykk
opptøyene
opptøyer
oppvarming
oppvekst
oppveksten
oppvokst
oprindelig
oprindelige
oprindelse
ops
opsahl
opstod
optage
optaget
optegnelser
optisk
optiske
optraadte
optræde
optræden
opus
or
ora
oracle
oral
orange
oranien
oranje
oransje
orchestra
orchymont
orconectes
ord
ordbank
ordbog
ordbok
ordbokoppføringer
orde
orden
ordene
ordenen
ordenens
ordener
ordens
ordenstegnet
ordentlig
ordentlige
order
orders
ordet
ordets
ordforra
ordfører
ordførere
ordføreren
ordinert
ordinær
ordinære
ordne
ordner
ordnet
ordning
ordningen
ordre
ordren
ordrer
ords
ordspill
ore
oregon
orfeus
org
organ
organer
organet
organic
organisasjon
organisasjonen
organisasjonene
organisasjonens
organisasjoner
organisation
organisatorisk
organisere
organiserer
organiseres
organisering
organiseringen
organisert
organiserte
organisk
organiske
organisme
organismer
organist
organization
orgel
orgelet
orient
oriental
orientalis
orientalske
orientering
orienteringsløper
orientert
orienterte
orig
origin
original
originale
originalen
originalt
originaltittel
origins
origo
orion
orkan
orkanen
orkanger
orkdal
orkester
orkesteret
orkestre
orkla
orknøerne
orknøyene
orlamu
orlando
orle
orleans
orm
ormen
ornithology
ornitologirelaterte
ornitologisk
oro
orrell
orsini
ort
ortenberg
ortenburg
ortiz
ortmann
ortodoks
ortodokse
ortografi
os
osa
osaka
osborne
osbourne
oscar
oscars
ose
oseania
osen
osiris
oskar
oslo
oslofjord
oslofjorden
oslomet
oslos
osm
osman
osmanene
osmansk
osmanske
osprey
osraige
osroene
oss
ossetia
ossian
ost
osten
osterøy
ostindiske
ostracoda
osv
osvald
oswald
ot
other
others
otis
otta
ottar
ottawa
otte
otter
ottesen
otto
ottobre
ottosen
ou
our
out
outer
outside
outstanding
ouvrard
ov
ova
oval
ovale
ovalt
ove
oven
ovenfor
ovenfra
ovennevnte
ovennævnte
ovenpaa
over
overall
overalt
overbevise
overbevisende
overbeviser
overbevisning
overbevist
overbeviste
overda
overdommer
overdose
overdratt
overdreven
overdrevet
overeenskomst
overens
overenskomst
overensstemmelse
overfalt
overfamilie
overfamilien
overfamilier
overflate
overflaten
overflater
overflatisk
overflod
overflødig
overfor
overføre
overfører
overføres
overføring
overføringen
overført
overførte
overga
overgang
overgangen
overgav
overgi
overgitt
overgivelse
overgrep
overhalla
overherredømme
overhode
overhodet
overhoved
overhovedet
overhuset
overhøyhet
overkant
overklassen
overkommando
overkonge
overkroppen
overlappende
overlate
overlatt
overlege
overlegen
overlegenhet
overlegne
overlevd
overlevde
overleve
overlevelse
overlevende
overlever
overlevert
overlot
overlærer
overmaade
overnatting
overnaturlige
overorden
overordentlig
overordentlige
overordnede
overordnet
overraskelse
overraskende
overrasket
overs
oversatt
oversatte
oversett
oversette
oversettelse
oversettelsen
oversettelsene
oversettelser
oversetter
oversettes
overside
oversiden
oversigt
oversikt
oversikten
oversjøisk
oversjøiske
overskriften
overskudd
overskuddet
overstammen
overstiger
oversvømmelser
oversættelse
overta
overtale
overtalt
overtalte
overtar
overtatt
overtid
overtok
overtro
overva
overveiende
overvekt
overveldende
overview
overvinne
overvintrer
ovf
ovid
ovn
ovnen
owain
owen
owens
own
oxford
oxfordshire
oxypoda
oy
oz
p
pa
paa
paafaldende
paafølgende
paal
paany
paasche
paaske
paastand
paastod
pablo
pac
pace
pacheco
pacific
pack
packard
packers
paderborn
padishah
padler
padling
padmakara
padova
padre
padro
paduspanidene
paduspanidenes
paederus
pag
pagan
page
pages
paglinawan
pai
paige
pain
painting
paionia
paisley
pak
pakistan
pakistans
pakistansk
pakistanske
pakke
pakken
pakker
pakket
pakt
pakten
pal
palace
palaearctic
palaiologos
palais
palass
palasset
palatin
palau
palazzo
pale
palearktiske
palenque
palermo
palestina
palestine
palestinsk
palestinske
palgrave
pallars
pallas
pallava
pallavolo
palle
palm
palma
palme
palmer
palpene
paluzzi
paluzzo
pam
pamela
pamplona
pan
panama
panamerikanske
panda
pandemien
pandora
panel
panikk
panne
pannen
pannonia
panorama
panser
pansrede
pansret
pant
pantheon
panther
panthers
panzer
paolo
papa
pape
paper
paperback
papers
papilio
papilionoidea
papir
papirer
papiret
papp
pappa
papua
papyrus
par
para
parade
paradis
paradise
parafyletisk
paragraf
paraguay
parai
parallel
parallell
parallelle
paralleller
parallellsidige
parallelt
paralympic
paralympics
paralympiske
parameshvara
parameteren
paramilitære
paramount
parana
parasitter
parc
pardosa
pare
parene
parent
parentes
paret
paringen
paris
parish
park
parken
parkens
parker
parkeringsplass
parks
parlament
parlamentarikerforsamling
parlamentarisk
parlamentariske
parlamentet
parlamentets
parlamentsdebatter
parlamentsmedlem
parlamentsvalget
parliament
parløp
parma
parocchi
parodi
parque
parr
parry
parsammensetning
parsons
part
partei
partene
partenkirchen
parter
parti
partia
partial
participation
partido
partiene
partier
parties
partiet
partiets
partikkel
partikkelen
partiklene
partikler
partileder
partipolitisk
partis
partisekretær
partisipp
partiske
partner
partnere
partners
partnership
partnerskap
parts
party
parvis
parvorden
pas
pasai
pascal
pascoe
pasha
pasient
pasienten
pasientene
pasientens
pasienter
pasja
pasning
pasninger
pasningsyards
paso
pass
passage
passasje
passasjer
passasjerene
passasjerer
passasjerfly
passe
passende
passer
passere
passerer
passeri
passeriformes
passert
passerte
passes
passet
passing
passion
passiv
passive
past
pastor
pastorale
pat
patent
pater
path
patients
patriark
patriarken
patrice
patricia
patrick
patrik
patriot
patriotiske
patriots
patrizi
patron
patronen
patroner
pattedyr
patterns
patterson
patti
patton
pau
paul
paula
pauli
paulian
pauline
paulo
pauls
paulsen
paulus
paus
pausanias
pause
pave
pavel
pavelig
pavelige
pavels
paven
pavens
pavestolen
pavia
pax
pay
payne
pays
payton
paz
pb
pbs
pc
pd
pdf
pdp
pe
peace
peak
peakbook
pearce
pearl
pearson
peck
pedagog
pedagogikk
pedagogisk
pedagogiske
pedal
peder
pedersen
pederssøn
pedipalpenes
pedro
peel
peer
peerage
pegasus
peggy
peke
peker
pekere
pekerside
peking
pekka
pekt
pekte
pele
pelle
peloponnes
pels
pelsen
peltonturbin
pen
penbare
penbaring
penbart
pene
penet
peng
penge
pengene
penger
penguin
penhet
penhvile
penhvilen
peninsula
penis
penn
pennen
pennsylvania
penny
pensjon
pensjonert
pensjonerte
pensjonist
penskjold
pent
pentagon
pentathlon
pentodontini
people
peoples
pepper
peppers
per
peracarida
perak
perche
percy
pereira
perez
perfect
perfekt
perfekte
perfektum
performance
pergamon
perikles
peringuey
period
periode
perioden
periodene
perioder
periodisk
periodiske
perkins
perkusjon
perle
perler
perm
permanent
permanente
permisjon
pernambuco
pernille
perrin
perry
perserne
perseus
persia
persian
persias
persisk
persiske
person
personal
personale
personality
personalunion
personbiler
personell
personen
personene
personer
personlig
personlige
personlighed
personlighet
personligheter
personnavn
personnes
personrelaterte
persons
perspective
perspectives
perspektiv
perspektiver
persson
perth
pertoire
peru
peruansk
peruanske
perumal
perus
pest
pesten
pet
petar
pete
peter
peters
petersburg
petersen
peterskirken
peterson
petit
petr
petra
petri
petroleum
petrov
petrovitz
petrus
petter
pettersen
pettersson
petty
peugeot
peyton
pez
pf
pfalz
pfalzgreve
pfirt
pg
pga
ph
pha
phane
phantom
phase
phd
phi
phil
philadelphia
philharmonic
philip
philipp
philippe
philippine
philippines
philips
phillip
phillips
philol
philos
philosophical
philosophie
philosophy
phoebe
phoenix
phone
photinus
photo
photos
php
phu
phylogenetic
phylogeny
physical
physics
physiology
phytophaga
pi
pia
piacenza
pianist
pianisten
piano
piaui
piazza
pic
picasso
pick
picks
picture
pictures
pidgeon
pie
piece
pieces
piedras
piemonte
pier
pierce
piero
pierre
piet
pieter
pietro
pige
pigen
piger
pigg
pigger
pihl
pike
piken
piker
pikternes
pil
pilar
pilatus
pilegrimer
piler
pilot
piloten
pilotene
piloter
pilskud
pin
pine
ping
pings
pink
pinneberg
pinsebevegelsen
pinto
pinus
pinyin
pio
piombino
pione
pioneer
pioner
pionerene
pionerer
piotr
pipe
piper
pipin
pippi
pirate
pirater
pirates
pisa
pistol
pistolen
pistoler
pit
pitch
pitt
pittsburgh
pius
pizza
pjotr
pk
pl
pla
place
places
placid
plads
pladsen
plage
plager
plaget
plagg
plain
plains
plakater
plan
planck
plane
planen
planene
planer
planet
planetary
planeten
planetene
planetens
planeter
planets
planica
planker
plankton
planktoniske
planla
planlagt
planlagte
planlegge
planlegger
planlegges
planlegging
planleggingen
planning
plans
plant
plantbase
plante
plantearter
planteetere
plantefamilie
plantemateriale
planten
plantene
planter
planterøtter
planteslekt
plantet
plants
plasma
plass
plassen
plassene
plasser
plassere
plasserer
plasseres
plassering
plasseringen
plasseringer
plassert
plasserte
plast
plata
plate
plateetiketten
platekontrakt
platen
platene
plateprodusent
plater
plateselskap
plateselskapet
platform
platia
platina
platinum
platon
platons
platou
plattform
plattformen
plattformer
platz
play
playboy
played
player
players
playing
playmakerstats
playoff
plays
playstation
plaza
plc
please
pleasure
pleide
pleie
pleier
plejede
pligt
plikt
plikter
plinius
plo
plos
plot
pludseli
pludselig
plukke
plukket
plus
pluss
plutark
pluto
plutselig
plwabn
plymouth
plyndre
plyndret
plyndring
pm
pmc
pmi
pmid
pna
pnas
pne
pnene
pner
pnes
pnet
pning
pningen
pninger
pningsseremonien
po
poblacio
pocket
podcast
podesta
poe
poem
poems
poeng
poengene
poenget
poengsum
poesi
poet
poeten
poeter
poetisk
poetiske
poetry
poets
point
points
poitiers
pokal
poke
poker
pol
polakker
poland
polar
polare
polarinstitutt
polaris
polaromra
pole
polen
polene
polens
police
policejni
policy
polis
polish
polit
politbyra
politi
politibetjent
political
politico
politics
politidistrikt
politiet
politiets
politifolk
politik
politiken
politikens
politiker
politikerarkiv
politikere
politikeren
politikerne
politikk
politikken
politimann
politimannen
politimenn
politimester
politisch
politische
politisk
politiske
politistasjon
poll
pollen
polly
polo
polotsk
polsce
polsk
polske
polski
polydor
polynesia
polyommatus
polyphaga
pomenovali
pommerellen
pommern
pompeii
pompeius
pong
ponomarenko
pont
ponte
ponthieu
pontifex
pontoppidan
pontos
pontus
pool
poole
poor
pop
pope
popmusikk
popolazione
popolo
popper
populacao
popular
popularitet
populariteten
populasjon
populasjonen
populasjoner
population
populations
populi
populær
populære
populærmusikk
populært
por
pors
porsanger
porsche
porselen
porsgrunn
port
porta
portable
portal
portalen
portaler
porte
porten
portene
porter
portland
portman
porto
portrait
portrett
portretter
portrettert
portrettet
portsmouth
portugal
portugals
portugisere
portugiserne
portugisisk
portugisiske
pose
poseidon
posen
posisjon
posisjonen
posisjonene
posisjoner
position
positiv
positive
positivt
possible
post
posta
posten
postens
poster
posthumt
postkontor
postkort
pot
potensial
potensialet
potensiell
potensielle
potensielt
potential
poteter
potsdam
potter
poul
poulsen
pour
povel
powell
power
powers
powys
poznan
pp
pr
pra
prabu
practical
practice
practices
pradesh
praefectus
praetore
praetorio
praha
prajn
praksis
praksisen
praktbiller
praktisere
praktiserer
praktisert
praktiserte
praktisk
praktiske
praktskarabider
prat
pratihara
pratt
prayer
pre
preben
predator
predikant
prefekt
prefektur
prefekturet
preg
prege
preger
preges
preget
prehistoric
preis
prekener
prekestolen
prelat
preliminary
premie
premier
premiere
premieren
premio
prentice
presens
present
presentasjon
presentation
presented
presentere
presenterer
presenteres
presentert
presenterte
presents
presidencia
president
presidente
presidenten
presidentens
presidenter
presidential
presidentkandidat
presidents
presidentskapet
presidentvalg
presidentvalget
presis
presise
presisjon
presist
presley
press
presse
pressekonferanse
pressemelding
pressen
presser
presses
presset
pressure
prest
prestasjon
prestasjoner
prestega
prestegjeld
prestegjeldet
presten
prestene
prester
presteseminaret
presteskapet
presteviet
prestisje
prestisjefylte
preston
pretendent
preteritum
pretty
preus
preussen
preussens
prevention
preview
prezidium
pri
price
pride
priest
prikker
prima
primary
primas
prime
primera
primitiv
primitive
primo
primus
primær
primære
primærfaktor
primært
prince
princeps
princess
princeton
principal
principles
prindsen
prins
prinsen
prinsens
prinsesse
prinsessen
prinsipp
prinsippene
prinsipper
prinsippet
print
printing
prinz
prioninae
prior
prioritert
prioritet
pris
prisen
prisene
priser
priset
prison
prisvinnere
privat
private
privatpersoner
privilegier
privilegium
prix
prize
pro
problem
problematisk
problemene
problemer
problemet
problems
problemstillinger
procambarus
proceedings
process
procycling
procyclingstats
producer
product
production
productions
products
produksjon
produksjonen
produksjoner
produksjonskapasitet
produksjonskostnadene
produkt
produkte
produktene
produkter
produktet
produktiv
produktive
produsent
produsenten
produsentene
produsenter
produsere
produserer
produseres
produsert
produserte
prof
profesjonell
profesjonelle
profesjonelt
professional
professionnel
professor
professorat
professoren
professorer
profet
profeten
proff
profil
profile
profilen
profiler
profilert
profilerte
profiles
profilside
program
programleder
programledere
programme
programmene
programmer
programmering
programmeringsspra
programmet
programming
programvare
programvaren
progress
progressiv
progressive
project
projects
projekt
proklamert
proklamerte
prokonsul
prokurator
proleksis
prolog
prologen
prometheus
prominent
prominente
promo
promotere
promotion
pronomen
pronotum
pronsk
pronunciation
prop
propaganda
propeller
properties
property
proporsjonal
prosa
prosedyrer
prosent
prosentpoeng
prosess
prosessen
prosessene
prosesser
prosessor
prosessoren
prosessorer
prosjekt
prosjektene
prosjekter
prosjektet
prosjektleder
prosoma
prosopocoilus
prosopographique
prosopography
prospects
prost
prosti
prostiet
prostituert
prostituerte
prostitusjon
protaetia
protection
protein
proteiner
protektorat
protektoratet
protest
protestant
protestanter
protestantisk
protestantiske
protestene
protester
protesterte
proto
protocol
protokoll
protokollen
protokoller
proton
prototype
prototypen
prototyper
proud
provence
proviant
providence
province
provinces
provincia
provincial
provins
provinsen
provinsene
provinsens
provinser
provinsguvernører
provinshovedstaden
provisorisk
provisoriske
provst
provsten
prp
prudence
prydet
prytz
præg
præst
præstegjeld
præsten
præster
prøvd
prøvde
prøve
prøven
prøver
prøysen
prøyssisk
prøyssiske
ps
pselaphinae
pseudautomeris
pseudo
pseudonym
pseudonymet
psevdonymet
psgc
psi
pskov
pst
psychiatry
psychological
psychology
psykiater
psykiatri
psykiatrisk
psykiatriske
psykisk
psykiske
psykolog
psykologi
psykologisk
psykologiske
pt
pterolophia
pteropliini
pterostichinae
pterostichus
ptolemaios
pu
pub
pubescens
public
publication
publications
publikasjon
publikasjonen
publikasjoner
publikum
publikumsprisen
publikumssuksess
publique
publisere
publiserer
publiseres
publisering
publisert
publiserte
published
publisher
publishers
publishing
publius
pueblo
puerto
pulje
puls
puma
pumpe
pumper
pumpes
pund
punjab
punk
punkt
punktene
punkter
punktert
punkterte
punktet
punktrader
punktstriper
punktum
punktøyne
punta
puppe
puppestadie
puppestadium
pure
purple
pursuit
push
pusset
pust
puste
put
putin
putnam
putzeys
px
pyeongchang
pyongyang
pyramid
pyramide
pyramiden
pyreneene
pyrmont
python
q
qa
qaida
qaiwain
qasim
qasimi
qatar
qb
qi
qian
qin
qing
qinghai
qocho
qu
quad
qualification
qualifying
quality
quantum
quartal
quarter
quarterback
quarterbacken
quarterbacks
quarterly
quartet
quatro
quattro
que
quebec
quedius
queen
queens
queensland
quentin
quercus
query
quest
question
questions
quez
qui
quick
quiet
quincy
quinn
quintus
quipe
quirinale
quisling
quislings
quiz
quo
quotient
qutb
qv
r
ra
raa
raabte
raad
raade
raadede
raadet
rab
rabbit
race
races
rachel
racing
rad
rada
radar
rader
radiation
radical
radikal
radikale
radikalt
radio
radioaktive
radioen
radioprogram
radioprogrammet
radiostasjonen
radiostasjoner
radius
rae
raex
raf
rafael
raffaele
raffles
raffray
rafinesque
raga
rage
rager
ragna
ragnar
ragnarok
ragnhild
ragnvald
rahman
rai
raid
raiders
raidet
rail
railroad
railway
railways
raimond
rain
rainbow
rainer
raja
rajadiraja
rajah
rakel
rakett
raketter
rakk
rakkestad
ral
ralf
rally
ralph
ram
rama
ramberg
rami
ramita
ramm
ramme
rammen
rammene
rammer
rammes
rammet
rammeverk
ramo
ramon
ramos
rams
ramsay
ramses
ramsey
ran
rana
ranch
rand
randaberg
randall
rande
randen
randers
randi
randolph
random
randsfjorden
randy
rane
ranet
rang
range
ranger
rangerer
rangering
rangers
rangert
rangerte
ranheim
rank
ranking
rankingen
rankings
rant
rantzau
rao
raoul
rap
raphael
rapid
rapids
rapper
rapperen
rapport
rapporten
rapporter
rapportere
rapporterer
rapportering
rapportert
rapporterte
rar
rard
rare
rart
ras
rasch
rase
rasen
rasende
rasene
raser
raseri
rashid
rashtrakuta
rasisme
rasistisk
rasistiske
rask
raske
raskere
raskest
raskeste
raskt
rasmus
rasmussen
rassool
raste
rat
rate
ratifisert
rating
ratings
ration
rau
raud
raufoss
rauma
rav
raven
ravenna
ravens
ravensberg
ravi
ravn
raw
ray
raya
raymond
rb
rbar
rbare
rbk
rbok
rbund
rbundet
rc
rca
rd
rdal
rdbruker
rde
rden
rdene
rdens
rder
rdl
rdlr
rdoba
rds
rdsbruk
re
rea
reach
read
reader
reading
ready
reagan
reagere
reagerer
reagerte
reaksjon
reaksjonen
reaksjoner
reaktor
real
realfag
realgm
realisere
realisert
realisme
realistisk
realistiske
realitet
realiteten
reality
really
realskole
reason
rebecca
rebekka
rebel
rebiba
rebro
rec
receiver
recent
recognition
record
recorded
recording
recordings
records
recovery
rector
red
redaksjon
redaksjonen
redaktør
redaktøren
redaktører
redaktørliste
redatam
redd
redde
redder
reddet
reddi
rede
redegjørelse
reder
rederi
rederiet
redet
rediger
redigere
redigering
redigert
redigerte
redistricting
redning
redningsselskapet
redskap
redskaper
redskins
reduksjon
redusere
reduserer
reduseres
redusert
reduserte
ree
reed
reell
reelle
reelt
rees
reese
reeve
reeves
ref
referanse
referansen
referanser
referat
reference
referere
refererer
refereres
referert
refererte
reflections
refleksjon
reflektere
reflekterer
reflektert
reflekterte
reform
reformasjonen
reformation
reformationen
reformen
reformene
reformer
reformerte
reg
regel
regelen
regelmessig
regelmessige
regelverk
regelverket
regensburg
regent
regesta
reggae
reggio
regi
regia
regien
regierungsbezirk
regime
regiment
regimenter
regimentet
regimet
regina
reginald
regindex
regine
regio
region
regional
regionale
regionalt
regionen
regionene
regionens
regioner
regioni
regionra
regions
regionsreformen
regis
regissert
regisserte
regissør
regissøren
regissører
register
registeret
registre
registrere
registreres
registrering
registreringer
registrert
registrerte
registrete
registry
regjerende
regjering
regjeringa
regjeringen
regjeringene
regjeringens
regjeringer
regjerings
regjeringsledere
regjeringssjef
regjeringstid
regjert
regjerte
reglene
regler
regn
regne
regner
regnes
regnet
regning
regnskap
regnskog
regulere
regulerer
reguleres
regulering
reguleringen
reguleringsplan
regulert
regulerte
regulær
regulære
rehabilitering
rehabilitert
rei
reich
reid
reidar
reidun
reiersrud
reifferscheid
reign
reilly
reims
rein
reina
reindrift
reine
reinhard
reinhardt
reinhold
reint
reir
reiret
reis
reise
reisema
reisen
reisende
reiser
reiss
reist
reiste
reitan
reitter
rejse
rejser
rejste
rekke
rekkefølge
rekkefølgen
rekkehus
rekken
rekker
rekkevidde
rekkevidden
reklame
rekonstruert
rekonstruksjon
rekord
rekorden
rekorder
rekruttere
rekruttering
rekruttert
rekrutterte
reksten
rektangulær
rektangulært
rektor
relasjon
relasjonen
relasjoner
related
relatert
relaterte
relation
relations
relationship
relationships
relativ
relative
relativt
relay
release
released
releases
relevant
relevante
relief
relieff
relieffer
religion
religionen
religioner
religions
religionsrelaterte
religious
religiøs
religiøse
religiøst
relikvier
rem
rema
remains
remember
remington
remis
remix
remos
ren
rena
renaissance
renate
renato
renault
renberg
rendalen
rene
renes
renessanse
renessansen
renhet
rening
reningen
renn
renne
rennebu
rennende
rennene
renner
rennes
rennet
reno
renovert
rense
renset
rensing
rent
rente
renter
rep
reparasjon
reparasjoner
reparere
reparert
repertoar
repertoaret
report
reportasje
reportasjer
reporter
reports
representant
representanten
representantene
representantenes
representanter
representantskapet
representasjon
representative
representere
representerer
representeres
representert
representerte
reprint
reprise
reptantia
reptile
repu
republic
republican
republik
republikanere
republikanerne
republikansk
republikanske
republikk
republikken
republikkens
republikks
republiky
requiem
rer
res
rescue
research
reservatet
reserve
reserver
reservert
reservoar
reservoaret
residens
resident
residente
residents
residerende
resistance
resolusjon
resolution
resort
resource
resources
respekt
respektert
respektive
respons
response
ressurs
ressursene
ressurser
rest
restaurant
restauranten
restauranter
restaurering
restaureringen
restaurert
resten
restene
rester
resterende
restriksjoner
result
resultat
resultatene
resultater
resultatet
resultatliste
resultatoversikt
resultatside
resultere
resulterende
resulterer
resultert
resulterte
results
ret
rete
retning
retningen
retninger
retningslinjer
retorikk
retrett
retrieved
retriever
rets
rett
rette
retten
rettens
retter
rettere
rettes
rettet
rettferdig
rettferdighet
rettigheder
rettighetene
rettigheter
rettmessige
rettslig
rettslige
rettssak
rettssaken
rettssaker
rettsvitenskap
rettvinklede
retur
return
returnere
returnerer
returnert
returnerte
returns
reunion
reuss
reuter
reuters
rev
revealed
reveals
reven
revenge
revet
revidert
reviderte
review
reviews
revis
revised
revision
revisited
revisjon
revisjonen
revisor
revista
revival
revolusjon
revolusjonen
revolusjoner
revolusjonær
revolusjonære
revolution
revolutionary
revolver
revue
revy
revyen
rex
rey
reyes
reykjavi
reynolds
rez
reza
rfagre
rfc
rg
rga
rgang
rgen
rgy
rhead
rheda
rheged
rhein
rheinland
rhinen
rhinotragini
rho
rhode
rhodes
rhodesia
rhodos
rhopalocera
rhundre
rhundrene
rhundrer
rhundreskiftet
rhundret
rhundrets
rhus
rhys
rhythm
ri
ria
riaa
rian
riata
ribbentrop
ribe
ric
rica
ricardo
ricas
riccardo
ricci
rice
rich
richard
richards
richardson
richie
richmond
richter
rick
ricky
rico
ricordi
ridder
riddere
ridderen
ridderne
ride
ridende
rider
ridge
riding
ridley
rie
riedel
ries
rifle
riflen
rifler
rig
riga
rigdom
rige
riger
riges
riget
rigets
right
rights
rigmor
rigord
rigtig
rigtignok
rigtigt
riis
riise
riisnæs
rik
rikard
rikdom
rike
rikelig
rikene
riker
rikere
rikes
rikeste
riket
rikets
rikke
riksantikvaren
riksantikvarens
riksarkivet
riksdag
riksdagen
riksdaler
riksdekkende
riksforsamlingen
riksgrensen
rikshospitalet
rikshovmester
rikskansler
rikskringkasting
riksma
riksra
riksseglet
riksteatret
riksva
riksvei
rikt
riktig
riktige
riktignok
rilar
riley
rim
rimelig
rimeligere
rimeligt
rimeligviis
rimeligvis
rin
rindal
rinder
ring
ringe
ringebu
ringen
ringene
ringenes
ringer
ringere
ringerike
ringerikes
ringnes
ringo
rings
ringsaker
ringte
ringuey
ringvinger
rio
riot
rip
ripley
ripper
rir
ris
risa
rise
risikere
risikerer
risiko
risikoen
rising
risk
risnes
rissa
risør
rita
ritchie
rite
riter
ritt
ritter
rittet
ritual
ritualer
rituelle
rival
rivaler
rivaliserende
rivalisering
rivaliseringen
rive
river
rivera
rivers
riverside
rives
rjazan
rjukan
rk
rkd
rkdartists
rlag
rlaget
rlden
rlek
rlig
rlige
rligere
rligste
rlitz
rlts
rm
rmland
rms
rn
rna
rnberg
rne
rnene
rner
rnes
rnet
rni
rno
rnten
ro
roa
road
roads
roald
roar
rob
roba
robbie
robbins
roberson
robert
roberto
robertprisen
roberts
robertson
robin
robinson
robot
robson
robust
robustus
roc
roche
rochefort
rochester
rock
rockeband
rockebandet
rockefeller
rockers
rocket
rockheim
rockipedia
rocks
rocky
rod
rode
rodewald
rodez
rodgers
rodic
rodney
rodri
rodrigo
rodrigues
rodriguez
roe
roede
roer
roerne
roethlisberger
rogaland
rogalands
roger
rogers
roglo
rogn
rogue
rohan
rohdendorf
roi
roing
roingrelaterte
rojas
roku
roland
role
rolf
rolfsen
rolig
rolige
roll
rolle
rollefigur
rollefiguren
rollen
rollene
roller
rollespill
rollin
rolling
rolls
rolv
rom
roma
romain
roman
romana
romance
romanen
romanene
romaner
romanforfatter
romani
romania
romanias
romano
romansk
romanske
romantikk
romantikken
romantisk
romantiske
romas
rome
romeo
romere
romerike
romerikes
romerne
romernes
romero
romerriket
romerrikets
romersk
romerske
romfergen
romme
rommel
rommene
rommer
rommet
romo
romsdal
romsdalen
romsdals
romskip
romsonden
romstasjonen
romulus
ron
ronald
ronaldo
rondane
rondo
ronnie
ronny
rookie
room
rooney
roosevelt
root
roots
rop
rope
roper
ropte
ror
roret
rory
ros
rosa
rosario
roscoe
rose
rosemary
rosen
rosenberg
rosenborg
rosendal
rosenkrantz
roser
roses
rosie
roskilde
roskov
ross
rossi
rosstat
rost
roste
roster
rostock
rostov
rot
rota
rotasjon
roten
roterende
roterer
roth
rothschild
rotten
rotter
rotterdam
roubaix
rouen
rouergue
rouge
rough
round
rousseau
roussillon
route
routledge
rovbiller
rovdyr
rover
rovere
rovers
rovpattedyr
row
rowing
rowland
rowling
rowman
roy
royal
royale
royce
rp
rpm
rr
rrekke
rrez
rs
rsaften
rsak
rsake
rsaken
rsakene
rsaker
rsaket
rsalderen
rsbeste
rsdag
rsdagen
rshavn
rsjubileet
rsjubileum
rskontrakt
rskrigen
rsmelding
rsmøte
rsmøtet
rsperiode
rsproduksjon
rsproduksjonen
rsrapport
rsskiftet
rsssf
rssted
rst
rsta
rstad
rstall
rstallet
rste
rstenberg
rster
rstrinn
rt
rta
rte
rtha
rttemberg
rtusen
rtusenskiftet
ru
ruben
rubens
rubin
ruby
rud
rudberg
rudern
rudi
rudolf
rudolph
rudolstadt
rudy
rue
rufus
rug
rugby
rugbyspiller
ruge
ruger
rui
ruin
ruinene
ruiner
ruiz
rule
rulers
rules
rulle
rullebane
rullebanen
rullende
ruller
rullestol
rullet
rum
rumensk
rumenske
run
runar
rund
rundbane
runde
rundede
runden
rundene
runder
rundet
rundetider
rundt
rune
runeberg
runer
rung
runner
running
rupert
rural
rurale
rus
rush
rushprint
ruskin
ruslan
rusland
rusmidler
russ
russell
russere
russerne
russernes
russia
russian
russisk
russiske
russland
russlandrelaterte
russlands
russo
rust
rustad
rustet
rustning
rut
ruta
rute
rutelinae
ruten
rutene
ruter
ruters
ruth
rutherford
ruud
rv
rva
rvi
rwanda
ry
ryan
rybak
rydde
ryddet
ryder
rye
ryen
ryfylke
ryg
rygg
rygge
ryggen
rygh
rykke
rykker
rykket
rykte
ryktene
rykter
ryktet
rypdal
rystet
rytme
rytmegitar
rytmisk
rytter
ryttere
rytterne
ryukyu
rz
rzburg
ræd
række
rælingen
rður
røa
rød
rødbrun
rødbrune
røde
rødehavet
rødlig
rødlige
rødliste
rødt
rødøy
røe
røed
røk
røkke
rømme
rømmer
rømt
rømte
rønneberg
rønning
rønningen
rør
røre
rørende
røret
røros
rørosbanen
rørt
rørte
rørvik
røst
røttene
røtter
røvere
røyk
røyken
røyking
s
sa
saa
saab
saabye
saadan
saadanne
saadant
saag
saakaldte
saaledes
saalænge
saameget
saar
saarbru
saare
saasnart
saasom
saavel
saavelsom
saavidt
saba
sabah
sabbath
sabel
sabeltann
sabina
sabine
sabotasje
sabrina
sachs
sachsen
sachsenhausen
sachsens
sacks
sacramento
sacred
sad
saddam
sadie
safari
safe
safety
saft
sag
saga
sagaen
sagaene
sagaer
sagaerne
sagan
sagbruk
sagde
sage
sagen
sagene
sagens
sager
sagn
sagnet
sagt
sagtakkede
sagte
sahara
sai
said
saigon
sailing
sailor
saint
sainte
saints
sak
saken
sakene
saker
sakkyndige
sakprosa
saksiske
saksofon
saksøkte
sakte
sal
sala
salaam
salah
salamis
salazar
sale
salem
salen
salentin
salerno
sales
salg
salget
salgs
salih
salisbury
salix
sally
salm
salman
salme
salmebok
salmedikter
salmen
salmer
salmonsens
salome
salomo
salomon
salomonøyene
salon
salongen
salt
saltdal
salten
saltet
salto
saltvann
saluzzo
salvador
salvatore
salve
salvesen
salvin
salzburg
salzburgwiki
sam
sama
saman
samantha
samarbeid
samarbeide
samarbeider
samarbeidet
samarbeidspartner
samarbeidspartnere
samarbeidsprosjekt
samaria
samatata
samba
samband
sambandet
samboer
same
samene
samenes
samer
sametinget
samferdsel
samferdselsdepartementet
samfund
samfundet
samfunn
samfunnene
samfunnet
samfunnets
samfunnsfag
samfunnsvitenskap
samfunnsvitenskapelig
samfunnsøkonomi
samhandling
samhold
sami
samisk
samiske
saml
samla
samlaget
samle
samlealbum
samlealbumet
samlebetegnelse
samlede
samleplate
samler
samlere
samles
samlet
samling
samlingen
samlingene
samlinger
samliv
samløpet
samme
sammen
sammenbrudd
sammendrag
sammendraget
sammenfallende
sammenfaller
sammenheng
sammenhengen
sammenhengende
sammenhenger
sammenhæng
sammenkomst
sammenlagt
sammenlign
sammenligne
sammenlignende
sammenligner
sammenlignes
sammenlignet
sammenligning
sammenliknet
sammensatt
sammensatte
sammensetning
sammensetningen
sammensla
sammenslutning
sammenstøt
sammesteds
sammy
samoa
samogitia
samos
samouelle
sampa
samson
samspill
samspillet
samsung
samsvar
samsvarer
samt
samtale
samtalen
samtaler
samtid
samtiden
samtidens
samtidig
samtidige
samtidigt
samtidskunst
samtidsmusikk
samtlige
samtskhe
samtykke
samudera
samuel
samuelsbok
samuelsen
samurai
samveldelekene
samveldet
samvittighet
san
sanatorium
sancerre
sanchez
sancho
sand
sanda
sandane
sandberg
sande
sandefjord
sandefjords
sanden
sander
sanders
sandhed
sandheden
sandnes
sandnessjøen
sandra
sandro
sands
sandstein
sandsynlighed
sandsynligt
sandsynligviis
sandsynligvis
sandt
sandvik
sandvika
sandviken
sandvolleyball
sandvolleyballspiller
sandwich
sandy
sandøy
sane
sang
sange
sangen
sangene
sangens
sanger
sangere
sangeren
sangerinne
sangfugler
sangkonkurranse
sangtekster
sanhedrins
sank
sanksjoner
sankt
sann
sanna
sannar
sanne
sannhet
sannheten
sannsynlig
sannsynlige
sannsynlighet
sannsynligheten
sannsynligvis
sanremo
sans
sanskrit
sant
santa
santana
santander
sante
santi
santiago
santo
santori
santos
sanvitale
sao
sapa
sapiens
sapporo
sar
sara
sarah
sarahs
sarajevo
sarawak
sardinia
sargatal
saro
sarpsborg
sars
sas
saskatchewan
sat
satan
satavahanadynastiets
satellite
satellites
satellitt
satellitter
satire
satirisk
satiriske
sato
satrap
sats
satse
satsen
satser
satset
satsing
satt
satte
saturday
saturn
saturniidae
saturns
satyrinae
sau
saud
sauda
saudi
sauer
saul
saunders
saus
sava
savage
savannah
savante
save
savela
savn
savnede
savner
savnet
savoia
savoie
savoy
saw
sawyer
sax
saxo
saxon
say
sayn
says
sb
sbs
sc
scal
scala
scale
scandal
scandinavia
scandinavian
scania
scaphisoma
scar
scarab
scarabaeidae
scarabaeoidea
scarecrow
scb
scene
scenekunst
scenen
scenene
scener
sceneweb
scenograf
scenografi
scha
schaatsen
schaeffer
schanke
schankes
schau
schauenburg
schaufuss
schaumburg
schaus
schedule
scheel
scheerpeltz
schellenberg
scheme
schenk
schibsted
schiffermu
schiller
schimmel
schirmer
schizofreni
schjelderup
schlesien
schleswig
schloss
schmid
schmidt
schmitt
schneider
scho
scholar
school
schools
schou
schreiner
schro
schrøder
schu
schubert
schulenberg
schultz
schulz
schulze
schumacher
schumann
schuster
schwaben
schwartz
schwarz
schwarzburg
schweigaard
schweigaards
schweiz
schweizer
schwerin
schøning
schøyen
sci
science
sciences
scientific
scientist
scientists
scienze
scipio
scipione
scopaeus
scope
score
scorede
scores
scoret
scoring
scoringer
scot
scotia
scotland
scots
scott
scottish
scotts
scout
scr
scream
screen
script
scriptstyle
scutellum
scydmaenus
sd
sdm
se
sea
seahawks
seal
sean
search
sears
seas
season
seasons
seat
seattle
sebastia
sebastian
sec
second
secondary
secret
secretary
secrets
section
sector
security
sed
sedan
sedimenter
sedis
sedler
see
seed
seen
seer
seere
seerne
seertall
sees
seet
seg
segja
segjer
segl
sehested
sei
seier
seiere
seieren
seil
seilas
seilba
seile
seiler
seilet
seiling
seilingrelaterte
seilskip
seilt
seilte
seim
sein
seine
seinen
seiner
seinere
seint
seip
seire
seirende
seirer
seiret
sejersted
sejlede
sejm
sek
sekretariat
sekretariatet
sekretær
seks
seksjon
seksjonen
seksjoner
seksjonerer
sekskantet
seksten
seksti
seksualitet
seksuell
seksuelle
seksuelt
sekt
sektor
sektoren
sektorer
sekulære
sekund
sekunder
sekundær
sekundære
sekvens
sekvenser
sel
selbsta
selbu
seldsjukkenes
selected
selection
selevkideriket
selevkos
self
selge
selger
selges
selja
selje
seljord
sell
selma
selmer
selskab
selskabet
selskap
selskapene
selskaper
selskapet
selskapets
selv
selvbiografi
selvbiografien
selvbiografiske
selve
selvfølgelig
selvmord
selvsagt
selvstendig
selvstendige
selvstendighet
selvstyre
selvstyrt
selvstyrte
sem
semb
semenov
sement
semgallen
semi
semifinale
semifinalen
semifinalene
semifinaler
semifinals
seminar
seminarer
seminaret
seminary
semjon
semos
sen
sena
senat
senate
senatet
senatets
senator
senatorer
send
sende
sendebud
sendemann
sender
sendes
sending
sendingen
sendingene
sendinger
sendt
sendte
sene
seneca
senegal
senere
senest
seneste
seng
sengen
senger
senior
seniorra
senja
senke
senket
senmiddelalderen
senna
sens
sense
sensorer
sensu
sensur
sent
senter
senteret
senterpartiet
senticaudata
sentinel
sentral
sentralafrikanske
sentralamerikanske
sentralbank
sentralbanken
sentralbanksjef
sentralbyra
sentrale
sentralisert
sentralkomite
sentralkomiteen
sentralstyre
sentralstyret
sentralt
sentre
sentrert
sentrum
seo
seoul
sep
separat
separate
separatutstilling
separatutstillinger
separert
sepp
sept
septbr
september
sequence
ser
sera
serbere
serbia
serbias
serbisk
serbiske
sere
seremoni
seremonielle
seremonien
seremonier
serena
serge
sergei
sergej
sergey
sergio
sergius
serica
serie
seriegull
seriekamper
seriemester
seriemesterskap
serien
seriene
seriens
serier
serierunde
series
seriespill
seriespillet
seriesystemet
seriøs
seriøse
seriøst
serra
sersjant
sertifisert
server
servere
serveres
servering
servert
service
services
serville
ses
sesam
sesjon
sesong
sesonga
sesongen
sesongene
sesongens
sesonger
sesongresultat
sesongslutt
session
sessions
set
sete
seter
seters
setesdal
setet
seth
setning
setningen
setninger
sets
sett
sette
setter
settes
settet
setting
settlement
seuna
seung
seven
sevens
seventh
several
severdigheter
severin
severus
sevilla
sex
sextus
sexual
sexy
seychellene
seymour
sf
sfd
sforza
sg
sga
sgt
sh
sha
shaanxi
shackleton
shadow
shadows
shah
shake
shakespeare
shakespeares
shall
shams
shan
shandong
shane
shang
shanghai
shannon
shanxi
shape
share
sharif
sharjah
sharon
sharp
sharpe
shaun
shaw
shawn
she
shea
sheet
sheffield
sheikh
sheila
shelby
sheldon
shell
shelley
shelton
shen
sheng
shenzhen
shepherd
sheppard
sheridan
sheriff
sherlock
sherman
sherwood
shetland
shewa
shi
shield
shields
shin
shine
ship
shipping
ships
shire
shirley
sho
shoemaker
shoes
shogun
shoot
shooting
shop
shore
short
shot
should
show
showet
shows
shrewsbury
shrivijaya
shu
shuttle
si
sia
sibir
sic
sica
sich
sichuan
sicilia
siculus
sid
sida
sidan
sidde
sidder
side
sideelv
sideelva
sideelvene
sideelver
sidekant
sidekanter
sidelinjen
siden
sidene
sident
sider
sides
sidevei
sidney
sidon
sidsel
sidst
sidste
sidstnævnte
sie
siege
siegen
siegfried
siemens
siena
sier
sierra
sies
siffer
sig
sigbjørn
sigdal
sigdformede
sige
sigende
siger
siges
sighvat
sigismond
sigismund
sigma
sigmaringen
sigmund
[...]
