!
"
#
##0
##1
##10
##11
##12
##13
##14
##15
##16
##17
##18
##19
##2
##20
##21
##22
##23
##24
##25
##26
##27
##28
##29
##3
##30
##31
##32
##33
##34
##35
##36
##37
##38
##39
##4
##40
##41
##42
##43
##44
##45
##46
##47
##48
##49
##5
##50
##51
##52
##53
##54
##55
##56
##57
##58
##59
##6
##60
##61
##62
##63
##64
##65
##66
##67
##68
##69
##7
##70
##71
##72
##73
##74
##75
##76
##77
##78
##79
##8
##80
##81
##82
##83
##84
##85
##86
##87
##88
##89
##9
##90
##91
##92
##93
##94
##95
##96
##97
##98
##99
$
%
&
'
(
)
*
+
,
-
.
/
0
00
000
001
002
003
004
006
007
01
010
02
03
04
05
06
07
08
09
099
1
10
100
1000
10000
1001
1002
101
1016
102
1024
103
1030
104
1040
105
1050
106
1066
107
1070
108
1080
1086
109
1093
11
110
1100
111
1111
112
113
1130
114
115
1150
116
1160
117
1170
1177
118
1180
119
1190
12
120
1200
1202
1204
1205
121
1215
1216
122
1220
1223
1224
1225
123
1230
124
1240
125
1250
126
1260
127
1270
128
1280
129
1290
13
130
1300
1308
131
1319
132
1320
1328
133
1330
134
1340
1348
1349
135
1350
136
1360
1368
137
1370
138
1380
139
1390
14
140
1400
141
1410
1415
142
1420
143
1430
1435
144
1440
145
1450
1453
1455
146
1460
1461
1468
1469
147
1470
1471
1475
1476
1477
1478
148
1480
1481
1483
1484
1485
1486
1487
149
1490
1492
1493
1494
1495
1496
1497
1498
1499
15
150
1500
1501
1502
1503
1504
1505
1506
1507
1508
1509
151
1510
1511
1512
1513
1514
1515
1516
1517
1518
1519
152
1520
1521
1522
1523
1524
1525
1526
1527
1528
1529
153
1530
1531
1532
1533
1534
1535
1536
1537
1538
1539
154
1540
1541
1542
1543
1544
1545
1546
1547
1548
1549
155
1550
1551
1552
1553
1554
1555
1556
1557
1558
1559
156
1560
1561
1562
1563
1564
1565
1566
1567
1568
1569
157
1570
1571
1572
1573
1574
1575
1576
1577
1578
1579
158
1580
1581
1582
1583
1584
1585
1586
1587
1588
1589
159
1590
1591
1592
1593
1594
1595
1596
1597
1598
1599
16
160
1600
1601
1602
1603
1604
1605
1606
1607
1608
1609
161
1610
1611
1612
1613
1614
1615
1616
1617
1618
1619
162
1620
1621
1622
1623
1624
1625
1626
1627
1628
1629
163
1630
1631
1632
1633
1634
1635
1636
1637
1638
1639
164
1640
1641
1642
1643
1644
1645
1646
1647
1648
1649
165
1650
1651
1652
1653
1654
1655
1656
1657
1658
1659
166
1660
1661
1662
1663
1664
1665
1666
1667
1668
1669
167
1670
1671
1672
1673
1674
1675
1676
1677
1678
1679
168
1680
1681
1682
1683
1684
1685
1686
1687
1688
1689
169
1690
1691
1692
1693
1694
1695
1696
1697
1698
1699
17
170
1700
1701
1702
1703
1704
1705
1706
1707
1708
1709
171
1710
1711
1712
1713
1714
1715
1716
1717
1718
1719
172
1720
1721
1722
1723
1724
1725
1726
1727
1728
1729
173
1730
1731
1732
1733
1734
1735
1736
1737
1738
1739
174
1740
1741
1742
1743
1744
1745
1746
1747
1748
1749
175
1750
1751
1752
1753
1754
1755
1756
1757
1758
1759
176
1760
1761
1762
1763
1764
1765
1766
1767
1768
1769
177
1770
1771
1772
1773
1774
1775
1776
1777
1778
1779
178
1780
1781
1782
1783
1784
1785
1786
1787
1788
1789
179
1790
1791
1792
1793
1794
1795
1796
1797
1798
1799
18
180
1800
1801
1802
1803
1804
1805
1806
1807
1808
1809
181
1810
1811
1812
1813
1814
1815
1816
1817
1818
1819
182
1820
1821
1822
1823
1824
1825
1826
1827
1828
1829
183
1830
1831
1832
1833
1834
1835
1836
1837
1838
1839
184
1840
1841
1842
1843
1844
1845
1846
1847
1848
1849
185
1850
1851
1852
1853
1854
1855
1856
1857
1858
1859
186
1860
1861
1862
1863
1864
1865
1866
1867
1868
1869
187
1870
1871
1872
1873
1874
1875
1876
1877
1878
1879
188
1880
1881
1882
1883
1884
1885
1886
1887
1888
1889
189
1890
1891
1892
1893
1894
1895
1896
1897
1898
1899
19
190
1900
1901
1902
1903
1904
1905
1906
1907
1908
1909
191
1910
1911
1912
1913
1914
1915
1916
1917
1918
1919
192
1920
1921
1922
1923
1924
1925
1926
1927
1928
1929
193
1930
1931
1932
1933
1934
1935
1936
1937
1938
1939
194
1940
1941
1942
1943
1944
1945
1946
1947
1948
1949
195
1950
1951
1952
1953
1954
1955
1956
1957
1958
1959
196
1960
1961
1962
1963
1964
1965
1966
1967
1968
1969
197
1970
1971
1972
1973
1974
1975
1976
1977
1978
1979
198
1980
1981
1982
1983
1984
1985
1986
1987
1988
1989
199
1990
1991
1992
1993
1994
1995
1996
1997
1998
1999
2
20
200
2000
2001
2002
2003
2004
2005
2006
2007
2008
2009
201
2010
2011
2012
2013
2014
2015
2016
2017
2018
2019
202
2020
2021
2022
2023
2024
2025
203
2030
204
205
2050
206
207
208
209
21
210
2100
211
212
213
214
215
216
217
2173
218
219
22
220
2200
221
222
223
224
225
226
227
228
229
23
230
2300
2305
231
232
233
234
235
236
237
238
239
24
240
2400
241
242
243
244
245
246
247
248
249
25
250
2500
251
252
253
254
255
256
257
258
259
26
260
2600
261
262
263
264
265
266
267
268
269
27
270
271
272
273
274
275
276
277
278
279
28
280
281
282
283
284
285
286
287
288
289
29
290
291
292
293
294
295
296
297
298
299
3
30
300
3000
301
302
303
304
305
306
307
308
309
31
310
311
312
313
314
315
316
3166
317
318
319
32
320
321
322
323
324
325
326
327
328
329
33
330
331
332
333
334
335
336
337
338
339
34
340
341
342
343
344
345
346
347
348
349
35
350
3500
351
352
353
354
355
356
357
358
359
36
360
361
362
363
364
365
366
367
368
369
37
370
371
372
373
374
375
376
377
378
379
38
380
381
382
383
384
385
386
387
388
389
39
390
391
392
393
394
395
396
397
398
399
4
40
400
4000
401
402
403
404
405
406
407
408
409
41
410
411
412
413
414
415
416
417
418
419
42
420
421
422
423
424
425
426
427
428
429
43
430
431
432
433
434
435
436
437
438
439
44
440
441
442
443
444
445
446
447
448
449
45
450
451
452
453
454
455
456
457
458
459
46
460
461
462
463
464
465
466
467
468
469
47
470
471
472
473
474
475
476
477
478
479
48
480
481
482
483
484
485
486
487
488
489
49
490
491
492
493
495
496
497
499
5
50
500
5000
501
502
503
504
505
506
507
508
509
51
510
511
512
513
514
515
516
517
518
519
52
520
521
522
523
524
525
527
528
529
53
530
531
532
533
534
535
536
537
538
539
54
540
541
542
543
544
545
546
547
548
549
55
550
551
552
553
555
557
56
560
565
567
57
570
571
573
575
577
58
580
581
582
583
584
585
586
587
59
590
596
597
598
6
60
600
6000
601
602
603
604
605
609
61
610
612
613
616
618
62
620
621
625
626
63
630
631
633
635
639
64
640
65
650
653
66
660
661
664
666
67
670
674
679
68
680
684
686
69
690
691
7
70
700
7000
705
707
71
710
711
715
717
72
720
722
725
727
73
730
731
737
74
740
747
75
750
751
757
76
760
767
77
770
777
78
780
787
79
790
8
80
800
8000
801
802
81
810
82
820
83
830
833
84
840
845
85
850
855
86
860
866
87
870
88
880
88506
89
890
89784
9
90
900
9000
907
90773
91
910
911
912
92
920
93
930
94
940
95
950
951
96
960
962
963
965
97
970
975
978
98
980
987
99
990
995
995095
996923
999
:
;
<
=
>
?
@
\
^
_
`
a
aa
aachen
aagaard
aage
aalborg
aalesund
aalesunds
aall
aamodt
aar
aarhus
aaron
aars
aarvik
aas
aase
aasen
aasland
aasmund
aass
ab
abacetus
abba
abbas
abbe
abbed
abbey
abbor
abbott
abby
abc
abd
abdel
abdisere
abdiserte
abdomen
abdul
abdullah
abe
abeba
abel
aberdeen
abigail
abitur
abonnement
abonnenter
abort
about
above
abraham
abrahamsen
abrams
abs
absalon
absolute
absolutt
absolutte
absorberer
absorbert
abstrakt
abstrakte
abu
abuse
abydos
ac
acade
academia
academic
academy
acalolepta
acanthocinini
accademia
access
accessed
according
account
ace
acer
achievement
achille
acid
acmaeodera
acoustic
acre
across
acrotrichis
act
acta
action
actionfilmer
active
actor
actors
acts
ad
ada
adam
adams
addis
addison
ade
adeccoligaen
adel
adelaide
adele
adelen
adeler
adelig
adelige
adelskalender
adelsmann
adelsmannen
adelsmenn
adenauer
adephaga
adferd
adgang
adhd
adjektiv
adjunkt
adjutant
adkomst
adlbauer
adler
adlet
adm
administrasjon
administrasjonen
administrasjonssenter
administrasjonssenteret
administrasjonssentrum
administration
administrativ
administrative
administrativt
administrator
administrere
administrerende
administrerer
administreres
administrert
administrerte
admiral
admiralen
admiraler
adolf
adolph
adolphe
adoptert
adopterte
adoretus
adressa
adresse
adresseavisen
adressen
adresser
adressesøk
adrian
adriaterhavet
adrien
adskilt
adskilte
adult
advance
advanced
advare
advarer
advarsel
advarsler
advart
advarte
advent
adventure
adventures
advisory
advokat
advokaten
advokater
advokatfirmaet
ae
aegus
aero
aerospace
af
afc
affair
affaires
affairs
affinis
affære
affæren
affærer
afghanistan
afghanistans
afghansk
afghanske
afi
afl
afonso
africa
african
africanus
afrika
afrikaans
afrikamesterskapet
afrikanere
afrikansk
afrikanske
afrikas
afrique
afro
afroamerikanere
afroamerikansk
afroamerikanske
afrodite
afroplectus
aften
aftenblad
aftenbladet
aftenposten
aftenpostens
after
aftonbladet
ag
aga
again
against
agamemnon
agatha
agder
agderposten
age
agency
agenda
agent
agenten
agenter
agents
ages
aggresjon
aggressiv
aggressive
agnar
agnes
agnete
ago
agon
agostino
agra
agreement
agricola
agriculture
agriotes
agrippa
agrypnus
ah
ahead
ahmad
ahmed
aho
ai
aid
aids
aif
aik
aim
aime
ain
aina
air
airbus
aircraft
aires
airline
airlines
airplane
airport
airways
ais
aise
aiskhylos
aix
aj
ajax
ak
aka
akademi
akademie
akademien
akademiens
akademiet
akademiets
akademiker
akademikere
akademis
akademisk
akademiske
aker
akere
akers
akerselva
akershus
akilles
aking
akkompagnert
akkurat
akp
akropolis
aks
akse
aksel
akselavstand
akselerasjon
aksemaktene
aksen
aksent
aksept
akseptere
aksepterer
akseptert
aksepterte
aksjene
aksjer
aksjeselskap
aksjon
aksjonen
aksjoner
akt
akter
aktet
aktig
aktige
aktiv
aktive
aktivisme
aktivist
aktivister
aktivitet
aktiviteten
aktivitetene
aktiviteter
aktivt
aktor
aktuell
aktuelle
aktuelt
aktør
aktørene
aktører
akustisk
akustiske
akutt
akutte
al
ala
alabama
aladdin
alain
alan
alarm
alaska
alba
alban
albani
albania
albanias
albansk
albanske
albany
albedo
albert
alberta
alberto
albertoni
albertville
albin
albion
albrecht
albrigtsen
album
albumene
albumet
albumets
albums
albus
alder
alderen
aldersbestemte
aldersbetingede
aldersgrense
aldo
aldrende
aldri
aldrig
ale
alec
alejandro
aleksander
aleksanders
aleksandersen
aleksandr
aleksandra
aleksej
alen
alene
aleocharinae
aleppo
alessandro
alex
alexander
alexandra
alexandre
alexandria
alexios
alexis
alf
alfa
alfabet
alfabetet
alfabetisk
alfonso
alfred
alfredo
algarve
algebra
alger
algerie
algerisk
algeriske
algoritmer
ali
alias
alicante
alice
alicia
alien
aliens
align
alignbars
alison
alive
alkibiades
alkohol
alkoholisme
all
alla
allah
allan
allard
alle
allegro
allen
aller
allerede
alles
alley
allgemeine
alliance
allianse
alliansen
allianser
allied
alliert
allierte
alliertes
allikevel
allison
allkunne
allmenn
allmenne
allmennheten
allment
allmusic
allround
allsidig
allsvenskan
allt
alltid
alluaud
alm
alma
almaty
almeida
almeri
alminnelig
alminnelige
alminnelighet
almost
alna
alnæs
alogie
alois
alone
along
alonso
alpene
alper
alpes
alpha
alphonse
alpin
alpine
alpinist
alpinister
alpint
als
alsace
also
alstahaug
alt
alta
alte
alten
altenburg
alter
alteret
alternativ
alternative
alternativer
alternativet
alternativt
altertavle
altertavlen
altfor
alticinae
alticini
altieri
alto
altomfotball
altona
altsa
aluminium
alumni
alv
alvarez
alvdal
alvene
alver
alves
alvin
alvor
alvorlig
alvorlige
always
alzheimers
am
amadeus
amager
amalie
amanda
amandaprisen
amanuensis
amara
amateur
amatør
amatørbokser
amatører
amazing
amazon
amazonas
ambassade
ambassaden
ambassader
ambassadør
ambassadøren
ambassadører
amber
ambisiøse
ambisjon
ambisjoner
ambrose
ambrosius
ambulanse
amd
ame
amelia
amenhotep
america
american
americana
americans
americas
amerika
amerikaner
amerikanere
amerikaneren
amerikanerne
amerikansk
amerikanske
amerikas
amfi
amfibier
amfipoder
amin
aminosyrer
amir
ammoniakk
ammunisjon
amnesti
amnesty
amon
among
amor
amore
amos
amour
ampedus
ampelisca
ampezzo
amphipoda
amsterdam
amt
amtet
amtmann
amtmenn
amund
amundsen
amundsens
amur
amy
an
ana
analog
analoge
analyse
analysen
analyser
analysere
analysert
analysis
analytisk
anand
anastasia
anatolia
anatolij
anatomi
anatomy
anbefaler
anbefales
anbefaling
anbefalinger
anbefalt
anbefalte
anbud
anc
ancash
anchastus
anchorage
ancient
ancona
and
anda
andaluci
ande
andebu
andel
andelen
andeler
anden
andenes
andenæs
anderlecht
anders
andersen
andersens
anderson
anderssen
andersson
andes
andesfjellene
andhra
andorra
andra
andre
andrea
andreas
andreassen
andrei
andrej
andreplass
andreplassen
andres
andresen
andrew
andrewes
andrews
andro
android
andronikos
andrzej
andy
andøy
andøya
ane
aner
anerkjenne
anerkjennelse
anerkjenner
anerkjennes
anerkjent
anerkjente
anette
anfall
anfield
anført
ang
anga
angel
angela
angeles
angelica
angelina
angell
angelo
angels
angelsaksisk
angelsaksiske
anger
angi
angir
angis
angitt
angivelig
angivelige
angkor
anglia
anglikanske
anglo
angola
angolanske
angrep
angrepene
angrepet
angripe
angriper
angriperne
angst
angus
anhalt
anhui
ani
animal
animals
animasjon
animasjonsfilm
animasjonsfilmer
animation
anime
animert
animerte
anita
anja
anjou
ankara
anke
anker
anket
anklage
anklagene
anklager
anklaget
ankom
ankommer
ankommet
ankomst
ankomsten
anla
anlagt
anledning
anledningen
anledninger
anlegg
anlegge
anleggene
anlegget
anliggender
anløp
anmeldelse
anmeldelser
anmelder
anmeldere
anmelderen
anmelderne
anmeldt
anmodet
anmodning
ann
anna
annalene
annaler
annales
annals
annan
annas
anne
annektert
annekterte
annen
annenhver
annenplass
annerledes
annes
annet
annethvert
annette
annex
anni
annie
annika
anniversary
anno
annonse
annonsert
annonserte
annual
annullert
anonym
anonyme
anonymt
another
ans
ansa
ansatt
ansatte
anse
anseelse
ansees
anselm
anser
anses
ansett
ansette
ansettelse
ansgar
ansikt
ansikter
ansiktet
anskaffet
ansla
anslag
anslagsvis
anslo
anstrengelser
anstrengt
ansvar
ansvaret
ansvarlig
ansvarlige
ansvarsomra
ant
anta
antagelig
antageligvis
antagelsen
antakelig
antall
antallet
antalya
antar
antarctic
antarktis
antarktisekspedisjonen
antarktiske
antas
antatt
antatte
ante
antenne
antennen
antennene
antenner
anthology
anthony
anthrenus
anthropology
anti
antibiotika
antigonos
antigua
antikk
antikke
antikken
antikkens
antikvar
antiller
antiokia
antiokos
antiquities
antiquity
antisemittisk
antisemittiske
antisemittisme
anto
antoine
antoinette
antok
antologi
antologien
antologier
anton
antoni
antonia
antonio
antonius
antonsen
antony
antrekk
antropologi
antwerpen
antyde
antyder
antydet
anvende
anvendelse
anvendelser
anvender
anvendes
anvendt
anvendte
any
anything
ao
ap
apache
apartheid
ape
aper
apg
aphodius
api
apicalis
apocalypse
apocrita
apodasyini
apoditrysia
apogonia
apollo
apollon
apollonios
apostelen
apostlene
apostlenes
apostolisk
apostoliske
apotek
apoteker
apoteket
app
apparat
apparater
apparatet
apparatturn
appell
appellerte
appendix
apple
apples
appleton
applied
applikasjoner
approach
apr
april
aqua
aquinas
aquino
aquitaine
ar
ara
arab
arabere
araberne
arabia
arabisk
arabiske
arafat
arago
arameisk
arbeid
arbeide
arbeidene
arbeider
arbeiderbevegelsen
arbeiderbevegelsens
arbeiderblad
arbeiderbladet
arbeidere
arbeiderklassen
arbeiderne
arbeidernes
arbeiderparti
arbeiderpartiet
arbeiderpartiets
arbeidet
arbeids
arbeidsgiver
arbeidsgivere
arbeidsgruppe
arbeidskraft
arbeidsledighet
arbeidsliv
arbeidslivet
arbeidsomra
arbeidsoppgaver
arbeidsplass
arbeidsplassen
arbeidsplasser
arbeidstakere
arbor
arc
arcade
arch
archaeological
archaeology
archer
archibald
archie
architecture
archiv
archive
archives
arctic
ard
are
area
areal
arealer
arealet
areas
aremark
arena
arenaen
arenaer
arendal
arendals
arendt
ares
argentina
argentinas
argentinsk
argentinske
argos
argument
argumentasjon
argumenter
argumenterer
argumentert
argumenterte
argumentet
argyll
ari
aria
arie
ariel
arild
aristokratiet
aristokratiske
aristoteles
arizona
ark
arkaisk
arkaiske
arkansas
arkeolog
arkeologen
arkeologene
arkeologer
arkeologi
arkeologia
arkeologisk
arkeologiske
arkhangelsk
arkitekt
arkitekten
arkitektene
arkitekter
arkitektkontor
arkitektonisk
arkitektoniske
arkitektur
arkitektura
arkitekturen
arkitekturhistorie
arkiv
arkivene
arkiver
arkivert
arkivet
arkivverket
arktis
arktisk
arktiske
arles
arlington
arm
armand
armando
armba
arme
armed
armeen
armen
armene
armenere
armenerne
armenia
armenias
armensk
armenske
armer
armin
arms
armstrong
army
arn
arna
arne
arneberg
arnesen
arnfinn
arnhem
arno
arnold
arnstein
arnt
arntzen
arnulf
aron
around
arr
arrangement
arrangementene
arrangementer
arrangementet
arrangere
arrangerer
arrangeres
arrangert
arrangerte
arrangør
arrangørene
arrangører
arrest
arrestasjon
arrestasjonen
arrestasjoner
arrestere
arrestert
arresterte
arrondissement
arrow
ars
arsenal
art
artdatabanken
arte
artemis
arten
artene
artenes
artens
arter
arthur
article
articles
artikkel
artikkelen
artiklene
artikler
artilleri
artilleriet
artist
artisten
artistene
artister
artistnavnet
artists
artium
arts
artsbestemmelse
artsdatabanken
artsrik
artsrike
artur
arturo
artwork
aruba
arv
arve
arvefølgekrigen
arvelig
arvelige
arven
arverett
arvet
arvid
arving
arvingen
arvinger
as
asa
asbjørn
asbjørnsen
aschehoug
aschehougs
aserbajdsjan
aserbajdsjansk
aserbajdsjanske
asfalt
ash
asher
ashley
ashton
asia
asialekene
asiamesterskapet
asian
asias
asiatisk
asiatiske
ask
aske
askeladden
askeland
asken
askepott
asker
askim
askvoll
askøy
aslag
aslak
aslaug
asle
asp
aspects
aspekt
aspekter
aspen
aspx
ass
assam
assault
assembly
assessment
assessor
assimilert
assing
assisi
assistanse
assistant
assistent
assistenter
assistenttrener
assisterende
assistert
assisterte
associated
association
associations
assosiasjoner
assosieres
assosiert
assyria
assyriske
asta
astana
astenus
asteroid
asteroide
asteroidefamilien
asteroiden
asteroider
astma
aston
astor
astra
astri
astrid
astrologi
astronaut
astronom
astronomen
astronomer
astronomi
astronomical
astronomiprosjektet
astronomisk
astronomiske
astronomy
astrup
asturias
asyl
asymmetrisk
at
ata
ataenius
atatu
atelier
atferd
athen
athene
athenerne
athens
athenske
athletic
athletics
athous
atkins
atkinson
atlanta
atlanteren
atlanterhavet
atlantic
atlantis
atlantiske
atlas
atle
atmosfære
atmosfæren
atmosfærisk
atmosfæriske
atom
atomene
atomer
atomet
atomic
atomva
atp
atskilt
att
attack
attagenus
atten
attende
attentat
attentatet
atter
attika
attila
attraksjon
attraksjoner
attraktiv
attraktive
attraktivt
au
aube
aubert
aubrey
auch
auckland
aud
audi
audinet
audio
audition
auditorium
audrey
audun
auf
auflage
aug
augsburg
august
augusta
auguste
augustin
augustine
augusto
augustus
aukra
aukrust
auksjon
aune
aura
aurdal
aure
aurelius
aurivillius
aurland
aurora
aurskog
aus
auschwitz
aust
austad
austevoll
austin
austra
australasia
australia
australian
australias
australis
australsk
australske
austrasia
austre
austrheim
austria
autentisk
autentiske
author
authority
autisme
auto
autobiography
automatic
automatisk
automatiske
automobile
autonom
autonome
autonomi
autorisasjon
autorisert
autoritet
autoriteter
autoritære
autumn
auvergne
aux
av
ava
available
avaldsnes
avansert
avanserte
avant
avatar
avbilder
avbildet
avbildning
avbildninger
avbrudd
avbrutt
avbryte
avbrøt
avd
avdekke
avdekket
avdeling
avdelingen
avdelingene
avdelinger
avduket
avdøde
ave
avec
avengers
avenida
avenue
avery
averøy
aves
avfall
avfyre
avfyrt
avfyrte
avføring
avføringen
avga
avgang
avganger
avgi
avgift
avgiften
avgifter
avgikk
avgir
avgitt
avgjorde
avgjort
avgjør
avgjøre
avgjørelse
avgjørelsen
avgjørelser
avgjørende
avgjøres
avgrenses
avgrenset
avhandling
avhandlingen
avhandlinger
avhenger
avhengig
avhengige
avhengighet
avholde
avholdes
avholdt
avhør
aviation
avignon
avinor
avis
avisa
avisen
avisene
avisens
aviser
aviv
avkall
avkastning
avklart
avkom
avkommet
avl
avla
avlagt
avlang
avlange
avlangt
avledet
avlegge
avlet
avlinger
avlyst
avløp
avløst
avløste
avon
avreise
avro
avrundede
avrundet
avsatt
avsatte
avsette
avsidesliggende
avska
avskaffe
avskaffelse
avskaffet
avskjed
avskjediget
avskjedssøknad
avskjære
avsky
avsla
avslag
avslo
avslutning
avslutningen
avslutte
avsluttende
avslutter
avsluttes
avsluttet
avsløre
avslører
avsløres
avslørt
avslørte
avsmalnende
avsnitt
avsnittet
avspark
avsta
avstamming
avstamning
avstand
avstanden
avstander
avsted
avstemning
avstemningen
avsto
avtale
avtalen
avtalene
avtaler
avtalt
avtalte
avtar
avtok
avtrykk
avverge
avvik
avvikende
avviker
avvikle
avviklet
avvikling
avvise
avviser
avvisning
avvist
avviste
award
awards
away
ax
axel
axelsen
ayrshire
az
aziz
azorene
azur
b
ba
baarli
baba
babe
babel
baby
babylon
babylonia
babylonske
bac
bach
bache
bachelor
bachelorgrad
bachs
back
backer
backs
backstreet
bacon
bad
bade
baden
badet
badminton
badmintonspiller
badmintonspillere
bae
baehr
baekje
baeocera
baez
bafta
bag
bagdad
bagge
baglerne
baha
bahadur
bahamas
bahia
bahn
bahrain
bai
bailey
baillargeon
bailly
baird
baja
bak
bakbeina
baker
bakeri
bakerst
bakerste
bakfra
bakga
bakgrunn
bakgrunnen
bakgrunnsvokal
bakgrunnvokal
bakhjørnene
bakhjørner
bakhold
bakkant
bakkanten
bakke
bakken
bakkene
bakkeniva
bakker
bakkropp
bakkroppen
bakkroppens
baklengs
bakover
bakre
baksiden
bakterien
bakterier
baku
bakvingen
bakvingene
bal
balanse
balansen
balansere
balansert
balduin
baldwin
balearene
balestrand
balfour
bali
balkan
balke
ball
ballad
ballade
balladen
ballader
ballads
ballangen
ballard
ballen
baller
ballet
ballett
balliol
ballistiske
ballklub
ballklubb
balsfjord
balthasar
baltiae
baltic
baltikum
baltimore
baltisk
baltiske
baly
bamberg
bamble
bambus
ban
banana
banco
band
banda
banden
bandene
bandet
bandets
bandmedlemmene
bandmedlemmer
bandt
bandy
bane
banebrytende
banen
banene
banens
baner
banesykling
banet
bang
bangkok
bangladesh
banjo
bank
banken
bankene
bankens
banker
banket
banks
banksjef
banner
bannlyst
bantamvekt
baptist
baptiste
bar
bara
barack
barangayer
barbados
barbara
barbarossa
barber
barberini
barbra
barbro
barbu
barbuda
barcelona
barclay
bardu
bardufoss
bare
barentshavet
barer
bari
bark
barkbiller
barken
barker
barlow
barn
barna
barnard
barnas
barndom
barndommen
barne
barnebarn
barnebarnet
barnebok
barnebokforfatter
barnebokforfattere
barnebøker
barnefilmer
barnehage
barnehagen
barnehager
barnehjem
barnehjemmet
barnes
barnesanger
barneselskapet
barneskole
barneskolen
barneskoler
barnet
barnets
barney
barnløs
barns
barnsley
barokk
barokken
barokkomponister
baron
barr
barra
barratt
barre
barrett
barrow
barry
bars
barskog
bart
barth
bartolomeo
barton
bartrær
baryton
bas
base
baseball
baseballspiller
baseballspillere
based
basel
basen
baser
baserer
basert
baserte
basic
basil
basilewsky
basilica
basilika
basilikaen
basin
basis
baskerland
basketball
basketballspiller
basketballspillere
baskisk
baskiske
basra
bass
basseng
bassenget
bassgitar
bassist
bassisten
bassister
basso
bastien
bastion
bastø
bat
bataljon
bataljonen
bataljoner
bate
bates
bath
batista
batman
battalion
batteri
batteriene
batterier
batteriet
battista
battle
battlefield
battlestar
bauer
baugen
bauhaus
baxter
bay
bayan
bayer
bayern
bayerske
bayreuth
bb
bbc
bbcs
bc
bd
be
bea
beach
beachha
bean
bear
bearbeidelse
bearbeidet
beard
bears
beast
beat
beate
beatles
beatrice
beatrix
beats
beaufort
beaumont
beautiful
beauty
beaux
beaver
bebodd
bebodde
beboere
beboerne
bebyggelse
bebyggelsen
bec
because
bech
bechyne
beck
becker
becket
beckett
beckstrøm
become
bed
beda
bedehus
bedford
bedrageri
bedre
bedret
bedrev
bedrift
bedriften
bedriftene
bedriftens
bedrifter
bedring
bedt
bee
been
beer
beethoven
beethovens
beetle
beetles
beevor
befal
befaling
befant
befeste
befestede
befestet
befestninger
befinner
befolkede
befolket
befolkning
befolkninga
befolkningen
befolkningens
befolkningsutvikling
befolkningsvekst
before
befridd
bega
begavet
begeistret
begeistring
begge
begikk
begin
beginning
begivenhet
begivenhetene
begivenheter
begjær
begravd
begravelse
begravelsen
begravelser
begravet
begrense
begrensede
begrenser
begrenses
begrenset
begrensning
begrensninger
begrep
begrepene
begreper
begrepet
begrunnelse
begrunnelsen
begrunnet
begynne
begynnelse
begynnelsen
begynnende
begynner
begynt
begynte
beha
behagelig
behandle
behandler
behandles
behandlet
behandling
behandlingen
behandlinger
behavior
behersket
behind
behold
beholde
beholder
beholdere
beholdt
behov
behovet
behring
behøver
bei
beiarn
beijing
beijings
bein
beina
beinet
being
beirut
beite
beiter
beitra
bekjempe
bekjempelse
bekjempet
bekjent
bekjente
bekk
bekkelaget
bekken
bekker
beklaget
bekostning
bekrefte
bekreftede
bekreftelse
bekrefter
bekreftet
bekymret
bekymring
bekymringer
bel
belagt
belarus
belarusisk
belarusiske
belastning
bele
belegg
beleiret
beleiring
beleiringen
belfast
belgia
belgias
belgisk
belgiske
believe
beliggende
beliggenhet
beliggenheten
belize
bell
bella
bellamy
belle
bello
bells
belousov
below
belte
beltet
belysning
belønnet
belønning
beløp
beløpet
bemannede
bemannet
bembidion
bemerkelsesverdig
bemerkelsesverdige
bemerket
ben
bena
bend
bendik
bendiksen
bendjoya
benedetto
benedict
benedicte
benedikt
benektet
benes
benet
benevnelsen
benevnes
benevnt
benfica
bengal
bengali
bengals
bengt
bengtsson
beni
benin
benito
benjamin
benken
benker
benkpress
bennett
benny
bensin
bensinstasjon
benson
bent
bente
bentiske
bentley
benytte
benytter
benyttes
benyttet
benz
beograd
beordrer
beordret
beowulf
ber
bera
beredskap
beregne
beregnes
beregnet
beregning
beregningen
beregninger
beretning
beretningen
beretninger
berettiget
berg
bergamo
bergan
bergartene
bergarter
berge
bergen
bergenhus
bergens
bergensavisen
bergensbanen
bergenske
berger
bergersen
berget
berggren
berggrunnen
bergh
berglund
bergman
bergmann
bergs
berit
berkeley
berkshire
berleva
berlin
berliner
berlins
bermuda
bern
bernadotte
bernard
bernardino
bernardo
bernd
berner
bernerio
bernhard
bernhauer
bernhoft
bernie
bernstein
bernt
berntsen
berre
berry
bert
bertel
bertha
berthold
bertil
bertram
bertrand
beruset
berwick
beryktede
beryktet
berømmelse
berømt
berømte
berører
berøring
berørt
berørte
bes
besatt
besatte
beseire
beseirer
beseiret
besetning
besetningen
besittelse
besittelser
beskjed
beskjeden
beskjedent
beskjedne
beskjeftiget
beskrev
beskrevet
beskrevne
beskrive
beskrivelse
beskrivelsen
beskrivelser
beskrivende
beskriver
beskrives
beskutt
beskyldninger
beskyldt
beskyldte
beskytte
beskyttelse
beskyttende
beskytter
beskyttet
beslag
beslaglagt
beslektede
beslektet
beslutning
beslutningen
beslutninger
besluttet
bessarabia
best
besta
bestand
bestanden
bestandene
bestander
beste
bestefar
bestefaren
besteforeldre
besteg
bestemme
bestemmelse
bestemmelsen
bestemmelsene
bestemmelser
bestemmer
bestemmes
bestemor
bestemoren
bestemt
bestemte
bestikkelser
bestille
bestilling
bestillingsverk
bestilt
bestilte
bestimmungsschlu
besto
bestod
bestrebelser
bestselgende
bestselger
bestykning
bestyrer
besuchet
besøk
besøke
besøkende
besøker
besøket
besøkt
besøkte
bet
beta
betale
betaler
betales
betaling
betalt
betalte
betegne
betegnelse
betegnelsen
betegnelsene
betegnelser
betegner
betegnes
betegnet
betennelse
beth
betingelse
betingelsen
betingelsene
betingelser
betinget
betjene
betjener
betjenes
betjent
betjente
betlehem
betong
betrakte
betraktelig
betrakter
betraktes
betraktet
betraktning
betraktninger
betrodde
better
betty
between
bety
betydde
betydelig
betydelige
betydning
betydningen
betydninger
betydningsfull
betydningsfulle
betydningsfullt
betyr
betød
beundrer
beundret
beundring
bevare
bevares
bevaring
bevaringsverdige
bevart
bevarte
bevege
bevegelig
bevegelige
bevegelse
bevegelsen
bevegelsene
bevegelsens
bevegelser
beveger
beveget
bever
beverly
bevilget
bevilgninger
bevis
bevise
bevisene
beviser
beviset
bevisst
bevissthet
bevisstheten
bevisstløs
bevist
beviste
bevitnet
bevæpnede
bevæpnet
bevæpning
beyer
beyond
bezdek
bezirk
bf
bg
bhattarai
bhutan
bhutto
bi
bianca
biathlon
bibel
bibelen
bibelens
bibelsk
bibelske
bible
biblical
bibliografi
bibliography
bibliotek
bibliotekar
biblioteker
biblioteket
bibliothe
bibliotheca
bibsys
bicolor
biden
bidra
bidrag
bidragene
bidraget
bidragsyter
bidragsytere
bidrar
bidratt
bidro
bidrog
bie
bien
bier
big
bigbang
bihar
bil
bilag
bilbao
bild
bilde
bildebok
bildedatabase
bildegalleri
bildende
bildene
bilder
bildet
bilen
bilene
bilens
biler
bilferge
bill
billag
billboard
bille
billedbok
billedgalleri
billedhugger
billedhuggere
billedhuggeren
billedkunst
billedkunstner
billedkunstnere
billen
billene
billens
biller
billerman
billett
billetter
billie
billig
billige
billigere
billion
bills
billy
bilmerker
bilmodeller
bilopphøggers
bilprodusenten
bilprodusenter
bilruter
biltrafikk
bilulykke
bin
bind
bindal
binde
bindende
bindene
binder
bindet
binding
bindinger
bing
bingen
bio
biodiversity
biograf
biografi
biografien
biografier
biografisk
biografiske
biographical
biographie
biography
biol
biolog
biologer
biologi
biologien
biologisk
biologiske
biology
biondi
bipolar
birch
bird
birdlife
birds
birger
birgit
birgitta
birgitte
biri
birkebeinerne
birkeland
birkenes
birley
birmingham
birolle
biroller
birth
birthday
bis
bisatt
bischof
bishop
biskop
biskopen
biskopene
biskopens
biskoper
bislett
bismarck
bison
bispedømme
bispedømmene
bispedømmer
bispedømmet
bispedømmets
bispekonferanse
bispesete
bispesetet
bispevielsen
bispeviet
bissau
bista
bistand
bit
bitcoin
bite
biter
bitre
bits
bitt
bitter
bittesma
bivirkninger
bjarne
bjarte
bjelke
bjelland
bjerka
bjerke
bjerknes
bjerkreim
bjo
bjugn
bjølsen
bjørg
bjørgen
bjørgvin
bjørk
bjørke
bjørklund
bjørn
bjørnafjorden
bjørnar
bjørndal
bjørndalen
bjørneboe
bjørnen
bjørnson
bjørnsons
bjørnstad
bjørnstjerne
bjørnøya
bjørvika
bk
bl
bla
black
blackburn
blackmore
blackpool
blackwell
blad
bladbiller
blade
bladene
blader
bladet
bladkompaniet
blair
blake
blakstad
blanc
blanchard
blanche
blanco
bland
blande
blandede
blander
blandes
blandet
blanding
blandingen
blank
blanke
blankt
blant
blast
bldsa
ble
blei
blek
bleke
blekinge
blev
bli
blick
blikk
blikket
blind
blinde
blindern
blindvei
blink
blir
bliss
blitt
blitz
blix
blixen
bloch
block
blod
bloda
blodet
blodig
blodige
blodtrykk
blog
blogg
blogger
blokade
blokaden
blokk
blokken
blokkene
blokker
blokkere
blokkert
blokkerte
blom
blomst
blomsten
blomstene
blomster
blomsterbukker
blomsterfluer
blomstrende
blomstrer
blomstret
blonde
blood
bloody
bloom
bloomsbury
blow
blu
blue
bluegrass
blues
bly
bløtdyr
bløte
bløtvinger
bm
bmatrix
bmc
bmg
bmw
bmx
bn
bner
bnp
bnr
bo
boa
board
boat
bob
bobby
bobbysocks
bobkjører
bobkjørere
bobsleigh
boca
boccia
bochum
bodd
bodde
bodhisattva
bodil
bodilprisen
bodin
body
bodø
boe
boeck
boeing
boende
bog
bogen
bogota
boheman
bohr
bohusla
boikott
boikottet
bois
boisduval
bok
boka
boken
bokens
bokfo
bokforlag
bokform
bokhandel
bokhandler
bokhylla
bokklubben
bokma
boks
boksen
bokser
boksere
bokserien
bokseropprøret
boksing
bokstav
bokstavelig
bokstaven
bokstavene
bokstaver
bokutgivelser
bol
boldsymbol
bolesław
bolet
boleyn
boli
bolig
boligbyggelag
boligen
boligene
boliger
bolighus
boligomra
bolivia
bolivias
bolle
bollettino
bologna
bolsjevikene
bolstad
bolt
bolton
bom
bomb
bombardement
bombardier
bombay
bombe
bombeangrep
bombefly
bomben
bombene
bomber
bombet
bombing
bombingen
bombus
bombycoidea
bommet
bompenger
bomull
bon
bonan
bonaparte
bond
bonde
bondega
bonden
bondepartiet
bondevik
bone
bonelli
bones
bonifatius
bonn
bonnevie
bonnie
bonnier
bonniers
bono
bonus
bonusspor
boogie
book
booker
books
boom
boone
boot
booth
boots
bor
bora
borch
borchgrevink
bord
bordeaux
border
borders
bordet
bordoni
bordtennis
bordtennisspiller
bordtennisspillere
bore
boreal
borealis
borer
boret
borettslag
borettslaget
borg
borge
borgen
borger
borgere
borgerkrig
borgerkrigen
borgerlig
borgerlige
borgermester
borgermestere
borgermesteren
borgermestre
borgerne
borgerskap
borgerskapet
borghild
borglund
borgund
boring
boris
born
borneo
bornholm
borough
borowiec
borre
bort
borte
bortebane
borten
bortenfor
bortført
bortgang
bortimot
bortsett
borussia
bosatt
bosatte
bosch
bosetning
bosetningen
bosetningene
bosetninger
bosette
bosettere
bosetting
bosnia
bosnisk
bosniske
boss
bosted
boston
bot
botaniker
botanikere
botanikk
botanisk
botaniske
both
botn
botswana
bottom
boucher
boulevard
boulogne
bound
bourbon
bourgeois
bourgogne
bourgoin
bourne
bournemouth
bousfield
bouvier
bow
bowell
bowie
bowl
bowling
bowls
bowman
box
boxing
boy
boyd
boydell
boye
boyer
boyle
boys
bp
br
bra
braaten
braathens
brabant
brachinus
brad
bradford
bradley
bradshaw
brady
braga
brage
brageprisen
bragernes
bragg
bragt
bragte
brahe
brahms
brain
brakk
brakker
brakt
brakte
branch
brand
brandbu
brandenburg
brandes
brandon
brandt
brann
brannen
branner
brannstasjon
brannvesen
brannvesenet
bransjen
brant
bras
brasil
brasiliansk
brasilianske
brasils
brass
brassband
bratislava
bratland
bratlie
bratsberg
bratsj
bratt
bratte
bratteli
braun
braunschweig
brave
bravo
brazil
bre
break
breaking
brechlin
brecht
bred
breda
bredba
bredd
bredde
breddegrad
breddegrader
bredden
bredder
brede
bredere
bredest
bredo
bredt
breed
breen
breer
brees
bregner
breisgau
breivik
brekke
bremanger
bremen
bremer
bremnes
bremse
bremser
brenda
brendan
brenna
brennan
brenne
brennende
brenner
brennevin
brenning
brennpunkt
brensel
brenselkilden
brenselstypen
brent
brente
brescia
breslau
brest
bretagne
breton
brett
brettet
breuning
brev
brevene
brevet
brevik
brewer
brian
bride
bridge
bridges
bridget
brief
briefe
brien
brigade
brigadegeneral
brigaden
brigader
briggs
bright
brighton
brigitte
brikke
brikker
brill
briller
bring
bringe
bringer
bringes
bringsværd
brisbane
bristol
brit
brita
britain
britannia
britannica
britene
britenes
briter
british
britisk
britiske
britt
britton
brno
bro
broadcasting
broadway
broch
brochmann
brock
brockstedt
brodd
broder
broen
broene
broer
broken
brokete
bromwich
broncos
bronse
bronsealder
bronsealderen
bronsefinale
bronsefinalen
bronsemedalje
bronsemedaljen
bronsemedaljer
bronsemedaljevinnere
bronsen
bronx
bronze
brook
brooke
brooklyn
brooks
bror
broren
brorens
brors
brorskap
bros
brosjyre
brother
brothers
broun
brower
brown
browne
browning
browns
brt
bru
brua
bruce
bruckner
brud
brudd
bruddet
bruden
bruer
brug
brugge
bruk
bruke
bruken
bruker
brukere
brukeren
brukergrensesnitt
brukerne
brukes
bruket
brukket
bruksomra
brukt
brukte
brulle
brumunddal
brun
brundtland
brune
brunei
brungule
brunlig
brunlige
bruno
brunrød
brunrøde
brunsvart
brunsvarte
brunswick
brunt
brus
brussel
brussels
brustad
brutal
brutale
brutalt
brutt
brutto
brutus
bruun
bryan
bryant
brygge
bryggen
brygger
bryggeri
bryggerier
bryggeriet
bryllup
bryllupet
bryn
bryne
brynjulf
bryr
bryst
brystet
brystskjoldet
bryte
bryter
brytere
brytes
bryting
brænne
brød
brødre
brødrene
brøgger
brøndbo
brøndby
brønn
brønnen
brønner
brønnøy
brønnøysund
brøt
bs
bsd
bt
bu
bua
buccaneers
buch
buchanan
buck
buckingham
buckinghamshire
buckley
bucures
bud
budapest
buddha
buddhas
buddhisme
buddhismen
buddhist
buddhister
buddhistisk
buddhistiske
buddy
budsjett
budsjettet
budskap
budskapet
budstikka
budstikke
bue
buede
buen
buenos
buer
bueskyting
bueskytter
bueskyttere
buet
buffalo
buffy
bug
bugatti
bugge
bugguide
buick
building
buildings
built
buken
bukser
bukt
bukta
bukten
bukter
bul
bulgaria
bulgarias
bulgarsk
bulgarske
bull
bulldog
bullen
bullet
bulletin
bulls
bund
bundesarchiv
bundesliga
bundeswehr
bundet
bunker
bunn
bunndyr
bunnen
buprestidae
buprestoidea
bur
burde
bureau
burg
burgeon
burger
burgess
burgh
burgos
burgund
burke
burkina
burma
burmeister
burn
burnett
burning
burnley
burns
burt
burton
burundi
bury
bus
busan
busch
bush
business
busk
busker
buskerud
buss
bussen
bussene
busser
busserulls
buster
but
butikk
butikken
butikkene
butikker
butler
butt
butte
butterflies
butterfly
button
buy
buzz
bv
bwv
by
bya
byarkiv
bybanen
bybrannen
bydel
bydelen
bydelene
bydeler
bydistrikt
bydistriktet
bye
byen
byene
byens
byer
byfogd
byfylke
byfylker
byga
bygd
bygda
bygde
bygdebok
bygden
bygdene
bygder
bygdøy
bygg
bygge
byggea
byggene
byggenummer
bygger
bygges
bygget
byggetrinn
bygging
byggingen
byggmester
byggverk
byggverket
bygland
bygning
bygningen
bygningene
bygningens
bygninger
bygningsloven
bygningsmassen
bykjernen
bykle
bykommune
byleksikon
bymuren
bymurene
byomra
byprefekturet
byr
byra
byrd
byrne
byron
bys
bysantinerne
bysantinsk
bysantinske
bysants
bystaten
bystatene
bystater
bystatus
byste
bystyre
bystyret
bytte
byttedyr
bytter
byttes
byttet
byutvikling
byva
byzantine
byzantium
bær
bærbare
bære
bærekraftig
bærende
bærer
bæres
bærum
bærums
bø
bød
bødtker
bøe
bøk
bøkene
bøker
bøler
bølge
bølgelengde
bølgelengder
bølgen
bølgene
bølger
bømlo
bøndene
bøndenes
bønder
bønn
bønner
bør
børge
børn
børre
børresen
børretzen
børs
børsen
børsnotert
børster
bøte
bøter
bøyd
bøyde
bøye
bøyer
bøyes
bøylehest
c
ca
cabinet
cabriolet
cache
cadillac
caen
caesar
caetani
cafe
cage
cai
cain
cairo
cal
calabria
calais
calathus
calcio
calcutta
caldwell
caledonia
calendar
calgary
cali
california
caligula
call
calle
called
calleida
calling
calman
calosoma
calvin
cam
cambaridae
cambarus
cambridge
camden
came
camel
camera
cameron
camilla
camille
camillo
camp
campaign
campania
campbell
camping
campo
campos
campus
can
canada
canadas
canadian
canadisk
canadiske
canal
canaria
canberra
cancer
cand
cande
candy
canelones
canis
cannabis
cannes
cannon
canon
canterbury
canto
canton
canvas
canyon
cao
cap
capacity
cape
capital
capitol
capo
capote
cappelen
cappelens
cappella
caprella
caprelloidea
capri
caproni
captain
car
carabidae
caraboidea
carabus
caracas
caravaggio
carbon
card
cardiff
cardinal
cardinals
cardiophorus
care
career
carex
carey
cargo
caribbean
carifta
carina
carl
carla
carlisle
carlo
carlos
carlsen
carlson
carlsson
carlton
carmen
carnegie
carol
carola
carole
carolina
caroline
carolyn
carpegna
carpenter
carr
carrie
carroll
carry
cars
carson
carsten
carter
carvalho
cary
cas
casa
casablanca
casale
casanova
case
cases
casey
cash
casino
caspar
casper
cass
cassidinae
cassidy
cassini
cassius
cast
castberg
castello
castelnau
castiarina
castilla
castillo
castle
castro
cat
catalina
catalog
catalogue
catalogus
catalonia
catania
catarina
catch
category
caterino
catharina
cathedral
catherine
catholic
cathrine
cato
catocala
cats
cause
cave
cavendish
caymanøyene
cb
cbs
cc
cd
cdot
cdots
cdu
ce
ceara
cebu
cecil
cecilia
cecilie
cell
celle
cellen
cellene
celler
cellino
cello
celsius
celtic
celtics
cembalo
cemetery
censo
censos
census
cent
center
centimeter
central
centralteatret
centre
centro
centrum
centuries
century
cephalothorax
cephennodes
cerambycidae
cerambycinae
cerda
ceres
cerro
ces
cesare
cessna
cetoniidae
cetoniinae
ceylon
cf
cgi
ch
cha
chad
chain
chains
chair
challenge
challenger
chamber
chamberlain
chambers
chamonix
champagne
champion
champions
championship
championships
champs
chan
chance
chandler
chang
changchun
change
changed
changes
changing
changsha
channel
chao
chaos
chapel
chaplin
chapman
chapter
chapuis
character
charadriiformes
charaxes
charge
chargers
charity
charles
charleston
charlie
charlotte
charlottenburg
charlton
chart
charter
charts
chase
chassis
chat
chateau
chatham
chaucer
chaudoir
chavtur
che
check
checklist
chef
chelonarium
chelsea
chemical
chemistry
chemnitz
chemsak
chen
cheng
chengdu
chennai
cher
chernykh
cherokee
cherry
cheshire
chess
chester
chet
chevalier
chevrolat
chevrolet
chi
chiang
chicago
chick
chico
chief
chiefs
chiesa
child
children
chile
chilensk
chilenske
chiles
chili
chin
china
chine
chinensis
chinese
ching
chip
chips
chisholm
chlaenius
chloe
cho
choi
choice
choir
chongqing
chopin
chr
chre
chris
christ
christen
christensen
christer
christi
christian
christiane
christiania
christianity
christians
christiansborg
christiansen
christie
christina
christine
christmas
christoffer
christoph
christophe
christopher
christophersen
christy
chronicle
chronicles
chronologie
chronology
chrysler
chrysolina
chrysomelidae
chrysomeloidea
chsische
chu
chuck
chumash
chun
chung
church
churches
churchill
ci
cia
cicero
cicindela
cid
cie
cincinnati
cindy
cinema
cinerama
cio
circle
circuit
circumstances
circus
cirka
cirkus
cis
cit
cite
cities
citizen
citroe
citta
city
ciudad
civic
civil
civilization
ck
cke
cken
cker
cl
claes
clair
claire
clan
clancy
clapton
clara
clare
clarence
clarendon
clark
clarke
clarkson
clash
class
classic
classical
classics
classification
claude
claudia
claudio
claudius
claus
clausen
clav
clay
clayton
cle
clean
clear
clemens
clement
clemente
clements
cleopatra
clermont
cleveland
cliff
clifford
clifton
climate
clinical
clint
clinton
clio
clive
clock
close
closer
cloud
clouds
clown
club
clube
cluj
cluster
clyde
cm
cn
cnn
co
coach
coal
coast
coastal
coat
cobb
cobos
cobra
coburg
coca
cochrane
cockpit
coco
code
codex
cody
coelolepida
coffee
cohen
coiffait
col
cola
colaspis
colaspoides
cold
cole
coleman
coleoptera
coleopterorum
colin
coliseum
coll
collar
colle
collected
collection
college
collegium
collett
collier
collin
collins
colo
colombia
colombiansk
colombianske
colombias
colombo
colon
colonel
colonia
colonial
colonna
color
colorado
colors
colosseum
colour
colpodes
colt
colton
colts
columba
columbia
columbus
com
combat
combined
come
comeback
comedy
comes
comet
comic
comics
coming
comite
command
commander
commentary
commerce
commercial
commission
committee
commodore
common
commons
commonwealth
communication
communications
communist
community
como
compagnie
companion
company
comparative
competition
compilation
complete
complex
compton
computer
comte
con
conan
concacaf
concept
concert
concerto
concise
concord
concordia
conde
confederations
conference
conflict
congo
congress
connecticut
connection
connell
connie
connolly
connor
conoderus
conquest
conrad
conservation
conspiracy
constable
constance
constant
constantin
constantine
constitution
construction
contact
conte
contemporary
content
contest
context
continental
continuo
contribution
contributions
control
controversy
convention
conway
cook
cooke
cookøyene
cool
coop
cooper
coordinator
cop
copa
copelatus
copenhagen
copleymedaljen
coproporus
cora
coraebus
core
corey
cork
cornelia
cornelis
cornelius
cornell
corner
cornwall
corona
corp
corporation
corps
corpus
corse
corte
cortina
cos
costa
costantino
costello
cotton
could
council
count
counter
counties
countries
country
county
countys
coupe
courage
course
court
courtney
cov
cove
coventry
cover
coverdesign
coveret
coverla
coverversjon
coverversjoner
covid
covidpandemien
cowboy
cowboys
cox
cp
cpn
cr
craft
craig
cramer
crane
cranner
crash
crawford
crayfish
crazy
cre
cream
creation
creative
creek
cremona
crew
cricket
crime
crimes
criminal
crimson
crisis
cristina
cristo
critical
critics
croce
croix
cromwell
cropped
crosby
cross
crossing
crow
crowley
crown
cru
cruise
cruises
cruiseskip
crusade
crustacea
crustacean
crustaceans
cruz
cry
crying
cryptocephalus
crystal
cs
csi
cska
css
csu
ct
ctor
cu
cuba
cubansk
cubanske
cubas
cucujiformia
cullen
cult
cultural
culture
cum
cumberland
cumbria
cunningham
cup
cupen
cupfinalen
cupmester
cupvinnercupen
curac
curculionidae
curculionoidea
cure
curie
curling
curlingspiller
curlingspillere
current
curse
curt
curtis
curtiss
cut
cv
cycle
cycling
cyclocephala
cyl
cylindera
cymindis
cynthia
cypridina
cypridinodes
cyprus
cyril
cyrus
cytherella
cytherelloidea
cz
czech
cæsar
cæsars
d
da
daa
daae
dab
dachau
dactylispa
daddy
daegu
dag
dagblad
dagbladet
dagbladets
dagbok
dagboken
dagbøker
dage
dagen
dagene
dagens
dager
dagers
dagfinn
dagger
daggry
daglig
daglige
dagliglivet
dagligtale
dagmar
dagny
dags
dagsavis
dagsavisen
dagsland
dagslys
dagsommerfugler
dagsrevyen
dagtid
dahl
dahle
dahls
dahomey
dai
daily
daimler
daisy
dakar
dakota
dal
dalai
dalane
dalarna
dale
dalen
dalene
daler
dalføret
dali
dalian
dallas
dalmatia
dalton
daly
dam
damaskus
dame
damen
damene
damer
damm
dammen
dammer
damon
damp
dampba
dampen
dampmaskin
dampskibsselskab
dampskip
dams
dan
dana
dance
dancer
dancing
dane
danene
danger
dangerous
daniae
daniel
daniela
danielle
daniels
danielsen
danielsson
danilevsky
danish
danmark
danmarks
danna
danne
dannebrogordenen
dannelse
dannelsen
danner
dannes
dannet
danny
dans
danse
danseband
dansen
danser
dansere
danset
dansk
danske
danskene
dansker
dante
dantes
danzig
daphne
dar
darby
dareios
darfur
darja
dark
darkgrey
darkness
darling
darlington
darmstadt
darren
darwin
das
dash
dass
dat
data
database
databasen
databaser
dataene
datamaskin
datamaskinen
datamaskiner
date
dateformat
daterer
dateres
datering
dateringen
datert
datidens
dativ
dato
datoen
datoer
datter
datteren
datterselskap
datterselskaper
datterselskapet
daughter
dauphine
dave
davenport
david
davids
davidsen
davidson
davies
davis
davos
davy
daværende
dawn
daworks
dawson
day
days
dayton
db
dbladbiller
dc
dd
dde
ddr
ddrs
de
dead
deadly
deal
dean
dear
death
debatt
debatten
debatter
debbie
debehogne
debian
deborah
debut
debutalbum
debutalbumet
debutantpris
debuten
debuterte
dec
decapod
decapoda
decca
december
decision
decline
dedikert
dedikerte
dedisert
dee
deep
def
defence
defense
defensiv
defensive
definere
definerer
defineres
definert
definerte
definisjon
definisjonen
definisjoner
definition
definitive
definitivt
deg
degli
degradert
dei
deilig
dej
dejean
dekan
dekar
dekk
dekke
dekker
dekkes
dekket
dekkvingene
dekkvingenes
dekkvinger
dekning
dekor
dekorasjon
dekorasjoner
dekorative
dekorert
dekorerte
dekret
del
delaktig
delaware
dele
delegasjon
delegasjonen
delegat
delegater
delen
delene
deler
deles
delfi
delft
delgado
delgruppe
delgruppen
delhi
delillos
deling
delingen
dell
della
delle
delomra
dels
delstat
delstaten
delstatene
delstatens
delstater
delt
delta
deltaet
deltagelse
deltagelser
deltagende
deltager
deltagere
deltagermedaljen
deltagerne
deltakelse
deltakende
deltaker
deltakere
deltakerland
deltakerne
deltar
deltatt
delte
deltok
deluxe
delvis
dem
demens
demeter
demetrios
demning
demningen
demninger
demo
democracy
democratic
demoen
demoer
demografi
demokrat
demokraten
demokratene
demokratenes
demokrater
demokrati
demokratiet
demokratisk
demokratiske
demon
demonax
demoner
demonstrantene
demonstranter
demonstrasjon
demonstrasjonene
demonstrasjoner
demonstrere
demonstrerer
demonstrert
demonstrerte
demontert
dempe
dempet
den
dende
dene
deng
dengang
denis
denise
denmark
denne
dennes
dennis
denny
dens
denver
departement
departementene
departementer
departementet
departementets
department
deplasement
deportasjon
deportasjonen
deportasjonene
deportert
deporterte
deportivo
depot
depresjon
depresjonen
deputy
der
derav
derby
derbyshire
dere
derek
deres
deretter
derfor
derfra
deriblant
derimot
deriverte
dermanland
dermed
dernest
derpa
derre
dersom
derta
dertil
derved
des
descarpentries
descartes
description
descriptions
desember
desert
desgphoto
design
designe
designer
designere
designet
desire
desmiphorini
desmond
desperat
desperate
dess
dessau
dessuten
dessverre
destinasjon
destinasjoner
destiny
desto
destroyer
destruction
det
detail
details
detalj
detaljene
detaljer
detaljert
detaljerte
detective
detektiv
detroit
dets
dette
deus
deutsch
deutsche
deutschen
deutscher
deutsches
deutschland
deutschlands
deuve
deux
development
devil
devils
devold
devon
dewey
dexter
df
dformede
dgivende
dgiver
dgivere
dgivning
dh
dhabi
dhaka
dharma
dhus
dhuset
dhusplassen
di
dia
diabetes
diabrotica
diagnose
diagnosen
diagnostisert
diagram
diakon
dialekt
dialekten
dialektene
dialekter
dialog
dialogen
dialoger
dialogue
diamant
diamanter
diameter
diameteren
diamond
diamonds
diana
diane
dianous
diare
diary
dias
diaz
dick
dickens
dickinson
dickson
dictionary
dictionnaire
did
didier
didn
didrik
die
died
diego
diem
dies
diesel
dieselmotor
dieselmotorer
diesen
dieter
dietrich
dietrichson
dieu
different
dig
dige
diger
dighet
digifoto
digital
digitalarkivet
digitale
digitalisert
digitaliserte
digitalkopi
digitalt
digitaltmuseum
digte
dikt
diktator
diktatoren
diktatur
diktaturet
diktene
dikter
diktere
dikteren
diktet
diktning
diktsamling
diktsamlingen
diktsamlinger
dilemma
dillon
dimensjon
dimensjoner
din
dina
dinamo
dine
ding
dingo
dino
dinosaurer
dio
diocletian
diodorus
diogenes
dion
dionysios
dionysos
diplom
diplomat
diplomaten
diplomater
diplomati
diplomatisk
diplomatiske
diptera
dir
direct
direction
director
directors
directory
direkte
direktiv
direktivet
direktorat
direktoratet
direktør
direktøren
direktører
dirigent
dirigenten
dirigenter
dirigert
dirigerte
dirk
dirty
dis
disaster
disc
disco
discography
discogs
discovery
disease
disipler
disiplin
disiplinen
disipliner
disk
diskografi
diskos
diskoskast
diskoskastere
diskriminering
diskusjon
diskusjonen
diskusjoner
diskutere
diskuterer
diskuteres
diskutert
diskuterte
diskvalifisert
disney
disneys
disorder
disorders
dispensasjon
display
disponent
disponerer
disposisjon
disse
dissertation
distance
distanse
distansen
distansene
distanser
distant
distinguished
distinkt
distinkte
distribuere
distribueres
distribuert
distribuerte
distribusjon
distribusjonen
distribution
district
distrikt
distriktene
distrikter
distriktet
distriktets
distrowatch
dit
ditions
ditlev
ditmarsken
ditropidus
ditrysia
ditt
div
diverse
diversity
divine
divisio
division
divisjon
divisjonen
divisjonene
divisjoner
divisjonsrunden
dix
dixie
dixon
diz
dizzie
dj
djevelen
djevelens
djibouti
djurga
dk
dl
dm
dmann
dmitrij
dn
dna
dnb
dns
dnt
do
dobbel
dobbelt
dobbelte
dobbeltsculler
dobbeltspor
doble
doblet
dobro
doc
dock
doctor
document
documentary
documents
dodge
does
dog
dogs
doha
doherty
doi
doing
dok
dokka
doktor
doktoravhandling
doktoren
doktorgrad
doktorgraden
doktrinen
dokument
dokumentar
dokumentaren
dokumentarer
dokumentarfilm
dokumentarfilmen
dokumentarfilmer
dokumentasjon
dokumentene
dokumenter
dokumentere
dokumenterer
dokumentert
dokumenterte
dokumentet
dole
dolin
doll
dollar
dollie
dolls
dolly
dolmen
dolores
dolphin
dolphins
dom
domain
domba
dome
domene
domenenavn
domener
domenet
domenico
domesday
dominans
dominant
dominere
dominerende
dominerer
domineres
dominert
dominerte
domingo
dominic
dominica
dominikanske
dominion
dominique
domino
domkirke
domkirken
dommen
dommer
dommere
dommeren
dommerne
domprosti
domstol
domstolen
domstolene
domstoler
domus
don
donald
donasjoner
donau
done
donert
donerte
donetsk
dong
donna
donnchad
donner
donovan
dons
doo
doom
door
doors
doping
dopingsaker
dora
dorcadion
doria
doris
dornier
dorothea
dorothy
dorset
dortmund
dos
dose
dosent
doser
dot
douard
double
doubleday
doug
douglas
dove
dover
dovre
dovrebanen
dovrefjell
down
downing
downloaded
downs
downtown
doyle
dp
dq
dr
dra
draco
dracula
drafn
draft
draftet
drag
drage
dragen
drager
dragon
dragons
drake
drakk
drakt
drakten
drakter
drama
dramaer
dramaet
dramafilm
dramafilmen
dramafilmer
dramaserie
dramaserien
dramaserier
dramatic
dramatiker
dramatikere
dramatikeren
dramatikk
dramatisert
dramatisk
dramatiske
drammen
drammens
drammenselva
drammensveien
drangedal
drap
drapene
drapet
drar
drastisk
dratt
dre
dream
dreams
drei
dreide
dreie
dreiemoment
dreier
drenerer
drepe
dreper
drepes
drept
drepte
dresden
dress
dressur
drev
drevet
drew
dreyer
dreyfus
drift
driften
drifter
driftes
drikk
drikke
drikker
drikkevann
drink
driv
drive
drivende
driver
drives
drivkraft
drivkraften
drivstoff
dro
drog
dronning
dronningen
dronningens
dronninger
drop
droppet
druce
druer
drug
drukket
druknet
drum
drummond
drums
drury
dry
dryopteris
drøbak
drøftet
drøm
drømmen
drømmer
drøye
drøyt
ds
dsb
dsc
dsleder
dsm
dt
dte
du
dual
duatlon
dub
dubai
dublin
dubois
duc
duck
ducks
dudley
due
duell
duett
duff
duffy
dugnad
duisburg
duk
duke
dukke
dukker
dukket
dukketeater
dum
dumas
dumdum
dumont
dun
dunbar
duncan
dundee
dunkerque
dunn
duo
duoen
dupont
dur
durant
durban
durch
durham
during
dus
dusin
dust
dutch
duty
duun
dvd
dverg
dvergedderkopper
dvergene
dverger
dvor
dvs
dwight
dx
dy
dybdahl
dybde
dybden
dybwad
dyd
dyder
dying
dyke
dykkere
dykking
dyktig
dyktige
dyktighet
dylan
dylans
dynamic
dynamical
dynamics
dynamikk
dynamisk
dynamiske
dynamitt
dynamo
dynasti
dynastidae
dynastier
dynastiet
dynastiets
dynastinae
dynasty
dyp
dype
dypere
dypeste
dypet
dypt
dyr
dyra
dyre
dyrearter
dyreliv
dyrelivet
dyrene
dyrenes
dyrere
dyreste
dyret
dyrke
dyrkes
dyrket
dyrking
dyrt
dyschirius
dyscolus
dz
dæ
dø
død
dødd
døde
dødelig
dødelige
dødelighet
døden
dødens
dødes
dødsa
dødsfall
dødsfallet
dødsstraff
dødt
døende
døgn
døgnet
døgnfluer
dømme
dømmer
dømmes
dømt
dømte
dønna
døpe
døpefont
døpefonten
døperen
døpt
døpte
dør
døra
døren
dørene
dører
dørs
døtre
døtrene
døve
e
ea
each
eagle
eagles
ear
earl
earliest
early
earth
east
easter
eastern
eastwood
easy
eat
eau
eb
ebba
ebbe
eberhard
eberson
ebert
ebok
ebu
ec
ece
echo
eckhoff
eclipse
ecm
eco
ecology
economic
economics
economist
economy
ecuador
ecuadors
ed
eda
edaphus
edda
edderkopp
edderkoppdyr
edderkoppen
edderkoppene
edderkoppens
edderkopper
eddie
eddy
edel
eden
eder
edgar
edge
edicions
edinburgh
edison
edit
edited
edith
edition
editions
editor
editors
edle
edmond
edmonton
edmund
edna
eds
edu
eduard
eduardo
education
educational
edvard
edvards
edvardsen
edvin
edward
edwards
edwin
ee
eec
eeg
een
eesti
ef
efesos
effect
effects
effekt
effekten
effektene
effekter
effektiv
effektive
effektivitet
effektiviteten
effektivt
efta
efter
eg
egeberg
egede
egeerhavet
egeland
egen
egenskap
egenskapen
egenskapene
egenskaper
egentlig
egentlige
egersund
eget
egg
egge
eggen
eggene
egget
eggum
egil
egmont
egne
egnede
egner
egnet
ego
egon
egypt
egyptere
egypterne
egyptian
egyptisk
egyptiske
egypts
ehf
ei
eia
eichmann
eid
eide
eidet
eidfjord
eidsberg
eidskog
eidsva
eidsvold
eidsvoll
eie
eiendeler
eiendom
eiendommen
eiendommene
eiendommer
eiendomsrett
eier
eierandel
eiere
eieren
eierne
eierskap
eierskapet
eies
eiet
eigersund
eight
eigil
eik
eika
eiker
eileen
eilert
eilertsen
eilif
ein
einar
eindhoven
eine
einem
einer
eines
einstein
einsteins
eira
eirik
eisenhower
eit
eivind
ej
ek
ekeberg
ekegren
ekko
ekman
eks
eksakt
eksakte
eksamen
eksempel
eksempelet
eksempelvis
eksemplar
eksemplarer
eksemplene
eksempler
eksemplet
eksil
eksistens
eksistensen
eksistere
eksisterende
eksisterer
eksistert
eksisterte
ekskludert
eksklusiv
eksklusive
eksklusivt
eksotiske
ekspandere
ekspanderte
ekspansjon
ekspansjonen
ekspedisjon
ekspedisjonen
ekspedisjonens
ekspedisjoner
ekspedisjonssjef
eksperiment
eksperimentell
eksperimentelle
eksperimentelt
eksperimenter
eksperimentere
eksperimenterte
eksperimentet
ekspert
eksperter
ekspertise
ekspertkommentator
eksplisitt
eksploderer
eksploderte
eksplosiv
eksplosiver
eksplosjon
eksplosjonen
eksplosjoner
eksponering
eksponert
eksport
eksporten
eksportert
ekstern
eksterne
ekstra
ekstraomganger
ekstraordinær
ekstraordinære
ekstraordinært
ekstrem
ekstreme
ekstremt
ekte
ektefelle
ektefellen
ektemann
ektemannen
ektemannens
ektepar
ekteparet
ekteskap
ekteskapet
ekvator
ekvatorial
ekvivalent
el
elaine
elaphropus
elateridae
elateroidea
elba
elben
eldar
elden
elder
eldre
eldste
eleanor
election
electric
electricity
electronic
elefant
elefanter
elefantordenen
elegans
elegant
elegante
elektra
elektrifisert
elektrisitet
elektrisitetsverk
elektrisk
elektriske
elektro
elektromagnetisk
elektromagnetiske
elektron
elektronene
elektroner
elektronet
elektronikk
elektronisk
elektroniske
element
elementene
elementer
elementet
elements
elena
eleonora
eleonore
elephant
eleusis
elev
eleven
elevene
elever
elfenbenskysten
elg
elgin
eli
elia
elias
eliassen
elig
elige
eliminere
eliminert
elin
eline
eliot
elis
elisa
elisabet
elisabeth
elise
elite
eliten
eliteserie
eliteserien
eliza
elizabeth
ell
ella
elle
ellefsen
ellen
eller
ellers
elleve
ellevte
ellevteplass
elling
ellingsen
elliot
elliott
elliptiske
ellis
elmer
elo
elsa
else
elsen
elser
elske
elskede
elsker
elskerinne
elsket
elst
elstad
elster
elton
elv
elva
elvas
elvdal
elvekraftverk
elveløpet
elven
elvene
elvens
elver
elverum
elvira
elvis
ely
em
emacs
emanuel
embede
embeder
embedet
embedseksamen
embedsmann
embedsmenn
embete
embeter
embetet
embets
embetseksamen
embetsmann
embetsmenn
emblem
emeritert
emeritus
emerson
emery
emi
emigrerte
emil
emile
emilia
emilie
emilio
emily
emir
emirater
emma
emmanuel
emmy
emne
emner
emnet
emosjonelle
emperor
empire
empires
empirisk
ems
en
encyclopaedia
encyclopedia
encyclopædia
end
enda
endate
ende
endelig
endelige
endelsen
endemisk
endemiske
enden
endene
endepunkt
ender
endestasjon
ending
endless
endog
endre
endrede
endrer
endres
endresen
endret
endring
endringen
endringene
endringer
endro
ends
endt
endte
endurance
ene
enebakk
eneboliger
enemies
enemy
ener
enera
enerett
energi
energien
energikilder
energiselskapet
energisk
energy
enes
enesta
eneste
eneveldet
enfield
eng
engang
engasjement
engasjementet
engasjere
engasjert
engasjerte
engebretsen
engel
engelen
engelmann
engels
engelsk
engelske
engelskmenn
engelskmennene
engelskspra
engelsktalende
engen
enger
engerdal
engh
engine
engineering
engineers
england
englands
engler
english
engros
enhet
enheten
enhetene
enheter
enhetlig
enhver
enig
enige
enighet
enigma
enke
enkel
enkelt
enkeltdistanse
enkeltdistanser
enkelte
enkeltpersoner
enkeltrenn
enkeltserie
enkeltsta
enkeltvis
enkemann
enken
enkle
enklere
enkleste
enmotors
enn
enna
enorm
enorme
enormt
enough
enrico
enrique
enron
ens
ensemble
ensemblet
ensfarget
ensidig
enslig
enslige
ensom
ensomhet
ensomme
enstemmig
entall
enten
enterprise
entertainment
entomological
entomologisk
entomology
entre
entreprenør
entry
entusiasme
entusiastisk
entydig
enumeratio
environment
environmental
enzo
enzyklopa
enzymer
eo
eocen
eos
ep
eparki
ephemeroptera
epic
epigynet
epirus
episk
episke
episkopalgenealogi
episode
episoden
episodene
episoder
eple
epler
epoke
epoken
epoker
epos
eposet
epstein
equinor
er
era
erasmus
ere
erfaren
erfaring
erfaringen
erfaringene
erfaringer
erfarne
erfurt
erhard
eric
erich
erichsen
erichson
ericsson
erie
erik
erika
eriksen
eriksson
erin
erindringer
eritrea
eritreiske
erkebiskop
erkebiskopen
erkebiskoper
erkebispedømme
erkebispedømmet
erkehertug
erkjennelse
erkjente
erklære
erklærer
erklæring
erklæringen
erklært
erklærte
erland
erlend
erling
erlingsson
erna
ernest
ernesto
ernie
ernst
ernæring
ero
erobre
erobrede
erobrer
erobreren
erobret
erobring
erobringen
erobringer
eros
erosjon
erotisk
erotiske
ers
erstatning
erstatte
erstatter
erstattes
erstattet
erste
erteblomstfamilien
ervervet
erwin
es
esa
esbjerg
esc
escape
eschscholtz
eske
eskil
eskilstuna
esp
espan
espeland
espen
esperanto
espinosa
espn
ess
essay
essayer
essayist
essays
essen
essential
essex
esso
est
esta
estadi
estadio
estate
este
estetikk
estetisk
estetiske
esther
estimates
estimert
estisk
estiske
estland
estlands
estonia
et
eta
etablere
etablerer
etableres
etablering
etableringen
etableringer
etablert
etablerte
etappe
etappen
etappene
etappens
etapper
etapperesultater
etappeseier
etappeseire
etappevinnere
etasje
etasjer
etat
etaten
etater
etc
ete
eter
eternal
ethan
ethel
ethics
ethnic
ethvert
etienne
etikk
etiopia
etiopias
etiopisk
etiopiske
etisk
etiske
etne
etnisitet
etnisk
etniske
etruskisk
etruskiske
ets
ett
etta
etter
etterforske
etterforsker
etterforsket
etterforskning
etterforskningen
etterfulgt
etterfulgte
etterfølge
etterfølgende
etterfølger
etterfølgere
etterfølgeren
etterhvert
etterkant
etterkommer
etterkommere
etterkommerne
etterkrigstiden
etterkrigstidens
etterlate
etterlater
etterlatt
etterlatte
etterligne
etterligner
etterlot
ettermiddag
ettermiddagen
ettermæle
etternavn
etternavnet
etterpa
etterretning
etterretningstjenesten
ettersom
etterspill
etterspurt
etterspørsel
etterspørselen
ettertid
ettertiden
ettertraktet
etymologi
etymologisk
etymology
eu
euconnus
eufrat
euge
eugen
eugene
eugenio
euklidsk
eulepidoptera
euler
eumalacostraca
eunidia
eurasia
eurasiske
euro
europa
europacupen
europaea
europakommisjonen
europalekene
europaligaen
europamester
europamestere
europamesterskap
europamesterskapet
europaparlamentet
europara
europas
europatouren
europavei
europaveier
europe
european
europeere
europeerne
europeisk
europeiske
eurovision
eus
eusebius
ev
eva
evakuere
evakuering
evakueringen
evakuert
evakuerte
evaluering
evan
evangeliene
evangeliet
evangelisk
evangeliske
evans
eve
evelyn
even
evenes
evening
evensen
event
events
eventuell
eventuelle
eventuelt
eventyr
eventyret
eventyrfilmer
eventyrspill
ever
everest
everett
evert
everton
every
everybody
everyone
everything
evic
evidence
evig
evige
evil
evje
evne
evnen
evner
evol
evolusjon
evolution
evripides
ewald
ewing
ex
examen
excellence
except
exchange
executive
exeter
exhibition
exile
exit
exocentrus
expedition
experience
experiment
experimental
exploration
explorer
expo
exposition
express
ext
extended
extra
extreme
eyde
eye
eyes
eyof
eystein
eyvind
ez
eøs
f
fa
faa
faber
fabian
fabio
fabricius
fabrikk
fabrikken
fabrikkene
fabrikker
face
facebook
faces
fact
facto
factor
factory
facts
factsheet
faculty
fader
faen
fag
fagbevegelsen
fagbokforlaget
fagel
fagene
fagernes
faget
fagfelt
fagfeltet
fagfolk
fagforbund
fagforening
fagforeningen
fagforeninger
fagforeningspersoner
faglig
faglige
faglitteratur
fagomra
fagskole
fair
fairbanks
fairmaire
fairy
faith
faksimile
fakta
faktaark
faktisk
faktiske
faktor
faktoren
faktorene
faktorer
faktum
fakultet
fakulteter
fakultetet
falch
falck
falcon
falcons
falk
falkland
falklandsøyene
fall
falle
fallen
fallende
faller
fallet
fallhøyde
falling
falls
fallskjerm
falne
false
falsen
falsk
falske
falskt
falt
falun
fame
familie
familiegruppen
familiemedlemmer
familien
familiene
familiens
familier
families
familjebok
family
famous
fan
fana
fane
fang
fange
fangeleir
fangeleirer
fangen
fangene
fangenskap
fanger
fanges
fanget
fangst
fangsten
fanny
fans
fansen
fant
fantasi
fantastic
fantastisk
fantastiske
fantasy
fantasyfilmer
fantes
fantomet
far
farah
farao
fare
faren
farens
farer
farewell
farfar
farfaren
farge
fargede
fargen
fargene
farger
fargerike
farget
fargevariable
fargo
farinella
farlig
farlige
farligste
farm
farmen
farmer
farnese
faroe
farrell
fars
farssiden
farsund
fart
fartein
farten
fartøy
fartøyene
fartøyer
fartøyet
farvann
farvannene
farvannet
farvel
farver
fasade
fasaden
fasader
fascinert
fascisme
fascismen
fascistiske
fase
fasen
faser
faset
fasettøyne
fasettøynene
fashion
fasiliteter
faso
fast
fastboende
faste
fastlagt
fastland
fastlandet
fastlands
fastsatt
fastsatte
fastsette
fastsetter
fastsla
fastslo
fat
fatal
fate
father
fatt
fattet
fattig
fattigdom
fattige
fattigste
fauna
faunaeur
fauske
faust
fauvel
favorite
favoritt
favorittene
favoritter
favre
favør
faxon
fay
faye
fb
fbi
fc
fci
fdp
fe
fear
fearnley
feat
feature
features
featuring
feb
feber
februar
february
federal
federation
federico
fedje
fedme
fedora
fedre
feel
feeling
feet
feide
feil
feilaktig
feilaktige
feilen
feilet
feire
feirer
feires
feiret
feiring
feiringen
fekter
fektere
fekting
felder
fele
felice
felipe
felix
fell
felle
feller
felles
fellesbetegnelse
fellesliste
fellesra
fellesskap
fellesskapet
fellesstart
fellesstarten
fellestrekk
fellow
fellowship
felt
feltene
felter
feltet
feltmarskalk
feltritt
feltskyting
felttog
felttoget
fem
fema
female
feminisme
feminist
feministisk
femkamp
femkjempere
femme
femte
femten
femtende
femteplass
femti
fender
feng
fengsel
fengselet
fengselsstraff
fengsler
fengslet
fengsling
fennoscandiae
fenomen
fenomener
fenomenet
fenrik
fer
ferd
ferden
ferdes
ferdig
ferdige
ferdigheter
ferdigstilt
ferdinand
ferdsel
ferenc
ferge
fergeforbindelse
fergen
fergene
ferger
fergesamband
fergesambandet
fergesteder
fergus
ferguson
ferie
ferje
ferjer
ferna
fernando
ferrara
ferrari
ferreira
ferries
ferry
fersk
ferske
ferskvann
ferskvannskreps
fest
feste
festen
fester
festes
festet
festival
festivalen
festivaler
festning
festningen
festningene
festninger
festningsverk
festskrift
festspillene
fet
fett
fetter
fetteren
fever
feyenoord
ff
ffer
ffk
fi
fia
fiasko
fiat
fiber
fiction
fide
fidel
field
fields
fiemme
fiende
fienden
fiendens
fiender
fiendtlig
fiendtlige
fifa
fife
fifth
fifty
fight
fighter
fighters
fighting
figur
figure
figuren
figurene
figurer
figures
figurteater
fiji
fik
fikk
fiksjon
fiktiv
fiktive
fil
filadelfia
filantrop
file
filer
files
filharmonien
filharmoniske
filial
filip
filippinene
filippinenes
filippinsk
filippinske
filippo
film
filmatisering
filmatiseringen
filmatisert
filme
filmen
filmene
filmens
filmer
filmet
filmfestival
filmfestivalen
filmfotograf
filmindustrien
filmingen
filminstituttet
filmkomedie
filmkomedier
filmkritikeren
filmmanus
filmmusikk
filmmusikken
filmografi
filmprodusent
filmprodusenter
filmregissør
filmregissører
films
filmselskapet
filmskaper
filmskuespiller
filmweb
filolog
filologer
filologi
filosof
filosofen
filosofer
filosofi
filosofia
filosofien
filosofisk
filosofiske
filter
fin
fina
final
finale
finalen
finalene
finaler
finaleresultater
finalerunden
finalist
finalistene
finalister
finals
finance
financial
finans
finansdepartementet
finansiell
finansielle
finansiere
finansieres
finansiering
finansieringen
finansiert
finansierte
finanskrisen
finansminister
find
fine
finere
fineste
finger
fingre
fingrene
finjarn
finland
finlands
finn
finne
finnene
finner
finnes
finnmark
finns
finnsnes
finnøy
fins
finsk
finske
finskspra
fint
fiolett
fiolin
fioliner
fiolinist
fiolinisten
fiolinkonsert
fiona
fiorentina
firda
fire
firea
fired
firenze
firer
firerbob
firkant
firkantede
firkantet
firma
firmaer
firmaet
firmaets
first
firth
fis
fischer
fish
fisher
fisk
fiske
fiskearter
fiskeba
fisken
fisker
fiskere
fiskeri
fiskerne
fisket
fiskevær
fitjar
fitzgerald
fitzpatrick
five
fja
fjaler
fjeld
fjeldstad
fjell
fjellene
fjellet
fjellkjede
fjellkjeden
fjellkjeder
fjellomra
fjells
fjellsiden
fjelltopp
fjelltoppen
fjelltopper
fjerde
fjerdedel
fjerdeplass
fjern
fjerne
fjerner
fjernes
fjernet
fjerning
fjernsyn
fjernsynet
fjernsynsserie
fjernsynsserien
fjernsynsteatret
fjernt
fjernvarme
fjodor
fjora
fjord
fjordane
fjordarm
fjorden
fjordene
fjorder
fjorten
fjortende
fjær
fjæra
fjærdrakt
fjærdrakten
fjære
fjærvekt
fjærvinger
fjørtoft
fjøs
fk
fl
fla
flag
flagg
flaggbærer
flaggbærere
flaggermus
flagget
flaggskip
flaggskipet
flags
flak
flakne
flame
flames
flamme
flammene
flammer
flamsk
flamske
flandern
flanke
flanken
flash
flaske
flasker
flat
flatanger
flate
flaten
flater
flatt
flavius
fleet
fleetwood
fleischer
flekk
flekkefjord
flekker
fleksibel
fleksnes
fleming
flemming
flensburg
fler
flera
flere
flertall
flertallet
flertallsvalg
flesh
flest
fleste
flesteparten
fletcher
fleutiaux
flickr
flight
flikvinger
flink
flint
flittig
flo
floden
flokk
flokken
flokker
flom
flommen
flood
floor
flor
flora
florence
flores
florett
florian
florida
florø
flott
flotte
flow
flower
flowers
floyd
flu
flue
fluene
fluer
fluevekt
flukt
flukten
fly
flyene
flyers
flyet
flyets
flyfoto
flygende
flyger
flygere
flygninger
flying
flykte
flykter
flyktet
flyktning
flyktningene
flyktninger
flynn
flyplass
flyplassen
flyplasser
flyr
flys
flyselskap
flyselskaper
flyselskapet
flystasjon
flyt
flyte
flytende
flyter
flytta
flytte
flytter
flyttes
flyttet
flytting
flyttingen
flytypen
flyulykker
flyva
flyvende
flyver
flyvere
flyvning
flyvninger
fløt
fløy
fløya
fløyen
fløyet
fløyte
fløyter
fm
fn
fnl
fns
fo
focus
fogd
fogderi
fokker
fokus
fokusere
fokuserer
fokusert
fokuserte
fokuset
folio
folk
folke
folkeavstemning
folkeavstemningen
folkeavstemninger
folkeblad
folkeeventyr
folkeforbundet
folkegruppe
folkegruppen
folkegruppene
folkegrupper
folkehelseinstituttet
folkehøgskole
folkehøyskole
folkelig
folkelige
folkemengde
folkemengden
folkeminne
folkemord
folkemordet
folkemunne
folkemuseum
folkemusikk
folkene
folkeparti
folkepartiet
folkerepublikken
folkerike
folkeskole
folkeskolen
folkeslag
folket
folketall
folketallet
folketelling
folketellingen
folketellingsforma
folketinget
folketingsmedlemmer
folketro
folkets
folkevalgt
folkevalgte
folkevandringstiden
folkeviser
folklore
folks
folldal
follo
follow
fond
fondet
fonds
fontaine
fontana
fontene
fontsize
food
fool
foot
football
footballsite
for
fora
forakt
foran
forandre
forandrer
forandres
forandret
forandring
forandringer
forankret
forankring
forband
forbannelse
forbannet
forbedre
forbedrede
forbedret
forbedring
forbedringer
forbeholdt
forbeina
forberede
forberedelse
forberedelsene
forberedelser
forberedende
forbereder
forberedt
forberedte
forbes
forbi
forbiga
forbilde
forbilder
forbindelse
forbindelsen
forbindelsene
forbindelser
forbinder
forbindes
forble
forbli
forblir
forblitt
forbrenning
forbruk
forbruker
forbrukere
forbruket
forbrytelse
forbrytelsen
forbrytelser
forbud
forbudet
forbudt
forbudte
forbund
forbundet
forbundets
forbundsdagen
forbundskansler
forbundsra
forbundsrepublikken
forby
forbyr
forbød
force
forces
ford
fordel
fordelaktig
fordele
fordelen
fordelene
fordeler
fordeles
fordeling
fordelingen
fordelt
fordelte
fordi
fordommer
fordrevet
fordrevne
fordrivelsen
fords
fordypning
fordømmelse
fordømt
fordømte
fordøyelsessystemet
fore
forebygge
forebyggende
forebygging
foredrag
foredragsholder
forega
foregikk
foreign
forekom
forekomme
forekommende
forekommer
forekommet
forekomst
forekomsten
forekomster
forela
foreldet
foreldre
foreldreløs
foreldreløse
foreldrene
foreldrenes
forelegg
foreleser
forelesninger
foreligger
forelsker
forelsket
foreløpig
foreløpige
forene
forening
foreningen
foreningens
foreninger
forenings
forenklet
forent
forente
foresla
foreslo
forespørsel
forest
foresta
forestille
forestiller
forestilling
forestillingen
forestillingene
forestillinger
foreta
foretak
foretaket
foretar
foretas
foretatt
foretok
foretrakk
foretrekker
foretrukket
foretrukne
forever
forfall
forfalt
forfatning
forfatningen
forfatter
forfattere
forfatteren
forfatterens
forfatterkatalogen
forfatterne
forfattersentrums
forfatterskap
forfatterskapet
forfattet
forfedre
forfedrene
forferdelig
forflytte
forflyttet
forfremmet
forfulgt
forfulgte
forfølge
forfølgelse
forfølgelsen
forfølgelser
forget
forgiftet
forgiftning
forgjenger
forgjengere
forgjengeren
forgjeves
forgotten
forgrunnen
forgylt
forha
forhandle
forhandler
forhandlet
forhandlingene
forhandlinger
forhenværende
forhindre
forhindrer
forhindret
forhistorie
forhistorisk
forhistoriske
forhold
forholde
forholdene
forholder
forholdet
forholdsvis
forholdt
forhøyet
forkant
forkanten
forkastet
forkjemper
forkjærlighet
forklare
forklarer
forklares
forklaring
forklaringen
forklaringer
forklart
forklarte
forkledd
forkortede
forkortelse
forkortelsen
forkortelser
forkortes
forkortet
forkropp
forkroppen
forkynnelse
forkynner
forlag
forlaget
forlagets
forlags
forlagt
forlangte
forlate
forlater
forlatt
forlatte
forlegger
forleggeren
forlenge
forlengede
forlengelse
forlengelsen
forlenget
forlik
forlis
forliset
forliste
forlot
forlovede
forlovelsen
forlovet
forløp
forløper
forløpere
forløperen
form
forma
formann
formannen
formannskap
formannskapet
formannskapsdistrikt
formasjon
formasjonen
formasjoner
format
formater
formatet
formation
forme
formede
formel
formelen
formell
formelle
formelt
formen
formene
formenn
former
formering
formet
formidle
formidler
formidlet
formidling
formler
formodentlig
formoe
formosa
forms
formspra
formue
formuen
formula
formulering
formulert
formulerte
fornavn
fornavnet
fornebu
fornuft
fornuftig
fornybar
fornye
fornyelse
fornyet
fornærmet
fornøyd
forord
forordet
forordning
forordningen
forover
forpliktelse
forpliktelser
forpliktet
forra
forrest
forretning
forretningen
forretninger
forretningsfolk
forretningsmann
forretningsmannen
forretningsomra
forrige
forræderi
forsamling
forsamlingen
forsamlinger
forsand
forsberg
forside
forsiden
forsikre
forsikret
forsikring
forsiktig
forsinkelser
forsinket
forsker
forskere
forskeren
forskerne
forsket
forskjell
forskjellen
forskjellene
forskjeller
forskjellig
forskjellige
forskning
forskningen
forsknings
forskningsinstitutt
forskningsra
forskrift
forskriften
forskrifter
forslag
forslagene
forslaget
forsoning
forsta
forstad
forstaden
forstand
forstander
forstedene
forsteder
forster
forsterke
forsterker
forsterket
forsterkning
forsterkninger
forsto
forstod
forstyrre
forstyrrelse
forstyrrelser
forstyrret
forstørrede
forstørrelse
forstørret
forsvant
forsvar
forsvare
forsvarer
forsvarere
forsvarerne
forsvaret
forsvarets
forsvarlig
forsvarsdepartementet
forsvarsminister
forsvarssjef
forsvarsspiller
forsvart
forsvarte
forsvinne
forsvinner
forsvunne
forsvunnet
forsyne
forsyner
forsyninger
forsynt
forsynte
forsøk
forsøke
forsøkene
forsøker
forsøket
forsøksheat
forsøksheatene
forsøksheatet
forsøkt
forsøkte
forsørge
fort
fortalt
fortalte
fortegn
fortegnelse
fortelle
forteller
fortelleren
fortelles
fortelling
fortellingen
fortellingene
fortellinger
fortene
fortere
fortet
forth
fortid
fortiden
fortidsminneforeningen
fortjeneste
fortjenester
fortjenstmedalje
fortjenstorden
fortjent
fortjente
fortløpende
fortolkning
fortrengt
fortress
fortrinnsvis
fortsatt
fortsatte
fortsette
fortsettelse
fortsettelsen
fortsetter
fortuna
fortune
fortvilelse
fortykkede
forum
forurenset
forurensning
forut
foruten
forutga
forutsa
forutsatt
forutsetning
forutsetninger
forutsetter
forutsi
forvalte
forvalter
forvaltes
forvaltet
forvaltning
forvaltningen
forvandle
forvandler
forvandlet
forvandling
forvaring
forveien
forveksles
forvekslet
forveksling
forvente
forventede
forventer
forventes
forventet
forventningene
forventninger
forverret
forvillet
forvingen
forvingene
forvingens
forvirrende
forvirret
forvirring
forvist
forviste
forward
forøvrig
fosen
fosfor
fosnes
foss
fosse
fossefall
fossen
fosser
fossil
fossile
fossiler
fossum
foster
fosteret
fot
fotball
fotballag
fotballaget
fotballbane
fotballdommer
fotballdommere
fotballen
fotballforbund
fotballforbundet
fotballkarriere
fotballklubb
fotballklubben
fotballklubber
fotballkrets
fotballspiller
fotballspillere
fotballspilleren
fotballstadion
fotballstadioner
fotballtrener
fotballtrenere
fotballturneringen
fotballturneringer
foten
fotfeste
fotnote
fotnoter
foto
fotogalleri
fotograf
fotografen
fotografer
fotografering
fotografert
fotografi
fotografier
fots
fotspor
fougner
found
foundation
foundations
fountain
four
fourth
fowler
fox
fr
fra
frac
fraflyttet
fragment
fragmenter
fragmentert
fraksjon
fraksjonen
fraksjoner
frakt
frakte
frakter
fraktes
fraktet
fram
frambeina
frame
frameless
framfor
framføring
framført
framførte
framgang
framhevet
framme
framover
framsta
framstille
framstiller
framstilling
framstilt
framstilte
framtid
framtiden
framtidig
framtidige
framtredende
framveksten
franc
france
frances
francesca
francesco
francis
francisco
francisturbin
franck
franco
frank
frankenstein
frankerne
frankerriket
frankfurt
frankfurter
frankie
frankisk
frankiske
franklin
frankrike
frankrikes
franks
frans
fransk
franske
franskmannen
franskmenn
franskmennene
franskspra
fransktalende
frantz
franz
frara
frasa
frasen
fraser
fratatt
fratra
fratre
fratreden
frau
fravær
fraværende
fraværet
fre
freak
fred
fredag
freddie
freddy
fredede
fredelig
fredelige
freden
fredensborg
frederic
frederick
frederik
frederikke
frederiks
frederiksberg
frederiksborg
frederikshavn
fredet
fredete
fredløs
fredning
fredningen
fredrik
fredrikke
fredriksen
fredrikshald
fredrikstad
fredriksten
freds
fredsavtale
fredsavtalen
fredsbevarende
fredsforhandlingene
fredspris
fredstid
free
freedom
freeman
freestyle
freestylekjører
freestylekjørere
fregatt
fregatten
fregatter
frei
freia
freiberg
freiburg
freie
freiherr
frekvens
frekvensen
frekvenser
frelse
frelsers
frelsesarmeen
frelsesarmeens
frem
fremdeles
fremdrift
fremfor
fremføre
fremfører
fremføres
fremføring
fremført
fremførte
fremga
fremgang
fremgangsma
fremheve
fremhevet
fremholdt
fremkant
fremkommer
fremla
fremlagt
fremme
fremmed
fremmede
fremmedspra
fremmer
fremmet
fremover
fremragende
fremre
fremrykning
fremsatt
fremskritt
fremskrittspartiet
fremskrittspartiets
fremst
fremsta
fremste
fremstille
fremstiller
fremstilles
fremstilling
fremstillingen
fremstillinger
fremstilt
fremstilte
fremsto
fremstod
fremstøt
fremt
fremtid
fremtiden
fremtidig
fremtidige
fremtredende
fremveksten
french
fresh
fresker
freud
frey
fri
frida
friday
fridtjof
frie
friedman
friedrich
friend
friends
friendship
friere
friesland
frifunnet
frigg
frigitt
frigjort
frigjør
frigjøre
frigjøres
frigjøring
frigjøringen
frigjøringshær
friherre
frihet
friheten
friheter
frihetsmedalje
friidrett
friidrettsforbund
friidrettsutøver
friidrettsutøvere
friis
frikjent
friksjon
frilans
friluftsliv
friluftsomra
frimann
frimerke
frimerker
frimurer
frimurere
frimurerorden
frisch
frisinnede
frisk
friske
friskt
fristaten
fristen
fristil
frisør
fritatt
frithjof
fritid
fritiden
fritt
frittsta
frittsvevende
fritz
friuli
frivillig
frivillige
fro
frode
frodig
froeschle
frogn
frogner
frokost
froland
from
fromme
fron
front
fronten
fronter
frontfigur
frontier
frontlinjen
frosset
frost
frosta
frp
fru
frue
fruit
frukt
fruktbar
fruktbare
fruktbarhet
fruktbart
frukten
fruktene
frukter
frustrasjon
frustrert
fry
frydenlund
frykt
fryktelig
frykten
frykter
fryktet
fryser
fræna
frø
frøene
frøken
frølich
frøy
frøya
frøydis
fs
ft
fu
fuchs
fuck
fuentes
fuge
fugl
fuglearter
fuglekunnskap
fuglen
fuglenavn
fuglene
fugler
fuglspinnere
fujian
fuktig
fuktige
fuktighet
fulda
fulgt
fulgte
fulham
full
fullbyrdet
fulle
fuller
fullføre
fullfører
fullføres
fullført
fullførte
fullmakt
fullmakter
fullmektig
fullstendig
fullstendige
fullt
fulltekst
fullverdig
fulton
fun
fund
fundament
fundamental
fundamentale
fundamentet
funeral
funet
fungere
fungerende
fungerer
fungert
fungerte
funk
funksjon
funksjonalitet
funksjonell
funksjonelle
funksjonen
funksjonene
funksjoner
funksjonshemmede
funksjonærer
funn
funnene
funnet
funnstedet
funny
fur
fure
furer
furre
further
furu
furuholmen
furuset
fury
fusion
fusjon
fusjonen
fusjonert
fusjonerte
futsal
future
fuzhou
fv
fw
fylke
fylkene
fylker
fylkes
fylkesbaatane
fylkeskommune
fylkeskommunen
fylkesleksikon
fylkesmann
fylkesmannen
fylkesmenn
fylkesordfører
fylkesra
fylkesting
fylkestinget
fylkestingsvalget
fylkesveg
fylkesvei
fylkesveier
fylket
fylkets
fyll
fylle
fyller
fylles
fylling
fyllingen
fyllingsdalen
fylt
fylte
fyn
fyr
fyresdal
fyret
fyringsolje
fyrst
fyrstbispedømmet
fyrste
fyrstedømmet
fyrsten
fyrstene
fyrster
fyrta
fysiker
fysikere
fysikeren
fysikk
fysikken
fysiologi
fysisk
fysiske
fædrelandsvennen
færder
færre
færrest
færøyene
færøyenes
færøysk
færøyske
føde
fødeby
fødebyen
føder
føderal
føderale
føderalt
føderasjon
føderasjonen
fødested
fødestedet
fødsel
fødselen
fødselsa
fødselsdag
fødselsdato
fødsler
født
fødte
føle
følelse
følelsen
følelsene
følelser
føler
føles
følge
følgelig
følgende
følgene
følger
følges
følgesvenner
følget
følsomme
følte
fønikiske
føniksordenen
før
førde
føre
føren
førende
fører
førere
føreren
førermesterskapet
førerne
føres
føroya
først
første
førsteamanuensis
førstedame
førstefødte
førstelag
førstelaget
førsteplass
førsteplassen
førstnevnte
ført
førte
førti
føttene
føtter
føydale
g
ga
gaarder
gabon
gaborone
gabriel
gabriele
gabrielle
gabrielsen
gabrius
gad
gaddafi
gade
gaetano
gaga
gahan
gahr
gaia
gaius
gal
gala
galactica
galaksen
galakser
galaxy
gale
galeazzo
galen
galerie
galerucinae
galicia
galicja
galilei
galileo
gallagher
galle
gallen
galleri
gallerier
galleriet
gallery
gallia
gallimard
galliske
gallo
galloway
galskap
galt
galtvort
galway
gama
gambia
game
games
gamla
gamle
gamlebyen
gamma
gammal
gammaridea
gammarus
gammel
gammeldags
gammelengelsk
gammelnorsk
gammelt
gamvik
gan
gandhi
gang
gange
gangen
gangene
ganger
ganglbauer
gangs
gangvei
ganske
gansu
ganymedes
gao
gap
gar
garantert
garanterte
garanti
garbarek
garborg
garci
garcia
gard
garde
garden
gardens
gardermoen
gardiner
gardner
garfield
garibaldi
garland
garmisch
garn
garnison
garnisonen
garrett
garrison
gartner
gary
gas
gass
gassen
gasser
gasskraftverk
gassturbiner
gaston
gata
gate
gaten
gatene
gater
gates
gattung
gatwick
gaular
gauldal
gaulle
gaupe
gausdal
gauss
gaustad
gaute
gav
gave
gaven
gaver
gavin
gay
gaza
gazastripen
gazette
gazetteer
gb
gbif
gbr
gdan
ge
gear
geelmuyden
gegen
gegenwart
gehrels
geilo
geir
geiranger
geirr
geistlig
geistlige
geit
geiter
gel
gemini
gen
gender
gene
genealogy
gener
genera
general
generaldirektør
generalen
generalene
generaler
generalforsamling
generalforsamlingen
generalguvernør
generalguvernøren
generalkonsul
generalløytnant
generalmajor
generalsekretær
generalstaben
generalvikar
generasjon
generasjonen
generasjoner
generasjons
generating
generation
generator
generatorer
generell
generelle
generelt
generere
genererer
generert
generic
genesis
genet
genetic
genetikk
genetisk
genetiske
geni
genitiv
genius
genocide
genom
genova
genre
gent
gentleman
genus
geoff
geoffrey
geograf
geografen
geografi
geografisk
geografiske
geographic
geographical
geography
geolog
geologer
geologi
geological
geologisk
geologiske
geology
geometri
geometridae
geometrisk
geometriske
georg
george
georges
georgetown
georgia
georgias
georgij
georgios
georgisk
georgiske
georgs
geostiba
ger
gerais
gerald
gerard
gerd
gerda
gerdil
gerhard
gerhardsen
germain
german
germania
germansk
germanske
germany
germar
gerrard
gerry
gert
gertrud
gertrude
ges
geschichte
gesellschaft
gesta
gestapo
gestro
get
gets
getting
gettysburg
gevinst
gevær
gg
ghana
ghanesisk
ghetto
ghost
ghz
gi
giacomo
gian
gianni
giant
giants
gibb
gibbon
gibbons
gibbs
gibraltar
gibson
gideon
gif
gift
gifte
giftema
giften
gifter
gifterma
giftet
giftig
giftige
gigantisk
gigantiske
gikk
gil
gilbert
gildeska
giles
gill
gilles
gillespie
gilmore
gilmour
gimbart
gimle
gin
gina
giorgio
giovanni
gips
gir
girard
girkasse
girl
girls
giro
girolamo
gis
giske
gisle
gisler
gissel
gistel
gitar
gitaren
gitarer
gitarist
gitaristen
gitarister
gitt
gitte
giulia
giulio
giuseppe
give
given
gjaldt
gje
gjedde
gjeld
gjelde
gjelden
gjeldende
gjelder
gjeller
gjemme
gjemmer
gjemnes
gjems
gjemt
gjemte
gjena
gjenbruk
gjendiktning
gjenerobre
gjenerobret
gjenforening
gjenforeningen
gjenforent
gjenfunnet
gjeng
gjengen
gjenger
gjengi
gjengir
gjengis
gjengitt
gjengivelse
gjengjeld
gjeninnført
gjeninnsatt
gjenkjenne
gjenkjennelig
gjenlevende
gjennom
gjennombrudd
gjennombruddet
gjennomføre
gjennomfører
gjennomføres
gjennomføring
gjennomføringen
gjennomført
gjennomførte
gjennomga
gjennomgang
gjennomgikk
gjennomsiktig
gjennomsiktige
gjennomslag
gjennomsnitt
gjennomsnittet
gjennomsnittlig
gjennomsnittlige
gjenoppbygd
gjenoppbygge
gjenoppbygget
gjenoppbygging
gjenoppbyggingen
gjenoppdaget
gjenopplive
gjenopplivet
gjenopprette
gjenopprettet
gjenoppsta
gjenoppta
gjenopptatt
gjenopptok
gjenreist
gjensidig
gjensidige
gjenskape
gjenspeiler
gjenspeiles
gjensta
gjenstand
gjenstandene
gjenstander
gjenta
gjentar
gjentas
gjentatt
gjentatte
gjentok
gjenutgitt
gjenvalg
gjenvalgt
gjenvant
gjenvinne
gjenværende
gjerde
gjerdrum
gjermund
gjerne
gjerning
gjerninger
gjerningsmannen
gjerpen
gjerstad
gjesdal
gjest
gjestene
gjesteopptredener
gjester
gjesterolle
gjesteroller
gjestet
gjorde
gjort
gjødsel
gjødselbiller
gjør
gjøre
gjøres
gjøvik
gjøvikbanen
gk
gl
gla
glad
glade
gladiator
gladys
glans
glansvinger
glasgow
glass
glasset
glassverk
glatt
glatte
glede
gleden
gleder
gleditsch
glemme
glemselen
glemt
glemte
glen
glenea
glenn
gli
glimrende
glimt
glipp
glise
glo
global
globale
globalt
globe
glock
glomma
gloppen
gloria
glory
glossata
gloucester
gloucestershire
glover
glu
gluntan
glødende
gløshaugen
gm
gmbh
gnager
gnagere
gnome
gnr
gnu
go
goa
goal
goals
goble
god
gode
goder
godfrey
godkjenne
godkjennelse
godkjennes
godkjenning
godkjent
godkjente
godman
gods
godseier
godseiere
godset
godstog
godt
godta
godtar
godtatt
godtok
godwin
godzilla
goebbels
goes
goethe
gogh
goguryeo
goia
going
gol
gold
goldberg
golden
goldman
goldwyn
golf
golfbane
golfklubb
golfspiller
golfspillere
goliathini
gon
gondor
gone
gong
gonna
gonza
good
goodbye
goodman
google
goose
gorbatsjov
gordon
gore
gorham
gory
goryeo
gospel
got
goterne
gotha
gothic
gotisk
gotiske
gotland
gott
gottfried
gottlieb
gottorp
gould
gov
government
governor
gp
gps
gr
gra
grace
gracilis
grad
graden
gradene
grader
graders
graduate
gradvis
graf
graff
graffiti
grafiker
grafikere
grafikk
grafisk
grafiske
graham
gram
grammar
grammatikk
grammatiske
grammofon
grammy
gran
grana
granada
granater
grand
grande
grandis
grane
granitt
granlund
granskning
grant
granvin
grappa
gras
grass
gratis
graubu
grav
gravd
gravde
grave
graveløpere
graven
gravene
gravenhorst
graver
graves
gravhaug
gravhauger
gravid
gravide
graviditet
gravitasjon
gravlagt
gravlund
gravlunden
gravlunder
gravminner
gravplass
gravplassen
gravsted
gravstedet
gravør
gray
graz
gre
great
greater
greatest
greece
greek
greeks
green
greene
greenwich
greenwood
greer
grefsen
greg
gregers
gregg
gregor
gregoriana
gregorianske
gregorio
gregorius
gregory
grei
greid
greide
greie
greier
greiner
greit
grekere
grekerne
gren
grenada
grenadinene
grend
grenda
grender
grenen
grenene
grener
grenland
grenoble
grensa
grense
grensen
grensene
grenseomra
grenser
grensesnitt
grenset
grep
grepet
gresk
greske
gress
gresset
gressitt
greta
grete
grethe
grev
greve
greven
grevinne
grevskap
grevskapene
grevskapet
grey
greyhound
grid
gridcolor
gridstraff
grieg
grieghallen
griegs
griffin
griffith
griffiths
grigorij
grim
grimm
grimstad
grini
grip
gripe
griper
gris
griser
gro
grobben
groeneveld
grong
groningen
gronkowski
groove
grop
groper
gror
grorud
groruddalen
grosch
gross
grosserer
grosso
groth
grotte
grotten
grotter
ground
group
groups
grout
grov
grove
groven
groves
grovt
growth
große
gru
gruber
grue
grumman
grundig
grunge
grunn
grunne
grunnen
grunnene
grunner
grunnet
grunnfarge
grunnkrets
grunnkretsen
grunnkretser
grunnla
grunnlag
grunnlaget
grunnlagt
grunnlegge
grunnleggelse
grunnleggelsen
grunnleggende
grunnlegger
grunnleggere
grunnleggeren
grunnleggerne
grunnlegges
grunnlov
grunnloven
grunnlovens
grunnskole
grunnskolen
grunnspillet
grunnstoff
grunnstoffer
grunnstoffet
grunt
gruppa
gruppas
gruppe
gruppeleder
gruppen
gruppene
gruppens
grupper
gruppering
grupperinger
gruppespill
gruppespillet
grus
grusomme
gruve
gruvedrift
gruvedriften
gruven
gruvene
gruver
gruyter
gry
gryende
grytten
grøndahl
grønland
grønlands
grønlandsk
grønlandske
grønn
grønne
grønneberg
grønnlig
grønnsaker
grønt
gs
gskola
gskolan
gsm
gt
gu
gua
guadalajara
guadalupe
guadeloupe
guam
guangdong
guangxi
guangzhou
guard
guardian
guards
guatemala
gub
gud
gudbrandsdalen
guddom
guddommelig
guddommelige
guddommen
guddommer
gude
guden
gudene
gudenes
guder
gudinne
gudinnen
gudinner
gudmund
gudrun
guds
gudstjeneste
gudstjenesten
gudstjenester
gue
guernsey
guerra
guerre
guerrero
guest
guevara
guez
gui
guide
guido
guignot
guild
guillaume
guillermo
guilty
guinea
guineas
guinness
guitar
guitars
guizhou
gujarat
gul
gulag
gulaktig
gulaktige
gulbrandsen
gulbranssen
gulbrun
gulbrune
guldberg
gule
gulen
gulf
gulfkrigen
gull
gullalder
gullalderen
gullbasse
gullbasser
gullet
gullmedalje
gullmedaljen
gullmedaljer
gullruten
gullsmed
gult
gulv
gulvet
gummi
gun
gundersen
gunhild
gunn
gunnar
gunnarsson
guns
gunst
gunstig
gunstige
gunvor
guo
gur
guri
guro
guru
gus
gustaf
gustafsson
gustav
gustave
gustavo
gustavsen
gut
gutenberg
guthrie
gutie
gutt
gutta
gutten
guttene
gutter
guttorm
guttormsen
guvernementet
guvernør
guvernøren
guvernører
guy
guyana
guyanas
guys
gwh
gwynedd
gyldendal
gyldendals
gyldenløve
gyldig
gyldige
gyldne
gyllen
gyllenhal
gylne
gymnas
gymnaset
gymnasium
gymnast
gymnaster
gymnastikk
gynt
gyo
gypsy
gyretes
gyrophaena
gælisk
gæliske
gøteborg
gøy
h
ha
haag
haakon
haaland
haarlem
haas
habitat
habitater
habsburg
hackett
had
hadde
hadeland
haderslev
hades
hadrian
hadsel
haffner
hafslund
haga
hage
hageby
hagen
hagens
hager
hagerup
hagle
hahn
hai
haifa
hainan
hair
haiti
hal
halden
hale
halen
haletra
haley
half
halfdan
halfpipe
halftime
halifax
hall
halland
halle
hallen
haller
hallingdal
hallo
halloween
hallvard
halmstad
halo
hals
halsa
halsen
halv
halva
halvannen
halvannet
halvard
halvbror
halvdan
halvdel
halvdelen
halve
halveringstid
halvert
halvkule
halvkulen
halvma
halvmaraton
halvor
halvorsen
halvparten
halvsøster
halvt
halvveis
halvøy
halvøya
ham
hamar
hamarkameratene
hamarøy
hamas
hambro
hamburg
hamburger
hamid
hamilton
hamkam
hamlet
hammarby
hammer
hammeren
hammerfest
hammersmith
hammond
hampshire
hampton
hamre
hamsun
hamsuns
han
hana
hancock
hand
handball
handbook
handbuch
handel
handelen
handels
handelsdepartementet
handelsfla
handelsfolk
handelshøyskole
handelshøyskolen
handelsmann
handelsmenn
handelsminister
handelssenter
handelsskip
handelssted
handikappidrettsutøvere
handle
handler
handlet
handling
handlingen
handlingene
handlinger
handlingsreferat
hands
hang
hangarskip
hangul
hangzhou
hank
hanks
hann
hanna
hannah
hanne
hannen
hannene
hannens
hanner
hannes
hannibal
hanno
hannover
hanoi
hans
hansa
hansen
hansens
hanshaugen
hanson
hanssen
hansson
hansteen
happened
happiness
happy
har
hara
harald
haralds
haraldsson
haram
harbin
harbor
harbour
hard
hardanger
hardangervidda
hardcore
hardcourt
harde
hardere
harding
hardingfele
hardra
hardrock
hardt
hardy
hare
hareid
hareide
harket
harlan
harlem
harley
harlow
harmoni
harmonisk
harmoniske
harmony
harold
harpalinae
harpe
harper
harpercollins
harr
harriet
harrington
harris
harrison
harrisons
harry
harrys
harstad
hart
hartford
hartmann
hartvig
harvard
harvest
harvey
has
hasan
hasle
hassan
hasse
hassel
hast
hastighet
hastigheten
hastigheter
hastings
hasvik
hat
hatch
hate
hater
hatet
hatt
hatten
hattfjelldal
haug
haugan
hauge
haugen
hauger
haugerud
haugesund
haugesunds
haugland
hauk
haukeland
haus
haut
haute
hauts
hav
havanna
havarerte
havbunnen
havde
have
havel
haven
havene
haver
havet
havets
havga
havilland
havn
havna
havne
havneby
havnebyen
havnebyer
havnen
havnene
havneomra
havner
havnet
havniva
havomra
havoverflaten
havre
havs
hawaii
hawk
hawker
hawkins
hawks
hawley
haworth
hay
hayashi
hayden
haydn
hayes
hayward
hazel
hbo
hbw
hc
hd
he
head
headache
heads
health
hear
heard
heart
hearts
heat
heath
heather
heathrow
heats
heaven
heavy
hebei
hebraisk
hebraiske
hebridene
hector
hedda
hedensk
hedenske
hedenstad
heder
hederspris
hederstegn
hedmark
hedre
hedret
hedvig
hee
heer
heerenveen
hefte
hefter
heftet
heftig
hege
hegel
hegerberg
hegge
hegra
hei
heia
heiberg
heide
heidelberg
heidi
height
heights
heile
heilo
heilongjiang
heim
heimdal
heimevernet
heimskringla
hein
heine
heinemann
heinrich
heinz
heis
heist
hekk
hekkeløp
hekkeløpere
hekkende
hekker
hekketiden
heks
hekser
hekseri
hektar
hel
hela
held
heldig
heldigvis
hele
heleid
helen
helena
helene
helg
helga
helge
helgeland
helgen
helgene
helgenen
helgener
helgesen
helhet
helhetlig
helikopter
helikopteret
helikoptre
helin
helios
helium
hell
helland
hellas
hellbillies
helle
hellenistisk
hellenistiske
heller
helleristninger
hellig
helligdager
helligdom
helligdommen
hellige
helliges
helligka
hello
helmer
helmut
help
helse
helsedirektoratet
helsemessige
helsen
helseorganisasjon
helsepersonell
helseproblemer
helsevesen
helsevesenet
helsingborg
helsingborgs
helsingfors
helsingør
helsinki
helst
helt
heltall
heltberg
helten
heltene
helter
heltid
helvete
hem
hemingway
hemmelig
hemmelige
hemmelighet
hemmeligheten
hemmeligheter
hemmer
hemmet
hemne
hemnes
hemsedal
hen
henan
hende
hendelse
hendelsen
hendelsene
hendelser
hendene
hender
henderson
hendrich
hendrik
hendrix
hendt
hendte
henge
hengende
henger
hengivenhet
hengning
hengt
henhold
henholdsvis
henie
henley
henne
hennes
henning
henrette
henrettede
henrettelse
henrettelsen
henrettelser
henrettet
henri
henrich
henriette
henrik
henriks
henriksen
henry
henryk
henseende
hensikt
hensikten
hensiktsmessig
henspiller
hensyn
henta
hente
henter
hentes
hentet
henvender
henvendte
henvise
henviser
henvisning
henvist
henviste
hepburn
her
hera
herad
herakles
herald
heraldikk
heraldisk
heraldiske
herat
herav
herb
herbert
herbst
hercegovina
hercules
herder
here
hereford
heretter
herfra
heritage
herjet
herkomst
herkules
herman
hermann
hermansen
hermes
hermine
herna
hernes
herning
hero
herodes
herodot
herodotos
heroes
heroin
heroiske
herr
herre
herred
herredsstyre
herredømme
herredømmet
herrega
herrelag
herrelaget
herrelandslag
herrelandslaget
herren
herrene
herrenes
herrens
herrer
herrera
herrich
herschel
herske
herskende
hersker
herskere
herskeren
herskerne
hersket
hertfordshire
hertha
hertug
hertugdømme
hertugdømmene
hertugdømmet
hertugen
hertugene
hertuger
hertuginne
hertz
herunder
herzog
herøy
hesiod
hesperiidae
hesperioidea
hesperus
hess
hessen
hest
hestekrefter
hesten
hestene
hester
hestesport
het
hete
hetende
heter
heteroneura
hetland
hett
hette
hettittiske
hevde
hevder
hevdes
hevdet
heve
hevet
hevn
hevne
hewitson
hey
heydrich
heyerdahl
hf
hg
hhv
hi
hibernian
hicks
hidalgo
hidden
hide
hierarchy
hierarki
hierarkiet
hierarkisk
hieronymus
higgins
high
higher
highland
highway
hilary
hilda
hilde
hildesheim
hill
hillary
hillestad
hills
hilmar
hilsen
hilton
him
himalaya
himlen
himmel
himmelen
himmelens
himmellegemer
himmelske
himmler
hin
hindenburg
hinder
hindi
hindre
hindrer
hindret
hindringer
hindu
hinduer
hinduisme
hinduismen
hinduistiske
hinsides
hinton
hip
hiphop
hippolyte
hiroshima
hirsch
his
hispania
hispinae
hist
histeridae
histoire
historia
historic
historical
historie
historielag
historien
historiene
historiens
historier
histories
historieverk
historiker
historikere
historikeren
historikerne
historikk
historisk
historiske
history
hit
hitchcock
hitler
hitlers
hitlistene
hitlister
hitra
hits
hittil
hiv
hizbollah
hja
hjalmar
hjalp
hjartdal
hjel
hjelm
hjelmeland
hjelmen
hjelmer
hjelp
hjelpe
hjelpebiskop
hjelpemiddel
hjelpemidler
hjelpen
hjelper
hjem
hjemby
hjembyen
hjemkomst
hjemkomsten
hjemland
hjemlandet
hjemlige
hjemløse
hjemme
hjemmebane
hjemmebanen
hjemmefra
hjemmefronten
hjemmehørende
hjemmekamp
hjemmekampene
hjemmekamper
hjemmel
hjemmelaget
hjemmene
hjemmeside
hjemmesiden
hjemmesider
hjemmet
hjemsted
hjemstedet
hjerne
hjernen
hjerneslag
hjerte
hjerteformet
hjerteinfarkt
hjerter
hjertet
hjort
hjortebille
hjortebiller
hjul
hjulene
hjulet
hjulpet
hjørne
hjørnene
hjørner
hjørnet
hk
hl
hle
hler
hm
hmen
hms
hn
hne
ho
hobbs
hobby
hobson
hoc
hochschule
hockey
hode
hodekapsel
hodepine
hodeplagg
hoder
hodet
hodets
hodgson
hoel
hoem
hof
hoff
hoffet
hoffman
hoffmann
hogan
hogd
hohenzollern
hokkaido
hokksund
hol
holberg
holbergs
hold
holde
holden
holdent
holdeplass
holdeplassen
holder
holdes
holding
holdning
holdningen
holdninger
holdt
hole
holger
holiday
holland
hollandsk
hollandske
hollow
holloway
holly
hollywood
holm
holmberg
holmboe
holme
holmen
holmenkollen
holmenkollmedaljen
holmer
holmes
holmestrand
holmsen
holocaust
holometabole
holst
holstein
holsten
holt
holta
holte
holter
holtermann
holthuis
holton
holy
holzschuh
home
homer
homers
homme
homo
homofil
homofile
homofili
hon
honda
honduras
honey
hong
hongkong
honning
honningetere
honningsva
honolulu
honor
honore
honorius
honour
honours
honshu
hood
hook
hooker
hoover
hop
hope
hopen
hopkins
hopp
hoppbakke
hoppbakken
hoppbakker
hoppe
hoppekreps
hopper
hoppet
hopprennet
hoppuka
horace
hordaland
horisontal
horisontale
horisontalt
horisonten
horizon
horn
hornbille
hornbiller
horne
hornene
hornet
hornindal
hornnes
horror
horse
horsens
horst
horten
horthy
horton
horus
hos
hospital
hospitalet
hot
hotel
hotell
hoteller
hotellet
hotels
hotspur
houens
houghton
hour
hours
house
housing
houston
houten
hov
hovden
hove
hoved
hoveda
hovedartikkel
hovedbanen
hovedbase
hovedbelteasteroide
hovedbelteasteroider
hovedbygning
hovedbygningen
hoveddelen
hovedfag
hovedfokus
hovedga
hovedgrupper
hovedinngangen
hovedkontor
hovedkontoret
hovedkvarter
hovedkvarteret
hovedma
hovedmesterskapet
hovedomra
hovedoppgave
hovedperson
hovedpersonen
hovedpersonene
hovedregel
hovedrolle
hovedrollen
hovedrollene
hovedroller
hovedsak
hovedsakelig
hovedserien
hovedsete
hovedsogn
hovedstad
hovedstaden
hovedstadens
hovedsteder
hovedstyret
hovedstyrken
hovedtrener
hovedtyper
hovedvei
hovedveien
hovedvekt
hovedverk
hovedøya
hovin
hovland
how
howard
howden
howe
howell
hoyo
hp
hpv
hr
hren
hrer
hrsg
hrung
hs
hsd
htc
htm
html
http
https
hu
hua
huang
huawei
hubbard
hubble
hubei
huber
hubert
hud
huddersfield
huden
hudskjelettet
hudson
hue
hugget
hugh
hughes
hugo
hui
huitfeldt
hukommelse
hulda
hule
hulen
huler
hull
hullene
hullet
hulrom
human
humaniora
humanisme
humanist
humanistisk
humanistiske
humanitær
humanitære
humboldt
hume
humler
humlesnurr
humor
humoristisk
humoristiske
humphrey
humør
hun
hunan
hund
hundekjøring
hunden
hundene
hunder
hunderaser
hundre
hundrea
hundred
hundrevis
hunerne
hungary
hunger
hungersnød
hunkjønn
hunn
hunnen
hunnene
hunnens
hunner
hunt
hunter
hunting
hur
hurdal
hurra
hurricane
hurt
hurtig
hurtigba
hurtige
hurtigløp
hurtigruten
hurtigruteskip
hurum
hus
husarrest
husband
husby
husdyr
husdyrhold
huse
huseby
husene
huser
huset
husets
hushjelp
husholdning
husholdninger
hushovd
huske
husker
huskes
husket
husmannsplassen
husmor
hussein
husstander
hustad
hustadvika
hustru
hustruen
hustruer
hut
hutchinson
huxley
huygens
hv
hva
hvad
hval
hvalba
hvalen
hvaler
hvalfangst
hvelv
hvelvede
hvelvet
hvem
hver
hverandre
hverandres
hverdag
hverdagen
hverken
hvert
hvete
hvide
hvile
hvileperiode
hviler
hvilke
hvilken
hvilket
hvilte
hvis
hvit
hvite
hviterussisk
hviterussiske
hviterussland
hvitt
hvitvinger
hvor
hvorav
hvordan
hvoretter
hvorfor
hvorfra
hvori
hvorpa
hvorved
hvorvidt
hyacinthe
hybrid
hybrider
hyde
hyderabad
hydra
hydraena
hydraulisk
hydro
hydrogen
hydrophilidae
hydroporus
hydrovatus
hygiene
hylle
hyller
hyllest
hyllestad
hyllet
hymenoptera
hymn
hymne
hymner
hyperiidea
hypotese
hypotesen
hypoteser
hyppig
hyppige
hyppigere
hyret
hytta
hytte
hytten
hytter
hyun
hyundai
hz
hær
hæren
hærene
hærens
hærer
hærfører
hærføreren
hætta
hødd
høeg
høegh
høgskole
høgskolen
høgskoler
høgskulen
høie
høiland
høland
hønefoss
hør
høre
hører
høres
hørespill
høring
hørsel
hørt
hørte
høst
høsten
høstet
høstutstillingen
høvding
høvdingen
høvdingene
høvdinger
høvik
høy
høyanger
høybra
høyde
høydedrag
høydehopp
høydehoppere
høyden
høydene
høydepunkt
høydepunkter
høydepunktet
høyder
høye
høyem
høyere
høyereliggende
høyest
høyeste
høyesterett
høyesteretts
høyesterettsadvokat
høyesterettsdommer
høyesterettsjustitiarius
høyfjellet
høyforræderi
høyhet
høykommissær
høyland
høylandet
høymiddelalderen
høyre
høyreekstreme
høyreorienterte
høyres
høyresiden
høyskole
høyskolen
høyskoler
høyst
høyt
høytidelig
høytider
høytsta
i
ia
iaaf
iaafworldchampionships
iallfall
ian
iata
ib
ibc
iberia
iberiske
iblant
ibm
ibn
iboende
ibrahim
ibsen
ibsens
ibu
ic
ica
icao
icd
ice
iceland
ich
icon
id
ida
idag
idaho
idar
ide
idea
ideal
idealer
ideas
ideell
ideelle
ideelt
ideen
ideene
ideer
identifikasjon
identifisere
identifiserer
identifiseres
identifisert
identifiserte
identisk
identiske
identitet
identiteten
identity
ideologi
ideologien
ideologier
ideologisk
ideologiske
idet
idol
idrett
idretten
idretter
idrettsanlegg
idrettsforbund
idrettsforening
idrettsforeningen
idrettsgallaen
idrettshall
idrettskarriere
idrettsklubben
idrettskrets
idrettslag
idrettslaget
idrettsleder
idrettspark
idrettsutøver
idrettsutøvere
idømt
ie
ieee
if
ifk
ifra
ifølge
iført
ig
igang
igangsatt
igangsatte
igen
igjen
igjennom
ignacio
ignatius
ignaz
ignorert
ignorerte
igor
iherdig
ihjel
ihr
ihre
ii
iihf
iii
iiis
iis
ij
ik
ike
ikeda
ikke
ikkje
ikon
ikt
il
ila
ilagt
ild
ilden
iliaden
iliff
ilja
ill
ille
illegal
illegale
illiger
illinois
illustrasjon
illustrasjoner
illustrated
illustratør
illustratører
illustrere
illustrerer
illustreret
illustrert
illustrerte
ils
im
image
images
imagesize
imago
imam
imdb
imellom
imens
img
imidlertid
immanuel
immateriell
immigranter
immortal
immunitet
imot
impact
imperial
imperiet
imperiets
imperium
implementere
implementert
imponerende
imponert
imponerte
import
importert
importerte
impossible
improvisasjon
improvisert
impuls
impulser
in
ina
inc
incertae
inch
incheon
including
increment
ind
indeks
indeksen
independence
independent
inderøy
index
india
indiahavet
indian
indiana
indianapolis
indianere
indianerne
indianerstammer
indians
indianske
indias
indica
indie
indikasjon
indikasjoner
indikere
indikerer
indikerte
indirekte
indisk
indiske
individ
individene
individer
individet
individets
individual
individuell
individuelle
individuelt
indo
indoeuropeisk
indoeuropeiske
indokina
indonesia
indonesias
indonesisk
indonesiske
indoor
indre
induksjon
indus
industcards
industri
industrial
industrialisering
industrialiseringen
industriell
industrielle
industrielt
industrien
industrier
industries
industriomra
industriselskaper
industry
ine
infanteri
infanteridivisjon
infanteriet
infanteriregiment
infanterister
infantry
infeksjon
infeksjoner
inferno
infinity
infisert
inflasjon
influence
influensa
influert
info
informasjon
informasjonen
informasjonsside
informasjonsteknologi
informatikk
information
informere
informerer
informert
informerte
infoside
infostradasports
infraorden
infrarød
infrastruktur
infrastrukturen
infty
ing
inga
ingar
inge
ingebjørg
ingeborg
ingebrigtsen
ingemar
ingen
ingeniør
ingeniøren
ingeniører
ingenting
inger
ingmar
ingolf
ingredienser
ingrid
ingstad
ingunn
ingvald
ingvar
ingvild
initiativ
initiative
initiativet
initiativtaker
initiativtakerne
inkl
inkludere
inkluderer
inkluderes
inkludert
inkluderte
inklusiv
inklusive
inkorporert
inkvisisjonen
inn
innad
innafor
innb
innbefatter
innbefattet
innblandet
innblanding
innblikk
innbrakte
innbringende
innbuktet
innbygger
innbyggere
innbyggerne
innbyggertall
innbyggertallet
innbyrdes
innbytter
inndele
inndeles
inndeling
inndelingen
inndelinger
inndelt
inne
innebandy
innebar
innebygd
innebygget
innebære
innebærer
inneha
innehadde
innehar
innehaver
innehavere
inneholde
inneholder
inneholdt
innen
innendørs
innenfor
innenlands
innenlandske
innenriks
innenriksdepartementet
innenriksminister
inner
innerst
innerste
innflytelse
innflytelsen
innflytelsesrik
innflytelsesrike
innfødt
innfødte
innføre
innfører
innføres
innføring
innføringen
innført
innførte
innga
inngang
inngangen
inngangspartiet
inngikk
inngrep
inngripen
innhente
innhentet
innhold
innholdet
inni
innimellom
innkalt
innkalte
innkjøp
innkjøpt
innkommende
innlagt
innlandet
innlede
innledende
innleder
innledes
innledet
innledning
innledningen
innledningsheatet
innledningsvis
innlegg
innlemmet
innløp
innløpet
innmeldt
innocens
innocent
innom
innovasjon
innovation
innovative
innover
innpa
innpass
innredet
innredning
innretning
innretninger
innrettet
innrømmer
innrømmet
innsa
innsamling
innsats
innsatsen
innsatt
innsatte
innsbruck
innse
innser
innsettelsen
innsiden
innsikt
innsjø
innsjøen
innsjøene
innsjøer
innskrenket
innskrevet
innskrift
innskriften
innslag
innslaget
innsnevret
innspilling
innspillingen
innspillingene
innspillinger
innspilt
innstiftet
innstilling
innstillingen
innstilt
innstilte
innsyn
innta
inntak
inntar
inntatt
inntekt
inntekten
inntektene
inntekter
inntil
inntog
inntok
inntra
inntraff
inntreden
inntreffer
inntrykk
innvalgt
innvandrere
innvandret
innvandring
innvandringen
innvendig
innvendige
innvendinger
innvielsen
innviet
innvilget
innvirkning
innvotert
ins
inscriptions
insecta
insects
insee
insekt
insektene
insekter
inside
insignier
insisterer
insisterte
inskripsjon
inskripsjonen
inskripsjoner
inspeksjon
inspektør
inspirasjon
inspirasjonen
inspirasjonskilde
inspirere
inspirert
inspirerte
instagram
installasjon
installasjoner
installere
installert
instans
institusjon
institusjonen
institusjonene
institusjoner
institut
institute
institutet
institution
instituto
institutt
institutter
instituttet
instituttets
instruert
instruerte
instruksjon
instruksjoner
instruktør
instrument
instrumental
instrumentale
instrumentene
instrumenter
instrumentet
instruments
insularis
insulin
int
intakt
intakte
inte
integralet
integrasjon
integrere
integrering
integrert
integrerte
integritet
intel
intellektuell
intellektuelle
intelligence
intelligens
intelligent
intelligente
intens
intense
intensitet
intensiv
intensjon
intensjoner
intenst
inter
interactive
interaksjon
interception
interceptions
interessant
interessante
interesse
interessen
interessene
interesseorganisasjon
interesser
interessert
interesserte
interest
interior
interiør
interiøret
interkommunale
intermedia
intern
internacional
internasjonal
internasjonale
internasjonalt
international
internationale
internazionale
interne
internert
internet
internett
internettside
internt
interpretation
interstate
intervall
intervallet
intervensjon
interview
intervju
intervjuer
intervjuet
intet
into
intriger
intro
introduction
introduksjon
introduksjonen
introduksjoner
introdusere
introduserer
introdusert
introduserte
invadere
invaderende
invaderer
invadert
invaderte
invasion
invasjon
invasjonen
invasjoner
inventar
inverness
inverse
investere
investering
investeringer
investert
investerte
investigation
investment
investor
investorer
invisible
invitasjon
invitational
inviterer
invitert
inviterte
involvere
involverer
involvering
involvert
involverte
inzell
io
ioc
iok
ion
iona
ioner
ios
iowa
ip
ipa
ipc
ipf
iphone
ipsc
ipswich
iq
ir
ira
irak
irakisk
irakiske
iraks
iran
irans
iransk
iranske
iraq
ire
ireland
irene
irgens
irina
iris
irish
irkutsk
irland
irlands
irma
irmler
iron
ironi
ironisk
irregulære
irritasjon
irritert
irsk
irske
irvine
irving
irwin
is
isa
isaac
isabel
isabella
isabelle
isachsen
isaf
isak
isaksen
isbjørn
isbn
isbre
isbreen
isbreer
isdans
ise
isen
isfjell
isfjorden
ishockey
ishockeyklubb
ishockeyklubber
ishockeyspiller
ishockeyspillere
ishockeyturneringen
isis
isla
islam
islamic
islams
islamsk
islamske
island
islands
islandsk
islandske
isle
isles
ismail
iso
isolasjon
isolde
isolere
isolert
isolerte
isotoper
israel
israelittene
israels
israelsk
israelske
iss
issn
issue
issues
ist
istanbul
istand
isteden
istedenfor
istedet
istid
istiden
istituto
isu
isuresults
især
it
ita
italia
italian
italiana
italiano
italias
italienere
italienerne
italiensk
italienske
italy
ithaca
itis
ito
its
itt
itunes
itv
iucn
iucns
ius
iv
iva
ivan
ivanov
ivanovitsj
ivar
ivareta
ivaretar
ivaretatt
ivars
iveland
iver
iverksatt
iverksatte
iverksette
iversen
ivo
ivret
ivrig
ivrige
ivs
ivy
ix
iz
iøynefallende
j
ja
jack
jackie
jackson
jacksons
jacksonville
jacob
jacobi
jacobs
jacobsen
jacobson
jacoby
jacqueline
jacques
jade
jae
jag
jage
jager
jagere
jagerfly
jaget
jagger
jaguar
jaguars
jahn
jahr
jahrbuch
jahre
jahren
jahrhundert
jahrhunderts
jahve
jaime
jak
jakarta
jake
jakke
jakob
jakobs
jakobsen
jakovlev
jakt
jakte
jakten
jakter
jaktet
jaktstart
jaktstarten
jakub
jam
jamaica
jamaicansk
jamaicanske
james
jameson
jamestown
jamfør
jamie
jan
jana
jane
janeiro
janet
jang
janis
janne
jannicke
jansen
janson
jansson
januar
january
janus
japan
japanerne
japanese
japans
japansk
japanske
jar
jared
jarl
jarle
jarlen
jarler
jarlsberg
jaroslav
jason
jasper
java
javier
jay
jazeera
jazz
jazzfestival
jazzforum
jazzland
jazzmusiker
jazzmusikere
jałoszyn
je
jean
jeanette
jeanne
jeannel
jebsen
jedlicka
jeff
jefferson
jeffrey
jeg
jeger
jegere
jehovas
jelena
jeløy
jemen
jena
jenkins
jennifer
jennings
jenny
jens
jensen
jenssen
jenta
jente
jentene
jenter
jeong
jeppe
jer
jeremy
jern
jernalder
jernalderen
jernbane
jernbanebyggverk
jernbanelinje
jernbanelinjen
jernbanen
jernbanenettet
jernbaner
jernbanestasjon
jernbanestasjonen
jernbanestasjoner
jernbanestrekninger
jernbaneverket
jernkorset
jernkorsets
jernmalm
jernverk
jernverket
jerome
jerry
jersey
jerusalem
jerv
jerzy
jesper
jespersen
jess
jesse
jessheim
jessica
jessie
jesu
jesuitt
jesuittene
jesuittenes
jesuitter
jesuittordenen
jesus
jet
jetdrevne
jetfly
jets
jevgenij
jevn
jevnaker
jevnbrede
jevne
jevnlig
jevnt
jewish
jews
jf
jfr
ji
jia
jiang
jiangsu
jiangxi
jie
jilin
jill
jim
jima
jimi
jimmy
jin
jinan
jing
jir
jo
joa
joachim
joakim
joan
joanna
job
jobb
jobbe
jobben
jobber
jobbet
jobs
joe
joel
joey
joh
johan
johann
johanna
johanne
johannes
johannesburg
johannesen
johannessen
johans
johansen
johansson
johka
john
johnny
johns
johnsen
johnson
johnsons
johnston
johnstone
johs
joint
joker
jokke
jomfru
jomfruen
jomfruøyer
jon
jonas
jonathan
joner
jones
jong
joniske
jonny
jonsson
jord
jorda
jordal
jordan
jordas
jordbruk
jordbruket
jordbruksomra
jordebok
jorden
jordens
jordiske
jordkloden
jordlopper
jordløpere
jordoverflaten
jordskjelv
jordskjelvet
jordsmonn
jordsmonnet
jorge
jorunn
jose
josef
josefine
josefs
josefus
joseon
josep
joseph
josephine
josh
joshua
jostein
jotunheimen
journal
journalist
journalisten
journalister
journalistikk
journey
joy
joyce
jozef
jp
jpeg
jpg
jr
jstor
ju
jua
juan
juana
juba
jubilee
jubileet
jubileum
juda
judas
jude
judea
judge
judith
judo
judoka
judy
juel
jugend
jugoslavia
jugoslavisk
jugoslaviske
jul
julaften
jule
juledag
julen
julenissen
jules
julesanger
juli
julia
julian
juliane
julianske
julie
julien
juliet
julio
julius
july
jump
jumping
jun
junction
june
jung
jungelen
jungle
juni
junior
juniorer
juniorklassen
juniormesterskap
juniormesterskapet
juniors
juniorverdensmestere
juniperus
junkers
juno
jupiter
jupiters
jur
jura
jurassic
juridisk
juridiske
jurij
juris
jurisdiksjon
jurist
juristen
jurister
jury
juryen
juryens
jus
juss
just
justere
justeres
justeringer
justert
justice
justin
justinian
justis
justisdepartementet
justisminister
justus
juul
juventus
jylland
jyske
jæger
jæren
jøde
jødedom
jødedommen
jødene
jødenes
jøder
jødisk
jødiske
jølster
jørgen
jørgensen
jørn
jørstad
k
ka
kaare
kaas
kabak
kabel
kabinett
kabler
kabul
kadett
kafe
kaffe
kafka
kagge
kahn
kai
kaia
kaifeng
kairo
kaiser
kaizers
kaj
kaja
kajakk
kaker
kald
kalde
kaldere
kaldeste
kaldt
kalender
kalenderen
kaliber
kalif
kalifatet
kalifen
kaliningrad
kalk
kalkstein
kall
kalle
kallenavn
kallenavnet
kaller
kalles
kalmar
kalsium
kalt
kalte
kaltes
kalvik
kam
kambodsja
kamera
kameraer
kameraet
kamerat
kameratene
kamerater
kamerun
kamformede
kammer
kammeret
kammerherre
kammermusikk
kammerorkester
kamp
kampanje
kampanjen
kampanjer
kampen
kampene
kampens
kamper
kampf
kampfakta
kamphandlingene
kamphandlinger
kampreferater
kampsport
kamre
kan
kanaan
kanadisk
kanadiske
kanal
kanalen
kanalene
kanalens
kanaler
kanaløyene
kanariøyene
kandahar
kandidat
kandidaten
kandidatene
kandidater
kandidatur
kane
kaneda
kang
kangxi
kangyur
kanin
kannik
kano
kanon
kanonba
kanonen
kanonene
kanoner
kanonisk
kanoniske
kanonprisen
kanonta
kansas
kansellert
kanskje
kansler
kansleren
kant
kantate
kantater
kanten
kantene
kanter
kanton
kantonen
kantoner
kaos
kaoset
kap
kapasitet
kapasiteten
kapell
kapellan
kapellet
kapellmester
kapital
kapitalismen
kapitel
kapitlene
kapitler
kapitlet
kapittel
kapittelet
kapitulasjon
kapitulasjonen
kapitulerte
kaplan
kapp
kappa
kappe
kappgang
kappgjengere
kappløpet
kapret
kaptein
kapteinen
kar
kara
karachi
karakter
karakteren
karakterene
karakterer
karakteriserer
karakteriseres
karakterisert
karakteriserte
karakteristisk
karakteristiske
karaman
karantene
karasjok
karate
karbohydrater
karbon
karbondioksid
kardinal
kardinalen
kardinalene
kardinaler
kardinalprest
karel
karelen
karen
kari
karibia
karibiske
karim
karin
karine
karl
karls
karlsen
karlskrona
karlsruhe
karlsson
karlstad
karlsøy
karma
karmøy
karnataka
karneval
karol
karoline
karosseri
karosseriet
karpatene
karpe
karrie
karriere
karrieren
karrierens
karsten
kart
kartago
kartet
karthago
kartla
kartlagt
kartlegge
kartlegging
kartverk
kartverket
kasakhstan
kasakhstansk
kasakhstanske
kashmir
kasper
kaspiske
kasse
kassel
kasserer
kassett
kassetten
kast
kaste
kaster
kastes
kastet
kasus
kat
katalansk
katalanske
katalog
katalogen
katalognummer
katarina
katastrofale
katastrofe
katastrofen
katastrofer
kate
katedral
katedralen
katedralskole
kategori
kategorien
kategoriene
kategorier
kategorisert
katharina
katharine
katherine
kathleen
kathmandu
kathrine
kathryn
kathy
katie
katja
katmandu
katolikk
katolikkene
katolikker
katolisisme
katolisismen
katolsk
katolske
katrina
katrine
katt
kattedyr
katten
katter
kaufman
kaukasus
kaunas
kautokeino
kautsky
kavaleri
kavaleriet
kavli
kay
kaye
kazan
kazimierz
kb
kbruk
kc
kde
ke
keane
keegan
keeney
keep
keeper
keiser
keiserdømmet
keisere
keiseren
keiserens
keiserinne
keiserlig
keiserlige
keiserne
keiserrike
keiserriket
keith
keller
kelley
kelly
keltisk
keltiske
kelvin
kemp
ken
kendall
kendra
kene
kennedy
kennel
kenneth
kenny
kensington
kent
kentucky
kenya
kenyansk
kenyanske
kenyas
kepler
ker
kerala
keramikk
kern
kerr
kerremans
kerry
kerstin
kerstro
ket
ketil
kets
kevin
key
keyboard
keyboardist
keyboards
keynes
keys
kf
kfamilien
kforsker
kfum
kg
kgb
kgl
kh
khan
kharkiv
khi
khl
khmer
khrusjtsjov
khz
ki
kick
kid
kidd
kidnappet
kids
kiel
kielland
kierkegaard
kiesenwetter
kiev
kil
kilde
kildekode
kilden
kildene
kilder
kilikia
kill
killed
killer
killing
kilo
kilometer
kilosklassen
kim
kimoto
kin
kina
kinas
kind
kine
kinesere
kineserne
kinesisk
kinesiske
kinetisk
king
kingdom
kingdoms
kings
kingston
kinn
kino
kinoen
kinoer
kinshasa
kiosk
kirby
kirche
kirchen
kircke
kirgisistan
kiribati
kirk
kirka
kirke
kirkebygg
kirkebygget
kirkega
kirkegata
kirkehistorie
kirkelig
kirkelige
kirkemusikk
kirken
kirkene
kirkenes
kirkens
kirkeprovinsen
kirker
kirkera
kirkerett
kirkerommet
kirkes
kirkesamfunn
kirkesogn
kirkestaten
kirkja
kirkvaag
kirsch
kirschenhofer
kirsten
kirsti
kiruna
kirurg
kirurgi
kirurgisk
kisa
kishii
kiss
kiste
kisten
kistner
kit
kitami
kitchen
kitt
kittelsen
kitts
kitty
kjartan
kjede
kjedelig
kjeden
kjeder
kjeld
kjelkehockey
kjell
kjeller
kjelleren
kjelsa
kjelsberg
kjem
kjemi
kjemikalier
kjemiker
kjemikere
kjemikeren
kjemisk
kjemiske
kjempe
kjemper
kjempet
kjendis
kjendiser
kjenne
kjennemerke
kjenner
kjennes
kjennetegn
kjennetegnes
kjennetegnet
kjennskap
kjent
kjente
kjerne
kjernefysisk
kjernefysiske
kjernekraft
kjernekraftverk
kjernen
kjerneomra
kjerner
kjersti
kjetil
kjevene
kjever
kjole
kjæledyr
kjær
kjære
kjæreste
kjæresten
kjærlighet
kjærligheten
kjærlighetens
kjøbenhavn
kjøkken
kjøkkenet
kjøl
kjølen
kjølig
kjølige
kjølvannet
kjønn
kjønnene
kjønnsmodne
kjønnsorganer
kjøp
kjøpe
kjøper
kjøpes
kjøpesenter
kjøpesenteret
kjøpesentre
kjøpet
kjøpmann
kjøpmannen
kjøpmenn
kjøpstad
kjøpstedene
kjøpt
kjøpte
kjøre
kjørefelt
kjører
kjøres
kjøretøy
kjøretøyene
kjøretøyer
kjøretøyet
kjøring
kjørt
kjørte
kjøtt
kjøttet
kk
kke
kkp
kl
kla
klade
klage
klagenfurt
klager
klaget
klaksvi
klan
klanen
klang
klannere
klar
klara
klare
klarer
klarere
klarinett
klart
klarte
klasehodepine
klasse
klassekampen
klassen
klassene
klasser
klasserom
klassifikasjon
klassifisere
klassifiseres
klassifisering
klassifiseringen
klassifisert
klassiker
klassikere
klassisk
klassiske
klatre
klatrer
klatrespurt
klatret
klatring
klaus
klaver
kle
kledd
kledde
kledt
klein
kleine
kleiva
kleive
klekkes
klemens
kleopatra
klepp
kleppe
kler
klet
kleven
klevstrand
klient
klienten
klienter
klig
klige
klikk
klima
klimaendringer
klimaet
klimagasser
klingenberg
klinikk
klinisk
kliniske
klipp
klippe
klippen
klippene
klipper
klippet
klm
klo
kloden
klodvig
klok
kloke
klokka
klokke
klokken
klokkene
klokker
klokkeslett
klokkespill
klokketa
kloster
klosteret
klosterets
klostergata
klosterkirken
klostre
klostrene
klotar
klovn
klub
klubb
klubbe
klubbeformede
klubben
klubbene
klubbens
klubber
klubbhus
klubbkarriere
klubblag
klubbløs
klug
klæbu
klær
klærne
klør
km
kn
knapp
knappe
knapper
knapt
kne
knebøyde
kneet
kner
kneskade
knet
knight
knights
kning
kniv
kniven
kniver
knm
knockout
knop
knopf
know
knowledge
known
knows
knox
knud
knudsen
knuse
knusende
knust
knuste
knut
knute
knutepunkt
knutepunkter
knutsen
knutsson
knytte
knytter
knyttes
knyttet
knøler
ko
koadjutor
koalisjon
koalisjonen
koalisjonsregjering
kobayashi
kobber
kobe
koble
kobler
kobles
koblet
kobling
koch
koda
kode
koden
kodenavn
kodenavnet
kodene
koder
kognitiv
kognitive
kohl
koht
koirala
kokain
kokk
kokt
kola
kolbe
kolbjørn
kolbotn
kolding
kollaps
kollapset
kollega
kollegaer
kolleger
kollegiet
kollegium
kollektiv
kollektive
kollektivt
kollektivtrafikk
kollektivtransport
kolliderte
kollisjon
kollisjonen
kollisjoner
koloni
kolonien
koloniene
kolonier
kolonisering
koloniseringen
kolonistene
kolonister
kolonitiden
kolonne
kolonnen
kolonner
kolsa
kolsrud
kolstad
kom
koma
kombinasjon
kombinasjonen
kombinasjoner
kombinere
kombinerer
kombineres
kombinert
kombinerte
kombinertløper
kombinertløpere
komedie
komedien
komedier
komet
kometen
kometer
komiker
komikere
komikeren
komintern
komiserier
komisk
komiske
komite
komiteen
komiteens
komiteer
komm
komma
kommandant
kommandanten
kommanderende
kommandert
kommanderte
kommando
kommandoen
kommandoer
kommandør
kommandører
komme
kommende
kommentar
kommentaren
kommentarer
kommentator
kommentatorer
kommenterer
kommentert
kommenterte
kommer
kommersiell
kommersielle
kommersielt
kommet
kommisjon
kommisjonen
kommisjonens
kommissær
kommun
kommuna
kommunal
kommunale
kommunalreformen
kommunalt
kommune
kommunedata
kommunen
kommunene
kommunens
kommuner
kommunes
kommunesammensla
kommunesenteret
kommunestyre
kommunestyret
kommunestyrevalget
kommuneva
kommunevalget
kommunikasjon
kommunikasjonen
kommunisere
kommuniserer
kommunisme
kommunismen
kommunist
kommunistene
kommunistenes
kommunister
kommunistisk
kommunistiske
kommunistparti
kommunistpartiet
kommunistpartiets
komnenos
komorene
kompakt
kompakte
kompani
kompanier
kompaniet
kompensasjon
kompensere
kompetanse
kompetansesenter
kompleks
komplekse
komplekset
komplekst
komplett
komplette
komplikasjoner
komplisert
kompliserte
komponent
komponenten
komponentene
komponenter
komponere
komponert
komponerte
komponist
komponisten
komponistene
komponister
komposisjon
komposisjonen
komposisjoner
kompost
kompromiss
kon
kona
kone
konen
koner
konferanse
konferansen
konferanser
konfidens
konfirmasjon
konfiskert
konflikt
konflikten
konfliktene
konflikter
konfrontasjon
konfronterer
konfrontert
konfucianske
konføderasjonen
konfødererte
kong
konge
kongebok
kongedømme
kongedømmene
kongedømmer
kongedømmet
kongefamilien
kongehus
kongehuset
kongelig
kongelige
kongemakten
kongen
kongene
kongenes
kongens
kongepokal
kongepokalen
kongepokalvinnere
konger
kongerike
kongeriket
kongesagaer
kongo
kongos
kongregasjonen
kongress
kongressen
kongresspartiet
kongsberg
kongsga
kongsvinger
konjakk
konklavet
konkluderer
konkludert
konkluderte
konklusjon
konklusjonen
konklusjoner
konkret
konkrete
konkurranse
konkurransen
konkurransene
konkurransens
konkurranser
konkurrent
konkurrenten
konkurrentene
konkurrenter
konkurrere
konkurrerende
konkurrerer
konkurreres
konkurrert
konkurrerte
konkurs
konnerud
kononenko
konow
konrad
kons
konsekvens
konsekvensen
konsekvensene
konsekvenser
konsekvent
konsensus
konsentrasjon
konsentrasjonen
konsentrasjoner
konsentrasjonsleir
konsentrasjonsleiren
konsentrasjonsleirene
konsentrasjonsleirer
konsentrere
konsentrert
konsentrerte
konsept
konseptalbum
konsepter
konseptet
konsern
konsernet
konsernsjef
konsert
konsertalbum
konsertalbumet
konserten
konsertene
konserter
konserthus
konsertopptak
konservativ
konservative
konservativt
konservator
konservatoriet
konservering
konsesjon
konsesjoner
konsil
konsilet
konsistens
konsonant
konsonanter
konspirasjon
konspirasjonsteorier
konsson
konssons
konstant
konstante
konstanten
konstantin
konstantinopel
konstantins
konstantius
konstanz
konstituerende
konstituert
konstitusjon
konstitusjonelle
konstitusjonelt
konstitusjonen
konstruere
konstruert
konstruerte
konstruksjon
konstruksjonen
konstruksjoner
konstruktørmesterskapet
konsul
konsulent
kontakt
kontakte
kontakten
kontakter
kontaktet
kontekst
konteksten
kontinent
kontinental
kontinentalcupen
kontinentale
kontinenter
kontinentet
kontinuerlig
kontinuerlige
kontinuitet
konto
kontor
kontorene
kontorer
kontoret
kontorsjef
kontra
kontrabass
kontrakt
kontrakten
kontrakter
kontrast
kontreadmiral
kontroll
kontrollen
kontrollere
kontrollerer
kontrolleres
kontrollert
kontrollerte
kontrovers
kontroverser
kontroversiell
kontroversielle
kontroversielt
konvensjon
konvensjonell
konvensjonelle
konvensjonen
konvensjoner
konversationsleksikon
konvertere
konvertering
konvertert
konverterte
konvoi
koordinatene
koordinater
koordinator
koordinere
koordinering
koordinert
kopernikus
kopervik
kopi
kopier
kopiere
kopiert
kopierte
kopp
kopper
koptisk
koptiske
kor
korallrev
koranen
korea
koreakrigen
korean
koreansk
koreanske
koreas
koren
koreograf
koreografi
koret
korets
korfu
koring
korint
kork
korn
kornet
kornicker
koronapandemien
koronaviruspandemien
korporal
korps
korpset
korrekt
korrekte
korrespondanse
korrespondent
korrupsjon
korrupt
korrupte
kors
korset
korsets
korsfarerne
korsika
korskirke
korstog
korstogene
korstoget
kort
kortbane
kortbaneløp
kortbaneløpere
korte
kortene
kortere
korteste
kortet
kortfilm
kortfilmen
kortfilmer
kortform
kortvarig
kortvarige
kortvinger
kos
kosmisk
kosmos
kosovo
kosovos
kost
kostbar
kostbare
kostbart
koste
koster
kostet
kosthold
kostnad
kostnaden
kostnadene
kostnader
kostyme
kostymer
kova
kpd
kr
kra
kraatz
krabbe
krabber
kraft
kraften
kraftig
kraftige
kraftigere
kraftigste
kraftproduksjon
kraftstasjon
kraftstasjonen
kraftutbygging
kraftverk
kraftverkene
kraftverket
krag
kragerø
kraj
krako
kramer
krangel
krangler
krans
krasjet
krasnodar
krasnojarsk
krater
krateret
kraus
krav
kravene
kravet
kreativ
kreative
kreativitet
krebs
kreditert
kreditt
kreert
kreft
kreftene
krefter
kreis
krenket
kreps
krepsdyr
krepsdyrene
kreta
krets
kretsen
kretsene
kretsens
kretser
krevd
krevde
kreve
krevende
krever
kreves
krevet
krf
krieg
krig
krigen
krigene
krigens
kriger
krigere
krigførende
krigføring
krigføringen
krigsa
krigsbytte
krigsfange
krigsfangenskap
krigsfanger
krigsfilmer
krigsforbrytelser
krigshandlingene
krigshandlinger
krigskorset
krigsmedaljen
krigsminister
krigsskip
krigsskolen
krigstid
krigstjeneste
krigsutbruddet
krim
krimforfattere
kriminalfilmer
kriminalitet
kriminalroman
kriminalromaner
kriminell
kriminelle
krimkrigen
kringkaster
kringkasteren
kringkastet
kringkasting
kringkastingsorkestret
kringkastingsunion
kris
krise
krisen
kriser
krishna
kristelig
kristelige
kristen
kristendom
kristendommen
kristendommens
kristensen
kristent
kristi
kristian
kristiania
kristiansand
kristiansands
kristiansen
kristianstad
kristiansund
kristin
kristina
kristine
kristne
kristningen
kristofer
kristoffer
kristoffersen
kristus
kriteriene
kriterier
kritiker
kritikere
kritikerne
kritikerprisen
kritikerroste
kritikk
kritikken
kritikker
kritisere
kritiserer
kritisert
kritiserte
kritisk
kritiske
kritt
kro
kroater
kroatia
kroatias
kroatisk
kroatiske
krog
krogh
krogstad
krohg
krohn
krok
kroken
kromosom
kromosomer
krone
kronen
kroner
kronet
kronikk
kroning
kroningen
kronisk
kroniske
kronologi
kronologisk
kronprins
kronprinsen
kronprinsesse
kropf
kropp
kroppen
kroppens
kroppsbygning
kroppsform
kroppsformen
kroppslengden
kroppsvekt
kru
krumme
krupp
kruse
krutt
krydder
krypdyr
kryper
krypten
krysning
kryss
krysse
krysser
kryssere
krysseren
krysses
krysset
krystaller
krzysztof
krødsherad
krønike
krøniken
krøniker
ks
ku
kuala
kuben
kubikkmeter
kubrick
kul
kulde
kule
kuleformet
kulen
kuler
kulestøt
kulestøtere
kull
kullet
kullkraftverk
kulminerte
kult
kulten
kultur
kulturarv
kulturdepartementet
kulturdepartementets
kulturell
kulturelle
kulturelt
kulturen
kulturer
kulturhistorie
kulturhistorisk
kulturhistoriske
kulturhus
kulturhuset
kulturkanonen
kulturlandskap
kulturliv
kulturminister
kulturminne
kulturminner
kulturminnesøk
kulturminnet
kulturnett
kulturpris
kulturra
kulturrevolusjonen
kultursenter
kulturverksted
kumar
kun
kunde
kunden
kundene
kunder
kung
kungliga
kunming
kunne
kunnet
kunngjorde
kunngjort
kunngjøring
kunnskap
kunnskapen
kunnskaper
kunnskapsdepartementet
kunnskapsforlaget
kunst
kunsta
kunstakademi
kunstakademiet
kunsten
kunster
kunstforening
kunstgress
kunstgressbane
kunstha
kunsthistorie
kunsthistoriker
kunsthøgskolen
kunstig
kunstige
kunstindustrimuseum
kunstindustriskole
kunstløp
kunstløper
kunstløpere
kunstmaler
kunstmuseer
kunstmuseum
kunstner
kunstnere
kunstneren
kunstneres
kunstnerforbundet
kunstnerisk
kunstneriske
kunstnerleksikon
kunstnerne
kunstnernes
kunstnerpersonligheter
kunstsenter
kunstverk
kuomintang
kupert
kupp
kuppel
kuppelen
kuppet
kur
kurator
kurdere
kurdisk
kurdiske
kurdistan
kurie
kurland
kurs
kursen
kurset
kursiv
kursk
kurt
kurve
kurven
kurver
kushiro
kusine
kutt
kutte
kuttet
kuwait
kv
kva
kvad
kvadet
kvadrat
kvadratisk
kvadratiske
kvadratkilometer
kvadratmeter
kvadraturen
kvalifisere
kvalifiserer
kvalifisering
kvalifiseringen
kvalifiseringskamp
kvalifiseringskamper
kvalifiseringsrunde
kvalifiseringsrunden
kvalifisert
kvalifiserte
kvalitet
kvaliteten
kvaliteter
kvalme
kvalt
kvaløya
kvam
kvamme
kvart
kvartal
kvartaler
kvartalet
kvarter
kvarteret
kvartett
kvartetten
kvartfinale
kvartfinalen
kvartfinalene
kvartfinaler
kvarts
kveg
kveld
kvelden
kvensk
kvik
kvikksølv
kvinesdal
kvinne
kvinnelandslag
kvinnelandslaget
kvinnelig
kvinnelige
kvinnen
kvinnenavn
kvinnenavnet
kvinnene
kvinnenes
kvinnens
kvinner
kvinners
kvinnesaksforening
kvinnherad
kvintett
kvist
kvister
kviteseid
kvitnes
kvitrud
kvitt
kvitte
kvote
kvæfjord
kvænangen
kværner
kw
kwh
kyi
kyiv
kyle
kylie
kylling
kyo
kyoto
kypriotiske
kypros
kyr
kyrene
kyrka
kyrkan
kyrkje
kyrkjebø
kyros
kyrre
kyss
kyst
kysten
kystene
kystlinje
kystlinjen
kystomra
kystvakten
kz
kø
københavn
københavns
køge
kølle
køllebiller
l
la
lab
label
laboissiere
labor
laboratorier
laboratoriet
laboratorium
laboratory
labour
labrador
lac
laccophilus
lacordaire
lacroix
lacrosse
lade
ladega
laden
ladet
ladies
ladning
ladningen
ladninger
lady
laemostenus
lafayette
laftet
lag
laga
lagd
lagde
lage
lagene
lagenes
lager
lages
laget
lagets
lagkamerat
lagkaptein
lagkonkurranse
lagkonkurransen
lagmann
lagmannsrett
lagmannsretten
lagmedlem
lago
lagos
lagrange
lagre
lagrer
lagres
lagret
lagring
lagskyting
lagsprint
lagt
lagtempo
lagtinget
lagtingsmedlemmer
laguna
lagunen
lahore
lahtis
lai
laika
laila
lake
laker
lakers
lakes
laks
lakseva
lal
lam
lama
lamb
lambda
lambert
lambertseter
lamborghini
lameere
lamiinae
lammet
lampe
lan
lancashire
lancaster
lance
lancia
land
landa
landareal
landau
landbruk
landbruket
landbruksminister
landbruksskole
landdagen
lande
landemerke
landemerker
landene
landenes
lander
landessternwarte
landet
landets
landevei
landeveisritt
landeveissykling
landeveissyklist
landeveisøvelser
landflyktighet
landformer
landgang
landhockey
landhockeyspiller
landhockeyspillere
landhockeyturneringen
landing
landkommune
landkommuner
landkreis
landlevende
landlige
landma
landmark
landomra
lands
landsby
landsbyen
landsbyene
landsbyens
landsbyer
landsbygda
landscape
landsdekkende
landsdelen
landsforbund
landsforening
landsforeningen
landskamp
landskamper
landskap
landskaper
landskapet
landskapsvernomra
landskrona
landslag
landslaget
landslagskarriere
landslagsma
landslagssjef
landslagsspiller
landslagsspillere
landslagstrener
landsma
landsmann
landsmannen
landsmenn
landsmøte
landsmøtet
landsomfattende
landssvikoppgjøret
lane
lang
langa
langbane
langdistanse
langdistanseløp
langdistanseløpere
lange
langeland
langes
langesund
langhus
langkirke
langkirker
langobardene
langrenn
langrennsløper
langrennsløpere
langs
langsga
langsiktig
langsiktige
langsom
langsomme
langsommere
langsomt
langstrakt
langstrakte
langt
language
languages
langvarig
langvarige
lanka
lansere
lanseres
lansering
lanseringen
lansert
lanserte
lanzhou
laos
laporte
lappland
lar
lara
laren
large
largest
larisa
larm
larry
lars
larsen
larsens
larson
larssen
larsson
larve
larven
larvene
larvens
larver
larvestadiet
larvik
las
laser
lasse
lassen
last
laste
lastebil
lastebiler
lasten
laster
lastes
lasteskip
lastet
lat
late
later
lathrobium
latimer
latin
latina
latinamerikanske
latinsk
latinske
latreille
latt
latter
latvia
latvias
latvisk
latviske
launch
laura
laurel
lauren
laurence
laurent
laurentius
laurie
laurits
lauritz
lauritzen
lausanne
lav
lava
laval
lavangen
lave
lavere
lavest
laveste
lavik
lavlandet
lavt
lavtrykk
law
lawrence
laws
lawson
lay
layer
layout
lazio
lb
lc
ld
le
lea
leach
lead
leader
leaders
leadership
leaf
league
leagues
leander
learning
leary
leave
leaves
leaving
leben
lebesby
lebia
lebiinae
lech
leconte
lecoq
lecter
lectures
led
leda
ledd
leddene
leddet
leddete
leddyr
lede
ledelse
ledelsen
ledende
leder
ledere
lederen
lederne
lederskap
lederskapet
ledes
ledet
ledetra
ledig
ledige
ledsager
ledsaget
lee
leeds
lees
lefe
left
legacy
legal
legasjonen
legat
lege
legeforening
legeme
legemer
legemet
legemiddel
legemidler
legen
legend
legendarisk
legendariske
legende
legenden
legender
legends
legene
leger
legg
legge
leggen
leggene
legger
legges
legion
legioner
legitime
legitimitet
lego
legs
lehmann
lei
leibniz
leicester
leid
leide
leiden
leie
leiega
leier
leies
leiesoldater
leif
leigh
leikanger
leilighet
leiligheten
leiligheter
leinster
leiodidae
leipzig
leir
leira
leire
leiren
leirene
leirer
leirvik
leith
leiv
lek
leka
leke
leken
lekene
leker
leketøy
lekket
leksikon
leksvik
lektor
leleup
lem
lemaire
lemmer
len
lena
lende
lene
lengde
lengdefurer
lengdehopp
lengdehoppere
lengden
lengder
lengderibber
lengdestriper
lenge
lenger
lengre
lengsel
lengst
lengste
lenin
leningrad
lenke
lenker
lenket
lennart
lennon
lennons
lennox
lenny
lens
lensherre
lensmann
lensmannen
lenvik
leo
leon
leonard
leonardo
leone
leonhard
leonid
leopard
leopold
lepidoptera
lepidopterologisk
lepidopterorum
lepper
leptotyphlus
lepturinae
leptusa
ler
lerche
lere
leren
lerenga
lerkendal
leroy
lerret
les
lesbiske
lese
leser
lesere
leseren
leserne
leses
lesing
lesja
leslie
lesning
lesotho
less
lest
leste
lester
lestokk
lesund
let
lete
leter
leting
lett
lette
letter
lettere
letterman
letters
letteste
lettet
lettres
lettvekt
leukemi
leuven
lev
levanger
levanten
levd
levde
leve
levea
levealder
leveka
level
levende
leveomra
lever
leverandør
leverandører
leveranser
levere
leveren
leverer
leveres
levering
leverkusen
levert
leverte
levesett
levetid
levevis
levi
levin
levine
levningene
levninger
levy
lewis
lewisohn
lex
lexicon
lexikon
lexington
lez
lforskjell
lg
lga
lgang
lgivende
lhasa
lhbt
li
lia
liam
lian
liang
liaoning
libanesisk
libanesiske
libanon
libe
liber
liberal
liberale
liberalisme
liberalt
liberation
liberec
liberia
liberty
library
libre
libretto
libri
libris
libro
libya
libyske
license
licinius
lid
lidd
liddell
lide
lidelse
lidelsen
lidelser
lidenskap
lidenskapelig
lider
lie
liebe
liebherr
liebke
liechtenstein
lied
lieder
lien
lier
lierne
lies
lieutenant
life
lifetime
lig
liga
ligacupen
ligaen
ligaene
ligaens
ligakamp
ligakamper
ligama
ligatabell
lige
ligge
liggende
ligger
ligget
light
lightgrey
lightning
lights
ligne
lignende
ligner
lignet
ligning
ligningen
ligningene
ligninger
ligue
lik
like
likeledes
likene
liker
likesa
likesom
likestilling
likestilt
likestrøm
liket
likevekt
likevel
likeverdig
likeverdige
likhet
likheten
likheter
likhetstrekk
liknende
likner
liksom
likt
likte
lil
lill
lilla
lille
lilleasia
lillebjørn
lillebror
lillehammer
lillesand
lillestrøm
lillian
lillo
lilly
lily
lim
lima
limburg
lime
limerick
limit
limited
limits
lin
lina
lincoln
lincolnshire
lind
linda
lindberg
linde
lindeman
linden
linderud
lindesnes
lindgren
lindqvist
lindroth
lindsay
lindsey
lindstro
lindstrøm
lindstøl
line
linear
linebacker
linegrey
liner
lines
lineær
lineære
ling
linge
lingen
lingene
linger
lingua
linguistics
lingvist
lingvister
lingvistikk
lingvistiske
linja
linje
linjekart
linjen
linjene
linjer
linjeskip
link
linko
links
linn
linnaeus
linne
linser
linsley
linus
linux
linuxdistribusjoner
linuxkjernen
linz
lion
lionel
lions
lippe
liquid
lis
lisa
lisbeth
lisboa
lise
lisens
lisensen
lisensiert
list
lista
liste
listen
listene
listeplasseringer
lister
listet
liszt
lit
lita
litauen
litauens
litauisk
litauiske
lite
litelig
litelige
liten
liter
literary
literatur
literature
liters
litt
litte
litteratur
litteraturen
litteraturhistorie
litteraturkritiker
litteraturpris
litteraturpriser
litteraturvitenskap
litterær
litterære
litterært
little
liturgi
liturgisk
liturgiske
liu
liv
livba
live
livealbum
livene
liverpool
liverpools
lives
livet
livets
livia
living
livingston
livius
livland
livlig
livlige
livnærte
livre
livs
livskraftig
livsstil
livssyn
livstid
livsvarig
livvakt
lix
liz
liza
lizzie
lje
ljubljana
ljudmila
ll
lla
llag
llc
lle
ller
lloyd
lm
ln
lo
lobrathium
local
loch
lock
locke
lockheed
locomotive
loddrett
lodge
loe
loeb
lofoten
lofotfisket
loft
loftet
lofthus
log
logaland
logan
loge
logen
logic
logikk
logisk
logiske
logistikk
logo
logoen
loire
lois
lojal
lojale
lojalitet
lok
lokal
lokalavis
lokalavisen
lokalaviser
lokalbefolkningen
lokale
lokalene
lokaler
lokalet
lokalhistorie
lokalhistoriewiki
lokalhistorisk
lokalisering
lokaliseringen
lokalisert
lokalitet
lokaliteter
lokallag
lokalpolitiker
lokalpolitikere
lokalregjeringens
lokalsamfunn
lokalsamfunnet
lokalt
lokaltog
loke
lokk
lokke
lokket
lokomotiv
lokomotivene
lokomotiver
lokomotivet
lola
lolland
lom
lombardi
lombardia
london
londons
lone
lonely
lonesome
long
longicorn
longicornis
longitarsus
longman
longstreet
longyearbyen
look
looking
loop
loose
lopez
loppa
lopper
lord
lords
lorentz
lorentzen
lorenz
lorenzo
lorraine
los
lose
loser
losjen
loss
lost
lot
lothar
lothian
lothringen
lotta
lotte
lotus
lou
loud
louis
louisa
louise
louisiana
louisville
louvre
lov
lovbrudd
lovdata
love
loved
loven
lovende
lovene
lovens
lover
lovers
loves
lovet
lovette
lovfestet
lovforslag
lovforslaget
lovgivende
lovgivning
lovgivningen
lovin
loving
lovlig
lovlige
lovte
lovverk
lovverket
low
lowe
lowell
lower
lowry
lp
lpga
lr
lrettet
ls
lscorere
lsd
lselv
lsetting
lsk
lsordboka
lstegn
lt
ltd
lte
ltid
ltider
lu
lublin
luc
luca
lucanidae
lucaninae
lucanus
lucas
lucca
lucia
luciano
lucido
lucie
lucien
lucifer
luciola
lucius
luck
lucky
lucy
ludovico
ludovisi
ludvig
ludvigsen
ludwig
lue
luft
lufta
luftangrep
luftba
luften
luftfart
luftfartøy
luftforsvaret
luftforsvarets
luftfuktighet
lufthansa
lufthavn
lufthavnen
luftskip
luftskipet
luftva
luftvern
luftwaffe
lui
luigi
luis
luise
luka
lukas
luke
lukke
lukkede
lukker
lukket
luksus
lukt
lulea
lulesamisk
lulu
lumpur
luna
lund
lundberg
lunde
lunden
lundgren
lunds
lune
lunge
lungebetennelse
lungekreft
lungene
lunger
lunner
luo
lupus
lure
lurer
lurt
lurte
lurøy
lus
luster
luther
lutheran
luthers
luthersk
lutherske
luton
lutz
lux
luxembourg
luxemburg
luzern
luzon
lv
lvakt
lvakter
lven
lviv
lw
ly
lycaenidae
lycaeninae
lyce
lyche
lyd
lydbilde
lydbok
lydeffekter
lyden
lydene
lyder
lydia
lydighet
lydopptak
lydspor
lydsporet
lydtekniker
lykke
lykkelig
lykkelige
lykken
lykkes
lyktes
lyle
lyn
lynch
lyndon
lyng
lyngby
lyngdal
lyngen
lynn
lynne
lynx
lyon
lyons
lyriker
lyrikere
lyrikk
lyrisk
lyriske
lys
lysa
lysaker
lysbiller
lyse
lysebla
lysende
lyser
lysere
lyset
lysets
lysgra
lyst
lystad
lystrup
lytte
lyttere
lyttet
lær
lærd
lærdal
lærde
lærdom
lære
lærebok
lærebøker
læren
lærer
lærere
læreren
lærerhøgskole
lærerne
lærerskole
lærerutdanning
læresteder
læring
lærling
lært
lærte
lød
lødingen
løft
løfte
løfter
løftes
løftet
løgn
løgner
løk
løken
løkke
løkken
lønn
lønnen
lønning
lønnsomt
løp
løpe
løpebane
løpebiller
løpende
løpene
løper
løpere
løperen
løperne
løpet
løpsdistansen
løpsøvelser
løpt
lørdag
løren
lørenskog
løs
løse
løselig
løser
løses
løslatelse
løslatelsen
løslatt
løsnet
løsning
løsningen
løsningene
løsninger
løsrivelse
løst
løste
løten
løv
løve
løven
løvenskiold
løver
løvfellende
løvland
løvskog
løvstrø
løvtrær
løy
løypa
løype
løytnant
m
ma
maa
maarten
maarud
maas
maastricht
mabel
mabille
mac
macao
macau
macbeth
macdonald
mach
machine
macintosh
mack
mackay
mackenzie
macleay
macmillan
macrolepidoptera
mad
madagascar
madagaskar
madagaskars
madam
madame
made
madeira
madeleine
madhya
madison
madness
madonna
madrid
madrugada
mads
madsen
mae
maestro
mafia
mafiaen
mag
magasin
magasiner
magasinet
magazine
magdalena
magdalene
magdeburg
mage
magen
maggie
magi
magic
magisk
magiske
magister
magna
magnar
magne
magnet
magnetfelt
magnetfeltet
magnetisk
magnetiske
magnum
magnus
magnussen
magnusson
maha
maharashtra
mahdi
mahler
mahomes
mai
maiden
maier
mail
main
maine
mainstream
mainz
mais
maison
maj
maja
majerski
majestet
majesty
major
majoritet
majoriteten
majorstuen
make
makedonia
makedonsk
makedonske
maker
makes
making
maks
maksim
maksimal
maksimale
maksimalt
maksimum
makt
makta
makten
maktene
makter
maktet
maktkamp
maktovertakelse
mal
malacostraca
malaria
malawi
malaya
malaysia
malaysias
malaysisk
malaysiske
malcolm
maldivene
male
maler
malere
maleren
maleri
maleriene
malerier
maleriet
malerkunst
malerne
mali
malik
malin
maling
mall
mallorca
mallory
malm
malmo
malone
malt
malta
malte
maltin
malvik
mama
mamma
mammals
man
management
manager
manageren
manchester
mand
mandag
mandal
mandarin
mandat
mandater
mandatet
mandela
mandibler
mandolin
mandsjuria
manfred
mang
manga
mange
mangea
mangekamp
mangekjempere
mangel
mangelen
mangelfull
manger
mangfold
mangfoldet
mangfoldig
mangfoldige
mangle
manglende
mangler
manglerud
manglet
manhattan
mani
manifest
manila
manipulere
manitoba
mann
mannen
mannens
mannerheim
mannheim
manning
mannlig
mannlige
manns
mannskap
mannskapene
mannskaper
mannskapet
mannskor
mannsnavn
mannsnavnet
manor
mans
mansfield
manshaus
mantova
manu
manual
manuel
manuell
manuelt
manus
manuset
manusforfatter
manusforfattere
manuskript
manuskriptene
manuskripter
manuskriptet
manx
many
mao
maobadi
maoistene
maos
map
maple
maps
mar
mara
maranha
marathon
maraton
maratonløpere
maratonløpet
marburg
marc
marcantonio
marcel
marcello
marcelo
march
marche
marcia
marco
marcos
marcus
mare
marek
maren
mareritt
margaret
margareta
margarete
margarita
margin
margit
margot
margret
margrete
margrethe
marguerite
mari
maria
mariakirken
marian
mariana
mariann
marianne
mariano
marias
marie
marienlyst
marija
marilyn
marin
marina
marine
marinen
marinens
marineoffiser
mariner
marines
marino
mario
marion
marit
marita
maritim
maritime
maritimt
marius
marjorie
mark
marka
markant
markante
marked
markedene
markeder
markedet
markedsandel
markedsføres
markedsføring
markedsført
marken
marker
markere
markerer
markeres
markering
markeringen
markeringer
markert
markerte
market
marketing
markgreve
marki
markku
markløpere
marks
markus
marlborough
marlene
marley
marlowe
marmor
marne
marokkansk
marokkanske
marokko
marquis
marriage
mars
marsden
marseille
marseul
marsh
marshal
marshall
marsj
marsjen
marsjere
marsjerte
marskalk
marta
marte
martell
martens
martha
marthe
marthinsen
marti
martin
martina
martine
martinez
martini
martinique
martino
martins
martinsen
martinus
marty
martyr
marvel
marvin
marx
marxisme
marxismen
marxist
marxistisk
marxistiske
mary
maryland
marys
mas
masal
mask
maske
masken
masker
maskin
maskinen
maskinene
maskiner
maskingevær
maskinvare
mason
mass
massa
massachusetts
massacre
massakre
massakren
massakrene
massakrer
massakrert
masse
massen
massene
masser
massimo
massiv
massive
massivt
mast
masten
master
mastergrad
mastering
masteroppgave
masters
mat
mata
match
matchvinner
mate
matematiker
matematikere
matematikeren
matematikk
matematikken
matematisk
matematiske
maten
mater
material
materiale
materialene
materialer
materialet
materials
materie
materiell
materielle
mateu
mathbb
mathbf
mathcal
mathematical
mathematics
matheson
mathias
mathiesen
mathieu
mathilde
mathis
mathisen
mathrm
matias
matilda
matlaging
mato
matrise
matrisen
matrix
matros
mats
matt
matte
mattei
matteo
matter
matteus
mattevevere
matthew
matthews
matthias
matti
mattias
mattilsynet
mattis
matvarer
maud
maur
maurbiller
maureen
maurene
maurice
mauritania
mauritius
mauritz
maurstad
mausoleum
max
maximilian
maximus
maxwell
may
maya
maybe
mayen
mayer
maynard
mayo
mayor
mb
mbox
mc
mccain
mccarthy
mccartney
mccartneys
mcclellan
mccoy
mcdonald
mcdonnell
mcgraw
mcgregor
mckenzie
mckinley
mclaren
mclean
mcmahon
mcmusic
md
mdg
me
meadows
mean
meaning
means
mechelen
mecklenburg
mecyclothorax
med
medal
medalje
medaljen
medaljene
medaljeoversikt
medaljer
medaljestatistikken
medaljetabell
medaljevinnere
medaljevinnerne
medals
medarbeider
medarbeidere
meddelelser
meddelte
medeier
medforfatter
medfødt
medføre
medfører
medført
medførte
medhold
media
medical
medici
medicine
mediebedriftenes
mediene
medier
mediet
medieval
medikamenter
medina
medisin
medisinen
medisiner
medisinsk
medisinske
meditasjon
mediterranean
medium
medkonsekratorer
medkonsekrerende
medlem
medlemmene
medlemmenes
medlemmer
medlemmet
medlemskap
medlemsland
medlemslandene
medley
medon
medredaktør
medregnet
medstifter
medvedev
medvind
medvirke
medvirkende
medvirker
medvirket
medvirkning
meet
meeting
meets
meg
mega
megapenthes
meget
mei
meier
meieri
meigen
mein
meine
meister
mek
mekaniker
mekanikk
mekanisk
mekaniske
mekanisme
mekanismen
mekanismer
mekka
meksikansk
meksikanske
mektig
mektige
mektigste
mel
meland
melanie
melanotus
melbourne
melchior
meld
meldal
melde
melder
melding
meldingen
meldinger
meldt
meldte
melhus
meliboeus
melissa
melk
melkeveien
mellem
mellom
mellomdistanse
mellomdistanseløp
mellomdistanseløpere
mellomkrigstiden
mellomliggende
mellomrom
mellomstor
mellomstore
mellomtiden
mellomvekt
mellotron
melodi
melodien
melodier
melodifestivalen
melodisk
melody
melolonthinae
meløy
member
members
memoarer
memoirs
memorial
memories
memory
memphis
men
mendelssohn
mendoza
mene
mener
menes
mengde
mengden
mengder
menig
menige
menighet
menigheten
menighetene
menighetens
menigheter
menighetsra
mening
meningen
meninger
meningsma
menn
mennene
mennenes
menneske
menneskeheten
menneskehetens
menneskelig
menneskelige
menneskeliv
menneskene
menneskenes
mennesker
menneskerettighetene
menneskerettigheter
menneskers
menneskeskapte
mennesket
menneskets
menns
mens
ment
mental
mentale
mentalt
mente
mentor
mer
mera
mercedes
mercer
mercia
mercury
mercy
mere
meredith
merete
merit
meritt
meritter
merk
merkbar
merkbart
merke
merkel
merkelig
merkelige
merkenavnet
merkene
merker
merkes
merket
merking
merknader
merkur
merlin
merry
merseyside
merton
mes
mesa
mesopotamia
message
messe
messen
messenger
messer
messerschmitt
messias
messier
messina
messing
mest
meste
mesteparten
mester
mestere
mesteren
mesterligaen
mesterne
mesterskap
mesterskapene
mesterskapet
mesterskapsrekord
mesterskapsrekorder
mesterverk
mestre
mestselgende
mestvinnende
met
meta
metacritic
metadata
metal
metall
metaller
metallet
metallglans
metallica
metallisk
metalliske
metamorfose
metan
meteorolog
meteorologi
meteorologisk
meteorologiske
meter
meters
metersklassen
metheny
method
methods
metode
metoden
metodene
metoder
metres
metriske
metro
metroen
metrolinje
metropolis
metropolitan
metropolitt
mette
metz
meurthe
mexico
mexicos
meyer
meyers
meyrick
mez
mf
mfl
mg
mgm
mgp
mhnt
mhz
mi
mia
miami
mic
mich
michael
michaels
michel
michelangelo
michele
michelet
michelle
michelsen
michigan
mick
mickey
microsoft
mid
midd
middag
middel
middelalder
middelalderen
middelalderens
middelaldersk
middelalderske
middelhavet
middelhavslekene
middelhavsomra
middelklassen
middels
middelskole
middelsstor
middelsstore
middelvannføringen
middle
middlesbrough
middlesex
middleton
midgard
midi
midland
midlands
midlene
midler
midlere
midlertidig
midlertidige
midnatt
midnight
midt
midtbane
midtbanen
midtbanespiller
midtbyen
midten
midterste
midtfure
midtjylland
midtpunkt
midtre
midtskips
midtstopper
midtveis
midtvesten
midtøsten
midway
mie
mig
might
mighty
migranter
migrasjon
migration
migrene
miguel
mika
mikael
mikal
mike
mikhail
mikke
mikkel
mikkelsen
mikroorganismer
mikroprosessor
mikroprosessorer
miks
mikset
miksing
mikslag
mil
milan
milano
mild
milde
mildere
mildred
mildt
mile
milepæl
miles
milita
militante
military
milits
militsen
militær
militære
militæret
militærkupp
militærpersonell
militært
militærtjeneste
militærvesen
miljø
miljøer
miljøet
miljøpartiet
miljøstatus
miljøvern
miljøverndepartementet
milk
mill
mille
millennium
miller
milliard
milliarder
millimeter
million
millioner
mills
milne
milorg
milos
milton
milwaukee
mimi
min
mina
minas
mind
mindanao
minde
mindre
mindrea
mindretall
minds
mine
miner
mineral
mineraler
minerva
ming
minh
mini
miniatyr
minikraftverk
minimal
minimum
miniserie
miniserien
minister
ministeren
ministeriet
ministerpresident
ministerra
ministre
ministry
minne
minneapolis
minnedag
minneord
minner
minnes
minnesmerke
minnesmerker
minnesmerket
minnesota
minnet
minogue
minor
minoritet
minoriteten
minoriteter
minoritetsspra
minsk
minske
minsket
minst
minste
minus
minute
minutes
minutt
minutter
minutters
minuttet
minutus
mio
miocen
mir
mira
miracle
mirage
miranda
miriam
mirror
mirza
misbruk
misbrukt
misfornøyd
misfornøyde
misforsta
mishandlet
mishandling
misjon
misjonen
misjonsselskap
misjonær
misjonæren
misjonærene
misjonærer
mislikte
mislykkede
mislykkes
mislykket
mislyktes
misnøye
miss
missa
missil
missile
missiler
missilet
missing
mission
missionary
missions
mississippi
missouri
mista
mistanke
miste
mistenker
mistenkt
mistenkte
mister
mistet
mit
mitch
mitchell
mitsubishi
mitt
mitte
mitteleuropas
mix
mixed
mja
mjelde
mjøen
mjøndalen
mjøsa
mk
ml
mli
mlm
mm
mma
mn
mo
moa
mobbing
moberg
mobil
mobile
mobilisere
mobilisering
mobilisert
mobilitet
mobiltelefon
mobiltelefoner
mod
mode
model
modell
modellen
modellene
modeller
modellering
modellert
models
moden
modena
moder
moderat
moderate
moderklubben
modern
moderne
modernisere
modernisering
modernisert
modifikasjoner
modifisert
modifiserte
modig
modige
modne
moduler
modum
modus
moe
moen
mogens
moh
mohamed
mohammad
mohammed
mohan
mohn
mohr
moi
mol
moland
molde
moldova
molecular
molekyl
molekylene
molekyler
molekylær
molina
moll
molly
molotov
moltke
molvær
moment
moments
mon
mona
monaco
monark
monarken
monarker
monarki
monarkiet
monday
monde
money
mongolene
mongolia
mongolsk
mongolske
monica
monika
monitor
monk
monkey
monmouth
monn
monne
mono
monochamini
monogram
monolepta
monopol
monotypisk
monrad
monroe
monroes
mons
monsen
monsieur
monster
monsteret
monsters
monstre
mont
montagu
montana
monte
montenegrinske
montenegro
monteres
monterey
montering
montert
montevideo
montgomery
month
monthly
montmartre
montpellier
montre
montreal
montreux
montserrat
monty
monument
monumental
monumentale
monumenter
monumentet
monuments
mood
moody
moon
moonlight
moore
mor
mora
moral
moralen
morales
moralsk
moralske
moran
moray
mord
mordene
morder
morderen
mordet
more
moren
moreno
morens
moret
morfar
morfologi
morgan
morgen
morgenbladet
morgenen
morgenstierne
morgenutgaven
mori
moria
moritz
morken
mormor
morning
moro
morris
morrison
mors
morse
morsma
morssiden
mort
mortal
mortem
morten
mortensen
mortimer
morton
morvan
mos
mosaikk
mosambik
moscow
mose
mosebok
moselle
moser
moses
mosjøen
moske
moskeen
moskva
moskvas
moss
most
mosul
mosvik
mot
motangrep
motarbeidet
motbakkeløp
mote
moten
moth
mother
moths
motion
motiv
motivasjon
motivene
motiver
motivert
motivet
moto
motor
motorba
motoren
motorene
motorer
motorisert
motoriserte
motorola
motorpsycho
motors
motorsport
motorsykkel
motorsykler
motorvei
motorveien
motorveier
motorvogner
motown
motsatt
motsatte
motschulsky
motsetning
motsetningen
motsetningene
motsetninger
motsta
motstand
motstanden
motstander
motstandere
motstanderen
motstanderens
motstanderne
motstandsbevegelsen
motstandsfolk
motstandsmann
motstridende
motstykke
motta
mottagelse
mottak
mottakelse
mottakelser
mottaker
mottakere
mottakeren
mottar
mottatt
mottatte
motto
mottoet
mottok
motvekt
motvilje
motvillig
motvirke
motzfeldt
mount
mountain
mountains
mouse
mouth
move
movement
movie
movies
moving
mowinckel
mozart
mozarts
mp
mr
mrd
mrs
ms
msc
mstad
mt
mtg
mtland
mtv
mu
much
mueller
muhammad
muhammed
mulig
mulige
muligens
muliggjorde
muliggjør
mulighet
muligheten
mulighetene
muligheter
muller
mulsant
multi
multimedia
multiple
mumbai
mun
munch
munchs
mundi
municipal
munk
munken
munkene
munker
munn
munndelene
munndeler
munnen
munner
munning
munningen
munnspill
munro
munster
munthe
muntlig
muntlige
mur
murbyen
murder
murdoch
muren
murene
murer
murmansk
murphy
murray
murstein
murt
mus
musa
muse
museene
museer
museet
museets
museo
museum
museums
music
musica
musical
musicians
musik
musikal
musikalen
musikaler
musikalsk
musikalske
musiker
musikere
musikeren
musikerne
musikk
musikkalbum
musikkalbumet
musikken
musikkens
musikkfestival
musikkfestivaler
musikkgrupper
musikkhøgskole
musikkinstrumenter
musikkonservatoriet
musikkonservatorium
musikkorps
musikkpris
musikkprodusent
musikkteori
musikkvideo
musikkvideoen
musikkvideoer
musique
musklene
muskler
muskulatur
muslim
muslimene
muslimer
muslimsk
muslimske
muslinger
muslingkreps
mussolini
must
mustad
mustafa
mustang
mutasjoner
muus
mv
mvp
mw
mx
my
myanmar
mycelbiller
mye
myers
mygg
myhre
myk
myke
mykere
mykland
myklebust
mykt
myllaena
myndighet
myndigheten
myndighetene
myndighetenes
myndigheter
mynt
mynten
myntene
mynter
myodocopa
myodocopida
myodocopina
myoglossata
myr
myra
myrdal
myrde
myrdet
myrer
myromra
myself
mysen
myspace
mysterier
mysteriet
mysterium
mystery
mystikk
mystisk
mystiske
myte
myten
mytene
myter
myth
mythology
myths
mytisk
mytiske
mytologi
mytologien
mytologisk
mytologiske
mytteri
mæ
mæland
møbler
mødre
møkk
møll
mølle
møller
møllergata
mønster
mønsteret
mønstre
mønstret
mørch
møre
mørk
mørkbrun
mørkbrune
mørke
mørkere
mørket
mørkets
mørkt
møte
møtene
møter
møtes
møtested
møtet
møtt
møtte
møttes
n
na
naar
nabla
nabo
naboen
naboene
naboer
nabolag
nabolaget
naboland
nabolandene
nabolandet
nach
nacht
nacional
nacionales
nad
nadia
nadu
nag
nagano
nagasaki
nahuatl
nairobi
nakamura
nakane
naked
naken
nakken
nakne
nam
namdal
namdalen
name
named
names
namibia
namsos
namsskogan
namur
nan
nana
nanchang
nancy
nanjing
nanna
nannestad
nansen
nansens
nantes
naomi
napier
napole
napoleon
napoleons
napoleonskrigene
napoli
napp
narkotika
narnia
naro
narr
narrative
naruto
narva
narvik
nas
nasa
nasas
nascar
nash
nashville
nasjon
nasjonal
nasjonalbiblioteket
nasjonalbibliotekets
nasjonaldag
nasjonale
nasjonalforsamling
nasjonalforsamlingen
nasjonalgalleriet
nasjonalisme
nasjonalistene
nasjonalister
nasjonalistisk
nasjonalistiske
nasjonalitet
nasjonaliteter
nasjonalmuseet
nasjonalpark
nasjonalparken
nasjonalparker
nasjonalra
nasjonalsang
nasjonalsangen
nasjonalsosialismen
nasjonalsosialistene
nasjonalsosialistisk
nasjonalsosialistiske
nasjonalt
nasjonen
nasjonene
nasjonens
nasjoner
nassau
nat
natal
natalia
natalie
natalja
natasha
nate
nathalie
nathan
nathaniel
nation
national
nationale
nationalnyckeln
nationaltheatret
nationen
nations
native
nato
natos
natt
natta
nattaktive
natten
nattens
nattfly
nattsvermere
nattverden
natur
natura
natural
nature
naturen
naturens
naturforvaltning
naturgass
naturhistorisk
naturkatastrofer
naturlig
naturlige
naturligvis
naturminne
naturomra
naturreservat
naturreservater
naturreservatet
naturressurser
naturtyper
naturvitenskap
naturvitenskapelige
nauchnij
naumann
nauru
naust
nautiske
nav
naval
navarra
navigasjon
navn
navnedag
navnekomite
navnene
navnet
navnga
navngitt
navngitte
navy
naxos
nazeris
nazi
nazionale
nazismen
nazist
nazistene
nazistenes
nazister
nazistisk
nazistiske
nb
nba
nbc
nberg
nbl
nc
ncaa
nchen
nchengladbach
nchez
ncipe
nd
nda
ndalsnes
ndball
ndballag
ndballandslaget
ndballforbund
ndballklubb
ndballma
ndballspiller
ndballspillere
ndbok
nde
ndel
ndelig
ndelige
nden
ndene
nder
ndere
ndet
ndez
ndfull
nds
ndskrift
ndtak
ndtere
ndterer
ndtering
ndva
ndverk
ndverker
ndverkere
ndverks
ne
nea
neal
near
neat
nebb
nebbet
nebbmunner
nebraska
nec
ned
nedbør
nedbøren
nedbørfelt
nedbørfeltet
nede
neden
nedene
nedenes
nedenfor
nedens
neder
nederlag
nederlaget
nederland
nederlandene
nederlands
nederlandsk
nederlandske
nederlendere
nederlenderne
neders
nederst
nederste
nedfelt
nedgang
nedgangen
nedkjempet
nedkvitne
nedla
nedlagt
nedlagte
nedlasting
nedleggelse
nedleggelsen
nedlig
nedover
nedre
nedrykk
nedsatt
nedsettende
nedskrevet
nedslagsfelt
nedstammer
nedstammet
nedstrøms
nedtegnelser
nedtegnet
need
needs
negativ
negative
negativt
neger
negro
nei
neil
neill
nekrolog
nektar
nekte
nekter
nektet
nel
nell
nelly
nelson
nemesis
nemlig
nen
nene
nens
nentwig
neo
neolepidoptera
neolittisk
neolittiske
neon
neotropisk
neotropiske
nepal
nepali
nepals
nepalske
neppe
neptun
ner
nergaard
nerløkka
nero
nerver
nervesystemet
nes
nesbyen
nesbø
nese
nesen
neset
nesheim
nesna
nesodden
ness
nesseby
nesset
nest
neste
nesten
nestformann
nestkommanderende
nestleder
nestor
net
netflix
netherlands
nett
nettavisen
nettbibelen
nettbuss
nettene
netter
nettet
netto
nettopp
nettside
nettsiden
nettsidene
nettsider
nettsted
nettsteder
nettstedet
nettverk
nettverket
network
networks
neu
neue
neues
neuf
neumann
neustadt
nevada
never
neville
nevis
nevne
nevner
nevnes
nevneverdig
nevnt
nevnte
nevø
nevøen
new
newark
newcastle
newfoundland
newman
newport
news
newton
newtons
newzealandsk
newzealandske
next
nez
nf
nfc
nff
nfl
nfls
ng
nga
ngc
nge
ngel
ngen
nger
nggatan
nggi
ngo
ngu
nguye
nguyen
nh
nherr
nhh
nhl
nhm
nho
ni
nia
nic
nicaragua
niccolo
nice
nicholas
nichols
nicholson
nicht
nick
nicks
nicky
nico
nicola
nicolai
nicolas
nicolaus
nicolay
nicolaysen
nicole
nicolson
nidaros
nidarosdomen
nidelva
nie
niedero
niedersachsen
niels
nielsen
nielsens
niende
niendeplass
niese
nietzsche
nig
nigel
niger
nigeria
nigeriansk
nigerianske
night
nightmare
nights
nigra
nigsberg
nigstuhl
nik
nike
nikea
nikita
nikkel
niklas
nikola
nikolai
nikolaj
nikolas
nikolaus
nilen
nils
nilsen
nilsens
nilssen
nilsson
nimrod
nin
nina
nine
ning
ningen
ninger
nini
ninja
nintendo
nio
nirvana
nis
nissan
nissen
nissens
nitrogen
nittedal
nitten
nittende
niva
nixon
nizjnij
nj
nja
nk
nkf
nko
nkp
nkps
nl
nm
nn
nna
nne
nner
nnich
nnkf
no
noah
nobel
nobelkomite
nobelprisen
nobelprisvinner
nobelprisvinnere
nobels
noble
nobody
noctuidae
node
noder
noe
noel
noen
noenlunde
noensinne
nogen
noget
noir
noise
nok
nokia
noksa
nolan
nomadiske
nome
nomenklatur
nominasjon
nominasjonen
nominasjoner
nominatformen
nominert
nominerte
nomura
non
none
nonne
nonner
noord
nor
nora
norberg
norbert
nord
nordahl
nordal
nordamerikansk
nordamerikanske
nordberg
nordby
norddal
norden
nordenden
nordenfjeldske
nordens
nordenskio
norderhov
nordfjord
nordhagen
nordheim
nordhordland
nordic
nordin
nordirske
nordishavet
nordisk
nordiska
nordiske
nordkapp
nordkoreansk
nordkoreanske
nordkysten
nordland
nordlands
nordlandsbanen
nordli
nordlig
nordlige
nordligste
nordlys
nordmann
nordmannen
nordmarka
nordmenn
nordmennene
nordmøre
nordnes
nordnorsk
nordnorske
nordomra
nordover
nordpolen
nordre
nordregionen
nordreisa
nordrhein
nordsamisk
nordsida
nordsiden
nordsjøen
nordstjerneordenen
nordstoga
nordstrand
nordtyske
nordvest
nordvestlige
nordvestover
nordvestre
nordøst
nordøstlige
nordøstover
nordøstre
nordøstregionen
nore
noregs
norfolk
norge
norges
norgescupen
norgeshistorie
norgeskart
norgesmester
norgesmestere
norgesmesterskap
norgesmesterskapet
norheim
norlep
norm
norma
normal
normalbakke
normalbakken
normaldistanse
normaldistansen
normale
normalspor
normalt
norman
normand
normandie
normann
normannerne
normannisk
normanniske
normer
norra
norrbottens
norris
norrko
norrøn
norrøne
norrønt
norse
norsk
norske
norskehavet
norskekysten
norskspra
norsktoppen
norte
north
northampton
northern
northrop
northug
northumberland
northumbria
northwest
norton
nortraship
norum
norvegiae
norvegica
norway
norwegen
norwegiae
norwegian
norwich
nos
not
notasjon
notat
notater
note
noter
notert
noterte
notes
nothing
notoc
notodden
notre
nottingham
nou
nouveau
nouvelle
nov
nova
novak
novara
novel
novelle
novellen
noveller
novellesamling
novellesamlingen
november
novgorod
novi
novo
novosibirsk
now
nowhere
nr
nrk
nrks
ns
nsb
nsdap
nsf
nsson
nste
nster
nsu
nt
ntb
nte
nter
nth
nther
ntnu
ntnus
nu
nubia
nuclear
nueva
nuevo
null
number
numbered
numbers
numedal
numerisk
numeriske
nummer
nummerert
nummeret
numre
nun
nuntier
nuntius
nur
nve
ny
nya
nyanser
nybergsund
nyborg
nybygde
nybygg
nybyggere
nybyggerne
nybygget
nydalen
nye
nyere
nyeste
nyetablerte
nyfødt
nyfødte
nyga
nygaard
nyheten
nyhetene
nyheter
nyhetsbyra
nyhus
nyi
nyinnspilling
nykommer
nyland
nylig
nylige
nymfene
nymfer
nymphalidae
nynorsk
nyopprettede
nyre
nyskapende
nystartede
nyt
nyte
nyter
nytt
nytta
nytte
nyttig
nyttige
nyutgivelse
nyvalg
nyvinninger
nz
nær
nærbilde
nære
nærhet
nærheten
næring
næringen
næringer
nærings
næringsdrivende
næringsliv
næringslivet
næringslivsleder
næringsplanten
næringsstoffer
næringsvirksomhet
nærliggende
nærme
nærmer
nærmere
nærmest
nærmeste
nærmet
næromra
nært
nærvær
nærøy
nærøysund
næss
nød
nødhjelp
nødt
nødvendig
nødvendige
nødvendighet
nødvendigvis
nøkkel
nøkkelen
nøkken
nøkler
nøt
nøtter
nøtterøy
nøyaktig
nøyaktige
nøyaktighet
nøye
nøytral
nøytrale
nøytralitet
nøytralt
nøytroner
o
oak
oakland
oara
oasis
ob
obama
obe
obenberger
oberea
oberst
oberstdorf
oberstløytnant
oberthu
obituary
objekt
objektene
objekter
objektet
objektiv
objektive
oblast
obligatorisk
obligatoriske
obo
obos
obs
obscura
obscurus
observasjon
observasjonene
observasjoner
observations
observatoire
observatoriet
observatorium
observatory
observatør
observatører
observer
observere
observerer
observeres
observert
observerte
obsidian
oc
occidentalis
ocean
och
ochs
ochthebius
ochthephilum
oclc
octavius
october
od
oda
odal
odd
odda
oddbjørn
odde
odden
odds
oddvar
ode
odelstinget
odense
odeon
oder
odescalchi
odessa
odfjell
odin
odins
odo
odysseen
odyssevs
odyssey
oecd
oedichirus
of
off
offensiv
offensive
offensiven
offentlig
offentlige
offentliggjorde
offentliggjort
offentlighet
offentligheten
offer
offeret
office
officer
official
offiser
offiseren
offiserene
offiserer
offisiell
offisielle
offisielt
offshore
ofoten
ofre
ofrene
ofret
ofte
oftedal
oftere
oftest
og
ogg
ogsa
ogsaa
oh
ohaus
ohio
ohlendorf
ohm
ohne
oil
oilers
ois
oise
oizumi
ok
okinawa
okkupantene
okkupasjon
okkupasjonen
okkupasjonsmakten
okkupere
okkupert
okkuperte
oklahoma
okres
okse
okser
oksygen
oksygenet
okt
oktober
oktoberrevolusjonen
ol
ola
olaf
olai
olaus
olav
olavs
olavsmedaljen
olavsson
old
oldebarn
oldefar
olden
oldenborrer
oldenburg
oldfield
oldham
oldtid
oldtiden
oldtidens
ole
oleg
olga
oli
oliveira
oliven
olivenolje
oliver
olivia
olivier
olje
oljekraftverk
oljen
oljer
oljeselskap
olle
olof
ologie
olsen
olsenbanden
olsens
olson
olsson
oluf
olympia
olympiakos
olympiastadion
olympic
olympics
olympique
olympisk
olympiske
om
omaha
oman
omar
omarbeidet
ombord
ombygd
ombygget
ombygging
ombyggingen
omdannes
omdannet
omdiskutert
omdømme
omdøpt
omega
omegn
omfang
omfanget
omfatte
omfattende
omfatter
omfattes
omfattet
omformet
omga
omgang
omganger
omgir
omgitt
omgivelsene
omgivelser
omgjort
omhandler
omhandlet
omkamp
omkom
omkommer
omkommet
omkomne
omkranset
omkrets
omkring
omkringliggende
omland
omliggende
omløp
omnibus
omorganisering
omorganisert
omra
omreisende
omringet
omsetning
omsetningen
omsider
omskrevet
omslag
omslaget
omsorg
omspillet
omstendighetene
omstendigheter
omstridt
omstridte
omtale
omtalen
omtaler
omtales
omtalt
omtalte
omtrent
omtrentlig
omvendt
omvendte
omverdenen
on
once
ond
ondartet
onde
ondskap
ondt
one
ones
onkel
onkelen
online
only
ono
ons
onsdag
onstad
ontario
onthophagus
op
ope
opel
open
opening
opera
operaen
operaene
operaer
operahus
operahuset
operasanger
operasangere
operasjon
operasjonen
operasjonene
operasjoner
operation
operations
operativ
operative
operativsystem
operativsystemer
operativsystemet
operativt
operatør
operatører
operere
opererer
opereres
operert
opererte
opinion
opium
opp
oppa
opparbeidet
oppbevares
oppbevaring
oppbevart
oppblomstring
oppbygging
oppbyggingen
oppbygning
oppdaga
oppdage
oppdagelse
oppdagelsen
oppdagelser
oppdagelsesreisende
oppdager
oppdagere
oppdageren
oppdages
oppdaget
oppdal
oppdatering
oppdateringer
oppdatert
oppdaterte
oppdeling
oppdelingen
oppdelt
oppdiktede
oppdiktet
oppdrag
oppdragelse
oppdragene
oppdraget
oppdratt
oppdrett
oppe
oppega
oppfant
oppfatning
oppfatningen
oppfatninger
oppfatte
oppfatter
oppfattes
oppfattet
oppfinnelse
oppfinnelsen
oppfinnelser
oppfinner
oppfinnere
oppfinneren
oppfordrer
oppfordret
oppfordring
oppfostret
oppfunnet
oppfylle
oppfyller
oppfylt
oppfylte
oppfølger
oppfølgere
oppfølgeren
oppfølgerfilmer
oppfølging
oppføre
oppfører
oppføring
oppføringen
oppføringer
oppførsel
oppførselen
oppført
oppførte
oppga
oppgav
oppgave
oppgaven
oppgavene
oppgaver
oppgi
oppgir
oppgis
oppgitt
oppgjør
oppgjøret
oppgradere
oppgradering
oppgradert
opphav
opphavet
opphavsmann
opphavsrett
opphengt
oppheve
opphevet
opphold
oppholde
oppholder
oppholdet
oppholdt
opphør
opphøre
opphører
opphørt
opphørte
opphøyd
opphøyde
opphøyet
oppkalt
oppkalte
oppkjøp
oppkjøpet
opplag
opplaget
opplagstall
opplagt
oppland
opplegg
opplevd
opplevde
oppleve
opplevelse
opplevelsen
opplevelser
opplever
oppleves
opplyser
opplysning
opplysningene
opplysninger
opplysningstiden
opplyst
opplyste
opplæring
opplæringen
opplært
oppløse
oppløsning
oppløsningen
oppløst
oppløste
oppma
oppmerksom
oppmerksomhet
oppmerksomheten
oppmuntre
oppmuntret
oppna
oppnevnt
oppnevnte
opportunity
opposisjon
opposisjonelle
opposisjonen
oppover
oppreist
opprett
oppretta
opprette
opprettelse
opprettelsen
opprettes
opprettet
opprettholde
opprettholder
opprettholdt
opprinnelig
opprinnelige
opprinnelse
opprinnelsen
opprop
opprustning
opprydning
opprykk
opprykket
opprør
opprørere
opprørerne
opprøret
opprørske
opprørt
oppsal
oppsatt
oppsetning
oppsetningen
oppsetninger
oppsett
oppsikt
oppsiktsvekkende
oppskrift
oppskrifter
oppslag
oppslagsordet
oppslagsverk
oppslagsverket
oppslutning
oppslutningen
oppsta
oppstandelse
oppstanden
oppstart
oppstarten
oppstilt
oppsto
oppstod
oppsummering
oppsving
oppsyn
oppsøke
oppsøker
oppsøkte
opptak
opptakene
opptaket
opptakten
opptar
opptatt
opptegnelser
opptil
opptok
opptra
opptre
opptreden
opptredener
opptrer
opptrykk
opptøyene
opptøyer
oppussing
oppva
oppvarmet
oppvarming
oppvarmingen
oppvekst
oppveksten
oppvekststed
oppvokst
ops
opsahl
opsjon
optikk
optimal
optisk
optiske
opus
or
ora
oracle
oral
orange
oranien
oransje
orchestra
orchymont
orconectes
ord
ordbog
ordbok
ordbøker
orde
orden
ordene
ordenen
ordenens
ordener
ordens
ordensba
ordenstegn
ordenstegnet
ordentlig
order
orders
ordet
ordforra
ordførende
ordfører
ordførere
ordføreren
ordinert
ordinær
ordinære
ordinært
ordne
ordner
ordnet
ordning
ordningen
ordninger
ordre
ordren
ordrer
ordspill
ordspra
ore
orectochilus
oregon
orestes
orfeus
org
organ
organer
organet
organisasjon
organisasjonen
organisasjonene
organisasjonens
organisasjoner
organisation
organisatorisk
organisatoriske
organisere
organiserer
organiseres
organisering
organiseringen
organisert
organiserte
organisk
organiske
organisme
organismer
organist
organister
organization
orgel
orgelet
orient
oriental
orientalis
orientalsk
orientalske
orientation
orientering
orienteringsløper
orientert
orienterte
orig
origin
original
originale
originalen
originalt
originaltittel
origins
origo
orion
orkan
orkanen
orkanger
orkdal
orkester
orkesteret
orkestre
orkla
orkland
orknøyene
orlando
orle
orleans
orm
ormen
ornithology
ornitologisk
oro
orousset
orphnebius
orrell
orthogonius
ortiz
ortmann
ortodoks
ortodokse
os
osa
osaka
osborne
osbourne
oscar
oscars
oseania
oseaniamesterskapet
osen
osiris
oskar
oslo
oslofjord
oslofjorden
oslomet
oslos
osmanene
osmansk
osmanske
osnabru
osorius
osprey
oss
ossetia
ossian
ost
osten
oster
osterøy
ostindiske
ostracoda
osv
osvald
oswald
ot
other
others
otis
otta
ottar
ottawa
otter
ottesen
otto
ottomanske
ou
our
out
outer
outside
outstanding
ouvrard
ov
oval
ovale
ovalt
ove
ovenfor
ovenfra
ovennevnte
ovenpa
over
overall
overalt
overbevise
overbevisende
overbeviser
overbevisning
overbevist
overbeviste
overblikk
overda
overdommer
overdose
overdratt
overdreven
overdrevet
overens
overenskomst
overensstemmelse
overfall
overfalt
overfamilie
overfamilien
overfamilier
overflate
overflaten
overflater
overflatisk
overflødig
overfor
overføre
overfører
overføres
overføring
overføringen
overført
overførte
overga
overgang
overgangen
overganger
overgav
overgi
overgikk
overgitt
overgivelse
overgrep
overhalla
overherredømme
overhode
overhodet
overhuset
overhøyhet
overkant
overklassen
overkommando
overkommandoen
overkroppen
overlappende
overlapper
overlate
overlatt
overlege
overlegen
overlegenhet
overlegent
overlegne
overlevd
overlevde
overleve
overlevelse
overlevende
overlever
overlevert
overleverte
overlot
overlærer
overnatting
overnaturlige
overorden
overordnede
overordnet
overraskelse
overraskende
overrasket
overrettssakfører
overs
oversatt
oversatte
oversett
oversette
oversettelse
oversettelsen
oversettelser
oversetter
oversettere
oversettes
overside
oversiden
oversikt
oversikten
oversjøiske
overskudd
overskuddet
overskygget
overstammen
overstiger
oversvømmelser
overta
overtaket
overtale
overtaler
overtalt
overtalte
overtar
overtatt
overtid
overtok
overtro
overva
overveiende
overvekt
overveldende
overview
overvinne
overvintrer
overvintret
ovid
ovn
ovnen
ovner
owen
owens
own
oxford
oxfordshire
oxypoda
oy
oz
ozon
ozzy
p
pa
paa
paal
paasche
pablo
pac
pace
pachybrachis
pachyscelus
pacific
pack
packard
packers
paderborn
padler
padlere
padling
padmakara
padova
paederus
page
pages
paglinawan
pai
paige
pain
paine
painting
paisley
pakistan
pakistans
pakistansk
pakistanske
pakke
pakken
pakker
pakket
pakt
pakten
pal
palace
palaearctic
palais
palaminus
palass
palasser
palasset
palau
palazzo
pale
palearktiske
palermo
palestina
palestine
palestinere
palestinerne
palestinsk
palestinske
palgrave
pallas
palle
pallplasseringer
palm
palma
palmas
palme
palmer
palomar
palpene
paluzzi
paluzzo
pamela
pan
panama
panamerikanske
pandemien
pandora
panel
panikk
panne
pannen
pannonia
panorama
panser
pansrede
pansret
pant
pantera
panther
panthers
panzer
paolo
papa
paper
paperback
papers
papilio
papilionoidea
papir
papirer
papiret
papp
pappa
papua
papyrus
par
para
parade
paradis
paradise
paradiset
parafyletisk
paragraf
paraguay
parai
parallell
parallelle
paralleller
parallellsidige
parallelt
paralympic
paralympics
paralympiske
paramilitære
paramount
parana
paranoid
parasitter
parc
pare
parene
parentes
paret
parets
paring
paringen
paris
parish
parishes
parisiske
park
parken
parkens
parker
parkeringsplass
parks
parlament
parlamentarisk
parlamentariske
parlamentet
parlamentets
parlamentsmedlem
parlamentsmedlemmer
parlamentsvalget
parliament
parløp
parma
parocchi
parodi
parque
parr
parry
parsammensetning
parsifal
parsons
part
partei
partene
partenkirchen
parter
parti
partia
partial
partido
partiene
partier
partiet
partiets
partikkel
partikkelen
partiklene
partikler
partiledelsen
partileder
partipolitisk
partis
partisaner
partisekretær
partiske
partito
partner
partnere
partneren
partners
partnerskap
parts
party
parvis
parvorden
pas
pascal
pascoe
pasha
pasient
pasienten
pasientene
pasientens
pasienter
pasja
pasning
pasninger
pasningsforsøk
pasningsyards
paso
pass
passage
passasje
passasjen
passasjer
passasjerene
passasjerer
passasjerfly
passasjerskip
passe
passende
passer
passere
passerer
passeri
passeriformes
passert
passerte
passet
passion
passiv
passive
past
pasta
pastor
pastorale
pat
patent
patenter
pater
path
patriark
patriarkatet
patriarken
patriarker
patricia
patrick
patrik
patriot
patriotisk
patriotiske
patriots
patrizi
patrol
patron
patronen
patroner
pattedyr
patterns
patterson
patti
patton
patursson
pau
paul
paula
pauli
paulian
pauline
paulo
pauls
paulsen
paulus
paus
pausanias
pause
pausen
paussus
pave
pavedømmet
pavel
pavelig
pavelige
paven
pavens
paver
pavestolen
pavia
paviljong
paviljongen
pax
pay
payne
pays
paz
pb
pbs
pc
pdf
pdp
pe
peace
peak
pearce
pearl
pearson
peck
pectore
pedagog
pedagoger
pedagogikk
pedagogisk
pedagogiske
pedal
peder
pedersen
pedipalpenes
pedro
peel
peer
peerage
pegasus
peggy
peke
peker
peking
pekt
pekte
pele
pelle
peloponnes
pels
pelsen
peltonturbin
pembroke
pen
penbar
penbare
penbaring
penbart
pene
penet
penets
peng
pengene
penger
penguin
penguins
penhet
penhvile
penhvilen
peninsula
penis
penn
pennsylvania
penny
pensjon
pensjonert
pensjonerte
pensjonist
penskjold
penskjoldet
pent
pentagon
pentium
pentodontini
people
peoples
pepper
peppers
per
peracarida
percy
pereira
perez
perfect
perfekt
perfekte
perfektum
performance
performing
perifere
perikles
peringuey
period
periode
perioden
periodene
perioder
periodisk
periodiske
perkins
perkusjon
perle
perler
perm
permanent
permanente
permisjon
pernambuco
pernille
perrin
perry
perserne
perserriket
perseus
persia
persian
persisk
persiske
person
personal
personale
personalet
personality
personalunion
personbiler
personell
personen
personene
personer
personlig
personlige
personlighet
personligheter
personlighetsforstyrrelse
personnavn
persons
persontrafikk
perspective
perspectives
perspektiv
perspektiver
perspektivet
persson
perth
peru
peruansk
peruanske
perugia
perus
pest
pesten
pet
pete
peter
peters
petersburg
petersen
peterskirken
peterson
petit
petite
petr
petra
petri
petroleum
petrov
petrovitz
petrus
petter
pettersen
petterson
pettersson
petty
peugeot
peyton
pez
pf
pfalz
pg
pga
ph
phantom
phd
phi
phil
philadelphia
philharmonic
philip
philipp
philippe
philippine
philippines
philips
phillip
phillips
philol
philos
philosophical
philosophie
philosophy
phoebe
phoenix
photinus
photo
photos
php
phylogenetic
phylogeny
physical
physics
phytoecia
phytophaga
pi
pia
piacenza
pianist
pianisten
pianister
piano
piaui
piazza
pic
picasso
pick
picks
pico
picture
pictures
pidgeon
pie
piece
pieces
piemonte
pier
pierce
piero
pierre
pieter
pietro
pigg
pigger
piggtra
pihl
pike
piken
piker
pil
pilar
pilatus
pilegrimer
piler
pilestredet
piller
pilot
piloten
pilotene
piloter
pin
pine
ping
pings
pink
pinner
pinophilus
pinsebevegelsen
pinto
pinyin
pio
pione
pioneer
pioner
pionerene
pionerer
piotr
pipe
piper
pipin
pippi
pirat
pirate
piratene
pirater
pirates
pisa
pistol
pistolen
pistoler
pit
pitt
pittsburgh
pius
pizza
pjotr
pk
pl
pla
place
places
placid
plads
plage
plager
plaget
plagg
plain
plains
plakat
plakaten
plakater
plakett
plan
planck
plane
planen
planene
planer
planet
planetary
planeten
planetene
planetens
planeter
planets
planica
planker
plankton
planktoniske
planla
planlagt
planlagte
planlegge
planlegger
planlegges
planlegging
planleggingen
planning
plant
plantagenet
plante
plantearter
planteetere
plantefamilie
plantemateriale
planten
plantene
planter
planterøtter
planteslekt
plantet
plants
plasma
plass
plassen
plassene
plasser
plassere
plasserer
plasseres
plassering
plasseringen
plasseringene
plasseringer
plassert
plasserte
plast
plastic
plata
plate
plateetiketten
plateinnspillinger
platekontrakt
platen
platene
plateprodusent
plateprodusenter
plater
plateselskap
plateselskaper
plateselskapet
plateutgivelser
platform
platia
platina
platinum
platon
platons
platou
plattform
plattformen
plattformene
plattformer
platyninae
platz
play
playboy
player
players
playing
playoff
plays
playstation
plaza
plc
pleasant
please
pleasure
pleide
pleie
pleier
pleistocen
plikt
plikter
plinius
plo
plot
plotarea
plotdata
plukke
plukket
plus
pluss
plutark
pluto
plutselig
plutselige
plymouth
plyndre
plyndret
plyndring
pm
pmid
pna
pne
pnene
pner
pnes
pnet
png
pning
pningen
pninger
pningskampen
pningsseremonien
po
poblacio
pocket
poe
poems
poeng
poengene
poenget
poengkonkurransen
poengsum
poesi
poet
poeten
poeter
poetisk
poetiske
poetry
pogo
point
points
poitiers
pokal
pokalen
poke
poker
pol
polakkene
polakker
poland
polar
polare
polarinstitutt
polaris
polarsirkelen
pole
polen
polene
polens
police
policy
polis
polish
polit
politbyra
politi
politibetjent
political
politics
politidistrikt
politiet
politiets
politifolk
politik
politiken
politikens
politiker
politikere
politikeren
politikerne
politikk
politikken
politimann
politimannen
politimenn
politimester
politische
politisk
politiske
politistasjon
politistyrker
polk
poll
pollard
pollen
polly
polo
polsk
polske
polybothris
polydor
polygram
polyne
polynesia
polyommatus
polyphaga
pommern
pompeii
pompeius
ponomarenko
pont
ponte
pontus
pool
poole
poor
pop
pope
popmusikk
popper
pops
popular
popularitet
populariteten
populasjon
populasjonen
populasjoner
population
populær
populære
populærkultur
populærkulturen
populærmusikk
populært
por
pors
porsanger
porsche
porselen
porsgrunn
port
porta
portable
portal
portalen
porte
portefølje
porten
portene
porter
portland
portman
porto
portrait
portrett
portretter
portrettert
portrettet
portsmouth
portugal
portugals
portugiserne
portugisisk
portugisiske
pos
pose
poseidon
posen
posisjon
posisjonen
posisjonene
posisjoner
position
positiv
positive
positivt
possible
post
posta
posten
postens
poster
posthumt
postkontor
postkontoret
postkort
pot
potensial
potensialet
potensiell
potensielle
potensielt
poteter
potomac
potsdam
potter
poul
poulsen
poulsson
pound
pour
powell
power
powerlifting
powers
poznan
pp
pr
pra
prachanda
practice
pradesh
praha
prairie
prajn
praksis
praksisen
praktbiller
praktisere
praktiserer
praktiseres
praktisert
praktiserte
praktisk
praktiske
praktskarabider
prat
pratt
prayer
pre
preben
predikant
prefekt
prefektur
prefekturet
preg
prege
preger
preges
preget
preis
preken
prekener
prekestol
prekestolen
prelat
preliminary
premie
premier
premiere
premieren
premierløytnant
prescott
presens
present
presentasjon
presentere
presenterer
presenteres
presentert
presenterte
presents
president
presidenten
presidentene
presidentens
presidenter
presidential
presidentkandidat
presidentperiode
presidentskap
presidentvalg
presidentvalget
presis
presise
presisjon
presist
presley
press
presse
pressekonferanse
pressemelding
pressen
pressens
presser
presses
presset
pressure
prest
prestasjon
prestasjoner
prestega
prestegjeld
prestegjeldet
presten
prestene
prester
presteseminar
presteseminaret
presteskapet
presteviet
prestisje
prestisjefylte
prestisjetunge
preston
pretoria
pretty
preus
preussen
preussens
pri
price
pride
priest
prikker
prima
primary
primas
prime
primera
primitiv
primitive
primo
primtall
primus
primær
primære
primærfaktor
primært
primærvalg
prince
princess
princeton
principles
prins
prinsen
prinsens
prinser
prinsesse
prinsessen
prinsipp
prinsippene
prinsipper
prinsippet
print
printing
prioninae
prior
prioritert
prioriterte
prioritet
pris
prisen
prisene
priser
priset
prison
prisutdeling
prisvinnere
privat
privatarkiv
private
privatliv
privatpersoner
privilegier
prix
prize
pro
problem
problematisk
problemene
problemer
problemet
problems
problemstillinger
procambarus
proceedings
process
producer
production
productions
products
produksjon
produksjonen
produksjoner
produksjonskapasitet
produksjonskostnadene
produksjonsselskapet
produkt
produktene
produkter
produktet
produktiv
produktive
produsent
produsenten
produsentene
produsenter
produsere
produserer
produseres
produsert
produserte
prof
profesjonell
profesjonelle
profesjonelt
professional
professor
professorat
professoren
professorer
profet
profeten
proff
profil
profile
profilen
profiler
profilert
profilerte
profilside
profitt
program
programleder
programledere
programlederne
programme
programmene
programmer
programmering
programmeringsspra
programmet
programmets
programvare
programvaren
progress
progressiv
progressive
project
projects
projekt
proklamert
proklamerte
prolog
prologen
prominent
prominente
promo
promotere
pronomen
pronotum
propaganda
propell
propelldrevne
propeller
prophet
proporsjonal
proprietær
pros
prosa
prosedyre
prosedyrer
prosent
prosentandel
prosentpoeng
prosess
prosessen
prosessene
prosesser
prosessor
prosessoren
prosessorer
prosjekt
prosjektene
prosjekter
prosjektet
prosjektleder
prosoma
prosopocera
prosopocoilus
prost
prosten
prosti
prostier
prostiet
prostituert
prostituerte
prostitusjon
protaetia
protection
protein
proteiner
protektorat
protektoratet
protest
protestant
protestantene
protestanter
protestantisk
protestantiske
protestantismen
protestene
protester
protesterte
proto
protocol
protokoll
protokollen
protokoller
protoner
prototype
prototypen
prototyper
provence
providence
province
provinces
provincia
provins
provinsen
provinsene
provinsens
provinser
provinshovedstaden
provisorisk
provisoriske
prp
prudence
prydet
prytz
præstegield
prøvd
prøvde
prøve
prøven
prøvene
prøver
prøysen
prøysens
prøyssisk
prøyssiske
ps
pselaphinae
pseudo
pseudonym
pseudonymet
psevdonymet
psi
pst
psv
psychiatry
psycho
psychological
psychology
psykedelisk
psykiater
psykiatri
psykiatrisk
psykiatriske
psykisk
psykiske
psykolog
psykologer
psykologi
psykologisk
psykologiske
psykoterapi
pt
pterolophia
pterostichinae
pterostichus
ptolemaios
ptolemeiske
pu
pub
pubescens
public
publication
publications
publikasjon
publikasjonen
publikasjoner
publikum
publikumsprisen
publikumssuksess
publique
publisere
publiserer
publiseres
publisering
publiseringer
publisert
publiserte
published
publishers
publishing
puebla
pueblo
puerto
pulje
puls
pulver
puma
pumpe
pumpekraftverk
pumper
pumpes
pund
punds
punjab
punk
punkt
punktene
punkter
punktert
punkterte
punktet
punktrader
punktstriper
punktum
punktøyne
punt
punta
puppe
puppen
puppestadie
puppestadium
pure
purple
pursuit
pusset
pust
puste
put
puthz
putin
putnam
putzeys
px
pyeongchang
pyntet
pyongyang
pyramid
pyramide
pyramiden
pyramidespill
pyre
pyreneene
pytagoras
python
q
qa
qaida
qatar
qi
qin
qing
qingdao
qinghai
qquad
qu
quad
quality
quantum
quarterback
quarterbacken
quarterbacks
quarterly
quartet
quatro
quattro
que
quebec
quedius
queen
queens
queensland
quentin
quercus
quest
question
questions
quez
qui
quick
quiet
quincy
quinn
quintet
quintus
quisling
quislings
quiz
quo
r
ra
rabbit
rabin
race
rachel
racing
rad
radar
rader
radical
radikal
radikale
radikalt
radio
radioaktive
radioaktivt
radioen
radiokanaler
radioprogram
radioprogrammer
radioprogrammet
radios
radiostasjon
radiostasjonen
radiostasjoner
radioteatret
radius
rae
raex
raf
rafael
raffaele
raffles
raffray
rafinesque
raga
rage
ragna
ragnar
ragnarok
ragnhild
ragnvald
rahman
rai
raid
raiders
raidet
rail
railroad
railway
railways
rain
rainbow
rainer
raja
rajon
rakel
rakett
raketter
rakk
rakkestad
raknes
ral
raleigh
ralf
rally
ralph
ram
rama
ramberg
rami
ramita
ramm
ramme
rammen
rammene
rammer
rammes
rammet
rammeverk
ramo
ramon
ramos
rams
ramsaromra
ramsay
ramses
ramsey
ran
rana
ranch
rand
randaberg
randall
randen
randers
randi
randolph
random
randsfjorden
randy
ranet
rang
range
ranger
rangerer
rangeres
rangering
rangers
rangert
rangerte
ranheim
rank
ranking
rankingen
rankings
rant
raoul
rap
raphael
rapid
rapids
rapper
rappere
rapperen
rapport
rapporten
rapportene
rapporter
rapportere
rapporterer
rapportert
rapporterte
rard
rare
rart
ras
rasch
rase
rasen
rasende
rasene
raser
raseri
rashid
rasisme
rasistisk
rasistiske
rasjonelle
rask
raske
raskere
raskest
raskeste
raskt
rasmus
rasmussen
raste
rat
rate
ratifisert
rating
ration
rau
raufoss
rauma
rav
raven
ravenna
ravens
ravi
ravn
raw
ray
raymond
rb
rbar
rbare
rbk
rbok
rbund
rbundet
rc
rca
rcd
rd
rdal
rdbruker
rde
rden
rdene
rdens
rder
rdoba
rds
rdsbruk
re
reach
read
reader
reading
ready
reagan
reagere
reagerer
reagerte
reaksjon
reaksjonen
reaksjonene
reaksjoner
reaktor
reaktoren
reaktorer
real
realfag
realisere
realisert
realisme
realistisk
realistiske
realitet
realiteten
reality
really
realskole
reason
rebecca
rebekka
rebel
rebellion
rebiba
rebro
rec
receiver
recent
record
recording
recordings
records
recovery
red
redaksjon
redaksjonen
redaktør
redaktøren
redaktører
redd
redde
redder
reddet
rede
redegjørelse
redegjørelser
reder
rederi
rederier
rederiet
redet
redford
redigere
redigering
redigert
redigerte
redning
redskap
redskaper
redskins
reduksjon
redusere
reduserer
reduseres
redusert
reduserte
ree
reed
reell
reelle
reelt
reese
reeves
ref
referanse
referansen
referanser
referat
reference
referere
refererer
refereres
referert
refererte
reflections
refleksjon
refleksjoner
reflektere
reflekterer
reflekteres
reflektert
reflekterte
reform
reformasjonen
reformation
reformen
reformene
reformer
reformere
reformert
reformerte
refrenget
reg
regel
regelen
regelmessig
regelmessige
regelverk
regelverket
regensburg
regent
regenter
reggae
reggio
regi
regia
regien
regierungsbezirk
regime
regiment
regimenter
regimentet
regimet
regimets
regina
reginald
regindex
regine
region
regional
regionale
regionalt
regionen
regionene
regionens
regioner
regionra
regions
regionsreformen
regis
regissere
regissert
regisserte
regissør
regissøren
regissører
register
registeret
registre
registrere
registrerer
registreres
registrering
registreringer
registrert
registrerte
regjere
regjerende
regjering
regjeringa
regjeringen
regjeringene
regjeringens
regjeringer
regjeringskvartalet
regjeringsmakten
regjeringssjef
regjeringstid
regjert
regjerte
reglene
regler
regn
regne
regner
regnes
regnet
regning
regnskap
regnskog
regnskogen
regulere
regulerer
reguleres
regulering
reguleringen
reguleringer
reguleringsplan
regulert
regulerte
regulær
regulære
rehabilitering
rehabilitert
rei
reich
reiche
reichenbachia
reichswehr
reid
reidar
reidun
reiersrud
reign
reilly
reims
rein
reina
reindrift
reine
reinhard
reinhardt
reinhold
reinmuth
reir
reiret
reis
reise
reiseliv
reisema
reisen
reisende
reisene
reiser
reiseskildringer
reisetiden
reiss
reist
reiste
reitan
reitter
reker
rekke
rekkefølge
rekkefølgen
rekkehus
rekken
rekker
rekkevidde
rekkevidden
reklame
reklamebyra
reklamer
rekognosering
rekognoseringsfly
rekonstruere
rekonstruert
rekonstruksjon
rekord
rekorden
rekorder
rekruttere
rekruttering
rekruttert
rekrutterte
reksten
rektangulær
rektangulære
rektangulært
rektor
rektorer
rekvirert
relasjon
relasjonen
relasjonene
relasjoner
related
relatert
relaterte
relations
relationships
relativ
relative
relativt
relay
release
released
relevant
relevante
relief
relieff
relieffer
religion
religionen
religioner
religions
religionsfrihet
religious
religiøs
religiøse
religiøst
relikvier
rem
rema
remains
rembrandt
remember
remington
remis
remix
ren
rena
renaissance
renate
renault
renberg
rendalen
rene
renes
renessanse
renessansen
renessansens
renhet
reningen
renn
renne
rennebu
rennende
rennene
renner
rennes
rennesøy
rennet
reno
renovering
renovert
rense
renset
rensing
rent
rente
renter
reorganisert
rep
reparasjon
reparasjoner
reparere
reparert
repertoar
repertoaret
repeterende
report
reportasje
reportasjer
reporter
reports
representant
representanten
representantene
representantenes
representanter
representantskapet
representasjon
representative
representere
representerer
representeres
representert
representerte
reprint
reprise
reproduksjon
reptantia
republic
republican
republikanere
republikanerne
republikanernes
republikansk
republikanske
republikk
republikken
republikkens
republikker
republikks
requiem
rer
res
rescue
research
reservatet
reserve
reserver
reservert
reservoar
reservoarer
reservoaret
residens
resident
residerende
resistance
resolusjon
resolusjonen
resolution
resonans
resort
resource
resources
respekt
respektere
respektert
respekterte
respektive
respons
response
ressurs
ressursene
ressurser
rest
restaurant
restauranten
restauranter
restaurere
restaurering
restaureringen
restaurert
restaurerte
resten
restene
rester
resterende
restriksjoner
result
resultat
resultatene
resultater
resultatet
resultatliste
resultatside
resultattabell
resultere
resulterende
resulterer
resultert
resulterte
results
ret
rete
retning
retningen
retninger
retningslinjene
retningslinjer
retorikk
retrett
retretten
retrieved
retriever
rets
rett
rette
retten
rettens
retter
rettes
rettet
rettferdig
rettferdighet
rettighetene
rettigheter
rettmessige
rettslig
rettslige
rettsoppgjøret
rettssak
rettssaken
rettssaker
rettsvesen
rettsvesenet
rettsvitenskap
rettvinklede
retur
return
returnere
returnerer
returnert
returnerte
returns
reunion
reuter
reuters
rev
revenge
revers
revet
revidert
reviderte
review
reviews
revis
revised
revision
revisited
revisjon
revisjonen
revival
revolusjon
revolusjonen
revolusjonær
revolusjonære
revolution
revolutionary
revolver
revue
revy
revyen
revyer
rex
rey
reyes
reykjavi
reykjavik
reynolds
rez
reza
rfagre
rfagres
rfc
rfluer
rg
rga
rgang
rgb
rgen
rhapsody
rhead
rhein
rheinland
rhinen
rho
rhode
rhodes
rhodesia
rhodos
rhopalocera
rhundre
rhundrene
rhundrer
rhundres
rhundreskiftet
rhundret
rhundrets
rhus
rhys
rhythm
ri
ria
rian
ribbentrop
ribe
ric
rica
ricardo
ricas
ricci
rice
rich
richard
richards
richardson
richelieu
richie
richmond
richter
rick
ricky
rico
rida
ridder
riddere
ridderkors
ridderne
ride
ridende
rider
riders
ridge
riding
ridley
rie
riedel
riff
rifle
riflen
rifler
rig
riga
rige
right
rightarrow
rights
rigmor
riis
riise
riisnæs
rik
rikard
rikdom
rikdommer
rike
rikelig
rikene
riker
rikere
rikes
rikeste
riket
rikets
riksantikvaren
riksantikvarens
riksarkivet
riksdag
riksdagen
riksdagsmedlemmer
riksdaler
riksdekkende
riksforsamlingen
riksgrensen
rikshospitalet
rikskansler
riksma
riksra
riksteatret
riksva
riksvei
riksveien
rikt
riktig
riktige
riktignok
rilar
riley
rim
rimelig
rin
rindal
ring
ringe
ringebu
ringen
ringene
ringenes
ringens
ringer
ringerike
ringerikes
ringnes
ringo
rings
ringsaker
ringte
ringuey
ringvinger
rio
riodinidae
rione
riot
rip
ripley
ripper
rir
ris
risa
risc
rise
risikere
risikerer
risiko
risikoen
rising
risk
risnes
rissa
risør
rita
ritchie
rite
riter
rites
ritt
ritter
rittet
ritual
ritualer
rituell
rituelle
ritus
rival
rivalen
rivalene
rivaler
rivaliserende
rivalisering
rivaliseringen
rive
river
rivera
rivers
riverside
rives
riving
rja
rjukan
rk
rlag
rlaget
rlden
rldsungdomsspelen
rlek
rlig
rlige
rligere
rligste
rlitz
rlts
rm
rmland
rms
rn
rna
rnberg
rne
rnene
rner
rnes
rnet
rno
rnsko
rnstup
rnten
ro
road
roads
roald
roar
rob
roba
robbie
robbins
roberson
robert
roberto
robertprisen
roberts
robertson
robin
robinson
robot
robson
robust
robuste
roc
roche
rochester
rock
rockeband
rockebandet
rockefeller
rockegrupper
rockers
rocket
rockipedia
rocks
rocky
rod
rode
rodewald
rodgers
rodney
rodri
rodrigo
rodrigues
rodriguez
roe
roer
roere
roerne
roethlisberger
rogaland
rogalands
roger
rogers
rogn
rognan
rohan
rohdendorf
roi
roing
roland
role
rolf
rolfsen
rolig
rolige
roll
rollag
rolle
rollebesetning
rollefigur
rollefiguren
rollefigurene
rollefigurer
rolleliste
rollen
rollene
roller
rollespill
rollin
rolling
rolls
rolv
rom
roma
romagna
romain
roman
romana
romance
romanen
romanene
romanens
romaner
romanforfatter
romanforfattere
romani
romania
romanias
romano
romanse
romansk
romanske
romantikk
romantikken
romantisk
romantiske
romanum
romas
rome
romeo
romere
romerike
romerne
romernes
romero
romerriket
romerrikets
romersk
romerske
romertiden
romfart
romfergen
romme
rommel
rommene
rommer
rommet
romsdal
romsdalen
romsdals
romskip
romskipet
romsonden
romstasjonen
romulus
ron
ronald
ronaldo
rondane
rondo
ronnie
ronny
rookie
room
rooney
roosevelt
root
roots
rop
rope
roper
ropte
ror
rory
ros
rosa
rosario
rose
rosemary
rosen
rosenberg
rosenborg
rosendal
rosenkrantz
roser
roses
rosie
roskilde
roskov
ross
rossetti
rossi
rost
roste
rostock
rostov
rot
rota
rotasjon
rotasjonen
rote
roten
rotere
roterende
roterer
roth
rothschild
rotmo
rotten
rotter
rotterdam
roubaix
rouen
rouge
rougemont
rough
round
rousseau
route
routledge
rovbiller
rovdyr
rover
rovers
rovpattedyr
row
rowland
rowling
roy
royal
royale
royce
rpm
rr
rrekke
rrez
rs
rsaften
rsak
rsake
rsaken
rsakene
rsaker
rsaket
rsalderen
rsbeste
rsdag
rsdagen
rshavn
rsjubileet
rsjubileum
rskontrakt
rskrigen
rsmøtet
rsperiode
rsproduksjon
rsproduksjonen
rsrapport
rsskiftet
rsssf
rssted
rst
rsta
rstad
rstall
rstallet
rster
rstidene
rstider
rt
rta
rte
rth
rtha
rttemberg
rtusen
rtusenskiftet
ru
ruben
rubens
rubin
ruby
rud
rudberg
rudi
rudolf
rudolph
rudy
rue
rufus
rug
rugby
rugbyspiller
rugbyspillere
ruge
ruger
rugilus
ruhr
rui
ruin
ruinene
ruiner
ruiz
rule
rulers
rules
rulle
rullebane
rullebanen
rullende
ruller
rullestol
rullet
rum
rumensk
rumenske
run
runar
rund
rundbane
runde
rundede
runden
rundene
runder
rundet
rundetider
rundt
rune
runeberg
runer
rung
runner
running
rupert
rural
rurale
rus
rush
ruskin
rusmidler
russ
russell
russere
russerne
russia
russian
russisk
russiske
russland
russlands
rust
rustad
rustet
rustfritt
rustning
ruta
rute
rutelinae
ruten
rutene
ruter
ruth
rutherford
ruud
rv
rva
rvi
rwanda
ry
ryan
rybak
rydde
ryddet
ryder
rye
ryen
ryfylke
rygg
rygge
ryggen
ryggraden
rygh
rykk
rykke
rykker
rykket
rykte
ryktene
rykter
ryktet
rypdal
rystet
rytme
rytmegitar
rytmer
rytmisk
rytmiske
rytter
ryttere
rytterne
rz
rzburg
rælingen
rður
røa
rød
rødbrun
rødbrune
røde
rødehavet
rødlig
rødlige
rødliste
rødrev
rødt
rødøy
røed
røk
røkke
rømme
rømmer
rømt
rømte
rønneberg
rønning
rønningen
rør
røre
rørende
røret
rørformet
røros
rørosbanen
rørvik
røst
røttene
røtter
røvere
røyk
røyken
røyking
røyrvik
s
sa
saa
saab
saabye
saarland
saba
sabah
sabbath
sabel
sabeltann
sabina
sabine
sabotasje
sachs
sachsen
sachsenhausen
sack
sacks
sacramento
sacred
sad
saddam
sadie
safari
safe
safety
saft
sag
saga
sagaen
sagaene
sagbruk
sage
sagen
sagene
sager
sagn
sagnet
sagt
sagtakkede
sahara
sahlberg
said
saigon
sailor
saint
sainte
saints
sak
saken
sakene
saker
sakhalin
sakkyndige
sakprosa
sakprosaforfattere
sakrament
sakserne
saksiske
saksofon
saksøkte
sakte
sal
sala
salaam
saladin
salamanca
salamis
salangen
salazar
sale
salem
salen
sales
salg
salget
salgs
salhus
saligka
salisbury
salix
salle
sally
salme
salmebok
salmedikter
salmediktere
salmen
salmer
salmon
salmonsens
salome
salomo
salomon
salomonøyene
salon
salong
salt
saltdal
salten
saltet
saltfjellet
salto
saltvann
salvador
salvatore
salve
salvesen
salvin
salzburg
sam
sama
samantha
samara
samarbeid
samarbeide
samarbeider
samarbeidet
samarbeidsavtale
samarbeidspartner
samarbeidspartnere
samarbeidsprosjekt
samba
samband
sambandet
samboer
same
samene
samenes
samer
sametinget
samferdsel
samferdselsdepartementet
samferdselshistorie
samfund
samfundet
samfunn
samfunnene
samfunnet
samfunnets
samfunns
samfunnsfag
samfunnshus
samfunnsmessige
samfunnsvitenskap
samfunnsvitenskapelig
samfunnsøkonomi
samhandling
samhold
sami
samisk
samiske
samla
samlaget
samle
samlealbum
samlealbumet
samlebetegnelse
samlede
samleie
samlende
samleplate
samler
samlere
samles
samlet
samling
samlingen
samlingene
samlinger
samliv
samløpet
samme
sammen
sammenbrudd
sammenbruddet
sammendrag
sammendraget
sammenfallende
sammenfaller
sammenheng
sammenhengen
sammenhengende
sammenhenger
sammenkobling
sammenlagt
sammenlagtplasseringer
sammenlagtresultat
sammenlign
sammenligne
sammenlignende
sammenligner
sammenlignes
sammenlignet
sammenligning
sammenliknet
sammensatt
sammensatte
sammensetning
sammensetningen
sammensla
sammenslutning
sammenslutningen
sammenstøt
sammenstøtet
sammensvergelse
sammy
samnanger
samoa
samos
samouelle
sampler
samra
samson
samspill
samspillet
samsung
samsvar
samsvarer
samt
samtale
samtalen
samtalene
samtaler
samtid
samtiden
samtidens
samtidig
samtidige
samtidskunst
samtidsmusikk
samtlige
samtykke
samuel
samuelsbok
samuelsen
samveldelekene
samveldet
samvittighet
san
sanatorium
sanchez
sand
sandane
sandar
sandberg
sanddyner
sande
sandefjord
sanden
sander
sanders
sandjegere
sandnes
sandnessjøen
sandra
sands
sandstein
sandvik
sandvika
sandviken
sandvolleyball
sandvolleyballspiller
sandvolleyballspillere
sandwich
sandy
sandøy
sane
sang
sangen
sangene
sangens
sanger
sangere
sangeren
sangerinne
sangerinnen
sangfugler
sangkonkurranse
sangteksten
sangtekster
sank
sanksjoner
sankt
sann
sanne
sannhet
sannheten
sannheter
sannsynlig
sannsynlige
sannsynlighet
sannsynligheten
sannsynligvis
sanremo
sans
sanskrit
sant
santa
santana
santander
santi
santiago
santo
santori
santos
sanvitale
sao
sapiens
sapporo
sar
sara
sarah
sarajevo
sardinia
sargatal
sark
sarpsborg
sars
sas
saskatchewan
satan
satellite
satellitt
satellitten
satellitter
satire
satirisk
satiriske
sato
sats
satse
satsen
satser
satset
satsing
satsingen
satt
satte
saturday
saturn
saturniidae
saturns
satyricon
satyrinae
sau
sauda
saudi
sauer
saul
saunders
saus
savage
savannah
save
savela
savnede
savnet
savoia
savoie
savoy
saw
sawyer
saxo
saxon
say
says
sb
sbs
sc
scala
scale
scalemajor
scandinavia
scandinavian
scania
scaphidium
scaphisoma
scar
scarab
scarabaeidae
scarabaeoidea
scarecrow
scenario
scene
scenekunst
scenen
scenene
scener
scenograf
scenografi
scha
schaeffer
schalke
schall
schanke
schau
schaufuss
schaum
schedule
scheel
scheerpeltz
schellenberg
schenk
schibsted
schiffermu
schiller
schimmel
schirmer
schizofreni
schjelderup
schlesien
schleswig
schloss
schmid
schmidt
schmitt
schneider
scho
school
schools
schou
schreiner
schriften
schro
schu
schubert
schulenberg
schultz
schulz
schulze
schumacher
schumann
schuster
schwaben
schwartz
schwarz
schweiz
schwerin
schøyen
sci
science
sciences
scientific
scientist
scipio
scipione
scopaeus
scopoli
score
scorede
scoret
scoring
scoringer
scotia
scotland
scots
scott
scottish
scotts
scout
scream
screen
scutellum
scydmaenus
sd
se
sea
seahawks
seal
sean
search
sears
seas
season
seasons
seat
seattle
sebastia
sebastian
sec
second
secondary
secret
secretary
secrets
section
security
sed
sedan
sedimenter
sedis
sedler
see
seed
seen
seere
seerne
seertall
sees
seevers
seg
segl
segment
segmenter
segmentet
sei
seier
seiere
seieren
seil
seilas
seilba
seile
seiler
seilere
seilet
seiling
seilskip
seilt
seilte
seim
sein
seine
seinen
seiner
seinere
seinstrumenter
seint
seip
seire
seirende
seirer
seiret
sejersted
sek
sekretariat
sekretariatet
sekretær
seks
seksa
seksjon
seksjonen
seksjoner
seksjonerer
sekskantet
seksten
sekstende
seksti
seksualitet
seksuell
seksuelle
seksuelt
sektor
sektoren
sektorer
sekulær
sekulære
sekund
sekunder
sekunders
sekundær
sekundære
sekvens
sekvensen
sekvenser
sel
selbu
selected
selection
seleksjon
selevkos
self
selge
selger
selges
selje
seljord
selma
selmer
selskab
selskabet
selskap
selskapene
selskaper
selskapet
selskapets
selv
selvbiografi
selvbiografien
selvbiografisk
selvbiografiske
selve
selvforsvar
selvfølgelig
selvmord
selvportrett
selvsagt
selvstendig
selvstendige
selvstendighet
selvstyre
selvstyrt
selvstyrte
sem
semenov
sement
semi
semifinale
semifinalen
semifinalene
semifinaler
seminar
seminarer
seminaret
seminary
semittiske
sen
senat
senate
senatet
senatets
senator
senatoren
senatorer
send
sende
sendebud
sendemann
sender
senderen
sendes
sending
sendingen
sendingene
sendinger
sendt
sendte
sene
seneca
senegal
senere
senest
seneste
seng
sengen
senger
senior
seniorklassen
seniorra
senja
senke
senkes
senket
senmiddelalderen
senna
sens
sense
sensommeren
sensor
sensorer
sensur
sensuren
sensurert
sent
senter
senteret
senterpartiet
senterpartiets
senticaudata
sentral
sentralafrikanske
sentralamerikanske
sentralbank
sentralbanken
sentralbanker
sentralbanksjef
sentralbyra
sentrale
sentralisert
sentralkomite
sentralkomiteen
sentralmaktene
sentralstyre
sentralstyret
sentralt
sentre
sentrert
sentrum
seoul
sep
separasjon
separat
separate
separatutstilling
separatutstillinger
separert
sept
september
ser
serbere
serberne
serbia
serbias
serbisk
serbiske
sere
seremoni
seremoniell
seremonielle
seremonien
seremonier
serena
serenade
serge
sergei
sergej
sergio
serica
serie
seriegull
seriekamp
seriekamper
seriema
seriemester
seriemesterskap
seriemesterskapet
serien
seriene
seriens
serier
serierunde
series
seriespill
seriespillet
seriesystemet
serievinnercupen
seriøs
seriøse
seriøst
serra
sersjant
sertifikat
sertifisert
serum
server
servere
serveres
servering
servert
service
services
serville
ses
sesam
sesjon
sesong
sesonga
sesongartikler
sesongen
sesongene
sesongens
sesonger
sesongoppkjøringen
sesongresultat
sesongslutt
sesongstart
session
sessions
set
sete
setene
seter
seters
setesdal
setet
seth
setning
setningen
setninger
sett
sette
setter
settes
settet
setting
settlement
sevastopol
seven
seventh
severdigheter
severin
severus
sevilla
sex
sexual
sexy
seychellene
seymour
sf
sfondo
sfære
sfærisk
sg
sga
sgt
sh
sha
shaanxi
shackleton
shadow
shadows
shah
shake
shakespeare
shakespeares
shall
shan
shandong
shane
shang
shanghai
shannon
shanxi
sharif
sharon
sharp
sharpe
shaun
shaw
shawn
she
sheet
sheffield
sheikh
sheila
shek
shelby
sheldon
shell
shelley
shelton
shen
shenyang
shenzhen
shepard
shepherd
sheppard
sheridan
sheriff
sherlock
sherman
sherwood
shetland
shetlandsøyene
shi
shield
shields
shift
shin
shine
shining
ship
shipping
ships
shirley
sho
shoemaker
shoes
shoot
shooting
shop
shore
short
shot
should
show
showet
shrewsbury
shu
shuttle
si
sia
siam
sibir
sic
sica
sich
sichuan
sicilia
siculus
sid
sida
side
sideelv
sideelva
sideelvene
sideelver
sidekant
sidekanter
sidelinjen
siden
sidene
sider
sides
sidevei
siding
sidney
sidsel
sidste
sie
siegfried
siemens
siena
sier
sierra
sies
sif
siffer
sifre
sig
sigaretter
sigbjørn
sigdal
sigdformede
sigende
sigismond
sigismund
sigma
sigmund
sign
signal
signalene
signaler
signalet
signatur
signe
signere
signert
signerte
signifikant
signs
sigrid
sigurd
sigurdsson
sigvaldsen
sigvart
sigøynere
sik
sikker
sikkerhet
sikkerheten
sikkerhetsra
sikkert
sikorsky
sikre
sikrer
sikret
sikring
sikt
sikte
sikter
siktet
sild
silence
silent
silfverberg
siljan
silje
silk
silke
silkeborg
silkeveien
silla
silva
silver
silvia
silvio
sim
sima
simen
simeon
similis
simmons
simo
simon
simone
simons
simonsen
simple
simplex
simpson
simpsons
sims
sin
sinai
sinatra
since
sinclair
sind
sinding
sindre
sine
sinfonia
sinfonietta
sing
singapore
singel
singelen
singellisten
singer
singers
singh
singing
single
singlen
singlene
singler
singles
sings
sink
sinn
sinne
sinnet
sino
sinsen
sint
sintef
sinus
sio
sion
sioux
sir
sira
siracusa
sirdal
siri
sirius
sirkel
sirkelen
sirkler
sirkulasjon
sirkulerer
sirkulær
sirkulære
sirkus
sis
sissel
sist
siste
sisteplass
sister
sisters
sistnevnte
sit
sitat
sitater
sitatet
site
siterer
sitert
siterte
sites
sitt
sitte
sittende
sitteplasser
sitter
sittet
situasjon
situasjonen
situasjoner
situation
siv
sivert
sivertsen
sivil
sivilbefolkningen
sivile
sivilingeniør
sivilisasjon
sivilisasjonen
sivilisasjoner
sivilt
siviløkonom
six
sixtus
size
sj
sja
sjakk
sjakkspiller
sjakkspillere
sjalu
sjalusi
sjanger
sjangere
sjangeren
sjangre
sjanse
sjansen
sjanser
sjarmerende
sjef
sjefen
sjefredaktør
sjekke
sjekkliste
sjel
sjelden
sjeldent
sjeldne
sjeldnere
sjelen
sjeler
sjette
sjetteplass
sjo
sjokk
sjokkert
sjokolade
sju
sjuende
sjuendeplass
sjukamp
sjumannsrugby
sjupartialliansen
sjur
sjælland
sjø
sjøen
sjøene
sjøer
sjøfart
sjøfly
sjøfolk
sjøforsvaret
sjøforsvarets
sjøfugl
sjøl
sjømann
sjømenn
sjøs
sjøsatt
sjøslag
sjøslaget
sjøvann
sjøveien
sk
ska
skadd
skadde
skade
skadede
skadedyr
skadelig
skadelige
skaden
skadene
skader
skadet
skaffe
skaffer
skaffet
skaft
skagen
skagerak
skagerrak
skal
skala
skalaen
skalbaggar
skald
skall
skallen
skallet
skam
skandale
skandalen
skandinavia
skandinavisk
skandinaviske
skanse
skansen
skap
skape
skapelsen
skaper
skaperen
skapes
skapning
skapninger
skapt
skapte
skar
skarabider
skard
skarp
skarpe
skarpt
skating
skatt
skatten
skattene
skatter
skatval
skaun
skavlan
ske
skedsmo
skei
skeid
skeie
skeleton
skeletonkjørere
skelleftea
sken
skepsis
skeptisk
skeptiske
ski
skiathlon
skien
skiens
skifer
skiflyging
skiforbund
skiforbundet
skifte
skiftende
skifter
skiftet
skihopp
skihopper
skihoppere
skihopping
skiidrett
skiing
skikk
skikkelig
skikkelse
skikkelsen
skikkelser
skikken
skikker
skiklubb
skikrets
skildrer
skildres
skildret
skildring
skildringer
skille
skiller
skilles
skillet
skilling
skillingsviser
skilsmisse
skilsmissen
skilt
skilte
skiltet
skiløper
skin
skinn
skinnende
skinnene
skinner
skinnet
skip
skipene
skipet
skipets
skipper
skipsbygging
skipsfart
skipsfører
skipsreder
skipsredere
skipsverft
skisenter
skiskyting
skiskytter
skiskyttere
skiskytterforbund
skisma
skisport
skispringens
skisprungschanzen
skisse
skisser
skive
skiven
skiver
skja
skje
skjeberg
skjebne
skjebnen
skjedd
skjedde
skjegg
skjelett
skjelettet
skjell
skjema
skjematisk
skjenket
skjer
skjerm
skjermen
skjermer
skjerpet
skjervøy
skjold
skjoldbillene
skjoldbiller
skjoldet
skjorte
skjorter
skjul
skjule
skjuler
skjult
skjulte
skjær
skjære
skjærer
skjærga
skjønn
skjønne
skjønner
skjønnhet
skjønnheten
skjønnlitteratur
skjønnlitterære
skjønt
skjønte
skjøt
sko
skog
skogbruk
skogen
skogene
skoger
skogforskning
skogn
skogomra
skogsomra
skole
skolea
skolegang
skolekorps
skolekretser
skolemann
skolen
skolene
skolens
skolepengene
skoler
skoles
skolmen
skoltesamisk
skopje
skorgan
skotsk
skotske
skottene
skotter
skottland
skottlands
skra
skram
skranke
skred
skrekk
skrekkfilm
skrekkfilmer
skremme
skremmende
skremt
skrev
skrevet
skrevne
skribent
skribenter
skrift
skriften
skriftene
skrifter
skriftet
skriftlig
skriftlige
skriftspra
skrik
skrinlagt
skritt
skriv
skrive
skrivema
skriver
skrives
skriving
skrog
skroget
skrue
sku
skudd
skudda
skuddene
skuddet
skuespill
skuespiller
skuespillere
skuespilleren
skuespillerinne
skuespillerinnen
skuespillerkarriere
skuespillerne
skuespillet
skuffelse
skuffende
skuffet
skulde
skulder
skulderen
skuldre
skuldrene
skule
skull
skulle
skulptur
skulpturen
skulpturene
skulpturer
skulptør
skulptøren
skuta
skutt
skvadron
skvadronen
skvadroner
sky
skyene
skyer
skygge
skyggebiller
skyggeløpere
skyggen
skygger
skyld
skylden
skyldes
skyldig
skyldige
skyldtes
skyskrapere
skyte
skyter
skytes
skytesport
skyteva
skyting
skytingen
skyts
skytshelgen
skytter
skyttere
skytteren
skytterlag
skyttervesen
skøiteklub
skøyen
skøyteforbund
skøyteklubb
skøyteløper
skøyteløpere
skøyter
skøytesportprosjektet
sl
sla
slag
slagene
slager
slagere
slaget
slagmarken
slagord
slagordet
slags
slagskip
slagskipet
slagverk
slaktet
slala
slam
slange
slangen
slanger
slank
slanke
slapp
slater
slave
slavehandel
slavehandelen
slavene
slaver
slaveri
slaveriet
slavisk
slaviske
sleep
sleeping
sleggekast
sleipner
slekt
slekta
slekten
slektene
slektens
slekter
slektning
slektninger
slektsgruppen
slektshistorisk
slektskap
slektskapet
slektsnavn
slektsnavnet
slektsva
slemmestad
slept
slesvig
slesvigske
slet
slett
sletta
slette
sletten
slettene
sletter
slettet
slick
slide
slidre
slik
slike
slikt
slim
slipp
slippe
slipper
slippes
slitasje
sliter
slitt
slo
sloane
slopestyle
sloss
slott
slottet
slottets
slovakia
slovakias
slovakisk
slovakiske
slovenia
slovenias
slovensk
slovenske
slow
slu
sluppet
slur
sluser
slutt
slutte
slutten
slutter
sluttet
sluttseilt
sluttspill
sluttspillet
sluttstilling
sluttstykket
sløyfe
sm
sma
smaalenenes
smak
smaken
smal
smale
smalere
small
smalt
smart
smash
smed
smell
smellere
smelte
smelter
smeltet
smelteverk
smerte
smerter
smetana
smhi
smil
smile
sminke
smith
smiths
smithsonian
smitte
smittet
smoke
smolensk
sms
smuglet
smund
smuts
smygere
smykker
smykket
smøla
smør
sn
sna
snake
snakk
snakke
snakker
snakkes
snakket
snarere
snart
sne
snegler
snekker
snes
snever
snill
snitt
snl
snooker
snorre
snorres
snow
snu
snudd
snudde
snur
snus
snute
snutebiller
snuten
snyder
snø
snøbrett
snøbrettkjører
snøbrettkjørere
snøen
snøskred
snøstorm
so
soccer
soccerway
sochi
social
socialdemokraterna
socialdemokratiet
socialist
socie
societies
society
socorro
sofia
sofie
sofokles
soft
softball
softballspillere
software
soga
sogn
sogndal
sognefjorden
sognekirke
sognekirken
sogneprest
sognepresten
sognet
sohn
sojuz
sokkel
sokkelen
sokn
sokndal
sokneprest
sokrates
sol
sola
solar
solaris
solbakken
solberg
solbergs
soldat
soldaten
soldatene
soldater
soldier
soldiers
sole
solem
solen
[...]
