!
"
#
##0
##1
##10
##11
##12
##13
##14
##15
##16
##17
##18
##19
##2
##20
##21
##22
##23
##24
##25
##26
##27
##28
##29
##3
##30
##31
##32
##33
##34
##35
##36
##37
##38
##39
##4
##40
##41
##42
##43
##44
##45
##46
##47
##48
##49
##5
##50
##51
##52
##53
##54
##55
##56
##57
##58
##59
##6
##60
##61
##62
##63
##64
##65
##66
##67
##68
##69
##7
##70
##71
##72
##73
##74
##75
##76
##77
##78
##79
##8
##80
##81
##82
##83
##84
##85
##86
##87
##88
##89
##9
##90
##91
##92
##93
##94
##95
##96
##97
##98
##99
$
%
&
'
(
)
*
+
,
-
.
/
0
00
000
001
01
02
03
04
05
06
07
08
09
1
10
100
1000
1002
101
1016
102
103
104
105
1050
106
1066
107
108
1080
109
1093
11
110
1100
111
112
113
1130
114
115
116
117
118
1180
1185
119
1198
12
120
1200
1204
1205
121
122
123
1230
124
125
1250
126
1261
127
128
1282
129
1292
13
130
1300
131
132
1328
133
1330
134
1341
135
1350
136
137
1370
1371
138
139
14
140
1400
141
1415
142
1420
143
1430
144
1440
145
1450
1453
1458
146
1460
1461
147
1470
1471
1475
1479
148
1480
1485
149
1490
1492
1493
1499
15
150
1500
1503
151
1510
1512
1515
1516
1519
152
1520
1521
1525
1526
153
1530
1536
1537
154
1540
1547
155
1550
1555
1558
1559
156
1560
1566
1568
1569
157
1570
1571
1572
1575
1577
158
1580
1583
1585
1588
159
1590
1592
1595
1598
16
160
1600
1603
1604
1605
1606
1609
161
1610
1611
1612
1615
1616
1617
1618
162
1620
1621
1622
1623
1625
1626
1627
1629
163
1630
1632
1635
1638
164
1640
1642
1643
1644
1645
1648
1649
165
1650
1651
1652
1654
1655
1657
1658
1659
166
1660
1661
1664
1665
1666
1667
1669
167
1670
1671
1672
1675
168
1680
1683
1684
1685
1687
1688
1689
169
1690
1697
1699
17
170
1700
1701
1703
1704
1707
1708
171
1710
1711
1713
1714
1715
1717
1718
172
1720
1723
173
1730
1735
1736
174
1740
1741
1745
1748
175
1750
1751
1754
1755
1756
1757
1758
1759
176
1760
1762
1763
1764
1765
1766
1767
1768
1769
177
1770
1771
1772
1773
1774
1775
1776
1777
1778
1779
178
1780
1781
1782
1783
1784
1785
1786
1787
1788
1789
179
1790
1791
1792
1793
1794
1795
1796
1797
1798
1799
18
180
1800
1801
1802
1803
1804
1805
1806
1807
1808
1809
181
1810
1811
1812
1813
1814
1815
1816
1817
1818
1819
182
1820
1821
1822
1823
1824
1825
1826
1827
1828
1829
183
1830
1831
1832
1833
1834
1835
1836
1837
1838
1839
184
1840
1841
1842
1843
1844
1845
1846
1847
1848
1849
185
1850
1851
1852
1853
1854
1855
1856
1857
1858
1859
186
1860
1861
1862
1863
1864
1865
1866
1867
1868
1869
187
1870
1871
1872
1873
1874
1875
1876
1877
1878
1879
188
1880
1881
1882
1883
1884
1885
1886
1887
1888
1889
189
1890
1891
1892
1893
1894
1895
1896
1897
1898
1899
19
190
1900
1901
1902
1903
1904
1905
1906
1907
1908
1909
191
1910
1911
1912
1913
1914
1915
1916
1917
1918
1919
192
1920
1921
1922
1923
1924
1925
1926
1927
1928
1929
193
1930
1931
1932
1933
1934
1935
1936
1937
1938
1939
194
1940
1941
1942
1943
1944
1945
1946
1947
1948
1949
195
1950
1951
1952
1953
1954
1955
1956
1957
1958
1959
196
1960
1961
1962
1963
1964
1965
1966
1967
1968
1969
197
1970
1971
1972
1973
1974
1975
1976
1977
1978
1979
198
1980
1981
1982
1983
1984
1985
1986
1987
1988
1989
199
1990
1991
1992
1993
1994
1995
1996
1997
1998
1999
2
20
200
2000
2001
2002
2003
2004
2005
2006
2007
2008
2009
201
2010
2011
2012
2013
2014
2015
2016
2017
2018
2019
202
2020
2021
2022
2023
203
204
205
206
207
208
209
21
210
211
212
213
214
215
216
217
218
219
22
220
221
222
223
224
225
226
227
228
229
23
230
231
232
233
234
235
236
237
238
239
24
240
241
242
243
244
245
246
247
248
249
25
250
251
252
253
254
255
256
257
258
259
26
260
261
262
263
264
265
266
267
268
269
27
270
271
272
273
274
275
276
277
278
279
28
280
281
282
283
284
285
286
287
288
289
29
290
291
292
293
294
295
296
297
298
299
3
30
300
3000
301
302
303
304
305
306
307
308
309
31
310
311
312
313
314
315
316
317
318
319
32
320
321
322
323
324
325
326
327
328
329
33
330
331
332
333
334
335
336
337
338
339
34
340
341
342
343
344
345
346
3465
347
348
349
35
350
351
352
353
354
355
356
357
358
359
36
360
361
362
363
364
365
366
367
368
369
37
370
371
372
373
374
375
376
377
378
379
38
380
381
382
383
384
385
3852
386
387
388
389
39
390
391
392
393
394
395
396
397
398
399
4
40
400
4000
401
402
403
404
405
406
407
408
409
41
410
411
412
413
414
415
416
417
418
419
42
420
421
422
423
424
425
426
427
428
429
43
430
431
432
433
434
435
436
437
438
439
44
440
441
442
443
444
445
446
447
448
449
45
450
451
452
453
454
455
456
457
458
459
46
460
461
462
463
464
465
466
467
468
469
47
470
471
472
473
474
475
476
477
478
479
48
480
481
482
483
484
485
486
487
488
489
49
490
491
492
493
494
495
496
497
498
499
5
50
500
5000
501
502
503
504
505
506
507
508
509
51
510
511
512
514
515
517
518
519
52
520
521
522
523
524
525
526
527
528
529
53
530
531
532
533
534
535
536
537
538
539
54
540
543
549
55
550
554
555
556
557
558
559
56
560
561
565
568
569
57
570
575
576
579
58
580
581
582
585
587
59
590
591
595
596
598
6
60
600
601
602
603
604
605
606
61
610
611
613
614
615
618
619
62
620
625
626
627
628
63
630
631
632
635
637
638
639
64
640
641
642
645
647
65
650
654
658
66
660
67
670
679
68
680
69
7
70
700
71
710
72
720
73
737
74
740
747
75
750
76
77
78
780
79
790
8
80
800
802
81
82
83
84
840
85
850
86
87
870
88
89
9
90
900
91
911
92
93
94
95
950
96
960
97
975
978
98
99
999
:
;
<
=
>
?
@
\
^
_
`
a
aa
ab
abc
about
abraham
abs
ac
academic
academy
access
accessed
according
account
acid
act
action
active
actor
acute
ad
adam
adams
administration
adolf
advanced
adventures
ae
aegean
af
affairs
afp
africa
african
after
ag
again
against
age
agency
ages
ah
ai
aid
aids
air
airbus
aircraft
airlines
airways
ais
aise
al
alan
alba
albania
albert
albrecht
album
albums
alex
alexander
alfa
alfred
ali
alice
align
all
alla
allen
allgemeine
alliance
allmusic
alpha
als
also
alt
alternative
am
amazon
america
american
among
amor
amsterdam
an
analysis
ancient
and
anderson
andre
andrea
andreas
andrew
android
angel
angeles
angels
anglo
animal
animation
anime
ann
anna
annales
annals
anne
annual
another
ans
ant
anthony
anti
antiquity
antoine
anton
antonio
any
ap
apple
april
ar
archaeological
archaeology
architecture
archive
archived
archives
are
area
arena
arm
armenia
armenian
arms
army
arnold
around
art
arte
arthur
article
articles
artist
artists
arts
as
asia
asian
asp
aspx
assembly
associated
association
astra
asvg
at
atari
athens
atlantia
atlantic
atlas
atm
attack
attica
au
audi
audio
auf
august
aus
austin
australia
australian
austria
author
authority
auto
aux
av
available
avec
aviation
award
awards
away
az
b
ba
baby
bach
back
background
bad
badseed
bafta
baker
balkan
balkans
ball
band
bang
bank
bar
barbara
barber
barcelona
barnes
base
based
basic
basket
basketball
batman
battle
bay
bb
bbc
bc
bd
be
beach
beat
beatles
beautiful
beck
been
before
begin
behind
being
bell
ben
benjamin
benz
ber
berkeley
berlin
bernard
best
beta
better
between
beyond
bf
bi
bible
big
bill
billboard
billy
bin
bio
biographical
biographie
biography
biology
bird
birds
birth
bis
bit
bl
black
blackmore
blackwell
blind
block
blog
blogspot
blood
blu
blue
blues
bmatrix
bmw
bo
board
bob
body
boeing
bon
book
books
border
born
boston
bot
both
bottom
box
boy
boydell
boys
br
break
brian
bridge
brief
brill
britain
britannica
british
bros
brothers
brown
bruce
bu
building
bulgaria
bull
bullet
bulletin
bush
business
but
butler
by
byzantine
byzantium
c
ca
cadillac
california
call
called
cambridge
campaign
campbell
can
canada
canadian
cancer
capital
captain
car
carl
carlo
carlos
carpenter
cas
casa
case
cases
castle
cat
catalogue
category
cathedral
catherine
catholic
cbs
cc
cch
cd
cdot
cdots
ce
cell
census
center
central
centre
centuries
century
certification
cf
cgi
ch
cha
chalk
challenge
champions
championship
change
changes
channel
chapter
charles
charlotte
chart
charts
chch
che
check
chemical
chemistry
chess
chevrolet
chf
chi
chicago
chief
child
children
china
chinese
chisholm
cho
choice
chris
christ
christian
christianity
christmas
christopher
chronicle
church
ci
cia
cinadon
cine
cinema
circle
cit
cite
cities
citroe
city
civil
cl
clarendon
clark
clarke
class
classic
classical
classics
claude
cle
climate
clip
club
cm
cn
cnn
co
coast
coat
coch
code
cohen
col
cold
cole
colin
coll
collection
college
collins
color
columbia
com
come
comes
comics
coming
commentary
commission
committee
common
commons
community
companion
company
complete
complex
computer
con
concept
concert
conference
conflict
congress
connection
conquest
conservation
constantine
constantinople
constitution
contemporary
content
contest
contra
control
cooh
cooper
copy
copyright
core
cornell
corporation
corpus
corvette
cos
costas
could
council
count
countries
country
county
coupe
court
cover
covid
cox
cr
crafts
crash
creative
credits
crete
crime
crisis
critical
critics
cross
crown
crusades
cs
css
ct
cu
cubic
cult
cultural
culture
cum
cup
curios
current
cv
cw
cx
cy
cyp
cyprus
d
da
dada
daily
dame
dan
dance
daniel
dans
daredevil
dark
das
data
database
date
dates
dave
david
davies
davis
dawn
day
days
db
dc
dd
de
dead
death
december
deep
default
degli
dei
del
dell
della
delle
delta
dem
demo
democracy
den
denis
dennis
department
der
des
description
design
destruction
det
details
deutsche
deutschen
development
devil
di
diamond
dictionary
dictionnaire
did
die
dies
different
digital
din
dio
dipa
director
disco
discogs
discovery
disease
disney
display
district
ditions
diu
division
dizionario
dj
djvu
dk
dna
do
doc
doctor
documents
does
dog
doi
domain
don
donald
dos
dot
double
douglas
down
downarrow
dr
dragon
dream
dreams
drive
ds
dt
du
duke
during
dutch
dvd
dx
dynasty
e
eagle
earl
earliest
early
earth
east
eastern
ebu
ec
economic
economics
economy
ed
edge
edinburgh
edit
edited
edition
editions
editor
editors
eds
edu
education
edward
edwards
eetaa
effect
effects
egmontaz
egypt
egyptian
ein
eine
el
elder
election
elections
electric
electronic
elements
elisabeth
elizabeth
em
email
emi
emmy
emperor
empire
en
enciclopedia
encyclopaedia
encyclopedia
encyclopædia
end
energy
engineering
england
english
entertainment
entry
environment
environmental
ep
epic
epsilon
equiv
er
era
eric
ernest
ernst
error
ert
es
esc
esopi
espan
espn
essays
est
et
eta
etc
ethnic
eu
eur
euro
eurobasket
eurocup
euroleague
europa
europe
european
eurovision
eva
evans
event
events
ever
evidence
evil
evolution
ex
example
experience
express
eye
eyes
f
fa
face
facebook
facto
factor
facts
fair
faith
fall
false
fame
families
family
fantasy
far
father
fb
fbi
fc
fch
fda
fe
fear
feat
feature
featuring
february
federal
federation
feel
felix
female
ferdinand
ferrari
festival
ff
fi
fiat
fiba
fiction
field
fifa
figures
file
files
film
films
final
financial
find
fine
fire
first
fischer
five
flag
flash
flight
floyd
flying
fm
fo
focal
focalpoint
folk
fontsize
food
foot
football
for
forbes
force
forces
ford
foreign
forest
forever
form
format
former
formula
fort
forum
found
foundation
four
fourier
fourth
fox
fr
frac
franc
france
francesco
franchise
francis
francisco
francois
frank
frankfurt
franz
fraser
fre
fred
frederick
free
freedom
french
friedel
friedrich
friends
from
front
ft
fu
full
future
g
ga
gabriel
galanis
gallery
game
games
gamma
garden
garin
garlic
gary
gas
gate
gay
gazzetta
gb
ge
gen
gene
genealogy
general
generation
genesis
geoffrey
geographic
geography
georg
george
georges
georgia
geraki
german
germany
geschichte
get
ggia
ghost
gia
gillan
giovanni
girl
girls
giuseppe
give
given
global
globe
glorious
glory
glover
glucken
gmbh
gnu
go
god
gods
gold
golden
gone
good
google
gordon
got
gov
government
gr
grace
graham
grammy
grand
grande
grant
gray
gre
great
greatest
greece
greek
greeks
green
greenwood
greg
gregory
group
groups
grove
gt
gts
gu
guardian
guest
guide
guinea
guitar
gustav
gutenberg
guy
h
ha
had
half
hall
hamilton
hammond
hand
handbook
hans
happy
hard
harold
harper
harris
harrison
harry
harvard
has
hat
have
haven
hc
hcho
hcl
hd
he
head
health
heart
heaven
heavy
height
heinrich
hell
hellas
hellenic
hello
help
hendrix
henri
henry
her
herald
herbert
here
heritage
hermann
hero
heroes
het
hf
hg
hi
high
highway
hill
him
hip
his
histoire
historia
historic
historical
history
hit
hitler
hits
hiv
hl
hms
hno
ho
hoch
holland
hollywood
holocaust
holt
holy
home
homo
honor
hop
hope
hopkins
hot
hotel
house
houshttps
how
howard
hp
hr
hrer
hrsg
htm
html
http
https
hu
hudson
hugh
hughes
hugo
human
hungarian
hungary
hunter
hx
i
ia
iaaf
ian
ibm
ibn
ic
ice
ich
id
identity
if
ig
ii
iii
il
illustrated
im
image
images
imdb
impact
imperial
in
inc
including
independent
index
india
indian
indiana
industrial
industry
info
infobasket
infobox
information
infty
inside
instagram
institut
institute
int
integer
intel
intelligence
inter
interactive
international
internet
interview
into
introduction
io
ios
ip
iphone
ir
iran
ireland
irish
iron
is
isbn
islam
islamic
island
islands
iso
israel
issn
issue
issues
ist
istoria
it
italia
italian
italiana
italy
item
its
iucn
iv
ivan
ix
j
ja
jack
jackson
jacob
jacques
james
jan
jane
january
japan
japanese
java
jay
jazeera
jazz
je
jean
jeep
jersey
jerusalem
jesus
jewish
jews
jim
jimmy
jo
joan
joe
johann
johannes
john
johnny
johnson
jon
jonathan
jones
jordan
jose
joseph
journal
journey
jpg
jpl
jr
jstor
ju
juan
judas
julia
julius
july
june
junior
jure
just
justice
k
ka
kai
kal
kalogeropoulos
kappa
karl
kathimerini
kb
ke
kelly
kennedy
kenneth
kevin
key
kg
ki
kids
kill
kim
king
kingdom
kings
kirby
kiss
kj
klaus
km
kmno
knight
know
knowledge
known
ko
koda
koh
kosovo
ku
kw
l
la
label
lady
lake
lambda
land
lands
landscape
lane
lang
langle
language
languages
large
larousse
las
last
late
later
latin
laura
law
lawrence
lc
ldots
le
leader
league
learning
led
lee
left
legacy
legal
legend
leiden
leipzig
lemur
leo
leonard
leq
les
let
letter
letters
lettres
level
lewis
lexikon
li
lialh
lib
liber
liberty
library
libro
lie
life
liga
light
like
lil
limited
lincoln
line
lines
link
links
linux
lion
list
literature
little
live
lives
living
livre
lix
ll
ller
lloyd
ln
lo
local
location
log
logo
london
long
look
lord
los
lost
louis
louise
love
loves
low
lp
lt
ltd
lu
ludwig
luftwaffe
luis
m
ma
mac
macedonia
macedonian
machine
macmillan
mad
made
madonna
madrid
magazine
magic
mai
maiden
mail
main
maison
major
make
making
man
management
manager
manchester
manga
manoshacker
manual
manuel
many
map
maps
mar
marc
march
marco
marcus
margaret
mari
maria
marie
marine
mario
mark
markellos
market
mars
marshall
marti
martin
marvel
mary
mass
master
masters
match
mathbb
mathbf
mathcal
mathematical
mathematics
mathrm
matrix
matthew
maurice
max
maximus
may
mayer
mb
mbox
mc
md
me
med
media
mediawiki
medical
medicine
medieval
mediterranean
medium
meeting
mega
member
members
memorial
memory
men
mer
mercedes
mercury
message
messier
met
meta
metaboles
metacritic
metal
metallica
metallum
method
metro
metropolitan
meyer
mg
mhz
mi
michael
michel
michigan
microsoft
mid
middle
mike
milan
milano
military
miller
million
min
mind
minerals
mini
minister
ministry
minor
mirror
miss
mission
mit
mix
mk
ml
mm
mo
mobile
mod
mode
model
modern
module
mol
mon
monde
money
monte
montjoie
monuments
moon
moore
more
morgan
morning
morris
moscow
most
mother
motion
moto
motor
motors
mount
mountain
movement
movie
movies
mp
mr
mrna
ms
mtv
mu
murder
murray
muse
museo
museum
music
musical
must
mvp
mw
my
myth
mythology
n
na
nach
nacional
nacl
naf
naftemporiki
nai
name
names
naoh
nasa
nash
nation
national
nationale
nations
nato
natura
natural
nature
naval
navy
nazi
nb
nba
nbc
ncaa
nch
nchen
nd
ne
near
need
nelson
neo
nes
net
netflix
netherlands
network
neue
never
new
news
next
ng
ngc
nh
ni
nicholas
nick
nicol
nicolas
night
nikoslikomitros
nintendo
nissan
nl
nm
no
nobel
nohlen
non
nord
norman
north
northern
norway
norwich
nos
not
note
notes
nov
nova
novel
november
now
nr
ns
nu
nuclear
number
numberempire
numbers
ny
o
object
oc
och
oclc
oct
october
oeis
of
off
office
official
offs
oh
oi
oikmet
oil
ois
ok
old
oliver
olympic
om
omega
on
once
one
onepage
online
only
onsports
op
opel
open
opera
operation
operatorname
opinion
opus
or
orange
orchestra
order
org
organization
origin
original
origins
oro
orthodox
os
osbourne
other
otto
ottoman
ou
our
out
outline
over
overrightarrow
own
oxford
p
pa
pacific
page
pages
paice
painting
palace
palazzo
pan
paolo
paper
papers
par
para
parameter
paramount
paris
park
parliament
part
partial
party
pas
past
patrick
patsi
paul
pc
pd
pdf
pe
peace
pedro
penguin
pennsylvania
people
per
perfect
performance
period
perry
perseus
person
personal
peter
peterson
petit
peugeot
pg
ph
phch
phi
philadelphia
philip
philippe
phillips
philosophy
phoenix
photo
photos
php
physical
physics
pi
piano
picture
pictures
pierre
pieter
pietro
pink
pl
place
plan
planet
plant
play
player
playstation
please
plus
pm
pmid
png
po
poe
poems
poetry
point
poland
pole
police
policy
polish
political
politics
poly
pop
pope
popular
population
por
porsche
port
portal
portrait
portugal
position
post
pour
pov
power
pp
pr
practice
pre
premier
present
president
presidential
press
price
pride
priest
prime
primes
prince
princess
princeton
print
private
prix
prize
pro
problem
proceedings
process
production
productions
profile
program
project
projects
properties
protection
ps
psi
psychology
pt
public
publication
publications
published
publishers
publishing
punk
purple
px
pyraechmes
python
q
quad
quarterly
que
queen
queens
question
qui
r
ra
race
racing
radio
raf
rai
rain
rainbow
ralph
ram
random
range
rangle
raw
ray
raymond
rc
rch
rd
re
read
reading
real
reality
rebel
record
records
rect
red
ref
reference
region
regional
reich
reign
relations
release
religion
religious
remix
renaissance
renault
rene
report
reports
republic
required
res
research
resources
results
retrieved
return
reuters
review
reviews
revised
revolution
revue
rex
rgb
rh
rho
ri
ria
riaa
rich
richard
richardson
right
rightarrow
rights
ring
rio
rise
rising
river
rk
rn
rna
ro
road
rob
robert
roberts
robin
robinson
rock
rocks
roger
roh
role
roll
rolling
rom
roma
roman
rome
romeo
ronald
room
rosa
rose
roses
ross
rotten
round
routledge
row
roy
royal
rs
rsssf
rt
ru
rudolf
rule
rulers
rules
run
runciman
rush
russell
russia
russian
rv
rx
ryan
s
sa
sabbath
sacred
safety
saint
saints
sam
same
samuel
san
santa
sarah
sars
saxon
say
says
sc
scale
schaum
school
science
sciences
scientific
scotland
scott
scottish
scream
screen
sd
se
sea
search
season
seat
sec
second
secret
section
security
see
sega
selected
self
sentragoal
september
sequences
serie
series
server
service
services
set
setton
seven
sex
sh
shadow
she
shift
short
should
show
si
sic
side
sie
siemens
sierra
sigma
sign
sih
silent
silver
simon
simple
sin
since
singer
single
singles
sir
sister
site
sites
six
size
ski
sky
skylax
skyline
small
smart
smith
sn
snow
so
soccer
social
socie
society
socket
software
solo
some
son
song
songs
sonic
sons
sony
soul
sound
soundtrack
source
sources
sous
south
southern
soviet
sp
space
spain
spanish
special
species
speed
spider
spin
spirit
spiros
sport
sports
spring
springer
sputnikmusic
sqrt
square
sr
ss
st
sta
stadium
stage
stammtafeln
stand
standard
stanford
stanley
star
stars
start
state
states
station
statistics
stats
status
steel
stephen
steve
steven
stewart
still
sto
stockholm
stone
stones
stop
store
storia
stories
storm
story
strange
strategy
street
string
structure
sts
stuart
studies
studio
studios
study
stuttgart
style
su
sub
such
sum
summary
summer
sun
sunday
super
support
sur
survey
susan
suv
sv
svg
sweden
swedish
sweet
sydney
symphony
system
systems
t
ta
table
tables
take
tales
talk
tau
taylor
te
team
teams
teau
technical
technology
telegraph
television
template
temple
ten
term
tesla
test
testament
texas
text
texts
tfrac
tg
th
thames
than
that
the
theater
theatre
their
them
then
theory
there
these
thessaloniki
theta
they
thing
things
think
third
this
thomas
thompson
thomson
those
thought
thrash
three
through
thumb
ti
tiger
till
tim
time
times
timothy
tis
title
tna
to
today
tokyo
tom
tomatoes
tome
ton
tony
too
top
toronto
total
tou
tour
tower
town
toy
toyota
tr
track
trade
tradition
train
trans
transfermarkt
translated
translation
travel
tre
tree
triangle
tribune
tribute
triple
true
trust
truth
tt
ttzavaras
tu
tudes
turbo
turkey
turkish
turner
tv
twitter
two
type
u
uefa
uk
ukraine
ulmus
ultimate
un
una
und
under
underground
une
unesco
union
unit
united
universal
universe
university
unix
up
uparrow
upload
upon
upright
urban
url
us
usa
usb
use
used
user
users
using
uss
ut
utc
utm
v
va
vagrand
valley
value
van
var
variety
varphi
ve
vec
venezia
venice
verlag
version
very
vg
vi
via
victor
victoria
vida
video
vie
vienna
view
vii
viii
viking
villa
village
ville
vincent
vinyl
virgin
virginia
virtual
vision
visual
vita
vjsc
vladimir
vo
voice
vol
volkswagen
vols
volume
volumes
volvo
vom
von
vote
voyage
vs
vtb
w
wa
wales
walk
walker
wall
walt
walter
want
war
ward
warner
warren
wars
was
washington
watch
water
waters
way
we
web
website
week
weekly
weir
welcome
well
weplayball
were
werner
west
western
wga
what
when
where
which
white
who
why
width
wien
wiki
wikidata
wikimedia
wikipedia
wikisource
wild
wiley
wilhelm
will
william
williams
wilson
wind
windows
winter
with
within
without
wmf
wo
wolf
wolfgang
woman
women
wood
word
words
work
working
works
workshop
world
would
wp
wrestlemania
wrestling
wright
writing
wu
wwe
www
x
xaris
xbox
xch
xi
xii
xiii
xiv
xoristzatziki
xrightarrow
xv
xvi
xx
y
ya
yahoo
yale
year
years
yo
york
you
young
your
youth
youtube
yu
z
za
zealand
zeppelin
zero
zn
zone
zu
zum
zur
{
|
}
~
¡
£
¦
§
¨
©
ª
«
¬
­
®
°
±
²
³
´
µ
·
¹
º
»
½
¿
×
ı
ł
ƒ
ǁ
ǁǁ
ʰ
ʲ
ʹ
ʻ
ʼ
ʾ
ʿ
ˈ
ː
˙
̀
́
̂
̃
̄
̆
̇
̈
̉
̊
̋
̌
̓
̔
̛
̣
̦
̧
̨
̱
̸
͂
ͅ
͡
͵
΄
α
αα
αβ
αβα
αβαει
αββαει
αβγ
αβγα
αβε
αβεβαιο
αβερο
αβι
αβινιο
αβραα
αγ
αγα
αγαθα
αγαθο
αγαθω
αγαμε
αγαπα
αγαπη
αγαπημε
αγαπητε
αγαπητο
αγαπου
αγαπω
αγγε
αγγει
αγγελι
αγγελικη
αγγελιοφο
αγγελο
αγγι
αγγλ
αγγλι
αγγλικα
αγγλικε
αγγλικη
αγγλικο
αγγλικου
αγγλικω
αγγλο
αγε
αγελα
αγι
αγια
αγιογρα
αγιογραφι
αγιορει
αγιος
αγκα
αγκαλια
αγκυ
αγκω
αγνη
αγνο
αγνοει
αγνοη
αγνοου
αγνοω
αγνω
αγο
αγορα
αγορε
αγορω
αγρα
αγρι
αγρινι
αγριο
αγρο
αγροτικα
αγροτικε
αγροτικη
αγροτικο
αγροτικου
αγροτικω
αγροτω
αγω
αγωγη
αγωγιμο
αγωγο
αγωγου
αγωνι
αγωνιζο
αγωνιστε
αγωνιστει
αγωνιστη
αγωνιστικα
αγωνιστικε
αγωνιστικη
αγωνιστικο
αγωνιστικω
αγωνιστω
αδ
αδα
αδαμα
αδε
αδειοδο
αδειω
αδελαι
αδελφε
αδελφη
αδελφο
αδελφοι
αδελφοποιημε
αδελφου
αδελφω
αδερφε
αδερφη
αδερφο
αδερφου
αδι
αδια
αδιαμφισβη
αδιαφορι
αδιε
αδικαιολο
αδικη
αδικι
αδο
αδρα
αδριανο
αδριανου
αδριατικη
αδυ
αδυναμι
αδυνατου
αε
αει
αεκ
αελ
αεπ
αερι
αερο
αεροδρο
αεροδρομι
αεροδυναμικη
αερολιμε
αεροπλα
αεροπλανοφο
αεροπο
αεροπορι
αεροπορικε
αεροπορικη
αεροπορικο
αεροπορικω
αεροσκα
αεροσκαφω
αεροστα
αετο
αετου
αζ
αζα
αζαν
αζε
αζερμπαι
αζι
αζο
αζτε
αζω
αη
αθ
αθα
αθανα
αθανασι
αθανασια
αθε
αθει
αθη
αθηνα
αθηναι
αθηνω
αθλε
αθλη
αθλημα
αθλητε
αθλητη
αθλητικα
αθλητικε
αθλητικη
αθλητικο
αθλητικοι
αθλητικου
αθλητικω
αθλητισμο
αθλητισμου
αθλητω
αθροι
αθω
αθωο
αθωω
αι
αια
αιγα
αιγαι
αιγι
αιγιαλει
αιγο
αιγυ
αιγυπτι
αιγυπτιακα
αιγυπτιακη
αιγυπτιακο
αιες
αιη
αιθανο
αιθε
αιθι
αιθιοπι
αιθυλο
αικατερι
αιμα
αιμι
αιμορραγι
αιμοσφαιρι
αιμοφο
αινει
αινω
αιο
αιολικη
αις
αισθα
αισθανο
αισθη
αισθητα
αισθητη
αισθητικα
αισθητικη
αισχυ
αιτα
αιτη
αιτι
αιτιολο
αιτιολογι
αιτου
αιτωλοακαρνανι
αιφνι
αιχμα
αιχμαλω
αιχμαλωσι
αιχμαλωτι
αιχμη
αιω
ακ
ακα
ακαδημαι
ακαδημι
ακαδημιω
ακαθα
ακανο
ακαρνανι
ακατα
ακατε
ακατοι
ακε
ακελ
ακεραι
ακεραιο
ακι
ακινη
ακμα
ακμη
ακο
ακοη
ακολου
ακολουθει
ακολουθη
ακολουθι
ακολουθου
ακολουθω
ακον
ακου
ακουιτανι
ακουστικη
ακρα
ακραι
ακρι
ακριβα
ακριβε
ακριβει
ακριβη
ακριβο
ακριβω
ακρο
ακροατη
ακροπο
ακρωτη
ακρωτηρι
ακτε
ακτη
ακτι
ακτιβι
ακτιβιστε
ακτιβιστη
ακτινοβολι
ακτογραμμη
ακτω
ακυ
ακυρω
ακω
αλ
αλα
αλαμπα
αλατιου
αλβανι
αλβανικα
αλβανικη
αλβανικο
αλβανο
αλβανοι
αλβανου
αλβανω
αλβε
αλγεβρικη
αλγερι
αλγο
αλγορι
αλδευ
αλε
αλεξα
αλεξανδρει
αλεξανδρη
αλεξανδρου
αλεξε
αλεξι
αλεπου
αλευ
αλεχα
αλη
αληθε
αληθη
αληθινα
αληθινη
αληθινο
αλι
αλια
αλιει
αλκα
αλκε
αλκη
αλκι
αλκιβια
αλκοο
αλλ
αλλα
αλλαγε
αλλαγη
αλλαγω
αλλεπα
αλλη
αλληγορι
αλληλεγγυ
αλληλεπι
αλληλεπιδρα
αλληλεπιδρου
αλληλογραφι
αλληλουχι
αλλιω
αλλο
αλλοι
αλλοιω
αλλου
αλμα
αλμπε
αλμυρο
αλμυρου
αλο
αλογο
αλουμι
αλουμινι
αλπ
αλσατι
αλτα
αλυσι
αλφα
αλφαβη
αλφαβητικη
αλφο
αλφρε
αλω
αμ
αμα
αμαζο
αμαλι
αμαλια
αμαξοστοιχι
αμαξω
αμαρουσι
αμαρτι
αμβε
αμβο
αμβος
αμβου
αμβρο
αμε
αμεδαι
αμει
αμερικα
αμερικανι
αμερικανικα
αμερικανικε
αμερικανικη
αμερικανικο
αμερικανικου
αμερικανικω
αμερικανο
αμερικανοι
αμερικανου
αμερικανω
αμερικη
αμετα
αμι
αμιγω
αμινοξε
αμμο
αμμοχω
αμμω
αμμωνι
αμνηστι
αμο
αμοιβαι
αμοιβη
αμου
αμπα
αμπε
αμπελοκη
αμπελω
αμπντ
αμπντου
αμπντουλα
αμπου
αμπχαζι
αμυ
αμυνο
αμυντικε
αμυντικη
αμυντικο
αμυντικοι
αμυντικου
αμφι
αμφιβα
αμφιβολι
αμφιθε
αμφιλεγο
αμφιλοχι
αμφισβη
αμφισβητει
αμφισβητη
αμφισβητου
αμφο
αν
ανα
αναβα
αναβαθμι
αναβι
αναβιω
αναβλη
αναβολη
αναγε
αναγεννησιακη
αναγκα
αναγκαι
αναγκαιο
αναγκαστικα
αναγκαστικη
αναγκω
αναγνω
αναγνωρι
αναγνωρισμε
αναγνωριστει
αναγορευ
αναγρα
αναγωγη
αναδει
αναδεικνυ
αναδειχθει
αναδια
αναδιοργα
αναδιοργανω
αναδρομη
αναδρομικη
αναδυ
αναδυο
αναζη
αναζητα
αναζητη
αναζητου
αναζητω
αναθε
αναθεω
αναθεωρη
αναθεωρημε
αναι
αναιμι
αναιρε
αναισθησι
ανακα
ανακαι
ανακαινι
ανακαλυ
ανακαλυφθει
ανακατα
ανακαταλα
ανακατασκευα
ανακατασκευη
ανακατε
ανακατευ
ανακατευθυ
ανακατευθυνση
ανακη
ανακηρυ
ανακηρυχθει
ανακλη
ανακοι
ανακοινω
ανακοπη
ανακου
ανακρι
ανακτη
ανακτο
ανακυ
ανακωχη
αναλα
αναλαμβα
αναλη
αναλλοι
αναλο
αναλογι
αναλογικα
αναλογικη
αναλυ
αναλυτε
αναλυτικα
αναλυτικη
αναλυτικο
αναμε
αναμει
αναμενο
αναμεταξυ
αναμετρη
αναμνη
αναμο
αναμονη
αναμφι
αναμφισβη
ανανε
ανανεω
ανανεωμε
αναξιο
αναπα
αναπαρα
αναπαραγωγη
αναπαραγωγικη
αναπαραστα
αναπαριστα
αναπαριστου
αναπηρι
αναπληρω
αναπληρωματικο
αναπληρωτη
αναπνευστικη
αναπνοη
αναπο
αναπτυ
αναπτυγμε
αναπτυξιακη
αναπτυσσο
αναπτυχθει
αναπτυχθου
αναργυ
αναρρι
αναρτη
αναρχι
αναρωτιε
ανασκα
ανασκαφε
ανασκαφη
ανασκαφω
ανασκο
αναστα
αναστασι
αναστασια
αναστε
αναστη
αναστολε
αναστολει
αναστολη
αναστρε
αναστροφη
ανασυ
ανασυγκρο
αναταραχε
αναταραχη
ανατε
ανατεθει
ανατι
ανατινα
ανατο
ανατολη
ανατολι
ανατολικα
ανατολικε
ανατολικη
ανατολικο
ανατολικου
ανατολικω
ανατομι
ανατρα
ανατρε
ανατροπη
ανατροφη
ανατυ
αναφε
αναφερθει
αναφερο
αναφορα
αναφορε
αναφορικα
αναφορω
αναχω
αναχωρη
αναψυχη
ανγκο
ανδαλουσι
ανδο
ανδρε
ανδρει
ανδρι
ανδρια
ανδρικη
ανδρικο
ανδρικου
ανδρο
ανδρομε
ανδρος
ανδρου
ανδρω
ανδρων
ανε
ανεβα
ανεβαι
ανεγε
ανεμο
ανενεργο
ανεξα
ανεξαρτη
ανεξαρτησι
ανεξε
ανεπα
ανεπαρκη
ανεπι
ανεπιθυ
ανεπιτυχη
ανεπιτυχω
ανεπτυγμε
ανεργι
ανερχο
ανευ
ανευρι
ανεφοδιασμου
ανζου
ανη
ανηλι
ανησυχι
ανησυχου
ανθε
ανθεκτικο
ανθι
ανθολογι
ανθου
ανθρακικο
ανθρακου
ανθρω
ανθρωπι
ανθρωπιστικη
ανθρωπο
ανθρωπολο
ανθρωπολογι
ανι
ανικανο
ανιο
ανισο
ανιχνευ
ανιχνευτη
ανιψια
ανιψιο
ανιψιου
ανν
αννι
αννο
ανο
ανοδικη
ανοι
ανοικοδο
ανοικοδομη
ανοικτα
ανοικτη
ανοικτο
ανοικτου
ανοιχτα
ανοιχτε
ανοιχτη
ανοιχτο
ανοιχτου
ανοσι
ανου
ανοχη
ανρι
αντ
αντα
ανταγωνι
ανταγωνισμο
ανταγωνισμου
ανταγωνιστε
ανταγωνιστη
ανταγωνιστικη
ανταγωνιστικο
ανταλλα
ανταλλαγη
ανταμοιβη
αντανακλα
αντανακλου
ανταπο
ανταποκρι
ανταποκριθει
ανταποκριτη
ανταρκτικη
ανταρσι
ανταρτω
αντε
αντεπι
αντερτε
αντι
αντιβασι
αντιβασιλε
αντιβασιλει
αντιβασιλια
αντιβιοτικα
αντιγο
αντιγρα
αντιγραφη
αντιδιαστολη
αντιδρα
αντιδραστη
αντιδρου
αντιδρω
αντιθε
αντικαθεστωτικο
αντικαθι
αντικαθιστα
αντικαθιστου
αντικαθιστω
αντικατα
αντικαταστα
αντικατασταθει
αντικαταστη
αντικατε
αντικατοπτρι
αντικει
αντικειμε
αντικειμενικη
αντικειμενικο
αντιλαμβα
αντιλαμβανο
αντιλη
αντιληπτη
αντιληπτο
αντιληφθει
αντιμε
αντιμετω
αντιμετωπι
αντιμετωπιστει
αντιο
αντιοχει
αντιπα
αντιπαλο
αντιπαρα
αντιπαραθε
αντιπολι
αντιπρο
αντιπροε
αντιπροσω
αντιπροσωπει
αντιπροσωπευ
αντιπροσωπευτικο
αντιρρη
αντιστα
αντισταθει
αντισταθμι
αντιστασιακη
αντιστασιακο
αντιστε
αντιστοι
αντιστοιχει
αντιστοιχι
αντιστοιχου
αντιστρα
αντιστρε
αντιστρο
αντισυνταγματα
αντισφαι
αντισω
αντιτα
αντιτι
αντιτορπιλικα
αντιτορπιλικο
αντλει
αντλι
αντλου
αντο
αντονε
αντουα
αντουανε
αντοχη
αντρε
αντρω
αντω
αντωνι
αντωνια
ανυ
ανυπο
ανυψω
ανω
ανωμαλι
ανωτα
ανωτε
αξι
αξιο
αξιοθε
αξιολο
αξιολογη
αξιοπιστι
αξιοποι
αξιοποιη
αξιοπρε
αξιοσημει
αξιου
αξιω
αξιωματικο
αξιωματικοι
αξιωματικου
αξιωματικω
αξιωματου
αξο
αο
αου
απ
απα
απαγγε
απαγο
απαγορευ
απαγορευμε
απαγωγη
απαι
απαιτει
απαιτη
απαιτου
απαιτω
απαλλα
απαλλαγη
απαντα
απαντη
απαντου
απαντω
απαρα
απαραι
απαρτι
απαρχε
απαρχη
απασχο
απασχολει
απασχολη
απασχολημε
απασχολου
απε
απεβ
απεβι
απει
απεικο
απεικονι
απειλε
απειλει
απειλη
απειλου
απειλω
απελα
απελευθε
απελευθερω
απελευθερωτικο
απελευθερωτικου
απελπισμε
απεργι
απεριο
απεσταλμε
απετε
απευθει
απευθυ
απευθυνο
απη
απθ
απι
απλα
απλε
απλη
απλο
απλοι
απλοποιημε
απλου
απλω
απο
αποβα
αποβι
αποβιβα
αποβιω
αποβλη
αποβολη
απογει
απογειω
απογο
απογοη
απογοητευ
απογοητευμε
απογρα
απογραφε
απογραφη
αποδε
αποδεδειγμε
αποδει
αποδεικνυ
αποδεικτικα
αποδειχθει
αποδεκτε
αποδεκτη
αποδεκτο
αποδεσμευ
αποδεχθει
αποδι
αποδο
αποδοθει
αποδοτικο
αποδοχη
αποδρα
αποδυνα
αποδυναμω
αποδω
αποελ
αποζημι
αποζημιω
αποθαρρυ
αποθε
αποθεμα
αποθη
αποθηκευ
αποθηκευμε
αποι
αποικι
αποικιακη
αποικιοκρατι
αποικισμο
αποικιω
αποκα
αποκαλει
αποκαλου
αποκαλυ
αποκαλω
αποκατα
αποκαταστα
αποκατασταθει
αποκαταστη
αποκατε
αποκε
αποκεντρωμε
αποκεφαλι
αποκη
αποκηρυ
αποκλει
αποκλεισμο
αποκλεισμου
αποκλειστει
αποκλειστικα
αποκλειστικη
αποκλειστικο
αποκλι
αποκο
αποκορυ
αποκρι
αποκρου
αποκρυ
αποκτα
αποκτη
αποκτου
αποκτω
απολα
απολαμβα
απολαυ
απολιθω
απολιθωμε
απολλο
απολλω
απολλωνι
απολογι
απολογισμο
απολυ
απομα
απομακρυ
απομακρυνθει
απομακρυσμε
απομε
απομει
απομεινα
απομνημονευ
απομο
απομονω
απομονωμε
απονε
απονεμη
απονομη
αποξηραμε
αποπειρα
απορι
απορρε
απορρι
απορριμμα
απορριφθει
απορρο
απορροη
απορροφα
απορροφη
αποσαφη
αποσαφηνι
αποσκοπει
αποσκοπου
αποσπα
αποσπω
αποστα
αποστε
αποστο
αποστολε
αποστολη
αποστολι
αποστολικη
αποστολω
αποσυ
αποσυρθει
αποτε
αποτελε
αποτελει
αποτελεσμα
αποτελεσματικα
αποτελεσματικη
αποτελεσματικο
αποτελου
αποτελω
αποτι
αποτρε
αποτροπη
αποτυ
αποτυγχα
αποτυπω
αποτυχημε
αποτυχι
απουλι
απουσι
απουσια
αποφα
αποφασι
αποφασισμε
αποφασιστει
αποφασιστικα
αποφασιστικη
αποφασιστικο
αποφε
αποφευ
αποφευχθει
αποφοι
αποφυ
αποφυγη
αποφυλα
αποφυλακι
αποχε
αποχη
αποχρω
αποχω
αποχωρει
αποχωρη
αποχωρου
απρι
απριλι
απρο
απροσδιο
απροσδο
απω
απωθη
αρ
αρα
αραβι
αραβικα
αραβικε
αραβικη
αραβικο
αραβικου
αραβικω
αραγωνι
αραμαι
αρβανι
αργα
αργει
αργεντι
αργεντινη
αργεντινο
αργη
αργι
αργο
αργολι
αργοναυ
αργου
αργυ
αργυρα
αργυρο
αργυρου
αρε
αρει
αρετε
αρετη
αρης
αρθου
αρθρι
αρθρο
αρθρογρα
αρθρω
αρι
αρια
αριζο
αριθ
αριθμ
αριθμει
αριθμητικα
αριθμητικη
αριθμο
αριθμοι
αριθμου
αριθμω
αριστει
αριστερα
αριστερη
αριστερο
αριστερου
αριστερω
αριστο
αριστοκρα
αριστοκρατι
αριστοκρατικη
αριστομε
αριστοτε
αριστοτελει
αριστου
αριστοφα
αρκα
αρκαδι
αρκει
αρκετα
αρκετε
αρκετη
αρκετο
αρκετοι
αρκετου
αρκετω
αρκου
αρκτικη
αρκτικο
αρλεμ
αρμα
αρμε
αρμενι
αρμενικα
αρμενικη
αρμενικο
αρμο
αρμοδιο
αρμοδιοτη
αρμονι
αρμονικη
αρμοστη
αρνει
αρνη
αρνηθει
αρνητικα
αρνητικε
αρνητικη
αρνητικο
αρνητικω
αρνου
αρο
αρου
αρουραι
αρπα
αρπαγη
αρπακτικα
αρραβω
αρραβωνια
αρρε
αρρω
αρσε
αρσενικα
αρσενικο
αρσενικου
αρσινο
αρτ
αρτα
αρτε
αρτηρι
αρτηριακη
αρτουα
αρχ
αρχα
αρχαγγε
αρχαι
αρχαιο
αρχαιοελληνικη
αρχαιολο
αρχαιολογι
αρχαιολογικα
αρχαιολογικε
αρχαιολογικη
αρχαιολογικο
αρχαιολογικοι
αρχαιολογικου
αρχαιολογικω
αρχαιοτη
αρχε
αρχει
αρχειοθετη
αρχη
αρχηγει
αρχηγι
αρχηγο
αρχηγοι
αρχηγου
αρχηγω
αρχι
αρχιδου
αρχιεπι
αρχιεπισκο
αρχιεπισκοπη
αρχιερε
αρχικα
αρχικε
αρχικη
αρχικο
αρχικου
αρχικω
αρχιμανδρι
αρχιμη
αρχιπε
αρχιπελα
αρχιστρα
αρχισυντα
αρχιτε
αρχιτεκτο
αρχιτεκτονικα
αρχιτεκτονικε
αρχιτεκτονικη
αρχιτεκτονικο
αρχο
αρχοι
αρχοντικο
αρχος
αρχου
αρχω
αρω
ας
ασα
ασαν
ασαφη
ασβε
ασβεστι
ασβεστο
ασε
ασεν
αση
ασημε
ασης
ασθε
ασθενε
ασθενει
ασθενειω
ασθενη
ασθενου
ασθενω
ασι
ασια
ασιατικε
ασιατικη
ασιατικο
ασιατικου
ασιν
ασκα
ασκει
ασκη
ασκου
ασμα
ασο
ασος
ασπα
ασπασι
ασπι
ασπρο
ασσυ
ασσυρι
αστα
ασταθη
αστε
αστει
αστερι
αστερισμο
αστερισμου
αστεροειδει
αστεροειδη
αστεροειδω
αστεροσκοπει
αστη
αστικα
αστικε
αστικη
αστικο
αστικου
αστικω
αστο
αστρα
αστραπη
αστροναυ
αστρονο
αστρονομι
αστρονομικη
αστυνο
αστυνομι
αστυνομικε
αστυνομικη
αστυνομικο
αστυνομικοι
αστυνομικου
αστυνομικω
ασυ
ασυμβι
ασυνει
ασυνη
ασφα
ασφαλε
ασφαλει
ασφαλη
ασφαλι
ασφαλω
ασχολει
ασχολη
ασχοληθει
ασχοληθου
ασχολι
ασχολου
ατ
ατα
αταλα
αταξι
ατε
ατζε
ατι
ατλα
ατλαντι
ατλαντικο
ατλαντικου
ατλε
ατμο
ατμοσφαιρικη
ατμου
ατο
ατομικα
ατομικε
ατομικη
ατομικο
ατομικοι
ατομικου
ατομικω
ατος
ατρα
ατρικη
ατρο
ατρον
ατρος
ατσα
αττα
αττι
αττικη
αττικο
ατυ
ατυχη
αυ
αυγα
αυγη
αυγο
αυγου
αυγουστι
αυγω
αυθαι
αυθεντι
αυθεντικη
αυθεντικο
αυθο
αυλα
αυλε
αυλη
αυλο
αυλω
αυξα
αυξανο
αυξη
αυξηθει
αυξημε
αυρη
αυστηρα
αυστηρη
αυστηρο
αυστραλι
αυστραλιανη
αυστραλιανο
αυστραλο
αυστρι
αυστριακη
αυστριακο
αυστριακοι
αυστριακου
αυστριακω
αυστροουγγαρι
αυστροουγγρικη
αυτα
αυτε
αυτει
αυτη
αυτι
αυτια
αυτο
αυτοα
αυτοβιογραφι
αυτοδια
αυτοδιοι
αυτοι
αυτοκι
αυτοκινη
αυτοκινητο
αυτοκινητοβιομηχανι
αυτοκινητοδρο
αυτοκρα
αυτοκρατο
αυτοκρατορι
αυτοκρατορικη
αυτοκρατορικο
αυτοκρατορικου
αυτοκτο
αυτοκτονη
αυτοκτονι
αυτομα
αυτονο
αυτονομι
αυτοπεποι
αυτοσχε
αυτου
αυτω
αυχε
αφ
αφα
αφαι
αφαιρε
αφαιρεθει
αφαιρεθου
αφαιρει
αφαιρου
αφαιρω
αφγανιστα
αφε
αφενο
αφεντικο
αφετε
αφετηρι
αφη
αφηγει
αφηγη
αφηγητη
αφηρημε
αφθονι
αφι
αφιε
αφιερω
αφιερωμε
αφκ
αφο
αφομοι
αφορα
αφορμη
αφορου
αφοσι
αφοσιω
αφοσιωμε
αφου
αφρικανικη
αφρικανικο
αφρικη
αφρο
αφροδι
αφτο
αφυ
αφυδα
αχ
αχαι
αχαιω
αχε
αχελω
αχεν
αχιλλε
αχμα
αχμε
αχρη
αψβου
αψι
αψιμαχι
β
βα
βαβυλω
βαβυλωνι
βαγγε
βαγδα
βαγο
βαδι
βαζα
βαζαν
βαζε
βαθε
βαθει
βαθια
βαθμι
βαθμιαι
βαθμο
βαθμοι
βαθμολο
βαθμολογει
βαθμολογι
βαθμολογικη
βαθμολογικο
βαθμολογικου
βαθμου
βαθμω
βαθμων
βαθρο
βαθυ
βαι
βαια
βαιη
βαιναν
βαινε
βαινεν
βαιο
βαιος
βακαλο
βακτη
βακτηρι
βαλ
βαλα
βαλαν
βαλβι
βαλδουι
βαλε
βαλεν
βαλεντι
βαλι
βαλκα
βαλκανι
βαλκανικη
βαλκανικο
βαλκανικοι
βαλκανικου
βαλκανικω
βαλλαν
βαλλε
βαλον
βαλουα
βαλτικη
βαμβα
βαμμε
βαν
βανα
βανδα
βανδαλισμο
βανδαλισμου
βανε
βανκου
βανο
βανος
βανς
βαπτι
βαπτιστη
βαρ
βαρα
βαρβα
βαρβαρο
βαρδα
βαρε
βαρει
βαρελα
βαρθολομαι
βαρι
βαρια
βαριε
βαρκελω
βαρνα
βαρο
βαρου
βαρσοβι
βαρυ
βαρυτικη
βαρω
βαρωνι
βας
βασ
βασα
βασαν
βασανι
βασανιστη
βασε
βαση
βασης
βασι
βασιζο
βασικα
βασικε
βασικη
βασικο
βασικοι
βασικου
βασικω
βασιλα
βασιλε
βασιλει
βασιλεια
βασιλευ
βασιλι
βασιλια
βασιλικα
βασιλικε
βασιλικη
βασιλικο
βασιλικου
βασιλικω
βασιλο
βασιν
βασις
βασισμε
βασμα
βαστα
βατα
βατικανο
βατικανου
βατο
βαυαρι
βαφη
βαφτι
ββα
ββας
ββατο
βγ
βγα
βγαι
βγαινε
βγαλε
βγει
βγη
βγκοροντ
βγουν
βδ
βδο
βδομα
βδομη
βδομο
βδομος
βδου
βε
βεατρι
βεβαι
βεβαιο
βεβαιω
βεγγα
βεζα
βεζας
βεζι
βει
βεια
βειαν
βειας
βεις
βελ
βελα
βελανιδια
βελαντ
βελγι
βελγικη
βελι
βελιγρα
βελιγραδι
βελο
βελου
βελουχιω
βελτι
βελτιω
βελτιωθει
βελτιωμε
βεν
βενε
βενεζουε
βενετι
βενετικη
βενετοι
βενετου
βενετσια
βενετω
βενζι
βενζο
βενιαμι
βενιζε
βενς
βερ
βερα
βεργι
βερε
βερεγγα
βερενι
βερι
βερν
βερνα
βερντε
βερο
βερολι
βερου
βερπουλ
βερς
βερσαλλιω
βερτον
βες
βεσσαραβι
βεστφαλι
βετ
βεται
βετε
βετερα
βευση
βη
βηκαν
βηκε
βημα
βην
βηξε
βηρι
βης
βησαν
βησε
βηση
βησιγο
βητα
βητο
βι
βια
βιαι
βιας
βιασμο
βιαστικα
βιατ
βιβλι
βιβλικη
βιβλιογραφι
βιβλιογραφικε
βιβλιοθη
βιβλιοθηκω
βιβλιοπωλει
βιε
βιες
βιετνα
βιετναμε
βιθυνι
βικε
βικη
βικιθη
βικιπαι
βικιπαιδιστε
βικιπαιδιστη
βικτο
βικτω
βικτωρι
βιλ
βιλα
βιλαε
βιν
βιντ
βιντεοπαιχνι
βιντεοπαιχνιδιω
βιο
βιογρα
βιογραφι
βιογραφικα
βιογραφικο
βιοι
βιολι
βιολο
βιολογι
βιολογικα
βιολογικε
βιολογικη
βιολογικο
βιολογικω
βιολοντσε
βιομη
βιομηχανι
βιομηχανικα
βιομηχανικε
βιομηχανικη
βιομηχανικο
βιομηχανικω
βιοποικιλο
βιος
βιοτεχνι
βιου
βιργι
βιρτζι
βις
βισκο
βιστου
βισυ
βιτα
βιταμι
βιτο
βιτς
βιτσα
βιτσε
βιω
βιων
βιωσιμο
βκ
βλ
βλα
βλαδι
βλαντ
βλαντι
βλαντιμι
βλαχι
βλαχο
βλε
βλεννογο
βλεπαν
βλεπε
βλεψε
βλεψη
βλη
βλημα
βλητα
βλο
βλος
βλου
βνα
βο
βοεβο
βοεβοδα
βοη
βοηθα
βοηθει
βοηθη
βοηθητικα
βοηθητικο
βοηθο
βοηθοι
βοηθου
βοηθω
βοημι
βοημου
βοι
βοια
βοιας
βοιωτι
βολα
βολε
βολη
βολι
βολιβι
βολο
βολος
βολται
βολφ
βολω
βομβα
βομβαρδι
βομβαρδισμο
βομβαρδισμου
βομβαρδιστικα
βομβιστικη
βον
βοναπα
βονιφα
βονται
βονταν
βοντας
βοντι
βοοειδη
βοοειδω
βορ
βορα
βορει
βορειο
βορειοανατολικα
βορειοανατολικη
βορειοανατολικο
βορειοδυτικα
βορειοδυτικη
βορειοδυτικο
βορι
βορρα
βος
βοσκο
βοσνι
βοσπο
βοστω
βοτα
βοτανικη
βοτανικο
βοτανολο
βου
βουδαπε
βουδισμο
βουκουρε
βουκουρεστι
βουλγα
βουλγαρι
βουλγαρικα
βουλγαρικε
βουλγαρικη
βουλγαρικο
βουλγαρικου
βουλευ
βουλευτε
βουλευτη
βουλευτικε
βουλευτικη
βουλευτικω
βουλευτω
βουλη
βουλιαγμε
βουλο
βουλομε
βουλος
βουλω
βουμε
βουν
βουνα
βουνο
βουνου
βουνω
βουρβο
βουργουνδι
βους
βοω
βπ
βρα
βραα
βραβα
βραβει
βραβευ
βραβευμε
βραδια
βραδυ
βραζιλι
βραζιλια
βραι
βρανδεμβου
βρασμου
βραχε
βραχει
βραχι
βραχιο
βραχονησι
βραχυ
βραχυπρο
βραχω
βρε
βρεθει
βρεθου
βρει
βρεις
βρες
βρετα
βρετανι
βρετανικα
βρετανικε
βρετανικη
βρετανικο
βρετανικου
βρετανικω
βρετανο
βρετανοι
βρετανου
βρετανω
βρεφικη
βρη
βρης
βρι
βριν
βριο
βριος
βρισκε
βρισκο
βρο
βρου
βρουν
βροχε
βροχη
βροχο
βροχοπτω
βρυ
βρυξε
βρυξελλω
βρυση
βρυτα
βρω
βρωση
βσκι
βυ
βυζα
βυζαντι
βυζαντινα
βυζαντινε
βυζαντινη
βυζαντινο
βυζαντινοι
βυζαντινου
βυζαντινω
βυθι
βυθισμε
βυθο
βυθου
βυρτεμβε
βω
βωμο
βωμου
βων
βωνα
γ
γα
γαβριη
γαβριηλι
γαγαν
γαγε
γαγεν
γαγον
γαζε
γαζη
γαθα
γαθη
γαθο
γαθοι
γαθου
γαθω
γαι
γαιναν
γαινε
γαιοκτη
γαλα
γαλανο
γαλαξι
γαλαξιω
γαλατα
γαλατασαρα
γαλατι
γαλε
γαλη
γαληνοτα
γαλικι
γαλιλαι
γαλλ
γαλλι
γαλλια
γαλλικα
γαλλικε
γαλλικη
γαλλικο
γαλλικου
γαλλικω
γαλλο
γαλμα
γαμε
γαμη
γαμπρο
γαμπρου
γαν
γανε
γαντα
γαντας
γαντες
γαπα
γαπω
γαρ
γαρα
γαρι
γαρο
γας
γαση
γαυ
γβ
γγα
γγε
γγει
γγειλαν
γγειλε
γγελμα
γγελο
γγελοι
γγελος
γγελου
γγης
γγι
γγια
γγισε
γγιση
γγισης
γγλο
γγλοι
γγλος
γγλου
γγλους
γγλων
γγο
γγος
γγου
γγραμμα
γγραφα
γγραφο
γγροι
γγρος
γγρους
γγρων
γγυ
γγων
γδ
γδοη
γδοο
γε
γεβο
γεγενημε
γεγο
γεγονε
γεγονο
γεγονω
γεγραμμε
γεθο
γεθος
γει
γεια
γειας
γειες
γειν
γειο
γειος
γειρε
γεις
γειτο
γειτονια
γειτονιε
γειτονικα
γειτονικε
γειτονικη
γειτονικο
γειτονικου
γειτονικω
γειων
γελα
γελο
γελοι
γελω
γεμα
γεμι
γεμο
γεμονι
γεμω
γεν
γενα
γενε
γενεα
γενεαλογι
γενεθλι
γενετικα
γενετικε
γενετικη
γενευ
γενη
γενι
γενια
γενιε
γενικα
γενικε
γενικευ
γενικευμε
γενικη
γενικο
γενικοι
γενικου
γενικω
γενν
γεννα
γενναι
γενναιο
γεννη
γεννηθει
γεννημε
γεννιε
γεννω
γενο
γενοκτονι
γενομε
γενορντ
γενουα
γενω
γερ
γερα
γερεβα
γερμ
γερμανι
γερμανικα
γερμανικε
γερμανικη
γερμανικο
γερμανικου
γερμανικω
γερμανο
γερμανοι
γερμανου
γερμανω
γερν
γερο
γερουσι
γερουσιαστε
γερουσιαστη
γερουσιαστω
γερση
γερσης
γες
γεσθαι
γεται
γετε
γετο
γευ
γευμα
γεφυ
γεφυρω
γεω
γεωγρα
γεωγραφι
γεωγραφικα
γεωγραφικε
γεωγραφικη
γεωγραφικο
γεωγραφικου
γεωγραφικω
γεωλο
γεωλογι
γεωλογικη
γεωμετρι
γεωμετρικα
γεωμετρικη
γεωμετρικο
γεωργι
γεωργια
γεωργιανη
γεωργιανο
γεωργικε
γεωργικη
γεωργικω
γεωργου
γη
γηγενει
γηκε
γημα
γην
γηπε
γηπεδου
γηρα
γηραιο
γης
γησα
γησαν
γησε
γηση
γησης
γησι
γησις
γι
για
γιαγια
γιαι
γιαλο
γιαμα
γιαν
γιανγκ
γιαννα
γιαννακο
γιαννιτσω
γιαννο
γιαννου
γιαξ
γιας
γιατι
γιατρο
γιατροι
γιατρου
γιβραλτα
γιγα
γιγαντιαι
γιγνο
γιγνομε
γιγνω
γιε
γιερ
γιες
γιεφ
γιζε
γινα
γιναν
γινας
γινε
γινο
γινομε
γινω
γιο
γιοβα
γιοι
γιολα
γιον
γιορκ
γιορτα
γιορτε
γιορτη
γιος
γιου
γιουβε
γιουγκοσλα
γιουγκοσλαβι
γιουγκοσλαβικη
γιουνα
γιουρο
γιους
γιουσου
γιοχα
γις
γισε
γισσα
γιστα
γιστη
γιστο
γιστον
γιστος
γιστρος
γιω
γιων
γκ
γκα
γκαι
γκαλα
γκαλερι
γκαλι
γκαλου
γκαμπο
γκαμπριε
γκαν
γκαρ
γκαρα
γκαρθι
γκαρντ
γκαρο
γκαρσι
γκας
γκασαν
γκασε
γκαστο
γκε
γκειται
γκελ
γκεν
γκεο
γκερ
γκες
γκεστ
γκεστα
γκη
γκην
γκηπα
γκηπας
γκης
γκι
γκια
γκιν
γκιο
γκιου
γκιπα
γκιπας
γκιπες
γκλα
γκλας
γκλε
γκλεν
γκλημα
γκληση
γκλητο
γκλητος
γκλι
γκλιση
γκλο
γκμουντ
γκμπι
γκνερ
γκνους
γκντανσκ
γκο
γκοβο
γκοι
γκολ
γκολφ
γκον
γκονσα
γκορ
γκορι
γκος
γκου
γκουα
γκουι
γκουρου
γκους
γκρα
γκραν
γκραντ
γκρε
γκρεγκ
γκρεμι
γκρεμπ
γκρι
γκριγκο
γκριν
γκριση
γκρισης
γκρο
γκρου
γκρουπ
γκρουση
γκρουσης
γκυ
γκυος
γκυρα
γκυρας
γκυρη
γκυρτη
γκω
γκωλ
γκων
γλα
γλασκω
γλαυ
γλε
γλη
γλι
γλιτω
γλου
γλυ
γλυκα
γλυκια
γλυκο
γλυκου
γλυκυ
γλυπτα
γλυπτικη
γλυπτο
γλυπτω
γλυτω
γλυφα
γλυφο
γλω
γλωσσα
γλωσση
γλωσσης
γλωσσικα
γλωσσικε
γλωσσικη
γλωσσικο
γλωσσολο
γλωσσολογι
γλωσσω
γμα
γμασι
γμασιν
γματα
γματι
γματος
γνα
γνεσθαι
γνεται
γνη
γνησι
γνο
γνοει
γνοι
γνοια
γνονται
γνος
γνου
γνυται
γνω
γνωρι
γνωριμι
γνωσαν
γνωση
γνωσης
γνωστα
γνωστε
γνωστες
γνωστη
γνωστικη
γνωστικο
γνωστο
γνωστοι
γνωστος
γνωστου
γνωστω
γξει
γξουν
γο
γοδεφρει
γοητει
γοι
γοις
γομεν
γον
γονα
γονε
γονει
γονεν
γονη
γονι
γονιδι
γονιδιω
γονιμο
γονιω
γονο
γονοι
γονος
γονου
γοντα
γονται
γονταν
γοντας
γοντες
γοντο
γοντος
γορα
γοργι
γοργο
γορη
γορο
γορος
γορτυνι
γος
γοτθικη
γοτθικο
γου
γουα
γουαι
γουατεμα
γουδι
γουε
γουι
γουια
γουινε
γουλιε
γουμε
γουν
γουντ
γουο
γουρα
γουρο
γουρος
γους
γουσα
γουσι
γουσιν
γουσταυ
γουστο
γουστος
γουω
γρ
γρα
γραι
γραμ
γραμμα
γραμματε
γραμματει
γραμματευ
γραμματικη
γραμματικο
γραμματο
γραμμε
γραμμη
γραμμικα
γραμμικη
γραμμικο
γραμμο
γραμμω
γρανα
γρανι
γραπτα
γραπται
γραπτε
γραπτη
γραπτο
γραπτω
γρας
γραφα
γραφαν
γραφε
γραφει
γραφειοκρα
γραφειοκρατι
γραφη
γραφι
γραφικα
γραφικη
γραφικο
γραφικω
γραφο
γραφος
γραφτει
γραφω
γραψα
γραψαν
γραψε
γραψεν
γρεβενω
γρενα
γρη
γρηγο
γρηγορι
γρηγοριανο
γρηγορο
γρης
γρι
γρια
γριας
γριο
γριος
γρο
γροιλανδι
γρου
γρυ
γρω
γς
γυ
γυα
γυαλι
γυαλια
γυμνα
γυμνασι
γυμναστη
γυμναστικη
γυμναστικο
γυμνη
γυμνο
γυμνοι
γυναι
γυναικει
γυναικι
γυναικο
γυναικω
γυναικων
γυναιξι
γυνη
γυπτι
γυπτο
γυπτον
γυπτος
γυρα
γυρευ
γυρι
γυρισμα
γυρισμε
γχει
γχες
γχεται
γχη
γχης
γχονται
γχορδα
γχος
γχου
γχουν
γχους
γχρονα
γχρονες
γχρονη
γχρονης
γχρονο
γχρονοι
γχρονος
γχρονου
γχρονους
γχρονων
γχρωμη
γχυση
γχυσης
γχων
γω
γωγα
γωγε
γωγο
γωμεν
γων
γωνα
γωνι
γωνια
γωνιω
γωνο
γωνον
γωνος
γως
δ
δα
δαβι
δαι
δαιμο
δαιμονι
δακρυ
δακτυ
δακτυλι
δαλματι
δαμα
δαμασκηνο
δαμασκο
δαμασκου
δαμε
δαμω
δαν
δανα
δανε
δανει
δανεικο
δανεισμο
δανεισμου
δανι
δανιη
δανικα
δανικη
δανο
δανοι
δαξε
δαπα
δαπανω
δαπε
δαρβι
δαρει
δαρι
δας
δασε
δαση
δασης
δασικε
δασικη
δασκα
δασκε
δασω
δατα
δατι
δατος
δαυι
δαυιδ
δαφος
δαχτυλι
δβ
δε
δεα
δεδομε
δεε
δεη
δει
δεια
δειαν
δειας
δειγμα
δειγματοληψι
δειες
δεικνυ
δειλι
δειλο
δειν
δεινα
δεινη
δεινο
δεινω
δειξαν
δειξε
δειξεν
δειξη
δειξης
δειο
δειος
δεις
δεισο
δεισος
δειχναν
δειχνε
δεκ
δεκα
δεκαε
δεκαεπτα
δεκαετι
δεκαετιω
δεκαοκτω
δεκαπε
δεκατε
δεκατρει
δεκε
δεκεμβρι
δεκτη
δεκτο
δελβε
δεληγια
δελτι
δελφη
δελφι
δελφο
δελφοι
δελφος
δελφου
δελφω
δελχι
δεμα
δεμε
δεμι
δεν
δενι
δενο
δεξα
δεξαμενε
δεξαμενη
δεξι
δεξια
δεξιο
δεξιοτη
δεξιου
δεξιω
δεο
δεομε
δερμα
δες
δεσε
δεσμα
δεσμευ
δεσμευμε
δεσμο
δεσμοι
δεσμου
δεσμω
δεσπο
δεσποινι
δεσποτα
δεσσα
δεσσας
δεται
δετε
δευ
δευαν
δευε
δευσαν
δευσε
δευση
δευσης
δευτε
δευτεραθλητη
δευτερευ
δευτερο
δευτεροβα
δευτερογενει
δευτερογενη
δευτερολε
δεχθει
δεχο
δεχτει
δεχτου
δεψαν
δεψε
δεω
δη
δηκο
δηλ
δηλαδη
δηλητη
δηλητηρι
δηλητηρια
δηλητηριω
δηλοι
δηλον
δηλου
δηλω
δημ
δημα
δημαρα
δημαρχει
δημαρχι
δημη
δημητρα
δημητρι
δημητρια
δημητριακα
δημιου
δημιουργει
δημιουργη
δημιουργηθει
δημιουργηθου
δημιουργημε
δημιουργι
δημιουργικη
δημιουργικο
δημιουργο
δημιουργοι
δημιουργου
δημιουργω
δημο
δημογραφι
δημογραφικα
δημογραφικη
δημοκρα
δημοκρατι
δημοκρατικα
δημοκρατικε
δημοκρατικη
δημοκρατικο
δημοκρατικοι
δημοκρατικου
δημοκρατικω
δημοκρατιω
δημοπρασι
δημος
δημοσθε
δημοσι
δημοσιευ
δημοσιευθει
δημοσιευμε
δημοσιευτει
δημοσιο
δημοσιογρα
δημοσιογραφι
δημοσκο
δημοσκοπη
δημοτικα
δημοτικε
δημοτικη
δημοτικο
δημοτικου
δημοτικω
δημοφιλε
δημοφιλει
δημοφιλη
δημοφιλι
δημοψη
δημοψηφι
δημω
δην
δηνα
δηρο
δηρος
δης
δησαν
δησε
δηση
δησης
δησυ
δι
δια
διαβα
διαβαι
διαβατη
διαβεβαι
διαβεβαιω
διαβη
διαβι
διαβιβα
διαβο
διαβου
διαβουλευ
διαγνω
διαγο
διαγρα
διαγραφε
διαγραφει
διαγραφη
διαγω
διαγωνι
διαγωνιζο
διαγωνισμο
διαγωνισμου
διαδε
διαδεδομε
διαδεχθει
διαδεχο
διαδη
διαδηλω
διαδηλωτε
διαδηλωτω
διαδι
διαδικασι
διαδικασιω
διαδικτυ
διαδικτυακα
διαδικτυακη
διαδικτυακο
διαδο
διαδοχη
διαδοχικα
διαδοχικε
διαδραμα
διαδραματι
διαδρο
διαδρομε
διαδρομη
διαζυ
διαθε
διαθεσιμο
διαθη
διαι
διαιρε
διαιρει
διαιρεμε
διαιρου
διαιτησι
διαιτητε
διαιτητη
διακει
διακεκριμε
διακη
διακηρυ
διακι
διακλα
διακο
διακονι
διακοπε
διακοπει
διακοπη
διακοσι
διακοσμη
διακοσμημε
διακοσμητικα
διακρι
διακριθει
διακριτα
διακριτε
διακριτη
διακριτικα
διακριτικο
διακυ
διακυβε
διακυμα
διαλε
διαλει
διαλεκτικη
διαλο
διαλυ
διαλυθει
διαλυμε
διαμα
διαμαντη
διαμαντο
διαμαρτυ
διαμαρτυρη
διαμαρτυρι
διαμαρτυρο
διαμε
διαμελισμο
διαμερι
διαμεσολα
διαμο
διαμονη
διαμορφω
διαμορφωθει
διαμορφωμε
διανε
διανοητικη
διανοι
διανομη
διανοου
διανυ
διανυσμα
διαπι
διαπιστω
διαπιστωθει
διαπρα
διαπραγμα
διαπραγματευ
διαπραγματευτει
διαρκε
διαρκει
διαρκη
διαρκου
διαρκω
διαρρε
διαρροη
διας
διασημο
διασκε
διασκεδα
διασκευα
διασκευε
διασκευη
διασκορπι
διασπα
διασπορα
διαστα
διασταυ
διασταυρω
διαστη
διαστημικε
διαστημικη
διαστημικο
διαστημικου
διαστημο
διαστολη
διασυ
διασυνδε
διασφα
διασφαλι
διασχι
διασω
διασωθει
διατα
διαταγε
διαταγη
διαταρα
διαταραχε
διαταραχη
διαταραχω
διατε
διατελε
διατεταγμε
διατη
διατηρει
διατηρη
διατηρηθει
διατηρημε
διατηρητε
διατηρου
διατηρω
διατι
διατομη
διατρε
διατρι
διατριβη
διατροφη
διατυ
διατυπω
διατυπωθει
διαυ
διαφα
διαφαι
διαφε
διαφερο
διαφευ
διαφη
διαφημι
διαφθει
διαφθορα
διαφο
διαφορα
διαφορε
διαφορετικα
διαφορετικε
διαφορετικη
διαφορετικο
διαφορετικοι
διαφορετικου
διαφορετικω
διαφορικη
διαφοροποι
διαφοροποιει
διαφοροποιη
διαφορω
διαφυ
διαφυγη
διαφυλα
διαφω
διαφωνει
διαφωνι
διαφωνιω
διαφωνου
διαφωνω
διαφωτισμο
διαφωτισμου
διαχει
διαχειρι
διαχειριστε
διαχειριστη
διαχειριστικη
διαχειριστικω
διαχειριστω
διαχρονικα
διαχωρι
διαχωρισμο
διαχωρισμου
διαψευ
διγενη
διδα
διδακτικη
διδακτικο
διδακτορικη
διδακτορικο
διδαν
διδασκα
διδασκαλι
διδε
διδο
διδου
διδυ
διε
διεγει
διεθνε
διεθνει
διεθνη
διεθνου
διεθνω
διει
διεισδυ
διεκδι
διεκδικει
διεκδικη
διεκδικητη
διεκδικου
διεκο
διενε
διενεργει
διενεργη
διεξα
διεξαγο
διεξαγωγη
διεξαχθει
διεξαχθου
διεξη
διεπαφη
διεργασι
διεργασιω
διερευ
διερευνη
διερμηνε
διερχο
διες
διετε
διετη
διετι
διευ
διευθε
διευθυ
διευθυντε
διευθυντη
διευκο
διευκολυ
διευκρι
διευκρινι
διευρυ
διευρυμε
διεφθαρμε
διζε
διη
διηγει
διηγη
διηγημα
διηγου
διηπειρωτικο
διηυ
διι
δικα
δικαι
δικαιο
δικαιοδοσι
δικαιολογει
δικαιολογη
δικαιολογι
δικαιολογου
δικαιοσυ
δικαιου
δικαιω
δικαιωμα
δικας
δικασται
δικαστε
δικαστη
δικαστηρι
δικαστικε
δικαστικη
δικαστικο
δικαστικου
δικαστικω
δικαστω
δικε
δικει
δικες
δικη
δικηγο
δικι
δικια
δικο
δικοι
δικον
δικος
δικου
δικτα
δικτατορι
δικτος
δικτυ
δικτυακο
δικω
διμερει
διναν
δινε
δινο
διο
διογε
διοι
διοικει
διοικη
διοικητε
διοικητη
διοικητικα
διοικητικε
διοικητικη
διοικητικο
διοικητικου
διοικητικω
διοικου
διοκλητιανο
διομη
διον
διονυ
διονυσι
διοξει
διοξειδι
διοργα
διοργανω
διοργανωτε
διορθω
διορι
διορισμε
διορισμο
διορισμου
διοριστει
διος
διου
διους
διπλα
διπλασι
διπλασια
διπλη
διπλο
διπλοι
διπλου
διπλω
διπλωμα
διπλωματι
διπλωματικε
διπλωματικη
διπλωματικο
διπλωματικω
δις
δισ
δισαν
δισε
δισεκατομμυ
δισεκατομμυρι
δισκοβολι
δισκογραφι
δισκογραφικη
δισμα
διστα
διω
διωγμο
διωγμου
διων
διωξε
δνει
δο
δογμα
δοε
δοθε
δοθει
δοθη
δοι
δοις
δοκει
δοκη
δοκι
δοκιμα
δοκιμασι
δοκιμαστικα
δοκιμαστικη
δοκιμε
δοκιμη
δοκιμι
δοκιμιογρα
δοκιμω
δοκου
δοκω
δολα
δολαρι
δολοφο
δολοφονει
δολοφονη
δολοφονι
δομα
δομε
δομη
δομημε
δομικα
δομικη
δομινι
δομινικανη
δομω
δον
δονα
δονη
δοντα
δονται
δονταν
δοντας
δοντες
δοντιω
δοντο
δοξα
δοξε
δοξεν
δοξες
δοξη
δοξης
δοξο
δοξοι
δοξον
δοξος
δοξου
δοξους
δοξων
δορυφο
δορυφορικη
δος
δοσαν
δοση
δοσης
δοσιν
δοτο
δοτος
δου
δουβλι
δουκα
δουκω
δουλε
δουλει
δουλεια
δουλειε
δουλευ
δουλος
δουν
δους
δουσα
δοχει
δοχο
δοχοι
δοχος
δρ
δρα
δραγου
δρακο
δραμα
δραματικα
δραματικε
δραματικη
δραματικο
δραπε
δραπετευ
δρας
δρασαν
δρασε
δραση
δρασης
δραστη
δραστηριο
δραστηριοποιει
δραστηριοποιη
δραστηριοποιου
δραστηριοτη
δραστικα
δραστικο
δραχμε
δραχμω
δρε
δρες
δρευε
δρευσης
δρι
δρια
δριμυ
δριο
δρο
δρομε
δρομει
δρομη
δρομο
δρομοι
δρομολο
δρομος
δρομου
δρος
δροσια
δρου
δρουν
δρους
δρυ
δρυθει
δρυμα
δρυμο
δρυο
δρυσαν
δρυσε
δρυση
δρυσης
δρω
δρων
δσε
δυ
δυαδικη
δυι
δυμα
δυμο
δυμοι
δυνα
δυναμε
δυναμικα
δυναμικη
δυναμικο
δυναμικου
δυναστει
δυνατα
δυνατε
δυνατη
δυνατο
δυνατοι
δυνατοτη
δυνατου
δυνατω
δυνη
δυνητικα
δυο
δυοι
δυρρα
δυρραχι
δυσα
δυσαρε
δυσαρεστημε
δυση
δυσι
δυσκολευ
δυσκολι
δυσκολο
δυσλειτουργι
δυσπιστι
δυσσε
δυσσευ
δυστυ
δυστυχη
δυστυχι
δυστυχω
δυσφορι
δυσχε
δυτικα
δυτικε
δυτικη
δυτικο
δυτικοι
δυτικου
δυτικω
δω
δωδε
δωδεκα
δωδεκανη
δωδω
δωκα
δωκαν
δωκε
δωκεν
δωλα
δωλο
δωμα
δωματι
δων
δωνα
δωνος
δωρ
δωρεα
δωρεε
δωρη
δωρι
δωριε
δωρο
δωροδοκι
δωροθε
δωρος
δωρου
δωσαν
δωσε
δωση
δωσης
δωσι
δωσιν
ε
εα
εαμ
εαυτο
εαυτου
εβ
εβα
εβδομα
εβδομαδιαι
εβδομη
εβο
εβραι
εγγεγραμμε
εγγονη
εγγονο
εγγρα
εγγραφη
εγγυ
εγγυη
εγε
εγκα
εγκαθι
εγκαθιδρυ
εγκαι
εγκαινι
εγκαινια
εγκατα
εγκαταλει
εγκαταλειφθει
εγκαταλελειμμε
εγκαταστα
εγκατασταθει
εγκατασταθου
εγκαταστη
εγκατε
εγκατεστημε
εγκε
εγκεκριμε
εγκεφα
εγκεφαλικη
εγκεφαλικο
εγκλη
εγκλημα
εγκληματι
εγκληματικη
εγκληματικο
εγκρι
εγκριθει
εγκυ
εγκυκλοπαι
εγκυκλοπαιδικα
εγκυκλοπαιδικη
εγκυκλοπαιδικο
εγκυμοσυ
εγκυρο
εγνατι
εγχει
εγχειρη
εγχειρι
εγχο
εγχω
εγω
εδα
εδαφι
εδαφικε
εδαφικη
εδαφω
εδε
εδες
εδιμβου
εδμο
εδουα
εδρα
εδραι
εδραιω
εδρευ
εδρο
εδροι
εδρος
εδρω
εδω
εε
εεταα
εζ
εζε
εθελοντε
εθελοντη
εθελοντικα
εθελοντικη
εθελοντω
εθι
εθνικα
εθνικε
εθνικη
εθνικισμο
εθνικισμου
εθνικιστε
εθνικιστικη
εθνικιστικο
εθνικο
εθνικοι
εθνικου
εθνικω
εθνο
εθνολογικη
εθνοσυνε
εθνοτικε
εθνοτικη
εθνω
ει
ειδη
ειδι
ειδικα
ειδικε
ειδικευ
ειδικευμε
ειδικη
ειδικο
ειδικοι
ειδικου
ειδικω
ειδοποι
ειδοποιη
ειδω
εικ
εικα
εικασι
εικαστικω
εικο
εικονι
εικονικη
εικονικο
εικονογρα
εικονογραφη
εικονογραφημε
εικονογραφι
εικοστου
ειν
ειναι
ειπω
ειπωθει
ειρη
ειρηνευτικη
ειρηνικα
ειρηνικη
ειρηνικο
ειρηνικου
ειρωνει
εις
εισα
εισαγα
εισαγγελε
εισαγγελι
εισαγο
εισαγωγε
εισαγωγη
εισαχθει
εισβα
εισβολε
εισβολει
εισβολη
εισε
εισερχο
ειση
εισηγη
εισηγητη
εισιτη
εισιτηρι
εισο
εισοδη
εισπρα
εισπρακτικη
εισροη
εκ
εκα
εκατ
εκατε
εκατο
εκατομμυ
εκατομμυρι
εκατοντα
εκατοστα
εκατοστω
εκβα
εκβολε
εκδ
εκδη
εκδηλω
εκδι
εκδικηθει
εκδικητε
εκδιω
εκδο
εκδοθει
εκδοτικη
εκδοτικο
εκδοχε
εκδοχη
εκδω
εκει
εκεχειρι
εκθε
εκθρο
εκθρονι
εκκαθα
εκκαθαρι
εκκε
εκκεντρο
εκκενω
εκκι
εκκλη
εκκλησα
εκκλησι
εκκλησια
εκκλησιαστικα
εκκλησιαστικε
εκκλησιαστικη
εκκλησιαστικο
εκκλησιαστικου
εκκλησιαστικω
εκκλησιω
εκκρι
εκλε
εκλεγει
εκλεγμε
εκλεγο
εκλει
εκλογε
εκλογη
εκλογικα
εκλογικε
εκλογικη
εκλογικο
εκλογικου
εκλογω
εκμα
εκμετα
εκμεταλλευ
εκμεταλλευο
εκμεταλλευτει
εκπαι
εκπαιδευ
εκπαιδευμε
εκπαιδευτη
εκπαιδευτικα
εκπαιδευτικε
εκπαιδευτικη
εκπαιδευτικο
εκπαιδευτικοι
εκπαιδευτικου
εκπαιδευτικω
εκπε
εκπλη
εκπληκτικη
εκπληρω
εκπο
εκπομπε
εκπομπη
εκπομπω
εκπρο
εκπροσω
εκπροσωπει
εκπροσωπη
εκπροσωπου
εκπροσωπω
εκρη
εκρηκτικα
εκστρατει
εκσυγχρονισμο
εκτα
εκτε
εκτεθειμε
εκτει
εκτεινο
εκτελε
εκτελει
εκτελεστει
εκτελεστη
εκτελεστικη
εκτελεστικο
εκτελεστικου
εκτελου
εκτενη
εκτενω
εκτεταμε
εκτι
εκτιμα
εκτιμη
εκτιμου
εκτιμω
εκτο
εκτοξευ
εκτοπι
εκτρε
εκτροπη
εκτροφη
εκτυ
εκτυπω
εκφρα
εκφραστει
εκφω
ελ
ελα
ελαι
ελαιο
ελαιογραφι
ελαιω
ελας
ελασσο
ελαστικα
ελαστικο
ελαστικω
ελαττω
ελαφρα
ελαφρια
ελαφρο
ελαφρυ
ελαφρω
ελβετι
ελβετικη
ελβετικο
ελβετο
ελε
ελεγκτη
ελεγκτικου
ελεγχθει
ελεγχο
ελεονο
ελεονω
ελεου
ελευ
ελευθε
ελευθερι
ελευθεριω
ελευθεροτυπι
ελευθερω
ελευσι
ελεφαντοστου
ελη
ελι
ελια
ελιε
ελικο
ελικοπτε
ελισα
ελλ
ελλα
ελλαδα
ελλαδικο
ελλει
ελλη
ελληνες
ελληνι
ελληνικα
ελληνικε
ελληνικη
ελληνικο
ελληνικοι
ελληνικου
ελληνικω
ελληνισμο
ελληνισμου
ελληνιστικη
ελληνο
ελληνοι
ελληνοκυ
ελληνορθο
ελληνορωμαι
ελονοσι
ελπι
ελσι
ελυ
εμ
εμα
εμβαδο
εμβε
εμβλη
εμβο
εμβολι
εμβολιασμο
εμβολιασμου
εμε
εμει
εμι
εμιρα
εμμανουη
εμμονη
εμπ
εμπα
εμπειρι
εμπειρογνω
εμπεριε
εμπι
εμπιστευ
εμπιστοσυ
εμπλακει
εμπλε
εμπλεκο
εμπλοκη
εμπλουτι
εμπλουτισμο
εμπνε
εμπνευ
εμπνευσμε
εμπο
εμποδι
εμπορευ
εμπορευμα
εμπορι
εμπορικα
εμπορικε
εμπορικη
εμπορικο
εμπορικου
εμπορικω
εμπρο
εμφα
εμφανε
εμφανη
εμφανι
εμφανιζο
εμφανιστει
εμφανιστου
εμφανω
εμφυ
εμφυλι
εν
ενα
εναε
εναλλ
εναλλα
εναλλαγη
εναλλακτικα
εναλλακτικε
εναλλακτικη
εναλλακτικο
εναλλασσο
εναντι
εναπο
εναπομει
εναρκτη
ενας
ενασχο
ενδε
ενδει
ενδεικτικα
ενδεικτικη
ενδεικτικο
ενδεκα
ενδεχο
ενδεχομε
ενδια
ενδιαφε
ενδιαφερο
ενδο
ενδοφλε
ενδοχω
ενδυ
ενδυμα
ενδυμασι
ενε
ενεπλα
ενεργα
ενεργει
ενεργειακη
ενεργειω
ενεργη
ενεργητικη
ενεργητικο
ενεργο
ενεργοι
ενεργοποι
ενεργοποιει
ενεργοποιη
ενεργου
ενεργω
ενετικη
ενετοκρατι
ενζυ
ενη
ενηλι
ενηλικι
ενημε
ενημερω
ενημερωμε
ενθα
ενθαρρυ
ενθουσιασμο
ενθουσιω
ενι
ενιαι
ενικο
ενισχυ
ενισχυμε
εννε
εννια
εννοει
εννοιω
εννοου
εννοω
ενο
ενοικι
ενοποι
ενοποιημε
ενορι
ενοριακο
ενορχη
ενοχη
ενοχλει
ενρι
ενσα
ενσαρκω
ενστα
ενσωμα
ενσωματω
ενσωματωθει
ενσωματωμε
εντ
εντα
εντατικη
ενταφια
ενταχθει
ενταχθου
εντε
εντελω
εντι
εντο
εντολε
εντολη
εντολω
εντονο
εντοπι
εντοπισμο
εντοπιστει
εντου
εντουα
εντροπι
εντυ
εντυπω
εντυπωσια
εντυπωσιακα
εντυπωσιακη
εντυπωσιακο
ενω
ενωθει
ενωθου
ενωμε
εξ
εξα
εξαγο
εξαγορα
εξαγωγε
εξαγωγη
εξαδε
εξαι
εξαιρε
εξαιρετικα
εξαιρετικε
εξαιρετικη
εξαιρετικο
εξαιτι
εξακολου
εξακολουθει
εξακολουθου
εξαλει
εξαναγκα
εξαπε
εξαπλω
εξαπλωθει
εξαπολυ
εξαρτα
εξαρτη
εξαρτημε
εξαρτω
εξαρχη
εξασθε
εξασφα
εξασφαλι
εξαφα
εξαφανι
εξαφανισμε
εξαφανιστει
εξε
εξεγε
εξεγερμε
εξειδι
εξειδικευμε
εξελε
εξελι
εξελιγμε
εξελικτικη
εξελιχθει
εξερευ
εξερευνη
εξερευνητε
εξερευνητη
εξερρα
εξετα
εξη
εξηγει
εξηγη
εξηγου
εξηγω
εξι
εξισω
εξο
εξοντω
εξοπλι
εξοπλισμε
εξοπλισμο
εξοπλισμου
εξοργι
εξοργισμε
εξορι
εξορυ
εξουδετε
εξουδετερω
εξουσι
εξουσιοδο
εξουσιω
εξοχη
εξπρε
εξυ
εξυπηρε
εξυπηρετει
εξυπηρετη
εξυπηρετου
εξω
εξωγη
εξωτερικα
εξωτερικε
εξωτερικη
εξωτερικο
εξωτερικοι
εξωτερικου
εξωτερικω
εο
εοκ
εοκα
εορτα
εορτασμο
εορτασμου
εορτε
εορτη
επ
επα
επαγγε
επαγγελματι
επαγγελματικα
επαγγελματικε
επαγγελματικη
επαγγελματικο
επαγγελματικου
επαγγελματικω
επαγγελματιω
επαγωγη
επαι
επακο
επαλη
επαληθευ
επαληθευσιμο
επαμεινω
επανα
επανακυκλοφο
επαναλα
επαναλαμβα
επαναλαμβανο
επαναλειτουργι
επαναλη
επαναληπτικο
επαναστα
επαναστατημε
επαναστατικε
επαναστατικη
επαναστατικο
επαναστατικου
επαναστατω
επαναφε
επαναφορα
επανδρωμε
επανε
επανειλημμε
επανεκδο
επανεκλε
επανεκλογη
επανεμφανι
επανενω
επανεξε
επανεξελε
επανη
επανι
επανιδρυ
επαρκει
επαρκη
επαρκω
επαρχι
επαρχιακη
επαρχιακο
επαρχιω
επαφε
επαφη
επε
επεδι
επει
επειδη
επεισο
επεισοδι
επεκτα
επεκταθει
επεκτει
επελε
επεμβα
επενδυ
επενδυτε
επεξεργα
επεξεργασι
επεξεργασιω
επεξεργασμε
επεξεργαστε
επεξεργαστει
επεξεργαστη
επερχο
επετει
επετηρι
επετρα
επη
επηρε
επηρεα
επηρεασμε
επηρεαστει
επι
επιβα
επιβαι
επιβαρυ
επιβατω
επιβεβαι
επιβεβαιω
επιβεβαιωθει
επιβεβαιωμε
επιβι
επιβιβα
επιβιω
επιβλε
επιβλη
επιβληθει
επιβλητικο
επιβολη
επιβρα
επιβραδυ
επιγρα
επιγραφε
επιγραφη
επιδαυ
επιδε
επιδει
επιδεικνυ
επιδεινω
επιδημι
επιδι
επιδιω
επιδο
επιδρα
επιδρομε
επιδρομη
επιδρομω
επιζη
επιζω
επιθε
επιθετικη
επιθετικο
επιθετικοι
επιθετικου
επιθεω
επιθεωρη
επιθεωρημε
επιθεωρητη
επιθυμει
επιθυμητη
επιθυμητο
επιθυμι
επιθυμου
επιθυμω
επικα
επικαιρο
επικαλου
επικαλυ
επικει
επικεντρω
επικεντρωθει
επικεφαλη
επικεφαλι
επικη
επικι
επικο
επικοινωνη
επικοινωνι
επικοινωνιω
επικοινωνου
επικρα
επικρατε
επικρατει
επικρατη
επικρατου
επικρατω
επικρι
επικριτε
επικυ
επικυριαρχι
επικυρω
επιλαχω
επιλε
επιλεγει
επιλεγμε
επιληψι
επιλογε
επιλογη
επιλυ
επιμ
επιμε
επιμελη
επιμελητη
επιμελητηρι
επιμη
επιμονη
επινο
επινοη
επιπε
επιπλε
επιπλοκε
επιπρο
επιπροσθε
επιπτω
επιρροε
επιρροη
επιση
επισημα
επισημαι
επισκε
επισκεπτο
επισκεπτω
επισκευα
επισκευε
επισκευη
επισκεφθει
επισκεφτει
επισκο
επισκοπε
επισκοπη
επισκοπικη
επισκοπικο
επιστα
επιστη
επιστημο
επιστημονικα
επιστημονικε
επιστημονικη
επιστημονικο
επιστημονικου
επιστημονικω
επιστημω
επιστολε
επιστολη
επιστολω
επιστρα
επιστρε
επιστροφη
επιτα
επιταχυ
επιτε
επιτεθει
επιτεθου
επιτελει
επιτευ
επιτευχθει
επιτη
επιτι
επιτιθε
επιτο
επιτομη
επιτρα
επιτραπε
επιτραπει
επιτρε
επιτρεπο
επιτρο
επιτροπε
επιτροπη
επιτροπω
επιτυ
επιτυγχα
επιτυχη
επιτυχημε
επιτυχι
επιτυχιω
επιτυχω
επιφα
επιφανει
επιφανειακη
επιφανη
επιφε
επιφυ
επιφυλα
επιχει
επιχειρει
επιχειρη
επιχειρηματι
επιχειρηματικη
επιχειρηματικο
επιχειρησιακη
επιχειρου
επλη
επο
εποι
επομε
επονομαζο
εποπτει
εποπτευ
εποχε
εποχη
εποχω
επρο
επς
επσα
επτα
επτανη
επω
επωνυμι
επωφελη
ερ
ερα
ερασιτε
ερασιτεχνικη
ερασιτεχνικο
ερασιτεχνω
εραστε
εραστη
εργα
εργαζο
εργαζομε
εργαλει
εργασι
εργασιω
εργαστει
εργαστη
εργαστηρι
εργαστου
εργατικη
εργατικο
εργατικου
εργατικω
εργατω
εργε
εργεσι
εργη
εργο
εργογραφι
εργοδο
εργοστα
εργοστασι
εργοτε
ερε
ερεθι
ερει
ερειπωμε
ερευ
ερευνα
ερευνη
ερευνητε
ερευνητη
ερευνητικα
ερευνητικε
ερευνητικη
ερευνητικο
ερευνητικου
ερευνητικω
ερευνητω
ερευνω
ερζεγοβι
ερη
ερημι
ερι
ερμη
ερμηνει
ερμηνευ
ερμηνευτη
ερμιο
ερμου
ερνα
ερνε
ερνστ
ερο
εροσολυ
ερου
ερουσαλη
ερπετα
ερρι
ερριε
ερς
ερτ
ερυθρα
ερυθραι
ερυθρο
ερυθρου
ερυθρω
ερυμα
ερχο
ερχομο
ερω
ερωμε
ερωτευ
ερωτευμε
ερωτη
ερωτικα
ερωτικε
ερωτικη
ερωτικο
ες
εσ
εσα
εσαν
εσε
εσει
εση
εσης
εσθαι
εσθονι
εσθονικη
εσκα
εσκεμμε
εσο
εσπερα
εσπερι
εσσδ
εστ
εστα
εστε
εστι
εστια
εστιατο
εσυ
εσφαλμε
εσχα
εσω
εσωτερικα
εσωτερικε
εσωτερικη
εσωτερικο
εσωτερικου
εσωτερικω
ετ
ετα
εται
εταιρει
εταιρειω
εταιρι
εταιρικη
εταιριω
ετε
ετερο
ετεροθαλη
ετη
ετησι
ετι
ετιε
ετικε
ετο
ετοι
ετοιμα
ετοιμο
ετου
ετσι
ετυμολογι
ετω
ευ
ευα
ευαγγε
ευαγγελι
ευαγγελικη
ευαγγελισμο
ευαγγελισμου
ευαγγελιστη
ευαι
ευαισθησι
ευαισθητοποι
ευανθι
ευβοι
ευγε
ευγενει
ευγενη
ευγενι
ευγενικη
ευγενικο
ευγενου
ευγενω
ευγνωμοσυ
ευδια
ευδοκι
ευε
ευελιξι
ευελπι
ευεργε
ευημερι
ευθανασι
ευθει
ευθυ
ευθυμι
ευκαιρι
ευκλει
ευκολι
ευκολο
ευλογι
ευλογια
ευμα
ευμε
ευνο
ευνοει
ευνοι
ευνοου
ευνου
ευο
ευπρο
ευρασι
ευρε
ευρει
ευρεσιτεχνι
ευρετη
ευρη
ευρημα
ευρι
ευριπι
ευρισκο
ευρυ
ευρυδι
ευρυτανι
ευρω
ευρωβουλευτε
ευρωβουλευτη
ευρωεκλογε
ευρωζω
ευρωλι
ευρωμπα
ευρωπαι
ευσαν
ευσε
ευσεβη
ευση
ευσης
ευστα
ευτυχη
ευτυχι
ευτυχισμε
ευτυχω
ευφρα
ευφυι
ευχα
ευχαρι
ευχαριστη
ευχαριστημε
ευχαριστι
ευχαριστω
ευχε
ευχη
εφ
εφα
εφαρμο
εφαρμογε
εφαρμογη
εφαρμογω
εφαρμοσμε
εφαρμοστει
εφε
εφεδρει
εφετει
εφευ
εφευρε
εφη
εφηβει
εφηβικη
εφημ
εφημε
εφημερι
εφηυ
εφια
εφικτη
εφικτο
εφο
εφοδια
εφοδιασμε
εφοδιασμου
εφοπλιστη
εφορει
εφτα
εχει
εχθρικα
εχθρικε
εχθρικη
εχθρικο
εχθρο
εχθροι
εχθροπραξι
εχθροπραξιω
εχθρου
εχθρω
εω
εως
ζ
ζα
ζαγορι
ζαι
ζακ
ζακυ
ζαμε
ζαμπε
ζαμπεθ
ζαν
ζανε
ζανζιβα
ζαρ
ζαρο
ζαρος
ζας
ζαχα
ζαχαρι
ζαχαρια
ζαχαρο
ζβελτ
ζε
ζει
ζειν
ζεις
ζελ
ζελε
ζεν
ζενι
ζερ
ζερα
ζερμε
ζες
ζεσαι
ζεσθαι
ζεστα
ζεστε
ζεστο
ζεται
ζετε
ζετο
ζευ
ζευγα
ζευγαριου
ζευγαρω
ζεφ
ζη
ζηλανδι
ζημι
ζημια
ζημιε
ζημιω
ζης
ζησαν
ζησε
ζητα
ζητει
ζητη
ζητηθει
ζητημα
ζητου
ζητω
ζι
ζια
ζιας
ζικα
ζικαλ
ζικη
ζικης
ζικο
ζιλ
ζιμπα
ζιο
ζιον
ζναν
ζνι
ζο
ζογλου
ζοζε
ζοι
ζομαι
ζομεν
ζον
ζονα
ζονος
ζοντα
ζονται
ζονταν
ζοντας
ζοντες
ζοντο
ζοντος
ζος
ζου
ζουα
ζουμε
ζουν
ζουνε
ζους
ζουσα
ζουσαν
ζουσες
ζουσι
ζουσιν
ζυ
ζυγι
ζυγο
ζυγοι
ζυγος
ζυγου
ζυλ
ζυρα
ζυρι
ζω
ζωα
ζωγρα
ζωγραφι
ζωγραφικη
ζωγραφισμε
ζωε
ζωη
ζων
ζωνται
ζωντανα
ζωντανε
ζωντανη
ζωντανο
ζωντανοι
ζωντανου
ζωντανω
ζωνω
ζωοδο
ζωολογι
ζωολογικο
ζωρζ
ζωτικη
ζωτικο
ζωτο
η
ηβ
ηγε
ηγει
ηγεμο
ηγεμονι
ηγεσι
ηγετικη
ηγετικο
ηγετω
ηγη
ηγου
ηγουμε
ηγουμενι
ηθε
ηθικα
ηθικε
ηθικη
ηθικο
ηθοποιο
ηθοποιοι
ηθοποιου
ηθοποιω
ηκαν
ηκε
ηκεν
ηλ
ηλε
ηλει
ηλεκτρικα
ηλεκτρικε
ηλεκτρικη
ηλεκτρικο
ηλεκτρικου
ηλεκτρικω
ηλεκτρο
ηλεκτροκι
ηλεκτρολο
ηλεκτρομαγνητικη
ηλεκτρονι
ηλεκτρονικα
ηλεκτρονικε
ηλεκτρονικη
ηλεκτρονικο
ηλεκτρονικου
ηλεκτρονικω
ηλι
ηλια
ηλιακη
ηλιακο
ηλιακου
ηλικι
ηλικιακη
ηλικιω
ηλικιωμε
ηλιο
ηλιου
ηλυσιακο
ημα
ημαθι
ημε
ημερη
ημερησι
ημερι
ημερολο
ημερολογι
ημερομηνι
ημερω
ημι
ημιζωη
ημιορεινο
ημισυντακτικο
ημισφαι
ημιτελικα
ημιτελικη
ημιτελικο
ημιτελικοι
ημιτελικου
ημω
ην
ηνι
ηνωμε
ηπα
ηπατι
ηπατικη
ηπει
ηπειρω
ηπειρωτικη
ηπειρωτικο
ηπστγ
ηρα
ηρακλει
ηρακλη
ηρεμι
ηρο
ηροδο
ηρω
ηρωι
ηρωικη
ης
ησα
ησαι
ησαν
ησε
ησεν
ηση
ησης
ησι
ησιν
ησις
ησον
ησου
ησυχι
ητα
ηται
ηταν
ητη
ητο
ητον
ητος
ηττη
ηττηθει
ηττημε
ηυ
ηφαι
ηφαιστει
ηφαιστειακη
ηχητικα
ηχο
ηχογρα
ηχογραφη
ηχογραφημε
ηχω
θ
θα
θαινε
θαλα
θαλψη
θαλψης
θαμμε
θαν
θανα
θαναν
θανατηφο
θανατικη
θανατω
θανε
θανεν
θανο
θαρ
θαρα
θαρη
θαρο
θαρρει
θαρρω
θαρση
θας
θατε
θαυ
θαυμα
θαυμασμο
θαυμαστε
θαυμαστη
θαυμαστο
θε
θεα
θεαι
θεασα
θεατε
θεατη
θεατρικα
θεατρικε
θεατρικη
θεατρικο
θεατρικοι
θεατρικου
θεατρικω
θεατω
θεε
θει
θεια
θειαν
θειας
θειε
θειες
θειικο
θειικου
θειο
θειου
θειρξη
θεις
θελα
θελαν
θελε
θελεν
θελη
θελον
θελρεντ
θεμα
θεματικη
θεματικο
θεματολογι
θεμε
θεμελι
θεμελιω
θεμιστοκλη
θεν
θενται
θεντο
θεο
θεοβα
θεοδο
θεοδοσι
θεοδω
θεοδωρα
θεοδωρι
θεοι
θεολο
θεολογι
θεολογικη
θεος
θεοτη
θεοτο
θεου
θεοφα
θεοχα
θερα
θεραπει
θεραπευ
θεραπευτικη
θερες
θερη
θερης
θερι
θερινη
θερινο
θερινοι
θερινου
θερινω
θερμα
θερμαι
θερμη
θερμι
θερμικη
θερμο
θερμοδυναμικη
θερμοκηπι
θερμοκρασι
θερμου
θερμω
θερο
θεροι
θερον
θερος
θερου
θερους
θερων
θες
θεσα
θεσαν
θεσε
θεση
θεσης
θεσθαι
θεσι
θεσιν
θεσις
θεσμα
θεσμη
θεσμο
θεσμοι
θεσμου
θεσμω
θεσπι
θεσπρωτι
θεσσαλι
θεσσαλονι
θετα
θεται
θεταν
θετε
θετες
θετη
θετικα
θετικε
θετικη
θετικο
θετικω
θετο
θετοι
θετος
θεω
θεωρει
θεωρη
θεωρηθει
θεωρηθου
θεωρητικα
θεωρητικη
θεωρητικο
θεωρι
θεωριω
θεωρου
θεωρω
θη
θηβαι
θηβω
θηκα
θηκαν
θηκε
θηκεν
θηλα
θηλαστικα
θηλαστικω
θηλε
θηλυκα
θηλυκο
θηλυκου
θημα
θην
θηνα
θηναι
θηνω
θηρα
θηρεσι
θηρι
θης
θησα
θησαν
θησαυρο
θησαυροι
θησαυρου
θησαυροφυλα
θησε
θηση
θησης
θησιν
θητει
θι
θια
θιβε
θιζε
θιμα
θιμο
θιο
θιος
θιου
θις
θισε
θιση
θισμα
θιστα
θιστη
θιστο
θλημα
θλι
θλια
θλιψη
θλου
θλους
θλων
θμευσης
θμη
θμης
θμηση
θμησης
θμια
θμιας
θμισε
θμιση
θμισης
θμου
θμων
θνη
θνησιμο
θνητο
θνος
θνους
θνω
θο
θοδο
θοδοι
θοδος
θοδωρη
θοι
θοις
θον
θονται
θονταν
θορυ
θος
θου
θουκυδι
θουν
θουριγγι
θους
θουσα
θουσας
θουσες
θρα
θρασυ
θραυ
θρε
θρες
θρη
θρησκει
θρησκειω
θρησκευμα
θρησκευτικα
θρησκευτικε
θρησκευτικη
θρησκευτικο
θρησκευτικου
θρησκευτικω
θρι
θρια
θριν
θριο
θρο
θροι
θροισμα
θρου
θρυ
θρυλικο
θρων
θυ
θυγα
θυγατε
θυγατρικη
θυγατρο
θυμα
θυμη
θυμι
θυμνο
θυμο
θυμοι
θυμος
θυμου
θυμω
θυμωμε
θυνε
θυνη
θυνο
θυνοι
θυνος
θυνση
θυνσης
θυρα
θυρεο
θυρι
θυρο
θυρω
θυσι
θυσια
θυσιαστη
θω
θωμα
θων
θωνα
θωνος
θωρα
θωρακισμε
θωρηκτο
θως
ι
ια
ιακω
ιακωβι
ιαν
ιανουα
ιανουαρι
ιαπωνι
ιαπωνικα
ιαπωνικε
ιαπωνικη
ιαπωνικο
ιαπωνικου
ιατρει
ιατρικα
ιατρικε
ιατρικη
ιατρικο
ιατρικου
ιατρικω
ιατρο
ιατροι
ιατρου
ιβ
ιβα
ιβεν
ιβηρι
ιβηρικη
ιβιντ
ιβις
ιβρε
ιγ
ιγκο
ιγνα
ιδ
ιδα
ιδανικα
ιδανικη
ιδανικο
ιδε
ιδεολογι
ιδεολογικη
ιδεω
ιδι
ιδια
ιδιαι
ιδιαιτε
ιδιαιτερο
ιδιο
ιδιοκτη
ιδιοκτησι
ιδιοτη
ιδιω
ιδιωτικα
ιδιωτικε
ιδιωτικη
ιδιωτικο
ιδιωτικου
ιδιωτικω
ιδου
ιδρυ
ιδρυθει
ιδρυμα
ιδρυτε
ιδρυτη
ιδρυτικα
ιδρυτικο
ιε
ιερ
ιερα
ιεραπο
ιεραρχι
ιερε
ιερει
ιερεμι
ιερη
ιερο
ιεροκη
ιερομο
ιεροσο
ιεροσολυ
ιερου
ιερουσαλη
ιερουσαλημ
ιερω
ιεχωβα
ιζ
ιζαμπε
ιζερ
ιζη
ιζμπολ
ιη
ιησου
ιησουι
ιθ
ιθα
ιθαγε
ιθαγενει
ιθαγενη
ιθαγενω
ιι
ιιι
ικ
ικα
ικανα
ικανη
ικανο
ικανοι
ικανοποι
ικανοποιει
ικανοποιη
ικανοποιημε
ικανοποιητικη
ικανοποιου
ικανοτη
ικαρι
ικε
ικερ
ικερς
ικλ
ικο
ικον
ικων
ιλ
ιλα
ιλαντ
ιλερ
ιλι
ιλια
ιλινο
ιλλυρι
ιλντ
ιλο
ιλορ
ιλς
ιμ
ιμα
ιμαν
ιμε
ιμερ
ιμες
ιμη
ιμης
ιμι
ιμο
ιμον
ιμοντ
ιμος
ιμπν
ιμπουργκ
ιμπραη
ιμπριτζ
ιμς
ιν
ινα
ιναλ
ινδι
ινδια
ινδικη
ινδικο
ινδικου
ινδιω
ινδο
ινδοευρωπαι
ινδοι
ινδονησι
ινδου
ινε
ινερ
ινη
ινι
ιννοκε
ινο
ινριχ
ινς
ινσουλι
ινστιτου
ιντ
ιντα
ιντεν
ιντερ
ιντερτο
ιντζερς
ιντια
ιντς
ιντσω
ινφα
ινω
ιο
ιοι
ιον
ιονι
ιορδα
ιορδανι
ιος
ιου
ιουδα
ιουδαι
ιουλι
ιουλιανο
ιουνι
ιουστι
ιουστινιανο
ιουστινιανου
ιπ
ιπερ
ιππασι
ιππε
ιππει
ιππικο
ιππικου
ιππο
ιπποκρα
ιπποτω
ιπτα
ιρ
ιρα
ιρανικη
ιρες
ιρι
ιρλανδι
ιρλανδικη
ιρλανδο
ιρο
ις
ισα
ισαα
ισαβε
ισημερινη
ισημερινο
ισημερινου
ισι
ισλα
ισλαμικη
ισλαμικο
ισλαμικου
ισλανδι
ισμαη
ισο
ισοβα
ισοβαθμι
ισοδυ
ισοδυναμει
ισοδυναμι
ισομερη
ισον
ισοπαλι
ισορροπι
ισοτιμι
ισου
ισοφα
ισοφαρι
ισπανι
ισπανικα
ισπανικε
ισπανικη
ισπανικο
ισπανικου
ισπανικω
ισπανο
ισπανοι
ισπανου
ισπανω
ισραη
ισραηλ
ισραηλινη
ισραηλινο
ισραηλινου
ιστ
ιστιοπλοι
ιστιοφο
ιστο
ιστολο
ιστορι
ιστορια
ιστορικα
ιστορικε
ιστορικη
ιστορικο
ιστορικοι
ιστορικου
ιστορικω
ιστοριογραφι
ιστοριω
ιστοσ
ιστοσελι
ιστου
ιστοχω
ιστω
ισχυ
ισχυρα
ισχυρε
ισχυρη
ισχυρι
ισχυριζο
ισχυρισμο
ισχυρισμοι
ισχυρισμου
ισχυρο
ισχυροι
ισχυρου
ισχυρω
ιτ
ιτα
ιταλ
ιταλι
ιταλικα
ιταλικε
ιταλικη
ιταλικο
ιταλικου
ιταλικω
ιταλο
ιταλοι
ιταλου
ιταλω
ιτε
ιτεντ
ιτερ
ιτζ
ιτον
ιτς
ιτσελ
ιφ
ιφιγε
ιχ
ιχθυ
ιω
ιωα
ιωακει
ιωαννι
ιωνα
ιωνι
ιωνικο
ιωνικου
ιωση
ιωσηφι
κ
κα
καβα
καβαλα
καβου
καγια
καγκελα
καγκελαρι
καδ
καδε
καε
καζα
καζακστα
καζαντζα
καζε
καζι
καζιμι
καθ
καθα
καθαι
καθαιρε
καθαρα
καθαρευ
καθαρη
καθαρι
καθαρισμο
καθαρισμου
καθαρο
καθαρου
καθαρω
καθε
καθεδρικο
καθεδρικου
καθει
καθεμι
καθεμια
καθεν
καθενο
καθεστω
καθευ
καθη
καθηγη
καθηγητε
καθηγητη
καθηγητω
καθηκο
καθημερινα
καθημερινε
καθημερινη
καθημερινο
καθι
καθιε
καθιερω
καθιερωθει
καθιερωμε
καθισμε
καθιστα
καθιστου
καθιστω
καθο
καθοδη
καθοδηγου
καθολικα
καθολικε
καθολικη
καθολικισμο
καθολικο
καθολικοι
καθολικου
καθολικω
καθομιλουμε
καθορι
καθορισμε
καθορισμο
καθοριστει
καθοριστικη
καθοριστικο
καθρε
καθυστε
καθυστερη
καθυστερημε
καθω
και
καια
καιας
καιη
καινα
καινη
καινο
καινοτο
καινοτομι
καινου
καιο
καιοι
καιον
καιος
καιρικε
καιρο
καιροι
καιρου
καιρω
καισα
καισαρει
καισαριανη
κακα
κακε
κακη
κακι
κακο
κακοη
κακοι
κακοποι
κακου
κακω
καλ
καλα
καλαβρι
καλαβρυ
καλαθοσφαι
καλαθοσφαιρι
καλαθοσφαιρικω
καλαθοσφαιριστε
καλαθοσφαιριστη
καλαι
καλαμα
καλαμαρια
καλαμπα
καλαμπο
καλβαντο
καλε
καλει
καλεσμε
καλη
καλημε
καλησπε
καλι
καλιγου
καλιφο
καλκου
καλλε
καλλι
καλλιε
καλλιεργει
καλλιεργη
καλλιεργου
καλλιθε
καλλικρα
καλλιο
καλλιτε
καλλιτεχνικα
καλλιτεχνικε
καλλιτεχνικη
καλλιτεχνικο
καλλιτεχνικου
καλλιτεχνικω
καλλιτεχνω
καλλονη
καλο
καλογερο
καλοι
καλοκαι
καλοκαιρινη
καλοκαιρινου
καλοκαιριου
καλοσυ
καλου
καλουμε
καλυ
καλυμμε
καλω
καλωδι
καμα
καμβα
καμε
καμεν
καμερου
καμη
καμι
καμια
καμμι
καμμια
καμπα
καμπαναριο
καμπανι
καμπε
καμπη
καμπι
καμπο
καμπος
καμπου
καμπυ
καμψη
καν
κανα
καναδα
καναδικη
καναδικο
καναδο
καναδοι
καναλιου
καναλιω
καναν
κανε
κανει
κανελλο
κανενο
κανες
κανη
καννω
κανο
κανοι
κανονι
κανονικα
κανονικε
κανονικη
κανονικο
κανονικου
κανονισμο
κανονισμοι
κανονισμου
κανονισμω
κανος
κανου
καντα
καντακουζηνο
καντε
καντι
καντο
κανω
καου
καπ
καπα
καπε
καπετα
καπετιδω
καπι
καπιταλισμο
καπνι
καπνο
καπνου
καπο
καποδι
καποδιστριακο
καποδιστριακου
καππαδοκι
καρ
καρα
καραβα
καραβι
καραγια
καραι
καρακα
καραμανλη
καραμπα
καρατζα
καρβε
καρδι
καρδια
καρδιακη
καρδιακο
καρδινα
καρδιναλι
καρε
καρι
καριε
καρινθι
καρκι
καρλ
καρλο
καρλομα
καρμα
καρνα
καρναβα
καρο
καρολι
καρολιδω
καρος
καρου
καρπα
καρπαθι
καρπο
καρποι
καρπου
καρπω
καρρα
καρτ
καρτε
καρυ
καρυα
καρχαρι
καρχηδο
καρχηδονι
κας
κασα
κασε
κασι
κασιν
κασλ
κασο
κασπι
κασσα
κασσι
καστ
καστα
καστανιω
καστε
καστι
καστλ
καστον
καστορια
καστος
καστρι
καστρο
κατ
κατα
καταβα
καταβολη
καταγγε
καταγγελι
καταγεγραμμε
καταγο
καταγρα
καταγραφε
καταγραφει
καταγραφη
καταγωγη
καταδεικνυ
καταδι
καταδικα
καταδικασμε
καταδικαστει
καταδιω
καταδρομικο
καταδυ
καταθε
καταιγι
κατακο
κατακρατου
κατακρι
κατακτα
κατακτη
κατακτητε
κατακτητη
κατακτου
κατακτω
καταλα
καταλαβαι
καταλαμβα
καταλανικα
καταλανικη
καταλει
καταλη
καταληφθει
καταλληλο
καταλο
καταλονι
καταλυ
καταλυτικη
καταμε
κατανα
καταναγκαστικη
καταναλω
καταναλωτε
καταναλωτη
καταναλωτω
κατανε
κατανεμημε
κατανο
κατανοη
κατανοητη
κατανοητο
κατανομη
καταξιωμε
καταπε
καταπι
καταπνι
καταπολε
καταραμε
καταργει
καταργη
καταργηθει
καταργου
καταρρα
καταρρε
καταρρευ
καταρρι
καταρτι
καταρχη
κατασκευ
κατασκευα
κατασκευασμε
κατασκευαστε
κατασκευαστει
κατασκευαστη
κατασκευαστω
κατασκευε
κατασκευη
κατασκευω
κατασκη
κατασκο
κατασκοπει
καταστα
καταστατικο
καταστατικου
καταστει
καταστη
καταστημα
καταστολη
καταστρα
καταστραφει
καταστρε
καταστροφε
καταστροφη
καταστροφικε
καταστροφικη
καταστροφικο
καταστροφω
καταστρω
κατασχε
κατατα
καταφε
καταφευ
καταφθα
καταφυ
καταχρη
καταχω
καταχωρη
κατε
κατεβα
κατεβαι
κατεδα
κατεδαφι
κατει
κατελη
κατεπει
κατεργασι
κατερι
κατεσκευ
κατεστραμμε
κατετα
κατευ
κατευθει
κατευθυ
κατευθυνο
κατευθυντη
κατεχο
κατη
κατηγο
κατηγορει
κατηγορη
κατηγορηθει
κατηγορι
κατηγοριοποι
κατηγοριοποιου
κατηγοριω
κατηγορου
κατηγορουμε
κατηγορω
κατι
κατιο
κατο
κατοι
κατοικει
κατοικη
κατοικημε
κατοικι
κατοικιω
κατοικου
κατορθω
κατος
κατου
κατοχη
κατοχυ
κατοχυρω
κατρα
κατσαρο
κατσι
κατω
καυ
καυκα
καυσι
καφε
καφενει
καφετε
καψαν
καψε
κβ
κβα
κβαντικη
κβαση
κδ
κδοση
κδοσης
κδοσις
κδοτα
κε
κει
κεια
κειμε
κειμη
κειν
κεινται
κειο
κεις
κειται
κειτο
κεκτημε
κελα
κελευ
κελι
κελια
κελσι
κελτικη
κελυ
κεμα
κεμπε
κεν
κενα
κενε
κενη
κενο
κενου
κεντ
κεντα
κενταυ
κεντρικα
κεντρικε
κεντρικη
κεντρικο
κεντρικου
κεντρικω
κεντρο
κεντρω
κενω
κερ
κερα
κεραι
κεραμι
κεραμικα
κεραμικη
κερατσινι
κεραυνο
κεραυνου
κερδι
κερδισμε
κερδω
κερε
κερι
κερκι
κερκυ
κερκυραι
κερυ
κες
κετ
κεται
κετο
κετς
κευ
κευση
κευσης
κεφ
κεφα
κεφαλα
κεφαλαι
κεφαλαιον
κεφαλε
κεφαλη
κεφαλι
κεφαλιου
κεφαλληνι
κεφαλλονια
κεφαλο
κεφαλονια
κη
κηδει
κηδεμο
κηδεμονι
κηδευ
κηλι
κημα
κην
κηρυ
κηρυχθει
κης
κησαν
κησε
κησεν
κηση
κησης
κησιν
κητα
κητες
κητη
κητο
κηφισια
κθεση
κθεσης
κι
κια
κιβω
κιβωτο
κιε
κιθ
κιθα
κιθαρι
κικε
κιλα
κιλι
κιλικι
κιλκι
κιλω
κιμ
κιμο
κιν
κινα
κινγκ
κινγκς
κινδυ
κινδυνευ
κινε
κινεζικα
κινεζικη
κινεζικο
κινει
κινη
κινηθει
κινηθου
κινημα
κινηματογρα
κινηματογραφικα
κινηματογραφικε
κινηματογραφικη
κινηματογραφικο
κινηματογραφικω
κινητα
κινητη
κινητικη
κινητικο
κινητο
κινητοποι
κινητοποιη
κινητω
κινου
κινουμε
κιο
κιοι
κιον
κιονο
κιος
κιου
κιργιζι
κις
κισε
κιση
κισης
κισσα
κισσας
κισσες
κιστα
κιτς
κκα
κκας
κκε
κκινα
κκινες
κκινη
κκινο
κκινος
κκινου
κκληση
κκλησι
κκο
κκος
κκου
κκους
κκριση
κλ
κλα
κλαδια
κλαι
κλαμπ
κλαντ
κλαρκ
κλας
κλαση
κλασικα
κλασικε
κλασικη
κλασικο
κλασικου
κλασικω
κλασσικη
κλασσικο
κλαυ
κλαυδι
κλε
κλεα
κλει
κλεια
κλειας
κλειδι
κλειδια
κλειδω
κλειδωμε
κλεινι
κλειο
κλεισαν
κλεισε
κλεισθε
κλεισμε
κλεισου
κλειστα
κλειστη
κλειστο
κλειστου
κλειψη
κλεο
κλεομε
κλεοπα
κλερ
κλες
κλεψε
κλεψι
κλη
κληθει
κληρα
κληρες
κληρη
κληρης
κληρι
κληρικο
κληρικοι
κληρικου
κληρικω
κληρο
κληροδο
κληρονο
κληρονομη
κληρονομι
κληρονομια
κληρονομικη
κληρονομικο
κληρος
κληρου
κληρω
κληση
κλησης
κλι
κλικ
κλιμα
κλιματικη
κλιν
κλινικα
κλινικε
κλινικη
κλιο
κλιπ
κλιση
κλιτη
κλο
κλοι
κλον
κλοντ
κλοπη
κλος
κλου
κλουμπ
κλους
κλπ
κλυ
κλω
κλωμα
κλων
κλωντ
κλωση
κλωστου
κμα
κμαν
κμασε
κμη
κνα
κνη
κνι
κνο
κνον
κνου
κνυε
κνυται
κνων
κνωση
κο
κοα
κοβα
κοβιτς
κογκρε
κογλου
κοδο
κοδομη
κοε
κοζα
κοη
κοι
κοιλα
κοιλι
κοιλια
κοιλιακη
κοιλο
κοιμα
κοιμη
κοιμητη
κοινα
κοινε
κοινη
κοινο
κοινοβου
κοινοβουλευτικε
κοινοβουλευτικη
κοινοβουλευτικο
κοινοβουλι
κοινοι
κοινοπολιτει
κοινοπραξι
κοινοτα
κοινοτη
κοινοτικη
κοινοτικο
κοινου
κοινω
κοινωνι
κοινωνικα
κοινωνικε
κοινωνικη
κοινωνικο
κοινωνικου
κοινωνικω
κοινωνιολο
κοινωνιολογι
κοις
κοιτα
κοιτω
κοκ
κοκαι
κοκκι
κοκκινια
κολ
κολα
κολας
κολε
κολεγι
κολη
κολι
κολλα
κολλε
κολλεγι
κολλη
κολλο
κολο
κολοκοτρω
κολομβι
κολορα
κολου
κολυ
κολυμβητη
κολω
κολωνι
κομα
κομη
κομητει
κομι
κομιτατζη
κομμα
κομματικη
κομματιου
κομματιω
κομμε
κομμουνισμο
κομμουνισμου
κομμουνιστε
κομμουνιστη
κομμουνιστικη
κομμουνιστικο
κομμουνιστικου
κομμουνιστω
κομνηνη
κομνηνο
κομνηνου
κομνηνω
κομο
κομοτηνη
κομπ
κομψο
κον
κονγκ
κονγκο
κονδυ
κονε
κονι
κονο
κονος
κονσο
κονσταντι
κοντα
κονται
κονταν
κοντας
κοντε
κοντες
κοντι
κοντινα
κοντινε
κοντινη
κοντινο
κοντο
κοντος
κοντσε
κοντω
κοξ
κοοι
κοπ
κοπα
κοπε
κοπεγχα
κοπη
κορα
κοραη
κορασι
κορδε
κορε
κορεα
κορεατικη
κορεσμε
κορι
κορινθι
κοριτσιω
κορμι
κορμο
κορμου
κορνε
κορνη
κορνουα
κορο
κοροι
κορονοι
κορρα
κορσικη
κορυ
κορυδαλλου
κορυτσα
κορυφαι
κορυφε
κορυφη
κορυφω
κορω
κορωνοι
κος
κοσι
κοσμα
κοσμει
κοσμη
κοσμικη
κοσμικο
κοσμο
κοσμου
κοσσυφοπε
κοσσυφοπεδι
κοστι
κοστου
κοτα
κοτο
κου
κουα
κουαρτε
κουβα
κουβε
κουε
κουελ
κουζι
κουι
κουκ
κουκου
κουκουβα
κουλου
κουλτου
κουμα
κουμε
κουμπα
κουμπι
κουν
κουνα
κουνε
κουνια
κουντουριω
κουο
κουρα
κουρασμε
κουρδιστα
κουρε
κουρι
κουρμπε
κουρος
κουρου
κουρσκ
κουρτ
κουρτι
κους
κουσα
κουσαν
κουσε
κουσεν
κουσι
κουτα
κουτι
κουτια
κουφο
κοφ
κοψαν
κοψε
κοψι
κπε
κπληξη
κρα
κρακοβι
κραν
κρανι
κρας
κρασι
κρασιου
κρατα
κρατει
κρατες
κρατη
κρατι
κρατιδι
κρατικα
κρατικε
κρατικη
κρατικο
κρατικου
κρατικω
κρατου
κρατουμε
κρατω
κραυγη
κρε
κρεβα
κρει
κρεμα
κρεμλι
κρεμμυ
κρεμο
κρες
κρη
κρηξη
κρηξης
κρητικη
κρητικο
κρητικου
κρητω
κρι
κριβε
κριβω
κριθα
κριθει
κριμαι
κριναν
κρινε
κριο
κρις
κριση
κρισης
κρισιν
κριστι
κριστια
κριστο
κριτε
κριτη
κριτηρι
κριτικα
κριτικε
κριτικη
κριτικο
κριτικοι
κριτικου
κριτικω
κριτο
κριτος
κρο
κροα
κροατι
κροατικα
κροατικη
κροατικο
κροατω
κροι
κροκο
κρον
κροπο
κρος
κρου
κρουζ
κρουσε
κρουσμα
κρουστα
κρυ
κρυα
κρυμμε
κρυνε
κρυνση
κρυπτογρα
κρυστα
κρυφα
κρυφη
κρυφο
κρυψη
κρων
κρως
κς
κσον
κτα
κται
κτακτες
κτακτη
κτακτης
κτας
κταση
κτασης
κτε
κτει
κτειναν
κτεινε
κτες
κτη
κτημα
κτηνοτρο
κτηνοτροφι
κτηρι
κτης
κτησαν
κτησε
κτηση
κτησης
κτητο
κτι
κτια
κτιβ
κτιες
κτικατ
κτιο
κτιρι
κτισαν
κτισε
κτισμα
κτισμε
κτλ
κτο
κτον
κτονα
κτονας
κτονες
κτορ
κτορα
κτορας
κτορες
κτορο
κτος
κτοτε
κτου
κτους
κτρα
κτρια
κτυ
κτυα
κτυλα
κτυο
κτυπο
κτω
κτων
κτωρ
κτως
κυ
κυα
κυανο
κυβε
κυβερνα
κυβερνει
κυβερνη
κυβερνητικα
κυβερνητικε
κυβερνητικη
κυβερνητικο
κυβερνητικου
κυβερνητικω
κυβερνου
κυβερνω
κυβικα
κυδωνι
κυθη
κυκλα
κυκλικη
κυκλικο
κυκλοπροπα
κυκλοφο
κυκλοφορει
κυκλοφορη
κυκλοφορι
κυκλοφορου
κυκλω
κυλι
κυμα
κυμαι
κυνη
κυνηγα
κυνηγη
κυνηγιου
κυνηγο
κυνηγοι
κυνηγου
κυνηγω
κυνθο
κυνθος
κυνο
κυνουρι
κυπαρι
κυπαρισσι
κυπε
κυπελλου
κυπρι
κυπριακη
κυπριακο
κυπριακου
κυπριανου
κυπτε
κυρ
κυρα
κυρη
κυρηναι
κυρι
κυρια
κυριακα
κυριακη
κυριακι
κυριαρχει
κυριαρχη
κυριαρχι
κυριαρχου
κυριευ
κυριλλικα
κυριο
κυριολεκτικα
κυριω
κυρω
κυττα
κυτταρικη
κυψαν
κυψε
κφ
κφραση
κφρασης
κω
κωβο
κωβος
κωβου
κωδικο
κωδικοποι
κωδικου
κωλε
κωλυ
κωμα
κωμικε
κωμικη
κωμικο
κωμο
κωμοπο
κωμω
κωμωδι
κων
κωνοφο
κωνστα
κωνσταντα
κωνσταντι
κωνσταντινι
κωνσταντινου
κωνσταντινουπο
κωπηλα
κωπηλασι
κως
κωσε
κωση
κωστα
κωστη
λ
λα
λαβα
λαβαν
λαβε
λαβει
λαβεν
λαβη
λαβο
λαβον
λαβου
λαβυ
λαβω
λαγα
λαγγα
λαγκα
λαγκαδα
λαγο
λαγος
λαγου
λαδι
λαδο
λαε
λαζα
λαζαρι
λαθλοι
λαι
λαια
λαιμο
λαιμου
λαινα
λαιο
λαιον
λαις
λακ
λακα
λακας
λακεδαι
λακεδαιμο
λακεδαιμονι
λακες
λακτος
λακωνι
λαλει
λαλη
λαλου
λαμ
λαμα
λαμβα
λαμε
λαμι
λαμο
λαμος
λαμπα
λαμπε
λαμπος
λαμπρα
λαμπρη
λαμπρο
λαμπτη
λαν
λανγκ
λανθα
λανθασμε
λανς
λαντ
λαντα
λαξ
λαξη
λαο
λαογραφι
λαογραφικη
λαογραφικο
λαοδι
λαοι
λαος
λαου
λαρι
λαρντ
λαρου
λας
λασαν
λασε
λαση
λασης
λασιθι
λασσα
λασσαν
λασσας
λασσες
λατ
λατα
λατε
λατι
λατιν
λατινικα
λατινικη
λατινικο
λατινικου
λατινικω
λατο
λατομει
λατος
λατρει
λατρευ
λατρευο
λατταν
λαττον
λαυ
λαυρε
λαυρεντι
λαυρι
λαφ
λαχανικα
λαχι
λαω
λβα
λβεδο
λβια
λβιβ
λβιν
λγα
λγαρη
λγαροι
λγαρος
λγαρους
λγεβρα
λγεβρας
λγιο
λγος
λδη
λδης
λδο
λδος
λδου
λε
λεα
λεβ
λεβα
λεβε
λεβι
λεγα
λεγαν
λεγε
λεγεν
λεγεω
λεγο
λεγομε
λεγον
λεγχαν
λεγχε
λεγχο
λεγχος
λεζα
λεηλα
λεηλασι
λεηλατη
λεηλατου
λει
λεια
λειαν
λειας
λειες
λειμμα
λειμω
λειν
λειο
λειον
λειος
λειου
λειπε
λεις
λειτου
λειτουργει
λειτουργη
λειτουργι
λειτουργικα
λειτουργικε
λειτουργικη
λειτουργικο
λειτουργικου
λειτουργιω
λειτουργου
λειτουργω
λειψα
λειψαν
λειψε
λειψη
λειψης
λειψι
λεκ
λεκα
λεκτο
λεκτοι
λεκτος
λεμ
λεμα
λεμεσο
λεμεσου
λεμο
λεμοι
λεμον
λεμος
λεμου
λεν
λενα
λεξ
λεξα
λεξαν
λεξε
λεξη
λεξικα
λεξικο
λεξιλο
λεο
λεονα
λεονι
λεοντι
λεοντο
λεοπο
λεος
λεπι
λεπτα
λεπτε
λεπτη
λεπτο
λεπτομε
λεπτομερει
λεπτομερη
λεπτομερω
λεπτου
λεπτω
λερ
λερν
λες
λεσαν
λεσε
λεσεν
λεση
λεσης
λεσι
λεσιν
λεσμα
λεται
λετε
λετο
λετονι
λευ
λευαν
λευε
λευθε
λευθερι
λευι
λευκα
λευκε
λευκη
λευκι
λευκο
λευκοι
λευκορω
λευκορωσι
λευκορωσικη
λευκος
λευκου
λευκω
λευκωσι
λευσε
λευσεν
λευση
λευσης
λευτε
λευχαιμι
λεφτα
λεχ
λεχθε
λεχος
λεψε
λεω
λεων
λεωνι
λεως
λεωφο
λεωφορει
λη
ληασκη
ληγε
ληθε
ληθει
ληθη
ληθω
λημα
λημμα
λην
ληξαν
ληξε
ληξη
ληρο
λης
λησα
λησαν
λησε
λησεν
ληση
λησης
ληστε
ληστει
ληται
λητος
ληφθει
ληφθου
ληψη
ληψης
ληψιν
λθαν
λθε
λθει
λθεν
λθη
λθηκαν
λθηκε
λθο
λθον
λθουν
λθω
λι
λια
λιαμ
λιαμς
λιαν
λιας
λιβα
λιβαδεια
λιβανε
λιβερ
λιβερι
λιβυ
λιγα
λιγκ
λιγο
λιγουντ
λιδο
λιε
λιες
λιζαν
λιζε
λιθι
λιθο
λιθος
λιθουανι
λιθουανικη
λικ
λικα
λικας
λικες
λικη
λικι
λικο
λικος
λικου
λιλ
λιμα
λιμανιου
λιμε
λιμη
λιμνοθα
λιμνω
λιμο
λιμου
λιμπρε
λιν
λινα
λινγκ
λινγκραντ
λινδρο
λινδρος
λινες
λινη
λινο
λινου
λινς
λιντς
λιξ
λιξη
λιξης
λιο
λιοι
λιον
λιοντα
λιονταριω
λιος
λιοσι
λιοτ
λιου
λιουμπλια
λιους
λιπ
λιπαρα
λιπε
λιπεν
λιπον
λιππο
λιππον
λιππος
λιππου
λιπς
λιπω
λιρω
λις
λισαβο
λισαν
λισε
λιση
λισης
λισμα
λισσα
λισσας
λισσες
λιστ
λιστα
λιτι
λιτο
λιτς
λιω
λκα
λκε
λκει
λκη
λκης
λκιβια
λκιν
λκινα
λκινο
λκο
λκολμ
λκυσε
λλ
λλα
λλαγμα
λλαζε
λλαι
λλαις
λλαν
λλαντ
λλαξαν
λλαξε
λλαξη
λλας
λλε
λλει
λλειμμα
λλειν
λλειψη
λλειψης
λλερ
λλες
λλεται
λλετο
λλευση
λλευσης
λλη
λληλα
λληλες
λληλη
λληλο
λληλοι
λληλος
λληλου
λληλων
λλην
λληνα
λληνας
λληνες
λληνικη
λλης
λληση
λλησι
λλησιν
λληψη
λληψης
λλι
λλια
λλιαμ
λλιο
λλιον
λλιος
λλιπος
λλις
λλιστα
λλιστον
λλο
λλογο
λλογοι
λλογος
λλοι
λλοις
λλον
λλοντα
λλονται
λλονταν
λλοντας
λλοντες
λλοντος
λλος
λλοτε
λλοτρι
λλου
λλουν
λλους
λλουσα
λλουσι
λλουσιν
λλυ
λλω
λλων
λλωνα
λλωνας
λλωνος
λλως
λλωστε
λμ
λμα
λμαν
λματα
λματος
λμε
λμερ
λμη
λμης
λμο
λμος
λμου
λμπα
λμπεργκ
λμπερτ
λμπουμ
λνει
λνιους
λνοντας
λνουν
λντ
λντα
λντε
λντεμαρ
λντεν
λντενμπουργκ
λντερ
λντι
λντο
λξη
λξης
λο
λοατ
λοβα
λοβιτς
λοβο
λογα
λογαριασμο
λογαριασμου
λογαριασμω
λογες
λογη
λογης
λογι
λογικα
λογικη
λογικο
λογισμικο
λογισμικου
λογισμο
λογισμου
λογισμω
λογιστικη
λογο
λογοθε
λογοι
λογοκρισι
λογον
λογος
λογοτε
λογοτεχνι
λογοτεχνικα
λογοτεχνικε
λογοτεχνικη
λογοτεχνικο
λογοτεχνικου
λογοτεχνω
λογου
λογους
λογων
λοθα
λοι
λοιμω
λοιπα
λοιπε
λοιπες
λοιπη
λοιπο
λοιποι
λοιπου
λοιπους
λοιπω
λοιπων
λοις
λοκ
λοκομοτι
λοκρι
λομαι
λομβαρδι
λομβαρδω
λομεν
λον
λονγκ
λονδι
λονται
λοντας
λοντο
λορε
λος
λοτζ
λου
λουα
λουδοβι
λουζινια
λουθα
λουθες
λουθη
λουθηρανικη
λουθο
λουθοι
λουθος
λουι
λουιζια
λουκ
λουκα
λουκι
λουλου
λουλουδιω
λουμε
λουν
λουξεμβου
λους
λουσι
λουτρα
λουτρο
λουτρω
λοφ
λοφι
λοχαγο
λοχαγου
λοχι
λοχος
λπ
λπεις
λπες
λπεων
λπι
λπιζε
λπο
λπον
λπος
λπου
λπους
λριχ
λς
λσα
λσεν
λσι
λσκι
λσον
λσος
λσται
λστερ
λτ
λτα
λτας
λτε
λτερ
λτες
λτη
λτης
λτια
λτικς
λτιο
λτιον
λτο
λτον
λτος
λτου
λτρα
λτρο
λτσα
λτσες
λτσιν
λτσιο
λτσμπουργκ
λυ
λυβα
λυγουντ
λυδι
λυθει
λυκα
λυκει
λυκι
λυκο
λυκου
λυμα
λυμμα
λυμπι
λυμπια
λυμπο
λυμπος
λυνε
λυνση
λυνσης
λυπα
λυπη
λυπου
λυπταν
λυπτε
λυρικη
λυσαν
λυσε
λυση
λυσης
λυσι
λυτα
λυτη
λυτο
λυτος
λυφος
λυχνι
λυψαν
λυψε
λυψη
λυψης
λυω
λφ
λφα
λφγκανγκ
λφεια
λφειας
λφη
λφι
λφια
λφο
λφος
λφου
λφους
λφρεντ
λφων
λχελμ
λω
λωζα
λωμα
λων
λωνα
λωναν
λωνε
λωρι
λωρραι
λως
λωσαν
λωσε
λωση
λωσης
λωσιν
λωτα
λωτο
λωτοι
λωτος
μ
μα
μαγαζι
μαγγελα
μαγδαληνη
μαγει
μαγειρικη
μαγια
μαγικη
μαγικο
μαγιο
μαγνη
μαγνησι
μαγνητικη
μαγνητικο
μαγνητικου
μαδαγασκα
μαδε
μαδρι
μαε
μαζαν
μαζε
μαζευ
μαζι
μαζικα
μαζικε
μαζικη
μαζικο
μαζω
μαθαι
μαθαν
μαθε
μαθει
μαθη
μαθημα
μαθηματικα
μαθηματικε
μαθηματικη
μαθηματικο
μαθηματικοι
μαθηματικου
μαθηματικω
μαθητε
μαθητευο
μαθητη
μαθητω
μαθω
μαι
μαινε
μακ
μακα
μακαρι
μακας
μακε
μακεδο
μακεδονι
μακεδονικη
μακεδονικο
μακεδονικου
μακεδονικω
μακεδονομα
μακες
μακι
μακκα
μακντο
μακρα
μακρη
μακρια
μακρινη
μακρινο
μακρο
μακροβιο
μακροπρο
μακροχρο
μακρυ
μακρυα
μακρυγια
μακρω
μαλα
μαλαισι
μαλακα
μαλακη
μαλακο
μαλακω
μαλε
μαλη
μαλι
μαλλι
μαλλια
μαλο
μαλου
μαλτε
μαμα
μαμελου
μαμου
μαν
μανα
μανασση
μανδυ
μανε
μανθα
μανι
μανια
μανιτα
μανιφε
μανο
μανου
μανουε
μανουη
μανση
μανσης
μαντ
μαντα
μαντε
μαντει
μαντη
μαντι
μαντινει
μαντο
μαντος
μανχα
μανω
μαξ
μαξα
μαξε
μαξες
μαξι
μαξιμι
μαξιμιλιανο
μαρ
μαρα
μαραθω
μαργαρι
μαργρα
μαρι
μαρια
μαρινα
μαρινε
μαριονε
μαριου
μαρκ
μαρκα
μαρκε
μαρκη
μαρκησι
μαρκι
μαρκο
μαρμα
μαρν
μαρξ
μαρο
μαρου
μαρς
μαρσε
μαρτα
μαρτε
μαρτη
μαρτι
μαρτινι
μαρτυ
μαρτυρει
μαρτυρι
μαρτυρου
μαρχο
μαρχοι
μαρχος
μαρωνι
μας
μασα
μασαν
μασαχουσε
μασε
μασι
μασιν
μασσαλι
μαστε
μαστι
μαστο
μαστου
ματ
ματα
μαται
ματαιω
ματε
ματη
ματθαι
ματθι
ματι
ματια
ματιε
ματιου
ματιω
ματο
ματος
ματς
ματσου
ματωμε
μαυ
μαυρες
μαυρι
μαυριτανι
μαυρο
μαυροβου
μαυροβουνι
μαυροκορδα
μαυρομιχα
μαυσωλει
μαυτο
μαυτου
μαφι
μαχα
μαχαι
μαχητε
μαχητη
μαχητικα
μαχητικο
μαχητικω
μαχητω
μαχμου
μαχο
μαχοι
μαχον
μαχος
μαχου
μαχω
μβα
μβαναν
μβανε
μβανον
μβας
μβαση
μβασης
μβει
μβες
μβηση
μβησης
μβλημα
μβο
μβοι
μβολα
μβολο
μβος
μβου
μβουλο
μβουλοι
μβουλος
μβους
μβρη
μβριο
μβριος
μβρυο
μβων
με
μεα
μεγα
μεγαλει
μεγαλειο
μεγαλο
μεγαλοπρεπη
μεγαλυ
μεγαλω
μεγε
μεγεθω
μεγι
μεγιστα
μεδι
μεθ
μεθα
μεθανα
μεθανι
μεθανο
μεθο
μεθοδολογι
μεθυ
μεθυλο
μεθυσμε
μεθω
μει
μεια
μεικτο
μειναν
μεινε
μεινεν
μεινον
μειξη
μειονε
μειονεκτη
μειονο
μειονοτη
μειοψηφι
μεις
μειω
μειωθει
μειωμε
μεκλεμβου
μελ
μελα
μελανο
μελβου
μελε
μελετα
μελετη
μελετηθει
μελετητε
μελετητη
μελετου
μελετω
μελη
μελης
μελι
μελλε
μελλον
μελλοντικα
μελλοντικε
μελλοντικη
μελλοντικο
μελλοντικου
μελο
μελω
μελωδι
μεμβρα
μεμονωμε
μεν
μενα
μεναι
μεναν
μενε
μενες
μενη
μενης
μενο
μενοι
μενον
μενος
μενου
μενους
μεντ
μεντο
μενων
μεξικα
μεξικο
μεξικου
μερ
μερα
μεραρχι
μερες
μερη
μερι
μερια
μερικα
μερικε
μερικη
μερικοι
μερικου
μερικω
μερκι
μερκου
μερο
μερον
μερος
μερσετ
μερω
μες
μεσα
μεσαι
μεσαιωνικα
μεσαιωνικη
μεσαιωνικο
μεσαιωνικου
μεσες
μεση
μεσημβρι
μεσημε
μεσης
μεσι
μεσιε
μεσο
μεσογει
μεσογειακη
μεσογειακο
μεσογειακου
μεσολα
μεσολο
μεσολογγι
μεσοπο
μεσοπολε
μεσοποταμι
μεσος
μεσου
μεσση
μεσσηνι
μεσσι
μετ
μετα
μεταβα
μεταβαι
μεταβαλλο
μεταβατικη
μεταβατικο
μεταβει
μεταβι
μεταβιβα
μεταβλητε
μεταβλητη
μεταβλητο
μεταβλητω
μεταβολε
μεταβολη
μεταβολι
μεταβολισμο
μεταβολω
μεταγενε
μεταγλω
μεταγρα
μεταγραφε
μεταγραφη
μεταγραφικη
μεταδι
μεταδιδο
μεταδο
μεταδω
μεταθανα
μεταθε
μεται
μετακι
μετακινει
μετακινη
μετακινηθει
μετακινου
μετακο
μετακομι
μεταλλα
μεταλλαγμε
μεταλλει
μεταλλευ
μεταλλι
μεταλλικα
μεταλλικη
μεταλλικο
μεταλλουργι
μεταμο
μεταμορφω
μεταμφιεσμε
μετανα
μεταναστευ
μεταναστω
μεταξα
μεταξιου
μεταξυ
μεταπη
μεταπολεμικα
μεταπολεμικη
μεταπολι
μεταπτυχιακε
μεταπτυχιακο
μεταρρυ
μεταρρυθμι
μεταστροφη
μετασχηματισμο
μετασχηματισμου
μετατε
μετατο
μετατοπι
μετατρα
μετατραπει
μετατρε
μετατροπε
μετατροπη
μεταφε
μεταφερθει
μεταφερθου
μεταφερο
μεταφορα
μεταφορε
μεταφορω
μεταφρα
μεταφρασμε
μεταφραστε
μεταφραστει
μεταφραστη
μεταφυσικη
μεταχει
μεταχειρι
μετε
μετει
μετεω
μετεωρι
μετη
μετο
μετοι
μετονο
μετονομα
μετονομασι
μετονομαστει
μετοχε
μετοχη
μετοχω
μετρα
μετρει
μετρη
μετρι
μετρο
μετροι
μετρος
μετρου
μετρω
μετς
μετσο
μετω
μευε
μευσε
μευση
μεχμε
μεων
μεως
μη
μηδ
μηδε
μηδει
μηδεμι
μηδενι
μηδενικη
μηδενικο
μηδενισμο
μηδενο
μηδι
μηκε
μηλια
μημα
μην
μηνα
μηνη
μηνι
μηνιαι
μηνο
μηνυ
μηνυμα
μηνω
μηρο
μηρος
μηρου
μης
μησαν
μησε
μησεν
μηση
μησης
μητα
μητε
μητες
μητο
μητος
μητρα
μητρι
μητρικη
μητρικο
μητρο
μητροπο
μητροπολι
μητροπολιτικη
μητροπολιτικο
μητρω
μητσοτα
μηχα
μηχανε
μηχανη
μηχανημα
μηχανικα
μηχανικη
μηχανικο
μηχανικοι
μηχανικου
μηχανικω
μηχανισμο
μηχανισμοι
μηχανισμου
μηχανισμω
μηχανοκι
μηχανω
μι
μια
μιαν
μιανμα
μιαου
μιας
μιγκε
μιδος
μιε
μιερ
μιες
μιζαν
μιζε
μιζου
μιθριδα
μικ
μικο
μικρα
μικρασια
μικρασιατικη
μικρασιατω
μικρε
μικρη
μικρο
μικρογραφι
μικροι
μικροσκο
μικρου
μικρω
μικς
μικτε
μικτη
μικτο
μιλ
μιλα
μιλγουο
μιλη
μιλι
μιλο
μιλοι
μιλος
μιλου
μιλτια
μιλτον
μιλω
μιμα
μιμει
μιμη
μιμο
μιμος
μιμου
μιν
μινγκ
μινε
μινεσο
μινι
μινο
μινσκ
μινωικη
μιξη
μιο
μιοι
μιον
μιος
μιου
μιουελ
μιρ
μιρα
μις
μισα
μισαν
μισε
μισει
μιση
μισης
μισθο
μισθου
μισθοφο
μισθω
μισι
μισμα
μισο
μισοι
μισου
μισσα
μισυ
μιτς
μιχα
μιχαη
μιχαηλι
μκ
μλα
μλερ
μμα
μματα
μματο
μματος
μμαχο
μμαχοι
μμαχος
μμε
μμεσα
μμεση
μμετρο
μμετρος
μμο
μμος
μμου
μμυ
μνα
μνει
μνες
μνη
μνημα
μνημει
μνημειω
μνημο
μνημονευ
μνης
μνηση
μνηστη
μνια
μνο
μνοι
μνονα
μνος
μνου
μνους
μνω
μνων
μο
μοβιτς
μογγο
μογγολι
μογγολικη
μοζαμβι
μοζε
μοι
μοια
μοιαζε
μοιες
μοιο
μοιοι
μοιον
μοιος
μοιρα
μοιραι
μοιρω
μοις
μοισι
μοιχει
μοιων
μολδαβι
μολι
μολιε
μολο
μολογει
μολογη
μολογι
μολογου
μολονο
μολυ
μολυσμε
μομφερρα
μομφη
μον
μονα
μοναδιαι
μοναδικα
μοναδικε
μοναδικη
μοναδικο
μοναδικου
μονακο
μοναξια
μοναρχι
μονας
μοναστη
μοναστηρι
μοναστηριου
μοναστηριω
μοναχε
μοναχη
μοναχικο
μοναχο
μοναχοι
μοναχου
μοναχω
μονε
μονες
μονη
μονι
μονιμου
μονο
μονογραφι
μονοθε
μονοι
μονομα
μονομαχι
μονοξει
μονοπα
μονοπω
μονος
μονπελιε
μονρο
μονς
μοντ
μοντα
μονται
μοντγκο
μοντε
μοντελοποι
μονφο
μονω
μορ
μορα
μοραβι
μορε
μορι
μορια
μοριακη
μοριακο
μορς
μορφα
μορφε
μορφες
μορφη
μορφο
μορφολογι
μορφοποι
μορφος
μορφω
μορφωμε
μορφωτικο
μος
μοσχα
μοτε
μοτι
μοτοσικλε
μου
μουγκα
μουλα
μουν
μουντια
μουρ
μουρα
μουρι
μουρμου
μους
μουσα
μουσει
μουσικα
μουσικε
μουσικη
μουσικο
μουσικοι
μουσικου
μουσικω
μουσολι
μουσουλμα
μουσουλμανικε
μουσουλμανικη
μουσουλμανικο
μουστα
μουσταφα
μουσω
μουχα
μοφ
μοχα
μπ
μπα
μπαγκλαντε
μπαγκρατιο
μπαι
μπακ
μπακα
μπακου
μπακς
μπαλα
μπαλε
μπαλκο
μπαλο
μπαμπα
μπαμπινιω
μπαμπου
μπαν
μπανα
μπανγκλαντε
μπανο
μπαντ
μπαντα
μπαντος
μπαρ
μπαρα
μπαρμπα
μπαρμπαρο
μπαρμπου
μπαρο
μπαρτ
μπαρτσελο
μπας
μπασα
μπασι
μπαστια
μπαταρι
μπατι
μπατου
μπαχ
μπαχα
μπαχαρικα
μπαχρε
μπε
μπει
μπειν
μπεκ
μπελ
μπελα
μπελι
μπεν
μπενα
μπενεβε
μπενι
μπενς
μπενφι
μπερ
μπερα
μπεργκ
μπερδευ
μπερλαντ
μπερλει
μπερνα
μπερντ
μπερτ
μπερτς
μπες
μπεσι
μπεται
μπετο
μπη
μπης
μπι
μπια
μπιας
μπιγκ
μπιε
μπιλ
μπιλμπα
μπιν
μπινσον
μπιο
μπιονς
μπιτ
μπιτς
μπλ
μπλα
μπλακ
μπλαστ
μπλε
μπλεγμα
μπλεντον
μπλερ
μπλιν
μπλο
μπλοκ
μπλοκα
μπλοκο
μπλου
μπλουα
μπλουζ
μπλουμ
μπνευση
μπνευσης
μπο
μποε
μποι
μπολ
μπολε
μπολι
μπολο
μπολσεβι
μπομπ
μπον
μποντ
μπορ
μπορε
μπορει
μπορι
μπορντο
μπορντω
μπορο
μποροι
μπορος
μπορου
μπορω
μπος
μποτ
μποτσουα
μπου
μπουε
μπουκα
μπουλ
μπουλς
μπουν
μπουργκ
μπουρου
μπους
μπουτα
μπρα
μπραγκα
μπραντ
μπρατισλα
μπρε
μπρι
μπρια
μπριε
μπριελ
μπριτα
μπριτζ
μπρο
μπρος
μπροσθεν
μπροστα
μπροστινα
μπροστινη
μπροστινο
μπρου
μπρους
μπρυζ
μπσον
μπτη
μπτης
μπτο
μπτον
μπτος
μπτου
μπυ
μπω
μπωφο
μσκι
μσον
μστερνταμ
μτφ
μτφρ
μυ
μυαλο
μυελο
μυελου
μυη
μυθικο
μυθιστο
μυθιστορη
μυθιστορημα
μυθιστοριογρα
μυθολογι
μυθοπλασι
μυι
μυκη
μυκηναι
μυκο
μυλο
μυλος
μυλωνα
μυνα
μυνας
μυοκαρδι
μυρι
μυρια
μυρμηγκα
μυς
μυστη
μυστηρι
μυστηριω
μυστικα
μυστικε
μυστικη
μυστικο
μυστικω
μυστρα
μυτιλη
μυω
μφαση
μφες
μφη
μφης
μφι
μφις
μφο
μφοι
μφος
μφοτε
μφραγμα
μφω
μφωνα
μφωνη
μφωνο
μψας
μψει
μψη
μω
μωα
μων
μωνα
μωνος
μωξη
μωξης
μωραι
μωρε
μωρι
μωρο
μως
μωσαι
μωσε
μωση
μωυ
μωυση
ν
να
ναβα
ναβαρι
ναβη
ναγκα
ναγκαι
ναγκο
ναγνω
ναζε
ναζι
ναζιστικη
ναζιστικο
ναζιστικου
ναθαν
ναι
ναις
νακα
νακας
νακε
νακες
ναλντ
ναλτι
ναμα
ναμε
ναμες
ναμη
ναμης
ναμι
ναμιν
ναμις
ναμο
ναμος
ναν
νανα
νανε
ναντ
ναντα
νανται
ναντες
ναντι
ναντο
ναξ
ναξε
ναξη
ναο
ναοι
ναου
ναπαυ
ναπολε
ναπολεο
ναπολιτα
ναρ
ναρκωτικα
ναρκωτικω
ναρξη
ναρξης
νας
νασθαι
νασι
νασιονα
νασσα
ναστα
ναστη
νατα
ναται
ναταλι
νατε
νατζερ
νατη
νατο
νατοι
νατολη
νατον
νατος
νατρι
ναυ
ναυα
ναυαρι
ναυαρχι
ναυμαχι
ναυπα
ναυπακτι
ναυπη
ναυπηγει
ναυπηγη
ναυπλι
ναυσι
ναυσιπλοι
ναυτι
ναυτικα
ναυτικε
ναυτικη
ναυτικο
ναυτικοι
ναυτικου
ναυτικω
ναυτιλι
ναφε
ναχο
ναχος
ναψε
ναψη
ναω
νβα
νβερ
νγκ
νγκα
νγκε
νγκεν
νγκερ
νγκο
νγκου
νδ
νδα
νδαλα
νδαλο
νδας
νδε
νδει
νδειξη
νδεκα
νδεση
νδεσης
νδεσμο
νδεσμοι
νδεσμος
νδη
νδης
νδο
νδον
νδος
νδου
νδρα
νδρας
νδρει
νδρεια
νδρειας
νδρες
νδρι
νδρια
νδρο
νδρομο
νδρου
νδρω
νδρων
νδσορ
νδυμα
νδυνα
νδυνες
νδυνη
νδυνο
νδυνοι
νδυνον
νδυνος
νδυση
νδυσης
νδω
νε
νεα
νεανι
νεανικα
νεανικη
νεαπο
νεαρα
νεαρη
νεαρο
νεαροι
νεαρου
νεαρω
νεβα
νεβε
νεγκε
νεγκεν
νεθ
νει
νεια
νειαν
νειας
νειε
νειες
νειμε
νειν
νειο
νειον
νειρα
νειρο
νεις
νεκ
νεκα
νεκεν
νεκρα
νεκρη
νεκρο
νεκροι
νεκρολογι
νεκροταφει
νεκρου
νεκρω
νεκτα
νελ
νεμα
νεμε
νεμο
νεμοι
νεμος
νεμπουργκ
νεν
νεντι
νεο
νεογε
νεοε
νεοελληνικη
νεοελληνικου
νεοελληνικω
νεοι
νεολαι
νεολιθικη
νεομα
νεοπτο
νεοσυ
νεοχω
νεπα
νερ
νερα
νεργει
νερο
νερου
νερω
νες
νεσαι
νεσε
νεση
νεσης
νεσθαι
νεσι
νεσιν
νεσις
νετ
νετα
νεται
νετε
νετει
νετο
νετρο
νετρονι
νετς
νευ
νευε
νευρικο
νευρικου
νευρω
νευσαν
νευσε
νευση
νευσης
νεφε
νεφελω
νεφρικη
νεχω
νεω
νεωτε
νζ
νζα
νζυμα
νζυμο
νη
νηθες
νηι
νηκαν
νηκε
νημα
νην
νηπιαγωγει
νης
νησα
νησαν
νησε
νησεν
νηση
νησης
νησι
νησια
νησιν
νησιου
νησις
νησιω
νησιωτικη
νησο
νησος
νηστει
νητα
νηται
νητες
νητη
νητο
νητον
νητος
νητρα
νητρο
νθ
νθα
νθε
νθεν
νθεον
νθεση
νθεσης
νθετα
νθετη
νθετο
νθετος
νθη
νθηκαν
νθηκε
νθημα
νθης
νθηση
νθια
νθιμος
νθιοι
νθος
νθου
νθους
νθρακα
νθρακας
νθρακες
νθρω
νθρωπι
νθρωπο
νθρωποι
νθρωπον
νθρωπος
νι
νια
νιας
νιαυτο
νιγηρι
νιγρι
νιε
νιελ
νιες
νιζαν
νιζε
νικ
νικα
νικαι
νικαρα
νικας
νικε
νικες
νικη
νικης
νικητε
νικητη
νικηφο
νικι
νικο
νικολα
νικολαι
νικολο
νικομη
νικος
νικου
νικς
νικω
νικων
νιλ
νιμα
νιμες
νιμη
νιμης
νιμο
νιμοι
νιμος
νιμους
νιν
νινγκ
νινγκραντ
νιξ
νιο
νιοασκη
νιοι
νιον
νιορ
νιος
νιου
νιους
νις
νισα
νισαν
νισε
νιση
νισης
νισμα
νισσα
νιτρω
νιτς
νιτσα
νιτσας
νιφερ
νιω
νιωθε
νιων
νιωσε
νκ
νκα
νκας
νκαστερ
νκι
νκλιν
νκο
νκοβιτς
νκολν
νλει
νμπεργκ
ννα
ννας
ννε
ννενα
ννες
ννεφα
ννη
ννην
ννης
ννησε
ννηση
ννησης
ννησο
ννησον
ννησος
ννι
ννικα
ννινα
ννο
ννοι
ννοια
ννοιας
ννοιες
ννου
ννους
ννυ
ννων
νο
νοβα
νοβας
νοβιτς
νοβο
νογλου
νοδο
νοδον
νοδος
νοε
νοει
νοεμβρι
νοη
νοηματικη
νοημοσυ
νοθει
νοι
νοια
νοιαν
νοιας
νοιγμα
νοικοκυρια
νοιξαν
νοιξε
νοιξη
νοιξης
νοιο
νοις
νοισι
νοιτο
νοιω
νοκ
νολα
νολο
νομα
νομαι
νομαρχι
νομαρχιακη
νομεν
νομες
νομη
νομης
νομι
νομικα
νομικε
νομικη
νομικο
νομικοι
νομικου
νομικω
νομιμο
νομιμοποι
νομισμα
νομισματικη
νομισματικο
νομισματοκοπει
νομο
νομοθε
νομοθεσι
νομοθετικη
νομοθετικο
νομοθετικου
νομοι
νομος
νομοσχε
νομου
νομπελι
νομω
νομων
νον
νονο
νοντα
νονται
νονταν
νοντας
νοντες
νοντο
νοντος
νοοτροπι
νοου
νοπλες
νοπλη
νοπλοι
νορ
νορα
νορβηγι
νορβηγικα
νορβηγικη
νορβηγικο
νορβηγο
νορθ
νορθα
νορθουμβρι
νορμανδι
νορο
νος
νοση
νοσηλει
νοσηλευ
νοσοκο
νοσοκομει
νοταρα
νοτι
νοτιο
νοτιοανατολικα
νοτιοανατολικη
νοτιοανατολικο
νοτιοδυτικα
νοτιοδυτικη
νοτιοδυτικο
νου
νουα
νουβε
νουμα
νουμε
νουν
νουνε
νουνταν
νους
νουσα
νουσαν
νουσι
νουσιν
νοφ
νοχος
νοψη
νπερ
νραντ
νρι
νρικ
νρυ
νς
νσα
νσας
νσε
νσεις
νσεν
νσεντ
νσερ
νσεων
νσι
νσιν
νσις
νσκ
νσκα
νσκι
νσο
νσον
νσος
νσου
νστα
νσταση
νστερ
νστον
ντ
ντα
νταβι
νταγμα
νται
νταλ
νταλα
νταμ
νταμπλ
νταμς
νταν
ντανιε
νταξη
νταξης
νταου
νταρ
ντας
νταση
ντασης
ντασμα
νταυ
ντβιχ
ντγκαρ
ντγουει
ντε
ντεζ
ντει
ντειο
ντεκα
ντελ
ντεμπου
ντεν
ντενα
ντενι
ντεο
ντεπορτι
ντερ
ντερικ
ντερνετ
ντερο
ντερς
ντερσον
ντες
ντεσλιγκα
ντετε
ντευ
ντευξη
ντζα
ντζαμιν
ντζας
ντζελες
ντζελο
ντζι
ντζο
ντη
ντης
ντησαν
ντησε
ντησεν
ντηση
ντησης
ντι
ντια
ντιβι
ντιβιζιο
ντιβισιο
ντιε
ντιες
ντιθ
ντικ
ντιν
ντινα
ντιναμο
ντινγκ
ντιο
ντιοι
ντιον
ντιος
ντιου
ντιους
ντιπα
ντις
ντισε
ντισον
ντιτρο
ντιτς
ντλει
ντλερ
ντληση
ντμαν
ντμι
ντμουντ
ντμπολ
ντνει
ντο
ντοβα
ντοβιτς
ντοι
ντοκιμαντε
ντολα
ντολη
ντολφ
ντομα
ντομε
ντομες
ντομη
ντομι
ντομο
ντον
ντονα
ντονε
ντονες
ντονη
ντονης
ντονι
ντονο
ντορ
ντορα
ντος
ντοτε
ντου
ντουα
ντουαρντ
ντουε
ντους
ντουσαν
ντοφ
ντρ
ντρα
ντραμς
ντρας
ντραφτ
ντρε
ντρεαλ
ντρες
ντρι
ντρια
ντρικ
ντριου
ντριχ
ντρο
ντρον
ντροπη
ντρου
ντροφο
ντροφοι
ντροφος
ντρων
ντρωσαν
ντρωσε
ντρωση
ντρωσης
ντσα
ντσερ
ντσες
ντσεστερ
ντσι
ντσο
ντσον
ντυ
ντυμε
ντυπα
ντυπη
ντυπο
ντφορντ
ντω
ντων
ντωνι
ντως
ντωση
ντωσης
νυ
νυα
νυκτι
νυκτο
νυμα
νυμες
νυμη
νυμης
νυμο
νυμοι
νυμον
νυμος
νυμου
νυμους
νυμφευ
νυμφευμε
νυμφευτει
νυν
νυνι
νυρεμβε
νυσε
νυση
νυσμα
νυσος
νυχτα
νυχτερι
νυχτερινη
νυχτερινο
νφορντ
νχαλτ
νω
νωθεν
νωι
νωμα
νωμεν
νων
νωνα
νωνε
νωνται
νωπογραφι
νωρ
νωρι
νως
νωσαν
νωσε
νωση
νωσης
νωσι
νωσιν
νωσις
νωτε
νωτιαι
ξ
ξα
ξαδε
ξαι
ξαμε
ξαν
ξανα
ξαναγρα
ξαναχτι
ξανδρο
ξανδρον
ξανδρος
ξανδρου
ξανε
ξανθο
ξαντες
ξαντο
ξαρχος
ξας
ξασθαι
ξατε
ξατο
ξαφνα
ξαφνικα
ξαφνικη
ξγουελ
ξε
ξει
ξειν
ξεις
ξεκα
ξεκαθαρι
ξεκι
ξεκινα
ξεκινη
ξεκινου
ξεκινω
ξελε
ξενα
ξενι
ξενιστη
ξενο
ξενοδοχει
ξενος
ξενοφω
ξενω
ξεπε
ξεπερα
ξεπερνα
ξεπερνου
ξεπερνω
ξερα
ξεραν
ξερε
ξερο
ξεσπα
ξετα
ξεται
ξετε
ξευ
ξευση
ξεφευ
ξεφυ
ξεχα
ξεχασμε
ξεχνα
ξεχω
ξεχωρι
ξεχωριστα
ξεχωριστε
ξεχωριστη
ξεχωριστο
ξεων
ξεως
ξη
ξημερω
ξηρα
ξηρασι
ξηρη
ξηρο
ξηρου
ξης
ξησε
ξηση
ξησης
ξι
ξια
ξιμο
ξιμος
ξιν
ξινο
ξιο
ξιοι
ξιον
ξιος
ξιου
ξις
ξιφασκι
ξιω
ξο
ξοδα
ξοδο
ξοδος
ξομεν
ξον
ξονα
ξονας
ξονες
ξος
ξου
ξουμε
ξουν
ξουσι
ξουσιν
ξπηρ
ξτε
ξτρα
ξυ
ξυλει
ξυλο
ξυπνα
ξυπνη
ξω
ξωθεν
ξων
ξως
ο
οα
οβελι
οβι
ογδο
ογκο
ογκω
οδη
οδηγει
οδηγη
οδηγι
οδηγο
οδηγοι
οδηγου
οδηγω
οδησσο
οδησσου
οδι
οδικη
οδικο
οδικω
οδο
οδοι
οδον
οδος
οδου
οδυ
οδυσσε
οδω
οηε
οθο
οθωμανικα
οθωμανικε
οθωμανικη
οθωμανικο
οθωμανικου
οθωμανικω
οθωμανο
οθωμανοι
οθωμανου
οθωμανω
οι
οιδι
οικ
οικε
οικει
οικεν
οικι
οικιακη
οικισμο
οικισμοι
οικισμου
οικισμω
οικιστε
οικιστικη
οικο
οικογε
οικογενει
οικογενειακε
οικογενειακη
οικογενειακο
οικογενειακου
οικογενειω
οικοδεσπο
οικοδο
οικοδομη
οικολο
οικολογι
οικολογικη
οικολογικο
οικονο
οικονομι
οικονομικα
οικονομικε
οικονομικη
οικονομικο
οικονομικου
οικονομικω
οικονομολο
οικοσυστη
οικουμενικη
οικουμενικο
οικουμενικου
οινο
οιο
οις
οισι
οκ
οκα
οκλαχο
οκτα
οκταβιανο
οκτω
οκτωβρι
οκτωβριανη
ολ
ολα
ολε
ολι
ολικη
ολιμπι
ολλανδι
ολλανδικα
ολλανδικη
ολλανδικο
ολλανδο
ολλανδοι
ολλανδου
ολλανδω
ολο
ολοε
ολοκαυ
ολοκαυτω
ολοκλη
ολοκληρω
ολοκληρωθει
ολοκληρωμε
ολοκληρωτικα
ολοκληρωτικη
ολομε
ολος
ολοσχερω
ολυ
ολυμπι
ολυμπια
ολυμπιακη
ολυμπιακο
ολυμπιακοι
ολυμπιακου
ολυμπιακω
ολυμπιονι
ομα
ομαδικα
ομαδικε
ομαδικη
ομαδικο
ομαι
ομαλη
ομε
ομεν
ομη
ομι
ομιλει
ομιλητε
ομιλητη
ομιλητω
ομιλι
ομιλου
ομο
ομοι
ομοιο
ομολο
ομολογι
ομορφια
ομοσπονδι
ομοσπονδιακη
ομοσπονδιακο
ομοσπονδιακου
ομοφυλο
ομοφυλοφιλι
ομπα
ομπρε
ομω
ον
ονα
οναρντ
ονας
ονδου
ονει
ονες
ονι
ονο
ονομα
ονομαζο
ονομασι
ονομαστει
ονομαστικη
ονοματεπω
ονοματοδοσι
ονοματολογι
ονος
ονπολιτικο
οντα
ονται
ονταν
οντας
οντες
οντι
οντισιο
οντο
οντορ
οντος
ονω
οξε
οξει
οξειδι
οξειδω
οξιτανι
οξιτανικα
οξυ
οξυγο
οξφο
οπα
οπαδο
οπαδοι
οπαδου
οπαδω
οπη
οπι
οπλαρχηγο
οπλαρχηγοι
οπλαρχηγου
οπλι
οπλισμε
οπλισμο
οπο
οποι
οποιαδη
οποιασδη
οποιοδη
οποιονδη
οποιοσδη
οποιουδη
οπου
οπουδη
οπτικα
οπτικε
οπτικη
οπτικο
οπτικω
οπωσδη
ορα
ορατα
ορατη
ορατο
οργα
οργανι
οργανικα
οργανικε
οργανικη
οργανικο
οργανικω
οργανισμο
οργανισμοι
οργανισμου
οργανισμω
οργανω
οργανωμε
οργανωτικη
οργη
οργισμε
οργκ
ορε
ορει
ορειβα
ορεινα
ορεινε
ορεινη
ορεινο
ορεινου
ορεινω
ορεστια
ορθη
ορθο
ορθογραφι
ορθογω
ορθοδο
ορθοδοξι
ορι
οριακα
οριζο
οριοθε
οριοθετει
ορισμε
ορισμο
ορισμοι
ορισμου
οριστει
οριστικα
οριστικη
οριστικο
ορκι
ορκωμοσι
ορλα
ορλεα
ορμη
ορμο
ορν
ορο
ορολογι
οροπε
οροπεδι
οροσειρα
οροσειρε
οροφη
ορσι
ορτα
ορτη
ορυκτα
ορυκτο
ορυκτω
ορυχει
ορφανα
ορφανο
ορφανοτροφει
ορφε
ορχη
ος
οσα
οσε
οσι
οσμα
οσμη
οστα
οστο
οστρογο
οστω
οσφπ
οτα
οταν
οτε
οτι
οτιδη
ου
ουα
ουαλι
ουαρντ
ουγγαρι
ουγγρικα
ουγγρικη
ουγγρικο
ουγενο
ουγκα
ουδαι
ουδε
ουδεμι
ουδετερο
ουδο
ουε
ουελ
ουεν
ουερ
ουεφα
ουζ
ουζεν
ουζμπεκιστα
ουι
ουκ
ουκρανι
ουκρανικα
ουκρανικη
ουκρανικο
ουκρανο
ουκρανοι
ουκρανου
ουλ
ουλα
ουλι
ουμ
ουμα
ουμε
ουμπε
ουν
ουνας
ουνι
ουνς
ουνσβαι
ουντ
ουντρακ
ουο
ουπ
ουρα
ουρανι
ουρανο
ουρανου
ουρι
ουρουγουα
ους
ουσα
ουσαν
ουσας
ουσβιτς
ουσες
ουσι
ουσιαστικα
ουσιαστικη
ουσιαστικο
ουσιν
ουσιω
ουτ
ουτο
ουτρε
ουτς
ουφεν
οφ
οφε
οφει
οφειλε
οφειλο
οφη
οφθαλμου
οχα
οχη
οχημα
οχι
οχο
οχος
οχρι
οχτω
οχυ
οχυρα
οχυρο
οχυρου
οχυρω
οχυρωμε
π
πα
παβι
παγγαι
παγγε
παγετω
παγι
παγιδευ
παγιδευμε
παγκο
παγκοσμι
παγκρα
παγκρατι
παγκυ
παγο
παγω
παγωμε
παε
παζα
παθε
παθει
παθη
παθητικη
παθλο
παθογο
παθολογι
παθω
παι
παια
παιανι
παιγνι
παιδα
παιδαγωγικη
παιδαγωγο
παιδει
παιδευ
παιδι
παιδια
παιδικα
παιδικη
παιδικο
παιδικου
παιδικω
παιδιου
παιδιω
παιδο
παιζαν
παιζε
παιθρο
παικτω
παινε
παινει
παινου
παιξαν
παιξε
παιο
παιονι
παιρναν
παιρνε
παισι
παιχνι
παιχνιδιου
παιχνιδιω
πακ
πακε
πακιστα
πακου
παλα
παλαι
παλαια
παλαιο
παλαιοι
παλαιολιθικη
παλαιολο
παλαιολογι
παλαιου
παλαιοχριστιανικη
παλαιοχω
παλαιστε
παλαιστη
παλαιστι
παλαιω
παλαμα
παλατινα
παλατινη
παλατιου
παλε
παλες
παλευ
παλη
παλι
παλια
παλιε
παλικα
παλινδρο
παλιο
παλιου
παλιω
παλλα
παλλη
παλμο
παλο
παλοι
παλος
παλου
παμε
παν
πανα
παναγη
παναγι
παναγια
παναγιω
παναγιωτο
παναθηναι
παναιτωλικο
παναμα
παναχαι
πανδε
πανδημι
πανδοχει
πανε
πανελλη
πανελληνι
πανεπιστη
πανεπιστημι
πανεπιστημιακε
πανεπιστημιακη
πανεπιστημιακο
πανεπιστημιακοι
πανεπιστημιου
πανευρωπαι
πανη
πανηγυ
πανηγυρι
πανι
πανικο
πανιω
πανιωνι
πανκ
παννονι
πανο
πανομοιο
πανοπλι
πανοραμικη
πανου
πανσε
πανσερραι
πανση
πανσης
παντα
παντας
πανταχο
πανταχου
παντελεη
παντελη
παντελω
παντες
παντζα
παντη
παντι
παντο
παντοδυ
παντοι
παντοκρα
παντου
παντρε
παντρεμε
παντρευ
παντρευτει
πανω
παξ
παο
παοκ
παπα
παπαγεωργι
παπαδα
παπαδη
παπαδημητρι
παπαδο
παπαδοπου
παπαζη
παπαθανασι
παπαι
παπακωνσταντι
παπανδρε
παπανικολα
παπαρρηγο
παπαφλε
παπικη
παπικο
παπου
παππα
παππου
παρ
παρα
παραβα
παραβι
παραβια
παραβολη
παραγα
παραγγε
παραγγελι
παραγενο
παραγο
παραγουα
παραγρα
παραγω
παραγωγε
παραγωγη
παραγωγικη
παραγωγικο
παραγωγο
παραγωγοι
παραγωγου
παραγωγω
παραδε
παραδει
παραδι
παραδο
παραδοθει
παραδοθου
παραδοσιακα
παραδοσιακε
παραδοσιακη
παραδοσιακο
παραδοσιακου
παραδοσιακω
παραδου
παραδοχη
παραδω
παραθαλα
παραθε
παραθυ
παραι
παραιτει
παραιτη
παραιτηθει
παρακα
παρακαλε
παρακαλει
παρακαλου
παρακαλω
παρακει
παρακλα
παρακμη
παρακολου
παρακολουθει
παρακολουθη
παρακολουθου
παρακολουθω
παραλα
παραλαβη
παραλαβω
παραλαμβα
παραλει
παραλη
παραλι
παραλιακη
παραλιμνι
παραλλαγε
παραλλαγη
παραλλη
παραλληλο
παραμε
παραμει
παραμο
παραμονη
παραμορφω
παραμυ
παρανο
παρανομι
παραπα
παραπε
παραπλη
παραπλησι
παραπο
παραπομπε
παραπομπη
παραπομπω
παραποτα
παραρτη
παρασκευα
παρασκευη
παρασκη
παραστα
παραστη
παρασυ
παρατα
παρατει
παρατεταμε
παρατη
παρατηρει
παρατηρη
παρατηρηθει
παρατηρητε
παρατηρητη
παρατηρου
παρατηρω
παρατι
παρατσου
παραχθει
παραχρη
παραχω
παραχωρει
παραχωρη
παραχωρηθει
παραχωρου
παρε
παρει
παρεκα
παρεκκλη
παρεκκλησι
παρελθο
παρεμβα
παρεμβαι
παρεμβολη
παρεμπο
παρεμποδι
παρενε
παρενο
παρευρε
παρεχο
παρη
παρθε
παρθεναγωγει
παρθενικη
παρθενω
παρθι
παρι
παρισι
παρισιου
παριστα
παρκ
παρμενι
παρνασσο
παρξη
παρξης
παρο
παροικι
παροιμι
παρομοι
παρου
παρουσι
παρουσια
παρουσιαστε
παρουσιαστει
παρουσιαστη
παροχη
παρρησι
παρτι
παρτιζα
παρτιτου
παρυφε
παρχι
παρχο
παρχος
παρω
παρωδι
πας
πασα
πασαν
πασε
πασι
πασιν
πασκα
πασοκ
πασσα
παστε
πασχα
πασχαλι
πασχε
πασω
πατ
πατα
πατε
πατη
πατινα
πατο
πατοι
πατος
πατου
πατρε
πατρι
πατρια
πατριαρχει
πατριαρχικη
πατριαρχικο
πατρικη
πατρικι
πατρικο
πατριω
πατριωτικο
πατρο
πατρος
πατρω
πατω
παυ
παυλη
παυλι
παυσανι
παυσε
παυση
παχυ
παχυσαρκι
παψε
πγδμ
πε
πεδα
πεδει
πεδη
πεδι
πεδια
πεδινη
πεδινο
πεδο
πεδον
πεζ
πεζα
πεζας
πεζες
πεζη
πεζικο
πεζικου
πεζο
πεζογρα
πεζογραφι
πεζοι
πεζοπορι
πεζου
πεζω
πεθα
πεθαι
πεθαμε
πεθερα
πεθερο
πει
πεια
πειας
πειδα
πειδη
πειες
πειθαρχι
πειν
πειρα
πειραι
πειραια
πειραιω
πειραμα
πειραματι
πειραματικα
πειραματικη
πειραματικο
πειρασμο
πειρατε
πειρατει
πειρατω
πειρες
πειρη
πειρο
πειρον
πειρος
πειρω
πεις
πεισαν
πεισε
πεισι
πειτα
πεκι
πεκρι
πελ
πελα
πελατω
πελε
πελεκα
πελθει
πελλα
πελλο
πελοπι
πελοπο
πελοποννη
πελοποννησι
πελοποννησιακο
πελοποννησιακου
πεμπε
πεμψαν
πεμψε
πεμψεν
πεν
πεναντι
πενη
πενι
πενσυλβα
πεντα
πενταετη
πενταετι
πεντακο
πεντακοσι
πεντε
πεντη
πεντηκοστη
πεπεισμε
πεπερασμε
πεπι
πεπο
πεποι
πεποιημε
πεποιθη
πεπραγμε
πεπρωμε
περ
περα
περαι
περαιτε
περας
περασμε
περβα
περβολη
περγα
περδι
περε
περες
περη
περηφα
περι
περιβα
περιβαλλο
περιβαλλοντικα
περιβαλλοντικε
περιβαλλοντικη
περιβαλλοντικω
περιβο
περιγρα
περιγραφε
περιγραφει
περιγραφη
περιε
περιει
περιεκτικο
περιελα
περιεχο
περιεχομε
περιη
περιηγητη
περιθω
περικλει
περικλη
περικυ
περικυκλω
περιλα
περιλαμβα
περιλαμβανο
περιλαμβανομε
περιλη
περιμε
περιο
περιοδει
περιοδευ
περιοδικα
περιοδικη
περιοδικο
περιοδικου
περιοδικω
περιορι
περιοριζο
περιορισμε
περιορισμο
περιορισμοι
περιορισμου
περιορισμω
περιοριστει
περιουσι
περιουσιακα
περιουσιακω
περιοχε
περιοχη
περιοχω
περιπα
περιπε
περιπετειω
περιπλανω
περιπλε
περιπολι
περιπτω
περισσο
περισσοτε
περιστα
περιστασιακα
περιστατικα
περιστατικο
περιστε
περιστερι
περιστρε
περιστρεφο
περιστροφη
περιττη
περιττο
περιφε
περιφερεια
περιφερειακα
περιφερειακε
περιφερειακη
περιφερειακο
περιφερειακου
περιφερειακω
περιφερειω
περιφορα
περιφρο
περνα
περνου
περνω
περο
περου
περπα
περπατου
περς
περσε
περσι
περσικα
περσικη
περσικο
περσικου
περσω
πες
πεσαν
πεσε
πεσεν
πεσθαι
πεσο
πεσον
πετα
πεται
πεταλου
πετε
πετι
πετο
πετοσφαι
πετοσφαιριστε
πετου
πετρα
πετρας
πετρε
πετρελαι
πετρι
πετρο
πετρου
πετρω
πετρωμα
πετυ
πετυχαι
πετυχημε
πετω
πευ
πευαν
πευε
πεφτε
πεχει
πη
πηγα
πηγαι
πηγε
πηγη
πηγω
πηδα
πηκαν
πηκε
πηλι
πηλο
πημα
πην
πηνελο
πηνι
πηρε
πηρεσι
πης
πησαν
πησε
πηση
πησης
πι
πια
πιανι
πιασε
πιαστ
πιβα
πιβουλευ
πιβουλη
πιδει
πιε
πιει
πιερ
πιερι
πιερικο
πιες
πιζαν
πιζε
πιθανα
πιθανε
πιθανη
πιθανο
πιθανολογει
πιθανου
πιθανω
πιθε
πιθη
πιθυμι
πικα
πικρα
πικρι
πικρο
πιλα
πιλε
πιλο
πιμα
πιμε
πιμελει
πιμο
πιν
πινα
πινακι
πινακοθη
πινγκ
πινε
πινες
πινη
πινης
πινο
πινου
πινων
πιο
πιοι
πιον
πιος
πιου
πιους
πιπε
πιπλα
πις
πισαν
πισε
πιση
πισης
πισθεν
πισι
πισκο
πισσα
πισσας
πισσες
πιστα
πιστε
πιστες
πιστευ
πιστευο
πιστη
πιστο
πιστοι
πιστολη
πιστοποι
πιστοποιητικο
πιστος
πιστου
πιστρε
πιστω
πιτ
πιτα
πιτη
πιτηδει
πιτηδευ
πιτι
πιτρε
πιφε
πιχειρη
πιω
πιων
πκε
πλ
πλα
πλαγι
πλαγια
πλαγιε
πλαι
πλαισι
πλαισιω
πλακε
πλακω
πλανη
πλανητω
πλαση
πλασμα
πλαστη
πλαστικο
πλατα
πλατανια
πλατει
πλατια
πλατινε
πλατυ
πλατφο
πλε
πλει
πλεια
πλειο
πλειονο
πλειοψηφι
πλειοψηφικο
πλεο
πλεονα
πλεονε
πλεονεκτη
πλερ
πλευ
πλευρα
πλευρε
πλευρη
πλευρικη
πλευρο
πλευρω
πλευσαν
πλευσε
πλη
πληβει
πληγε
πληγει
πληγη
πληγω
πληγωμε
πληθυ
πληθυντικο
πληθυσμιακε
πληθυσμιακη
πληθυσμο
πληθυσμοι
πληθυσμου
πληθυσμω
πληθω
πληθωρισμο
πληκτρολο
πλημμυ
πλημμυρι
πλην
πληξε
πληρε
πληρεξου
πληρεξουσι
πληρο
πληροι
πληρου
πληροφο
πληροφορει
πληροφορη
πληροφορι
πληροφορικη
πληροφοριω
πληρω
πληρωμε
πληρωμη
πλησι
πλησια
πλησιε
πλι
πλια
πλιν
πλιο
πλμ
πλο
πλοη
πλοι
πλοια
πλοιο
πλοις
πλοκα
πλοκες
πλοκη
πλοκο
πλου
πλους
πλουσι
πλουσιο
πλυ
πλω
πλωμα
πλων
πλωση
πλωσης
πλωτι
πμπορν
πνε
πνευ
πνευμα
πνευματικα
πνευματικε
πνευματικη
πνευματικο
πνευματικου
πνευματικω
πνευμονι
πνευμονικη
πνευσε
πνι
πνισμα
πνο
πνοη
πνον
πνος
πνου
πο
ποβα
ποδα
ποδε
ποδει
ποδες
ποδη
ποδηλα
ποδηλασι
ποδι
ποδιου
ποδιω
ποδο
ποδοσφαι
ποδοσφαιρικα
ποδοσφαιρικε
ποδοσφαιρικη
ποδοσφαιρικο
ποδοσφαιρικου
ποδοσφαιρικω
ποδοσφαιριστε
ποδοσφαιριστη
ποδοσφαιριστω
ποδου
ποδω
ποελ
ποθα
ποθανει
ποθανο
ποθε
ποθνη
ποι
ποια
ποιας
ποιε
ποιει
ποιες
ποιη
ποιημα
ποιησα
ποιητε
ποιητη
ποιητικε
ποιητικη
ποιητικο
ποιητω
ποικι
ποικιλι
ποικιλο
ποικιλομορφι
ποικοι
ποιμε
ποινα
ποινε
ποινη
ποινικη
ποινικο
ποινικου
ποιο
ποιοι
ποιον
ποιος
ποιου
ποιους
ποις
ποιω
ποιων
ποκα
ποκει
ποκειμε
ποκρι
ποκτει
πολ
πολα
πολαμβα
πολαυ
πολε
πολει
πολεμα
πολεμει
πολεμη
πολεμι
πολεμικα
πολεμικε
πολεμικη
πολεμικο
πολεμικου
πολεμικω
πολεμιστε
πολεμιστη
πολεμιστω
πολεμου
πολεμω
πολεοδομικο
πολη
πολης
πολι
πολικο
πολιν
πολιο
πολιορκη
πολιορκημε
πολιορκι
πολιορκου
πολιου
πολις
πολιτει
πολιτειακη
πολιτειακο
πολιτειω
πολιτευ
πολιτικα
πολιτικε
πολιτικη
πολιτικο
πολιτικοι
πολιτικου
πολιτικω
πολιτισμικα
πολιτισμικη
πολιτισμο
πολιτισμοι
πολιτισμου
πολιτισμω
πολιτιστικα
πολιτιστικε
πολιτιστικη
πολιτιστικο
πολιτιστικου
πολιτιστικω
πολιτοφυλακη
πολιτω
πολλα
πολλαι
πολλαπλα
πολλαπλασια
πολλαπλασιασμο
πολλαπλε
πολλαπλη
πολλαπλο
πολλαπλω
πολλε
πολλη
πολλο
πολλοι
πολλου
πολλω
πολο
πολογι
πολογισμο
πολογισμου
πολυ
πολυα
πολυβο
πολυεθνικη
πολυετη
πολυκα
πολυκατοικι
πολυμε
πολυνι
πολυπληθε
πολυπλοκο
πολυσυ
πολυτε
πολυτελε
πολυτελει
πολυτελη
πολυτεχνει
πολυτιμο
πολυω
πολυωνυ
πολωνι
πολωνικα
πολωνικε
πολωνικη
πολωνικο
πολωνικου
πολωνικω
πολωνο
πολωνοι
πολωνου
πολωνω
πομα
πομε
πομεν
πομερανι
πομπη
πομπηι
πον
πονα
πονη
πονηρα
πονηρι
πονηρο
πονηρου
πονο
ποντα
πονται
πονταν
ποντας
ποντες
ποντι
ποντο
ποπ
ποπτος
πορ
πορει
πορευ
πορη
πορθμο
πορι
πορνει
πορου
πορσελα
πορτ
πορτο
πορτογα
πορτογαλι
πορτογαλικα
πορτογαλικη
πορτογαλικο
πορτοκαλι
πορτραι
πορτρε
πορφυ
πορω
πος
ποσα
ποσειδω
ποση
ποσι
ποσο
ποσοστα
ποσοστο
ποσοστου
ποσου
ποστα
ποστε
ποστη
ποστο
ποστρε
ποσω
ποτ
ποτα
ποταμια
ποταμο
ποταμοι
ποταμου
ποταμω
ποτε
ποτη
ποτι
ποτο
ποτω
που
πουα
πουατιε
πουε
πουθενα
πουκα
πουλα
πουλη
πουλι
πουλια
πουλιω
πουλο
πουλος
πουλου
πουλω
πουμε
πουν
πους
πουσι
ποφα
ποφαι
ποχη
ποψη
ποψης
ππ
ππα
ππας
ππε
ππει
ππη
ππι
ππο
πποι
ππον
ππος
ππου
ππους
ππω
ππων
πρ
πρα
πραγμα
πραγματει
πραγματευ
πραγματικα
πραγματικε
πραγματικη
πραγματικο
πραγματικου
πραγματικω
πραγματοποι
πραγματοποιει
πραγματοποιη
πραγματοποιηθει
πραγματοποιηθου
πραγματοποιου
πραγματοποιω
πρακτικα
πρακτικε
πρακτικη
πρακτικο
πρακτικω
πρακτο
πρακτορει
πραντε
πραξαν
πραξε
πραξικο
πραξικοπη
πρασι
πρε
πρεβε
πρεμιε
πρεπε
πρεσβει
πρεσβευ
πρεσβευτη
πρεσβυ
πρεσβυτε
πρη
πρι
πρια
πριγκι
πριγκιπα
πριμε
πριν
πριο
πριοι
πριος
πριους
προ
προα
προαγωγη
προαι
προαιρε
προαιρετικα
προαιρετικη
προαναφε
προαναφερθε
προαναφερθει
προαστι
προαυ
προβα
προβαι
προβαλλο
προβεβλημε
προβει
προβηγκι
προβιβα
προβλε
προβλεπο
προβλη
προβληθει
προβλημα
προβληματικη
προβληματικο
προβληματισμο
προβολε
προβολη
προγενε
προγο
προγρα
προγραμμα
προγραμματι
προγραμματισμε
προγραμματισμο
προγραμματισμου
προγραμματιστε
προγραμματιστει
προγραμματιστη
προδι
προδιαγραφε
προδο
προδοσι
προδρο
προε
προεδρει
προεδρευ
προεδρι
προεδρικε
προεδρικη
προεδρικο
προεδρικω
προει
προειδοποι
προειδοποιει
προειδοποιη
προειρημε
προεκλογικη
προεξε
προεπιλεγμε
προερχο
προετοι
προετοιμα
προετοιμασι
προη
προηγει
προηγη
προηγηθει
προηγμε
προηγου
προηγουμε
προημιτελικα
προημιτελικη
προημιτελικοι
προημιτελικου
προθε
προθεσμι
προθυ
προθυμι
προι
προκα
προκαθορισμε
προκαλε
προκαλει
προκαλου
προκαλω
προκατα
προκατο
προκει
προκειμε
προκη
προκηρυ
προκλη
προκληθει
προκο
προκρι
προκριθει
προκριματικα
προκριματικη
προκριματικο
προκριματικου
προκριματικω
προκυ
προλα
προμαχω
προμη
προμηθε
προμηθειω
προμηθευ
προν
προνο
προνοι
προνομι
προνυ
προξε
προξενει
προο
προοδευτικη
προοδευτικο
προοι
προοπτικε
προοπτικη
προορι
προοριζο
προορισμο
προορισμου
προπα
προπαγα
προπανο
προπε
προπο
προπονη
προπονητε
προπονητη
προπονητικη
προπονητω
προποντι
προπυ
προς
προσα
προσαγορευ
προσανατολισμε
προσανατολισμο
προσανατολισμου
προσαρμο
προσαρμογε
προσαρμογη
προσαρμοσμε
προσαρμοστει
προσαρτα
προσαρτη
προσβα
προσβολη
προσγει
προσγειω
προσδε
προσδι
προσδιορι
προσδιορισμο
προσδιορισμου
προσδιοριστει
προσδο
προσδοκι
προσε
προσεγγι
προσει
προσεκτικα
προσεκτικη
προσελη
προσελκυ
προσευ
προσευχε
προσευχη
προση
προσθε
προσθη
προσκα
προσκει
προσκεκλημε
προσκη
προσκλη
προσκο
προσκυ
προσκυνη
προσκυνητε
προσλα
προσλαμβα
προσλη
προσο
προσομοι
προσοχη
προσπα
προσπαθει
προσπαθειω
προσπαθη
προσπαθου
προσπαθω
προσπε
προσπι
προστα
προστασι
προστατε
προστατευ
προστατευμε
προστατευο
προστε
προστεθει
προστεθου
προστι
προστιθε
προσφα
προσφε
προσφερο
προσφορα
προσφορε
προσφυ
προσφυγη
προσχε
προσχω
προσχωρη
προσω
προσωνυ
προσωπικα
προσωπικε
προσωπικη
προσωπικο
προσωπικοτη
προσωπικου
προσωπικω
προσωπογραφι
προσωρινα
προσωρινη
προσωρινο
προτα
προταθει
προτε
προτει
προτεινο
προτεκτορα
προτελευται
προτεραιο
προτεστα
προτεσταντικη
προτι
προτιμα
προτιμη
προτιμο
προτιμου
προτιμω
προτομη
προτου
προτρε
προτροπη
προτυ
πρου
προφα
προφανε
προφανη
προφανω
προφε
προφη
προφητει
προφητω
προφι
προφορα
προφορικη
προφυλα
προχω
προχωρα
προχωρη
προχωρημε
προχωρου
προχωρω
προω
προωθει
προωθη
προωθου
πρυ
πρω
πρωθυπουργι
πρωθυπουργο
πρωθυπουργοι
πρωθυπουργου
πρωθυπουργω
πρωι
πρωινη
πρωινο
πρωσι
πρωσικη
πρωτα
πρωταγωνι
πρωταγωνιστε
πρωταγωνιστει
πρωταγωνιστη
πρωταγωνιστικο
πρωταγωνιστικου
πρωταγωνιστου
πρωταγωνιστω
πρωταθλη
πρωταθλημα
πρωταθλητε
πρωταθλητη
πρωταθλητριω
πρωταθλητω
πρωταρχικη
πρωταρχικο
πρωτε
πρωτει
πρωτεργα
πρωτευ
πρωτι
πρωτο
πρωτοβα
πρωτοβουλι
πρωτογενει
πρωτογενη
πρωτοδικει
πρωτοεμφανι
πρωτοεμφανιζο
πρωτοκο
πρωτονι
πρωτοπο
πρωτοπορι
πρωτοστα
πρωτοτυ
πρωτοχρονια
πτα
πται
πτε
πτει
πτειν
πτερα
πτερο
πτερυ
πτες
πτεσθαι
πτεται
πτη
πτηνα
πτηνο
πτηνου
πτηνω
πτης
πτιοι
πτιος
πτιση
πτισμα
πτο
πτολεμαι
πτον
πτοντα
πτονται
πτονταν
πτοντας
πτοντες
πτου
πτουν
πτουσιν
πτυξαν
πτυξε
πτυξη
πτυξης
πτυχε
πτυχη
πτυχι
πτυχιου
πτυχο
πτω
πτων
πτωση
πτωσης
πυ
πυγμα
πυγμαχι
πυθαγο
πυθι
πυθμε
πυθο
πυκνα
πυκνη
πυκνο
πυκνοκατοικημε
πυλαι
πυλι
πυλω
πυνθα
πυξι
πυρ
πυρα
πυραμι
πυραυ
πυργι
πυρετο
πυρετου
πυρη
πυρηναι
πυρηνικα
πυρηνικη
πυρηνικο
πυρηνικου
πυρηνικω
πυρι
πυριτι
πυρκαγια
πυρκαγιε
πυρο
πυροβο
πυροβολει
πυροβολη
πυροβολικο
πυροβολικου
πυροβολισμου
πυροδο
πυρομαχικα
πυρομαχικω
πυρος
πυρπο
πυρπολη
πυρσο
πυρω
πχ
πω
πωλ
πωλει
πωλη
πωλητη
πωλου
πωμα
πων
πωνας
πωνες
πωρο
πως
πωσε
πωση
πωσης
ρ
ρα
ραβα
ραβδι
ραβε
ραβες
ραβι
ραγγα
ραγγας
ραγδαι
ραγε
ραγκαβη
ραδιο
ραδιοτηλεοπτικο
ραδιοφω
ραδιοφωνι
ραδιοφωνικη
ραδιοφωνικο
ραδιοφωνικου
ραζε
ραι
ραιο
ραιος
ραις
ρακ
ρακα
ρακας
ρακι
ρακλε
ρακλει
ρακλη
ρακος
ραλντ
ραλφ
ραμ
ραμα
ραμε
ραμι
ραμο
ραν
ρανα
ρανε
ρανι
ραννος
ρανο
ρανου
ρανση
ραντ
ραντα
ραντεβου
ραντο
ρανω
ραξε
ραξη
ραου
ραρε
ραρχος
ρας
ρασα
ρασαν
ρασε
ραση
ρασης
ρασι
ρασμα
ρατα
ρατο
ρατος
ρατς
ρατσισμο
ραυ
ραφαε
ραφαη
ραφη
ραχμα
ραψωδι
ρβα
ρβαρντ
ρβαροι
ρβας
ρβιν
ρβογλη
ρβοι
ρβος
ρβους
ρβων
ργα
ργανα
ργανη
ργανης
ργανο
ργας
ργασι
ργει
ργεια
ργειαν
ργειας
ργειε
ργειες
ργη
ργημα
ργης
ργησαν
ργησε
ργηση
ργι
ργια
ργιο
ργιος
ργιου
ργκ
ργκα
ργκαν
ργκαρετ
ργκεν
ργκερ
ργκι
ργκο
ργο
ργοι
ργοις
ργον
ργος
ργου
ργουορντ
ργους
ργραβος
ργυ
ργυρι
ργυρο
ργυρος
ργω
ργων
ρδα
ρδας
ρδη
ρδης
ρδιζε
ρδισαν
ρδισε
ρδο
ρδοβα
ρδοι
ρδος
ρδου
ρδους
ρδων
ρε
ρεα
ρεαλισμο
ρεαλιστικη
ρεγκον
ρεθ
ρεθυ
ρει
ρεια
ρειαν
ρειας
ρειες
ρειν
ρειο
ρειος
ρειου
ρεις
ρειων
ρεκ
ρεκο
ρελ
ρεμα
ρεμι
ρεμπε
ρεν
ρενα
ρενε
ρενς
ρεντ
ρεντι
ρεντς
ρεξη
ρεπερτο
ρεπορτα
ρεπουμπλικανικο
ρεπουμπλικανικου
ρερ
ρες
ρεσα
ρεσαν
ρεσε
ρεση
ρεσης
ρεσθαι
ρεσι
ρεσιν
ρεσις
ρεστ
ρετ
ρετα
ρεται
ρετε
ρετη
ρετο
ρετον
ρετος
ρετρο
ρετω
ρευ
ρευαν
ρευε
ρευμα
ρευνα
ρευνας
ρευνες
ρευσαν
ρευσε
ρευση
ρευσης
ρευστο
ρεψε
ρεως
ρη
ρηγο
ρηδες
ρηκε
ρηκεν
ρημα
ρημε
ρημο
ρημον
ρημος
ρην
ρηνανι
ρης
ρησα
ρησαν
ρησε
ρησεν
ρηση
ρησης
ρησιν
ρησις
ρητα
ρηται
ρητη
ρητι
ρητο
ρητορικη
ρητος
ρθ
ρθα
ρθαν
ρθε
ρθει
ρθη
ρθηκα
ρθηκαν
ρθηκε
ρθια
ρθο
ρθουν
ρθουρ
ρθρ
ρθρα
ρθρο
ρθρον
ρθρου
ρθρων
ρθρωση
ρθρωσης
ρθω
ρθωμα
ρθωσαν
ρθωσε
ρθωση
ρθωσης
ρι
ρια
ριαζε
ριακο
ριαλ
ριαν
ριας
ριβε
ριγμα
ριδα
ριδες
ριδος
ριε
ριελ
ριες
ριζα
ριζαν
ριζε
ριζικα
ριζο
ριζοσπα
ριζοσπαστικη
ριζω
ριθμα
ριθμες
ριθμο
ριθμοι
ριθμος
ριθμου
ριθμους
ριθμω
ρικ
ρικα
ρικο
ριλ
ριλαντ
ριλλος
ριμα
ριμνα
ριμπα
ριν
ρινα
ρινας
ρινγκ
ρινη
ρινθο
ρινθος
ρινο
ριντ
ριντα
ριξ
ριξαν
ριξε
ριξη
ριξης
ριο
ριοι
ριον
ριορς
ριος
ριου
ριους
ριπι
ρις
ρισα
ρισαν
ρισας
ρισε
ρισεν
ριση
ρισης
ρισμα
ρισμε
ρισον
ριστα
ριστερα
ριστες
ριστη
ριστης
ριστο
ριστοι
ριστον
ριστος
ριστοτε
ριτος
ριτς
ριτσα
ριχ
ριχα
ριχο
ριχος
ριχου
ριων
ρκ
ρκα
ρκας
ρκε
ρκει
ρκεια
ρκειας
ρκερ
ρκες
ρκεσε
ρκετ
ρκετινγκ
ρκη
ρκης
ρκησαν
ρκησε
ρκι
ρκικα
ρκο
ρκοι
ρκον
ρκος
ρκου
ρκους
ρκυρα
ρκυρας
ρκων
ρκωση
ρλα
ρλει
ρλι
ρλιν
ρλινγκ
ρλο
ρλοου
ρλος
ρλοτ
ρμ
ρμα
ρμακα
ρμακο
ρμαν
ρμανση
ρμανσης
ρμαρο
ρμας
ρματα
ρματος
ρμαχτ
ρμεν
ρμενι
ρμες
ρμη
ρμι
ρμιγχαμ
ρμιο
ρμο
ρμονι
ρμος
ρμοσε
ρμου
ρμουλα
ρμπα
ρμπαρα
ρμπαχτσε
ρμπερτ
ρμπι
ρμστατ
ρν
ρνα
ρνακα
ρνακας
ρναρντ
ρνας
ρνε
ρνει
ρνερ
ρνες
ρνεστ
ρνη
ρνης
ρνησαν
ρνησε
ρνηση
ρνησης
ρνησιν
ρνησις
ρνι
ρνια
ρνιας
ρνο
ρνολντ
ρνοντας
ρνος
ρνου
ρνουμε
ρνουν
ρντ
ρντα
ρνταν
ρντεν
ρντι
ρντο
ρντον
ρνω
ρξα
ρξαν
ρξατο
ρξε
ρξει
ρξεν
ρξεως
ρξη
ρξης
ρξουν
ρο
ροβε
ροβιτς
ρογη
ρογλου
ροδα
ροδι
ροδο
ροδρι
ροε
ροζ
ροζα
ροζε
ροη
ροι
ροια
ροιας
ροις
ροκ
ρολ
ρολα
ρολντ
ρολο
ρολογιου
ρολος
ρολου
ρομα
ρομαι
ρομαντικη
ρομαντικο
ρομαντισμο
ρομαντισμου
ρομε
ρομπ
ρομπε
ρομπο
ρον
ρονα
ροντα
ρονται
ρονταν
ροντας
ροντες
ροντο
ροντος
ροντρι
ροου
ροπη
ρος
ροσε
ροστο
ρου
ρουα
ρουε
ρουθ
ρουμ
ρουμα
ρουμανι
ρουμανικα
ρουμανικη
ρουμανικο
ρουμε
ρουν
ρους
ρουσα
ρουσι
ρουσιν
ρουτι
ροφ
ροφο
ροφος
ροχη
ροχο
ρπα
ρπαξε
ρρα
ρρας
ρρε
ρρενες
ρρες
ρρευσε
ρρευση
ρρηση
ρρι
ρριψαν
ρριψε
ρριψη
ρρο
ρροια
ρρος
ρρου
ρρυ
ρρυνε
ρρυνση
ρρω
ρρωση
ρρωστος
ρς
ρσα
ρσαι
ρσαλ
ρσας
ρσει
ρσεις
ρσελ
ρσεν
ρσεναλ
ρσες
ρση
ρσης
ρσι
ρσια
ρσκ
ρσκι
ρσο
ρσον
ρτ
ρτα
ρτας
ρταση
ρτε
ρτεμις
ρτερ
ρτες
ρτζια
ρτζιο
ρτη
ρτημα
ρτην
ρτης
ρτησε
ρτηση
ρτησης
ρτητα
ρτητες
ρτητη
ρτητης
ρτητο
ρτητοι
ρτητος
ρτητου
ρτητους
ρτητων
ρτι
ρτια
ρτιγκ
ρτιμερ
ρτιν
ρτινγκ
ρτιο
ρτιος
ρτις
ρτιση
ρτισης
ρτλαντ
ρτλι
ρτμουντ
ρτο
ρτον
ρτος
ρτου
ρτους
ρτσα
ρτσιλ
ρτυρα
ρτυρας
ρτυρες
ρτυρος
ρτυς
ρτων
ρτωση
ρτωσης
ρυ
ρυα
ρυβο
ρυβος
ρυγα
ρυγας
ρυγες
ρυγμα
ρυζιου
ρυθμι
ρυθμικη
ρυθμο
ρυθμου
ρυκα
ρυκας
ρυνση
ρυξ
ρυξαν
ρυξε
ρυξη
ρυξης
ρυσι
ρφι
ρφια
ρφου
ρφωσε
ρφωση
ρφωσης
ρχα
ρχαι
ρχαν
ρχαρτ
ρχε
ρχει
ρχειν
ρχεν
ρχες
ρχεσθαι
ρχεται
ρχετο
ρχη
ρχης
ρχησε
ρχι
ρχιζε
ρχισαν
ρχισε
ρχο
ρχομαι
ρχομε
ρχον
ρχοντα
ρχονται
ρχονταν
ρχοντας
ρχοντες
ρχοντος
ρχου
ρχουν
ρχους
ρχουσα
ρχουσες
ρχω
ρχων
ρω
ρωα
ρωας
ρωες
ρωθεν
ρωι
ρωμα
ρωμαι
ρωμαιοκαθολικη
ρωμαιοκαθολικο
ρωμαιοκαθολικοι
ρωμανι
ρωμανο
ρωμανου
ρωμε
ρωμυ
ρων
ρωνα
ρωναν
ρωνε
ρωνος
ρως
ρωσ
ρωσαν
ρωσε
ρωση
ρωσης
ρωσι
ρωσικα
ρωσικε
ρωσικη
ρωσικο
ρωσικου
ρωσικω
ρωσιν
ρωσο
ρωτα
ρωτας
ρωτη
ρωτο
ρωτος
ρωτω
ρωφ
ς
σ
σα
σαα
σαβα
σαββα
σαββατοκυ
σαββι
σαβι
σαβοι
σαγκα
σαι
σαιζο
σαιν
σαιντ
σαις
σαιτο
σακα
σακελλα
σακελλαρι
σακου
σαλα
σαλαμι
σαλαντι
σαλβαδο
σαλε
σαλι
σαλο
σαλω
σαμ
σαμα
σαμαρα
σαμε
σαμεν
σαμι
σαμο
σαμοθρα
σαμουη
σαμουρα
σαμπα
σαμποτα
σαν
σανα
σανδρος
σανε
σανθος
σανι
σανου
σανς
σαντ
σαντα
σαντας
σαντες
σαντζα
σαντι
σαντια
σαντο
σαντορι
σαντος
σαξο
σαξονι
σαου
σαουδικη
σαρ
σαρα
σαραγο
σαρας
σαρδηνι
σαρι
σαρκο
σαρκοφα
σαρκω
σαρλ
σαρλο
σαρος
σαρτρ
σας
σασα
σασθαι
σασθε
σασι
σασιν
σασσανιδω
σατανα
σατε
σατο
σατρα
σαυ
σαφε
σαφει
σαφη
σαφω
σαχ
σαχα
σαχι
σβα
σβαλντ
σβαση
σβασης
σβε
σβεις
σβεν
σβη
σβης
σβιχ
σβο
σβου
σδ
σδε
σδη
σδυση
σε
σεβα
σεβασμο
σεβασμου
σεβαστη
σεβαστο
σεβαστου
σεβε
σεβει
σεβη
σεβι
σεβιτς
σεβο
σεγας
σεγου
σεζα
σεζο
σει
σειε
σειεν
σειν
σειρα
σειρε
σειρη
σειρω
σεις
σεισμο
σεισμου
σεκ
σελ
σελα
σελευ
σελευκιδω
σελη
σελι
σελτζου
σεμινα
σεμνο
σεμπα
σεμπαστια
σεν
σενα
σεναρι
σεναριογρα
σενεγα
σεντ
σεντα
σεξ
σεξουαλικα
σεξουαλικε
σεξουαλικη
σεξουαλικο
σεου
σεπτε
σεπτεμβρι
σερ
σερα
σεραφει
σερβι
σερβικα
σερβικη
σερβικο
σερβικου
σεργκε
σερε
σερζ
σερι
σερρω
σες
σεσθαι
σεσθε
σεσι
σεσιν
σετ
σεται
σετε
σευ
σεφ
σεφε
σεω
σεων
σεως
ση
σηκουα
σηκω
σημ
σημα
σημαδευ
σημαι
σημαιοφο
σημαντικα
σημαντικε
σημαντικη
σημαντικο
σημαντικοι
σημαντικου
σημαντικω
σημασι
σημασιολογι
σηματοδο
σηματοδοτει
σηματοδοτω
σημει
σημειογραφι
σημειω
σημειωθει
σημειωματα
σημερινα
σημερινε
σημερινη
σημερινο
σημερινου
σημερινω
σημες
σημη
σημης
σημο
σημοι
σημος
σημου
σημους
σημων
σην
σηπος
σης
σηται
σητε
σητει
σθ
σθα
σθαι
σθε
σθεν
σθεναρα
σθενε
σθενει
σθενη
σθεσε
σθεση
σθετα
σθετες
σθετη
σθετο
σθη
σθηκαν
σθηκε
σθημα
σθην
σθησαν
σθηση
σθησης
σθησιν
σθητα
σθητη
σθητο
σθι
σθια
σθιο
σθω
σθωσαν
σι
σια
σιας
σιβηρι
σιγα
σιγη
σιγισμου
σιγκαν
σιγκαπου
σιγκτον
σιδε
σιδερε
σιδη
σιδηρα
σιδηρο
σιδηροδρο
σιδηροδρομικε
σιδηροδρομικη
σιδηροδρομικο
σιδηροδρομικου
σιδηροδρομικω
σιδηρου
σιδω
σιε
σιες
σικα
σικελι
σικελιω
σικο
σικυω
σιλα
σιλβε
σιλεσι
σιμα
σιμες
σιμη
σιμης
σιμο
σιμοι
σιμον
σιμος
σιμου
σιμους
σιμων
σιμωνι
σιν
σινα
σινγκ
σινγκλ
σινγκτον
σινεμα
σινη
σινο
σινοι
σινου
σιντ
σιο
σιοι
σιον
σιος
σιου
σιους
σιρα
σιρι
σιρο
σις
σισαν
σισε
σιτα
σιτηρα
σιτηρω
σιτι
σιτο
σιτς
σιχ
σιω
σιων
σιωπη
σκ
σκα
σκαι
σκακιου
σκαλο
σκαλοι
σκαλοπα
σκαλος
σκανδα
σκανδιναβι
σκανδιναβικη
σκαρ
σκαρφα
σκαρφαλω
σκας
σκαφω
σκε
σκει
σκεια
σκειν
σκεις
σκελετο
σκεπα
σκεπτικο
σκες
σκετ
σκεται
σκετο
σκευ
σκεφτει
σκεφτο
σκεψη
σκεψης
σκη
σκην
σκηνε
σκηνη
σκηνικα
σκηνικο
σκηνοθε
σκηνοθεσι
σκηνοθετη
σκηνω
σκησαν
σκησε
σκηση
σκησης
σκι
σκια
σκιε
σκιν
σκιπι
σκιω
σκλα
σκλη
σκληρα
σκληρε
σκληρη
σκληρο
σκληρου
σκληση
σκο
σκοι
σκολα
σκολες
σκολη
σκολο
σκον
σκοντα
σκονται
σκονταν
σκοντας
σκοντες
σκοπει
σκοπευ
σκοπευτη
σκοπι
σκοπια
σκοπιμο
σκοπο
σκοποβολη
σκοποι
σκοπος
σκοπου
σκοπω
σκορ
σκορα
σκορπι
σκος
σκοτ
σκοτα
σκοτεινα
σκοτεινη
σκοτεινο
σκοτι
σκοτω
σκοτωθει
σκου
σκουμε
σκουν
σκουπι
σκουρο
σκους
σκρουση
σκρουσης
σκυ
σκυλι
σκυλια
σκυρο
σκυταλοδρομι
σκω
σκων
σκωτι
σκωτσε
σλα
σλαβικε
σλαβικη
σλαβο
σλαβομακεδο
σλαος
σλαου
σλαφ
σλε
σλει
σληψη
σλι
σλο
σλοβα
σλοβακι
σλοβε
σλοβενι
σμ
σμα
σμαν
σμαρα
σμαρκ
σματα
σματος
σμε
σμεν
σμευση
σμη
σμηση
σμι
σμια
σμιας
σμιες
σμιθ
σμικρο
σμιο
σμιος
σμιου
σμιων
σμο
σμολ
σμον
σμος
σμου
σμους
σμυ
σμω
σμων
σνα
σνευ
σνο
σο
σοβα
σοβαρα
σοβαρε
σοβαρη
σοβαρο
σοβαρου
σοβαρω
σοβιε
σοβιετικα
σοβιετικε
σοβιετικη
σοβιετικο
σοβιετικοι
σοβιετικου
σοβιετικω
σοβο
σοδα
σοδο
σοδος
σοι
σοις
σοκ
σοκο
σοκολα
σολ
σολι
σολομω
σολωμου
σομαι
σομαλι
σομε
σομεν
σον
σονα
σονγκ
σονται
σοπε
σοπρα
σορβο
σορο
σος
σοσιαλδημοκρα
σοσιαλδημοκρατικο
σοσιαλισμο
σοσιαλισμου
σοσιαλιστε
σοσιαλιστικη
σοσιαλιστικο
σοσιαλιστικου
σου
σουα
σουαβι
σουαφ
σουαχι
σουδα
σουε
σουζα
σουηδι
σουηδικα
σουηδικη
σουηδικο
σουηδο
σουηδοι
σουι
σουλει
σουλι
σουλιω
σουλτα
σουλτανα
σουμα
σουμε
σουν
σουνε
σουνι
σους
σουσι
σουσιν
σουτ
σοφ
σοφα
σοφι
σοφιστη
σοφο
σοφοι
σοφοκλη
σοφος
σοφου
σοφω
σοψη
σπ
σπα
σπαθι
σπαθια
σπανι
σπανιο
σπανο
σπανου
σπαρτα
σπαρτια
σπαρτιατω
σπασαν
σπασε
σπαση
σπασης
σπασμα
σπασμε
σπαστο
σπε
σπει
σπειροειδη
σπερ
σπερς
σπευ
σπευσαν
σπευσε
σπη
σπηλαι
σπηλια
σπηλιε
σπι
σπιν
σπινο
σπισε
σπιση
σπισης
σπιτα
σπιτιου
σπιτιω
σπλα
σπλιτ
σπο
σποινα
σπονδα
σπονδυλικη
σπορ
σπορα
σπου
σπουδα
σπουδαι
σπουδαιο
σπουδαστε
σπουδαστη
σπουδε
σπουδη
σπουδω
σπρα
σπρι
σπριντ
σπρο
σπρω
σπυ
σπυρι
σραη
σρε
σρι
σσ
σσα
σσαν
σσαου
σσαρα
σσαρας
σσαρες
σσας
σσδ
σσει
σσεια
σσειν
σσελ
σσεν
σσεξ
σσερα
σσερεις
σσερις
σσες
σσεται
σση
σσης
σσι
σσια
σσιας
σσιες
σσιο
σσιος
σσιου
σσιων
σσο
σσον
σσονα
σσονος
σσονται
σσονταν
σσοντας
σσος
σσου
σσουν
σσυρι
σσω
σσων
στ
στα
σταβ
σταγο
σταδι
σταδιακα
σταδιακη
σταδιοδρομι
σταθει
σταθερα
σταθερε
σταθερη
σταθερο
σταθεροποι
σταθερου
σταθερω
σταθμικο
σταθμο
σταθμοι
σταθμου
σταθμω
σται
σταλ
σταλει
σταμα
σταματα
σταματελα
σταματη
σταματου
σταμε
σταν
στανι
σταντ
στανται
σταντο
σταρ
σταρκ
στας
στασε
σταση
στασης
στασθαι
στασι
στασιν
στασις
στατ
στατα
σταται
στατη
στατης
στατικη
στατιστικα
στατιστικε
στατιστικη
στατιστικω
στατο
στατον
στατος
στατου
σταυ
σταυρι
σταυρο
σταυροδρο
σταυρος
σταυρου
σταυροφο
σταυροφορι
σταυρω
σταφι
σταφυ
στε
στεγα
στει
στεια
στειλαν
στειλε
στειλεν
στειο
στελε
στελεχω
στελνε
στεν
στενα
στενε
στενη
στενο
στενου
στενω
στερ
στερα
στεραι
στερε
στερεα
στερει
στερεο
στερες
στερεω
στερη
στερης
στερια
στερν
στερο
στεροι
στερον
στερος
στερου
στερους
στερων
στες
στευαν
στευε
στευσαν
στευσε
στευση
στευσης
στεφα
στεφανι
στεφανιαι
στεφανο
στεψε
στεως
στη
στηβ
στηκα
στηκαν
στηκε
στηκεν
στηλω
στημα
στην
στηρι
στηριζο
στης
στησαν
στησε
στησεν
στηση
στησης
στησι
στι
στια
στιαν
στιας
στιβ
στιβα
στιγμε
στιγμη
στιγμιαι
στιγμιο
στιες
στικα
στικη
στικο
στιλ
στιμο
στιν
στινα
στινγκ
στιο
στιος
στιου
στις
στισε
στιχουργο
στμινστερ
στο
στοα
στοε
στοι
στοις
στοιχα
στοιχει
στοιχειω
στοιχες
στοιχη
στοιχης
στοιχο
στοιχου
στοιχους
στοιχων
στοκ
στοκχο
στολ
στολε
στολη
στολι
στολο
στολοι
στολος
στομα
στομο
στομος
στον
στονς
στορ
στορα
στορας
στορει
στορι
στορικη
στορικο
στορος
στος
στοτε
στου
στους
στουτγκα
στοφ
στοφερ
στοχα
στοχευ
στρα
στρακα
στραμμε
στρας
στρασβου
στρατα
στρατει
στρατευ
στρατευμα
στρατη
στρατηγει
στρατηγι
στρατηγικε
στρατηγικη
στρατηγικο
στρατηγικω
στρατηγο
στρατηγοι
στρατηγου
στρατηγω
στρατια
στρατιω
στρατιωτικα
στρατιωτικε
στρατιωτικη
στρατιωτικο
στρατιωτικοι
στρατιωτικου
στρατιωτικω
στρατιωτω
στρατο
στρατοδικει
στρατοι
στρατολο
στρατολογη
στρατοπε
στρατοπεδευ
στρατος
στρατου
στρατω
στραφει
στρε
στρεμμα
στρες
στρεφαν
στρεφε
στρεψαν
στρεψε
στρεψεν
στρι
στρια
στριας
στριες
στρο
στρογγυλη
στρογγυλο
στρον
στρος
στρου
στροφα
στροφε
στροφη
στροφο
στρω
στρωμα
στρων
στρωση
στυ
στυλ
στυλι
στυλιανο
στω
στων
στωρ
στως
στωσαν
στωσε
στωση
συ
συγγε
συγγενει
συγγενη
συγγενω
συγγνω
συγγρα
συγγραφε
συγγραφει
συγγραφη
συγγραφικη
συγγραφικο
συγκα
συγκατα
συγκαταλε
συγκε
συγκει
συγκεκριμε
συγκεντρω
συγκεντρωθει
συγκεντρωμε
συγκι
συγκλη
συγκλι
συγκοινωνι
συγκοινωνιω
συγκομιδη
συγκρατου
συγκρι
συγκριτικα
συγκριτικη
συγκρο
συγκροτει
συγκροτη
συγκροτημα
συγκροτου
συγκρου
συγνω
συγχαρητη
συγχε
συγχρο
συγχω
συγχωνευ
συγχωρει
συγχωρη
συζη
συζητα
συζητη
συζητηθει
συζητου
συζυ
συκοφα
συκοφαντι
συλλα
συλλαβη
συλλαμβα
συλλε
συλλη
συλληφθει
συλλο
συλλογε
συλλογη
συλλογι
συλλογικα
συλλογικη
συλλογικο
συλλογικοι
συλλογισμο
συλλογω
συλο
συμβα
συμβαι
συμβαλλο
συμβατικα
συμβατικη
συμβατικο
συμβατο
συμβε
συμβεβηκο
συμβει
συμβη
συμβι
συμβιβασμο
συμβο
συμβολαι
συμβολη
συμβολι
συμβολικα
συμβολικη
συμβολικο
συμβολισμο
συμβου
συμβουλε
συμβουλευ
συμβουλευτικη
συμβουλη
συμβουλι
συμεω
συμμα
συμμαχη
συμμαχι
συμμαχικε
συμμαχικη
συμμαχικο
συμμαχικω
συμμε
συμμετα
συμμετε
συμμετει
συμμετεχο
συμμετοχε
συμμετοχη
συμμετοχω
συμμετρι
συμμο
συμμορι
συμμορφω
συμπα
συμπαγη
συμπαι
συμπαρα
συμπαραγωγη
συμπατριω
συμπε
συμπερα
συμπεραι
συμπερι
συμπεριε
συμπεριλα
συμπεριλαμβα
συμπεριλαμβανο
συμπεριλαμβανομε
συμπεριλη
συμπεριληφθει
συμπεριφε
συμπεριφορα
συμπεριφορε
συμπι
συμπλε
συμπλη
συμπληρω
συμπλοκη
συμπο
συμπολι
συμπολιτει
συμποσι
συμπρωταγωνι
συμπτω
συμπτωμα
συμπυ
συμφε
συμφερο
συμφιλι
συμφιλιω
συμφορα
συμφω
συμφωνει
συμφωνη
συμφωνι
συμφωνικη
συμφωνιω
συμφωνου
συμφωνω
συν
συνα
συναγερμο
συναγωγη
συναδε
συναθροι
συναι
συναισθη
συναισθημα
συναισθηματικη
συνακο
συναλλαγε
συναλλαγη
συναλλαγω
συναντα
συναντη
συναντηθει
συναντου
συναντω
συναρμολο
συναρτη
συνασπισμο
συνασπισμου
συναυλι
συναυλιω
συναυτοκρα
συναφη
συνδε
συνδεδεμε
συνδεθει
συνδεο
συνδια
συνδικα
συνδρο
συνδρομη
συνδυ
συνδυα
συνδυασμε
συνδυασμο
συνδυασμου
συνε
συνεδρι
συνεδρια
συνει
συνειδητοποι
συνειδητοποιει
συνεισε
συνεισφε
συνεισφορα
συνεισφορε
συνελευ
συνελη
συνεννο
συνεντευ
συνενω
συνεπα
συνεπει
συνεπη
συνεπω
συνεργα
συνεργαζο
συνεργασι
συνεργαστει
συνεργαστου
συνεργατω
συνεργει
συνεταιρισμο
συνετε
συνετρι
συνεχε
συνεχει
συνεχη
συνεχι
συνεχιζο
συνεχιστει
συνεχο
συνεχου
συνεχω
συνη
συνηθε
συνηθι
συνηθισμε
συνθε
συνθεσα
συνθετικα
συνθετικη
συνθετικο
συνθετω
συνθη
συνθηκολο
συνθηκω
συνι
συνιδρυτη
συνιστα
συνιστου
συνιστω
συνο
συνοδει
συνοδευ
συνοδευο
συνοικι
συνοικισμο
συνολικα
συνολικε
συνολικη
συνολικο
συνολικου
συνομιλι
συνομοσπονδι
συνομοσπονδιω
συνοπτικα
συνοπτικη
συνορευ
συνοριακη
συνουσι
συνοχη
συνοψι
συντα
συνταγε
συνταγη
συνταγματα
συνταγματαρχω
συνταγματικη
συνταγματικο
συνταγματικου
συντακτικη
συντακτικο
συντακτω
συνταξιοδο
συνταξιου
συντε
συντελε
συντελει
συντελεστε
συντελεστη
συντεταγμε
συντεχνι
συντη
συντηρει
συντηρη
συντηρητικη
συντηρητικο
συντηρητικου
συντηρητικω
συντηρου
συντο
συντομι
συντομο
συντομογραφι
συντονι
συντονισμε
συντονισμο
συντονισμου
συντονιστη
συντρε
συντρι
συντριβη
συντριπτικη
συντρο
συντροφια
συνυ
συνυπα
συνω
συνωμο
συνωμοσι
συρ
συρακοσι
συρακου
συρακουσω
συρε
συρι
συριακη
συριακο
συριζα
συρο
συρρα
συρση
συσκευασι
συσκευε
συσκευη
συσκευω
συσσω
συσσωρευ
συστα
συσταθει
συστατικα
συστατικο
συστατικω
συστη
συστημα
συστηματικα
συστηματικη
συστολη
συσχε
συσχετι
συχα
συχη
συχι
συχνα
συχνε
συχνη
συχνο
συχνοτη
συχος
σφα
σφαγε
σφαγη
σφαγια
σφαι
σφαιρα
σφαιρας
σφαιρο
σφαιροβολι
σφαλε
σφαλει
σφαλμα
σφατα
σφατες
σφατη
σφατο
σφε
σφεραν
σφερε
σφετε
σφετεριστη
σφη
σφι
σφο
σφοδρη
σφοδρο
σφραγι
σφυ
σφυγες
σφυρι
σφω
σχα
σχας
σχε
σχεδι
σχεδια
σχεδιασμε
σχεδιασμο
σχεδιασμου
σχεδιαστε
σχεδιαστει
σχεδιαστη
σχεδο
σχει
σχειν
σχεν
σχεση
σχετα
σχεται
σχετι
σχετιζο
σχετικα
σχετικε
σχετικη
σχετικο
σχετικου
σχετικω
σχετο
σχευση
σχη
σχημα
σχηματι
σχηματισμο
σχηματισμοι
σχηματισμου
σχηματιστει
σχημη
σχης
σχι
σχιζοφρε
σχισε
σχιση
σχο
σχοινι
σχολα
σχολε
σχολει
σχολη
σχολι
σχολια
σχολιασμο
σχολιαστε
σχολιαστη
σχολικα
σχολικη
σχολικο
σχολικω
σχολω
σχον
σχος
σχου
σχουν
σχρο
σχυ
σχυε
σχυρα
σχυρο
σχυσαν
σχυσε
σχυση
σχυσης
σω
σωζο
σωθει
σωθη
σωκρα
σωλη
σωμα
σωματει
σωματι
σωματιδι
σωματικα
σωματικη
σωματοφυ
σωμεν
σων
σωπα
σωπο
σωποι
σωπον
σωπος
σωρο
σως
σωσε
σωση
σωσης
σωσι
σωσιν
σωστα
σωστη
σωστο
σωτη
σωτηρι
σωφροσυ
τ
τα
ταβε
ταγμα
ταγματα
ταζε
ται
ταια
ταινι
ταινιω
ταιρια
ταις
τακτα
τακτικα
τακτικε
τακτικη
τακτικο
τακτικου
τακτικω
ταλ
ταλα
ταλαιπωρι
ταλαντου
ταλε
ταλι
ταλιμπα
ταλλα
ταλλο
ταμα
ταμει
ταμι
ταμο
ταμοι
ταμος
ταμου
ταμπα
ταμπλο
ταμπου
ταν
τανα
τανε
τανζανι
τανης
τανο
τανος
ταξαν
ταξε
ταξεν
ταξη
ταξης
ταξι
ταξια
ταξιαρχι
ταξιαρχω
ταξιδε
ταξιδευ
ταξιδιου
ταξιδιω
ταξινο
ταξινομει
ταξινομη
ταξινομικη
ταξινομου
ταπει
ταπεινο
ταπεινω
ταπισερι
ταρ
ταρα
ταραγμε
ταραντι
ταραχε
ταραχη
ταραχω
ταρι
ταροι
ταρτα
ταρτη
ταρτης
ταρτο
ταρτον
ταρτος
ταρτου
ταρχος
τας
τασε
ταση
τασης
τασμα
τατα
τατες
τατζικιστα
τατη
τατης
τατια
τατο
τατοι
τατον
τατος
τατου
τατουα
ταυ
ταυτι
ταυτο
ταυτοποι
ταφει
ταφη
ταφικο
ταχε
ταχει
ταχυ
ταχυδρο
ταχυδρομει
ταχυτη
τε
τεθει
τεθωρακισμε
τει
τεια
τειας
τειες
τεινα
τειναν
τεινε
τειο
τειος
τειρα
τειρας
τειχω
τεκε
τεκμη
τεκμηρι
τεκμηριω
τεκμηριωμε
τεκνος
τελ
τελε
τελει
τελειο
τελειω
τελεσι
τελεστη
τελετε
τελετη
τελετουργι
τελετουργικα
τελετουργικο
τελευ
τελευται
τελευτη
τελευτω
τελικα
τελικε
τελικη
τελικο
τελικοι
τελικου
τελικω
τελου
τελω
τελωνει
τεμα
τεμε
τεν
τεναμ
τενεσι
τενο
τεντ
τεο
τερ
τερα
τεραι
τεργε
τερε
τερες
τερη
τερης
τερμα
τερματι
τερματικο
τερματισμο
τερματισμου
τερματοφυ
τερνταμ
τερο
τεροι
τερον
τερος
τερου
τερους
τερς
τερψιθε
τερων
τες
τεσσα
τεσσαρα
τεστ
τετα
τεταγμε
τεταμε
τετρα
τετραγω
τετραγωνικα
τετραγωνικη
τετραγωνικο
τετραγωνικω
τετραετη
τετρακο
τετριμμε
τευ
τευγμα
τευε
τευμα
τευξη
τευσαν
τευσε
τευση
τευσης
τεχερα
τεχνα
τεχνητα
τεχνητη
τεχνητο
τεχνι
τεχνικα
τεχνικε
τεχνικη
τεχνικο
τεχνικου
τεχνικω
τεχνο
τεχνολογι
τεχνολογικη
τεχνολογικο
τεχνολογιω
τεχνοτροπι
τεχνω
τζ
τζα
τζαβα
τζαβε
τζαζ
τζακ
τζαμα
τζαμι
τζαμια
τζαν
τζανε
τζε
τζεκτ
τζερ
τζερο
τζερς
τζετ
τζεφ
τζη
τζης
τζι
τζια
τζιμ
τζιν
τζιο
τζιοβα
τζο
τζοβα
τζον
τζορτζ
τζος
τζου
τζουζε
τζουμε
τζω
τζων
τζωρτζ
τη
τηγο
τηγος
τηγου
τηδες
τηκαν
τηκε
τηλε
τηλεγρα
τηλεθε
τηλενουβε
τηλεο
τηλεοπτικα
τηλεοπτικε
τηλεοπτικη
τηλεοπτικο
τηλεοπτικοι
τηλεοπτικου
τηλεοπτικω
τηλεπικοινωνιω
τηλεσκο
τηλεσκοπι
τηλεταινι
τηλεφω
τηλεφωνι
τηλικου
τημα
την
τηνικαυ
τηρ
τηρει
τηρη
τηρου
της
τησα
τησαν
τησε
τησεν
τηση
τησης
τησιν
τησις
τητα
τητας
τητε
τητες
τητη
τητι
τητο
τητος
τθοι
τθους
τθων
τι
τια
τιας
τιβε
τιδα
τιδας
τιδες
τιδος
τιες
τιζαν
τιζε
τιθε
τικ
τικα
τικες
τικη
τικης
τικο
τικος
τικου
τικων
τιμ
τιμα
τιμε
τιμες
τιμη
τιμηθει
τιμημε
τιμητικα
τιμητικε
τιμητικη
τιμητικο
τιμι
τιμο
τιμος
τιμου
τιμω
τιμωρει
τιμωρη
τιμωρι
τιμωρου
τιν
τινα
τινας
τινγκ
τινγκεν
τινε
τινες
τινι
τινο
τινος
τινω
τινων
τιο
τιοι
τιον
τιος
τιου
τιους
τιρα
τιρο
τις
τισαν
τισε
τιση
τισης
τισι
τισσα
τισσας
τιστα
τιτα
τιτλο
τιτουλα
τιφλι
τιων
τκα
τλ
τλαντ
τλαντα
τλας
τλερ
τλο
τλοι
τλος
τλου
τλους
τλων
τμαν
τμη
τμημα
τμπολ
τνικ
το
τοι
τοια
τοιας
τοιαυ
τοιες
τοικοι
τοικος
τοιμα
τοιμη
τοιμο
τοιμοι
τοιμος
τοιο
τοιοι
τοιος
τοιου
τοιους
τοις
τοισι
τοιχογραφι
τοιχω
τοιων
τοκετο
τοκο
τοκος
τοκρα
τολε
τολμα
τολμη
τολμηρο
τολμω
τομ
τομα
τομε
τομει
τομη
τομο
τομογραφι
τομπα
τον
τονα
τονε
τονες
τονι
τονο
τονος
τοντ
τοντας
τοξι
τοξικο
τοξο
τοπ
τοπα
τοπι
τοπικα
τοπικε
τοπικη
τοπικο
τοπικοι
τοπικου
τοπικω
τοπο
τοπογραφι
τοποθε
τοποθεσι
τοποθετει
τοποθετη
τοποθετηθει
τοποθετηθου
τοποθετημε
τοποθετου
τοποθετω
τοποι
τοπολογι
τοπον
τοπος
τοπου
τοπους
τοπωνυ
τοπωνυμι
τορ
τορα
τορας
τορες
τορι
τορο
τορος
τορπι
τος
τοσαυ
τοσι
τοσκα
τοσου
τοτε
του
τουαλε
τουλα
τουλου
τουμε
τουν
τουρ
τουρι
τουρισμο
τουρισμου
τουριστικα
τουριστικη
τουριστικο
τουρκ
τουρκι
τουρκια
τουρκικα
τουρκικε
τουρκικη
τουρκικο
τουρκικου
τουρκικω
τουρκμενιστα
τουρκο
τουρκοκρατι
τουρκοκυ
τουρνουα
τους
τουτε
τουφε
τοφ
τοχο
τοχοι
τοχος
τοψη
τρ
τρα
τραβα
τραβη
τραβου
τραγικη
τραγικο
τραγου
τραγουδα
τραγουδη
τραγουδι
τραγουδιου
τραγουδιστε
τραγουδιστη
τραγουδιω
τραγουδοποιο
τραγουδοποιοι
τραγουδου
τραγουδω
τραγω
τραγωδι
τραι
τραμ
τραμπ
τραν
τρανσυλβανι
τραπε
τραπεζι
τραπεζικο
τραπεζου
τραπεζω
τρας
τραυ
τραυμα
τραυματι
τραυματισμε
τραυματισμο
τραυματισμου
τραυματιω
τραχει
τραχη
τραχυ
τρε
τρει
τρεις
τρελο
τρεξε
τρεπαν
τρεπε
τρες
τρεχε
τρεψαν
τρεψε
τρη
τρης
τρησε
τρηση
τρησης
τρι
τρια
τριακο
τριακοσι
τριαντα
τριανταφυ
τριανταφυλλι
τριας
τριβη
τριβου
τριγυ
τριγω
τριες
τριετε
τριετη
τριετι
τριη
τρικ
τρικα
τρικου
τριλογι
τριμελη
τρινα
τρινες
τρινη
τρινιντα
τρινο
τρινος
τριο
τριον
τριος
τριου
τριπλ
τριπλα
τριπλη
τριπλο
τριπλου
τριπο
τριπολιτσα
τρισδια
τρισεκατομμυ
τρισι
τριτοβα
τριφυλι
τριχ
τριχω
τριψε
τριω
τρο
τροβιτς
τροι
τροιζη
τρολ
τρομα
τρομερη
τρομερο
τρομοκρα
τρομοκρατι
τρομοκρατικη
τρομπε
τρον
τροπα
τροπαι
τροπη
τροπικα
τροπικη
τροπικο
τροπο
τροπολογι
τροποποι
τροποποιη
τροποποιηθει
τροποποιημε
τροπος
τρος
τρου
τρους
τροφε
τροφη
τροφι
τροφοδοσι
τροφοδοτει
τροφοδοτου
τροφω
τροχαι
τροχια
τροχιε
τροχο
τροχοι
τροχου
τροχω
τρυ
τρυφη
τρω
τρωα
τρωικο
τρων
τς
τσ
τσα
τσαγιου
τσαι
τσακ
τσαλδα
τσαν
τσαντ
τσαρλς
τσαρντ
τσαρτ
τσας
τσε
τσελ
τσεν
τσερ
τσες
τσεχι
τσεχικη
τσεχοσλοβακι
τση
τσης
τσι
τσια
τσιγα
τσιγγα
τσιμε
τσιν
τσινγκ
τσιο
τσιπ
τσιφλι
τσκ
τσκα
τσκι
τσκοκ
τσμοντ
τσο
τσον
τσος
τσου
τσουαφ
τσουνα
τσσκα
τσω
ττα
τταν
τταρα
τταρο
ττας
ττει
ττειν
ττελσμπαχ
ττες
ττεσθαι
ττεται
ττη
ττης
ττητη
ττητος
ττι
ττικη
ττιν
ττιση
ττο
ττον
ττονται
ττοντας
ττοντες
ττουν
ττους
ττω
ττωμα
ττων
τυ
τυγχα
τυλι
τυλιγμε
τυμπα
τυνησι
τυπα
τυπες
τυπη
τυπης
τυπικα
τυπικε
τυπικη
τυπικο
τυπο
τυπογρα
τυπογραφει
τυπογραφι
τυποποι
τυποποιημε
τυπος
τυπου
τυπω
τυπωμε
τυπων
τυρα
τυραννι
τυρι
τυρο
τυφλο
τυφλω
τυφω
τυχαι
τυχαν
τυχε
τυχει
τυχεν
τυχη
τυχι
τυχο
τυχου
τυχω
τχ
τω
τωθι
τωι
τωμα
των
τωνα
τωνας
τωνε
τωνος
τωπα
τωπο
τωποι
τωπος
τωρ
τως
τωσαν
τωσε
τωση
τωσης
υ
υα
υβρι
υγ
υγει
υγειονομικη
υγιεινη
υγιη
υγρα
υγρασι
υγρη
υγρο
υγρου
υγρω
υδα
υδατοσφαι
υδρα
υδραγωγει
υδραλογο
υδρι
υδρο
υδρογο
υδρογονα
υδρογονανθρα
υδροξει
υδροξυ
υεμε
υι
υιο
υιοθε
υιοθετει
υιοθετη
υιοθετου
υιου
υλικα
υλικη
υλικο
υλικου
υλικω
υλοποι
υλοποιει
υλοποιη
υλω
υμηττου
υντ
υο
υπ
υπα
υπαγο
υπαγορευ
υπαι
υπακοη
υπακου
υπαλλη
υπασπιστη
υπε
υπεγρα
υπενθυ
υπενθυμι
υπερ
υπερα
υπερασπι
υπερασπιστε
υπερασπιστει
υπερασπιστου
υπερβαι
υπερβολη
υπερβολικα
υπερβολικη
υπερβολικο
υπερδνειστερι
υπερε
υπερη
υπερηφα
υπερθε
υπερι
υπεριω
υπεροξει
υπεροχη
υπερπο
υπερυψωμε
υπευ
υπη
υπηκο
υπηκοο
υπηρε
υπηρεσι
υπηρεσιακη
υπηρεσιακο
υπηρεσιω
υπηρετει
υπηρετη
υπηρετου
υπηρετω
υπο
υποβα
υποβαθμι
υποβιβα
υποβιβασμο
υποβιβασμου
υποβιβαστει
υποβλη
υποβληθει
υποβολη
υποβρυ
υποβρυχι
υπογεγραμμε
υπογρα
υπογραμμι
υπογραφε
υπογραφη
υποδε
υποδει
υποδεικνυ
υποδηλω
υποδιαι
υποδιαιρε
υποδομε
υποδομη
υποδομω
υποδοχε
υποδοχει
υποδοχη
υποδυ
υποδυο
υποει
υποθαλα
υποθε
υποκατα
υποκατηγορι
υποκει
υποκι
υποκο
υποκριτικη
υποκυ
υπολει
υπολο
υπολογι
υπολογισμο
υπολογισμου
υπολογιστε
υπολογιστει
υπολογιστη
υπολογιστικη
υπολογιστω
υπολοι
υπολοχαγο
υπομονη
υπονο
υπονοει
υπονοου
υποομα
υποσελι
υποσημειω
υποστει
υποστη
υποστηρι
υποστηριζο
υποστηρικτε
υποστηρικτη
υποστηρικτω
υποστηριχθει
υποστρα
υποσυ
υποσχε
υποσχεθει
υποσχο
υποτα
υποταγη
υποτε
υποτελει
υποτελη
υποτι
υποτιθε
υποτροφι
υπουργει
υπουργικη
υπουργικο
υπουργικου
υπουργο
υπουργοι
υπουργου
υπουργω
υποφε
υποχρε
υποχρεου
υποχρεω
υποχρεωμε
υποχρεωτικα
υποχρεωτικη
υποχρεωτικο
υποχω
υποχωρη
υποχωρου
υποψη
υποψηφι
υποψηφιο
υποψι
υποψια
υς
υστε
υφα
υφασμα
υφη
υφι
υφιστα
υφυπουργο
υφυπουργοι
υψηλα
υψηλε
υψηλη
υψηλο
υψηλου
υψηλω
υψι
υψο
υψω
φ
φα
φαβορι
φαγε
φαγητο
φαγητου
φαι
φαινο
φαινομε
φαινομενικα
φακε
φακο
φακου
φαλα
φαλη
φαλο
φαλος
φαμε
φαμεν
φαν
φανα
φαναριω
φανε
φανει
φανερα
φανερο
φανερω
φανη
φανι
φανο
φανον
φανος
φανου
φαντα
φαντασι
φανταστικη
φανταστικο
φαντες
φαρα
φαραω
φαρισαι
φαρμα
φαρμακει
φαρμακευτικα
φαρμακευτικη
φαρνε
φαρσα
φας
φασαν
φαση
φασης
φασι
φασιν
φασις
φασισμο
φασιστικη
φασμα
φασματικο
φασο
φατρι
φαυ
φε
φεβρουα
φεβρουαρι
φεγγα
φει
φεια
φειλε
φειν
φεις
φεκ
φελει
φελι
φελος
φεμινισμο
φεν
φενε
φεντερι
φεξη
φερ
φερα
φεραι
φεραν
φερδινα
φερε
φερεν
φερνα
φερναν
φερνε
φερο
φερομε
φερον
φερρα
φερω
φες
φεση
φεσης
φεστιβα
φεται
φετε
φευ
φευγαν
φευγε
φη
φηβος
φηκαν
φηκε
φημα
φημη
φημι
φημισμε
φημο
φημος
φην
φηνε
φης
φησαν
φησε
φηση
φησης
φησι
φησιν
φθα
φθαι
φθαλμο
φθαλμοι
φθαλμου
φθαλμω
φθασαν
φθασε
φθε
φθει
φθη
φθηκαν
φθηκε
φθηνο
φθησαν
φθι
φθινο
φθινοπω
φθιω
φθο
φθονα
φθορα
φθορι
φθοριου
φι
φια
φιας
φιγου
φιε
φιζε
φικο
φιλ
φιλα
φιλαδε
φιλανθρωπι
φιλανθρωπικη
φιλανθρωπικο
φιλαρμονικη
φιλε
φιλει
φιλελευ
φιλελευθε
φιλελευθερισμο
φιλη
φιλι
φιλικα
φιλικε
φιλικη
φιλικο
φιλικου
φιλικω
φιλιππι
φιλιππου
φιλμ
φιλμογραφι
φιλντ
φιλο
φιλοδοξι
φιλοθε
φιλοι
φιλολογι
φιλολογικη
φιλολογικο
φιλοξε
φιλοξενει
φιλοξενη
φιλοξενι
φιλοξενου
φιλος
φιλοσο
φιλοσοφι
φιλοσοφικα
φιλοσοφικε
φιλοσοφικη
φιλοσοφικο
φιλοτε
φιλοτεχνη
φιλοτιμι
φιλου
φιλω
φιλων
φιμα
φιν
φινα
φιναλι
φινλανδι
φινλανδικη
φινλανδο
φιξη
φιο
φιοι
φιος
φιου
φιους
φισαν
φισε
φιση
φισης
φισμα
φκ
φκα
φλα
φλαμανδικη
φλαμανδο
φλαμε
φλε
φλεγμονη
φλι
φλο
φλοιο
φλοιου
φλω
φλωρεντι
φμαν
φνη
φνης
φο
φοβα
φοβει
φοβερα
φοβερο
φοβη
φοβο
φοβου
φοι
φοινι
φοιτη
φοιτητε
φοιτητη
φοιτητικη
φοιτητω
φοιτοι
φοιτος
φοιτου
φον
φονευ
φοντα
φονται
φονταν
φοντας
φοξ
φορ
φορα
φορε
φορει
φορες
φορεσια
φορη
φορμη
φορντ
φορο
φοροι
φορολογι
φορολογικη
φορον
φορος
φορου
φορους
φορτ
φορτηγα
φορτηγο
φορτι
φορτισμε
φορτω
φορτωμε
φορω
φορων
φος
φου
φουα
φουμε
φουν
φους
φρ
φρα
φραγε
φραγη
φραγκι
φραγκοκρατι
φραγκφου
φραγμα
φραγμε
φραζε
φραι
φρανθι
φρανκ
φρανκφου
φρανς
φρανσι
φρανσουα
φραντς
φραντσε
φραξη
φρασαν
φρασε
φραση
φρασης
φρε
φρεγα
φρειδερι
φρενα
φρεντ
φρεντερι
φρη
φρι
φριτς
φρο
φροδι
φρονα
φρονει
φρονες
φρονη
φρονου
φροντι
φροντιστη
φροσυ
φρου
φρουρα
φρουρι
φρουρο
φρουροι
φρουρου
φρουρω
φρυ
φρυγι
φρων
φσκ
φσκα
φσκι
φτα
φται
φταναν
φτανε
φτασαν
φτασε
φτε
φτει
φτερα
φτερω
φτες
φτεται
φτη
φτηκαν
φτηκε
φτης
φτια
φτιαγμε
φτιαξε
φτουν
φτω
φτωχη
φτωχο
φτωχου
φτωχω
φυ
φυγα
φυγαν
φυγε
φυγεν
φυγη
φυγον
φυκε
φυκεν
φυλα
φυλακε
φυλακη
φυλακι
φυλακισμε
φυλακω
φυλε
φυλετικη
φυλη
φυλλα
φυλλο
φυλλοβο
φυλω
φυματι
φυρα
φυρας
φυρες
φυση
φυσικα
φυσικε
φυσικη
φυσικο
φυσικοι
φυσικου
φυσικω
φυσιογνωμι
φυσιολογι
φυσιολογικα
φυσιολογικη
φυσιολογικο
φυτα
φυτει
φυτευ
φυτικα
φυτο
φυτου
φυτω
φω
φωκα
φωκι
φωλια
φωλιε
φωμα
φων
φωνα
φωνε
φωνες
φωνη
φωνητικα
φωνητικη
φωνο
φωνοι
φωνος
φωνους
φωνων
φως
φωση
φωστη
φωσφο
φωτεινη
φωτεινο
φωτι
φωτια
φωτισμο
φωτισμου
φωτο
φωτογρα
φωτογραφι
φωτογραφικη
φωτογραφικο
φωτογραφιω
φωτοθη
χ
χα
χαβα
χαελ
χαζα
χαθει
χαι
χαιοι
χαιρε
χαιρετισμο
χαιω
χαλ
χαλα
χαλανδρι
χαλαρη
χαλδαι
χαλε
χαλεπο
χαλεπω
χαλι
χαλιφα
χαλκηδο
χαλκι
χαλκιδικη
χαλκο
χαλκου
χαμ
χαμα
χαμε
χαμηλα
χαμηλε
χαμηλη
χαμηλο
χαμηλου
χαμηλω
χαμι
χαμο
χαν
χανα
χανε
χανι
χανια
χανο
χανος
χανς
χαντα
χαρ
χαρα
χαραγμε
χαρακτη
χαρακτηρι
χαρακτηριζο
χαρακτηρισμε
χαρακτηρισμο
χαρακτηρισμου
χαρακτηριστει
χαρακτηριστικα
χαρακτηριστικε
χαρακτηριστικη
χαρακτηριστικο
χαρακτηριστικω
χαρακτικα
χαρακτικη
χαραλα
χαρε
χαρη
χαρης
χαρι
χαρντ
χαρου
χαρτ
χαρτι
χαρτια
χαρτιου
χαρτογρα
χαρτονομι
χαρτοφυλα
χαρτοφυλακι
χαρτω
χας
χασα
χασαν
χασε
χασι
χατ
χατζη
χατζιδα
χε
χει
χεια
χειας
χειες
χειμα
χειμερινη
χειμερινο
χειμερινου
χειμω
χειν
χειρα
χειρι
χειρισμο
χειρισμου
χειριστη
χειρο
χειρογρα
χειροκι
χειρονομι
χειροποι
χειροσφαι
χειροτε
χειροτονη
χειροτονι
χειρουργικη
χειρουργο
χειρω
χεις
χελιδο
χελω
χεν
χερ
χερα
χεριου
χεριω
χερσαι
χερσι
χερσο
χερσονη
χες
χεσθαι
χεται
χετε
χετο
χετται
χευε
χευση
χη
χημα
χημει
χημεια
χημειοθεραπει
χημικα
χημικε
χημικη
χημικο
χημικοι
χημικου
χημικω
χην
χης
χησαν
χησε
χηση
χθαι
χθε
χθες
χθη
χθηκαν
χθηκε
χθης
χθησαν
χθο
χθονες
χθρο
χθροι
χθρου
χθρω
χθυ
χθω
χι
χια
χιζαν
χιζε
χιλ
χιλη
χιλι
χιλια
χιλιετι
χιλιο
χιλιομε
χιλιοστα
χιλιοστο
χιλιοστω
χιλλε
χιμε
χιο
χιον
χιονα
χιονιου
χιος
χιου
χιουζ
χισαν
χισε
χιση
χιστα
χιστες
χιστη
χιστο
χιστοι
χιστον
χιτ
χιτω
χιω
χλη
χληση
χλμ
χλο
χλος
χλω
χλωρι
χλωριου
χμ
χμα
χμαλω
χμιο
χνα
χνας
χνει
χνες
χνεται
χνευση
χνευσης
χνη
χνην
χνης
χνησε
χνοντας
χνος
χνουν
χο
χοενστα
χοεντσο
χοι
χοις
χοκς
χολ
χολε
χολη
χολμς
χομαι
χομε
χομεν
χον
χονγκ
χοντα
χονται
χονταν
χοντας
χοντες
χοντι
χοντο
χοντος
χορδε
χορδη
χορευ
χορευτε
χορευτη
χορη
χορηγει
χορηγη
χορηγηθει
χορηγι
χορηγο
χορηγου
χορν
χορο
χορογρα
χορογραφι
χοροι
χορος
χορου
χορτα
χορωδι
χος
χοσε
χοσρο
χου
χουα
χουμε
χουν
χους
χουσα
χουσαι
χουσαν
χουσει
χουσες
χουσι
χουσιν
χρ
χρα
χρε
χρει
χρεια
χρειαζο
χρειαστει
χρεω
χρη
χρημα
χρηματικα
χρηματικη
χρηματικο
χρηματιστη
χρηματοδο
χρηματοδοτει
χρηματοδοτη
χρηματοδοτου
χρησα
χρηση
χρησι
χρησιμευ
χρησιμο
χρησιμοποι
χρησιμοποιει
χρησιμοποιη
χρησιμοποιηθει
χρησιμοποιηθου
χρησιμοποιου
χρησιμοποιω
χρησμο
χρηστα
χρηστη
χρηστο
χρηστω
χρι
χρις
χριστι
χριστιανικα
χριστιανικε
χριστιανικη
χριστιανικο
χριστιανικου
χριστιανικω
χριστιανισμο
χριστιανισμου
χριστιανο
χριστιανοι
χριστιανου
χριστιανω
χριστο
χριστοδου
χριστου
χριστουγε
χριστουγεννια
χριστω
χρο
χροια
χρονα
χρονη
χρονης
χρονια
χρονιε
χρονικα
χρονικε
χρονικη
χρονικο
χρονικογρα
χρονικου
χρονικω
χρονο
χρονογρα
χρονοδια
χρονολο
χρονολογει
χρονολογι
χρονολογικα
χρονολογικη
χρονολογου
χρονος
χρονου
χρονω
χρουστσο
χρυ
χρυσα
χρυσε
χρυση
χρυσι
χρυσο
χρυσοι
χρυσοστο
χρυσου
χρυσω
χρω
χρωμα
χρωματισμο
χρωμε
χρωμη
χρωμο
χρωμοσω
χτα
χτας
χτε
χτενσται
χτερ
χτες
χτη
χτηκαν
χτηκε
χτης
χτι
χτισαν
χτισε
χτισμε
χτιστει
χτυ
χτυα
χτυλα
χτυπα
χτυπη
χτυπου
χυ
χυμο
χυνση
χυτη
χυτο
χω
χωμα
χων
χωρα
χωρει
χωρη
χωρητικο
χωρι
χωρια
χωριζο
χωρικη
χωρικοι
χωρικου
χωρικω
χωριο
χωριου
χωρισμε
χωρισμο
χωριστα
χωριω
χωρο
χωροταξι
χωρου
χωροφυ
χωροφυλακη
χωρω
χως
χωση
ψ
ψα
ψαι
ψαλμο
ψαν
ψανα
ψαντες
ψαρα
ψαριω
ψας
ψασθαι
ψατο
ψε
ψει
ψεις
ψεν
ψεται
ψετε
ψευ
ψευδα
ψευδαργυ
ψευδει
ψευδη
ψευδο
ψευδω
ψεων
ψεως
ψη
ψηλα
ψηλη
ψηλο
ψηλου
ψης
ψηφι
ψηφιακα
ψηφιακε
ψηφιακη
ψηφιακο
ψηφιακου
ψηφιακω
ψηφιδωτα
ψηφιδωτο
ψηφοδε
ψηφοφο
ψηφοφορι
ψι
ψιλον
ψιμη
ψιμο
ψιν
ψις
ψο
ψος
ψου
ψουμε
ψουν
ψους
ψτε
ψυ
ψυγει
ψυχα
ψυχαγωγι
ψυχαι
ψυχε
ψυχη
ψυχι
ψυχιατρικη
ψυχικα
ψυχικη
ψυχικο
ψυχογιο
ψυχολο
ψυχολογι
ψυχολογικη
ψυχρα
ψυχρο
ψυχρου
ψυχω
ψω
ψωμα
ψωμι
ψωση
ω
ωα
ωβε
ωγκυ
ωδει
ωδη
ωδι
ωι
ωκε
ωκεα
ωκεανι
ωκεανο
ωκεανου
ωμα
ωμαι
ωμε
ων
ωνα
ωναν
ωνας
ωνε
ωνες
ωνι
ωνος
ωξαν
ωξε
ωξη
ωξης
ωρα
ωραι
ωραιο
ωρες
ωρη
ωρι
ωριγε
ωριμα
ωριμο
ωρο
ωρω
ως
ωςβασι
ωσα
ωσαν
ωσε
ωσεν
ωση
ωσης
ωσι
ωσιν
ωσις
ωστο
ωτ
ωτα
ωτες
ωτη
ωτο
ωτοι
ωτος
ωφε
ϛ
а
б
в
г
д
е
з
и
к
л
м
н
на
о
п
р
россии
с
т
у
ф
ь
э
ю
я
і
ְ
ִ
ַ
ָ
ּ
ה
ا
َ
ٔ
ٕ
ं
क
त
द
न
प
म
य
र
ल
स
ा
ि
ी
ु
े
्
র
ল
া
ি
ে
্
ா
ி
்
ิ
་
်
᾽
᾿
῾
​
‎
‐
‑
–
—
―
‖
‘
’
“
”
„
†
‡
•
…
‰
′
″
‹
›
€
ℂ
ℓ
№
ℝ
ℨ
←
↑
→
↔
↷
∆
∈
∑
−
∙
√
∞
∧
∩
∪
∫
≈
≡
≤
≥
⋅
③
④
⑦
─
│
└
├
▪
◊
☎
♀
♂
♘
♤
♦
♭
♯
✉
✨
✻
❓
⟨
⟩
⟶
ⲁ
ⲉ
ⲋ
ⲏ
ⲑ
ⲙ
ⲛ
ⲥ
ⲧ
ⲩ
ⲱ
⺀
⺄
⺆
⺈
⺊
⺌
⺕
⺝
⺸
⺼
⿰
⿱
⿲
⿳
⿴
⿵
⿶
⿷
⿸
⿹
⿺
⿻
、
。
〈
〉
〢
い
か
し
た
と
の
り
゙
゚
ア
イ
カ
ク
コ
サ
シ
ス
タ
ッ
テ
ト
ハ
フ
マ
ユ
ラ
リ
ル
レ
ロ
ン
・
ー
㇁
㇂
㇄
㇇
㇈
㇉
㇓
㐁
㐄
㐅
㐌
㐫
㐬
㐭
㐮
㐱
㑒
㒵
㒸
㒼
㓁
㓞
㔾
㕛
㕣
㖾
㘝
㚅
㚇
㚔
㚘
㝉
㝡
㝴
㝵
㞋
㞢
㞷
㠩
㠭
㠯
㡀
㡭
㡿
㢲
㢴
㣇
㣺
㥯
㪅
㫄
㫐
㫒
㫺
㬅
㬎
㬥
㬰
㲋
㳄
㷠
㸒
㸚
㸦
㼌
㼲
㽞
㿟
䀠
䂞
䍃
䏍
䒑
䖍
䖒
䖝
䖵
䙴
䚻
䜌
䝿
䡛
䧹
䪞
一
丁
丂
七
丄
丅
丆
万
丈
三
上
下
丌
不
与
丏
丐
丑
专
且
丕
世
丘
丙
业
东
丞
丢
丣
两
严
並
丨
丩
个
丫
丬
中
丮
丰
丱
串
丵
丶
丷
丸
丹
为
主
丽
丿
乀
乂
乃
久
乆
乇
么
义
之
乌
乍
乎
乏
乐
乑
乔
乖
乗
乘
乙
乚
乛
乜
九
乞
也
习
乡
乳
乾
亀
亅
了
亇
予
争
事
二
亍
于
亏
亐
云
互
亓
五
井
亘
亚
亜
亞
亟
亠
亡
亢
交
亥
亦
产
亨
亩
享
京
亭
亮
亯
亰
亲
亳
亶
亷
人
亻
亼
亾
仁
今
介
仌
从
仐
仑
仒
仓
仕
他
付
仝
代
令
以
任
企
伊
伏
伐
休
会
伯
但
位
何
佘
余
作
佥
使
來
侈
侌
侖
侯
侵
便
保
俞
信
修
倉
倍
候
倠
備
僉
僕
儿
兀
允
兂
元
兄
充
兆
兇
先
光
兊
克
兌
免
兑
兒
兓
兔
党
兜
兟
入
全
兩
兪
八
公
六
兮
兰
共
关
兵
其
具
典
兹
兼
冀
冂
冃
冄
内
冈
冉
冊
冋
册
再
冎
冏
冐
冒
冓
冖
冗
冘
军
农
冝
冡
冥
冫
冬
冷
几
凡
凢
凵
凶
凷
凸
凹
出
函
凾
刀
刁
刂
刃
刄
刅
分
切
刍
刑
刕
刖
列
刘
则
初
別
利
别
到
制
刺
則
削
剌
前
剡
剽
劉
力
功
加
劦
助
劫
劳
劵
勃
勇
勉
勒
動
務
勞
勤
勹
勺
勻
勾
勿
匀
匂
包
匆
匈
匊
匋
匍
匕
化
北
匚
匝
匡
匪
匱
匸
匹
区
医
匽
匿
區
十
卂
千
卄
卅
卆
升
午
卉
半
卌
华
卑
卒
卓
单
卖
南
卜
卝
卞
占
卡
卢
卣
卤
卦
卩
卪
卬
卯
印
危
即
却
卵
卷
卸
卻
厂
厃
厄
历
厈
厉
厌
厓
厘
厚
原
厤
厥
厨
厭
厲
厶
厷
厸
去
厼
厽
叀
参
參
叅
又
叉
及
友
双
反
叐
发
叒
叔
叕
取
受
叚
叜
叟
口
古
句
另
叩
只
召
可
台
叱
史
右
叵
号
司
叹
吂
各
吅
合
吉
吊
吋
同
名
后
吏
向
吕
君
吝
吞
否
含
启
吳
吴
吹
吾
呂
呆
呈
告
员
呙
周
命
咅
和
咎
咠
咢
咨
咸
咼
哀
品
哉
員
哥
哲
唐
商
啇
問
啚
啬
啻
善
喜
喬
單
喿
嗇
噩
嚴
囊
囗
囘
囙
囚
四
回
囟
因
囧
囬
困
囱
囷
固
国
圂
圅
國
圍
圓
土
圡
圣
圥
在
圭
地
圶
圼
坐
坒
坚
坴
垂
垔
垚
埀
埋
城
埶
執
基
堂
堅
堆
堇
堯
塞
墨
壘
士
壬
壯
声
壳
壴
壹
壺
壽
夂
处
夅
夆
备
夊
夋
夌
复
夏
夒
夕
外
夗
夘
多
夜
夢
大
夨
天
太
夫
夬
夭
央
失
夲
头
夷
夸
夹
夻
夾
奂
奄
奇
奈
奉
奎
奏
奐
契
奓
奔
奚
奞
奠
奢
奥
奭
女
奴
奻
好
如
妄
妙
妟
妥
妻
妾
姑
委
姜
威
娄
婁
婴
嬰
嬴
子
孑
孔
孕
孖
字
存
孚
孛
孝
孟
季
孤
学
孫
孱
學
宀
宁
宂
它
宅
宇
守
安
宋
完
宏
宓
宗
官
定
宛
宜
宝
客
宣
室
宮
宰
害
家
容
宾
宿
寄
寅
密
富
寒
察
寧
審
寫
寬
寮
寸
对
寺
寻
寽
対
寿
封
尃
射
将
將
專
尉
尊
尋
尌
對
小
少
尒
尓
尔
尖
尗
尚
尞
尢
尣
尤
尧
尨
尭
就
尸
尹
尺
尻
尼
尽
尾
尿
局
居
屈
屋
屎
屏
屑
展
屖
屚
属
屠
屡
屬
屮
屯
屰
山
屵
屾
岁
岂
岑
岡
岩
岳
岸
峯
島
崇
崑
崔
崖
崙
崩
嵬
嶲
巂
巛
川
州
巟
巠
巢
巤
工
左
巧
巨
巩
巫
差
己
已
巳
巴
巷
巸
巽
巾
巿
帀
市
布
希
帚
帛
帝
带
師
席
帶
常
干
平
年
幵
并
幷
幸
幺
幻
幼
幽
幾
广
広
庄
床
底
店
庚
府
度
庫
庭
庶
康
庸
廉
廌
廛
廣
廩
廴
延
廷
建
廾
廿
开
弁
弃
弄
弇
弋
式
弓
弔
引
弗
弘
弜
弟
弥
弦
弱
張
強
强
彊
彌
彎
彐
彑
当
彔
录
彖
彗
彡
形
彥
彦
彧
彭
彳
役
彼
往
待
律
徒
得
徙
從
復
微
徵
心
忄
必
忌
忍
志
忝
忠
忩
快
念
忽
忿
思
怠
急
怱
恆
恒
恩
恭
息
悉
患
悤
悲
悶
惠
惡
惢
愁
愈
意
愛
感
慈
慧
慮
憂
憲
應
戀
戈
戉
戊
戋
戌
戍
戎
成
我
戒
戔
或
戚
戠
戢
截
戲
戶
户
戹
戼
戾
房
所
扁
扇
手
扌
才
打
托
执
承
折
拉
拜
拿
掌
推
提
摩
支
攴
攵
收
攸
改
放
政
敄
敏
敕
敖
敗
敝
敞
敢
散
敦
敫
敬
数
敷
數
斂
文
斉
斊
斗
斤
斥
斩
斬
斯
新
方
於
施
斿
旁
旋
族
无
旡
既
旣
日
旦
旧
旨
早
旬
旱
旲
时
旾
昆
昇
昌
昍
明
昏
易
昔
昗
昜
星
春
昬
是
昱
昴
昷
時
晃
晋
晏
普
景
晶
智
暑
暴
曇
曩
曰
曲
曳
更
曷
書
曹
曼
曾
替
最
朁
會
月
有
朋
服
朔
朕
朗
望
朝
木
朩
未
末
本
札
朮
术
朱
朵
朶
朿
杀
杏
杜
束
条
来
東
杲
杳
松
析
林
枚
果
枝
枲
枼
某
柔
查
柬
柰
柴
栗
桀
桑
桼
梁
條
梟
梨
棘
棠
棥
森
楚
業
楽
榮
樂
樊
欠
次
欣
欮
欲
欶
欽
款
歆
歇
歛
止
正
此
步
武
歨
歪
歮
歯
歰
歲
歴
歷
歸
歹
歺
死
殳
段
殷
殸
殹
殺
殻
殿
毋
毌
母
每
毒
比
毕
毚
毛
毳
氏
氐
民
气
氣
水
氵
氶
氷
永
氺
氾
求
汝
汞
江
沃
沓
沙
沝
泉
法
波
泣
泥
泰
洛
洪
活
派
流
浦
浪
浮
海
淡
淮
清
渚
渠
湯
滿
漸
火
灬
灭
灰
灵
灷
炅
炎
炏
炗
炙
炭
為
烈
烏
烝
焉
無
焦
焱
然
煞
熊
熏
燕
營
燮
爪
爫
爭
爯
爰
爱
爲
爵
父
爻
爽
爾
爿
片
牙
牚
牛
牜
牟
牢
牧
牪
牽
犀
犬
犭
犮
狂
狄
狊
独
狺
猋
猒
猪
献
獻
玄
率
玉
王
玟
玨
珎
班
琴
瑟
瑩
瓜
瓦
甘
甚
生
産
用
甫
甬
田
由
甲
申
电
甶
男
甸
甹
画
甾
畀
界
畏
畐
留
畜
畟
畢
畧
畨
番
畫
異
畱
當
畺
畾
疊
疋
疌
疑
疒
疾
癶
癸
癹
登
發
白
百
皀
皃
的
皆
皇
皋
皐
皕
皮
皷
皿
盃
盆
盇
盈
益
盍
盎
监
盒
盖
盛
盡
監
盤
盧
目
直
相
盾
省
眇
眉
看
眔
眞
真
眷
眼
眾
着
睘
睪
睿
瞏
瞢
瞿
矍
矛
矞
矢
矣
知
矦
短
石
破
碎
磊
磨
示
礻
礼
社
神
祟
票
祭
禀
禁
禸
禹
禺
离
禽
禾
禿
秀
秃
秉
秋
科
秝
秦
移
稟
穀
穌
穴
究
穹
空
穿
突
窄
窒
立
竒
竜
竝
竟
章
童
竹
笑
笠
筆
等
答
箕
算
箴
節
篤
篭
米
粉
粛
粟
粤
粦
粲
糞
糸
糹
系
約
納
素
索
紫
累
細
絜
絫
絲
維
綿
縣
繇
纍
纟
缶
网
罒
罔
罕
罗
罙
罡
罢
罪
署
罷
羅
羊
羌
羍
美
羔
羕
羗
羞
羡
羣
群
義
羲
羸
羽
翁
翏
習
翕
翟
翠
翼
老
耂
考
者
耆
而
耎
耑
耒
耳
耴
耶
耷
聂
聊
聖
聚
聶
聿
肀
肃
肅
肉
肖
肙
肥
肩
肯
育
肴
胃
背
胡
胥
能
脊
脩
膚
臣
臤
臧
自
臬
臭
臯
臱
至
致
臺
臼
臽
臾
臿
舀
舂
舄
與
興
舉
舌
舍
舛
舜
舞
舟
般
艮
良
色
艸
艹
艾
芒
芔
芬
芮
花
芳
芺
芻
苔
苗
苟
若
苦
英
茶
茸
荅
草
荒
荣
荼
莆
莧
莫
莽
菆
菊
菐
華
萬
落
葉
著
葛
董
葵
蒙
蒦
蒼
蓋
蓬
蓺
蔑
蔡
蕉
蕭
薄
薛
薦
薰
藍
藏
藥
蘭
虍
虎
虐
虒
虔
處
虖
虗
虘
虚
虛
虜
虞
虫
虽
蚤
蚩
蜀
蜜
蟲
蠡
血
行
衍
衛
衣
衤
表
衮
衰
袁
袞
褭
褱
襄
襾
西
覀
要
覃
見
規
覓
覧
親
覽
见
角
解
言
訁
訇
計
詹
語
誩
諸
讠
语
谷
豆
豈
豊
豐
豕
豖
豙
象
豦
豩
豪
豸
貇
貝
貞
貟
負
貢
貧
貪
貫
責
貳
貴
買
費
賁
資
賈
賏
賓
賔
賛
賞
賢
賣
質
賴
贊
贝
贡
责
贯
贲
贵
赖
赞
赤
赦
走
越
足
路
蹇
身
躬
車
軍
軎
軟
輦
车
辛
辜
辟
辥
辰
辱
農
辵
辶
边
达
过
近
连
迷
追
退
送
逆
逐
通
速
造
逢
連
逮
進
遀
遂
過
道
達
遣
適
遷
遺
邊
邑
邕
那
邦
邪
郎
部
郭
都
鄉
酉
酋
配
酓
釆
采
里
重
野
量
金
釒
錢
钅
長
镸
长
門
閃
閉
開
閏
閑
閒
間
閔
閵
閻
闌
门
间
闷
阑
阜
阝
阿
降
陳
隆
隊
隋
隡
隨
隱
隶
隹
隺
隻
隼
隽
难
雀
雁
集
雈
雋
雍
雐
雔
雙
雚
雜
雝
離
難
雨
雩
雪
雲
零
雷
需
霍
霜
霝
霞
霸
靈
靑
青
非
靡
面
靣
革
韋
韦
韭
韯
韱
音
頁
頃
項
須
頗
頡
頻
顛
页
風
风
飛
飞
食
飠
養
饣
首
香
馬
馮
駦
马
骨
高
髟
鬥
鬯
鬲
鬼
魚
魯
鮮
鱼
鲁
鳥
鳳
鸟
鹵
鹿
麃
麗
麥
麦
麻
黃
黄
黍
黎
黑
黒
黨
黹
黽
黾
鼎
鼓
鼠
鼻
齊
齋
齐
齒
齿
龍
龙
龜
龟
龠
龰
龱
龴
龵
龶
龷
龸
龹
者
艹
️
（
）
，
？
￼
🇫
🇷
🏛
🏺
𠀁
𠀃
𠀆
𠀉
𠀎
𠀐
𠁁
𠁣
𠂆
𠂇
𠂈
𠂉
𠂊
𠂋
𠂎
𠂒
𠂔
𠂛
𠂡
𠂢
𠂤
𠂬
𠂭
𠂹
𠃊
𠃋
𠃌
𠃍
𠃎
𠃑
𠃓
𠃔
𠃜
𠄌
𠄎
𠄠
𠄢
𠆢
𠆥
𠇍
𠈌
𠌵
𠓜
𠔉
𠔥
𠔼
𠔽
𠔿
𠕀
𠕁
𠕋
𠘧
𠘨
𠙻
𠙼
𠚏
𠚒
𠚤
𠚪
𠣏
𠤎
𠤕
𠥓
𠦄
𠦑
𠦝
𠧒
𠧗
𠧪
𠩺
𠪚
𠫓
𠫔
𠫤
𠬛
𠬝
𠬞
𠬢
𠬤
𠬶
𠮛
𠮦
𠮷
𠯑
𠱠
𠳮
𠷎
𡈼
𡉀
𡉵
𡌥
𡍮
𡏳
𡕒
𡕩
𡕰
𡖅
𡗗
𡗜
𡘆
𡘤
𡧱
𡨄
𡩧
𡬠
𡭽
𡰣
𡰥
𡰪
𡰯
𡰱
𡷈
𡸁
𡿨
𡿩
𡿪
𡿺
𢀖
𢀛
𢀩
𢁙
𢆉
𢆰
𢆶
𢇁
𢇇
𢉖
𢌬
𢌿
𢏚
𢑑
𢑚
𢖻
𢙣
𢛳
𢦏
𢦒
𢧵
𢼄
𢾕
𣁋
𣄼
𣅀
𣅽
𣍘
𣎳
𣎵
𣏋
𣏼
𣗥
𣥂
𣥖
𣦵
𣦼
𣧄
𣪊
𣪠
𣬉
𣳾
𣶒
𤇾
𤊽
𤐫
𤓰
𤔔
𤕨
𤣩
𤰇
𤰔
𤰞
𤴓
𤴔
𤽄
𥁑
𥁕
𥃦
𥃩
𥃭
𥇡
𥑟
𥘅
𥘈
𥝢
𥫗
𥱡
𦈢
𦉪
𦉬
𦉼
𦍌
𦍒
𦎧
𦐇
𦓔
𦔮
𦘒
𦙃
𦚏
𦣝
𦣞
𦣻
𦥑
𦥔
𦥯
𦨉
𦭝
𦰩
𧆞
𧈧
𧘇
𧰨
𧴪
𧴮
𧵩
𧾷
𨸏
𨾴
𩙿
𩠐
𩫏
𩵋
𪉷
𪜀
𪟽
𪠲
𪩲
𫇦
𫔭
𫜸
𫝀
𫠣
𫠩
𫢉
𫥞
𫩏
𫩠
𫪡
𫲽
𫶧
𬀷
𬐘
𬗌
𬙙
𬛸
𬜯
𬟩
𬯁
𬴘
𬺻
𬼉
𬼖
𭀰
𭁈
𭁨
𭅰
𭑈
𭕄
𭗼
𭤨
𭥫
𭻾
𮅕
𮊿
𮍌
𮍏
𮓗
𮥼
𮧮
廾
𰀁
𰀄
𰀈
𰀉
𰀕
𰀠
𰀡
𰀢
𰀪
𰁜
𰃮
𰆊
𰆘
𰋙
𰕎
𰢴
𰧭
𰯲
00--
01--
02--
03--
04--
05--
06--
07--
08--
09--
66--
69--
70--
71--
72--
73--
74--
75--
76--
77--
78--
79--
80--
81--
82--
83--
84--
85--
86--
87--
88--
89--
90--
91--
92--
93--
94--
95--
978--
98--
99--
a--
aa--
ab--
abo--
ac--
acad--
ad--
addi--
ado--
adven--
ae--
aero--
af--
ag--
agri--
ah--
ai--
air--
aka--
al--
ali--
all--
alt--
am--
an--
ang--
anim--
antho--
any--
ap--
apo--
appe--
ar--
ari--
arm--
art--
as--
asso--
astr--
at--
athe--
athl--
au--
auto--
av--
ay--
az--
b--
ba--
bal--
balt--
ban--
bapt--
bar--
batt--
bau--
be--
bel--
ben--
ber--
bi--
bibl--
biblio--
bio--
bir--
bird--
bis--
bl--
blo--
bloom--
bo--
bol--
bor--
bou--
bour--
bow--
br--
bre--
brit--
bro--
broad--
brow--
bru--
bu--
bur--
by--
c--
ca--
cal--
camp--
can--
car--
cas--
cat--
cau--
caw--
ce--
cele--
cen--
ch--
cha--
char--
che--
chi--
chrono--
ci--
cl--
cle--
cn--
co--
col--
com--
communi--
compo--
con--
contri--
cor--
corn--
cou--
cr--
cre--
crim--
crit--
cro--
cru--
cry--
cs--
ct--
cu--
cy--
d--
da--
dan--
dar--
daugh--
de--
deci--
defe--
defi--
del--
den--
des--
deutschl--
di--
diag--
diff--
dig--
dipl--
disa--
disc--
disp--
distri--
do--
docu--
dou--
dr--
dru--
du--
dun--
dy--
dyna--
e--
ec--
eco--
ed--
eg--
ek--
el--
ele--
elec--
em--
emer--
en--
eng--
enter--
ep--
er--
es--
et--
eu--
euro--
eve--
every--
ex--
exec--
exhi--
expe--
expl--
extr--
f--
fa--
fami--
fan--
far--
fe--
fer--
fi--
figh--
fire--
fla--
fle--
flo--
flu--
fo--
fon--
for--
fr--
frag--
fre--
fri--
fried--
fu--
fun--
fund--
g--
ga--
gala--
gall--
gar--
gas--
gau--
gaz--
ge--
gen--
geo--
geogr--
ger--
gi--
gil--
gio--
gir--
giu--
gla--
glo--
go--
god--
gon--
gou--
gr--
gram--
grim--
gro--
grow--
gru--
gu--
guil--
gy--
h--
ha--
hal--
han--
har--
hard--
haw--
hay--
hc--
hco--
he--
hel--
her--
hi--
high--
hil--
histori--
hl--
ho--
hoff--
hol--
holl--
home--
hor--
hou--
hr--
hu--
hurri--
hy--
i--
ia--
ic--
id--
ide--
iden--
if--
ig--
il--
illu--
illust--
im--
in--
incre--
indi--
indu--
influ--
instru--
inter--
inva--
invest--
io--
ip--
ir--
is--
it--
iup--
iv--
j--
ja--
je--
jen--
jo--
joac--
jou--
ju--
jun--
k--
ka--
kan--
kath--
kaz--
ke--
ken--
key--
kha--
ki--
kle--
ko--
kra--
kre--
kri--
kro--
ku--
ky--
l--
la--
lamb--
lan--
lau--
lay--
le--
leg--
len--
les--
lexi--
ley--
li--
life--
lin--
lingu--
lite--
ll--
lo--
lock--
long--
lou--
lu--
ly--
m--
ma--
mac--
mad--
mag--
mal--
mala--
man--
mar--
mate--
matt--
mau--
mc--
md--
me--
med--
mel--
memo--
men--
mer--
mess--
mi--
micr--
mid--
migr--
mill--
min--
mira--
mit--
mo--
mon--
monu--
mor--
mort--
mos--
mou--
mp--
mu--
mult--
muni--
mur--
mus--
my--
n--
na--
nan--
navi--
nd--
ne--
neu--
new--
news--
ng--
nh--
ni--
niko--
nin--
no--
nor--
north--
not--
nou--
ns--
nu--
ny--
o--
ob--
observ--
oc--
oce--
of--
oh--
ok--
ol--
oli--
olymp--
om--
on--
op--
or--
ori--
orien--
os--
ou--
out--
over--
p--
pa--
pac--
pal--
pan--
par--
patr--
pay--
pe--
pen--
per--
ph--
phi--
philo--
phy--
pi--
pit--
pix--
pl--
plat--
play--
plu--
pm--
po--
pol--
poli--
politi--
pon--
pr--
pre--
princip--
pro--
proto--
provin--
ps--
psy--
psycho--
pu--
pun--
put--
px--
py--
q--
qu--
quat--
quo--
r--
ra--
rai--
rail--
ran--
rco--
re--
rece--
red--
reg--
rein--
rela--
ren--
res--
reve--
revi--
rey--
rh--
rhe--
ri--
rn--
ro--
rou--
rs--
rt--
ru--
ry--
s--
sa--
sal--
sam--
san--
sau--
sc--
sch--
sche--
schl--
schne--
scho--
schu--
scien--
sco--
scor--
scri--
se--
sea--
sebast--
sele--
sen--
ser--
sh--
shi--
sho--
si--
sil--
simp--
ska--
ske--
sky--
sla--
slay--
slo--
smi--
smo--
sn--
so--
sol--
solu--
some--
sor--
sou--
sp--
spe--
spec--
spo--
sr--
ss--
st--
sta--
ste--
step--
ster--
stra--
stre--
stu--
su--
sub--
succ--
sugge--
sun--
super--
supple--
sur--
sv--
sw--
swa--
sy--
symp--
syn--
synd--
sz--
t--
ta--
tan--
tar--
te--
teac--
tele--
temp--
ten--
ter--
territo--
th--
the--
theo--
thi--
ti--
to--
toget--
tor--
tr--
trans--
tre--
tri--
tro--
tru--
tt--
tu--
tw--
twel--
ty--
u--
uk--
ul--
ult--
un--
under--
univ--
univer--
up--
ur--
us--
ut--
v--
va--
val--
valen--
var--
vati--
ve--
ven--
ver--
vg--
vi--
vin--
vio--
vo--
vol--
volley--
w--
wa--
wag--
wal--
war--
wat--
we--
web--
west--
whe--
whi--
wiki--
wil--
win--
wis--
wit--
wo--
wood--
wri--
wro--
wu--
wy--
x--
xi--
xx--
y--
ya--
yel--
yo--
yu--
z--
za--
ze--
zeit--
zn--
zo--
zu--
α--
αα--
αβ--
αβα--
αβε--
αγ--
αγα--
αγγλο--
αγι--
αγκυρο--
αγρο--
αδ--
αδε--
αδη--
αδια--
αε--
αερο--
αζε--
αη--
αθ--
αι--
αιμα--
αιμο--
αιο--
αιρετ--
αιτω--
αιω--
ακ--
ακα--
ακε--
ακινη--
ακο--
ακου--
ακρο--
ακτι--
ακτινο--
αλ--
αλα--
αλγε--
αλε--
αλι--
αλιευ--
αλκα--
αλληλο--
αλο--
αλπ--
αλυ--
αμ--
αμα--
αμε--
αμι--
αμινο--
αμο--
αμυ--
αμυγδ--
αμφι--
αν--
ανα--
αναπνευ--
ανδε--
ανε--
ανεπι--
ανεφο--
ανη--
ανθο--
ανθυ--
ανι--
ανο--
ανοσο--
αντ--
αντε--
αντι--
αντιμετα--
ανυ--
ανω--
αξιο--
αξιω--
αξο--
αο--
αου--
απ--
απα--
απαγ--
απε--
απενεργο--
απι--
απλο--
απο--
απρο--
απω--
αρ--
αρα--
αργο--
αρε--
αρι--
αρσε--
αρτ--
αρτε--
αρχαιο--
αρχι--
αρχιερα--
αρχο--
αρω--
ας--
ασα--
αση--
ασκλη--
αστρο--
ασυ--
ατ--
ατα--
ατε--
ατμο--
αυ--
αυστρο--
αυτι--
αυτο--
αφ--
αφανι--
αφε--
αφο--
αφορι--
αφρικα--
αφρο--
αχ--
β--
βα--
βαι--
βακ--
βαλ--
βαν--
βαρ--
βαρυ--
βασ--
βγ--
βγα--
βδ--
βε--
βελ--
βεν--
βενε--
βερ--
βη--
βηθ--
βηρυ--
βι--
βια--
βιε--
βικι--
βιλ--
βιο--
βκ--
βλ--
βλα--
βλε--
βλη--
βλο--
βο--
βογια--
βοι--
βολ--
βομ--
βομβι--
βορειο--
βου--
βουδισ--
βρα--
βρε--
βρι--
βρο--
βρυ--
βρω--
βυ--
βω--
γ--
γα--
γαλακτο--
γαλλο--
γαμ--
γαν--
γαρ--
γαργα--
γαστρε--
γγα--
γγε--
γγι--
γγο--
γδ--
γε--
γει--
γενε--
γερ--
γερα--
γερο--
γευ--
γεω--
γη--
γι--
για--
γιε--
γιο--
γιου--
γιω--
γκ--
γκα--
γκε--
γκι--
γκλε--
γκο--
γκου--
γκυ--
γκω--
γλα--
γλυ--
γλω--
γνη--
γνω--
γο--
γοη--
γοτ--
γου--
γρ--
γρα--
γρι--
γρο--
γρυ--
γυ--
γω--
δ--
δα--
δαυ--
δαφ--
δε--
δει--
δεισι--
δεκ--
δεκα--
δεν--
δεοντο--
δερ--
δευ--
δη--
δημο--
δι--
δια--
διαι--
διδα--
διε--
διη--
δικα--
διο--
δισ--
διυ--
διχα--
διχο--
διω--
δο--
δου--
δρα--
δρο--
δρυ--
δυ--
δυνα--
δυτικο--
δω--
ε--
εα--
εβ--
εγ--
εθ--
εθι--
εθνικο--
εθνο--
ει--
ειδησεο--
εικα--
εικο--
ειλικ--
ειρων--
εισ--
εισπ--
εκ--
εκθε--
εκκε--
εκλε--
εκφοβι--
εκφρα--
ελ--
ελα--
ελε--
ελεγκ--
ελι--
ελκυ--
ελληνο--
εμ--
εμπ--
εμπρη--
εν--
ενα--
ενδημ--
ενδο--
ενε--
ενθου--
εννοιο--
ενο--
εντ--
εντα--
ενω--
εξα--
εξαι--
εξε--
εξη--
εξι--
εξισο--
εξο--
εξολο--
εξυ--
εξω--
εο--
εορτα--
επ--
επα--
επανα--
επε--
επι--
επιληπ--
επο--
επτα--
ερ--
ερα--
εργα--
εργο--
ερε--
ερι--
ερο--
ερυ--
ερω--
εσ--
εσω--
ετ--
ετερο--
ετρου--
ευ--
ευημε--
ευθυ--
ευρω--
εφ--
εφα--
εφε--
εφο--
εχ--
ζ--
ζα--
ζακ--
ζαρ--
ζε--
ζεν--
ζερ--
ζη--
ζι--
ζο--
ζου--
ζυ--
ζυθο--
ζω--
ζωο--
η--
ηβ--
ηγε--
ηγη--
ηθο--
ηλεκ--
ηλεκτρο--
ηλιο--
ημι--
ην--
ητο--
ηχη--
θ--
θα--
θαρ--
θε--
θεα--
θελ--
θεμι--
θεο--
θερμο--
θευ--
θη--
θηλα--
θι--
θλι--
θμη--
θο--
θον--
θρα--
θρεπ--
θρη--
θρι--
θριαμβευ--
θρυ--
θυ--
θυγα--
θω--
θωρη--
ι--
ια--
ιατρο--
ιβ--
ιγ--
ιδ--
ιδα--
ιδε--
ιδιο--
ιε--
ιερα--
ιερο--
ιζ--
ικ--
ιλ--
ιμ--
ιμπρε--
ιν--
ινι--
ινο--
ιντ--
ιο--
ιπ--
ιππο--
ιρ--
ιρα--
ισ--
ισθ--
ισο--
ιστ--
ιτ--
ιταλο--
ιφ--
ιχ--
ιω--
κ--
κα--
καδ--
καζα--
καθη--
καθο--
και--
κακο--
καλ--
καλλι--
καλλυ--
καλλωπι--
καλο--
καλυ--
καμ--
καμα--
καν--
κανα--
καου--
καπ--
καρ--
καρα--
καρβοξυ--
κατ--
κατα--
κατακερ--
κατε--
κατο--
καυ--
κβ--
κβα--
κδ--
κδο--
κε--
κελτ--
κεντρο--
κερ--
κερδο--
κετ--
κη--
κι--
κιμ--
κιν--
κκε--
κλα--
κλασικι--
κλε--
κλει--
κλη--
κλι--
κλο--
κλυ--
κλω--
κνυ--
κνω--
κο--
κοι--
κοκ--
κολ--
κολο--
κομ--
κον--
κοπ--
κορ--
κορυφο--
κοσμο--
κου--
κουρ--
κοχ--
κπε--
κπλη--
κρα--
κρε--
κρη--
κρι--
κρο--
κρυ--
κτα--
κτε--
κτη--
κτι--
κτυ--
κυ--
κυανο--
κυβι--
κυκλο--
κυλι--
κυμα--
κυνηγε--
κυρ--
κφ--
κω--
κωδων--
κων--
λ--
λα--
λαθρε--
λαι--
λακ--
λαμ--
λαν--
λαο--
λατ--
λαυ--
λαφ--
λβα--
λε--
λεβα--
λεβε--
λει--
λεκ--
λεμ--
λεν--
λεο--
λεσ--
λευ--
λεω--
λη--
λθο--
λθω--
λι--
λια--
λιγ--
λιε--
λιθο--
λικ--
λιμε--
λιν--
λιο--
λιπ--
λιπο--
λκη--
λκο--
λκυ--
λλα--
λλε--
λλη--
λλι--
λλο--
λλυ--
λμ--
λντ--
λο--
λογι--
λογο--
λοι--
λοκ--
λομβα--
λον--
λου--
λπ--
λπι--
λσμ--
λτ--
λυ--
λυσι--
λφ--
λω--
μ--
μα--
μαγδ--
μαθη--
μαι--
μακ--
μακρο--
μαλ--
μαν--
μαρ--
μαρα--
ματ--
μαχ--
μβα--
μβλ--
με--
μεγα--
μεθυ--
μει--
μελ--
μελι--
μελο--
μεν--
μερ--
μεσο--
μετα--
μετε--
μη--
μηχα--
μι--
μιγα--
μικ--
μικρο--
μιλ--
μιν--
μισο--
μιτοχο--
μκ--
μμα--
μμε--
μνη--
μνο--
μο--
μοι--
μον--
μονα--
μονο--
μορ--
μου--
μπ--
μπα--
μπαρ--
μπε--
μπεν--
μπερ--
μπι--
μπλ--
μπο--
μπογκ--
μπου--
μπω--
μυ--
μυθο--
μυρω--
μυστικι--
μφι--
μφο--
μφυ--
μω--
ν--
να--
ναζι--
ναι--
ναν--
ναρ--
ναυ--
νγκ--
νγκε--
νδ--
νδα--
νδε--
νδο--
νδυ--
νε--
νει--
νεκ--
νεν--
νεο--
νεοε--
νερ--
νευ--
νευρο--
νζ--
νη--
νηοπο--
νθ--
νθα--
νθε--
νθη--
νθι--
νθυ--
νι--
νια--
νιτρο--
νκ--
ννα--
ννε--
ννη--
ννι--
νο--
νοη--
νοι--
νομα--
νομο--
νορ--
νοτιο--
νου--
νσμ--
ντ--
ντα--
ντε--
ντελ--
ντεν--
ντερ--
ντη--
ντι--
ντο--
ντου--
ντρο--
ντυ--
νυ--
νυκτε--
νυμ--
νω--
ξ--
ξα--
ξαι--
ξακου--
ξαν--
ξανα--
ξαφ--
ξε--
ξευ--
ξη--
ξι--
ξο--
ξον--
ξυ--
ξυλο--
ξω--
ο--
οα--
οδο--
οδοι--
οδοντια--
οι--
οικι--
οικο--
οινο--
οκ--
οκτα--
ολ--
ολι--
ολο--
ομ--
ομα--
ομαδο--
ομη--
ομο--
ομοιο--
ον--
ονομα--
οντο--
οξι--
οξυ--
οπισθο--
οπλο--
ορ--
ορα--
οργανο--
ορε--
ορθο--
ορι--
ορνιθ--
ορο--
ορχη--
ου--
ουα--
ουγ--
ουζ--
ουι--
ουκ--
ουλ--
ουμ--
ουν--
ουτ--
οφ--
οφθα--
π--
πα--
παγαν--
παθη--
παι--
πακ--
παλα--
παλαιο--
παμ--
παν--
πανα--
πανελλα--
παξ--
παπα--
παρ--
παρα--
παρε--
παρη--
παρο--
πατ--
παυ--
πε--
πει--
πελ--
πελα--
πεμ--
πεν--
πεντη--
πεπ--
περ--
περα--
περι--
πευ--
πη--
πι--
πια--
πιε--
πιτ--
πλα--
πλαντα--
πλε--
πλευ--
πλη--
πλι--
πλυ--
πνι--
πο--
ποι--
ποιη--
ποιο--
πολ--
πολυ--
πον--
ποπ--
πορ--
πορνο--
ποσο--
που--
ππα--
ππο--
πρ--
πρα--
πραιτ--
πρε--
πρι--
προ--
προα--
προε--
προημι--
προλε--
προληπ--
προσ--
προσβλη--
πρυ--
πρω--
πρωτο--
πτα--
πτε--
πτη--
πτο--
πτυ--
πτω--
πυ--
πυκ--
πυρ--
πυρο--
πυροσβε--
πω--
ρ--
ρα--
ραδιο--
ραμ--
ραν--
ρατσι--
ραυ--
ρβα--
ργα--
ργι--
ργκ--
ρδα--
ρε--
ρεα--
ρεν--
ρεπουμπλ--
ρετ--
ρευ--
ρη--
ρην--
ρθ--
ρθω--
ρι--
ρια--
ρικ--
ρκ--
ρκα--
ρκε--
ρκι--
ρκο--
ρμ--
ρμα--
ρμη--
ρμι--
ρμο--
ρν--
ρνα--
ρνε--
ρνι--
ρνο--
ρντ--
ρο--
ροι--
ρομα--
ρου--
ρπα--
ρρευ--
ρρη--
ρρι--
ρρυ--
ρρω--
ρτ--
ρτα--
ρτε--
ρτι--
ρτο--
ρτυ--
ρυ--
ρυθμι--
ρυμου--
ρφω--
ρχα--
ρχη--
ρχι--
ρω--
ρωγ--
ρωσο--
ς--
σ--
σα--
σαι--
σακ--
σαμ--
σαν--
σανσκρι--
σαπ--
σαρ--
σατι--
σαυ--
σαχ--
σβε--
σβη--
σδ--
σδε--
σε--
σεβα--
σει--
σεκ--
σελ--
σεν--
σεξ--
σεπ--
σερ--
σερβο--
σερο--
ση--
σθ--
σθε--
σθη--
σι--
σια--
σιδηρο--
σιν--
σκ--
σκα--
σκακι--
σκε--
σκεπ--
σκη--
σκι--
σκια--
σκο--
σκου--
σκυ--
σμ--
σμα--
σμη--
σμι--
σμυ--
σο--
σολ--
σον--
σοσια--
σου--
σοφι--
σπ--
σπα--
σπε--
σπερ--
σπη--
σπι--
σπο--
σπονδ--
σσ--
σσα--
στ--
στα--
στε--
στη--
στι--
στο--
στοχο--
στυ--
στω--
συ--
συγ--
συγκυ--
συμ--
συμβολο--
συν--
συνα--
συνανα--
συναρπα--
συνε--
συνη--
συνο--
συντα--
συνταγο--
συνυ--
συρ--
σφα--
σφαι--
σφε--
σφη--
σφι--
σφο--
σφυ--
σχα--
σχε--
σχη--
σχι--
σχο--
σχολα--
σχυ--
σω--
σωφρονι--
τ--
τα--
ται--
τακτο--
ταν--
ταρ--
ταυ--
ταχυ--
τε--
τεθ--
τει--
τελ--
τεν--
τεο--
τερ--
τετρα--
τευ--
τζ--
τζα--
τζε--
τζι--
τζο--
τη--
τηλε--
τηλεπι--
τι--
τιτα--
τλ--
το--
τοι--
τοιχο--
τοξο--
τοπ--
τοπο--
τορ--
του--
τουρκο--
τρα--
τραπεζο--
τρε--
τρη--
τρι--
τρια--
τριγωνο--
τριτο--
τρο--
τρυ--
τρω--
τσ--
τσα--
τσε--
τσι--
τσο--
τσου--
ττα--
ττη--
ττου--
τυ--
τυρ--
τω--
τωρ--
υ--
υα--
υβρι--
υγ--
υγειονο--
υδα--
υδατο--
υδρα--
υδρο--
υλο--
υπ--
υπα--
υπαξιω--
υπε--
υπερ--
υπνο--
υπο--
υφα--
φ--
φα--
φαι--
φαν--
φανα--
φαντα--
φαρ--
φασι--
φασματο--
φε--
φει--
φεμινι--
φεν--
φεουδα--
φερ--
φευ--
φη--
φθα--
φθο--
φθορο--
φι--
φιλ--
φιλα--
φιλε--
φιλι--
φιλο--
φιν--
φιο--
φκ--
φλα--
φλαμαν--
φλε--
φλεγ--
φλο--
φλυ--
φλω--
φο--
φον--
φορ--
φορο--
φου--
φρα--
φρε--
φρι--
φρο--
φτε--
φυ--
φυλε--
φυσικο--
φυσιο--
φυτο--
φω--
φωνη--
φωνο--
φωτο--
χ--
χα--
χαι--
χαλ--
χαλκο--
χαμ--
χαν--
χαρ--
χαρι--
χαρτ--
χατ--
χατζη--
χε--
χει--
χεν--
χερ--
χη--
χθε--
χθο--
χι--
χιουμορι--
χλο--
χλω--
χλωρο--
χμ--
χνα--
χνι--
χο--
χοι--
χολ--
χολη--
χον--
χορ--
χου--
χρη--
χρηματο--
χρι--
χριστιανο--
χρονο--
χρω--
χτι--
χυ--
χω--
χωρι--
χωρο--
ψα--
ψαμ--
ψαχ--
ψε--
ψευδο--
ψη--
ψηφι--
ψι--
ψο--
ψυ--
ψυχο--
ψω--
ω--
ων--
ωο--
ωτ--
ωυ--
ωφε--
б--
в--
г--
го--
д--
з--
и--
к--
л--
м--
ма--
н--
о--
п--
по--
р--
с--
ск--
т--
--0
--00
--01
--1
--10
--2
--20
--3
--4
--5
--6
--7
--8
--81
--9
--a
--able
--ac
--ace
--ach
--acre
--acy
--ad
--ada
--ade
--ado
--ae
--ael
--age
--ah
--ai
--ail
--ain
--ak
--aki
--al
--ala
--ale
--am
--ama
--ame
--an
--ana
--ance
--ang
--ani
--anic
--ano
--ant
--ao
--aq
--ar
--ara
--ard
--ari
--aria
--ars
--ary
--as
--at
--ata
--ate
--ated
--ates
--atic
--ation
--ations
--ato
--ats
--au
--ave
--aw
--ax
--ay
--b
--ba
--back
--bat
--be
--bi
--ble
--bo
--bs
--buch
--burg
--bury
--bus
--by
--c
--ca
--cal
--ce
--cent
--cer
--ces
--ch
--chrift
--cht
--ci
--cing
--cio
--ck
--cks
--cky
--co
--cs
--ct
--cu
--cus
--cy
--d
--da
--dale
--data
--day
--de
--ded
--der
--di
--dia
--dis
--do
--dor
--dra
--dro
--ds
--dt
--duct
--dy
--e
--ea
--ean
--eau
--ed
--ee
--eer
--ei
--ek
--el
--ela
--ell
--ella
--els
--em
--ement
--en
--ena
--enburg
--ence
--ens
--ense
--ent
--ents
--eo
--er
--ere
--erg
--eri
--ern
--ero
--ers
--ery
--es
--ese
--ess
--est
--et
--ets
--ett
--eus
--ev
--ew
--ex
--ey
--ez
--f
--face
--feld
--fer
--fessor
--ff
--fs
--ft
--ful
--g
--ga
--ge
--ged
--ger
--ges
--gg
--gh
--ght
--gi
--ging
--gne
--go
--graphy
--grey
--gs
--gton
--h
--ha
--haft
--ham
--han
--he
--head
--hem
--hen
--hes
--hi
--hic
--hing
--hip
--hn
--ho
--hood
--hs
--ht
--hy
--i
--ia
--iae
--ial
--ian
--ians
--ias
--ible
--ic
--ica
--ical
--ici
--ick
--ico
--ics
--id
--ida
--ide
--ido
--ie
--ied
--ien
--ier
--iers
--ies
--ification
--ight
--ii
--ik
--ika
--il
--ile
--im
--ima
--in
--ina
--ine
--ing
--ings
--ini
--ino
--ins
--inum
--io
--ion
--ional
--ions
--ior
--ious
--ir
--ira
--ire
--iro
--irs
--is
--ise
--ish
--ism
--ist
--it
--ita
--ite
--ities
--ition
--ito
--ity
--ium
--ius
--ive
--ix
--iz
--ization
--ize
--ized
--j
--ja
--je
--ji
--k
--ka
--ke
--ken
--ker
--kes
--ki
--kis
--ko
--kos
--ks
--ku
--ky
--l
--la
--land
--lar
--ld
--le
--len
--ler
--ley
--lf
--li
--lia
--lin
--ling
--lis
--lity
--lk
--ll
--lla
--lle
--lli
--llo
--lly
--lm
--lo
--lon
--lot
--ls
--lt
--lu
--lude
--lus
--ly
--lyn
--m
--ma
--man
--me
--ment
--mes
--mi
--mie
--mo
--mos
--mote
--mp
--ms
--my
--n
--na
--nal
--nas
--nc
--nce
--ncy
--nd
--nda
--ndo
--nds
--ne
--ned
--nel
--ner
--ners
--ness
--net
--ney
--ng
--ngi
--ngs
--ni
--nia
--nic
--nie
--nik
--ning
--nis
--nity
--nium
--nk
--nn
--nne
--no
--ns
--nse
--nsis
--nt
--nta
--nte
--nti
--ntin
--nto
--nts
--nus
--ny
--nz
--nzo
--o
--oc
--ock
--od
--ode
--oe
--of
--og
--ogy
--oi
--ol
--ola
--oli
--olm
--olo
--ols
--om
--ome
--omy
--on
--ona
--oni
--onia
--ons
--oo
--op
--or
--ora
--ore
--ori
--orm
--ors
--ort
--orum
--ory
--os
--ot
--ots
--ott
--ou
--ous
--ov
--ova
--ovic
--ow
--owing
--ows
--ox
--oy
--oz
--p
--pa
--pe
--ped
--ping
--po
--polis
--port
--ps
--pt
--q
--que
--r
--ra
--ral
--ran
--rary
--ras
--rd
--re
--rea
--ren
--rey
--rg
--ri
--ric
--rick
--rie
--ries
--rin
--ris
--rium
--rix
--rl
--rm
--rn
--rno
--ro
--ron
--ros
--rp
--rr
--rry
--rs
--rt
--rth
--ru
--rum
--rus
--ry
--s
--sa
--sbury
--sch
--sche
--se
--sed
--sen
--ser
--ses
--sh
--shi
--ship
--si
--sia
--sian
--sio
--sion
--sis
--sk
--ska
--slav
--sm
--so
--son
--ss
--sse
--ssive
--sson
--st
--star
--ster
--stream
--struction
--su
--sy
--t
--ta
--tal
--tan
--tary
--tas
--tation
--te
--ted
--teenth
--tel
--ten
--ter
--tes
--th
--ths
--ti
--tia
--tial
--tic
--tical
--tics
--ties
--tin
--ting
--tion
--tions
--tive
--tle
--to
--tol
--ton
--tor
--tory
--tos
--tra
--tro
--ts
--tt
--tta
--tte
--tti
--tum
--tus
--ty
--tz
--u
--ua
--ual
--uary
--uck
--ud
--ue
--ug
--ugh
--ul
--ula
--ular
--ult
--ulus
--um
--ume
--un
--ung
--up
--ur
--ura
--ure
--urg
--urs
--us
--ut
--ux
--uz
--v
--va
--val
--ve
--ved
--vention
--ver
--ves
--vi
--vic
--vo
--vy
--w
--wa
--way
--x
--xy
--y
--ya
--ye
--yn
--ys
--z
--za
--ze
--zel
--zer
--zi
--zo
--α
--αδο
--αζο
--αι
--ακα
--ακε
--ακη
--ακο
--ακοι
--ακου
--ακω
--αλ
--αμω
--αν
--ανα
--ανε
--ανη
--ανι
--ανο
--ανοι
--ανου
--ανω
--αρ
--αρη
--αρι
--ας
--ασμε
--ασμο
--αστε
--ατε
--ατικη
--ατω
--β
--βα
--βαι
--βατς
--βε
--βει
--βη
--βητη
--βι
--βια
--βιζι
--βικ
--βικα
--βικο
--βικω
--βλε
--βλη
--βληθει
--βλημε
--βο
--βομβι
--βου
--βρ
--βρε
--βυ
--βω
--γ
--γα
--γαι
--γγι
--γε
--γει
--γενε
--γενει
--γενη
--γενου
--γενω
--γη
--γηθει
--γημε
--γητε
--γητη
--γι
--για
--γιε
--γικα
--γικε
--γικη
--γικο
--γικω
--γιο
--γιω
--γκ
--γκα
--γκατα
--γκε
--γκι
--γκο
--γκς
--γμα
--γμε
--γμο
--γμω
--γνυ
--γνω
--γνωσι
--γξ
--γο
--γοι
--γομε
--γορι
--γου
--γρ
--γρα
--γραφι
--γυ
--γω
--γωγη
--γωγικα
--γωγικε
--γωγικη
--γωγικο
--γωγω
--δ
--δα
--δαι
--δαπη
--δαπω
--δε
--δει
--δευ
--δη
--δι
--δια
--διε
--δικα
--δικε
--δικη
--δικο
--δικω
--διο
--διου
--διω
--δο
--δοι
--δονι
--δοξι
--δος
--δοσι
--δου
--δοφο
--δρα
--δρη
--δρο
--δρομι
--δυ
--δω
--δωτη
--ε
--εα
--εβραι
--εδρικε
--εθ
--ει
--ειδε
--ειδει
--ειδη
--ειδου
--ελ
--εν
--εο
--ερ
--ερι
--ες
--εσμε
--ετε
--ετη
--ετι
--ετο
--ετου
--ευ
--ευτη
--εφ
--εω
--ζ
--ζα
--ζαρι
--ζε
--ζη
--ζι
--ζια
--ζιε
--ζικε
--ζο
--ζομε
--ζου
--ζυ
--ζω
--η
--ηθει
--ηθου
--ημε
--ηνο
--ης
--ητικο
--ητω
--θ
--θα
--θαι
--θε
--θει
--θειμε
--θη
--θητη
--θι
--θια
--θικο
--θιω
--θμι
--θμω
--θο
--θου
--θυ
--θω
--ι
--ια
--ιαι
--ιγια
--ιδι
--ιδω
--ιε
--ιει
--ιη
--ικ
--ικα
--ικε
--ικη
--ικι
--ικο
--ικοι
--ικου
--ικω
--ιμι
--ιν
--ινα
--ινγκ
--ινε
--ινο
--ινω
--ιο
--ιου
--ιοφο
--ιρε
--ις
--ισθη
--ισμε
--ισμο
--ιστε
--ιστη
--ιστικη
--ιστικο
--ιτη
--ιτς
--ιτω
--ιω
--ιωμε
--κ
--κα
--και
--κε
--κει
--κες
--κευ
--κη
--κι
--κια
--κικα
--κικη
--κικο
--κιου
--κισμο
--κισχιλι
--κιω
--κλα
--κλε
--κλη
--κλι
--κλυ
--κνυ
--κο
--κοι
--κοπου
--κοστη
--κου
--κρα
--κρη
--κρι
--κρο
--κς
--κτ
--κτα
--κτε
--κτη
--κτι
--κτικα
--κτικε
--κτικη
--κτικο
--κτικοι
--κτικου
--κτικω
--κτο
--κτονι
--κτω
--κυ
--κω
--λ
--λα
--λαι
--λαυ
--λε
--λει
--λεστε
--λευ
--λη
--λημε
--λημμε
--λης
--λητε
--λητη
--ληψι
--λθει
--λθο
--λθω
--λι
--λια
--λιε
--λικα
--λικε
--λικη
--λικο
--λικω
--λιο
--λιου
--λισμο
--λισμου
--λισμω
--λιω
--λκ
--λκυ
--λλα
--λλη
--λλι
--λλικη
--λλικο
--λλο
--λλω
--λμα
--λντ
--λο
--λογει
--λογι
--λογω
--λοι
--λοπα
--λος
--λου
--λς
--λτ
--λτι
--λυ
--λφ
--λω
--λωμε
--μ
--μα
--μαι
--μαν
--ματα
--ματι
--ματικα
--ματικε
--ματικη
--ματικο
--ματικω
--ματολογι
--μαχι
--μβα
--με
--μει
--μερε
--μευ
--μη
--μι
--μια
--μικα
--μικε
--μικη
--μικο
--μικω
--μισμο
--μιστε
--μιστη
--μιω
--μμα
--μμε
--μνη
--μνι
--μο
--μοι
--μορφι
--μος
--μοσυ
--μου
--μπ
--μπα
--μπατσο
--μπε
--μπη
--μπι
--μπο
--μπου
--μπς
--μς
--μυ
--μω
--μωμε
--μων
--ν
--να
--ναι
--ναμι
--ναν
--νας
--ναυ
--νγκ
--νδι
--νδυ
--νε
--νει
--νες
--νευ
--νη
--νημε
--νης
--νθε
--νθει
--νθη
--νθι
--νθο
--νθου
--νθω
--νι
--νια
--νιακη
--νιακο
--νιδω
--νιε
--νικα
--νικε
--νικη
--νικο
--νικου
--νικω
--νιο
--νιου
--νισμε
--νισμο
--νιστη
--νιστικε
--νιχ
--νιω
--νκ
--νο
--νοι
--νομε
--νος
--νου
--νς
--νση
--ντ
--ντα
--ντε
--ντζη
--ντη
--ντι
--ντικε
--ντικη
--ντικο
--ντικου
--ντλη
--ντλημε
--ντο
--ντου
--ντς
--ντω
--νυ
--νυμι
--νω
--νωμε
--νωπο
--ξ
--ξα
--ξε
--ξει
--ξεν
--ξη
--ξηγη
--ξι
--ξο
--ξοχη
--ξυ
--ο
--ογι
--ογια
--ογρα
--οδο
--οη
--οθε
--οθη
--οι
--οκο
--ολο
--ολογι
--ομε
--ομι
--ον
--ονα
--ονε
--ονι
--οπαθη
--οποι
--ορ
--ορι
--ος
--ου
--ουα
--ους
--οφ
--οφο
--οφυ
--οχω
--π
--πα
--παι
--πε
--πει
--πη
--πημε
--πι
--πια
--πικε
--πικη
--πικο
--πικω
--πλ
--πλα
--πλε
--πλη
--πνη
--πο
--ποι
--ποιει
--ποιη
--ποιηθει
--ποιημε
--ποιι
--ποιου
--πολι
--ποποι
--που
--πρα
--πρε
--πρι
--πριακη
--προ
--πς
--πτα
--πτε
--πτη
--πτικα
--πτικε
--πτικη
--πτικο
--πτο
--πτω
--πυ
--πω
--ρ
--ρα
--ραι
--ρας
--ργα
--ργε
--ργη
--ργι
--ργκ
--ργο
--ργου
--ργω
--ρδα
--ρδι
--ρε
--ρει
--ρεμε
--ρες
--ρευ
--ρευο
--ρζ
--ρη
--ρθ
--ρθει
--ρθου
--ρι
--ρια
--ριακε
--ριακη
--ριε
--ρικα
--ρικε
--ρικη
--ρικο
--ρικου
--ρικω
--ρινε
--ρινο
--ριο
--ριου
--ρισμο
--ρισμου
--ριστε
--ριστει
--ριστη
--ριω
--ρκ
--ρκει
--ρκι
--ρκτικη
--ρκω
--ρμε
--ρμη
--ρμι
--ρμο
--ρν
--ρνα
--ρντ
--ρο
--ροβο
--ρογε
--ροι
--ρολογι
--ρος
--ρου
--ρπ
--ρρη
--ρροι
--ρς
--ρσι
--ρτ
--ρτα
--ρτι
--ρτς
--ρτω
--ρυ
--ρφω
--ρχα
--ρχι
--ρχο
--ρχω
--ρω
--ς
--σ
--σα
--σαι
--σαμε
--σαν
--σβε
--σε
--σει
--σεις
--σεν
--ση
--σης
--σθε
--σθει
--σθη
--σθου
--σθω
--σι
--σια
--σιακα
--σιακε
--σιακη
--σιακο
--σιακου
--σιακω
--σιε
--σιμο
--σιν
--σιο
--σιω
--σκ
--σκα
--σκε
--σκο
--σλα
--σμα
--σμε
--σμο
--σμοι
--σμου
--σμω
--σο
--σον
--σορι
--σου
--σπα
--σπι
--σπο
--σπω
--σσα
--σσε
--σσι
--σσο
--σσω
--στ
--στα
--σται
--στε
--στει
--στευ
--στη
--στημε
--στι
--στικα
--στικε
--στικη
--στικο
--στικοι
--στικου
--στικω
--στο
--στοποι
--στου
--στω
--συ
--σχο
--σχυ
--σω
--τ
--τα
--ται
--ταν
--τας
--τε
--τεθε
--τει
--τελη
--τες
--τευ
--τευο
--τζ
--τζα
--τζη
--τζι
--τζο
--τη
--τηθει
--τημε
--τηρι
--της
--τι
--τια
--τιδι
--τιδω
--τιε
--τικα
--τικε
--τικη
--τικο
--τικοι
--τικου
--τικω
--τινη
--τισμε
--τισμικο
--τισμο
--τισμου
--τιστε
--τιστη
--τιω
--τλ
--τλα
--τνι
--το
--τογρα
--τοι
--τολο
--τολογι
--τον
--τοποι
--τοποιη
--τοποιημε
--τος
--του
--τουργο
--τοχω
--τρ
--τρα
--τρε
--τρη
--τρι
--τρικη
--τρο
--τρυ
--τς
--τσα
--τσε
--τσι
--τσο
--τσω
--ττε
--ττο
--ττω
--τυ
--τυπι
--τω
--τωλι
--τωμε
--των
--υ
--υα
--υαν
--υβι
--υγε
--υγη
--υε
--υι
--υλα
--υλε
--υλι
--υμα
--υμε
--υμι
--υν
--υο
--υρα
--υρι
--υριω
--υρω
--υς
--υσα
--υσε
--υση
--υσι
--υτα
--υτη
--υτο
--φ
--φα
--φαι
--φανη
--φε
--φει
--φη
--φημε
--φθε
--φθει
--φθη
--φθου
--φι
--φικα
--φικε
--φικη
--φικο
--φικω
--φιω
--φο
--φοδο
--φοι
--φορω
--φου
--φρα
--φρο
--φτ
--φτα
--φυ
--φυι
--φω
--φωνι
--χ
--χα
--χαι
--χαμ
--χε
--χει
--χη
--χημε
--χθε
--χθει
--χθη
--χθου
--χι
--χικα
--χικε
--χικη
--χικο
--χικου
--χικω
--χμη
--χνι
--χνικη
--χο
--χος
--χου
--χρη
--χρο
--χτ
--χτει
--χτο
--χτου
--χυ
--χω
--χωρι
--ψ
--ψα
--ψε
--ψη
--ψι
--ψιο
--ψο
--ψυ
--ψω
--ω
--ωθει
--ωθου
--ωμε
--ωμο
--ων
--ωνι
--ωρι
--ως
--ωτα
--ωτε
--ωτικη
--ωτω
--а
--в
--ва
--д
--е
--еи
--и
--ия
--к
--ка
--м
--н
--о
--ов
--р
--т
--та
--у
--ь
--я
