!
"
#
##0
##1
##10
##11
##12
##13
##14
##15
##16
##17
##18
##19
##2
##20
##21
##22
##23
##24
##25
##26
##27
##28
##29
##3
##30
##31
##32
##33
##34
##35
##36
##37
##38
##39
##4
##40
##41
##42
##43
##44
##45
##46
##47
##48
##49
##5
##50
##51
##52
##53
##54
##55
##56
##57
##58
##59
##6
##60
##61
##62
##63
##64
##65
##66
##67
##68
##69
##7
##70
##71
##72
##73
##74
##75
##76
##77
##78
##79
##8
##80
##81
##82
##83
##84
##85
##86
##87
##88
##89
##9
##90
##91
##92
##93
##94
##95
##96
##97
##98
##99
$
%
&
'
(
)
*
+
,
-
.
/
0
00
000
0000
0004
001
002
006
007
01
010
013
0140
017
02
03
0362
04
05
06
07
08
09
1
10
100
1000
1001
1002
1007
101
1016
1017
102
1021
103
1038
104
105
1050
1051
1056
106
1066
107
1071
1073
108
1080
1081
1086
1088
109
1093
1097
1098
11
110
1100
1103
1106
111
1111
112
1126
113
1130
1136
114
1146
115
116
117
1177
118
1180
1185
1186
119
1198
12
120
1200
1204
1205
121
12148
122
123
1230
124
125
1250
126
1261
127
128
1282
129
1292
13
130
1300
131
1311
132
1328
133
1330
134
135
1350
1355
136
1360
1365
137
1371
138
1380
139
14
140
1400
141
1415
142
1420
143
1430
144
1440
145
1450
1453
146
1460
1461
1469
147
1470
1471
1474
1475
1476
148
1480
1485
149
1490
1492
15
150
1500
1503
151
1515
1516
1517
152
1520
1521
1525
1526
1527
153
1530
1536
1537
154
1540
155
1550
1558
1559
156
1560
1566
1568
157
1570
1571
1572
1573
1577
158
1580
1583
1585
1586
159
1590
1595
1596
1598
16
160
1600
1602
1603
1604
1605
1609
161
1610
1612
1615
1617
1618
162
1620
1621
1623
1625
1626
1627
1629
163
1630
1632
1633
1634
1635
1638
164
1640
1642
1644
1645
1648
1649
165
1650
1651
1655
1658
1659
166
1660
1661
1664
1665
1666
1667
1669
167
1670
1671
1672
1675
168
1680
1683
1684
1685
1687
1688
1689
169
1690
1697
1699
17
170
1700
1701
1703
1707
1708
171
1710
1711
1713
1714
1715
1718
172
1720
1723
173
1730
1735
1736
174
1740
1741
1742
1745
1748
1749
175
1750
1754
1755
1756
1757
1758
1759
176
1760
1762
1763
1764
1765
1766
1767
1768
1769
177
1770
1771
1772
1773
1774
1775
1776
1777
1778
1779
178
1780
1781
1782
1783
1784
1785
1786
1787
1788
1789
179
1790
1791
1792
1793
1794
1795
1796
1797
1798
1799
18
180
1800
1801
1802
1803
1804
1805
1806
1807
1808
1809
181
1810
1811
1812
1813
1814
1815
1816
1817
1818
1819
182
1820
1821
1822
1823
1824
1825
1826
1827
1828
1829
183
1830
1831
1832
1833
1834
1835
1836
1837
1838
1839
184
1840
1841
1842
1843
1844
1845
1846
1847
1848
1849
185
1850
1851
1852
1853
1854
1855
1856
1857
1858
1859
186
1860
1861
1862
1863
1864
1865
1866
1867
1868
1869
187
1870
1871
1872
1873
1874
1875
1876
1877
1878
1879
188
1880
1881
1882
1883
1884
1885
1886
1887
1888
1889
189
1890
1891
1892
1893
1894
1895
1896
1897
1898
1899
19
190
1900
1901
1902
1903
1904
1905
1906
1907
1908
1909
191
1910
1911
1912
1913
1914
1915
1916
1917
1918
1919
192
1920
1921
1922
1923
1924
1925
1926
1927
1928
1929
193
1930
1931
1932
1933
1934
1935
1936
1937
1938
1939
194
1940
1941
1942
1943
1944
1945
1946
1947
1948
1949
195
1950
1951
1952
1953
1954
1955
1956
1957
1958
1959
196
1960
1961
1962
1963
1964
1965
1966
1967
1968
1969
197
1970
1971
1972
1973
1974
1975
1976
1977
1978
1979
198
1980
1981
1982
1983
1984
1985
1986
1987
1988
1989
199
1990
1991
1992
1993
1994
1995
1996
1997
1998
1999
2
20
200
2000
2001
2002
2003
2004
2005
2006
2007
2008
2009
201
2010
2011
2012
2013
2014
2015
2016
2017
2018
2019
202
2020
2021
2022
2023
203
204
205
206
207
208
209
21
210
211
212
213
214
215
216
217
218
219
22
220
221
222
223
224
225
226
227
228
229
23
230
2307
231
232
233
234
235
236
237
238
239
24
240
241
242
243
244
245
246
247
248
249
25
250
251
252
253
254
255
256
257
258
259
26
260
261
262
263
264
265
266
267
268
269
27
270
271
272
273
274
275
276
277
278
279
28
280
281
282
283
284
285
286
287
288
289
29
290
291
292
293
294
295
296
297
298
299
3
30
300
3000
301
302
303
304
305
306
307
308
309
31
310
311
312
313
314
315
316
317
318
319
32
320
321
322
323
324
325
326
327
328
329
33
330
331
332
333
334
335
336
337
338
339
34
340
341
342
343
344
345
346
3465
347
348
349
35
350
351
352
353
354
355
356
357
358
359
36
360
361
362
363
364
365
366
367
368
369
37
370
371
372
373
374
375
376
377
378
379
38
380
381
382
383
384
385
3852
386
387
388
389
39
390
391
392
393
394
395
396
397
398
399
4
40
400
4000
401
402
403
404
405
406
407
408
409
41
410
411
412
413
414
415
416
417
418
419
42
420
421
422
423
424
425
426
427
428
429
43
430
431
432
433
4331
434
435
436
437
438
439
44
440
441
442
443
444
445
446
447
448
449
45
450
451
452
453
454
455
456
457
458
459
46
460
461
462
463
464
465
466
467
468
469
47
470
471
472
473
474
475
476
477
478
479
48
480
481
483
484
485
486
488
489
49
490
491
492
493
495
496
498
499
5
50
500
5000
501
502
503
504
505
506
507
508
509
51
510
511
512
514
515
517
518
52
520
521
522
524
525
527
529
53
530
531
532
533
534
535
536
538
54
540
545
547
55
550
553
554
555
56
560
565
567
57
570
571
575
58
580
582
583
585
589
59
590
595
6
60
600
602
603
605
61
610
613
615
617
618
62
620
625
63
630
631
633
637
639
64
640
641
642
65
650
66
660
667
67
670
671
6736
674
679
68
680
684
688
69
691
699
7
70
700
705
71
710
717
72
720
73
730
737
74
740
747
75
750
76
760
77
776
78
780
79
8
80
800
802
81
82
820
83
833
84
840
85
850
86
867
87
870
88
880
89
9
90
900
91
911
917
92
93
94
95
950
9501509
953
96
960
963
97
975
978
98
980
99
9963
999
:
;
<
=
>
?
@
[
\
]
^
_
`
a
aa
aaron
ab
abc
about
abraham
abs
abstract
abuse
ac
acade
academia
academic
academy
access
accessed
according
account
acid
across
act
acta
action
active
activity
actor
actors
actress
acute
ad
adam
adams
add
address
adjusted
administration
adolf
adrian
adult
adults
advanced
advances
adventure
adventures
ae
aegean
aek
af
affairs
afghanistan
afi
afp
africa
african
after
ag
again
against
agb
age
aged
agence
agency
agent
agents
ages
ago
agreement
agriculture
ah
ahead
ahmed
ai
aid
aids
air
airbus
aircraft
airlines
airport
airways
ais
aise
aj
ak
akademie
al
alain
alan
alba
albania
albanian
albert
alberto
album
albums
alessandro
alex
alexander
alexandra
alexandre
alfred
algeria
ali
alice
aligned
alive
aljazeera
all
alla
allan
allen
allgemeine
alliance
allmusic
alone
alpha
als
also
alter
alternative
always
am
amanda
amazon
ame
america
american
americas
amid
among
amor
amsterdam
amy
an
ana
analysis
anatomy
ancestry
ancient
and
anderson
andre
andrea
andreas
andrew
andrews
android
andy
angel
angeles
angelo
angels
anglo
angola
animal
animals
animated
animation
anime
ann
anna
annales
annals
anne
annie
anniversary
announce
announced
announces
annual
another
ans
ant
anthology
anthony
anti
antiquity
antoine
anton
antonio
any
ao
ap
apache
api
apj
apo
apografes
apografi
apostaseis
app
apple
application
applications
applied
approach
apr
april
ar
arab
arabia
arabic
arbor
arch
archaeological
archaeology
archinform
architecture
archive
archived
archives
are
area
areas
arena
argentina
arianna
aris
arizona
ark
arm
armenia
armenian
arms
army
arnold
around
ars
art
arte
arthur
article
articles
artist
artists
arts
as
ashgate
asia
asian
asn
asp
aspects
aspx
assembly
assessment
associated
association
astronomical
astronomy
astrophysical
astrophysics
asvg
at
athens
athletics
atlantic
atlas
atm
atp
attack
attacks
attica
au
audi
audience
audio
auf
aug
august
aus
austin
australia
australian
austria
austrian
auth
author
authorities
authority
authors
auto
aux
av
available
avant
avatar
avec
avengers
aviation
award
awards
away
az
azerbaijan
b
ba
baby
bach
back
background
bad
bafta
baker
balkan
balkans
ball
baltimore
balzat
ban
band
bang
bangladesh
bank
bar
barbara
barber
barcelona
barnes
baron
barry
bas
base
based
basic
basket
basketball
batman
battle
bay
bayern
bb
bbc
bc
bd
be
beach
bear
beast
beat
beatles
beautiful
beauty
became
because
beck
become
becomes
been
before
begin
beginning
begins
behavior
behind
bei
beijing
being
belarus
belgium
bell
ben
benjamin
bennett
benz
ber
berkeley
berlin
bernard
best
beta
better
between
beyond
bf
bg
bi
bibcode
bible
bibliographique
biblionet
biblioteca
bibliothe
big
biggest
bill
billboard
billion
billy
bin
bio
biografico
biographical
biographie
biography
biological
biology
bird
birds
birth
birthday
bis
bishop
bit
black
blackmore
blackwell
blind
block
blog
blogs
blogspot
blood
bloomberg
blu
blue
blues
bmatrix
bmj
bmw
bnf
bo
board
bob
body
boe
boeing
bon
bond
book
books
border
born
bosnia
boston
bot
both
box
boy
boydell
boys
br
brain
brand
brazil
break
breaking
brian
bridge
brief
brill
britain
britannica
british
broadcast
broadcasting
broadway
bronze
brooks
bros
brother
brothers
brown
browser
bruce
bruno
bryan
bs
bu
budapest
building
buk
bulgaria
bulgarian
bull
bullet
bulletin
bureau
burke
burton
bury
bus
bush
business
but
butler
by
byrne
byzantine
byzantium
c
ca
cabinet
cadillac
cafe
california
call
called
calls
cambridge
came
camera
cameron
camp
campaign
campbell
can
canada
canadian
cancer
candidate
cannes
cap
cape
capital
captain
car
carbon
care
career
caria
caribbean
carl
carlo
carlos
carol
carolina
caroline
carpenter
cars
carter
cas
casa
case
cases
cast
castle
cat
catalana
catalog
catalogue
category
cathedral
catherine
catholic
catling
cause
causes
cawley
cb
cbc
cbs
cc
cch
cd
cdc
cdot
ce
celebrity
cell
cells
celtic
census
center
central
centre
centuries
century
certification
cf
cfa
cfm
cgi
ch
cha
challenge
champion
champions
championship
championships
change
changed
changes
channel
chapter
character
charles
charlie
charlotte
chart
charts
chch
che
check
chelsea
chem
chemical
chemistry
cher
chess
chevrolet
chi
chicago
chief
child
children
chile
china
chinese
chiricat
chisholm
cho
choice
chris
christ
christian
christianity
christie
christina
christine
christmas
christopher
chronicle
chronicles
chronology
church
ci
cia
cilicia
cine
cinema
circle
cis
cit
cite
cities
citroe
city
civil
civilization
ck
cl
claims
claire
clarendon
clark
clarke
clash
class
classic
classical
classics
classification
claude
cle
climate
clin
clinical
clio
clip
close
cloud
club
cm
cms
cn
cnn
co
coach
coast
coastal
coca
cochrane
code
codes
cohen
coins
col
cola
cold
cole
colin
coll
collection
collections
college
collins
colonial
color
columbia
com
combat
come
comedy
comes
comic
comics
coming
commentary
commercial
commission
committee
common
commons
communes
communication
communications
communist
communities
community
como
companion
company
comparative
comparison
competition
complete
complex
composition
comprehensive
computer
computing
con
concept
concert
concise
conference
confirmed
confirms
conflict
congreso
congress
connor
conquest
conservation
constantine
constantinople
constitution
construction
contact
contemporary
content
contest
context
contra
contract
contribution
control
convention
cooh
cook
cool
cooper
copa
copy
core
cornell
coronavirus
corporation
corpus
corsten
corvette
cos
costa
could
council
count
countries
country
county
coup
coupe
course
court
cov
cover
covid
cox
cr
craig
crash
crc
cre
creation
creative
credits
crete
crime
crimes
criminal
crisis
critical
critics
croatia
croatian
cross
crown
crusades
crystal
cs
ct
cu
cult
cultura
cultural
culture
cum
cup
curios
curlie
current
cut
cv
cw
cy
cyp
cypriot
cyprus
cyrenaica
cz
czech
d
da
daily
dal
dallas
dame
dan
dana
dance
dancing
dangerous
daniel
danish
dans
daredevil
dark
darryl
das
data
database
datasets
date
dates
daughter
dave
david
davies
davis
dawn
day
days
db
dc
dd
de
dead
deadline
deal
dean
death
debate
debian
debut
dec
december
deces
decision
decline
deep
default
defence
defense
defined
definition
degli
degree
dei
del
delhi
dell
della
delle
delta
dem
demo
democracy
democratic
den
denis
denmark
dennis
department
der
des
description
desert
design
destruction
det
detail
details
detroit
deutsche
deutschen
deutscher
deutschland
deux
development
devil
df
di
dia
diabetes
diagnosis
diamond
diana
diaries
dictionary
dictionnaire
did
die
died
diego
dies
dieter
different
digital
din
dio
direct
director
directory
disco
discography
discogs
discovery
disease
diseases
disney
disorder
disorders
displacement
display
displaystyle
distance
distribution
district
ditions
diversity
division
dizionario
dj
dk
dna
do
doc
docs
doctor
document
documentary
documents
does
dog
doi
domain
don
donald
door
doors
dos
dot
double
doubleday
douglas
dover
down
download
dq
dr
draft
dragon
drake
drama
dream
dreams
drive
driver
drm
drug
drugs
ds
dt
du
dublin
duchess
due
duke
dumbarton
duncan
duncker
during
dutch
dvd
dw
dx
dynamics
dynasty
dz
e
ea
eagle
earl
earliest
early
earth
earthquake
east
eastern
easy
eb
ebu
ec
ece
echo
ecology
economic
economics
economist
economy
ed
edgar
edge
edinburgh
edited
edition
editions
editor
editore
editorial
editors
edmund
eds
edu
education
educational
edward
edwards
ee
eetaa
ef
effect
effects
efimeris
efsyn
eg
egypt
egyptian
ei
ein
eine
einer
ek
ekt
el
elder
elected
election
elections
electoral
electric
electronic
elements
elisa
elisabeth
elizabeth
ellada
elsevier
em
email
emergency
emi
emily
emma
emmy
emperor
empire
empty
en
enciclope
enciclopedia
encyclopaedia
encyclopedia
encyclopædia
end
energy
enet
eng
engine
engineering
england
english
enseignement
enter
entertainment
entre
entry
environment
environmental
eo
ep
epic
epikairothta
episode
epo
epsilon
equiv
er
era
eric
erich
erik
ernest
ernst
ert
es
esc
esctoday
espan
espn
essays
essential
est
estonia
et
eta
etc
ethnic
ethnologue
ethnos
eu
eugene
eur
euro
eurobasket
eurocup
eurohoops
euroleague
euronews
europa
europe
european
eurovision
eurovoix
ev
eva
evaluation
evans
even
evening
event
events
ever
every
everything
evidence
evil
evolution
ew
ex
example
exceeded
exchange
exclusive
executive
exhibition
experience
experimental
expert
exploration
explore
explorer
express
extra
extragalactic
eye
eyes
f
fa
faber
face
facebook
faces
fact
factbook
facto
factor
facts
fair
faire
faith
fall
false
fame
families
family
famous
fan
fans
fantasy
far
fashion
fast
fat
fate
father
fauna
fb
fbi
fc
fda
fe
fear
feat
feature
features
featuring
feb
february
federal
federation
feel
felix
fellows
female
ferdinand
ferguson
fernando
ferrari
festival
ff
fi
fia
fiat
fiba
fiction
field
fifa
fifth
fight
fighting
figure
figures
file
files
film
filmportal
films
fin
final
finals
finance
financial
find
fine
fire
firefox
first
fischer
fish
fisher
five
flag
flash
fleming
flight
flora
florence
florida
floyd
fly
flying
fm
fo
focus
folk
following
food
foot
football
for
forbes
force
forces
ford
foreign
forest
forestie
forever
forgotten
form
format
formation
former
formula
fort
forth
fortune
forum
forward
found
foundation
four
fourth
fox
fr
fra
frac
franc
france
francesco
franchise
francis
francisco
franco
frank
frankfurt
franklin
franz
fraser
fre
fred
frederick
free
freedom
freeman
french
friday
friedrich
friend
friends
fritz
from
front
frozen
ft
fu
full
fun
function
fund
further
future
g
ga
gabriel
galaxies
galaxy
gale
gales
gallery
game
games
gamma
garci
garcia
garden
garin
gary
gas
gate
gay
gazeta
gazette
gazetteer
gazzetta
gb
ge
gemeinsame
gen
gender
gene
genealogics
genealogy
general
generation
genesis
genetic
genetics
genocide
genome
geo
geoffrey
geographic
geography
geological
geonames
geonet
georg
george
georges
georgia
georgian
gerald
german
germany
geschichte
gesellschaft
get
gets
getty
ghost
gia
giant
gilbert
gillan
giorgio
giovanni
girl
girls
giuseppe
give
given
gives
glass
glenn
global
globe
glory
glover
gm
gmbh
gnu
go
goal
goals
god
gods
goes
going
gold
golden
gone
good
google
gordon
gossip
got
gouv
gov
government
governor
gp
gpl
gr
gra
grace
graecia
graham
grammy
gran
grand
grande
granger
grant
grave
gray
gre
great
greatest
grecia
greece
greek
greeks
green
greenwood
greg
gregory
grey
ground
group
groups
grove
growth
gruyter
gs
gt
gtp
gu
guard
guardian
guardians
guerre
guest
guide
guidelines
guides
guild
guillaume
guinea
guinness
guitar
gulf
gun
gustav
gutenberg
guy
h
ha
had
half
hall
hamilton
hammer
hammond
hand
handbook
handle
hans
happy
harald
harcourt
hard
harold
harper
harris
harrison
harry
hart
harvard
harvey
has
hat
have
haven
hawaii
hbo
hc
hcl
hd
he
head
health
heart
heat
heath
heaven
heavy
heinemann
heinrich
heinz
held
helen
hell
hellas
hellenic
hellenistic
hello
helm
help
hendrix
henri
henry
her
herald
herbert
here
heritage
herman
hermann
hero
heroes
het
hf
hg
hi
hidden
hierarchy
high
higher
highway
hill
him
hindu
hip
his
histo
histoire
historia
historic
historical
histories
historique
history
hit
hitler
hits
hiv
hl
hms
ho
hoch
hoffmann
hold
holiday
holland
hollywood
hollywoodreporter
holmes
holocaust
holt
holy
home
homme
homo
hong
honor
hop
hope
hopkins
horror
hospital
host
hot
hotel
houghton
hour
hous
house
housing
houston
how
howard
hp
hr
hrer
hrsg
htm
html
http
https
hu
hudson
huffington
hugh
hughes
hugo
hulk
human
humblot
hundred
hung
hungarian
hungary
hunt
hunter
hx
i
ia
iaaf
ian
ibm
ibn
ic
ice
ich
icon
id
idea
ideas
identifiants
identification
identity
idref
ie
ieee
iefimerida
if
iffhs
ifpi
ig
ign
ignored
ii
iii
il
illinois
illustrated
im
image
images
imdb
impact
imperial
implications
important
in
inc
including
independence
independent
index
india
indian
indiana
indonesia
induced
industrial
industry
ine
influence
info
infobasket
information
infty
initiative
insee
inside
insider
instagram
institut
institute
institution
int
integer
integration
intel
intelligence
inter
interactive
interest
internal
international
internationale
internet
interview
into
introduction
invalid
invasion
investigation
io
ioc
ionia
ios
ip
ipac
iphone
ir
iran
iraq
ireland
irish
iron
is
isabart
isbn
isis
islam
islamic
island
islands
iso
israel
issn
issue
issues
ist
istanbul
it
italia
italian
italiana
italiani
italy
item
itemid
its
itunes
iucn
iucnredlist
iupac
iv
ivan
ix
j
ja
jack
jackson
jacob
jacques
james
jan
jane
janet
january
japan
japanese
jason
java
jay
jazeera
jazz
je
jean
jeff
jeffrey
jennifer
jeremy
jerry
jersey
jerusalem
jessica
jesus
jet
jewish
jews
jim
jimmy
jn
jo
joachim
joan
joe
joel
johan
johann
johannes
john
johnny
johns
johnson
join
joins
joint
jon
jonathan
jones
jordan
jose
josef
joseph
josh
journal
journals
journey
jp
jpg
jpl
jr
js
jstor
ju
juan
judith
jul
jules
julia
julian
julius
july
jump
jun
june
jungle
junior
jure
just
justice
justin
k
ka
kai
karen
karl
kate
kathimerini
kazakhstan
kazhdan
kb
kde
ke
keep
keith
kelly
ken
kennedy
kenneth
kent
kevin
key
kg
khan
ki
kid
kids
kill
killed
killer
killing
kilmister
kim
kind
kindred
king
kingdom
kings
kirby
kiss
kit
kj
klaus
klein
km
knight
know
knowledge
known
ko
koda
koh
kong
korea
korean
kos
kosovo
ku
kurt
kw
l
la
lab
labor
laboratory
lady
lake
lambda
lancet
land
lands
landscape
lane
lang
language
languages
lanka
large
largest
larousse
larry
lars
las
last
late
later
latest
latimes
latin
launch
laura
law
lawrence
laws
lc
ldots
le
lead
leader
leaders
leadership
leading
leads
league
learning
leave
leaves
lecture
led
lee
left
legacy
legal
legend
legends
leiden
leipzig
leksikon
leo
leon
leonard
leq
les
leslie
let
letter
letters
lettres
leuven
level
lewis
lex
lexicon
lexikon
li
lib
liber
liberty
libraries
library
libris
license
lie
life
lifestyle
lifo
liga
light
like
lil
lim
limit
limited
lincoln
linda
line
lines
link
links
linux
lion
lis
lisa
list
lista
liste
listedmonuments
lists
literary
literature
little
liu
live
liverpool
lives
living
livre
lix
ll
llc
ller
lloyd
ln
lo
local
location
log
logic
london
lonely
long
longman
look
lord
lorraine
los
loss
lost
louis
louise
love
low
lower
lp
lt
ltd
lu
lucas
ludwig
luigi
luis
luke
lunar
lundy
lv
m
ma
mac
macdonald
macedonia
macedonian
machine
macmillan
mad
madagascar
madame
made
madison
madonna
madrid
mafia
magazine
magic
magna
mai
maiden
mail
main
maint
maison
major
make
makes
making
malaysia
malcolm
male
malta
man
management
manager
manchester
manga
mann
manual
manuel
many
map
maps
mar
marc
marca
marcel
march
marchand
marco
marcus
mare
marek
margaret
mari
maria
marie
marina
marine
mario
maritime
mark
market
marketing
marriage
mars
marshall
marti
martin
marvel
mary
maryland
mas
mason
mass
massachusetts
master
masters
match
matches
matchid
material
materials
math
mathbb
mathbf
mathematical
mathematics
mathrm
matrix
matt
matter
matthew
matthews
maurice
max
maximus
may
mayer
mayor
mb
mc
mcfarland
mcgraw
md
me
meaning
measurement
med
medal
media
medical
medicine
medieval
mediterranean
medium
meet
meeting
mega
megarid
member
members
memoirs
memorial
memory
men
ment
mer
mercedes
mercury
merriam
mes
met
meta
metaboles
metacritic
metal
metallica
metallum
method
methods
metro
metropolitan
mexico
meyer
mg
mhz
mi
mia
miami
michael
michel
michigan
microsoft
mid
middle
mie
mifflin
migration
miguel
mike
mil
milan
milano
miles
military
miller
million
min
mind
minerals
mini
minister
ministry
minnesota
minor
minutes
miroslav
mirror
miss
missing
mission
mit
mitchell
mix
mk
ml
mm
mn
mo
mobile
mod
mode
model
models
modern
mojo
mol
moldova
molecular
mon
monaco
monde
mondo
money
monimos
monitor
monte
montenegro
month
monthly
monuments
moon
moore
more
moretti
morgan
morning
morris
morrison
mort
mos
moscow
most
mother
motion
moto
motor
motors
mount
mountain
mountains
move
movement
movie
movies
mozilla
mp
mr
mrna
ms
msn
mt
mtv
mu
much
multi
multiple
mundo
munich
municipal
municipalities
munzinger
murder
murphy
murray
muse
museo
museum
music
musical
musicians
muslim
must
mvp
mw
mx
my
mystery
myth
mythology
mɑ
n
na
nach
nacional
naftemporiki
name
named
names
nancy
naoh
napoli
nas
nasa
nassau
nat
nation
national
nationale
nationalism
nations
native
nato
natur
natura
natural
nature
naval
navy
nazi
nba
nbc
nc
ncaa
ncbi
nchen
nd
ndez
ne
nea
near
need
neil
nel
nelson
neo
nes
net
netflix
netherlands
network
networks
neue
never
new
news
newspaper
newspapers
newsroom
newton
next
nez
ng
ngc
nh
ni
nice
nicholas
nick
nickelodeon
nicol
nicolas
nie
nielsen
night
nih
nine
nineteenth
nintendo
nis
nissan
nj
nl
nlg
nlm
nm
no
nobel
nobelprize
noble
node
nominations
nominees
non
nord
norman
normdatei
north
northern
norton
norway
norwegian
norwich
nos
not
note
notes
nothing
notice
notices
noticias
notre
nouveau
nouvelle
nov
nova
novel
november
now
np
npr
nr
ns
nsa
nt
nu
nuclear
number
numberempire
numbers
nutrition
ny
nytimes
nz
o
oaks
obituaries
obituary
object
objects
observations
observatory
observer
oc
ocean
och
oclc
oct
october
od
odysseus
oeis
of
off
office
official
officiel
officielle
offs
og
ographique
oh
ohio
oi
oikmet
oil
ois
oj
ok
oklahoma
ol
ola
old
oldest
oldid
oliver
olympic
olympics
om
omega
on
once
one
onepage
online
only
onsports
op
opac
opel
open
opening
opens
opera
operation
operations
operatorname
opinion
opposition
option
or
oral
orange
orchestra
order
org
organic
organisation
organization
orient
oriental
origin
original
origins
oro
orthodox
os
osborne
osbourne
oscar
oscars
osprey
other
others
otto
ottoman
ou
our
out
outline
over
overview
owen
own
oxford
p
pa
pacific
page
pages
pai
paice
pain
painting
paintings
pakistan
palace
palazzo
palestine
palgrave
palmer
pan
paolo
paper
paperback
papers
par
para
parameter
paramount
paris
park
parker
parliament
parliamentary
part
partial
parties
party
pas
passes
past
patent
path
patients
patricia
patrick
patsi
paul
pay
pays
pbs
pc
pd
pdf
pe
peace
pearson
pedro
peer
peerage
pele
peloponnese
pen
penguin
pennsylvania
people
peoples
per
perfect
performance
period
perry
perseus
persian
person
personal
personen
perspective
perspectives
pertoire
peru
peter
peterson
pethane
petit
peugeot
pg
ph
pharmacology
phase
phch
phi
phil
philadelphia
philip
philippe
phillips
philosophical
philosophy
phoenix
phone
photo
photos
php
physical
physics
physiology
pi
piano
pic
pick
pics
picture
pictures
pid
pierre
pieter
pietro
pii
pilot
pink
pl
place
places
plan
planck
planet
planetary
planning
plans
plant
plants
platform
platinum
play
player
players
playstation
plus
pm
pmatrix
pmc
pmid
pnas
po
poe
poems
poetry
point
points
poland
pole
police
policy
polish
politica
political
politico
politics
politique
poll
polls
polska
polski
pontos
pop
pope
popular
population
populations
por
porsche
port
portal
porter
portrait
portugal
portuguese
position
possible
post
postaux
poste
potential
potter
pour
power
powers
pp
pr
practice
pre
pregnancy
preliminary
premier
premiere
present
president
presidential
press
presse
prevention
preview
price
pride
priest
primary
prime
primes
prince
princes
princess
princeton
principles
print
prison
private
prix
prize
pro
problem
problems
proceedings
process
processing
producer
product
production
productions
products
prof
professional
professor
profile
profiles
program
programme
programming
progress
project
projects
properties
prosopography
protection
protein
protest
protests
protocol
protothema
province
ps
psi
psychiatry
psychology
pt
pu
pub
public
publication
publications
published
publisher
publishers
publishing
pubmed
pure
purple
put
putin
python
q
qatar
qu
quad
quality
quantum
quarterly
quarters
que
queen
queens
query
quest
question
questions
qui
r
ra
race
rachel
racing
radio
raf
rai
railway
rain
rainbow
ralph
ram
random
range
rangle
ranking
rare
rate
ratings
ration
raw
ray
raymond
rc
rch
rd
re
read
reader
reading
ready
real
reality
really
rebecca
rebel
rec
recent
record
recording
records
red
reed
ref
reference
references
referendum
reform
region
regional
regions
register
reich
reign
related
relations
relationship
release
released
releases
religion
religious
remains
remix
renaissance
renault
rene
rentiels
report
reporter
reports
repository
representatives
reprint
reprinted
repubblica
republic
res
research
resistance
resolution
resource
resources
response
result
results
retrieved
retrodb
return
returns
reuters
rev
revealed
reveals
review
reviews
revised
revolution
revue
rex
reynolds
rez
rgen
rh
rho
ri
ria
riaa
ric
rica
rice
rich
richard
richardson
rick
rie
rieur
right
rightarrow
rights
ring
rio
rise
rising
risk
river
rizospastis
rk
rkd
rkdartists
rn
rna
ro
road
rob
robert
roberto
roberts
robertson
robin
robinson
rock
rocks
roger
rogers
roi
roland
role
roll
rolling
rom
roma
roman
romania
romanian
rome
romeo
ron
ronald
room
roots
rosa
rose
roses
ross
rotten
round
routledge
row
roy
royal
rs
rsssf
rt
rte
ru
ruby
rudolf
rule
rulers
rules
run
runciman
running
rush
russell
russia
russian
ruth
rv
ryan
s
sa
sabbath
sacred
safety
sage
said
saint
saints
sales
sam
same
samsung
samuel
san
sans
santa
santos
sara
sarah
sars
satellite
saturday
saturn
saudi
save
saxon
say
says
sb
sc
scale
scarecrow
scene
sch
schaum
schmidt
schneider
scho
school
schools
schuster
sci
science
sciencedirect
sciences
scientific
scientist
scientists
score
scores
scotland
scott
scottish
scream
screen
script
sd
sdna
se
sea
sean
search
season
seat
seattle
sebastian
sec
second
secret
secretary
secrets
section
security
seds
see
sega
select
selected
selection
self
semi
sen
senate
sep
september
sequel
sequence
sequences
sera
serbia
serbian
serie
series
server
service
services
ses
set
sets
setton
seven
sex
sexual
sfd
sh
shadow
shakespeare
share
shaw
she
sheet
sherlock
ship
ships
shooting
shop
shores
short
shot
should
show
shows
shtml
si
sic
sicily
side
sie
siemens
sierra
sigma
sigmalive
sign
signs
sih
silent
silver
sim
simbad
simon
simple
sin
since
singapore
singer
singh
single
singles
sir
sistemo
sister
site
sites
six
size
sk
ska
skai
ski
skin
sky
sl
sleep
sm
small
smart
smith
smithsonian
sn
snac
snow
so
soc
soccer
soccerway
social
socie
society
sofia
software
sol
solar
soldier
solo
solomon
solution
some
something
son
song
songs
sonic
sons
sony
sophie
soul
sound
soundtrack
source
sources
sous
south
southern
soviet
sp
spa
space
spain
spanish
special
species
speech
speed
spencer
spider
spiegel
spin
spirit
sport
sportando
sports
spring
springer
sputnikmusic
spy
sq
sqrt
squad
square
sr
sri
ss
st
sta
stable
stadium
staff
stage
stammtafeln
stan
stand
standard
stanford
stanley
star
stars
start
stat
state
statement
states
station
statistical
statistics
stats
status
stavropoulos
stay
ste
steel
stefan
stein
step
stephen
steve
steven
stewart
sti
still
stin
stm
sto
stock
stockholm
stone
stones
stop
store
storia
stories
storm
story
strange
strategy
stream
street
strike
strong
structure
struggle
sts
stuart
student
students
studies
studio
studios
study
stuttgart
style
su
sub
subject
success
such
suggested
sui
suicide
sullivan
sultan
sum
summary
summer
sun
sunday
supe
super
suppl
supplement
support
sur
surface
surgery
survey
survivor
susan
suv
sv
sweden
swedish
sweet
swiss
switzerland
sydney
symphony
symposium
syndrome
synthesis
syria
syrian
system
systematic
systems
t
ta
table
tables
tag
take
takes
tale
tales
talk
talks
tanea
tank
tanzania
tau
tauris
taylor
tb
te
team
teams
tech
technical
technology
ted
teen
tel
telegraph
television
tell
temple
temps
ten
tennis
ter
term
terms
terra
terror
terry
tes
tesla
test
testament
texas
text
texts
th
thames
than
that
the
theater
theatre
theguardian
their
them
then
theodore
theory
therapy
there
these
thesis
thessaloniki
thessaly
theta
they
thing
things
think
third
this
thomas
thompson
thomson
thor
those
thought
thrace
three
thriller
through
thursday
ti
tiger
til
tim
time
timeline
times
timothy
tin
tis
title
tl
to
today
todd
together
tokyo
tom
tomatoes
tome
ton
tonight
tony
too
tools
top
topic
tops
tor
toronto
total
tou
touch
tour
tourism
tournament
tous
tovima
towards
tower
town
toy
toyota
tr
tra
track
trade
tradition
traditional
tragedy
trailer
traill
train
training
trans
transactions
transfer
transfermarkt
transition
translated
translation
transport
travel
tre
treadgold
treatment
treaty
treccani
tree
trends
trial
trials
triangle
tribune
tribute
triple
trismegistos
true
trump
trust
truth
tt
tu
tudes
tufts
turkey
turkish
turks
turn
turner
tv
tvxs
twentieth
twenty
twin
twitter
two
txt
type
u
ua
ubuntu
uefa
uk
ukraine
ukrainian
ultimate
um
un
una
und
under
underground
understanding
une
unesco
unfit
union
unit
united
univ
universal
universe
universita
universite
university
unix
unknown
until
uoa
up
uparrow
update
updated
uploads
upon
upper
urban
urbanisation
uri
url
us
usa
usatoday
usb
use
used
user
users
uses
using
utc
utm
v
va
vaccine
valley
value
vampire
van
var
variety
various
ve
vec
venezia
venice
ver
vera
verlag
version
versus
very
vg
vi
via
vice
victor
victoria
victory
vid
vida
video
videos
vie
vienna
view
vii
viii
viking
villa
village
ville
vincent
vinyl
violence
virgin
virginia
virtual
virus
vision
visit
vista
visual
vita
vizier
vladimir
vo
voa
vogue
voice
voices
vol
volkswagen
volleyball
vols
volume
volumes
volvo
vom
von
vote
voyage
vs
w
wa
wagner
wales
walk
walker
wall
walt
walter
wang
want
war
ward
warfare
warner
warren
wars
warsaw
was
washington
washingtonpost
watch
water
waters
watson
wave
way
wayback
wayne
we
weather
web
webcitation
website
webster
wedding
week
weekend
weekly
welcome
well
welle
welt
weplayball
were
werner
west
western
what
when
where
which
while
white
whitney
who
why
wide
wie
wien
wife
wiki
wikidata
wikimedia
wikipedia
wikisource
wild
wiley
wilhelm
will
william
williams
wilson
win
wind
windows
wing
winner
winners
winning
wins
winter
wired
wisconsin
wissenschaften
with
within
without
wo
wolf
wolfgang
wolfram
woman
women
won
wood
word
wordpress
words
work
working
works
world
worlds
worldwide
would
wp
wrestling
wright
writer
writers
writing
written
wsj
wu
wwe
www
x
xa
xbox
xi
xico
xii
xiii
xiv
xml
xrightarrow
xv
xvi
xx
y
ya
yahoo
yale
year
years
yes
yo
york
you
young
your
youth
youtube
yu
yugoslavia
z
za
ze
zealand
zeit
zeitschrift
zeitung
zeppelin
zero
zh
zi
zn
zo
zone
zu
zum
zur
{
|
}
~
¡
£
¦
§
¨
©
ª
«
¬
­
®
¯
°
±
²
³
´
µ
·
¹
º
»
½
¿
×
ða
ði
ðo
ı
ł
ɑ
ɔ
ə
ɛ
ɣo
ɪ
ɾa
ɾi
ɾo
ʁ
ʃ
ʝi
ʰ
ʲ
ʷ
ʹ
ʻ
ʼ
ʾ
ʿ
ˈ
ˌ
ː
˙
̀
́
̂
̃
̄
̆
̇
̈
̉
̊
̋
̌
̑
̓
̔
̛
̣
̥
̦
̧
̨
̩
̯
̱
̸
͂
ͅ
͡
͵
΄
α
αβ
αβα
αβαει
αββαει
αβγ
αβγα
αβε
αβεβαιο
αβι
αβινιο
αβραα
αγ
αγα
αγαθα
αγαθο
αγαθω
αγαμε
αγανα
αγαπα
αγαπη
αγαπημε
αγαπητο
αγαπου
αγαπω
αγγε
αγγει
αγγελι
αγγελικη
αγγελιοφο
αγγελο
αγγι
αγγλ
αγγλι
αγγλικα
αγγλικε
αγγλικη
αγγλικο
αγγλικου
αγγλικω
αγγλο
αγε
αγελα
αγι
αγια
αγιο
αγιογρα
αγιογραφι
αγιορει
αγκα
αγκαλια
αγκυ
αγνη
αγνο
αγνοει
αγνοου
αγνω
αγο
αγορα
αγορε
αγορω
αγρα
αγρι
αγρινι
αγριο
αγρο
αγροτικα
αγροτικε
αγροτικη
αγροτικο
αγροτικου
αγροτικω
αγροτω
αγω
αγωγη
αγωγο
αγωγου
αγωνι
αγωνιζο
αγωνιστε
αγωνιστει
αγωνιστη
αγωνιστικε
αγωνιστικη
αγωνιστικο
αγωνιστω
αδ
αδα
αδαμα
αδε
αδειοδο
αδειω
αδελαι
αδελφε
αδελφη
αδελφο
αδελφοι
αδελφου
αδελφω
αδερφε
αδερφη
αδερφο
αδερφου
αδι
αδια
αδιαφορι
αδιε
αδικη
αδικι
αδο
αδρα
αδριανο
αδριανου
αδριατικη
αδυ
αδυναμι
αε
αει
αεκ
αελ
αεπ
αερι
αερο
αεροδρο
αεροδρομι
αερολιμε
αεροπλα
αεροπλανοφο
αεροπο
αεροπορι
αεροπορικε
αεροπορικη
αεροπορικο
αεροπορικω
αεροσκα
αεροσκαφω
αετο
αετου
αζ
αζα
αζαν
αζε
αζερμπαι
αζι
αζω
αη
αθ
αθα
αθανα
αθανασι
αθανασια
αθε
αθει
αθη
αθηνα
αθηναι
αθηνω
αθλη
αθλητε
αθλητη
αθλητικα
αθλητικε
αθλητικη
αθλητικο
αθλητικου
αθλητικω
αθλητισμο
αθλητισμου
αθλητω
αθω
αθωω
αι
αια
αιγα
αιγαι
αιγι
αιγο
αιγυ
αιγυπτι
αιγυπτιακη
αιγυπτιακο
αιες
αιη
αιθε
αιθιοπι
αικατερι
αιμι
αιμορραγι
αιμοσφαιρι
αινει
αινω
αιο
αις
αισθα
αισθη
αισθητα
αισθητη
αισθητικα
αισθητικη
αισχυ
αιτα
αιτη
αιτι
αιτιατικη
αιτου
αιτωλοακαρνανι
αιφνι
αιχμα
αιχμαλω
αιχμαλωσι
αιχμαλωτι
αιχμη
αιω
ακ
ακα
ακαδημαι
ακαδημι
ακαθα
ακανο
ακαρνανι
ακατα
ακατε
ακατοι
ακε
ακελ
ακεραι
ακεραιο
ακι
ακινη
ακμα
ακμη
ακο
ακοη
ακολου
ακολουθει
ακολουθη
ακολουθι
ακολουθου
ακολουθω
ακον
ακου
ακουιτανι
ακουστικη
ακρα
ακραι
ακρι
ακριβα
ακριβε
ακριβει
ακριβη
ακριβο
ακριβω
ακρο
ακροατη
ακροπο
ακρωνυ
ακρωτη
ακρωτηρι
ακτε
ακτη
ακτι
ακτιβι
ακτιβιστε
ακτιβιστη
ακτινοβολι
ακτογραμμη
ακτοπλοι
ακτω
ακυ
ακυρω
ακω
αλ
αλα
αλαμπα
αλβανι
αλβανικα
αλβανικη
αλβανικο
αλβανο
αλβανοι
αλβανου
αλβανω
αλβε
αλγεβρικη
αλγερι
αλγο
αλγορι
αλε
αλεξα
αλεξανδρει
αλεξανδρου
αλεξε
αλεξι
αλεπου
αλευ
αλεχα
αλη
αληθη
αληθινα
αληθινη
αληθινο
αλι
αλια
αλιει
αλκα
αλκι
αλκιβια
αλκοο
αλλ
αλλα
αλλαγε
αλλαγη
αλλαγω
αλλεπα
αλληγορι
αλληλεγγυ
αλληλεπι
αλληλεπιδρα
αλληλογραφι
αλληλουχι
αλλιω
αλλο
αλλοι
αλλοιω
αλλου
αλμα
αλμπε
αλμυρο
αλμυρου
αλο
αλογο
αλουμι
αλουμινι
αλπ
αλσατι
αλυσι
αλφα
αλφαβη
αλφαβητικη
αλφο
αλφρε
αλω
αμ
αμα
αμαζο
αμαλι
αμαλια
αμαξω
αμαρουσι
αμαρτι
αμβε
αμβο
αμβος
αμβου
αμβρο
αμε
αμεδαι
αμει
αμερικα
αμερικανι
αμερικανικα
αμερικανικε
αμερικανικη
αμερικανικο
αμερικανικου
αμερικανικω
αμερικανο
αμερικανοι
αμερικανου
αμερικανω
αμερικη
αμετα
αμη
αμι
αμιγω
αμινοξε
αμμο
αμμοχω
αμμω
αμμωνι
αμνηστι
αμο
αμοιβαι
αμοιβη
αμου
αμπα
αμπε
αμπελω
αμπντου
αμπντουλα
αμπου
αμπχαζι
αμυ
αμυντικη
αμυντικο
αμυντικου
αμφι
αμφιβολι
αμφιθε
αμφιλεγο
αμφισβη
αμφισβητει
αμφισβητη
αμφισβητου
αμφο
αν
ανα
αναβα
αναβαθμι
αναβι
αναβιω
αναβλη
αναβολη
αναγε
αναγκα
αναγκαι
αναγκαιο
αναγκαστικα
αναγκαστικη
αναγκω
αναγνω
αναγνωρι
αναγνωρισμε
αναγνωριστει
αναγορευ
αναγρα
αναγωγη
αναδει
αναδεικνυ
αναδειχθει
αναδια
αναδιοργα
αναδιοργανω
αναδρομη
αναδυ
αναδυο
αναζη
αναζητα
αναζητη
αναζητου
αναζητω
αναθε
αναθεω
αναθεωρη
αναθεωρημε
αναι
αναιμι
ανακα
ανακαι
ανακαινι
ανακαλυ
ανακαλυφθει
ανακατα
ανακατασκευα
ανακατασκευη
ανακατε
ανακη
ανακηρυ
ανακηρυχθει
ανακλη
ανακοι
ανακοινω
ανακοπη
ανακου
ανακρι
ανακτη
ανακτο
ανακυ
ανακωχη
αναλα
αναλαμβα
αναλη
αναλο
αναλογι
αναλογικη
αναλυ
αναλυτε
αναλυτικα
αναλυτικη
αναλυτικο
αναμε
αναμενο
αναμεταξυ
αναμετρη
αναμνη
αναμο
αναμονη
αναμφι
αναμφισβη
ανανε
ανανεω
ανανεωμε
αναξιο
αναπα
αναπαρα
αναπαραγωγη
αναπαραγωγικη
αναπαραστα
αναπαριστα
αναπαριστου
αναπαυ
αναπηρι
αναπληρω
αναπληρωτη
αναπνοη
αναπο
αναπτυ
αναπτυγμε
αναπτυξιακη
αναπτυσσο
αναπτυχθει
αναργυ
αναρρι
ανασκα
ανασκαφε
ανασκαφη
ανασκαφω
ανασκο
αναστα
αναστασι
αναστασια
αναστε
αναστη
αναστολε
αναστολη
αναστρε
ανασυ
ανασυγκρο
αναταραχη
ανατε
ανατεθει
ανατι
ανατινα
ανατο
ανατολη
ανατολι
ανατολικα
ανατολικε
ανατολικη
ανατολικο
ανατολικου
ανατολικω
ανατομι
ανατρα
ανατρε
ανατροπη
ανατροφη
ανατυ
αναφε
αναφερθει
αναφερο
αναφορα
αναφορε
αναφορικα
αναφορω
αναχω
αναχωρη
αναψυχη
ανγκο
ανδαλουσι
ανδο
ανδρε
ανδρει
ανδρι
ανδρια
ανδρικη
ανδρικο
ανδρικου
ανδρο
ανδρος
ανδρου
ανδρω
ανε
ανεβα
ανεβαι
ανεγε
ανεμο
ανεξα
ανεξαρτη
ανεξαρτησι
ανεξε
ανεπα
ανεπαρκη
ανεπι
ανεπιθυ
ανεπιτυχη
ανεπιτυχω
ανεπτυγμε
ανεργι
ανερχο
ανευ
ανευρι
ανζου
ανη
ανηλι
ανησυχι
ανησυχου
ανθε
ανθεκτικο
ανθι
ανθο
ανθολογι
ανθου
ανθρακικο
ανθρακου
ανθρω
ανθρωπι
ανθρωπιστικη
ανθρωπιστικω
ανθρωπο
ανθρωπολο
ανθρωπολογι
ανι
ανικανο
ανιο
ανισο
ανιχνευ
ανιψια
ανιψιο
ανν
αννι
αννο
ανο
ανοι
ανοικοδο
ανοικοδομη
ανοικτα
ανοικτη
ανοικτο
ανοικτου
ανοιχτα
ανοιχτη
ανοιχτο
ανοιχτου
ανου
ανοχη
ανρι
αντ
αντα
ανταγωνι
ανταγωνισμο
ανταγωνισμου
ανταγωνιστε
ανταγωνιστη
ανταγωνιστικο
ανταλλα
ανταλλαγη
ανταμοιβη
αντανακλα
ανταπο
ανταποκρι
ανταποκριτη
ανταρκτικη
ανταρσι
ανταρτω
αντε
αντεπι
αντι
αντιβασιλε
αντιβασιλει
αντιβασιλια
αντιγο
αντιγρα
αντιγραφη
αντιδα
αντιδιαστολη
αντιδρα
αντιδραστη
αντιδρου
αντιθε
αντικαθι
αντικαθιστα
αντικαθιστου
αντικαθιστω
αντικατα
αντικαταστα
αντικατασταθει
αντικαταστη
αντικατε
αντικατοπτρι
αντικει
αντικειμε
αντικειμενικο
αντιλαμβα
αντιλη
αντιληπτη
αντιληπτο
αντιμε
αντιμετω
αντιμετωπι
αντιο
αντιοχει
αντιπα
αντιπαλο
αντιπαρα
αντιπαραθε
αντιπολι
αντιπρο
αντιπροε
αντιπροσω
αντιπροσωπει
αντιπροσωπευ
αντιπροσωπευτικο
αντιρρη
αντιστα
αντιστασιακη
αντιστασιακο
αντιστοι
αντιστοιχει
αντιστοιχι
αντιστοιχου
αντιστρα
αντιστρε
αντισυνταγματα
αντισφαι
αντισω
αντιτα
αντιτι
αντιτορπιλικο
αντλει
αντλι
αντλου
αντο
αντονε
αντουα
αντουανε
αντοχη
αντρε
αντρω
αντω
αντωνι
αντωνια
αντωνυμι
ανυ
ανυπο
ανυψω
ανω
ανωμαλι
ανωτα
ανωτε
αξι
αξιο
αξιοθε
αξιολο
αξιολογη
αξιοπιστι
αξιοποι
αξιοποιη
αξιοπρε
αξιοσημει
αξιου
αξιω
αξιωματικο
αξιωματικοι
αξιωματικου
αξιωματικω
αξιωματου
αξο
αο
αορι
αου
απ
απα
απαγγε
απαγο
απαγορευ
απαγορευμε
απαγωγη
απαι
απαιτει
απαιτη
απαιτου
απαιτω
απαλλα
απαλλαγη
απαντα
απαντη
απαντου
απαντω
απαρα
απαραι
απαρε
απαρτι
απαρχε
απασχο
απασχολει
απασχολου
απατεω
απε
απεβ
απεβι
απει
απεικο
απεικονι
απειλε
απειλει
απειλη
απειλου
απειλω
απελα
απελευθε
απελευθερω
απελευθερωτικο
απελευθερωτικου
απελπισμε
απεργι
απερι
απεριο
απεσταλμε
απετε
απευθει
απευθυ
απευθυνο
απη
απθ
απι
απλα
απλε
απλη
απλο
απλοι
απλοποιημε
απλου
απλω
απο
αποβα
αποβιβα
αποβιω
αποβλη
αποβολη
απογει
απογειω
απογο
απογοη
απογοητευ
απογοητευμε
απογρα
απογραφε
απογραφη
αποδε
αποδει
αποδεικνυ
αποδειχθει
αποδεκτη
αποδεκτο
αποδι
αποδο
αποδοθει
αποδοτικο
αποδοχη
αποδυναμω
αποδω
αποελ
αποζημι
αποζημιω
αποθε
αποθεμα
αποθη
αποθηκευ
αποθηκευμε
αποι
αποικι
αποικιακη
αποικιω
αποκα
αποκαλει
αποκαλου
αποκαλυ
αποκατα
αποκαταστα
αποκαταστη
αποκατε
αποκε
αποκεντρωμε
αποκεφαλι
αποκη
αποκλει
αποκλεισμο
αποκλεισμου
αποκλειστει
αποκλειστικα
αποκλειστικη
αποκλειστικο
αποκλι
αποκο
αποκορυ
αποκρι
αποκρου
αποκρυ
αποκρυπτογρα
αποκτα
αποκτη
αποκτου
αποκτω
απολα
απολαμβα
απολαυ
απολη
απολιθω
απολιθωμε
απολλο
απολλω
απολλωνι
απολογι
απολογισμο
απολυ
απομα
απομακρυ
απομακρυνθει
απομακρυσμε
απομε
απομει
απομεινα
απομνημονευ
απομο
απομονω
απομονωμε
απονε
απονεμη
απονομη
αποξηραμε
απορρι
απορρο
απορροη
απορροφα
απορροφη
αποσαφη
αποσκοπει
αποσκοπου
αποσπα
αποσπω
αποστα
αποστε
αποστο
αποστολε
αποστολη
αποστολι
αποστολικη
αποστολω
αποστρατευ
αποσυ
αποσυρθει
αποτε
αποτελε
αποτελει
αποτελεσμα
αποτελεσματικα
αποτελεσματικη
αποτελεσματικο
αποτελου
αποτελω
αποτι
αποτρε
αποτροπη
αποτυ
αποτυγχα
αποτυπω
αποτυχημε
αποτυχι
απουλι
απουσι
απουσια
αποφα
αποφασι
αποφασισμε
αποφασιστικη
αποφασιστικο
αποφευ
αποφευχθει
αποφοι
αποφυ
αποφυγη
αποφυλακι
αποχε
αποχη
αποχρω
αποχω
αποχωρει
αποχωρη
απρι
απριλι
απρο
απροσδο
απω
αρ
αρα
αραβι
αραβικα
αραβικε
αραβικη
αραβικο
αραβικου
αραβικω
αραγωνι
αραμαι
αρβανι
αργα
αργει
αργεντι
αργεντινη
αργεντινο
αργη
αργι
αργκο
αργο
αργολι
αργοναυ
αργου
αργυ
αργυρα
αργυρο
αργυρου
αρε
αρει
αρετε
αρετη
αρθου
αρθρι
αρθρογρα
αρθρω
αρι
αρια
αριζο
αριθ
αριθμ
αριθμει
αριθμητικα
αριθμητικη
αριθμητικο
αριθμο
αριθμοι
αριθμου
αριθμω
αριστει
αριστερα
αριστερη
αριστερο
αριστερου
αριστερω
αριστο
αριστοκρα
αριστοκρατι
αριστοκρατικη
αριστομε
αριστοτε
αριστοτελει
αριστου
αριστοφα
αρκα
αρκαδι
αρκει
αρκετα
αρκετε
αρκετη
αρκετο
αρκετοι
αρκετου
αρκετω
αρκου
αρκτικη
αρκτικο
αρλεμ
αρμα
αρμε
αρμενι
αρμενικα
αρμενικη
αρμενικο
αρμο
αρμοδιο
αρμοδιοτη
αρμονι
αρμοστη
αρνει
αρνη
αρνηθει
αρνητικα
αρνητικε
αρνητικη
αρνητικο
αρνου
αρο
αρου
αρουραι
αρπα
αρπακτικα
αρραβω
αρραβωνια
αρρε
αρρω
αρσε
αρσενικα
αρσενικο
αρσενικου
αρσινο
αρτ
αρτα
αρτε
αρτηρι
αρτηριακη
αρχ
αρχα
αρχαι
αρχαιο
αρχαιολο
αρχαιολογι
αρχαιολογικα
αρχαιολογικε
αρχαιολογικη
αρχαιολογικο
αρχαιολογικου
αρχαιολογικω
αρχαιολογικων
αρχαιοπρεπε
αρχαιοτη
αρχε
αρχει
αρχειοθετη
αρχειοθετημε
αρχη
αρχηγει
αρχηγι
αρχηγο
αρχηγοι
αρχηγου
αρχηγω
αρχι
αρχιδου
αρχιεπι
αρχιεπισκο
αρχιεπισκοπη
αρχιερε
αρχικα
αρχικε
αρχικη
αρχικο
αρχικου
αρχικω
αρχιμανδρι
αρχιμη
αρχιπε
αρχιπελα
αρχιστρα
αρχισυντα
αρχιτε
αρχιτεκτο
αρχιτεκτονικα
αρχιτεκτονικη
αρχιτεκτονικο
αρχο
αρχοι
αρχοντικο
αρχος
αρχου
αρχω
αρω
αρωγη
ας
ασα
ασαν
ασαφε
ασαφη
ασβε
ασβεστι
ασβεστο
ασε
ασεν
αση
ασημε
ασης
ασθε
ασθενε
ασθενει
ασθενειω
ασθενη
ασθενου
ασθενω
ασι
ασιατικη
ασιατικο
ασιν
ασκ
ασκα
ασκει
ασκη
ασκου
ασμα
ασο
ασος
ασπα
ασπι
ασπρο
ασσυρι
αστα
ασταθη
αστε
αστει
αστερι
αστερισμο
αστερισμου
αστεροειδει
αστεροειδη
αστεροειδω
αστεροσκοπει
αστη
αστικα
αστικε
αστικη
αστικο
αστικοποιησης
αστικου
αστικω
αστο
αστος
αστρα
αστροναυ
αστρονο
αστρονομι
αστρονομικη
αστυνο
αστυνομι
αστυνομικε
αστυνομικη
αστυνομικο
αστυνομικοι
αστυνομικου
αστυνομικω
ασυ
ασυνει
ασυνη
ασφα
ασφαλε
ασφαλει
ασφαλη
ασφαλι
ασφαλω
ασχολει
ασχολη
ασχοληθει
ασχολι
ασχολου
ατ
ατα
αταλα
ατε
ατζε
ατι
ατλα
ατλαντι
ατλαντικο
ατλαντικου
ατλε
ατμο
ατμοσφαιρικη
ατμου
ατο
ατομικα
ατομικε
ατομικη
ατομικο
ατομικω
ατος
ατρα
ατρικη
ατρο
ατρον
ατρος
ατσα
αττι
αττικη
αττικο
αττικου
ατυ
ατυχη
αυ
αυγα
αυγη
αυγο
αυγου
αυγουστι
αυθαι
αυθεντικη
αυθεντικο
αυθο
αυλα
αυλη
αυλο
αυλω
αυξα
αυξανο
αυξη
αυξηθει
αυξημε
αυρη
αυστηρα
αυστηρη
αυστηρο
αυστραλι
αυστραλιανη
αυστραλιανο
αυστραλο
αυστρι
αυστριακη
αυστριακο
αυστριακου
αυστροουγγαρι
αυτα
αυτε
αυτει
αυτη
αυτι
αυτια
αυτο
αυτοα
αυτοβιογραφι
αυτοδι
αυτοδιοι
αυτοι
αυτοκι
αυτοκινη
αυτοκινητο
αυτοκινητοβιομηχανι
αυτοκινητοδρο
αυτοκρα
αυτοκρατο
αυτοκρατορι
αυτοκρατορικη
αυτοκρατορικο
αυτοκρατορικου
αυτοκτο
αυτοκτονη
αυτοκτονι
αυτονομι
αυτου
αυτω
αφ
αφα
αφαι
αφαιρε
αφαιρεθει
αφαιρει
αφαιρου
αφαιρω
αφγανιστα
αφε
αφενο
αφεντικο
αφετε
αφετηρι
αφη
αφηγει
αφηγη
αφηγητη
αφηρημε
αφθονι
αφι
αφιε
αφιερω
αφιερωμε
αφο
αφορα
αφορμη
αφορου
αφοσι
αφοσιω
αφοσιωμε
αφου
αφρικανικη
αφρικη
αφρο
αφροδι
αφτο
αφυ
αχ
αχα
αχαι
αχε
αχελω
αχιλλε
αχμα
αχμε
αψβου
αψι
β
βα
βαβυλω
βαβυλωνι
βαγγε
βαγδα
βαγο
βαδι
βαζε
βαθε
βαθει
βαθια
βαθμι
βαθμιαι
βαθμο
βαθμοι
βαθμολο
βαθμολογι
βαθμολογικη
βαθμολογικου
βαθμου
βαθμω
βαθμων
βαθρο
βαθυ
βαι
βαια
βαιη
βαιναν
βαινε
βαινεν
βαιο
βαιος
βακαλο
βακτη
βακτηρι
βαλ
βαλα
βαλαν
βαλβι
βαλδουι
βαλε
βαλεν
βαλεντι
βαλι
βαλκα
βαλκανι
βαλκανικη
βαλκανικο
βαλκανικου
βαλκανικω
βαλλαν
βαλλε
βαλον
βαλουα
βαλτικη
βαμβα
βαν
βανα
βανε
βανκου
βανο
βανος
βανς
βαπτι
βαπτιστη
βαρ
βαρα
βαρβα
βαρβαρο
βαρδα
βαρε
βαρει
βαρελα
βαρθολομαι
βαρι
βαρια
βαριε
βαρκελω
βαρνα
βαρο
βαρου
βαρσοβι
βαρυ
βαρω
βας
βασ
βασα
βασανι
βασανιστη
βασε
βαση
βασης
βασι
βασιζο
βασικα
βασικε
βασικη
βασικο
βασικοι
βασικου
βασικω
βασιλα
βασιλε
βασιλει
βασιλεια
βασιλευ
βασιλι
βασιλια
βασιλικα
βασιλικε
βασιλικη
βασιλικο
βασιλικου
βασιλικω
βασιλο
βασιν
βασις
βασισμε
βασμα
βαστα
βαστου
βατα
βατικανο
βατικανου
βατο
βαυαρι
βαυαρικη
βαφη
βαφτι
ββα
ββας
ββατο
βγ
βγα
βγαι
βγαινε
βγαλε
βγει
βγη
βγκοροντ
βδ
βδο
βδομα
βδομη
βδομο
βδομος
βδου
βε
βεατρι
βεβαι
βεβαιο
βεβαιω
βεγγα
βεζα
βεζας
βεζι
βει
βεια
βειαν
βελ
βελα
βελανιδια
βελαντ
βελγι
βελγικη
βελι
βελιγρα
βελιγραδι
βελο
βελου
βελτι
βελτιω
βελτιωθει
βελτιωμε
βεν
βενε
βενεζουε
βενετι
βενετικη
βενετοι
βενετου
βενετσια
βενετω
βενζι
βενιαμι
βενιζε
βενς
βερ
βερα
βεργι
βερε
βερεγγα
βερενι
βερι
βερν
βερνα
βερο
βερολι
βερπουλ
βερς
βερσαλλιω
βες
βεστφαλι
βετ
βεται
βετε
βετερα
βευση
βη
βηκαν
βηκε
βημα
βην
βηξε
βηρι
βης
βησαν
βηση
βησιγο
βητα
βητο
βι
βια
βιαι
βιαστικα
βιβλι
βιβλικη
βιβλιο
βιβλιογραφι
βιβλιοθη
βιβλιοθηκω
βιβλιοπωλει
βιε
βιες
βιετνα
βιθυνι
βικε
βικη
βικιθη
βικιλεξικο
βικιπαι
βικτο
βικτω
βικτωρι
βιλ
βιλαε
βιλνε
βιν
βιντ
βιντεοπαιχνι
βιντεοπαιχνιδιω
βιο
βιογρα
βιογραφι
βιογραφικα
βιογραφικο
βιοι
βιολι
βιολο
βιολογι
βιολογικη
βιολογικο
βιολογικω
βιομη
βιομηχανι
βιομηχανικα
βιομηχανικε
βιομηχανικη
βιομηχανικο
βιομηχανικω
βιον
βιοποικιλο
βιος
βιοτεχνι
βιου
βιοχημει
βιρτζι
βις
βισκο
βιτα
βιταμι
βιτο
βιτς
βιτσα
βιω
βιων
βλ
βλα
βλαδι
βλαντι
βλαντιμι
βλαστο
βλαστου
βλαχι
βλαχο
βλε
βλεπαν
βλεπε
βλεψε
βλεψη
βλη
βλημα
βλητα
βλο
βλος
βλου
βο
βοεβοδα
βοη
βοηθα
βοηθει
βοηθη
βοηθητικο
βοηθο
βοηθου
βοηθω
βοημι
βοημου
βοι
βοια
βοιας
βοιωτι
βολα
βολε
βολη
βολι
βολιβι
βολο
βολος
βολται
βολφ
βομβα
βομβαρδι
βομβαρδισμο
βομβαρδισμου
βομβιστικη
βον
βοναπα
βονιφα
βονται
βοντας
βοντι
βορ
βορα
βορε
βορει
βορειο
βορειοανατολικα
βορειοανατολικη
βορειοανατολικο
βορειοδυτικα
βορειοδυτικη
βορειοδυτικο
βορι
βορρα
βος
βοσκη
βοσκο
βοσνι
βοσνιακα
βοσπο
βοστω
βοτα
βοτανικη
βοτανικο
βου
βουδαπε
βουδισμο
βουκουρε
βουκουρεστι
βουλγα
βουλγαρι
βουλγαρικα
βουλγαρικη
βουλγαρικο
βουλγαρικου
βουλευ
βουλευτε
βουλευτη
βουλευτικε
βουλευτικω
βουλευτω
βουλη
βουλιαγμε
βουλο
βουλομε
βουλος
βουλω
βουμε
βουν
βουνα
βουνο
βουνου
βουνω
βουρβο
βουργουνδι
βους
βοω
βρα
βραα
βραβα
βραβει
βραβευ
βραβευμε
βραδια
βραδυ
βραζιλι
βραζιλια
βραι
βρανδεμβου
βρασι
βραχε
βραχει
βραχι
βραχιο
βραχονησι
βραχυ
βραχυπρο
βραχω
βρε
βρεθει
βρεθου
βρει
βρεις
βρετα
βρετανι
βρετανικα
βρετανικε
βρετανικη
βρετανικο
βρετανικου
βρετανικω
βρετανο
βρετανοι
βρετανου
βρετανω
βρεφικη
βρη
βρι
βριν
βριο
βριος
βρισκε
βρισκο
βρο
βροντη
βρου
βρουν
βροχε
βροχη
βροχο
βροχοπτω
βρυ
βρυξε
βρυξελλω
βρυση
βρυτα
βρω
βρωση
βσκι
βυ
βυζα
βυζαντι
βυζαντινα
βυζαντινε
βυζαντινη
βυζαντινο
βυζαντινοι
βυζαντινου
βυζαντινω
βυθι
βυθισμε
βυθο
βυρτεμβε
βω
βωμο
βωμου
βων
βωνα
γ
γα
γαβριη
γαβριηλι
γαγαν
γαγε
γαγεν
γαγον
γαζε
γαζη
γαθα
γαθη
γαθο
γαθοι
γαθου
γαθω
γαι
γαιναν
γαινε
γαιοκτη
γαλα
γαλανο
γαλαξι
γαλαξιω
γαλατα
γαλατι
γαλε
γαλη
γαληνοτα
γαλικι
γαλιλαι
γαλλ
γαλλι
γαλλικα
γαλλικε
γαλλικη
γαλλικο
γαλλικου
γαλλικω
γαλλο
γαλμα
γαλο
γαμε
γαμη
γαμος
γαμπρο
γαν
γανα
γανε
γαντα
γαντας
γαντες
γαπα
γαπω
γαρ
γαρα
γαρι
γαρο
γας
γαση
γαστρι
γαστρονομι
γαυ
γγα
γγε
γγει
γγειλαν
γγειλε
γγελμα
γγελο
γγελοι
γγελος
γγελου
γγης
γγι
γγια
γγισε
γγιση
γγισης
γγλο
γγλοι
γγλος
γγλου
γγλους
γγλων
γγο
γγος
γγου
γγραμμα
γγραφα
γγραφο
γγροι
γγρος
γγρους
γγυ
γγων
γδ
γδοη
γδοο
γε
γεβο
γεγενημε
γεγο
γεγονε
γεγονο
γεγονω
γεγραμμε
γεδεω
γεθο
γεθος
γει
γεια
γειας
γειν
γειο
γειος
γειρε
γεις
γειτο
γειτονια
γειτονιε
γειτονικα
γειτονικε
γειτονικη
γειτονικο
γειτονικου
γειτονικω
γελα
γελο
γελοι
γελω
γεμα
γεμι
γεμο
γεμονι
γεμω
γεν
γενα
γενε
γενεα
γενεαλογι
γενεθλι
γενει
γενετικα
γενετικη
γενευ
γενη
γενι
γενια
γενιε
γενικα
γενικε
γενικευ
γενικευμε
γενικη
γενικο
γενικου
γενικω
γενν
γεννα
γενναι
γενναιο
γεννη
γεννηθει
γεννημε
γεννιε
γεννω
γενο
γενοκτονι
γενομε
γενω
γερ
γερα
γερμ
γερμανι
γερμανικα
γερμανικε
γερμανικη
γερμανικο
γερμανικου
γερμανικω
γερμανο
γερμανοι
γερμανου
γερμανω
γερν
γερο
γερος
γερουσι
γερουσιαστε
γερουσιαστη
γερουσιαστω
γερση
γερσης
γες
γεσθαι
γεται
γετε
γετο
γευ
γευμα
γεφυ
γεφυρω
γεω
γεωγρα
γεωγραφι
γεωγραφικα
γεωγραφικε
γεωγραφικη
γεωγραφικο
γεωγραφικοι
γεωγραφικου
γεωλο
γεωλογι
γεωλογικη
γεωμετρι
γεωμετρικα
γεωμετρικη
γεωμετρικο
γεωργακα
γεωργι
γεωργια
γεωργιανα
γεωργιανη
γεωργιανο
γεωργικη
γεωργικω
γεωργου
γη
γηγενει
γηκε
γημα
γην
γηπε
γηπεδου
γηρα
γηραιο
γης
γησα
γησαν
γησε
γησεν
γηση
γησης
γησι
γησιν
γησις
γητος
γι
για
γιαγια
γιαι
γιαλο
γιαν
γιανγκ
γιαννα
γιαννακο
γιαννιτσω
γιαννο
γιαννου
γιαξ
γιας
γιατι
γιατρο
γιατροι
γιατρου
γιβραλτα
γιγα
γιγαντιαι
γιγνο
γιγνομε
γιγνω
γιε
γιερ
γιες
γιεφ
γιζε
γινα
γιναν
γινας
γινε
γινο
γινομε
γινω
γιο
γιοβα
γιοι
γιολα
γιον
γιορκ
γιορτα
γιορτε
γιορτη
γιος
γιου
γιουβε
γιουγκοσλα
γιουγκοσλαβι
γιουγκοσλαβικη
γιουνα
γιουρο
γιους
γιοχα
γις
γισε
γισσα
γιστα
γιστη
γιστο
γιστον
γιστος
γιστρος
γιω
γιων
γκ
γκα
γκαι
γκαλα
γκαλερι
γκαλι
γκαλου
γκαμπο
γκαμπριε
γκαν
γκαρθι
γκαρντ
γκαρο
γκαρσι
γκας
γκασαν
γκασε
γκαστο
γκε
γκειται
γκελ
γκεν
γκεο
γκερ
γκες
γκεστ
γκη
γκην
γκηπα
γκηπας
γκης
γκι
γκια
γκιν
γκιο
γκιου
γκιπα
γκιπας
γκιπες
γκλα
γκλας
γκλεν
γκλημα
γκλητος
γκλι
γκλο
γκμπι
γκνερ
γκνους
γκντανσκ
γκο
γκοβο
γκοι
γκολ
γκολφ
γκον
γκορ
γκορι
γκος
γκου
γκουα
γκουι
γκουρου
γκους
γκρα
γκραν
γκραντ
γκρε
γκρεμι
γκρεμπ
γκρι
γκριγκο
γκριν
γκριση
γκρισης
γκρο
γκρου
γκρουπ
γκρουση
γκρουσης
γκυ
γκυος
γκυρα
γκυρτη
γκω
γκων
γλα
γλασκω
γλαυ
γλε
γλη
γλι
γλιτω
γλου
γλυ
γλυκα
γλυκια
γλυκο
γλυκου
γλυκυ
γλυπτα
γλυπτικη
γλυπτο
γλυπτω
γλυτω
γλυφα
γλυφο
γλω
γλωσσα
γλωσση
γλωσσικη
γλωσσικο
γλωσσο
γλωσσολο
γλωσσολογι
γλωσσω
γμα
γμασι
γμασιν
γματα
γματι
γματος
γνα
γνεσθαι
γνεται
γνη
γνησι
γνο
γνοει
γνοι
γνοια
γνονται
γνοου
γνος
γνου
γνυται
γνω
γνωρι
γνωριμι
γνωσαν
γνωση
γνωσης
γνωστα
γνωστε
γνωστες
γνωστη
γνωστης
γνωστικο
γνωστο
γνωστοι
γνωστος
γνωστου
γνωστω
γξει
γξτε
γο
γοδεφρει
γοητει
γοι
γοις
γομαι
γομεν
γον
γονα
γονε
γονει
γονεν
γονη
γονι
γονιδι
γονιμο
γονιω
γονο
γονοι
γονος
γοντα
γονται
γονταν
γοντας
γοντες
γοντο
γοντος
γορα
γοργι
γοργο
γορη
γορο
γορος
γος
γοτθικη
γοτθικο
γου
γουα
γουατεμα
γουε
γουι
γουια
γουινε
γουλιε
γουμε
γουν
γουο
γουρα
γουρο
γουρος
γουρου
γους
γουσα
γουσι
γουσιν
γουσταυ
γουστο
γουστος
γρ
γρα
γραι
γραμμα
γραμματε
γραμματει
γραμματευ
γραμματικη
γραμματικο
γραμματο
γραμμε
γραμμη
γραμμικη
γραμμικο
γραμμο
γραμμω
γρανα
γρανι
γραπτα
γραπται
γραπτε
γραπτη
γραπτο
γραπτω
γρας
γραφα
γραφαν
γραφε
γραφει
γραφη
γραφι
γραφικα
γραφικε
γραφικη
γραφικο
γραφικω
γραφο
γραφος
γραφτει
γραψα
γραψαν
γραψε
γραψεν
γρεβενω
γρενα
γρη
γρηγο
γρηγορι
γρηγοριανο
γρηγορο
γρης
γρι
γρια
γριας
γριο
γριος
γρο
γροι
γροιλανδι
γρου
γρυ
γρω
γυ
γυα
γυαλι
γυαλια
γυμνα
γυμνασι
γυμναστη
γυμναστικη
γυμναστικο
γυμνη
γυμνο
γυναι
γυναικει
γυναικι
γυναικο
γυναικω
γυναιξι
γυνη
γυπτι
γυπτο
γυπτον
γυπτος
γυρα
γυρευ
γυρι
γυρισμα
γχει
γχεται
γχη
γχης
γχονται
γχος
γχου
γχουν
γχους
γχρονα
γχρονες
γχρονη
γχρονης
γχρονο
γχρονοι
γχρονος
γχρονου
γχρονους
γχρονων
γχυση
γχων
γω
γωγα
γωγε
γωγο
γωμεν
γων
γωνα
γωνι
γωνια
γωνιω
γωνο
γωνον
γωνος
γως
δ
δα
δαβι
δαι
δαιμο
δαιμονι
δακρυ
δακτυ
δακτυλι
δαλματι
δαμα
δαμασκηνο
δαμασκο
δαμασκου
δαμε
δαμος
δαμου
δαμω
δαν
δανα
δανε
δανει
δανεικο
δανεισμο
δανεισμου
δανι
δανιη
δανικα
δανο
δαξε
δαπα
δαπανω
δαρβι
δαρει
δας
δασε
δαση
δασης
δασικη
δασκα
δασκε
δασω
δατα
δατι
δατος
δαυι
δαυιδ
δαφος
δαχτυλι
δε
δεα
δεδομε
δεε
δεη
δει
δεια
δειαν
δειας
δειγμα
δειες
δεικνυ
δειλι
δειλο
δειν
δεινα
δεινη
δεινο
δεινω
δειξαν
δειξε
δειξεν
δειξη
δειξης
δειο
δειος
δεις
δεισο
δεισος
δειχναν
δειχνε
δεκ
δεκα
δεκαε
δεκαεπτα
δεκαετι
δεκαετιω
δεκαοκτω
δεκαπε
δεκατε
δεκε
δεκεμβρι
δεκτη
δεκτο
δελβε
δεληγια
δελτι
δελφη
δελφι
δελφο
δελφοι
δελφος
δελφου
δελφω
δελχι
δεμα
δεμε
δεμι
δεν
δενι
δενο
δεξα
δεξαμενε
δεξαμενη
δεξι
δεξια
δεξιο
δεξιου
δεξιω
δεο
δεομε
δερμα
δες
δεσε
δεσμα
δεσμευ
δεσμο
δεσμοι
δεσμου
δεσμω
δεσπο
δεσποινι
δεσποτα
δεσσα
δεσσας
δεται
δετε
δευ
δευαν
δευε
δευσαν
δευσε
δευση
δευσης
δευτ
δευτε
δευτερευ
δευτερο
δευτεροβα
δευτερολε
δευτικο
δεχθει
δεχο
δεχτει
δεψαν
δεψε
δεω
δη
δηκο
δηλ
δηλαδη
δηλητη
δηλητηρι
δηλητηρια
δηλητηριω
δηλοι
δηλον
δηλου
δηλω
δημ
δημα
δημαρα
δημαρχει
δημαρχι
δημη
δημητρα
δημητρι
δημητρια
δημητρο
δημιου
δημιουργει
δημιουργη
δημιουργηθει
δημιουργηθου
δημιουργημε
δημιουργι
δημιουργικη
δημιουργικο
δημιουργο
δημιουργοι
δημιουργου
δημιουργω
δημο
δημογραφικη
δημοκρα
δημοκρατι
δημοκρατικε
δημοκρατικη
δημοκρατικο
δημοκρατικου
δημοκρατικω
δημοπρασι
δημος
δημοσθε
δημοσι
δημοσιευ
δημοσιευθει
δημοσιευμε
δημοσιο
δημοσιογρα
δημοσιογραφι
δημοσιογραφικο
δημοσκο
δημοσκοπη
δημοτικα
δημοτικε
δημοτικη
δημοτικο
δημοτικου
δημοτικω
δημοφιλε
δημοφιλει
δημοφιλη
δημοψη
δημοψηφι
δημω
δημων
δην
δηρο
δηρος
δης
δησαν
δησε
δηση
δησης
δησυ
δι
δια
διαβα
διαβαι
διαβατη
διαβεβαι
διαβη
διαβι
διαβιβα
διαβο
διαβου
διαγνω
διαγο
διαγρα
διαγραφη
διαγω
διαγωνι
διαγωνιζο
διαγωνισμο
διαγωνισμου
διαδε
διαδεδομε
διαδεχθει
διαδεχο
διαδη
διαδηλω
διαδηλωτε
διαδηλωτω
διαδι
διαδικασι
διαδικασιω
διαδικτυ
διαδικτυακη
διαδικτυακο
διαδο
διαδοχη
διαδοχικα
διαδοχικε
διαδραμα
διαδραματι
διαδρο
διαδρομε
διαδρομη
διαζυ
διαθε
διαθεσιμο
διαθη
διαι
διαιρε
διαιρει
διαιρετω
διαιρου
διαιτησι
διαιτητη
διακει
διακεκριμε
διακη
διακηρυ
διακι
διακο
διακομιστη
διακονι
διακοπε
διακοπη
διακοσι
διακοσμη
διακοσμημε
διακοσμητικα
διακρι
διακριθει
διακριτε
διακριτικα
διακριτικο
διακυ
διακυβε
διακυμα
διαλε
διαλει
διαλο
διαλυ
διαλυθει
διαλυμε
διαμα
διαμαντι
διαμαντο
διαμαρτυρη
διαμαρτυρι
διαμε
διαμελισμο
διαμερι
διαμο
διαμονη
διαμορφω
διαμορφωθει
διαμορφωμε
διανε
διανοητικη
διανοι
διανομε
διανομη
διανοου
διανυ
διαπι
διαπιστω
διαπρα
διαπραγμα
διαπραγματευ
διαρκε
διαρκει
διαρκη
διαρκης
διαρκου
διαρκω
διαρρε
διαρροη
διας
διασημο
διασκε
διασκεδα
διασκευα
διασκευε
διασκευη
διασκορπι
διασπα
διασπορα
διαστα
διασταυ
διασταυρω
διαστη
διαστημικη
διαστημικο
διαστημικου
διαστημο
διαστολη
διασυ
διασυνδε
διασφα
διασφαλι
διασχι
διασω
διασωθει
διατα
διαταγε
διαταγη
διαταρα
διαταραχε
διαταραχη
διαταραχω
διατε
διατελε
διατεταγμε
διατη
διατηρει
διατηρη
διατηρηθει
διατηρημε
διατηρητε
διατηρου
διατηρω
διατι
διατρε
διατρι
διατριβη
διατροφη
διατυ
διατυπω
διαυ
διαφα
διαφαι
διαφε
διαφερο
διαφευ
διαφη
διαφημι
διαφθει
διαφθορα
διαφο
διαφορα
διαφορε
διαφορετικα
διαφορετικε
διαφορετικη
διαφορετικο
διαφορετικοι
διαφορετικου
διαφορετικω
διαφορικη
διαφοροποι
διαφοροποιη
διαφορω
διαφυ
διαφυγη
διαφυλα
διαφω
διαφωνι
διαφωνου
διαφωτισμου
διαχει
διαχειρι
διαχειριστη
διαχρονικο
διαχωρι
διαχωρισμο
διαχωρισμου
διαψευ
διγενη
διδα
διδακτορικη
διδακτορικο
διδαν
διδασκα
διδασκαλι
διδε
διδο
διδου
διδυ
διε
διεγει
διεθνε
διεθνει
διεθνη
διεθνου
διεθνω
διει
διεισδυ
διεκδι
διεκδικει
διεκδικη
διεκδικητη
διεκδικου
διεκο
διενε
διενεργη
διεξα
διεξαγο
διεξαγωγη
διεξαχθει
διεξαχθου
διεξη
διεπαφη
διεργασι
διεργασιω
διερευ
διερευνη
διερμηνε
διερχο
διες
διετε
διετη
διετι
διευ
διευθε
διευθυ
διευθυντε
διευθυντη
διευκο
διευκολυ
διευκρινι
διευρυ
διευρυμε
διεφθαρμε
διζε
διη
διηγει
διηγη
διηγημα
διηγου
διηπειρωτικο
διηυ
διι
δικα
δικαι
δικαιο
δικαιοδοσι
δικαιολογι
δικαιοσυ
δικαιου
δικαιω
δικαιωμα
δικας
δικασται
δικαστε
δικαστη
δικαστηρι
δικαστικε
δικαστικη
δικαστικο
δικαστικου
δικαστικω
δικαστω
δικε
δικει
δικες
δικη
δικηγο
δικι
δικο
δικοι
δικον
δικος
δικου
δικτα
δικτατορι
δικτος
δικτυ
δικτυακο
δικω
διναν
δινε
δινο
διο
διογε
διοι
διοικει
διοικη
διοικητε
διοικητη
διοικητικα
διοικητικε
διοικητικες
διοικητικη
διοικητικο
διοικητικου
διοικητικω
διοικου
διομη
διον
διονυ
διονυσι
διοξει
διοξειδι
διοργα
διοργανω
διορθω
διορι
διορισμε
διορισμο
διοριστει
διος
διου
διους
διπλα
διπλασια
διπλη
διπλο
διπλου
διπλω
διπλωμα
διπλωματι
διπλωματικε
διπλωματικη
διπλωματικο
δις
δισ
δισαν
δισε
δισεκατομμυ
δισεκατομμυρι
δισκοβολι
δισκογραφι
δισκογραφικη
δισμα
διστα
δισχιλι
διω
διωγμο
διων
διωξε
δνει
δντ
δο
δογμα
δοθει
δοθη
δοι
δοις
δοκει
δοκη
δοκι
δοκιμα
δοκιμασι
δοκιμε
δοκιμη
δοκιμω
δοκου
δοκω
δολα
δολαρι
δολοφο
δολοφονει
δολοφονη
δολοφονι
δομα
δομε
δομη
δομημε
δομικα
δομινι
δομινικανη
δομω
δον
δονα
δονη
δοντα
δονται
δονταν
δοντας
δοντες
δοντο
δοξα
δοξε
δοξεν
δοξες
δοξη
δοξης
δοξο
δοξοι
δοξον
δοξος
δοξου
δοξους
δορυφο
δορυφορικη
δος
δοσαν
δοση
δοσης
δοσιν
δοτικη
δοτο
δοτος
δου
δουβλι
δουκα
δουλε
δουλει
δουλεια
δουλειε
δουλευ
δουλος
δουν
δους
δουσα
δοχει
δοχο
δοχοι
δοχος
δρ
δρα
δραγου
δρακο
δραμα
δραματικα
δραματικη
δραματικο
δραν
δραπε
δραπετευ
δρας
δρασαν
δρασε
δραση
δρασης
δραστη
δραστηριο
δραστηριοποιει
δραστηριοποιη
δραστηριοποιου
δραστηριοτη
δραστικα
δραστικο
δραχμα
δραχμε
δραχμη
δραχμω
δρε
δρες
δρευε
δρι
δρια
δριμυ
δριο
δρο
δρομα
δρομε
δρομη
δρομο
δρομοι
δρομολο
δρομος
δρομου
δρος
δροσι
δροσια
δρου
δρουν
δρους
δρυ
δρυθει
δρυμα
δρυμο
δρυο
δρυσαν
δρυσε
δρυση
δρυσης
δρω
δρων
δσε
δυ
δυι
δυμα
δυμο
δυμος
δυνα
δυναμε
δυναμικα
δυναμικη
δυναμικο
δυναμικου
δυναστει
δυνατα
δυνατε
δυνατη
δυνατο
δυνατοι
δυνατοτη
δυνατου
δυνατω
δυνη
δυνητικα
δυο
δυοι
δυρρα
δυρραχι
δυσα
δυσαρε
δυσαρεστημε
δυση
δυσι
δυσκολευ
δυσκολι
δυσλειτουργι
δυσμα
δυσπιστι
δυσσε
δυσσευ
δυστυ
δυστυχη
δυστυχι
δυστυχισμε
δυστυχω
δυτικα
δυτικε
δυτικη
δυτικο
δυτικου
δυτικω
δφα
δω
δωδε
δωδεκα
δωδεκανη
δωδω
δωκα
δωκαν
δωκε
δωκεν
δωλα
δωλο
δωμα
δωματι
δωμι
δων
δωνα
δωνος
δωρ
δωρεα
δωρεε
δωρη
δωρι
δωρικο
δωρο
δωροδοκι
δωροθε
δωρος
δωρου
δωσαν
δωσε
δωση
δωσης
δωσι
δωσιν
ε
εα
εαμ
εαυτο
εαυτου
εβα
εβδομα
εβδομαδιαι
εβδομη
εβο
εβραι
εγγεγραμμε
εγγο
εγγονη
εγγονο
εγγρα
εγγραφη
εγγυ
εγγυη
εγε
εγκα
εγκαθι
εγκαθιδρυ
εγκαι
εγκαινι
εγκαινια
εγκατα
εγκαταλει
εγκαταλελειμμε
εγκαταστα
εγκατασταθει
εγκατασταθου
εγκαταστη
εγκατε
εγκατεστημε
εγκε
εγκεκριμε
εγκεφα
εγκεφαλικη
εγκεφαλικο
εγκλη
εγκλημα
εγκληματι
εγκληματικη
εγκληματικο
εγκρι
εγκριθει
εγκυ
εγκυκλοπαι
εγκυκλοπαιδικο
εγκυμοσυ
εγκυρο
εγνατι
εγχει
εγχειρη
εγχειρι
εγχο
εγχω
εγω
εδα
εδαφι
εδαφικε
εδαφικη
εδαφω
εδε
εδες
εδιμβου
εδμο
εδουα
εδρα
εδραι
εδραιω
εδρευ
εδρο
εδροι
εδρος
εδρω
εδω
εε
εεταα
εζ
εζε
εθελοντε
εθελοντικα
εθελοντικη
εθελοντω
εθι
εθνικα
εθνικε
εθνικη
εθνικισμο
εθνικισμου
εθνικιστε
εθνικο
εθνικου
εθνικω
εθνο
εθνολογικη
εθνοσυνε
εθνοτικε
εθνοτικη
εθνω
ει
ειδη
ειδι
ειδικα
ειδικε
ειδικευ
ειδικευμε
ειδικη
ειδικο
ειδικοι
ειδικου
ειδικω
ειδοποι
ειδω
εικ
εικα
εικασι
εικαστικω
εικο
εικονι
εικονικη
εικονικο
εικονογρα
εικονογραφη
εικονογραφημε
εικοστο
εικοστου
ειν
ειναι
ειπω
ειρη
ειρηνευτικη
ειρηνικα
ειρηνικη
ειρηνικο
ειρηνικου
εις
εισα
εισαγγελε
εισαγωγε
εισαγωγη
εισαχθει
εισβα
εισβολε
εισβολει
εισβολη
εισε
εισερχο
ειση
εισηγη
εισιτη
εισιτηρι
εισο
εισοδη
εισπρα
εισπρακτικη
εισροη
εκ
εκα
εκατ
εκατε
εκατο
εκατομμυ
εκατομμυρι
εκατοντα
εκατονταετηρι
εκατοστα
εκατοστω
εκβα
εκβολε
εκδ
εκδη
εκδηλω
εκδι
εκδικηθει
εκδικητε
εκδιω
εκδο
εκδοθει
εκδοτικη
εκδοτικο
εκδοχε
εκδοχη
εκδω
εκει
εκεχειρι
εκθε
εκθρονι
εκκαθα
εκκαθαρι
εκκε
εκκενω
εκκι
εκκλησα
εκκλησι
εκκλησια
εκκλησιαστικα
εκκλησιαστικη
εκκλησιαστικο
εκκλησιαστικου
εκκλησιαστικω
εκκλησιω
εκκρεμει
εκκρι
εκλε
εκλεγει
εκλεγμε
εκλεγο
εκλει
εκλογε
εκλογη
εκλογικα
εκλογικε
εκλογικη
εκλογικο
εκλογικου
εκλογω
εκμα
εκμετα
εκμεταλλευ
εκμεταλλευο
εκπα
εκπαι
εκπαιδευ
εκπαιδευμε
εκπαιδευτη
εκπαιδευτικα
εκπαιδευτικε
εκπαιδευτικη
εκπαιδευτικο
εκπαιδευτικου
εκπαιδευτικω
εκπε
εκπλη
εκπληκτικη
εκπληρω
εκπο
εκπομπε
εκπομπη
εκπομπω
εκπρο
εκπροσω
εκπροσωπει
εκπροσωπη
εκπροσωπου
εκπροσωπω
εκρη
εκστρατει
εκσυγχρονισμο
εκτα
εκτε
εκτεθειμε
εκτει
εκτεινο
εκτελε
εκτελει
εκτελεστει
εκτελεστη
εκτελεστικη
εκτελεστικο
εκτελου
εκτενη
εκτενω
εκτεταμε
εκτι
εκτιμα
εκτιμη
εκτιμου
εκτιμω
εκτο
εκτοξευ
εκτοπι
εκτρε
εκτροφη
εκτυ
εκτυπω
εκφρα
ελ
ελα
ελαι
ελαιο
ελαιω
ελας
ελασσο
ελαστικο
ελαττω
ελαφρα
ελαφρια
ελαφρο
ελαφρυ
ελαφρω
ελβετι
ελβετικη
ελβετο
ελε
ελεγκτη
ελεγχο
ελεονω
ελευ
ελευθε
ελευθερι
ελευθεροτυπι
ελευθερουδα
ελευθερω
ελευσι
ελεφαντοστου
ελη
ελι
ελια
ελιε
ελικο
ελισα
ελλ
ελλα
ελλαδικο
ελλει
ελλη
ελληνι
ελληνικα
ελληνικε
ελληνικη
ελληνικο
ελληνικου
ελληνικω
ελληνισμο
ελληνισμου
ελληνιστικη
ελληνο
ελληνοι
ελληνοκυ
ελληνορθο
ελληνορωμαι
ελονοσι
ελπι
ελσι
ελστατ
ελυ
εμ
εμα
εμβαδο
εμβε
εμβλη
εμβο
εμβολι
εμβολιασμο
εμε
εμει
εμι
εμιρα
εμμανουη
εμπ
εμπα
εμπειρι
εμπειρογνω
εμπεριε
εμπι
εμπιστευ
εμπιστοσυ
εμπλακει
εμπλε
εμπλεκο
εμπλοκη
εμπλουτι
εμπνε
εμπνευ
εμπνευσμε
εμπο
εμποδι
εμπορευ
εμπορευμα
εμπορι
εμπορικα
εμπορικε
εμπορικη
εμπορικο
εμπορικου
εμπορικω
εμπρο
εμφα
εμφανε
εμφανη
εμφανι
εμφανιζο
εμφανιστει
εμφανιστου
εμφυ
εμφυλι
εν
ενα
εναε
εναλλα
εναλλαγη
εναλλακτικα
εναλλακτικε
εναλλακτικη
εναλλακτικο
εναλλασσο
εναντι
εναπο
εναπομει
εναρκτη
ενασχο
ενδε
ενδει
ενδεικτικα
ενδεκα
ενδεχο
ενδεχομε
ενδια
ενδιαφε
ενδιαφερο
ενδο
ενδογενε
ενδοχω
ενδυ
ενδυμασι
ενε
ενενη
ενεπλα
ενεργα
ενεργει
ενεργειακη
ενεργειω
ενεργη
ενεργητικη
ενεργητικο
ενεργητικου
ενεργο
ενεργοποι
ενεργοποιει
ενεργου
ενεργω
ενεστω
ενετικη
ενετοκρατι
ενζυ
ενη
ενηλι
ενηλικι
ενημε
ενημερω
ενθα
ενθαρρυ
ενθουσιασμο
ενθουσιω
ενι
ενιαι
ενικο
ενικου
ενισχυ
ενισχυμε
εννε
εννια
εννοει
εννοου
ενο
ενοικι
ενοποι
ενοποιημε
ενορι
ενοριακο
ενοριων
ενορχη
ενοχη
ενρι
ενσα
ενσαρκω
ενσωμα
ενσωματω
ενσωματωθει
ενσωματωμε
εντ
εντα
εντατικη
ενταφια
ενταχθει
εντε
εντελω
εντι
εντο
εντολε
εντολη
εντολω
εντοπι
εντοπισμο
εντοπιστει
εντος
εντου
εντουα
εντυ
εντυπω
εντυπωσια
εντυπωσιακα
εντυπωσιακη
εντυπωσιακο
ενω
ενωθει
ενωμε
εξ
εξα
εξαγο
εξαγορα
εξαγωγε
εξαγωγη
εξαδε
εξαι
εξαιρε
εξαιρετικα
εξαιρετικε
εξαιρετικη
εξαιρετικο
εξαιτι
εξακολου
εξακολουθει
εξακολουθου
εξαλει
εξαναγκα
εξαπε
εξαπλω
εξαπολυ
εξαρτα
εξαρτη
εξαρτημε
εξαρτω
εξασθε
εξασφα
εξασφαλι
εξαφα
εξαφανι
εξαφανισμε
εξαφανιστει
εξε
εξεγε
εξεγερμε
εξειδι
εξειδικευμε
εξελε
εξελι
εξελιγμε
εξελικτικη
εξελιχθει
εξερευ
εξερευνη
εξερευνητη
εξετα
εξη
εξηγει
εξηγη
εξηγου
εξι
εξισω
εξο
εξοικειωμε
εξοντω
εξοπλι
εξοπλισμε
εξοπλισμο
εξοπλισμου
εξοργι
εξορι
εξορυ
εξουδετε
εξουδετερω
εξουσι
εξουσιοδο
εξουσιοδοτημε
εξοχη
εξπρε
εξυπηρε
εξυπηρετει
εξυπηρετη
εξυπηρετητη
εξυπηρετου
εξω
εξωγη
εξωτερικα
εξωτερικε
εξωτερικη
εξωτερικο
εξωτερικου
εξωτερικω
εο
εοκ
εοκα
εορτα
εορτασμο
εορτασμου
εορτε
εορτη
επ
επα
επαγγε
επαγγελματι
επαγγελματικα
επαγγελματικε
επαγγελματικη
επαγγελματικο
επαγγελματικου
επαγγελματικω
επαγγελματιω
επαι
επακο
επαλη
επαληθευ
επαμεινω
επανα
επαναλα
επαναλαμβα
επαναλαμβανο
επαναλη
επαναληπτικο
επαναστα
επαναστατημε
επαναστατικη
επαναστατικο
επαναστατικου
επαναστατω
επαναφε
επαναφορα
επανδρωμε
επανε
επανειλημμε
επανεκδο
επανεκλε
επανεκλογη
επανενω
επανεξελε
επανη
επαρκη
επαρκω
επαρχι
επαρχιακη
επαρχιακο
επαρχιω
επαφε
επαφη
επε
επεδι
επει
επειδη
επεισο
επεισοδι
επεκτα
επεκταθει
επεκτει
επελε
επεμβα
επενδυ
επενδυτε
επεξεργα
επεξεργασι
επεξεργασμε
επεξεργαστε
επεξεργαστη
επερχο
επετει
επετηρι
επετρα
επη
επηρε
επηρεα
επηρεασμε
επηρεαστει
επι
επιβα
επιβαι
επιβατω
επιβεβαι
επιβεβαιω
επιβεβαιωθει
επιβεβαιωμε
επιβι
επιβιβα
επιβιω
επιβλε
επιβλη
επιβληθει
επιβλητικο
επιβολη
επιβρα
επιβραδυ
επιγρα
επιγραφε
επιγραφη
επιδαυ
επιδε
επιδει
επιδεικνυ
επιδεινω
επιδημι
επιδι
επιδιω
επιδο
επιδρα
επιδρομε
επιδρομη
επιδρομω
επιζη
επιζω
επιθε
επιθετικη
επιθετικο
επιθετικου
επιθεω
επιθεωρητη
επιθυμει
επιθυμητη
επιθυμητο
επιθυμι
επιθυμου
επικα
επικαιρο
επικαλου
επικαλυ
επικει
επικεντρω
επικεντρωθει
επικεφαλη
επικεφαλι
επικη
επικι
επικο
επικοινωνη
επικοινωνι
επικοινωνιω
επικοινωνου
επικρα
επικρατε
επικρατει
επικρατη
επικρατου
επικρατω
επικρι
επικυ
επικυριαρχι
επικυρω
επιλαχω
επιλε
επιλεγει
επιλεγμε
επιλογε
επιλογη
επιλυ
επιμ
επιμε
επιμελη
επιμελητη
επιμελητηρι
επιμη
επιμονη
επινο
επινοη
επιπε
επιπλε
επιπλοκε
επιπρο
επιπροσθε
επιπτω
επιρροε
επιρροη
επιση
επισημα
επισημαι
επισκε
επισκεπτο
επισκεπτω
επισκευα
επισκευη
επισκεφθει
επισκεφτει
επισκο
επισκοπη
επιστα
επιστη
επιστημο
επιστημονικα
επιστημονικε
επιστημονικη
επιστημονικο
επιστημονικου
επιστημονικω
επιστημω
επιστολε
επιστολη
επιστρα
επιστρε
επιστροφη
επιτα
επιταχυ
επιτε
επιτεθει
επιτεθου
επιτελει
επιτευ
επιτευχθει
επιτη
επιτι
επιτιθε
επιτο
επιτομη
επιτρα
επιτραπε
επιτρε
επιτρεπο
επιτρο
επιτροπε
επιτροπη
επιτροπω
επιτυ
επιτυγχα
επιτυχη
επιτυχημε
επιτυχι
επιτυχιω
επιτυχω
επιφα
επιφανει
επιφανειακη
επιφανη
επιφε
επιφυ
επιφυλα
επιχει
επιχειρει
επιχειρη
επιχειρηματι
επιχειρηματικη
επιχειρηματικο
επιχειρησιακη
επιχειρου
επλη
επο
εποι
επομε
επονομαζο
εποπτει
εποπτευ
εποχε
εποχη
εποχω
επρο
επς
επσα
επτα
επτανη
επω
επωνυμι
ερ
ερα
ερασιτε
ερασιτεχνικη
ερασιτεχνικο
ερασιτεχνω
εραστη
εργα
εργαζο
εργαζομε
εργαλει
εργασι
εργασιω
εργαστει
εργαστη
εργαστηρι
εργατικη
εργατικο
εργατικου
εργατω
εργε
εργεσι
εργο
εργοδο
εργοστα
εργοστασι
εργοτε
ερε
ερεθι
ερει
ερειπωμε
ερευ
ερευνα
ερευνη
ερευνητε
ερευνητη
ερευνητικα
ερευνητικη
ερευνητικο
ερευνητικου
ερευνητικω
ερευνητω
ερευνω
ερζεγοβι
ερη
ερημι
ερι
ερμη
ερμηνει
ερμηνευ
ερμηνευτη
ερμιο
ερμου
ερνε
ερνστ
ερο
εροσολυ
ερου
ερουσαλη
ερρι
ερριε
ερς
ερτ
ερυθρα
ερυθραι
ερυθρο
ερυθρου
ερχο
ερχομο
ερω
ερωμε
ερωτευ
ερωτευμε
ερωτη
ερωτικα
ερωτικε
ερωτικη
ερωτικο
ες
εσα
εσαν
εσε
εσει
εση
εσης
εσθαι
εσθε
εσθονι
εσθονικα
εσθονικη
εσκα
εσο
εσπερα
εσπερι
εσσδ
εσσι
εστα
εστε
εστι
εστια
εστιατο
εσυ
εσφαλμε
εσχα
εσω
εσωτερικα
εσωτερικε
εσωτερικη
εσωτερικο
εσωτερικου
εσωτερικω
ετ
ετα
εται
εταιρει
εταιρειω
εταιρι
εταιρικη
εταιριω
ετε
ετερο
ετεροθαλη
ετη
ετησι
ετι
ετιε
ετικε
ετο
ετοι
ετοιμα
ετοιμο
ετου
ετσι
ετυμολογι
ετυμολογικο
ετω
ευ
ευα
ευαγγε
ευαγγελι
ευαγγελικη
ευαγγελισμο
ευαγγελισμου
ευαγγελιστη
ευαι
ευαισθησι
ευαισθητοποι
ευανθι
ευβοι
ευγε
ευγενει
ευγενη
ευγενι
ευγενικο
ευγενω
ευγνωμοσυ
ευδια
ευδοκι
ευε
ευελιξι
ευελπι
ευεργε
ευημερι
ευθει
ευθυ
ευθυμι
ευκαιρι
ευκλει
ευκολι
ευκολο
ευλογι
ευλογια
ευμα
ευμε
ευνοι
ευνοου
ευνου
ευρε
ευρει
ευρεσιτεχνι
ευρετη
ευρη
ευρι
ευριπι
ευρισκο
ευρυ
ευρυτανι
ευρω
ευρωβουλευτη
ευρωεκλογε
ευρωζω
ευρωλι
ευρωμπα
ευρωπαι
ευσαν
ευσε
ευσεβη
ευση
ευσης
ευστα
ευτυχη
ευτυχι
ευτυχισμε
ευτυχω
ευφρα
ευφυι
ευχα
ευχαρι
ευχαριστη
ευχαριστι
ευχαριστω
ευχε
ευχη
εφ
εφα
εφαρμο
εφαρμογε
εφαρμογη
εφαρμογω
εφαρμοσμε
εφαρμοστει
εφε
εφετει
εφευ
εφευρε
εφη
εφηβει
εφημ
εφημε
εφημερι
εφια
εφικτη
εφικτο
εφο
εφοδιασμε
εφοπλιστη
εφορει
εφτα
εχει
εχθρικα
εχθρικη
εχθρικο
εχθρο
εχθροι
εχθροπραξι
εχθρου
εχθρω
εω
εως
ζ
ζα
ζαι
ζακ
ζακυ
ζαμπε
ζαμπεθ
ζαν
ζανε
ζανζιβα
ζαρ
ζαρο
ζαρος
ζας
ζαχα
ζαχαρι
ζαχαρια
ζαχαρο
ζβελτ
ζε
ζει
ζειν
ζεις
ζελ
ζεν
ζενι
ζερ
ζερα
ζες
ζεσαι
ζεσθαι
ζεστα
ζεστο
ζεται
ζετε
ζετο
ζευ
ζευγα
ζευγαριου
ζευγαρω
ζεφ
ζη
ζηλανδι
ζημι
ζημια
ζημιε
ζημιω
ζης
ζησαν
ζησε
ζητα
ζητει
ζητη
ζητημα
ζητια
ζητου
ζητω
ζι
ζια
ζιας
ζικα
ζικαλ
ζικη
ζικης
ζικο
ζικος
ζιλ
ζιμπα
ζιο
ζιον
ζναν
ζο
ζογλου
ζοζε
ζοι
ζομαι
ζομεν
ζον
ζονα
ζονος
ζοντα
ζονται
ζονταν
ζοντας
ζοντες
ζοντο
ζοντος
ζος
ζου
ζουμε
ζουν
ζουνε
ζους
ζουσα
ζουσαν
ζουσι
ζουσιν
ζυ
ζυγι
ζυγο
ζυγος
ζυγου
ζυλ
ζυρι
ζω
ζωα
ζωγρα
ζωγραφι
ζωγραφικη
ζωγραφισμε
ζωε
ζωη
ζωμα
ζων
ζωντανα
ζωντανε
ζωντανη
ζωντανο
ζωντανοι
ζωντανου
ζωντανω
ζωοδο
ζωολογι
ζωολογικο
ζωρζ
ζωτικη
ζωτικο
ζωτο
η
ηβ
ηγε
ηγει
ηγεμο
ηγεμονι
ηγεσι
ηγετικη
ηγετικο
ηγετω
ηγη
ηγου
ηγουμε
ηγουμενι
ηθε
ηθικα
ηθικη
ηθικο
ηθοποιο
ηθοποιοι
ηθοποιου
ηθοποιω
ηκε
ηκεν
ηλ
ηλε
ηλει
ηλεκτρικα
ηλεκτρικη
ηλεκτρικο
ηλεκτρικου
ηλεκτρικω
ηλεκτρο
ηλεκτρολο
ηλεκτρονι
ηλεκτρονικα
ηλεκτρονικε
ηλεκτρονικη
ηλεκτρονικο
ηλεκτρονικου
ηλεκτρονικω
ηλι
ηλια
ηλιακη
ηλιακο
ηλιακου
ηλικι
ηλικιωμε
ηλιο
ηλιου
ημα
ημαθι
ημε
ημει
ημερη
ημερησι
ημερι
ημερολο
ημερολογι
ημερομηνι
ημερω
ημι
ημιζωη
ημιορεινο
ημισυντακτικο
ημισφαι
ημιτελικα
ημιτελικη
ημιτελικο
ημιτελικου
ημω
ην
ηνι
ηνωμε
ηπα
ηπει
ηπειρω
ηπειρωτικη
ηπειρωτικο
ηρα
ηρακλει
ηρακλη
ηρεμι
ηρο
ηροδο
ηρω
ηρωι
ηρωικη
ης
ησα
ησαι
ησαν
ησε
ησεν
ηση
ησης
ησι
ησιν
ησις
ησον
ησου
ησυχι
ητα
ηται
ηταν
ητη
ητο
ητον
ητος
ηττη
ηττημε
ηυ
ηφαι
ηφαιστει
ηφαιστειακη
ηχο
ηχογρα
ηχογραφη
ηχογραφημε
ηχω
θ
θα
θαι
θαινε
θαλα
θαλασσι
θαλη
θαλψη
θαλψης
θαμμε
θαν
θανα
θαναν
θανατηφο
θανατικη
θανατω
θανε
θανεν
θανο
θαρ
θαρα
θαρρει
θαρρω
θαρση
θας
θατε
θαυ
θαυμα
θαυμασμο
θαυμαστε
θαυμαστη
θαυμαστο
θε
θεα
θεαι
θεασα
θεατε
θεατη
θεατρικα
θεατρικε
θεατρικη
θεατρικο
θεατρικου
θεατρικω
θεατω
θεε
θει
θεια
θειαν
θειας
θειε
θειες
θειικο
θειο
θειου
θειρξη
θεις
θελα
θελαν
θελε
θελεν
θελη
θελον
θεμα
θεμαι
θεματολογι
θεμε
θεμελι
θεμελιω
θεμιστοκλη
θεν
θενται
θεντο
θεο
θεοβα
θεοδο
θεοδοσι
θεοδω
θεοδωρα
θεοδωρι
θεοι
θεολο
θεολογι
θεολογικη
θεον
θεος
θεοτο
θεου
θεοφα
θεοχα
θερα
θεραπει
θεραπευ
θεραπευτικη
θερες
θερη
θερης
θερι
θερινη
θερινο
θερινου
θερμα
θερμαι
θερμη
θερμικη
θερμο
θερμοκηπι
θερμοκρασι
θερμου
θερμω
θερο
θεροι
θερον
θερος
θερου
θερους
θερων
θες
θεσαν
θεσε
θεση
θεσης
θεσθαι
θεσι
θεσιν
θεσις
θεσμα
θεσμο
θεσμου
θεσμω
θεσπι
θεσπρωτι
θεσσαλι
θεσσαλονι
θετα
θεται
θεταν
θετε
θετες
θετη
θετικα
θετικε
θετικη
θετικο
θετικω
θετο
θετος
θεω
θεωρει
θεωρη
θεωρηθει
θεωρηθου
θεωρητικα
θεωρητικη
θεωρητικο
θεωρι
θεωρου
θεωρω
θη
θηβαι
θηβω
θηκα
θηκαν
θηκε
θηκεν
θηκες
θηλαστικα
θηλαστικο
θηλαστικω
θηλε
θηλυκα
θηλυκο
θηλυκου
θηλυκω
θημα
θην
θηνα
θηναι
θηνω
θηρα
θηρεσι
θηρι
θης
θησαν
θησαυρο
θησαυρου
θησε
θηση
θησης
θησιν
θητει
θητο
θι
θια
θιβε
θιζε
θιμα
θιμο
θιο
θιος
θιου
θις
θισε
θιση
θισμα
θιστα
θιστη
θιστο
θλημα
θλι
θλια
θλιψη
θλου
θλους
θλων
θμευσης
θμη
θμηση
θμησης
θμια
θμιας
θμισε
θμιση
θμισης
θμου
θνη
θνησιμο
θνητο
θνος
θνους
θνω
θο
θοδο
θοδοι
θοδος
θοδωρη
θοι
θοις
θομαι
θον
θονται
θορυ
θος
θου
θουκυδι
θουν
θουριγγι
θους
θουσα
θουσας
θουσες
θρα
θρασυ
θραυ
θρε
θρες
θρη
θρησκει
θρησκειω
θρησκευμα
θρησκευτικα
θρησκευτικε
θρησκευτικη
θρησκευτικο
θρησκευτικου
θρησκευτικω
θρι
θρια
θριν
θριο
θρο
θροι
θροισμα
θρον
θρου
θρυ
θρυλικο
θρω
θρων
θυ
θυγα
θυγατε
θυγατρικη
θυγατρο
θυμα
θυμη
θυμι
θυμνο
θυμο
θυμοι
θυμος
θυμου
θυμω
θυμωμε
θυνε
θυνη
θυνο
θυνοι
θυνος
θυνση
θυνσης
θυρα
θυρεο
θυρι
θυρο
θυρω
θυσι
θυσια
θυσιαστη
θω
θωμα
θων
θωνα
θωνος
θωρα
θωρακισμε
θως
ι
ια
ιακω
ιακωβι
ιαν
ιανουα
ιανουαρι
ιαπωνι
ιαπωνικα
ιαπωνικη
ιαπωνικο
ιαπωνικου
ιατρει
ιατρικα
ιατρικε
ιατρικη
ιατρικο
ιατρικου
ιατρικω
ιατρο
ιατρου
ιβ
ιβα
ιβηρι
ιβηρικη
ιβιντ
ιβις
ιγ
ιγκο
ιγνα
ιδ
ιδα
ιδανικα
ιδανικη
ιδανικο
ιδε
ιδεολογι
ιδεω
ιδι
ιδιαι
ιδιαιτε
ιδιαιτερο
ιδιο
ιδιοκτη
ιδιοκτησι
ιδιοτη
ιδιω
ιδιωματικο
ιδιωτικα
ιδιωτικε
ιδιωτικη
ιδιωτικο
ιδιωτικου
ιδιωτικω
ιδου
ιδρυ
ιδρυθει
ιδρυμα
ιδρυτε
ιδρυτη
ιδρυτικα
ιδρυτικο
ιε
ιερ
ιερα
ιεραπο
ιεραρχι
ιερε
ιερει
ιερη
ιερο
ιερομο
ιεροσολυ
ιερου
ιερουσαλη
ιερουσαλημ
ιερω
ιεχωβα
ιζ
ιζαμπε
ιζερ
ιζμπολ
ιη
ιησου
ιησουι
ιθ
ιθα
ιθαγε
ιθαγενει
ιθαγενω
ιι
ιιι
ικ
ικα
ικανη
ικανο
ικανοποι
ικανοποιει
ικανοποιη
ικανοποιημε
ικανοποιου
ικανοτη
ικαρι
ικε
ικερ
ικερς
ικλ
ικο
ικος
ικων
ιλ
ιλα
ιλαντ
ιλερ
ιλι
ιλια
ιλινο
ιλντ
ιλορ
ιλς
ιμ
ιμα
ιμαν
ιμερ
ιμη
ιμης
ιμι
ιμο
ιμον
ιμος
ιμπν
ιμπραη
ιμπριτζ
ιμς
ιν
ινα
ιναλ
ινδι
ινδια
ινδικη
ινδικο
ινδικου
ινδιω
ινδο
ινδοευρωπαι
ινδονησι
ινδου
ινε
ινερ
ινη
ινι
ιννοκε
ινο
ινριχ
ινς
ινστιτου
ιντ
ιντα
ιντεν
ιντερ
ιντια
ιντς
ιντσω
ινω
ιο
ιοι
ιον
ιονι
ιορδα
ιορδανι
ιος
ιου
ιουδα
ιουδαι
ιουλι
ιουλιανο
ιουνι
ιουστι
ιουστινιανο
ιουστινιανου
ιπ
ιππασι
ιππε
ιππει
ιππικο
ιππικου
ιππο
ιπποκρα
ιπποτω
ιπτα
ιρ
ιρα
ιρανικη
ιρες
ιρι
ιρλανδι
ιρλανδικη
ιρλανδο
ιρο
ις
ισα
ισαα
ισαβε
ισημερινο
ισημερινου
ισι
ισλα
ισλαμικη
ισλαμικο
ισλαμικου
ισλανδι
ισμαη
ισο
ισοβαθμι
ισοδυ
ισοδυναμει
ισομερη
ισον
ισοπαλι
ισορροπι
ισοτιμι
ισου
ισοφα
ισπ
ισπανι
ισπανικα
ισπανικε
ισπανικη
ισπανικο
ισπανικου
ισπανο
ισπανοι
ισπανου
ισραη
ισραηλ
ισραηλι
ισραηλινη
ισραηλινο
ισσα
ιστ
ιστιοπλοι
ιστιοφο
ιστο
ιστολο
ιστορι
ιστορια
ιστορικα
ιστορικε
ιστορικη
ιστορικο
ιστορικοι
ιστορικου
ιστορικω
ιστοριογραφι
ιστοριω
ιστοσ
ιστοσελι
ιστου
ιστοχω
ιστω
ισχυ
ισχυρα
ισχυρε
ισχυρη
ισχυρι
ισχυριζο
ισχυρισμο
ισχυρισμου
ισχυρο
ισχυροι
ισχυρου
ισχυρω
ιτ
ιτα
ιταλ
ιταλι
ιταλικα
ιταλικε
ιταλικη
ιταλικο
ιταλικου
ιταλικω
ιταλο
ιταλοι
ιταλου
ιταλω
ιτε
ιτεντ
ιτζ
ιτν
ιτον
ιτς
ιτσελ
ιφ
ιφιγε
ιχ
ιχθυ
ιω
ιωα
ιωακει
ιωαννι
ιωνι
ιωνικο
ιωση
ιωσηφι
κ
κα
καβα
καβαλα
καβου
καγια
καγκελα
καδ
καδε
καζα
καζακστα
καζαντζα
καζι
καζιμι
καθ
καθα
καθαι
καθαιρε
καθαρα
καθαρευ
καθαρη
καθαρι
καθαρισμο
καθαρισμου
καθαρο
καθαρου
καθαρω
καθε
καθεδρικο
καθεδρικου
καθει
καθεμι
καθεμια
καθεν
καθενο
καθεστω
καθευ
καθη
καθηγη
καθηγητε
καθηγητη
καθηγητω
καθηκο
καθημερινα
καθημερινε
καθημερινη
καθημερινο
καθι
καθιε
καθιερω
καθιερωθει
καθιερωμε
καθισμε
καθιστα
καθιστου
καθιστω
καθο
καθοδη
καθοδηγου
καθολικη
καθολικισμο
καθολικο
καθολικοι
καθολικου
καθολικω
καθομιλουμε
καθορι
καθορισμε
καθορισμο
καθοριστει
καθοριστικη
καθοριστικο
καθρε
καθυστε
καθυστερη
καθυστερημε
καθω
και
καια
καιας
καινα
καινη
καινο
καινοτο
καινοτομι
καινου
καιο
καιον
καιος
καιρικε
καιρο
καιροι
καιρου
καιρω
καις
καισα
καισαρει
καισαριανη
κακα
κακε
κακη
κακι
κακο
κακοη
κακοι
κακοποι
κακου
κακω
καλα
καλαβρι
καλαβρυ
καλαθοσφαι
καλαθοσφαιριστη
καλαι
καλαμα
καλαμαρια
καλαμπα
καλαμπο
καλε
καλει
καλεσμε
καλη
καλι
καλιφο
καλκου
καλλε
καλλι
καλλιε
καλλιεργει
καλλιεργη
καλλιεργου
καλλιθε
καλλικρα
καλλιο
καλλιτε
καλλιτεχνικα
καλλιτεχνικε
καλλιτεχνικη
καλλιτεχνικο
καλλιτεχνικου
καλλιτεχνω
καλλονη
καλο
καλοι
καλοκαι
καλοκαιρινη
καλοκαιρινου
καλοκαιριου
καλοσυ
καλου
καλουμε
καλυ
καλυμμε
καλω
καλωδι
καμα
καμβα
καμε
καμεν
καμερου
καμη
καμι
καμια
καμμι
καμμια
καμπα
καμπαναριο
καμπανι
καμπη
καμπι
καμπο
καμπος
καμπου
καμπυ
καμψη
καν
κανα
καναδα
καναδικη
καναδο
καναλιου
καναλιω
καναν
κανε
κανει
κανελλο
κανη
καννω
κανο
κανονι
κανονικα
κανονικε
κανονικη
κανονικο
κανονικου
κανονισμο
κανονισμου
κανος
κανου
καντα
καντακουζηνο
καντε
καντι
καντο
κανω
καου
καπ
καπα
καπε
καπετα
καπετιδω
καπι
καπνι
καπνο
καπνου
καπο
καποδι
καποδιστριακο
καποδιστριακου
καππαδοκι
καρ
καρα
καραβα
καραβι
καραγια
καραι
καρακα
καραμανλη
καραμπα
καρατζα
καρβε
καρδι
καρδια
καρδιακη
καρδιακο
καρδινα
καρδιναλι
καρε
καρι
καριε
καρινθι
καρκι
καρλ
καρλο
καρλομα
καρνα
καρναβα
καρο
καρολι
καρος
καρου
καρπα
καρπο
καρποι
καρπου
καρπω
καρρα
καρτ
καρτε
καρυ
καρυα
καρφι
καρχαρι
καρχηδο
καρχηδονι
κας
κασα
κασε
κασι
κασιν
κασο
κασπι
κασσα
κασσι
καστ
καστα
καστανιω
καστε
καστι
καστο
καστον
καστορια
καστος
καστρι
καστρο
κατ
κατα
καταβα
καταβολη
καταγγε
καταγγελι
καταγεγραμμε
καταγο
καταγρα
καταγραφε
καταγραφει
καταγραφη
καταγωγη
καταδεικνυ
καταδι
καταδικα
καταδικασμε
καταδιω
καταδρομικο
καταδυ
καταθε
καταιγι
κατακο
κατακτα
κατακτη
κατακτητε
κατακτητη
κατακτω
καταλα
καταλαβαι
καταλαμβα
καταλανικα
καταλανικη
καταλει
καταλη
καταληφθει
καταλληλο
καταλο
καταλογος
καταλονι
καταλυ
καταλυτικη
καταμε
κατανα
καταναλω
καταναλωτε
καταναλωτη
καταναλωτω
κατανε
κατανεμημε
κατανο
κατανοη
κατανοητο
κατανομη
καταπε
καταπι
καταπολε
καταραμε
καταργει
καταργη
καταργου
καταρρα
καταρρε
καταρρευ
καταρρι
καταρτι
κατασκευ
κατασκευα
κατασκευασμε
κατασκευαστε
κατασκευαστει
κατασκευαστη
κατασκευε
κατασκευη
κατασκευω
κατασκη
κατασκηνω
κατασκο
κατασκοπει
καταστα
καταστατικο
καταστει
καταστη
καταστημα
καταστολη
καταστρα
καταστραφει
καταστρε
καταστροφε
καταστροφη
καταστροφικη
καταστροφικο
καταστρω
κατασχε
κατατα
καταφε
καταφευ
καταφθα
καταφυ
καταχω
καταχωρη
κατε
κατεβα
κατεβαι
κατεδα
κατεδαφι
κατει
κατελη
κατεπει
κατεργα
κατεργασι
κατερι
κατεσκευ
κατεστραμμε
κατετα
κατευ
κατευθει
κατευθυ
κατευθυνο
κατευθυντη
κατεχο
κατη
κατηγο
κατηγορει
κατηγορη
κατηγορηθει
κατηγορι
κατηγοριας
κατηγοριω
κατηγορου
κατηγορουμε
κατηγορω
κατι
κατιο
κατο
κατοι
κατοικει
κατοικη
κατοικημε
κατοικι
κατοικιω
κατοικου
κατον
κατορθω
κατος
κατου
κατοχη
κατοχυ
κατοχυρω
κατσαρο
κατσι
κατσου
κατω
καυ
καυκα
καυσι
καφε
καφενει
καφετε
καψαν
καψε
κβα
κβαντικη
κβαση
κδ
κδοση
κδοσης
κδοσις
κδοτα
κε
κει
κεια
κειμε
κειμη
κειν
κεινται
κειο
κεις
κειται
κειτο
κεκτημε
κελα
κελευ
κελι
κελια
κελο
κελος
κελσι
κελτικη
κεμα
κεμπε
κεν
κενα
κενη
κενο
κενου
κεντ
κεντα
κενταυ
κεντρικα
κεντρικε
κεντρικη
κεντρικο
κεντρικου
κεντρικω
κεντρο
κεντρω
κενω
κερ
κερα
κεραι
κεραμι
κεραμικα
κεραμικη
κερατσινι
κεραυνο
κερδι
κερι
κερκι
κερκυ
κερκυραι
κερυ
κερως
κες
κετ
κεται
κετο
κευ
κευση
κευσης
κεφ
κεφα
κεφαλα
κεφαλαι
κεφαλαιον
κεφαλη
κεφαλιου
κεφαλληνι
κεφαλο
κεφαλονια
κη
κηδει
κηδεμο
κηδεμονι
κηδευ
κηλι
κημα
κην
κηρυ
κηρυγμενων
κηρυχθει
κης
κησαν
κησε
κησεν
κηση
κησης
κησιν
κησις
κητα
κητες
κητη
κητο
κητος
κηφισια
κθεση
κθεσης
κι
κια
κιας
κιβω
κιβωτο
κιε
κιθα
κιθαρι
κικε
κιλα
κιλι
κιλικι
κιλκι
κιλω
κιμ
κιμο
κιν
κινα
κινγκ
κινγκς
κινδυ
κινδυνευ
κινε
κινεζικα
κινεζικη
κινεζικο
κινει
κινη
κινηθει
κινηματογρα
κινηματογραφικα
κινηματογραφικε
κινηματογραφικη
κινηματογραφικο
κινηματογραφικω
κινητα
κινητη
κινητικη
κινητικο
κινητο
κινητοποι
κινητοποιη
κινητω
κινου
κινουμε
κιο
κιοι
κιον
κιος
κιου
κιργιζι
κις
κισε
κιση
κισης
κισσα
κιστα
κκα
κκας
κκε
κκινα
κκινες
κκινη
κκινο
κκινος
κκινου
κκληση
κκλησι
κκο
κκος
κκου
κκους
κκριση
κλ
κλα
κλαδι
κλαδια
κλαι
κλαμπ
κλαντ
κλαρι
κλαρκ
κλας
κλασικα
κλασικη
κλασικο
κλασικου
κλασικω
κλασσικη
κλαυ
κλαυδι
κλε
κλεα
κλει
κλεια
κλειδι
κλειδια
κλειδω
κλεινι
κλειο
κλεισαν
κλεισε
κλεισθε
κλεισμε
κλεισου
κλειστα
κλειστη
κλειστο
κλειστου
κλειψη
κλεο
κλεομε
κλεοπα
κλερ
κλες
κλεψε
κλεψι
κλη
κληθει
κληρα
κληρη
κληρης
κληρικο
κληρικου
κληρικω
κληρο
κληροδο
κληρονο
κληρονομη
κληρονομημε
κληρονομι
κληρονομια
κληρονομικη
κληρονομικο
κληρος
κληρου
κληρω
κληση
κλητικη
κλητος
κλι
κλικ
κλιμα
κλιματικη
κλιν
κλινικε
κλινικη
κλιπ
κλιση
κλιτη
κλιτο
κλο
κλοι
κλον
κλοντ
κλοπη
κλος
κλου
κλους
κλπ
κλυ
κλω
κλωμα
κλων
κλωντ
κλωση
κλωστου
κμα
κμαν
κμασε
κμη
κνα
κνη
κνι
κνο
κνον
κνου
κνυται
κνων
κνωση
κο
κοα
κοβα
κοβιτς
κογκρε
κογλου
κοδο
κοδομη
κοε
κοζα
κοη
κοι
κοιλα
κοιλι
κοιλια
κοιλο
κοιμα
κοιμη
κοιμητη
κοινα
κοινε
κοινη
κοινο
κοινοβου
κοινοβουλευτικε
κοινοβουλευτικη
κοινοβουλευτικο
κοινοβουλι
κοινοπολιτει
κοινοπραξι
κοινοτη
κοινοτητων
κοινοτικη
κοινοτικο
κοινου
κοινω
κοινωνι
κοινωνικα
κοινωνικε
κοινωνικη
κοινωνικο
κοινωνικου
κοινωνικω
κοινωνιολο
κοινωνιολογι
κοις
κοιτα
κοιτω
κοκ
κοκκι
κοκκινια
κολ
κολα
κολας
κολε
κολεγι
κολη
κολι
κολιο
κολλα
κολλε
κολλεγι
κολλο
κολο
κολοκοτρω
κολομβι
κολορα
κολοσσο
κολου
κολυ
κολυμβητη
κολω
κολωνι
κομα
κομη
κομητει
κομι
κομιτατζη
κομμα
κομματικη
κομματιου
κομματιω
κομμε
κομμουνισμο
κομμουνισμου
κομμουνιστε
κομμουνιστη
κομμουνιστικη
κομμουνιστικο
κομμουνιστικου
κομμουνιστω
κομνηνη
κομνηνο
κομνηνου
κομνηνω
κομο
κομοτηνη
κομπ
κομψο
κον
κονγκ
κονγκο
κονδυ
κονε
κονι
κονο
κονος
κονσο
κονσταντι
κοντα
κονται
κοντας
κοντε
κοντες
κοντι
κοντινη
κοντινο
κοντο
κοντος
κοντσε
κοοι
κοος
κοπ
κοπα
κοπε
κοπεγχα
κοπη
κορα
κοραη
κορασι
κορδε
κορε
κορεα
κορεατικα
κορεατικη
κορι
κορινθι
κοριτσιω
κορμι
κορμο
κορμου
κορνε
κορνη
κορνουα
κορο
κοροι
κορομηλα
κορονοι
κορρα
κορσικη
κορυ
κορυδαλλου
κορυτσα
κορυφαι
κορυφε
κορυφη
κορυφω
κορω
κορωνοι
κος
κοσι
κοσιν
κοσμα
κοσμει
κοσμη
κοσμι
κοσμικη
κοσμικο
κοσμο
κοσμος
κοσμου
κοσσυφοπε
κοσσυφοπεδι
κοστι
κοστου
κοτα
κοτο
κου
κουα
κουαρτε
κουβα
κουβε
κουε
κουζι
κουι
κουκ
κουκου
κουλα
κουλου
κουλτου
κουμα
κουμε
κουμπα
κουμπι
κουν
κουνα
κουνε
κουνια
κουντουριω
κουο
κουρα
κουρασμε
κουρδιστα
κουρε
κουρη
κουρι
κουρμπε
κουρος
κουρου
κουρτ
κουρτι
κους
κουσα
κουσαν
κουσε
κουσεν
κουσι
κουτα
κουτι
κουφο
κοφ
κοψαν
κοψε
κπε
κπληξη
κρ
κρα
κρακοβι
κραν
κρανι
κρας
κρασι
κρασιου
κρατα
κρατει
κρατες
κρατη
κρατι
κρατιδι
κρατικα
κρατικε
κρατικη
κρατικο
κρατικου
κρατικω
κρατου
κρατουμε
κρατω
κραυγη
κρε
κρεβα
κρει
κρεμα
κρεμλι
κρεμμυ
κρες
κρη
κρηξη
κρηξης
κρητικα
κρητικη
κρητικο
κρητικου
κρι
κριαρα
κριβε
κριβω
κριθα
κριθει
κριμαι
κριναν
κρινε
κριο
κρις
κριση
κρισης
κρισιν
κριστι
κριστια
κριστο
κριτη
κριτικε
κριτικη
κριτικο
κριτικοι
κριτικου
κριτικω
κριτο
κριτος
κρο
κροα
κροατι
κροατικα
κροατικη
κροατω
κροι
κροκο
κρον
κρονι
κροπο
κρος
κρου
κρουζ
κρουσε
κρουσμα
κρουστα
κρυ
κρυα
κρυμμε
κρυνση
κρυπτογρα
κρυπτογραφημε
κρυστα
κρυφα
κρυφη
κρυφο
κρω
κρων
κρως
κσον
κτα
κται
κτακτη
κτακτης
κτας
κταση
κτασης
κτε
κτει
κτειναν
κτεινε
κτεινεν
κτες
κτη
κτημα
κτηνοτρο
κτηνοτροφι
κτηρι
κτης
κτησαν
κτησε
κτηση
κτησης
κτητικε
κτητο
κτι
κτια
κτιβ
κτιες
κτικατ
κτιρι
κτισε
κτισμα
κτισμε
κτλ
κτο
κτον
κτονα
κτονας
κτονες
κτορ
κτορα
κτορας
κτορες
κτορο
κτος
κτοτε
κτου
κτους
κτρα
κτρια
κτυ
κτυα
κτυλα
κτυο
κτυπο
κτω
κτων
κτωρ
κτως
κυ
κυα
κυανο
κυβε
κυβερνα
κυβερνει
κυβερνη
κυβερνητικα
κυβερνητικε
κυβερνητικη
κυβερνητικο
κυβερνητικου
κυβερνητικω
κυβερνου
κυβερνω
κυβικα
κυδωνι
κυθη
κυκλα
κυκλικη
κυκλικο
κυκλοφο
κυκλοφορει
κυκλοφορη
κυκλοφορι
κυκλοφορου
κυκλω
κυλι
κυμα
κυμαι
κυνη
κυνηγα
κυνηγη
κυνηγιου
κυνηγο
κυνηγου
κυνηγω
κυνθο
κυνθος
κυνο
κυνουρι
κυπαρι
κυπαρισσι
κυπε
κυπελλου
κυπρι
κυπριακη
κυπριακο
κυπριακου
κυπρο
κυπρου
κυρ
κυρα
κυρη
κυρηναι
κυρι
κυρια
κυριακα
κυριακη
κυριακι
κυριαρχει
κυριαρχι
κυριαρχου
κυριευ
κυριλλικα
κυριο
κυριολεκτικα
κυριος
κυριω
κυρτο
κυρω
κυττα
κυτταρικη
κυψαν
κυψε
κφραση
κφρασης
κχαους
κω
κωβο
κωβος
κωδικο
κωδικοι
κωδικοποι
κωδικοποιημε
κωδικου
κωλε
κωλυ
κωμα
κωμικη
κωμικο
κωμο
κωμοπο
κωμω
κωμωδι
κων
κωνστα
κωνσταντα
κωνσταντι
κωνσταντινι
κωνσταντινου
κωνσταντινουπο
κωπηλασι
κως
κωσε
κωση
κωστα
κωστη
κωστο
λ
λα
λαβα
λαβαν
λαβε
λαβει
λαβεν
λαβη
λαβο
λαβον
λαβου
λαβυ
λαβω
λαγα
λαγγα
λαγκα
λαγκαδα
λαγο
λαγος
λαγου
λαδι
λαδο
λαε
λαζα
λαζαρι
λαι
λαια
λαιμο
λαιμου
λαινα
λαιο
λαιον
λαις
λακ
λακα
λακας
λακεδαι
λακεδαιμο
λακεδαιμονι
λακες
λακτος
λακωνι
λακωνικη
λαλει
λαλη
λαλου
λαμ
λαμα
λαμβα
λαμε
λαμι
λαμο
λαμος
λαμπα
λαμπε
λαμπος
λαμπρα
λαμπρη
λαμπρο
λαμπτη
λαν
λανα
λανγκ
λανθα
λανθασμε
λαντ
λαντα
λαξ
λαξη
λαο
λαογραφι
λαογραφικη
λαογραφικο
λαοδι
λαοι
λαον
λαος
λαου
λαρι
λαρου
λας
λασαν
λασε
λαση
λασης
λασιθι
λασσα
λασσαν
λασσας
λασσες
λατ
λατα
λατε
λατι
λατιν
λατινικα
λατινικη
λατινικο
λατινικοι
λατινικου
λατινικω
λατο
λατομει
λατος
λατρει
λατρευ
λατταν
λαττον
λαυ
λαυρε
λαυρεντι
λαυρι
λαφ
λαχανικα
λαχι
λαχτα
λαω
λβα
λβεδο
λβια
λβιν
λγα
λγαρη
λγαροι
λγαρος
λγαρους
λγεβρα
λγιο
λγος
λδη
λδης
λδο
λδος
λδου
λε
λεα
λεβα
λεβε
λεβι
λεγα
λεγαν
λεγε
λεγεν
λεγεω
λεγο
λεγομε
λεγον
λεγχε
λεγχο
λεγχος
λεη
λεηλα
λεηλασι
λεηλατη
λει
λεια
λειαν
λειας
λειες
λειμμα
λειμω
λειν
λειο
λειον
λειος
λειου
λειπε
λεις
λειτου
λειτουργει
λειτουργη
λειτουργι
λειτουργικα
λειτουργικη
λειτουργικο
λειτουργικου
λειτουργιω
λειτουργου
λειτουργω
λειψα
λειψαν
λειψε
λειψη
λειψι
λεκ
λεκα
λεκτο
λεκτοι
λεκτος
λεμ
λεμα
λεμεσο
λεμεσου
λεμο
λεμοι
λεμον
λεμος
λεμου
λεν
λενα
λεξ
λεξα
λεξαν
λεξε
λεξη
λεξικα
λεξικο
λεξικολογι
λεξικου
λεξιλο
λεξο
λεο
λεονα
λεοντι
λεοπο
λεος
λεπι
λεπτα
λεπτε
λεπτη
λεπτο
λεπτομε
λεπτομερει
λεπτομερη
λεπτομερω
λεπτου
λεπτω
λερ
λερν
λες
λεσαν
λεσε
λεσεν
λεση
λεσης
λεσι
λεσιν
λεσμα
λεται
λετε
λετο
λετονι
λευ
λευαν
λευε
λευθε
λευθερι
λευι
λευκα
λευκε
λευκη
λευκι
λευκο
λευκοι
λευκορωσι
λευκος
λευκου
λευκω
λευκωσι
λευον
λευσε
λευσεν
λευση
λευσης
λευτε
λευχαιμι
λεφτα
λεχ
λεχθε
λεχος
λεψε
λεω
λεων
λεωνι
λεως
λεωφο
λεωφορει
λη
ληγε
ληθε
ληθει
ληθη
ληθω
λημα
λημμα
λην
ληξαν
ληξε
ληξη
ληπτος
ληρο
λης
λησα
λησαν
λησε
λησεν
ληση
λησης
ληστε
ληστει
ληται
λητος
ληφθει
ληφθου
ληψη
ληψης
ληψιν
λθαν
λθε
λθει
λθεν
λθη
λθηκαν
λθηκε
λθο
λθον
λθουν
λθω
λι
λια
λιαμ
λιαμς
λιαν
λιας
λιβα
λιβαδεια
λιβερ
λιβυ
λιγα
λιγκ
λιγο
λιγουντ
λιδος
λιε
λιες
λιζε
λιθι
λιθο
λιθος
λιθουανι
λιθουανικα
λιθουανικη
λικα
λικας
λικες
λικη
λικι
λικο
λικος
λικου
λιλ
λιμα
λιμανιου
λιμε
λιμη
λιμνοθα
λιμνω
λιμο
λιμου
λιμπρε
λιν
λινα
λινδρο
λινες
λινη
λινο
λινς
λιντς
λιξ
λιξη
λιξης
λιο
λιοι
λιον
λιοντα
λιος
λιοτ
λιου
λιους
λιπ
λιπαρα
λιπε
λιπεν
λιπο
λιπον
λιππο
λιππον
λιππος
λιππου
λιπς
λιρω
λις
λισα
λισαβο
λισαν
λισε
λιση
λισης
λισμα
λισσα
λισσας
λισσες
λιστ
λιστα
λιτο
λιτς
λιω
λκα
λκε
λκει
λκη
λκης
λκιβια
λκιν
λκινα
λκινο
λκο
λκολμ
λκος
λκυσε
λλ
λλα
λλαγμα
λλαι
λλαις
λλαν
λλαξαν
λλαξε
λλαξη
λλας
λλε
λλει
λλειν
λλειψη
λλειψης
λλερ
λλες
λλεσθαι
λλεται
λλετο
λλευ
λλευση
λλευσης
λλη
λληλα
λληλες
λληλη
λληλο
λληλοι
λληλος
λληλων
λλην
λληνα
λληνας
λληνες
λληνι
λληνικη
λληνικο
λλης
λληση
λλησι
λλησιν
λληψη
λληψης
λλι
λλια
λλιαμ
λλιο
λλιον
λλιος
λλιπος
λλις
λλιστα
λλιστον
λλο
λλογο
λλογοι
λλογος
λλοι
λλοις
λλομαι
λλον
λλοντα
λλονται
λλονταν
λλοντας
λλοντες
λλοντος
λλος
λλοτε
λλοτρι
λλου
λλουν
λλους
λλουσα
λλουσι
λλουσιν
λλοφυ
λλυ
λλω
λλων
λλωνα
λλωνος
λλως
λλωστε
λμα
λμαν
λματα
λματος
λμερ
λμη
λμης
λμο
λμος
λμου
λμπα
λμπεργκ
λμπερτ
λμπουμ
λνει
λνιους
λνοντας
λνουν
λντ
λντα
λντε
λντεμαρ
λντεν
λντενμπουργκ
λντερ
λντι
λντο
λξη
λξης
λο
λοατ
λοβα
λοβιτς
λοβο
λογα
λογαριασμο
λογαριασμου
λογειον
λογες
λογη
λογι
λογικα
λογικη
λογικο
λογισμικο
λογισμικου
λογισμο
λογισμου
λογισμω
λογιστικη
λογο
λογοθε
λογοι
λογοκρισι
λογον
λογος
λογοτε
λογοτεχνι
λογοτεχνικα
λογοτεχνικη
λογοτεχνικο
λογοτεχνικου
λογοτεχνω
λοθα
λοι
λοιμω
λοιπα
λοιπες
λοιπη
λοιπο
λοιποι
λοιπου
λοιπους
λοιπω
λοιπων
λοις
λοιτο
λοκ
λοκομοτι
λοκρι
λομαι
λομβαρδι
λομβαρδω
λομεν
λον
λονγκ
λονδι
λονται
λοντας
λοντο
λορε
λος
λοτζ
λου
λουα
λουδοβι
λουζινια
λουθα
λουθες
λουθη
λουθο
λουθοι
λουθος
λουι
λουιζια
λουκ
λουκα
λουκι
λουκιανο
λουλου
λουλουδιω
λουμε
λουν
λουξεμβου
λους
λουσι
λουτρα
λουτρο
λουτρω
λοφ
λοφι
λοχαγο
λοχι
λοχος
λπ
λπεις
λπες
λπεων
λπι
λπιζε
λπο
λπον
λπος
λπου
λπους
λριχ
λς
λσα
λσεν
λσι
λσκι
λσον
λσος
λσται
λτ
λτα
λτας
λτε
λτερ
λτες
λτη
λτης
λτικς
λτιο
λτιον
λτο
λτον
λτος
λτου
λτρα
λτρο
λτσα
λτσμπουργκ
λυ
λυβα
λυγι
λυγουντ
λυδι
λυκα
λυκει
λυκι
λυκο
λυκου
λυμα
λυμμα
λυμπι
λυμπια
λυμπο
λυμπος
λυνση
λυνσης
λυπη
λυπου
λυπτε
λυρικη
λυσαν
λυσε
λυση
λυσης
λυσι
λυτα
λυτη
λυτο
λυτος
λυφος
λυχνι
λυψαν
λυψε
λυψη
λυψης
λυω
λφα
λφγκανγκ
λφεια
λφειας
λφη
λφι
λφια
λφο
λφος
λφου
λφους
λφρεντ
λφων
λχελμ
λω
λωζα
λωμα
λων
λωνα
λωναν
λωνε
λωνος
λωρι
λωρραι
λως
λωσαν
λωσε
λωση
λωσης
λωσιν
λωτα
λωτη
λωτο
λωτοι
λωτος
μ
μα
μαγαζι
μαγδαληνη
μαγει
μαγειρευ
μαγειρικη
μαγια
μαγικο
μαγιο
μαγνη
μαγνησι
μαγνητικη
μαγνητικο
μαγνητικου
μαδαγασκα
μαδρι
μαε
μαζαν
μαζε
μαζευ
μαζη
μαζι
μαζικα
μαζικε
μαζικη
μαζικο
μαζω
μαθαι
μαθαν
μαθε
μαθει
μαθη
μαθημα
μαθηματικα
μαθηματικη
μαθηματικο
μαθηματικου
μαθηματικω
μαθητε
μαθητη
μαθητω
μαθω
μαι
μαινε
μακ
μακα
μακαρι
μακας
μακε
μακεδο
μακεδονι
μακεδονικα
μακεδονικη
μακεδονικο
μακεδονικου
μακεδονικω
μακεδονομα
μακι
μακκα
μακρα
μακρη
μακρια
μακρινο
μακρο
μακροβιο
μακροπρο
μακροχρο
μακρυ
μακρυα
μακρυγια
μακρω
μαλα
μαλαισι
μαλακα
μαλακη
μαλακο
μαλακω
μαλε
μαλη
μαλι
μαλλι
μαλλια
μαλο
μαλου
μαλτε
μαλω
μαμα
μαμελου
μαμου
μαν
μανα
μανασση
μανδυ
μανε
μανθα
μανι
μανια
μανιατε
μανιτα
μανιφε
μανο
μανου
μανουε
μανουη
μανση
μανσης
μαντ
μαντα
μαντε
μαντει
μαντη
μαντι
μαντο
μαντος
μανχα
μανω
μαξ
μαξα
μαξι
μαξιμιλιανο
μαρ
μαρα
μαραθω
μαργαρι
μαργρα
μαρι
μαρια
μαρινα
μαρινε
μαριονε
μαρκ
μαρκε
μαρκη
μαρκησι
μαρκι
μαρκο
μαρμα
μαρν
μαρξ
μαρο
μαρου
μαρς
μαρσε
μαρτα
μαρτε
μαρτη
μαρτι
μαρτυ
μαρτυρει
μαρτυρι
μαρτυρου
μαρχο
μαρχοι
μαρχος
μαρωνι
μας
μασα
μασαν
μασαχουσε
μασε
μασι
μασιν
μασσαλι
μαστε
μαστι
μαστο
μαστου
ματ
ματα
μαται
ματαιο
ματαιω
ματε
ματη
ματθαι
ματθι
ματι
ματια
ματιε
ματιου
ματιω
ματο
ματος
ματς
ματωμε
μαυ
μαυρι
μαυριτανι
μαυρο
μαυροβου
μαυροβουνι
μαυροκορδα
μαυρομιχα
μαυσωλει
μαυτο
μαυτου
μαφι
μαχα
μαχαι
μαχητε
μαχητη
μαχητικα
μαχητικο
μαχμου
μαχο
μαχοι
μαχον
μαχος
μαχου
μαχω
μβα
μβαναν
μβανε
μβανον
μβας
μβαση
μβασης
μβει
μβες
μβηση
μβησης
μβλημα
μβο
μβοι
μβολα
μβολο
μβος
μβου
μβουλο
μβουλοι
μβουλος
μβους
μβρη
μβριο
μβριος
μβρυο
μβων
με
μεγα
μεγαλει
μεγαλειο
μεγαλο
μεγαλοπρεπη
μεγαλυ
μεγαλω
μεγε
μεγεθω
μεγι
μεγιστα
μεδι
μεθ
μεθα
μεθο
μεθοδολογι
μεθυ
μεθυλο
μεθυσμε
μεθω
μει
μεια
μεικτο
μειναν
μεινε
μεινεν
μεινον
μειξη
μειονε
μειονο
μειονοτη
μειοψηφι
μειρα
μεις
μειω
μειωθει
μειωμε
μειωτικο
μεκλεμβου
μελ
μελα
μελανο
μελβου
μελε
μελετα
μελετη
μελετηθει
μελετητε
μελετητη
μελετι
μελετου
μελετω
μελη
μελι
μελλε
μελλεν
μελλο
μελλον
μελλοντικα
μελλοντικε
μελλοντικη
μελλοντικο
μελλοντικου
μελο
μελω
μελωδι
μεμβρα
μεμονωμε
μεν
μενα
μεναι
μεναν
μενε
μενες
μενη
μενης
μενι
μενο
μενοι
μενον
μενος
μενου
μενους
μεντ
μενων
μεξικα
μεξικο
μεξικου
μερ
μερα
μεραρχι
μερες
μερη
μερι
μερια
μερικα
μερικε
μερικη
μερικοι
μερικου
μερικω
μερκι
μερκου
μερο
μερον
μερος
μερσετ
μερω
μες
μεσα
μεσαι
μεσαιωνικα
μεσαιωνικε
μεσαιωνικη
μεσαιωνικο
μεσαιωνικου
μεσες
μεση
μεσημβρι
μεσημε
μεσης
μεσι
μεσιε
μεσο
μεσογει
μεσογειακη
μεσογειακο
μεσογειακου
μεσολα
μεσολο
μεσολογγι
μεσοπολε
μεσοποταμι
μεσος
μεσου
μεσση
μεσσηνι
μεσσι
μετ
μετα
μεταβα
μεταβαι
μεταβαλλο
μεταβατικη
μεταβατικο
μεταβει
μεταβι
μεταβιβα
μεταβλητε
μεταβλητη
μεταβλητο
μεταβλητω
μεταβολε
μεταβολες
μεταβολη
μεταβολι
μεταβολισμο
μεταβολω
μεταγενε
μεταγλω
μεταγρα
μεταγραφη
μεταδι
μεταδιδο
μεταδο
μεταδω
μεταθανα
μεταθε
μεται
μετακι
μετακινει
μετακινη
μετακινηθει
μετακινου
μετακο
μετακομι
μεταλλα
μεταλλει
μεταλλι
μεταλλικα
μεταλλικη
μεταλλικο
μεταλλουργι
μεταμο
μεταμορφω
μεταμφιεσμε
μετανα
μεταναστευ
μεταναστω
μεταξα
μεταξυ
μεταπη
μεταπολεμικα
μεταπολεμικη
μεταπολι
μεταπτυχιακε
μεταπτυχιακο
μεταρρυ
μεταρρυθμι
μεταστροφη
μετασχηματισμο
μετασχηματισμου
μετατε
μετατο
μετατοπι
μετατρα
μετατραπει
μετατρε
μετατροπε
μετατροπη
μεταφε
μεταφερθει
μεταφερο
μεταφορα
μεταφορε
μεταφορικα
μεταφορω
μεταφρα
μεταφρασμε
μεταφραστει
μεταφραστη
μεταφραστικο
μεταφυσικη
μεταχει
μεταχειρι
μετε
μετει
μετεω
μετεωρι
μετεωρολογι
μετη
μετο
μετοι
μετονο
μετονομα
μετονομασι
μετοχε
μετοχη
μετοχω
μετρα
μετρει
μετρη
μετρι
μετρο
μετρον
μετρος
μετρου
μετρω
μετς
μετσο
μετω
μευε
μευσε
μευση
μεχμε
μεων
μεως
μη
μηδ
μηδε
μηδει
μηδεμι
μηδενι
μηδενικη
μηδενο
μηδι
μηκε
μηλια
μημα
μην
μηνα
μηνη
μηνι
μηνιαι
μηνο
μηνυ
μηνυμα
μηνω
μηρο
μηρος
μηρου
μης
μησαν
μησε
μησεν
μηση
μησης
μητα
μητε
μητες
μητο
μητος
μητρα
μητρι
μητρικη
μητρο
μητροπο
μητροπολι
μητροπολιτικη
μητροπολιτικο
μητρω
μητσοτα
μηχα
μηχανε
μηχανη
μηχανικα
μηχανικη
μηχανικο
μηχανικοι
μηχανικου
μηχανικω
μηχανισμο
μηχανισμοι
μηχανισμου
μηχανοκι
μηχανω
μι
μια
μιαν
μιανμα
μιαου
μιας
μιγκε
μιδος
μιερ
μιες
μιζε
μιζου
μιθριδα
μικ
μικρα
μικρασια
μικρασιατικη
μικρε
μικρη
μικρο
μικροι
μικρου
μικρω
μικς
μικτη
μικτο
μιλ
μιλα
μιλει
μιλη
μιλι
μιλο
μιλοι
μιλος
μιλου
μιλτια
μιλτον
μιλω
μιμα
μιμει
μιμη
μιμο
μιμος
μιμου
μιν
μινγκ
μινεσο
μινι
μινο
μινσκ
μιο
μιοι
μιον
μιος
μιου
μιουελ
μιρ
μιρα
μις
μισα
μισαν
μισε
μισει
μιση
μισης
μισθο
μισθου
μισθοφο
μισθω
μισι
μισμα
μισο
μισου
μισσα
μισυ
μιχα
μιχαη
μιχαηλι
μμα
μμασι
μματα
μματο
μματος
μμαχο
μμαχοι
μμαχος
μμε
μμεσα
μμο
μμος
μμου
μμυ
μνα
μνει
μνες
μνη
μνημα
μνημει
μνημειων
μνημο
μνημονευ
μνην
μνης
μνηση
μνηστη
μνια
μνο
μνοι
μνον
μνονα
μνος
μνου
μνους
μνω
μνων
μο
μοβιτς
μογγο
μογγολι
μογγολικη
μοζαμβι
μοζε
μοι
μοια
μοιαζε
μοιγε
μοιες
μοιο
μοιοι
μοιον
μοιος
μοιρα
μοιραι
μοιρω
μοις
μοιχει
μοιων
μολδαβι
μολι
μολιε
μολο
μολογει
μολογη
μολογι
μολογου
μολονο
μολυ
μολυσμε
μομφερρα
μον
μονα
μοναδικα
μοναδικε
μοναδικη
μοναδικο
μοναδικου
μονακο
μοναξια
μοναρχι
μονας
μοναστη
μοναστηρι
μοναστηριου
μοναχε
μοναχη
μοναχικο
μοναχο
μοναχοι
μοναχου
μοναχω
μονε
μονες
μονη
μονι
μονιμου
μονο
μονογραφι
μονοθε
μονοι
μονομα
μονομαχι
μονοπα
μονοπω
μονος
μονοτονικο
μονπελιε
μοντ
μοντα
μονται
μοντε
μονω
μορ
μορα
μοραβι
μορε
μορι
μορια
μοριακη
μοριακο
μορς
μορφα
μορφε
μορφες
μορφη
μορφο
μορφολογι
μορφολογικα
μορφοποι
μορφος
μορφω
μορφωμε
μορφωτικο
μος
μοσχα
μοτι
μοτοσικλε
μου
μουλα
μουν
μουντια
μουρ
μουρα
μουρι
μουρμου
μους
μουσα
μουσει
μουσικα
μουσικε
μουσικη
μουσικο
μουσικοι
μουσικου
μουσικω
μουσολι
μουσουλμα
μουσουλμανικη
μουσουλμανικο
μουστα
μουσταφα
μουσω
μουχα
μοφ
μοχα
μπ
μπα
μπαγκλαντε
μπαι
μπακ
μπακα
μπακου
μπαλα
μπαλε
μπαλκο
μπαλο
μπαμπα
μπαμπινιω
μπαμπου
μπαν
μπανα
μπανγκλαντε
μπανο
μπαντα
μπαντος
μπαρ
μπαρα
μπαρμπα
μπαρμπου
μπαρο
μπαρτ
μπαρτσελο
μπας
μπασα
μπασι
μπαστια
μπαταρι
μπατι
μπαχ
μπαχα
μπαχρε
μπε
μπει
μπειν
μπειρι
μπεκ
μπελ
μπελα
μπελι
μπεν
μπενα
μπενεβε
μπενι
μπενς
μπενφι
μπερ
μπεργκ
μπερλαντ
μπερνα
μπερτ
μπερτς
μπες
μπεται
μπετο
μπη
μπης
μπι
μπια
μπιε
μπιλ
μπιν
μπιο
μπιονς
μπιτ
μπιτς
μπλ
μπλα
μπλακ
μπλε
μπλεγμα
μπλιν
μπλο
μπλοκ
μπλοκα
μπλου
μπλουα
μπλουζ
μπνευση
μπνευσης
μπο
μποε
μποι
μπολ
μπολε
μπολο
μπολσεβι
μπομπ
μπον
μποντ
μπορ
μπορε
μπορει
μπορι
μπορο
μποροι
μπορος
μπορου
μπορω
μπος
μποτ
μπου
μπουε
μπουκα
μπουν
μπουργκ
μπουρου
μπους
μπουτα
μπρα
μπραντ
μπρε
μπρι
μπρια
μπριε
μπριτα
μπριτζ
μπρο
μπρος
μπροσθεν
μπροστα
μπροστινο
μπρου
μπρους
μπσον
μπτη
μπτης
μπτο
μπτον
μπτος
μπτου
μπυ
μπω
μσον
μστερνταμ
μτφ
μτφρ
μτχ
μυ
μυαλο
μυελο
μυη
μυθικο
μυθιστο
μυθιστορη
μυθιστορημα
μυθιστοριογρα
μυθολογι
μυθοπλασι
μυι
μυκη
μυκηναι
μυλο
μυλος
μυλωνα
μυνα
μυνας
μυοκαρδι
μυρι
μυρια
μυρμη
μυρωδια
μυς
μυστη
μυστηρι
μυστηριω
μυστικα
μυστικε
μυστικη
μυστικο
μυστικω
μυστρα
μυτιλη
μυω
μφ
μφαι
μφαση
μφατο
μφες
μφη
μφης
μφι
μφο
μφοι
μφος
μφοτε
μφραγμα
μφω
μφωνα
μφωνη
μφωνο
μψας
μψει
μψη
μω
μωα
μων
μωνα
μωνος
μωξη
μωρα
μωραι
μωρε
μωρι
μωρο
μως
μωσαι
μωσε
μωση
μωυ
μωυση
ν
να
ναβα
ναβαι
ναβη
ναγκα
ναγκαι
ναγκο
ναγνω
ναζε
ναζι
ναζιστικη
ναζιστικο
ναθαν
ναι
ναιρει
ναις
νακα
νακας
νακε
νακες
ναλαβω
ναλι
ναλντ
ναλτι
ναμα
ναμε
ναμη
ναμης
ναμι
ναμιν
ναμις
ναμο
ναμος
ναν
νανδρος
νανε
ναντ
ναντα
νανται
ναντες
ναντι
ναντο
ναξ
ναξε
ναξη
ναο
ναοι
ναου
ναπαυ
ναπολε
ναπολεο
ναρ
ναρκωτικα
ναρκωτικω
ναρξη
ναρξης
νας
νασθαι
νασι
νασσα
ναστα
ναστη
νατα
ναται
ναταλι
νατε
νατζερ
νατη
νατο
νατοι
νατολη
νατον
νατος
νατρι
ναυ
ναυα
ναυαρχι
ναυμαχι
ναυπα
ναυπακτι
ναυπη
ναυπηγει
ναυπηγη
ναυπλι
ναυσι
ναυσιπλοι
ναυτεμπορικη
ναυτι
ναυτικα
ναυτικε
ναυτικη
ναυτικο
ναυτικοι
ναυτικου
ναυτικω
ναυτιλι
ναφε
ναχο
ναχος
ναψε
ναψη
ναω
νβα
νγκ
νγκα
νγκε
νγκεν
νγκερ
νγκο
νδ
νδα
νδαλο
νδαρος
νδας
νδε
νδει
νδειξη
νδεκα
νδεση
νδεσης
νδεσμο
νδεσμοι
νδεσμος
νδη
νδης
νδο
νδοευρωπαι
νδον
νδος
νδου
νδρα
νδρας
νδρει
νδρεια
νδρειας
νδρες
νδρι
νδρια
νδρο
νδρομο
νδρος
νδρου
νδρω
νδρων
νδυ
νδυμα
νδυνα
νδυνες
νδυνη
νδυνο
νδυνοι
νδυνον
νδυνος
νδυση
νδυσης
νδω
νε
νεα
νεανι
νεανικη
νεαπο
νεαρα
νεαρη
νεαρο
νεαρου
νεαρω
νεβα
νεβε
νεγκαν
νεγκε
νεγκεν
νεθ
νει
νεια
νειαν
νειας
νειε
νειες
νειμε
νειν
νειο
νειον
νειρα
νειρο
νεις
νεκ
νεκα
νεκεν
νεκρα
νεκρη
νεκρο
νεκροι
νεκρολογι
νεκροταφει
νεκρου
νεκρω
νεκτα
νελ
νεμα
νεμε
νεμο
νεμοι
νεμος
νεμπουργκ
νεν
νεντι
νεο
νεογε
νεοελληνικε
νεοελληνικη
νεοελληνικου
νεοελληνικω
νεοι
νεολαι
νεολιθικη
νεολογισμο
νεοπτο
νεοσυ
νεοχω
νεπα
νερ
νερα
νεργει
νερο
νερου
νερω
νες
νεσαι
νεσε
νεση
νεσης
νεσθαι
νεσι
νεσιν
νεσις
νετ
νετα
νεται
νετε
νετει
νετο
νετρονι
νευ
νευε
νευρικο
νευρικου
νευρω
νευσαν
νευσε
νευση
νευσης
νεφε
νεφελω
νεφρικη
νεχω
νεω
νεωτε
νζ
νζα
νζυμα
νζυμο
νη
νηθες
νηι
νηκαν
νηκε
νημα
νην
νηπιαγωγει
νης
νησα
νησαν
νησε
νησεν
νηση
νησης
νησι
νησια
νησιν
νησιου
νησις
νησιω
νησιωτικη
νησο
νησος
νηστει
νητα
νηται
νητες
νητη
νητο
νητον
νητος
νητρα
νητρο
νθ
νθα
νθε
νθεν
νθεον
νθεση
νθεσης
νθετα
νθετη
νθετο
νθετος
νθη
νθηκαν
νθηκε
νθημα
νθης
νθηση
νθια
νθιμος
νθιοι
νθος
νθου
νθους
νθρακα
νθρακας
νθρακες
νθρω
νθρωπι
νθρωπο
νθρωποι
νθρωπον
νθρωπος
νι
νια
νιας
νιαυτο
νιγηρι
νιε
νιελ
νιες
νιζαν
νιζε
νικ
νικα
νικαι
νικαρα
νικας
νικε
νικες
νικη
νικης
νικητε
νικητη
νικηφο
νικι
νικο
νικολα
νικολαι
νικολο
νικομη
νικος
νικου
νικς
νικω
νιλ
νιμα
νιμες
νιμη
νιμης
νιμο
νιμοι
νιμος
νιμους
νιν
νινγκ
νινγκραντ
νιξ
νιο
νιοι
νιον
νιορ
νιος
νιου
νιους
νις
νισα
νισαν
νισε
νιση
νισης
νισμα
νισσα
νιστα
νιστος
νιτς
νιτσα
νιτσας
νιφερ
νιω
νιωθε
νιων
νιωσε
νκ
νκα
νκαστερ
νκι
νκο
νκοβιτς
νκολν
νλει
νμπεργκ
ννα
ννας
ννε
ννες
ννεφα
ννη
ννην
ννης
ννησε
ννηση
ννησης
ννησο
ννησον
ννησος
ννι
ννικα
ννινα
ννο
ννοι
ννοια
ννοιας
ννοιες
ννος
ννου
ννους
ννυ
ννων
νο
νοβα
νοβιτς
νοδο
νοδον
νοδος
νοε
νοει
νοεμβρι
νοη
νοηματικη
νοημοσυ
νοθει
νοι
νοια
νοιαν
νοιας
νοιγμα
νοικοκυριω
νοιξαν
νοιξε
νοιξη
νοιξης
νοιο
νοις
νοισι
νοιτο
νοκ
νολα
νολο
νομα
νομαι
νομαρχι
νομαρχιακη
νομεν
νομες
νομη
νομης
νομι
νομικα
νομικε
νομικη
νομικο
νομικου
νομικω
νομιμο
νομιμοποι
νομισμα
νομισματικη
νομισματικο
νομισματοκοπει
νομο
νομοθε
νομοθεσι
νομοθετικη
νομοθετικο
νομοθετικου
νομοι
νομος
νομοσχε
νομου
νομω
νομων
νον
νονο
νοντα
νονται
νονταν
νοντας
νοντες
νοντο
νοντος
νοου
νοπλες
νοπλη
νοπλοι
νορ
νορα
νορβηγι
νορβηγικα
νορβηγικη
νορβηγικο
νορβηγο
νορθα
νορθουμβρι
νορμανδι
νορο
νος
νοση
νοσηλει
νοσηλευ
νοσοκο
νοσοκομει
νοταρα
νοτι
νοτιο
νοτιοανατολικα
νοτιοανατολικη
νοτιοανατολικο
νοτιοδυτικα
νοτιοδυτικη
νοτιοδυτικο
νου
νουα
νουβε
νουμε
νουν
νουνε
νουνταν
νους
νουσα
νουσαν
νουσι
νουσιν
νοφ
νοχος
νπερ
νραντ
νρι
νρυ
νς
νσα
νσας
νσε
νσεις
νσεν
νσεντ
νσερ
νσεων
νσι
νσιν
νσις
νσκ
νσκα
νσκι
νσο
νσον
νσος
νσου
νστα
νστερ
νστον
ντ
ντα
νταβι
νταγμα
νται
ντακο
νταλ
νταλα
νταμ
νταμπλ
νταμς
νταν
ντανιε
νταξη
νταξης
νταου
νταρ
ντας
νταση
ντασης
ντασμα
νταυ
ντβιχ
ντγκαρ
ντγουει
ντε
ντει
ντειο
ντεκα
ντελ
ντεμπου
ντεν
ντενα
ντενι
ντεο
ντερ
ντερικ
ντερνετ
ντερο
ντερς
ντερσον
ντες
ντετε
ντευ
ντευξη
ντζα
ντζαμιν
ντζας
ντζελες
ντζελο
ντζι
ντζο
ντζος
ντη
ντης
ντησαν
ντησε
ντησεν
ντηση
ντησης
ντι
ντια
ντιβιζιο
ντιγο
ντιε
ντιες
ντικ
ντιν
ντινα
ντιναμο
ντινγκ
ντιο
ντιοι
ντιον
ντιος
ντιου
ντιπα
ντις
ντισε
ντισον
ντισσα
ντιτρο
ντιτς
ντλει
ντλερ
ντληση
ντμαν
ντμι
ντμουντ
ντμπολ
ντνει
ντο
ντοβα
ντοβιτς
ντοι
ντοκιμαντε
ντοκουμε
ντολα
ντολφ
ντομα
ντομε
ντομες
ντομη
ντομι
ντομο
ντον
ντονα
ντονε
ντονες
ντονη
ντονης
ντονι
ντονο
ντορ
ντορα
ντος
ντοτε
ντου
ντουα
ντουαρντ
ντουε
ντους
ντουσαν
ντοφ
ντρ
ντρα
ντραμς
ντρας
ντραφτ
ντρε
ντρεαλ
ντρες
ντρι
ντρια
ντρικ
ντριου
ντριχ
ντρο
ντρον
ντροπη
ντρου
ντροφο
ντροφοι
ντροφος
ντρων
ντρωσαν
ντρωσε
ντρωση
ντρωσης
ντσα
ντσερ
ντσες
ντσεστερ
ντσι
ντσο
ντσον
ντυ
ντυμε
ντυπα
ντυπο
ντφορντ
ντω
ντων
ντωνι
ντως
ντωση
ντωσης
νυ
νυα
νυκτι
νυκτο
νυμα
νυμη
νυμης
νυμο
νυμον
νυμος
νυμου
νυμους
νυμφευ
νυμφευμε
νυμφευτει
νυν
νυνι
νυρεμβε
νυσε
νυση
νυσμα
νυσος
νυχτα
νυχτερι
νυχτερινη
νυχτερινο
νφορντ
νχαλτ
νω
νωθεν
νωι
νωμα
νωμεν
νων
νωνα
νωνε
νωνται
νωπογραφι
νωρ
νωρι
νως
νωσαν
νωσε
νωση
νωσης
νωσι
νωσιν
νωσις
νωτε
νωτιαι
ξ
ξα
ξαδε
ξαι
ξαμε
ξαν
ξανα
ξαναχτι
ξανδρο
ξανδρον
ξανδρος
ξανδρου
ξανε
ξανθο
ξαντες
ξαντο
ξαπε
ξαπλω
ξαρχος
ξας
ξασθαι
ξατε
ξατο
ξαφνα
ξαφνικα
ξαφνικη
ξε
ξει
ξειν
ξεις
ξεκα
ξεκι
ξεκινα
ξεκινη
ξεκινου
ξεκινω
ξεκου
ξελε
ξενα
ξενι
ξενιστη
ξενο
ξενοδοχει
ξενος
ξενοφω
ξενω
ξεπε
ξεπερα
ξεπερνα
ξεπερνου
ξεπερνω
ξερα
ξερε
ξερο
ξεσθαι
ξεσπα
ξετα
ξεται
ξετε
ξευ
ξευση
ξεφευ
ξεφυ
ξεχα
ξεχασμε
ξεχω
ξεχωρι
ξεχωριστα
ξεχωριστε
ξεχωριστη
ξεχωριστο
ξεων
ξεως
ξη
ξημερω
ξηρα
ξηρασι
ξηρη
ξηρο
ξηρου
ξης
ξησε
ξηση
ξησης
ξι
ξια
ξιμο
ξιμος
ξιμων
ξιν
ξινο
ξιο
ξιοι
ξιον
ξιος
ξιου
ξις
ξιφασκι
ξιω
ξο
ξοδα
ξοδευ
ξοδο
ξοδος
ξομαι
ξομεν
ξον
ξονα
ξονας
ξονες
ξος
ξου
ξουμε
ξουν
ξουσι
ξουσιν
ξπηρ
ξτε
ξτρα
ξυ
ξυλει
ξυλο
ξυπνα
ξυπνη
ξυπνος
ξω
ξωθεν
ξων
ξως
ο
οα
οβελι
οβι
ογδο
ογκω
οδη
οδηγει
οδηγη
οδηγι
οδηγο
οδηγοι
οδηγου
οδηγω
οδησσο
οδι
οδικη
οδικο
οδικω
οδο
οδοι
οδοιπορικο
οδον
οδος
οδου
οδυ
οδυσσε
οδω
οηε
οθο
οθωμανικα
οθωμανικε
οθωμανικη
οθωμανικο
οθωμανικου
οθωμανο
οθωμανοι
οθωμανου
οθωμανω
οι
οιδι
οικ
οικε
οικει
οικεν
οικι
οικιακη
οικισμο
οικισμοι
οικισμου
οικισμω
οικιστε
οικιστικη
οικο
οικογε
οικογενει
οικογενειακη
οικογενειακο
οικογενειω
οικοδεσπο
οικοδο
οικοδομη
οικολογι
οικολογικη
οικολογικο
οικονο
οικονομι
οικονομικα
οικονομικε
οικονομικη
οικονομικο
οικονομικου
οικονομικω
οικονομολο
οικοσυστη
οικουμενικη
οικουμενικο
οικουμενικου
οινο
οιο
οις
οισι
οισιν
οκα
οκλαχο
οκτα
οκταβιανο
οκτω
οκτωβρι
οκτωβριανη
ολα
ολε
ολι
ολικη
ολιμπι
ολλανδι
ολλανδικα
ολλανδικη
ολλανδικο
ολλανδο
ολλανδου
ολλανδω
ολο
ολοε
ολοκαυ
ολοκαυτω
ολοκλη
ολοκληρω
ολοκληρωθει
ολοκληρωμε
ολοκληρωτικα
ολοκληρωτικη
ολομε
ολος
ολοσχερω
ολυ
ολυμπι
ολυμπια
ολυμπιακη
ολυμπιακο
ολυμπιακοι
ολυμπιακου
ολυμπιακω
ολυμπιονι
ομα
ομαδικη
ομαδικο
ομαι
ομαλη
ομε
ομεν
ομη
ομηρικο
ομι
ομιλει
ομιλητε
ομιλητη
ομιλι
ομιλου
ομο
ομοι
ομοιο
ομολο
ομολογι
ομορφια
ομοσπονδι
ομοσπονδιακη
ομοσπονδιακο
ομοσπονδιακου
ομοφυλο
ομοφυλοφιλι
ομπα
ομπρε
ομπρο
ομω
ον
ονα
ονας
ονδου
ονει
ονες
ονι
ονο
ονομα
ονομαζο
ονομασι
ονομαστει
ονομαστικη
ονοματολογι
ονος
οντα
ονται
ονταν
οντας
οντες
οντι
οντο
οντορ
οντος
οξε
οξει
οξιτανι
οξιτανικα
οξυ
οξυγο
οξφο
οπα
οπαδο
οπαδοι
οπαδου
οπαδω
οπαπ
οπη
οπι
οπλαρχηγο
οπλαρχηγου
οπλι
οπλισμε
οπλισμο
οπο
οποι
οποιαδη
οποιασδη
οποιοδη
οποιονδη
οποιοσδη
οποιουδη
οπου
οπουδη
οπτικα
οπτικε
οπτικη
οπτικο
οπτικω
οπωσδη
ορα
ορατα
ορατη
ορατο
οργα
οργανι
οργανικα
οργανικε
οργανικη
οργανικω
οργανισμο
οργανισμοι
οργανισμου
οργανισμω
οργανω
οργανωμε
οργανωτικη
οργη
οργκ
ορε
ορειβα
ορεινα
ορεινε
ορεινη
ορεινο
ορεινου
ορεστια
ορθη
ορθο
ορθογραφι
ορθογω
ορθοδο
ορθοδοξι
ορι
οριζο
ορισμε
ορισμο
ορισμοι
ορισμου
οριστει
οριστικα
οριστικη
οριστικο
ορκι
ορκωμοσι
ορλα
ορλεα
ορμη
ορμο
ορο
ορολογι
οροπε
οροσειρα
οροφη
ορσι
ορτα
ορτη
ορυκτα
ορυκτο
ορυκτω
ορυχει
ορφανο
ορφανοτροφει
ορφε
ορχη
ος
οσα
οσε
οσι
οσμα
οσμη
οστα
οστο
οστρογο
οστω
οτα
οταν
οτε
οτι
οτιδη
ου
ουα
ουαλι
ουαρντ
ουγγαρι
ουγγρικα
ουγγρικη
ουγγρικο
ουγκα
ουγκω
ουδαι
ουδε
ουδετερο
ουδο
ουε
ουελ
ουεν
ουερ
ουεφα
ουζ
ουζεν
ουζμπεκιστα
ουι
ουκ
ουκρανι
ουκρανικα
ουκρανικη
ουκρανικο
ουκρανο
ουκρανοι
ουλ
ουλα
ουλι
ουμ
ουμε
ουν
ουνι
ουνς
ουνσβαι
ουντ
ουο
ουρα
ουρανι
ουρανο
ουρανου
ουρι
ουρουγουα
ους
ουσα
ουσαν
ουσας
ουσβιτς
ουσες
ουσι
ουσιαστικα
ουσιαστικη
ουσιαστικο
ουσιαστικοποιημε
ουσιν
ουσιω
ουτ
ουτο
ουτρε
ουτς
ουφεν
οφ
οφε
οφει
οφειλο
οφη
οφθαλμου
οχα
οχη
οχημα
οχο
οχος
οχτω
οχυ
οχυρα
οχυρο
οχυρω
οχυρωμε
π
πα
παγγε
παγετω
παγι
παγιδευ
παγιδευμε
παγκο
παγκοσμι
παγκρα
παγκρατι
παγκυ
παγο
παγω
παγωμε
παε
παζα
παθ
παθε
παθει
παθη
παθητικη
παθητικο
παθητικου
παθλο
παθο
παθογο
παθω
παι
παια
παιανι
παιγνι
παιδα
παιδαγωγικη
παιδαγωγο
παιδει
παιδευ
παιδι
παιδια
παιδικα
παιδικη
παιδικο
παιδικου
παιδικω
παιδιου
παιδιω
παιδο
παιζαν
παιζε
παιθρο
παικτω
παινε
παινει
παινου
παιξαν
παιξε
παιο
παιρναν
παιρνε
παισι
παιχνι
παιχνιδιου
παιχνιδιω
πακε
πακιστα
πακου
παλα
παλαι
παλαια
παλαιο
παλαιοι
παλαιολιθικη
παλαιολο
παλαιολογι
παλαιου
παλαιοχω
παλαιστη
παλαιστι
παλαιω
παλαμα
παλατινα
παλατινη
παλατιου
παλε
παλευ
παλη
παλι
παλια
παλιε
παλικα
παλιο
παλιου
παλλα
παλλη
παλο
παλοι
παλος
παλου
παμε
παν
πανα
παναγη
παναγι
παναγια
παναγιω
παναγιωτο
παναθηναι
παναμα
παναχαι
πανδε
πανδημι
πανε
πανελλη
πανελληνι
πανεπιστη
πανεπιστημι
πανεπιστημιακε
πανεπιστημιακη
πανεπιστημιακο
πανεπιστημιου
πανευρωπαι
πανη
πανηγυ
πανηγυρι
πανι
πανια
πανικο
πανιω
πανιωνι
πανκ
παννονι
πανο
πανομοιο
πανοπλι
πανοραμικη
πανου
πανσε
πανση
παντα
παντας
πανταχο
πανταχου
παντελεη
παντελη
παντελω
παντες
παντζα
παντη
παντι
παντο
παντοδυ
παντοι
παντοκρα
παντου
παντρε
παντρεμε
παντρευ
παντρευτει
πανω
παξ
παο
παοκ
παπα
παπαγεωργι
παπαδα
παπαδη
παπαδημητρι
παπαδιαμα
παπαδο
παπαδοπου
παπαζη
παπαθανασι
παπαι
παπακωνσταντι
παπαμωυσε
παπανδρε
παπανικολα
παπαρρηγο
παπαφλε
παπικη
παπικο
παπου
παππα
παππου
παρ
παρα
παραβα
παραβι
παραβια
παραβολη
παραγα
παραγγε
παραγγελι
παραγενο
παραγο
παραγουα
παραγρα
παραγω
παραγωγε
παραγωγη
παραγωγικη
παραγωγικο
παραγωγο
παραγωγοι
παραγωγου
παραγωγω
παραδε
παραδει
παραδι
παραδο
παραδοθει
παραδοσιακα
παραδοσιακε
παραδοσιακη
παραδοσιακο
παραδοσιακου
παραδοσιακω
παραδου
παραδω
παραθαλα
παραθε
παραθυ
παραι
παραιτει
παραιτη
παραιτηθει
παρακα
παρακαλε
παρακαλει
παρακαλου
παρακαλω
παρακει
παρακειμε
παρακμη
παρακολου
παρακολουθει
παρακολουθη
παρακολουθου
παρακολουθω
παραλα
παραλαβη
παραλαβω
παραλαμβα
παραλει
παραλη
παραλι
παραλιακη
παραλλαγε
παραλλαγη
παραλλη
παραλληλο
παραμε
παραμει
παραμο
παραμονη
παραμορφω
παραμυ
παρανο
παρανομι
παραπα
παραπε
παραπλη
παραπλησι
παραπο
παραπομπε
παραπομπη
παραποτα
παραρτη
παρασκευα
παρασκευη
παρασκη
παραστα
παραστη
παρασυ
παρατα
παρατει
παρατεταμε
παρατη
παρατηρει
παρατηρη
παρατηρηθει
παρατηρητε
παρατηρητη
παρατηρου
παρατηρω
παρατι
παρατσου
παραφθορα
παραχθει
παραχρη
παραχω
παραχωρει
παραχωρη
παραχωρου
παρε
παρει
παρεκα
παρεκκλη
παρελθο
παρεμβα
παρεμβαι
παρεμβολη
παρεμποδι
παρενε
παρενθε
παρενο
παρευρε
παρεχο
παρη
παρθε
παρθεναγωγει
παρθενικη
παρθενω
παρι
παρισι
παρισιου
παριστα
παρκ
παρμενι
παρνασσο
παρξη
παρξης
παρο
παροικι
παροιμι
παρομοι
παρου
παρουσι
παρουσια
παρουσιαστει
παρουσιαστη
παροχη
παρρησι
παρτι
παρτιζα
παρτιτου
παρυφε
παρχι
παρχο
παρχος
παρω
παρωδι
παρωχημε
πας
πασα
πασαν
πασε
πασι
πασιν
πασκα
πασοκ
πασσα
πασχα
πασχαλι
πασχε
πασω
πατ
πατα
πατε
πατη
πατινα
πατο
πατος
πατου
πατρε
πατρι
πατρια
πατριαρχει
πατριαρχικη
πατριαρχικο
πατριδωνυμικο
πατρικη
πατρικι
πατρικο
πατριω
πατριωτικο
πατρο
πατρος
πατρω
πατω
παυ
παυλη
παυλι
παυσανι
παυσε
παυση
παχυ
παψε
πγδμ
πε
πεδα
πεδει
πεδη
πεδι
πεδια
πεδινη
πεδινο
πεδο
πεδον
πεζα
πεζας
πεζες
πεζη
πεζικο
πεζικου
πεζο
πεζογρα
πεζογραφι
πεζοι
πεζοπορι
πεζου
πεζω
πεθα
πεθαι
πεθαμε
πεθερα
πεθερο
πει
πεια
πειδα
πειδη
πειες
πειθαρχι
πειν
πειρα
πειραι
πειραια
πειραιω
πειραματι
πειραματικα
πειραματικη
πειραματικο
πειρασμο
πειρατε
πειρατει
πειρατω
πειρες
πειρι
πειρο
πειρον
πειρος
πειρω
πεις
πεισε
πεισι
πειτα
πεκι
πεκρι
πελ
πελα
πελαγι
πελατω
πελε
πελεκα
πελθει
πελθο
πελλα
πελλο
πελοπο
πελοποννη
πελοποννησι
πελοποννησιακου
πεμπε
πεμψαν
πεμψε
πεμψεν
πεν
πεναντι
πενη
πενι
πενσυλβα
πεντα
πενταετη
πεντακο
πεντακοσι
πεντε
πεντη
πεντηκοστη
πεπεισμε
πεπερασμε
πεπι
πεπο
πεποι
πεποιημε
πεποιθη
πεπραγμε
πεπρωμε
περ
περα
περαι
περαιτε
περας
περασμε
περβα
περβολη
περγα
περδι
περε
περει
περες
περη
περηφα
περι
περιβα
περιβαλλο
περιβαλλοντικε
περιβαλλοντικη
περιβαλλοντικω
περιβο
περιγρα
περιγραφε
περιγραφει
περιγραφη
περιε
περιει
περιεκτικο
περιελα
περιεχο
περιεχομε
περιη
περιηγητη
περιθω
περικλει
περικλη
περικυ
περικυκλω
περιλα
περιλαμβα
περιλαμβανομε
περιμε
περιο
περιοδει
περιοδευ
περιοδικα
περιοδικο
περιοδικου
περιοδικω
περιορι
περιορισμε
περιορισμο
περιορισμοι
περιορισμου
περιορισμω
περιουσι
περιουσιακα
περιοχε
περιοχη
περιοχω
περιπα
περιπε
περιπετειω
περιπλανω
περιπλε
περιπολι
περιπτω
περισσο
περισσοτε
περιστα
περιστασιακα
περιστατικα
περιστατικο
περιστε
περιστερι
περιστρε
περιστρεφο
περιστροφη
περιττο
περιφε
περιφερεια
περιφερειακα
περιφερειακε
περιφερειακη
περιφερειακο
περιφερειακου
περιφερειακω
περιφερειω
περιφορα
περιφρο
περνα
περνου
περνω
περο
περου
περπα
περπατα
περπατου
περς
περσε
περσι
περσικα
περσικη
περσικο
περσικου
περσω
πες
πεσαν
πεσε
πεσεν
πεσθαι
πεσο
πεσον
πετα
πεται
πεταλου
πετε
πετι
πετο
πετοσφαι
πετου
πετρα
πετρας
πετρε
πετρελαι
πετρι
πετρο
πετρου
πετρω
πετρωμα
πετυ
πετυχαι
πετυχημε
πετω
πευ
πευαν
πευε
πεφτε
πεχει
πη
πηγα
πηγαι
πηγε
πηγη
πηγω
πηδα
πηκαν
πηκε
πηλι
πηλο
πημα
πην
πηνελο
πηνι
πηρε
πηρεσι
πης
πησαν
πησε
πηση
πησης
πι
πια
πιανι
πιασε
πιαστ
πιβα
πιβουλευ
πιβουλη
πιδει
πιε
πιει
πιερ
πιερι
πιερικο
πιες
πιζαν
πιζε
πιθανα
πιθανε
πιθανη
πιθανο
πιθανολογει
πιθανου
πιθανω
πιθε
πιθη
πιθυμι
πικα
πικρα
πικρι
πικρο
πιλα
πιλε
πιλο
πιμα
πιμε
πιμελει
πιν
πινα
πινακι
πινακοθη
πινγι
πινγκ
πινε
πινες
πινη
πινης
πινο
πινου
πινων
πιο
πιοι
πιον
πιος
πιου
πιους
πιπε
πιπλα
πις
πισαν
πισε
πιση
πισης
πισθεν
πισι
πισκο
πισμα
πισσα
πισσας
πιστα
πιστε
πιστευ
πιστευο
πιστη
πιστο
πιστοι
πιστολη
πιστοποι
πιστοποιητικο
πιστος
πιστου
πιστρε
πιστω
πιτ
πιτα
πιτη
πιτηδει
πιτηδευ
πιτι
πιτρε
πιτροπη
πιφα
πιφανει
πιφε
πιχειρη
πιω
πιων
πκε
πλ
πλα
πλαγι
πλαγια
πλαγιε
πλαι
πλαισι
πλαισιω
πλακω
πλανη
πλανητω
πλανω
πλαση
πλασμα
πλαστη
πλαστικο
πλατα
πλατανια
πλατει
πλατια
πλατινε
πλατυ
πλατφο
πλε
πλει
πλεια
πλειο
πλειονο
πλειοψηφι
πλεο
πλεονα
πλεονε
πλεονεκτη
πλεονεξι
πλερ
πλευ
πλευρα
πλευρε
πλευρο
πλευρω
πλευσαν
πλευσε
πλη
πληγε
πληγει
πληγη
πληγω
πληγωμε
πληθ
πληθυ
πληθυντικο
πληθυντικου
πληθυσμιακη
πληθυσμο
πληθυσμοι
πληθυσμου
πληθυσμω
πληθω
πληθωρισμο
πληκτρολο
πλημμυ
πλημμυρι
πλην
πληξε
πληρεξου
πληρεξουσι
πληρου
πληροφο
πληροφορει
πληροφορη
πληροφορι
πληροφορικη
πληροφοριω
πληρω
πληρωμε
πληρωμη
πληρωμω
πλησι
πλησια
πλησιε
πλι
πλια
πλιο
πλμ
πλο
πλοη
πλοι
πλοια
πλοιο
πλοις
πλοκα
πλοκες
πλοκη
πλοκο
πλου
πλους
πλουσι
πλουσιο
πλυ
πλω
πλωμα
πλων
πλωση
πλωσης
πλωτι
πμπορν
πνε
πνευ
πνευμα
πνευματικα
πνευματικη
πνευματικο
πνευματικου
πνευματικω
πνευμονι
πνευμονικη
πνευσε
πνι
πνισμα
πνο
πνοη
πνον
πνος
πνου
πνω
πο
ποβα
ποβλε
ποδα
ποδε
ποδει
ποδες
ποδη
ποδηλα
ποδηλασι
ποδι
ποδιω
ποδο
ποδοσφαι
ποδοσφαιρικα
ποδοσφαιρικε
ποδοσφαιρικη
ποδοσφαιρικο
ποδοσφαιρικου
ποδοσφαιρικω
ποδοσφαιριστε
ποδοσφαιριστη
ποδοσφαιριστω
ποδου
ποδω
ποθα
ποθανει
ποθανο
ποθε
ποθνη
ποι
ποια
ποιας
ποιε
ποιει
ποιες
ποιη
ποιημα
ποιησα
ποιητε
ποιητη
ποιητικη
ποιητικο
ποιητω
ποικι
ποικιλι
ποικιλο
ποικιλομορφι
ποικοι
ποιμε
ποινα
ποινε
ποινη
ποινικη
ποινικο
ποινικου
ποιο
ποιοι
ποιον
ποιος
ποιου
ποιους
ποις
ποιω
ποιων
ποκα
ποκει
ποκειμε
ποκρι
ποκτει
πολ
πολα
πολαμβα
πολαυ
πολε
πολει
πολεμα
πολεμει
πολεμη
πολεμι
πολεμικα
πολεμικε
πολεμικη
πολεμικο
πολεμικου
πολεμικω
πολεμιστε
πολεμιστη
πολεμιστω
πολεμου
πολεμω
πολη
πολης
πολι
πολικο
πολιν
πολιο
πολιορκη
πολιορκημε
πολιορκι
πολιορκου
πολιου
πολις
πολιτει
πολιτειακη
πολιτειακο
πολιτειω
πολιτευ
πολιτικα
πολιτικε
πολιτικη
πολιτικο
πολιτικοι
πολιτικου
πολιτικω
πολιτισμικη
πολιτισμο
πολιτισμου
πολιτισμω
πολιτιστικα
πολιτιστικε
πολιτιστικη
πολιτιστικο
πολιτιστικου
πολιτιστικω
πολιτοφυλακη
πολιτω
πολλα
πολλαι
πολλαπλα
πολλαπλασια
πολλαπλασιασμο
πολλαπλε
πολλαπλη
πολλαπλο
πολλαπλω
πολλε
πολλη
πολλο
πολλοι
πολλου
πολλω
πολο
πολογι
πολογισμο
πολογισμου
πολυ
πολυα
πολυβο
πολυκατοικι
πολυμε
πολυνι
πολυπληθε
πολυπλοκο
πολυσυ
πολυτε
πολυτελε
πολυτελει
πολυτελη
πολυτεχνει
πολυτιμο
πολυω
πολωνι
πολωνικα
πολωνικε
πολωνικη
πολωνικο
πολωνικου
πολωνο
πολωνοι
πολωνου
πολωνω
πομα
πομαι
πομε
πομει
πομεν
πομερανι
πομπη
πομπηι
πον
πονα
πονει
πονη
πονηρα
πονηρι
πονηρο
πονο
ποντα
πονται
ποντας
ποντες
ποντι
ποντο
ποπ
ποπτος
πορ
πορει
πορευ
πορη
πορθμο
πορι
πορνει
πορου
πορτ
πορτο
πορτογα
πορτογαλι
πορτογαλικα
πορτογαλικη
πορτοκα
πορτοκαλι
πορτραι
πορτρε
πορφυ
πορω
πος
ποσα
ποσειδω
ποσι
ποσο
ποσοστα
ποσοστο
ποσου
ποστα
ποστε
ποστει
ποστη
ποστο
ποστρε
ποτ
ποτα
ποταμια
ποταμο
ποταμοι
ποταμου
ποταμω
ποτε
ποτη
ποτι
ποτο
ποτω
που
πουα
πουατιε
πουε
πουθενα
πουκα
πουλα
πουλη
πουλι
πουλια
πουλιω
πουλο
πουλος
πουλου
πουλω
πουμε
πουν
πους
πουσι
ποφα
ποφαι
ποχη
ποψη
ποψης
ππα
ππας
ππε
ππει
ππευ
ππη
ππι
ππο
πποι
ππον
ππος
ππου
ππους
ππω
ππων
πρ
πρα
πραγμα
πραγματει
πραγματευ
πραγματικα
πραγματικε
πραγματικη
πραγματικο
πραγματικου
πραγματικω
πραγματοποι
πραγματοποιει
πραγματοποιη
πραγματοποιηθει
πραγματοποιου
πραγματοποιω
πρακτικα
πρακτικε
πρακτικη
πρακτικο
πρακτικω
πρακτο
πρακτορει
πραντε
πραξαν
πραξε
πραξικο
πραξικοπη
πρας
πρασι
πρε
πρεβε
πρεμιε
πρεπε
πρεσβει
πρεσβευ
πρεσβευτη
πρεσβυ
πρεσβυτε
πρη
πρι
πρια
πριγκι
πριγκιπα
πριμε
πριν
πριο
πριοι
πριος
πριους
προ
προα
προαγωγη
προαι
προαιρε
προαναφε
προαναφερθε
προαυ
προβα
προβαι
προβαλλο
προβει
προβηγκι
προβιβα
προβλε
προβλεπο
προβλη
προβλημα
προβολε
προβολη
προγενε
προγο
προγρα
προγραμμα
προγραμματι
προγραμματισμε
προγραμματισμο
προγραμματισμου
προγραμματιστε
προγραμματιστει
προγραμματιστη
προδι
προδιαγραφε
προδο
προδοσι
προδρο
προε
προεδρει
προεδρευ
προεδρι
προεδρικε
προεδρικη
προεδρικο
προεδρικω
προει
προειδοποι
προειδοποιη
προειρημε
προεκλογικη
προεξε
προερχο
προετοιμα
προετοιμασι
προη
προηγει
προηγη
προηγηθει
προηγμε
προηγου
προηγουμε
προημιτελικα
προημιτελικη
προθε
προθεσμι
προθυ
προθυμι
προι
προκα
προκαθορισμε
προκαλε
προκαλει
προκαλου
προκαλω
προκατο
προκει
προκειμε
προκη
προκηρυ
προκλη
προκληθει
προκο
προκρι
προκριθει
προκριματικα
προκριματικη
προκριματικο
προκριματικου
προκριματικω
προκυ
προλα
προμαχω
προμη
προμηθε
προμηθευ
προν
προνο
προνοι
προνομι
προνυ
προξε
προξενει
προο
προοδευτικη
προοδευτικο
προοι
προοπτικε
προοπτικη
προορι
προοριζο
προορισμο
προορισμου
προπα
προπαγα
προπε
προπο
προπονη
προπονητε
προπονητη
προπονητικη
προπυ
προς
προσα
προσαγορευ
προσανατολισμε
προσανατολισμο
προσανατολισμου
προσαρμο
προσαρμογη
προσαρμοσμε
προσαρμοστει
προσαρτα
προσαρτη
προσβα
προσβολη
προσγει
προσγειω
προσδε
προσδι
προσδιορι
προσδιορισμο
προσδιοριστει
προσδο
προσδοκι
προσδοκω
προσε
προσεγγι
προσει
προσεκτικα
προσελκυ
προσευ
προσευχη
προση
προσθε
προσθη
προσιο
προσκα
προσκει
προσκεκλημε
προσκη
προσκλη
προσκο
προσκυ
προσκυνη
προσκυνητε
προσλα
προσλαμβα
προσλη
προσμε
προσο
προσομοι
προσοχη
προσπα
προσπαθει
προσπαθειω
προσπαθη
προσπαθου
προσπαθω
προσπε
προσπι
προστα
προστακτικη
προστασι
προστατε
προστατευ
προστατευμε
προστατευο
προστε
προστεθει
προστι
προστιθε
προσφε
προσφερο
προσφορα
προσφορε
προσφυ
προσφυγη
προσφω
προσχε
προσχω
προσχωρη
προσω
προσωνυ
προσωπικα
προσωπικε
προσωπικη
προσωπικο
προσωπικου
προσωπικω
προσωπογραφι
προσωρινα
προσωρινη
προσωρινο
προτα
προταθει
προτε
προτει
προτεινο
προτεκτορα
προτελευται
προτεραιο
προτεστα
προτεσταντικη
προτι
προτιμα
προτιμη
προτιμου
προτιμω
προτομη
προτου
προτρε
προτροπη
προτυ
πρου
προφα
προφανε
προφανη
προφανω
προφε
προφη
προφητει
προφητω
προφι
προφορα
προφορικη
προφορικο
προφυλα
προχω
προχωρα
προχωρη
προχωρημε
προχωρου
προω
προωθει
προωθη
προωθου
πρτ
πρυ
πρω
πρωθυπουργι
πρωθυπουργο
πρωθυπουργου
πρωι
πρωινη
πρωινο
πρωσι
πρωτα
πρωταγωνι
πρωταγωνιστε
πρωταγωνιστει
πρωταγωνιστη
πρωταγωνιστικο
πρωταγωνιστικου
πρωταγωνιστου
πρωταθλη
πρωταθλημα
πρωταθλητε
πρωταθλητη
πρωταθλητριω
πρωταρχικο
πρωτε
πρωτει
πρωτεργα
πρωτευ
πρωτι
πρωτο
πρωτοβα
πρωτοβουλι
πρωτογενη
πρωτοδικει
πρωτοεμφανι
πρωτοεμφανιζο
πρωτοι
πρωτοκο
πρωτοπο
πρωτοστα
πρωτοτυ
πρωτοχρονια
πτα
πται
πτε
πτει
πτειν
πτερα
πτερο
πτερυ
πτες
πτεσθαι
πτεται
πτη
πτηνα
πτηνο
πτηνου
πτηνω
πτης
πτιοι
πτιος
πτισμα
πτο
πτολεμαι
πτομαι
πτον
πτοντα
πτονται
πτονταν
πτοντας
πτοντες
πτου
πτουν
πτουσι
πτουσιν
πτυξαν
πτυξε
πτυξη
πτυξης
πτυχε
πτυχη
πτυχι
πτυχιου
πτυχο
πτω
πτων
πτως
πτωση
πτωσης
πτωχο
πυ
πυγμα
πυγμαχι
πυθαγο
πυθι
πυθμε
πυθο
πυκνα
πυκνη
πυκνο
πυκνοκατοικημε
πυλαι
πυλι
πυλω
πυνθα
πυξι
πυρ
πυρα
πυραμι
πυραυ
πυργι
πυρετο
πυρη
πυρηναι
πυρηνικη
πυρηνικο
πυρηνικου
πυρηνικω
πυρι
πυριτι
πυρκαγια
πυρκαγιε
πυρο
πυροβο
πυροβολει
πυροβολη
πυροβολικο
πυροβολικου
πυροβολισμου
πυροδο
πυρομαχικα
πυρομαχικω
πυρος
πυρπο
πυρπολη
πυρσο
πυρω
πχ
πω
πωλ
πωλει
πωλη
πωλητη
πωλου
πωμα
πων
πωνας
πωνες
πωρο
πως
πωσε
πωση
πωσης
ρ
ρα
ραβδι
ραβε
ραβες
ραβι
ραγγα
ραγδαι
ραγκαβη
ραδιο
ραδιοτηλεο
ραδιοτηλεοπτικο
ραδιοφω
ραδιοφωνι
ραδιοφωνικη
ραδιοφωνικο
ραδιοφωνικου
ραζε
ραι
ραιο
ραιος
ραις
ρακ
ρακα
ρακας
ρακι
ρακλε
ρακλει
ρακλη
ρακος
ραλντ
ραλφ
ραμ
ραμα
ραμε
ραμι
ραμο
ραν
ρανα
ρανε
ρανι
ραννος
ρανο
ρανου
ρανση
ραντ
ραντα
ραντεβου
ραντο
ρανω
ραξ
ραξε
ραξη
ραου
ραρε
ραρχος
ρας
ρασα
ρασαν
ρασε
ραση
ρασης
ρασι
ρασμα
ρατα
ρατο
ρατος
ραυ
ραφαε
ραφαη
ραφη
ραψωδι
ρβα
ρβαρντ
ρβαροι
ρβιν
ρβογλη
ρβοι
ρβος
ρβους
ρβων
ργα
ργανα
ργανη
ργανης
ργανο
ργας
ργασι
ργει
ργεια
ργειαν
ργειας
ργειες
ργη
ργημα
ργης
ργησαν
ργησε
ργηση
ργι
ργια
ργιο
ργιος
ργιου
ργκ
ργκα
ργκαν
ργκαρετ
ργκεν
ργκι
ργκο
ργο
ργοι
ργοις
ργον
ργος
ργου
ργουορντ
ργους
ργραβος
ργυ
ργυρι
ργυρο
ργυρος
ργω
ργων
ρδα
ρδας
ρδη
ρδης
ρδια
ρδισαν
ρδισε
ρδο
ρδος
ρδου
ρδους
ρδων
ρε
ρεα
ρεαλισμο
ρεγκον
ρεθη
ρεθυ
ρει
ρεια
ρειαν
ρειας
ρειες
ρειν
ρειο
ρειον
ρειος
ρειου
ρεις
ρεκ
ρεκο
ρελ
ρεμα
ρεμι
ρεμπε
ρεν
ρενα
ρενε
ρενς
ρεντ
ρεντς
ρεπερτο
ρεπορτα
ρερ
ρες
ρεσαν
ρεσε
ρεση
ρεσης
ρεσθαι
ρεσι
ρεσιν
ρεσις
ρετ
ρετα
ρεται
ρετε
ρετη
ρετο
ρετον
ρετος
ρετρο
ρετω
ρευ
ρευαν
ρευε
ρευμα
ρευνα
ρευνας
ρευνες
ρευσε
ρευση
ρευσης
ρευστο
ρεψε
ρεως
ρη
ρηγο
ρηδες
ρηκε
ρηκεν
ρημα
ρημε
ρημι
ρημο
ρημον
ρημος
ρην
ρηνανι
ρης
ρησα
ρησαν
ρησε
ρησεν
ρηση
ρησης
ρησιν
ρησις
ρητα
ρηται
ρητη
ρητι
ρητο
ρητορικη
ρητος
ρθα
ρθαν
ρθε
ρθει
ρθη
ρθηκα
ρθηκαν
ρθηκε
ρθια
ρθο
ρθουν
ρθουρ
ρθρ
ρθρα
ρθρο
ρθρον
ρθρου
ρθρων
ρθρωση
ρθρωσης
ρθω
ρθωμα
ρθωσαν
ρθωσε
ρθωση
ρθωσης
ρι
ρια
ριακο
ριαν
ριας
ριγμα
ριδα
ριδες
ριδος
ριε
ριες
ριζα
ριζαν
ριζε
ριζικα
ριζο
ριζοσπα
ριζοσπαστικη
ριζω
ριθμα
ριθμες
ριθμο
ριθμοι
ριθμος
ριθμου
ριθμους
ριθμω
ρικ
ρικα
ρικη
ρικο
ρικος
ριλ
ριλαντ
ριλλος
ριμα
ριμνα
ριμος
ριμπα
ριν
ρινα
ρινας
ρινγκ
ρινη
ρινθο
ρινθος
ρινο
ριντ
ριντα
ριξ
ριξαν
ριξε
ριξη
ριξης
ριο
ριοι
ριον
ριος
ριου
ριους
ριπι
ρις
ρισα
ρισαν
ρισας
ρισε
ρισεν
ριση
ρισης
ρισμα
ρισμε
ρισον
ρισσα
ριστα
ρισται
ριστει
ριστερα
ριστες
ριστη
ριστο
ριστοι
ριστον
ριστος
ριστοτε
ριτος
ριτς
ριτσα
ριχ
ριχα
ριχος
ριων
ρκ
ρκα
ρκας
ρκε
ρκει
ρκεια
ρκειας
ρκελ
ρκερ
ρκες
ρκεσε
ρκετ
ρκετινγκ
ρκη
ρκης
ρκησαν
ρκησε
ρκι
ρκικα
ρκο
ρκοι
ρκον
ρκος
ρκου
ρκους
ρκυρα
ρκυρας
ρκων
ρκωση
ρλα
ρλει
ρλι
ρλιν
ρλινγκ
ρλο
ρλος
ρμα
ρμακα
ρμακο
ρμακον
ρμαν
ρμανση
ρμανσης
ρμαρο
ρμας
ρματα
ρματος
ρμαχτ
ρμεν
ρμενι
ρμες
ρμη
ρμι
ρμιγχαμ
ρμιο
ρμο
ρμονι
ρμος
ρμοσε
ρμου
ρμουλα
ρμπα
ρμπαρα
ρμπερτ
ρμπι
ρμω
ρν
ρνα
ρνακα
ρνακας
ρναρντ
ρνας
ρνε
ρνει
ρνερ
ρνες
ρνεστ
ρνη
ρνης
ρνησε
ρνηση
ρνησης
ρνησις
ρνι
ρνια
ρνιας
ρνο
ρνολντ
ρνοντας
ρνος
ρνου
ρνουν
ρντ
ρντα
ρνταν
ρντεν
ρντι
ρντο
ρντον
ρνω
ρξ
ρξα
ρξαν
ρξατο
ρξε
ρξει
ρξεν
ρξη
ρξης
ρο
ροβε
ροβιτς
ρογη
ρογλου
ροδα
ροδι
ροδο
ροδρι
ροε
ροζ
ροζα
ροζε
ροη
ροι
ροια
ροιας
ροις
ροκ
ρολ
ρολα
ρολντ
ρολο
ρολογιου
ρολος
ρολου
ρομα
ρομαι
ρομαντικη
ρομαντικο
ρομε
ρομπ
ρομπε
ρομπο
ρον
ρονα
ροντα
ρονται
ρονταν
ροντας
ροντες
ροντο
ροντος
ροντρι
ροου
ροπη
ρος
ροστο
ρου
ρουα
ρουε
ρουθ
ρουμ
ρουμα
ρουμανι
ρουμανικα
ρουμανικη
ρουμε
ρουν
ρους
ρουσα
ρουσι
ρουσιν
ροφ
ροφο
ροφος
ροχο
ροχος
ρπα
ρπαξε
ρρα
ρρας
ρρε
ρρενες
ρρες
ρρευσε
ρρευση
ρρημα
ρρι
ρριψαν
ρριψε
ρριψη
ρρο
ρροια
ρρος
ρρου
ρρυ
ρρυνε
ρρυνση
ρρω
ρρωστος
ρς
ρσα
ρσαι
ρσαλ
ρσας
ρσει
ρσεις
ρσελ
ρσεν
ρσεναλ
ρσες
ρση
ρσης
ρσι
ρσκ
ρσκι
ρσον
ρσος
ρτ
ρτα
ρτας
ρτε
ρτεμις
ρτερ
ρτες
ρτζια
ρτζιο
ρτη
ρτημα
ρτην
ρτης
ρτησε
ρτηση
ρτησης
ρτητα
ρτητες
ρτητη
ρτητης
ρτητο
ρτητοι
ρτητος
ρτητου
ρτητων
ρτι
ρτια
ρτιγκ
ρτιμερ
ρτιν
ρτιο
ρτιος
ρτις
ρτιση
ρτισης
ρτλαντ
ρτλι
ρτο
ρτον
ρτος
ρτου
ρτους
ρτσα
ρτσιλ
ρτυρα
ρτυρας
ρτυρες
ρτυρος
ρτυς
ρτων
ρτωση
ρυ
ρυα
ρυβο
ρυβος
ρυγα
ρυγας
ρυγες
ρυγμα
ρυθμι
ρυθμικη
ρυθμο
ρυθμου
ρυκα
ρυκας
ρυνση
ρυξ
ρυξαν
ρυξε
ρυξη
ρυξης
ρφι
ρφια
ρφου
ρφωσε
ρφωση
ρφωσης
ρχα
ρχαι
ρχαν
ρχε
ρχει
ρχειν
ρχεν
ρχες
ρχεσθαι
ρχεται
ρχετο
ρχη
ρχης
ρχησε
ρχι
ρχιζε
ρχισαν
ρχισε
ρχο
ρχομαι
ρχομε
ρχον
ρχοντα
ρχονται
ρχονταν
ρχοντας
ρχοντες
ρχοντο
ρχοντος
ρχου
ρχουν
ρχους
ρχουσα
ρχουσες
ρχω
ρχων
ρω
ρωα
ρωας
ρωες
ρωθεν
ρωι
ρωμα
ρωμαι
ρωμαιοκαθολικη
ρωμανι
ρωμανο
ρωμανου
ρωμε
ρων
ρωνα
ρωναν
ρωνε
ρωνος
ρως
ρωσ
ρωσαν
ρωσε
ρωση
ρωσης
ρωσι
ρωσικα
ρωσικε
ρωσικη
ρωσικο
ρωσικου
ρωσικω
ρωσιν
ρωσο
ρωτα
ρωτας
ρωτη
ρωτο
ρωτος
ρωτω
ρωφ
ς
σ
σα
σαα
σαβα
σαββα
σαββατοκυ
σαββι
σαβι
σαβοι
σαγκα
σαι
σαιζο
σαιν
σαιντ
σαις
σαιτο
σακα
σακελλα
σακελλαρι
σακου
σαλα
σαλαμι
σαλβαδο
σαλε
σαλι
σαλο
σαλω
σαμ
σαμα
σαμαρα
σαμε
σαμεν
σαμι
σαμο
σαμοθρα
σαμουη
σαμουρα
σαμπα
σαν
σανα
σανδρος
σανε
σανι
σανου
σαντ
σαντα
σαντας
σαντες
σαντζα
σαντι
σαντια
σαντο
σαντορι
σαντος
σαξο
σαξονι
σαου
σαουδικη
σαρ
σαρα
σαραγο
σαραντα
σαρας
σαρδηνι
σαρι
σαρκι
σαρκο
σαρκοφα
σαρκω
σαρλ
σαρος
σαρω
σας
σασα
σασθαι
σασθε
σασι
σασιν
σατανα
σατε
σατο
σατρα
σαυ
σαυρος
σαφε
σαφει
σαφη
σαφω
σαχ
σαχα
σαχι
σβα
σβαση
σβασης
σβε
σβεις
σβη
σβης
σβιχ
σβο
σβου
σδε
σδη
σδυση
σε
σεαυτο
σεβα
σεβασμο
σεβασμου
σεβαστο
σεβαστου
σεβε
σεβει
σεβη
σεβι
σεβιτς
σεβω
σεγας
σεζα
σεζο
σει
σειε
σειεν
σειν
σειρα
σειρε
σειρη
σειρω
σεις
σεισμο
σεισμου
σεκ
σελ
σελα
σελευ
σελευκιδω
σελη
σελι
σελτζου
σεμε
σεμινα
σεμνο
σεμπα
σεμπαστια
σεν
σενα
σεναρι
σεναριογρα
σενε
σενεγα
σεντ
σεντα
σεξ
σεξουαλικα
σεξουαλικε
σεξουαλικη
σεξουαλικο
σεου
σεπτε
σεπτεμβρι
σερ
σερα
σεραφει
σερβι
σερβικα
σερβικη
σερβικο
σεργκε
σερε
σερι
σερρω
σες
σεσθαι
σεσθε
σεσι
σεσιν
σετ
σεται
σετε
σευ
σεφ
σεφε
σεω
σεων
σεως
ση
σηκουα
σηκω
σημ
σημα
σημαδευ
σημαι
σημαντικα
σημαντικε
σημαντικη
σημαντικο
σημαντικοι
σημαντικου
σημαντικω
σημασι
σημασιολογικο
σηματοδο
σηματοδοτει
σημει
σημειογραφι
σημειω
σημειωθει
σημερινα
σημερινε
σημερινη
σημερινο
σημερινου
σημερινω
σημες
σημη
σημης
σημο
σημοι
σημος
σημου
σημους
σημων
σην
σηπος
σης
σηται
σητε
σητει
σθ
σθα
σθαι
σθε
σθεν
σθενε
σθενει
σθενη
σθεσε
σθεση
σθετα
σθετες
σθετη
σθετο
σθη
σθηκαν
σθηκε
σθημα
σθην
σθησαν
σθηση
σθησης
σθησιν
σθησις
σθητα
σθητη
σθητο
σθητος
σθι
σθια
σθιο
σθω
σθωσαν
σι
σια
σιας
σιβηρι
σιγα
σιγη
σιγισμου
σιγκαν
σιγκαπου
σιγκτον
σιδε
σιδερε
σιδη
σιδηρα
σιδηρο
σιδηροδρο
σιδηροδρομικη
σιδηροδρομικο
σιδηροδρομικου
σιδηροδρομικω
σιδηρου
σιδω
σιε
σιες
σικα
σικελι
σικελιω
σικο
σικυω
σιλα
σιλεσι
σιμα
σιμες
σιμη
σιμης
σιμο
σιμοι
σιμον
σιμος
σιμου
σιμους
σιμων
σιμωνι
σιν
σινα
σινγκ
σινγκλ
σινγκτον
σινεμα
σινη
σινο
σινοι
σινος
σινου
σιντ
σιο
σιοι
σιον
σιος
σιου
σιους
σιππος
σιρα
σιρι
σιρο
σις
σισαν
σισε
σιτα
σιτηρω
σιτι
σιτο
σιτς
σιχ
σιω
σιων
σιωπη
σκ
σκα
σκαι
σκαλι
σκαλο
σκαλοι
σκαλοπα
σκαλος
σκανδα
σκανδιναβι
σκανδιναβικη
σκαρ
σκαρφα
σκαρφαλω
σκας
σκαφω
σκε
σκει
σκεια
σκειν
σκελετο
σκεπα
σκεπτικο
σκες
σκετ
σκεται
σκετο
σκευ
σκεφτει
σκεψη
σκεψης
σκη
σκην
σκηνε
σκηνη
σκηνικα
σκηνικο
σκηνοθε
σκηνοθεσι
σκηνοθετη
σκηνω
σκησε
σκηση
σκησης
σκι
σκια
σκιαδα
σκιε
σκιν
σκιπι
σκιω
σκλα
σκλη
σκληρα
σκληρε
σκληρη
σκληρο
σκληρου
σκληση
σκο
σκοι
σκολα
σκολες
σκολη
σκολο
σκολος
σκομαι
σκον
σκοντα
σκονται
σκονταν
σκοντας
σκοντες
σκοπει
σκοπευ
σκοπευτη
σκοπι
σκοπια
σκοπο
σκοποβολη
σκοποι
σκοπος
σκοπου
σκοπω
σκορ
σκορα
σκορπι
σκος
σκοτ
σκοτα
σκοτεινα
σκοτεινη
σκοτεινο
σκοτι
σκοτω
σκοτωθει
σκου
σκουλη
σκουμε
σκουν
σκουπι
σκουρο
σκους
σκυ
σκυλι
σκυλια
σκυρο
σκυταλοδρομι
σκω
σκων
σκωτι
σκωτσε
σλα
σλαβικη
σλαβομακεδονικα
σλαος
σλαφ
σλε
σλει
σληψη
σλι
σλο
σλοβα
σλοβακι
σλοβακικα
σλοβε
σλοβενι
σμα
σμαν
σμαρα
σμαρκ
σματα
σματι
σματος
σμε
σμεν
σμευση
σμη
σμηση
σμι
σμια
σμιας
σμιες
σμιθ
σμικρο
σμιο
σμιος
σμιου
σμιων
σμο
σμον
σμος
σμου
σμους
σμυ
σμω
σμων
σνα
σνευ
σνο
σο
σοβαρα
σοβαρε
σοβαρη
σοβαρο
σοβαρω
σοβιε
σοβιετικα
σοβιετικε
σοβιετικη
σοβιετικο
σοβιετικοι
σοβιετικου
σοβιετικω
σοβο
σοδα
σοδο
σοδος
σοι
σοις
σοκ
σοκολα
σολ
σολι
σολομω
σομαι
σομαλι
σομε
σομεν
σον
σονα
σονται
σοντας
σοπρα
σορβο
σορο
σος
σοσιαλδημοκρατικο
σοσιαλισμο
σοσιαλισμου
σοσιαλιστε
σοσιαλιστικη
σοσιαλιστικο
σοσιαλιστικου
σου
σουα
σουαφ
σουαχι
σουδα
σουε
σουζα
σουηδι
σουηδικα
σουηδικη
σουηδικο
σουηδο
σουι
σουλει
σουλι
σουλιω
σουλτα
σουλτανα
σουμα
σουμε
σουν
σουνε
σουνι
σους
σουσα
σουσι
σουσιν
σουτ
σοφ
σοφα
σοφι
σοφιστη
σοφο
σοφοι
σοφοκλη
σοφος
σοφου
σοφω
σοψη
σπ
σπα
σπαθι
σπαθια
σπανα
σπανι
σπανιο
σπανο
σπαρα
σπαρτα
σπαρτια
σπαρτιατω
σπασαν
σπασε
σπαση
σπασης
σπασμα
σπασμε
σπαστο
σπε
σπει
σπειροειδη
σπερ
σπευ
σπευσε
σπη
σπηλαι
σπηλια
σπηλιε
σπι
σπισε
σπιση
σπιτα
σπιτιου
σπιτιω
σπλα
σπλιτ
σπο
σποινα
σπονδα
σπονδυλικη
σπορ
σπορα
σποτα
σπου
σπουδα
σπουδαι
σπουδαιο
σπουδαστε
σπουδαστη
σπουδε
σπουδη
σπουδω
σπρα
σπρι
σπρο
σπρω
σπυ
σπυρι
σραη
σρε
σρι
σσ
σσα
σσαι
σσαν
σσαου
σσαρα
σσαρας
σσαρες
σσας
σσδ
σσει
σσεια
σσειν
σσελ
σσεξ
σσερα
σσερεις
σσερις
σσες
σσεται
σση
σσης
σσι
σσια
σσιας
σσιες
σσιο
σσιος
σσιου
σσιων
σσο
σσομαι
σσον
σσονα
σσονται
σσονταν
σσοντας
σσος
σσου
σσουν
σσυρι
σσω
σσων
στ
στα
σταγο
σταδι
σταδιακα
σταδιακη
σταδιοδρομι
σταθει
σταθερα
σταθερε
σταθερη
σταθερο
σταθεροποι
σταθερου
σταθμικο
σταθμο
σταθμοι
σταθμου
σταθμω
σται
σταλει
σταμα
σταμαι
σταματα
σταματελα
σταματη
σταματου
σταμε
σταν
στανι
σταντ
στανται
σταντο
σταρ
σταρκ
στας
στασε
σταση
στασης
στασθαι
στασι
στασιν
στασις
στατ
στατα
σταται
στατη
στατιστικα
στατιστικε
στατιστικη
στατιστικοι
στατιστικω
στατο
στατον
στατος
στατου
σταυ
σταυρι
σταυρο
σταυροδρο
σταυρος
σταυρου
σταυροφο
σταυροφορι
σταυρω
σταφι
σταφυ
στε
στεγα
στει
στεια
στειλαν
στειλε
στειλεν
στειο
στελε
στελεχω
στεν
στενα
στενε
στενη
στενο
στενου
στενω
στερ
στερα
στεραι
στερε
στερεα
στερει
στερεο
στερες
στερεω
στερη
στερης
στερητικο
στερια
στερν
στερο
στεροι
στερον
στερος
στερου
στερους
στερων
στες
στευαν
στευε
στευσαν
στευσε
στευση
στευσης
στεφα
στεφανι
στεφανο
στεψε
στεως
στη
στηβ
στηκα
στηκαν
στηκε
στηκεν
στημα
στην
στηρι
στηριζο
στης
στησαν
στησε
στησεν
στηση
στησης
στησι
στι
στια
στιαν
στιβ
στιβα
στιγμε
στιγμη
στιγμιαι
στιες
στικα
στικη
στικο
στικος
στιλ
στιμο
στιν
στιο
στιος
στιου
στις
στισε
στιχο
στιχουργο
στο
στοα
στοε
στοι
στοις
στοιχα
στοιχει
στοιχειω
στοιχες
στοιχη
στοιχο
στοιχος
στοιχων
στοκ
στοκχο
στολε
στολη
στολι
στολο
στολοι
στολος
στομα
στομος
στον
στορ
στορα
στορας
στοργη
στορει
στορι
στορικη
στορικο
στοριω
στορος
στος
στοτε
στου
στους
στουτγκα
στοφερ
στοχα
στοχευ
στρα
στραμμε
στρας
στρασβου
στρατα
στρατει
στρατευ
στρατευμα
στρατη
στρατηγει
στρατηγι
στρατηγικε
στρατηγικη
στρατηγικο
στρατηγο
στρατηγοι
στρατηγου
στρατηγω
στρατια
στρατιω
στρατιωτικα
στρατιωτικε
στρατιωτικη
στρατιωτικο
στρατιωτικοι
στρατιωτικου
στρατιωτικω
στρατιωτω
στρατο
στρατοδικει
στρατοι
στρατολο
στρατοπε
στρατοπεδευ
στρατος
στρατου
στρατω
στραφει
στρε
στρεμμα
στρες
στρεφε
στρεψαν
στρεψε
στρεψεν
στρι
στρια
στριας
στριες
στρο
στρογγυλη
στρογγυλο
στρον
στρος
στρου
στροφα
στροφε
στροφη
στροφο
στροφος
στρω
στρωμα
στρων
στρωση
στυ
στυλ
στυλι
στυλιανο
στυλιανου
στω
στων
στωρ
στως
στωσαν
στωσε
στωση
συ
συγγε
συγγενε
συγγενει
συγγενη
συγγενικα
συγγενω
συγγνω
συγγρα
συγγραφε
συγγραφει
συγγραφη
συγγραφικο
συγκα
συγκατα
συγκαταλε
συγκε
συγκεκριμε
συγκεντρω
συγκεντρωθει
συγκεντρωμε
συγκι
συγκλη
συγκλι
συγκοινωνι
συγκοινωνιω
συγκομιδη
συγκρατου
συγκρι
συγκριτικα
συγκριτικη
συγκριτικο
συγκρο
συγκροτει
συγκροτη
συγκροτου
συγκρου
συγχαρητη
συγχε
συγχρο
συγχρονικα
συγχω
συγχωνευ
συγχωρει
συγχωρη
συζη
συζητη
συζητου
συζυ
συζυγι
συλλα
συλλαβη
συλλαβισμο
συλλαμβα
συλλε
συλλη
συλληφθει
συλλο
συλλογε
συλλογη
συλλογι
συλλογικα
συλλογικη
συλλογικο
συλλογισμο
συλλογω
συλο
συμβα
συμβαι
συμβαλλο
συμβατικη
συμβατο
συμβε
συμβεβηκο
συμβει
συμβη
συμβι
συμβιβασμο
συμβο
συμβολαι
συμβολη
συμβολι
συμβολικη
συμβολισμο
συμβου
συμβουλε
συμβουλευ
συμβουλευτικη
συμβουλη
συμβουλι
συμεω
συμεωνι
συμμα
συμμαχη
συμμαχι
συμμαχικε
συμμαχικη
συμμαχικω
συμμετα
συμμετε
συμμετει
συμμετεχο
συμμετοχε
συμμετοχη
συμμετοχω
συμμετρι
συμμο
συμμορι
συμμορφω
συμπα
συμπαγη
συμπαι
συμπαρα
συμπατριω
συμπε
συμπερα
συμπεραι
συμπεριε
συμπεριλα
συμπεριλαμβα
συμπεριλαμβανο
συμπεριλαμβανομε
συμπεριλη
συμπεριληφθει
συμπεριφε
συμπεριφορα
συμπεριφορε
συμπι
συμπλε
συμπλη
συμπληρω
συμπλοκη
συμπο
συμπολιτει
συμποσι
συμπρωταγωνι
συμπτω
συμπτωμα
συμφε
συμφερο
συμφιλι
συμφιλιω
συμφορα
συμφω
συμφωνει
συμφωνη
συμφωνι
συμφωνικη
συμφωνιω
συμφωνου
συν
συνα
συναγερμο
συναγωγη
συναδε
συναθροι
συναι
συναισθη
συναισθηματικη
συναλλαγε
συναλλαγη
συναλλαγω
συναντα
συναντη
συναντου
συναντω
συναρτη
συνασπισμο
συνασπισμου
συναυλι
συναυλιω
συνδε
συνδεδεμε
συνδεθει
συνδεο
συνδια
συνδικα
συνδρο
συνδρομη
συνδυ
συνδυα
συνδυασμε
συνδυασμο
συνδυασμου
συνε
συνεδρι
συνεδρια
συνει
συνειδητοποι
συνειδητοποιει
συνεισε
συνεισφε
συνεισφορα
συνεισφορε
συνεκδοχικα
συνελευ
συνελη
συνεννο
συνεντευ
συνενω
συνεπα
συνεπω
συνεργα
συνεργαζο
συνεργασι
συνεργαστει
συνεργατω
συνεργει
συνεταιρισμο
συνετε
συνετρι
συνεχε
συνεχει
συνεχη
συνεχι
συνεχιζο
συνεχιστει
συνεχο
συνεχου
συνεχω
συνη
συνηθε
συνηθι
συνηθισμε
συνηρημε
συνθε
συνθετικο
συνθετω
συνθη
συνθηκολο
συνθηκω
συνι
συνιδρυτη
συνιστα
συνιστου
συνιστω
συνο
συνοδει
συνοδευ
συνοδευο
συνοικι
συνοικισμο
συνολικα
συνολικε
συνολικη
συνολικο
συνολικου
συνομιλι
συνομοσπονδι
συνοπτικη
συνορευ
συνουσι
συνοχη
συνοψι
συντα
συνταγε
συνταγη
συνταγματα
συνταγματαρχω
συνταγματικη
συνταγματικο
συνταγματικου
συντακτικη
συντακτικο
συντακτω
συνταξιοδο
συνταξιου
συντε
συντελε
συντελει
συντελεστε
συντελεστη
συντεταγμε
συντεχνι
συντη
συντηρητικη
συντηρητικο
συντηρητικου
συντο
συντομι
συντομο
συντομογραφι
συντονι
συντονισμε
συντονισμο
συντονισμου
συντρι
συντριβη
συντριπτικη
συντρο
συντροφια
συνυ
συνυπα
συνω
συνωμο
συνωμοσι
συρ
συρακοσι
συρακου
συρακουσω
συρε
συρι
συριακη
συριακο
συριζα
συρρα
συρση
συσκευασι
συσκευε
συσκευη
συσκευω
συσσω
συσσωρευ
συστα
συσταθει
συστατικα
συστατικο
συστατικω
συστη
συστημα
συστηματικα
συστηματικη
συστολη
συσχε
συσχετι
συχα
συχη
συχι
συχνα
συχνε
συχνη
συχνο
συχνοτη
συχος
σφα
σφαγε
σφαγη
σφαγια
σφαι
σφαιρα
σφαιρας
σφαιρο
σφαλε
σφαλει
σφατα
σφατες
σφατη
σφατο
σφε
σφερε
σφετε
σφετεριστη
σφη
σφι
σφο
σφοδρη
σφοδρο
σφραγι
σφυ
σφυγες
σφυρι
σφω
σχα
σχας
σχατον
σχε
σχεδι
σχεδια
σχεδιασμε
σχεδιασμο
σχεδιασμου
σχεδιαστε
σχεδιαστει
σχεδιαστη
σχεδο
σχει
σχειν
σχεν
σχεση
σχεται
σχετι
σχετιζο
σχετικα
σχετικε
σχετικη
σχετικο
σχετικου
σχετικω
σχετο
σχευση
σχη
σχημα
σχηματι
σχηματισμο
σχηματισμου
σχηματιστει
σχημη
σχημος
σχης
σχι
σχισε
σχο
σχοι
σχοινι
σχολα
σχολε
σχολει
σχολη
σχολι
σχολια
σχολιαστη
σχολικα
σχολικη
σχολικο
σχολω
σχον
σχος
σχου
σχουν
σχρο
σχυ
σχυε
σχυρα
σχυρο
σχυσε
σχυση
σχυσης
σω
σωζο
σωθει
σωθη
σωκρα
σωλη
σωμα
σωματει
σωματι
σωματιδι
σωματικα
σωματικη
σωματοφυ
σωμεν
σων
σωπα
σωπο
σωποι
σωπον
σωπος
σωρο
σως
σωσε
σωση
σωσης
σωσι
σωσιν
σωστα
σωστη
σωστο
σωτη
σωτηρι
σωφρο
σωφροσυ
τ
τα
ταβε
ταγμα
ταγματα
ταζε
ται
ταια
ταινι
ταινιοθη
ταινιω
ταιρια
ταις
τακτα
τακτικα
τακτικε
τακτικη
τακτικο
τακτικου
τακτικω
ταλ
ταλα
ταλαιπωρι
ταλαντου
ταλε
ταλι
ταλιμπα
ταλλα
ταλλο
ταμα
ταμει
ταμι
ταμο
ταμος
ταμπα
ταμπλο
ταμπου
ταν
τανα
τανε
τανζανι
τανης
τανο
τανος
ταξαν
ταξε
ταξεν
ταξη
ταξης
ταξι
ταξια
ταξιαρχι
ταξιαρχω
ταξιδε
ταξιδευ
ταξιδιου
ταξιδιω
ταξινο
ταξινομηση
ταξινομου
ταπει
ταπεινο
ταπεινω
ταπισερι
ταρ
ταρα
ταραγμε
ταραντι
ταραχε
ταραχη
ταραχω
ταρι
ταροι
ταρτα
ταρτη
ταρτης
ταρτο
ταρτον
ταρτος
ταρτου
ταρχος
τας
τασε
ταση
τασης
τασμα
τατα
τατες
τατζικιστα
τατη
τατης
τατια
τατο
τατοι
τατον
τατος
τατου
τατουα
ταυ
ταυτι
ταυτο
ταυτοποι
ταφη
ταφικο
ταχε
ταχει
ταχυ
ταχυδρο
ταχυδρομει
ταχυδρομικο
ταχυτη
τδβκ
τε
τεγο
τεθει
τεθωρακισμε
τει
τεια
τειας
τειες
τειναν
τεινε
τειο
τειος
τειρα
τειρας
τειχω
τεκε
τεκμη
τεκμηρι
τεκμηριω
τεκμηριωμε
τεκνος
τελ
τελε
τελει
τελειο
τελειω
τελεσι
τελεστη
τελετε
τελετη
τελετουργι
τελετουργικο
τελευ
τελευτα
τελευται
τελευτη
τελευτω
τελικα
τελικε
τελικη
τελικο
τελικου
τελικω
τελου
τελω
τελωνει
τεμα
τεμε
τεν
τενι
τενο
τεντ
τεο
τερ
τερα
τεραι
τεργε
τερε
τερες
τερη
τερης
τερμα
τερματι
τερματικο
τερματισμο
τερματοφυ
τερνταμ
τερο
τεροι
τερον
τερος
τερου
τερους
τερς
τερων
τες
τεσσα
τεσσαρα
τεστ
τετα
τεταγμε
τεταμε
τετρα
τετραγω
τετραγωνικα
τετραγωνικο
τετραγωνικω
τετρακο
τετρακοσι
τευ
τευγμα
τευε
τευμα
τευξη
τευσαν
τευσε
τευση
τευσης
τεχερα
τεχνα
τεχνητα
τεχνητη
τεχνητο
τεχνι
τεχνικα
τεχνικε
τεχνικη
τεχνικο
τεχνικου
τεχνικω
τεχνολογι
τεχνολογικη
τεχνολογικο
τεχνολογιω
τεχνοτροπι
τεχνω
τζ
τζα
τζαβε
τζαζ
τζαι
τζακ
τζαμα
τζαμι
τζαν
τζανε
τζε
τζεκτ
τζερ
τζερς
τζετ
τζεφ
τζη
τζης
τζι
τζια
τζιμ
τζιν
τζιο
τζιοβα
τζο
τζοβα
τζον
τζορτζ
τζος
τζου
τζουζε
τζουμε
τζω
τζων
τζωρτζ
τη
τηγο
τηγος
τηγου
τηδες
τηι
τηκαν
τηκε
τηλε
τηλεγρα
τηλεθε
τηλενουβε
τηλεο
τηλεοπτικα
τηλεοπτικε
τηλεοπτικη
τηλεοπτικο
τηλεοπτικου
τηλεοπτικω
τηλεπικοινωνι
τηλεπικοινωνιω
τηλεσκο
τηλεταινι
τηλεφω
τηλεφωνι
τηλικαυ
τηλικου
τημα
την
τηνικαυ
τηρ
τηρει
τηρη
τηρου
της
τησα
τησαν
τησε
τησεν
τηση
τησης
τησιν
τησις
τητα
τητας
τητε
τητες
τητη
τητι
τητο
τητος
τθοι
τθους
τθων
τι
τια
τιας
τιβε
τιδα
τιδας
τιδες
τιδος
τιες
τιζαν
τιζε
τιθε
τικ
τικα
τικες
τικη
τικης
τικο
τικοι
τικος
τικου
τικων
τιμ
τιμα
τιμε
τιμες
τιμη
τιμηθει
τιμημε
τιμητικη
τιμητικο
τιμι
τιμο
τιμον
τιμος
τιμου
τιμω
τιμωρει
τιμωρη
τιμωρι
τιμωρου
τιν
τινα
τινας
τινγκ
τινγκεν
τινε
τινες
τινι
τινο
τινος
τινω
τινων
τιο
τιοι
τιον
τιος
τιου
τιους
τιρα
τις
τισαν
τισε
τιση
τισης
τισι
τισμα
τισσα
τισσας
τιστα
τιστος
τιτα
τιτλο
τιτουλα
τιφλι
τιων
τκα
τλ
τλας
τλερ
τλο
τλοι
τλος
τλου
τλους
τλων
τμαν
τμη
τμημα
τμπολ
τνικ
το
τοι
τοια
τοιας
τοιαυ
τοιες
τοικοι
τοικος
τοιμα
τοιμη
τοιμο
τοιμοι
τοιμος
τοιο
τοιοι
τοιος
τοιου
τοις
τοισι
τοιχογραφι
τοιχω
τοιων
τοκος
τοκρα
τολε
τολμα
τολμη
τολμηρο
τολμω
τομ
τομα
τομε
τομει
τομη
τομο
τομογραφι
τομος
τομπα
τον
τονα
τονε
τονες
τονι
τονικο
τονο
τονος
τοντας
τοξι
τοξικο
τοξο
τοπ
τοπα
τοπι
τοπικα
τοπικε
τοπικη
τοπικο
τοπικοι
τοπικου
τοπικω
τοπο
τοπογραφι
τοποθε
τοποθεσι
τοποθετει
τοποθετη
τοποθετηθει
τοποθετημε
τοποθετου
τοποθετω
τοποι
τοπολογι
τοπον
τοπος
τοπου
τοπους
τοπωνυ
τορ
τορα
τορας
τορες
τορι
τορο
τορος
τος
τοσαυ
τοσι
τοσκα
τοσου
τοτε
του
τουαλε
τουλα
τουλου
τουμε
τουν
τουρ
τουρι
τουρισμο
τουρισμου
τουριστικα
τουριστικη
τουριστικο
τουρκι
τουρκικα
τουρκικε
τουρκικη
τουρκικο
τουρκικου
τουρκικω
τουρκμενιστα
τουρκοκρατι
τουρκοκυ
τουρνουα
τους
τουτε
τουφε
τοφ
τοχο
τοχοι
τοχος
τρ
τρα
τραβα
τραβη
τραβου
τραγικη
τραγικο
τραγου
τραγουδα
τραγουδη
τραγουδι
τραγουδιου
τραγουδιστε
τραγουδιστη
τραγουδιω
τραγουδοποιο
τραγουδου
τραγουδω
τραγω
τραγωδι
τραι
τραμ
τραμπ
τραν
τρανσυλβανι
τραπε
τραπεζι
τραπεζικο
τραπεζου
τραπεζω
τρας
τραυ
τραυμα
τραυματι
τραυματισμε
τραυματισμο
τραυματισμου
τραχει
τραχη
τραχυ
τρε
τρει
τρεις
τρελο
τρεξε
τρεπαν
τρεπε
τρες
τρεχε
τρεψαν
τρεψε
τρη
τρης
τρησε
τρηση
τρησης
τρι
τρια
τριακο
τριακοσι
τριαντα
τριανταφυ
τριανταφυλλι
τριας
τριβη
τριγυ
τριγω
τριες
τριετι
τριη
τρικ
τρικα
τρικου
τριλογι
τρινα
τρινες
τρινη
τρινο
τρινος
τριο
τριον
τριος
τριου
τριπλη
τριπλο
τριπλου
τριπο
τριπολιτσα
τρισδια
τρισεκατομμυ
τρισι
τριτοβα
τριφυλι
τριχ
τριχω
τριψε
τριω
τρο
τροβιτς
τροι
τροιζη
τρομα
τρομερο
τρομοκρα
τρομοκρατι
τρομοκρατικη
τρον
τροπα
τροπαι
τροπη
τροπικη
τροπικο
τροπο
τροποποι
τροποποιη
τροποποιημε
τροπος
τρος
τρου
τρους
τροφε
τροφη
τροφι
τροφοδοσι
τροφοδοτει
τροφοδοτου
τροφω
τροχαι
τροχια
τροχιε
τροχο
τροχου
τρυ
τρυφερο
τρυφη
τρω
τρωικο
τρων
τς
τσ
τσα
τσαι
τσακ
τσακι
τσαντ
τσαρλς
τσαρντ
τσαρτ
τσας
τσε
τσελ
τσεν
τσερ
τσες
τσεχι
τσεχικα
τσεχικη
τσεχοσλοβακι
τση
τσης
τσι
τσια
τσιγα
τσιγγα
τσικα
τσικος
τσιμε
τσιν
τσιο
τσιφλι
τσκ
τσκα
τσκι
τσκοκ
τσμοντ
τσο
τσον
τσος
τσου
τσουαφ
τσουνα
τσσκα
τσω
ττα
τταν
τταρα
τταρο
ττας
ττει
ττειν
ττελσμπαχ
ττες
ττεσθαι
ττεται
ττη
ττης
ττητος
ττι
ττικη
ττιν
ττιση
ττο
ττον
ττοντας
ττοντες
ττουν
ττους
ττω
ττωμα
ττων
τυ
τυγχα
τυλι
τυλιγμε
τυνησι
τυπα
τυπες
τυπη
τυπικα
τυπικη
τυπικο
τυπο
τυπογραφει
τυπογραφι
τυπογραφικο
τυποποι
τυποποιημε
τυπος
τυπου
τυπω
τυπωμε
τυρα
τυραννι
τυρι
τυρο
τυφλο
τυφλω
τυφω
τυχαι
τυχαν
τυχε
τυχει
τυχεν
τυχη
τυχι
τυχο
τυχου
τυχω
τχ
τω
τωθεν
τωθι
τωι
τωμα
των
τωνα
τωνας
τωνος
τωπα
τωπο
τωπος
τωρ
τως
τωσαν
τωσε
τωση
τωσης
υ
υα
υγει
υγειονομικη
υγιεινη
υγιη
υγρα
υγρασι
υγρη
υγρο
υγρου
υγρω
υδα
υδατοσφαι
υδρα
υδραγωγει
υδρι
υδρο
υδρογο
υδρογονα
υεμε
υι
υιο
υιοθε
υιοθετει
υιοθετη
υιου
υλικα
υλικη
υλικο
υλικου
υλικω
υλοποι
υλοποιη
υντ
υο
υπ
υπα
υπαγο
υπαι
υπακου
υπαλλη
υπασπιστη
υπε
υπεγρα
υπενθυμι
υπερ
υπερα
υπερασπι
υπερασπιστε
υπερασπιστει
υπερβαι
υπερβολη
υπερβολικα
υπερβολικη
υπερβολικο
υπερε
υπερη
υπερηφα
υπεριω
υπεροχη
υπερπο
υπευ
υπη
υπηκο
υπηκοο
υπηρε
υπηρεσι
υπηρεσιακη
υπηρεσιακο
υπηρεσιω
υπηρετει
υπηρετη
υπηρετου
υπηρετω
υπο
υποβα
υποβιβα
υποβιβασμο
υποβιβασμου
υποβιβαστει
υποβλη
υποβληθει
υποβολη
υποβρυ
υποβρυχι
υπογρα
υπογραμμι
υπογραφε
υπογραφη
υποδε
υποδει
υποδεικνυ
υποδηλω
υποδιαι
υποδιαιρε
υποδομε
υποδομη
υποδομω
υποδοχε
υποδοχει
υποδοχη
υποδυ
υποδυο
υποει
υποθαλα
υποθε
υποθετικη
υποκατα
υποκει
υποκο
υποκοριστικο
υποκριτικη
υπολει
υπολο
υπολογι
υπολογισμο
υπολογισμου
υπολογιστε
υπολογιστει
υπολογιστη
υπολογιστικη
υπολογιστω
υπολοι
υπολοχαγο
υπομονη
υπονοει
υποομα
υποστει
υποστη
υποστηρι
υποστηριζο
υποστηρικτε
υποστηρικτη
υποστηρικτω
υποστρα
υποσυ
υποσχε
υποσχεθει
υποσχο
υποτα
υποταγη
υποτακτικη
υποτε
υποτελει
υποτελη
υποτι
υποτιθε
υποτροφι
υπουργει
υπουργικη
υπουργικο
υπουργικου
υπουργο
υπουργοι
υπουργου
υπουργω
υποφε
υποχρε
υποχρεου
υποχρεω
υποχρεωμε
υποχρεωτικα
υποχρεωτικη
υποχω
υποχωρη
υποχωρου
υποψη
υποψηφι
υποψηφιο
υποψι
υποψια
υς
υστε
υφα
υφασμα
υφη
υφι
υφιστα
υφυπουργο
υψηλα
υψηλε
υψηλη
υψηλο
υψηλου
υψηλω
υψι
υψο
υψω
φ
φα
φαβορι
φαγε
φαγητο
φαγητου
φαι
φαιν
φαινο
φαινομε
φαινομενικα
φακε
φακο
φακου
φαλα
φαλακρο
φαλη
φαλο
φαλος
φαμε
φαμεν
φαν
φανα
φανε
φανει
φανερα
φανερο
φανερω
φανη
φανι
φανο
φανον
φανος
φανου
φαντα
φαντας
φαντασι
φανταστικη
φανταστικο
φαντες
φαντος
φαρα
φαραω
φαρισαι
φαρμα
φαρμακει
φαρμακευτικη
φαρσα
φας
φασαν
φαση
φασης
φασι
φασιν
φασις
φασμα
φασματικο
φασο
φατρι
φαυ
φε
φεβρουα
φεβρουαρι
φεγγα
φει
φεια
φειλε
φειν
φεις
φεκ
φελει
φελι
φελο
φελος
φεν
φενε
φεντερι
φεξη
φερ
φερα
φεραν
φερδινα
φερε
φερεν
φερνα
φερνε
φερο
φερομε
φερον
φερρα
φερω
φες
φεση
φεσθαι
φεστιβα
φεται
φευ
φευγαν
φευγε
φη
φηβος
φηκαν
φηκε
φημα
φημερι
φημη
φημι
φημισμε
φημο
φημος
φην
φηνε
φης
φησαν
φησε
φηση
φησης
φησι
φησιν
φθα
φθαι
φθαλμο
φθαλμοι
φθαλμου
φθαλμω
φθασαν
φθασε
φθε
φθει
φθη
φθηκαν
φθηκε
φθηνο
φθησαν
φθι
φθινο
φθιω
φθο
φθονα
φθορα
φθορι
φι
φια
φιας
φιγου
φιε
φιζε
φικο
φιλ
φιλα
φιλαδε
φιλανθρωπι
φιλαρμονικη
φιλε
φιλει
φιλελευ
φιλελευθε
φιλη
φιλι
φιλια
φιλικα
φιλικε
φιλικη
φιλικο
φιλικου
φιλιππι
φιλιππου
φιλμ
φιλντ
φιλο
φιλοδοξι
φιλοθε
φιλοι
φιλολογι
φιλολογικη
φιλολογικο
φιλοξε
φιλοξενει
φιλοξενη
φιλοξενι
φιλοξενου
φιλος
φιλοσο
φιλοσοφι
φιλοσοφικε
φιλοσοφικη
φιλοσοφικο
φιλοτε
φιλοτεχνη
φιλοτιμι
φιλου
φιλω
φιλων
φιμα
φιν
φινα
φιναλι
φινλανδι
φινλανδικα
φινλανδικη
φινλανδο
φιξη
φιο
φιοι
φιος
φιου
φιους
φις
φισαν
φισε
φιση
φισμα
φκ
φκα
φλα
φλαμανδικη
φλαμανδο
φλε
φλεγμονη
φλι
φλο
φλοιο
φλοιου
φλω
φλωρεντι
φμαν
φνη
φνης
φο
φοβα
φοβει
φοβερα
φοβερο
φοβη
φοβι
φοβο
φοβος
φοβου
φοι
φοινι
φοιτη
φοιτητε
φοιτητη
φοιτητικη
φοιτητω
φοιτος
φοιτου
φομαι
φον
φονευ
φοντα
φονται
φονταν
φοντας
φορ
φορα
φορε
φορει
φορες
φορεσια
φορη
φορμη
φορντ
φορο
φοροι
φορολογι
φορολογικη
φορον
φορος
φορου
φορους
φορτ
φορτηγα
φορτηγο
φορτι
φορτισμε
φορτω
φορτωμε
φορω
φορων
φος
φου
φουα
φουν
φους
φρ
φρα
φραγκι
φραγκοκρατι
φραγμα
φραι
φρανκ
φρανκφου
φρανς
φρανσι
φρανσουα
φραντς
φραντσε
φρασαν
φρασε
φραση
φρασης
φρε
φρεγα
φρειδερι
φρεντ
φρεντερι
φρη
φρι
φριτς
φρο
φροδι
φρον
φρονα
φρονει
φρονη
φρονι
φρονου
φροντι
φροντιστη
φροσυ
φρου
φρουρα
φρουρι
φρουρο
φρουρου
φρουρω
φρυ
φρυγι
φρων
φσκα
φσκι
φτα
φται
φταναν
φτανε
φτασαν
φτασε
φτε
φτει
φτερα
φτες
φτεται
φτη
φτηκαν
φτηκε
φτης
φτια
φτιαγμε
φτιαξε
φτουν
φτω
φτωχη
φτωχο
φτωχου
φτωχω
φυ
φυγα
φυγαν
φυγε
φυγεν
φυγη
φυγο
φυγον
φυκε
φυκεν
φυλα
φυλακε
φυλακη
φυλακι
φυλακισμε
φυλακω
φυλε
φυλετικη
φυλη
φυλλα
φυλλο
φυλλος
φυλω
φυματι
φυρα
φυρας
φυρες
φυση
φυσικα
φυσικε
φυσικη
φυσικο
φυσικοι
φυσικου
φυσικω
φυσιογνωμι
φυσιολογι
φυσιολογικα
φυσιολογικη
φυσιολογικο
φυτα
φυτει
φυτευ
φυτο
φυτος
φυτου
φυτρω
φυτω
φω
φωκα
φωκι
φωλια
φωλιε
φωμα
φων
φωνα
φωνε
φωνες
φωνη
φωνητικα
φωνητικη
φωνο
φωνοι
φωνος
φωνους
φωνων
φως
φωση
φωστη
φωσφο
φωτεινη
φωτεινο
φωτι
φωτια
φωτισμο
φωτισμου
φωτο
φωτογρα
φωτογραφι
φωτογραφικη
φωτογραφικο
φωτογραφιω
χ
χα
χαβα
χαθει
χαι
χαιοι
χαιου
χαιρε
χαιω
χαλ
χαλα
χαλανδρι
χαλδαι
χαλε
χαλεπο
χαλεπω
χαλι
χαλιφα
χαλκηδο
χαλκι
χαλκιδικη
χαλκο
χαλκου
χαμ
χαμα
χαμε
χαμηλα
χαμηλε
χαμηλη
χαμηλο
χαμηλου
χαμηλω
χαμι
χαμο
χαν
χανα
χανε
χανι
χανια
χανο
χανος
χανς
χαντα
χαρ
χαρα
χαραγμε
χαρακτη
χαρακτηρι
χαρακτηριζο
χαρακτηρισμε
χαρακτηρισμο
χαρακτηριστει
χαρακτηριστικα
χαρακτηριστικε
χαρακτηριστικη
χαρακτηριστικο
χαρακτηριστικω
χαρακτικα
χαρακτικη
χαραλα
χαραυγη
χαρε
χαρη
χαρης
χαρι
χαρντ
χαρου
χαρτ
χαρτι
χαρτια
χαρτιου
χαρτο
χαρτογρα
χαρτονομι
χας
χασα
χασαν
χασε
χασι
χατ
χατζη
χατζιδα
χε
χει
χεια
χειας
χειες
χειμα
χειμερινη
χειμερινο
χειμερινου
χειμω
χειν
χειρα
χειρι
χειρισμο
χειριστη
χειρο
χειρογρα
χειροκι
χειρονομι
χειροποι
χειροσφαι
χειροτε
χειροτονη
χειροτονι
χειρουργικη
χειρουργο
χειρω
χεις
χελιδο
χελω
χεν
χερ
χερα
χεριου
χεριω
χερσαι
χερσι
χερσο
χερσονη
χες
χεσθαι
χεται
χετε
χετο
χετται
χευση
χη
χημα
χημει
χημεια
χημικα
χημικε
χημικη
χημικο
χημικου
χημικω
χην
χης
χησαν
χησε
χηση
χθαι
χθε
χθες
χθη
χθηκαν
χθηκε
χθης
χθησαν
χθο
χθονες
χθρο
χθροι
χθρου
χθρω
χθυ
χι
χια
χιζε
χιλ
χιλη
χιλι
χιλια
χιλιετι
χιλιο
χιλιομε
χιλιομετρικε
χιλιοστα
χιλιοστο
χιλιοστω
χιλλε
χιλλευ
χιμε
χιο
χιον
χιονα
χιονιου
χιονο
χιος
χιου
χιουζ
χισαν
χισε
χιση
χιστα
χιστες
χιστη
χιστο
χιστοι
χιστον
χιτω
χιω
χλη
χληση
χλμ
χλο
χλος
χλω
χλωρι
χλωριου
χμ
χμα
χμαλω
χμιο
χνα
χνας
χνει
χνες
χνεται
χνευση
χνη
χνην
χνης
χνησε
χνοντας
χνος
χνουν
χνω
χο
χοενστα
χοεντσο
χοι
χοις
χολ
χολε
χολη
χολμς
χομαι
χομε
χομεν
χον
χονγκ
χοντα
χονται
χονταν
χοντας
χοντες
χοντι
χοντο
χοντος
χοντρο
χορδε
χορδη
χορευ
χορευτη
χορη
χορηγει
χορηγη
χορηγι
χορηγο
χορηγου
χορν
χορο
χοροι
χορος
χορου
χορτα
χορωδι
χος
χοσε
χοσρο
χου
χουα
χουμε
χουν
χους
χουσα
χουσαι
χουσαν
χουσει
χουσες
χουσι
χουσιν
χρ
χρα
χρε
χρει
χρεια
χρειαζο
χρειαστει
χρεω
χρη
χρημα
χρηματι
χρηματικη
χρηματικο
χρηματιστη
χρηματοδο
χρηματοδοτει
χρηματοδοτη
χρηματοδοτου
χρησα
χρηση
χρησι
χρησιμευ
χρησιμο
χρησιμοποι
χρησιμοποιει
χρησιμοποιη
χρησιμοποιηθει
χρησιμοποιηθου
χρησιμοποιου
χρησιμοποιω
χρησμο
χρηστα
χρηστη
χρηστο
χρηστω
χρι
χρις
χριστι
χριστιανικα
χριστιανικε
χριστιανικη
χριστιανικο
χριστιανικου
χριστιανικω
χριστιανισμο
χριστιανισμου
χριστιανο
χριστιανοι
χριστιανου
χριστιανω
χριστο
χριστοδου
χριστου
χριστουγε
χριστουγεννια
χριστω
χρο
χρονα
χρονη
χρονης
χρονια
χρονιε
χρονικα
χρονικε
χρονικη
χρονικο
χρονικογρα
χρονικου
χρονικω
χρονο
χρονογρα
χρονολο
χρονολογει
χρονολογι
χρονολογικη
χρονολογου
χρονος
χρονου
χρονω
χρυ
χρυσα
χρυσε
χρυση
χρυσι
χρυσο
χρυσοστο
χρυσου
χρυσω
χρω
χρωμα
χρωματισμο
χρωμε
χρωμη
χρωμο
χρωμος
χρωμοσω
χτα
χτας
χτε
χτενσται
χτερ
χτες
χτη
χτηκαν
χτηκε
χτης
χτι
χτισαν
χτισε
χτισμε
χτιστει
χτυ
χτυλα
χτυλο
χτυπα
χτυπη
χτυπου
χτυπω
χυ
χυδαι
χυμο
χυνση
χυρο
χυτη
χυτο
χω
χωμα
χων
χωρα
χωρει
χωρη
χωρητικο
χωρι
χωρια
χωρικοι
χωρικου
χωρικω
χωριο
χωριου
χωρισμε
χωρισμο
χωριστα
χωριω
χωρο
χωρου
χωροφυλακη
χωρω
χωρων
χως
χωση
ψ
ψα
ψαι
ψαλι
ψαλμο
ψαμε
ψαν
ψανα
ψαντες
ψαρα
ψαριω
ψαρο
ψας
ψασθαι
ψατε
ψατο
ψε
ψει
ψεις
ψεται
ψετε
ψευ
ψευδα
ψευδει
ψευδη
ψευδο
ψευδω
ψεων
ψεως
ψη
ψηλα
ψηλη
ψηλο
ψηλου
ψης
ψηφ
ψηφι
ψηφιακα
ψηφιακε
ψηφιακη
ψηφιακο
ψηφιακου
ψηφιακω
ψηφιδωτα
ψηφοδε
ψηφοφο
ψηφοφορι
ψι
ψιλον
ψιμη
ψιμο
ψιν
ψις
ψο
ψος
ψου
ψουμε
ψουν
ψους
ψτε
ψυ
ψυγει
ψυχα
ψυχαγωγι
ψυχαι
ψυχε
ψυχη
ψυχι
ψυχιατρικη
ψυχικα
ψυχικη
ψυχικο
ψυχο
ψυχολο
ψυχολογι
ψυχολογικη
ψυχος
ψυχρα
ψυχρο
ψυχρου
ψυχω
ψω
ψωμα
ψωμι
ψωση
ω
ωα
ωβε
ωδει
ωδη
ωδι
ωι
ωκε
ωκεα
ωκεανι
ωκεανο
ωκεανου
ωμα
ωμαι
ων
ωνα
ωναν
ωνας
ωνε
ωνες
ωνι
ωνος
ωξαν
ωξε
ωξη
ωξης
ωρα
ωραι
ωραιο
ωρες
ωρη
ωρι
ωριμα
ωρο
ωρος
ωρω
ως
ωσα
ωσαν
ωσε
ωσεν
ωση
ωσης
ωσι
ωσιν
ωσις
ωστο
ωτα
ωτες
ωτη
ωτο
ωτος
ωφε
ϕ
ϛ
ϝ
ϵ
а
б
большая
в
г
года
д
е
з
за
и
к
л
м
матч
н
на
населения
о
п
по
р
россии
с
советская
т
у
украі
ф
х
ъ
ь
энциклопедия
ю
я
і
է
ְ
ִ
ֵ
ַ
ָ
ֹ
ּ
ׁ
א
ב
ה
י
ל
מ
ר
ש
،
ا
ب
ة
د
ر
س
ل
م
ن
و
ي
َ
ُ
ِ
ّ
ْ
ٓ
ٔ
ٕ
ं
क
ग
त
द
न
प
म
य
र
ल
व
श
स
ह
ा
ि
ी
ु
ू
े
ो
्
ক
দ
ন
ব
র
ল
়
া
ি
ু
ে
্
ா
ி
்
ั
ิ
ี
ุ
่
้
་
က
င
ပ
မ
ာ
ိ
ု
ေ
း
်
ြ
្
᾽
᾿
῾
​
‌
‎
‐
‑
–
—
―
‖
‘
’
“
”
„
†
•
…
‬
′
″
‹
›
※
‿
⁂
⁄
⁡
₁
₂
₃
€
ℏ
ℓ
№
™
←
↑
→
↓
↔
↪
↷
⇄
⇒
⇔
⇘
∀
∂
∃
∆
∇
∈
∏
∑
−
∗
∘
∙
√
∞
∣
∧
∨
∩
∪
∫
∼
≃
≈
≡
≤
≥
⊂
⊆
⋅
⋆
⋮
⋯
⌘
③
④
⑦
─
│
├
△
►
◄
◊
☎
♀
♂
♦
♭
⟨
⟩
⟵
⟶
⠁
⠃
⠉
⠊
⠑
⠓
⠙
⠚
⠛
⠼
⺀
⺄
⺆
⺈
⺊
⺌
⺕
⺝
⺸
⺼
⿰
⿱
⿲
⿳
⿴
⿵
⿶
⿷
⿸
⿹
⿺
⿻
、
。
〈
〉
《
》
「
」
〢
い
う
お
か
き
く
こ
さ
し
す
た
つ
て
と
な
に
の
は
ま
み
も
ら
り
る
れ
を
ん
゙
゚
ア
ィ
イ
ウ
オ
カ
キ
ク
ケ
コ
サ
シ
ス
タ
チ
ッ
テ
ト
ナ
ニ
ハ
ヒ
フ
ヘ
ホ
マ
ム
メ
ャ
ユ
ラ
リ
ル
レ
ロ
ン
・
ー
㇁
㇂
㇄
㇇
㇈
㇉
㇓
㐁
㐄
㐅
㐌
㐫
㐬
㐭
㐮
㐱
㑒
㒵
㒸
㒼
㓁
㓞
㔾
㕛
㕣
㖾
㘝
㚅
㚇
㚔
㚘
㝉
㝡
㝴
㝵
㞋
㞢
㞷
㠩
㠭
㠯
㡀
㡭
㡿
㢲
㢴
㣇
㣺
㥯
㪅
㫄
㫐
㫒
㫺
㬅
㬎
㬥
㬰
㲋
㳄
㷠
㸒
㸚
㸦
㼌
㼲
㽞
㿟
䀠
䂞
䍃
䏍
䒑
䖍
䖒
䖝
䖵
䙴
䚻
䜌
䝿
䡛
䧹
䪞
一
丁
丂
七
丄
丅
丆
万
丈
三
上
下
丌
不
与
丏
丐
丑
专
且
丕
世
丘
丙
业
东
丞
丢
丣
两
严
並
丨
丩
个
丫
丬
中
丮
丰
丱
串
丵
丶
丷
丸
丹
为
主
丽
丿
乀
乂
乃
久
乆
乇
么
义
之
乌
乍
乎
乏
乐
乑
乔
乖
乗
乘
乙
乚
乛
乜
九
乞
也
习
乡
乳
乾
亀
亅
了
亇
予
争
事
二
亍
于
亏
亐
云
互
亓
五
井
亘
亚
亜
亞
亟
亠
亡
亢
交
亥
亦
产
亨
亩
享
京
亭
亮
亯
亰
亲
亳
亶
亷
人
亻
亼
亾
仁
今
介
仌
从
仐
仑
仒
仓
仕
他
付
仝
代
令
以
任
企
伊
伏
伐
休
会
伯
但
位
何
佘
余
作
佥
使
來
侈
侌
侖
侯
侵
便
保
俞
信
修
倉
倍
候
倠
備
僉
僕
儿
兀
允
兂
元
兄
充
兆
兇
先
光
兊
克
兌
免
兑
兒
兓
兔
党
兜
兟
入
全
兩
兪
八
公
六
兮
兰
共
关
兵
其
具
典
兹
兼
冀
冂
冃
冄
内
冈
冉
冊
冋
册
再
冎
冏
冐
冒
冓
冖
冗
冘
军
农
冝
冡
冥
冫
冬
冷
几
凡
凢
凵
凶
凷
凸
凹
出
函
凾
刀
刁
刂
刃
刄
刅
分
切
刍
刑
刕
刖
列
刘
则
初
別
利
别
到
制
刺
則
削
剌
前
剡
剽
劉
力
功
加
劦
助
劫
劳
劵
勃
勇
勉
勒
動
務
勞
勤
勹
勺
勻
勾
勿
匀
匂
包
匆
匈
匊
匋
匍
匕
化
北
匚
匝
匡
匪
匱
匸
匹
区
医
匽
匿
區
十
卂
千
卄
卅
卆
升
午
卉
半
卌
华
卑
卒
卓
单
卖
南
卜
卝
卞
占
卡
卢
卣
卤
卦
卩
卪
卬
卯
印
危
即
却
卵
卷
卸
卻
厂
厃
厄
历
厈
厉
厌
厓
厘
厚
原
厤
厥
厨
厭
厲
厶
厷
厸
去
厼
厽
叀
参
參
叅
又
叉
及
友
双
反
叐
发
叒
叔
叕
取
受
叚
叜
叟
口
古
句
另
叩
只
召
可
台
叱
史
右
叵
号
司
叹
吂
各
吅
合
吉
吊
吋
同
名
后
吏
向
吕
君
吝
吞
否
含
启
吳
吴
吹
吾
呂
呆
呈
告
员
呙
周
命
咅
和
咎
咠
咢
咨
咸
咼
哀
品
哉
員
哥
哲
唐
商
啇
問
啚
啬
啻
善
喜
喬
單
喿
嗇
噩
嚴
囊
囗
囘
囙
囚
四
回
囟
因
囧
囬
困
囱
囷
固
国
圂
圅
國
圍
圓
土
圡
圣
圥
在
圭
地
圶
圼
坐
坒
坚
坴
垂
垔
垚
埀
埋
城
埶
執
基
堂
堅
堆
堇
堯
塞
墨
壘
士
壬
壯
声
壳
壴
壹
壺
壽
夂
处
夅
夆
备
夊
夋
夌
复
夏
夒
夕
外
夗
夘
多
夜
夢
大
夨
天
太
夫
夬
夭
央
失
夲
头
夷
夸
夹
夻
夾
奂
奄
奇
奈
奉
奎
奏
奐
契
奓
奔
奚
奞
奠
奢
奥
奭
女
奴
奻
好
如
妄
妙
妟
妥
妻
妾
姑
委
姜
威
娄
婁
婴
嬰
嬴
子
孑
孔
孕
孖
字
存
孚
孛
孝
孟
季
孤
学
孫
孱
學
宀
宁
宂
它
宅
宇
守
安
宋
完
宏
宓
宗
官
定
宛
宜
宝
客
宣
室
宮
宰
害
家
容
宾
宿
寄
寅
密
富
寒
察
寧
審
寫
寬
寮
寸
对
寺
寻
寽
対
寿
封
尃
射
将
將
專
尉
尊
尋
尌
對
小
少
尒
尓
尔
尖
尗
尚
尞
尢
尣
尤
尧
尨
尭
就
尸
尹
尺
尻
尼
尽
尾
尿
局
居
屈
屋
屎
屏
屑
展
屖
屚
属
屠
屡
屬
屮
屯
屰
山
屵
屾
岁
岂
岑
岡
岩
岳
岸
峯
島
崇
崑
崔
崖
崙
崩
嵬
嶲
巂
巛
川
州
巟
巠
巢
巤
工
左
巧
巨
巩
巫
差
己
已
巳
巴
巷
巸
巽
巾
巿
帀
市
布
希
帚
帛
帝
带
師
席
帶
常
干
平
年
幵
并
幷
幸
幺
幻
幼
幽
幾
广
広
庄
床
底
店
庚
府
度
座
庫
庭
庶
康
庸
廉
廌
廛
廣
廩
廴
延
廷
建
廾
廿
开
弁
弃
弄
弇
弋
式
弓
弔
引
弗
弘
弜
弟
弥
弦
弱
張
強
强
彊
彌
彎
彐
彑
当
彔
录
彖
彗
彡
形
彥
彦
彧
彭
彳
役
彼
往
待
律
徒
得
徙
從
復
微
徵
心
忄
必
忌
忍
志
忝
忠
忩
快
念
忽
忿
思
怠
急
怱
恆
恒
恩
恭
息
悉
患
悤
悲
悶
惠
惡
惢
愁
愈
意
愛
感
慈
慧
慮
憂
憲
應
戀
戈
戉
戊
戋
戌
戍
戎
成
我
戒
戔
或
戚
戠
戢
截
戲
戶
户
戹
戼
戾
房
所
扁
扇
手
扌
才
打
托
执
承
折
拉
拜
拿
掌
推
提
摩
支
攴
攵
收
攸
改
放
政
敄
敏
敕
敖
敗
教
敝
敞
敢
散
敦
敫
敬
数
敷
數
斂
文
斉
斊
斗
斤
斥
斩
斬
斯
新
方
於
施
斿
旁
旋
族
无
旡
既
旣
日
旦
旧
旨
早
旬
旱
旲
时
旾
昆
昇
昌
昍
明
昏
易
昔
昗
昜
星
春
昬
是
昱
昴
昷
時
晃
晋
晏
普
景
晶
智
暑
暴
曇
曩
曰
曲
曳
更
曷
書
曹
曼
曾
替
最
朁
會
月
有
朋
服
朔
朕
朗
望
朝
木
朩
未
末
本
札
朮
术
朱
朵
朶
朿
杀
杏
杜
束
条
来
東
杲
杳
松
析
林
枚
果
枝
枲
枼
某
柔
查
柬
柰
柴
栗
桀
桑
桼
梁
條
梟
梨
棘
棠
棥
森
楚
業
楽
榮
樂
樊
欠
次
欣
欮
欲
欶
欽
款
歆
歇
歛
止
正
此
步
武
歨
歪
歮
歯
歰
歲
歴
歷
歸
歹
歺
死
殳
段
殷
殸
殹
殺
殻
殿
毋
毌
母
每
毒
比
毕
毚
毛
毳
氏
氐
民
气
氣
水
氵
氶
氷
永
氺
氾
求
汝
汞
江
沃
沓
沙
沝
泉
法
波
泣
泥
泰
洛
洪
活
派
流
浦
浪
浮
海
淡
淮
清
渚
渠
湯
滿
漸
火
灬
灭
灰
灵
灷
炅
炎
炏
炗
炙
炭
為
烈
烏
烝
焉
無
焦
焱
然
煞
熊
熏
燕
營
燮
爪
爫
爭
爯
爰
爱
爲
爵
父
爻
爽
爾
爿
片
版
牙
牚
牛
牜
牟
牢
牧
物
牪
牽
犀
犬
犭
犮
狂
狄
狊
独
狺
猋
猒
猪
献
獻
玄
率
玉
王
玟
玨
珎
班
琴
瑟
瑩
瓜
瓦
甘
甚
生
産
用
甫
甬
田
由
甲
申
电
甶
男
甸
甹
画
甾
畀
界
畏
畐
留
畜
畟
畢
畧
畨
番
畫
異
畱
當
畺
畾
疊
疋
疌
疑
疒
疾
癶
癸
癹
登
發
白
百
皀
皃
的
皆
皇
皋
皐
皕
皮
皷
皿
盃
盆
盇
盈
益
盍
盎
监
盒
盖
盛
盡
監
盤
盧
目
直
相
盾
省
眇
眉
看
眔
眞
真
眷
眼
眾
着
睘
睪
睿
瞏
瞢
瞿
矍
矛
矞
矢
矣
知
矦
短
石
破
碎
磊
磨
示
礻
礼
社
神
祟
票
祭
禀
禁
禸
禹
禺
离
禽
禾
禿
秀
秃
秉
秋
科
秝
秦
移
稟
穀
穌
穴
究
穹
空
穿
突
窄
窒
立
竒
竜
竝
竟
章
童
竹
笑
笠
第
筆
等
答
箕
算
箴
節
篤
篭
米
粉
粛
粟
粤
粦
粲
糞
糸
糹
系
約
納
素
索
紫
累
細
絜
絫
絲
維
綿
縣
繇
纍
纟
缶
网
罒
罔
罕
罗
罙
罡
罢
罪
署
罷
羅
羊
羌
羍
美
羔
羕
羗
羞
羡
羣
群
義
羲
羸
羽
翁
翏
習
翕
翟
翠
翼
老
耂
考
者
耆
而
耎
耑
耒
耳
耴
耶
耷
聂
聊
聖
聚
聶
聿
肀
肃
肅
肉
肖
肙
肥
肩
肯
育
肴
胃
背
胡
胥
能
脊
脩
膚
臣
臤
臧
自
臬
臭
臯
臱
至
致
臺
臼
臽
臾
臿
舀
舂
舄
與
興
舉
舌
舍
舛
舜
舞
舟
般
艮
良
色
艸
艹
艾
芒
芔
芬
芮
花
芳
芺
芻
苔
苗
苟
若
苦
英
茶
茸
荅
草
荒
荣
荼
莆
莧
莫
莽
菆
菊
菐
華
萬
落
葉
著
葛
董
葵
蒙
蒦
蒼
蓋
蓬
蓺
蔑
蔡
蕉
蕭
薄
薛
薦
薰
藍
藏
藥
蘭
虍
虎
虐
虒
虔
處
虖
虗
虘
虚
虛
虜
虞
虫
虽
蚤
蚩
蜀
蜜
蟲
蠡
血
行
衍
衛
衣
衤
表
衮
衰
袁
袞
褭
褱
襄
襾
西
覀
要
覃
見
規
覓
覧
親
覽
见
角
解
言
訁
訇
計
詹
語
誩
諸
讠
谷
豆
豈
豊
豐
豕
豖
豙
象
豦
豩
豪
豸
貇
貝
貞
貟
負
貢
貧
貪
貫
責
貳
貴
買
費
賁
資
賈
賏
賓
賔
賛
賞
賢
賣
質
賴
贊
贝
贡
责
贯
贲
贵
赖
赞
赤
赦
走
越
足
路
蹇
身
躬
車
軍
軎
軟
輦
车
辛
辜
辟
辥
辰
辱
農
辵
辶
边
达
过
近
连
迷
追
退
送
逆
逐
通
速
造
逢
連
逮
進
遀
遂
過
道
達
遣
適
遷
遺
邊
邑
邕
那
邦
邪
郎
部
郭
都
鄉
酉
酋
配
酓
釆
采
里
重
野
量
金
釒
錢
钅
長
镸
长
門
閃
閉
開
閏
閑
閒
間
閔
閵
閻
闌
门
间
闷
阑
阜
阝
阿
降
院
陳
隆
隊
隋
隡
隨
隱
隶
隹
隺
隻
隼
隽
难
雀
雁
集
雈
雋
雍
雐
雔
雙
雚
雜
雝
離
難
雨
雩
雪
雲
零
雷
需
霍
霜
霝
霞
霸
靈
靑
青
非
靡
面
靣
革
韋
韦
韭
韯
韱
音
頁
頃
項
須
頗
頡
頻
顛
页
風
风
飛
飞
食
飠
養
饣
首
香
馬
馮
駦
马
骨
高
髟
鬥
鬯
鬲
鬼
魚
魯
鮮
鱼
鲁
鳥
鳳
鸟
鹵
鹿
麃
麗
麥
麦
麻
黃
黄
黍
黎
黑
黒
黨
黹
黽
黾
鼎
鼓
鼠
鼻
齊
齋
齐
齒
齿
龍
龙
龜
龟
龠
龰
龱
龴
龵
龶
龷
龸
龹
者
艹
﻿
！
（
）
，
：
？
￼
𠀁
𠀃
𠀆
𠀉
𠀎
𠀐
𠁁
𠁣
𠂆
𠂇
𠂈
𠂉
𠂊
𠂋
𠂎
𠂒
𠂔
𠂛
𠂡
𠂢
𠂤
𠂬
𠂭
𠂹
𠃊
𠃋
𠃌
𠃍
𠃎
𠃑
𠃓
𠃔
𠃜
𠄌
𠄎
𠄠
𠄢
𠆢
𠆥
𠇍
𠈌
𠌵
𠓜
𠔉
𠔥
𠔼
𠔽
𠔿
𠕀
𠕁
𠕋
𠘧
𠘨
𠙻
𠙼
𠚏
𠚒
𠚤
𠚪
𠣏
𠤎
𠤕
𠥓
𠦄
𠦑
𠦝
𠧒
𠧗
𠧪
𠩺
𠪚
𠫓
𠫔
𠫤
𠬛
𠬝
𠬞
𠬢
𠬤
𠬶
𠮛
𠮦
𠮷
𠯑
𠱠
𠳮
𠷎
𡈼
𡉀
𡉵
𡌥
𡍮
𡏳
𡕒
𡕩
𡕰
𡖅
𡗗
𡗜
𡘆
𡘤
𡧱
𡨄
𡩧
𡬠
𡭽
𡰣
𡰥
𡰪
𡰯
𡰱
𡷈
𡸁
𡿨
𡿩
𡿪
𡿺
𢀖
𢀛
𢀩
𢁙
𢆉
𢆰
𢆶
𢇁
𢇇
𢉖
𢌬
𢌿
𢏚
𢑑
𢑚
𢖻
𢙣
𢛳
𢦏
𢦒
𢧵
𢼄
𢾕
𣁋
𣄼
𣅀
𣅽
𣍘
𣎳
𣎵
𣏋
𣏼
𣗥
𣥂
𣥖
𣦵
𣦼
𣧄
𣪊
𣪠
𣬉
𣳾
𣶒
𤇾
𤊽
𤐫
𤓰
𤔔
𤕨
𤣩
𤰇
𤰔
𤰞
𤴓
𤴔
𤽄
𥁑
𥁕
𥃦
𥃩
𥃭
𥇡
𥑟
𥘅
𥘈
𥝢
𥫗
𥱡
𦈢
𦉪
𦉬
𦉼
𦍌
𦍒
𦎧
𦐇
𦓔
𦔮
𦘒
𦙃
𦚏
𦣝
𦣞
𦣻
𦥑
𦥔
𦥯
𦨉
𦭝
𦰩
𧆞
𧈧
𧘇
𧰨
𧴪
𧴮
𧵩
𧾷
𨸏
𨾴
𩙿
𩠐
𩫏
𩵋
𪉷
𪜀
𪟽
𪠲
𪩲
𫇦
𫔭
𫜸
𫝀
𫠣
𫠩
𫢉
𫥞
𫩏
𫩠
𫪡
𫲽
𫶧
𬀷
𬐘
𬗌
𬙙
𬛸
𬜯
𬟩
𬯁
𬴘
𬺻
𬼉
𬼖
𭀰
𭁈
𭁨
𭅰
𭑈
𭕄
𭗼
𭤨
𭥫
𭻾
𮅕
𮊿
𮍌
𮍏
𮓗
𮥼
𮧮
廾
𰀁
𰀄
𰀈
𰀉
𰀕
𰀠
𰀡
𰀢
𰀪
𰁜
𰃮
𰆊
𰆘
𰋙
𰕎
𰢴
𰧭
𰯲
00--
01--
02--
03--
04--
05--
06--
07--
08--
09--
119--
146--
417--
51--
52--
54--
55--
56--
57--
58--
59--
60--
61--
62--
63--
64--
65--
66--
67--
68--
69--
70--
71--
72--
73--
74--
75--
76--
77--
78--
79--
80--
81--
82--
83--
84--
85--
86--
87--
88--
89--
90--
91--
92--
93--
94--
95--
96--
97--
978--
98--
99--
a--
aa--
ab--
abo--
ac--
acci--
achi--
activ--
ad--
adap--
adel--
ae--
aero--
af--
ag--
ago--
ah--
ai--
air--
aj--
ak--
al--
alek--
ali--
all--
am--
an--
ana--
and--
ang--
ant--
anti--
any--
ap--
apo--
app--
aqu--
ar--
arca--
arch--
argen--
arm--
art--
as--
ash--
assi--
astr--
at--
athe--
athl--
au--
aus--
auto--
av--
ax--
ay--
az--
b--
ba--
back--
bag--
bal--
ban--
bapt--
bar--
bas--
batt--
bau--
be--
beau--
bel--
ben--
ber--
bi--
bib--
bibli--
bil--
bin--
bio--
biogra--
bir--
bird--
bis--
bit--
bla--
ble--
bli--
blo--
bo--
bol--
bon--
bor--
bot--
bou--
bour--
bow--
box--
br--
brad--
bras--
brit--
bro--
bru--
bu--
bud--
bund--
bundes--
bur--
but--
by--
byza--
c--
ca--
cal--
cale--
camb--
can--
cap--
car--
cas--
cat--
cau--
ce--
cele--
cent--
cere--
cert--
cf--
ch--
cha--
che--
chi--
cho--
chry--
chu--
ci--
city--
ck--
cl--
cle--
clif--
clo--
clus--
cn--
co--
col--
com--
compo--
con--
contr--
copy--
cor--
corn--
cos--
cou--
cr--
crist--
crit--
cro--
cru--
cry--
cs--
ct--
cu--
cur--
cy--
cycl--
cz--
d--
da--
dan--
dar--
daw--
de--
decla--
defe--
dek--
del--
dem--
den--
der--
des--
deter--
deve--
di--
dia--
diff--
dig--
dio--
dipl--
disa--
disc--
diss--
dj--
do--
don--
dor--
dou--
dr--
du--
dw--
dy--
dyna--
dz--
e--
ea--
eb--
ebo--
ec--
ed--
ee--
ef--
effi--
eg--
ei--
eigh--
ein--
ek--
el--
elec--
elem--
elli--
em--
emer--
emi--
en--
end--
eng--
ep--
epid--
equ--
er--
es--
est--
et--
ety--
eu--
eur--
euro--
ev--
ew--
ex--
exam--
expe--
expl--
expo--
f--
fa--
fan--
far--
fau--
favo--
fe--
fer--
fi--
film--
fin--
fir--
fire--
fitz--
fla--
fle--
fli--
flo--
flu--
fo--
fol--
font--
for--
foren--
four--
fr--
fra--
fre--
fred--
free--
frie--
fried--
fru--
fu--
full--
fun--
g--
ga--
gala--
gall--
game--
gar--
gas--
gau--
ge--
gen--
geo--
ger--
get--
gi--
gil--
gio--
gir--
giu--
gla--
glo--
gno--
go--
god--
gold--
good--
gor--
gou--
gr--
gra--
green--
griechi--
grif--
grim--
gro--
gros--
gu--
guil--
gun--
gy--
h--
ha--
hal--
han--
happ--
har--
hard--
has--
hat--
hau--
haw--
hay--
hc--
he--
head--
hed--
hel--
hen--
her--
heu--
hi--
high--
hil--
his--
hit--
hl--
ho--
hol--
home--
hor--
how--
hr--
hrvat--
hu--
hur--
hy--
hydr--
hyper--
i--
ia--
ic--
ice--
id--
iden--
ideo--
ie--
if--
ig--
il--
illu--
illust--
im--
imag--
in--
inc--
incor--
indi--
indust--
infe--
influ--
inhi--
insp--
instru--
inter--
inve--
invi--
io--
ip--
ir--
is--
iso--
it--
iv--
j--
ja--
jahrhund--
jan--
je--
jen--
jo--
jor--
jou--
joy--
jp--
ju--
jud--
k--
ka--
kar--
kara--
kata--
kath--
ke--
ken--
key--
kha--
ki--
kim--
kit--
kla--
kle--
klu--
kno--
ko--
kons--
kos--
kra--
kre--
kri--
kru--
ku--
kw--
ky--
l--
la--
lab--
lamb--
lau--
laure--
law--
lay--
le--
leg--
legis--
len--
les--
ley--
li--
lib--
life--
lin--
lind--
lingu--
lith--
ll--
lo--
lock--
long--
lou--
lt--
lu--
luft--
lux--
ly--
m--
ma--
mac--
mad--
mag--
main--
mal--
mala--
mamm--
man--
manif--
manu--
mar--
mas--
mau--
max--
maz--
mb--
mc--
md--
me--
mecha--
med--
mel--
memo--
men--
mer--
mes--
met--
meta--
meteoro--
mexi--
mi--
micr--
micro--
mid--
mik--
mil--
milit--
min--
mira--
mit--
mittel--
ml--
mm--
mn--
mo--
moha--
mon--
monas--
mor--
mos--
mou--
moy--
mp--
mu--
multi--
my--
myste--
n--
na--
narra--
nat--
nau--
nc--
nd--
ne--
neder--
neo--
nes--
net--
neu--
neuro--
new--
news--
ng--
nh--
ni--
nie--
nige--
niko--
no--
non--
nor--
north--
ns--
nt--
nu--
nuo--
ny--
o--
ob--
obs--
obser--
oc--
od--
of--
og--
oh--
ok--
ol--
olim--
oliv--
oly--
olymp--
olympia--
om--
on--
op--
open--
or--
os--
ou--
out--
over--
p--
pa--
pack--
pal--
pan--
par--
parla--
pas--
patr--
patria--
pc--
pe--
pen--
per--
pet--
petr--
ph--
phy--
physic--
pi--
pic--
pl--
play--
plu--
po--
pol--
poli--
politi--
politis--
poly--
pont--
pop--
posi--
post--
pou--
pq--
pr--
prae--
pre--
prim--
pro--
ps--
psy--
psycho--
pt--
pu--
pub--
publi--
pul--
pur--
py--
q--
qu--
quo--
r--
ra--
radio--
rai--
ram--
ran--
rco--
re--
rec--
recep--
recom--
red--
ref--
reg--
regu--
rein--
rela--
ren--
requi--
res--
retr--
rev--
rh--
rho--
rhy--
ri--
rn--
ro--
rob--
rod--
ron--
rou--
row--
rs--
rt--
ru--
ry--
s--
sa--
sach--
sal--
salv--
sam--
san--
sar--
sau--
sc--
scar--
sch--
scho--
sco--
scu--
sculp--
se--
sea--
sec--
sei--
sel--
sen--
ser--
serv--
set--
sey--
sh--
show--
shu--
si--
sie--
sim--
sin--
situ--
sk--
sky--
sl--
slo--
slove--
sm--
smart--
sn--
so--
socio--
sol--
some--
song--
sor--
sou--
sp--
spea--
spec--
spo--
sr--
ss--
st--
sta--
star--
ste--
ster--
sto--
stra--
stru--
stu--
su--
sub--
sum--
sun--
super--
sur--
susp--
sv--
sven--
sw--
swa--
swe--
swit--
swo--
sy--
sylv--
symb--
symp--
t--
ta--
tai--
tal--
tar--
tax--
tb--
te--
teac--
tel--
temp--
ten--
terri--
th--
the--
thou--
thre--
ti--
to--
top--
topogra--
tor--
tr--
tra--
trans--
tri--
tro--
trop--
tru--
tt--
tu--
tur--
tv--
tw--
twe--
ty--
u--
uk--
ul--
ult--
ultra--
um--
un--
under--
uni--
up--
ur--
us--
v--
va--
val--
vale--
van--
var--
vasi--
vati--
ve--
vec--
vehi--
ver--
vg--
vi--
vinc--
vla--
vo--
vol--
volley--
w--
wa--
wal--
war--
we--
web--
weid--
wein--
wel--
west--
whe--
wiki--
wil--
wild--
win--
wis--
wit--
wo--
won--
wood--
world--
wri--
wu--
wy--
x--
xa--
xi--
xx--
y--
ya--
year--
yel--
yem--
yo--
yu--
z--
za--
ze--
zh--
zi--
zn--
zo--
zu--
ð--
ı--
ɡ--
ɣ--
ɲ--
ɾ--
ʁ--
ʃ--
ʝ--
α--
αβ--
αβα--
αβε--
αγ--
αγα--
αγγειο--
αγγλο--
αγιο--
αγκυρο--
αγρο--
αδ--
αδε--
αδη--
αδι--
αδια--
αδυ--
αε--
αερο--
αζ--
αζε--
αη--
αθ--
αι--
αιμο--
αιο--
αιρετ--
αιτω--
αιω--
ακ--
ακα--
ακινη--
ακο--
ακου--
ακρο--
ακτι--
ακτινο--
αλ--
αλα--
αλγε--
αλε--
αλη--
αλι--
αλιευ--
αλκα--
αλλ--
αλληλ--
αλληλο--
αλλο--
αλο--
αλπ--
αλυ--
αμ--
αμα--
αμαξο--
αμε--
αμι--
αμο--
αμπ--
αμυ--
αμυγδ--
αμφι--
αμφιβλη--
αν--
ανα--
αναπνευ--
αναποτελε--
ανδε--
ανε--
ανεφο--
ανεφοδια--
ανη--
ανθο--
ανθυ--
ανι--
ανο--
ανοσο--
αντ--
αντε--
αντι--
αντιβιο--
ανυ--
ανω--
αξε--
αξιο--
αξο--
αο--
αου--
απ--
απα--
απαγ--
απε--
απενεργο--
απη--
απι--
απλο--
απο--
απρο--
απω--
αρ--
αρα--
αργο--
αρε--
αρι--
αρσε--
αρτ--
αρχαιο--
αρχι--
αρχο--
αρω--
ασ--
αση--
ασι--
ασκλη--
αστρο--
ασυ--
ατ--
ατα--
ατε--
ατμο--
αυ--
αυθεν--
αυστρο--
αυτο--
αφ--
αφα--
αφανι--
αφε--
αφι--
αφο--
αφορι--
αφρικα--
αφρο--
αφυ--
αχ--
αχα--
αχε--
αχρη--
β--
βα--
βαι--
βακ--
βαλ--
βαν--
βαρ--
βαρυ--
βασ--
βγ--
βγα--
βδ--
βε--
βελ--
βεν--
βερ--
βη--
βηθ--
βι--
βια--
βιε--
βιλ--
βιο--
βιω--
βλ--
βλα--
βλε--
βλη--
βλο--
βο--
βογια--
βοι--
βολ--
βομ--
βομβι--
βον--
βοο--
βορ--
βορειο--
βοτα--
βου--
βουδισ--
βρα--
βρε--
βρι--
βρο--
βρυ--
βρω--
βυ--
βω--
γ--
γα--
γαλακτο--
γαλλο--
γαμ--
γαν--
γαρ--
γαργα--
γαστρε--
γγα--
γγε--
γγι--
γγο--
γδ--
γε--
γει--
γειτ--
γενε--
γερ--
γερα--
γερο--
γευ--
γεω--
γη--
γηροκ--
γι--
για--
γιαν--
γιε--
γιο--
γιου--
γιω--
γκ--
γκα--
γκε--
γκι--
γκο--
γκου--
γκυ--
γκω--
γλα--
γλι--
γλυ--
γλω--
γνη--
γνυ--
γνω--
γο--
γοη--
γοητευ--
γου--
γρ--
γρα--
γραμ--
γρε--
γρι--
γρυ--
γυ--
γχο--
γω--
δ--
δα--
δαυ--
δαφ--
δε--
δει--
δεισι--
δεκ--
δεκα--
δελ--
δελη--
δεν--
δερ--
δευ--
δεχ--
δη--
δημο--
δι--
δια--
διαι--
διανυ--
διδα--
διε--
διη--
δικα--
διο--
δισ--
διυ--
διχα--
διχο--
διω--
δο--
δοι--
δου--
δρα--
δρευ--
δρο--
δρυ--
δυ--
δυσ--
δυσχε--
δυτικο--
δω--
δωρο--
ε--
εα--
εγ--
εγε--
εγκ--
εγω--
εθ--
εθι--
εθνικι--
εθνικο--
εθνο--
ει--
ειδησεο--
εικα--
εικο--
ειλι--
ειρων--
εισ--
εισπ--
εκ--
εκθε--
εκκε--
εκλε--
εκφρα--
ελ--
ελα--
ελαιο--
ελε--
ελεγκ--
ελι--
ελκυ--
ελληνο--
εμ--
εμπ--
εμπρη--
εν--
ενα--
ενδημ--
ενδο--
ενε--
ενθου--
εννοιο--
ενο--
εντα--
ενω--
εξ--
εξα--
εξε--
εξευ--
εξη--
εξι--
εξισο--
εξο--
εξολο--
εξυ--
εξω--
εο--
επ--
επα--
επανα--
επανι--
επε--
επι--
επιληπ--
επο--
επω--
ερ--
ερα--
εργα--
εργο--
ερε--
ερι--
ερο--
ερυ--
ερω--
εσθ--
εσω--
ετ--
ετερο--
ευ--
ευρω--
εφ--
εφα--
εφε--
εφη--
εφο--
εφοδια--
εχ--
ζ--
ζα--
ζακ--
ζαρ--
ζε--
ζελ--
ζεν--
ζερ--
ζευ--
ζη--
ζι--
ζο--
ζου--
ζυ--
ζυθο--
ζω--
ζων--
ζωο--
η--
ηγε--
ηθι--
ηθο--
ηλεκ--
ηλεκτρο--
ηλιο--
ηλυ--
ημι--
ην--
ηπα--
ητο--
ηχη--
θ--
θα--
θαλασσο--
θαρ--
θε--
θεα--
θελ--
θεμα--
θεμι--
θεο--
θερμο--
θευ--
θη--
θι--
θλι--
θμη--
θνη--
θο--
θον--
θρα--
θρεπ--
θρη--
θριαμβευ--
θρυ--
θυ--
θυγα--
θω--
θωρη--
ι--
ια--
ιατρο--
ιβ--
ιγ--
ιδ--
ιδα--
ιδε--
ιδιο--
ιδιω--
ιε--
ιερα--
ιερο--
ιζ--
ικ--
ιλ--
ιλλυ--
ιμ--
ιμπρε--
ιν--
ινι--
ινο--
ιντ--
ιο--
ιπ--
ιππο--
ιρ--
ιρα--
ισ--
ισθ--
ισο--
ισπ--
ιστ--
ιτ--
ιφ--
ιχ--
ιω--
ιωα--
κ--
κα--
καδ--
καζα--
καθη--
καθο--
και--
κακο--
καλ--
καλα--
καλλι--
καλλυ--
καλλωπι--
καλο--
καλυ--
καμ--
καμα--
καν--
κανα--
καπ--
καπι--
καρ--
καρα--
κατ--
κατα--
κατακερ--
κατε--
κατο--
καυ--
κβα--
κδ--
κδο--
κε--
κει--
κελτ--
κεντρο--
κερ--
κερδο--
κετ--
κεφα--
κη--
κηφι--
κι--
κια--
κιμ--
κιν--
κινη--
κιου--
κλα--
κλασικι--
κλε--
κλει--
κλη--
κλι--
κλο--
κλυ--
κλω--
κνυ--
κνω--
κο--
κοι--
κοκ--
κολ--
κολο--
κομ--
κον--
κοπ--
κορ--
κοσμο--
κου--
κουν--
κουρ--
κουτσο--
κοφ--
κοχ--
κπε--
κπλη--
κρα--
κρε--
κρη--
κρι--
κρο--
κρυ--
κτα--
κτε--
κτη--
κτι--
κτυ--
κυ--
κυβι--
κυκλο--
κυλι--
κυρ--
κω--
κων--
λ--
λα--
λαθ--
λαθρε--
λαι--
λακ--
λαμ--
λαν--
λαο--
λατ--
λαυ--
λαφ--
λβα--
λε--
λεγ--
λει--
λεκ--
λεμ--
λεν--
λεο--
λεσ--
λευ--
λεω--
λη--
λθο--
λθω--
λι--
λια--
λιγ--
λιθο--
λιμε--
λιν--
λιπ--
λιπο--
λκη--
λκο--
λκυ--
λλα--
λλε--
λλη--
λλι--
λλο--
λλυ--
λντ--
λο--
λογι--
λογο--
λοι--
λοκ--
λομβα--
λον--
λου--
λπ--
λπι--
λσ--
λτ--
λυ--
λυσι--
λφ--
λω--
μ--
μα--
μαγδ--
μαθη--
μαι--
μακ--
μακρο--
μαλ--
μαν--
μαξι--
μαρ--
μαρα--
ματ--
μαυρο--
μαχ--
μαχη--
μβα--
μβλ--
με--
μεγα--
μεθο--
μεθυ--
μει--
μελ--
μελι--
μελο--
μεν--
μερ--
μεσο--
μετα--
μετε--
μη--
μηδ--
μηχα--
μι--
μιγα--
μικ--
μικρο--
μιλ--
μιν--
μισο--
μμε--
μνη--
μο--
μοι--
μολυ--
μον--
μονα--
μονο--
μορ--
μοσχο--
μου--
μουν--
μπ--
μπα--
μπαρ--
μπε--
μπεν--
μπερ--
μπι--
μπλ--
μπλε--
μπο--
μποτ--
μπου--
μπρο--
μπω--
μυ--
μυθο--
μυλο--
μυστικι--
μφ--
μφι--
μφο--
μφυ--
μω--
ν--
να--
ναζι--
ναι--
ναν--
ναρ--
ναυ--
νγκ--
νγκε--
νδ--
νδα--
νδε--
νδο--
νδυ--
νε--
νει--
νεκ--
νεν--
νεο--
νερ--
νευ--
νευρο--
νζ--
νη--
νθ--
νθα--
νθε--
νθη--
νθι--
νθυ--
νι--
νια--
νκ--
ννα--
ννε--
ννη--
ννι--
νο--
νοη--
νοι--
νομα--
νομο--
νορ--
νοτιο--
νου--
νσ--
ντ--
ντα--
ντε--
ντελ--
ντερ--
ντη--
ντι--
ντο--
ντου--
ντρο--
ντυ--
νυ--
νυκτε--
νυχ--
νω--
ξ--
ξα--
ξαι--
ξακου--
ξαν--
ξανα--
ξαφ--
ξε--
ξενο--
ξευ--
ξη--
ξι--
ξο--
ξον--
ξυ--
ξυλο--
ξω--
ο--
οα--
οδο--
οδοντια--
οι--
οικι--
οικο--
οινο--
οκτα--
ολ--
ολι--
ολο--
ομα--
ομαδο--
ομη--
ομο--
ομοιο--
ον--
ονα--
ονομα--
οξειδω--
οξι--
οπισθο--
οπλο--
ορ--
ορα--
οργι--
ορε--
ορθο--
ορι--
οριο--
ορνιθο--
ορο--
ορχη--
οσ--
ου--
ουα--
ουζ--
ουι--
ουκ--
ουλ--
ουμ--
ουν--
ουρ--
ουσι--
ουτ--
οφ--
οφθα--
π--
πα--
παγαν--
παθο--
παι--
παλ--
παλα--
παλαιο--
παλι--
παν--
πανα--
παναιτω--
πανελλα--
παξ--
παπα--
παρ--
παρα--
παρε--
παρη--
παρο--
πατ--
παυ--
παχυ--
πε--
πει--
πελ--
πελα--
πεν--
πεντη--
πεπ--
περ--
περα--
περι--
πευ--
πη--
πι--
πια--
πιε--
πιτ--
πλα--
πλε--
πλευ--
πλη--
πλι--
πλυ--
πνι--
πο--
ποι--
ποιο--
πολ--
πολυ--
πον--
ποπ--
πορ--
πορνο--
ποσο--
που--
ππα--
ππο--
πρ--
πρα--
πρε--
πρη--
πρι--
προ--
προα--
προε--
προημι--
προλε--
προληπ--
προο--
προσ--
πρυ--
πρω--
πρωτο--
πτα--
πτε--
πτη--
πτο--
πτυ--
πτω--
πυ--
πυκ--
πυρ--
πυρη--
πυρο--
πυροσβε--
πω--
ρ--
ρα--
ραδιο--
ρακ--
ραμ--
ραν--
ρατσι--
ραυ--
ρβα--
ργα--
ργη--
ργι--
ργκ--
ρδα--
ρε--
ρεα--
ρει--
ρεν--
ρεπουμπλ--
ρεπουμπλικα--
ρετ--
ρευ--
ρη--
ρην--
ρθη--
ρθω--
ρι--
ρια--
ρικ--
ριχ--
ρκ--
ρκε--
ρκι--
ρμ--
ρμα--
ρμη--
ρμι--
ρμο--
ρν--
ρνα--
ρνε--
ρνη--
ρνι--
ρνο--
ρντ--
ρξ--
ρο--
ροι--
ρομα--
ρου--
ρπα--
ρρευ--
ρρη--
ρρι--
ρρυ--
ρρω--
ρτ--
ρτα--
ρτε--
ρτι--
ρτυ--
ρυ--
ρυθμι--
ρυμου--
ρφω--
ρχα--
ρχη--
ρχι--
ρω--
ρωσο--
ς--
σ--
σα--
σακ--
σαλ--
σαμ--
σαν--
σανσκρι--
σαπ--
σαρ--
σαρα--
σαρω--
σατι--
σαυ--
σαχ--
σβα--
σβε--
σβη--
σε--
σεβα--
σει--
σεκ--
σελ--
σεν--
σεξ--
σεπ--
σερ--
σερβο--
ση--
σθ--
σθε--
σθη--
σι--
σια--
σιλ--
σιν--
σκ--
σκα--
σκακι--
σκε--
σκεπ--
σκη--
σκι--
σκια--
σκο--
σκου--
σκυ--
σλα--
σλαβο--
σμα--
σμη--
σμι--
σμυ--
σο--
σοκ--
σολ--
σολω--
σον--
σοσια--
σοσιαλδημο--
σου--
σοφι--
σπ--
σπα--
σπε--
σπερ--
σπη--
σπι--
σπο--
σσ--
σσα--
στ--
στα--
στε--
στη--
στι--
στιγ--
στο--
στρα--
στυ--
στω--
συ--
συγ--
συγκυ--
συκοφ--
συμ--
συμβολο--
συν--
συνα--
συνανα--
συναρπα--
συναυ--
συνε--
συνη--
συνο--
συνοπ--
συντα--
συνταγο--
συνυ--
συρ--
σφα--
σφαι--
σφε--
σφη--
σφι--
σφο--
σφου--
σφυ--
σχα--
σχε--
σχη--
σχι--
σχιζο--
σχο--
σχολα--
σχυ--
σω--
τ--
τα--
ται--
τακτο--
ταλ--
ταν--
ταρ--
τατα--
ταυ--
ταχυ--
τε--
τεθ--
τει--
τελ--
τεν--
τεο--
τερ--
τετρα--
τευ--
τεχ--
τεχνο--
τζ--
τζα--
τζε--
τζι--
τζο--
τζου--
τη--
τηλε--
τι--
τιτα--
τλ--
το--
τοι--
τοιχο--
τολ--
τον--
τοπ--
τορ--
του--
τουρ--
τρα--
τραπεζο--
τρε--
τρη--
τρι--
τρια--
τρο--
τρυ--
τρω--
τσ--
τσα--
τσε--
τσι--
τσο--
τσου--
ττα--
ττου--
τυ--
τυρ--
τω--
τωρ--
υ--
υα--
υβρι--
υγρο--
υδα--
υδατο--
υδρα--
υδρο--
υλι--
υλο--
υμη--
υπ--
υπα--
υπαξιω--
υπε--
υπερ--
υπο--
υφα--
υφυπου--
φ--
φα--
φαι--
φαν--
φανα--
φαρ--
φασι--
φασματο--
φε--
φει--
φεμινι--
φεν--
φεουδα--
φερ--
φευ--
φη--
φθα--
φθο--
φθορο--
φι--
φιλ--
φιλα--
φιλε--
φιλο--
φιν--
φιο--
φκ--
φλα--
φλαμαν--
φλε--
φλεγ--
φλι--
φλο--
φλυ--
φλω--
φο--
φοι--
φον--
φορ--
φορο--
φου--
φρα--
φρε--
φρι--
φρυ--
φτε--
φυ--
φυλε--
φυσικο--
φυσιο--
φυτο--
φω--
φωνη--
φωνο--
φωτο--
χ--
χα--
χαι--
χαλ--
χαμ--
χαμο--
χαν--
χαρ--
χαρι--
χαρτο--
χατ--
χατζη--
χε--
χει--
χεν--
χερ--
χη--
χημειο--
χθε--
χι--
χλο--
χλω--
χμ--
χνα--
χνι--
χο--
χοι--
χολ--
χον--
χορ--
χορο--
χου--
χρεο--
χρη--
χρηματο--
χρι--
χριστιανο--
χρονο--
χρω--
χτι--
χυ--
χω--
χωρι--
χωρο--
ψα--
ψαλ--
ψαμ--
ψε--
ψευ--
ψευδο--
ψη--
ψηφι--
ψι--
ψο--
ψυ--
ψυχο--
ψω--
ω--
ων--
ωο--
ωρο--
ωυ--
ωφε--
а--
б--
в--
г--
д--
и--
ист--
к--
ка--
л--
м--
ма--
ми--
н--
но--
о--
п--
пр--
р--
репу--
респу--
с--
ск--
со--
ст--
стано--
стати--
т--
ا--
ال--
--0
--00
--01
--02
--03
--04
--05
--06
--07
--08
--09
--1
--10
--11
--12
--13
--14
--15
--16
--17
--18
--19
--2
--20
--21
--22
--23
--24
--25
--26
--27
--28
--29
--3
--30
--31
--32
--33
--34
--37
--38
--39
--4
--40
--41
--42
--43
--44
--45
--46
--48
--49
--5
--50
--51
--52
--53
--55
--56
--57
--58
--6
--60
--61
--66
--67
--68
--69
--694
--7
--70
--72
--75
--76
--78
--8
--80
--81
--82
--83
--84
--85
--86
--87
--89
--9
--90
--91
--92
--93
--94
--95
--97
--98
--99
--a
--aal
--ab
--able
--ac
--ace
--ach
--acio
--acre
--acy
--ad
--ada
--ade
--ado
--ados
--ae
--ael
--aft
--ag
--age
--ah
--ai
--aic
--ain
--aine
--aire
--aj
--ak
--aki
--akis
--al
--ala
--ale
--ality
--alo
--am
--ama
--an
--ance
--ane
--ang
--ani
--ano
--ant
--ap
--ape
--ar
--ara
--ard
--ari
--aria
--aries
--ario
--aro
--arrow
--ary
--as
--ase
--at
--ata
--ate
--ated
--ates
--ati
--atic
--ating
--ation
--ational
--ations
--ative
--ato
--ator
--ats
--au
--av
--aw
--ax
--ay
--b
--ba
--bal
--base
--be
--berg
--bi
--bility
--ble
--bo
--book
--bourg
--bra
--bs
--buch
--burg
--burn
--by
--c
--ca
--cal
--cco
--ce
--cent
--ces
--ch
--charts
--che
--cht
--ci
--cio
--ck
--co
--craft
--cs
--ct
--ction
--ctions
--cts
--cu
--cus
--cy
--d
--da
--dale
--day
--de
--ded
--der
--di
--dis
--dit
--do
--dor
--dou
--dra
--ds
--dt
--dy
--e
--ea
--eal
--ean
--east
--eau
--eaux
--ec
--eca
--ece
--ech
--echt
--ective
--ed
--ee
--ego
--ei
--ej
--ek
--el
--ela
--ell
--ella
--elli
--ello
--els
--em
--eme
--ement
--en
--ena
--enburg
--ence
--ene
--ened
--ens
--ent
--ents
--eo
--er
--ere
--erg
--eri
--ering
--ern
--ero
--ers
--erve
--ery
--es
--esa
--ese
--ess
--est
--et
--ete
--ets
--ett
--ette
--eum
--eus
--ev
--ews
--ex
--ey
--ez
--f
--fa
--face
--fax
--fe
--feld
--fer
--ff
--ffe
--fi
--field
--fs
--ft
--ful
--fy
--g
--ga
--gate
--ge
--ged
--ger
--ges
--gg
--gh
--gham
--ght
--gi
--gic
--ging
--gn
--gne
--go
--gs
--gton
--gue
--h
--ha
--ham
--han
--he
--head
--hed
--heim
--hem
--hes
--hi
--hing
--hip
--hn
--ho
--hood
--hop
--hro
--hs
--ht
--hy
--i
--ia
--iae
--ial
--ian
--ias
--iation
--ible
--ic
--ica
--ical
--ici
--icia
--ick
--ico
--ics
--id
--ida
--ide
--ident
--ider
--ides
--idi
--idis
--ido
--ids
--ie
--ied
--ien
--ier
--iers
--ies
--if
--ig
--ight
--igi
--ii
--ija
--ik
--ika
--iki
--iko
--il
--ile
--ill
--illa
--ils
--im
--ima
--ime
--imo
--in
--ina
--inal
--ine
--info
--ing
--ings
--ington
--ini
--ino
--ins
--io
--ion
--ional
--ions
--ior
--ious
--ique
--ir
--ira
--ire
--iro
--is
--isation
--ische
--ischen
--ise
--ish
--isi
--ision
--ism
--ist
--ista
--ists
--it
--ita
--ite
--iti
--ities
--ition
--ito
--ity
--ium
--ius
--iv
--ive
--ix
--iye
--iz
--ization
--ized
--j
--ja
--je
--ji
--jo
--k
--ka
--ke
--kel
--ker
--kes
--ket
--kh
--ki
--kin
--kis
--ko
--ks
--ku
--ky
--l
--la
--lan
--land
--lar
--ld
--le
--led
--len
--ler
--less
--ley
--lf
--li
--lia
--lin
--line
--ling
--lio
--list
--lity
--lk
--ll
--lla
--lle
--lli
--llo
--lls
--lly
--lm
--lo
--logy
--lon
--ls
--lt
--lu
--lude
--lus
--ly
--lyn
--m
--ma
--man
--me
--ment
--mi
--mic
--mis
--mo
--mond
--mp
--ms
--my
--n
--na
--nal
--nam
--nan
--nc
--nce
--ncia
--ncy
--nd
--nda
--ne
--ned
--ner
--ners
--nes
--ness
--net
--news
--ney
--ng
--nging
--ngs
--ni
--nia
--nic
--nik
--ning
--nis
--nity
--nk
--nko
--nn
--nna
--nne
--no
--nologies
--nor
--ns
--nsis
--nso
--nt
--nta
--nte
--nth
--nti
--nto
--nts
--nus
--ny
--nz
--nzo
--o
--oa
--ock
--od
--ode
--oe
--of
--off
--og
--ogical
--ography
--ogy
--oi
--ok
--ol
--ola
--ole
--oli
--olo
--ological
--ologie
--ology
--om
--ome
--on
--ona
--one
--oni
--onia
--ons
--oo
--oon
--oot
--op
--ope
--oph
--or
--ora
--ord
--ore
--ori
--oria
--ors
--ort
--orum
--ory
--os
--ose
--ot
--ots
--ott
--ou
--ough
--ous
--out
--ov
--ova
--ovic
--ovich
--ow
--ows
--ox
--oy
--p
--pa
--pe
--ped
--pf
--ph
--phy
--pi
--pin
--ping
--ple
--po
--polis
--post
--pot
--pp
--prise
--ps
--pse
--pson
--pt
--q
--que
--r
--ra
--rad
--rage
--ral
--ran
--raphy
--ras
--rd
--rdo
--re
--red
--ren
--rer
--rg
--rge
--ri
--rie
--rin
--rine
--ris
--rk
--rl
--rm
--rmo
--rn
--rno
--ro
--ros
--rp
--rr
--rry
--rs
--rt
--rta
--rth
--ru
--rum
--rus
--ry
--rz
--s
--sa
--sation
--saurus
--sburg
--sbury
--sches
--se
--sed
--sels
--sen
--ser
--sey
--sh
--shi
--shire
--si
--sia
--sio
--sion
--sions
--sis
--sk
--sm
--so
--son
--sor
--ss
--sse
--sson
--st
--ster
--stone
--su
--sus
--sy
--sz
--t
--ta
--taining
--tal
--tan
--tar
--tary
--tas
--tation
--tch
--te
--ted
--ter
--th
--tha
--thy
--ti
--tia
--tial
--tic
--tics
--ties
--tion
--tions
--tive
--tle
--to
--ton
--tos
--town
--tro
--trong
--ts
--tt
--tta
--tte
--tti
--tto
--tu
--tum
--ture
--tus
--tv
--ty
--tz
--u
--ua
--ual
--uc
--ud
--ue
--uela
--uer
--ues
--ug
--ugh
--ught
--ui
--uit
--ul
--ula
--ular
--ule
--ult
--ultural
--ulum
--ulus
--um
--un
--ung
--up
--ur
--ura
--ural
--ure
--urg
--urne
--urs
--us
--uss
--ut
--ute
--ution
--ux
--uz
--v
--va
--val
--ve
--ved
--ven
--ves
--vi
--vic
--vin
--vity
--vo
--vy
--w
--wa
--ware
--way
--we
--wer
--wire
--worth
--ws
--x
--y
--ya
--yan
--ye
--yl
--yn
--ys
--z
--za
--ze
--zer
--zi
--zia
--zo
--zy
--ı
--ł
--ŋ
--ɔ
--ɾ
--ʁ
--α
--αδο
--αζο
--αι
--ακα
--ακε
--ακη
--ακο
--ακοι
--ακου
--ακω
--αλ
--αμ
--αμω
--αν
--ανα
--ανε
--ανη
--ανι
--ανο
--ανου
--ανω
--αρ
--αρα
--αρη
--αρι
--ας
--ασμε
--ασμο
--αστη
--ατε
--ατω
--αυ
--β
--βα
--βαι
--βε
--βει
--βη
--βι
--βια
--βικα
--βικο
--βικω
--βλε
--βλη
--βληθει
--βλημε
--βλι
--βο
--βολω
--βου
--βρ
--βρε
--βυ
--βω
--βωμε
--γ
--γα
--γαγω
--γαι
--γαμι
--γγε
--γγελι
--γγι
--γγυ
--γε
--γει
--γενη
--γη
--γημε
--γητη
--γι
--για
--γιε
--γικα
--γικε
--γικη
--γικο
--γικω
--γιμο
--γιο
--γιω
--γκ
--γκα
--γκατα
--γκε
--γκι
--γκο
--γκς
--γμα
--γμε
--γμο
--γμω
--γνω
--γξ
--γο
--γομε
--γορι
--γου
--γρα
--γραφι
--γυ
--γω
--γωγη
--γωγικα
--γωγικη
--γωγικο
--γωγω
--δ
--δα
--δαι
--δαπη
--δαπω
--δε
--δει
--δειγμε
--δευ
--δη
--δι
--δια
--διε
--δικε
--δικη
--δικο
--διο
--διου
--διω
--δο
--δοι
--δονι
--δοξι
--δος
--δοσι
--δου
--δοφο
--δρα
--δρη
--δρι
--δρο
--δρομι
--δρω
--δυ
--δω
--δωτη
--δωτο
--ε
--εα
--εβραι
--ει
--ειδε
--ειδη
--ειδου
--ελ
--εν
--εο
--ερ
--ερι
--ες
--εσι
--εσμε
--ετε
--ετη
--ετι
--ετου
--ευ
--ευτη
--εω
--ζ
--ζα
--ζαρι
--ζε
--ζη
--ζι
--ζια
--ζιε
--ζικε
--ζιω
--ζο
--ζομε
--ζου
--ζυ
--ζω
--η
--ηθει
--ημε
--ης
--ητη
--ητω
--θ
--θα
--θε
--θει
--θειμε
--θευ
--θη
--θι
--θια
--θικο
--θιω
--θμι
--θο
--θου
--θυ
--θω
--ι
--ια
--ιαι
--ιγια
--ιδω
--ιε
--ιει
--ιη
--ικα
--ικε
--ικη
--ικι
--ικο
--ικου
--ικω
--ιμε
--ιμι
--ιν
--ινα
--ινο
--ινω
--ιο
--ιου
--ιρα
--ιρε
--ις
--ισμε
--ισμο
--ιστε
--ιστη
--ιστικη
--ιστικο
--ιτς
--ιχι
--ιω
--ιωμε
--κ
--κα
--και
--κε
--κει
--κευ
--κη
--κι
--κια
--κικα
--κικη
--κικο
--κιμα
--κιου
--κισμε
--κισμο
--κισχιλι
--κιω
--κλα
--κλε
--κλη
--κλι
--κλυ
--κλω
--κνυ
--κο
--κοι
--κοπου
--κοστη
--κου
--κρα
--κρη
--κρι
--κς
--κτ
--κτα
--κτε
--κτη
--κτι
--κτικα
--κτικε
--κτικη
--κτικο
--κτικοι
--κτικου
--κτικω
--κτο
--κτονι
--κτω
--κυ
--κω
--κωμε
--λ
--λα
--λαι
--λαυ
--λγι
--λδα
--λε
--λει
--λευ
--λη
--λημε
--λημμε
--λης
--λητη
--ληψι
--λθει
--λθο
--λθω
--λι
--λια
--λιε
--λικα
--λικε
--λικη
--λικο
--λικω
--λιο
--λιου
--λισμε
--λισμο
--λιω
--λκ
--λκυ
--λλα
--λλη
--λλι
--λλικη
--λλικο
--λλο
--λλω
--λμ
--λμα
--λμε
--λμι
--λνε
--λντ
--λο
--λογει
--λογη
--λογημε
--λογι
--λογου
--λογω
--λοι
--λοπα
--λοπου
--λος
--λου
--λς
--λτ
--λτι
--λτικο
--λυ
--λφ
--λω
--λωμε
--μ
--μα
--μαι
--μαν
--ματα
--ματι
--ματικα
--ματικε
--ματικη
--ματικο
--ματικου
--ματικω
--μαχι
--μβα
--μβι
--με
--μει
--μερε
--μευ
--μη
--μηθει
--μημε
--μι
--μια
--μιε
--μικα
--μικε
--μικη
--μικο
--μικω
--μισμο
--μιστε
--μιω
--μμα
--μμε
--μνη
--μνι
--μο
--μοι
--μορφι
--μος
--μοσυ
--μου
--μπ
--μπα
--μπε
--μπη
--μπι
--μπλια
--μπο
--μπς
--μπω
--μς
--μυ
--μω
--μωμε
--μων
--ν
--να
--ναι
--ναμι
--ναν
--νας
--ναυ
--νγκ
--νδι
--νε
--νει
--νες
--νευ
--νη
--νημε
--νης
--νθε
--νθει
--νθη
--νθι
--νθο
--νθου
--νθυ
--νθω
--νι
--νια
--νιακη
--νιακο
--νιε
--νικα
--νικε
--νικη
--νικο
--νικου
--νικω
--νιο
--νιου
--νισμε
--νισμο
--νισμω
--νιω
--νκ
--ννη
--ννι
--νο
--νοι
--νομε
--νοπου
--νος
--νου
--νς
--νση
--ντ
--ντα
--ντε
--ντζη
--ντη
--ντι
--ντικα
--ντικη
--ντικο
--ντισμο
--ντο
--ντου
--ντς
--ντσε
--ντω
--νυ
--νυμι
--νω
--νωμε
--νωπο
--ξ
--ξα
--ξε
--ξει
--ξειδι
--ξεν
--ξη
--ξι
--ξο
--ξοχη
--ξυ
--ο
--ογι
--ογια
--ογρα
--οδο
--οθε
--οθη
--οι
--οκο
--οκρατι
--ολο
--ολογι
--ολογικη
--ολογικο
--ομα
--ομε
--ομι
--ον
--ονα
--ονε
--ονι
--οποι
--οπου
--ορ
--ος
--ου
--ουα
--ους
--οφο
--π
--πα
--παι
--παυ
--πε
--πει
--πειω
--πη
--πημε
--πι
--πια
--πικε
--πικη
--πικο
--πικω
--πλ
--πλα
--πλε
--πλη
--πλι
--πνη
--πνι
--πο
--ποι
--ποιει
--ποιη
--ποιηθει
--ποιημε
--ποιι
--ποιου
--ποιω
--πολι
--ποποι
--που
--πρα
--πρε
--πρι
--πριακη
--προ
--πς
--πτε
--πτη
--πτικα
--πτικε
--πτικη
--πτικο
--πτικω
--πτο
--πτω
--πυ
--πω
--ρ
--ρα
--ραι
--ργα
--ργε
--ργει
--ργη
--ργι
--ργο
--ργου
--ργυ
--ργω
--ρδα
--ρδι
--ρε
--ρει
--ρεμε
--ρευ
--ρευο
--ρη
--ρης
--ρθ
--ρθει
--ρθου
--ρι
--ρια
--ριακε
--ριακη
--ριακο
--ριασμε
--ριε
--ρικα
--ρικε
--ρικη
--ρικο
--ρικου
--ρικω
--ρινε
--ριο
--ριου
--ρισμο
--ρισμου
--ριστη
--ριω
--ρκ
--ρκει
--ρκι
--ρκω
--ρμε
--ρμι
--ρμο
--ρν
--ρνα
--ρντ
--ρο
--ροβο
--ρογε
--ροι
--ροπου
--ρος
--ρου
--ρπ
--ρραι
--ρρη
--ρροι
--ρς
--ρσι
--ρτ
--ρτα
--ρτζη
--ρτζι
--ρτι
--ρτς
--ρτυ
--ρτω
--ρυ
--ρφο
--ρφω
--ρχη
--ρχι
--ρχικη
--ρχο
--ρχω
--ρω
--ρωμε
--ς
--σ
--σα
--σαι
--σαμε
--σαν
--σβε
--σε
--σει
--σεις
--σεν
--ση
--σης
--σθε
--σθει
--σθη
--σθησι
--σθου
--σθω
--σι
--σια
--σιακα
--σιακε
--σιακη
--σιακο
--σιακω
--σιε
--σικε
--σιμο
--σιν
--σιο
--σις
--σιω
--σκ
--σκα
--σκε
--σκι
--σκο
--σλ
--σλα
--σμ
--σμα
--σμε
--σμευ
--σμο
--σμοι
--σμου
--σμω
--σο
--σον
--σοπου
--σου
--σπα
--σπε
--σπι
--σπο
--σπω
--σσα
--σσε
--σσευ
--σσι
--σσο
--σσω
--στ
--στα
--σται
--στε
--στει
--στευ
--στη
--στημε
--στι
--στικα
--στικε
--στικη
--στικο
--στικοι
--στικου
--στικω
--στο
--στοποι
--στου
--στω
--συ
--σχε
--σχο
--σω
--τ
--τα
--ταγμε
--ται
--ταμε
--ταν
--τας
--τε
--τει
--τελη
--τεπω
--τες
--τευ
--τζ
--τζα
--τζη
--τζι
--τζο
--τη
--τημε
--τηρι
--της
--τι
--τια
--τιανο
--τιε
--τικα
--τικε
--τικη
--τικο
--τικοι
--τικου
--τικω
--τινη
--τιο
--τισμε
--τισμικο
--τισμο
--τισμου
--τιστε
--τιστη
--τιω
--τλ
--τλα
--τμι
--τνι
--το
--τογρα
--τοι
--τολο
--τολογι
--τον
--τοποι
--τος
--του
--τουργο
--τοφο
--τρ
--τρα
--τρε
--τρη
--τρι
--τρικη
--τρο
--τρυ
--τρω
--τς
--τσα
--τσε
--τσι
--τσιω
--τσο
--τσω
--ττε
--ττι
--ττο
--ττω
--τυ
--τυπι
--τω
--τωμε
--των
--υ
--υα
--υβι
--υγα
--υδα
--υδι
--υε
--υι
--υλα
--υλε
--υλι
--υμα
--υμε
--υμι
--υν
--υνι
--υο
--υρα
--υρι
--υρια
--υρω
--υς
--υσα
--υσε
--υση
--υσι
--υτα
--υτη
--υτι
--υτο
--υχι
--φ
--φα
--φαγι
--φαι
--φαν
--φανη
--φε
--φει
--φελη
--φη
--φθε
--φθει
--φθη
--φθου
--φι
--φικα
--φικε
--φικη
--φικο
--φιω
--φλε
--φο
--φοδο
--φορι
--φου
--φρα
--φρο
--φτ
--φτα
--φτο
--φυ
--φυι
--φυλα
--φω
--φωνι
--χ
--χα
--χαι
--χε
--χει
--χευ
--χη
--χθε
--χθει
--χθη
--χθου
--χι
--χικα
--χικε
--χικη
--χικο
--χικου
--χικω
--χιω
--χνι
--χνικη
--χνικω
--χο
--χος
--χου
--χρη
--χρο
--χρονι
--χτ
--χτε
--χτει
--χτη
--χτο
--χτου
--χτω
--χυ
--χυμε
--χω
--χωρι
--ψ
--ψα
--ψε
--ψεν
--ψη
--ψι
--ψιο
--ψο
--ψυ
--ψω
--ω
--ωθει
--ωθου
--ωμε
--ωμο
--ων
--ωνι
--ωρι
--ως
--ωτα
--ωτε
--ωτω
--а
--ан
--в
--ва
--д
--е
--еи
--и
--ии
--ия
--к
--ка
--л
--м
--н
--о
--ов
--р
--ра
--рия
--с
--сти
--т
--та
--у
--ь
--я
--ا
--ن
