!
"
#
##a
##aa
##ab
##ac
##ad
##ae
##af
##ag
##ah
##ai
##aj
##ak
##al
##am
##an
##ao
##ap
##aq
##ar
##as
##at
##au
##av
##aw
##ax
##ay
##az
##b
##ba
##bb
##bc
##bd
##be
##bf
##bg
##bh
##bi
##bj
##bk
##bl
##bm
##bn
##bo
##bp
##bq
##br
##bs
##bt
##bu
##bv
##bw
##bx
##by
##bz
##c
##ca
##cb
##cc
##cd
##ce
##cf
##cg
##ch
##ci
##cj
##ck
##cl
##cm
##cn
##co
##cp
##cq
##cr
##cs
##ct
##cu
##cv
##cw
##cx
##cy
##cz
##d
##da
##db
##dc
##dd
##de
##df
##dg
##dh
##di
##dj
##dk
##dl
##dm
##dn
##do
##dp
##dq
##dr
##ds
##dt
##du
##dv
##dw
##dx
##dy
##dz
##e
##ea
##eb
##ec
##ed
##ee
##ef
##eg
##eh
##ei
##ej
##ek
##el
##em
##en
##eo
##ep
##eq
##er
##es
##et
##eu
##ev
##ew
##ex
##ey
##ez
##f
##fa
##fb
##fc
##fd
##fe
##ff
##fg
##fh
##fi
##fj
##fk
##fl
##fm
##fn
##fo
##fp
##fq
##fr
##fs
##ft
##fu
##fv
##fw
##fx
##fy
##fz
##g
##ga
##gb
##gc
##gd
##ge
##gf
##gg
##gh
##gi
##gj
##gk
##gl
##gm
##gn
##go
##gp
##gq
##gr
##gs
##gt
##gu
##gv
##gw
##gx
##gy
##gz
##h
##ha
##hb
##hc
##hd
##he
##hf
##hg
##hh
##hi
##hj
##hk
##hl
##hm
##hn
##ho
##hp
##hq
##hr
##hs
##ht
##hu
##hv
##hw
##hx
##hy
##hz
##i
##ia
##ib
##ic
##id
##ie
##if
##ig
##ih
##ii
##ij
##ik
##il
##im
##in
##io
##ip
##iq
##ir
##is
##it
##iu
##iv
##iw
##ix
##iy
##iz
##j
##ja
##jb
##jc
##jd
##je
##jf
##jg
##jh
##ji
##jj
##jk
##jl
##jm
##jn
##jo
##jp
##jq
##jr
##js
##jt
##ju
##jv
##jw
##jx
##jy
##jz
##k
##ka
##kb
##kc
##kd
##ke
##kf
##kg
##kh
##ki
##kj
##kk
##kl
##km
##kn
##ko
##kp
##kq
##kr
##ks
##kt
##ku
##kv
##kw
##kx
##ky
##kz
##l
##la
##lb
##lc
##ld
##le
##lf
##lg
##lh
##li
##lj
##lk
##ll
##lm
##ln
##lo
##lp
##lq
##lr
##ls
##lt
##lu
##lv
##lw
##lx
##ly
##lz
##m
##ma
##mb
##mc
##md
##me
##mf
##mg
##mh
##mi
##mj
##mk
##ml
##mm
##mn
##mo
##mp
##mq
##mr
##ms
##mt
##mu
##mv
##mw
##mx
##my
##mz
##n
##na
##nb
##nc
##nd
##ne
##nf
##ng
##nh
##ni
##nj
##nk
##nl
##nm
##nn
##no
##np
##nq
##nr
##ns
##nt
##nu
##nv
##nw
##nx
##ny
##nz
##o
##oa
##ob
##oc
##od
##oe
##of
##og
##oh
##oi
##oj
##ok
##ol
##om
##on
##oo
##op
##oq
##or
##os
##ot
##ou
##ov
##ow
##ox
##oy
##oz
##p
##pa
##pb
##pc
##pd
##pe
##pf
##pg
##ph
##pi
##pj
##pk
##pl
##pm
##pn
##po
##pp
##pq
##pr
##ps
##pt
##pu
##pv
##pw
##px
##py
##pz
##q
##qa
##qb
##qc
##qd
##qe
##qf
##qg
##qh
##qi
##qj
##qk
##ql
##qm
##qn
##qo
##qp
##qq
##qr
##qs
##qt
##qu
##qv
##qw
##qx
##qy
##qz
##r
##ra
##rb
##rc
##rd
##re
##rf
##rg
##rh
##ri
##rj
##rk
##rl
##rm
##rn
##ro
##rp
##rq
##rr
##rs
##rt
##ru
##rv
##rw
##rx
##ry
##rz
##s
##sa
##sb
##sc
##sd
##se
##sf
##sg
##sh
##si
##sj
##sk
##sl
##sm
##sn
##so
##sp
##sq
##sr
##ss
##st
##su
##sv
##sw
##sx
##sy
##sz
##t
##ta
##tb
##tc
##td
##te
##tf
##tg
##th
##ti
##tj
##tk
##tl
##tm
##tn
##to
##tp
##tq
##tr
##ts
##tt
##tu
##tv
##tw
##tx
##ty
##tz
##u
##ua
##ub
##uc
##ud
##ue
##uf
##ug
##uh
##ui
##uj
##uk
##ul
##um
##un
##uo
##up
##uq
##ur
##us
##ut
##uu
##uv
##uw
##ux
##uy
##uz
##v
##va
##vb
##vc
##vd
##ve
##vf
##vg
##vh
##vi
##vj
##vk
##vl
##vm
##vn
##vo
##vp
##vq
##vr
##vs
##vt
##vu
##vv
##vw
##vx
##vy
##vz
##w
##wa
##wb
##wc
##wd
##we
##wf
##wg
##wh
##wi
##wj
##wk
##wl
##wm
##wn
##wo
##wp
##wq
##wr
##ws
##wt
##wu
##wv
##ww
##wx
##wy
##wz
##x
##xa
##xb
##xc
##xd
##xe
##xf
##xg
##xh
##xi
##xj
##xk
##xl
##xm
##xn
##xo
##xp
##xq
##xr
##xs
##xt
##xu
##xv
##xw
##xx
##xy
##xz
##y
##ya
##yb
##yc
##yd
##ye
##yf
##yg
##yh
##yi
##yj
##yk
##yl
##ym
##yn
##yo
##yp
##yq
##yr
##ys
##yt
##yu
##yv
##yw
##yx
##yy
##yz
##z
##za
##zb
##zc
##zd
##ze
##zf
##zg
##zh
##zi
##zj
##zk
##zl
##zm
##zn
##zo
##zp
##zq
##zr
##zs
##zt
##zu
##zv
##zw
##zx
##zy
##zz
$
%
&
'
(
)
*
+
,
-
.
/
0
00
000
0000
0001
0002
0004
001
002
003
004
005
006
007
008
009
01
010
011
012
013
0140
017
02
020
0261
03
0362
04
05
050
06
07
08
09
0a
0b
0c
0d
0e
0f
0g
0h
0i
0j
0k
0l
0m
0n
0o
0p
0q
0r
0s
0t
0u
0v
0w
0x
0y
0z
1
10
100
1000
1001
1002
1007
101
1016
1017
102
1021
1023
1024
1025
1029
103
1035
1037
1038
1039
104
1040
1042
1046
105
1050
1051
1054
1055
1056
1057
106
1066
107
1070
1071
1073
108
1080
1081
1086
1088
109
1093
1095
1097
1098
11
110
1100
1101
1103
1106
111
1111
1118
112
1125
1126
1128
113
1130
1136
1137
114
1143
1146
115
1150
116
1160
1161
117
1170
1177
118
1180
1185
1186
1187
1189
119
1190
1191
1198
12
120
1200
1204
1205
1207
1209
121
1210
1212
12148
122
1220
123
1230
1235
124
1240
1241
1246
125
1250
1258
1259
126
1260
1261
1268
12681
127
1270
1275
128
1280
1282
1285
129
1290
1291
1292
1295
1296
13
130
1300
1302
1303
1304
1305
1307
1308
131
1310
1311
1312
1314
1315
1316
132
1320
1323
1325
1327
1328
133
1330
1331
1337
134
1340
1341
1345
1346
1347
1348
1349
135
1350
1353
1354
1355
136
1360
1361
1362
1364
1365
137
1370
1371
1375
1377
1378
138
1380
1382
1383
1385
1386
1389
139
1390
1393
1395
1397
1399
14
140
1400
1402
1404
141
1410
1415
142
1420
1422
1425
143
1430
1435
1439
144
1440
1444
1445
1449
145
1450
1452
1453
1454
1455
1456
1458
146
1460
1461
1462
1463
1464
1465
14651858
1466
1467
1468
1469
147
1470
1471
1472
1473
1474
1475
1476
1477
1478
1479
148
1480
1481
1482
1483
1485
149
1490
1492
1493
1494
1495
1497
1498
1499
15
150
1500
1501
1502
1503
1504
1505
1506
1508
1509
151
1510
1511
1512
1513
1514
1515
1516
1517
1518
1519
152
1520
1521
1522
1523
1524
1525
1526
1527
1528
1529
153
1530
1532
1533
1534
1535
1536
1537
1538
1539
154
1540
1541
1542
1543
1544
1545
1547
1548
155
1550
1551
1552
1553
1554
1555
1556
1557
1558
1559
156
1560
1561
1562
1564
1565
1566
1567
1568
1569
157
1570
1571
1572
1573
1574
1575
1576
1577
1578
1579
158
1580
1581
1582
1583
1584
1585
1586
1587
1588
1589
159
1590
1591
1592
1593
1594
1595
1596
1597
1598
1599
16
160
1600
1601
1602
1603
1604
1605
1606
1607
1608
1609
161
1610
1611
1612
1613
1614
1615
1616
1617
1618
1619
162
1620
1621
1622
1623
1624
1625
1626
1627
1628
1629
163
1630
1631
1632
1633
1634
1635
1636
1637
1638
1639
164
1640
1641
1642
1643
1644
1645
1646
1647
1648
1649
165
1650
1651
1652
1653
1654
1655
1656
1657
1658
1659
166
1660
1661
1662
1663
1664
1665
1666
1667
1668
1669
167
1670
1671
1672
1673
1674
1675
1676
1677
1678
1679
168
1680
1682
1683
1684
1685
1686
1687
1688
1689
169
1690
1692
1693
1694
1695
1696
1697
1698
1699
17
170
1700
1701
1702
1703
1704
1705
1706
1707
1708
1709
171
1710
1711
1712
1713
1714
1715
1716
1717
1718
1719
172
1720
1721
1722
1723
1724
1725
1726
1727
1728
1729
173
1730
1731
1732
1733
1734
1735
1736
1737
1738
1739
174
1740
1741
1742
1743
1744
1745
1746
1747
1748
1749
175
1750
1751
1752
1753
1754
1755
1756
1757
1758
1759
176
1760
1761
1762
1763
1764
1765
1766
1767
1768
1769
177
1770
1771
1772
1773
1774
1775
1776
1777
1778
1779
178
1780
1781
1782
1783
1784
1785
1786
1787
1788
1789
179
1790
1791
1792
1793
1794
1795
1796
1797
1798
1799
18
180
1800
1801
1802
1803
1804
1805
1806
1807
1808
1809
181
1810
1811
1812
1813
1814
1815
1816
1817
1818
1819
182
1820
1821
1822
1823
1824
1825
1826
1827
1828
1829
183
1830
1831
1832
1833
1834
1835
1836
1837
1838
1839
184
1840
1841
1842
1843
1844
1845
1846
1847
1848
1849
185
1850
1851
1852
1853
1854
1855
1856
1857
1858
1859
186
1860
1861
1862
1863
1864
1865
1866
1867
1868
1869
187
1870
1871
1872
1873
1874
1875
1876
1877
1878
1879
188
1880
1881
1882
1883
1884
1885
1886
1887
1888
1889
189
1890
1891
1892
1893
1894
1895
1896
1897
1898
1899
19
190
1900
1901
1902
1903
1904
1905
1906
1907
1908
1909
191
1910
1911
1912
1913
1914
1915
1916
1917
1918
1919
192
1920
1921
1922
1923
1924
1925
1926
1927
1928
1929
193
1930
1931
1932
1933
1934
1935
1936
1937
1938
1939
194
1940
1941
1942
1943
1944
1945
1946
1947
1948
1949
195
1950
1951
1952
1953
1954
1955
1956
1957
1958
1959
196
1960
1961
1962
1963
1964
1965
1966
1967
1968
1969
197
1970
1971
1972
1973
1974
1975
1976
1977
1978
1979
198
1980
1981
1982
1983
1984
1985
1986
1987
1988
1989
199
1990
1991
1992
1993
1994
1995
1996
1997
1998
1999
1a
1b
1c
1d
1e
1f
1g
1h
1i
1j
1k
1l
1m
1n
1o
1p
1q
1r
1s
1t
1u
1v
1w
1x
1y
1z
2
20
200
2000
2001
2002
2003
2004
2005
2006
2007
2008
2009
201
2010
2011
2012
2013
2014
2015
2016
2017
2018
2019
202
2020
2021
2022
2023
2024
203
204
205
206
207
208
209
21
210
211
212
213
214
215
216
217
218
219
22
220
221
222
223
224
225
226
227
228
229
23
230
2307
231
232
233
234
235
236
237
238
239
24
240
241
242
243
244
245
246
247
248
249
25
250
2500
251
252
253
254
255
256
257
258
259
26
260
261
262
263
264
265
266
267
268
269
27
270
271
272
273
274
275
276
277
278
279
28
280
281
282
283
284
285
286
287
288
289
29
290
291
292
293
294
295
296
297
298
299
2a
2b
2c
2d
2e
2f
2g
2h
2i
2j
2k
2l
2m
2n
2o
2p
2q
2r
2s
2t
2u
2v
2w
2x
2y
2z
3
30
300
3000
301
302
303
304
305
306
307
3077
308
309
31
310
311
312
313
314
315
316
317
318
319
32
320
321
322
323
324
325
326
327
328
329
33
330
331
332
333
334
335
336
337
338
339
34
340
341
342
343
344
345
346
3465
347
348
349
35
350
351
352
353
354
355
356
357
358
359
36
360
361
362
363
364
365
366
367
368
369
37
370
371
372
373
374
375
376
377
378
379
38
380
381
382
383
384
385
3852
386
387
388
389
39
390
391
392
393
394
395
396
397
398
399
3a
3b
3c
3d
3e
3f
3g
3h
3i
3j
3k
3l
3m
3n
3o
3p
3q
3r
3s
3t
3u
3v
3w
3x
3y
3z
4
40
400
4000
401
402
403
404
405
406
407
408
409
41
410
411
412
413
414
415
416
417
4173183
418
419
42
420
421
422
423
424
425
426
427
428
429
43
430
431
4316069
432
433
4331
434
435
436
437
438
439
44
440
441
442
443
444
445
446
447
448
449
45
450
451
452
453
454
455
456
457
458
459
46
460
461
462
463
464
465
466
467
468
469
47
470
471
472
473
474
475
476
477
478
479
48
480
481
482
483
484
485
486
487
488
489
49
490
491
492
493
494
495
496
497
498
499
4a
4b
4c
4d
4e
4f
4g
4h
4i
4j
4k
4l
4m
4n
4o
4p
4q
4r
4s
4t
4u
4v
4w
4x
4y
4z
5
50
500
5000
501
502
503
504
505
506
507
508
509
51
510
511
512
513
514
515
516
517
518
519
52
520
521
522
523
524
525
526
527
528
529
53
530
531
532
533
534
535
536
537
538
539
54
540
541
542
543
544
545
546
547
548
549
55
550
551
552
553
554
555
556
557
558
559
56
560
561
562
563
565
566
567
568
569
57
570
571
572
573
574
575
576
577
578
579
58
580
581
582
583
584
585
586
587
588
589
59
590
591
592
593
594
595
596
597
598
599
5a
5b
5c
5d
5e
5f
5g
5h
5i
5j
5k
5l
5m
5n
5o
5p
5q
5r
5s
5t
5u
5v
5w
5x
5y
5z
6
60
600
601
602
603
604
605
609
61
610
611
612
613
614
615
616
617
618
62
620
624
625
626
628
63
630
631
632
633
634
635
636
637
638
639
64
640
641
642
645
649
65
650
652
653
655
66
660
661
664
665
666
667
668
67
670
671
6736
674
675
679
68
680
681
683
684
685
686
688
69
690
691
695
698
699
6a
6b
6c
6d
6e
6f
6g
6h
6i
6j
6k
6l
6m
6n
6o
6p
6q
6r
6s
6t
6u
6v
6w
6x
6y
6z
7
70
700
705
707
71
710
711
715
717
718
72
720
725
726
727
73
730
733
735
737
74
740
747
75
750
751
755
76
760
767
77
770
775
776
78
780
783
787
79
790
7a
7b
7c
7d
7e
7f
7g
7h
7i
7j
7k
7l
7m
7n
7o
7p
7q
7r
7s
7t
7u
7v
7w
7x
7y
7z
8
80
800
802
81
810
817
82
820
825
829
83
830
833
84
840
842
843
85
850
855
86
860
863
865
867
86704
87
870
875
879
88
880
886
89
890
895
8a
8b
8c
8d
8e
8f
8g
8h
8i
8j
8k
8l
8m
8n
8o
8p
8q
8r
8s
8t
8u
8v
8w
8x
8y
8z
9
90
900
902
908
91
910
911
912
917
92
920
924
925
93
930
933
94
940
95
950
9501509
953
954
96
960
961
963
965
966
967
97
970
975
976
977378
978
97805
98
980
985
987
99
990
9963
999
9a
9b
9c
9d
9e
9f
9g
9h
9i
9j
9k
9l
9m
9n
9o
9p
9q
9r
9s
9t
9u
9v
9w
9x
9y
9z
:
;
<
=
>
?
@
[
[CLS]
[MASK]
[PAD]
[SEP]
[UNK]
\
]
^
_
`
a
a0
a1
a2
a3
a4
a5
a6
a7
a8
a9
aa
aaaaaaaaaaaaaaaaaaaaaaaaaa
aaron
ab
abbey
abc
about
above
abraham
abs
abstract
abu
abuse
ac
academia
academic
academie
academy
academyofathens
acb
access
accessed
accident
according
account
ace
acid
acm
across
act
acta
action
active
activities
activity
actor
actors
actress
acts
acute
ad
adam
adams
adb
add
address
adds
adjusted
administration
administrative
adolf
adrian
adsabs
adult
adults
advance
advanced
advances
adventure
adventures
ae
aegean
aek
af
afc
affair
affairs
afghan
afghanistan
afi
afp
africa
african
afrique
after
ag
again
against
agb
age
aged
agence
agency
agent
agents
ages
agnes
ago
agoni
agreement
agricultural
agriculture
ah
ahead
ahmed
ai
aid
aids
ain
air
airbus
aircraft
airlines
airport
airways
aj
ak
akademie
al
alabama
alain
alan
alba
albania
albanian
albert
alberto
albrecht
album
albums
alessandro
alex
alexander
alexandra
alexandre
alexandria
alfa
alfonso
alfred
algeria
ali
alice
align
aligned
alison
alive
aljazeera
all
alla
allan
alle
allen
allgemeine
allgemeinen
alliance
allmovie
allmusic
allocine
alma
almost
alone
along
alpha
als
also
alt
alten
alter
alternative
always
am
amanda
amazon
ambassador
america
american
americas
amid
among
amor
amour
amp
amsterdam
amy
an
ana
analysis
anatomy
ancestry
ancien
ancient
and
anders
anderson
andre
andrea
andreas
andrew
andrews
android
andy
angel
angela
angeles
angelo
angels
anglo
angola
animal
animals
animated
animation
anime
ann
anna
annales
annals
anne
annie
anniversary
anno
announce
announced
announces
annual
anos
another
ans
ant
anthology
anthony
anthropology
anti
antiquities
antiquity
antoine
anton
antonio
antony
antwerp
any
ao
ap
apache
api
apj
apo
apografes
apografi
apollo
apostaseis
app
appendix
apple
appleton
application
applications
applied
appointed
approach
apps
apr
april
aq
ar
arab
arabia
arabic
aragon
arbor
arc
arcade
arch
archaeological
archaeology
archinform
architectural
architecture
archive
archived
archives
archivio
are
area
areas
arena
argentina
aria
arianna
aris
arizona
ark
arm
armed
armenia
armenian
arms
armstrong
army
arnold
around
ars
arsenal
art
arte
arthro
arthur
article
articles
artist
artists
arts
arxiv
as
ash
ashgate
asia
asian
ask
asn
asp
aspects
aspx
assembly
assessment
associated
association
astronomical
astronomy
astrophysical
astrophysics
asvg
at
athenians
athens
athletes
athletics
atlanta
atlantic
atlas
atm
atomic
atp
attack
attacks
attica
au
audi
audience
audio
auf
aug
august
augusta
auguste
augustus
aus
austin
australia
australian
austria
austrian
auth
author
authorities
authority
authors
autism
auto
autographi
aux
av
available
avant
avatar
avec
avengers
aviation
avn
aw
award
awards
away
ax
ay
az
azerbaijan
b
b0
b1
b2
b3
b4
b5
b6
b7
b8
b9
ba
baby
bach
back
background
bad
baden
bafta
bailey
baker
baldwin
balkan
balkans
ball
baltic
baltimore
balzat
ban
band
bang
bangladesh
bank
banks
baptiste
bar
barbara
barber
barcelona
barnes
baron
barraco
barry
bas
base
based
basic
basil
basis
basket
basketball
bass
batman
battle
bauer
bay
bayer
bayern
bb
bbc
bc
bd
be
beach
bear
beast
beat
beatles
beautiful
beauty
became
because
beck
become
becomes
bee
been
beethoven
before
begin
beginning
begins
behavior
behind
bei
beijing
being
belarus
belgium
belgrade
believe
bell
belle
belles
ben
benezit
benjamin
bennett
benz
berg
berkeley
berlin
bernard
bernhard
best
beta
better
betty
between
beyond
bf
bg
bh
bi
bibcode
bible
bibliographique
bibliography
biblionet
biblioteca
bibliotheque
bid
big
biggest
bildsamkeit
bill
billboard
billion
billy
bin
bio
biografico
biografisk
biographical
biographie
biographies
biography
biological
biology
bird
birdlife
birds
birth
birthday
bis
bishop
bit
bits
bj
bk
bl
black
blackmore
blackwell
blake
blind
block
blog
blogs
blogspot
blood
bloomberg
bloomsbury
blu
blue
blues
bm
bmatrix
bmj
bmw
bn
bnf
bo
board
bob
bobby
body
boe
boeing
bohemian
bohemicarum
bohm
bohmischen
bologna
bomb
bombardier
bon
bond
bone
book
books
boot
border
boris
born
bosnia
boss
boston
bot
both
box
boy
boydell
boys
bp
bpi
bq
br
bradley
brain
brand
brasil
brazil
break
breaking
brian
bridge
brief
bright
brill
bring
bristol
britain
britannica
british
broadcast
broadcasting
broadway
broken
bronze
brooklyn
brooks
bros
brother
brothers
brown
browser
bruce
bruno
brussels
bryan
bs
bsd
bt
bu
budapest
build
building
built
buk
bulgaria
bulgarian
bull
bullet
bulletin
bundesliga
bureau
burke
burn
burning
burns
burton
bury
bus
bush
business
but
butler
bv
bw
bx
by
byrne
byte
byzantine
byzantium
bz
c
c0
c1
c2
c3
c4
c5
c6
c7
c8
c9
ca
cabinet
cable
cache
cadillac
caesar
cafe
cairo
calendar
california
call
called
calls
cambridge
came
camera
cameron
camp
campaign
campbell
campus
can
canada
canadian
canal
cancer
candidate
cannes
canon
cap
cape
capetiens
capital
captain
car
carbon
card
care
career
caria
caribbean
carl
carlo
carlos
carmen
carnegie
carol
carolina
caroline
carpenter
carroll
cars
carter
cartoon
cas
casa
case
cases
cast
castle
castro
cat
catalana
catalog
catalogo
catalogue
category
cathedral
catherine
catholic
catid
catling
cause
causes
cave
cawley
cb
cbc
cbs
cc
cch
cd
cdc
cdot
cdots
cds
ce
celebrity
cell
cells
celtic
census
cent
center
centers
central
centre
centro
centuries
century
ceo
certification
cev
cf
cfa
cfm
cg
cgi
ch
challenge
challenges
chamber
champion
champions
championship
championships
chan
chance
chang
change
changed
changes
changing
channel
chaos
chapman
chapter
character
characteristics
characters
charge
charles
charlie
charlotte
chart
charts
chateau
chch
che
check
chef
chelsea
chem
chemical
chemistry
chen
chess
chevrolet
chf
chi
chicago
chicagotribune
chief
child
children
chile
china
chinese
chiricat
chisholm
cho
choice
chris
christ
christian
christianity
christians
christie
christina
christine
christmas
christoph
christopher
chronic
chronicle
chronicles
chronology
chrysler
church
churches
churchill
ci
cia
cid
cilicia
cine
cinema
circle
cis
cit
citation
cite
cities
citroen
citta
city
citypopulation
civil
civilization
cj
ck
cl
claim
claims
claire
clarendon
clark
clarke
clash
class
classic
classical
classics
classification
claude
claudia
cleveland
client
clifford
climate
clin
clinical
clinton
clio
clip
close
cloud
club
clubs
cm
cms
cn
cnn
co
coach
coalition
coast
coastal
coauthors
cobiss
coca
coch
cochrane
code
codes
codex
cohen
coins
col
cola
cold
cole
colin
coll
collaboration
collected
collection
collections
college
collider
collins
colombia
colonial
color
colorado
colort
columbia
columns
com
combat
come
comedy
comes
comet
comic
comics
coming
command
comment
commentary
commerce
commercial
commission
commissioner
committee
common
commons
commonwealth
communes
communication
communications
communist
communities
community
como
companies
companion
company
comparative
comparison
competition
compiled
complete
complex
composition
compounds
comprehensive
computer
computing
con
concept
concepts
concert
concise
conditions
conference
confirmed
confirms
conflict
congreso
congress
connection
connor
conquest
conservation
consortium
const
constantine
constantinople
constitution
constitutional
construction
contact
containing
contemporary
content
contest
context
continental
continuum
contra
contract
contre
contribution
control
controlled
convention
conway
cooh
cook
cool
cooper
cooperation
copa
copenhagen
copy
copyright
core
cornell
corner
coronavirus
corporate
corporation
corps
corpus
corriere
corsten
corvette
cos
cost
costa
could
council
count
countries
country
county
coup
coupe
courier
course
court
cov
cover
covid
cox
cp
cq
cr
craig
crash
crazy
crc
create
creation
creative
credit
credits
crete
crew
crime
crimes
criminal
crisis
critical
critics
croatia
croatian
cross
crown
crusade
crusades
cruz
cry
crystal
cs
csfd
ct
cu
cuba
cult
cultura
cultural
culture
cultures
cum
cup
curios
curlie
current
curtis
cut
cv
cw
cx
cy
cycle
cyp
cypriot
cyprus
cyrenaica
cyrillus
cz
czech
d
d0
d1
d2
d3
d4
d5
d6
d7
d8
d9
da
daily
dal
dallas
dame
dan
dana
dance
dancing
dangerous
daniel
danish
danny
dans
dansk
daredevil
dark
darryl
das
data
database
datasets
date
dates
datos
datsun
daughter
dave
david
davidson
davies
davis
dawn
day
days
db
dc
dd
de
dead
deadline
deal
dean
death
debate
debian
debut
dec
decade
december
deces
decision
decline
dee
deep
default
defence
defense
defined
definition
degli
degree
dei
deknock
del
delhi
dell
della
delle
delta
dem
demand
demo
democracy
democratic
demos
den
denis
denmark
dennis
department
der
derek
des
description
desert
design
destruction
det
detail
details
detroit
deutsch
deutsche
deutschen
deutscher
deutschland
deux
development
devil
df
dg
dh
di
dia
diabetes
diagnosis
dialecti
diamond
diana
diane
diaries
diario
diary
dick
dictionary
dictionnaire
did
die
died
diego
dies
diet
dieter
different
digital
din
dio
diplomacy
dir
direct
direction
director
directors
directory
dirty
dis
disaster
disc
disco
discography
discogs
discovery
discussion
disease
diseases
disk
disney
disorder
disorders
displacement
display
displaystyle
distance
distribution
district
diversity
division
dizionario
dj
dk
dl
dm
dn
dna
do
dobrovsky
doc
docs
doctor
document
documentary
documents
does
dog
doi
dom
domain
domestic
dominique
don
donald
donna
doom
door
doors
dos
dot
double
doubleday
douglas
dover
down
downarrow
download
dp
dq
dr
draft
dragon
drake
drama
draw
dream
dreams
drive
driver
drm
drop
drug
drugs
ds
dt
du
dublin
duchess
due
duke
dumbarton
duncan
duncker
dunn
during
dutch
dv
dvd
dw
dx
dy
dynamic
dynamics
dynasty
dz
e
e0
e1
e2
e3
e4
e5
e6
e7
e8
e9
ea
each
eagle
earl
earliest
early
earth
earthquake
east
eastern
easy
eb
ebu
ec
ece
echo
eclipse
ecole
ecology
economic
economics
economist
economy
ed
edgar
edge
edinburgh
edit
edited
edition
editions
editor
editore
editorial
editors
edizioni
edmund
eds
edu
education
educational
edward
edwards
edwin
ee
eesti
eetaa
ef
effect
effects
efimeris
efsyn
eg
ego
egypt
egyptian
eh
ei
eight
ein
einai
eine
einem
einer
eines
einstein
ej
ek
ekt
el
elder
elected
election
elections
electoral
electric
electronic
elements
elena
elisa
elisabeth
elite
elizabeth
ellada
ellade
ellen
elliott
ellis
elsevier
em
email
embassy
emergency
emi
emil
emily
eminem
emma
emmanuel
emmy
emperor
empire
empty
en
enciclopedia
encyclopaedia
encyclopedia
encyclopedie
encyclopædia
end
ends
enemy
energy
enet
eng
engine
engineering
england
english
enough
enrico
enseignement
enter
enterprise
entertainment
entre
entry
entwurf
environment
environmental
eo
ep
epic
epigrafiche
epikairothta
episode
epo
epsilon
eq
equipe
equiv
er
era
eric
erich
erik
ernest
ernst
ert
es
esa
esc
escape
esctoday
espana
espanol
espn
essay
essays
essential
est
estate
este
estimates
estonia
et
eta
etat
etc
ethics
ethnic
ethnologue
ethnos
etienne
etudes
etymological
etymologikon
etymology
eu
eugene
eur
euro
eurobasket
eurocup
eurohoops
euroleague
euronews
europa
europaea
europaische
europarl
europe
european
eurovision
eurovoix
ev
eva
evaluation
evangelii
evans
eve
even
evening
event
events
ever
everett
every
everything
evidence
evil
evolution
evolutionary
ew
ex
example
excel
exchange
exclusive
executive
exhibition
expansion
expedition
experience
experimental
expert
exploration
explore
explorer
exploring
express
expression
extended
extension
extra
extragalactic
extreme
ey
eye
eyes
ez
f
f0
f1
f2
f3
f4
f5
f6
f7
f8
f9
fa
faber
face
facebook
faces
fact
factbook
facto
factor
factors
factory
facts
faculty
failure
fair
faire
faith
falcon
fall
falls
false
fame
families
family
famous
fan
fans
fantasy
faq
far
fashion
fast
fat
fate
father
fauna
fb
fbi
fc
fch
fd
fda
fe
fear
feat
feature
features
featuring
feb
february
federal
federation
feel
felix
fellows
female
feminist
ferdinand
ferguson
fernandez
fernando
ferrari
festival
fever
few
ff
fg
fh
fi
fia
fiat
fiba
fiction
fide
field
fields
fifa
fifteenth
fifth
fight
fighter
fighters
fighting
figure
figures
file
files
film
filmportal
films
fin
final
finale
finally
finals
finance
financial
find
finds
fine
finland
fire
firefox
first
fischer
fish
fisher
fist
five
fj
fk
fl
flag
flash
fleet
fleming
flight
floor
flora
florence
florida
flow
flowers
floyd
fly
flying
fm
fmt
fn
fo
focus
folk
following
food
foot
football
for
forbes
force
forces
ford
foreign
forensic
forest
forestiere
forever
forgotten
form
format
formation
former
forms
formula
fort
forth
fortune
forum
forward
foster
found
foundation
foundations
founder
four
fourier
fourth
fox
fp
fq
fr
fra
frac
fragmentum
framework
francais
francaise
france
frances
francesco
franchise
francis
francisco
franco
francois
frank
frankfurt
frankish
franklin
frans
franz
fraser
fred
frederic
frederick
free
freedom
freeman
french
friday
friedman
friedrich
friend
friends
fritz
from
front
frontier
frost
frozen
fs
ft
fu
full
fullcredits
fulltext
fun
function
functional
fund
funk
fur
further
fury
futbol
futebol
future
fv
fw
fx
fy
fz
g
g0
g1
g2
g3
g4
g5
g6
g7
g8
g9
ga
gabriel
gaga
gains
galaxies
galaxy
gale
gallagher
gallery
game
games
gamespot
gaming
gamma
garcia
garden
gardens
gardner
garin
garland
gary
gas
gate
gates
gateway
gay
gazeta
gazette
gazetteer
gazzetta
gb
gc
gd
ge
gemeinsame
gen
gender
gene
genealogical
genealogics
genealogie
genealogy
general
generale
generation
genesis
genetic
genetics
geneva
genius
genocide
genome
geo
geoffrey
geographic
geographical
geographique
geography
geological
geology
geonames
geonet
georg
george
georges
georgia
georgian
gerald
gerard
gerhard
german
germany
geschichte
gesellschaft
get
gets
getting
getty
gf
gg
ggk
gh
ghost
gi
gia
giant
gibson
gilbert
gillan
giorgio
giovanni
girl
girls
giuseppe
give
given
gives
gj
gk
gl
glagolitica
glass
glenn
gli
global
globe
gloria
glory
glossary
glottolog
glover
gm
gmbh
gn
gnome
gnu
go
goal
goals
god
gods
goes
going
gold
golden
golf
gone
gonzalez
good
goodman
google
gordon
gospel
gossip
got
gotha
gouv
gov
government
governor
gp
gpl
gps
gq
gr
grace
graeca
graecia
graf
graham
grammar
grammy
gran
grand
grande
granger
grant
grave
gray
great
greater
greatest
grece
grecia
greco
greece
greek
greeks
green
greenwood
greg
gregory
greta
grey
griffin
ground
group
groups
grove
growing
growth
grupo
gruyter
gs
gt
gtp
gu
guard
guardian
guerra
guerre
guest
guide
guidelines
guides
guild
guillaume
guinea
guinness
guitar
gulf
gun
guns
gustav
gutenberg
guy
gv
gw
gx
gy
gz
h
h0
h1
h2
h3
h4
h5
h6
h7
h8
h9
ha
haaretz
habenaria
habsburg
had
hal
half
hall
hamburg
hamilton
hammer
hammond
han
hanau
hand
handbook
handbuch
handle
hands
hanka
hannah
hans
hansen
happened
happy
harald
harcourt
hard
hardware
harold
harper
harpercollins
harris
harrison
harry
hart
harvard
harvey
has
hat
have
haven
hawaii
hb
hbo
hc
hcl
hd
he
head
health
heart
hearts
heat
heath
heather
heaven
heavy
heidelberg
heinemann
heinrich
heinz
held
helen
helena
hell
hellas
hellenic
hellenicparliament
hellenistic
hello
helm
help
hendrix
henri
henry
her
herald
herbert
here
heritage
herman
hermann
hero
heroes
herzog
het
hey
hf
hg
hh
hi
hidden
hierarchy
high
higher
highway
hill
hills
him
hindu
hip
his
histoire
historia
historians
historic
historical
histories
historique
history
hit
hitler
hits
hiv
hj
hk
hl
hm
hms
hn
ho
hoc
hoch
hoffmann
hold
hole
holiday
holland
hollywood
hollywoodreporter
holmes
holocaust
holt
holy
home
homepage
homme
homo
hon
hong
honor
honorary
honour
honours
hop
hope
hopkins
horror
horse
hospital
host
hot
hotel
houghton
hour
hours
hous
house
households
housing
houston
how
howard
hoyo
hp
hq
hr
hrsg
hs
ht
htm
html
http
https
hu
hubert
hudson
huffington
huffingtonpost
hugh
hughes
hugo
hulk
human
humanities
humans
humblot
hundred
hung
hungarian
hungary
hunger
hunt
hunter
hurricane
hurriyet
hv
hw
hx
hy
hz
i
i0
i1
i2
i3
i4
i5
i6
i7
i8
i9
ia
iaaf
ian
iau
ib
ibm
ibn
ic
ice
iceland
ich
icon
id
idea
ideas
identifiants
identification
identity
idol
idref
ie
ieee
iefimerida
if
iffhs
ifpi
ig
ign
ignored
ih
ii
iii
ij
ik
il
ile
illinois
illustrated
im
image
images
imdb
impact
imperial
implications
important
impossible
in
inc
includes
including
independence
independent
index
india
indian
indiana
individual
indo
indonesia
induced
industrial
industries
industry
infection
infectious
influence
info
infobasket
information
infty
initiative
inner
innovation
inorganic
inscriptions
insee
inside
insider
instagram
institut
institute
institution
institutiones
institutions
instituto
int
integer
integration
intel
intelligence
inter
interactive
interest
interface
interior
internal
international
internationale
internet
interpretation
interview
interviews
into
introduction
invalid
invasion
invention
investigation
io
ioannis
ioc
iommi
ion
ionia
ios
ip
ipad
iphone
ipu
iq
ir
iran
iraq
iras
ireland
irish
iron
is
isaac
isabart
isbn
isis
islam
islamic
island
islands
iso
israel
israeli
issn
issue
issues
ist
istanbul
istituto
istoria
it
italia
italian
italiana
italiani
italiano
italy
item
itemid
its
itunes
iu
iucn
iucnredlist
iupac
iv
ivan
iw
ix
iy
iz
j
j0
j1
j2
j3
j4
j5
j6
j7
j8
j9
ja
jack
jackson
jacob
jacobs
jacques
jam
jama
james
jamie
jan
jane
janet
january
japan
japanese
jason
java
javascript
jay
jazeera
jazz
jb
jc
jd
je
jean
jeanne
jeep
jeff
jefferson
jeffrey
jena
jennifer
jeremy
jerome
jerry
jersey
jerusalem
jessica
jesus
jet
jethro
jewish
jews
jf
jg
jh
ji
jim
jimi
jimmy
jj
jk
jl
jm
jn
jo
joachim
joan
job
joe
joel
johan
johann
johannes
john
johnny
johns
johnson
join
joins
joint
jon
jonathan
jones
jordan
jorge
jose
josef
joseph
josh
joshua
journal
journals
journey
joy
jp
jpg
jpl
jq
jr
js
jsp
jstor
jt
ju
juan
judas
judith
jul
jules
julia
julian
julie
julius
july
jump
jun
june
jungle
junior
jure
jurgen
just
justice
justin
jv
jw
jx
jy
jz
k
k0
k1
k2
k3
k4
k5
k6
k7
k8
k9
ka
kai
kaiser
karamzin
karen
karl
katalogisering
kate
katherine
kathimerini
kazakhstan
kazhdan
kb
kc
kd
kde
ke
keep
keith
kelly
ken
kennedy
kenneth
kenntnis
kent
kentucky
kevin
key
kf
kg
kh
khan
ki
kid
kids
kill
killed
killer
killing
kilmister
kim
kind
kindred
king
kingdom
kingdoms
kings
kirby
kiss
kit
kj
kk
kl
klaus
klein
km
kn
knight
knopf
know
knowledge
known
ko
koch
koh
kong
kopitar
korea
korean
kos
kosmos
kosovo
kp
kq
kr
ks
kt
ku
kultur
kunst
kurt
kv
kw
kx
ky
kyiv
kz
kɔ
l
l0
l1
l2
l3
l4
l5
l6
l7
l8
l9
la
lab
label
labor
laboratory
labour
ladies
lady
lake
lakers
lambda
lambert
lancet
land
lands
landscape
lane
lang
language
languages
langue
lanka
large
largest
larousse
larry
lars
las
last
late
later
latest
latimes
latin
latina
latvia
launch
launches
laura
laurent
law
lawrence
laws
lb
lc
ld
le
lead
leader
leaders
leadership
leading
leads
league
learning
least
leave
leaves
lebanon
leben
lecture
led
lee
left
legacy
legal
legales
legend
legendary
legends
lehrgebaude
leiden
leipzig
leksikon
leo
leon
leonard
leonardo
leopold
leq
les
leschk
leslie
less
lessons
let
letter
letterarie
letters
lettres
leuven
levant
level
levy
lewis
lex
lexicon
lexikon
lf
lg
lh
li
lialh
lib
liber
liberal
liberation
liberty
libraries
library
libre
libri
libris
libro
license
liddell
lie
life
lifestyle
lifo
liga
light
ligue
like
lil
lim
limited
lincoln
linda
line
lines
linguae
linguistics
link
links
linnaeus
linux
lion
lis
lisa
list
lista
liste
listedmonuments
lists
lit
literary
literatur
literature
lithuania
little
littlefield
liu
live
liverpool
lives
living
livre
lj
lk
ll
llc
lloyd
lm
ln
lo
loc
local
location
lock
log
logic
london
lonely
long
longman
look
looking
lopez
lord
lorenzo
lorraine
los
loss
lost
lot
louis
louise
love
loves
low
lower
lp
lpg
lq
lr
ls
lt
ltd
lu
lucas
lucia
lucien
lucy
ludwig
luftwaffe
lui
luigi
luis
luke
lunar
lundy
luxembourg
lv
lw
lx
ly
lynn
lyon
lyrics
lz
m
m0
m1
m2
m3
m4
m5
m6
m7
m8
m9
ma
mac
macdonald
macedonia
macedonian
machine
macmillan
mactutor
mad
madagascar
madame
made
madison
madonna
madrid
mafia
mag
magazine
magic
magna
magnetic
magnolia
magnus
mai
maiden
mail
main
maint
maison
major
make
makes
making
mal
malaysia
malcolm
male
malta
man
management
manager
manchester
manga
mann
manual
manuel
many
map
mapping
maps
mar
marc
marca
marcel
march
marchand
marci
marco
marcus
mare
marek
margaret
maria
marie
marina
marine
marino
mario
maritime
mark
market
marketing
marko
marriage
mars
marshall
martin
martinez
marvel
mary
maryland
mas
mason
mass
massachusetts
massacre
master
masters
match
matches
matchid
material
materials
math
mathbb
mathbf
mathcal
mathematical
mathematics
mathrm
matrix
matt
matter
matthew
matthews
matthias
maurice
max
maximus
maxwell
may
mayer
mayo
mayor
mb
mbox
mc
mcdonald
mcfarland
mcgraw
md
me
mean
meaning
means
measurement
mechanisms
med
medal
media
medical
medici
medicine
medicines
medien
medieval
mediterranean
medium
meet
meeting
mega
megadeth
megarid
melbourne
member
members
membership
memoirs
memorial
memories
memory
men
mental
mer
mercedes
mercury
merimee
merriam
message
met
meta
metaboles
metacritic
metal
metallica
metallum
method
methods
metro
metropolitan
mexico
meyer
mf
mg
mh
mhz
mi
mia
miami
michael
michel
michele
michelle
michigan
microbiology
microsoft
mid
middle
midi
midnight
mifflin
mig
might
migration
miguel
mike
mil
milan
milano
miles
military
millennium
miller
million
mills
min
mind
mine
mineralogy
minerals
mini
mining
minister
ministry
minnesota
minor
minority
minos
minutes
miroslav
mirror
miss
missing
mission
mit
mitchell
mix
mj
mk
ml
mls
mm
mn
mo
mobile
mod
mode
model
models
modern
mojo
mol
moldova
molecular
moment
mon
monaco
monarchy
monday
monde
mondo
money
monica
monimos
monitor
monitoring
monte
montenegro
month
monthly
montreal
monument
monuments
moon
moore
moravian
more
morea
moretti
morgan
morning
morris
morrison
mort
mortality
mos
moscow
most
mother
motion
motor
motorhead
motors
mount
mountain
mountains
mouse
move
movement
moves
movie
movies
mozilla
mp
mq
mr
mrna
mrs
ms
msn
mt
mtv
mu
much
muere
muhammad
muller
multi
multiple
munchen
mundo
munich
municipal
municipalities
municipality
munzinger
murder
murphy
murray
musee
museo
museum
museums
music
musica
musical
musicians
muslim
must
mv
mvp
mw
mx
my
mystery
myth
mythology
myths
mz
mɑ
n
n0
n1
n2
n3
n4
n5
n6
n7
n8
n9
na
nabla
nach
nacional
nacl
naftemporiki
name
named
names
nancy
naoh
napoleon
napoli
nas
nasa
nash
nassau
nat
nathan
nation
national
nationale
nationalism
nations
native
nato
natur
natura
naturae
natural
nature
naval
navy
nazi
nazionale
nb
nba
nbc
nc
ncaa
ncbi
nch
nd
ne
nea
near
need
needs
neil
neill
nel
nelson
neo
nepal
nesil
net
netflix
netherlands
network
networks
neue
neurology
never
new
newman
news
newsbeast
newsid
newsit
newspaper
newspapers
newsroom
newsweek
newton
next
nf
ng
ngc
nh
ni
nice
nicholas
nick
nickelodeon
nicol
nicolas
nicole
nid
nie
nielsen
nigeria
night
nights
nih
nikos
nina
nine
nineteenth
nintendo
nissan
nj
nk
nl
nlg
nlm
nm
nme
nn
no
nobel
nobelprize
noble
node
noel
nohlen
noir
nokia
nomenclature
nominations
nominees
non
nord
normal
norman
normdatei
north
northern
norton
norway
norwegian
norwich
nos
not
note
notes
nothing
notice
notices
noticia
noticias
notre
nouveau
nouvelle
nov
nova
novel
november
novosti
now
np
npr
nq
nr
nrk
ns
nsa
nt
nu
nuclear
nuevo
num
number
numberempire
numbers
numismatiche
nutrition
nv
nw
nx
ny
nytimes
nz
o
o0
o1
o2
o3
o4
o5
o6
o7
o8
o9
oa
oaks
ob
obituaries
obituary
object
objects
observations
observatory
observer
oc
occupation
occupational
ocean
och
oclc
oct
october
od
oder
odysseus
odyssey
oe
oeis
of
off
office
official
officially
officiel
officielle
offs
oficial
og
oh
ohio
oi
oikmet
oil
oj
ok
oklahoma
ol
old
oldest
oldid
olga
olimpici
oliver
olivier
olympia
olympic
olympics
olympionikai
om
omar
omega
on
once
one
onepage
online
onlinelibrary
only
onsports
oo
op
opac
opel
open
opening
opens
opera
operation
operations
operatorname
opinion
opposition
option
opus
opuscula
oq
or
oral
orange
orchestra
order
orders
ordre
org
organic
organisation
organization
orient
oriental
origin
original
origins
orlando
orleans
oro
orthodox
os
osborne
osbourne
oscar
oscars
oslo
osprey
osterreichischen
ot
other
others
otto
ottoman
ou
our
out
outline
ov
over
overview
ow
owen
own
ox
oxford
oy
oz
p
p0
p1
p2
p3
p4
p5
p6
p7
p8
p9
pa
pacific
page
pages
paice
pain
painter
painting
paintings
pais
pakistan
pal
palace
palais
palazzo
palestine
palgrave
palmer
pan
pandektis
panel
panellenici
pantheon
paolo
papa
paper
paperback
papers
papirologiche
par
para
paradise
parameter
paramount
paris
park
parker
parliament
parliamentary
part
partial
parties
parts
party
pas
pascal
passes
passion
past
pat
patent
path
patients
patricia
patrick
patsi
patterns
paul
paulo
pay
pays
pb
pbs
pc
pd
pdf
pe
peace
pearson
pedro
peer
peerage
pele
peloponnese
pen
penguin
pennsylvania
people
peoples
per
pere
perez
perfect
performance
period
periodic
periodical
perrins
perry
perseus
persian
person
personal
personen
persons
perspective
perspectives
peru
pet
peter
peterson
pethane
petit
peugeot
pf
pflanzensystems
pg
ph
pharmacology
phase
phch
phd
phi
phil
philadelphia
philenews
philip
philippe
philips
phillips
philosophical
philosophy
phoenix
phone
photo
photos
php
phys
physical
physics
physiology
pi
piano
pic
pick
pics
picture
pictures
pid
pierre
pieter
pietro
pii
pilot
pink
pioneer
pj
pk
pl
place
places
plan
planck
plane
planet
planetary
planets
planning
plans
plant
plants
platform
platinum
play
player
players
playing
playstation
plos
plus
pm
pmatrix
pmc
pmid
pn
pnas
po
pocket
poems
poetry
pohl
pohlin
point
points
pokemon
poland
pole
police
policy
polish
politica
political
politico
politics
politique
poll
polls
polo
polsce
polska
polski
pontos
pop
pope
popular
population
populations
por
porsche
port
portal
porter
porto
portrait
portugal
portuguese
position
possible
post
postaux
poste
potential
potter
pour
powell
power
powers
pp
ppm
pq
pr
practical
practice
practices
pragense
prague
pre
pregnancy
prehistoire
preliminary
premier
premiere
premios
prentice
present
presentation
presented
presidency
president
presidential
press
presse
presses
pressure
pretty
prevention
preview
price
pride
priest
prima
primary
prime
primera
primes
prince
princes
princess
princeton
principles
print
printing
prio
prison
privacy
private
prix
prize
prizes
pro
problem
problems
proc
proceedings
process
processing
producer
product
production
productions
products
prof
professional
professor
profile
profiles
program
programme
programming
progress
progressive
project
projects
prometheus
properties
property
prosopography
protection
protein
protest
protests
protocol
protothema
province
ps
psi
psychiatry
psychological
psychology
pt
pu
pub
public
publication
publications
published
publisher
publishers
publishing
pubmed
puchmayer
punk
pure
purple
put
putin
putnam
pv
pw
px
py
python
pz
pɾo
q
q0
q1
q2
q3
q4
q5
q6
q7
q8
q9
qa
qatar
qb
qc
qd
qe
qf
qg
qh
qi
qj
qk
ql
qm
qn
qo
qp
qq
qr
qs
qt
qu
quad
quality
quantum
quarterly
quarters
que
quebec
queen
queens
query
quest
question
questions
qui
quot
qv
qw
qx
qy
qz
r
r0
r1
r2
r3
r4
r5
r6
r7
r8
r9
ra
race
rachel
racing
radical
radio
raf
rai
railway
rain
rainbow
rally
ralph
ram
rand
random
range
rangle
ranking
rankings
rap
rapid
rare
rate
ratings
raw
ray
raymond
rb
rc
rch
rd
re
reaction
read
reader
reading
ready
real
realgm
reality
really
reason
reasons
rebecca
rebel
rebels
rec
recent
receptor
recipients
recognition
record
recording
recordings
records
recovery
red
redir
reed
ref
reference
references
referendum
referentiels
reflections
reform
regime
regina
region
regional
regions
register
registry
regular
regulation
reich
reign
reinhard
related
relation
relations
relationship
release
released
releases
religion
religions
religious
remains
remember
remix
renaissance
renault
rene
rep
repertoire
report
reporter
reports
repository
representation
representatives
reprint
reprinted
repubblica
republic
republica
republique
required
rerum
res
rescue
research
reserve
resident
resistance
resolution
resource
resources
response
rest
result
results
retrieved
retrodb
return
returns
reuters
rev
revealed
reveals
review
reviews
revised
revisited
revolution
revolutionary
revue
rex
rey
reynolds
rf
rfc
rg
rh
rho
ri
ria
riaa
rice
rich
richard
richardson
richmond
richter
rick
ricordi
rider
right
rightarrow
rights
riley
ring
rings
rio
rise
rising
risk
river
rizospastis
rj
rk
rkd
rkdartists
rl
rm
rn
rna
ro
road
rob
robert
roberto
roberts
robertson
robin
robinson
rock
rocks
rodriguez
roger
rogers
roh
roi
roland
role
roll
rolling
rom
roma
roman
romana
romance
romania
romanian
rome
romeo
ron
ronald
room
root
roots
rosa
rose
rosen
roses
ross
roster
rotten
round
route
routledge
rover
row
rowman
roy
royal
royale
rp
rq
rr
rs
rsssf
rt
rte
ru
ruby
rudolf
rue
rule
rulers
rules
ruling
run
runciman
runner
running
rural
rush
russell
russia
russian
ruth
rv
rw
rx
ry
ryan
rz
s
s0
s1
s2
s3
s4
s5
s6
s7
s8
s9
sa
sabbath
sachsen
sacred
safe
safety
saga
sage
said
saint
saints
sale
sales
salon
salt
salvador
sam
same
samsung
samuel
san
sanchez
sandra
sans
sant
santa
santos
sao
sapientiae
sara
sarah
sars
satellite
saturday
saturn
saudi
saunders
save
saving
saxon
say
says
sb
sc
scale
scandal
scarecrow
scene
scenes
sch
schaum
schedule
schmidt
schneider
scholar
scholars
school
schools
schuster
sci
science
sciencedirect
sciences
scientific
scientist
scientists
score
scores
scotland
scott
scottish
scream
screen
script
scriptores
sculpture
sd
sdna
se
sea
sean
search
season
seat
seattle
sebastian
sec
second
secret
secretary
secrets
section
security
seds
see
seen
sega
seine
select
selected
selection
self
selling
semi
sen
senate
senior
sense
sentragoal
sep
september
sequel
sequence
sequences
ser
sera
serbia
serbian
sergio
serie
series
server
servers
service
services
ses
session
set
sets
settlement
settlements
setton
seven
seventh
several
sex
sexual
sf
sg
sh
shadow
shakespeare
share
shaw
she
sheet
shell
sherlock
shield
ship
ships
shooting
shop
shores
short
shot
should
show
shows
shtml
si
sic
sicily
sid
side
sie
siecle
siemens
sierra
sigma
sigmalive
sign
signal
signs
sih
silence
silent
silva
silver
sim
simbad
simon
simple
sims
sin
since
sing
singapore
singer
singh
single
singles
sir
sistemo
sister
site
sites
situation
six
sixth
size
sj
sk
skai
skin
skoda
sky
sl
slam
slavicae
slavonic
slavorum
slaw
slayer
sleep
slowanka
sm
small
smart
smith
smithsonian
smoke
sms
sn
snac
snow
so
sobre
soc
soccer
soccerway
social
socialist
societe
society
sofia
soft
software
sol
solar
sold
soldier
soldiers
solid
solo
solomon
solution
some
something
son
song
songfacts
songs
sonic
sons
sony
sophia
sophie
soul
souls
sound
soundtrack
source
sources
sous
south
southern
soviet
sp
space
spain
spanish
special
species
spectrum
speech
speed
spencer
spider
spiegel
spin
spirit
split
sport
sportando
sporting
sports
spot
sprache
sprachen
spring
springer
sputnik
sputnikmusic
spy
sq
sqrt
squad
square
sr
sri
ss
st
sta
stable
stade
stadium
stadt
staff
stage
stalin
stammtafeln
stan
stand
standard
standards
stanford
stanley
star
stars
start
stat
state
statement
states
station
statistical
statistics
stats
status
stay
steam
steel
stefan
stefano
stein
step
stephanie
stephen
stern
stetson
steve
steven
stewart
sti
still
stin
stm
sto
stock
stockholm
stokavski
ston
stone
stones
stop
store
storia
storico
stories
storm
story
straight
straits
strange
strategic
strategies
strategy
strauss
stream
streaming
street
strike
string
strong
structure
structures
struggle
sts
stuart
student
students
studies
studio
studios
study
stuttgart
style
su
sub
subject
success
such
sud
sudan
sugar
suggested
sui
suicide
suite
sullivan
sultan
sum
summary
summer
sun
sunday
super
superieur
suppl
supplement
support
supreme
sur
surface
surgery
survey
survival
survivor
susan
sutton
suv
sv
sw
sweden
swedish
sweet
swift
swiss
switch
switzerland
sword
sx
sy
sydney
symphony
symposium
syndrome
synthesis
syria
syrian
system
systematic
systems
sz
t
t0
t1
t2
t3
t4
t5
t6
t7
t8
t9
ta
tab
table
tables
tablesc
tag
taiwan
take
takes
taking
tale
talent
tales
taliban
talk
talks
tan
tanea
tank
tanzania
target
task
tau
tauris
taylor
tb
tc
tcp
td
te
team
teams
teatro
tech
technical
techniques
technologies
technology
ted
teen
tel
telebarometer
telegraph
telescope
television
tell
temperature
temple
tempo
temps
ten
tennis
term
terms
terra
terrabook
territory
terror
terrorism
terry
tesla
test
testament
testimonianze
testing
texas
text
texts
tf
tfrac
tg
th
thames
than
that
the
theater
theatre
theguardian
their
them
theme
then
theodor
theodore
theory
thepeerage
therapy
there
thesaurus
these
thesis
thessaloniki
thessaly
theta
they
thing
things
think
third
this
thomas
thompson
thomson
thor
those
thought
thousand
thrace
thrash
threat
threatened
three
thriller
through
thursday
ti
tiger
til
tim
time
timeline
times
timothy
tin
tis
title
tj
tk
tl
tm
tn
to
today
todd
together
tokyo
tom
tomatoes
tomb
tome
tommy
tomorrow
ton
tonight
tony
too
tool
tools
top
topic
topographical
tops
tor
toronto
tos
total
tou
touch
tour
tourism
tournament
tous
tout
tovima
toward
towards
tower
town
toxicology
toy
toyota
tp
tq
tr
track
tracks
trade
tradition
traditional
traffic
tragedy
trailer
traill
train
training
trans
transactions
transfer
transfermarkt
transformation
transition
translated
translation
transport
travel
travels
treadgold
treatment
treaty
treccani
tree
trek
trends
tres
trial
trials
triangle
tribune
tribute
triple
trismegistos
triumph
troops
trophy
tropical
trouble
true
trump
trust
truth
ts
tt
tu
tufts
tull
turbo
turk
turkey
turkish
turks
turn
turner
turns
tv
tvxs
tw
twelfth
twentieth
twenty
twin
twitter
two
tx
txt
ty
tyler
type
types
tz
u
u0
u1
u2
u3
u4
u5
u6
u7
u8
u9
ua
ub
uber
ubuntu
uc
ucla
ud
ue
uefa
uf
ufo
ug
uh
ui
uj
uk
ukraine
ukrainian
ul
ulrich
ultimate
ultra
ultratop
um
un
una
und
under
underground
understanding
une
unesco
uni
unicef
unicode
union
unit
united
unity
univ
universal
universe
universitat
universite
university
unix
unknown
until
uo
uoa
up
uparrow
update
updated
updates
uploads
upon
upper
upsilon
uq
ur
urban
urbanisation
uri
url
us
usa
usatoday
usb
use
used
user
users
uses
usgs
using
uss
ut
utc
utm
uu
uv
uw
ux
uy
uz
v
v0
v1
v2
v3
v4
v5
v6
v7
v8
v9
va
vaccine
vaclav
valley
value
values
vampire
van
var
variable
variety
various
varphi
vatican
vaughan
vb
vc
vd
ve
vec
ved
vegas
venezia
venezuela
venice
venus
vera
verhaltnissen
verlag
version
versus
very
veteris
vf
vg
vh
vi
via
vice
victims
victor
victoria
victory
vid
vida
vidakovic
video
videos
vie
vienna
view
views
vii
viii
viking
villa
village
ville
vincent
vincitori
vintage
vinyl
violence
virgin
virginia
virtual
virus
vision
visit
vista
visual
vita
vitro
vizier
vj
vk
vl
vladimir
vm
vn
vo
voa
vogue
voice
voices
vol
volkswagen
volleyball
vols
volume
volumes
volvo
vom
von
voor
vote
votes
voting
voyage
vp
vpn
vq
vr
vs
vt
vu
vulgo
vv
vw
vx
vy
vz
w
w0
w1
w2
w3
w4
w5
w6
w7
w8
w9
wa
wagner
wagon
wales
walk
walker
walking
wall
wallace
walt
walter
wang
want
wanted
wants
war
ward
warfare
warner
warning
warren
warriors
wars
warsaw
was
washington
washingtonpost
watch
water
waters
watson
wave
way
wayback
wayne
ways
wb
wc
wd
we
weapons
weather
web
webarchive
webb
webcitation
webcite
weber
website
webster
wedding
wednesday
week
weekend
weekly
weir
weiss
welch
welcome
well
welle
wells
welt
weplayball
were
werner
wesley
west
western
westminster
wf
wg
wh
what
when
where
which
while
white
whitney
who
whole
why
wi
wide
widow
wien
wiener
wife
wii
wiki
wikidata
wikimedia
wikipedia
wikisource
wild
wildlife
wiley
wilhelm
wilkinson
will
willem
william
williams
williamson
wilson
win
wind
windows
wine
wing
wings
winner
winners
winning
wins
winter
wire
wired
wisconsin
wissenschaften
with
within
without
wj
wk
wl
wm
wn
wo
wolf
wolff
wolfgang
wolfram
woman
women
won
wood
woods
woolf
word
wordpress
words
work
working
works
workshop
world
worlds
worldwide
worterbuch
worth
would
wp
wq
wr
wrestling
wright
writer
writers
writing
writings
written
ws
wsj
wt
wu
wv
ww
wwe
www
wx
wy
wydawnictwo
wz
x
x0
x1
x2
x3
x4
x5
x6
x7
x8
x9
xa
xb
xbox
xc
xd
xe
xf
xg
xh
xi
xii
xiii
xinhua
xiv
xix
xj
xk
xl
xm
xml
xn
xo
xp
xq
xr
xrightarrow
xs
xt
xu
xv
xvi
xvii
xviii
xw
xx
xy
xz
y
y0
y1
y2
y3
y4
y5
y6
y7
y8
y9
ya
yahoo
yale
yang
yb
yc
yd
ye
year
yearbook
years
yellow
yemen
yes
yet
yf
yg
yh
yi
yj
yk
yl
ym
yn
yo
york
yorker
you
young
your
youth
youtube
yp
yq
yr
ys
yt
yu
yugoslavia
yv
yves
yw
yx
yy
yz
z
z0
z1
z2
z3
z4
z5
z6
z7
z8
z9
za
zahlen
zb
zc
zd
ze
zealand
zeit
zeitschrift
zeitung
zeppelin
zero
zf
zg
zh
zhang
zi
zj
zk
zl
zm
zn
zo
zone
zougla
zp
zq
zr
zs
zt
zu
zum
zur
zv
zw
zx
zy
zz
{
|
}
~
¡
£
¦
§
¨
©
ª
«
¬
®
¯
°
±
²
³
´
µ
¶
·
¹
º
»
¼
½
¿
×
ß
æ
ð
ða
ði
ðo
ø
þ
đ
ħ
ı
ł
ŋ
œ
ƒ
ɐ
ɑ
ɒ
ɔ
ɕ
ə
ɚ
ɛ
ɜ
ɟ
ɡ
ɣ
ɣo
ɥ
ɨ
ɪ
ɫ
ɯ
ɱ
ɲ
ɹ
ɾ
ɾa
ɾe
ɾi
ɾo
ʁ
ʂ
ʃ
ʊ
ʋ
ʌ
ʎ
ʒ
ʔ
ʝ
ʝi
ʰ
ʲ
ʷ
ʹ
ʻ
ʼ
ʾ
ʿ
ˈ
ˌ
ː
˙
͵
΄
α
ααρον
ααρων
ααχεν
αβ
αβαειο
αββαειο
αββαειου
αβγ
αβγα
αβεβαιη
αβεβαιοτητα
αβερωφ
αβιβ
αβιμελεχ
αβινιον
αβρααμ
αγ
αγα
αγαθα
αγαθη
αγαθο
αγαθοι
αγαθοις
αγαθον
αγαθος
αγαθου
αγαθους
αγαθων
αγαλμα
αγαλματα
αγαλματος
αγαλματων
αγαμεμνονα
αγαμεμνων
αγαμος
αγαν
αγαπα
αγαπαει
αγαπας
αγαπη
αγαπημενα
αγαπημενη
αγαπημενο
αγαπημενος
αγαπην
αγαπης
αγαπησε
αγαπητος
αγαπουν
αγαπουσε
αγαπω
αγγ
αγγεια
αγγειο
αγγειων
αγγελικη
αγγελο
αγγελοι
αγγελον
αγγελοπουλος
αγγελος
αγγελου
αγγελους
αγγελων
αγγιζει
αγγλ
αγγλια
αγγλιας
αγγλιδα
αγγλικα
αγγλικες
αγγλικη
αγγλικης
αγγλικο
αγγλικος
αγγλικου
αγγλικων
αγγλο
αγγλοι
αγγλος
αγγλου
αγγλους
αγγλων
αγε
αγει
αγειν
αγησιλαος
αγια
αγιαν
αγιαξ
αγιας
αγιο
αγιοι
αγιον
αγιος
αγιου
αγιους
αγιω
αγιων
αγκαθια
αγκαλια
αγκυρα
αγκυρας
αγκωνα
αγνη
αγνης
αγνοει
αγνοια
αγνοιας
αγνοουνται
αγνοωντας
αγνωστα
αγνωστες
αγνωστη
αγνωστης
αγνωστο
αγνωστοι
αγνωστος
αγνωστου
αγνωστους
αγνωστων
αγορα
αγοραζει
αγοραν
αγορας
αγορασε
αγορασει
αγορασουν
αγοραστηκε
αγορες
αγορι
αγορια
αγορων
αγρα
αγρας
αγραφων
αγρια
αγριας
αγριες
αγρινιο
αγρινιου
αγριο
αγριος
αγριππα
αγριππας
αγριων
αγροκτημα
αγροτες
αγροτης
αγροτικα
αγροτικες
αγροτικη
αγροτικης
αγροτικο
αγροτικος
αγροτικου
αγροτικων
αγροτων
αγρου
αγρους
αγρων
αγχος
αγχους
αγω
αγωγη
αγωγης
αγωγος
αγων
αγωνα
αγωνας
αγωνες
αγωνια
αγωνιζεται
αγωνιζομενος
αγωνιζονται
αγωνιζονταν
αγωνιζοταν
αγωνισμα
αγωνισματα
αγωνιστει
αγωνιστες
αγωνιστη
αγωνιστηκαν
αγωνιστηκε
αγωνιστης
αγωνιστικες
αγωνιστικη
αγωνιστικης
αγωνιστικο
αγωνιστικων
αγωνιστων
αγωνος
αγωνων
αδ
αδα
αδαμ
αδαμαντιος
αδεια
αδειαν
αδειας
αδειες
αδειο
αδειων
αδελαιδα
αδελφε
αδελφες
αδελφη
αδελφην
αδελφης
αδελφια
αδελφο
αδελφοι
αδελφοις
αδελφον
αδελφος
αδελφοτητα
αδελφοτητας
αδελφου
αδελφους
αδελφω
αδελφων
αδενες
αδερφες
αδερφη
αδερφια
αδερφο
αδερφος
αδερφου
αδερφους
αδη
αδηλον
αδης
αδιακοπα
αδιαφορια
αδιεξοδο
αδικα
αδικειν
αδικημα
αδικηματα
αδικηματων
αδικια
αδικιαν
αδικιας
αδικο
αδικον
αδικος
αδικως
αδολφο
αδολφος
αδολφου
αδου
αδρανεια
αδριανος
αδριανου
αδριανουπολη
αδριανουπολης
αδριατικη
αδριατικης
αδυναμη
αδυναμια
αδυναμιας
αδυναμιες
αδυνατη
αδυνατο
αδυνατον
αδυνατος
αε
αει
αεκ
αελ
αεπ
αερα
αερας
αερια
αεριο
αεριου
αεριων
αεροδρομια
αεροδρομιο
αεροδρομιου
αερολιμενας
αεροπλανα
αεροπλανο
αεροπλανου
αεροπλανων
αεροπορια
αεροποριας
αεροπορικες
αεροπορικη
αεροπορικης
αεροπορικο
αεροπορικων
αερος
αεροσκαφη
αεροσκαφος
αεροσκαφους
αεροσκαφων
αεροστατα
αεροστατο
αετο
αετος
αετου
αζ
αζερμπαιτζαν
αζιζ
αζωτο
αζωτου
αη
αηρ
αηττητος
αθ
αθανασια
αθανασιαδης
αθανασιο
αθανασιος
αθανασιου
αθανατον
αθανατος
αθανατων
αθηνα
αθηναι
αθηναικη
αθηναικης
αθηναικο
αθηναικος
αθηναικου
αθηναιοι
αθηναιοις
αθηναιος
αθηναιου
αθηναιους
αθηναις
αθηναιων
αθηνας
αθηνησι
αθηνησιν
αθηνων
αθλημα
αθληματα
αθληματος
αθληματων
αθλητες
αθλητη
αθλητης
αθλητικα
αθλητικες
αθλητικη
αθλητικης
αθλητικο
αθλητικος
αθλητικου
αθλητικων
αθλητισμο
αθλητισμος
αθλητισμου
αθλητρια
αθλητριες
αθλητων
αθροισμα
αθωος
αθωωθηκε
αι
αιαντα
αιας
αιγαιο
αιγαιου
αιγαλεω
αιγιαλειας
αιγιδα
αιγινα
αιγινας
αιγιο
αιγιου
αιγλη
αιγοκερως
αιγυπτιακα
αιγυπτιακες
αιγυπτιακη
αιγυπτιακης
αιγυπτιακο
αιγυπτιοι
αιγυπτιος
αιγυπτιους
αιγυπτιων
αιγυπτο
αιγυπτον
αιγυπτος
αιγυπτου
αιγυπτω
αιγων
αιει
αιθερα
αιθιοπια
αιθιοπιας
αιθουσα
αιθουσας
αιθουσες
αικ
αικατερινη
αικατερινης
αιλαντ
αιμα
αιματηρη
αιματι
αιματος
αιμιλιος
αιμορραγια
αιν
αινεια
αινειας
αινσταιν
αινω
αιξ
αιοβα
αιολος
αιρες
αιρεση
αις
αισθανεται
αισθανομαι
αισθανονται
αισθημα
αισθηματα
αισθησεις
αισθησεων
αισθησεως
αισθηση
αισθησιν
αισθησις
αισθητα
αισθητη
αισθητηρες
αισθητικα
αισθητικη
αισθητικης
αισχρον
αισχυλος
αισχυλου
αιτη
αιτημα
αιτηματα
αιτηματος
αιτησεις
αιτηση
αιτησης
αιτια
αιτιαν
αιτιας
αιτιατικη
αιτιες
αιτινες
αιτιο
αιτιολογια
αιτιον
αιτιος
αιτιων
αιτωλιας
αιτωλοακαρνανιας
αιτωλων
αιφνης
αιφνιδια
αιχμαλωσια
αιχμαλωσιας
αιχμαλωτιστηκε
αιχμαλωτοι
αιχμαλωτος
αιχμαλωτους
αιχμαλωτων
αιχμη
αιωνα
αιωνας
αιωνες
αιωνια
αιωνιον
αιωνος
αιωνων
ακ
ακαδημαικα
ακαδημαικη
ακαδημαικο
ακαδημαικος
ακαδημαικου
ακαδημαικων
ακαδημια
ακαδημιας
ακαδημιες
ακαδημιων
ακαρνανιας
ακατοικητη
ακατοικητο
ακελ
ακεραιο
ακεραιος
ακεραιοτητα
ακεραιων
ακης
ακι
ακινητα
ακινητο
ακινητος
ακινητων
ακλιτο
ακμασε
ακμες
ακμη
ακμης
ακοη
ακοης
ακολουθα
ακολουθει
ακολουθειται
ακολουθες
ακολουθη
ακολουθηθηκε
ακολουθησαν
ακολουθησε
ακολουθησει
ακολουθησουν
ακολουθια
ακολουθιας
ακολουθιες
ακολουθο
ακολουθοι
ακολουθος
ακολουθουμενη
ακολουθουμενο
ακολουθουν
ακολουθους
ακολουθουσαν
ακολουθουσε
ακολουθων
ακολουθωντας
ακολουθως
ακομα
ακομη
ακοντιο
ακος
ακουγεται
ακουγονται
ακουε
ακουει
ακουειν
ακουιτανια
ακουιτανιας
ακουραστα
ακους
ακουσα
ακουσαι
ακουσαν
ακουσαντες
ακουσας
ακουσατε
ακουσε
ακουσει
ακουση
ακουσουν
ακουστε
ακουστηκε
ακουστικη
ακουω
ακουων
ακρα
ακραια
ακραιες
ακραιο
ακραν
ακρας
ακρες
ακρη
ακριβα
ακριβεια
ακριβειας
ακριβεις
ακριβες
ακριβη
ακριβης
ακριβο
ακριβως
ακριτας
ακρο
ακροαση
ακροατηριο
ακρον
ακροπολεως
ακροπολη
ακροπολης
ακροπολιν
ακροπολις
ακρου
ακρων
ακρωνυμιο
ακρως
ακρωτηρι
ακρωτηριο
ακρωτηριου
ακτες
ακτη
ακτης
ακτιβιστες
ακτιβιστης
ακτιβιστρια
ακτινα
ακτινας
ακτινες
ακτινοβολια
ακτινοβολιας
ακτινων
ακτογραμμη
ακτων
ακυρωθηκε
ακυρωσε
ακυρωση
αλ
αλα
αλαμπαμα
αλαν
αλας
αλασκα
αλατα
αλατι
αλατιου
αλατος
αλατων
αλβανια
αλβανιας
αλβανικα
αλβανικη
αλβανικης
αλβανικο
αλβανοι
αλβανος
αλβανους
αλβανων
αλβεδο
αλβερτο
αλβερτος
αλβερτου
αλγεβρα
αλγεβρας
αλγεβρικη
αλγερι
αλγερια
αλγεριας
αλγοριθμο
αλγοριθμοι
αλγοριθμος
αλγοριθμου
αλγοριθμους
αλγος
αλεκος
αλεκου
αλεν
αλεξ
αλεξανδρα
αλεξανδρας
αλεξανδρεια
αλεξανδρειας
αλεξανδρο
αλεξανδρον
αλεξανδρος
αλεξανδρου
αλεξανδρουπολη
αλεξανδρουπολης
αλεξανδρω
αλεξαντερ
αλεξαντρ
αλεξει
αλεξη
αλεξης
αλεξια
αλεξιο
αλεξιος
αλεξιου
αλεξις
αλεπου
αλευρι
αλεχαντρο
αλη
αληθεια
αληθειαν
αληθειας
αληθεις
αληθες
αληθη
αληθης
αληθινα
αληθινη
αληθινο
αληθινος
αληθους
αληθως
αλι
αλιβεριου
αλιεια
αλιειας
αλικη
αλικης
αλις
αλκη
αλκης
αλκιβιαδη
αλκιβιαδης
αλκοολ
αλκοολη
αλλ
αλλα
αλλαγες
αλλαγη
αλλαγης
αλλαγων
αλλαζε
αλλαζει
αλλαζοντας
αλλαζουν
αλλαι
αλλαις
αλλαξαν
αλλαξε
αλλαξει
αλλαξουν
αλλας
αλλες
αλλη
αλληγορια
αλληλα
αλληλεγγυη
αλληλεγγυης
αλληλεπιδρασεις
αλληλεπιδραση
αλληλεπιδρασης
αλληλεπιδρουν
αλληλογραφια
αλληλογραφιας
αλληλοις
αλληλους
αλληλουχια
αλληλων
αλλην
αλλης
αλλιως
αλλο
αλλοι
αλλοις
αλλον
αλλος
αλλοτε
αλλου
αλλους
αλλω
αλλων
αλλως
αλλωστε
αλμα
αλματα
αλμπα
αλμπερ
αλμπερτ
αλμπερτο
αλμπουμ
αλμυρου
αλογα
αλογο
αλογον
αλογου
αλογων
αλονσο
αλουμινιο
αλουμινιου
αλπ
αλπεις
αλπεων
αλσος
αλτενμπουργκ
αλυσιδα
αλυσιδας
αλυσιδες
αλφα
αλφαβητα
αλφαβητικα
αλφαβητικη
αλφαβητο
αλφαβητου
αλφονσο
αλφονσος
αλφονσου
αλφρεντ
αλωση
αμ
αμα
αμαλια
αμαλιας
αμαν
αμαξα
αμαξι
αμαξωματος
αμαρουσιου
αμαρτημα
αμαρτια
αμαρτιαν
αμαρτιας
αμαρτιες
αμαρτιων
αμαχων
αμβερσα
αμβερσας
αμβουργο
αμβουργου
αμβροσιος
αμεινον
αμερικα
αμερικανιδα
αμερικανικα
αμερικανικες
αμερικανικη
αμερικανικης
αμερικανικο
αμερικανικος
αμερικανικου
αμερικανικων
αμερικανο
αμερικανοι
αμερικανος
αμερικανου
αμερικανους
αμερικανων
αμερικη
αμερικης
αμεσα
αμεσες
αμεση
αμεσης
αμεσο
αμεσος
αμεσως
αμεταβατο
αμην
αμιγως
αμιν
αμινη
αμινοξεα
αμλετος
αμμο
αμμος
αμμου
αμμοχωστου
αμμωνια
αμμωνιας
αμνηστια
αμοιβαια
αμοιβη
αμοιβης
αμπας
αμπελ
αμπελια
αμπελοκηπων
αμπελου
αμπντουλ
αμπντουλαχ
αμπου
αμστερνταμ
αμυνα
αμυνας
αμυνης
αμυντικες
αμυντικη
αμυντικο
αμυντικος
αμυντικου
αμφ
αμφι
αμφιβολια
αμφιβολιες
αμφιθεατρο
αμφιλεγομενη
αμφιλεγομενο
αμφισβητειται
αμφισβητηθηκε
αμφισβητησε
αμφισβητηση
αμφοιν
αμφοτερα
αμφοτερες
αμφοτεροι
αμφοτεροις
αμφοτερους
αμφοτερων
αμφω
αν
ανα
αναβαθμιση
αναβαθμιστηκε
αναβαση
αναβιωση
αναβληθηκε
αναβολη
αναγεννηση
αναγεννησης
αναγεται
αναγκαζει
αναγκαζεται
αναγκαζονται
αναγκαζοντας
αναγκαια
αναγκαιες
αναγκαιο
αναγκαιον
αναγκαιοτητα
αναγκαιων
αναγκασαν
αναγκασε
αναγκασει
αναγκαστηκαν
αναγκαστηκε
αναγκαστικα
αναγκαστικη
αναγκες
αναγκη
αναγκην
αναγκης
αναγκων
αναγλυφα
αναγλυφο
αναγνωριζε
αναγνωριζει
αναγνωριζεται
αναγνωριζονται
αναγνωριζοντας
αναγνωριζουν
αναγνωρισαν
αναγνωρισε
αναγνωρισει
αναγνωριση
αναγνωρισης
αναγνωρισιμη
αναγνωρισμενη
αναγνωρισμενο
αναγνωρισουν
αναγνωριστει
αναγνωριστηκαν
αναγνωριστηκε
αναγνωριστικο
αναγνωση
αναγνωσης
αναγνωστες
αναγνωστη
αναγνωστης
αναγονται
αναγορευτηκε
αναγραφεται
αναγραφη
αναγραφονται
αναγωγη
αναδεικνυεται
αναδειξει
αναδειξη
αναδειχθει
αναδειχθηκαν
αναδειχθηκε
αναδειχτηκε
αναδημοσιευση
αναδιαρθρωση
αναδιοργανωση
αναδρομη
αναδρομικη
αναζητα
αναζητησε
αναζητησει
αναζητησεις
αναζητηση
αναζητησης
αναζητουν
αναζητουσε
αναζητωντας
αναθεμα
αναθεσει
αναθεση
αναθεωρημενη
αναθεωρηση
αναιμια
αναισθησια
ανακαινιση
ανακαινιστηκε
ανακαλυπτει
ανακαλυπτουν
ανακαλυφθει
ανακαλυφθηκαν
ανακαλυφθηκε
ανακαλυψαν
ανακαλυψε
ανακαλυψει
ανακαλυψεις
ανακαλυψη
ανακαλυψης
ανακαμψη
ανακαταληψη
ανακατασκευαστηκε
ανακατασκευη
ανακατελαβε
ανακηρυξε
ανακηρυξη
ανακηρυσσεται
ανακηρυχθει
ανακηρυχθηκε
ανακηρυχτηκε
ανακληθηκε
ανακληση
ανακοινωθει
ανακοινωθηκαν
ανακοινωθηκε
ανακοινωνει
ανακοινωσαν
ανακοινωσε
ανακοινωσει
ανακοινωσεις
ανακοινωση
ανακοπη
ανακουφιση
ανακριση
ανακτηθηκε
ανακτησει
ανακτηση
ανακτησης
ανακτορα
ανακτορο
ανακτορου
ανακτορων
ανακωχη
αναλαβει
αναλαβουν
αναλαβων
αναλαμβανε
αναλαμβανει
αναλαμβανοντας
αναλαμβανουν
αναληψεως
αναληψη
αναλογα
αναλογες
αναλογη
αναλογια
αναλογιες
αναλογικα
αναλογικη
αναλογο
αναλογον
αναλογως
αναλυει
αναλυεται
αναλυσεις
αναλυση
αναλυσης
αναλυτες
αναλυτικα
αναλυτικη
αναμειξη
αναμενεται
αναμενομενη
αναμενομενο
αναμενοταν
αναμεσα
αναμεταξυ
αναμετρηθηκαν
αναμετρησεις
αναμετρηση
αναμετρησης
αναμιξη
αναμνησεις
αναμνηση
αναμνηστικα
αναμονη
αναμονης
αναμφιβολα
αναμφισβητητα
ανανεωθηκε
ανανεωσε
ανανεωση
ανανεωσης
αναξ
αναπαραγεται
αναπαραγονται
αναπαραγωγη
αναπαραγωγης
αναπαραγωγικη
αναπαραστασεις
αναπαρασταση
αναπαριστα
αναπαριστουν
αναπηρια
αναπληρωτη
αναπληρωτης
αναπνοη
αναπνοης
αναποδα
αναποσπαστο
αναπτυξει
αναπτυξεως
αναπτυξη
αναπτυξης
αναπτυξιακη
αναπτυξουν
αναπτυσσει
αναπτυσσεται
αναπτυσσομενες
αναπτυσσονται
αναπτυσσουν
αναπτυχθει
αναπτυχθηκαν
αναπτυχθηκε
αναπτυχθουν
αναργυρων
αναρριχηση
αναρτηση
ανασα
ανασκαφες
ανασκαφη
ανασκαφων
ανασκοπηση
αναστας
αναστασεως
ανασταση
αναστασια
αναστασιαδη
αναστασιαδης
αναστασιος
αναστασιου
αναστελλει
αναστημα
αναστολεις
αναστολη
αναστολης
ανασυγκροτηση
ανασυγκροτησης
αναταραχες
αναταραχη
ανατεθει
ανατεθηκε
ανατολας
ανατολη
ανατολης
ανατολια
ανατολιας
ανατολικα
ανατολικες
ανατολικη
ανατολικης
ανατολικο
ανατολικος
ανατολικου
ανατολικων
ανατομια
ανατραπηκε
ανατραφηκε
ανατρεψει
ανατροπη
ανατροφη
ανατυπωση
αναφερει
αναφερεται
αναφερθει
αναφερθηκαν
αναφερθηκε
αναφερομαστε
αναφερομενη
αναφερομενο
αναφερομενος
αναφερονται
αναφερονταν
αναφεροντας
αναφεροταν
αναφερουν
αναφορα
αναφορας
αναφορες
αναφορικα
αναφορων
αναχωρησε
αναχωρηση
αναψυχης
ανγκολα
ανγκολας
ανδεων
ανδρα
ανδρας
ανδρασι
ανδρασιν
ανδρεα
ανδρεας
ανδρεια
ανδρειαν
ανδρειας
ανδρεου
ανδρες
ανδρι
ανδριαντα
ανδριαντας
ανδρικη
ανδρικης
ανδρικο
ανδρικος
ανδρικου
ανδρο
ανδρονικο
ανδρονικος
ανδρονικου
ανδρος
ανδρου
ανδρων
ανεβαινε
ανεβαινει
ανεβαινοντας
ανεβαινουν
ανεβασε
ανεβει
ανεβη
ανεβηκαν
ανεβηκε
ανεγερθηκε
ανεγερση
ανεδειξε
ανεθεσε
ανεκαθεν
ανεκδοτα
ανεκτησε
ανελαβαν
ανελαβε
ανελειν
ανελθει
ανεμο
ανεμοι
ανεμος
ανεμου
ανεμους
ανεμων
ανεξαρτησια
ανεξαρτησιας
ανεξαρτητα
ανεξαρτητες
ανεξαρτητη
ανεξαρτητης
ανεξαρτητο
ανεξαρτητοι
ανεξαρτητος
ανεξαρτητου
ανεξαρτητους
ανεξαρτητων
ανεξαρτητως
ανεπαρκεια
ανεπαρκειας
ανεπαρκη
ανεπαρκης
ανεπιθυμητες
ανεπισημα
ανεπισημη
ανεπισημο
ανεπιτυχως
ανεπτυγμενη
ανεπτυξαν
ανεπτυξε
ανεργια
ανεργιας
ανερχεται
ανερχονται
ανερχοταν
ανεση
ανεστειλε
ανεστη
ανετα
ανετρεψε
ανευ
ανευρεση
ανεφεραν
ανεφερε
ανεφοδιασμου
ανζου
ανηκαν
ανηκε
ανηκει
ανηκουν
ανηλθε
ανηλικος
ανηλικων
ανημερα
ανηρ
ανησυχια
ανησυχιας
ανησυχιες
ανθ
ανθεκτικο
ανθη
ανθηση
ανθιμος
ανθολογια
ανθος
ανθρακα
ανθρακας
ανθρακικο
ανθρωπινα
ανθρωπινες
ανθρωπινη
ανθρωπινης
ανθρωπινο
ανθρωπινος
ανθρωπινου
ανθρωπινων
ανθρωπιστικη
ανθρωπιστικων
ανθρωπο
ανθρωποι
ανθρωποις
ανθρωπολογια
ανθρωπολογιας
ανθρωπον
ανθρωπος
ανθρωποτητα
ανθρωποτητας
ανθρωπου
ανθρωπους
ανθρωπω
ανθρωπων
ανθυπολοχαγος
ανι
ανικανος
ανικανοτητα
ανισοτητα
ανιχνευση
ανιχνευσης
ανιψια
ανιψιο
ανιψιος
ανιψιου
ανν
αννα
αννας
αννιβας
αννοβερου
ανοδο
ανοδος
ανοδου
ανοητος
ανοιγει
ανοιγμα
ανοιγματα
ανοιγματος
ανοιγοντας
ανοιγουν
ανοικοδομηθηκε
ανοικοδομηση
ανοικτα
ανοικτες
ανοικτη
ανοικτης
ανοικτο
ανοικτου
ανοιξαν
ανοιξε
ανοιξει
ανοιξη
ανοιξης
ανοιξουν
ανοιχτα
ανοιχτες
ανοιχτη
ανοιχτο
ανοιχτος
ανοιχτου
ανοργανη
ανορθωση
ανοχη
ανοχης
ανρι
αντ
αντα
ανταγωνισμο
ανταγωνισμος
ανταγωνισμου
ανταγωνιστες
ανταγωνιστης
ανταλλαγη
ανταλλαγης
ανταλλαγμα
ανταμ
ανταμοιβη
ανταμς
αντανακλα
ανταντ
ανταποκριθει
ανταποκρινεται
ανταποκρινονται
ανταποκριση
ανταποκριτης
ανταρκτικη
ανταρκτικης
ανταρσια
ανταρτες
ανταρτων
αντεδρασε
αντεπιθεση
αντερσον
αντζελες
αντζελο
αντι
αντιβασιλεα
αντιβασιλεας
αντιβασιλεια
αντιβασιλειας
αντιβασιλιας
αντιβασιλισσα
αντιβιοτικα
αντιγκουα
αντιγονη
αντιγονο
αντιγονος
αντιγονου
αντιγραφα
αντιγραφη
αντιγραφης
αντιγραφο
αντιγραφων
αντιδανειο
αντιδιαστολη
αντιδρα
αντιδρασεις
αντιδρασεων
αντιδραση
αντιδρασης
αντιδραστηρα
αντιδρουν
αντιθεσεις
αντιθεση
αντιθετα
αντιθετες
αντιθετη
αντιθετο
αντιθετος
αντιθετως
αντικαθιστα
αντικαθισταται
αντικαθιστωντας
αντικατασταθει
αντικατασταθηκαν
αντικατασταθηκε
αντικατασταση
αντικαταστασης
αντικαταστατης
αντικαταστησει
αντικατεστησαν
αντικατεστησε
αντικατοπτριζει
αντικειμενα
αντικειμενο
αντικειμενου
αντικειμενων
αντικρυ
αντικτυπο
αντικτυπος
αντιλαμβανεται
αντιληπτη
αντιληπτο
αντιληφθει
αντιληψεις
αντιληψη
αντιληψης
αντιμετωπιζαν
αντιμετωπιζε
αντιμετωπιζει
αντιμετωπιζεται
αντιμετωπιζονται
αντιμετωπιζοντας
αντιμετωπιζουν
αντιμετωπισαν
αντιμετωπισε
αντιμετωπισει
αντιμετωπιση
αντιμετωπισης
αντιμετωπισουν
αντιμετωπιστει
αντιμετωποι
αντιμετωπος
αντιο
αντιοχεια
αντιοχειας
αντιοχο
αντιοχος
αντιοχου
αντιπαλη
αντιπαλο
αντιπαλοι
αντιπαλος
αντιπαλοτητα
αντιπαλου
αντιπαλους
αντιπαλων
αντιπαραθεση
αντιπατρος
αντιπατρου
αντιποινα
αντιπολιτευση
αντιπολιτευσης
αντιπροεδρο
αντιπροεδρος
αντιπροεδρου
αντιπροσωπεια
αντιπροσωπειας
αντιπροσωπευε
αντιπροσωπευει
αντιπροσωπευουν
αντιπροσωπευτικο
αντιπροσωποι
αντιπροσωπος
αντιπροσωπους
αντιπροσωπων
αντιρρησεις
αντις
αντισταθει
αντισταθηκε
αντισταση
αντιστασης
αντιστασιακη
αντιστασιακος
αντιστοιχα
αντιστοιχει
αντιστοιχες
αντιστοιχη
αντιστοιχης
αντιστοιχια
αντιστοιχο
αντιστοιχος
αντιστοιχου
αντιστοιχουν
αντιστοιχους
αντιστοιχουσε
αντιστοιχων
αντιστοιχως
αντιστρατηγος
αντιστροφα
αντιστροφη
αντιστροφο
αντιστροφως
αντισφαιριση
αντισφαιρισης
αντισωματα
αντιταχθηκε
αντιτιθεται
αντιτορπιλικο
αντιτυπα
αντιτυπων
αντλει
αντολφ
αντον
αντονεσκου
αντονι
αντονιο
αντουαν
αντοχη
αντοχης
αντρα
αντρας
αντρε
αντρεα
αντρεας
αντρει
αντρες
αντριαν
αντριου
αντριους
αντρων
αντωνη
αντωνης
αντωνια
αντωνιο
αντωνιον
αντωνιος
αντωνιου
αντωνυμα
αντωνυμια
ανυψωση
ανχαλτ
ανω
ανωθεν
ανωμαλιες
ανωμαλου
ανωνυμη
ανωνυμο
ανωνυμος
ανωτατη
ανωτατης
ανωτατο
ανωτατος
ανωτατου
ανωτερα
ανωτερες
ανωτερη
ανωτερης
ανωτερο
ανωτερος
ανωτερου
ανωτερους
ανωτερω
ανωτερων
αξια
αξιαν
αξιας
αξιες
αξιζει
αξιο
αξιοθεατα
αξιοθεατο
αξιοι
αξιολογα
αξιολογες
αξιολογη
αξιολογηση
αξιολογησης
αξιολογο
αξιον
αξιοπιστη
αξιοπιστια
αξιοποιηση
αξιοπρεπεια
αξιος
αξιοσημειωτα
αξιοσημειωτες
αξιοσημειωτη
αξιοσημειωτο
αξιου
αξιωμα
αξιωματα
αξιωματικο
αξιωματικοι
αξιωματικος
αξιωματικου
αξιωματικους
αξιωματικων
αξιωματος
αξιωματουχοι
αξιωματουχος
αξιωματουχους
αξιωματουχων
αξιωματων
αξιων
αξιωσεις
αξιωση
αξονα
αξονας
αξονες
αο
αορ
αοριστον
αοριστος
αοριστου
αουγκουστ
αουγκσμπουργκ
αουσβιτς
αουτ
απ
απαγορευε
απαγορευει
απαγορευεται
απαγορευσε
απαγορευση
απαγορευσης
απαγορευτηκε
απαγωγη
απαιτει
απαιτειται
απαιτησε
απαιτησεις
απαιτησεων
απαιτηση
απαιτουμενη
απαιτουν
απαιτουνται
απαιτουσαν
απαιτουσε
απαιτωντας
απαλλαγη
απαν
απανου
απαντα
απαντας
απανταται
απανταχου
απαντες
απαντησαν
απαντησε
απαντησει
απαντησεις
απαντηση
απαντουν
απαντων
απαντωνται
απανω
απαξ
απαραιτητα
απαραιτητες
απαραιτητη
απαραιτητο
απαραιτητος
απαραιτητως
απαρεμφατο
απαρτιζεται
απαρτιζουν
απαρχες
απαρχη
απασαν
απασας
απασης
απασι
απασιν
απασχολει
απασχοληση
απασχολησης
απασχολουνται
απατη
απατης
απε
απεβ
απεβιωσαν
απεβιωσε
απεδειξε
απεδιδε
απεδωσε
απεθανε
απεθανεν
απεικονιζε
απεικονιζει
απεικονιζεται
απεικονιζονται
απεικονιζουν
απεικονισεις
απεικονιση
απεικονισης
απειλει
απειλειται
απειλες
απειλη
απειλης
απειλησε
απειλουμενων
απειρα
απειρο
απειρον
απειρος
απειρου
απειχε
απεκλεισε
απεκριθη
απεκτειναν
απεκτεινεν
απεκτησαν
απεκτησε
απελαση
απελευθερωθει
απελευθερωθηκε
απελευθερωνει
απελευθερωνεται
απελευθερωσε
απελευθερωσει
απελευθερωση
απελευθερωσης
απελευθερωτικο
απελευθερωτικου
απελθειν
απελπισια
απεναντι
απενειμε
απεπλευσε
απερ
απεργια
απερριψαν
απερριψε
απεσπασε
απεσταλμενος
απεσταλμενους
απεστειλαν
απεστειλε
απεστειλεν
απεσυρε
απετελεσε
απετυχαν
απετυχε
απευθειας
απευθυνεται
απευθυνονται
απεφερε
απεφυγε
απεχει
απεχουν
απηλθεν
απηχηση
απθ
απιεναι
απιθανο
απιστια
απλα
απλες
απλη
απλης
απλο
απλοι
απλος
απλοτητα
απλου
απλουν
απλους
απλουστερη
απλων
απλωνεται
απλως
απο
αποβαση
αποβιβαστηκε
αποβιωσει
αποβληθηκε
αποβλητα
αποβλητων
αποβολη
απογειο
απογειωση
απογευμα
απογοητευμενος
απογοητευση
απογονο
απογονοι
απογονος
απογονους
απογονων
απογραφες
απογραφεται
απογραφη
απογραφην
απογραφης
απογραφων
αποδεικνυει
αποδεικνυεται
αποδεικνυουν
αποδεικτικα
αποδειξει
αποδειξεις
αποδειξη
αποδειχθει
αποδειχθηκαν
αποδειχθηκε
αποδειχτηκε
αποδεκτες
αποδεκτη
αποδεκτο
αποδεκτος
αποδεχεται
αποδεχθηκε
αποδεχτηκε
αποδιδει
αποδιδεται
αποδιδονται
αποδιδουν
αποδοθει
αποδοθηκε
αποδοθουν
αποδοσεις
αποδοση
αποδοσης
αποδουναι
αποδοχη
αποδοχης
αποδραση
αποδωσει
αποελ
αποζημιωση
αποζημιωσης
αποηχο
αποθανειν
αποθανη
αποθανοντος
αποθεμα
αποθεματα
αποθεματων
αποθηκες
αποθηκευονται
αποθηκευση
αποθηκευσης
αποθηκη
αποικια
αποικιακη
αποικιας
αποικιες
αποικιων
αποικοι
αποικους
αποκαλει
αποκαλειται
αποκαλεσε
αποκαλουμενη
αποκαλουν
αποκαλουνται
αποκαλουνταν
αποκαλουσαν
αποκαλουσε
αποκαλυπτει
αποκαλυπτεται
αποκαλυπτουν
αποκαλυφθει
αποκαλυφθηκε
αποκαλυψαν
αποκαλυψε
αποκαλυψει
αποκαλυψεις
αποκαλυψη
αποκατασταθει
αποκατασταθηκε
αποκατασταση
αποκαταστασης
αποκαταστησει
αποκατεστησε
αποκεντρωσης
αποκλειει
αποκλειεται
αποκλεισει
αποκλεισμο
αποκλεισμος
αποκλεισμου
αποκλειστει
αποκλειστηκαν
αποκλειστηκε
αποκλειστικα
αποκλειστικη
αποκλειστικο
αποκλιση
αποκορυφωμα
αποκριθηκε
αποκριση
αποκτα
αποκτειναι
αποκτηθηκε
αποκτησει
αποκτηση
αποκτησης
αποκτησουν
αποκτουν
αποκτωντας
απολαμβανε
απολαμβανει
απολαμβανουν
απολαυση
απολιθωματα
απολλοδωρος
απολλοδωρου
απολλων
απολλωνα
απολλωνας
απολλωνια
απολλωνιος
απολλωνος
απολογια
απολογισμο
απολογισμος
απολυθηκε
απολυση
απολυτα
απολυτη
απολυτης
απολυτο
απολυτος
απολυτως
απομακρυνει
απομακρυνεται
απομακρυνθει
απομακρυνθηκε
απομακρυνση
απομειναρια
απομεινει
απομνημονευματα
απομονωση
απομονωσης
απονεμει
απονεμεται
απονεμηθηκαν
απονεμηθηκε
απονομη
απονομης
αποπειρα
αποπειρες
απορια
αποριαν
απορριμματων
απορριπτει
απορριφθηκε
απορριψει
απορριψη
απορροης
απορροφα
απορροφηση
απορροφησης
αποσαφηνιση
αποσιωπηθηκαν
αποσκοπει
αποσπασει
αποσπαση
αποσπασμα
αποσπασματα
αποσπαστηκε
αποσπαται
αποστασεις
αποστασεων
αποστασεως
αποσταση
αποστασης
αποστασιν
αποστολες
αποστολη
αποστολης
αποστολιδης
αποστολικη
αποστολο
αποστολοι
αποστολος
αποστολου
αποστολους
αποστολων
αποσυνθεση
αποσυρει
αποσυρθει
αποσυρθηκαν
αποσυρθηκε
αποσυρση
αποτελει
αποτελειται
αποτελειτο
αποτελεσαν
αποτελεσε
αποτελεσει
αποτελεσμα
αποτελεσματα
αποτελεσματικα
αποτελεσματικη
αποτελεσματικο
αποτελεσματικοτητα
αποτελεσματικοτητας
αποτελεσματος
αποτελεσματων
αποτελεσουν
αποτελουμενη
αποτελουμενο
αποτελουν
αποτελουνται
αποτελουνταν
αποτελουσαν
αποτελουσε
αποτελουταν
αποτελωντας
αποτομα
αποτομες
αποτομη
αποτρεπει
αποτρεψει
αποτρεψουν
αποτροπη
αποτυγχανει
αποτυπωμα
αποτυχει
αποτυχημενη
αποτυχια
αποτυχιας
αποτυχιες
απου
απουλιας
απουσια
απουσιαζει
απουσιας
αποφασεις
αποφασεων
αποφασεως
αποφαση
αποφασης
αποφασιζει
αποφασιζουν
αποφασιν
αποφασισαν
αποφασισε
αποφασισει
αποφασισμενος
αποφασιστηκε
αποφασιστικα
αποφασιστικη
αποφευγει
αποφευγεται
αποφευγοντας
αποφευγουν
αποφευχθει
αποφοιτησε
αποφοιτηση
αποφοιτοι
αποφοιτος
αποφυγει
αποφυγη
αποφυγουν
αποχη
αποχρωσεις
αποχρωση
αποχωρει
αποχωρησαν
αποχωρησε
αποχωρησει
αποχωρηση
αποψε
αποψεις
αποψεων
αποψη
αποψης
απρ
απριλιο
απριλιος
απριλιου
απω
απωλεια
απωλειας
απωλειες
απωλεσε
απωτερο
αρ
αρα
αραβας
αραβες
αραβια
αραβιας
αραβικα
αραβικες
αραβικη
αραβικης
αραβικο
αραβικου
αραβικων
αραβων
αραγωνιας
αρας
αργα
αργει
αργειοι
αργειους
αργειων
αργεντινη
αργεντινης
αργεντινος
αργη
αργησε
αργια
αργκο
αργο
αργολιδας
αργος
αργοτερα
αργοτερο
αργους
αργυρα
αργυρη
αργυρης
αργυριον
αργυριου
αργυρο
αργυροπουλος
αργυρος
αργυρου
αρειου
αρενα
αρεσε
αρεσει
αρετας
αρετες
αρετη
αρετην
αρετης
αρετων
αρεως
αρη
αρης
αρθουρ
αρθρ
αρθρα
αρθριτιδα
αρθρο
αρθρογραφος
αρθρον
αρθρου
αρθρων
αρθρωσεις
αρθρωση
αρια
αριαδνη
αριελ
αριζονα
αριθ
αριθμ
αριθμει
αριθμηση
αριθμησης
αριθμητικα
αριθμητικη
αριθμητικο
αριθμο
αριθμοι
αριθμον
αριθμος
αριθμου
αριθμους
αριθμουσε
αριθμω
αριθμων
αριστα
αριστειδης
αριστερα
αριστερας
αριστερη
αριστερης
αριστερο
αριστερος
αριστερου
αριστερων
αριστη
αριστοκρατια
αριστοκρατιας
αριστοκρατικη
αριστον
αριστος
αριστοτελειο
αριστοτελειου
αριστοτελη
αριστοτελης
αριστοτελους
αριστουργημα
αριστουργηματα
αριστοφανη
αριστοφανης
αριστων
αριων
αρκαδες
αρκαδια
αρκαδιας
αρκαδων
αρκει
αρκετα
αρκετες
αρκετη
αρκετο
αρκετοι
αρκετους
αρκετων
αρκουδα
αρκτικολεξο
αρκτος
αρλ
αρμα
αρματα
αρματος
αρματων
αρμενια
αρμενιας
αρμενικα
αρμενικη
αρμενικης
αρμενικο
αρμενιοι
αρμενιος
αρμενιους
αρμενιων
αρμοδια
αρμοδιες
αρμοδιο
αρμοδιος
αρμοδιοτητα
αρμοδιοτητας
αρμοδιοτητες
αρμοδιοτητων
αρμοδιου
αρμονια
αρμονιας
αρμονικη
αρμος
αρνειται
αρνηθει
αρνηθηκαν
αρνηθηκε
αρνηση
αρνησης
αρνητικα
αρνητικες
αρνητικη
αρνητικο
αρνητικων
αρνι
αρνολντ
αρνουνται
αρπαγη
αρπακτικα
αρπαξε
αρραβωνα
αρραβωνιαστηκε
αρρεν
αρρενα
αρρενες
αρρενων
αρριανος
αρρωστησε
αρρωστια
αρρωστος
αρσεναλ
αρσενικα
αρσενικο
αρσενικου
αρσενικων
αρση
αρσης
αρσινοη
αρτα
αρτας
αρτεμη
αρτεμιδος
αρτεμις
αρτηρια
αρτηριακη
αρτηριες
αρτης
αρτι
αρτιος
αρτον
αρτος
αρτουα
αρτους
αρχ
αρχαγγελος
αρχαγγελου
αρχαι
αρχαια
αρχαιας
αρχαιες
αρχαικη
αρχαιο
αρχαιοι
αρχαιολογια
αρχαιολογιας
αρχαιολογικα
αρχαιολογικες
αρχαιολογικη
αρχαιολογικης
αρχαιολογικο
αρχαιολογικος
αρχαιολογικου
αρχαιολογικων
αρχαιολογο
αρχαιολογοι
αρχαιολογος
αρχαιον
αρχαιοπρεπες
αρχαιος
αρχαιοτατων
αρχαιοτερα
αρχαιοτερη
αρχαιοτερο
αρχαιοτητα
αρχαιοτητας
αρχαιοτητες
αρχαιοτητων
αρχαιου
αρχαιους
αρχαιων
αρχας
αρχεια
αρχειν
αρχειο
αρχειοθετηθηκε
αρχειοθετημενο
αρχειον
αρχειου
αρχειων
αρχελαος
αρχες
αρχεται
αρχη
αρχηγειο
αρχηγια
αρχηγο
αρχηγοι
αρχηγος
αρχηγου
αρχηγους
αρχηγων
αρχην
αρχης
αρχιδουκα
αρχιδουκας
αρχιεπισκοπη
αρχιεπισκοπης
αρχιεπισκοπο
αρχιεπισκοπος
αρχιεπισκοπου
αρχιερεα
αρχιερεις
αρχιζε
αρχιζει
αρχιζοντας
αρχιζουν
αρχικα
αρχικες
αρχικη
αρχικης
αρχικο
αρχικος
αρχικου
αρχικων
αρχικως
αρχιμανδριτης
αρχιπελαγος
αρχιπελαγους
αρχισαν
αρχισε
αρχισει
αρχισουν
αρχιστρατηγος
αρχισυντακτης
αρχιτεκτονα
αρχιτεκτονας
αρχιτεκτονες
αρχιτεκτονικα
αρχιτεκτονικες
αρχιτεκτονικη
αρχιτεκτονικης
αρχιτεκτονικο
αρχιτεκτονων
αρχιτεκτων
αρχοντα
αρχοντας
αρχοντες
αρχοντικα
αρχοντικο
αρχοντος
αρχοντων
αρχων
αρωγη
αρωμα
ας
ασαντ
ασαφες
ασαφης
ασβεστιο
ασβεστιου
ασεν
ασημενια
ασημενιο
ασημι
ασθενεια
ασθενειαν
ασθενειας
ασθενειες
ασθενεις
ασθενειων
ασθενη
ασθενης
ασθενους
ασθενων
ασια
ασιαν
ασιας
ασιατικη
ασιατικης
ασιατικο
ασιστ
ασκ
ασκανια
ασκει
ασκειται
ασκησαν
ασκησε
ασκησει
ασκησεις
ασκησεως
ασκηση
ασκησης
ασκληπιου
ασκουν
ασκουνται
ασκουσαν
ασκουσε
ασμα
ασματα
ασπασια
ασπιδα
ασπιδας
ασπιδες
ασπρα
ασπρη
ασπρο
ασσυριων
ασταθεια
ασταθης
αστεια
αστειο
αστερα
αστερας
αστερες
αστερι
αστερια
αστερισμο
αστερισμος
αστερισμου
αστερισμους
αστεροειδεις
αστεροειδη
αστεροειδης
αστεροειδων
αστεροσκοπειο
αστεροσκοπειου
αστερων
αστηρ
αστικα
αστικες
αστικη
αστικης
αστικο
αστικοποιησης
αστικος
αστικου
αστικων
αστον
αστρα
αστραπη
αστρο
αστρολογια
αστρον
αστρονομια
αστρονομιας
αστρονομικη
αστρονομο
αστρονομοι
αστρονομος
αστρονομου
αστρονομους
αστρων
αστυ
αστυνομια
αστυνομιας
αστυνομικες
αστυνομικη
αστυνομικης
αστυνομικο
αστυνομικοι
αστυνομικος
αστυνομικου
αστυνομικους
αστυνομικων
ασυλο
ασυλου
ασυνηθιστα
ασυνηθιστη
ασυνηθιστο
ασφαλεια
ασφαλειαν
ασφαλειας
ασφαλεις
ασφαλες
ασφαλη
ασφαλης
ασφαλισεων
ασφαλισης
ασφαλως
ασχημα
ασχημη
ασχολειται
ασχοληθει
ασχοληθηκαν
ασχοληθηκε
ασχολια
ασχολιες
ασχολουνται
ασχολουνταν
ατα
αταλαντη
αταλαντης
αταξια
αταρ
ατε
ατεκνος
ατινα
ατλαντα
ατλαντικο
ατλαντικου
ατλας
ατλετικο
ατμο
ατμοσφαιρα
ατμοσφαιρας
ατμοσφαιρικη
ατμου
ατομα
ατομικα
ατομικες
ατομικη
ατομικης
ατομικο
ατομικων
ατομο
ατομου
ατομων
ατοπον
ατος
ατρομητο
ατρομητος
αττικα
αττικη
αττικην
αττικης
αττικο
αττικος
αττικου
ατυχημα
ατυχηματα
ατυχηματος
αυ
αυγ
αυγα
αυγη
αυγης
αυγο
αυγουστα
αυγουστινος
αυγουστο
αυγουστος
αυγουστου
αυγων
αυθαιρετες
αυθεντικη
αυθεντικο
αυθις
αυλες
αυλη
αυλην
αυλης
αυλος
αυλων
αυλωνα
αυξανει
αυξανεται
αυξανομενη
αυξανομενο
αυξανονται
αυξανοντας
αυξανοταν
αυξανουν
αυξηθει
αυξηθηκαν
αυξηθηκε
αυξημενες
αυξημενη
αυξημενο
αυξησε
αυξησει
αυξησεις
αυξηση
αυξησης
αυξησιν
αυξησουν
αυρα
αυριο
αυριον
αυστηρα
αυστηρη
αυστηρο
αυστραλια
αυστραλιανη
αυστραλιανο
αυστραλιας
αυστραλος
αυστρια
αυστριακη
αυστριακης
αυστριακο
αυστριακοι
αυστριακος
αυστριακου
αυστριακους
αυστριακων
αυστριας
αυστροουγγαρια
αυστροουγγαριας
αυτ
αυτα
αυται
αυταις
αυταρ
αυτας
αυτεινοι
αυτες
αυτη
αυτηι
αυτην
αυτης
αυτι
αυτια
αυτικα
αυτο
αυτοβιογραφια
αυτοδιοικηση
αυτοδιοικησης
αυτοθι
αυτοι
αυτοις
αυτοκινητα
αυτοκινητο
αυτοκινητοβιομηχανια
αυτοκινητοδρομο
αυτοκινητοδρομος
αυτοκινητοδρομου
αυτοκινητου
αυτοκινητων
αυτοκρατειρα
αυτοκρατειρας
αυτοκρατορα
αυτοκρατορας
αυτοκρατορες
αυτοκρατορια
αυτοκρατοριας
αυτοκρατορικη
αυτοκρατορικης
αυτοκρατορικο
αυτοκρατορικος
αυτοκρατορικου
αυτοκρατορος
αυτοκρατορων
αυτοκρατωρ
αυτοκτονει
αυτοκτονησε
αυτοκτονησει
αυτοκτονια
αυτοκτονιας
αυτοματα
αυτοματη
αυτοματο
αυτοματως
αυτον
αυτονομα
αυτονομες
αυτονομη
αυτονομης
αυτονομια
αυτονομιας
αυτονομο
αυτοπεποιθηση
αυτος
αυτου
αυτους
αυτοχθονες
αυτοχθονων
αυτω
αυτωι
αυτων
αυχενα
αφ
αφαιρεθει
αφαιρεθηκαν
αφαιρεθηκε
αφαιρει
αφαιρειται
αφαιρεσε
αφαιρεσει
αφαιρεση
αφαιρεσης
αφανεις
αφγανισταν
αφεθηκε
αφενος
αφεντη
αφεντης
αφεντικο
αφετερου
αφετηρια
αφη
αφηγειται
αφηγησεις
αφηγηση
αφηγητης
αφηκε
αφηκεν
αφηνε
αφηνει
αφηνοντας
αφηνουν
αφηνω
αφηρημενη
αφης
αφησαν
αφησε
αφησει
αφησουν
αφθονα
αφθονια
αφθονο
αφιερωθηκε
αφιερωμα
αφιερωματα
αφιερωμενη
αφιερωμενο
αφιερωμενος
αφιερωσε
αφικετο
αφιξη
αφοι
αφορα
αφορμη
αφορμην
αφορουν
αφορουσαν
αφορουσε
αφοσιωθηκε
αφοσιωση
αφοτου
αφου
αφρικανικη
αφρικανικης
αφρικη
αφρικης
αφρο
αφροδιτη
αφροδιτης
αχ
αχαια
αχαιας
αχαιοι
αχαιους
αχαιων
αχιλλεα
αχιλλεας
αχιλλευς
αχιλλεως
αχμαντ
αχμεντ
αχμετ
αχρι
αχρωμο
αψβουργων
αψιδα
αψιδες
β
βα
βαβυλωνα
βαβυλωνας
βαβυλωνος
βαγγελη
βαγγελης
βαγδατη
βαγκνερ
βαγονια
βαδην
βαδισε
βαζει
βαζοντας
βαζουν
βαζω
βαθεια
βαθη
βαθια
βαθιες
βαθμιαια
βαθμιδα
βαθμιδας
βαθμιδες
βαθμο
βαθμοι
βαθμολογησης
βαθμολογια
βαθμολογιας
βαθμολογιες
βαθμολογικου
βαθμος
βαθμου
βαθμους
βαθμων
βαθος
βαθους
βαθρο
βαθυ
βαθυτερα
βαιμαρης
βακαλοπουλος
βακτηρια
βακτηριων
βαλ
βαλβιδα
βαλδουινο
βαλδουινος
βαλδουινου
βαλε
βαλει
βαλενθια
βαλερι
βαλη
βαλκανια
βαλκανικη
βαλκανικης
βαλκανικο
βαλκανικοι
βαλκανικου
βαλκανικους
βαλκανικων
βαλκανιων
βαλντεμαρ
βαλουα
βαλουν
βαλτερ
βαλτικη
βαλτικης
βαλτου
βαμβα
βαμβακι
βαν
βανκουβερ
βαπτιση
βαπτισμα
βαπτιστη
βαπτιστηκε
βαρβαρα
βαρβαρας
βαρβαροι
βαρβαροις
βαρβαρους
βαρβαρων
βαρβογλη
βαρεα
βαρεια
βαρελας
βαρελια
βαρεων
βαρεως
βαρζος
βαρη
βαρθολομαιος
βαρια
βαριες
βαρκα
βαρκελωνη
βαρκελωνης
βαρκες
βαρονο
βαρονος
βαρονου
βαρος
βαρους
βαρσοβια
βαρσοβιας
βαρυ
βαρυς
βαρυτερα
βαρυτητα
βαρυτητας
βαρων
βαρωνος
βασ
βασανα
βασανιστηρια
βασει
βασεις
βασεων
βαση
βασης
βασιζεται
βασιζονται
βασιζονταν
βασιζοταν
βασικα
βασικες
βασικη
βασικης
βασικο
βασικοι
βασικος
βασικου
βασικους
βασικων
βασιλεα
βασιλεας
βασιλει
βασιλεια
βασιλειαδης
βασιλειαν
βασιλειας
βασιλειο
βασιλειον
βασιλειος
βασιλειου
βασιλεις
βασιλειων
βασιλευ
βασιλευει
βασιλευς
βασιλευσε
βασιλεψε
βασιλεων
βασιλεως
βασιλη
βασιλης
βασιλι
βασιλια
βασιλιαδες
βασιλιαδων
βασιλιας
βασιλικα
βασιλικες
βασιλικη
βασιλικης
βασιλικο
βασιλικον
βασιλικος
βασιλικου
βασιλικους
βασιλικων
βασιλισσα
βασιλισσας
βασιλισσης
βασιλοπουλο
βασιν
βασις
βασισμενα
βασισμενες
βασισμενη
βασισμενο
βασισμενος
βασιστηκαν
βασιστηκε
βασκων
βατικανο
βατικανου
βαυαρια
βαυαριας
βαυαρικη
βαφη
βγ
βγαζει
βγαζω
βγαινει
βγαινουν
βγαλει
βγει
βγηκαν
βγηκε
βγουν
βδ
βε
βεατρικη
βεβαια
βεβαιο
βεβαιον
βεβαιος
βεβαιοτητα
βεβαιως
βεγγαλης
βεγκας
βελγικη
βελγικο
βελγιο
βελγιου
βελγος
βελη
βελιγραδι
βελιγραδιου
βελονα
βελος
βελτιον
βελτιωθει
βελτιωθηκε
βελτιωμενη
βελτιωνει
βελτιωσε
βελτιωσει
βελτιωσεις
βελτιωση
βελτιωσης
βελτιωσουν
βενεδικτος
βενεζουελα
βενεζουελας
βενετια
βενετιας
βενετικη
βενετο
βενετοι
βενετους
βενετων
βενζινη
βενζινης
βενιαμιν
βενιζελο
βενιζελος
βενιζελου
βερα
βερενικη
βερμαχτ
βερν
βερναρδος
βερνερ
βερνης
βερντεν
βερντι
βεροια
βεροιας
βερολινο
βερολινου
βερονα
βερσαλλιες
βερσαλλιων
βεστφαλιας
βετερανος
βετερανων
βετο
βεττιν
βη
βηθλεεμ
βημα
βηματα
βηματος
βητα
βι
βια
βιαια
βιαιες
βιαιη
βιαιο
βιαν
βιας
βιαστικα
βιβλια
βιβλικη
βιβλιο
βιβλιογραφια
βιβλιοθηκες
βιβλιοθηκη
βιβλιοθηκης
βιβλιοθηκων
βιβλιον
βιβλιοπωλειο
βιβλιοπωλειον
βιβλιου
βιβλιων
βιβλο
βιβλος
βιβλου
βιεν
βιεννη
βιεννης
βιετναμ
βιθυνιας
βικιθηκη
βικιλεξικο
βικινγκ
βικιπαιδεια
βικιπαιδειας
βικτορ
βικτορια
βικτωρ
βικτωρα
βικτωρια
βικτωριας
βικυ
βιλα
βιλαετι
βιλελμινη
βιλνεβ
βιλνιους
βιλχελμ
βινσεντ
βιντεο
βιντεοπαιχνιδι
βιντεοπαιχνιδια
βιντεοπαιχνιδιων
βιντσι
βινυλιου
βιο
βιογραφια
βιογραφιες
βιογραφικα
βιογραφικο
βιογραφος
βιοι
βιολα
βιολι
βιολογια
βιολογιας
βιολογικα
βιολογικη
βιολογικο
βιολογικων
βιολοντσελο
βιομηχανια
βιομηχανιας
βιομηχανιες
βιομηχανικα
βιομηχανικες
βιομηχανικη
βιομηχανικης
βιομηχανικο
βιομηχανικων
βιομηχανιων
βιομηχανος
βιον
βιος
βιοτοπος
βιου
βιους
βιοχημεια
βιρτζινια
βισκοντι
βισση
βιταμινη
βιττελσμπαχ
βιω
βιωσιμη
βλ
βλαβες
βλαβη
βλαβης
βλαντ
βλαντιμιρ
βλαντισλαβ
βλαστηση
βλαστησης
βλαχια
βλαχιας
βλαχοι
βλαχος
βλεμμα
βλεπε
βλεπει
βλεπειν
βλεπεις
βλεπετε
βλεποντας
βλεπουμε
βλεπουν
βλεπω
βλεπων
βοδια
βοεβοδατο
βοεβοδατου
βοη
βοηθα
βοηθαει
βοηθεια
βοηθειαν
βοηθειας
βοηθειν
βοηθησαν
βοηθησε
βοηθησει
βοηθησετε
βοηθησουν
βοηθηστε
βοηθητικα
βοηθητικο
βοηθο
βοηθοι
βοηθος
βοηθου
βοηθουν
βοηθους
βοηθουσε
βοηθωντας
βοημια
βοημιας
βοημικης
βοημουνδος
βοιβοντινα
βοιωτια
βοιωτιας
βοιωτων
βολγα
βολει
βολες
βολη
βολης
βολιβια
βολιβιας
βολο
βολος
βολου
βολτα
βολφ
βολφγκανγκ
βολφενμπυτελ
βομβα
βομβαρδισμο
βομβαρδισμου
βομβαρδισμους
βομβαρδιστικα
βομβας
βομβες
βομβιστικη
βομβων
βοναπαρτη
βονιφατιος
βοοειδη
βοοειδων
βορα
βορεια
βορειας
βορειες
βορειο
βορειοανατολικα
βορειοανατολικη
βορειοανατολικης
βορειοανατολικο
βορειοδυτικα
βορειοδυτικη
βορειοδυτικης
βορειοδυτικο
βορειος
βορειοτερα
βορειοτερο
βορειου
βορειων
βορειως
βορρα
βορραν
βορρας
βοσκος
βοσνια
βοσνιακα
βοσνιας
βοσπορου
βοστωνη
βοστωνης
βοτανα
βοτανικη
βουδα
βουδαπεστη
βουδαπεστης
βουδας
βουδισμου
βουκουρεστι
βουκουρεστιου
βουλα
βουλας
βουλγαρη
βουλγαρης
βουλγαρια
βουλγαριας
βουλγαρικα
βουλγαρικες
βουλγαρικη
βουλγαρικης
βουλγαρικο
βουλγαρικου
βουλγαροι
βουλγαρος
βουλγαρους
βουλγαρων
βουλει
βουλεσθαι
βουλεται
βουλευτες
βουλευτη
βουλευτης
βουλευτικες
βουλευτικων
βουλευτων
βουλη
βουλην
βουλης
βουληση
βουλιαγμενης
βουλομαι
βουλομενοι
βουλομενοις
βουλομενον
βουλομενος
βουλονται
βουλωνης
βουνα
βουνο
βουνου
βουνων
βουρβονων
βουργουνδια
βουργουνδιας
βους
βουτυρο
βοων
βραβαντης
βραβεια
βραβειο
βραβειου
βραβειων
βραβευθηκε
βραβευμενη
βραβευμενος
βραβευσεις
βραβευση
βραβευτηκε
βραδια
βραδυ
βραδυνη
βραζιλια
βραζιλιανος
βραζιλιας
βρανδεμβουργου
βρασμου
βραχια
βραχιονα
βραχιονες
βραχο
βραχονησιδα
βραχος
βραχου
βραχους
βραχυ
βραχυβια
βραχωδεις
βραχωδη
βραχων
βρε
βρεθει
βρεθηκαν
βρεθηκε
βρεθουν
βρει
βρεις
βρειτε
βρεμης
βρετανη
βρετανης
βρετανια
βρετανιας
βρετανιδα
βρετανικα
βρετανικες
βρετανικη
βρετανικης
βρετανικο
βρετανικου
βρετανικων
βρετανο
βρετανοι
βρετανος
βρετανου
βρετανους
βρετανων
βρεφη
βρεφικη
βρεφος
βρεχει
βρεχεται
βρηκαν
βρηκε
βρισκει
βρισκεται
βρισκονται
βρισκονταν
βρισκοντας
βρισκοταν
βρισκουμε
βρισκουν
βρουμε
βρουν
βρουτος
βροχες
βροχη
βροχης
βροχοπτωσεις
βροχοπτωση
βρυξελλες
βρυξελλων
βρυσες
βρυση
βρω
βυζαντινα
βυζαντινες
βυζαντινη
βυζαντινης
βυζαντινο
βυζαντινοι
βυζαντινος
βυζαντινου
βυζαντινους
βυζαντινων
βυζαντιο
βυζαντιος
βυζαντιου
βυθιζεται
βυθιση
βυθιστηκε
βυθο
βυρτεμβεργης
βυρων
βυρωνα
βωμο
βωμον
βωμος
βωμου
γ
γα
γαβριηλ
γαβριηλιδης
γαζα
γαζας
γαια
γαιαν
γαιες
γαιος
γαιου
γαιων
γαλα
γαλααδ
γαλαζια
γαλαζιο
γαλακτος
γαλανη
γαλανο
γαλαξια
γαλαξιας
γαλαξιες
γαλαξιων
γαλατα
γαλατες
γαλατια
γαλατιας
γαλατων
γαλερες
γαληνη
γαλικια
γαλικιας
γαλιλαιας
γαλλ
γαλλια
γαλλιας
γαλλιδα
γαλλικα
γαλλικες
γαλλικη
γαλλικης
γαλλικο
γαλλικος
γαλλικου
γαλλικων
γαλλο
γαλλοι
γαλλος
γαλλου
γαλλους
γαλλων
γαμο
γαμοι
γαμον
γαμος
γαμου
γαμους
γαμπρο
γαμπρος
γαμπρου
γαμων
γανδης
γαρ
γαστρονομια
γατα
γατας
γατες
γδ
γε
γεγονε
γεγονεν
γεγονεναι
γεγονος
γεγονοτα
γεγονοτος
γεγονοτων
γεγονως
γεγραπται
γεδεων
γεια
γειλ
γειτονα
γειτονες
γειτονια
γειτονιας
γειτονιες
γειτονικα
γειτονικες
γειτονικη
γειτονικο
γειτονικων
γελια
γελιο
γεματα
γεματη
γεματο
γεματος
γεμιζει
γεν
γεναρχης
γενεα
γενεαλογια
γενεας
γενεθλια
γενεθλιων
γενει
γενεσεως
γενεση
γενεσθαι
γενεσιν
γενεσις
γενετειρα
γενετειρας
γενετικα
γενετικες
γενετικη
γενετικης
γενευη
γενευης
γενεων
γενη
γενηται
γενια
γενιας
γενιες
γενικα
γενικες
γενικη
γενικης
γενικο
γενικος
γενικοτερα
γενικοτερη
γενικου
γενικων
γενικως
γενν
γεννα
γενναια
γενναιος
γενναιοτητα
γενναιως
γεννηθει
γεννηθεις
γεννηθηκαν
γεννηθηκε
γεννηματα
γεννημενη
γεννημενος
γεννησε
γεννησει
γεννησεων
γεννησεως
γεννηση
γεννησης
γεννητικα
γεννιεται
γεννιουνται
γενοβα
γενοβας
γενοιτο
γενοκτονια
γενοκτονιας
γενομενα
γενομενη
γενομενην
γενομενης
γενομενοι
γενομενον
γενομενος
γενομενου
γενομενους
γενομενων
γενος
γενους
γενων
γερα
γερακι
γερας
γερασιμος
γερεβαν
γερμ
γερμανια
γερμανιας
γερμανιδα
γερμανικα
γερμανικες
γερμανικη
γερμανικης
γερμανικο
γερμανικος
γερμανικου
γερμανικων
γερμανο
γερμανοι
γερμανος
γερμανου
γερμανους
γερμανων
γερο
γεροντα
γεροντας
γεροντες
γεροντων
γερος
γερουσια
γερουσιας
γερουσιαστες
γερουσιαστη
γερουσιαστης
γερουσιαστων
γερων
γες
γευμα
γευση
γεφυρα
γεφυρας
γεφυρες
γεφυρι
γεωγραφια
γεωγραφιας
γεωγραφικα
γεωγραφικες
γεωγραφικη
γεωγραφικης
γεωγραφικο
γεωγραφικοι
γεωγραφικου
γεωγραφικων
γεωγραφος
γεωλογια
γεωλογιας
γεωλογικη
γεωμετρια
γεωμετριας
γεωμετρικα
γεωμετρικη
γεωμετρικο
γεωργακας
γεωργια
γεωργιαδη
γεωργιαδης
γεωργιανα
γεωργιανη
γεωργιας
γεωργικα
γεωργικες
γεωργικη
γεωργικων
γεωργιο
γεωργιος
γεωργιου
γη
γηγενεις
γηινη
γην
γηπεδα
γηπεδο
γηπεδου
γηρας
γης
γι
για
γιαγια
γιαγιας
γιακομπ
γιαν
γιανγκ
γιαννακης
γιαννενα
γιαννη
γιαννης
γιαννινα
γιαννιτσων
γιαννοπουλος
γιατι
γιατρο
γιατροι
γιατρος
γιατρου
γιατρους
γιβραλταρ
γιγαντας
γιγαντες
γιγαντων
γιγνεσθαι
γιγνεται
γιγνομενον
γιγνονται
γινει
γινεσθαι
γινεται
γινη
γινομαι
γινομενα
γινομενο
γινομενον
γινομενων
γινονται
γινονταν
γινοταν
γινουν
γινω
γιο
γιογκα
γιοζεφ
γιοι
γιολαντα
γιονγκ
γιορκ
γιορταζει
γιορταζεται
γιορτες
γιορτη
γιορτης
γιος
γιου
γιουβεντους
γιουγκοσλαβια
γιουγκοσλαβιας
γιουγκοσλαβικη
γιουζεφ
γιουναιτεντ
γιουνγκ
γιουρι
γιουροπα
γιους
γιουσουφ
γιουτα
γιοχαν
γιοχανες
γιων
γιωργης
γιωργο
γιωργος
γιωργου
γκ
γκαι
γκαιτε
γκαλερι
γκαμα
γκαμπον
γκαμπριελ
γκανα
γκαντι
γκαρθια
γκαρι
γκαρντ
γκαρσια
γκαστον
γκει
γκεοργκ
γκεοργκι
γκεστ
γκεσταπο
γκετινγκεν
γκετο
γκιζ
γκικας
γκιλαν
γκιλμπερτ
γκινες
γκλεν
γκλοβερ
γκντανσκ
γκογια
γκογκ
γκολ
γκολφ
γκοντζαγκα
γκορντον
γκοτα
γκοττορπ
γκουρα
γκουρου
γκουσταβ
γκραμι
γκραν
γκραντ
γκραντε
γκραχαμ
γκρεγκ
γκρει
γκρεις
γκρι
γκριζο
γκριν
γκρουπ
γκυ
γκυρτης
γκωλ
γλαγολιτικο
γλασκωβης
γλαυκος
γλεντι
γλυκα
γλυκεια
γλυκια
γλυκο
γλυκοζη
γλυκοζης
γλυκου
γλυκυ
γλυπτα
γλυπτες
γλυπτη
γλυπτης
γλυπτικη
γλυπτικης
γλυπτο
γλυπτων
γλυφαδα
γλυφαδας
γλωσσα
γλωσσαν
γλωσσας
γλωσσες
γλωσσης
γλωσσικα
γλωσσικες
γλωσσικη
γλωσσικης
γλωσσικο
γλωσσικου
γλωσσολογια
γλωσσολογιας
γλωσσολογικα
γλωσσολογος
γλωσσων
γνησια
γνωμη
γνωμην
γνωμης
γνωναι
γνωριζαν
γνωριζε
γνωριζει
γνωριζετε
γνωριζοντας
γνωριζουμε
γνωριζουν
γνωριζω
γνωριμια
γνωρισαν
γνωρισε
γνωρισει
γνωρισμα
γνωρισματα
γνωριστηκε
γνωσεις
γνωσεων
γνωσεως
γνωση
γνωσης
γνωσιν
γνωσις
γνωστα
γνωστες
γνωστη
γνωστης
γνωστο
γνωστοι
γνωστον
γνωστος
γνωστοτερα
γνωστοτερο
γνωστοτερος
γνωστου
γνωστους
γνωστων
γοδεφρειδο
γοδεφρειδος
γοητεια
γομα
γονατα
γονατο
γονεις
γονεων
γονιδια
γονιδιο
γονιδιου
γονιδιων
γονιμοτητας
γονιων
γονος
γοργα
γοργονα
γοτθικη
γοτθικο
γου
γουαιτ
γουατεμαλα
γουατσον
γουδι
γουειν
γουελς
γουελφων
γουεστ
γουεστερν
γουιλ
γουιλιαμ
γουιλιαμς
γουιλσον
γουιμπλεντον
γουινεα
γουινεας
γουλιελμο
γουλιελμος
γουλιελμου
γουλφ
γουν
γουνα
γουντ
γουοκερ
γουολτερ
γουορεν
γουορικ
γουσταυος
γουσταυου
γρ
γραμ
γραμμα
γραμμαρια
γραμμασι
γραμματα
γραμματεα
γραμματεας
γραμματεια
γραμματειας
γραμματεις
γραμματευς
γραμματικη
γραμματικης
γραμματικος
γραμματος
γραμματων
γραμμενα
γραμμενη
γραμμενο
γραμμες
γραμμη
γραμμης
γραμμικα
γραμμικη
γραμμικης
γραμμικο
γραμμων
γραπτα
γραπτες
γραπτη
γραπτο
γραφει
γραφεια
γραφειν
γραφειο
γραφειου
γραφεις
γραφειων
γραφες
γραφεται
γραφη
γραφημα
γραφην
γραφης
γραφικα
γραφικες
γραφικη
γραφικο
γραφικων
γραφονται
γραφοντας
γραφουν
γραφτει
γραφτηκαν
γραφτηκε
γραφω
γραφων
γραψει
γραψιμο
γρεβενα
γρεβενων
γρηγορα
γρηγορη
γρηγορης
γρηγοριανο
γρηγοριο
γρηγοριος
γρηγοριου
γρηγορο
γρηγορος
γρια
γριβα
γριβας
γριπη
γριπης
γροιλανδια
γροσια
γς
γυαλι
γυαλια
γυαλιου
γυμνα
γυμνασια
γυμνασιο
γυμνασιου
γυμναστηριο
γυμναστικη
γυμναστικης
γυμναστικος
γυμνη
γυμνο
γυμνοι
γυμνος
γυναικα
γυναικας
γυναικεια
γυναικειας
γυναικειες
γυναικειο
γυναικειος
γυναικειου
γυναικειων
γυναικες
γυναικι
γυναικος
γυναικων
γυναιξι
γυναιξιν
γυνη
γυριζει
γυρισαν
γυρισε
γυρισει
γυρισματα
γυρισματων
γυριστηκαν
γυριστηκε
γυρο
γυρος
γυρου
γυρους
γυρω
γω
γωνια
γωνιας
γωνιες
δ
δα
δαβιδ
δαιμονα
δαιμονας
δαιμονες
δαιμονων
δαιμων
δακρυ
δακρυα
δακρυων
δακτυλα
δακτυλιο
δακτυλιος
δακτυλιου
δακτυλιους
δακτυλιων
δακτυλων
δαλματια
δαλματιας
δαμασκηνος
δαμασκο
δαμασκου
δαν
δανεια
δανεικος
δανειο
δανειου
δανεισμο
δανεισμου
δανειων
δανια
δανιας
δανιηλ
δανικα
δανος
δαπανες
δαπανη
δαπανων
δαπεδο
δαρειος
δαρειου
δαση
δασικες
δασικη
δασκαλα
δασκαλο
δασκαλοι
δασκαλος
δασκαλου
δασκαλους
δασκαλων
δασος
δασους
δασων
δαυιδ
δαφνη
δαφνης
δαχτυλα
δαχτυλιδι
δαχτυλο
δε
δεδομενα
δεδομενη
δεδομενης
δεδομενο
δεδομενου
δεδομενων
δεη
δει
δειγμα
δειγματα
δειγματος
δειγματων
δεικτες
δεικτη
δεικτης
δειλος
δειν
δεινα
δεινη
δεινον
δεινος
δεινων
δειξαι
δειξει
δειξουν
δειπνο
δειπνον
δεις
δεισθαι
δειται
δειτε
δειχνει
δειχνοντας
δειχνουν
δεκ
δεκα
δεκαδα
δεκαδες
δεκαεξι
δεκαεπτα
δεκαετια
δεκαετιας
δεκαετιες
δεκαετιων
δεκαοκτω
δεκαπεντε
δεκατεσσερα
δεκατη
δεκατο
δεκατος
δεκατου
δεκατρεις
δεκατρια
δεκεμβρη
δεκεμβριο
δεκεμβριος
δεκεμβριου
δεκτες
δεκτη
δεκτο
δεκτος
δελ
δελτα
δελτια
δελτιο
δελτιον
δελφους
δελφων
δελχι
δεμας
δεν
δενδρα
δενδρο
δενδρον
δενδρου
δενδρων
δεντρα
δεντρο
δεντρου
δεντρων
δεξαμενες
δεξαμενη
δεξι
δεξια
δεξιαν
δεξιας
δεξιο
δεξιον
δεξιος
δεξιοτητες
δεξιοτητων
δεξιου
δεξιων
δεομαι
δεον
δεος
δερμα
δερματα
δερματος
δες
δεσμα
δεσμευση
δεσμη
δεσμο
δεσμοι
δεσμος
δεσμου
δεσμους
δεσμων
δεσποζει
δεσποινα
δεσποινις
δεσποτα
δεσποτατο
δεσποτη
δεσποτην
δεσποτης
δεσποτου
δετορακης
δευρο
δευτ
δευτερα
δευτεραθλητης
δευτεραν
δευτερας
δευτερευοντα
δευτερευουσα
δευτερη
δευτερης
δευτερο
δευτεροβαθμια
δευτεροβαθμιας
δευτερολεπτα
δευτερολεπτο
δευτερολεπτων
δευτερον
δευτερος
δευτεροτοκος
δευτερου
δευτερω
δεχεσθαι
δεχεται
δεχθει
δεχθηκαν
δεχθηκε
δεχομαι
δεχονται
δεχοταν
δεχτει
δεχτηκαν
δεχτηκε
δη
δηθεν
δηκο
δηλ
δηλαδη
δηλητηριαση
δηλητηριο
δηλοι
δηλον
δηλος
δηλωνε
δηλωνει
δηλωνοντας
δηλωνουν
δηλωσαν
δηλωσε
δηλωσει
δηλωσεις
δηλωση
δημ
δημαρας
δημαρχειο
δημαρχειου
δημαρχο
δημαρχοι
δημαρχος
δημαρχου
δημαρχων
δημητρα
δημητρακοπουλος
δημητρακος
δημητρας
δημητρη
δημητρης
δημητριαδης
δημητριακα
δημητριακων
δημητριο
δημητριον
δημητριος
δημητριου
δημητρος
δημιουργει
δημιουργειται
δημιουργηθει
δημιουργηθηκαν
δημιουργηθηκε
δημιουργηθουν
δημιουργημα
δημιουργησαν
δημιουργησε
δημιουργησει
δημιουργησουν
δημιουργια
δημιουργιας
δημιουργιες
δημιουργικη
δημιουργο
δημιουργοι
δημιουργος
δημιουργου
δημιουργουν
δημιουργουνται
δημιουργους
δημιουργουσε
δημιουργων
δημιουργωντας
δημο
δημογραφικη
δημοι
δημοκρατια
δημοκρατιας
δημοκρατιες
δημοκρατικα
δημοκρατικες
δημοκρατικη
δημοκρατικης
δημοκρατικο
δημοκρατικοι
δημοκρατικος
δημοκρατικου
δημοκρατικους
δημοκρατικων
δημοκρατιων
δημοκριτος
δημον
δημοπρασια
δημος
δημοσθενη
δημοσθενης
δημοσθενους
δημοσια
δημοσιας
δημοσιες
δημοσιευει
δημοσιευεται
δημοσιευθει
δημοσιευθηκαν
δημοσιευθηκε
δημοσιευματα
δημοσιευονται
δημοσιευσαν
δημοσιευσε
δημοσιευσει
δημοσιευσεις
δημοσιευση
δημοσιευσης
δημοσιευτει
δημοσιευτηκαν
δημοσιευτηκε
δημοσιο
δημοσιογραφια
δημοσιογραφιας
δημοσιογραφο
δημοσιογραφοι
δημοσιογραφος
δημοσιογραφου
δημοσιογραφους
δημοσιογραφων
δημοσιος
δημοσιοτητα
δημοσιοτητας
δημοσιου
δημοσιους
δημοσιων
δημοσιως
δημοσκοπησεις
δημοσκοπηση
δημοτης
δημοτικα
δημοτικες
δημοτικη
δημοτικης
δημοτικο
δημοτικος
δημοτικοτητα
δημοτικου
δημοτικων
δημου
δημους
δημοφιλεις
δημοφιλες
δημοφιλη
δημοφιλης
δημοψηφισμα
δημοψηφισματος
δημω
δημωδους
δημων
δηπου
δησυ
δητα
δι
δια
διαβαζει
διαβαζω
διαβασε
διαβασει
διαβαση
διαβατηριο
διαβητη
διαβητης
διαβιωσης
διαβολος
διαβολου
διαβρωση
διαγνωση
διαγραμμα
διαγραμματα
διαγραφει
διαγραφη
διαγωνισμο
διαγωνισμος
διαγωνισμου
διαγωνισμους
διαδεδομενη
διαδεδομενο
διαδεχεται
διαδεχθει
διαδεχθηκαν
διαδεχθηκε
διαδεχομενος
διαδεχτηκε
διαδηλωσεις
διαδηλωσεων
διαδηλωση
διαδηλωτες
διαδηλωτων
διαδημα
διαδικασια
διαδικασιας
διαδικασιες
διαδικασιων
διαδικτυακα
διαδικτυακη
διαδικτυακο
διαδικτυακος
διαδικτυο
διαδικτυου
διαδοθηκε
διαδοση
διαδοσης
διαδοχη
διαδοχης
διαδοχικα
διαδοχικες
διαδοχικων
διαδοχο
διαδοχοι
διαδοχος
διαδοχου
διαδοχους
διαδοχων
διαδραματιζεται
διαδραματισε
διαδρομες
διαδρομη
διαδρομης
διαδρομο
διαδρομος
διαδρομου
διαδρομων
διαζυγιο
διαθεσεις
διαθεση
διαθεσης
διαθεσιμα
διαθεσιμες
διαθεσιμη
διαθεσιμο
διαθεσιμος
διαθεσιμοτητα
διαθεσιμων
διαθεσιν
διαθετει
διαθετοντας
διαθετουν
διαθηκη
διαθηκην
διαθηκης
διαιρεθηκε
διαιρειται
διαιρεσεις
διαιρεση
διαιρεσης
διαιρετες
διαιρετων
διαιτα
διαιταν
διαιτητες
διαιτητη
διαιτητης
διακεκριμενος
διακηρυξε
διακηρυξη
διακινηση
διακομιστη
διακονια
διακονος
διακοπει
διακοπες
διακοπη
διακοπηκε
διακοπης
διακοπτεται
διακοπων
διακοσια
διακοσιων
διακοσμημενη
διακοσμημενο
διακοσμησεις
διακοσμηση
διακοσμητικα
διακοσμητικο
διακοσμο
διακοψει
διακριθει
διακριθηκαν
διακριθηκε
διακρινει
διακρινεται
διακρινονται
διακρινουμε
διακρισεις
διακρισεων
διακριση
διακριτα
διακριτες
διακριτη
διακριτικα
διακριτικο
διακυβερνηση
διακυβερνησης
διακυμανσεις
διακυμανση
διαλειμμα
διαλεκτικης
διαλεκτο
διαλεκτοι
διαλεκτος
διαλεκτου
διαλεκτους
διαλεκτων
διαλεξεις
διαλεξεων
διαλεξη
διαλογο
διαλογοι
διαλογος
διαλογου
διαλογους
διαλυει
διαλυεται
διαλυθει
διαλυθηκαν
διαλυθηκε
διαλυμα
διαλυματα
διαλυματος
διαλυσει
διαλυση
διαλυσης
διαλυτες
διαλυτη
διαμαντι
διαμαντια
διαμαντοπουλος
διαμαρτυρηθηκε
διαμαρτυρια
διαμαρτυριας
διαμαρτυριες
διαμαχες
διαμαχη
διαμαχης
διαμελισμο
διαμενει
διαμενουν
διαμερισμα
διαμερισματα
διαμερισματος
διαμεσου
διαμετρο
διαμετρος
διαμετρου
διαμονη
διαμονης
διαμορφωθει
διαμορφωθηκε
διαμορφωθκηαν
διαμορφωνεται
διαμορφωσε
διαμορφωση
διαμορφωσης
διανεμεται
διανοητικη
διανοια
διανοιαν
διανοιας
διανοιξη
διανομη
διανομης
διανοουμενος
διανοουμενους
διανοουμενων
διανυσμα
διανυσματα
διανυσματων
διαπιστωθει
διαπιστωθηκε
διαπιστωσε
διαπραγματευσεις
διαπραγματευσεων
διαπραγματευση
διαπραγματευτει
διαπραξει
διαρκει
διαρκεια
διαρκειας
διαρκεσει
διαρκη
διαρκης
διαρκουν
διαρκως
διαρρεει
διαρροη
διαρροια
διας
διασημα
διασημες
διασημη
διασημο
διασημοι
διασημος
διασημου
διασημους
διασημων
διασκεδαση
διασκεδασης
διασκευες
διασκευη
διασκεψη
διασκεψης
διασπαρτα
διασπαση
διασπασης
διασπαται
διασπορα
διασπορας
διαστασεις
διαστασεων
διασταση
διαστασης
διασταυρωση
διαστημα
διαστηματα
διαστηματος
διαστημικη
διαστημικο
διαστημικου
διαστημοπλοιο
διασυνδεση
διασφαλισει
διασφαλιση
διασχιζει
διασχιζοντας
διασχιζουν
διασχισει
διασωζεται
διασωζονται
διασωθει
διασωθηκαν
διασωθηκε
διασωση
διασωσης
διαταγες
διαταγη
διαταγμα
διαταγματα
διαταγματος
διαταζει
διαταξει
διαταξεις
διαταξεων
διαταξη
διαταξης
διαταραχες
διαταραχη
διαταραχης
διαταραχων
διαταχθηκε
διατεθηκε
διατελεσαντες
διατελεσε
διατελεσει
διατηρει
διατηρειται
διατηρηθει
διατηρηθηκαν
διατηρηθηκε
διατηρηθουν
διατηρησαν
διατηρησε
διατηρησει
διατηρηση
διατηρησης
διατηρησουν
διατηρητεο
διατηρουν
διατηρουνται
διατηρουσαν
διατηρουσε
διατηρωντας
διατι
διατιθενται
διατιθεται
διατρεχει
διατριβη
διατριβης
διατροφη
διατροφης
διατυπωθει
διατυπωσε
διατυπωση
διαυγειας
διαφαινεται
διαφανεια
διαφανειας
διαφερει
διαφερειν
διαφεροντως
διαφερουν
διαφημισεις
διαφημιση
διαφθορα
διαφθορας
διαφορα
διαφοραν
διαφορας
διαφορες
διαφορετικα
διαφορετικες
διαφορετικη
διαφορετικης
διαφορετικο
διαφορετικοι
διαφορετικος
διαφορετικου
διαφορετικους
διαφορετικων
διαφορικη
διαφοροι
διαφοροποιηση
διαφοροποιησης
διαφορους
διαφορων
διαφυγει
διαφυγη
διαφυγης
διαφυγουν
διαφωνησε
διαφωνια
διαφωνιας
διαφωνιες
διαφωνιων
διαφωτισμου
διαχειριζεται
διαχειριση
διαχειρισης
διαχειριστες
διαχειριστη
διαχειριστης
διαχρονικα
διαχρονικο
διαχωριζει
διαχωριζονται
διαχωριζουν
διαχωρισμο
διαχωρισμος
διαχωρισμου
διαχωριστηκε
διγενης
διδακτικο
διδακτορας
διδακτορικη
διδακτορικο
διδακτωρ
διδαξε
διδαξει
διδασκαλια
διδασκαλιας
διδασκαλιες
διδασκαλος
διδασκαλου
διδασκε
διδασκει
διδασκεται
διδασκων
διδει
διδεται
διδοναι
διδους
διδυμα
διδυμο
διδυμοι
διδυμος
διδυμων
διδω
διδωσι
διδωσιν
διεγερση
διεθεταν
διεθετε
διεθνεις
διεθνες
διεθνη
διεθνης
διεθνους
διεθνων
διεθνως
διεισδυση
διεκδικει
διεκδικησαν
διεκδικησε
διεκδικησει
διεκδικησεις
διεκδικηση
διεκδικητης
διεκδικουσε
διεκοπη
διεκοψε
διελευση
διελευσης
διελυσε
διεμεναν
διεμενε
διενεργεια
διενεργηθηκαν
διεξαγει
διεξαγεται
διεξαγονται
διεξαγονταν
διεξαγοταν
διεξαγωγη
διεξαγωγης
διεξαχθει
διεξαχθουν
διεξηγαγε
διεξηχθη
διεξηχθησαν
διεπαφη
διεπραξε
διεργασια
διεργασιες
διεργασιων
διερευνηση
διερχεται
διερχονται
διεσχισε
διεταξε
διετελεσαν
διετελεσε
διετες
διετια
διευθετηση
διευθυνε
διευθυνει
διευθυνσεις
διευθυνσεων
διευθυνση
διευθυνσης
διευθυντες
διευθυντη
διευθυντης
διευθυντρια
διευθυνων
διευκολυνει
διευκολυνθει
διευκολυνση
διευρυμενο
διευρυνση
διεφερε
διεφυγαν
διεφυγε
διηγειται
διηγημα
διηγηματα
διηγηματος
διηγηματων
διηγηση
διηπειρωτικο
διηρκεσε
διηρκησε
διηυθυνε
διι
δικα
δικαια
δικαιη
δικαιο
δικαιοδοσια
δικαιοι
δικαιολογια
δικαιον
δικαιος
δικαιοσυνη
δικαιοσυνην
δικαιοσυνης
δικαιου
δικαιουται
δικαιωμα
δικαιωματα
δικαιωματος
δικαιωματων
δικαιων
δικαιως
δικας
δικασται
δικαστες
δικαστη
δικαστηκε
δικαστηρια
δικαστηριο
δικαστηριον
δικαστηριου
δικαστηριων
δικαστης
δικαστικες
δικαστικη
δικαστικης
δικαστικο
δικαστικος
δικαστικου
δικαστικων
δικαστων
δικες
δικη
δικηγορο
δικηγορος
δικηγορου
δικην
δικης
δικια
δικιο
δικο
δικοι
δικος
δικου
δικους
δικτατορα
δικτατορας
δικτατορια
δικτατοριας
δικτυα
δικτυακος
δικτυο
δικτυου
δικτυων
δικτυωσης
δικων
διμερεις
δινει
δινεται
δινονται
δινοντας
δινοταν
δινουν
δινω
διο
διογενης
διοδωρος
διοικειται
διοικησεις
διοικησεως
διοικηση
διοικησης
διοικητες
διοικητη
διοικητης
διοικητικα
διοικητικες
διοικητικη
διοικητικης
διοικητικο
διοικητικου
διοικητικων
διοικουνταν
διοικουσε
διολη
διολου
διομηδη
διομηδης
διον
διονυσης
διονυσιο
διονυσιος
διονυσιου
διονυσον
διονυσος
διονυσου
διονυσω
διοξειδιο
διοξειδιου
διοπερ
διοργανωθηκε
διοργανωνει
διοργανωνεται
διοργανωνονται
διοργανωσε
διοργανωσεις
διοργανωσεων
διοργανωση
διοργανωσης
διοργανωτρια
διορθωσεις
διορθωση
διοριζει
διοριζεται
διοριζονται
διορισε
διορισει
διορισθηκε
διορισμενος
διορισμο
διορισμος
διοριστει
διοριστηκε
διος
διοτι
διπλα
διπλανο
διπλασια
διπλη
διπλης
διπλο
διπλοι
διπλος
διπλου
διπλους
διπλωμα
διπλωματα
διπλωματες
διπλωματη
διπλωματης
διπλωματια
διπλωματικες
διπλωματικη
διπλωματικο
διπλωματικων
διπλωματος
διπλωματων
διπλων
δις
δισ
δισεκατομμυρια
δισεκατομμυριο
δισεκατομμυριων
δισεκτα
δισκο
δισκοβολια
δισκογραφια
δισκογραφικη
δισκογραφικης
δισκοι
δισκος
δισκου
δισκους
δισκων
διχα
διχτυα
διχως
διψα
διων
διωξει
διωξεις
διωξη
διωξης
διωρυγα
διωρυγας
δντ
δο
δογη
δογης
δογμα
δογματα
δογματος
δογματων
δοε
δοθει
δοθηκαν
δοθηκε
δοκει
δοκειν
δοκεις
δοκη
δοκιμασει
δοκιμασια
δοκιμαστικα
δοκιμαστικη
δοκιμες
δοκιμη
δοκιμης
δοκιμια
δοκιμιο
δοκιμων
δοκουσιν
δοκτωρ
δοκω
δοκων
δολαρια
δολαριο
δολαριων
δολοφονειται
δολοφονηθηκαν
δολοφονηθηκε
δολοφονησε
δολοφονησει
δολοφονια
δολοφονιας
δολοφονιες
δολοφονο
δολοφονος
δομες
δομη
δομης
δομικα
δομικη
δομινικανη
δομος
δομων
δον
δοντι
δοντια
δοντιων
δοξα
δοξαν
δοξας
δοξη
δοξης
δορυ
δορυφορικη
δορυφορο
δορυφοροι
δορυφορος
δορυφορου
δορυφορους
δορυφορων
δος
δοσεις
δοση
δοσης
δοτικη
δουβλινο
δουβλινου
δουκα
δουκας
δουκατα
δουκατο
δουκατου
δουκες
δουκισσα
δουκισσας
δουκων
δουλεια
δουλειας
δουλειες
δουλευε
δουλευει
δουλευοντας
δουλευουν
δουλεψε
δουλεψει
δουλοι
δουλον
δουλος
δουλου
δουλους
δουλων
δουμα
δουμε
δουν
δουναβη
δουναι
δουξ
δους
δοχεια
δοχειο
δρ
δρα
δραγουμη
δραγουμης
δρακος
δρακου
δρακων
δραμα
δραμας
δραματικα
δραματικες
δραματικη
δραματικης
δραματικο
δραματος
δραν
δραπετευσε
δραπετευσει
δρασεις
δρασεων
δραση
δρασης
δραστες
δραστηριοποιειται
δραστηριοποιηθηκε
δραστηριοποιουνται
δραστηριος
δραστηριοτητα
δραστηριοτητας
δραστηριοτητες
δραστηριοτητων
δραστης
δραστικα
δραχμας
δραχμες
δραχμων
δρεσδη
δρομεας
δρομεις
δρομο
δρομοι
δρομολογια
δρομολογιο
δρομον
δρομος
δρομου
δρομους
δρομων
δροσια
δρουν
δρχ
δρωμενα
δσε
δυ
δυειν
δυναμαι
δυναμεθα
δυναμει
δυναμεις
δυναμενοι
δυναμενον
δυναμενος
δυναμεων
δυναμεως
δυναμη
δυναμης
δυναμικα
δυναμικη
δυναμικης
δυναμικο
δυναμικου
δυναμιν
δυναμις
δυνανται
δυνασθαι
δυναστεια
δυναστειας
δυνατα
δυναται
δυνατες
δυνατη
δυνατο
δυνατοι
δυνατον
δυνατος
δυνατοτητα
δυνατοτητες
δυνατοτητων
δυνατους
δυνητικα
δυο
δυοιν
δυρραχιο
δυρραχιου
δυσαρεσκεια
δυση
δυσης
δυσι
δυσιν
δυσκολα
δυσκολες
δυσκολη
δυσκολια
δυσκολιας
δυσκολιες
δυσκολο
δυσκολος
δυσλειτουργια
δυσμας
δυστυχημα
δυστυχηματα
δυστυχια
δυστυχως
δυσφορια
δυτικα
δυτικες
δυτικη
δυτικης
δυτικο
δυτικοι
δυτικος
δυτικου
δυτικους
δυτικων
δυω
δφα
δω
δωδεκα
δωδεκανησα
δωδεκανησου
δωδεκανησων
δωδωνη
δωδωνης
δωμα
δωματια
δωματιο
δωματιου
δωρα
δωρεα
δωρεαν
δωρεας
δωρεες
δωριεις
δωρικος
δωρισε
δωρο
δωροθεα
δωρον
δωρων
δωσε
δωσει
δωση
δωσουν
δωσω
ε
εα
εαμ
εαν
εαπ
εας
εαυτην
εαυτης
εαυτο
εαυτοις
εαυτον
εαυτου
εαυτους
εαυτω
εαυτων
εβαλαν
εβαλε
εβανς
εβασιλευσεν
εβγαινε
εβγαλαν
εβγαλε
εβδομαδα
εβδομαδας
εβδομαδες
εβδομαδιαια
εβδομαδων
εβδομη
εβδομηκοντα
εβδομηντα
εβδομο
εβδομος
εβδομου
εβερτον
εβλεπα
εβλεπαν
εβλεπε
εβουλετο
εβραικα
εβραικες
εβραικη
εβραικης
εβραικο
εβραικου
εβραιοι
εβραιος
εβραιους
εβραιων
εβρισκε
εβρου
εγγονη
εγγονια
εγγονο
εγγονος
εγγραφα
εγγραφες
εγγραφη
εγγραφηκε
εγγραφης
εγγραφο
εγγραφου
εγγραφων
εγγυαται
εγγυησεις
εγγυηση
εγγυς
εγενετο
εγενηθη
εγεννησε
εγεννησεν
εγενοντο
εγιγνετο
εγιναν
εγινε
εγινετο
εγινοντο
εγκαθιδρυση
εγκαθιστανται
εγκαθισταται
εγκαινια
εγκαινιασε
εγκαινιαστηκε
εγκαιρως
εγκαταλειπει
εγκαταλειπουν
εγκαταλειφθει
εγκαταλειφθηκε
εγκαταλειψει
εγκαταλειψη
εγκαταλειψουν
εγκαταλελειμμενο
εγκατασταθει
εγκατασταθηκαν
εγκατασταθηκε
εγκατασταθουν
εγκαταστασεις
εγκαταστασεων
εγκατασταση
εγκαταστασης
εγκαταστησει
εγκατελειψαν
εγκατελειψε
εγκατεστησε
εγκειται
εγκεφαλικη
εγκεφαλικο
εγκεφαλο
εγκεφαλος
εγκεφαλου
εγκλημα
εγκληματα
εγκληματιες
εγκληματικη
εγκληματος
εγκληματων
εγκριθει
εγκριθηκε
εγκρινει
εγκριση
εγκρισης
εγκυκλοπαιδεια
εγκυκλοπαιδειας
εγκυκλοπαιδικον
εγκυμοσυνη
εγκυμοσυνης
εγκυος
εγκυρη
εγνατια
εγνατιας
εγνω
εγνωσαν
εγραφε
εγραψαν
εγραψε
εγραψεν
εγχειρημα
εγχειρηματος
εγχειρηση
εγχειριδια
εγχειριδιο
εγχορδα
εγχορδων
εγχρωμη
εγχωρια
εγχωριες
εγχωριο
εγχωριων
εγω
εγωγε
εδα
εδαφη
εδαφικες
εδαφικη
εδαφιο
εδαφιου
εδαφος
εδαφους
εδαφων
εδει
εδειξαν
εδειξε
εδειχναν
εδειχνε
εδες
εδεσσα
εδεσσας
εδιμβουργο
εδιμβουργου
εδιναν
εδινε
εδιωξε
εδοθη
εδοκει
εδοξε
εδοξεν
εδουαρδο
εδουαρδος
εδουαρδου
εδρα
εδραιωση
εδρας
εδρασε
εδρες
εδρευει
εδρων
εδω
εδωκα
εδωκαν
εδωκε
εδωκεν
εδωσαν
εδωσε
εε
εεταα
εζ
εζησαν
εζησε
εη
εην
εθελοντες
εθελοντης
εθελοντικα
εθελοντικη
εθελοντων
εθελρεντ
εθεσαν
εθεσε
εθετε
εθετο
εθεωρειτο
εθιμα
εθιμο
εθνεσιν
εθνη
εθνικα
εθνικες
εθνικη
εθνικης
εθνικισμος
εθνικισμου
εθνικιστες
εθνικιστικο
εθνικο
εθνικοι
εθνικον
εθνικος
εθνικοτητα
εθνικοτητας
εθνικου
εθνικους
εθνικων
εθνολογικης
εθνος
εθνοσημο
εθνοσυνελευση
εθνοσυνελευσης
εθνοτικες
εθνοτικη
εθνους
εθνων
εθος
ει
εια
ειδα
ειδαμε
ειδαν
ειδε
ειδει
ειδεν
ειδεναι
ειδες
ειδη
ειδησεις
ειδησεων
ειδηση
ειδικα
ειδικες
ειδικευεται
ειδικευση
ειδικη
ειδικης
ειδικο
ειδικοι
ειδικος
ειδικοτερα
ειδικοτητα
ειδικου
ειδικους
ειδικων
ειδον
ειδος
ειδοτες
ειδους
ειδωλα
ειδωλο
ειδων
ειδως
ειεν
ειη
ειθ
ειθε
εικ
εικαζεται
εικασια
εικασιες
εικαστικων
εικονα
εικονας
εικονες
εικονιζεται
εικονικη
εικονικο
εικονογραφημενη
εικονογραφημενο
εικονογραφηση
εικονων
εικος
εικοσι
εικοσιν
εικοστο
εικοστου
εικοτως
εικων
ειλικρινεια
ειμαι
ειμαστε
ειμη
ειμι
ειν
ειναι
εινε
ειπα
ειπαν
ειπε
ειπειν
ειπεν
ειπερ
ειπες
ειπη
ειπης
ειποι
ειπομεν
ειπον
ειποντος
ειπω
ειπων
ειρηκεν
ειρημενα
ειρημενον
ειρημενων
ειρηνευτικες
ειρηνευτικη
ειρηνη
ειρηνην
ειρηνης
ειρηνικα
ειρηνικη
ειρηνικο
ειρηνικου
ειρηται
ειρωνεια
ειρωνικο
εις
εισαγγελεα
εισαγγελεας
εισαγει
εισαγεται
εισαγονται
εισαγοντας
εισαγωγες
εισαγωγη
εισαγωγης
εισαι
εισαχθει
εισβαλει
εισβαλλει
εισβολεις
εισβολες
εισβολη
εισβολης
εισεβαλαν
εισεβαλε
εισελθει
εισελθειν
εισελθουν
εισερχεται
εισερχονται
εισετι
εισηγαγαν
εισηγαγε
εισηγηση
εισηγητης
εισηλθαν
εισηλθε
εισηλθεν
εισηχθη
εισηχθησαν
εισθε
εισι
εισιν
εισιτηρια
εισιτηριο
εισιτηριων
εισοδημα
εισοδηματα
εισοδηματος
εισοδο
εισοδος
εισοδου
εισοδους
εισπρακτικη
εισπραξεις
εισροη
ειστε
εισω
ειτ
ειτα
ειταν
ειτε
ειχα
ειχαμε
ειχαν
ειχε
ειχεν
ειχες
ειχον
εκ
εκαβη
εκαλειτο
εκαλεσε
εκαλεσεν
εκαλουν
εκαμαν
εκαμε
εκανα
εκαναν
εκανε
εκαστα
εκαστη
εκαστην
εκαστης
εκαστοι
εκαστοις
εκαστον
εκαστος
εκαστοτε
εκαστου
εκαστω
εκατ
εκατερα
εκατερον
εκατερου
εκατερωθεν
εκατο
εκατομμυρια
εκατομμυριο
εκατομμυριων
εκατον
εκατονταδες
εκατονταδων
εκατοστα
εκατοστων
εκαψαν
εκαψε
εκβαλλει
εκβαση
εκβολες
εκδ
εκδηλωθηκε
εκδηλωνεται
εκδηλωσεις
εκδηλωσεων
εκδηλωση
εκδηλωσης
εκδιδει
εκδιδεται
εκδιδονται
εκδικηθει
εκδικηση
εκδικητες
εκδιωξη
εκδιωχθηκαν
εκδιωχθηκε
εκδοθει
εκδοθηκαν
εκδοθηκε
εκδοσεις
εκδοσεων
εκδοση
εκδοσης
εκδοσις
εκδοτες
εκδοτη
εκδοτης
εκδοτικη
εκδοτικο
εκδοτικος
εκδοχες
εκδοχη
εκδωσει
εκει
εκειθεν
εκεινα
εκεινες
εκεινη
εκεινην
εκεινης
εκεινο
εκεινοι
εκεινοις
εκεινον
εκεινος
εκεινου
εκεινους
εκεινω
εκεινων
εκεισε
εκειτο
εκελευε
εκελευσε
εκελευσεν
εκεχειρια
εκθεματα
εκθεσεις
εκθεσεων
εκθεση
εκθεσης
εκθετει
εκκαθαριση
εκκενωση
εκκινηση
εκκινησης
εκκλησακι
εκκληση
εκκλησια
εκκλησιαν
εκκλησιας
εκκλησιαστικα
εκκλησιαστικες
εκκλησιαστικη
εκκλησιαστικης
εκκλησιαστικο
εκκλησιαστικου
εκκλησιαστικων
εκκλησιες
εκκλησιων
εκκρεμει
εκλεγει
εκλεγεται
εκλεγμενος
εκλεγονται
εκλεγουν
εκλεισαν
εκλεισε
εκλειψη
εκλεκτορα
εκλεκτορας
εκλεχθηκαν
εκλεχθηκε
εκλεχτηκε
εκλεψε
εκλογες
εκλογη
εκλογης
εκλογικα
εκλογικες
εκλογικη
εκλογικης
εκλογικο
εκλογικου
εκλογων
εκμαθηση
εκμαθησης
εκμεταλλευεται
εκμεταλλευση
εκμεταλλευσης
εκμεταλλευτει
εκμεταλλευτηκε
εκοιμηθη
εκουσιως
εκοψε
εκπα
εκπαιδευμενος
εκπαιδευσεως
εκπαιδευση
εκπαιδευσης
εκπαιδευτηκε
εκπαιδευτικα
εκπαιδευτικες
εκπαιδευτικη
εκπαιδευτικης
εκπαιδευτικο
εκπαιδευτικος
εκπαιδευτικου
εκπαιδευτικους
εκπαιδευτικων
εκπεμπει
εκπεμπουν
εκπληκτικη
εκπληξη
εκπληρωσει
εκπληρωση
εκπομπες
εκπομπη
εκπομπης
εκπομπων
εκπροσωπει
εκπροσωπειται
εκπροσωπησε
εκπροσωπησει
εκπροσωπηση
εκπροσωπο
εκπροσωποι
εκπροσωπος
εκπροσωπου
εκπροσωπουν
εκπροσωπους
εκπροσωπουσε
εκπροσωπων
εκπροσωπωντας
εκρηκτικα
εκρηξεις
εκρηξη
εκρηξης
εκρινε
εκστρατεια
εκστρατειας
εκστρατειες
εκσυγχρονισμο
εκτακτη
εκτακτης
εκτακτο
εκτακτου
εκταρια
εκτασεις
εκτασεων
εκταση
εκτασης
εκτεινεται
εκτεινονται
εκτεινοταν
εκτελει
εκτελειται
εκτελεσαν
εκτελεσε
εκτελεσει
εκτελεσεις
εκτελεση
εκτελεσης
εκτελεσουν
εκτελεστει
εκτελεστηκαν
εκτελεστηκε
εκτελεστικη
εκτελεστικης
εκτελεστικο
εκτελεστικος
εκτελεστικου
εκτελουν
εκτελουνται
εκτελουσε
εκτενη
εκτενως
εκτεταμενα
εκτεταμενες
εκτεταμενη
εκτεταμενο
εκτη
εκτιθενται
εκτιθεται
εκτιμα
εκτιμαται
εκτιμηθηκε
εκτιμησεις
εκτιμηση
εκτιμησης
εκτισαν
εκτισε
εκτο
εκτοξευση
εκτοξευτηκε
εκτορα
εκτος
εκτοτε
εκτου
εκτροφη
εκτυπωση
εκτυπωσης
εκτωρ
εκφραζει
εκφραζεται
εκφραζονται
εκφραζουν
εκφρασει
εκφρασεις
εκφραση
εκφρασης
εκφραστει
εκων
ελ
ελα
ελαβαν
ελαβε
ελαβεν
ελαβον
ελαια
ελαιο
ελαιολαδο
ελαιον
ελαιου
ελαιων
ελαλησε
ελαλησεν
ελας
ελασσονα
ελασσονας
ελασσων
ελαστικα
ελαττον
ελαττους
ελαττω
ελαττωμα
ελαττωματα
ελαφι
ελαφρα
ελαφρια
ελαφρυ
ελαφρων
ελαφρως
ελαχιστα
ελαχιστες
ελαχιστη
ελαχιστης
ελαχιστο
ελαχιστοι
ελβετια
ελβετιας
ελβετικη
ελβετος
ελεγαν
ελεγε
ελεγεν
ελεγετο
ελεγκτικου
ελεγξει
ελεγξουν
ελεγξτε
ελεγον
ελεγχε
ελεγχει
ελεγχεται
ελεγχο
ελεγχομενη
ελεγχονται
ελεγχος
ελεγχου
ελεγχουν
ελεγχους
ελεγχων
ελειπε
ελεν
ελενα
ελενη
ελενης
ελεονορα
ελεονωρα
ελεονωρας
ελεος
ελευθερα
ελευθερας
ελευθερες
ελευθερη
ελευθερης
ελευθερια
ελευθεριαν
ελευθεριας
ελευθεριες
ελευθεριος
ελευθεριου
ελευθεριων
ελευθερο
ελευθεροι
ελευθερον
ελευθερος
ελευθεροτυπια
ελευθερου
ελευθερουδακη
ελευθερους
ελευθερωθηκε
ελευθερων
ελευθερωσει
ελευση
ελευσινα
ελευσινας
ελεφαντα
ελεφαντας
ελεφαντες
ελεφαντοστου
ελεφαντων
ελη
εληξε
εληφθη
ελθει
ελθειν
ελθη
ελθοντες
ελθοντων
ελθων
ελια
ελιας
ελιες
ελιζαμπεθ
ελικα
ελικοπτερα
ελικοπτερο
ελιοτ
ελισαβετ
ελιτ
ελκει
ελκος
ελλ
ελλαδα
ελλαδας
ελλαδι
ελλαδικο
ελλαδος
ελλας
ελλειμμα
ελλειψει
ελλειψεις
ελλειψη
ελλειψης
ελλη
ελλην
ελληνα
ελληνας
ελληνες
ελληνιδα
ελληνιδες
ελληνικα
ελληνικες
ελληνικη
ελληνικην
ελληνικης
ελληνικο
ελληνικοι
ελληνικον
ελληνικος
ελληνικου
ελληνικους
ελληνικων
ελληνισμος
ελληνισμου
ελληνιστικη
ελληνιστικης
ελληνο
ελληνοαγγλικο
ελληνοκυπριοι
ελληνοκυπριος
ελληνων
ελλης
ελλησι
ελλησιν
ελξη
ελξης
ελονοσια
ελος
ελπιδα
ελπιδας
ελπιδες
ελπιδος
ελπιδων
ελπιζει
ελπιζοντας
ελπιζω
ελπις
ελσινκι
ελστατ
ελυσε
ελων
εμ
εμα
εμαθαν
εμαθε
εμανουελ
εμας
εμαυτον
εμαυτου
εμβαδον
εμβελεια
εμβελειας
εμβλημα
εμβολια
εμβολιο
εμβολιου
εμβρυο
εμε
εμειναν
εμεινε
εμεινεν
εμεις
εμελλε
εμελλεν
εμελλον
εμενα
εμεναν
εμενε
εμη
εμην
εμης
εμιλ
εμιλι
εμιλια
εμιρατα
εμιρη
εμιρης
εμμ
εμμα
εμμανουηλ
εμμεσα
εμμεση
εμμονη
εμμυ
εμοι
εμοιαζε
εμοιγε
εμον
εμος
εμου
εμπ
εμπαινε
εμπειρια
εμπειριας
εμπειριες
εμπειρος
εμπεριεχει
εμπιστοσυνη
εμπιστοσυνης
εμπλακει
εμπλεκεται
εμπλεκονται
εμπλοκη
εμπνευση
εμπνευσης
εμπνευσμενη
εμπνευσμενο
εμπνευστηκε
εμποδια
εμποδιζει
εμποδιζουν
εμποδιο
εμποδισε
εμποδισει
εμποδισουν
εμπορευματα
εμπορευματων
εμπορια
εμποριας
εμπορικα
εμπορικες
εμπορικη
εμπορικης
εμπορικο
εμπορικος
εμπορικου
εμπορικους
εμπορικων
εμποριο
εμποριου
εμπορο
εμποροι
εμπορος
εμπορου
εμπορους
εμπορων
εμπρος
εμπροσθεν
εμφανεις
εμφανες
εμφανη
εμφανης
εμφανιζει
εμφανιζεται
εμφανιζονται
εμφανιζονταν
εμφανιζοταν
εμφανιζουν
εμφανισεις
εμφανισεων
εμφανιση
εμφανισης
εμφανιστει
εμφανιστηκαν
εμφανιστηκε
εμφανιστουν
εμφανως
εμφαση
εμφραγμα
εμφυλιο
εμφυλιος
εμφυλιου
εμων
εν
ενα
εναλλαγη
εναλλακτικα
εναλλακτικες
εναλλακτικη
εναλλακτικο
εναλλαξ
εναν
εναντι
εναντια
εναντιας
εναντιον
εναντιων
εναπομειναντα
εναπομειναντες
εναρκτηρια
εναρκτηριο
εναρξη
εναρξης
ενας
ενασχοληση
ενατη
ενατο
ενδεικτικα
ενδεικτικο
ενδειξεις
ενδειξη
ενδεκα
ενδεκαδα
ενδεχεται
ενδεχομενη
ενδεχομενο
ενδεχομενως
ενδημικα
ενδιαμεσα
ενδιαμεση
ενδιαμεσο
ενδιαφερει
ενδιαφερεται
ενδιαφερθηκε
ενδιαφερον
ενδιαφεροντα
ενδιαφερονται
ενδιαφεροντος
ενδιαφεροταν
ενδιαφερουσα
ενδογενες
ενδον
ενδοχωρα
ενδυμα
ενδυμασια
ενδυματα
ενδυματων
ενεδρα
ενεκα
ενεκεν
ενεκρινε
ενενηντα
ενεπλακη
ενεπνευσε
ενεργα
ενεργει
ενεργεια
ενεργειακη
ενεργειαν
ενεργειας
ενεργειες
ενεργειων
ενεργη
ενεργητικη
ενεργητικης
ενεργητικο
ενεργητικου
ενεργο
ενεργοποιηση
ενεργος
ενεση
ενεστωτα
ενεστωτας
ενετειλατο
ενετικη
ενετοκρατιας
ενζυμα
ενζυμο
ενηλικα
ενηλικες
ενηλικιωση
ενηλικων
ενημερωνει
ενημερωνεται
ενημερωσε
ενημερωσει
ενημερωση
ενημερωσης
ενθ
ενθα
ενθαδε
ενθαρρυνε
ενθαρρυνει
ενθαρρυνση
ενθεν
ενθετο
ενθουσιασμο
ενι
ενια
ενιαια
ενιαιας
ενιαιο
ενιαιου
ενιαυτον
ενιαυτου
ενικο
ενικος
ενικου
ενιοι
ενιοτε
ενισχυει
ενισχυεται
ενισχυθηκε
ενισχυσε
ενισχυσει
ενισχυσεις
ενισχυση
ενισχυσης
ενισχυσουν
ενιωθε
ενιωσε
εννεα
εννια
εννοει
εννοειται
εννοια
εννοιαν
εννοιας
εννοιες
εννοιων
ενοπλες
ενοπλη
ενοπλοι
ενοπλους
ενοπλων
ενοποιηση
ενοποιησης
ενοργανης
ενορια
ενοριας
ενοριες
ενοριων
ενορχηστρωση
ενος
ενοσω
ενοτητα
ενοτητας
ενοτητες
ενοχη
ενοχος
ενοψει
ενρικο
ενσωματωθει
ενσωματωθηκαν
ενσωματωθηκε
ενσωματωμενη
ενσωματωμενο
ενσωματωμενος
ενσωματωνει
ενσωματωσε
ενσωματωσει
ενσωματωση
εντ
ενταξει
ενταξη
ενταξης
εντασεις
ενταση
εντασης
εντασσεται
εντασσονται
εντατικη
ενταυθα
ενταφιαστηκε
ενταχθει
ενταχθηκαν
ενταχθηκε
ενταχθουν
εντγκαρ
εντεκα
εντελως
εντερο
εντερου
εντευθεν
εντι
εντμουντ
εντο
εντολας
εντολες
εντολη
εντολην
εντολης
εντολων
εντομα
εντομο
εντομολογια
εντομων
εντονα
εντονες
εντονη
εντονης
εντονο
εντοπιζει
εντοπιζεται
εντοπιζονται
εντοπισε
εντοπισει
εντοπισμο
εντοπισμου
εντοπιστει
εντοπιστηκαν
εντοπιστηκε
εντος
εντουαρντ
εντουαρντς
εντουτοις
εντυπα
εντυπη
εντυπο
εντυπων
εντυπωσεις
εντυπωση
εντυπωσιακα
εντυπωσιακες
εντυπωσιακη
εντυπωσιακο
ενω
ενωθει
ενωθηκαν
ενωθηκε
ενωθουν
ενωμενα
ενωμενη
ενωμενο
ενωνει
ενωνεται
ενωνονται
ενωπιον
ενωσε
ενωσει
ενωσεις
ενωσεων
ενωσεως
ενωση
ενωσης
ενωσις
εξ
εξαγει
εξαγεται
εξαγορα
εξαγωγες
εξαγωγη
εξαγωγης
εξαγωγων
εξαδελφη
εξαδελφο
εξαδελφος
εξαδελφου
εξαιρεσεις
εξαιρεση
εξαιρετικα
εξαιρετικες
εξαιρετικη
εξαιρετικης
εξαιρετικο
εξαιτιας
εξαιφνης
εξακολουθει
εξακολουθησε
εξακολουθουν
εξακολουθουσαν
εξακολουθουσε
εξαλειψη
εξαλλου
εξαμηνο
εξαντας
εξαπελυσε
εξαπλωθει
εξαπλωθηκε
εξαπλωνεται
εξαπλωση
εξαπλωσης
εξαρση
εξαρταται
εξαρτημα
εξαρτηματα
εξαρτηση
εξαρτωνται
εξαρχης
εξαρχος
εξασκηση
εξασφαλιζε
εξασφαλιζει
εξασφαλιζοντας
εξασφαλισαν
εξασφαλισε
εξασφαλισει
εξασφαλιση
εξασφαλισουν
εξασφαλιστει
εξατμιση
εξαφανιζεται
εξαφανιση
εξαφανιστει
εξαφανιστηκαν
εξαφανιστηκε
εξαφνα
εξεγερθηκαν
εξεγερσεις
εξεγερση
εξεγερσης
εξεδιδε
εξεδρα
εξεδωσαν
εξεδωσε
εξει
εξειδικευμενα
εξειδικευμενες
εξειδικευμενο
εξειδικευση
εξεις
εξελεγη
εξελεγησαν
εξελεξαν
εξελεξε
εξελικτικη
εξελιξεις
εξελιξη
εξελιξης
εξελισσεται
εξελιχθει
εξελιχθηκαν
εξελιχθηκε
εξερευνηση
εξερευνητης
εξερραγη
εξερχεται
εξεστι
εξεταζει
εξεταζεται
εξεταζονται
εξετασε
εξετασει
εξετασεις
εξετασεων
εξεταση
εξετασης
εξεφρασαν
εξεφρασε
εξεχοντες
εξεχουσα
εξηγει
εξηγειται
εξηγησε
εξηγησει
εξηγησεις
εξηγηση
εξηκοντα
εξηλθε
εξηλθεν
εξηντα
εξης
εξι
εξιν
εξισου
εξισωσεις
εξισωσεων
εξισωση
εξισωσης
εξοδα
εξοδο
εξοδος
εξοδου
εξοδων
εξον
εξοντωση
εξοντωσης
εξοπλισμενο
εξοπλισμο
εξοπλισμος
εξοπλισμου
εξορια
εξοριας
εξοριστη
εξοριστηκε
εξοριστος
εξορυξη
εξορυξης
εξουσια
εξουσιαν
εξουσιας
εξουσιες
εξουσιων
εξοχη
εξοχην
εξπρες
εξτρα
εξυπηρετει
εξυπηρετειται
εξυπηρετηση
εξυπηρετησης
εξυπηρετητη
εξυπηρετουν
εξυπηρετουσε
εξυπνη
εξυπνο
εξυπνος
εξω
εξωθεν
εξωτερικα
εξωτερικες
εξωτερικη
εξωτερικης
εξωτερικο
εξωτερικος
εξωτερικου
εξωτερικους
εξωτερικων
εξωφυλλο
εο
εοε
εοικε
εοικεν
εοκ
εοκα
εον
εοντα
εορταζει
εορταζεται
εορτασμο
εορτασμος
εορτασμου
εορτες
εορτη
εορτην
εορτης
εορτων
επ
επα
επαγγελμα
επαγγελματα
επαγγελματιας
επαγγελματιες
επαγγελματικα
επαγγελματικες
επαγγελματικη
επαγγελματικης
επαγγελματικο
επαγγελματικου
επαγγελματικων
επαγγελματιων
επαγγελματος
επαθε
επαθλο
επαιζαν
επαιζε
επαινεσε
επαινος
επαινους
επαιξαν
επαιξε
επαιρναν
επαιρνε
επακολουθη
επακολουθο
επαμεινωνδας
επανακυκλοφορησε
επαναλαμβανεται
επαναλαμβανομενες
επαναληπτικο
επαναληφθηκε
επαναληψη
επαναστασεις
επαναστασεως
επανασταση
επαναστασης
επαναστατες
επαναστατης
επαναστατησε
επαναστατικες
επαναστατικη
επαναστατικης
επαναστατικο
επαναστατικου
επαναστατων
επαναφερει
επαναφορα
επανειλημμενα
επανεκδοθηκε
επανεκδοση
επανεκλεχθηκε
επανεκλογη
επανελαβε
επανελθει
επανενωση
επανεξελεγη
επανερχεται
επανεφερε
επανηλθαν
επανηλθε
επανοδο
επανω
επαρκη
επαρκης
επαρκως
επαρχια
επαρχιακη
επαρχιακης
επαρχιακο
επαρχιας
επαρχιες
επαρχιων
επαρχος
επασχε
επαυλη
επαυσε
επαφες
επαφη
επαφης
επαψε
επε
επεβαλαν
επεβαλε
επεδειξε
επεζησαν
επεζησε
επει
επειδαν
επειδη
επεισαν
επεισε
επεισοδια
επεισοδιο
επεισοδιου
επεισοδιων
επειτ
επειτα
επεκεινα
επεκρινε
επεκταθει
επεκταθηκαν
επεκταθηκε
επεκτασεις
επεκταση
επεκτασης
επεκτεινε
επεκτεινει
επεκτεινεται
επεκτεινοντας
επελεγη
επελεξαν
επελεξε
επεμβασεις
επεμβαση
επεμβασης
επεμεινε
επεμενε
επενδυσεις
επενδυσεων
επενδυση
επενδυσης
επενδυτες
επεξεργαζεται
επεξεργασια
επεξεργασιας
επεξεργασιες
επεξεργαστες
επεξεργαστη
επεξεργαστης
επεσαν
επεσε
επεσεν
επεσθαι
επεστρεφε
επεστρεψαν
επεστρεψε
επεται
επετειο
επετειος
επετειου
επετηριδα
επετηρις
επετραπη
επετρεπαν
επετρεπε
επετρεψαν
επετρεψε
επεφερε
επεφτε
επη
επηλθε
επηρε
επηρεαζει
επηρεαζεται
επηρεαζονται
επηρεαζουν
επηρεασαν
επηρεασε
επηρεασει
επηρεασμενος
επηρεασουν
επηρεαστει
επηρεαστηκαν
επηρεαστηκε
επι
επιασαν
επιασε
επιβαινοντες
επιβαλει
επιβαλλει
επιβαλλεται
επιβαλλουν
επιβατες
επιβατων
επιβεβαιωθει
επιβεβαιωθηκε
επιβεβαιωνει
επιβεβαιωνεται
επιβεβαιωνουν
επιβεβαιωσαν
επιβεβαιωσε
επιβεβαιωσει
επιβεβαιωση
επιβιωνει
επιβιωσει
επιβιωση
επιβιωσης
επιβιωσουν
επιβλεπει
επιβλεψη
επιβληθει
επιβληθηκε
επιβολη
επιβολης
επιγεια
επιγνωση
επιγραμμα
επιγραμματα
επιγραφες
επιγραφη
επιδαυρου
επιδεινωση
επιδειξει
επιδειξη
επιδειξης
επιδημια
επιδημιας
επιδιωκει
επιδιωξη
επιδοσεις
επιδοσεων
επιδοση
επιδρασεις
επιδραση
επιδρασης
επιδρομες
επιδρομη
επιδρομων
επιζωντες
επιθεσεις
επιθεσεων
επιθεση
επιθεσης
επιθετα
επιθετικη
επιθετικης
επιθετικο
επιθετικος
επιθετο
επιθετου
επιθετων
επιθεωρηση
επιθεωρησης
επιθεωρησις
επιθεωρητη
επιθεωρητης
επιθημα
επιθυμει
επιθυμητη
επιθυμητο
επιθυμια
επιθυμιαν
επιθυμιας
επιθυμιες
επιθυμουν
επιθυμουσαν
επιθυμουσε
επικαιροτητα
επικαλουμενος
επικαλυψη
επικειμενη
επικεντρο
επικεντρωθει
επικεντρωθηκε
επικεντρωνεται
επικεντρωνονται
επικεφαλης
επικινδυνα
επικινδυνες
επικινδυνη
επικινδυνο
επικινδυνος
επικληση
επικο
επικοινωνει
επικοινωνια
επικοινωνιας
επικοινωνιες
επικοινωνιων
επικοινωνουν
επικουρος
επικρατει
επικρατεια
επικρατειας
επικρατησαν
επικρατησε
επικρατησει
επικρατηση
επικρατουν
επικρατουσα
επικρατουσε
επικρατωντας
επικριθηκε
επικριτες
επικυριαρχια
επικυρωθηκε
επικυρωσε
επικυρωση
επιλαχων
επιλεγει
επιλεγεται
επιλεγονται
επιλεγοντας
επιλεγουν
επιλεξει
επιλεξιμων
επιλεξουν
επιλεχθηκαν
επιλεχθηκε
επιλεχτηκε
επιλογες
επιλογη
επιλογης
επιλυση
επιλυσης
επιμ
επιμελεια
επιμελειαν
επιμελειας
επιμεληθηκε
επιμελητηριο
επιμελητηριου
επιμελητης
επιμελως
επιμενει
επιμερους
επιμονη
επινειο
επινοηθηκε
επινοησε
επινοηση
επιπεδα
επιπεδη
επιπεδο
επιπεδου
επιπεδων
επιπλα
επιπλεον
επιπλοκες
επιπλων
επιπροσθετα
επιπροσθετως
επιπτωσεις
επιπτωσεων
επιρρημα
επιρροες
επιρροη
επιρροης
επισημα
επισημαινει
επισημες
επισημη
επισημης
επισημο
επισημος
επισημου
επισημους
επισημων
επισημως
επισης
επισκεπτες
επισκεπτεται
επισκεπτη
επισκεπτης
επισκεπτονται
επισκεπτων
επισκευες
επισκευη
επισκεφθει
επισκεφθηκε
επισκεφτει
επισκεφτηκε
επισκεψεις
επισκεψη
επισκεψης
επισκοπες
επισκοπη
επισκοπης
επισκοπηση
επισκοπικη
επισκοπο
επισκοποι
επισκοπος
επισκοπου
επισκοπους
επισκοπων
επιστημες
επιστημη
επιστημην
επιστημης
επιστημονα
επιστημονας
επιστημονες
επιστημονικα
επιστημονικες
επιστημονικη
επιστημονικης
επιστημονικο
επιστημονικος
επιστημονικου
επιστημονικων
επιστημονων
επιστημων
επιστολες
επιστολη
επιστολην
επιστολης
επιστολων
επιστρεφει
επιστρεφοντας
επιστρεφουν
επιστρεψει
επιστρεψουν
επιστροφη
επιστροφης
επιταχυνση
επιτεθει
επιτεθηκαν
επιτεθηκε
επιτεθουν
επιτελειο
επιτελειου
επιτελους
επιτευγμα
επιτευγματα
επιτευξη
επιτευχθει
επιτευχθηκε
επιτηδεια
επιτηδες
επιτηρηση
επιτιθενται
επιτιθεται
επιτιμο
επιτιμος
επιτοκιο
επιτομη
επιτομο
επιτραπεζια
επιτραπεζιας
επιτραπει
επιτραπηκε
επιτρεπει
επιτρεπεται
επιτρεποντας
επιτρεποταν
επιτρεπουν
επιτρεψει
επιτρεψουν
επιτροπες
επιτροπη
επιτροπης
επιτροπος
επιτροπου
επιτροπων
επιτυγχανεται
επιτυγχανοντας
επιτυχει
επιτυχη
επιτυχημενα
επιτυχημενες
επιτυχημενη
επιτυχημενο
επιτυχημενος
επιτυχης
επιτυχια
επιτυχιας
επιτυχιες
επιτυχιων
επιτυχουν
επιτυχως
επιφανεια
επιφανειακα
επιφανειακη
επιφανειαν
επιφανειας
επιφανειες
επιφανεις
επιφανειων
επιφανης
επιφανων
επιφερει
επιφυλαξη
επιχειρει
επιχειρημα
επιχειρηματα
επιχειρηματια
επιχειρηματιας
επιχειρηματιες
επιχειρηματικη
επιχειρηματικο
επιχειρησαν
επιχειρησε
επιχειρησεις
επιχειρησεων
επιχειρηση
επιχειρησης
επιχειρησιακη
επληξε
επο
εποιει
εποιειτο
εποιησαν
εποιησαντο
εποιησας
εποιησατο
εποιησε
εποιησεν
εποικους
εποιουν
εποιουντο
επομενα
επομενες
επομενη
επομενης
επομενο
επομενοι
επομενος
επομενου
επομενους
επομενων
επομενως
εποπτεια
επορευθη
επος
εποχες
εποχη
εποχην
εποχης
εποχων
επρεπε
επροκειτο
επς
επσα
επτα
επτανησα
επωνυμα
επωνυμια
επωνυμο
επωνυμος
ερ
ερα
ερασιτεχνες
ερασιτεχνης
ερασιτεχνικα
ερασιτεχνικη
ερασιτεχνικης
ερασιτεχνικο
ερασιτεχνων
εραστες
εραστη
εραστης
ερατω
εργα
εργαζεται
εργαζομενοι
εργαζομενος
εργαζομενους
εργαζομενων
εργαζονται
εργαζονταν
εργαζοταν
εργαλεια
εργαλειο
εργαλειων
εργασθηκε
εργασια
εργασιαν
εργασιας
εργασιες
εργασιων
εργαστει
εργαστηκαν
εργαστηκε
εργαστηρι
εργαστηρια
εργαστηριο
εργαστηριου
εργαστηριων
εργαστουν
εργατες
εργατης
εργατικη
εργατικης
εργατικο
εργατικου
εργατικων
εργατων
εργο
εργοδοτες
εργοις
εργον
εργοστασια
εργοστασιο
εργοστασιου
εργου
εργω
εργων
ερε
ερεβαν
ερεθισματα
ερει
ερειπια
ερεις
ερευνα
ερευνας
ερευνες
ερευνητες
ερευνητη
ερευνητης
ερευνητικα
ερευνητικες
ερευνητικη
ερευνητικο
ερευνητικου
ερευνητικων
ερευνητων
ερευνων
ερζεγοβινη
ερζεγοβινης
ερημια
ερημο
ερημον
ερημος
ερημου
ερημους
ερημω
ερθει
ερθουν
ερικ
εριξαν
εριξε
εριχ
ερμη
ερμηνεια
ερμηνειας
ερμηνειες
ερμηνευει
ερμηνευεται
ερμηνευοντας
ερμηνευσε
ερμηνευσει
ερμης
ερμιονη
ερμου
ερνεστ
ερνεστο
ερνεστος
ερνεστου
ερνστ
ερντογαν
ερπετα
ερριεττα
ερρικο
ερρικος
ερρικου
ερτ
ερυθρα
ερυθρας
ερυθρο
ερυθρος
ερυθρου
ερυθρων
ερυμανθου
ερχεται
ερχομαι
ερχομενος
ερχομο
ερχονται
ερχονταν
ερχοταν
ερω
ερωμενη
ερως
ερωτα
ερωτας
ερωτες
ερωτευεται
ερωτευμενος
ερωτευτηκε
ερωτημα
ερωτηματα
ερωτηματος
ερωτησεις
ερωτηση
ερωτικα
ερωτικες
ερωτικη
ερωτικο
ερωτος
ερωτων
ες
εσα
εσας
εσεις
εσενα
εσεσθαι
εση
εσθ
εσθητα
εσθονια
εσθονιας
εσθονικα
εσθονικη
εσκα
εσμεν
εσοδα
εσοδων
εσονται
εσπασε
εσπεραν
εσπεραντο
εσπερας
εσπευσαν
εσπευσε
εσσδ
εσσης
εστ
εσται
εσταλη
εστε
εστειλαν
εστειλε
εστελνε
εστη
εστησαν
εστησε
εστι
εστια
εστιαζει
εστιας
εστιαση
εστιασης
εστιατορια
εστιατοριο
εστιες
εστιν
εστρεψε
εστω
εσυ
εσφαλμενα
εσφαλμενη
εσχατη
εσχατον
εσχε
εσχεν
εσχον
εσω
εσωσε
εσωτερικα
εσωτερικες
εσωτερικη
εσωτερικης
εσωτερικο
εσωτερικος
εσωτερικου
εσωτερικους
εσωτερικων
ετ
εταιρεια
εταιρειας
εταιρειες
εταιρειων
εταιρια
εταιριας
εταιριες
εταιριων
εταιρος
εταιρους
εταιρων
εταφη
ετει
ετερα
ετεραν
ετερας
ετεροθαλη
ετεροθαλης
ετεροι
ετεροις
ετερον
ετερος
ετερου
ετερους
ετερω
ετερων
ετη
ετησια
ετησιες
ετησιο
ετησιως
ετι
ετιεν
ετικετα
ετικετες
ετοιμα
ετοιμαζεται
ετοιμη
ετοιμο
ετοιμοι
ετοιμος
ετος
ετους
ετρεξε
ετρεχε
ετσι
ετυμολογια
ετυμολογιας
ετυμολογικα
ετυμολογικο
ετυχε
ετυχεν
ετων
ευ
ευα
ευαγγελια
ευαγγελικη
ευαγγελιο
ευαγγελιον
ευαγγελιου
ευαγγελισμος
ευαγγελισμου
ευαγγελος
ευαγγελου
ευαισθησια
ευαισθητα
ευαισθητη
ευαισθητο
ευανθια
ευβοια
ευβοιας
ευγενεια
ευγενειας
ευγενεις
ευγενη
ευγενης
ευγενια
ευγενιος
ευγενιου
ευγενους
ευγενων
ευδαιμονιαν
ευδαιμονιας
ευδοκια
ευελιξια
ευελπιδων
ευεργεσιας
ευεργετη
ευεργετης
ευημερια
ευημεριας
ευθεια
ευθειαν
ευθειας
ευθεως
ευθυ
ευθυμιος
ευθυμιου
ευθυνες
ευθυνεται
ευθυνη
ευθυνης
ευθυς
ευκαιρια
ευκαιριες
ευκλειδη
ευκολα
ευκολη
ευκολια
ευκολο
ευκολοτερη
ευλογια
ευλογιας
ευμενη
ευμενης
ευνοια
ευνοιαν
ευνοιας
ευνοικες
ευνοικη
ευξεινου
ευρε
ευρεθη
ευρεια
ευρειας
ευρειν
ευρεν
ευρεση
ευρεσιτεχνιας
ευρετηριο
ευρεως
ευρη
ευρημα
ευρηματα
ευρηματων
ευριπιδη
ευριπιδης
ευρισκεται
ευρισκετο
ευρισκομενο
ευρισκονται
ευρον
ευρος
ευρους
ευρυ
ευρυδικη
ευρυτανιας
ευρυτατα
ευρυτερα
ευρυτερη
ευρυτερης
ευρυτερο
ευρυτερου
ευρω
ευρωβουλευτης
ευρωεκλογες
ευρωζωνης
ευρωλιγκα
ευρωλιγκας
ευρωμπασκετ
ευρων
ευρωπαικα
ευρωπαικες
ευρωπαικη
ευρωπαικης
ευρωπαικο
ευρωπαικος
ευρωπαικου
ευρωπαικους
ευρωπαικων
ευρωπαιοι
ευρωπαιος
ευρωπαιους
ευρωπαιων
ευρωπη
ευρωπην
ευρωπης
ευσεβεια
ευσεβειαν
ευσεβειας
ευσεβης
ευσεβιος
ευσταθιος
ευτυχη
ευτυχης
ευτυχια
ευτυχιας
ευτυχισμενος
ευτυχως
ευφορη
ευφρατη
ευφροσυνη
ευφυια
ευχαριστη
ευχαριστηση
ευχαριστω
ευχερεια
ευχη
ευχην
εφ
εφαγε
εφαινετο
εφανη
εφαρμογες
εφαρμογη
εφαρμογης
εφαρμογων
εφαρμοζει
εφαρμοζεται
εφαρμοζονται
εφαρμοζοντας
εφαρμοσε
εφαρμοσει
εφαρμοσμενη
εφαρμοστει
εφαρμοστηκε
εφασαν
εφε
εφεξης
εφεραν
εφερε
εφερεν
εφερνε
εφερον
εφεση
εφεσο
εφεσου
εφετειο
εφευγε
εφευρεθηκε
εφευρεση
εφευρετης
εφη
εφηβεια
εφηβικη
εφηβος
εφηβους
εφηβων
εφημ
εφημεριδα
εφημεριδας
εφημεριδες
εφημεριδων
εφημεριος
εφημερις
εφην
εφηυρε
εφθανε
εφθασαν
εφθασε
εφθασεν
εφικτη
εφικτο
εφοδια
εφοδιασμου
εφοδου
εφοπλιστης
εφορεια
εφορος
εφοσον
εφραιμ
εφτα
εφταναν
εφτανε
εφτασαν
εφτασε
εφτιαξε
εφυγαν
εφυγε
εχανε
εχασαν
εχασε
εχε
εχει
εχειν
εχεις
εχετε
εχη
εχθρα
εχθραν
εχθρικα
εχθρικες
εχθρικη
εχθρικο
εχθρο
εχθροι
εχθροις
εχθρον
εχθροπραξιες
εχθροπραξιων
εχθρος
εχθροτητα
εχθρου
εχθρους
εχθρων
εχοι
εχομεν
εχον
εχοντα
εχοντας
εχοντες
εχοντι
εχοντος
εχοντων
εχουμε
εχουν
εχουσα
εχουσαι
εχουσαν
εχουσης
εχουσι
εχουσιν
εχρην
εχτισαν
εχτισε
εχω
εχων
εψαχνε
εω
εων
εωρα
εως
ζ
ζα
ζαγκρεμπ
ζαιμη
ζαιμης
ζακ
ζακυνθο
ζακυνθος
ζακυνθου
ζαλη
ζαμπια
ζαν
ζαχαρη
ζαχαρης
ζαχαρια
ζαχαριας
ζαχαροπουλος
ζει
ζεν
ζενιτ
ζεραρ
ζερμαιν
ζερμεν
ζεστα
ζεστη
ζεστο
ζευ
ζευγαρι
ζευγαρια
ζευγαριου
ζευγη
ζευγος
ζευγους
ζευς
ζη
ζηλανδια
ζηλανδιας
ζηλο
ζηλον
ζημια
ζημιες
ζην
ζηνων
ζηνωνα
ζησει
ζηση
ζησης
ζησουν
ζητα
ζηταει
ζητει
ζητειν
ζητηθηκε
ζητημα
ζητηματα
ζητηματος
ζητηματων
ζητησαν
ζητησε
ζητησει
ζητηση
ζητησης
ζητησουν
ζητουμενο
ζητουν
ζητουσαν
ζητουσε
ζητω
ζητωντας
ζιλ
ζιμπαμπουε
ζοζε
ζοζεφ
ζουν
ζουρνταιν
ζουσαν
ζουσε
ζυγιζει
ζυγο
ζυγον
ζυγος
ζυγου
ζυλ
ζυμη
ζυμωση
ζυριχη
ζυριχης
ζω
ζωα
ζωγραφιζε
ζωγραφιζει
ζωγραφικη
ζωγραφικης
ζωγραφισε
ζωγραφο
ζωγραφοι
ζωγραφος
ζωγραφου
ζωγραφους
ζωγραφων
ζωες
ζωη
ζωην
ζωης
ζων
ζωνες
ζωνη
ζωνης
ζωντα
ζωντανα
ζωντανες
ζωντανη
ζωντανο
ζωντανοι
ζωντανος
ζωντανους
ζωντανων
ζωντας
ζωντες
ζωντος
ζωντων
ζωνων
ζωο
ζωοδοχου
ζωοις
ζωολογια
ζωον
ζωου
ζωρζ
ζωτικης
ζωων
η
ηβ
ηγεισθαι
ηγειται
ηγειτο
ηγεμονα
ηγεμονας
ηγεμονες
ηγεμονια
ηγεμονιαν
ηγεμονιας
ηγεμονων
ηγεμων
ηγεσια
ηγεσιας
ηγετες
ηγετη
ηγετης
ηγετικη
ηγετικο
ηγετων
ηγηθει
ηγηθηκε
ηγουμαι
ηγουμενη
ηγουμενο
ηγουμενοι
ηγουμενος
ηγουμενου
ηγουν
ηδ
ηδε
ηδεως
ηδη
ηδονας
ηδονη
ηδονην
ηδονης
ηδυ
ηδυνατο
ηε
ηθελα
ηθελαν
ηθελε
ηθελεν
ηθελον
ηθη
ηθικα
ηθικες
ηθικη
ηθικης
ηθικο
ηθοποιο
ηθοποιοι
ηθοποιος
ηθοποιου
ηθοποιους
ηθοποιων
ηθος
ηθους
ηθων
ηι
ηκε
ηκει
ηκειν
ηκεν
ηκιστα
ηκον
ηκουσα
ηκουσαν
ηκουσε
ηκουσεν
ηλ
ηλεια
ηλειας
ηλεκτρα
ηλεκτρικα
ηλεκτρικες
ηλεκτρικη
ηλεκτρικης
ηλεκτρικο
ηλεκτρικου
ηλεκτρικων
ηλεκτρισμου
ηλεκτρονια
ηλεκτρονικα
ηλεκτρονικες
ηλεκτρονικη
ηλεκτρονικης
ηλεκτρονικο
ηλεκτρονικος
ηλεκτρονικου
ηλεκτρονικων
ηλεκτρονιο
ηλεκτρονιων
ηλθαν
ηλθε
ηλθεν
ηλθον
ηλια
ηλιακη
ηλιακης
ηλιακο
ηλιακου
ηλιακων
ηλιας
ηλικια
ηλικιαν
ηλικιας
ηλικιες
ηλικιωμενος
ηλικιωμενους
ηλικιων
ηλιο
ηλιον
ηλιος
ηλιου
ηλπιζε
ημαθιας
ημας
ημεις
ημερα
ημεραι
ημεραις
ημεραν
ημερας
ημερες
ημερησια
ημερησιο
ημερολογια
ημερολογιο
ημερολογιον
ημερολογιου
ημερομηνια
ημερομηνιας
ημερομηνιες
ημερων
ημετερα
ημετεραν
ημετερας
ημετερον
ημετερων
ημην
ημι
ημιν
ημιορεινο
ημιορεινος
ημισυ
ημισυντακτικο
ημισφαιριο
ημισφαιριου
ημιτελικα
ημιτελικη
ημιτελικο
ημιτελικοι
ημιτελικος
ημιτελικους
ημιχρονο
ημουν
ημπορει
ημων
ην
ηναι
ηνια
ηνικα
ηνωμενα
ηνωμενες
ηνωμενο
ηνωμενου
ηνωμενων
ηξει
ηξεραν
ηξερε
ηξιου
ηξιουν
ηπα
ηπαρ
ηπατος
ηπειρο
ηπειρον
ηπειρος
ηπειρου
ηπειρους
ηπειρωτικα
ηπειρωτικη
ηπειρωτικης
ηπειρωτικο
ηπερ
ηπια
ηπιο
ηρα
ηρακλεα
ηρακλεια
ηρακλειας
ηρακλειο
ηρακλειον
ηρακλειου
ηρακλεους
ηρακλη
ηρακλης
ηρας
ηρεμα
ηρεμια
ηρθαν
ηρθε
ηρξατο
ηροδοτο
ηροδοτος
ηροδοτου
ηρχισε
ηρωα
ηρωας
ηρωδη
ηρωδης
ηρωδου
ηρωες
ηρωιδα
ηρωικη
ηρως
ηρωων
ης
ησαιας
ησαν
ησαυ
ησιοδος
ησσον
ησυχα
ησυχη
ησυχια
ησυχιαν
ησυχιας
ησυχος
ηταν
ητανε
ητις
ητο
ητοι
ητον
ηττα
ηττας
ηττες
ηττηθει
ηττηθηκαν
ηττηθηκε
ηττον
ηφαιστεια
ηφαιστειακη
ηφαιστειο
ηφαιστειου
ηφαιστος
ηφαιστου
ηχητικα
ηχο
ηχογραφηθηκε
ηχογραφημενο
ηχογραφησαν
ηχογραφησε
ηχογραφησει
ηχογραφησεις
ηχογραφησεων
ηχογραφηση
ηχοι
ηχος
ηχου
ηχους
ηχω
ηχων
θ
θα
θαλαμο
θαλαμος
θαλαμου
θαλαμους
θαλασσα
θαλασσαν
θαλασσας
θαλασσες
θαλασση
θαλασσης
θαλασσια
θαλασσιας
θαλασσιες
θαλασσιο
θαλασσιου
θαλασσιων
θαλασσων
θαλατταν
θαλαττη
θαλαττης
θαμμενη
θαμνους
θαν
θαναση
θανασης
θανασιμα
θανατηφορα
θανατικη
θανατο
θανατοι
θανατον
θανατος
θανατου
θανατους
θανατω
θανατων
θανατωση
θανος
θαρρος
θαρρω
θασου
θατερον
θαττον
θαυμα
θαυμαζειν
θαυμασια
θαυμασμο
θαυμαστες
θαυμαστης
θαυμαστον
θαυματα
θαυματων
θαφτηκε
θε
θεα
θεαι
θεαμα
θεαματος
θεαν
θεας
θεατες
θεατη
θεατρα
θεατρικα
θεατρικες
θεατρικη
θεατρικης
θεατρικο
θεατρικος
θεατρικου
θεατρικων
θεατρο
θεατρον
θεατρου
θεατων
θεε
θεια
θειαν
θειας
θειικο
θεικη
θειο
θειον
θειος
θειου
θειων
θελει
θελεις
θελετε
θελη
θελημα
θελησε
θεληση
θελησης
θελοντας
θελουμε
θελουν
θελω
θελων
θεμα
θεματα
θεματολογια
θεματος
θεματων
θεμελια
θεμελιο
θεμελιωδεις
θεμελιωδες
θεμελιωδη
θεμελιωδης
θεμελιωση
θεμις
θεμιστοκλη
θεμιστοκλης
θεο
θεογονια
θεοδοσιος
θεοδοσιου
θεοδωρα
θεοδωρακη
θεοδωρακης
θεοδωρας
θεοδωρο
θεοδωρος
θεοδωρου
θεοδωρων
θεοι
θεοις
θεολογια
θεολογιας
θεολογικη
θεολογικης
θεολογος
θεολογου
θεον
θεος
θεοτητα
θεοτητας
θεοτητες
θεοτητων
θεοτοκη
θεοτοκος
θεοτοκου
θεου
θεους
θεοφανης
θεοφανους
θεοφιλος
θεοφιλου
θεοφραστος
θεοχαρης
θεραπεια
θεραπειας
θεραπειες
θεραπευτικες
θεραπευτικη
θερετρο
θερινη
θερινο
θερινους
θερινων
θερμα
θερμανση
θερμανσης
θερμες
θερμη
θερμης
θερμικη
θερμικης
θερμο
θερμοκηπιου
θερμοκρασια
θερμοκρασιας
θερμοκρασιες
θερμον
θερμος
θερμοτητα
θερμοτητας
θερμου
θερος
θερους
θες
θεσει
θεσεις
θεσεων
θεσεως
θεση
θεσης
θεσιν
θεσις
θεσμο
θεσμοι
θεσμος
θεσμου
θεσμους
θεσμων
θεσπισε
θεσπιση
θεσπιστηκε
θεσπρωτιας
θεσσαλια
θεσσαλιας
θεσσαλονικη
θεσσαλονικης
θετει
θετικα
θετικες
θετικη
θετικης
θετικο
θετικος
θετικων
θετοντας
θετουν
θεω
θεων
θεωρει
θεωρειται
θεωρειτο
θεωρηθει
θεωρηθηκαν
θεωρηθηκε
θεωρηθουν
θεωρημα
θεωρηματα
θεωρηματος
θεωρησαν
θεωρησε
θεωρηση
θεωρητικα
θεωρητικη
θεωρητικο
θεωρητικος
θεωρια
θεωριαν
θεωριας
θεωριες
θεωριων
θεωρουμε
θεωρουν
θεωρουνται
θεωρουνταν
θεωρουσαν
θεωρουσε
θεωρουταν
θεωρω
θεωρωντας
θηβα
θηβαιοι
θηβαιους
θηβαιων
θηβας
θηβων
θηκη
θηλαστικα
θηλαστικων
θηλεων
θηλυ
θηλυκα
θηλυκο
θηλυκου
θηλυκων
θηρα
θηραμα
θηραματα
θηρας
θηρεσια
θηρια
θηριον
θηριων
θησαυρο
θησαυροι
θησαυρος
θησαυρου
θησαυρους
θησαυροφυλακιο
θησαυρων
θησεα
θησεας
θητεια
θητειας
θητειες
θιασο
θιασος
θιβετ
θλιψη
θνησιμοτητα
θνησιμοτητας
θνητος
θνητων
θοδωρης
θοδωρος
θολο
θολος
θολου
θορυβο
θορυβος
θορυβου
θουκυδιδη
θουκυδιδης
θρακες
θρακη
θρακης
θρακων
θρασυβουλος
θραυσματα
θρηνος
θρησκεια
θρησκειας
θρησκειες
θρησκειων
θρησκευματων
θρησκευτικα
θρησκευτικες
θρησκευτικη
θρησκευτικης
θρησκευτικο
θρησκευτικος
θρησκευτικου
θρησκευτικους
θρησκευτικων
θριαμβο
θριαμβος
θριαμβου
θριλερ
θρονο
θρονον
θρονος
θρονου
θρυλικη
θρυλικο
θρυλο
θρυλος
θρυλους
θυγατερα
θυγατερας
θυγατερες
θυγατερων
θυγατηρ
θυγατρικη
θυγατρος
θυελλα
θυμα
θυμαμαι
θυματα
θυμαται
θυματος
θυματων
θυμιζει
θυμιζουν
θυμο
θυμον
θυμος
θυμου
θυμω
θυρα
θυραν
θυρας
θυρεο
θυρεος
θυρες
θυρων
θυσια
θυσιαν
θυσιας
θυσιαστηριον
θυσιαστηριου
θυσιες
θυσιων
θωμα
θωμας
θωρακα
θωρηκτο
ι
ια
ιακωβ
ιακωβο
ιακωβος
ιακωβου
ιαν
ιανουαριο
ιανουαριος
ιανουαριου
ιαπωνας
ιαπωνες
ιαπωνια
ιαπωνιας
ιαπωνικα
ιαπωνικες
ιαπωνικη
ιαπωνικης
ιαπωνικο
ιαπωνικου
ιασων
ιατρειο
ιατρικα
ιατρικες
ιατρικη
ιατρικης
ιατρικο
ιατρικου
ιατρικων
ιατρο
ιατροι
ιατρος
ιατρου
ιατρους
ιατρων
ιβ
ιβαν
ιβηριας
ιβηρικη
ιβηρικης
ιγ
ιγκορ
ιγνατιος
ιδ
ιδανικα
ιδανικη
ιδανικο
ιδε
ιδεα
ιδεαν
ιδεας
ιδεες
ιδειν
ιδεολογια
ιδεολογιας
ιδεολογικη
ιδεων
ιδη
ιδης
ιδια
ιδιαιτερα
ιδιαιτερες
ιδιαιτερη
ιδιαιτερης
ιδιαιτερο
ιδιαιτεροτητα
ιδιαιτερου
ιδιαιτερως
ιδιαν
ιδιας
ιδιες
ιδιο
ιδιοι
ιδιοις
ιδιοκτησια
ιδιοκτησιας
ιδιοκτησιες
ιδιοκτητες
ιδιοκτητη
ιδιοκτητης
ιδιοκτητο
ιδιοκτητων
ιδιομορφιες
ιδιον
ιδιος
ιδιοτητα
ιδιοτητας
ιδιοτητες
ιδιοτητων
ιδιου
ιδιους
ιδιωμα
ιδιωματικο
ιδιων
ιδιως
ιδιωτες
ιδιωτης
ιδιωτικα
ιδιωτικες
ιδιωτικη
ιδιωτικης
ιδιωτικο
ιδιωτικος
ιδιωτικου
ιδιωτικων
ιδιωτων
ιδοντες
ιδου
ιδρυει
ιδρυεται
ιδρυθει
ιδρυθηκαν
ιδρυθηκε
ιδρυμα
ιδρυματα
ιδρυματος
ιδρυματων
ιδρυοντας
ιδρυσαν
ιδρυσε
ιδρυσει
ιδρυσεως
ιδρυση
ιδρυσης
ιδρυτες
ιδρυτη
ιδρυτης
ιδρυτικα
ιδρυτικο
ιδω
ιδων
ιε
ιεναι
ιερα
ιεραν
ιεραπετρας
ιεραρχια
ιεραρχιας
ιερας
ιερατειο
ιερεα
ιερεας
ιερεια
ιερεις
ιερεμιας
ιερες
ιερευς
ιερεων
ιερεως
ιερη
ιερο
ιεροις
ιερομοναχος
ιερον
ιερος
ιεροσολυμα
ιεροσολυμων
ιερου
ιερουσαλημ
ιερω
ιερων
ιερωνυμος
ιεχωβα
ιζ
ιζω
ιη
ιησου
ιησουιτων
ιησουν
ιησους
ιθ
ιθαγενεια
ιθαγενειας
ιθαγενεις
ιθαγενων
ιθακη
ιθακης
ιι
ιιι
ικανα
ικανη
ικανο
ικανοι
ικανον
ικανοποιει
ικανοποιηση
ικανοποιητικη
ικανος
ικανοτητα
ικανοτητας
ικανοτητες
ικανοτητων
ικανως
ικαρια
ικαριας
ικαρος
ικος
ιλ
ιλιαδα
ιλινοι
ιλιον
ιλιου
ιματια
ιματιον
ιμπν
ιμπραημ
ιν
ινα
ινδια
ινδιας
ινδιες
ινδικη
ινδικης
ινδικο
ινδικου
ινδιων
ινδο
ινδοευρωπαικη
ινδοι
ινδονησια
ινδονησιας
ινδος
ινδου
ινδους
ινδων
ινες
ινης
ιννοκεντιος
ινστιτουτο
ινστιτουτου
ιντα
ιντερ
ιντερνετ
ιντερτοτο
ιντιανα
ιντσες
ιντσων
ινων
ιο
ιοι
ιον
ιονιο
ιονιου
ιονιων
ιοντα
ιοντων
ιορδανη
ιορδανια
ιορδανιας
ιορδανου
ιος
ιου
ιουδα
ιουδαια
ιουδαιας
ιουδαικη
ιουδαικης
ιουδαικου
ιουδαιοι
ιουδαιους
ιουδαιων
ιουδας
ιουδηθ
ιουλ
ιουλια
ιουλιανο
ιουλιανος
ιουλιανου
ιουλιετα
ιουλιο
ιουλιος
ιουλιου
ιουν
ιουνιο
ιουνιος
ιουνιου
ιους
ιουστινιανος
ιουστινιανου
ιουστινος
ιππεας
ιππεις
ιππεων
ιππιας
ιππικο
ιππικου
ιπποι
ιπποκρατη
ιπποκρατης
ιππον
ιππος
ιπποτες
ιπποτη
ιπποτης
ιπποτων
ιππου
ιππους
ιππων
ιρακ
ιραν
ιρις
ιρλανδια
ιρλανδιας
ιρλανδικη
ιρλανδος
ις
ισα
ισαακ
ισαακιος
ισαβελλα
ισαβελλας
ισαι
ισες
ιση
ισημερινο
ισημερινου
ισης
ισθι
ισθμου
ισια
ισιδωρος
ισλαμ
ισλαμικη
ισλαμικης
ισλαμικο
ισλαμικου
ισλανδια
ισλανδιας
ισμαηλ
ισμος
ισο
ισοβαθμια
ισοβαθμων
ισοβια
ισογειο
ισοδυναμα
ισοδυναμει
ισοδυναμη
ισοδυναμο
ισοι
ισοκρατης
ισομερη
ισον
ισοπαλια
ισοπαλιες
ισορροπια
ισορροπιας
ισος
ισοτητα
ισοτητας
ισοτιμια
ισοτοπα
ισου
ισουται
ισοφαρισε
ισπ
ισπανια
ισπανιας
ισπανικα
ισπανικες
ισπανικη
ισπανικης
ισπανικο
ισπανικου
ισπανικων
ισπανο
ισπανοι
ισπανος
ισπανους
ισπανων
ισραηλ
ισραηλινη
ισραηλινος
ισραηλιτων
ισσα
ιστ
ιστο
ιστολογιο
ιστορει
ιστορια
ιστοριαι
ιστοριαν
ιστοριας
ιστοριες
ιστορικα
ιστορικες
ιστορικη
ιστορικης
ιστορικο
ιστορικοι
ιστορικον
ιστορικος
ιστορικου
ιστορικους
ιστορικων
ιστοριογραφια
ιστοριων
ιστος
ιστοσ
ιστοσελιδα
ιστοσελιδας
ιστοσελιδες
ιστοσελιδων
ιστοτοπο
ιστοτοπος
ιστοτοπου
ιστου
ιστους
ιστων
ισχυ
ισχυε
ισχυει
ισχυι
ισχυν
ισχυος
ισχυουν
ισχυρα
ισχυρες
ισχυρη
ισχυρης
ισχυριζεται
ισχυριζονται
ισχυριζοταν
ισχυρισμο
ισχυρισμοι
ισχυρισμος
ισχυρισμους
ισχυριστηκαν
ισχυριστηκε
ισχυρο
ισχυροι
ισχυρον
ισχυρος
ισχυροτερη
ισχυροτερο
ισχυροτερος
ισχυρου
ισχυρους
ισχυρων
ισχυρως
ισχυς
ισχυσε
ισων
ισως
ιταλ
ιταλια
ιταλιαν
ιταλιας
ιταλιδα
ιταλικα
ιταλικες
ιταλικη
ιταλικης
ιταλικο
ιταλικος
ιταλικου
ιταλικων
ιταλο
ιταλοι
ιταλος
ιταλου
ιταλους
ιταλων
ιτεας
ιτης
ιτν
ιφιγενεια
ιχθυς
ιχθυων
ιχνη
ιχνος
ιψεν
ιω
ιωακειμ
ιωαννα
ιωαννας
ιωαννη
ιωαννην
ιωαννης
ιωαννιδη
ιωαννιδης
ιωαννινα
ιωαννινων
ιωαννου
ιωβ
ιων
ιωναθαν
ιωνας
ιωνες
ιωνια
ιωνιας
ιωνικο
ιωνικος
ιωσηπος
ιωσηπου
ιωσηφ
ιωσηφινα
ιωτης
κ
κα
καβαλα
καβαλας
καβαφης
καγκελαριος
καγω
καδ
καζα
καζακικα
καζακσταν
καζαν
καζαντζακη
καζαντζακης
καζιμιρ
καζινο
καηκαν
καηκε
καθ
καθα
καθαιρεθηκε
καθαιρεση
καθαπερ
καθαρα
καθαρευουσα
καθαρη
καθαρισμο
καθαρισμου
καθαρο
καθαρον
καθαρος
καθαροτητα
καθαρου
καθε
καθεδρικο
καθεδρικος
καθεδρικου
καθειρξη
καθεις
καθεμια
καθενα
καθενας
καθενος
καθεστως
καθεστωτα
καθεστωτος
καθετα
καθεται
καθετες
καθετη
καθετο
καθηγητες
καθηγητη
καθηγητης
καθηγητρια
καθηγητων
καθηκον
καθηκοντα
καθηκοντος
καθηκοντων
καθημενος
καθημερινα
καθημερινες
καθημερινη
καθημερινης
καθημερινο
καθημερινοτητα
καθιερωθει
καθιερωθηκε
καθιερωμενοι
καθιερωμενων
καθιερωσε
καθιερωσει
καθιερωση
καθισε
καθισμα
καθισματα
καθιστα
καθισταται
καθιστουν
καθιστουσε
καθιστωντας
καθοδηγηση
καθοδο
καθολικα
καθολικες
καθολικη
καθολικης
καθολικισμο
καθολικο
καθολικοι
καθολικος
καθολικου
καθολικους
καθολικων
καθολου
καθομιλουμενη
καθονται
καθοριζει
καθοριζεται
καθοριζονται
καθοριζουν
καθορισε
καθορισει
καθορισμενη
καθορισμο
καθορισμος
καθοριστει
καθοριστηκε
καθοριστικη
καθοριστικο
καθοσον
καθοτι
καθρεφτη
καθριν
καθυστερησε
καθυστερησεις
καθυστερηση
καθως
και
καιγεται
καιει
καιν
καινη
καινης
καινοτομια
καινοτομιας
καινοτομιες
καινουργια
καινουργιο
καινουρια
καινουριο
καιντα
καιπερ
καιρικες
καιρο
καιρον
καιρος
καιρου
καιρους
καιρω
καιρων
καισαρ
καισαρα
καισαρας
καισαρεια
καισαρειας
καισαρι
καισαριανης
καισαρος
καιτη
καιτοι
κακ
κακα
κακεινος
κακες
κακη
κακης
κακια
κακιαν
κακιας
κακο
κακοι
κακοις
κακον
κακοποιηση
κακος
κακου
κακους
κακτος
κακων
κακως
καλα
καλαβριας
καλαβρυτα
καλαβρυτων
καλαθι
καλαθοσφαιριση
καλαθοσφαιρισης
καλαθοσφαιριστης
καλαι
καλαμαριας
καλαματα
καλαματας
καλαμια
καλαμποκι
καλας
καλβαντος
καλε
καλει
καλειν
καλεισθαι
καλειται
καλες
καλεσαν
καλεσε
καλεσει
καλεσμα
καλη
καλημερα
καλην
καλης
καλιο
καλιου
καλιφορνια
καλιφορνιας
καλλας
καλλει
καλλη
καλλιεργεια
καλλιεργειας
καλλιεργειες
καλλιεργειται
καλλιεργειων
καλλιεργουνται
καλλιθεα
καλλιθεας
καλλικρατης
καλλινικος
καλλιον
καλλιοπη
καλλιπος
καλλιστα
καλλιστον
καλλιτεχνες
καλλιτεχνη
καλλιτεχνης
καλλιτεχνικα
καλλιτεχνικες
καλλιτεχνικη
καλλιτεχνικης
καλλιτεχνικο
καλλιτεχνικος
καλλιτεχνικου
καλλιτεχνικων
καλλιτεχνων
καλλονη
καλλος
καλλους
καλο
καλοι
καλοκαιρι
καλοκαιρια
καλοκαιρινη
καλοκαιρινους
καλοκαιριου
καλον
καλος
καλοσυνη
καλου
καλουμενη
καλουμενην
καλουμενον
καλουμενος
καλουνται
καλους
καλουσι
καλουσιν
καλπες
καλυβα
καλυβες
καλυβια
καλυμμα
καλυμμενο
καλυπταν
καλυπτε
καλυπτει
καλυπτεται
καλυπτονται
καλυπτοντας
καλυπτουν
καλυτερα
καλυτερες
καλυτερη
καλυτερης
καλυτερο
καλυτεροι
καλυτερος
καλυτερου
καλυτερους
καλυτερων
καλυψε
καλυψει
καλυψη
καλυψης
καλυψουν
καλω
καλωδια
καλωδιο
καλων
καλως
καμαρα
καμαρες
καμαρι
καμβα
καμε
καμει
καμερα
καμερες
καμερον
καμερουν
καμη
καμια
καμμια
καμμιαν
καμουν
καμπανα
καμπαναριο
καμπανες
καμπανια
καμπανιας
καμπελ
καμπο
καμπος
καμποτζη
καμπου
καμπουλ
καμπυλες
καμπυλη
καμω
καν
κανα
καναδα
καναδας
καναδικη
καναδικο
καναδος
καναλι
καναλια
καναλιου
καναλιων
κανε
κανει
κανεις
κανελλοπουλος
κανενα
κανεναν
κανενας
κανετε
καννων
κανο
κανονα
κανονας
κανονες
κανονι
κανονια
κανονικα
κανονικες
κανονικη
κανονικης
κανονικο
κανονικου
κανονισμο
κανονισμοι
κανονισμος
κανονισμου
κανονισμους
κανονισμων
κανοντας
κανονων
κανουμε
κανουν
κανσας
καντ
καντακουζηνος
κανταφι
καντε
καντερμπερι
καντονι
καντρι
κανω
καπ
καπελα
καπελο
καπεταν
καπετανιο
καπετανιος
καπετιδων
καπιταλισμου
καπνισμα
καπνο
καπνος
καπνου
καποδιστρια
καποδιστριακο
καποδιστριακου
καποδιστριας
καποια
καποιας
καποιες
καποιο
καποιοι
καποιον
καποιος
καποιου
καποιους
καποιων
καποτε
καπου
καπουα
καππαδοκια
καππαδοκιας
καπως
καρα
καραβι
καραβια
καραγιαννη
καραγιαννης
καραιβικη
καραιβικης
καραισκακη
καραισκακης
καραμανλη
καραμανλης
καραμπαχ
καρδια
καρδιακη
καρδιακο
καρδιαν
καρδιας
καρδιες
καρδιναλιο
καρδιναλιος
καρδιναλιου
καρδιτσα
καρδιτσας
καρε
καρεκλα
καρελ
καρεν
καρι
καριερα
καριερας
καρινθιας
καρκινο
καρκινος
καρκινου
καρλ
καρλο
καρλομαγνος
καρλομαγνου
καρλος
καρλοττα
καρμεν
καρναβαλι
καρολ
καρολιδων
καρολινα
καρολινας
καρολο
καρολος
καρολου
καρπαθιων
καρπαθου
καρπενησι
καρπο
καρποι
καρπον
καρπος
καρπου
καρπους
καρπων
καρτ
καρτα
καρτερ
καρτες
καρτων
καρυστου
καρχηδονα
καρχηδονιοι
καρχηδονιους
καρχηδονιων
κας
κασμιρ
κασπιας
κασσελ
κασσιος
καστ
καστανιωτη
καστανιωτης
καστιλης
καστορια
καστοριας
καστρα
καστρι
καστρο
καστρον
καστρου
καστρων
κατ
κατα
καταβαλει
καταβολη
καταβολης
καταγγελια
καταγγελιες
καταγεγραμμενη
καταγεται
καταγονται
καταγονταν
καταγοταν
καταγραφει
καταγραφες
καταγραφεται
καταγραφη
καταγραφηκαν
καταγραφηκε
καταγραφης
καταγραφονται
καταγραφουν
καταγραψει
καταγωγη
καταγωγης
καταδικαζει
καταδικαζεται
καταδικασε
καταδικαστει
καταδικαστηκαν
καταδικαστηκε
καταδικη
καταδιωξη
καταδρομικο
καταθεσει
καταθεσεις
καταθεση
καταθλιψη
καταιγιδα
καταιγιδες
κατακτα
κατακτηθηκε
κατακτησει
κατακτησεις
κατακτηση
κατακτησης
κατακτητες
κατακτητη
κατακτητων
κατακτωντας
καταλαβαινει
καταλαβε
καταλαβει
καταλαβουν
καταλαμβανε
καταλαμβανει
καταλαμβανεται
καταλαμβανοντας
καταλαμβανουν
καταλανικα
καταλανικη
καταληγει
καταληγοντας
καταληγουν
καταληξει
καταληξεις
καταληξη
καταληφθει
καταληφθηκε
καταληψη
καταληψης
καταλιπειν
καταλιπων
καταλληλα
καταλληλες
καταλληλη
καταλληλο
καταλληλος
καταλληλων
καταλογο
καταλογος
καταλογου
καταλογους
καταλοιπα
καταλονια
καταλονιας
καταλυματα
καταλυση
καταλυτη
καταλυτικη
καταμετρηση
καταναλωνεται
καταναλωση
καταναλωσης
καταναλωτες
καταναλωτη
καταναλωτων
κατανεμονται
κατανοηση
κατανοησης
κατανοητη
κατανοητο
κατανομη
κατανομης
καταπαυση
καταπιεση
καταπολεμηση
καταρ
καταρα
καταργειται
καταργηθει
καταργηθηκαν
καταργηθηκε
καταργησε
καταργηση
καταρρακτες
καταρρακτη
καταρρακτης
καταρρεει
καταρρευσει
καταρρευση
καταρτιση
καταρτισης
κατασκευαζει
κατασκευαζεται
κατασκευαζονται
κατασκευαζονταν
κατασκευαζουν
κατασκευασαν
κατασκευασε
κατασκευασει
κατασκευασμενα
κατασκευασμενη
κατασκευασμενο
κατασκευαστει
κατασκευαστες
κατασκευαστη
κατασκευαστηκαν
κατασκευαστηκε
κατασκευαστης
κατασκευαστων
κατασκευες
κατασκευη
κατασκευης
κατασκευων
κατασκοπος
καταστασεις
καταστασεων
καταστασεως
κατασταση
καταστασης
καταστασιν
καταστατικο
καταστατικου
καταστει
καταστειλει
καταστημα
καταστηματα
καταστηματος
καταστηματων
καταστησει
καταστολη
καταστολης
καταστραφει
καταστραφηκαν
καταστραφηκε
καταστρεφει
καταστρεφεται
καταστρεφοντας
καταστρεψει
καταστρεψουν
καταστροφες
καταστροφη
καταστροφης
καταστροφικες
καταστροφικη
καταστροφων
καταστρωμα
κατασχεση
καταταξη
καταταξης
κατατασσει
κατατασσεται
κατατασσονται
καταταχθηκε
κατατεθεν
καταφεραν
καταφερε
καταφερει
καταφερνει
καταφερνοντας
καταφερνουν
καταφυγει
καταφυγια
καταφυγιο
καταχρηση
καταχωρηση
καταχωριση
κατεβαινει
κατεβαλε
κατεβει
κατεβη
κατεβηκε
κατεγραψε
κατεδαφιση
κατεδαφιστηκε
κατεθεσε
κατειχαν
κατειχε
κατεκτησαν
κατεκτησε
κατελαβαν
κατελαβε
κατεληγε
κατεληξαν
κατεληξε
κατεληφθη
κατεξοχην
κατεργασια
κατερινα
κατερινη
κατερινης
κατερρευσε
κατερριψε
κατεστη
κατεστησαν
κατεστησε
κατεστρεψαν
κατεστρεψε
κατεταγη
κατεταξε
κατευθειαν
κατευθυνει
κατευθυνεται
κατευθυνθηκε
κατευθυνσεις
κατευθυνση
κατευθυνσης
κατεφυγαν
κατεφυγε
κατεχει
κατεχομενη
κατεχουν
κατηγγειλε
κατηγορει
κατηγορειται
κατηγορηθει
κατηγορηθηκαν
κατηγορηθηκε
κατηγορησαν
κατηγορησε
κατηγορια
κατηγοριας
κατηγοριες
κατηγοριων
κατηγορουμενος
κατηγορουμενου
κατηγορωντας
κατηλθε
κατι
κατοικει
κατοικειται
κατοικηθηκε
κατοικηση
κατοικησης
κατοικια
κατοικιας
κατοικιες
κατοικιων
κατοικο
κατοικοι
κατοικος
κατοικουν
κατοικουνταν
κατοικουντας
κατοικουντες
κατοικους
κατοικουσαν
κατοικουσε
κατοικων
κατοπι
κατοπιν
κατορθωμα
κατορθωματα
κατορθωσαν
κατορθωσε
κατου
κατοχη
κατοχης
κατοχο
κατοχοι
κατοχος
κατοψη
κατσαρος
κατω
κατωθεν
κατωθι
κατων
κατωτερα
κατωτερη
κατωτερο
κατωτερος
καυκασο
καυκασου
καυση
καυσης
καυσιμα
καυσιμο
καυσιμου
καυσιμων
καφε
καφενειο
καφες
κβ
κβαντικη
κγ
κδ
κε
κεβιν
κεδρος
κει
κεικ
κειμενα
κειμενικη
κειμενο
κειμενον
κειμενου
κειμενων
κειμηλια
κειμπριτζ
κειν
κεινη
κεινος
κεισθαι
κειτ
κειται
κελευει
κελευσας
κελι
κελια
κελσιου
κελτων
κελυφος
κεμαλ
κεμπεκ
κεν
κενα
κενεθ
κενεντι
κενη
κενο
κενον
κενου
κεντ
κεντακι
κενταυρος
κεντρα
κεντρικα
κεντρικες
κεντρικη
κεντρικης
κεντρικο
κεντρικος
κεντρικου
κεντρικων
κεντρο
κεντρον
κεντρου
κεντρων
κενυα
κεπλερ
κεραια
κεραιες
κεραμικα
κεραμικη
κεραμικης
κερας
κερασια
κερατα
κερατσινιου
κεραυνος
κερδη
κερδιζε
κερδιζει
κερδιζοντας
κερδιζουν
κερδισαν
κερδισε
κερδισει
κερδισουν
κερδος
κερδους
κερδων
κερι
κερκιδα
κερκυρα
κερκυρας
κερμα
κερματα
κερτις
κερυνειας
κεφ
κεφαλαια
κεφαλαιο
κεφαλαιον
κεφαλαιου
κεφαλαιων
κεφαλας
κεφαλες
κεφαλη
κεφαλην
κεφαλης
κεφαλι
κεφαλια
κεφαλιου
κεφαλληνιας
κεφαλονια
κεφαλονιας
κη
κηδεια
κηδεμονια
κηδευτηκε
κηλιδες
κηπο
κηποι
κηπος
κηπου
κηπους
κηπων
κηρυγμα
κηρυγμενων
κηρυκα
κηρυξ
κηρυξε
κηρυξει
κηρυξη
κηρυσσει
κηρυχθει
κηρυχθηκε
κηφισια
κηφισιας
κι
κιβωτιο
κιβωτον
κιβωτος
κιεβο
κιεβου
κιθ
κιθαρα
κιθαρας
κιθαρες
κιθαριστα
κιθαριστας
κικερων
κιλα
κιλικια
κιλικιας
κιλκις
κιλων
κιμ
κιμων
κινα
κινας
κινγκ
κινδυνευει
κινδυνο
κινδυνοι
κινδυνον
κινδυνος
κινδυνου
κινδυνους
κινδυνων
κινεζικα
κινεζικες
κινεζικη
κινεζικης
κινεζικο
κινεζικου
κινεζοι
κινεζος
κινεζους
κινει
κινειν
κινεισθαι
κινειται
κινηθει
κινηθηκαν
κινηθηκε
κινημα
κινηματα
κινηματογραφικα
κινηματογραφικες
κινηματογραφικη
κινηματογραφικης
κινηματογραφικο
κινηματογραφικων
κινηματογραφο
κινηματογραφος
κινηματογραφου
κινηματογραφους
κινηματος
κινηματων
κινησει
κινησεις
κινησεων
κινησεως
κινηση
κινησης
κινησιν
κινησις
κινητα
κινητη
κινητηρα
κινητηρας
κινητηρες
κινητηρων
κινητης
κινητικη
κινητικοτητα
κινητο
κινητοποιηση
κινητου
κινητρα
κινητρο
κινητων
κινουμενα
κινουμενο
κινουμενον
κινουμενων
κινουν
κινουνται
κινουνταν
κιολας
κιονες
κιοτο
κιτρινα
κιτρινη
κιτρινο
κιτρινος
κκε
κλ
κλαδι
κλαδια
κλαδο
κλαδοι
κλαδος
κλαδου
κλαδους
κλαδων
κλαιει
κλαιν
κλαμπ
κλαους
κλαρα
κλαρκ
κλαση
κλασης
κλασικα
κλασικες
κλασικη
κλασικης
κλασικο
κλασικος
κλασικου
κλασικων
κλασμα
κλασσικη
κλασσικο
κλαυδιος
κλαυδιου
κλειδι
κλειδια
κλειδιου
κλεινει
κλεινιας
κλεινοντας
κλεινουν
κλεισει
κλεισιμο
κλεισουν
κλεισουρα
κλειστα
κλειστες
κλειστη
κλειστο
κλειστου
κλειω
κλεομενης
κλεοπατρα
κλεοπατρας
κλεος
κλερ
κλερμον
κλεφτες
κλεφτης
κλεψει
κλεψιματα
κλεων
κληθηκαν
κληθηκε
κλημη
κλημης
κληρικοι
κληρικος
κληρικους
κληρικων
κληρο
κληροδοτημα
κληροδοτησε
κληρον
κληρονομημενο
κληρονομησε
κληρονομησει
κληρονομια
κληρονομιαν
κληρονομιας
κληρονομικη
κληρονομο
κληρονομος
κληρονομους
κληρος
κληρου
κληρωση
κλησεις
κληση
κλητικη
κλιβελαντ
κλικ
κλιμα
κλιμακα
κλιμακας
κλιμακες
κλιματα
κλιματικη
κλιματικης
κλιματος
κλινη
κλινικα
κλινικες
κλινικη
κλινικης
κλιντον
κλιπ
κλιση
κλισης
κλιτη
κλιτος
κλοντ
κλοπη
κλουμπ
κλπ
κλωντ
κο
κοβει
κοβοντας
κοβω
κογκρεσο
κογκρεσου
κοεν
κοζακων
κοζανη
κοζανης
κοζιμο
κοιλαδα
κοιλαδας
κοιλαδες
κοιλη
κοιλια
κοιλιακη
κοιλιας
κοιλοτητα
κοιμαται
κοιμησεως
κοιμηση
κοιμησης
κοιμητηριο
κοινα
κοινες
κοινη
κοινην
κοινης
κοινο
κοινοβουλευτικες
κοινοβουλευτικη
κοινοβουλευτικης
κοινοβουλιο
κοινοβουλιου
κοινον
κοινοπολιτεια
κοινοπολιτειας
κοινοπραξια
κοινος
κοινοτητα
κοινοτητας
κοινοτητες
κοινοτητος
κοινοτητων
κοινοτικη
κοινοτικο
κοινοτικου
κοινου
κοινους
κοινω
κοινων
κοινωνια
κοινωνιαν
κοινωνιας
κοινωνιες
κοινωνικα
κοινωνικες
κοινωνικη
κοινωνικης
κοινωνικο
κοινωνικος
κοινωνικου
κοινωνικους
κοινωνικων
κοινωνιολογια
κοινωνιολογιας
κοινωνιων
κοινως
κοιτα
κοιταζε
κοιταζει
κοιταξε
κοιτασματα
κοιτη
κοκ
κοκκινα
κοκκινες
κοκκινη
κοκκινο
κοκκινος
κοκκινου
κολαση
κολεγια
κολεγιο
κολεγιου
κολιν
κολινς
κολιοπουλος
κολλεγιο
κολλεγιου
κολοκοτρωνη
κολοκοτρωνης
κολομβια
κολομβιας
κολοραντο
κολουμπια
κολπο
κολπον
κολπος
κολπου
κολπους
κολυμβηση
κολυμβησης
κολωνες
κολωνια
κολωνιας
κομβο
κομβοι
κομβος
κομβους
κομβων
κομη
κομης
κομητεια
κομητειας
κομητειες
κομητες
κομητη
κομητης
κομητων
κομικ
κομικς
κομισσα
κομισσας
κομμα
κομματα
κομματι
κομματια
κομματικη
κομματιου
κομματιων
κομματος
κομματων
κομμουνισμο
κομμουνισμου
κομμουνιστες
κομμουνιστης
κομμουνιστικη
κομμουνιστικης
κομμουνιστικο
κομμουνιστικου
κομμουνιστων
κομνηνη
κομνηνο
κομνηνος
κομνηνου
κομνηνων
κομοτηνη
κομοτηνης
κομπουργκ
κομψοτητα
κονγκ
κονγκο
κονεκτικατ
κονιτσας
κονραντ
κονσολα
κονσταντιν
κοντα
κονταρι
κοντε
κοντι
κοντινα
κοντινες
κοντινη
κοντινο
κοντο
κοντος
κοντρα
κοντσερτο
κοξ
κοπ
κοπα
κοπαδι
κοπαδια
κοπε
κοπεγχαγη
κοπεγχαγης
κοπελα
κοπελες
κοπη
κοπηκαν
κοπηκε
κοπης
κοπο
κοραη
κορασιδων
κορδοβα
κορε
κορεα
κορεας
κορεατικα
κορεατικη
κορες
κορη
κορην
κορης
κορινθιας
κορινθιοι
κορινθιους
κορινθιων
κορινθο
κορινθος
κορινθου
κοριτσι
κοριτσια
κοριτσιων
κορμι
κορμο
κορμος
κορμου
κορνελις
κορνηλιος
κορομηλα
κορονοιου
κορραδο
κορραδος
κορραδου
κορσικη
κορυδαλλου
κορυφαια
κορυφαιες
κορυφαιο
κορυφαιοι
κορυφαιος
κορυφαιους
κορυφαιων
κορυφες
κορυφη
κορυφης
κορυφωθηκε
κορυφων
κορυφωση
κορωνα
κορωνη
κορωνης
κορωνοιου
κος
κοσμα
κοσμας
κοσμημα
κοσμηματα
κοσμηματων
κοσμητορας
κοσμικη
κοσμικο
κοσμο
κοσμον
κοσμος
κοσμου
κοσμους
κοσμω
κοσοβο
κοσσυφοπεδιο
κοσσυφοπεδιου
κοστα
κοστισε
κοστος
κοστουμια
κοστους
κοτοπουλη
κου
κουαρτετο
κουβα
κουβας
κουβειτ
κουζινα
κουζινας
κουκ
κουκλα
κουλα
κουλη
κουλτουρα
κουλτουρας
κουμπι
κουν
κουπα
κουπερ
κουρδισταν
κουρδων
κουρη
κουρμπετης
κουρτ
κουτι
κοψει
κρ
κραι
κρακοβια
κρακοβιας
κραμα
κραματα
κρανια
κρανιο
κρανιου
κρανος
κρασι
κρασια
κρασιου
κρατα
κραταει
κρατει
κρατειν
κρατη
κρατηθηκε
κρατηρα
κρατηρας
κρατηρες
κρατησαν
κρατησε
κρατησει
κρατηση
κρατησης
κρατησουν
κρατιδια
κρατιδιο
κρατιδιου
κρατικα
κρατικες
κρατικη
κρατικης
κρατικο
κρατικος
κρατικου
κρατικων
κρατος
κρατουμενοι
κρατουμενος
κρατουμενους
κρατουμενων
κρατουν
κρατους
κρατουσαν
κρατουσε
κρατων
κρατωντας
κραυγη
κρεα
κρεας
κρεατος
κρεβατι
κρειττον
κρεμα
κρεων
κρηνη
κρητες
κρητη
κρητης
κρητικα
κρητικη
κρητικης
κρητικο
κρητικος
κρητικου
κρητων
κριαρα
κριθαρι
κριθει
κριθηκαν
κριθηκε
κρικετ
κριμα
κριμαια
κριμαιας
κρινει
κρινειν
κρινεται
κρινω
κρις
κρισεις
κρισεων
κρισεως
κριση
κρισης
κρισιμη
κρισιμο
κρισιν
κρισις
κριστι
κριστιαν
κριστιν
κριστινα
κριστοφ
κριστοφερ
κριτες
κριτηρια
κριτηριο
κριτηριων
κριτης
κριτικες
κριτικη
κριτικης
κριτικοι
κριτικος
κριτικους
κριτικων
κριτων
κροατες
κροατης
κροατια
κροατιας
κροατικα
κροατικη
κροατων
κρονο
κρονος
κρονου
κρουζ
κρουσματα
κρουσματων
κρουστα
κρυα
κρυβει
κρυβεται
κρυο
κρυπτη
κρυπτογραφηση
κρυπτογραφησης
κρυσταλλων
κρυφα
κρυφη
κρυφο
κρυψει
κτελ
κτημα
κτηματα
κτηματων
κτηνη
κτηνοτροφια
κτηρια
κτηριο
κτηριου
κτηριων
κτησεις
κτηση
κτητικες
κτιρια
κτιριο
κτιριου
κτιριων
κτισθηκε
κτισμα
κτισματα
κτισματων
κτισμενη
κτισμενο
κτισμενος
κτιστηκε
κτλ
κυβερνα
κυβερνειο
κυβερνειου
κυβερνησαν
κυβερνησε
κυβερνησει
κυβερνησεις
κυβερνησεων
κυβερνησεως
κυβερνηση
κυβερνησης
κυβερνησιν
κυβερνησις
κυβερνητες
κυβερνητη
κυβερνητης
κυβερνητικα
κυβερνητικες
κυβερνητικη
κυβερνητικης
κυβερνητικο
κυβερνητικος
κυβερνητικου
κυβερνητικων
κυβερνουσε
κυβερνων
κυβικα
κυθηρα
κυθηρων
κυκλαδες
κυκλαδων
κυκλικη
κυκλικο
κυκλο
κυκλοι
κυκλον
κυκλος
κυκλου
κυκλους
κυκλοφορει
κυκλοφορησαν
κυκλοφορησε
κυκλοφορησει
κυκλοφορια
κυκλοφοριας
κυκλοφοριες
κυκλοφορουν
κυκλοφορουσαν
κυκλοφορουσε
κυκλω
κυκλωμα
κυκλωματα
κυκλωματος
κυκλων
κυκλωνας
κυκνος
κυλινδρο
κυλινδρος
κυμα
κυμαινεται
κυμαινονται
κυματα
κυματος
κυματων
κυμη
κυμης
κυνες
κυνηγι
κυνηγιου
κυνηγοι
κυνηγος
κυνηγουν
κυνος
κυνουριας
κυπαρισσια
κυπαρισσιας
κυπελλα
κυπελλο
κυπελλου
κυπελλουχος
κυπελλουχων
κυπριακα
κυπριακη
κυπριακης
κυπριακο
κυπριακος
κυπριακου
κυπριανου
κυπριοι
κυπριος
κυπριων
κυπρο
κυπρον
κυπρος
κυπρου
κυρ
κυρα
κυρια
κυριακη
κυριακης
κυριακιδη
κυριακος
κυριακου
κυριαρχει
κυριαρχη
κυριαρχησε
κυριαρχια
κυριαρχιας
κυριαρχο
κυριαρχος
κυριαρχουν
κυριαρχουσαν
κυριαρχουσε
κυριας
κυριε
κυριες
κυριλλικα
κυριλλικο
κυριλλος
κυριλλου
κυριο
κυριοι
κυριολεκτικα
κυριον
κυριος
κυριοτερα
κυριοτερες
κυριοτερη
κυριοτερο
κυριοτεροι
κυριοτητα
κυριου
κυριους
κυριω
κυριων
κυριως
κυρος
κυρου
κυρους
κυρωθεις
κυρωθηκε
κυρωσεις
κυρωσεων
κυτταρα
κυτταρικη
κυτταρο
κυτταρου
κυτταρων
κυψελη
κυων
κω
κωδικα
κωδικας
κωδικες
κωδικη
κωδικο
κωδικοι
κωδικοποιησε
κωδικοποιηση
κωδικος
κωδικους
κωδικων
κωλυει
κωμη
κωμικη
κωμικο
κωμικος
κωμοπολεις
κωμοπολη
κωμοπολης
κωμωδια
κωμωδιας
κωμωδιες
κων
κωνσταντια
κωνσταντιας
κωνσταντινα
κωνσταντινιδης
κωνσταντινο
κωνσταντινος
κωνσταντινου
κωνσταντινουπολεως
κωνσταντινουπολη
κωνσταντινουπολης
κωνσταντιος
κως
κωστα
κωστας
κωστη
κωστης
κωστοπουλος
λ
λα
λαβας
λαβε
λαβει
λαβειν
λαβη
λαβοντες
λαβουν
λαβων
λαγκαδα
λαγος
λαδι
λαδιου
λαζαρος
λαζαρου
λαθη
λαθος
λαθρα
λαιδη
λαικα
λαικες
λαικη
λαικης
λαικο
λαικος
λαικοτροπο
λαικου
λαικων
λαιμο
λαιμος
λαιμου
λακεδαιμονα
λακεδαιμονιοι
λακεδαιμονιοις
λακεδαιμονιους
λακεδαιμονιων
λακης
λακωνια
λακωνιας
λαμα
λαμβαναν
λαμβανε
λαμβανει
λαμβανειν
λαμβανεται
λαμβανονται
λαμβανοντας
λαμβανουν
λαμια
λαμιας
λαμπει
λαμπρα
λαμπρακη
λαμπρη
λαμπρο
λαμπρον
λαμπρος
λαμπροτητα
λαμπρου
λαμψη
λανγκ
λανθασμενα
λανθασμενη
λανθασμενο
λανκα
λανκαστερ
λανς
λαντεν
λαο
λαογραφια
λαογραφιας
λαογραφικη
λαογραφικο
λαοι
λαον
λαος
λαου
λαουρα
λαους
λαρι
λαρισα
λαρισας
λαρισης
λαρνακα
λαρνακας
λαρους
λας
λασιθιου
λασπη
λατ
λατιν
λατινικα
λατινικη
λατινικης
λατινικο
λατινικοι
λατινικου
λατινικων
λατινοι
λατινος
λατινους
λατινων
λατρεια
λατρειας
λατρευοταν
λαυρας
λαυρεντιου
λαυριο
λαυριου
λαφυρα
λαχανικα
λαχανικων
λαχταρα
λαω
λαων
λβιβ
λε
λεβαντε
λεγε
λεγει
λεγειν
λεγεις
λεγεσθαι
λεγεται
λεγεωνα
λεγεωνας
λεγεωνες
λεγη
λεγοι
λεγομεν
λεγομενα
λεγομενες
λεγομενη
λεγομενης
λεγομενο
λεγομενοι
λεγομενον
λεγομενος
λεγομενου
λεγομενων
λεγοντα
λεγονται
λεγοντας
λεγοντες
λεγοντος
λεγοντων
λεγοταν
λεγουν
λεγουσι
λεγουσιν
λεγω
λεγων
λεει
λεηλασια
λεηλασιες
λεηλατηθηκε
λεηλατησαν
λεηλατησε
λεια
λειαν
λειας
λειζερ
λεικερς
λειντεν
λειπει
λειπουν
λειτουργει
λειτουργησαν
λειτουργησε
λειτουργησει
λειτουργια
λειτουργιας
λειτουργιες
λειτουργικα
λειτουργικες
λειτουργικη
λειτουργικο
λειτουργικοτητα
λειτουργικου
λειτουργικων
λειτουργιων
λειτουργουν
λειτουργουσαν
λειτουργουσε
λειψανα
λειψανο
λειψανων
λειψια
λειψιας
λεκανη
λεκανης
λεκτεον
λεκτορας
λεμε
λεμεσο
λεμεσου
λεν
λενα
λενε
λενιν
λενινγκραντ
λεξεις
λεξεων
λεξεως
λεξη
λεξης
λεξικα
λεξικο
λεξικολογιας
λεξικον
λεξικου
λεξιλογιο
λεξιν
λεξις
λεο
λεον
λεοναρντ
λεοναρντο
λεονε
λεοντα
λεοντος
λεοπολδο
λεοπολδος
λεοπολδου
λεπτα
λεπτες
λεπτη
λεπτο
λεπτομερεια
λεπτομερειες
λεπτομερεις
λεπτομερη
λεπτομερης
λεπτομερως
λεπτον
λεπτου
λεπτων
λες
λεσβο
λεσβος
λεσβου
λεστερ
λεσχη
λεσχης
λετονια
λετονιας
λευ
λευκα
λευκαδα
λευκαδας
λευκες
λευκη
λευκης
λευκιος
λευκο
λευκοι
λευκον
λευκορωσια
λευκορωσιας
λευκορωσικα
λευκος
λευκου
λευκους
λευκωμα
λευκων
λευκωσια
λευκωσιας
λευτερη
λευτερης
λευχαιμια
λεφτα
λεω
λεων
λεωνιδα
λεωνιδας
λεωφορεια
λεωφορειο
λεωφορειου
λεωφορειων
λεωφορο
λεωφορος
λεωφορου
λη
ληγει
ληγουν
λημμα
λημματα
λημνο
λημνος
λημνου
ληξει
ληξη
ληξης
ληστεια
ληστες
ληστης
ληστων
ληφθει
ληφθουν
ληψη
ληψης
λι
λια
λιαν
λιβαδι
λιβαδια
λιβανη
λιβανο
λιβανος
λιβανου
λιβερπουλ
λιβιος
λιβυη
λιβυην
λιβυης
λιγα
λιγες
λιγη
λιγηρα
λιγκ
λιγκα
λιγο
λιγοι
λιγοτερα
λιγοτερες
λιγοτερη
λιγοτερο
λιγοτερους
λιγους
λιγων
λιεγης
λιζα
λιθιο
λιθιου
λιθο
λιθοι
λιθον
λιθος
λιθου
λιθουανια
λιθουανιας
λιθουανικα
λιθουανικη
λιθουανικης
λιθους
λιθωδης
λιθων
λιλ
λιμα
λιμανι
λιμανια
λιμανιου
λιμενα
λιμενας
λιμενες
λιμενος
λιμενων
λιμην
λιμνες
λιμνη
λιμνην
λιμνης
λιμνοθαλασσα
λιμνων
λιμος
λιμου
λιμπερταδορες
λιμπρετο
λιν
λινα
λινκολν
λιντα
λιντελ
λιντς
λιονταρι
λιονταρια
λιονταριων
λιοσιων
λιουις
λιουμπλιανα
λιπαρα
λιπος
λιρα
λιρες
λιρων
λισαβονα
λισαβονας
λιστ
λιστα
λιστας
λιστες
λιτρα
λιτρων
λιχτενσταιν
λο
λοατ
λογ
λογαριασμο
λογαριασμος
λογαριασμου
λογαριασμους
λογαριασμων
λογειον
λογια
λογικα
λογικες
λογικη
λογικης
λογικο
λογιο
λογιοι
λογιος
λογιους
λογισμικα
λογισμικο
λογισμικου
λογισμον
λογισμος
λογισμου
λογισμων
λογιστικη
λογιων
λογο
λογοθετης
λογοι
λογοις
λογοκρισια
λογοκρισιας
λογομαχησαν
λογον
λογος
λογοτεχνης
λογοτεχνια
λογοτεχνιας
λογοτεχνικα
λογοτεχνικες
λογοτεχνικη
λογοτεχνικης
λογοτεχνικο
λογοτεχνικου
λογοτεχνικων
λογοτεχνων
λογοτυπο
λογου
λογους
λογχη
λογω
λογων
λοιμωξεις
λοιμωξεων
λοιμωξη
λοιμωξης
λοιντ
λοιπα
λοιποι
λοιπον
λοιπου
λοιπους
λοιπων
λοκομοτιβ
λοκρων
λομβαρδιας
λομβαρδων
λονγκ
λονδινο
λονδινου
λοπεζ
λορδο
λορδος
λορδου
λορενς
λορεντσο
λορντ
λος
λοτζ
λου
λουαρ
λουβρο
λουβρου
λουδοβικο
λουδοβικος
λουδοβικου
λουζινιαν
λουι
λουιζ
λουιζα
λουιζας
λουιζιανα
λουις
λουιτζι
λουκ
λουκα
λουκας
λουκια
λουκιανος
λουλουδης
λουλουδι
λουλουδια
λουλουδιων
λουμπλιν
λουνα
λουντ
λουντβιχ
λουξεμβουργο
λουξεμβουργου
λουτρα
λουτρο
λουτρων
λοφο
λοφοι
λοφος
λοφου
λοφους
λοφων
λοχαγος
λοχαγου
λοχος
λοχου
λπ
λυδια
λυθει
λυκειο
λυκειου
λυκο
λυκοι
λυκος
λυκου
λυκουργος
λυκουργου
λυκους
λυκων
λυνεμπουργκ
λυπη
λυπην
λυπης
λυρα
λυρας
λυρικη
λυσει
λυσεις
λυσεων
λυση
λυσης
λυσιας
λυσιστρατη
λυτρα
λυων
λωζανης
λωρενς
λωριδα
λωριδες
λωρραινης
μ
μα
μαγαζι
μαγαζια
μαγδαληνη
μαγεια
μαγειας
μαγειρεμα
μαγειρικη
μαγειρικης
μαγερ
μαγια
μαγικη
μαγικο
μαγιορκα
μαγισσα
μαγιστρος
μαγκνους
μαγνησιας
μαγνησιο
μαγνητικη
μαγνητικο
μαγνητικου
μαγος
μαγουλα
μαγων
μαδαγασκαρη
μαδαγασκαρης
μαδριτη
μαδριτης
μαεστρος
μαζα
μαζας
μαζες
μαζη
μαζι
μαζικα
μαζικες
μαζικη
μαζικης
μαζων
μαη
μαθαινει
μαθαινοντας
μαθαινουν
μαθει
μαθειν
μαθημα
μαθηματα
μαθηματικα
μαθηματικες
μαθηματικη
μαθηματικης
μαθηματικο
μαθηματικοι
μαθηματικος
μαθηματικου
μαθηματικους
μαθηματικων
μαθηματος
μαθηματων
μαθηση
μαθησης
μαθητες
μαθητευσε
μαθητη
μαθητης
μαθητρια
μαθητων
μαθιου
μαθουν
μαθων
μαι
μαιαμι
μαικ
μαικλ
μαιν
μαιντς
μαιο
μαιος
μαιου
μαιρη
μακ
μακαμπι
μακαριος
μακαριου
μακβεθ
μακεδονας
μακεδονες
μακεδονια
μακεδονιαν
μακεδονιας
μακεδονικα
μακεδονικη
μακεδονικης
μακεδονικο
μακεδονικος
μακεδονικου
μακεδονικων
μακεδονομαχοι
μακεδονομαχος
μακεδονων
μακης
μακρα
μακραν
μακρας
μακρη
μακρης
μακρια
μακρινη
μακρινο
μακρον
μακροχρονη
μακροχρονια
μακρυ
μακρυα
μακρυγιαννη
μακρυτερα
μαλ
μαλα
μαλαγα
μαλαισια
μαλαισιας
μαλακα
μαλακη
μαλακο
μαλαουι
μαλι
μαλικ
μαλιστ
μαλιστα
μαλκολμ
μαλλι
μαλλια
μαλλιαρης
μαλλιων
μαλλον
μαλτα
μαλτας
μαμα
μαν
μανα
μανασση
μανατζερ
μανδυα
μανη
μανης
μανια
μανιας
μανιατεας
μανιφεστο
μαννα
μανο
μανολη
μανολης
μανος
μανου
μανουελ
μανουηλ
μανταμ
μαντειο
μαντονα
μαντσεστερ
μανχαταν
μανωλη
μανωλης
μαξ
μαξγουελ
μαξιμ
μαξιμιλιανος
μαξιμος
μαξιμου
μαο
μαρ
μαρα
μαραθωνα
μαραθωνας
μαραθωνιο
μαραθωνιος
μαραθωνιου
μαργαριτα
μαργαριτας
μαργαριτης
μαργκαρετ
μαργραβο
μαργραβος
μαργραβου
μαρει
μαρθα
μαρι
μαρια
μαριαν
μαριαννα
μαριας
μαρικα
μαρινα
μαρινας
μαρινελλα
μαρινο
μαρινος
μαρινου
μαριο
μαριον
μαριος
μαρκ
μαρκα
μαρκες
μαρκετ
μαρκετινγκ
μαρκησια
μαρκησιο
μαρκησιος
μαρκησιου
μαρκο
μαρκοπουλου
μαρκος
μαρκου
μαρκους
μαρμαρα
μαρμαρινη
μαρμαρινο
μαρμαρο
μαρμαρου
μαρν
μαρξ
μαροκο
μαροκου
μαρουσι
μαρς
μαρσαλ
μαρσειγ
μαρσελ
μαρτιν
μαρτινο
μαρτινος
μαρτινου
μαρτιο
μαρτιος
μαρτιου
μαρτυρα
μαρτυρας
μαρτυρει
μαρτυρειται
μαρτυρες
μαρτυρησε
μαρτυρια
μαρτυριαν
μαρτυριας
μαρτυριες
μαρτυριο
μαρτυριου
μαρτυρουν
μαρτυρων
μαρτυς
μας
μασαχουσετη
μασαχουσετης
μασκα
μασκες
μασσαλια
μασσαλιας
μαστερ
μαστου
ματ
ματαια
ματην
ματθαιος
ματθαιου
ματθιλδη
ματθιλδης
ματι
ματια
ματιου
ματιων
ματς
μαυρα
μαυρες
μαυρη
μαυρης
μαυρικιος
μαυρικιου
μαυρο
μαυροβουνιο
μαυροβουνιου
μαυροι
μαυροκορδατος
μαυροκορδατου
μαυρομιχαλη
μαυρομιχαλης
μαυρος
μαυρου
μαυρους
μαυρων
μαυσωλειο
μαφια
μαφιας
μαχαιρα
μαχαιρι
μαχαιρια
μαχας
μαχες
μαχεσθαι
μαχεται
μαχη
μαχην
μαχης
μαχητες
μαχητης
μαχητικα
μαχητικο
μαχητικων
μαχητων
μαχμουτ
μαχομενος
μαχων
με
μεγ
μεγα
μεγαλα
μεγαλας
μεγαλειο
μεγαλες
μεγαλη
μεγαλην
μεγαλης
μεγαλο
μεγαλοι
μεγαλοπρεπη
μεγαλοπρεπης
μεγαλος
μεγαλοσταυρος
μεγαλου
μεγαλους
μεγαλυτερα
μεγαλυτερες
μεγαλυτερη
μεγαλυτερης
μεγαλυτερο
μεγαλυτεροι
μεγαλυτερος
μεγαλυτερου
μεγαλυτερους
μεγαλυτερων
μεγαλω
μεγαλων
μεγαλωνει
μεγαλως
μεγαλωσαν
μεγαλωσε
μεγαλωσει
μεγαν
μεγαρα
μεγαρο
μεγαρου
μεγαρων
μεγας
μεγεθει
μεγεθη
μεγεθος
μεγεθους
μεγεθων
μεγιστα
μεγιστη
μεγιστην
μεγιστης
μεγιστο
μεγιστον
μεγιστος
μεγιστου
μεγιστων
μεδικων
μεθ
μεθανιο
μεθοδο
μεθοδοι
μεθοδολογια
μεθοδος
μεθοδου
μεθοδους
μεθοδων
μεθυλο
μεθυσμενος
μεθωνη
μεθωνης
μει
μειγμα
μειζον
μειζονα
μειζονος
μειζω
μειζων
μεικτο
μειν
μεινει
μεινη
μεινουν
μειονεκτημα
μειονεκτηματα
μειονεκτικων
μειονοτητα
μειονοτητας
μειονοτητες
μειονοτητων
μειρακιον
μειωθει
μειωθηκαν
μειωθηκε
μειωμενη
μειωνει
μειωνεται
μειωνονται
μειωνοντας
μειωνουν
μειωσε
μειωσει
μειωση
μειωσης
μειωσουν
μειωτικο
μεκκα
μεκλεμβουργου
μελα
μελαν
μελανα
μελανι
μελας
μελβουρνη
μελει
μελετα
μελετες
μελετη
μελετηθει
μελετης
μελετησε
μελετησει
μελετητες
μελετητης
μελετιος
μελετιου
μελετων
μελετωντας
μελη
μελι
μελινα
μελισσα
μελισσες
μελιτος
μελλ
μελλει
μελλον
μελλοντα
μελλοντας
μελλοντικα
μελλοντικες
μελλοντικη
μελλοντικο
μελλοντικος
μελλοντος
μελλοντων
μελλων
μελος
μελους
μελωδια
μελωδιες
μελων
μεμβρανη
μεμβρανης
μεμνηται
μεμονωμενα
μεμονωμενες
μεμονωμενων
μεν
μενα
μενανδρος
μενει
μενειν
μενελαος
μενοντας
μενος
μενου
μενουν
μεντοι
μενω
μενων
μεξικανικη
μεξικανος
μεξικο
μεξικου
μερα
μεραρχια
μεραρχιας
μεραρχιες
μερας
μερει
μερες
μερη
μερι
μερια
μεριδα
μεριδιο
μερικα
μερικες
μερικη
μερικοι
μερικους
μερικων
μερικως
μεριλαντ
μεριμνα
μερκελ
μερκιας
μερκουρη
μερος
μερους
μερφι
μερων
μες
μεσ
μεσα
μεσαια
μεσαιας
μεσαιο
μεσαιου
μεσαιωνα
μεσαιωνικα
μεσαιωνικες
μεσαιωνικη
μεσαιωνικης
μεσαιωνικο
μεσαιωνικου
μεσαιωνικων
μεσανυχτα
μεσες
μεση
μεσημβριαν
μεσημερι
μεσην
μεσης
μεσιε
μεσο
μεσογειακη
μεσογειακο
μεσογειακους
μεσογειο
μεσογειος
μεσογειου
μεσολαβηση
μεσολογγι
μεσολογγιου
μεσον
μεσοπολεμου
μεσοποταμια
μεσοποταμιας
μεσος
μεσου
μεσους
μεσσηνη
μεσσηνης
μεσσηνια
μεσσηνιας
μεσω
μεσων
μετ
μετα
μεταβαλλει
μεταβαλλεται
μεταβαση
μεταβασης
μεταβατικη
μεταβατικο
μεταβει
μεταβιβαση
μεταβλητες
μεταβλητη
μεταβλητης
μεταβλητων
μεταβολες
μεταβολη
μεταβολην
μεταβολης
μεταβολισμο
μεταβολων
μεταγενεστερα
μεταγενεστερες
μεταγενεστερη
μεταγενεστερο
μεταγενεστερους
μεταγλωττιση
μεταγραφη
μεταγραφηκε
μεταγραφης
μεταδιδει
μεταδιδεται
μεταδιδονται
μεταδοθηκε
μεταδοση
μεταδοσης
μεταθανατια
μεταθεση
μεταιχμιο
μετακινειται
μετακινηθει
μετακινηθηκαν
μετακινηθηκε
μετακινησεις
μετακινηση
μετακινησης
μετακινουνται
μετακομισαν
μετακομισε
μετακομισει
μεταλ
μεταλλα
μεταλλαξεις
μεταλλαξη
μεταλλεια
μεταλλειων
μεταλλια
μεταλλικα
μεταλλικη
μεταλλικο
μεταλλικων
μεταλλιο
μεταλλιου
μεταλλιων
μεταλλο
μεταλλου
μεταλλων
μεταμορφωσεως
μεταμορφωση
μεταμορφωσης
μεταμοσχευση
μεταναστες
μεταναστευσαν
μεταναστευσε
μεταναστευσει
μεταναστευση
μεταναστευσης
μεταναστων
μετανοια
μετανοιας
μεταξα
μεταξας
μεταξι
μεταξιου
μεταξυ
μεταπηδησε
μεταπολεμικα
μεταπολεμικη
μεταπολιτευση
μεταπτυχιακες
μεταπτυχιακο
μεταρρυθμισεις
μεταρρυθμισεων
μεταρρυθμιση
μεταρρυθμισης
μεταστροφη
μετασχηματισμο
μετασχηματισμος
μετατεθηκε
μετατοπιση
μετατραπει
μετατραπηκαν
μετατραπηκε
μετατρεπει
μετατρεπεται
μετατρεπονται
μετατρεποντας
μετατρεψει
μετατροπη
μετατροπης
μεταφερει
μεταφερεται
μεταφερθει
μεταφερθηκαν
μεταφερθηκε
μεταφερθουν
μεταφερονται
μεταφεροντας
μεταφερουν
μεταφορα
μεταφορας
μεταφορες
μεταφορικα
μεταφορων
μεταφρ
μεταφραζεται
μεταφρασεις
μεταφραση
μεταφρασης
μεταφραστει
μεταφραστηκε
μεταφραστης
μεταφραστικο
μεταφυσικη
μεταχειριση
μετεβη
μετειχαν
μετειχε
μετεπειτα
μετετρεψε
μετεφεραν
μετεφερε
μετεφρασε
μετεχει
μετεχειν
μετεχουν
μετεωρολογια
μετονομαζεται
μετονομασε
μετονομασια
μετονομασιες
μετονομαστηκε
μετοχες
μετοχη
μετοχης
μετοχι
μετοχων
μετρα
μετραει
μετρει
μετρησε
μετρησει
μετρησεις
μετρηση
μετρησης
μετρια
μετριες
μετριως
μετρο
μετρον
μετρου
μετρω
μετρων
μετς
μετσοβιο
μετωπα
μετωπο
μετωπον
μετωπου
μεχμετ
μεχρι
μεχρις
μη
μηδ
μηδαμως
μηδε
μηδεια
μηδεις
μηδεμιαν
μηδεν
μηδενα
μηδενι
μηδενικη
μηδενικο
μηδενος
μηδεποτε
μηδων
μηθ
μηκει
μηκετι
μηκη
μηκος
μηκους
μηλα
μηλια
μηλο
μηλου
μην
μηνα
μηνας
μηνες
μηνι
μηνιαια
μηνος
μηνυμα
μηνυματα
μηνυματος
μηνυματων
μηνυση
μηνων
μηποτε
μηπω
μηπως
μητ
μητε
μητερα
μητερας
μητερες
μητηρ
μητρα
μητρας
μητρι
μητρικη
μητροπολεις
μητροπολεως
μητροπολη
μητροπολης
μητροπολις
μητροπολιτη
μητροπολιτης
μητροπολιτικη
μητροπολιτικης
μητροπολιτικο
μητροπολιτου
μητρος
μητρωο
μητρωον
μητρωου
μητσος
μητσοτακη
μητσοτακης
μηχανες
μηχανη
μηχανημα
μηχανηματα
μηχανηματων
μηχανης
μηχανικα
μηχανικη
μηχανικης
μηχανικο
μηχανικοι
μηχανικος
μηχανικου
μηχανικους
μηχανικων
μηχανισμο
μηχανισμοι
μηχανισμος
μηχανισμου
μηχανισμους
μηχανισμων
μηχανων
μι
μια
μιαν
μιανμαρ
μιας
μιγκελ
μιγμα
μιζουρι
μιθριδατη
μιθριδατης
μικαελ
μικη
μικης
μικρα
μικραν
μικρας
μικρασιατες
μικρασιατικη
μικρασιατικης
μικρασιατων
μικρες
μικρη
μικρης
μικρο
μικροι
μικρον
μικρος
μικροτερα
μικροτερες
μικροτερη
μικροτερης
μικροτερο
μικροτεροι
μικροτερος
μικροτερου
μικροτερους
μικροτερων
μικρου
μικρους
μικρων
μικτες
μικτη
μικτης
μικτο
μιλα
μιλαει
μιλαμε
μιλαν
μιλανο
μιλανου
μιλερ
μιλησε
μιλησει
μιλι
μιλια
μιλιων
μιλλερ
μιλος
μιλοσεβιτς
μιλουν
μιλουσαν
μιλουσε
μιλτιαδης
μιλω
μιλωντας
μιμη
μιμης
μιμηση
μιν
μινεσοτα
μινι
μινσκ
μινωα
μιξη
μιουζικαλ
μιρ
μιραντα
μις
μισα
μισει
μισελ
μιση
μισθο
μισθον
μισθος
μισθου
μισθους
μισθοφοροι
μισθοφορους
μισθοφορων
μισιγκαν
μισο
μισοι
μισος
μισου
μισους
μιτσελ
μιχαελ
μιχαηλ
μιχαηλιδης
μιχαηλοβιτς
μιχαλη
μιχαλης
μμε
μνεια
μνημα
μνημεια
μνημειο
μνημειου
μνημειων
μνημες
μνημη
μνημην
μνημης
μνημονευει
μνημονευεται
μνημονιο
μνηστηρες
μο
μογγολια
μογγολων
μοδα
μοδας
μοζαμβικη
μοζαμβικης
μοζελ
μοι
μοιαζει
μοιαζουν
μοιρα
μοιραζεται
μοιραζονται
μοιραια
μοιραν
μοιρας
μοιρασε
μοιραστηκαν
μοιραστηκε
μοιρες
μοιρων
μολδαβια
μολδαβιας
μολις
μολονοτι
μολυβδου
μολυβι
μολυνση
μολυνσης
μομφερρατου
μομφης
μον
μονα
μοναδα
μοναδας
μοναδες
μοναδικα
μοναδικες
μοναδικη
μοναδικο
μοναδικος
μοναδικου
μοναδων
μονακο
μοναξια
μοναρχες
μοναρχη
μοναρχης
μοναρχια
μοναρχιας
μονας
μοναστηρι
μοναστηρια
μοναστηριου
μοναστηριων
μοναχα
μοναχες
μοναχη
μοναχο
μοναχοι
μοναχος
μοναχου
μοναχους
μοναχων
μονε
μονεμβασιας
μονες
μονη
μονην
μονης
μονικα
μονιμα
μονιμες
μονιμη
μονιμης
μονιμο
μονιμοι
μονιμος
μονιμου
μονιμους
μονο
μονοθεσιο
μονοι
μονοις
μονομαχια
μονον
μονοξειδιο
μονοπατι
μονοπατια
μονοπωλιο
μονος
μονοτονικο
μονου
μονους
μονπελιε
μονταζ
μοντανα
μοντε
μοντελα
μοντελο
μοντελου
μοντελων
μοντενα
μοντερνα
μοντερνας
μοντερνο
μοντρεαλ
μονφορ
μονω
μονων
μοραβια
μοραβιας
μοραλες
μοργκαν
μορεως
μορια
μοριακη
μοριακης
μοριακο
μοριο
μοριον
μοριου
μορις
μορισον
μοριων
μορς
μορτιμερ
μορφες
μορφη
μορφην
μορφης
μορφολογια
μορφολογικα
μορφου
μορφων
μορφωση
μορφωτικο
μος
μοσχα
μοσχας
μοσχατου
μοσχος
μοτιβα
μοτιβο
μοτσαρτ
μου
μουντιαλ
μουρ
μουρατ
μουρμουρα
μουσα
μουσεια
μουσειο
μουσειου
μουσειων
μουσικα
μουσικες
μουσικη
μουσικης
μουσικο
μουσικοι
μουσικος
μουσικου
μουσικους
μουσικων
μουσολινι
μουσουλμανικες
μουσουλμανικη
μουσουλμανικης
μουσουλμανικο
μουσουλμανοι
μουσουλμανος
μουσουλμανους
μουσουλμανων
μουσταφα
μουσων
μοχαμεντ
μπ
μπα
μπαγερν
μπαγκλαντες
μπαινει
μπαινοντας
μπαινουν
μπαιντεν
μπακ
μπακου
μπαλα
μπαλαντα
μπαλας
μπαλετο
μπαλετου
μπαλκονι
μπαμπα
μπαμπης
μπαμπινιωτης
μπαν
μπανγκλαντες
μπανια
μπανιο
μπαντ
μπαντα
μπαντας
μπαντεν
μπαρ
μπαραζ
μπαρακ
μπαρι
μπαρμπα
μπαρμπαντος
μπαρμπαρα
μπαρμπουντα
μπαροκ
μπαρτ
μπαρτον
μπαρτσελονα
μπασιστα
μπασιστας
μπασκετ
μπασο
μπαστια
μπαταρια
μπαταριες
μπατιστ
μπατιστα
μπατλερ
μπατμαν
μπαχ
μπαχαρικα
μπαχρειν
μπε
μπεη
μπεης
μπει
μπειζμπολ
μπεικερ
μπεικον
μπεκ
μπελ
μπελα
μπεν
μπενακη
μπενεβεντο
μπενετ
μπενιν
μπενιτο
μπεντζαμιν
μπενφικα
μπεργκ
μπεργκεν
μπερι
μπερμιγχαμ
μπερναρ
μπερναρντ
μπερντ
μπετι
μπετοβεν
μπηκαν
μπηκε
μπιγκ
μπιλ
μπιλι
μπιλμπαο
μπιν
μπισμαρκ
μπιτς
μπλακ
μπλακμορ
μπλε
μπλοκ
μπλουα
μπλουζ
μπλουμ
μπο
μπολ
μπολεσλαφ
μπολονια
μπολσεβικους
μπολσεβικων
μπομπ
μπομπι
μποντ
μπορει
μπορεις
μπορειτε
μπορεσαν
μπορεσε
μπορεσει
μπορεσουν
μπορις
μπορντο
μπορντω
μπορουμε
μπορουν
μπορουσα
μπορουσαμε
μπορουσαν
μπορουσε
μπορω
μπος
μποτσαρη
μποτσουανα
μπουενος
μπουλ
μπουλς
μπουν
μπουντεσλιγκα
μπουρκινα
μπουρουντι
μπους
μπουταν
μπραγκανσα
μπραιαν
μπραιγ
μπραντ
μπραουν
μπραουνσβαιγκ
μπριγκελ
μπριεν
μπριστολ
μπριτανικα
μπριταννικα
μπροκχαους
μπροντγουει
μπρος
μπροστα
μπροστινα
μπροστινη
μπροστινο
μπρουκλιν
μπρουνο
μπρους
μπρυζ
μπυρα
μπωφορ
μτφ
μτφρ
μτχ
μυαλο
μυελου
μυες
μυθικη
μυθικο
μυθικος
μυθιστορημα
μυθιστορηματα
μυθιστορηματος
μυθιστορηματων
μυθιστοριογραφος
μυθο
μυθοι
μυθολογια
μυθολογιας
μυθον
μυθος
μυθου
μυθους
μυθων
μυικη
μυκηναικη
μυκητες
μυλοποταμου
μυλος
μυλωνας
μυοκαρδιου
μυρια
μυριαδας
μυριους
μυριων
μυρωδια
μυς
μυστηρια
μυστηριο
μυστηριον
μυστηριου
μυστηριων
μυστικα
μυστικες
μυστικη
μυστικης
μυστικο
μυστικος
μυστικων
μυστρα
μυτη
μυτιληνη
μυτιληνης
μυων
μωαβ
μωαμεθ
μωβ
μωρα
μωρε
μωρις
μωρο
μωυση
μωυσην
μωυσης
ν
να
ναβαρρας
ναγκορνο
ναζι
ναζιστικη
ναζιστικης
ναζιστικο
ναζιστικου
ναι
ναμιμπια
ναμυρ
ναν
νανα
νανοι
νανος
νανσι
νανσυ
ναντ
ναξο
ναξου
ναο
ναοι
ναον
ναος
ναου
ναους
ναουσα
ναουσας
ναπολεοντα
ναπολεων
ναπολη
ναπολης
ναπολι
ναρθηκα
ναρκωτικα
ναρκωτικων
νας
νασερ
νασιοναλ
νασσαου
ναταλια
νατασα
νατο
νατριο
νατριου
ναυαγιο
ναυαρχιδα
ναυαρχο
ναυαρχος
ναυαρχου
ναυμαχια
ναυμαχιας
ναυν
ναυπακτιας
ναυπακτου
ναυπηγεια
ναυπλιο
ναυπλιου
ναυς
ναυσιν
ναυτεμπορικη
ναυτες
ναυτης
ναυτια
ναυτικα
ναυτικες
ναυτικη
ναυτικης
ναυτικο
ναυτικοι
ναυτικος
ναυτικου
ναυτικους
ναυτικων
ναυτιλια
ναυτιλιας
ναων
νβα
νδ
νε
νεα
νεαν
νεανιδων
νεανικα
νεανικη
νεαπολεως
νεαπολη
νεαπολης
νεαρα
νεαρη
νεαρης
νεαρο
νεαροι
νεαρος
νεαρου
νεαρους
νεαρων
νεας
νεβαδα
νεβερ
νεβιλ
νεες
νειλου
νεκρα
νεκρη
νεκρο
νεκροι
νεκρολογια
νεκρον
νεκροπολη
νεκρος
νεκροταφειο
νεκροταφειου
νεκρου
νεκρους
νεκρων
νεκταριος
νελσον
νεο
νεοελληνικες
νεοελληνικη
νεοελληνικης
νεοελληνικου
νεοελληνικων
νεοι
νεοιδρυθεισας
νεολαια
νεολαιας
νεολατινικη
νεολιθικη
νεολογισμος
νεον
νεος
νεοσυστατη
νεοσυστατο
νεοσυστατου
νεοτερα
νεοτερες
νεοτερη
νεοτερης
νεοτερο
νεοτερος
νεοτερου
νεοτερους
νεοτερων
νεοτητα
νεοτητος
νεου
νεους
νεοφυτος
νεοχωρι
νεοχωριου
νεπαλ
νερα
νεραιδα
νερο
νερου
νερων
νερωνα
νεστορα
νεστορος
νετρονιων
νευρα
νευρικο
νευρικου
νευρο
νευρων
νευρωνες
νευτωνα
νεφελη
νεφελωμα
νεφη
νεφος
νεφρικη
νεων
νεως
νεωτερη
νεωτερον
νεωτερος
νεωτερων
νη
νηες
νηλ
νημα
νηματα
νηπιαγωγειο
νησακι
νησι
νησια
νησιδα
νησιδες
νησιου
νησιων
νησιωτικη
νησιωτικης
νησιωτικο
νησο
νησοι
νησον
νησος
νησου
νησους
νηστεια
νηστειας
νησω
νησων
νι
νιατα
νιγηρα
νιγηρια
νιγηριας
νικ
νικα
νικαια
νικαιας
νικαραγουα
νικας
νικες
νικη
νικην
νικης
νικησαν
νικησε
νικησει
νικησουν
νικητα
νικητας
νικητες
νικητη
νικητηριο
νικητης
νικητρια
νικητριες
νικητων
νικηφορα
νικηφορο
νικηφορος
νικηφορου
νικιας
νικο
νικοδημος
νικολ
νικολα
νικολαι
νικολαιδη
νικολαιδης
νικολαιδου
νικολαο
νικολαος
νικολαου
νικολας
νικολο
νικολοπουλος
νικοπολη
νικος
νικου
νικουν
νικς
νικων
νικωντας
νιλ
νιν
νινα
νιου
νις
νιτσε
νιωθει
νιωθω
νο
νοβα
νοβγκοροντ
νοβι
νοεμβρη
νοεμβριο
νοεμβριος
νοεμβριου
νοημα
νοηματικη
νοημοσυνη
νοημοσυνης
νοθεια
νοθη
νοθο
νοθος
νοικοκυρια
νοικοκυριων
νοιμαν
νοκ
νομαδες
νομαρχης
νομαρχια
νομαρχιακη
νομαρχιας
νομιζει
νομιζειν
νομιζοντες
νομιζω
νομιζων
νομικα
νομικες
νομικη
νομικης
νομικο
νομικος
νομικου
νομικων
νομιμα
νομιμη
νομιμο
νομιμοποιηση
νομιμος
νομιμοτητα
νομισμα
νομισματα
νομισματικη
νομισματικο
νομισματος
νομισματων
νομο
νομοθεσια
νομοθεσιας
νομοθετης
νομοθετικη
νομοθετικης
νομοθετικο
νομοθετικου
νομοι
νομοις
νομον
νομος
νομοσχεδιο
νομου
νομους
νομπελ
νομω
νομων
νονος
νοος
νορβηγια
νορβηγιας
νορβηγικα
νορβηγικη
νορβηγικο
νορβηγος
νορθ
νορθαμπερλαντ
νορθουμβριας
νορμαν
νορμανδια
νορμανδιας
νος
νοσηματα
νοσηματων
νοσο
νοσοκομα
νοσοκομεια
νοσοκομειο
νοσοκομειου
νοσον
νοσος
νοσου
νοσων
νοτα
νοτες
νοτια
νοτιας
νοτιες
νοτιο
νοτιοανατολικα
νοτιοανατολικη
νοτιοανατολικης
νοτιοανατολικο
νοτιοδυτικα
νοτιοδυτικη
νοτιοδυτικης
νοτιοδυτικο
νοτιος
νοτιοτερα
νοτιοτερο
νοτιου
νοτιων
νοτιως
νοτο
νοτον
νοτος
νοτου
νου
νουαρ
νουβελα
νουμερα
νουμερο
νουν
νους
ντ
ντα
νταβιντ
νταγκλας
νταιανα
ντακα
ντακοτα
νταλας
νταμ
νταμπλ
νταν
ντανι
ντανιελ
ντανκαν
νταρμστατ
ντε
ντει
ντειβ
ντειβιντ
ντειβις
ντελ
ντελαγουερ
ντελλα
ντεμπουτο
ντεν
ντενι
ντενις
ντερ
ντερμπι
ντετεκτιβ
ντι
ντιβιζιον
ντιβισιον
ντιεγκο
ντιζελ
ντικ
ντιν
ντιναμο
ντινο
ντινος
ντινου
ντισελντορφ
ντισνευ
ντιτροιτ
ντμιτρι
ντο
ντοκιμαντερ
ντομενικο
ντομινικ
ντον
ντοναλντ
ντονετσκ
ντοπιοι
ντοπιους
ντοπιων
ντορα
ντορτμουντ
ντουετο
ντουμπαι
ντουσαν
ντραμερ
ντραμς
ντραφτ
ντροπη
ντυ
νυ
νυκτα
νυκτας
νυκτι
νυκτος
νυκτωρ
νυμφες
νυμφευθηκε
νυμφευμενος
νυμφευτει
νυμφευτηκε
νυμφη
νυμφης
νυμφων
νυν
νυνι
νυξ
νυρεμβεργη
νυρεμβεργης
νυφη
νυχια
νυχτα
νυχτας
νυχτερινη
νυχτερινο
νυχτες
νω
νωε
νωρις
νωριτερα
νωτα
ξ
ξαδελφο
ξαδελφος
ξανα
ξαναχτιστηκε
ξανθη
ξανθης
ξανθος
ξαφνικα
ξαφνικη
ξε
ξεκαθαρα
ξεκαθαρη
ξεκαθαρο
ξεκινα
ξεκιναει
ξεκινημα
ξεκινησαν
ξεκινησε
ξεκινησει
ξεκινησουν
ξεκινουν
ξεκινουσε
ξεκινωντας
ξενα
ξενε
ξενες
ξενη
ξενης
ξενια
ξενιστη
ξενο
ξενοδοχεια
ξενοδοχειο
ξενοδοχειου
ξενοι
ξενον
ξενος
ξενου
ξενους
ξενοφων
ξενοφωντα
ξενων
ξεπερασαν
ξεπερασε
ξεπερασει
ξεπερνα
ξεπερνουν
ξεπερνουσε
ξεπερνωντας
ξερα
ξερει
ξερεις
ξερξη
ξερξης
ξερουμε
ξερουν
ξερω
ξεσπασαν
ξεσπασε
ξεσπασει
ξεσπασμα
ξεφυγει
ξεφυγουν
ξεχασει
ξεχωριζει
ξεχωριζουν
ξεχωρισε
ξεχωριστα
ξεχωριστες
ξεχωριστη
ξεχωριστο
ξεχωριστος
ξημερωματα
ξηρα
ξηρας
ξηρασια
ξηρη
ξηρο
ξηρος
ξιφασκιας
ξιφη
ξιφος
ξιφους
ξυλα
ξυλεια
ξυλειας
ξυλινα
ξυλινες
ξυλινη
ξυλινο
ξυλο
ξυλον
ξυλου
ξυλων
ξυν
ξυπνα
ο
ογδοη
ογδοηκοντα
ογδοντα
ογδοο
ογκο
ογκοι
ογκος
ογκου
ογκους
ογκων
οδ
οδε
οδηγει
οδηγειται
οδηγηθηκαν
οδηγηθηκε
οδηγησαν
οδηγησε
οδηγησει
οδηγηση
οδηγησης
οδηγησουν
οδηγια
οδηγιας
οδηγιες
οδηγικες
οδηγο
οδηγοι
οδηγος
οδηγου
οδηγουν
οδηγους
οδηγουσαν
οδηγουσε
οδηγων
οδηγωντας
οδησσο
οδησσου
οδικη
οδικο
οδικου
οδικως
οδο
οδοι
οδοιπορικο
οδον
οδοντας
οδος
οδου
οδους
οδυσσεα
οδυσσεας
οδυσσεια
οδυσσευς
οδω
οδων
οηε
οθ
οθεν
οθονες
οθονη
οθονης
οθωμανικα
οθωμανικες
οθωμανικη
οθωμανικης
οθωμανικο
οθωμανικου
οθωμανικων
οθωμανοι
οθωμανος
οθωμανους
οθωμανων
οθων
οθωνα
οθωνος
οι
οια
οιδ
οιδα
οιδε
οιδεν
οιδημα
οιδιπους
οιει
οιεται
οικ
οικαδε
οικεια
οικειαν
οικειας
οικειο
οικειον
οικειου
οικειους
οικειων
οικημα
οικια
οικιακη
οικιαν
οικιας
οικιες
οικισμο
οικισμοι
οικισμος
οικισμου
οικισμους
οικισμων
οικιστες
οικιστικη
οικιων
οικο
οικογενεια
οικογενειακα
οικογενειακες
οικογενειακη
οικογενειακης
οικογενειακο
οικογενειας
οικογενειες
οικογενειων
οικοδομηθηκε
οικοδομημα
οικοδομηση
οικοι
οικολογια
οικολογικη
οικολογικο
οικον
οικονομια
οικονομιας
οικονομιες
οικονομικα
οικονομικες
οικονομικη
οικονομικης
οικονομικο
οικονομικος
οικονομικου
οικονομικους
οικονομικων
οικονομολογος
οικονομου
οικοπεδο
οικος
οικοσημο
οικοσυστημα
οικοσυστηματα
οικου
οικουμενην
οικουμενης
οικουμενικη
οικουμενικης
οικουμενικο
οικουμενικος
οικουμενικου
οικους
οικω
οικων
οιλερ
οιμαι
οιμοι
οινον
οινος
οινου
οιοι
οιον
οιονει
οιονται
οιος
οις
οισθα
οιτινες
οκλαχομα
οκτ
οκταβιανος
οκτω
οκτωβρη
οκτωβριο
οκτωβριος
οκτωβριου
ολ
ολα
ολας
ολαφ
ολγα
ολγας
ολεθρον
ολες
ολη
ολην
ολης
ολιβερ
ολιβια
ολιβιε
ολιγα
ολιγας
ολιγοι
ολιγοις
ολιγον
ολιγου
ολιγους
ολιγω
ολιγων
ολικη
ολιμπικ
ολλανδια
ολλανδιας
ολλανδικα
ολλανδικη
ολλανδικης
ολλανδικο
ολλανδοι
ολλανδος
ολλανδους
ολλανδων
ολντενμπουργκ
ολο
ολογυρα
ολοενα
ολοι
ολοκαυτωμα
ολοκαυτωματος
ολοκληρα
ολοκληρες
ολοκληρη
ολοκληρης
ολοκληρο
ολοκληρον
ολοκληρος
ολοκληρου
ολοκληρωθει
ολοκληρωθηκαν
ολοκληρωθηκε
ολοκληρωμενη
ολοκληρωμενο
ολοκληρωνει
ολοκληρωνεται
ολοκληρωνοντας
ολοκληρωσε
ολοκληρωσει
ολοκληρωση
ολοκληρωσης
ολοκληρωτικα
ολοκληρωτικη
ολομελεια
ολον
ολος
ολοσχερως
ολου
ολους
ολυμπια
ολυμπιαδα
ολυμπιαδας
ολυμπιακη
ολυμπιακης
ολυμπιακο
ολυμπιακοι
ολυμπιακος
ολυμπιακου
ολυμπιακους
ολυμπιακων
ολυμπιας
ολυμπιονικες
ολυμπιονικης
ολυμπο
ολυμπος
ολυμπου
ολω
ολων
ολως
ομαδα
ομαδας
ομαδες
ομαδικα
ομαδικες
ομαδικη
ομαδικο
ομαδων
ομαλη
ομαν
ομαρ
ομερ
ομηρο
ομηρος
ομηρου
ομηρους
ομιλει
ομιλειται
ομιλητες
ομιλητη
ομιλητης
ομιλητικος
ομιλητων
ομιλια
ομιλιας
ομιλιες
ομιλο
ομιλοι
ομιλος
ομιλου
ομιλουνται
ομιλους
ομιλων
ομιχλη
ομμα
ομματα
ομοηχο
ομοια
ομοιο
ομοιομορφα
ομοιομορφου
ομοιον
ομοιος
ομοιοτητα
ομοιοτητες
ομοιωμα
ομοιων
ομοιως
ομολογα
ομολογει
ομολογια
ομολογιας
ομολογων
ομονοια
ομονοιας
ομορφα
ομορφες
ομορφη
ομορφια
ομορφιας
ομορφο
ομορφος
ομοσπονδια
ομοσπονδιακες
ομοσπονδιακη
ομοσπονδιακης
ομοσπονδιακο
ομοσπονδιακος
ομοσπονδιακου
ομοσπονδιας
ομοσπονδιες
ομοσπονδιων
ομοτιμος
ομοτιτλο
ομου
ομοφυλοφιλια
ομοφυλοφιλων
ομοφωνα
ομπαμα
ομπλαστ
ομπρος
ομωνυμη
ομωνυμης
ομωνυμο
ομωνυμος
ομωνυμου
ομως
ον
ονδουρα
ονειδος
ονειρα
ονειρο
ονειρου
ονειρων
ονομα
ονομαζαν
ονομαζει
ονομαζεται
ονομαζονται
ονομαζονταν
ονομαζοταν
ονομαζουμε
ονομαζουν
ονομασαν
ονομασε
ονομασθηκε
ονομασια
ονομασιας
ονομασιες
ονομαστει
ονομαστηκαν
ονομαστηκε
ονομαστικη
ονοματα
ονοματεπωνυμο
ονοματι
ονοματολογια
ονοματος
ονοματων
ονος
οντα
ονταριο
οντας
οντες
οντι
οντος
οντοτητα
οντοτητες
οντρια
οντων
οντως
οξεα
οξεια
οξειας
οξειδιο
οξειδωση
οξειδωσης
οξεος
οξεων
οξινο
οξιτανιας
οξιτανικα
οξυ
οξυγονο
οξυγονου
οξυτητα
οξφορδη
οξφορδης
οξω
οουεν
οπ
οπαδοι
οπαδος
οπαδους
οπαδων
οπαπ
οπεν
οπερ
οπερα
οπερας
οπερες
οπη
οπισθεν
οπισθια
οπισω
οπλα
οπλαρχηγοι
οπλαρχηγος
οπλαρχηγους
οπλισμο
οπλισμος
οπλιτας
οπλιτες
οπλιτων
οπλο
οπλοις
οπλου
οπλων
οποι
οποια
οποιαδηποτε
οποιαν
οποιας
οποιασδηποτε
οποιες
οποιο
οποιοδηποτε
οποιοι
οποιον
οποιονδηποτε
οποιος
οποιοσδηποτε
οποιου
οποιουδηποτε
οποιους
οποιων
οποσα
οποταν
οποτε
οπου
οπουδηποτε
οπουλος
οπτικα
οπτικες
οπτικη
οπτικης
οπτικο
οπτικων
οπως
οπωσδηποτε
ορ
ορα
οραγγης
οραμα
οραν
ορας
οραση
ορασης
ορατα
ορατη
ορατο
ορατος
οργανα
οργανικα
οργανικες
οργανικη
οργανικης
οργανικων
οργανισμο
οργανισμοι
οργανισμος
οργανισμου
οργανισμους
οργανισμων
οργανο
οργανον
οργανου
οργανωθηκαν
οργανωθηκε
οργανωμενες
οργανωμενη
οργανωμενο
οργανων
οργανωνει
οργανωνονται
οργανωσαν
οργανωσε
οργανωσει
οργανωσεις
οργανωσεων
οργανωση
οργανωσης
οργανωτικη
οργη
οργην
οργης
ορεγκον
ορει
ορεινα
ορεινες
ορεινη
ορεινης
ορεινο
ορεινος
ορεινου
ορεινων
ορεξη
ορεστη
ορεστης
ορεων
ορη
ορθα
ορθη
ορθια
ορθιος
ορθο
ορθογραφια
ορθογραφιας
ορθογραφικη
ορθογωνια
ορθογωνιο
ορθοδοξες
ορθοδοξη
ορθοδοξης
ορθοδοξια
ορθοδοξιας
ορθοδοξο
ορθοδοξοι
ορθοδοξος
ορθοδοξου
ορθοδοξους
ορθοδοξων
ορθον
ορθος
ορθως
ορια
οριζε
οριζει
οριζεται
οριζοντα
οριζονται
οριζοντας
οριζοντια
οριζοντιες
οριζουν
οριο
οριου
ορισε
ορισει
ορισμενα
ορισμενες
ορισμενη
ορισμενο
ορισμενοι
ορισμενους
ορισμενων
ορισμο
ορισμοι
ορισμος
ορισμου
ορισμους
οριστει
οριστηκαν
οριστηκε
οριστικα
οριστικη
οριστικης
οριστικο
οριων
ορκιζεται
ορκιστηκε
ορκο
ορκον
ορκος
ορκους
ορκωμοσια
ορλαντο
ορλεανη
ορλεανης
ορμη
ορμην
ορμης
ορμο
ορμος
ορμου
ορν
ορνιθες
ορνιθολογια
ορνιθων
ορο
οροι
ορολογια
ορολογιας
ορον
οροπεδιο
οροπεδιου
ορος
οροσειρα
οροσειρας
οροσειρες
οροσημο
ορου
ορους
οροφη
οροφης
οροφο
οροφος
οροφου
οροφους
ορσινι
ορυκτα
ορυκτο
ορυκτων
ορυχεια
ορυχειο
ορυχειων
ορφανα
ορφανος
ορφανοτροφειο
ορφεα
ορφεας
ορχηστρα
ορχηστρας
ορω
ορωμεν
ορων
ορωντες
ος
οσα
οσαι
οσακις
οσας
οσβαλντ
οσες
οση
οσην
οσιος
οσιου
οσιων
οσκαρ
οσλο
οσμαν
οσμη
οσο
οσοι
οσον
οσους
οστα
οστις
οστο
οστου
οστρακα
οστων
οσω
οσων
οτ
οτα
οταν
οτε
οτητα
οτι
οτιδηποτε
οτιουν
οτο
οτου
οττο
οτω
ου
ουαιλντ
ουαλια
ουαλιας
ουασιγκτον
ουασινγκτον
ουγγαρια
ουγγαριας
ουγγρικα
ουγγρικη
ουγγρικης
ουγγρικο
ουγγροι
ουγγρος
ουγγρους
ουγγρων
ουγκαντα
ουγκο
ουγκω
ουγο
ουγος
ουγου
ουδ
ουδαμου
ουδαμως
ουδε
ουδεις
ουδεμια
ουδεμιαν
ουδεν
ουδενα
ουδενι
ουδενος
ουδεποτε
ουδετερα
ουδετερη
ουδετερο
ουδετεροτητα
ουδετερου
ουδης
ουεσσεξ
ουεστμινστερ
ουεφα
ουζμπεκισταν
ουθ
ουθεν
ουιλιαμ
ουιλιαμς
ουιλλιαμ
ουιλσον
ουινστον
ουισκονσιν
ουκ
ουκετι
ουκουν
ουκρανια
ουκρανιας
ουκρανικα
ουκρανικη
ουκρανικης
ουκρανικο
ουκρανοι
ουκρανος
ουλα
ουλαμ
ουλης
ουλριχ
ουν
ουνεσκο
ουνομα
ουπω
ουρα
ουρανια
ουρανιο
ουρανιου
ουρανιων
ουρανο
ουρανον
ουρανος
ουρανου
ουρανους
ουρανω
ουρανων
ουρας
ουρμπινο
ουρντου
ουρος
ουρουγουαη
ουρουγουαης
ουρων
ους
ουσα
ουσαν
ουσης
ουσι
ουσια
ουσιαν
ουσιας
ουσιαστικα
ουσιαστικη
ουσιαστικο
ουσιαστικοποιημενο
ουσιαστικων
ουσιες
ουσιν
ουσιων
ουτ
ουτε
ουτοι
ουτος
ουτοσι
ουτρεχτη
ουτρεχτης
ουτω
ουτως
ουχ
ουχι
οφ
οφειλει
οφειλεται
οφειλονται
οφειλοταν
οφειλουν
οφελη
οφελος
οφη
οφθαλμοι
οφθαλμοις
οφθαλμος
οφθαλμου
οφθαλμους
οφθαλμων
οφις
οφρα
οχαιο
οχημα
οχηματα
οχηματος
οχηματων
οχθες
οχθη
οχθης
οχι
οχλον
οχλος
οχτω
οχυρα
οχυρο
οχυρου
οχυρωμα
οχυρωμενη
οχυρωσεις
οχυρωσεων
οχυρωση
οψε
οψει
οψεις
οψεως
οψη
οψιν
οψις
π
πα
παβελ
παγει
παγετωνες
παγετωνων
παγιδα
παγκο
παγκοσμια
παγκοσμιας
παγκοσμιες
παγκοσμιο
παγκοσμιος
παγκοσμιου
παγκοσμιων
παγκοσμιως
παγκρατι
παγκρατιου
παγκυπριο
παγο
παγος
παγου
παγω
παγωμενο
παε
παει
παζαρι
παθ
παθει
παθειν
παθη
παθησεις
παθησεων
παθηση
παθητικη
παθητικης
παθητικο
παθητικου
παθος
παθους
παθων
παι
παιδα
παιδαγωγικη
παιδαγωγικης
παιδαγωγικο
παιδαγωγος
παιδας
παιδεια
παιδειαν
παιδειας
παιδες
παιδι
παιδια
παιδικα
παιδικη
παιδικης
παιδικο
παιδικου
παιδικων
παιδιον
παιδιου
παιδιων
παιδος
παιδων
παιζει
παιζεται
παιζοντας
παιζουν
παικτες
παικτη
παικτης
παικτρια
παικτων
παιξει
παιξουν
παιρνει
παιρνοντας
παιρνουν
παιρνω
παις
παισι
παισιν
παιχνιδι
παιχνιδια
παιχνιδιου
παιχνιδιων
παιχτηκε
παιχτης
πακετα
πακετο
πακετου
πακετων
πακισταν
παλαι
παλαια
παλαιας
παλαιμαχος
παλαιο
παλαιοεκκλησιαστικη
παλαιοεκκλησιαστικης
παλαιοι
παλαιολογινα
παλαιολογο
παλαιολογος
παλαιολογου
παλαιολογων
παλαιον
παλαιος
παλαιοτερα
παλαιοτερες
παλαιοτερη
παλαιοτερο
παλαιοτερος
παλαιοτερου
παλαιοτερους
παλαιοτερων
παλαιου
παλαιοχωρι
παλαιστες
παλαιστης
παλαιστινη
παλαιστινης
παλαιων
παλαμα
παλαμας
παλατι
παλατια
παλατινατου
παλατινη
παλατιου
παλατσο
παλε
παλερμο
παλετα
παλη
παλης
παλι
παλια
παλιας
παλιες
παλικαρια
παλιν
παλιο
παλιος
παλιοτερα
παλιοτερος
παλιου
παλιους
παλιων
παλλας
παλμερ
παμε
παμπλο
παμπλονα
παν
παναγια
παναγιας
παναγιωτη
παναγιωτης
παναγιωτοπουλος
παναγιωτου
παναθηναικο
παναθηναικος
παναθηναικου
παναμα
παναχαικη
πανδεκτη
πανδεκτης
πανδημια
πανδημιας
πανε
πανελ
πανελληνια
πανελληνιο
πανελληνιος
πανελληνιου
πανελληνιων
πανεπιστημια
πανεπιστημιακες
πανεπιστημιακη
πανεπιστημιακο
πανεπιστημιακος
πανεπιστημιο
πανεπιστημιου
πανεπιστημιουπολη
πανεπιστημιων
πανευρωπαικο
πανηγυρι
πανηγυρισε
πανθ
πανθεον
πανι
πανια
πανιδα
πανιδας
πανιωνιο
πανιωνιος
πανιωνιου
πανκ
πανο
πανοπλια
πανοραμα
πανοραμικη
πανος
πανου
παντ
παντα
πανταπασι
πανταπασιν
παντας
πανταχοθεν
πανταχου
παντειο
παντελεημονα
παντελη
παντελης
παντελως
παντες
παντζαμπ
παντη
παντι
παντοβα
παντος
παντοτε
παντου
παντρεμενη
παντρεμενος
παντρευεται
παντρευτει
παντρευτηκαν
παντρευτηκε
παντρεψε
παντσερ
παντων
παντως
πανυ
πανω
πανωλη
πανωλης
παο
παοκ
παολο
παουελ
παουερ
παουλ
παπα
παπαγεωργιου
παπαγου
παπαδακη
παπαδακης
παπαδημας
παπαδημητριου
παπαδοπουλο
παπαδοπουλος
παπαδοπουλου
παπαζηση
παπαζογλου
παπαθανασιου
παπαιωαννου
παπακωνσταντινου
παπαμωυσεως
παπαναστασιου
παπανδρεου
παπανικολαου
παπαντωνιου
παπαρρηγοπουλος
παπας
παπικη
παπικο
παπουα
παπουτσι
παπουτσια
παππα
παππας
παππος
παππου
παππους
παπυρος
παρ
παρα
παραβαση
παραβιασεις
παραβιαση
παραβολη
παραγγελια
παραγγελιες
παραγει
παραγεται
παραγοντα
παραγονται
παραγοντας
παραγοντες
παραγοντων
παραγουαη
παραγουν
παραγραφο
παραγραφος
παραγραφου
παραγραφων
παραγωγα
παραγωγες
παραγωγη
παραγωγης
παραγωγικη
παραγωγο
παραγωγοι
παραγωγος
παραγωγου
παραγωγους
παραγωγων
παραδειγμα
παραδειγματα
παραδειγματος
παραδεισο
παραδεισος
παραδεισου
παραδεχεται
παραδεχτηκε
παραδιδει
παραδιδεται
παραδοθει
παραδοθηκαν
παραδοθηκε
παραδοθουν
παραδοξο
παραδοξον
παραδοξως
παραδοσεις
παραδοσεων
παραδοση
παραδοσης
παραδοσιακα
παραδοσιακες
παραδοσιακη
παραδοσιακης
παραδοσιακο
παραδοσιακος
παραδοσιακου
παραδοσιακους
παραδοσιακων
παραδουναι
παραδωσει
παραδωσουν
παραθαλασσια
παραθαλασσιο
παραθαλασσιος
παραθεση
παραθετει
παραθυρα
παραθυρο
παραθυρου
παραθυρων
παραιτειται
παραιτηθει
παραιτηθηκε
παραιτηση
παραιτησης
παρακαλω
παρακατω
παρακειμενο
παρακειμενου
παρακμη
παρακμης
παρακολουθει
παρακολουθησαν
παρακολουθησε
παρακολουθησει
παρακολουθηση
παρακολουθησης
παρακολουθησουν
παρακολουθουν
παρακολουθουσε
παρακολουθωντας
παρακτια
παρακτιες
παραλαβη
παραλαβων
παραληπτη
παραλια
παραλιακη
παραλιας
παραλιες
παραλιων
παραλλαγες
παραλλαγη
παραλληλα
παραλληλες
παραλληλη
παραλληλο
παραλληλοι
παραλληλος
παραλυση
παραμεινει
παραμεινουν
παραμεληθει
παραμενει
παραμενοντας
παραμενουν
παραμετρος
παραμετρους
παραμετρων
παραμονη
παραμονης
παραμορφωση
παραμυθι
παραμυθια
παραμυθιας
παρανομα
παρανομες
παρανομη
παρανομης
παρανομο
παρανομων
παραξενο
παραπαν
παραπανω
παραπεμπει
παραπερα
παραπλησια
παραπομπες
παραπομπη
παραπομπης
παραπονα
παραποταμος
παραρτημα
παραρτηματα
παραρτηματος
παρασημα
παρασημο
παρασκευαζεται
παρασκευη
παρασκευην
παρασκευης
παρασκηνιο
παραστασεις
παραστασεων
παρασταση
παραστασης
παρασχει
παρασχειν
παραταξεις
παραταξεως
παραταξη
παραταξης
παραταση
παρατασης
παρατεταμενη
παρατηρει
παρατηρειται
παρατηρηθει
παρατηρηθηκαν
παρατηρηθηκε
παρατηρησε
παρατηρησει
παρατηρησεις
παρατηρησεων
παρατηρηση
παρατηρησης
παρατηρητες
παρατηρητη
παρατηρητηριο
παρατηρητης
παρατηρουμε
παρατηρουνται
παρατηρουσε
παρατιθενται
παρατιθεται
παρατσουκλι
παραφθορα
παραχθει
παραχρημα
παραχωρηθει
παραχωρηθηκαν
παραχωρηθηκε
παραχωρησε
παραχωρησει
παραχωρησεις
παραχωρηση
παργας
παρε
παρεα
παρεδωκεν
παρεδωσε
παρει
παρειναι
παρειχαν
παρειχε
παρεκκλησι
παρεκκλησια
παρεκκλησιο
παρεκκλησιου
παρεκκλιση
παρελαβε
παρελαση
παρελθον
παρελθοντος
παρελθων
παρεμβασεις
παρεμβαση
παρεμβασης
παρεμβολη
παρεμβολην
παρεμβολης
παρεμειναν
παρεμεινε
παρεμεναν
παρεμενε
παρενεργειες
παρενθεση
παρεχει
παρεχειν
παρεχεται
παρεχονται
παρεχοντας
παρεχουν
παρη
παρηγαγαν
παρηγαγε
παρηγγειλε
παρηγορια
παρην
παρηχθη
παρηχθησαν
παρθενα
παρθενικη
παρθενον
παρθενος
παρθενου
παρθενων
παρθενωνα
παρι
παρις
παρισι
παρισιου
παρισιων
παριστανει
παρκ
παρκα
παρκερ
παρκο
παρκου
παρμα
παρμας
παρνασσος
παρο
παροδο
παροιμια
παροιμιες
παρολα
παρολο
παρομοια
παρομοιες
παρομοιο
παρομοιος
παρομοιων
παρομοιως
παρον
παροντα
παροντες
παροντι
παροντος
παροντων
παρος
παροτι
παρου
παρουμε
παρουν
παρουσα
παρουσας
παρουσης
παρουσια
παρουσιαζε
παρουσιαζει
παρουσιαζεται
παρουσιαζονται
παρουσιαζοντας
παρουσιαζουν
παρουσιας
παρουσιασαν
παρουσιασε
παρουσιασει
παρουσιαση
παρουσιασης
παρουσιασουν
παρουσιαστει
παρουσιαστηκαν
παρουσιαστηκε
παρουσιαστης
παρουσιαστρια
παρουσιες
παροχη
παροχης
παρτι
παρτιδα
παρτιζαν
παρυφες
παρω
παρωδια
παρων
παρωνυμο
παρωχημενο
πας
πασα
πασαι
πασαις
πασαν
πασας
παση
πασης
πασι
πασιν
πασκαλ
πασοκ
πασχα
πασχαλης
πασχαλιδης
πασχει
πασχειν
πασχουν
πασων
πατ
πατακη
πατακης
πατατες
πατε
πατεντα
πατεντες
πατερ
πατερα
πατερας
πατερες
πατερων
πατηρ
πατησιων
πατηστε
πατιναζ
πατρα
πατρας
πατρεων
πατρι
πατρια
πατριαρχειο
πατριαρχειου
πατριαρχη
πατριαρχης
πατριαρχικη
πατριαρχικο
πατριαρχου
πατριδα
πατριδας
πατριδι
πατριδος
πατριδωνυμικο
πατρικ
πατρικη
πατρικιος
πατρικιου
πατρικο
πατρις
πατριων
πατριωτης
πατριωτικο
πατροκλος
πατρολογια
πατρος
πατρων
πατση
πατωμα
παυει
παυλο
παυλος
παυλου
παυσανια
παυσανιας
παυση
παφου
παχος
παχους
παχυ
παω
πγδμ
πε
πεδια
πεδιαδα
πεδιαδας
πεδιαδες
πεδινη
πεδινο
πεδινος
πεδιο
πεδιον
πεδιου
πεδιω
πεδιων
πεδρο
πεζα
πεζη
πεζικο
πεζικου
πεζο
πεζογραφια
πεζογραφος
πεζοι
πεζοπορια
πεζος
πεζους
πεζων
πεθαινει
πεθαινουν
πεθαναν
πεθανε
πεθανει
πεθανουν
πεθερα
πει
πειθαρχια
πειθει
πειθω
πεινα
πεινας
πειρα
πειραια
πειραιας
πειραιως
πειραμα
πειραματα
πειραματικα
πειραματικη
πειραματικο
πειραματων
πειραν
πειρατεια
πειρατειας
πειρατες
πειρατων
πεις
πεισει
πεισμα
πειτζ
πεκινο
πεκινου
πελαγος
πελαγους
πελατες
πελατη
πελατης
πελατων
πελε
πελεκανος
πελλας
πελοποννησιακου
πελοποννησιοι
πελοποννησιων
πελοποννησο
πελοποννησον
πελοποννησος
πελοποννησου
πεμπει
πεμπτη
πεμπτης
πεμπτο
πεμπτος
πεμπτου
πεν
πεναλτι
πενηντα
πενθος
πενθους
πενια
πενσυλβανια
πενταδα
πενταετη
πενταετια
πεντακοσια
πεντακοσιους
πεντε
πεντελης
πεντηκοντα
πεντηκοστης
πεπεισμενος
πεπερασμενο
πεπλο
πεποιηκεν
πεποιηται
πεποιθησεις
πεποιθησεων
πεποιθηση
πεπραγμενα
πεπραγμενων
περ
περα
περαιτερω
περαμα
περαματος
περαν
περας
περασαν
περασε
περασει
περασμα
περασματα
περασματος
περασουν
περγαμου
περες
περι
περιβαλλει
περιβαλλεται
περιβαλλον
περιβαλλοντα
περιβαλλοντικες
περιβαλλοντικη
περιβαλλοντικης
περιβαλλοντικων
περιβαλλοντος
περιβαλλουν
περιβλημα
περιβολι
περιβολο
περιγραμμα
περιγραφει
περιγραφες
περιγραφεται
περιγραφη
περιγραφηκε
περιγραφικη
περιγραφονται
περιγραφοντας
περιγραφουν
περιγραψει
περιεγραφε
περιεγραψε
περιειχαν
περιειχε
περιεκτικοτητα
περιελαμβαναν
περιελαμβανε
περιεργεια
περιεργο
περιεχει
περιεχεται
περιεχομενα
περιεχομενο
περιεχομενου
περιεχομενων
περιεχονται
περιεχουν
περιηγηση
περιηγησης
περιηγησις
περιηγητης
περιηλθε
περιηλιο
περιθαλψη
περιθαλψης
περιθωρια
περιθωριο
περικλη
περικλης
περικοπες
περιλαμβαναν
περιλαμβανε
περιλαμβανει
περιλαμβανεται
περιλαμβανομενων
περιλαμβανονται
περιλαμβανονταν
περιλαμβανοντας
περιλαμβανουν
περιληψη
περιμεναν
περιμενε
περιμενει
περιμενοντας
περιμενουν
περιμετρικα
περιξ
περιοδεια
περιοδειας
περιοδειες
περιοδευσαν
περιοδευσε
περιοδικα
περιοδικη
περιοδικο
περιοδικου
περιοδικων
περιοδο
περιοδοι
περιοδος
περιοδου
περιοδους
περιοδων
περιοριζει
περιοριζεται
περιοριζονται
περιορισει
περιορισμενα
περιορισμενες
περιορισμενη
περιορισμενης
περιορισμενο
περιορισμο
περιορισμοι
περιορισμος
περιορισμου
περιορισμους
περιορισμων
περιοριστει
περιοριστηκε
περιουσια
περιουσιακα
περιουσιακων
περιουσιας
περιουσιες
περιοχες
περιοχη
περιοχης
περιοχων
περιπετεια
περιπετειας
περιπετειες
περιπλοκη
περιπλοκο
περιπλους
περιπου
περιπτερο
περιπτωσει
περιπτωσεις
περιπτωσεων
περιπτωση
περιπτωσης
περισσεια
περισσοτερα
περισσοτερες
περισσοτερη
περισσοτερο
περισσοτεροι
περισσοτερον
περισσοτερους
περισσοτερων
περιστασεις
περισταση
περιστασιακα
περιστατικα
περιστατικο
περιστερι
περιστερια
περιστεριου
περιστρεφεται
περιστροφη
περιστροφης
περιττος
περιφερεια
περιφερειακα
περιφερειακες
περιφερειακη
περιφερειακης
περιφερειακο
περιφερειακου
περιφερειακων
περιφερειας
περιφερειες
περιφερειων
περιφερεται
περιφημη
περιφημο
περιφημος
περιφρονηση
περιχωρα
περνα
περναει
περνουν
περνουσαν
περνουσε
περνωντας
περου
περσαι
περσας
περσεα
περσες
περση
περσης
περσι
περσια
περσιας
περσικα
περσικη
περσικης
περσικο
περσικου
περσων
πες
πεσει
πεση
πεσοντων
πεσουν
πετα
πεταει
πεταλα
πεταλουδα
πεταξε
πεταξει
πεταση
πετερ
πετοσφαιριση
πετοσφαιρισης
πετουν
πετρα
πετραν
πετρας
πετρελαιο
πετρελαιου
πετρες
πετρινα
πετρινη
πετρινο
πετρο
πετροβιτς
πετροπουλος
πετρος
πετρου
πετρουπολη
πετρουπολης
πετρωματα
πετρωματων
πετυχαινει
πετυχαινοντας
πετυχαν
πετυχε
πετυχει
πευκα
πεφτει
πεφτοντας
πεφτουν
πεφυκε
πεφυκεν
πη
πηγα
πηγαδι
πηγαδια
πηγαζει
πηγαιναν
πηγαινε
πηγαινει
πηγαινοντας
πηγαινουν
πηγαινω
πηγαιο
πηγαιου
πηγαν
πηγας
πηγε
πηγες
πηγη
πηγης
πηγων
πηλιου
πηνειου
πηνελοπη
πηρα
πηραν
πηρε
πητερ
πι
πια
πιανει
πιανιστας
πιανο
πιανου
πιασει
πιαστ
πιατα
πιατο
πιατσα
πιειν
πιερ
πιερια
πιεριας
πιερικος
πιεσεις
πιεση
πιεσης
πιετρο
πιζα
πιθανα
πιθανες
πιθανη
πιθανο
πιθανολογειται
πιθανον
πιθανος
πιθανοτατα
πιθανοτερο
πιθανοτητα
πιθανοτητας
πιθανοτητες
πιθανους
πιθανων
πιθανως
πικασο
πικρα
πιλοτος
πινακα
πινακας
πινακες
πινακιδα
πινακιδες
πινακοθηκη
πινακοθηκης
πινακων
πινγιν
πινδαρος
πινδου
πινει
πιο
πιος
πιοτρ
πιπερι
πιρς
πισινα
πιστα
πιστες
πιστευαν
πιστευε
πιστευει
πιστευειν
πιστευεται
πιστευοντας
πιστευοταν
πιστευουν
πιστευω
πιστεως
πιστη
πιστης
πιστιν
πιστις
πιστο
πιστοι
πιστολι
πιστοποιηση
πιστοποιησης
πιστοποιητικο
πιστος
πιστους
πιστων
πιστωνεται
πισω
πιτ
πιτα
πιτερ
πκε
πλ
πλαγι
πλαγια
πλαγιες
πλαγιος
πλαι
πλαισια
πλαισιο
πλαισιου
πλακα
πλακας
πλακες
πλακων
πλανα
πλανη
πλανητες
πλανητη
πλανητης
πλανητων
πλανο
πλασμα
πλασματα
πλασματος
πλαστηρα
πλαστικα
πλαστικο
πλατανια
πλατανος
πλατεια
πλατειας
πλατειες
πλατη
πλατια
πλατινενιο
πλατινενιος
πλατος
πλατους
πλατυ
πλατφορμα
πλατφορμας
πλατφορμες
πλατων
πλατωνα
πλατωνος
πλεγμα
πλει
πλειον
πλειονα
πλειονος
πλειονοτητα
πλειονων
πλειους
πλειοψηφια
πλειοψηφιας
πλειοψηφικο
πλειστα
πλειστοι
πλειστον
πλειστους
πλειστων
πλειω
πλεον
πλεονεκτημα
πλεονεκτηματα
πλευρα
πλευρας
πλευρες
πλευρο
πλευρων
πληγας
πληγες
πληγη
πληγην
πληγμα
πληθ
πληθει
πληθη
πληθος
πληθους
πληθυντικο
πληθυντικος
πληθυντικου
πληθυσμιακη
πληθυσμο
πληθυσμοι
πληθυσμος
πληθυσμου
πληθυσμους
πληθυσμων
πληθωρα
πληκτρα
πληκτρολογιο
πλημμυρα
πλημμυρες
πλην
πληρεις
πληρεξουσιος
πληρεξουσιων
πληρες
πληρη
πληρης
πληροι
πληρουν
πληρους
πληροφορει
πληροφορηθηκε
πληροφορηση
πληροφορησης
πληροφορια
πληροφοριας
πληροφοριες
πληροφορικη
πληροφορικης
πληροφοριων
πληρωμα
πληρωματα
πληρωματος
πληρωμες
πληρωμη
πληρωμης
πληρωμων
πληρωνει
πληρωνουν
πληρως
πληρωσε
πληρωσει
πληρωσουν
πλησιαζε
πλησιαζει
πλησιασε
πλησιασει
πλησιον
πληττει
πλινιος
πλμ
πλοηγησης
πλοια
πλοιαρχος
πλοιο
πλοιον
πλοιου
πλοιων
πλοκη
πλουν
πλουσια
πλουσιας
πλουσιες
πλουσιο
πλουσιοι
πλουσιος
πλουσιου
πλουσιους
πλουσιων
πλουταρχο
πλουταρχος
πλουταρχου
πλουτη
πλουτο
πλουτον
πλουτος
πλουτου
πλωρη
πνευμα
πνευματα
πνευματι
πνευματικα
πνευματικες
πνευματικη
πνευματικης
πνευματικο
πνευματικος
πνευματικου
πνευματικων
πνευματος
πνευματων
πνευμονα
πνευμονες
πνευμονια
πνευμονικη
πνευμονων
πνοη
πο
ποβιατ
ποδα
ποδας
ποδες
ποδηλασια
ποδηλασιας
ποδηλατο
ποδι
ποδια
ποδιου
ποδιων
ποδος
ποδοσφαιρικα
ποδοσφαιρικες
ποδοσφαιρικη
ποδοσφαιρικης
ποδοσφαιρικο
ποδοσφαιρικος
ποδοσφαιρικου
ποδοσφαιρικων
ποδοσφαιριστες
ποδοσφαιριστη
ποδοσφαιριστης
ποδοσφαιριστων
ποδοσφαιρο
ποδοσφαιρου
ποδων
ποε
ποζναν
ποθεν
ποθον
ποθος
ποι
ποια
ποιαν
ποιει
ποιειν
ποιεισθαι
ποιειται
ποιες
ποιημα
ποιηματα
ποιηματος
ποιηματων
ποιησαι
ποιησαμενος
ποιησας
ποιησασθαι
ποιησει
ποιησειν
ποιησεις
ποιηση
ποιησης
ποιησω
ποιηται
ποιητες
ποιητη
ποιητην
ποιητης
ποιητικα
ποιητικες
ποιητικη
ποιητικης
ποιητικο
ποιητου
ποιητρια
ποιητων
ποικιλα
ποικιλει
ποικιλες
ποικιλη
ποικιλια
ποικιλιας
ποικιλιες
ποικιλλει
ποικιλλουν
ποικιλομορφια
ποικιλουν
ποικιλων
ποινες
ποινη
ποινης
ποινικη
ποινικης
ποινικο
ποινικου
ποιντ
ποιο
ποιοι
ποιον
ποιος
ποιοτητα
ποιοτητας
ποιουμενος
ποιουνται
ποιουντες
ποιους
ποιουσι
ποιουσιν
ποιω
ποιων
πολ
πολει
πολεις
πολεμειν
πολεμησαν
πολεμησε
πολεμησει
πολεμησουν
πολεμικα
πολεμικες
πολεμικη
πολεμικης
πολεμικο
πολεμικου
πολεμικων
πολεμιοι
πολεμιοις
πολεμιον
πολεμιους
πολεμιστες
πολεμιστη
πολεμιστης
πολεμιστων
πολεμιων
πολεμο
πολεμοι
πολεμον
πολεμος
πολεμου
πολεμουν
πολεμους
πολεμουσαν
πολεμουσε
πολεμω
πολεμων
πολεμωντας
πολεοδομικο
πολεσι
πολεσιν
πολεων
πολεως
πολη
πολης
πολιν
πολιορκηθηκε
πολιορκησαν
πολιορκησε
πολιορκια
πολιορκιαν
πολιορκιας
πολιουχος
πολις
πολιται
πολιταις
πολιτας
πολιτεια
πολιτειακο
πολιτειαν
πολιτειας
πολιτειες
πολιτειων
πολιτες
πολιτευμα
πολιτευματος
πολιτη
πολιτης
πολιτικα
πολιτικες
πολιτικη
πολιτικης
πολιτικο
πολιτικοι
πολιτικος
πολιτικου
πολιτικους
πολιτικων
πολιτισμικα
πολιτισμικη
πολιτισμο
πολιτισμοι
πολιτισμος
πολιτισμου
πολιτισμους
πολιτισμων
πολιτιστικα
πολιτιστικες
πολιτιστικη
πολιτιστικης
πολιτιστικο
πολιτιστικος
πολιτιστικου
πολιτιστικων
πολιτων
πολλα
πολλαι
πολλαις
πολλακις
πολλαπλα
πολλαπλασιασμο
πολλαπλασιασμος
πολλαπλες
πολλαπλη
πολλαπλων
πολλας
πολλες
πολλη
πολλην
πολλης
πολλοι
πολλοις
πολλον
πολλου
πολλους
πολλω
πολλων
πολο
πολος
πολυ
πολυαριθμα
πολυαριθμες
πολυβιος
πολυβολα
πολυεθνικη
πολυετη
πολυκατοικια
πολυμαθεια
πολυμεσα
πολυμεσων
πολυν
πολυνικης
πολυπλοκη
πολυπλοκοτητα
πολυς
πολυτελεια
πολυτελειας
πολυτελες
πολυτελη
πολυτεχνειο
πολυτεχνειου
πολυτιμα
πολυτιμες
πολυτιμη
πολυτιμο
πολυτιμοτερος
πολυωνυμο
πολων
πολωνια
πολωνιας
πολωνικα
πολωνικες
πολωνικη
πολωνικης
πολωνικο
πολωνικου
πολωνικων
πολωνο
πολωνοι
πολωνος
πολωνους
πολωνων
πομερανιας
πομπη
πομπηιος
πομπηιου
πονηρα
πονηρια
πονηρον
πονηρος
πονο
πονον
πονος
πονου
πονους
ποντικι
ποντικια
ποντιων
ποντο
ποντοι
ποντον
ποντος
ποντου
ποντους
ποντων
πονων
ποπ
πορεια
πορειαν
πορειας
πορειες
πορευεσθαι
πορισμα
πορνεια
πορνη
πορο
ποροι
πορος
πορου
πορους
πορρω
πορρωθεν
πορτ
πορτα
πορτας
πορτες
πορτλαντ
πορτο
πορτογαλια
πορτογαλιας
πορτογαλικα
πορτογαλικη
πορτογαλοι
πορτογαλος
πορτοκαλι
πορτραιτο
πορτρετα
πορτρετο
πορφυρα
πορων
ποσα
ποσειδων
ποσειδωνα
ποσειδωνας
ποσειδωνος
ποσες
ποση
ποσιν
ποσο
ποσοι
ποσον
ποσοστα
ποσοστο
ποσοστου
ποσοτητα
ποσοτητας
ποσοτητες
ποσοτητων
ποσου
ποστο
ποτ
ποτα
ποταμι
ποταμια
ποταμο
ποταμοι
ποταμον
ποταμος
ποταμου
ποταμους
ποταμω
ποταμων
ποτε
ποτερ
ποτερον
ποτηρι
ποτηριον
ποτι
ποτο
ποτον
ποτου
ποτων
που
πουατιε
πουερτο
πουθενα
πουκαμισο
πουλαει
πουληθηκε
πουλησε
πουλησει
πουλι
πουλια
πουλιου
πουλιτζερ
πουλιων
πουλωντας
πουμε
πουν
πους
πουσκιν
πουτιν
πρ
πραγα
πραγας
πραγμα
πραγμασι
πραγμασιν
πραγματα
πραγματεια
πραγματευεται
πραγματι
πραγματικα
πραγματικες
πραγματικη
πραγματικης
πραγματικο
πραγματικος
πραγματικοτητα
πραγματικοτητας
πραγματικου
πραγματικους
πραγματικων
πραγματοποιει
πραγματοποιειται
πραγματοποιηθει
πραγματοποιηθηκαν
πραγματοποιηθηκε
πραγματοποιηθουν
πραγματοποιησαν
πραγματοποιησε
πραγματοποιησει
πραγματοποιηση
πραγματοποιησουν
πραγματοποιουν
πραγματοποιουνται
πραγματοποιουνταν
πραγματοποιωντας
πραγματος
πραγματων
πρακτικα
πρακτικες
πρακτικη
πρακτικης
πρακτικο
πρακτικων
πρακτορα
πρακτορας
πρακτορειο
πρακτορες
πραμα
πραματα
πραντες
πραξει
πραξεις
πραξεων
πραξεως
πραξη
πραξης
πραξικοπημα
πραξικοπηματος
πραξιν
πραξις
πρασινα
πρασινη
πρασινο
πρασινοι
πρασινος
πρασινου
πρασινων
πραττειν
πρβλ
πρεβεζα
πρεβεζας
πρεβεζης
πρεμιερ
πρεμιερα
πρεπει
πρεπον
πρεσβεια
πρεσβειας
πρεσβεις
πρεσβευτη
πρεσβευτης
πρεσβη
πρεσβης
πρεσβυτερο
πρεσβυτεροι
πρεσβυτερος
πρεσβυτερου
πρεσβυτερων
πρεσπων
πρι
πριαμου
πριγκηπα
πριγκηπας
πριγκιπα
πριγκιπας
πριγκιπατο
πριγκιπατου
πριγκιπες
πριγκιπισσα
πριγκιπισσας
πριγκιπων
πριμερα
πριν
πρινστον
πρισμα
πριστινα
προ
προαγωγη
προαιρεσιν
προαναφερθηκε
προαστια
προαστιο
προαυλιο
προβαδισμα
προβαινει
προβαλει
προβαλλει
προβαλλεται
προβατα
προβατων
προβει
προβηγκια
προβηγκιας
προβιβαστηκε
προβλεπει
προβλεπεται
προβλεπονται
προβλεποταν
προβλεψεις
προβλεψη
προβληθει
προβληθηκαν
προβληθηκε
προβλημα
προβληματα
προβληματικη
προβληματος
προβληματων
προβολεις
προβολες
προβολη
προβολης
προγνωση
προγονο
προγονοι
προγονος
προγονους
προγονων
προγραμμα
προγραμματα
προγραμματισμενη
προγραμματισμο
προγραμματισμος
προγραμματισμου
προγραμματιστει
προγραμματιστες
προγραμματος
προγραμματων
προδιαγραφες
προδιαγραφων
προδοσια
προδοσιας
προδοτης
προδρομο
προδρομος
προδρομου
προεβαλε
προεβη
προεβλεπε
προεδρια
προεδριας
προεδρικες
προεδρικη
προεδρικο
προεδρικων
προεδρο
προεδροι
προεδρος
προεδρου
προειδοποιει
προειδοποιησε
προειδοποιηση
προεκλογικη
προεκταση
προεκυπτε
προεκυψαν
προεκυψε
προελαση
προελευση
προελευσης
προερχεται
προερχονται
προερχονταν
προερχοταν
προετοιμασια
προετοιμασιας
προετοιμασιες
προηγειται
προηγηθει
προηγηθηκε
προηγουμενα
προηγουμενες
προηγουμενη
προηγουμενης
προηγουμενο
προηγουμενοι
προηγουμενος
προηγουμενου
προηγουμενους
προηγουμενων
προηγουμενως
προηλθαν
προηλθε
προημιτελικα
προημιτελικη
προηχθη
προθεμα
προθεσεις
προθεση
προθεσμια
προθεσμιας
προθημα
προθυμια
προθυμοι
προθυμος
προθυμως
προικα
προιον
προιοντα
προιοντος
προιοντων
προισταμενος
προιστορια
προιστορικη
προκαλει
προκαλειται
προκαλεσαν
προκαλεσε
προκαλεσει
προκαλεσουν
προκαλουν
προκαλουνται
προκαλουσε
προκαλω
προκαλωντας
προκατειλημμενο
προκατοχο
προκατοχος
προκατοχου
προκειμενου
προκειται
προκηρυξη
προκληθει
προκληθηκαν
προκληθηκε
προκλησεις
προκληση
προκοπιος
προκριθει
προκριθηκαν
προκριθηκε
προκριματικα
προκριματικη
προκριματικο
προκριματικων
προκρινονται
προκριση
προκυπτει
προκυπτουν
προκυψει
προκυψουν
προλαβε
προλαβει
προληψη
προληψης
προλογο
προλογος
προμηθεα
προμηθεας
προμηθεια
προμηθειες
προμηθειων
προνοια
προνοιαν
προνοιας
προνομια
προνομιο
προνομιων
προνυμφες
προξενειο
προξενος
προοδευτικη
προοδευτικης
προοδευτικο
προοδο
προοδος
προοδου
προοπτικες
προοπτικη
προοριζεται
προοριζονται
προοριζονταν
προοριζοταν
προορισμο
προορισμος
προορισμου
προορισμους
προπαγανδα
προπαγανδας
προποδες
προπονηση
προπονητες
προπονητη
προπονητης
προπονητικη
προπυργιο
προς
προσανατολισμο
προσανατολισμος
προσανατολισμου
προσαρμογη
προσαρμογης
προσαρμοστει
προσαρταται
προσαρτηθηκαν
προσαρτηθηκε
προσαρτησε
προσαρτηση
προσβαλλει
προσβαση
προσβασης
προσβασιμη
προσβασιμο
προσβολη
προσβολης
προσγειωση
προσγειωσης
προσδιοριζει
προσδιοριζεται
προσδιορισει
προσδιορισιμες
προσδιορισμο
προσδιορισμος
προσδιοριστει
προσδοκιες
προσδοκιμο
προσεγγιζει
προσεγγισε
προσεγγισει
προσεγγισεις
προσεγγιση
προσεγγισης
προσεθεσε
προσεκτικα
προσεκτικη
προσελαβε
προσελευση
προσελκυει
προσελκυσε
προσελκυσει
προσερχονται
προσετι
προσευχες
προσευχη
προσευχης
προσεφεραν
προσεφερε
προσηκει
προσθεν
προσθεσε
προσθεσει
προσθεση
προσθετα
προσθετει
προσθετες
προσθετη
προσθετο
προσθετοντας
προσθηκες
προσθηκη
προσθηκης
προσθιο
προσκαλεσε
προσκηνιο
προσκληθηκε
προσκληση
προσκρουση
προσκρουσης
προσκυνημα
προσκυνητες
προσληφθηκε
προσληψη
προσομοιωση
προσοντα
προσοχη
προσοχης
προσοψη
προσπαθει
προσπαθεια
προσπαθειας
προσπαθειες
προσπαθειων
προσπαθησαν
προσπαθησε
προσπαθησει
προσπαθουν
προσπαθουσαν
προσπαθουσε
προσπαθωντας
προσπελαση
προστακτικη
προστακτικης
προστασια
προστασιας
προστατευει
προστατευεται
προστατευομενη
προστατευονται
προστατευουν
προστατευσει
προστατευσουν
προστατεψει
προστατη
προστατης
προστατιδα
προστεθει
προστεθηκαν
προστεθηκε
προστεθουν
προστιθενται
προστιθεται
προστιμο
προσφατα
προσφατες
προσφατη
προσφατο
προσφεραν
προσφερε
προσφερει
προσφερεται
προσφερθηκε
προσφερονται
προσφεροντας
προσφερουν
προσφορα
προσφορας
προσφορες
προσφυγες
προσφυγη
προσφυγων
προσφωνηση
προσχημα
προσχωρησαν
προσχωρησε
προσχωρηση
προσω
προσωνυμια
προσωνυμιο
προσωπα
προσωπικα
προσωπικες
προσωπικη
προσωπικης
προσωπικο
προσωπικος
προσωπικοτητα
προσωπικοτητας
προσωπικοτητες
προσωπικοτητων
προσωπικου
προσωπικους
προσωπικων
προσωπο
προσωπογραφια
προσωπογραφιες
προσωπον
προσωποποιηση
προσωπου
προσωπων
προσωρινα
προσωρινη
προσωρινης
προσωρινο
προσωρινος
προταθει
προταθηκε
προτασεις
προτασεων
προταση
προτασης
προτειναν
προτεινε
προτεινει
προτεινεται
προτεινομενη
προτεινουν
προτεκτορατο
προτελευταια
προτερα
προτεραιοτητα
προτεραιοτητας
προτερον
προτερων
προτεσταντες
προτεσταντικα
προτεσταντικη
προτεσταντικου
προτζεκτ
προτιμα
προτιμαται
προτιμησε
προτιμησεις
προτιμηση
προτιμησης
προτιμουν
προτιμουσε
προτομη
προτου
προτροπη
προτυπα
προτυπη
προτυπο
προτυπου
προτυπων
προυπαρχοντων
προυποθεσεις
προυποθεση
προυποθετει
προυπολογισμο
προυπολογισμος
προυπολογισμου
προφανες
προφανως
προφασιν
προφερεται
προφητεια
προφητη
προφητης
προφητου
προφητων
προφιλ
προφορα
προφορικη
προφορικο
προχωρα
προχωρησαν
προχωρησε
προχωρησει
προχωρησουν
προχωρουσε
προωθει
προωθηθηκε
προωθησε
προωθησει
προωθηση
προωθησης
προωρα
προωρες
προωρο
πρτ
πρυμνη
πρυτανης
πρωην
πρωθυπουργια
πρωθυπουργο
πρωθυπουργος
πρωθυπουργου
πρωι
πρωιμα
πρωιμες
πρωιμη
πρωιμης
πρωιμο
πρωιμου
πρωινη
πρωινο
πρωσια
πρωσιας
πρωτα
πρωταγωνιστει
πρωταγωνιστες
πρωταγωνιστη
πρωταγωνιστης
πρωταγωνιστησε
πρωταγωνιστησει
πρωταγωνιστικο
πρωταγωνιστικους
πρωταγωνιστουν
πρωταγωνιστρια
πρωταθλημα
πρωταθληματα
πρωταθληματος
πρωταθληματων
πρωταθλητες
πρωταθλητη
πρωταθλητης
πρωταθλητρια
πρωταθλητριες
πρωταθλητριων
πρωταρχικη
πρωταρχικο
πρωταρχος
πρωτεας
πρωτεινες
πρωτεινη
πρωτεινης
πρωτεινων
πρωτες
πρωτευοντα
πρωτευουσα
πρωτευουσας
πρωτευουσες
πρωτη
πρωτην
πρωτης
πρωτιστως
πρωτο
πρωτοβαθμια
πρωτοβαθμιας
πρωτοβουλια
πρωτοβουλιας
πρωτοβουλιες
πρωτογενεις
πρωτογενη
πρωτοεμφανιστηκε
πρωτοι
πρωτοινδοευρωπαικη
πρωτοις
πρωτοκολλα
πρωτοκολλο
πρωτοκολλου
πρωτον
πρωτοπορος
πρωτοπορους
πρωτος
πρωτοστατησε
πρωτοτοκος
πρωτοτυπα
πρωτοτυπες
πρωτοτυπη
πρωτοτυπο
πρωτοτυπος
πρωτοτυπου
πρωτου
πρωτους
πρωτοχρονια
πρωτω
πρωτων
πτερυγα
πτερυγας
πτερυγες
πτερυγια
πτερυγων
πτερωμα
πτηνα
πτηνο
πτηνου
πτηνων
πτησεις
πτησεων
πτηση
πτησης
πτολεμαιδα
πτολεμαιδας
πτολεμαιο
πτολεμαιος
πτολεμαιου
πτολεμαιων
πτυχες
πτυχη
πτυχιο
πτωμα
πτωματα
πτωση
πτωσης
πτωχευση
πυγμαχια
πυγμαχιας
πυγμαχος
πυθαγορας
πυθια
πυθμενα
πυθομενος
πυκνα
πυκνη
πυκνο
πυκνοτητα
πυκνοτητας
πυλας
πυλες
πυλη
πυλης
πυλο
πυλος
πυλου
πυλων
πυρ
πυρα
πυραμιδα
πυραμιδας
πυραμιδες
πυραυλο
πυραυλου
πυραυλους
πυραυλων
πυργο
πυργοι
πυργον
πυργος
πυργου
πυργους
πυργων
πυρετο
πυρετος
πυρετου
πυρηνα
πυρηναια
πυρηναιων
πυρηνας
πυρηνες
πυρηνικα
πυρηνικη
πυρηνικης
πυρηνικο
πυρηνικου
πυρηνικων
πυρηνων
πυρι
πυριτιο
πυριτιου
πυρκαγια
πυρκαγιας
πυρκαγιες
πυροβολα
πυροβολει
πυροβολησε
πυροβολικο
πυροβολικου
πυροβολισμους
πυροβολο
πυροβολων
πυροδοτησε
πυρομαχικα
πυρομαχικων
πυρος
πυρρος
πυρρου
πυρσος
πυρων
πχ
πω
πωλ
πωλειται
πωληθηκαν
πωληθηκε
πωλησεις
πωλησεων
πωληση
πωλησης
πωλητης
πωλουνται
πωποτε
πως
ρ
ρα
ραβδι
ραβδος
ραβεννα
ραγδαια
ραγκαβη
ραγκμπι
ραδιο
ραδιον
ραδιοτηλεοπτικος
ραδιοφωνιας
ραδιοφωνικη
ραδιοφωνικο
ραδιοφωνικος
ραδιοφωνικου
ραδιοφωνο
ραδιοφωνου
ραδιως
ραιαν
ραινερ
ραις
ραιτ
ραιχ
ραλι
ραλλη
ραλλης
ραλφ
ραμον
ραμφος
ραντ
ρανταρ
ραντεβου
ραουλ
ραπ
ραπερ
ρας
ρασελ
ραυμονδος
ραφαελ
ραφαηλ
ραχη
ραψωδια
ρε
ρεαλ
ρεαλισμο
ρεαλισμου
ρεαλιστης
ρεαλιστικη
ρεει
ρεθυμνης
ρεθυμνο
ρεθυμνου
ρει
ρειμοντ
ρειντζερς
ρειτσελ
ρεκορ
ρεμα
ρεμπραντ
ρεν
ρενα
ρενε
ρενς
ρεντ
ρεπερτοριο
ρεπορταζ
ρεπουμπλικανικο
ρευμα
ρευματα
ρευματος
ρευματων
ρηγα
ρηγας
ρηγμα
ρηγος
ρημα
ρηματα
ρηματος
ρηματων
ρηνο
ρηνου
ρηξη
ρητα
ρητη
ρητο
ρητορας
ρητορικη
ρητορικης
ρητωρ
ρι
ριβερ
ριγα
ριζα
ριζας
ριζες
ριζικα
ριζος
ριζοσπαστης
ριζων
ρικ
ρικα
ρικο
ριμινι
ριμπαουντ
ρινγκ
ριντ
ριξει
ριο
ριου
ρισελιε
ριτα
ριτσαρντ
ριτσι
ριτσμοντ
ριχαρδο
ριχαρδος
ριχαρδου
ριχαρντ
ριχνει
ριχνοντας
ριχτερ
ριψη
ρο
ροβερτο
ροβερτος
ροβερτου
ρογηρος
ροδα
ροδιος
ροδο
ροδολφος
ροδον
ροδοπης
ροδος
ροδου
ροδων
ροες
ροζ
ροζα
ροζε
ροη
ροης
ροι
ροκ
ρολαν
ρολο
ρολογιου
ρολοι
ρολος
ρολου
ρολους
ρολων
ρομα
ρομαν
ρομαντικη
ρομαντικο
ρομαντισμο
ρομαντισμου
ρομπ
ρομπερ
ρομπερτ
ρομπερτο
ρομπερτς
ρομπιν
ρομπινσον
ρομποτ
ρομφαια
ρον
ροναλντ
ροουζ
ροουντ
ροπη
ρος
ροστερ
ροστοφ
ροτερνταμ
ροτζερ
ροτζερς
ρου
ρουαντα
ρουεν
ρουζβελτ
ρουθ
ρουμανια
ρουμανιας
ρουμανικα
ρουμανικη
ρουμανικης
ρουμανικο
ρουμανοι
ρουμανος
ρουμελη
ρουμπενς
ρουντολφ
ρουχα
ρουχο
ρουχων
ρυγχος
ρυζι
ρυζιου
ρυθμιζει
ρυθμιζεται
ρυθμιζονται
ρυθμικη
ρυθμισεις
ρυθμιση
ρυθμισης
ρυθμο
ρυθμος
ρυθμου
ρυθμους
ρυπανση
ρω
ρωμαικα
ρωμαικες
ρωμαικη
ρωμαικης
ρωμαικο
ρωμαικος
ρωμαικου
ρωμαικους
ρωμαικων
ρωμαιο
ρωμαιοι
ρωμαιοις
ρωμαιοκαθολικη
ρωμαιοκαθολικης
ρωμαιοκαθολικο
ρωμαιος
ρωμαιου
ρωμαιους
ρωμαιων
ρωμανος
ρωμανου
ρωμη
ρωμην
ρωμης
ρως
ρωσ
ρωσια
ρωσιας
ρωσιδα
ρωσικα
ρωσικες
ρωσικη
ρωσικης
ρωσικο
ρωσικος
ρωσικου
ρωσικων
ρωσο
ρωσοι
ρωσος
ρωσοσλαβονικη
ρωσου
ρωσους
ρωσων
ρωτα
ρωτησε
ς
σ
σα
σααμι
σαβα
σαββα
σαββας
σαββατο
σαββατοκυριακο
σαββατου
σαββιδης
σαβοιας
σαθας
σαι
σαιζον
σαιμον
σαιν
σαιντ
σαιξπηρ
σακελλαριου
σακης
σαλαμινα
σαλαμινας
σαλαντιν
σαλας
σαλβαδορ
σαλερνο
σαλι
σαλον
σαλονι
σαλτσα
σαλτσμπουργκ
σαλωμων
σαμ
σαμαρα
σαμαρας
σαμιουελ
σαμο
σαμοα
σαμος
σαμου
σαμουελ
σαμουηλ
σαμουραι
σαμσαρης
σαμψων
σαν
σανσκριτικα
σαντ
σαντα
σαντζακι
σαντιαγο
σαντορινη
σαντορινης
σαντος
σαντσο
σαξονες
σαξονια
σαξονιας
σαξοφωνο
σαο
σαουδικη
σαουδικης
σαουλ
σαρα
σαραγεβο
σαραγιεβο
σαραγοσα
σαραντα
σαρδηνια
σαρδηνιας
σαρκα
σαρκας
σαρκος
σαρλ
σαρλοτ
σαρξ
σαρτρ
σας
σασι
σασσανιδων
σατανα
σατιρα
σατραπης
σαυτον
σαφεις
σαφες
σαφη
σαφηνεια
σαφης
σαφως
σαχ
σαχαρα
σβεν
σβεριν
σε
σεαυτον
σεαυτω
σεβασμο
σεβασμου
σεβαστος
σεβιλλη
σεβιλλης
σεγας
σεζαρ
σεζον
σειμ
σειρα
σειρας
σειρες
σειρων
σεις
σεισμο
σεισμοι
σεισμος
σεισμου
σεισμους
σεισμων
σειχ
σελ
σελας
σελευκιδων
σελευκος
σεληνη
σεληνην
σεληνης
σελιδα
σελιδας
σελιδες
σελιδων
σελιμ
σελτζουκων
σελτικ
σελτικς
σεμιναρια
σεμιναριο
σεμπαστιαν
σεν
σενα
σεναρια
σεναριο
σεναριογραφος
σεναριου
σενεγαλη
σεντ
σενταν
σεντερ
σεξ
σεξουαλικα
σεξουαλικες
σεξουαλικη
σεξουαλικης
σεουλ
σεπαρντ
σεπτεμβρη
σεπτεμβριο
σεπτεμβριος
σεπτεμβριου
σερ
σεραφειμ
σερβια
σερβιας
σερβικα
σερβικη
σερβικης
σερβικο
σερβικου
σερβιρεται
σερβοι
σερβοκροατιας
σερβοκροατικη
σερβος
σερβους
σερβων
σεργιος
σεργκει
σερζ
σερι
σεριε
σερρες
σερρων
σεσιλ
σετ
σετιπανι
σεφ
σεφιλντ
ση
σηκουανα
σηκωθηκε
σηκωσε
σημ
σημα
σημαδι
σημαδια
σημαια
σημαιας
σημαιες
σημαινε
σημαινει
σημαινουν
σημανε
σημανση
σημαντικα
σημαντικες
σημαντικη
σημαντικης
σημαντικο
σημαντικοι
σημαντικος
σημαντικοτερα
σημαντικοτερες
σημαντικοτερη
σημαντικοτερο
σημαντικοτεροι
σημαντικοτερος
σημαντικοτερους
σημαντικου
σημαντικους
σημαντικων
σημασια
σημασιας
σημασιολογικο
σηματα
σηματοδοτει
σηματοδοτησε
σηματοδοτωντας
σηματος
σηματων
σημεια
σημειο
σημειογραφια
σημειον
σημειου
σημειωθει
σημειωθηκαν
σημειωθηκε
σημειωμα
σημειων
σημειωνει
σημειωνεται
σημειωνονται
σημειωνοντας
σημειωσαν
σημειωσε
σημειωσει
σημειωσεις
σημειωσεων
σημειωση
σημερα
σημερινα
[...]
