!
"
#
##0
##1
##10
##11
##12
##13
##14
##15
##16
##17
##18
##19
##2
##20
##21
##22
##23
##24
##25
##26
##27
##28
##29
##3
##30
##31
##32
##33
##34
##35
##36
##37
##38
##39
##4
##40
##41
##42
##43
##44
##45
##46
##47
##48
##49
##5
##50
##51
##52
##53
##54
##55
##56
##57
##58
##59
##6
##60
##61
##62
##63
##64
##65
##66
##67
##68
##69
##7
##70
##71
##72
##73
##74
##75
##76
##77
##78
##79
##8
##80
##81
##82
##83
##84
##85
##86
##87
##88
##89
##9
##90
##91
##92
##93
##94
##95
##96
##97
##98
##99
$
%
&
'
(
)
*
+
,
-
.
/
0
00
000
00000
0001
0008
001
002
003
004
005
006
007
008
009
01
010
011
012
013
014
0140
015
016
017
018
019
0195753038
02
020
021
024
0261
029
03
030
0307
033
035
0362
04
042
045
05
050
051
055
06
067
07
0781804264
08
080
08033994793
083
087
09
090
097
1
10
100
1000
1001
1002
1004
10053
1007
101
1016
1017
102
1029
103
1038
104
105
1056
106
1063
107
1073
108
1080
1086
109
1093
1095
1097
11
110
111
1111
112
1126
113
1136
114
1146
115
1158
1159
116
1163
117
1177
118
1186
119
12
120
1200
121
12148
122
123
1235
124
125
1250
126
127
128
129
13
130
1300
131
132
133
134
1349
135
1350
1353
1357
136
1365
137
1371
138
1385
139
1394
14
140
1400
141
142
143
144
145
1453
1459
146
14651858
1469
147
1471
148
149
1492
15
150
1500
151
1515
1517
152
153
154
1544
1545
155
1550
156
156890366
157
1570
1573
158
158663955
159
16
160
1600
1602
161
162
163
164
1642
165
1650
1652
166
1660
167
1670
168
1680
1689
169
17
170
1700
1701
1703
171
172
1723
1727
173
1734
174
1748
175
1750
1753
1754
1756
1758
1759
176
1760
1763
1768
1769
177
1770
1773
1774
1776
1779
178
1780
1781
1782
1783
1784
1787
1788
1789
179
1790
1791
1792
1793
1794
1795
1796
1797
1798
1799
18
180
1800
1801
1802
1803
1804
1805
1806
1807
1808
1809
181
1810
1811
1812
1813
1814
1815
1816
1817
1818
1819
182
1820
1821
1822
1823
1824
1825
1826
1827
1828
1829
183
1830
1831
1832
1833
1834
1835
1836
1837
1838
1839
184
1840
1841
1842
1843
1844
1845
1846
1847
1848
1849
185
1850
1851
1852
1853
1854
1855
1856
1857
1858
1859
186
1860
1861
1862
1863
1864
1865
1866
1867
1868
1869
187
1870
1871
1872
1873
1874
1875
1876
1877
1878
1879
188
1880
1881
1882
1883
1884
1885
1886
1887
1888
1889
189
1890
1891
1892
1893
1894
1895
1896
1897
1898
1899
19
190
1900
1901
1902
1903
1904
1905
1906
1907
1908
1909
191
1910
1911
1912
1913
1914
1915
1916
1917
1918
1919
192
1920
1921
1922
1923
1924
1925
1926
1927
1928
1929
193
1930
1931
1932
1933
1934
1935
1936
1937
1938
1939
194
1940
1941
1942
1943
1944
1945
1946
1947
1948
1949
195
1950
1951
1952
1953
1954
1955
1956
1957
1958
1959
196
1960
1961
1962
1963
1964
1965
1966
1967
1968
1969
197
1970
1971
1972
1973
1974
1975
1976
1977
1978
1979
198
1980
1981
1982
1983
1984
1985
1986
1987
1988
1989
199
1990
1991
1992
1993
1994
1995
1996
1997
1998
1999
2
20
200
2000
2001
2002
2003
2004
2005
2006
2007
2008
2009
201
2010
2011
2012
2013
2014
2015
2016
2017
2018
2019
202
2020
2021
2022
2023
2024
2025
2027
203
2030
204
205
2050
206
207
208
209
21
210
2100
2105
21069
211
212
213
214
215
216
217
218
219
22
220
221
222
223
224
225
226
227
228
229
23
230
2307
231
232
233
234
235
236
237
2371710
238
239
24
240
241
242
243
244
245
246
247
2470
248
249
24954393
25
250
2500
251
252
253
254
255
256
257
258
259
26
260
261
262
263
264
265
266
267
268
269
27
270
271
272
273
274
275
276
277
27733281
27733282
278
279
28
280
281
282
2821
283
284
285
286
287
288
289
29
290
291
292
293
294
295
296
297
298
299
3
30
300
3000
301
302
303
304
305
306
307
3077
308
309
31
310
31012
311
312
313
314
315
316
3166
31678
317
318
319
32
320
321
322
323
324
325
326
327
328
329
33
330
331
332
333
334
335
336
337
338
3389
339
3390
34
340
341
342
343
344
345
346
347
348
349
35
350
351
352
353
354
355
356
357
358
359
36
360
361
362
363
364
365
366
367
368
369
36906
37
370
371
372
373
374
375
376
377
378
379
38
380
381
382
383
384
385
386
387
388
389
39
390
391
392
393
394
395
396
397
398
399
4
40
400
4000
401
402
403
404
405
406
407
408
409
41
410
411
412
413
414
415
41586
416
417
418
419
42
420
421
422
423
424
425
426
427
428
429
43
430
431
432
433
4331
434
435
436
437
438
439
44
440
441
442
443
444
445
446
447
448
449
45
450
451
452
453
454
455
456
457
458
459
46
460
461
462
463
464
465
466
467
468
469
47
470
471
472
473
474
4744
475
476
477
478
479
48
480
481
482
483
484
485
486
48643
487
488
489
49
490
491
492
493
494
495
497
498
499
5
50
500
5000
501
502
503
504
505
5055577
506
507
508
509
51
510
511
512
513
514
515
517
518
519
52
520
521
523
525
527
528
53
530
531
532
533
534
535
536
537
538
5388903
539
54
540
541
542
543
544
546
547
5472
548
549
55
550
551
552
553
554
555
557
558
559
56
560
561
562
56285
563
565
566
567
568
57
570
572
573
574
575
576
577
578
579
58
580
581
582
583
585
586
587
588
589
59
590
591
592
594
595
596
598
599
6
60
600
6000
601
602
603
604
605
606
607
609
61
610
611
612
613
615
616
617
618
619
62
620
622
623
624
62456570
625
626
627
628
629
63
630
631
632
633
634
635
636
637
638
639
64
640
641
642
644
645
646
648578425
65
650
651
652
653
654
656
657
658
659
66
660
661
663
665
666
667
67
670
672
6736
674
675
677
679
68
680
6829
683
684
685
687
689
69
690
691
694
695
698
7
70
700
701
702
704
705
706
707
708
71
710
711
712
714
7146
715
716
717
718
719
72
720
725
727
729
73
730
731
732
7326
733
737
74
740
741
743
747
75
750
751
76
760
761
762
763
765
767
768
769
77
770
771
772
773
774
776
777
778
78
780
781
782
783
784
785
786
787
789
789781691157
79
790
794
795
8
80
800
8000
801
802
806
808
81
810
8108
812
813
8133
814
815
82
820
821
823
824
825
827
83
830
832
833
838
84
840
841
84162
842
843
846
849
85
850
852
853
854
857
86
864
866
87
870
871
875
878
879
88
880
881
883
884
889
89
890
890820657
894
897
898
899
9
90
900
903274
904
906
907
909
91
911
915
917
919
92
920
923
924
925
93
930
932
933
936
937
938
939
94
940
941
944
949
95
950
955
956
96
964
965
97
970
972
973
975
976
978
9780300122466
9781397330
978351682
9789781601157
978978161157
9789781691157
98
980
982
986
99
990
994
9964
999
:
;
<
=
>
?
@
[
\
]
^
_
`
a
aa
aaa
aaas
aali
aamir
aan
aare
aaron
ab
aba
ababa
ababan
ababen
ababio
abacha
abada
abakaliki
abala
aban
abandoned
abar
abarba
abasi
abass
abay
abayomi
abba
abban
abbas
abbasiyawa
abbe
abbey
abbott
abbr
abc
abd
abdalla
abdallah
abdel
abdelaziz
abdelkader
abderrahmane
abdi
abdo
abdou
abdoul
abdoulaye
abdourahmane
abdu
abducted
abdul
abdulai
abdulaziz
abdulhamid
abduljabbar
abdulkadir
abdulkareem
abdulkarim
abdullah
abdullahi
abdulmumin
abdulmumini
abdulmutallab
abdulrahaman
abdulrahman
abdulrazaq
abdulsalam
abdulsalami
abdur
abdurahman
abdurrahman
abe
abeba
abebe
abel
abena
abeni
abeokuta
aberdeen
abgerufen
abhishek
abi
abia
abida
abidine
abidjan
abigail
ability
abimbola
abin
abinci
abincin
abincinsu
abinda
abiodun
abiola
abisiniya
abiya
abkhazia
abla
able
ablekuma
abo
abokai
abokan
abokansa
abokantaka
aboki
abokin
abokina
abokinsa
abokiyar
aboriginal
abortion
abota
abou
abouba
aboubacar
aboulela
about
above
abraham
abrefa
abroad
abs
abstract
abstracts
abu
abuakwa
abubakar
abubuwa
abubuwan
abubuwanda
abudu
abuja
abul
abule
abun
abunda
abune
abura
aburi
abuse
abusua
abyssinia
abzinawa
abzinawan
ac
acacia
acade
academia
academic
academy
acc
access
accessdate
accessed
accident
accord
according
account
accountancy
accountant
accountants
accounting
accounts
accra
accused
accuses
ace
acf
acheampong
achebe
achi
achieve
achievement
achievements
achievers
achimota
acholonu
achour
achpr
aci
acid
acidic
aciki
acikin
acikinsa
acn
acp
acquah
acquisition
acre
acres
across
acs
act
acta
acting
action
active
activism
activist
activists
activities
activity
actor
actors
actress
actresses
acts
actualite
actually
acute
ad
ada
adabi
adabin
adadevoh
adadi
adadin
adadinsu
adae
adaji
adaku
adalci
adalcin
adam
adama
adamawa
adams
adamu
adan
adana
adanai
adanan
adanawa
adance
adangbe
adansi
adaobi
adaora
adaptation
adapted
adar
adara
adavi
adawa
adawar
adawarsa
adb
adc
add
adda
addabar
addabi
addan
addanci
addancin
addar
added
addinai
addinan
addini
addinin
addininsa
addininsu
addis
additional
addo
address
adds
addu
addy
ade
adebayo
adebisi
adebiyi
adebola
adebowale
adeboye
adebule
adebutu
adedayo
adedeji
adedibu
adediran
adedoyin
adefarasin
adegbite
adegboyega
adegoke
adekanye
adekola
adekoya
adekunle
adel
adelabu
adelaide
adele
adeleke
ademola
ademoye
aden
adeniji
adenike
adeniran
adeniyi
adenocarcinoma
adenomatous
adenowo
adenuga
adeola
adeosun
adeoye
aderinokun
adesanya
adesina
adesola
adesua
adesuwa
adetiba
adewale
adeyemi
adeyemo
adeyeye
adeyinka
adhd
adi
adiac
adichie
adidas
adin
adinai
adinan
adinkra
adinsa
adireshi
adireshin
adiresoshin
adisa
adjaho
adjei
adjetey
adjuvant
adler
adly
admin
administration
administrative
administrator
admiral
admission
admits
adnan
ado
adolescent
adolf
adom
adomako
adomonline
adon
adopted
adoption
adrian
adu
adua
aduana
adult
adults
adun
adunni
adunsa
adunsu
aduwa
advance
advanced
advancement
advances
advantage
adventist
adventure
adventures
advertising
advice
adviser
advisor
advisory
advocacy
advocate
advocates
adwoa
ae
aerosol
aerospace
af
afa
afar
afc
afcon
afdb
afemai
afenyo
affair
affairs
affan
affected
affecting
affleck
affordable
afganistan
afghanistan
afi
afia
afigya
afikpo
afirilu
afirka
afizere
afka
afkawa
afku
afl
afolabi
afolayan
afonja
afp
afram
afrc
africa
africain
africaine
africaines
african
africana
africanews
africans
africine
africultures
afrifa
afrik
afrika
afrikaans
afrilu
afrilun
afrinvest
afrique
afriyie
afro
afrobasket
afrobeat
afrobeats
after
aftonbladet
afua
afurka
afuwa
afuwar
ag
aga
agadez
again
against
agaji
agajin
agarwal
agatha
agave
agba
agbada
agbaje
agbede
agbo
agbor
agbowa
age
aged
agege
agence
agencies
agency
agenda
agenebode
agent
agents
ages
agf
aggrey
agha
aghanya
aging
agnes
ago
agogo
agogon
agona
agou
agree
agreement
agric
agricultural
agriculture
agu
aguda
aguiyi
aguleri
agusta
agustan
agwagwa
agwu
agya
agyapong
agyekum
agyeman
agyemang
ah
ahafo
ahalin
ahanta
ahead
ahidjo
ahl
ahlhaus
ahli
ahlul
ahlus
ahly
ahmad
ahmadi
ahmadiyya
ahmadu
ahmed
ahmedabad
ahmet
ahram
ai
aia
aibu
aicha
aid
aida
aide
aidoo
aids
aig
aigbe
aigner
aika
aikace
aikacen
aikaci
aikacin
aikaciyar
aikata
aikatan
aikatansa
aikatansu
aikatanta
aikatar
aikatau
aikatawa
aikatu
aikatun
aikawa
aike
aikewa
aiki
aikin
aikinsa
aikinsu
aikinta
aiko
aim
aiman
aime
aims
ain
aina
ainihi
ainihin
air
airborne
airbus
aircraft
aires
airline
airlines
airport
airports
airtel
airways
ais
aise
aisha
aishatu
aishwarya
ait
aiwatar
aiwatarwa
aiyuka
aiyukan
aj
aja
ajabi
ajaccio
ajah
ajaka
ajala
ajali
ajami
ajanda
ajandar
ajantina
ajasin
ajax
ajay
ajayi
aje
ajegunle
aji
ajibade
ajibola
ajikin
ajimobi
ajin
ajiya
ajiyar
ajiye
ajmi
ajose
ajujuwa
ajunwa
ak
aka
akaagerger
akafi
akai
akalar
akalla
akan
akanbi
akande
akans
akanta
akanyi
akara
akari
akasari
akasarin
akasarinsu
akasin
akawu
akayi
akbar
akbishop
ake
akekira
akeredolu
akerele
akewa
akeyi
akeyin
akhtar
akhundzada
aki
akida
akidar
akide
akidun
akihito
akilu
akim
akin
akinbobola
akindele
akinola
akinsola
akintola
akinwumi
akinwunmi
akinyele
akitoye
akko
ako
akobo
akoka
akoko
akosombo
akosua
akoto
akpa
akpabio
akpan
akram
akrobeto
akropong
akshay
aku
akua
akuapem
akuapim
akuffo
akufo
akunyili
akure
akuya
akwa
akwaeke
akwai
akwamu
akwasi
akwasidae
akwati
akwatia
akwatin
akwatunan
akyem
al
ala
alaa
alaafin
alaba
alabama
alabi
alade
aladu
alaihi
alain
alaka
alakanta
alakar
alake
alakija
alal
alam
alama
alamar
alamieyeseigha
alamomi
alamomin
alamu
alamun
alan
alao
alaska
alassane
alatu
alawus
alaƙa
alaƙar
alba
albam
alban
albani
albania
albanian
albaniya
albany
albarka
albarkace
albarkaci
albarkacin
albarkar
albarkatu
albarkatun
albasa
albashi
albashin
albert
alberta
albertine
alberto
albertville
albion
albishir
albright
album
albums
albuquerque
alca
alcatel
alcohol
aldershot
ale
alec
alegi
alemu
aleppo
alert
alex
alexa
alexander
alexandra
alexandre
alexandria
alexis
alf
alfa
alfahari
alfarma
alfijir
alfonso
alfred
algae
alge
algebra
alger
algeria
algerian
algerie
algeriya
algiers
algorithm
algorithms
alh
alhaja
alhaji
alhaki
alhakin
alhali
alhamis
alhassan
alhazai
alheri
alherin
ali
alia
alib
alice
aliero
alif
align
aliko
alimi
alimosho
alioski
aliou
alison
aliu
alive
aliyu
aljanna
aljannah
aljanu
aljazeera
aljeriya
aljihu
alka
alkahira
alkalai
alkalami
alkalan
alkalanci
alkali
alkalin
alkaliya
alkaluman
alkalumman
alkama
alkasum
alkawari
alkawarin
alkawuran
alkawurran
alkibla
alkiblar
alkur
all
alla
allafrica
allah
allahiya
allahn
allahntaka
allahntakar
allahu
allaka
allama
allan
allande
alleged
allen
allergy
alley
alli
alliance
allianz
allied
allies
allison
allmusic
allo
allocated
alloli
allon
allotey
allowed
allsopp
allsvenskan
allu
allunan
allura
allurai
alluran
allurar
allure
alma
almajirai
almajiran
almajiransa
almajiri
almajirin
almakashi
almanac
almara
almarar
almasihu
almeri
almost
almubazzaranci
aloe
alokacin
alone
along
alooma
alpha
alphabet
alpine
alps
alqur
alqurani
already
also
alt
altamira
alter
alternative
although
altizer
alto
alu
aluko
aluminium
aluminum
alumma
alumni
alurar
alves
alvin
alwala
alwali
alwashin
always
aly
alzheimer
alƙalai
alƙalami
alƙali
alƙalin
alƙaluma
alƙawari
alƙawarin
alƙawura
alƙibla
alƙur
am
ama
amaa
amaarae
amadi
amadou
amadu
amaechi
amai
amaka
amakye
amal
amala
amalar
aman
amana
amanar
amanda
amani
amannar
amar
amari
amarin
amarteifio
amartey
amarya
amata
amateur
amato
amatsayin
amazing
amazon
amazons
amb
ambace
ambaci
ambaliya
ambaliyar
ambasada
ambasadan
ambassador
ambassadors
ambata
ambato
ambaton
amber
ambition
ambode
ambrose
ame
ameh
amelia
amended
amendment
amenfi
america
american
americans
americas
ames
ameyaw
amfana
amfanar
amfani
amfanin
amfo
amhara
amharic
amherst
ami
amid
amiens
amin
amina
amince
amincewa
amincewar
amincewarsa
amincewarsu
aminci
amincin
aminin
aminiya
amino
aminta
amintacce
amintaccen
amintattu
amintattun
aminu
amir
amirka
amirul
aml
amma
ammad
amman
ammar
ammonia
amna
amnesty
amo
amoah
amoako
amon
among
amoo
amor
amoretti
amos
amosun
amp
ampofo
amponsah
amr
amsa
amsar
amsawa
amsawar
amshi
amsoshi
amsoshin
amsterdam
amura
amuran
amurika
amurka
amurkan
amurkawa
amurke
amurkiya
amurra
amurran
amusa
amuwo
amvca
amy
an
ana
anaang
anaerobic
analog
analysis
anam
anambara
anambra
anan
anane
anang
ananse
anaphylaxis
anar
anarsa
anarta
anas
anatolia
anatomy
anayin
anc
ance
anchor
anci
ancient
and
anda
andah
andalus
anderlecht
anders
andersen
anderson
andhra
andorra
andre
andrea
andreas
andrei
andrew
andrews
andriy
android
andy
anemia
anenih
anfani
anfi
anga
angel
angela
angeles
angelo
angelou
angels
angers
angiogenesis
angle
anglia
anglican
anglo
anglophone
ango
angola
angolan
angon
angry
angus
angyu
ani
anil
animal
animals
animation
anime
anin
aniocha
anioma
anita
aniyar
aniyarsa
anjali
anjorin
anka
ankara
ankobra
ankomah
ankrah
anlo
anloga
ann
anna
annabawa
annabawan
annabci
annabi
annabin
annabta
annals
annan
annang
annashuwa
annati
anne
annette
annex
annie
anniversary
annoba
annobar
annotated
announce
announced
announcement
announces
annuaires
annual
ano
anokye
anomabu
anon
anoni
anonymous
another
anozie
anpp
ans
ansa
ansah
ansar
ansari
anse
ansu
answer
answers
anta
antar
antarctic
antarctica
antelope
anthem
anthology
anthony
anthropogenic
anthropological
anthropology
anti
antigen
antiquity
antiviral
antle
anto
antoine
antoinette
anton
antonio
antony
antu
antun
antwerp
antwi
anwar
any
anya
anyanwu
anyebe
anyi
anyone
ao
aofiyebi
aosta
aoste
aowin
ap
apa
apache
apam
apapa
apart
apata
apc
apga
api
apollo
apoo
apoptosis
apostle
apostolic
app
appeal
appeals
appear
appearance
appearances
appeared
appelle
appiah
apple
apples
application
applications
applied
appoint
appointed
appointment
appointments
appoints
approach
approaches
approved
approves
apr
apraku
aprelu
april
aps
apwen
aquarium
aquinas
ar
ara
arab
araba
arabba
arabe
arabi
arabia
arabian
arabic
arabiya
arabs
arafa
arafah
arafat
arago
araha
aramaic
aranar
arangama
arase
arba
arbitration
arbor
arc
arcade
arch
archaeological
archaeology
archbishop
archdiocese
arche
archer
archibald
archibong
architect
architects
architectural
architecture
archive
archived
archivedate
archives
archiveurl
archnet
arctic
arden
ardo
are
area
areas
arebiya
aregbesola
aremu
arena
arewa
arewaci
arewacin
argentina
argument
arguments
argungu
argyle
arha
ari
arif
arild
arin
arinze
ariri
aris
aristotle
arizona
arjun
ark
arkansas
arlauskis
arlington
arm
armagh
armah
armando
arme
armed
armenia
armenian
armeniya
armes
armored
arms
armstrong
army
arna
arnhem
arnold
aro
arochukwu
aromatic
aron
around
arre
arrest
arrested
arrests
arrives
arrondissement
ars
arsa
arse
arsenal
arsenic
arsu
art
arta
artabu
arthritis
arthur
article
articles
artificial
artillery
artist
artiste
artistic
artists
arts
artwork
aru
aruwa
arxiv
aryan
arzani
arzika
arziki
arzikin
arzikinsu
arzikinta
arziƙi
arziƙin
as
asa
asaba
asabar
asabe
asad
asafo
asali
asalin
asaline
asalinsa
asalinsu
asalinta
asamoah
asan
asante
asantehene
asanteman
asantes
asantewaa
asar
asara
asarar
asare
asashen
asbestos
asean
asebu
asenso
ash
asha
ashafa
ashanti
ashantis
ashe
ashekara
asher
ashes
ashgate
ashirin
ashiru
ashirya
ashitey
ashley
ashoka
ashraf
ashton
ashura
ashworth
asi
asia
asiamah
asian
asiatic
asibiti
asibitin
asibitoci
asibitocin
asiedu
asin
asirce
asiri
asirin
asiwaju
asiya
ask
aske
asked
aski
askia
asks
asma
asmah
asmara
asnanic
aso
asokwa
asosa
asp
aspects
aspen
aspirin
aspx
asqalani
ass
assad
assam
assasa
assassination
assault
assemble
assembly
assessing
assessment
asset
assets
assin
assis
assistance
assistant
associate
associated
associates
association
associations
associationungiyar
assuriya
asteroid
asthma
aston
astrazeneca
astronomical
astronomy
asturian
asturias
asu
asuba
asunafo
asusu
asusun
asuu
aswan
asylum
asymptomatic
at
ata
atalanta
atebubu
atewa
ath
athens
athlete
athletes
athletic
athletics
athol
ati
atiku
ation
atisaye
atisayen
atkinson
atlanta
atlantic
atlantics
atlantika
atlantis
atlas
atle
atm
atmospheric
ato
atoll
atom
atomatik
atomic
atoni
atp
atr
atrium
atta
attack
attacks
attah
attahiru
attajirai
attajiran
attajiri
attajirin
attempt
attend
attention
attoh
attorney
attributes
atu
atwater
atwima
atyap
au
aubrey
aubry
auburn
auchi
aucho
auckland
audience
audio
audiovisual
audit
audrey
audu
auduga
auf
aug
augie
augoye
august
augusta
augustan
auguste
augustine
augustus
auku
aukuwa
aukuwar
auley
aun
auna
aunan
aunawa
auni
aunin
auntie
aur
aura
aurar
aurata
auratan
auratayya
aure
auren
aurensa
aurensu
aurenta
auri
aurora
aus
austen
austin
australia
australian
australiya
austria
austrian
austriya
auta
author
authorities
authority
authors
autism
auto
autobiography
autogenerated
autosomal
autumn
auwal
aux
auyaku
av
available
avance
avant
ave
avec
avengers
avenue
average
aves
aviation
avicenna
aviv
avoid
avril
aw
awa
awaki
awal
awan
awanni
awar
award
awarded
awards
aware
awareness
awarsa
awarta
awash
away
awaziem
awde
awf
awiya
awka
awlaki
awo
awojobi
awolowo
awon
awoniyi
awori
awujale
awutu
awwal
axim
axis
axworthy
ay
aya
ayaba
ayam
ayan
ayanzu
ayar
ayari
ayarin
ayasofya
ayatollah
ayatullah
ayau
aye
ayeni
ayesha
ayew
ayi
ayim
ayin
ayinla
ayinsa
ayinsu
ayinta
ayisi
ayman
ayn
ayo
ayodeji
ayodele
ayoola
ayoub
ayoyi
ayoyin
ayoyinsa
ayoyinsu
ayuba
ayyana
ayyubid
ayyuka
ayyukan
ayyukansa
ayyukansu
ayyukanta
az
aza
azaba
azabar
azabtar
azabtarwa
azad
azahar
azam
azaman
azanci
azare
azeem
azeez
azerbaijan
azerbaijani
azhar
azi
azikiwe
azin
aziyya
aziz
aziza
azo
azonto
azu
azumah
azumi
azumin
azure
azurfa
azuzuwan
azzara
aƙalla
b
ba
baah
bab
baba
babagana
babajide
babalakin
babalola
baban
babangida
babatu
babatunde
babba
babban
babbar
babcock
babel
babes
babi
babies
babila
babin
babu
babur
babura
baby
bacci
bace
bacewa
bacewar
bach
bachchan
bachelor
baci
bacin
back
background
backs
bacon
bad
bada
badagry
badakalar
badal
badamasi
badar
badaru
badawi
bade
baden
badminton
badmus
badr
badu
bae
bafana
bafarawa
baffour
bafta
baftisma
bafulatani
bag
bagadaza
bagaja
bagauda
bagbin
baggara
baghdad
baghdadi
bags
bagwai
bah
baha
bahamas
bahar
bahaushe
bahia
bahir
bahrain
bai
baiano
baibul
baida
bail
bailey
bainar
baird
bait
baiti
baitul
baitulmali
baiwa
baiwar
baiyana
baiyi
bajamushe
baje
bajinta
bajintar
baka
bakake
bakaken
bakan
bakar
bakare
bakary
bakassi
baker
baki
bakin
bakinsa
bako
bakon
bakori
bakr
bakri
baku
bakuncin
bakwai
bal
bala
balad
balaga
balagagge
balaguro
balaguron
balance
balarabe
balde
baldwin
bale
balewa
bali
balkan
balkans
ball
balle
ballet
ballewa
ballon
balogun
balonwu
baltic
baltimore
bam
bama
bamai
bamako
bamalli
bamba
bamban
bambance
bambancen
bambanci
bambancin
bambanta
bambara
bambaro
bamberg
bamboo
bamenda
bamford
bamgbose
bami
bamidele
bamise
bamu
bamuda
ban
bana
banana
banbance
banbanci
banbancin
banbanta
band
banda
bandama
bande
bandits
bandura
bandwidth
bane
bang
banga
bangalore
bangaranci
bangare
bangaren
bangarori
bangarorin
bangaskiya
bangaskiyar
bangkok
bangladesh
bango
bangon
bangor
bangoura
bangui
bangura
bani
banin
banjul
bank
banki
bankin
banking
bankole
banks
banku
bankuna
bankunan
bankwana
banky
banned
banner
bannerman
banque
bans
bantama
bantu
banu
banza
banƙyama
baobab
baptist
baptiste
baqi
bar
bara
barack
baraka
barakat
baranda
barasa
barau
barawo
barayi
barayin
barazana
barazanar
barbados
barbara
barbashi
barber
barbushe
barc
barcelona
barci
barclay
barclays
barda
barde
bare
barebari
barewa
bargery
bargo
bari
bariba
bariga
bariki
barikin
barin
barista
barka
barke
barker
barkewar
barkindo
barkono
barkwanci
barkwancin
barley
barlow
barna
barnabas
barnar
barnard
barnes
barnett
barno
barns
barnsley
baro
baroka
baron
baroness
baroque
barr
barre
barrett
barrister
barron
barrow
barry
bart
bartels
barth
bartholomew
bartlett
barton
baru
bas
basa
basal
basarake
basaraken
basasa
basasar
base
baseball
based
basel
baseline
bash
bashar
bashi
bashin
bashir
bashorun
basic
basics
basil
basilica
basin
basir
basira
basirar
basis
basket
basketball
basmah
basmala
basque
basra
bass
bassa
bassey
bastien
basu
bat
bata
bataliya
bataliyar
batanci
batare
batch
bath
batirin
batista
batlle
bats
batsa
battalion
battle
battleford
battles
batu
batun
batura
bature
baturke
batutuwa
batutuwan
bauchi
bauer
bauna
bauta
bautan
bautar
bautawa
bauxite
bavaria
bawa
bawai
bawan
bawku
bawo
bawon
bawul
bay
baya
bayada
bayahude
bayajidda
bayan
bayanai
bayanan
bayanansa
bayani
bayanin
bayansa
bayansu
bayanta
bayar
bayarwa
bayelsa
bayer
bayern
bayero
bayi
bayin
bayinsa
bayo
bays
bayt
bayyana
bayyananne
bayyananniyar
bayyanar
bayyanarsa
bayyanawa
bayyane
bayyani
bayyanuwa
baz
baza
bazaar
bazai
bazan
bazara
bazarar
bazata
bazawara
baze
bazoum
bazu
bazuwa
bazuwar
baƙar
baƙaƙe
baƙaƙen
baƙi
baƙin
baƙo
baƙon
baƙuncin
bb
bbc
bc
bcs
bd
bde
bdfutbol
be
beach
beads
bean
bear
bearman
bears
beast
beat
beatrice
beats
beatz
beautiful
beauty
beaver
bebaye
bebeji
became
because
beck
becker
beckerlegge
beckham
beckoned
become
becomes
becoming
bed
bedford
bedoon
bedouin
bee
been
beer
bees
beethoven
before
began
bege
begin
beginning
begins
begum
beguwa
behavior
behind
bei
beijing
being
beirut
beit
bekwai
bel
belai
belarus
belfast
belfodil
belgian
belgium
belgrade
beli
beliefs
believe
belin
belinda
belize
beljiyam
bell
bella
bellanaija
belle
bello
bellview
belmont
belnap
belo
belt
ben
benaye
benazir
bench
benci
bend
bendel
bender
bene
benedict
benefit
benefits
benen
benfica
bengal
bengali
bengals
bengaluru
benghazi
beni
benin
benishangul
benjamin
bennacer
bennett
benny
benrahma
benson
bent
benue
benuwai
benuwe
benyiwa
benyu
benz
benzene
ber
bera
beraye
berber
berekum
berezovsky
berg
bergen
berger
berkeley
berkshire
berla
berlin
berlinale
bermuda
bern
bernard
bernardo
berners
bernie
bernstein
berom
berry
bert
bertrand
beryl
bes
best
bet
beta
beth
bethune
betis
better
betty
between
beverly
bewley
bey
beyonce
beyond
bez
bf
bfi
bh
bharti
bhasera
bhd
bhi
bhutan
bhutto
bi
bia
biafra
biafran
bianquis
bibcode
bibi
bibiyar
bible
biblical
bibliography
bic
bichi
bid
bida
bidayuh
biden
bidi
bidiyo
bidiyon
bids
biennale
bifouma
big
biggest
bight
bihar
bijirewa
biki
bikin
bikoro
bikpakpaam
bil
bilal
bilbao
biliyan
biliyoyin
bilkisu
bill
billboard
billion
billionaire
billiri
bills
billy
bilma
bimbo
bin
binary
bincika
bincikar
bincike
binciken
bincikensa
bincikensu
bincikenta
binciki
binciko
bindiga
bindigar
bindigogi
bindigogin
bing
bini
binne
binnewa
bint
binta
binuwai
bio
biochemical
biochemistry
biodiversity
biodun
biographical
biographies
biography
bioko
biological
biology
biomarkers
biomass
biopsy
bios
biosphere
biotechnology
bipolar
bir
birai
biram
birane
biranen
birch
bird
birdlife
birds
biredi
birgediya
birgewa
birgima
biri
birim
biris
biritaniya
birki
birmingham
birne
birni
birnin
birninsu
birninta
biro
birtaniya
birtaniyya
birth
birthday
bis
bisa
bisaga
bisani
bisexual
bishara
bisharar
bishiya
bishiyar
bishiyoyi
bishiyoyin
bishiyu
bishop
bishops
bisi
bisola
bissa
bissau
bissouma
bit
bita
bitamin
bitar
bitcoin
bitrus
bitter
biu
biya
biyafara
biyan
biyansu
biyar
biyayya
biye
biyo
biyu
biyun
biz
biza
bj
bk
bl
black
blackadder
blackburn
blackpool
blackwell
blair
blaise
blake
blakk
blame
blanche
blast
blasts
blay
blench
blerf
blessing
blica
blida
blind
blinx
block
blocks
bloemfontein
blog
blogger
blogs
blogspot
blood
bloom
bloomberg
bloomington
bloomsbury
blossom
blow
blue
blueprint
blues
bm
bmc
bmj
bn
bnf
bo
boa
boachi
boadu
boafo
boahen
boakye
board
boat
boateng
boavista
bob
bobboyi
bobby
bobo
bobrisky
boca
bochum
bode
boden
bodies
body
boeing
boggo
bogi
bogota
bohdan
boi
boiro
bois
bokanci
bokar
bokki
boko
bol
bola
bolaji
bolanci
bolanle
bold
bole
bolgatanga
boli
bolin
bolivia
bollywood
bologna
bolt
bolton
bom
boma
bomb
bombardier
bombay
bombing
bombino
bon
bond
bone
bongo
bonham
boni
boniface
bonn
bonnie
bonny
bono
bonsu
boo
book
booker
books
boomplay
boost
boot
booth
bordeaux
border
borders
bore
boren
borgu
bori
boris
born
borneo
borno
bornu
boro
borough
borrowed
bortniansky
borussia
bosch
bose
bosnia
bosniya
bosome
bosomtwe
boss
bosso
boston
bosworth
bot
botanical
botany
boteti
both
botswana
bou
bouba
boubacar
boufal
bougainville
boulaye
boulder
boulevard
boulogne
boumerdassi
boumerde
bound
boundaries
bounou
bourgeois
bourguiba
bournemouth
boushaki
boutella
bovi
bow
bowen
bowl
bowling
box
boxing
boxrec
boy
boyd
boydell
boye
boys
bp
bpt
br
bracket
brad
bradford
bradley
bradman
bradshaw
bradt
brady
braga
brahim
braimah
brain
braithwaite
branch
brand
brandon
brandt
brasil
brasileiro
brass
brazil
brazilian
brazzaville
brca
bread
break
breakfast
breaking
breaks
breakthrough
breast
breastfeeding
bredenbury
bremen
brenda
brendan
brennan
brenner
brent
brentford
brest
brett
brewer
breweries
brewster
brexit
brian
bribe
bribery
brick
bride
bridge
bridges
bridget
bridie
brief
briefing
brien
briercrest
brigade
brigadier
briggs
bright
brighton
brigitte
brill
brilliant
bring
bringing
brings
brink
brisbane
bristol
britain
britannia
britannica
british
brittle
brno
broad
broadcast
broadcaster
broadcasting
broadway
brobbey
broke
broken
bromwich
broncos
brong
bronx
bronze
brook
brooke
brookfield
brookings
brooklyn
brooks
bros
brother
brotherhood
brothers
brought
brown
browne
browns
brt
bruce
brugge
brume
brunei
brunel
bruno
brunswick
brussels
bryan
bryant
bryce
brøndby
bs
bsa
bsc
bsg
bu
buari
buba
buchan
bucharest
buchi
buck
buckingham
bud
buda
budaddiyar
budapest
buddah
budden
buddha
buddhist
bude
budewa
budget
budgit
buduma
budurwa
budurwar
budurwarsa
buell
buenos
buff
buffalo
buga
bugaje
bugawa
buge
bugi
bugu
bugun
buguwa
buhari
buhu
buhunan
bui
build
building
buildings
built
bujumbura
buk
bukace
bukaci
bukar
bukata
bukatan
bukatar
bukatu
bukatun
bukatunsu
bukha
bukhari
buki
bukin
bukkoki
bukky
bukola
bukom
bukukuwa
bukukuwan
bulala
bulama
bulawayo
bulgaria
bulgarian
bull
bullar
bulletin
bullo
bulls
bulo
bulus
bundesliga
bundestag
bundu
buni
bunkasa
bunkasar
bunkure
bunmi
bunny
bunu
bunza
bunƙasa
bunƙasar
bura
buraq
buratai
burbushin
burden
bure
bureau
burge
burgewa
buri
burial
buried
burin
burinsa
burinsu
burinta
burji
burke
burkina
burkinabe
burlington
burma
burn
burna
burnham
burning
burnley
burns
burodi
burtaniya
burton
burtsatse
burumawa
burundi
burutu
bury
bus
busa
busari
busasshen
busasshiyar
busassun
busby
bush
bushara
bushe
bushewa
bushewar
bushiya
busia
business
businessday
businessghana
busquets
bussa
busse
but
butler
butre
butterfly
bututu
bututun
buwa
buy
buya
buyla
buzz
buƙaci
buƙata
buƙatar
buƙatu
buƙatun
buɗaɗɗen
buɗe
buɗewa
buɗewar
bv
bwf
by
byanyima
bye
byrne
byron
byzantine
c
ca
caa
caba
cabinet
cable
cabo
cac
caca
cacar
caccaki
cad
cadastral
cadet
cadi
cadmium
caen
caesar
caf
cafe
cafke
cafonline
cai
cairo
caje
caji
cajin
cak
cake
cakuda
cakulan
calabar
calabash
calcium
calcutta
caldwell
caleb
calendar
calgary
california
caliphate
call
called
calling
calls
calvin
camara
camargo
camberley
cambodia
cambridge
came
camera
cameron
cameroon
cameroonian
cameroun
camfi
camila
camilla
camp
campaign
campaigns
campbell
campeonato
campesina
campo
campus
can
canada
canadian
canal
canary
canberra
cancanci
cancanta
cancantar
cancer
cancers
candace
candidate
candidates
candle
candy
cangas
canja
canjaras
canjawa
canje
canjen
canji
canjin
canmp
cannabis
cannes
cannon
cannot
canon
canonization
canterbury
canton
cantonese
canza
canzawa
cao
cap
capacity
cape
capital
capitalism
capitol
cappella
caps
captain
car
cara
carbon
carbonate
carcinogenesis
carcinogenic
carcinogens
carcinoma
carcinomas
card
cardiff
cardinal
cardinals
cardiovascular
care
career
cargo
caribbean
carina
caritas
carl
carlisle
carlo
carlos
carlton
carmen
carnegie
carnival
carol
carole
carolina
caroline
carolyn
carpet
carr
carroll
cars
carson
carta
carte
carter
carthage
cas
casa
casablanca
casbah
case
casely
cases
casey
cash
cass
cassava
cassin
cast
castile
castillo
casting
castle
castles
castro
cat
catalan
catalog
catalonia
catarina
category
cathe
cathedral
catherine
catholic
caucasus
caucus
caught
causa
cause
caused
causes
cave
cb
cbc
cbd
cbe
cbn
cbs
cc
ccc
ccecc
cctv
cd
cdc
cdp
cds
ce
cecafa
cece
ceci
cecil
cecilia
cedar
cedaw
ceesay
celebrate
celebrated
celebrates
celebrating
celebration
celebrities
celebrity
cell
cello
cells
celta
celtic
cement
cemetery
census
cent
centenary
center
centers
central
centre
centres
centro
centuries
century
centurycomm
ceo
cep
cercle
ceremony
certain
certificate
certification
certified
cervical
cervix
cescr
cesr
ceto
ceton
cewa
cewar
cewarsa
ceyar
ceylon
cf
cfa
cfb
cfi
cfr
cg
cgi
cgs
ch
cha
chad
chadi
chadian
chadic
chahine
chai
chair
chairman
chairperson
chale
challawa
challenge
challenges
chamba
chamber
chamberlain
chambers
champagne
champaign
champion
championnat
champions
championship
championships
champs
chan
chance
chancellor
chanchangi
chang
change
changed
changes
changing
channel
channels
channelstv
chaos
chapel
chaplin
chapman
chapter
character
characteristics
characters
charan
charge
charged
charges
chari
charity
charleroi
charles
charlie
charlotte
charlton
chart
charter
chartered
charts
chase
chastain
chat
che
check
chef
chefs
cheick
cheiffou
cheikh
chekan
chelsea
chemical
chemicals
chemistry
chemotherapy
chen
cheney
cheng
chennai
cherif
chernobyl
cherokee
cherry
chess
chessgames
chester
chevron
chez
chhattisgarh
chi
chiang
chibok
chicago
chicken
chico
chidi
chidinma
chidoka
chidozie
chidumga
chief
chiefdom
chiefs
chieftaincy
chigul
chika
chike
chikun
child
childhood
children
chile
chima
chimamanda
chimpanzee
chimpanzees
chin
china
chinda
chinedu
chinese
chineze
chinua
chinwe
chinyere
chioma
chip
chirac
chiroma
chisholm
chivu
chloride
cho
chocolate
choice
choir
cholesterol
choose
chopra
choral
chosen
choupo
chowdhury
chre
chris
christ
christchurch
christian
christianity
christians
christie
christina
christine
christmas
christoph
christophe
christopher
christy
chromium
chromosomal
chromosome
chromosomes
chronic
chronicle
chronicles
chronology
chu
chuba
chuck
chuks
chukwu
chukwuemeka
chukwujekwu
chukwuka
chukwuma
chun
chunda
chung
church
churches
churchill
ci
cia
cibiya
cibiyar
cibiyoyi
cibiyoyin
cid
cif
cigaba
cigaban
cika
cikakke
cikakken
cikakkiyar
cikakkun
cikar
cikas
cikawa
cike
ciki
cikin
cikinsa
cikinsu
cikinta
cim
cimma
cin
cincinnati
cindy
cine
cinema
cinemas
cinematic
cinematographer
cinematography
cineuropa
cinikayya
cinikayyar
ciniki
cinikin
cinya
cinye
cinyewa
cio
cir
cirani
circle
circuit
circulation
circus
cire
cirewa
cirewar
ciro
ciroma
cirrhosis
cis
cisse
cit
cita
citadel
citation
citations
cite
cited
citerefipcc
cites
citeseerx
citi
cities
citifmonline
citinewsroom
citing
citizen
citizens
citizenship
citrus
citta
city
civic
civil
civilians
civilization
ciwace
ciwacen
ciwo
ciwon
ciyar
ciyarwa
ciyawa
ciyawar
ciyayi
ciye
cizo
cizon
cj
cjn
ck
cl
claim
claims
clair
claire
clan
clara
clare
clarence
clarendon
clark
clarke
clash
class
classe
classic
classical
classics
classification
classified
claude
claudia
clay
clayton
cle
clean
clear
clement
clemons
clemson
cleopatra
cleric
clerk
clermont
cleveland
clifford
climate
clin
clinic
clinical
clinics
clinton
clio
clive
clock
close
closed
closes
closing
closure
cloth
cloud
club
clube
clubs
cluster
cm
cms
cn
cnbc
cnn
co
coach
coal
coalition
coast
coastal
cobb
coca
cochrane
coci
cocin
cocoa
code
codes
coe
coffee
cohen
cohort
cokali
coke
coker
col
cola
colchester
cold
cole
coleman
colin
collaboration
collaborative
collaborators
collapse
collapsibletemplate
collected
collection
collections
collective
college
colleges
colley
collins
collis
cologne
colombia
colombo
colon
colonel
colonial
colonialism
colonoscopy
colony
color
colorado
colorectal
colts
columbia
columbus
column
com
combat
combination
combined
come
comeback
comedian
comedy
comes
comet
comfort
comic
comics
coming
comite
command
commander
commanding
commends
comment
commentary
comments
commerce
commercial
commission
commissioner
commissioners
commissions
commitment
committed
committee
committees
commodore
common
commonly
commons
commonwealth
commune
communes
communication
communications
communities
community
como
comoe
comoros
companies
companion
companions
company
compaore
comparative
comparison
compendium
competition
competitions
compilation
complete
completed
completes
complex
compliance
composition
comprehensive
computational
computer
computing
con
conakry
concept
conception
concepts
concern
concerned
concerns
concert
concerto
concise
conclusion
concord
conde
condemns
condition
conditions
conduct
conducted
confederacy
confederation
conference
conferences
confidence
confidential
confirm
confirmed
confirms
conflict
confucius
cong
congo
congratulates
congress
congressional
connect
connecticut
connection
connell
connolly
connor
conomie
conquest
conrad
conseil
consensus
consequences
conservancy
conservation
conservative
conservatives
conservatory
considerations
considered
consolidated
consort
consortium
conspiracy
constantine
constantinople
constituency
constituents
constitution
constitutional
construction
consul
consulate
consultancy
consultant
consultants
consultative
consulting
consumer
consumption
contact
contained
containing
contains
conte
contemporary
content
contents
contest
context
continent
continental
continue
continued
continues
contra
contraception
contract
contre
contribution
contributions
control
controlled
controversial
controversy
convent
convention
conversation
conversations
conversion
convocation
conway
cook
cooke
cooking
cookpad
cool
coomassie
cooper
cooperation
cooperative
coordinates
coordinator
cop
copa
copd
copenhagen
copious
coppa
copper
copy
coral
cordoba
cordon
core
coren
corey
cornelius
cornell
corner
cornwall
corona
coronavac
coronavirus
coronaviruses
corp
corporal
corporate
corporation
corps
corpus
correspondent
corresponding
corridor
corruption
corte
cosafa
cosmetics
cosmos
cossack
cost
costa
costs
cote
coteau
cotonou
cotton
could
coulibaly
council
councils
counsel
count
counter
countries
country
counts
county
coup
coupe
couple
cour
courage
course
courses
court
courtney
courts
cov
cove
covenant
coventry
cover
coverage
covid
cowboys
cox
cp
cpc
cpg
cpp
cpr
cpu
cr
crabbe
craig
cranes
crash
crater
craven
crawford
crawley
crazy
crc
cre
cream
create
created
creating
creation
creative
creativity
creator
credit
credits
creek
creole
crescent
cretaceous
crew
crewe
cri
cricinfo
cricket
cricketarchive
crime
crimea
crimes
criminal
crimson
cripps
crisis
cristian
cristiano
cristina
criterion
critical
criticism
critics
critique
croatia
croatian
crocodiles
croix
crore
cross
crow
crown
crowned
crowther
cruz
cry
crystal
cs
csa
csc
cscs
csi
csir
cska
css
ct
ctitle
ctv
cu
cuba
cuban
cubic
cudanya
cudjoe
cuisine
cuku
cultural
culture
cultures
culver
cum
cuneiform
cunkoso
cunkoson
cunningham
cup
cuppy
cure
curlie
currency
current
currently
currey
curriculum
currie
curtis
cusa
cushing
customs
cut
cuta
cutar
cutarwa
cuts
cutuka
cututtuka
cututtukan
cuɗanya
cv
cw
cwa
cx
cyber
cycle
cycling
cynthia
cypriot
cyprus
cyril
cyrillic
cystic
cytology
cz
czech
czechoslovakia
d
da
daa
daario
daasebre
dab
daba
dabaibaye
dabam
daban
dabara
dabarar
dabaru
dabarun
dabba
dabbar
dabbobi
dabbobin
dabi
dabino
dabinon
dabiri
dabo
dabore
dace
dacewa
dacewar
daci
dad
dada
dadadden
dadai
daddare
daddawa
daddy
dade
dadewa
dadi
dadin
daenerys
daf
dafa
dafaffen
dafi
daftarin
dag
daga
dagaaba
dagaare
daganan
dagbani
dagbon
dage
dagewa
dagomba
dagombas
dagula
dah
dahiru
dahomey
dai
daida
daidai
daidaikun
daidaita
daidaitaccen
daidaitattun
daidaitawa
daidaitawar
daidaito
daidaiton
daidaituwa
daidaituwar
daily
dailyguide
dailypost
dailytrust
daina
daisauransu
daisy
daji
dajin
daju
daka
dakar
dakaru
dakarun
dakatar
dakatarwa
dakatarwar
dake
daki
dakika
dakile
dakin
dako
dakon
dakore
dakota
dakta
dakuma
dakuna
dakunan
dal
dala
dalar
dale
dalhatu
daliba
dalibai
daliban
dalibansa
dalibanta
dalibar
dalibi
dalibin
dalilai
dalilan
dalili
dalilin
dalla
dallas
dallol
dalma
daloli
dalot
dalton
daly
dam
dama
damage
damammaki
daman
damar
damascus
damasus
damaturu
damba
dambazau
dambazawa
dambe
damben
damboa
dame
damfara
damiba
damien
damijo
damilola
damina
damisa
damo
damon
damot
dams
damu
damun
damuna
damuwa
damuwar
damuwarsu
damuwarta
dan
dana
danbaba
danbatta
dance
dancer
dancing
dandali
dandalin
dandamali
dandamalin
dandana
dandano
dandume
dane
danfodio
danfodiyo
dangana
danganci
dangane
danganta
dangantaka
dangantakar
dangantakarsa
dangantakarta
danger
dangerous
dangi
dangin
danginsa
danginsu
danginta
dangme
dangote
dani
daniel
daniela
danielle
daniels
danish
danja
danjuma
dankali
dankalin
dankwa
dankwairo
danladi
danlami
danna
dannatt
danne
danniya
danny
danquah
dans
dansa
danshi
danta
dantata
dantzig
danwaire
danyen
daoud
daouda
dapaah
daphne
dapo
dar
dara
daraja
darajar
darajarsa
darakta
daraktan
daraktar
daraktoci
daraktocin
daramola
darasi
darasin
dare
darego
darekta
darektan
daren
darfur
dari
darika
darikar
dariya
dariye
dark
darko
darling
darmstadt
darren
dartmouth
darul
daruruwan
darussa
darussalam
darussan
darwin
das
dasa
dash
dashboard
dashen
dashi
daskararru
daskararrun
daskarewa
dasu
dasuka
dasuke
dasuki
daszak
dat
data
database
date
dated
dates
dating
datse
dattawa
dattawan
datti
dattijai
dattijan
dattijo
dattijon
dattin
dau
daud
dauda
daughter
daughters
dauka
daukacin
daukaka
daukan
daukar
daukarsa
daukarta
dauke
dauki
dauko
daula
daular
dauloli
daulolin
daur
daura
daurama
daurawa
daure
dauri
daurin
dausayi
dave
david
davido
davidson
davidtz
davies
davis
davos
dawa
dawakai
dawakan
dawaki
dawakin
dawayya
dawla
dawn
dawo
dawodu
dawood
dawowa
dawowar
dawowarsa
dawson
dawud
dawuda
dawwama
day
daya
dayake
dayan
dayane
dayawa
dayayi
dayo
days
daza
dazuka
dazukan
dazuzzuka
dazuzzukan
daƙile
daƙiƙa
daɗa
daɗaɗɗen
daɗe
daɗewa
daɗi
daɗin
db
dbe
dc
dce
dcns
dd
ddd
ddt
de
dead
deadline
deadly
deadurl
deal
dean
dear
death
deaths
debate
debates
debian
debo
deborah
debris
debub
debut
debuts
deby
dec
decade
decades
decalo
deccan
december
decision
decker
declaration
declared
declares
decline
deco
decree
dede
dedicated
dee
deedat
deen
deep
deeper
deepwater
deer
def
default
defeat
defeated
defeats
defects
defence
defender
defenders
defends
defense
deficit
defined
defining
definition
definitions
deforestation
degree
dei
deji
del
delancey
delaware
dele
delegates
delhi
deliver
delivers
delivery
dell
della
deloitte
delta
dem
demand
demands
dembe
dementia
demo
democracy
democrat
democratic
democrats
demokradiyya
demokradiyyar
demokraɗiyya
demonstration
den
dendi
deng
dengue
denies
denis
denise
denkyira
denmark
dennis
denrele
density
dental
denver
department
dependence
deportivo
deprecated
depression
dept
deputies
deputy
der
derby
derechos
derek
derived
dermatology
derrick
des
descalzos
descent
described
describes
description
desert
design
designate
designed
designer
desire
desmond
desperate
despite
destination
destiny
detail
detailed
details
detection
detroit
deutsche
deutschland
deux
devatop
develop
developed
developing
development
developments
devgan
devgn
devi
devil
devine
devon
dexter
dey
df
dfb
dfid
dfl
dg
dh
dhabi
dhahabi
dhaka
dharma
dhu
di
dia
diabetes
diaby
diagnosed
diagnosis
diagnostic
diallo
dialogue
diamita
diamond
diamonds
diana
diane
diaries
diario
diarra
diary
dias
diaspora
diawara
diaye
diaz
diban
dick
dickson
dictionaries
dictionary
dictionnaire
did
diddigin
didi
didier
didn
die
died
diego
dierk
dies
diesel
diet
dietrich
diezani
diffa
difference
differences
different
difficult
difloma
diflomasiya
diflomasiyya
diflomasiyyar
digest
digirgir
digiri
digirin
digirinsa
digirinta
digital
digo
digraph
dijital
dijon
dike
dikeh
dikko
dil
dila
dillalai
dillalan
dillali
dillalin
dillancin
dima
dimashƙu
dimbin
dimka
dimokaradiyyar
dimokiradiyya
dimokradiyya
dimokraɗiyya
dimokuradiyya
dimokuradiyyar
dimokuraɗiyya
din
dina
dinamo
dindin
dindindin
dine
dinga
dinka
dinki
dinkin
dinner
dinsa
dinsu
dinta
dio
diocese
diogo
diop
diori
dioxide
dioxins
diploma
diplomacy
diplomat
diplomatic
dipo
dir
dire
direba
direban
direbobi
direbobin
direct
directed
direction
directions
directly
director
directorate
directors
directory
dirty
disabilities
disability
disabled
disamba
disamban
disambar
disambig
disambiguation
disaster
disc
disco
discogs
discourse
discover
discovery
discrimination
discus
discussion
disease
diseases
disk
diski
disney
disorder
disorders
dispatch
display
displaystyle
dispute
dissertation
distance
distancing
distinction
distinguished
distribution
district
districts
ditions
diva
diversity
divide
divided
divine
divisio
division
divisions
divorce
dixon
diya
diyar
diyya
diyyar
dizal
dj
dja
djallon
djamena
djazairess
djenepo
djenne
djerma
djibo
djibouti
djibril
djingarey
djurga
dk
dl
dm
dmitry
dna
dnipro
do
doc
docs
doctor
doctorate
doctors
doctrine
document
documentaire
documentary
documentation
documents
dodanni
dodo
dodon
doe
does
doesn
dog
dogara
dogaro
dogayen
dogg
doggy
doggystyle
dogo
dogon
doguwa
doguwar
doha
doherty
doi
doing
doinyo
doka
dokar
doke
doki
dokin
dokoki
dokokin
dokokinsu
dokpesi
dokta
doktor
dokubo
dolapo
dole
doll
dolly
dolphin
dolphins
doma
domain
domboshaba
dome
domestic
domin
domingo
dominic
dominica
dominican
dominion
dominique
domino
don
donald
donaldson
donates
done
donegal
donetsk
dong
donga
donka
donkoh
donkor
donnelly
donner
dons
dont
donzel
door
doors
doortmont
doping
dora
dorawa
dorayi
dorcas
dorewa
dorewar
dorian
doris
dormaa
doro
doron
dorothy
dortmund
dos
dose
doss
dosso
dosunmu
dot
dots
douala
double
doubleday
doubles
doucoure
doug
douglas
doula
dove
dover
dovzhenko
dowager
down
downhill
download
downtown
doya
doyle
dozens
dozie
dozin
dp
dq
dr
dra
draconian
draft
dragon
drake
drale
dram
drama
dramani
dramatic
draw
drc
dre
dream
dreams
drechsler
dresden
dress
dressage
drew
drexler
drinking
drive
driven
driver
driving
droit
droits
drop
drops
drought
drug
drugs
drum
drums
druze
dry
ds
dss
dstv
dts
du
dua
duah
dual
duba
dubai
duban
dubatar
dubawa
dubbai
dubban
dube
dubi
dublin
dubu
dubun
dubunnan
dubura
duchess
duchy
duck
ducks
ductal
dude
dudley
due
dufe
duffy
duhu
duhun
duiker
duk
duka
dukan
dukansu
dukda
duke
dukiya
dukiyar
dukiyarsa
dukiyarsu
dukiyoyi
dukiyoyin
dukiyoyinsu
dukkan
dukkanin
dukkannin
dukkansu
dukku
dukufa
duma
dumama
dumamar
dumas
dumbin
dumelo
dumi
dumu
dun
dunama
duncan
dunes
duniya
duniyar
duniyarmu
duniyoyi
duniyoyin
dunkule
dunkulewar
dunne
dunƙule
duo
dupsy
durban
durbar
durbi
durham
during
duro
durojaiye
duru
dusar
dust
dutch
duties
dutse
dutsen
dutsi
dutsin
duty
duwa
duwatsu
duwatsun
dvd
dw
dwd
dwelling
dx
dying
dylan
dynamic
dynamics
dynamo
dynasty
dz
dzanga
dzifa
dziga
dʒ
e
ea
each
eagle
eagles
earl
early
earns
earth
earthquake
east
eastenders
easter
eastern
eastgate
easy
easytrackghana
eau
eb
eba
ebele
ebenezer
ebere
ebert
ebeye
ebi
ebira
ebo
ebola
ebony
ebonyi
ebonylife
ebute
ec
ece
echo
echr
eco
ecole
ecological
ecology
ecomog
economic
economics
economist
economy
ecoregion
ecosystem
ecosystems
ecowas
ecuador
ecuatorial
ed
edda
eddie
eddy
ede
edem
eden
edet
edewor
edgar
edge
edina
edinburgh
edit
edita
editan
edited
edith
edition
editions
editoci
editocin
editor
editorial
editors
edmond
edmonton
edmund
edna
edo
edochie
edozien
edri
eds
edu
eduardo
edubiase
education
educational
educator
edun
edward
edwards
edwin
ee
eea
ef
efcc
efe
effah
effect
effective
effectiveness
effects
efficacy
effiong
efforts
effutu
efiewura
efik
efl
efo
efua
eg
egala
egba
egbado
egbaland
egbe
egbin
egbuna
egbuson
egi
ego
eguafo
egusi
egypt
egyptian
eh
ehrc
ei
eid
eight
ein
einstein
eintracht
eisenhower
ej
ejagham
ejf
ejike
ejiofor
ejiro
ejisu
ejura
ek
eka
eke
ekeinde
eket
ekine
ekiti
ekiyor
eko
ekoi
ekoid
ekong
ekow
ekpe
ekpene
ekpo
eku
ekubo
ekumfi
ekweremadu
ekwueme
ekwunife
el
elaine
elanga
elcinema
elder
elders
ele
eleanor
elect
elected
election
elections
electoral
electric
electrical
electricity
electronic
electronics
elects
elementary
elements
elena
elendu
elephant
eletu
eleven
eli
eliakwu
elias
elijah
elimination
elisabeth
elisha
elite
elizabeth
elk
ella
elle
ellen
elles
elliot
elliott
ellis
elmina
elon
eloy
else
elsevier
elsie
elumelu
elvis
em
emai
emam
embassy
embela
emeka
emelia
emem
emerald
emerge
emergence
emergencies
emergency
emerges
emerging
emeritus
emerson
emezi
emi
emil
emile
emilio
emily
eminem
emir
emirate
emirates
emirati
emission
emissions
emma
emmanuel
emmy
emperor
empire
employee
employment
empoli
empower
empowering
empowerment
empress
empty
emu
en
enahoro
encomium
encyclopaedia
encyclopedia
encyclopædia
end
endangered
ended
ending
endocrine
endometrial
endometrioid
endowment
ends
endsars
eneme
enemy
energy
enfants
enforcement
eng
engagement
engine
engineer
engineering
engineers
england
englefeld
english
engr
eniola
ennals
enoch
enough
ensemble
ensure
enter
enterprise
enterprises
entertainment
entity
entre
entrepreneur
entrepreneurs
entrepreneurship
entry
enugu
enugwu
environment
environmental
envoy
enwerem
enwonwu
enyeama
enyimba
enzyme
enzymes
eo
ep
epa
epbc
epe
epic
epidemic
epidemiological
epidemiology
epigenetic
epigenetics
episcopal
episode
episodes
epithelial
epstein
equal
equality
equator
equatorial
equestrian
equiano
equipment
equity
er
era
ere
eredivisie
erelu
eri
eric
erica
erics
ericsson
erie
erik
erika
erin
eritrea
eriya
erna
ernest
ernst
ero
error
errortemplate
ers
erskine
erta
ertug
es
esa
esan
esc
escape
escravos
ese
esi
eso
esoro
espan
espanya
espanyol
especially
esperanto
espn
espncricinfo
esposito
esqui
essay
essays
essence
essential
essentials
essex
essien
est
esta
established
establishment
estate
estates
esther
estimate
estimated
estimates
estonia
estrogen
estuary
esu
eswatini
et
eta
etat
etc
etebo
ethanol
ethel
etheridge
etherington
ethics
ethiopia
ethiopian
ethnic
ethnicity
ethnohistorical
ethnologue
eti
etim
etisalat
eto
etomi
etsako
etsu
etteh
etudes
eu
eucharia
eugene
eugenia
eunice
eupen
eurasia
euro
eurobasket
europa
europarl
europe
european
eurosport
eurovision
euthanasia
eva
evaluation
evalue
evan
evangelical
evans
eve
evelyn
even
evening
event
events
ever
everton
every
everyday
everyone
everything
evidence
evil
evolution
evolutionary
ewa
ewe
ewedu
ex
examination
example
excel
excellence
excerpt
exchange
exclusive
execution
executive
exercise
exeter
exhibition
exile
exist
exit
expansion
expectancy
expedition
expensive
experience
experimental
expert
experts
expired
explain
explains
exploitation
exploration
explorer
exploring
explosion
expo
exposed
exposure
express
expression
expressway
extended
extends
extension
external
extinction
extra
extraordinary
extreme
exxon
eye
eyes
eyisi
eyo
ez
eze
ezekwesili
ezenwo
ezeugo
ezra
ezuruonye
ezza
eɪ
f
fa
faa
fab
faber
fabian
fabius
fabra
fabrairu
fabrairun
faburairu
facade
face
facebook
faced
faces
faci
facilities
facility
facin
facing
fact
factbook
facto
factor
factors
factory
facts
factsheet
faculty
fad
fada
fadace
fadada
fadadawa
fadak
fadakar
fadakarwa
fadama
fadan
fadar
fadarsa
fadawa
fadi
fadin
fado
fadoji
fadowa
faduwa
faduwar
fafaroma
fafata
fafatawa
fafatawar
faffadan
fafutuka
fafutukar
fagage
fagagen
fage
fagen
fagge
fahad
fahd
fahimci
fahimi
fahimta
fahimtar
fai
faifai
faifan
failed
fails
failure
fainal
fair
fairy
faisal
faith
faizal
fajr
fakaice
fake
fakhr
fakiti
fakitin
fala
falaki
falasdinawa
falasdinu
falasɗinawa
falasɗinu
falcon
falcons
fale
falen
faleti
falgore
fali
fall
fallasa
fallen
falling
falls
falo
falola
falon
falsafa
falsafar
false
falz
fam
fama
fame
famfo
familial
families
famille
familoni
family
famine
famous
fan
fanareti
fanariti
fang
fani
fanko
fanni
fannin
fannoni
fannonin
fans
fansa
fansho
fanta
fantasy
fante
fantes
fanti
fao
faqih
far
fara
farage
farah
faransa
faransanci
faransawa
faransawan
faranta
farantawa
faranti
farantin
farar
farare
fararen
farashi
farashin
farauta
farautar
farawa
farawar
fareti
faretin
farewell
farfado
farfadowa
farfadowar
farfaganda
farfagandar
farfajiya
farfajiyar
farfasa
farfaɗo
farfaɗowa
farfaɗowar
farfesa
farfesan
fargaba
fargabar
fari
farid
farida
farilla
farin
faris
farisa
farisanci
farisawa
farji
farka
farkawa
farko
farkon
farkonsa
farm
farmaki
farmakin
farmer
farmers
farming
farms
faro
farouk
farouq
farrakhan
farsi
faru
faruk
faruwa
faruwar
farwell
fas
fasa
fasaha
fasahar
fasahohi
fasahohin
fasali
fasalin
fasalta
fasalulluka
fasfo
fasha
fashe
fashewa
fashewar
fashi
fashin
fashion
fashola
fasinja
fasinjoji
fasinjojin
faskara
faskari
faso
fassara
fassarar
fassarori
fassarorin
fast
fastest
fasto
fastoci
fastocin
fat
fata
fatah
fatake
fatakwal
fatali
fatalwa
fatan
fatanya
fatar
fatara
fatarar
fatattakar
fatattaki
fatauci
fataucin
fatawa
fatawar
fate
fateh
faten
fath
father
fathia
fati
fatigue
fatih
fatiha
fatima
fatimah
fatimid
fatma
fatou
fattah
fatu
fatun
fatwa
fauci
fauna
favipiravir
favorite
favourite
fawehinmi
fawkes
fawzan
fay
faya
faye
fayehun
fayemi
fayil
fayiloli
fayilolin
fayyace
faɗa
faɗakar
faɗakarwa
faɗakarwar
faɗar
faɗaɗa
faɗaɗawa
faɗi
faɗin
faɗo
faɗuwa
faɗuwar
fb
fbi
fc
fca
fct
fd
fda
fdd
fe
fear
fears
feat
featherweight
feature
featured
features
featuring
feb
febrairu
febreru
february
fed
federal
federation
federations
federico
fee
feed
feel
fees
feet
feghouli
fela
felicia
felipe
felix
fellow
fellows
fellowship
felt
female
femenino
femi
feminism
feminist
femme
femmes
fenareti
fenariti
fencing
fensir
fenti
fentin
fer
ferdinand
ferencva
ferguson
ferme
ferna
fernandez
fernando
ferreira
ferrer
ferry
fertility
fesa
feshin
fespaco
fest
festac
festival
festivals
festus
fetane
fetur
feuer
fever
few
fewan
feyenoord
fez
fezzan
ff
fff
ffrf
fg
fgc
fgm
fhs
fi
fiandad
fiba
fiber
fice
ficewa
ficewar
fiction
fida
fidda
fide
fidelity
fidh
fie
field
fields
fiesta
fifa
fifi
fifiko
fifikon
fifita
fifth
fifty
figaro
fight
fighter
fighting
fights
figure
figures
figurine
fih
fihirisar
fiji
fika
fikihu
fikihun
fil
filali
filani
filastik
filato
filaye
filayen
filayensu
file
files
fili
filin
filipino
fille
fillmore
film
filmfare
filmmaker
filmmakers
filmography
films
fils
fim
fin
fina
finafinai
finafinan
finai
final
finale
finally
finals
finan
finance
financial
finansa
finanta
finch
find
finding
findings
finds
fine
finland
finn
finnish
fintiri
fiona
fiorentina
fiqh
fiqhu
fir
firam
firamare
firamari
firaminista
firaministan
firayim
fire
firenze
fires
firgici
firgita
firiji
firikwensin
firimiya
firimiyan
firimiyar
firist
firistoci
firistocin
firm
firmware
firs
first
fis
fischer
fish
fisher
fisheries
fishing
fit
fita
fitaccen
fitacciyar
fitad
fitar
fitarwa
fitattu
fitattun
fitila
fitilar
fitilu
fitilun
fitina
fitinar
fitness
fito
fitowa
fitowar
fitowarta
fitsari
fitzgerald
fitzpatrick
fivb
five
fixant
fiye
fiɗa
fk
fl
flag
flags
flagstaff
flame
flash
flat
flavia
fleet
fleming
fletcher
flight
flights
fln
flood
floods
floor
flora
florence
florida
flow
flower
floyd
flu
fluoride
fly
flydubai
flying
flynn
fm
fmc
fo
focus
foda
foden
fodio
fodiyo
fogo
foil
folake
folarin
folashade
folawiyo
folio
folk
follow
followers
following
folorunsho
fom
foma
fon
fonseca
font
food
foods
foot
football
footballdatabase
footballer
footballers
for
foradejogo
forbes
forcados
force
forced
forces
ford
fordham
foreign
forensic
forest
forestry
forests
forever
forget
forgotten
forkel
form
format
formation
former
formerly
forms
formula
forson
forster
fort
forte
fortress
forts
fortuna
fortune
forty
forum
forungiyar
forward
fossil
foster
fotigal
fouad
found
foundation
foundations
founded
founder
founders
founding
fountain
four
fourth
fouta
fowler
fox
fr
fra
fraction
frafra
frame
framework
fran
franc
franca
france
frances
francesca
francesco
francis
francisca
francisco
franco
francois
francophone
francophonie
frank
frankfurt
frankie
franklin
franko
franz
fraser
fraud
fray
frcn
fre
fred
freda
freddie
frederic
frederick
free
freedom
freedombox
freeman
freestyle
freetown
freiburg
frema
french
fresh
freshwater
frica
friday
friedman
friedrich
friend
friendly
friends
frimpong
fritz
from
front
frontier
frontiers
frontline
fruit
fs
ft
fu
fuel
fuels
fufa
fufu
fugar
fuji
fuka
fukai
fukushima
fula
fulani
fulanin
fulawa
fulbe
fulbright
fulfulde
fulham
full
fuller
fully
fumble
fun
function
fund
fundamental
funding
funds
funeral
fungi
funk
funke
funmi
funmilayo
funtua
fur
fura
furanni
furannin
fure
furen
furious
furman
furniss
furodusa
furodusan
furodusoshi
furodusoshin
furotesta
furotin
fursuna
fursunan
fursunoni
fursunonin
furta
further
furucci
furuci
furucin
fusata
fushi
fushin
fusion
fuska
fuskanci
fuskanta
fuskantar
fuskar
fuskarsa
fuskoki
fuskokin
fustat
futa
futebol
futsal
future
futures
futy
fx
fyade
fyaden
fyaɗe
g
ga
gab
gaba
gabace
gabaci
gabacin
gaban
gabanin
gabansa
gabanta
gabar
gabas
gabashi
gabashin
gabata
gabatar
gabatarwa
gabatarwar
gabatowa
gabaɗaya
gabaɗayan
gabobi
gabobin
gabon
gaborone
gabriel
gabriele
gada
gadaje
gadan
gadar
gaddafi
gadi
gadin
gado
gadoji
gadon
gadzekpo
gafara
gafarta
gagara
gagarumar
gagarumin
gage
gaggauta
gaggawa
gaggawar
gahanga
gai
gaidam
gain
gaishe
gaisuwa
gajarta
gaje
gajere
gajeren
gajeriyar
gajeru
gajerun
gaji
gajimare
gajiya
gajiyar
gal
gala
galaba
galadima
galadiman
galais
galan
galatasaray
galaxy
gale
galen
galibi
galibin
galibinsu
galihu
gall
gallagher
galleria
gallery
gallica
gam
gama
gamal
gamawa
gamayya
gamayyar
gambari
gambela
gambia
gambian
gambiya
gambo
gambu
game
games
gami
gamji
gamma
gamo
gamsar
gamsarwa
gamsu
gamsuwa
gamu
gan
gana
ganawa
ganawar
ganda
gandhi
gandu
ganduje
gandun
gane
ganewa
ganewar
gang
ganga
gangami
gangamin
gangan
ganganci
gangar
gangara
gangaren
gangarowa
ganges
gangsta
ganguna
gani
ganima
ganimar
ganin
ganinsa
ganinsu
ganinta
gano
ganowa
gansu
ganta
ganuwa
ganuwar
ganyaye
ganyayyaki
ganye
ganyen
gao
gaol
gap
gar
gara
garambawul
garanti
garantin
garaya
garba
garci
garcia
gardama
gardamar
garde
garden
gardens
gardner
gare
gareshi
gareth
garfield
garga
gargadi
gargadin
gargajiya
gargajiyance
gargajiyar
gargaɗi
gargaɗin
gari
garin
garine
garinsa
garinsu
garke
garken
garki
garko
garkuwa
garkuwan
garkuwar
garner
garo
garoua
garri
garrison
garry
garu
garun
garuruwa
garuruwan
gary
garza
garzaya
gas
gasa
gasan
gasar
gasasshen
gashi
gashin
gashua
gashuwa
gasification
gaskata
gaske
gaskiya
gaskiyar
gastroenterology
gastrointestinal
gat
gata
gatan
gatari
gate
gates
gateway
gaulle
gauraya
gauraye
gave
gavin
gawa
gawar
gawarsa
gawarwaki
gawarwakin
gawatan
gawawwaki
gawayi
gawayin
gay
gaya
gaye
gayya
gayyace
gayyaci
gayyata
gayyatar
gaza
gazawa
gazawar
gazette
gazetteer
gaɓa
gaɓar
gaɓoɓi
gb
gbagyi
gbajabiamila
gbd
gbe
gbedemah
gbeho
gbenga
gbo
gboko
gbowee
gbr
gc
gce
gcfr
gcon
gdp
gdr
ge
gear
geathers
gee
gefe
gefen
gefuna
geilo
gemma
gemu
gen
gender
gene
genealogy
general
generally
generals
generated
generation
generations
genes
genesis
genetic
genetics
geneva
genevieve
genital
genius
genk
genoa
genocide
genome
genre
gent
gentile
geo
geoff
geoffrey
geographic
geographical
geography
geological
geology
geometric
geometry
geomorphology
geophysical
georg
george
georges
georgescu
georgetown
georgia
georgina
geosciences
ger
gerald
gerard
gerhard
germain
german
germany
gero
gertrude
geschichte
gesellschaft
get
getafe
gets
getting
getty
gfa
gg
gh
gha
ghaddar
ghaith
ghali
ghana
ghanacelebrities
ghanaconsulatedubai
ghanadistricts
ghanaelections
ghanaembassyiran
ghanahomepage
ghanaian
ghanaians
ghanamps
ghanamuseums
ghanareview
ghanasoccernet
ghanaweb
ghani
ghansah
ghazali
ghazi
ghetto
ghezzal
ghg
ghost
ghulam
gi
gianni
giant
giants
gibi
gibin
gibraltar
gibson
gicciye
giciye
gida
gidado
gidaje
gidajen
gidajensu
gidan
gidanka
gidansa
gidansu
gidanta
gidauniya
gidauniyar
gideon
gidi
gift
gifty
gijimasu
gil
gilashi
gilashin
gilbert
giles
gill
gilla
gillar
gille
gilles
gillespie
gimba
gimbiya
gimpa
gina
ginawa
gindaya
gindi
gindin
gine
ginen
ginger
gini
ginin
ginshikan
ginshiki
ginshikin
ginshiƙai
ginshiƙan
ginshiƙi
ginshiƙin
ginu
gio
gion
giovanni
girbe
girbi
girbin
girgije
girgiza
girgizar
girka
girkanci
girke
girken
girki
girl
girls
girlsan
girma
girmama
girmamawa
girmamawar
girman
girmansa
girmanta
girmi
girona
gis
gishiri
gishirin
gist
giuseppe
give
given
gives
giving
giwa
giwar
giwaye
giwayen
giya
giyar
giza
gizo
gizon
gj
gjerde
gladys
glamour
glance
gland
glasgow
glass
glen
glenn
glennon
glitz
glo
globacom
global
globalization
globalwitness
globe
gloria
glory
glottolog
gloucester
gloucestershire
glover
gm
gmbh
gmd
gmt
gna
go
goa
goal
goalkeeper
goals
gobara
gobarar
gobe
gobi
gobir
gobirawa
god
gode
godfrey
godiya
gods
godwin
goes
goethe
gogaggen
gogayya
goge
gogewa
gogewar
going
goje
gojjam
gokana
golan
gold
goldberg
golden
goldie
goldman
golf
golmaal
goma
gombe
gomes
gomez
gomis
gomoa
gona
gonaki
gonakin
gonakinsu
gonar
gonarsa
gone
gong
gongola
goni
gonja
goo
good
goodbye
goodluck
goodman
goodwin
google
gora
gordon
gore
goretzka
gorilla
goro
goron
goshi
gospel
gossip
got
gothic
gotze
gou
goukouni
gouvernement
gov
governance
governing
government
governmental
governments
governor
governorate
governors
governorship
govt
gowon
goya
goyan
goyi
goyon
gozaki
gp
gps
gr
gra
grabavoy
grabs
grace
grade
graduate
graduates
graft
graham
grain
gram
grammar
grammy
granada
grand
grande
grange
granite
grant
granta
grants
graphic
grass
grave
graves
gray
gre
grealish
great
greater
greatest
greco
greece
greek
green
greenberg
greene
greenfield
greenhouse
greenland
greenpeace
greens
greenville
greenwich
greenwood
greg
gregory
grenoble
greta
grey
grid
griffin
griffith
gross
ground
group
groups
grove
grow
growing
grown
growth
gru
gs
gsc
gsm
gt
gtbank
gu
gualinga
guan
guangdong
guangzhou
guantanamo
guaranty
guard
guardian
guards
guatemala
guba
gubana
gubar
gubara
guber
guda
gudana
gudanar
gudanarwa
gudanarwar
gudawa
gudu
guduma
gudummawa
gudummawar
gudun
gudunmawa
gudunmawar
guduwa
gue
guedioura
guerre
guest
gueye
guez
guga
guguwa
guguwar
guidance
guide
guideline
guidelines
guides
guild
guillaume
guilty
guimara
guindo
guine
guinea
guinean
guingamp
guinness
guitar
guiwa
guiwar
gujarat
gujarati
guje
gujewa
guji
gulf
gulma
gum
guma
gumaka
gumakan
gumel
gumi
gumuz
gun
guna
gunaguni
gunduma
gundumar
gundumomi
gundumomin
gungu
gungun
gunki
gunkin
gunmen
guntu
guntun
guntuwa
guntuwar
guo
gupta
gur
guraben
guragu
gurare
guraren
gurasa
gurbacewar
gurbata
gurbataccen
gurbatacciyar
gurbatar
gurbatattun
gurbi
gurbin
gurbinsa
gurbinsu
gurbinta
gurfanar
gurgunta
gurguzu
guri
gurin
guru
gurunsi
gurɓacewar
gurɓata
gurɓatacce
gurɓataccen
gurɓatar
gurɓatattun
gurɓatawa
gusau
gustav
gutenberg
guterres
guthrie
guy
guyana
gwabza
gwabzawa
gwada
gwadabe
gwadawa
gwagwarmaya
gwagwarmayar
gwaje
gwajen
gwaji
gwajin
gwal
gwale
gwammace
gwamna
gwamnan
gwamnati
gwamnatin
gwamnatinsa
gwamnatoci
gwamnatocin
gwamnoni
gwamnonin
gwanaye
gwanayen
gwandara
gwandu
gwangwani
gwani
gwanin
gwaninta
gwanja
gwanjon
gwanki
gwano
gwanon
gwargwado
gwargwadon
gwari
gwarzo
gwarzon
gwarzuwar
gwauruwa
gwiwa
gwiwar
gwp
gy
gyada
gyan
gyang
gyara
gyaran
gyarawa
gyare
gyaren
gyasi
gyaɗa
gymnasium
gynecology
h
ha
haaland
haaretz
haasan
haba
habaici
habaka
habasha
habe
habib
habiba
habibu
habila
habitat
habre
habu
had
hada
hadadden
hadaddiyar
hadaddun
hadaka
hadakar
hadar
hadari
hadarin
hadawa
hadaya
hadayar
haddace
haddad
haddar
haddasa
haddi
haddin
hade
hadebe
hadejia
hadewa
hadewar
hadhramaut
hadi
hadin
hadisai
hadisan
hadisi
hadisin
hadith
hadiya
hadiye
hadiza
hadj
hadu
haduwa
haduwar
hafez
hafiz
hafsa
hafsah
hafsan
hafsat
hafsoshi
hafsoshin
hagan
hagia
hagu
hague
hai
haidar
haider
haifa
haifaffen
haifaffiyar
haifar
haifarwa
haife
haifeshi
haifeta
haifi
haifuwa
haifuwan
haifuwar
haihu
haihuwa
haihuwan
haihuwar
haihuwarsa
haihuwarta
haikali
haikalin
haila
haile
hails
hair
hairston
haiti
haj
haja
hajar
hajara
haji
hajiya
hajj
hajjaj
hajji
hajjin
haka
hakan
hakanan
hakane
hakar
hakazalika
hakeem
hakika
hakikanin
hakim
hakimai
hakimi
hakimin
hakin
hakki
hakkin
hakkinsu
hakkoki
hakkokin
hako
hakora
hakori
hakowa
hakuri
halaccin
halaka
halakar
halal
halarci
halarta
halartan
halartar
halatta
halaye
halayen
halayensa
halayensu
halayya
halayyar
hale
half
hali
halicce
halicci
halifa
halifan
halifanci
halifancin
halilu
halima
halimah
halime
halin
halinsa
halinta
haliru
halitta
halittar
halittu
halittun
hall
hallaka
hallara
halle
halliday
ham
hama
hamad
hamada
hamadar
hamama
hamani
hamar
hamas
hamayya
hamayyar
hamayyarsa
hamayyarsu
hamayyarta
hambarar
hamburg
hamburger
hamed
hamence
hamid
hamilton
hamisu
hamlet
hammad
hammam
hamman
hammarby
hammarstro
hammer
hammerstein
hammond
hampshire
hampton
hamshakin
hamsin
hamza
hamɓarar
han
hana
hanafi
hanafiyya
hanan
hanawa
hanbal
hanbali
hanci
hancin
hand
handball
handbook
handle
handler
hands
hane
hangen
hango
hani
hanifa
hanji
hankaka
hankali
hankalin
hankalinsa
hankula
hankulan
hanna
hannah
hannaye
hannayen
hannayensu
hannibal
hannu
hannun
hannunsa
hannunsu
hannunta
hanoi
hans
hansard
hanson
hanta
hanya
hanyan
hanyar
hanyarsa
hanyarsu
hanyarta
hanyoyi
hanyoyin
hanzari
hanzarta
hapoel
happened
happiness
happy
haq
har
harabar
harafi
harafin
haraji
harajin
harald
haram
haramar
haramcin
harami
haramin
haramta
haramtacce
haramtaccen
haramtacciyar
haramtattun
haramtawa
haramun
harar
harare
harari
harassment
harb
harba
harbe
harben
harbi
harbin
harbor
harbour
harcourt
hard
harda
hardkiss
hardware
hardy
hare
haren
hargitsi
hargitsin
harhada
hari
harin
harith
harka
harkan
harkar
harkokin
harlem
harma
harmattan
harmony
harold
haroun
harouna
harper
harpercollins
harriet
harrington
harris
harrison
harrisons
harrow
harry
harsasai
harsashi
harsashin
harshe
harshen
harshensu
harsuna
harsunan
hart
hartford
haruffa
haruffan
harun
haruna
harv
harvard
harvest
harvey
harvnb
harvtxt
haryana
has
hasa
hasali
hasan
hasara
hasarar
hasashe
hasashen
hashim
haska
haskaka
haskakawa
haskawa
haske
hasken
haspelmath
hassan
hastings
hasumiya
hasumiyar
hat
hate
hatim
hatimi
hatimin
hatiya
hatsari
hatsarin
hatsi
hatsin
hatta
hau
hauhawar
hauka
haura
haure
hauren
hausa
hausadictionary
hausafilms
hausaland
hausan
hausance
hausar
hausawa
hausawan
haushi
haushin
haute
hauwa
hauza
havana
have
haven
having
havre
hawa
hawai
hawaii
hawaiian
hawainiya
hawan
hawansa
hawaye
hawkins
hay
haya
hayaki
hayakin
hayaniya
hayaniyar
hayar
hayat
hayatu
hayatullah
hayaƙi
hayaƙin
haydar
hayden
haye
hayes
hayford
hayin
hayward
hazaka
hazakar
hazardous
haze
hazel
hazikan
hazm
hazo
hazrat
haƙa
haƙar
haƙiƙa
haƙiƙanin
haƙo
haƙora
haƙoran
haƙori
haƙuri
haƙƙi
haƙƙin
haƙƙinsu
haƙƙoƙi
haƙƙoƙin
haɓaka
haɓakar
haɓakawa
haɓe
haɗa
haɗaka
haɗakar
haɗari
haɗarin
haɗawa
haɗaɗɗen
haɗaɗɗiyar
haɗaɗɗun
haɗe
haɗewa
haɗewar
haɗi
haɗin
haɗiye
haɗu
haɗuwa
haɗuwar
hb
hbo
hbv
hc
hcv
hd
hdl
he
head
headed
headies
headlines
headquarters
heads
heald
health
healthcare
healthy
heard
hearing
hearst
heart
hearts
heat
heath
heather
heaven
heavens
heavy
hebrew
hebron
hectares
hector
hedikwata
hedikwatar
hedkwata
hedkwatar
hedkwatarsa
hedkwatarta
heerenveen
heezen
hegerl
heidelberg
height
heights
heijmans
heinemann
heinrich
heinrichs
hejaz
hekta
held
helen
helena
helenanci
helenawa
helicobacter
hell
help
helped
helping
helps
helsinki
helwe
hemisphere
henan
henderson
hendrik
henley
henri
henrietta
henry
henshaw
hepatitis
heptathlon
her
herald
herbal
herbert
here
hereditary
heritage
herman
hermann
herna
hero
heroes
herpes
hertfordshire
herve
herzegovina
hesse
het
hewitt
hey
hh
hi
hickory
hidayat
hidden
hidima
hidimar
hidimarsa
hidimomin
hierarchy
higgins
high
higher
highest
highland
highlands
highlife
highlights
highly
highway
hijabi
hijaz
hijira
hijirar
hijjah
hijra
hikima
hikimar
hilal
hilary
hilda
hill
hilla
hillary
hills
hilton
him
hima
himachal
himalayan
himalayas
himma
himmatu
himself
hind
hindi
hindu
hindustan
hip
hiplife
hippo
hippocrene
hippopotamus
hira
hirar
hirarraki
hire
hirsi
his
hisbah
hisham
hispania
hispanic
hisse
histoire
histone
historia
historian
historic
historical
histories
historique
history
hit
hitchcock
hitler
hits
hiv
hj
hk
hl
hm
hmga
hnd
hnni
ho
hockey
hoda
hodar
hodder
hoffenheim
hoffman
hogan
hohoe
hokies
holanci
holand
hold
holden
holder
holding
holdings
holds
hole
holiday
holland
hollow
holloway
holly
hollywood
holmes
holocaust
holt
holy
home
homeland
homepage
homer
homes
homme
homowo
hon
honda
honduras
honey
hong
honor
honorabul
honorary
honored
honors
honour
honourable
honoured
honours
hons
hood
hookem
hooper
hop
hope
hopes
hopkins
hora
horace
horar
horarwa
horas
horaswa
horizon
horizons
hormonal
hormone
hormones
horn
horo
horon
horowitz
horror
horse
horton
hosny
hospital
hospitals
hossain
hossein
host
hosts
hot
hotan
hotel
hotels
hoto
hoton
hotonsa
hotspur
hotuna
hotunan
houghton
hour
hourihane
hours
house
household
houses
housing
houston
hove
how
howard
howards
howe
however
howitt
hp
hpv
hq
hr
hrc
hrds
href
hrf
hrfs
hrh
hrm
hrw
hsc
htm
html
http
https
hu
huang
hub
hubbard
hubert
huda
hudson
hudu
hudun
huffington
huffpost
huge
hugh
hughes
hugo
huhu
huhun
hui
hujja
hujjar
hujjoji
hujjojin
hukuma
hukumance
hukumar
hukumcin
hukumomi
hukumomin
hukunce
hukuncen
hukunci
hukuncin
hukunta
hula
hular
hulda
huldar
hull
hulɗa
hulɗar
hum
human
humanitarian
humanities
humanity
humans
humber
humboldt
hume
humphrey
hunayn
hundred
hundreds
hungarian
hungariya
hungary
hunger
huni
hunt
hunter
hunturu
hunwick
hur
hura
hurdles
hurley
hurricane
hurst
hurumin
husain
husaini
husayn
husband
hush
hussain
hussaini
hussein
husson
huta
hutawa
hutton
hutu
hutun
huɗu
hw
hyam
hyde
hyderabad
hydrocarbon
hydrocarbons
hydroelectric
hydrogen
hydrology
hygiene
hyperactivity
hypertension
hypoxia
i
ia
iaaf
ian
iata
ib
iba
ibada
ibadan
ibadar
ibara
ibb
ibekwe
ibi
ibibio
ibid
ibikunle
iblis
ibm
ibn
ibnu
ibo
ibom
ibra
ibrahim
ibrahima
ibrahimovic
ibrananci
ibrash
ibru
ibtc
ibu
ibukun
ic
icao
icare
icc
iccpr
ice
iceland
icelandic
icen
icescr
icj
icon
icons
icpc
icrc
icsid
ict
icu
id
ida
idah
idaho
idahosa
idan
idanu
idanun
idar
iddo
iddrisu
idea
ideas
idemili
identification
identities
identity
idf
idi
idia
idiat
idibia
ido
idodi
idodin
idoji
idojin
idoko
idol
idoma
idon
idowu
idps
idris
idriss
idrissa
idu
idumota
ie
iea
ieee
if
ifa
ife
ifeajuna
ifeanyi
ifeka
ifelodun
ifeoma
iffhs
ifk
ifrc
ig
iga
igabi
igala
igbanke
igbinedion
igbo
ige
igede
ighodaro
igiya
igiyar
igiyoyi
igiyoyin
ignace
ignacio
ignatius
ignore
ignored
igor
igp
igwe
iheanacho
iheme
ihezuo
ihf
ihrc
ihrda
ihu
ii
iii
ijaw
ijc
ije
ijebu
ijede
ijeoma
ijesha
ijigban
ijma
ijo
ijora
ik
ika
ikan
ikara
ike
ikechukwu
ikedieze
ikeja
ikeji
ikenne
ikilisiya
ikilisiyar
ikirari
ikirarin
ikklesiya
ikklesiyoyin
ikklisiya
iko
ikoku
ikon
ikonsa
ikonsu
ikonta
ikorodu
ikosi
ikot
ikoyi
ikpe
ikpeazu
ikpi
ikrima
ikrimah
iku
ikun
ikwerre
il
ila
ilawa
ilc
ile
ilesa
ilesha
ilha
ili
ilimantar
ilimantarwa
ilimi
ilimin
iliminsa
iliminsu
iliya
ill
illa
illar
illegal
illienko
illinois
illness
illolin
illustrated
ilm
ilmantar
ilmantarwa
ilmi
ilmin
ilo
ilorin
ilu
ilya
im
ima
imad
image
images
imam
imamai
imami
imams
imamu
iman
imani
imanin
imaninsa
imaninsu
imar
imdb
imel
imf
img
immigration
immune
immunology
immunotherapy
imo
imoh
imota
impact
impacts
impaired
imperial
implementation
implications
importance
important
improve
improved
imran
imt
in
ina
inabi
inaugural
inaugurates
inc
inch
inches
inci
incidence
include
included
includes
including
inclusion
income
incorporated
incorporates
increase
increased
increasing
incumbent
inda
inde
independence
independent
index
india
indian
indiana
indianapolis
indicates
indie
indies
indiewire
indigenous
indigo
indimi
individual
individuals
indiya
indiyawa
indiyawan
indo
indonesia
indonesian
indonesiya
indoor
induced
indus
industrial
industries
industry
ine
inec
inecnigeria
inequality
inf
infantry
infection
infections
infectious
infinix
inflammatory
influence
influential
influenza
info
infobox
informatics
information
informationng
infrared
infrastructure
ing
inganci
ingancin
inganta
ingantacce
ingantaccen
ingantacciyar
ingantattun
ingantawa
inge
ingila
ingilishi
ingiza
inhabitants
inheritance
inhibitors
ini
initiative
initiatives
inji
injin
injina
injinan
injiniya
injiniyan
injiniyanci
injiniyoyi
injiniyoyin
injuna
injunan
injured
injuries
injury
inland
inline
inn
inna
inner
innings
innocent
innovation
innovative
innsbruck
inorganic
inquiry
ins
insa
insakulofidiya
insee
inshora
inshorar
inside
insider
insidethegames
insight
insights
inspector
inspiration
inspirational
inspire
inspired
inspiring
instagram
institut
institute
institutes
institution
institutions
instituto
insu
insulin
insurance
insurer
int
inta
intanet
inte
integrated
integration
integrity
intel
intellectual
intelligence
intended
inter
interactive
intercontinental
interest
interesting
interface
intergovernmental
interim
interior
internacional
internal
international
internationalasa
internationalasashen
internationale
internationals
internazionale
internet
interpol
interpretation
interstate
intervention
interventions
interview
interviews
into
introduced
introducing
introduction
inuwa
inuwar
invalid
invasion
invasive
inventory
investigation
investigative
investment
investments
investors
inyamurai
inyamuranci
io
ioc
iol
iom
ionizing
ions
ios
iowa
ip
ipa
ipac
ipc
ipcc
iphr
ipl
ipo
ipob
ipswich
iqbal
ir
ira
iraki
iran
iranian
iraq
iraqi
irar
irct
ire
ireland
irele
iren
irene
irepodun
ireti
iri
irin
irinsa
irinsu
irinta
iris
irish
iro
irokotv
iron
ironsi
irori
irro
irs
iru
irving
is
isa
isaac
isabel
isabella
isah
isaiah
isale
isar
isarwa
isasshen
isasshiyar
isassun
isbn
iseyin
isfahan
isha
ishah
ishak
ishaku
ishaq
ishara
ishaya
ishaƙu
ishola
ishr
isi
isiaka
isichei
isil
isis
iska
iskar
isl
isla
islam
islama
islamabad
islami
islamic
islamiyya
islamqa
island
islander
islands
isle
isma
ismail
ismaila
isn
iso
isoko
isolo
isong
isowa
isowar
isowarsa
ispaniya
ispaniyanci
isra
israel
israeli
isrogen
issa
issac
issn
issoufou
issue
issued
issues
issuu
ist
istanbul
isu
isyaku
it
ita
itace
itacen
italia
italian
italiana
italic
italiya
italiyanci
italy
itama
itatuwa
itatuwan
item
itemid
items
itf
ithaca
ito
its
itsekiri
ittf
ittihad
itu
itunes
itv
iu
iucn
iv
ivan
ivm
ivoire
ivor
ivory
ivy
iwa
iwan
iwas
iweala
iwo
iwobi
ix
iya
iyabo
iyaka
iyakacin
iyakan
iyakance
iyakancewa
iyakancewar
iyakantaccen
iyakar
iyakarta
iyakoki
iyakokin
iyakokinta
iyalai
iyalan
iyalansa
iyalansu
iyali
iyalin
iyalinsa
iyalinta
iyalode
iyamah
iyanda
iyar
iyawa
iyawar
iyawarsa
iyaye
iyayen
iyayengiji
iyayensa
iyayensu
iyayenta
iyke
iyo
iyya
iyyar
iyyarsa
iyyarta
iyyu
iyyun
iza
izala
izar
izarsa
izgili
izini
izinin
izon
izuwa
izuzu
izz
iƙirarin
j
ja
jaafar
jaba
jabal
jabir
jabu
jabun
jack
jackie
jackou
jackson
jacksonville
jacob
jacobs
jacqueline
jacques
jadawalin
jaddada
jade
jafananci
jafar
jaffa
jagora
jagoran
jagorance
jagoranci
jagorancin
jagorancinsa
jagoranta
jagorantar
jagorar
jagorori
jagororin
jaguars
jah
jaha
jahannama
jahar
jahilci
jahiliyya
jahl
jahohi
jahohin
jahsh
jai
jail
jailed
jaja
jajayen
jaji
jajibirin
jajirce
jajircewa
jaka
jakada
jakadan
jakadanci
jakadancin
jakadiya
jakadiyar
jakadun
jakande
jakar
jakarta
jake
jaki
jakuna
jakunkuna
jalade
jalal
jalalayn
jalingo
jalloh
jallon
jallow
jam
jama
jamaa
jamaica
jamaican
jamal
jaman
jamb
james
jamestown
jamhuriya
jamhuriyar
jamhuriyya
jamhuriyyar
jami
jamia
jamie
jamil
jamila
jamiyar
jammeh
jammu
jamus
jamusanci
jamusawa
jan
jana
janairu
janairun
janar
janareta
jane
janeiro
janet
jang
jankiɗi
jannati
jansen
jantuah
january
janye
janyewa
janyo
japan
japanese
japin
jar
jarabawa
jarabawar
jarawa
jari
jarida
jaridar
jaridu
jaridun
jarin
jarinsa
jarir
jarirai
jariri
jaririn
jarrabawa
jarrabawar
jaruma
jarumai
jaruman
jarumar
jarumi
jarumin
jarumta
jarumtaka
jaruntaka
jarvis
jasmine
jason
jatau
java
javanese
javier
jawabai
jawabi
jawabin
jawabinsa
jawabinta
jawad
jawo
jawziyya
jaxa
jay
jaya
jayayya
jayhawks
jayne
jazeera
jazira
jazz
jazzy
jb
jc
jd
je
jean
jeanvier
jebba
jebsen
jeddah
jefa
jefar
jeff
jefferson
jeffrey
jega
jegede
jego
jeji
jem
jema
jemage
jemagu
jen
jena
jenifa
jenkins
jennifer
jenny
jensen
jera
jere
jeremiah
jeremy
jeri
jerin
jeroen
jerome
jerry
jersey
jerusalem
jesse
jessica
jesu
jesus
jet
jets
jeune
jeux
jewel
jewish
jews
jf
jg
jh
jharkhand
jhr
ji
jiang
jibril
jibrilu
jibrin
jibuti
jide
jifa
jifan
jiga
jigan
jigawa
jigilar
jigo
jigogi
jigogin
jigon
jiha
jihad
jihadi
jihadin
jihar
jiharsa
jihohi
jihohin
jijiya
jijiyar
jijiyoyi
jijiyoyin
jika
jikan
jikansa
jiki
jikin
jikinsa
jikinsu
jikinta
jikkata
jikoki
jikokin
jikunan
jill
jim
jima
jimawa
jimi
jimilar
jimilla
jimillar
jimina
jimla
jimlar
jimmy
jimoh
jimre
jin
jindadin
jing
jingina
jinginar
jingir
jini
jinin
jinjina
jinkiri
jinkirin
jinkirta
jinnah
jinsi
jinsin
jinsuna
jinsunan
jinya
jinyar
jira
jirage
jiragen
jiran
jirgi
jirgin
jita
jitar
jituwa
jiya
jiyya
jj
jk
jl
jm
jnr
jo
joa
joachim
joan
joanna
joanne
job
jobawa
jobe
jobs
jockey
joe
joel
joey
jogirafiyar
johan
johann
johannes
johannesburg
john
johnny
johns
johnson
johnston
johor
join
joined
joins
joint
jojin
jojiya
jojo
joke
jollof
jolly
jombo
jon
jonah
jonas
jonathan
jones
jong
jordan
jorge
jorginho
jos
jose
josef
joseph
josephine
josh
joshi
joshua
joshuaproject
josiah
jota
journal
journalism
journalist
journalists
journals
journey
joy
joyce
jp
jpg
jr
jradi
js
jstor
jt
ju
juaben
juan
juba
jubilee
jubril
judaism
jude
judge
judges
judicial
judiciary
judith
judo
judoka
judy
juice
juin
juji
jujjuya
jujjuyawa
jujjuyawar
juju
jukun
jul
juli
julia
julian
juliana
julie
juliet
julius
july
juma
jumare
jumla
jumlar
jumma
jumoke
jump
jun
juna
junairu
junansu
junction
june
jung
jungle
junior
junta
jure
jurewa
juri
jurisprudence
juriya
juriyar
jury
jus
just
justice
justices
justin
juventus
juya
juyar
juyawa
juyayi
juye
juyi
juyin
juzu
jw
k
ka
kaaba
kaabi
kaba
kabara
kabari
kabarin
kabarinsa
kabba
kabeji
kabewa
kabi
kabila
kabilanci
kabilar
kabilu
kabilun
kabir
kabiru
kabo
kabore
kabul
kaburbura
kaburburan
kabyle
kabylia
kabylie
kaca
kacal
kace
kachalla
kachia
kaci
kacici
kaciya
kaciyar
kada
kadada
kadai
kadaici
kadan
kadara
kadarori
kadarorin
kadawa
kaddamar
kaddara
kaddarorin
kade
kader
kadewere
kadiri
kaduna
kae
kafa
kafada
kafafen
kafaffen
kafafu
kafanchan
kafando
kafar
kafarsa
kafata
kafawa
kafe
kafet
kafi
kafin
kafinta
kafirai
kafofin
kaftin
kafu
kafuwa
kafuwar
kafuwarta
kaga
kagame
kagara
kagera
kagga
kagoro
kaguwa
kaho
kahon
kai
kaifi
kaifin
kaikaice
kaimi
kaina
kainji
kairouan
kaiser
kaishi
kaita
kaiwa
kaizer
kaje
kaji
kajuru
kaka
kakakin
kakan
kakanfo
kakanni
kakannin
kakanninsa
kakanninsu
kakansa
kakanta
kakar
kakarsa
kakarta
kake
kakkausar
kakuri
kala
kalaba
kalabari
kalahari
kalam
kalamai
kalaman
kalan
kalanda
kalandar
kalanga
kalangu
kalar
kalema
kalifa
kalifancin
kalifoniya
kalilan
kalla
kalli
kallo
kallon
kallonsa
kalma
kalmace
kalman
kalmar
kalmomi
kalmomin
kaltungo
kalu
kalubalanci
kalubalantar
kalubale
kalubalen
kam
kama
kamal
kamala
kaman
kamanceceniya
kamanni
kamannin
kamanta
kamar
kamara
kamari
kamarsu
kamaru
kamata
kamawa
kambi
kambin
kambodiya
kambun
kame
kamel
kameru
kamerun
kamewa
kamfani
kamfanin
kamfaninsa
kamfanoni
kamfanonin
kamfe
kamfen
kamil
kammala
kammalawa
kamo
kamoze
kampala
kamshi
kamu
kamuku
kamun
kamus
kamuwa
kamwe
kan
kana
kanada
kanal
kanam
kanana
kananan
kananun
kanar
kanawa
kanayo
kandahar
kandami
kane
kanem
kanembu
kanemi
kang
kanga
kango
kangwa
kani
kanin
kaninsa
kanjamau
kanka
kankam
kankana
kankanin
kankara
kankare
kanku
kanmu
kannada
kanne
kannywood
kano
kansa
kansar
kansas
kanshi
kansila
kansilan
kansiloli
kansilolin
kansu
kanta
kante
kanti
kantin
kantuna
kantunan
kanu
kanun
kanurai
kanuri
kanwa
kanwar
kanyi
kaplan
kapoor
kappa
kar
kara
karachi
karafa
karagar
karai
karama
karamar
karamci
karami
karamin
karamokho
karamoko
karan
karance
karanci
karancin
karanta
karantar
karantarwa
karantarwar
karantawa
karar
karara
kararraki
kararrakin
kararrawa
karas
karasa
karate
karatu
karatun
karatunsa
karatunsu
karatunta
karatuttuka
karatuttukan
karawa
karawar
karaya
karaye
karba
karbala
karban
karbar
karbe
karbi
karbo
karbuwa
kare
kareem
karekezi
karen
karewa
karewar
karfafa
karfafawa
karfe
karfi
karfin
karfinsa
kari
kariba
karibiyan
karim
karimci
karin
kariya
kariyar
karkanda
karkara
karkarar
karkashin
karkashinsa
karkashinta
karkata
karkatar
karko
karl
karma
karmapa
karnataka
karni
karnin
karnuka
karo
karofi
karon
karrama
karramawa
karramawar
karshe
karshen
karthala
karu
karuwa
karuwai
karuwanci
karuwar
karya
karyata
karye
karyewa
karɓa
karɓar
karɓe
karɓi
karɓuwa
kasa
kasada
kasadar
kasafai
kasafi
kasafin
kasafta
kasala
kasan
kasance
kasancewa
kasancewar
kasancewarsa
kasancewarsu
kasancewarta
kasantuwar
kasar
kasarmu
kasarsa
kasarsu
kasarta
kasaru
kasashe
kasashen
kasashensu
kasawa
kaset
kashe
kashegari
kashen
kashewa
kashi
kashim
kashin
kashmir
kashmiri
kashmiris
kasida
kasidu
kasim
kasko
kaso
kason
kassena
kasu
kasusuwa
kasusuwan
kasuwa
kasuwan
kasuwanci
kasuwancin
kasuwancinsa
kasuwancinsu
kasuwancinta
kasuwanni
kasuwannin
kasuwar
kat
kataf
katafaren
katagum
katako
katakon
katamanso
katanga
katangar
katange
katantanwa
kate
katepwa
katherine
kathir
kathleen
kathryn
kathy
kati
katie
katifa
katin
katolika
katon
katrina
katsalandan
katse
katsewa
katsina
katunan
katuwar
katz
kau
kauce
kaucewa
kaufman
kaufmann
kauna
kaunar
kaura
kaurace
kauracewa
kauri
kaurin
kaushi
kauye
kauyen
kauyuka
kauyukan
kawa
kawai
kawance
kawancen
kawanya
kawar
kawarta
kawata
kawayenta
kawo
kawowa
kawowo
kawu
kawun
kawuna
kawunan
kawunansu
kawunsa
kay
kaya
kayan
kayansu
kayanta
kayar
kayatarwa
kayayyaki
kayayyakin
kaye
kayembe
kayen
kayes
kayi
kayo
kayode
kayyade
kaza
kazakhstan
kazalika
kazamin
kazan
kazanta
kazaure
kazeem
kazim
kaɗa
kaɗai
kaɗan
kaɗe
kb
kcca
kd
ke
keating
kebbi
kebe
kebede
kebul
keda
kedar
kedarnath
keele
keeler
keep
keeping
keffi
kehinde
kehoe
kei
keita
keith
keji
kek
keke
keken
kekuna
kel
kelambakkam
kelani
kelantan
kelechi
keller
kelly
kelvin
kemi
ken
kenadid
kenan
kenkey
kennedy
kenneth
kenny
kensington
kent
kente
kentucky
kenya
kenyan
kenyatta
kepler
kept
kera
kerala
kerawa
kere
kerr
kerry
kese
keshi
keta
ketare
ketu
kevin
kewaya
kewayawa
kewaye
kewayen
kewayenta
kewayon
key
keyamo
keyboard
keyi
keys
keystone
keɓance
keɓancewa
keɓancewar
keɓanta
keɓantacce
keɓantaccen
keɓantawa
keɓaɓɓen
keɓaɓɓiyar
keɓaɓɓu
keɓaɓɓun
keɓe
keɓewa
keɓewar
kg
kh
khadija
khadijah
khair
khaldu
khaldun
khaled
khaleel
khalid
khalifa
khalifanci
khalifancin
khalifofin
khalil
khamene
khamis
khan
khanna
kharkiv
khartoum
khashoggi
khatijah
khattab
khaybar
khazim
khomeini
khorasan
khordad
khumaini
khurasan
khwaja
khyber
ki
kianni
kiba
kibera
kibi
kibiya
kicin
kick
kicker
kickoff
kicks
kid
kida
kidan
kidaya
kidayar
kidd
kide
kididdiga
kididdigar
kidnap
kidnapped
kidnapping
kidney
kids
kiev
kifar
kifaye
kifayen
kifi
kifin
kigali
kiki
kila
kilani
kill
killace
killed
killer
killing
killings
kills
kilo
kilogiram
kilogram
kilometre
kilometres
kilomita
kim
kima
kimani
kimanin
kimanta
kimantawa
kimantawar
kimar
kimathi
kimberly
kimiya
kimiyar
kimiyya
kimiyyan
kimiyyar
kin
kind
kindergarten
kindle
king
kingdom
kingdomasar
kingdoms
kingibe
kings
kingsley
kingston
kino
kinshasa
kintampo
kio
kira
kiran
kiransa
kiranshi
kiransu
kiranta
kirar
kirari
kiraye
kirdi
kirga
kiri
kirista
kiristanci
kiristoci
kiristocin
kirji
kirk
kirki
kirkira
kirkirar
kirkire
kirkireshi
kirkiri
kirkiro
kirsimeti
kirsten
kirtani
kiru
kisa
kisan
kishi
kishin
kishiya
kishiyar
kiss
kisumu
kit
kita
kitab
kitchen
kitchener
kitse
kitso
kivu
kiwan
kiwo
kiwon
kiyama
kiyashi
kiyashin
kiyasi
kiyasin
kiyasta
kiyaye
kiyayewa
kiyayya
kizomba
kiɗa
kiɗan
kiɗe
klaus
klein
kleinewillingho
km
kn
knapp
knesset
knew
knight
knights
knockout
know
knowledge
knowles
known
knox
knust
knvb
ko
kobi
kobina
kobza
kochi
koci
kocin
kociyan
koda
kodai
kodayake
kodinetan
koeman
kofa
kofar
koffi
kofi
kofin
kofofi
kofofin
koforidua
kofuna
kofunan
kofur
kogi
kogin
kogo
kogon
koguna
kogunan
kojo
kok
koka
kokari
kokarin
kokarinsa
kokarinsu
kokarinta
kokawa
kokawar
koke
koken
koko
kokuma
kola
kolawole
kole
koleji
koli
kolin
kolkata
kololuwa
kololuwar
kolombiya
koma
komai
komawa
komawar
komawarsa
kome
komenda
komo
komolafe
komputa
kona
konadu
konawa
kone
konewa
konewar
kong
kongo
konkomba
konni
kontagora
kontrak
koo
koomson
kooora
kora
korafe
korafen
korafi
korafin
koramu
korar
korau
kore
korea
korean
koren
kori
koriya
korle
koro
korona
korsah
korup
koshin
kosoko
kosovo
kossou
kota
kotoko
kotu
kotun
kotuna
kotunan
kou
kouara
kouka
koulikoro
kountche
kouyate
kowa
kowacce
kowace
kowane
kowani
kowanne
kowannensu
koya
koyan
koyar
koyarwa
koyarwar
koyarwarsa
koyaswar
koyaushe
koyawa
koyaya
koyi
koyo
koyon
kp
kpone
kramer
krasnodar
kretschmann
krige
krishna
krista
kristi
kristin
kroatiya
krobo
krulak
kt
ku
kuala
kuban
kubba
kubi
kubra
kubuta
kubutar
kuce
kud
kudade
kudaden
kudan
kudanci
kudancin
kudi
kudin
kudiri
kudirin
kudu
kuduri
kudurin
kudus
kufa
kufour
kufuor
kuhn
kuje
kujera
kujerar
kujerarsa
kujerarta
kujeru
kujerun
kuka
kukan
kukawa
kuke
kula
kulab
kulake
kulawa
kulawar
kuli
kuliya
kuliyoyi
kulla
kulle
kullen
kullu
kullum
kullun
kulob
kulthum
kulture
kulub
kulungugu
kum
kuma
kumah
kumallo
kumar
kumasi
kumawood
kumawu
kumbura
kumburi
kumburin
kumfa
kumi
kun
kuna
kunama
kunar
kunci
kundi
kundin
kungiya
kungiyan
kungiyar
kungiyarsa
kungiyarta
kungiyoyi
kungiyoyin
kunkuntar
kunkuru
kunle
kunna
kunnawa
kunne
kunnen
kunno
kunnukara
kunnuwa
kunqu
kunsa
kunshe
kunshi
kunshin
kunu
kunun
kunya
kur
kura
kurai
kuraishawa
kurakurai
kurakuran
kurame
kurdawa
kurdistan
kure
kurfi
kuri
kurket
kurkuku
kurkukun
kurma
kurmi
kuros
kursiyin
kurt
kuru
kuruciyarsa
kuruniyan
kururuwa
kusa
kusan
kusanci
kusancin
kusantar
kuskure
kuskuren
kusurwa
kusurwar
kusurwoyi
kut
kuta
kuteb
kutere
kuti
kutigi
kutsa
kutsawa
kutse
kutub
kutumbi
kuwa
kuwait
kuwaiti
kuyanga
kuye
kuzari
kuzarin
kuɗaɗe
kuɗaɗen
kuɗi
kuɗin
kv
kw
kwa
kwabena
kwabo
kwabre
kwace
kwadago
kwadagon
kwadwo
kwafa
kwafi
kwafin
kwahu
kwai
kwaikwayi
kwaikwayo
kwaikwayon
kwaikwayonsa
kwaku
kwakwa
kwakwalwa
kwakwalwan
kwakwalwar
kwakye
kwal
kwalabe
kwalara
kwalba
kwale
kwaleji
kwalejin
kwalejoji
kwalejojin
kwalen
kwali
kwalin
kwallan
kwallaye
kwallayen
kwalliya
kwalliyar
kwallo
kwallon
kwallonsa
kwalta
kwamanda
kwamandan
kwamandojin
kwamankese
kwame
kwamfuta
kwamfutar
kwamfutoci
kwamfutocin
kwaminis
kwaminisanci
kwamishina
kwamishinan
kwamishinar
kwamishiniyar
kwamishinoni
kwamishinonin
kwamiti
kwamitin
kwamitoci
kwamitocin
kwan
kwana
kwanaki
kwanakin
kwanan
kwance
kwanciya
kwanciyar
kwandishan
kwando
kwandon
kwane
kwangila
kwangilar
kwangilarsa
kwangiloli
kwangilolin
kwango
kwankwaso
kwano
kwanon
kwanta
kwantar
kwantena
kwantiragi
kwantiragin
kwantiraginsa
kwanton
kwanturola
kwara
kwarai
kwarangwal
kwarara
kwararafa
kwararan
kwararar
kwararowar
kwararrafa
kwararre
kwararren
kwararriya
kwararriyar
kwararru
kwararrun
kware
kwarewa
kwarewar
kwarewarsa
kwari
kwarin
kwarjini
kwaro
kwarteng
kwaruruka
kwarya
kwaryar
kwas
kwasa
kwasai
kwasan
kwashe
kwasi
kwaskwarima
kwaskwarimar
kwastam
kwastan
kwastomomi
kwata
kwatance
kwatancen
kwatanci
kwatancin
kwatankwacin
kwatanta
kwato
kwatsam
kwaya
kwayar
kwayoyi
kwayoyin
kwazazzabo
kwazo
kwazon
kwazonsa
kwazulu
kwaɗo
kweku
kwesi
ky
kyaftin
kyakkyawa
kyakkyawan
kyakkyawar
kyale
kyallen
kyama
kyamar
kyamara
kyamarar
kyan
kyanda
kyanwa
kyar
kyari
kyau
kyaun
kyauta
kyautar
kyautata
kyautatawa
kyautuka
kyaututtuka
kyaututtukan
kyawawa
kyawawan
kyawu
kyawun
kyiv
kyle
kyoto
kyrgyzstan
kz
l
la
lab
labanon
labarai
labaran
labari
labarin
labarinsa
labarinta
labaru
labarun
labastille
labe
label
laberiya
labor
laboratory
labour
labs
laburare
laburaren
labyad
lac
lacca
laccar
laccoci
lacey
lack
lacy
lada
ladabi
ladabtar
ladabtarwa
ladan
laden
ladi
ladies
ladipo
lado
ladoja
ladol
lady
lafazi
lafazin
lafia
lafiya
lafiyan
lafiyar
lafiyarsa
lafiyarsu
lafiyarta
lafiyayyen
laftana
laftanar
lager
lagoon
lagos
lahab
lahadi
lahani
lahira
lahore
lai
laid
laifi
laifin
laifinsa
laifuffuka
laifuffukan
laifuka
laifukan
laila
laima
laka
lakabi
lakabin
lakafta
lakay
lake
lakes
lakhdar
lala
lalace
lalacewa
lalacewar
lalata
lalatar
lalibela
laliga
lallai
lallasa
lallashe
lalle
lam
lama
lamari
lamarin
lamba
lamban
lambar
lambda
lambert
lambo
lambobi
lambobin
lambton
lambu
lambun
lambuna
lambunan
lame
lami
lamidi
lamido
lamine
lamiri
lamirin
lamont
lamorde
lamp
lamptey
lamu
lamuni
lamunin
lamura
lamuran
lan
lana
lancashire
lancaster
lance
lancelot
lancet
land
landan
landau
landfill
landing
landmark
lands
landscape
landscapes
lane
lang
lange
langer
langtang
language
languages
lanham
lanka
lankwasa
lanre
lantarki
lantarkin
lanƙwasa
laos
lapai
lar
lara
laraba
larabanga
larabawa
larabawan
larabci
larabcin
larbi
lardi
lardin
larduna
lardunan
lare
large
largest
larr
larry
larura
larurar
las
lasafta
laser
lashe
lasisi
lasisin
lassa
last
lat
late
lateef
later
latest
latif
latin
latinanci
latino
latinos
latitude
latsa
latter
latvia
lau
laude
lauds
launch
launched
launches
launi
launin
launuka
laura
laure
laureate
lauren
laurence
laurent
laureus
laurie
lausanne
laushi
lauya
lauyan
lauyoyi
lauyoyin
lava
laval
lavers
law
lawal
lawan
lawma
lawmaker
lawmakers
lawn
lawra
lawrence
laws
lawson
lawyer
lawyers
lay
laya
layer
layi
layin
layiwola
layla
layuka
layukan
layya
lazarus
lazio
laƙabi
laƙabin
lb
lber
lbs
lc
lcda
ld
le
lea
lead
leader
leaders
leadership
leading
leads
leaf
league
leak
leap
learn
learner
learning
least
leave
leaves
leaving
lebanon
lebe
lebur
lecture
lecturer
lectures
led
leda
lee
leeds
lees
left
legacies
legacy
legal
legane
legas
legend
legendary
legends
legion
legislation
legislative
legit
legon
lehmann
lei
leicester
leiden
leigh
leila
leipzig
leisure
leken
lekki
lemo
lemon
lemu
lemun
len
lena
lengai
lenin
lenore
lens
leo
leon
leonard
leonardo
leone
leonid
leontovych
leopards
leopold
lere
les
lesbian
lesley
leslie
lesotho
less
lessing
lessons
let
letter
letters
leukemia
leurs
lev
levant
levante
level
levels
leverkusen
levi
levine
levy
lewis
lex
lexical
lexicon
lexington
ley
leymaniye
lez
leƙen
lfp
lg
lga
lgas
lgbt
lgbti
lgbtq
li
lia
liam
liang
lib
libe
liberal
liberation
liberia
liberiya
libertarian
liberty
libiya
libraries
library
libreville
libya
libyan
licence
license
lie
liechtenstein
lierse
lies
lieu
lieutenant
lieux
lif
life
lifestyle
lifetime
lift
lig
liga
light
lighthouse
lightning
lights
ligue
like
likely
likita
likitan
likitanci
likitancin
likitoci
likitocin
lil
lilian
lille
lillehammer
lillian
lilongwe
lily
lim
lima
limamai
limaman
limami
limamin
liman
limann
limassol
limit
limited
limits
limpopo
lin
lincoln
linda
linden
lindsay
line
lines
ling
lingua
linguistic
linguistics
link
linked
linkedin
linkid
links
linn
linus
linux
linzami
linzamin
lion
lionel
lions
lippincott
lisa
lisbon
lissafa
lissafi
lissafin
lissafo
lissafta
list
liste
listed
listen
lister
listing
lists
lit
lita
litattafai
litattafan
literary
literature
literatures
lithuania
litinin
littafai
littafan
littafi
littafin
littafinsa
littafinta
littattafai
littattafan
littattafansa
littattafanta
little
littlefield
liu
live
lived
liver
liverpool
lives
living
livingstone
lix
liyafa
liyafar
liz
liza
lizzie
lj
ljubljana
lk
ll
lla
llb
llc
ller
llm
lloyd
lm
lmg
ln
lo
loach
loan
lobe
loc
local
located
location
locations
locationtemplate
lockdown
locke
locomotive
loda
lodge
lodi
logan
logic
logistics
logo
logone
loi
lois
lok
lokaci
lokacin
lokacinda
lokacinsa
lokacinta
lokko
lokoja
lokomotiv
lokpobiri
lokuta
lokutan
lola
lolo
loma
lome
london
lone
lonely
long
longer
longitude
longman
longuda
look
looking
lookman
looks
lopes
lopez
lord
lords
lorenzo
lorient
los
lose
loses
loss
lost
lot
lota
lou
loughborough
louis
louise
louisiana
louisville
love
loveauna
lovejoy
lovers
low
lower
loyola
lp
ls
lsc
lt
ltd
lte
lu
luanda
luangwa
luc
luca
lucas
lucia
lucie
luck
lucky
lucy
ludwig
lugano
lugard
lugga
lui
luigi
luis
luisa
luka
lukas
luke
lukman
lullube
lulluɓe
lulu
lumana
lumba
lumie
lumpur
lumumba
lung
lungu
luo
lura
lusaka
luth
luther
lutheran
luton
lutte
luv
luwadi
luwaɗi
lux
luxembourg
luxor
luxury
lviv
lw
lwx
lyatoshynsky
lyce
lycett
lydia
lyle
lymph
lymphatic
lymphoma
lynch
lynda
lynn
lynne
lyon
lyrics
lysenko
m
ma
maa
maballin
mabanbanta
mabel
mabil
mabiya
mabiyan
mabiyansa
mabiyi
mabiyin
mabukaci
mabukata
mabuɗan
mabuɗin
mac
macarthur
macau
macaulay
macbeth
maccabi
maccido
macdonald
mace
macedonia
macen
machine
maciji
macijin
macizai
mack
mackay
mackenzie
maclean
macmillan
macro
macron
mad
mada
madadin
madadinsa
madafun
madagascar
madagaskar
madaidaicin
madaidaiciya
madaidaiciyar
madaidaitan
madaki
madam
madame
madani
madannai
madannin
madara
madarar
madatsar
madatsun
madauci
madaukakin
madauki
madauwari
madawaki
madawwami
maddie
made
madea
madelung
madhya
madigo
madiha
madina
madinah
madinawa
madison
madogara
madonna
madras
madrasa
madre
madrid
madu
madubi
madubin
madueke
madugu
maduka
madurai
mae
mafa
mafaka
mafakar
mafara
mafarauci
mafarauta
mafarautan
mafari
mafarki
mafarkin
mafi
mafia
mafira
mafita
mafitsara
mafiya
mafoumbi
magabacin
magabacinsa
magabata
magabatan
magada
magadan
magaji
magajin
magajinsa
magajiya
magana
maganadisu
maganar
maganarsa
magance
maganganu
maganganun
magani
maganin
magariba
magarya
magatakarda
magatakardar
magazine
magazines
magda
mage
maggie
maghreb
maghrib
magic
magidanci
magidanta
magina
magma
magna
magnesium
magnetic
magnus
magoya
magudanan
magudanar
magudi
magudin
magunguna
magungunan
maguzawa
mah
maha
mahada
mahadar
mahadi
mahaifa
mahaifar
mahaifarsa
mahaifarta
mahaifi
mahaifin
mahaifina
mahaifinsa
mahaifinsu
mahaifinta
mahaifiya
mahaifiyar
mahaifiyarsa
mahaifiyarsu
mahaifiyarta
mahaifiyata
mahajjata
mahajjatan
mahal
mahalarta
mahalicci
mahaliccin
mahalli
mahallin
mahama
mahamadou
mahamat
mahanga
mahangar
mahara
maharaj
maharan
maharashtra
maharba
maharbi
maharin
mahathir
mahatma
mahaukaci
mahaukaciyar
mahaukata
mahauta
mahawara
mahaya
mahayan
mahaɗan
mahaɗar
mahdi
mahe
maher
mahimman
mahimmanci
mahimmancin
mahimmin
mahmood
mahmoud
mahmud
mahrez
mahukuntan
mahuta
mai
maici
maid
maida
maiden
maido
maidowa
maiduguri
maigida
maigidan
maigidanta
maikori
mail
maimaita
maimaitawa
maimaituwa
maimakon
maimuna
main
maina
maine
mainland
maint
maintenance
mainz
mais
maison
maita
maitama
maitatsine
maiyuwa
maj
maja
majagaba
majah
majalisa
majalisan
majalisar
majalissar
majalisu
majalisun
majami
maje
majeerteen
majestic
majibincin
majid
majistare
majiya
majiyar
majiyoyi
majiyoyin
majiyyaci
majiɓinci
majiɓincin
major
majority
maka
makabarta
makabartar
makada
makafi
makaho
makala
makale
makama
makamai
makaman
makamancin
makamantan
makamantansu
makamashi
makamashin
makami
makamin
makanjuola
makanta
makara
makaranta
makarantan
makarantar
makarantarsa
makarantu
makarantun
makarfi
makasudin
makau
makawa
makaɗa
make
maker
makera
makerere
makers
makes
makeup
makgadikgadi
makhzum
maki
makin
makinde
making
makinwa
makirci
makircin
makiya
makiyaya
makiyayan
makiyayi
makka
makkah
mako
makogwaro
makoki
makoma
makomar
makomarsa
makomarsu
makon
makonni
makonnin
maktoum
makudan
makullin
makun
makurdi
makwabciyar
makwabciyarta
makwabta
makwabtaka
makwabtan
makwabtansu
makwanni
mal
mala
malagasy
malaika
malala
malalar
malam
malama
malamai
malaman
malamansa
malamar
malami
malamin
malaminsa
malan
malanta
malaria
malawi
malay
malaya
malayalam
malaysia
malaysian
malcolm
maldives
male
malek
malesiya
maleziya
mali
malignant
malik
maliki
malikiyya
malin
maliya
mall
mallaka
mallakan
mallakar
mallake
mallaki
mallakin
mallam
mallick
mallon
mallorca
malloum
malmo
malta
malumfashi
mama
mamaci
mamacin
mamadou
mamaki
mamakin
mamallakin
maman
mamaya
mamayar
mamaye
mamayewa
mamayewar
mamba
mamban
mambe
mambila
mambilla
mambobi
mambobin
mambobinta
mamelodi
mamluk
mamman
mammary
mammography
mampong
mampruli
mamprusi
mamu
man
mana
manaf
management
manager
managing
manaja
manajan
manajoji
manajojin
manazarta
manchester
manchu
mandara
mandarin
mandate
mande
mandela
mandeville
mandinka
mandz
mane
manema
manga
mango
mangoro
mangrove
mangroves
mangwaro
manhaja
manhajar
manhattan
manhyia
mani
manifesto
manila
manitoba
manitou
maniyyi
manja
manjo
mankind
mann
manna
manne
manoma
manoman
manomi
manor
manpower
mans
mansa
mansfield
manso
mansour
mansur
manta
mantawa
mantra
manu
manual
manuel
manufa
manufacturing
manufar
manufarsa
manufarta
manufofi
manufofin
manufofinsa
manufofinsu
manufofinta
manuscript
many
manya
manyan
manyika
manzanni
manzo
manzon
mao
map
maple
mapping
maps
maputo
mar
mara
maraba
maradi
marafa
maraice
marais
marar
maras
marasa
marassa
marathon
marawa
maraya
marayu
marc
marca
marcel
march
marche
marco
marcos
marcus
mare
marfo
margaret
marghi
margi
margin
margolin
mari
maria
mariam
mariama
marian
marie
marigayi
marigayin
marigayiya
marijuana
marilyn
marina
marine
marino
mario
marion
maris
maritime
maritzburg
mariya
mark
marka
market
marketing
markets
markin
marks
markus
marley
marmara
marmari
marmaro
maroc
maroko
maroua
marques
marquette
marrakech
marrakesh
marriage
married
marriott
marry
mars
marsden
marseille
marsh
marshal
marshall
martaba
martabar
martani
martanin
martha
marti
martial
martin
martina
martinair
martinez
martins
martinsson
martinus
marubuci
marubucin
marubuciya
marubuciyar
marubuta
marubutan
marufi
marvel
marvin
marwa
marwan
marx
mary
maryam
maryamu
maryland
mas
masa
masaku
masalit
masallaci
masallacin
masallatai
masallatan
masana
masanan
masani
masanin
masaniya
masaniyar
masar
masara
masarar
masarauta
masarautar
masarautarsa
masarautu
masarautun
masarawa
masari
masarufi
masauki
masaukin
masha
mashahurai
mashahuran
mashahuri
mashahurin
mashawarci
mashawarcin
mashawarta
mashaya
mashhad
mashi
mashigar
mashigin
mashin
masifa
masina
masjid
mask
masks
maslaha
maso
mason
masood
masoya
masoyan
masoyi
masquerade
masquerades
masroor
mass
massachusetts
massacre
massif
massive
massoud
mastectomy
master
mastercard
masters
mastroeni
masu
masunta
mat
mata
matafiya
matafiyi
mataimaka
mataimakan
mataimaki
mataimakin
mataimakinsa
mataimakiya
mataimakiyar
matakai
matakan
mataki
matakin
matalauta
matan
matani
matansa
matansu
matar
matarsa
matasa
matasan
matashi
matashin
matashiya
matashiyar
matatar
matattara
matattarar
matattu
matatun
matawalle
match
matches
mate
material
materials
maternal
mathematics
matheus
mathieu
mati
matilda
matin
mato
matrilineal
matrix
matsa
matsakaici
matsakaicin
matsakaiciyar
matsakaita
matsakaitan
matsala
matsalar
matsaloli
matsalolin
matsanancin
matsananciyar
matsar
matsawa
matsaya
matsayi
matsayin
matsayina
matsayinsa
matsayinsu
matsayinta
matse
matsi
matsin
matsugunai
matsugunan
matsuguni
matsugunin
matt
matter
matters
matthew
matthews
matuka
matukan
matukar
matukin
matuƙa
matuƙar
mau
maudu
maulana
maulidi
maureen
maurice
mauritania
mauritaniya
mauritius
mausoleum
maverick
mavis
mawa
mawaka
mawakan
mawaki
mawakin
mawakiya
mawakiyar
mawallafa
mawallafi
mawallafin
mawaƙa
mawaƙan
mawaƙi
mawaƙin
mawaƙiya
mawaƙiyar
mawuyacin
max
maxakali
maxim
maxwell
may
maya
mayafi
mayafin
mayaka
mayakan
mayaki
mayan
mayar
mayaƙa
mayaƙan
mayaƙin
maye
mayer
mayo
mayor
mayotte
mayu
mayun
mayweather
maza
mazaba
mazabar
mazabarsa
mazabarta
mazabu
mazabun
mazaje
mazajen
mazajensu
mazan
mazauna
mazaunan
mazaunanta
mazauni
mazaunin
mazauninsu
mazauniyar
mazaɓar
mazaɓu
mazembe
mazhabar
mazhabobi
mazhabobin
mazibuko
maƙala
maƙarƙashiya
maƙasudi
maƙasudin
maƙera
maƙeri
maƙiyi
maƙwabta
maƙwabtan
maɓallan
maɓalli
maɓallin
maɓuɓɓugan
maɓuɓɓugar
maɗaukaki
maɗaukakin
mb
mba
mbadinuju
mbaise
mbau
mbc
mbe
mbgn
mbit
mc
mcadam
mcarthur
mcbride
mcc
mccaffrey
mccain
mccann
mccarthy
mcdermott
mcdonald
mcdonnell
mcfarland
mcgill
mcgraw
mcgregor
mcguinness
mcintyre
mckeever
mclean
md
mdd
me
mean
meaning
means
measures
meat
mecca
mechanical
mechanics
mechanism
mechanisms
mechanized
med
medal
medalist
medals
media
mediawiki
medical
medicine
medicines
medieval
medina
mediterranean
medium
meer
meet
meeting
meets
meg
mega
megan
megawatt
meha
meher
mei
mejbri
mel
melanie
melanoma
melbourne
mele
melinda
mellitus
memba
member
members
membership
membobi
membobin
membobinsu
membobinta
membrane
memoir
memoirs
memorial
memory
memphis
men
mena
mendenhall
mendes
mendip
mendy
mene
menene
menerville
menna
menopause
mensa
mensah
mental
mentor
menu
mep
meps
mer
meraldene
mercato
mercator
mercedes
merchant
mercury
mercy
mere
meredith
meri
meridian
merit
merkel
merriam
merry
mers
mes
mesa
mesi
mesofotamiya
mesopotamia
mesopotamiya
message
messenger
messi
met
meta
metabolism
metadata
metal
metaphysics
metastases
metastasis
metastatic
meteorological
meteorology
methane
method
methodist
methods
methylation
metre
metres
metric
metro
metropolitan
metta
metz
meurer
mexico
meyer
meziko
mf
mfa
mfantseman
mfantsipim
mfr
mg
mgmt
mh
mhin
mhz
mi
mia
miami
mic
mica
mice
michael
michel
michelle
michigan
michika
micro
microbiology
microplastics
microsoft
mid
middle
middlesbrough
middlesex
middleton
midfielder
midil
midlands
mido
midtjylland
midwest
midwifery
might
mighty
migrants
migration
miguel
mihrab
miint
miji
mijin
mijinta
mika
mikati
mikawa
mike
mikel
mikhail
miki
mikiya
mil
miladiyya
milan
milano
mildred
mile
miles
military
miliyan
miliyoyin
milk
mill
mille
millennium
miller
millimetres
million
millionaire
millions
mills
milo
milton
milyan
mimi
mimiko
min
mina
minaj
minaret
minarets
minas
mind
mindfreedom
minds
mine
mineral
minerals
minerva
mines
ming
minh
mini
minimum
minin
minine
mining
miniseries
minista
ministan
ministar
ministe
minister
ministerial
ministers
ministoci
ministocin
ministocinsa
ministre
ministries
ministry
minjibir
minna
minneapolis
minnesota
minnie
minor
minorities
minority
minsk
mint
minti
mintina
mintoci
mintuna
minute
minutes
mio
mir
mira
mirab
miracle
mirage
miranda
miriam
mirror
mirza
mis
misalai
misalan
misali
misalin
misalta
misau
mise
mishan
mishaneri
mishi
misira
misis
misr
misra
miss
missilou
missing
mission
missionary
mississippi
missouri
mista
mit
mita
mitar
mitchell
mitigation
mitochondrial
mitoci
mix
mixed
miya
miyagun
miyan
miyar
mizan
mizouni
mizrahi
miƙa
mj
mk
mko
ml
mla
mlh
mls
mm
mma
mmwr
mn
mni
mnsd
mo
mobil
mobile
mobolaji
moc
mod
mode
model
modeling
modelling
models
modern
modernghana
modi
modibbo
modibo
module
modupe
moe
mofe
moffat
mogadishu
mogaji
mogg
moghalu
moh
mohamad
mohamed
mohammad
mohammed
mohsen
moi
moji
molara
moldova
mole
molecular
moledo
molly
mom
mombasa
moment
moments
momo
momoh
moms
mon
mona
monaco
monalisa
monarch
monastir
monday
monde
monetary
money
mongabay
mongol
mongolia
mongoliya
mongols
monguno
monica
monique
monitor
monitoring
monkey
mono
monoclonal
monoxide
monroe
monrovia
mons
monsieur
monster
mont
montana
montane
monte
monteiro
montenegro
montessori
montgomery
month
monthly
months
montpellier
montreal
monument
monuments
moon
moore
moorish
moors
moosa
moose
mopti
mora
moral
mordi
more
moreirense
moremi
moreno
morgan
moriba
moriyar
morning
moro
moroccan
morocco
moroko
morris
morrison
morro
morse
morsi
mort
mortality
morton
mos
mosaic
moscow
moses
moshood
mosque
mosques
moss
mossad
mossi
most
mostyn
mosul
mosun
mota
motar
mother
mothers
moting
motion
motoci
motocin
motor
motors
motsa
motsawa
motsawar
motsi
motsin
mou
mould
mounir
mount
mountain
mountains
mounth
mourns
mouscron
mouse
moussa
moustapha
mouth
mouvement
move
moved
movement
movements
moves
movie
movies
moving
moyo
mozambik
mozambique
mozart
mp
mph
mps
mr
mri
mrna
mrs
ms
msa
msakni
msc
msh
msn
msw
mt
mtn
mtv
mu
muammar
muawiya
muawiyah
muazu
mubarak
mubaya
mubi
much
mucinous
mud
mudanya
mudasiru
muddin
mufti
mufuradi
mugabe
mugabi
mugayen
muggan
mughal
mugun
mugunta
muguwar
muh
muhaiyaddeen
muhajir
muhallansu
muhalli
muhallin
muhallinsu
muhammad
muhammadu
muhammed
muharram
muhawara
muhawarar
muhimman
muhimmanci
muhimmancin
muhimmi
muhimmin
muhimmiyar
muir
mujaddadi
mujahid
mujalla
mujalladi
mujallar
mujallolin
mujallu
mujiya
muka
mukaddashin
mukamai
mukaman
mukami
mukamin
mukaminsa
mukaminta
muke
mukhtar
muku
mulki
mulkin
mulkinsa
mulkinsu
mulkinta
mulla
mullah
multi
multimedia
multiple
muluk
mum
muma
mumbai
mumin
muminai
mummuna
mummunan
mummunar
mumuni
mumuye
mun
muna
munafunci
munajjid
munanan
mundi
mundo
muni
munich
municipal
municipalities
municipality
munin
munir
munising
munje
muntaka
munyi
mura
murabba
murabus
murad
muradin
muradun
murar
muratova
murder
murdered
murfi
murfin
murhu
muri
murjani
murkushe
murmansk
murmure
murmurewa
murmushi
murna
murnar
murphy
murray
mursi
murtala
murya
muryar
muryarhausa
muryarta
muryoyi
muryoyin
murƙushe
mus
musa
musabbabin
musah
musamman
musanta
musanya
musaya
musayar
musaylima
musaylimah
muscat
muse
museum
museums
museveni
musharraf
mushin
music
musical
musician
musicians
musk
muslim
muslims
musnad
muson
musona
musonda
must
mustadrak
mustafa
mustafizur
mustapha
musu
musulinci
musulma
musulmai
musulman
musulmi
musulmin
musulunci
musulunta
musuluntar
musun
mut
muta
mutallab
mutanan
mutane
mutanen
mutanensa
mutanensu
mutanenta
mutations
mutilation
mutile
muttalib
mutu
mutual
mutum
mutumi
mutumin
mutummutumi
mutumtaka
mutun
mutunci
mutuncin
mutunta
mutuntaka
mutuntawa
mutuwa
mutuwar
mutuwarsa
mutuwarta
muwatta
muyi
muyiwa
muƙalar
muƙamai
muƙami
muƙamin
mv
mvp
mw
mwanza
mwepu
mwfw
mwha
my
myanmar
myeloid
myers
myjoyonline
mykola
mynewsgh
myroslav
myschool
mystery
mystic
myth
mzali
mzansi
n
na
naa
naacp
nabi
nabil
nabiyu
nace
naci
nacional
nada
nadaga
nadama
nadamar
nadashi
nade
naden
nadi
nadia
nadin
nadine
nadinsa
nadir
nadu
naf
nafada
nafi
nafila
nafisa
naga
nagano
nagar
nagari
nagarta
nagartar
naghavi
nagogo
naguib
nahawu
nahawun
nahiya
nahiyar
nahiyoyi
nahiyoyin
nai
naidoo
naij
naija
naijabasic
naik
naim
nair
naira
nairametrics
nairobi
najaf
najasa
najd
naje
najeria
najeriya
najeriyar
naji
najib
naka
nakalto
nakamoto
nakasa
nakasar
nakasassu
nakasu
nakate
nake
nal
nama
namadi
naman
name
named
namenj
names
nami
namibia
namibian
namibiya
namiji
namijin
namo
namoda
namomin
namu
namun
nan
nana
nanata
nancy
nandi
nandom
nangere
nanjing
nanka
nanotechnology
nantes
nanufin
nanumba
naomi
naples
napoleon
napoli
naptip
nar
narambada
narcea
nard
narkar
narke
narkewa
narkewar
narrative
narratives
narrow
nartey
nas
nasa
nasaba
nasara
nasarar
nasararsa
nasararta
nasarawa
nasarori
nasarorin
nash
nashi
nashville
nasidi
nasiha
nasir
nasiru
nasr
nasri
nass
nassara
nassarawa
nassau
nasser
nassi
nassim
nassnig
nassoshi
nasty
nasu
nasuru
nat
nata
natal
natali
natalia
natalie
natasha
nathan
nathaniel
nation
nationair
national
nationalasa
nationale
nationalism
nationalities
nationality
nations
nationwide
native
nato
natsuwa
natur
natural
nature
nau
nauru
nautical
nauyi
nauyin
nauyinsa
nauyinsu
nauyinta
naval
navbox
navboxtemplate
navy
nawa
naya
nayi
nazari
nazarin
nazi
nazifi
nazir
nazo
naƙasa
naƙasassu
naɗa
naɗaɗɗen
naɗin
nb
nba
nbc
nbsp
nbte
nc
ncaa
ncbi
ncc
ncdc
nce
ncei
nchen
nchez
nci
ncnc
ncov
ncw
ncws
nd
nda
ndani
ndanitv
ndayako
ndayishimiye
ndc
nddc
nde
ndez
ndi
ndic
ndidi
ndlea
ndlovu
ndoki
ndola
ndong
ndp
ndtv
ndu
nduka
ne
nea
neal
near
nearly
nebraska
nec
necessary
neck
neco
necropolis
nectar
ned
nedbank
nee
need
needed
needs
neem
negative
negro
negus
neil
neill
neja
nelson
nema
neman
nembe
nemi
nemo
neo
neolithic
neoplasia
neoplasm
neoplasms
neoplastic
nepa
nepal
nepu
nerville
nes
nesa
nesan
nesrea
nestle
nestor
nesyri
net
netanyahu
netflix
netherlands
network
networks
neubauer
neuberger
neuroendocrine
neurology
nevada
never
neville
nevis
new
newark
newcastle
newell
newfoundland
newly
newman
newport
news
newsarchive
newsbank
newsday
newsghana
newsletter
newspaper
newspapers
newsroom
newswatch
newsweek
newton
next
neymar
nez
nff
nfl
nft
nfvf
ng
nga
ngalande
ngasa
nge
ngige
ngissah
ngizim
ngn
ngo
ngoma
ngos
ngouali
ngozi
ngr
nguembang
nguesso
nguru
ngwa
nh
nha
nhl
nhlbi
nhs
nhyiaeso
ni
nia
niamey
nica
nicaragua
nice
nicholas
nichols
nick
nickel
nicki
nicky
nico
nicola
nicolas
nicole
niel
nielsen
nierenberg
nig
nigcomsat
nige
nigel
niger
nigeria
nigeriadecide
nigeriafilms
nigeriagalleria
nigerian
nigerians
nigerias
nigeriasat
nigeriya
night
nights
nih
nihongo
nii
nijar
nijer
nijeriya
nika
nike
nikki
nikolai
nile
nilo
nilu
nima
nimasa
nimsa
nin
nina
nine
nineteenth
ningi
niniola
ninka
ninkaya
ninki
nio
nior
nipah
nipoga
nipost
nira
niru
nirvana
nisa
nisan
nisanta
nisantar
nishadantar
nishadantarwa
nishadi
nishaɗantarwa
nishaɗi
nishaɗin
nite
nitel
nitrate
nitrogen
nitrous
niwa
nixon
niyi
niyya
niyyar
nizam
niƙa
nj
njdep
njoku
nk
nkechi
nkem
nkiru
nkoranza
nkrumah
nkwanta
nl
nla
nlc
nlm
nm
nma
nme
nmrc
nnaji
nnamani
nnamdi
nneka
nnenna
nnewi
nnpc
nns
no
noaa
noah
nobel
noble
nobody
nobs
noc
node
nodes
noe
noel
noi
noir
noire
noirs
noise
nok
nokia
nolan
nollywood
nollywoodreinvented
nom
noma
noman
nomawa
nominated
nominates
nomination
nominations
nominee
nominees
non
none
nono
nonon
nonprofit
nonso
noor
nor
nora
norbert
nord
nordic
nordsjælland
norfolk
normal
norman
norris
north
northampton
northcote
northeast
northern
northwest
northwestern
norton
norway
norwegian
norwich
nos
not
notable
note
notes
nothing
noti
notice
notre
nottingham
notts
nou
nouabale
nouah
noun
nour
nous
nouveau
nouvelle
nov
nova
novel
novelist
november
novgorod
novo
novosibirsk
now
npa
npc
npf
npfl
npl
npn
npp
npr
nr
nrc
nrhp
nri
ns
nsa
nsawam
nsc
nsclc
nse
nsue
nsukka
nsuta
nt
nta
ntv
nu
nuba
nubia
nubian
nuc
nuclear
nude
nufa
nufi
nufin
nuhu
nuj
nukiliya
nukiliyar
numan
number
numbers
numeric
numfashi
nun
nuna
nunawa
nune
nunen
nuni
nunin
nupe
nupedia
nur
nura
nuraphone
nuremberg
nurmagomedov
nurse
nursery
nursing
nurudeen
nut
nutrition
nutsar
nutse
nutsewa
nutsuwa
nuwamba
nuwamban
nuwambar
nuwanba
nuwar
nuwas
nw
nwa
nwachukwu
nwafor
nwankwo
nwanyeruwa
nwanzuruahu
nwapa
nwaubani
nwoko
nwokolo
nwosu
nwsl
ny
nyabarongo
nyako
nyambe
nyame
nyarko
nyc
nye
nyembe
nyesom
nyiragongo
nyong
nysc
nyt
nytimes
nyu
nz
nzema
nzeogwu
o
oa
oak
oakland
oaks
oasis
oath
oau
oba
obafemi
obaje
obama
obanikoro
obasanjo
obaseki
obatala
obe
obed
obesity
obetsebi
obi
obiageli
obiang
obiano
obianuju
obinna
obituary
object
oblast
obo
oboh
oboli
obolo
obolon
obong
obosi
observations
observatory
observed
observer
obstetrics
obstructive
obu
obuasi
oc
occidental
occupational
ocean
oceania
oceanic
oceanography
oceans
och
ochan
oclc
oct
octoba
october
oda
odar
odds
ode
odesa
odessa
odi
odibo
odigie
odili
odion
odisha
odnb
odo
odofin
odu
oduah
oduduwa
odukoya
odumegwu
odumosu
odunlade
odunsi
oduro
oduwole
odwira
odyssey
oecd
of
ofada
ofan
ofasa
ofaya
off
offa
offer
offered
offers
office
officer
officers
offices
official
officially
officials
officiel
offinso
offiong
offs
offshore
oficial
ofis
ofishi
ofishin
ofishinsa
ofishinta
ofisoshi
ofisoshin
ofori
oforiatta
ofosu
ofr
often
ofungiyar
og
oga
ogah
ogba
ogbemudia
ogbo
ogbomosho
ogbomoso
ogboni
ogbonna
oge
ogedegbe
ogidan
ogidi
ogoja
ogoni
ogron
oguaa
ogun
ogunbadejo
ogunde
ogundipe
ogunlesi
ogunmola
ogunnaike
ogunyemi
ogusta
oguta
ogwu
ogwumike
oh
ohameze
ohchr
ohemaa
ohene
ohio
oi
oil
oin
ois
oja
oji
ojo
oju
ojude
ojukwu
ok
oka
okada
okafor
okagbare
okala
okanlawon
okaro
okavango
okayafrica
okazaki
oke
okechukwu
okeke
okeleji
okello
okene
okere
okereke
okey
okigwe
oklahoma
oko
okocha
okoh
okojie
okoli
okomfo
okon
okonjo
okonkwo
okoro
okorocha
okosun
okowa
okoya
okoye
okpako
okpala
okpara
okpe
okra
okrika
oktoba
oktoban
oktobar
oku
okundaye
okunna
okupe
okwi
okyere
ol
ola
olabisi
oladipo
oladipupo
olaiya
olajide
olajumoke
olajuwon
olamide
olanrewaju
olatunji
olaudah
olawale
olawepo
olayinka
old
older
oldest
oldham
ole
oleg
oleh
oleksandr
olena
oles
olga
olisa
oliseh
olive
oliveira
oliver
olivia
olivier
olofin
olokun
olonisakin
olopade
olorunyomi
olowo
olowofoyeku
oloye
olson
olu
olubunmi
olufemi
olufunke
olufunmilayo
olujimi
olumba
olumide
olumo
olunloyo
oluremi
olurin
olusegun
olusola
oluwa
oluwale
oluwashina
oluwole
olympedia
olympiacos
olympiad
olympic
olympics
olympique
om
oma
omagbemi
oman
omani
omar
omawumi
ombudsman
omega
omeili
omenugha
omeruo
omo
omoba
omoboriowo
omoigui
omololu
omoni
omoniyi
omotayo
omotola
omotoso
omotoyossi
omowunmi
omu
on
ona
onabanjo
onanuga
onayemi
once
onchocerciasis
oncogene
oncogenes
oncology
ondo
one
onepage
ones
oni
onitsha
online
onlinenigeria
only
onne
onnoghen
onoh
onoja
onome
ontario
onu
onwe
onwenu
onwueme
onwumere
onye
onyeama
onyeka
onyenokwe
oo
oon
ooni
op
opa
opara
opare
opec
open
opened
opening
opens
opera
operating
operation
operations
operative
operatives
ophelia
opinion
opium
opiyo
opobo
opoku
oppong
opportunities
opportunity
opposition
oprah
option
optional
options
opus
oputa
oquaye
or
ora
oracle
oral
oran
orange
orangun
oranmiyan
orchestra
ordega
order
ordered
orders
ordinary
ordre
ore
oregon
org
organ
organic
organics
organisation
organisations
organization
organizations
ori
orient
oriental
orientation
origin
original
origins
orisaguna
orisha
orizu
orji
orlando
orle
orleans
oro
oromia
oromiffa
oromo
oron
orsl
orthodox
oruru
os
osa
osagie
osaka
osama
osas
osasu
osazuwa
osborn
oscar
oscars
osce
osei
oshin
oshinowo
oshiomhole
oshoala
oshodi
oshogbo
osifo
osinbajo
osita
oslo
osman
osoba
osofisan
osogbo
osteosarcoma
ostiraliya
ostireliya
ostiriya
osu
osuji
osun
osunde
ot
ota
otal
otedola
otel
othello
other
others
othman
oti
oto
ottawa
otter
otto
ottoman
otu
otukpo
otumfuo
otunba
otw
ou
ouaddai
ouagadougou
ouattara
oubandawaki
oue
oued
ouest
oufella
ouidah
oumar
oumarou
oup
our
ousmane
out
outbreak
outcomes
outdoor
outline
outlook
outside
outstanding
ova
oval
ovarian
ovary
over
overall
overseas
overview
ovia
ovire
owa
owan
owen
owens
owerri
own
owned
ownership
owo
owoh
owu
owusu
ox
oxfam
oxford
oxidative
oxide
oxides
oxygen
oya
oye
oyebanji
oyelowo
oyetola
oyingbo
oyo
oyongo
oz
ozak
ozokwor
ozolua
ozone
oʊ
p
pa
paa
pablo
pac
pace
pacific
pack
package
packers
padma
page
pageant
pages
pah
pahs
pai
paid
pain
painted
paintsil
paix
pak
pakhtunkhwa
pakistan
pakistani
palace
palais
palau
palermo
palestine
palestinian
palgrave
palin
pallister
palm
palmas
palme
palmer
pam
pambazuka
pamela
pan
panafrican
panama
panathinaikos
panchayat
pancreas
pancreatic
pandemic
pandey
pandogari
panel
panorama
pantami
pantheon
panther
panthera
panthers
paolo
pap
papa
papal
paparoma
paper
paperback
papers
papillary
papillomavirus
papua
papyrus
par
para
parade
paradigm
paradise
paraguay
parajanov
paralympian
paralympic
paralympics
parameter
paramount
parc
parents
paris
parish
park
parker
parkinson
parks
parliament
parliamentary
parma
parra
parsons
part
partey
parti
partial
participation
particular
parties
partner
partners
partnership
parts
party
parveen
pas
pascal
pascual
pasha
pashto
pashtun
pasifik
pass
passed
passengers
passes
passion
passport
past
pastor
pat
pataky
pategi
patel
patent
path
pathology
patience
patient
patients
patrice
patricia
patrick
patrimoine
patriotic
patriots
patron
patterns
patti
pau
paul
paula
pauline
paulista
paulo
pavilion
pay
payment
payne
pays
paz
pb
pbi
pbs
pc
pcb
pcbs
pcr
pd
pdf
pdp
pdq
pe
peace
peacefmonline
peaceful
peacock
peak
pearce
pearl
pearson
pediatric
pediatrics
pedri
pedro
peer
peerage
peggy
peju
pele
pelican
peller
peltier
pen
penal
penalty
pence
pendjari
pengkhianatan
penguin
peninsula
penn
pennsylvania
pentathlon
pentecostal
pentikostal
people
peoples
pepper
pepsi
per
percent
percy
pereira
perennial
perez
perfect
perform
performance
performances
performed
performing
period
perm
permafrost
permanent
perry
persepolis
persia
persian
person
personal
personality
personnel
persons
perspective
perspectives
perspectivesisbn
perth
peru
peruvian
peshawar
pet
petah
pete
peter
peterborough
peters
petersburg
petersen
peterson
petit
petition
petitions
petro
petroleum
peugeot
pew
pez
pfa
pfizer
pg
pgd
pgs
ph
phantom
pharmaceutical
pharmacology
pharmacy
phase
phb
phd
phi
phil
philadelphia
philanthropist
philharmonic
philip
philippe
philippine
philippines
philips
phillip
phillippa
phillips
philosopher
philosophical
philosophy
phoenix
phone
phonology
phosphate
phosphorus
photo
photographer
photographs
photography
photos
php
phr
phyllis
physical
physician
physicians
physics
physiology
pi
pia
pian
piano
pib
pick
pickens
picks
picture
pictures
pidgin
piedmont
pier
pierce
pierre
pies
pieter
pietro
pilchen
pilgrimage
pillars
pilot
pin
pine
ping
pink
pinto
pinyin
pioneer
pipe
pipeline
piper
pirates
pisa
pisco
pitch
pitt
pittsburgh
pius
pixel
pizza
pj
pk
pki
pl
place
places
plain
plainlinks
plains
plan
planck
plane
planet
planned
planning
plans
plant
plantain
plantation
plants
plaque
plasma
plastic
plastics
plate
plateau
platform
platinum
plato
play
played
player
players
playing
plays
plaza
plc
pledge
pledges
pleistocene
pliocene
plos
ploso
plot
plunketts
plural
plus
pluto
plymouth
pm
pmc
pmid
pmnewsnigeria
pms
pnas
pnc
pndc
pnds
pneumonia
png
po
podcast
poems
poet
poetry
point
points
pokal
poku
poland
polar
pole
poli
police
policies
policy
polisario
polish
political
politician
politicians
politics
politique
polk
poll
polling
pollock
polls
pollution
polo
poly
polycyclic
polyposis
polyps
polytechnic
polytechnics
pompey
pone
pontecorvo
pool
poor
pop
pope
popoola
popper
popular
population
populationdangane
populations
por
port
portal
portant
porter
portfolio
portion
portland
porto
portrait
ports
portsmouth
portugal
portuguese
position
positive
possible
post
postcolonial
posted
posters
postgraduate
posts
pot
potassium
potential
potiskum
potter
potugis
pounded
pounds
pour
poverty
powell
power
powerful
powerlifting
powers
poznan
pp
ppe
ppen
ppm
ppn
ppp
pr
pra
prabhas
practical
practice
practices
practitioners
pradesh
praeger
prague
praia
prairie
praise
prakash
prampram
pratt
pravda
pray
prayer
prc
pre
precious
prefecture
prefix
pregnancy
pregnant
preliminary
premie
premier
premiere
premieres
premiership
premium
premiumtimesng
prempeh
prentice
prepare
prepared
presbyterian
preseason
presence
present
presentation
presented
presenter
presents
preservation
presidency
president
presidential
presidents
presrow
press
presse
pressreader
pressure
preston
pretoria
pretty
prevalence
prevent
preventing
prevention
preventive
preview
previous
pri
price
pride
priest
primaries
primary
primavera
prime
primeira
primer
primera
prince
princes
princess
princeton
princewill
principal
principe
principle
principles
print
printers
printing
prior
priority
priscilla
prison
prisoners
privacy
private
prix
priya
prize
prizes
pro
probably
probe
problem
problems
proceedings
process
processes
processing
proctor
prod
produce
produced
producer
producers
product
production
productions
products
prof
profession
professional
professionals
professionnelle
professor
profile
profiles
profit
profumo
program
programme
programmes
programs
progress
progression
progressive
progressives
project
projects
prominent
promise
promises
promising
promote
promoted
promoting
promotion
pronounced
pronunciation
proof
properties
property
prophet
proposal
proposed
proquest
prose
prospective
prospects
prostate
prostitution
protasov
protect
protected
protecting
protection
protectorate
protein
protest
protesters
protests
proto
protocol
proud
provide
provided
provides
province
provinces
provincial
provisional
provost
prp
pru
prussia
ps
psa
psc
psephos
psg
psl
psv
psychiatric
psychiatry
psychological
psychology
pt
pu
pub
publ
public
publicain
publication
publications
publique
published
publisher
publishers
publishing
pudil
puerto
pulitzer
pulp
pulse
punch
punchng
pune
punishment
punjab
punjabi
punk
pure
puri
purple
push
pushkin
pussy
put
putin
puts
px
pyeongchang
pylori
pyotr
pyramids
python
q
qa
qadi
qadir
qadiriyya
qaeda
qarshe
qasa
qasar
qasim
qatar
qatif
qawwali
qays
qayyim
qi
qing
qinghai
qira
qissa
qu
qua
quad
quadre
quadri
qualification
qualifiers
qualifying
quality
quansah
quarantine
quarm
quarter
quarterback
quarterly
quarters
quartet
quartey
quartz
quaternary
quaye
quayson
quba
quds
qudus
que
quebec
queen
queens
queensland
queer
quentin
quest
question
questions
qui
quick
quincy
quinn
quipe
quist
quit
quits
quot
quote
quoted
qur
qura
quraishawa
quran
qureshi
qutb
qwai
qwari
r
ra
raba
rabah
rabat
rabawa
rabbi
rabbit
rabe
raben
rabi
rabia
rabih
rabin
rabiu
rabo
rabon
rabu
rabuwa
rabuwar
race
rachael
rachel
rachid
racial
racing
racism
rada
radadin
radar
radcliffe
rade
radiation
radical
radin
radio
radiotherapy
radiyo
radiyon
radon
rae
rafael
rafi
rafiki
rafin
rafiu
rafuka
rafukan
raga
ragamar
ragar
rage
ragewa
ragi
ragin
rago
ragon
ragowar
ragu
raguwa
raguwar
rah
raha
rahab
rahama
rahamar
raheem
rahim
rahma
rahman
rahmoune
rahotanni
rahotannin
rahoto
rahoton
rahotonsa
rahotonta
rahusa
rai
raid
raiders
rail
railroad
railway
railways
rain
raina
rainbow
rainforest
raini
rainon
raira
rairayi
rairayin
raise
raised
raises
raisi
raj
raja
rajab
rajasthan
rajavi
rajhi
raji
rajin
rajista
rajistar
raka
rake
rakiya
rakiyar
rakuma
rakumi
ral
rally
ralph
ram
rama
ramadan
ramadana
ramat
ramatu
ramawa
rami
ramin
ramla
ramo
ramos
rams
ramsar
ramsey
ramuka
ramukan
ramuwa
ramuwar
ramy
ran
rana
ranaku
ranakun
ranan
ranar
rance
rancen
rand
randa
randall
randolph
random
randy
rangadi
rangadin
range
rangers
rangwame
rangwamen
rani
rank
ranked
ranking
rankings
rano
ranodu
ransa
ransome
ransu
ranta
rantsar
rantse
rantsuwa
rantsuwar
rao
rap
rape
raphael
rapid
rapids
rapper
rapporteur
rar
rarar
rarara
rard
rare
rarraba
rarrabawa
rarrabe
rarrabewa
rarrabu
rarrabuwa
rarrabuwar
rarrafe
ras
rasa
rasaki
rasha
rashanci
rashawa
rasheed
rasheedat
rashi
rashid
rashidi
rashidun
rashin
rashmi
rasmussen
rassa
rassan
rasta
rastafari
rasu
rasul
rasuwa
rasuwar
rasuwarsa
rasuwarta
rat
rata
rataya
rataye
rate
rates
rather
rating
ratings
ration
ratsa
ratsawa
ratsi
rattaba
raunana
raunata
rauni
raunin
raunuka
raunukan
ravens
ravi
raw
rawa
rawaito
rawalpindi
rawan
rawani
rawanin
rawar
rawaya
rawlings
ray
raya
rayar
rayayyun
raye
rayen
rayment
raymond
rayu
rayuka
rayukan
rayukansu
rayuwa
rayuwar
rayuwarmu
rayuwarsa
rayuwarsu
rayuwarta
rayuwata
razak
razavi
razi
raƙuma
raƙuman
raƙumi
raɗa
raɗaɗi
rb
rc
rca
rcd
rcra
rd
rdc
rden
rdens
rdoba
rdp
re
reach
reaction
reacts
read
reader
readers
reading
readings
ready
reagan
real
reality
really
rear
reason
reasons
rebecca
rebel
rebellion
rebels
receive
received
receives
receiving
recent
receptor
recherche
recipe
recipes
recipients
recognition
recognized
recommendation
recommendations
reconciliation
reconstruction
record
recorded
recording
records
recovery
rectangular
rector
red
reddy
redeemed
redemption
rediff
redir
rediyo
rediyoaktif
rediyon
redress
redskins
reduce
reduction
reed
reef
reel
rees
reesing
ref
refer
reference
references
referendum
referred
reffcat
refinery
reflection
reflections
reform
reformed
reforms
refs
refuge
refugee
refugees
refworld
regarding
reggae
reggie
regime
regiment
regina
region
regional
regions
register
registered
registration
regular
regulation
regulations
regulatory
rehabilitation
reid
reign
reilly
reims
reina
reinvented
reject
rejected
rejects
rel
related
relating
relation
relations
relationship
relay
release
released
releases
relegation
relevant
reliable
relief
reliefweb
religion
religions
religious
reloaded
remain
remains
remarkable
remarks
remember
remembering
remi
remix
remo
remote
removal
removed
renaissance
renamed
rene
renewable
renewal
renner
rennes
reno
renon
renowned
rep
repair
replaced
replaces
report
reported
reporter
reporters
reporting
reports
represent
representation
representative
representatives
representing
reprieve
reprint
reproductive
reps
republic
republican
reputation
request
required
requires
rera
res
rescue
research
researchers
researchgate
reserve
reserves
reshe
reshen
residence
resident
residents
resigns
resistance
resolution
resort
resource
resources
respect
respiratory
response
responses
responsibilities
responsibility
responsible
rest
restoration
restore
result
results
retained
rethinking
retired
retires
retrieved
return
returned
returns
reuben
reuters
rev
reve
reveal
revealed
reveals
revenue
reverend
review
reviews
revised
revisited
revista
revival
revolt
revolution
revolutionary
revue
rex
rey
reyes
reynolds
rez
reza
rf
rfi
rg
rh
rhine
rhode
rhodes
rhodesia
rhythm
ri
ria
riaa
rib
riba
ribadu
ribar
ribas
ric
rica
ricardo
rice
rich
richard
richards
richardson
richest
richmond
richter
rick
ricketts
rico
ridda
riddles
ride
rider
riders
ridge
ridha
riding
rie
rien
rienne
rieur
rieure
rif
rift
rig
riga
rigakafi
rigakafin
rigar
rigaya
right
rights
rightsancin
rigima
rigimar
rigingimu
rigingimun
riguna
rigunan
rihanna
rijista
rijistar
rijiya
rijiyar
rijiyoyi
rijiyoyin
rika
rike
rikice
rikicen
rikicewa
rikicewar
rikici
rikicin
rikide
rikita
rikitarwa
riko
rikodi
rikodin
rikon
riley
rima
rimbey
rimi
rimin
rin
rina
ring
ringim
rini
rinj
rinjayar
rinjaye
rinjayen
rinjayi
rinka
rio
ripples
riqe
riro
risalah
rise
rises
rising
risk
risks
rita
ritaya
ritayar
rite
ritual
ritz
river
rivera
rivers
riverside
riya
riyad
riyadh
rizvi
riƙa
riƙe
riƙewa
riƙo
riƙon
rj
rk
rl
rm
rn
rna
ro
road
roads
rob
roba
robbins
robert
roberto
roberts
robertson
robin
robinson
robobi
robobin
robot
robotics
roc
rocha
rochas
rochdale
roche
rochester
rock
rockefeller
rocks
rockwell
rocky
rod
roda
rodgers
rodney
rodri
rodriguez
rodrygo
roger
rogers
rogo
rohingya
rohit
rok
roka
roki
roko
rokoki
rokon
roland
role
roles
roll
rolling
rolls
rom
roma
romainiya
roman
romance
romanesque
romania
romanian
romaniya
romanized
romantic
romawa
rome
romeo
romero
romney
ron
ronald
ronaldinho
ronaldo
ronke
rookie
room
roosevelt
root
roots
ros
rosa
rosaline
rosary
rose
roselyn
rosemary
rosen
roses
ross
rossi
roster
rostov
rotary
roth
rotherham
rotimi
rotten
rotterdam
rouch
rouen
rouge
rough
round
route
routledge
rovers
row
rowan
rowman
rowspan
roxana
roy
royal
roƙi
roƙo
roƙon
rp
rpg
rr
rs
rsc
rsp
rssen
rsssf
rt
rtd
rte
rtp
rtpc
ru
rubber
rube
rubin
rubuce
rubucen
rubucensa
rubuta
rubutaccen
rubutacciyar
rubutattun
rubutawa
rubutu
rubutun
rubutunsa
rubutunta
ruby
rudani
rudolf
rue
rufa
rufaffiyar
rufai
rufe
rufewa
rufi
rufin
rufus
ruga
rugby
ruggie
ruguje
rugujewa
rugujewar
ruguza
ruhaniya
ruhi
ruhin
ruhohi
ruhohin
ruhu
ruhun
rukayya
ruku
rukunan
rukuni
rukunin
rukuninsu
rukunnan
rukunoni
rul
rule
ruled
ruler
rulers
rules
ruling
rum
ruma
rumawa
rumbun
rumbunilimi
rumfa
rumfar
rumfuna
rumfunan
rumi
run
runduna
rundunar
rundunarsa
rundunonin
rungumar
rungumi
runner
runners
running
runoff
runs
runway
rupert
ruqayya
ruqayyah
rura
rural
rurales
rus
rusa
rusasshiyar
rush
rushe
rushewa
rushewar
russell
russia
russian
rusul
rutgers
ruth
rutsa
ruwa
ruwaito
ruwan
ruwanda
ruwayen
ruɗani
ruɗe
rw
rwanda
rwandan
ry
ryan
s
sa
saad
saba
sababbin
sabah
sabally
sabani
sabanin
sabar
sabawa
sabbin
sabc
sabha
sabi
sabili
sabine
sabis
sabiya
sabo
saboba
saboda
sabon
sabulu
sabulun
sabunta
sabuntawa
sabuntawar
sabuwa
sabuwar
sace
sacen
sachs
sacked
sacks
sacramento
sacred
sad
sada
sadaka
sadaki
sadar
sadarwa
sadarwar
sadat
sadau
sadaukar
sadaukarwa
sadaukarwar
saddam
sade
sadik
sadiq
sadiya
sadu
saduwa
saeed
safa
safai
safana
safar
safarar
safari
safe
safety
saffold
safi
safiya
safiyar
safiyya
safo
safta
saga
sagamu
sage
sagir
sahaba
sahabbai
sahabban
sahabbansa
sahabi
sahara
saharan
saharar
saharareporters
sahel
sahelian
sahib
sahih
sahihancin
sahihin
sahrawi
sahu
sahun
sai
said
saida
saidai
saidu
saif
saigon
saikolojin
saint
sainte
saints
saison
saita
saiti
saitin
saitunan
sajan
saka
sakaci
sakamako
sakamakon
sakamakonsa
sakan
sakandare
sakandaren
sakandari
sakandire
sakandiren
sakar
sakatare
sakataren
sakatariya
sakatariyar
sakatarorin
sakawa
sake
sakewa
saki
sakin
sakinsa
sakkwato
sako
sakon
sakonni
sakonnin
sal
sala
salaam
saladin
salafi
salafiyya
salaga
salah
salam
salama
salameh
salami
salar
salars
salat
salati
sale
saleh
salem
sales
salifou
salifu
salih
salihu
salim
salinity
salisu
saliyo
salla
sallah
sallama
sallamar
sallame
sallar
salloli
sallolin
sally
salma
salman
salmon
salo
saloma
salome
salon
salt
salula
salvador
salwa
salzburg
sam
sama
samame
saman
samaniya
samaniyar
samantha
samar
samara
samarda
samari
samarin
samarra
samartaka
samarwa
samatta
samba
sambisa
sambo
same
sameera
samfur
samfura
samfuran
samfuri
samfurin
samfurori
sami
samia
samir
samira
sammacin
sammy
samo
samoa
sampdoria
sample
sampson
samson
samsung
samu
samuel
samun
samunsa
samunsu
samunta
samuwa
samuwar
san
sana
sanaa
sanadi
sanadin
sanadiyar
sanadiyyar
sanam
sanan
sananne
sanannen
sananniya
sananniyar
sanannu
sanannun
sanar
sanarwa
sanarwar
sanata
sanatan
sanatoci
sanatocin
sanchez
sanctuary
sand
sanda
sandan
sandar
sanders
sandhurst
sandler
sandra
sands
sandstone
sanduna
sandunan
sandy
sane
sang
sangare
sanger
sangha
sango
sani
sanin
saninsa
saninta
sanitation
saniya
saniyar
sankara
sankarar
sankarau
sanna
sannan
sanneh
sanni
sannna
sannu
sanogo
sans
sansani
sansanin
sansanonin
sanshi
sanskrit
sant
santa
santacana
santiago
santimita
santo
santos
santsi
sanusi
sanwo
sanya
sanyawa
sanyaya
sanye
sanyi
sanyin
sao
sapele
sar
sara
sarabia
sarah
saraki
sarakuna
sarakunan
saran
sarari
sararin
saratu
sarauniya
sarauniyar
sarauta
sarautar
sarawak
sarcoma
sardauna
sardaunan
sare
saren
sarewa
sarh
sari
sarkakiya
sarkar
sarki
sarkin
sarkinsu
sarkodie
sarna
saro
sarpong
sarrafa
sarrafawa
sars
sarƙoƙi
sarƙoƙin
sas
sasanta
sasantawa
sasha
sashe
sashen
sashi
sashin
saskatchewan
saskatchewantemplate
saskatoon
sassa
sassaka
sassaken
sassan
sassauci
sassaucin
sassauta
sassauƙa
sassaƙa
sassou
sat
sata
satan
satar
satellite
sati
satifiket
satumba
satumban
satumbar
saturday
sau
sauce
saud
sauda
saudi
saudia
saudiya
saudiyya
sauka
saukaka
saukar
sauke
saukewa
sauki
saukin
sauko
saukowa
saunders
saura
sauran
sauransu
saurara
saurare
sauraren
saurari
sauraro
sauraron
saurayi
saurayin
saurayinta
sauri
saurin
sauro
sauti
sautin
sautuka
sautuna
sautunan
sauya
sauyawa
sauyawar
sauye
sauyen
sauyi
sauyin
sauƙaƙa
sauƙaƙan
sauƙaƙe
sauƙi
sauƙin
savage
savanna
savannah
savannas
save
saving
savings
saw
sawa
sawaba
sawu
sawun
sawyer
sawyerr
saxon
saxony
say
saya
sayan
sayar
sayarwa
sayayya
saye
sayed
sayen
sayfawa
sayi
saying
sayo
says
sayyadina
sayyid
sayyida
sayyidah
saƙa
saƙar
saƙo
saƙon
saƙonni
saɓa
saɓani
saɓanin
sb
sc
sca
scala
scale
scan
scandal
scandals
scandinavia
scans
scar
scarecrow
scene
scenes
schabowski
schaffelhuber
schalke
schedule
scheme
schmidt
schmitt
schneider
scho
scholar
scholars
scholarship
scholz
school
schools
schuh
schuster
schwartz
sci
science
sciences
scientific
scientist
scientists
scientology
sclc
sclerosis
scoop
score
scored
scores
scoring
scotia
scotland
scott
scottish
scout
screen
screening
screens
screenwriter
scripps
script
scripts
sculptor
sculpture
sd
sda
sdgs
sdn
sdp
se
sea
seahawks
seal
sean
search
seas
season
seat
seats
seattle
sebastia
sebastian
sebiba
sec
second
secondary
seconds
secret
secretariat
secretary
secrets
section
sector
secular
secure
secures
securities
security
seda
sedan
see
seed
seeds
seek
seeking
seeks
seen
seer
sees
sefwi
seghir
segun
segunda
seidu
seif
sein
seine
sekondi
seku
sekyere
sel
selam
selasi
selassie
select
selected
selection
self
selim
seljuq
sell
selling
selma
sembe
sembene
semedo
semi
semiconductor
semien
seminar
seminars
seminary
seminoles
semitic
sen
sena
senate
senator
senatorial
senators
send
sene
senegal
senior
sense
sent
sentenced
sentences
sentinel
senufo
senussi
senya
seoul
sep
separate
sepsis
sept
september
ser
sera
serbia
serbian
serbiya
serge
sergei
sergey
sergio
serhiy
seria
serial
serie
series
seriki
serious
serra
serve
served
server
service
services
serving
serwaa
ses
session
sessions
set
seth
sets
setting
settlement
settlements
seun
seven
seventh
several
severe
sevilla
seville
sex
sexual
sexuality
sexually
sexy
seychelles
seyi
seymour
seyni
seyyed
sf
sfaxien
sfn
sg
sgf
sgs
sh
sha
shabab
shaban
shabani
shaci
shadow
shadows
shafa
shafar
shafawa
shafe
shafewa
shafi
shafin
shafinsa
shafinta
shafuka
shafukan
shagala
shagari
shagaya
shago
shagon
shagulgula
shagulgulan
shaguna
shagunan
shah
shahada
shahadar
shahara
shaharar
shahararran
shahararre
shahararren
shahararriyar
shahararrun
shahid
shahidai
shaho
shai
shaibu
shaida
shaidan
shaidar
shaidu
shaidun
shaihu
shaikh
shaka
shakar
shakara
shakatawa
shakatawar
shake
shakespeare
shakira
shakka
shakkar
shakku
shall
sham
shama
shamar
shamarpa
shams
shamsi
shan
shandong
shang
shanghai
shank
shannon
shanono
shanu
shanun
shanye
shanyewar
shape
shara
sharadi
sharadin
sharar
sharaɗi
share
shareef
shares
sharewa
sharh
sharhi
sharhin
shari
sharia
sharif
sharing
sharjah
shark
sharks
sharma
sharon
sharp
sharudda
sharuddan
sharuɗɗa
sharuɗɗan
shata
shaw
shawagi
shawara
shawarar
shawarce
shawarci
shawarwari
shawarwarin
shawn
shawo
shay
shayar
shayari
shayarwa
shaye
shayi
shaykh
shaƙatawa
she
shea
sheba
shebur
sheda
shedar
sheet
sheets
sheetz
sheffield
shehu
shehun
shehus
sheik
sheikh
sheila
shek
sheka
shekar
shekara
shekaran
shekarar
shekarara
shekararsa
shekararta
shekarata
shekarau
shekaru
shekarun
shekarunsa
shekarunsu
shekarunta
shekau
shela
shelanta
shelar
shell
shelter
shema
shenzhen
shepherd
sheraton
sherif
sherifa
sheriff
sherwood
shettima
shetty
shevchenko
shewa
shi
shia
shibam
shida
shidda
shield
shift
shiga
shigar
shigarsa
shigarsu
shigarwa
shigarwar
shige
shigo
shigowa
shigowar
shika
shillington
shima
shimfida
shimfidar
shimfidawa
shimfiɗa
shimfiɗar
shin
shina
shine
shines
shineyoureye
shingayen
shinge
shingen
shinkafa
shinkafar
shinkafi
ship
shipping
ships
shira
shiraz
shire
shiri
shirin
shirinsa
shirinta
shirka
shirley
shirt
shiru
shirya
shiryar
shiryawa
shirye
shiryen
shiryensa
shiryenta
shittu
shiva
shiyar
shiyasa
shiyya
shiyyar
shiyyoyin
shock
shola
shona
shonekan
shoot
shooting
shop
shopping
shore
short
shortlist
shot
shots
should
show
showbiz
showing
shows
shri
shrine
shruti
shtml
shu
shuaibu
shude
shudi
shuga
shugaba
shugaban
shugabanci
shugabancin
shugabancinsa
shugabanni
shugabannin
shugabanninsu
shugabansu
shugabanta
shugabantar
shugabar
shuka
shukar
shukawa
shuke
shuken
shuni
shura
shuru
shuts
shuwa
shuwagabanni
shuwagabannin
shuwaka
shuɗe
shuɗi
shyllon
si
siberia
sibi
sic
sich
sichuan
sicily
sickle
sid
sida
siddiq
siddiqi
siddiqui
side
sident
sidi
sidney
sie
siege
siegel
siemens
sierra
sifa
sifaniyanci
sifar
sifen
siffa
siffanta
siffar
siffofi
siffofin
sifili
sifofi
sifofin
siga
sigar
sigari
sight
sigina
siginar
sign
signal
signe
signed
significance
significant
signing
signs
sigogi
sigogin
sihiri
sika
sikari
sikasso
sikeli
sikelin
sikh
sikila
sil
sila
silence
silent
silicon
siliki
silima
silsilar
silt
silva
silver
silverbird
sim
simba
simeon
simi
simien
similar
siminti
simintin
simmons
simon
simone
simple
simpson
simy
sin
sina
sinadarai
sinadaran
sinadari
sinadarin
sinai
sinan
sinanci
sinawa
since
sinclair
sindh
sindhi
sindi
sing
singapore
singer
singh
single
singles
sings
sinima
sinimar
sinking
sinovac
sintiri
sio
siollun
sion
sioux
sipaniya
sir
sira
sirat
siri
sirika
siriri
siririn
siriya
sirleaf
sirri
sirrin
sisi
sissako
sister
sisterhood
sisters
sit
sitaci
sitcom
site
sites
sittah
sittin
sitting
situation
six
sixth
siya
siyan
siyar
siyarwa
siyarwar
siyasa
siyasan
siyasance
siyasar
siyasarsa
siyayya
siye
siyo
size
sj
sk
ska
skdivision
sketch
ski
skier
skiing
skills
skin
skinner
sklar
skrypka
sky
sl
slalom
slam
slate
slave
slavery
slaves
slavia
slavic
sleep
slim
slimane
slimani
slipak
sloan
slovak
slovakia
slovenia
slow
sludge
slutchtours
sm
small
smart
smc
sme
smes
smirke
smit
smith
smithsonian
smog
smoke
smoking
sn
snake
snapchat
snoop
snow
snp
snyder
so
soap
sobiyat
sobolev
sobre
soccer
soccerbase
soccernet
soccerway
sochaux
sochi
social
socialist
socie
sociedad
societies
society
societyungiyar
socio
sociological
sociology
socrates
soda
sodiq
sodium
sofia
sofiane
software
soil
soja
sojan
soji
sojin
sojoji
sojojin
sojojinsa
soke
sokewa
soki
sokoto
soky
sol
sola
solange
solanke
solar
sold
soldier
soldiers
sole
solid
solidarity
solo
solomon
solution
solutions
soma
somali
somalia
somaliland
somaliya
somatic
some
someone
somerset
something
son
sona
sonaiya
sonata
song
songhai
songhay
songs
songwriter
sonia
sonic
soninke
sonni
sonny
sons
sonta
sonuga
sony
soo
soon
soong
sophia
sophie
sorbonne
sori
soro
sos
sosai
soshiyolojin
soso
souad
souk
soul
souley
souleymane
souma
sound
soundcity
soundcloud
sounds
soup
souq
sour
source
sources
sous
sousa
sousse
south
southampton
southeast
southeastern
southern
southwest
souza
sovereignty
soviet
sow
sowande
soweto
sowunmi
soya
soyayya
soyayyar
soyayyen
soyinka
sp
spa
space
spaces
spain
spalding
span
spanish
sparks
sparta
spartak
spatial
speak
speaker
speakers
speaking
speaks
special
specialist
species
specific
spectator
spector
spectrum
speech
speed
spencer
spice
spider
spiegel
spike
spill
spirit
spiritual
spizz
spla
split
spoken
sponsor
sport
sportif
sporting
sportive
sports
spot
spotify
spotlight
spp
spread
spreading
spring
springer
springfield
springs
sprint
spruce
spy
sq
squad
squads
squamous
square
squash
sr
src
sri
ss
ssce
sseldorf
ssg
ssr
ssrn
sss
st
stability
stable
stacy
stade
stadium
staff
stafford
stage
staging
stalin
stamp
stan
stanbic
stand
standard
standards
standing
stanford
stanislav
stanley
stanton
star
starr
starred
starring
stars
start
started
startimes
starting
starts
startup
stat
state
stated
statement
statements
states
statesman
station
stations
statistical
statistics
statistique
statistiques
stats
statue
status
stay
staying
ste
steel
steele
steelers
stefan
stein
steinbeck
steiner
stella
stellenbosch
stem
sten
step
stephan
stephanie
stephen
steps
sterling
stern
steve
steven
stevens
stevenson
stew
stewart
stick
stiftung
still
sting
stm
stock
stockholm
stoke
stolen
stone
stones
stool
stop
store
stores
stories
storm
storms
story
stoughton
strack
straight
straits
strange
strasbourg
strategic
strategies
strategy
stratford
stratosphere
stream
streaming
street
streets
stride
strike
striker
strikes
stroke
stromal
strong
stroud
structural
structure
structures
struggle
stuart
student
students
studies
studio
studios
study
stuff
stuttgart
style
styles
su
sua
sub
subdivisions
subject
submission
submitted
subscription
succeed
success
successful
succession
such
sud
sudais
sudan
sudanese
sudirman
sue
sues
suf
sufanci
sufaye
sufeto
suffering
sufi
sufism
sufuri
sufurin
sufyan
suga
sugar
suggested
suharto
sui
suicide
suisse
suit
suite
suites
sujada
suka
sukafi
sukai
sukan
sukar
sukari
sukayi
suke
sukeyi
suki
sul
sulaiman
sulayman
sule
suleiman
suleja
suleman
sulemana
sulemanu
sulfate
sulfide
sulfur
sulhu
sulis
sulke
sullivan
sullubawa
sultan
sultana
sultanate
sultans
suma
sumaila
sumatra
sumerian
summary
summer
summit
sumner
sun
suna
sunada
sunadarai
sunadaran
sunan
sunana
sunansa
sunansu
sunanta
sunaye
sunayen
sunayensu
sunce
sundance
sunday
sunderland
sundowns
sune
sunfi
sung
sunje
sunkai
sunna
sunnah
sunnewsonline
sunni
sunny
sunrise
sunshine
suntai
sunusi
suny
sunyani
sunyi
supe
super
supercopa
supercup
superfund
superior
superliga
supersport
superstar
superyacht
superyachtfan
suppl
supplement
supplementary
supply
support
supported
supporters
supporting
supports
supreme
sur
sura
surah
suraj
surar
surat
suratul
sure
surf
surface
surge
surgeons
surgery
surgical
suriname
surori
surorin
surprise
surrey
surukin
surukinsa
surulere
surveillance
survey
survival
survivor
survivors
susan
suspected
suspend
suspended
suspends
sussex
sussuka
sustainability
sustainable
sutherland
suttura
sutura
suturar
suv
suwedan
suya
suyi
suyuti
suzanne
suzuki
suzy
sv
svenska
sw
swahili
swamp
swan
swansea
swap
swat
swaziland
swears
sweden
swedish
sweet
swift
swimming
swindon
swiss
switch
switzerland
sword
sworn
sydney
syed
sylla
sylvanus
sylvester
sylvia
symphony
symposium
symptoms
synagogue
syndrome
syndromes
syngas
synthesis
syracuse
syria
syriac
syrian
system
systematic
systems
t
ta
tab
taba
tabaqat
tabar
tabarau
tabarbare
tabarbarewa
tabarbarewar
tabari
tabarma
tabawa
tabbaci
tabbacin
tabbas
tabbata
tabbatacce
tabbataccen
tabbatacciyar
tabbatar
tabbatarwa
tabi
tabin
tabki
tabkin
tabkuna
table
tableaux
tables
tabo
tabom
tabu
tac
tace
tacewa
taci
tackle
tackles
tada
tade
tadjoura
taekwondo
tafara
tafarkin
tafarnuwa
tafasa
tafawa
tafazzul
tafe
tafi
tafida
tafin
tafiya
tafiyar
tafiyarsa
tafiyarsu
tafiye
tafiyen
tafka
tafki
tafkin
tafkuna
tafkunan
tafsir
tafsiri
tafsirin
tag
taga
tagoe
tagogi
tagogin
tagomashi
tags
tagulla
tagwaye
tagwayen
taha
tahajjud
tahir
taho
tahoua
tai
tail
taimaka
taimakawa
taimake
taimaki
taimako
taimakon
taimakonsa
taimiyya
taipei
taiwan
taiwo
taiye
taj
tajikistan
tajine
tajudeen
tak
taka
takaddama
takaddamar
takaddar
takaddun
takai
takaice
takaici
takaicin
takaita
takaitaccen
takaitacciyar
takalma
takalmi
takalmin
takamaiman
takan
takara
takarar
takararsa
takarda
takardar
takardu
takardun
takasance
takawa
take
taken
takes
taki
takin
taking
takobi
takobin
takoradi
taksi
takum
takun
takunkumi
takunkumin
takura
takurawa
takwaransa
takwararta
takwarorinsa
takwarorinsu
takwarorinta
takwas
takyi
tal
talabijan
talabijin
talaka
talakawa
talakawan
talal
talata
talatin
talauci
talaucin
talbijin
tale
talensi
talent
talented
talents
tales
talha
talhah
talib
taliban
taliya
talk
talking
talks
tall
talla
tallace
tallacen
tallafa
tallafawa
tallafi
tallafin
tallan
tallar
tallata
tallatawa
tallinn
tally
talon
talotalo
tama
tamale
tamanin
tamara
tamaula
tambari
tambarin
tambaya
tambayar
tambaye
tambayi
tambayoyi
tambayoyin
tambuwal
tamid
tamil
tamim
tamkar
tamoxifen
tampa
tamu
tamwar
tan
tana
tanada
tanadar
tanade
tanaden
tanadi
tanadin
tanda
tandja
tane
tang
tangale
tanganyika
tangier
tango
tanimu
tanimura
tank
tanka
tanki
tankin
tanko
tankokin
tankuna
tankunan
tano
tanta
tantabara
tantance
tantancewa
tantancewar
tantanin
tanti
tanya
tanzania
tanzaniya
tao
taoism
tapsoba
tar
tara
taraba
taraiyar
tarakta
taranaki
tarar
taras
tarawa
tarayya
tarayyar
tarbiyya
tarbiyyar
tare
tareda
tarek
taremi
target
targeted
targeting
targets
tarho
tari
tarihance
tarihi
tarihin
tarihinsa
tarihinsu
tarihinta
tarikh
tarin
tariq
tariqa
tarka
tarkace
tarkacen
tarkighir
tarko
tarkon
tarkwa
taro
tarok
taron
taronta
taru
taruka
tarukan
tarurruka
tarurrukan
taruwa
taruwar
tarwatsa
tarzoma
tarzomar
tasa
tasamu
tasha
tashar
tashe
tashen
tashfin
tashi
tashin
tashinsa
tashoshi
tashoshin
tasi
tasiri
tasirin
tasirinsa
tasirinsu
task
taskar
tasks
tasmania
taso
tasoshin
tasowa
tasseron
tasu
taswira
taswirar
taswirori
taswirorin
tat
tata
tatar
tate
tatiana
tatsuniya
tatsuniyar
tatsuniyoyi
tatsuniyoyin
tattaki
tattalin
tattara
tattarawa
tattare
tattaro
tattauna
tattaunawa
tattaunawar
tau
taught
tauhidi
tauhidin
tauna
taura
taurari
taurarin
tauraro
tauraron
tauraruwa
tauraruwar
tauri
taurin
tauris
tausayawa
tausayi
taushi
tauye
tawada
tawaga
tawagar
tawagarsa
tawagarsu
tawali
tawaya
tawaye
tawayen
tawhid
tax
taxation
taxi
taya
tayal
tayar
tayi
tayin
taylor
taymiyyah
tayo
tazama
tazara
tazarar
tazo
taƙaice
taƙaita
taƙaitaccen
taƙaitawa
taɓa
taɓarya
taɓawa
taɗi
tb
tbilisi
tbol
tbs
tc
tchad
tchibota
td
te
tea
teacher
teachers
teaching
team
teams
tears
teaser
teauroux
tebur
teburi
teburin
tech
techiman
technical
technique
techniques
technologies
technology
tectonic
tectonics
tecumseh
ted
teddy
tedela
tedx
tee
teen
teenage
tef
tehran
teju
tejuosho
tekno
teku
tekun
tekuna
tekunan
tel
tela
telangana
tele
telebijin
telecom
telecommunications
telegraph
telenovela
television
tell
tells
telugu
tema
temitope
temperature
tempest
template
temple
tempo
temps
ten
tenerife
teni
tennessee
tennis
tenth
tenure
tera
tercera
teresa
term
terminal
terminology
terms
terra
terrace
terracotta
terre
terrestrial
territorial
territories
territory
terror
terrorism
terrorist
terrorists
terry
tertiary
tes
tesla
tess
tessa
test
testicular
testing
tests
tetfund
tetteh
texaco
texas
text
textbook
textile
texts
tf
tfrrs
th
tha
thabit
thai
thailand
thala
thames
than
thani
thanks
tharp
that
thatcher
the
thean
theater
theatre
thecable
theguardian
their
thelma
them
themselves
then
thenationonlineng
thenet
thenia
thenigerianvoice
theo
theodore
theology
theophilus
theoretical
theories
theory
therapeutic
therapeutics
therapy
there
theresa
thermal
these
thesis
theungiyar
thew
they
thiam
thiaroye
thierno
thing
things
think
thinkpad
third
thirty
this
thisday
thisdaylive
thomas
thompson
thomson
thornton
those
though
thought
thoughts
thousand
thousands
threat
threatens
threats
three
thriller
throne
through
throughout
thunberg
thunder
thursday
thyroid
ti
tia
tianjin
tibet
tica
ticket
tickets
tico
tide
tie
tienne
tier
tierra
tiers
ties
tiffany
tiga
tiger
tigers
tigray
tigrinya
tigris
tijani
tijjani
tijjaniyya
tikiti
tikitin
tiktok
tikva
tilas
tilasta
tilastawa
till
tillabe
tilo
tim
timber
timbo
timbuktu
time
timeline
times
timi
timo
timothy
tin
tina
tinsel
tinubu
tip
tippecanoe
tir
tirailleurs
tirela
tiriliyan
tirmidhi
tis
tisa
tisserand
titans
titi
titilope
titin
title
titled
titles
tituna
titunan
tiv
tiwa
tiyata
tiyatar
tiyoloji
tj
tk
tkacz
tko
tlemcen
tm
tnm
to
tobacco
tobago
tobi
toby
today
todd
tofa
together
togo
togoland
toile
toka
tokar
toke
toko
tokyo
tola
told
toledo
toll
tolu
tom
tomatoes
tomb
tombalbaye
tome
tommy
tomography
tomori
tomorrow
ton
tona
tong
tonga
toni
tonight
tono
tons
tonto
tony
tonye
too
took
tool
tools
top
tope
topic
topics
topkapı
topo
tops
tori
torino
toro
toronto
torres
torture
tory
toshe
toshewa
toshewar
tosin
tostan
total
toto
tottenham
toubou
touch
tough
toulon
toulouse
tounes
tour
toure
touring
touringghana
tourism
tourist
tourists
tournament
tournaments
tournamentsoftware
tours
toute
toward
towards
tower
towers
town
towns
townsend
township
toxic
toxicology
toya
toyin
toyo
toyosi
toyota
tozarta
tp
tr
trabalzini
trabelsi
track
tracker
tracks
tract
tracy
trade
trading
tradition
traditional
traditions
traffic
trafficking
trafford
tragedy
trail
trailer
train
training
trains
trans
transaction
transactions
transatlantic
transcorp
transfer
transfert
transformation
transgender
transistor
transit
transition
transl
translate
translated
translation
transmission
transnational
transparency
transport
transportation
transvaal
traore
trash
traubel
travel
travellers
travels
tre
treat
treatise
treatment
treatments
treaty
tree
trees
trek
trends
trendy
trent
trenton
trevor
tri
trial
trials
triangle
tribal
tribe
tribes
tribunal
tribune
tribuneonlineng
tribute
tributes
trick
tried
trier
trilogy
trinidad
trinity
trio
trip
triple
tripoli
triumph
trois
troitsky
troops
trophe
trophy
tropical
troposphere
troy
troyes
trudeau
true
truman
trump
trust
trustees
truth
try
trying
ts
tsaba
tsabar
tsabta
tsabtace
tsabtar
tsabtataccen
tsada
tsadar
tsafe
tsaffin
tsafi
tsafin
tsafta
tsaftace
tsaftacewa
tsaftar
tsaftataccen
tsaga
tsagaita
tsage
tsaida
tsaiko
tsaka
tsakani
tsakanin
tsakaninsa
tsakaninsu
tsakaninta
tsakar
tsaki
tsakin
tsakiya
tsakiyar
tsakuwa
tsallaka
tsallake
tsallakewa
tsalle
tsalyk
tsami
tsamiya
tsammani
tsammanin
tsan
tsana
tsanani
tsananin
tsananta
tsanantawa
tsangaya
tsangayar
tsangwama
tsani
tsantsan
tsara
tsararraki
tsararren
tsararru
tsararrun
tsarawa
tsare
tsaren
tsarewa
tsari
tsarin
tsarinsa
tsarinta
tsarkaka
tsarkakakken
tsarkake
tsarkakewa
tsarki
tsarkiya
tsaro
tsaron
tsarukan
tsatson
tsattsarkan
tsattsauran
tsauni
tsaunin
tsaunuka
tsaunukan
tsauraran
tsauri
tsawa
tsawaita
tsawan
tsawo
tsawon
tsawonsa
tsaya
tsayar
tsayawa
tsayayya
tsayayyar
tsayayye
tsayayyen
tsayayyun
tsaye
tsayi
tsayin
tsayinsa
tsayuwa
tsayuwar
tsere
tseren
tserewa
tsibirai
tsibiran
tsibiri
tsibirin
tsige
tsikata
tsinci
tsini
tsinkaya
tsinkayar
tsinkaye
tsinkayen
tsinke
tsintsiya
tsira
tsiraici
tsirara
tsiraru
tsirarun
tsire
tsiro
tsiron
tsirrai
tsiya
tsofaffi
tsofaffin
tsoffin
tsoho
tsohon
tsohuwa
tsohuwar
tsoka
tsokaci
tsokana
tsokoki
tsoma
tsoratar
tsoratarwa
tsoro
tsoron
tsu
tsufa
tsugunar
tsunami
tsunduma
tsuntsaye
tsuntsayen
tsuntsu
tsuntsun
tsutsa
tt
tteok
ttt
tu
tuareg
tuba
tubalan
tubali
tubalin
tube
tuchman
tucker
tucson
tuddai
tude
tudes
tudu
tudun
tuesday
tufa
tufafi
tufafin
tuffa
tuhuma
tuhumar
tuhume
tuhumen
tuhumi
tuka
tuki
tukin
tukuna
tukunya
tukunyar
tukur
tukura
tukuru
tukwane
tula
tulayha
tulip
tulsa
tulu
tulun
tumaki
tumatir
tumatur
tumor
tumors
tun
tuna
tunani
tunanin
tunaninsa
tunaninsu
tunaninta
tunatar
tunatarwa
tunawa
tunda
tunde
tuni
tunis
tunisia
tunisian
tunisie
tunisiya
tunji
tunkarar
tunkari
tunkiya
tunku
tuno
tuntuba
tuntubar
tuntube
tuntubi
tuntuɓar
tuntuɓe
tuntuɓi
tunusiya
tunzura
tur
tura
turai
turaki
turance
turanci
turancin
turare
turaren
turawa
turawan
turbidity
turbo
ture
turin
turjiya
turk
turkawa
turkey
turkic
turkish
turkiya
turkiyya
turkmenistan
turmi
turn
turned
turner
turning
turns
turo
tursasa
tursasawa
turtle
tururi
tururin
tururuwa
tushe
tushen
tusker
tuta
tutar
tutoci
tutocin
tutsi
tutu
tuvan
tuwo
tuwon
tuƙi
tuƙuru
tv
tvc
tvsa
tw
twa
tweet
twentieth
twenty
twi
twice
twifo
twiga
twin
twinkle
twins
twitter
two
ty
tyap
tyler
tyne
type
typeof
types
tyson
tz
tze
u
ua
uac
uae
uba
ubah
ubaidah
uban
ubangi
ubangida
ubangiji
ubangijin
ubayd
uber
ubiaja
ubong
ubs
uc
uche
uchendu
ucla
ucr
ud
udhr
udi
udinese
udo
udoh
udoji
udoka
udokwu
udu
uduaghan
uduak
uefa
uemoa
ufc
ufuoma
ug
uganda
ugandan
ugcc
ughelli
ugly
ugo
uhud
uhuru
ui
ujiza
uju
uk
uka
ukan
ukeje
ukic
ukip
ukku
uko
ukrain
ukraine
ukrainian
ukraniya
uku
ukun
ukwa
ukwu
ul
ulama
ulrich
ultimate
ultraviolet
ulu
um
uma
umar
umarce
umarci
umarni
umarnin
umaru
umayya
umayyad
umayyawa
umeh
umm
umma
ummah
ummai
umman
ummar
ummarmu
ummarsa
ummarsu
ummarta
ummi
ummomi
ummomin
ummominsu
ummu
umno
umoh
umoren
umotong
umrah
umu
umuahia
umukabia
umurce
umurci
umurni
umurnin
un
una
unabridged
unaids
uncle
unclos
uncp
und
under
underground
understanding
undp
une
unep
unesco
unfccc
unfit
unfpa
ungiyar
ungozoma
ungps
ungulu
unguwa
unguwan
unguwanni
unguwannin
unguwar
ungwan
unhcr
uni
unicef
unicode
uniform
unijos
unilag
unilever
union
unions
unionungiyar
unique
unit
united
units
unity
univ
universal
universe
universidad
universita
universite
universities
university
unix
unknown
unn
unrecognized
until
untold
unveil
unveiled
unveils
up
upcoming
update
updated
updates
uploads
upn
upon
upper
uppereast
uqba
ur
ura
uranium
uranta
urar
urbaines
urban
urbana
urdu
urge
urged
urgent
urges
urhobo
uri
urinary
url
uromi
urori
urorin
ursula
uruguay
urushalima
us
usa
usaid
usain
usama
usayn
usb
usc
usd
usda
use
used
useni
user
users
uses
usgs
using
usl
usm
usman
usmaniyya
usmanu
uss
ussr
usually
usul
ut
utah
utbah
utc
uterine
uthman
utm
utrecht
uttar
uttarakhand
uturu
uv
uwa
uwan
uwana
uwani
uwansa
uwansu
uwanta
uwantaka
uwar
uwargida
uwargidan
uwargidanmu
uwarsa
uwarta
uwaye
uyo
uys
uzbek
uzbekistan
uzoamaka
uzodinma
uzoma
uzor
uzuri
uzza
v
va
vaccinated
vaccination
vaccine
vaccines
vacher
val
valdez
vale
valencia
valentin
valentine
valentyn
valerie
valid
valladolid
valle
valley
value
values
van
vancouver
vanessa
vanguard
vanguardngr
vanilla
vanuatu
var
variant
variety
various
varsity
vartanov
vary
vasyanovych
vasyl
vatican
vaughan
vaughn
vax
vc
ve
vector
ved
vegas
vegetation
vehicle
vehicles
veil
veloppement
ven
venezuela
venezuelan
venice
venlo
venture
ventures
venus
ver
vera
verde
verdean
verlag
vermont
vernon
verona
veronica
verse
version
versions
versus
vertical
vertov
very
veteran
veterinary
vfb
vfl
vi
via
vibe
vic
vice
vicente
vick
vicker
vickers
vicky
victim
victims
victor
victoria
victory
vida
vidal
video
videos
vie
vienna
viet
vietnam
vietnamese
view
viewers
views
vigo
vii
viii
vikings
vikram
viktor
vil
vila
villa
village
villages
villarreal
villasen
ville
villes
villiers
vilnius
vin
vince
vincennes
vincent
vintage
vinyl
viola
violence
violet
violin
vip
vipers
viral
virgin
virginia
virology
virtual
virtues
virunga
virus
viruses
visa
viscount
vision
visions
visit
visited
visiting
visits
vista
visual
visually
vita
vitae
vital
vitamin
vitesse
vito
vivian
vizier
vj
vladimir
vladislav
voa
vocabulary
vocals
vodafone
vogel
vogue
voice
voices
voivodeship
vol
volcanic
volcano
volga
volkswagen
volleyball
volodymyr
vols
volta
volume
volumes
vom
von
voodoo
voor
vos
vote
voted
votes
voting
vowels
vows
vox
voyage
vp
vr
vs
vu
vulnerability
vulnerable
vv
w
wa
waccan
wacce
wace
wachuku
wada
wadai
wadancan
wadanda
wadannan
wadansu
wadata
wadatacce
wadataccen
wadatar
wadatattun
wadda
waddell
wade
wadi
wadia
wadud
waec
wafa
wafu
wagner
wahab
wahala
wahalar
wahalhalun
wahayi
wahayin
waheed
wahhab
wai
waikato
wailers
waina
wait
waiting
waja
wajaba
wajabcin
wajabta
wajajen
wajan
waje
wajen
wajibai
wajibcin
wajibi
waka
wakafi
wakan
wakar
wakarsa
wakarta
wake
wakefield
waken
wakilai
wakilan
wakilce
wakilci
wakilcin
wakili
wakilin
wakilinsa
wakiliya
wakiliyar
wakilta
wakiltan
wakiltar
wakoki
wakokin
wakokinsa
wakokinta
wal
wala
walau
wale
waleed
wales
wali
walid
waliyi
waliyyai
waliyyan
waliyyi
walk
walker
walking
wall
wallace
wallafa
wallafawa
wallafe
wallafen
wallahi
wallis
wallon
walsh
walt
walter
walton
walwala
walwalar
walƙiya
wamakko
wambai
wamdeo
wamena
wan
wanan
wancan
wanda
wande
wanderers
wando
wane
wanene
wang
wani
wanka
wankan
wanke
wanki
wankin
wanna
wannan
wanne
wanner
wansa
want
wanted
wants
wanzami
wanzar
wanzu
wanzuwa
wanzuwar
waqqas
war
waraka
warawa
ward
wards
ware
warewa
warfare
wargaje
wargaza
wari
warin
wariya
wariyar
warkar
warkarwa
warke
warkewa
warming
warner
warning
warns
warrant
warren
warri
warrior
warriors
wars
warsaw
warware
warwarewa
warwatse
warwick
was
wasa
wasabi
wasali
wasalin
wasan
wasanni
wasannin
wasanninsa
wasanninsu
wasanninta
wasansa
wasansu
wasanta
wase
washe
washegari
washington
wasika
wasikar
wasiku
wasiyya
wasiƙa
wasiƙar
wasiƙu
wasiƙun
wassce
waste
wastewater
wasu
wasula
wasulan
wasunsu
wata
watakila
watan
watanni
watannin
watau
wataƙila
watch
water
waterfall
waterfalls
waters
waterville
watford
wato
watsa
watsar
watsawa
watsawar
watse
watsi
watson
watt
watts
wauta
wave
waves
wawa
waxanda
way
waya
wayan
wayar
wayau
wayback
waye
wayewa
wayewar
wayne
wayo
wayoyi
wayoyin
ways
wazir
waziri
wazirin
wazobia
waƙa
waƙar
waƙarsa
waƙarta
waƙe
waƙoƙi
waƙoƙin
waɗancan
waɗanda
waɗannan
waɗanne
waɗansu
wc
wcs
wd
we
wealth
wear
wearing
weather
weatherford
weaver
web
webarchive
webb
weber
website
websitehome
webster
wed
wedding
wednesday
wee
week
weekend
weekly
weeks
wef
wei
weight
weightlifting
weiss
welbeck
welcome
welcomes
welega
welfare
well
welle
weller
wellington
wells
welsh
welterweight
wembley
wen
wenchi
wendy
went
werder
were
werner
wes
wesley
wesleyan
west
westall
western
westminster
weston
westport
westview
wetland
wetlands
wg
whale
what
wheatley
wheel
wheelchair
wheeler
when
where
whether
which
whig
while
whip
white
whitney
who
whole
whom
whose
why
whyte
wi
wiawso
wicket
wickets
wide
widely
width
wien
wiesbaden
wife
wigan
wike
wiki
wikibooks
wikidata
wikilink
wikimania
wikimapia
wikimedia
wikipedia
wikiquote
wikis
wikisource
wiktionary
wilaya
wilcox
wild
wildlife
wiley
wilfred
wilhelm
wilkins
wilkinson
wilks
will
willem
william
williams
williamson
willie
willis
willow
willy
wilson
wilt
wimax
wimbledon
win
wind
windhoek
window
windows
windsor
winfrey
wing
winger
wings
winneba
winner
winners
winning
winnipeg
wins
winslow
winston
winter
wipf
wipo
wire
wired
wiredu
wis
wisconsin
wisdom
wise
wiseman
wish
wissa
witch
with
within
without
witness
witwatersrand
wives
wiwa
wiwi
wiz
wizkid
wm
wnba
wo
wodaabe
wojcicki
wole
wolf
wolfgang
wolfsburg
wolfson
wollo
wolof
wolverhampton
wolves
woman
women
womens
won
wonder
wonders
wong
wood
woodrow
woods
woodswoman
woodward
worcester
word
wordlist
wordpress
words
work
worked
workers
working
works
workshop
world
worldcat
worldfootball
worlds
worldstatesmen
worldwide
worship
worst
worth
wotclef
wote
would
wp
wr
wrestling
wright
write
writer
writers
writes
writing
writings
written
wrong
wrote
wsl
wt
wto
wu
wuce
wucewa
wucewar
wucin
wudil
wuhan
wuka
wukake
wukari
wulakanci
wulakanta
wurare
wuraren
wuri
wurin
wurina
wurinsa
wurno
wuta
wutan
wutar
wutsiya
wutsiyar
wuya
wuyan
wuyansa
wuyar
wuƙa
wuƙaƙe
ww
wwf
wwii
www
wychwood
wycombe
wydad
wyoming
x
xavier
xbox
xe
xi
xia
xii
xiii
xinhua
xinjiang
xiuzhen
xiv
xo
xp
xu
xv
xvi
xx
xxx
xy
y
ya
yaa
yaba
yabar
yabatech
yabawa
yabi
yabo
yabon
yace
yacht
yachts
yaci
yacigaba
yacoub
yacouba
yada
yadawa
yadda
yadi
yadu
yadudduka
yaduwa
yaduwar
yafara
yafaru
yafe
yafi
yafito
yafiya
yaga
yah
yahada
yahaya
yahia
yahoo
yahudanci
yahudawa
yahudawan
yahuza
yahya
yai
yaje
yaji
yajin
yakai
yakamata
yakan
yakar
yakasai
yakasance
yake
yaki
yakin
yakoma
yakubu
yakurr
yala
yale
yalwa
yalwar
yam
yamai
yamama
yamamah
yaman
yamma
yammaci
yammacin
yamman
yamoussoukro
yan
yana
yanada
yanar
yanayi
yanayin
yanayinsa
yanayinta
yanci
yancin
yancinsu
yancinta
yanda
yang
yanka
yankakken
yankan
yankari
yanke
yankee
yankewa
yanki
yankin
yankinsa
yankinsu
yankinta
yankuna
yankunan
yankunansu
yansa
yansu
yanta
yantar
yanzu
yanzun
yao
yaounde
yar
yara
yarabawa
yaran
yaransa
yaransu
yaranta
yarbanci
yarbawa
yard
yarda
yardar
yare
yaren
yarensu
yari
yarima
yariman
yarin
yarinta
yarinya
yarinyar
yarjejeniya
yarjejeniyar
yarjejeniyoyi
yarjejeniyoyin
yarjeniyoyin
yaro
yaron
yarsa
yarsu
yarta
yaruka
yarukan
yarurruka
yasa
yasamu
yasan
yasha
yashewa
yashewar
yashi
yashin
yasin
yasir
yasmin
yassin
yassine
yat
yates
yatsa
yatsan
yatsu
yatsun
yau
yaudara
yaudarar
yaudare
yauri
yaushe
yaw
yawa
yawaita
yawaitar
yawan
yawanci
yawancin
yawancinsu
yawansu
yawanta
yawo
yawon
yawun
yaya
yayan
yayansa
yayanta
yaye
yayi
yayin
yayinda
yazama
yazid
yazidawa
yazidi
yazidis
yazo
yaƙar
yaƙe
yaƙi
yaƙin
yaɗa
yaɗu
yaɗuwa
yaɗuwar
ye
yeah
year
yearbook
years
yeboah
yeh
yekini
yellow
yemen
yemi
yemisi
yen
yenagoa
yencin
yendi
yeni
yerevan
yerima
yero
yes
yeshitela
yesu
yesufu
yet
yetunde
yewa
yewande
yhri
yi
yiadom
yima
yin
ying
yini
yinka
yinsa
yinta
yitzhak
yiwa
yiwu
yiwuwa
yiwuwar
yiyuwa
yle
ynaija
yo
yobe
yobo
yogyakarta
yohanna
yola
yomi
yong
yoon
york
yorker
yorkshire
yoruba
yota
you
young
youngest
youngster
your
yousafzai
youssef
youssouf
youth
youths
youtube
yr
yu
yuan
yugoslavia
yuguda
yukren
yuli
yulin
yumbu
yumɓu
yun
yunfa
yuni
yunin
yunkuri
yunkurin
yunnan
yunus
yunusa
yunwa
yunwar
yunƙuri
yunƙurin
yura
yuri
yuriy
yuro
yusef
yussuf
yusuf
yusuff
yusufu
yuwu
yuwuwa
yuwuwar
yves
yvonne
z
za
zaba
zababben
zababbun
zaban
zabar
zabarsa
zabe
zaben
zabensa
zabenta
zabi
zabid
zabin
zabiya
zabo
zabtarewar
zabuka
zabukan
zabura
zaburar
zack
zadibal
zafaa
zafi
zafin
zaftarewar
zagaya
zagayawa
zagaye
zagayen
zagayowar
zage
zaghawa
zagi
zagin
zagon
zagreb
zahir
zahiri
zahra
zai
zaid
zaidu
zain
zainab
zainadine
zaire
zaitun
zaiyi
zaizayar
zaka
zakara
zakaran
zakari
zakaria
zakariyya
zakarun
zaki
zakin
zakka
zaku
zakuna
zakzaky
zalika
zalla
zalunci
zaluncin
zalunta
zaluntar
zam
zama
zamalek
zaman
zamanai
zamanantar
zamani
zamanin
zamaninsa
zamansa
zamanta
zamantakewa
zamantakewar
zamanto
zamba
zambezi
zambia
zambiya
zambo
zamewa
zamfara
zamo
zamoum
zamu
zamuje
zan
zana
zanan
zance
zancen
zane
zanen
zanga
zangar
zango
zangon
zanjai
zanje
zanna
zantawa
zanzibar
zapp
zar
zara
zarafi
zarafin
zarafinsu
zaragoza
zaran
zarar
zarce
zare
zareco
zaren
zarge
zargen
zargi
zargin
zarginsa
zaria
zariya
zarma
zarmakoy
zaro
zarruk
zartar
zartarwa
zartarwar
zartaswa
zasu
zata
zato
zaton
zauna
zaunar
zaune
zaure
zauren
zawahiri
zawarawa
zawiya
zawiyet
zayd
zayed
zayn
zaynab
zayyana
zayyano
zazzabi
zazzabin
zazzage
zazzagewa
zazzau
zazzaɓi
zazzaɓin
zaƙi
zaɓa
zaɓar
zaɓaɓɓen
zaɓaɓɓu
zaɓaɓɓun
zaɓe
zaɓen
zaɓi
zaɓin
zaɓukan
zaɓuɓɓuka
zaɓuɓɓukan
ze
zealand
zebra
zed
zeitung
zen
zenith
zenon
zerbo
zero
zhang
zhao
zhejiang
zheng
zhishen
zhou
zhu
zi
zida
zidan
zidane
zik
zika
zil
zim
zimbabwe
zimmerman
zimmermann
zina
zinare
zinaren
zinari
zinariya
zinc
zinchenko
zinder
zine
zion
zip
zira
zirga
zirgar
zirin
zitouna
ziyara
ziyarar
ziyarce
ziyarci
ziyarta
ziyartar
zlatan
zo
zobe
zoben
zoe
zogale
zomo
zone
zones
zongo
zoo
zoology
zoom
zoonotic
zoroastrian
zou
zquez
zu
zub
zuba
zubair
zubairu
zubar
zubarwa
zubayr
zube
zubewa
zubewar
zuciya
zuciyar
zuciyata
zuckerberg
zuga
zuh
zuhudu
zukatan
zukiswa
zulfikar
zulu
zulum
zum
zuma
zumunci
zumunta
zungeru
zunubai
zunubi
zur
zura
zurfafa
zurfi
zurfin
zuri
zuria
zurich
zuriya
zuriyar
zuriyarsa
zuriyarsu
zurmi
zuru
zuwa
zuwan
zx
{
|
}
~
¡
¢
£
¥
§
¨
©
ª
«
®
¯
°
±
²
³
´
µ
·
º
»
½
¿
×
æ
ð
ø
þ
ħ
ı
ŋ
ƙ
ƙa
ƙabila
ƙabilanci
ƙabilar
ƙabilu
ƙabilun
ƙadangare
ƙaddamar
ƙaddamarwa
ƙaddara
ƙaddarar
ƙafa
ƙafafu
ƙafafun
ƙafar
ƙaho
ƙalilan
ƙalla
ƙalubalanci
ƙalubalantar
ƙalubale
ƙalubalen
ƙamshi
ƙamus
ƙanana
ƙananan
ƙanshi
ƙanwar
ƙanwarta
ƙanƙanta
ƙanƙara
ƙara
ƙarama
ƙaramar
ƙarami
ƙaramin
ƙaranci
ƙarancin
ƙarar
ƙararraki
ƙararrakin
ƙararrawa
ƙarawa
ƙare
ƙarewa
ƙarfafa
ƙarfafawa
ƙarfe
ƙarfi
ƙarfin
ƙarfinsa
ƙari
ƙarin
ƙarni
ƙarnin
ƙarnuka
ƙarshe
ƙarshen
ƙaru
ƙaruwa
ƙaruwar
ƙarya
ƙaryata
ƙarƙashin
ƙarƙashinsa
ƙasa
ƙasan
ƙasar
ƙasarsa
ƙasarsu
ƙasarta
ƙasashe
ƙasashen
ƙasashensu
ƙashi
ƙashin
ƙasusuwa
ƙasƙanci
ƙasƙantar
ƙauna
ƙaunaci
ƙaunar
ƙaunarta
ƙaura
ƙaurawar
ƙauye
ƙauyen
ƙauyensa
ƙauyuka
ƙauyukan
ƙawance
ƙawancen
ƙawata
ƙaya
ƙayar
ƙayyadadden
ƙayyadaddun
ƙayyade
ƙazamar
ƙazanta
ƙazantar
ƙaƙƙarfan
ƙera
ƙere
ƙeta
ƙetare
ƙetaren
ƙi
ƙidaya
ƙidayar
ƙididdiga
ƙididdigar
ƙididdige
ƙididdigewa
ƙila
ƙima
ƙimar
ƙin
ƙira
ƙirar
ƙirgar
ƙirji
ƙirjin
ƙirƙira
ƙirƙirar
ƙirƙire
ƙirƙiri
ƙirƙiro
ƙiyasin
ƙiyasta
ƙiyayya
ƙofa
ƙofar
ƙofofi
ƙofofin
ƙoli
ƙona
ƙonawa
ƙone
ƙonewa
ƙoshin
ƙoƙarce
ƙoƙari
ƙoƙarin
ƙudan
ƙudirin
ƙuduri
ƙudurin
ƙugiya
ƙugu
ƙuli
ƙulla
ƙulli
ƙungiya
ƙungiyar
ƙungiyarsa
ƙungiyarta
ƙungiyoyi
ƙungiyoyin
ƙunsa
ƙunsar
ƙunshe
ƙunshi
ƙuntata
ƙuntatawa
ƙur
ƙura
ƙurar
ƙuri
ƙuruciya
ƙuruciyarsa
ƙuruciyarta
ƙwace
ƙwadago
ƙwai
ƙwallaye
ƙwallo
ƙwallon
ƙwanƙolin
ƙwanƙwasa
ƙwarai
ƙwararre
ƙwararren
ƙwararriyar
ƙwararru
ƙwararrun
ƙware
ƙwarewa
ƙwarewar
ƙwari
ƙwarin
ƙwaro
ƙwarya
ƙwaya
ƙwayar
ƙwayoyi
ƙwayoyin
ƙwazo
ƙwaƙwalwa
ƙwaƙwalwar
ƙwaƙƙwaran
ƙyale
ƙyalli
ƙyama
ƙyamar
ƴ
ƴa
ƴan
ƴanci
ƴancin
ƴar
ƴaƴa
ƴaƴan
ɐ
ɑ
ɒ
ɓ
ɓace
ɓacewa
ɓacin
ɓangare
ɓangaren
ɓangarori
ɓangarorin
ɓarke
ɓarkewar
ɓarna
ɓarnar
ɓata
ɓatanci
ɓaure
ɓawon
ɓera
ɓirchi
ɓoyayyen
ɓoye
ɓoyewa
ɓullo
ɔ
ɗ
ɗa
ɗabi
ɗaci
ɗaga
ɗaiɗaikun
ɗaki
ɗakin
ɗakuna
ɗakunan
ɗalibai
ɗaliban
ɗalibi
ɗalibin
ɗan
ɗanja
ɗansa
ɗansu
ɗanta
ɗanyen
ɗanɗano
ɗari
ɗariƙar
ɗaruruwan
ɗauka
ɗaukacin
ɗaukaka
ɗaukan
ɗaukar
ɗaukarsa
ɗaukarsu
ɗaukarta
ɗauke
ɗauki
ɗauko
ɗaura
ɗaure
ɗaurin
ɗaya
ɗayan
ɗayansu
ɗebo
ɗiban
ɗigon
ɗimbin
ɗin
ɗinki
ɗinkin
ɗinsa
ɗinsu
ɗinta
ɗiya
ɗiyar
ɗora
ɗorawa
ɗorewa
ɗorewar
ɗumamar
ɗumbin
ɗumi
ɘ
ə
ɛ
ɡ
ɣ
ɨ
ɪ
ɰ
ɲ
ɹ
ɽ
ɾ
ʁ
ʃ
ʊ
ʋ
ʒ
ʔ
ʝ
ʰ
ʲ
ʷ
ʹ
ʺ
ʻ
ʼ
ʽ
ʾ
ʿ
ˁ
ˆ
ˈ
ˌ
ː
˚
ˤ
˺
̀
́
̂
̃
̄
̆
̇
̈
̉
̊
̋
̌
̏
̓
̔
̕
̘
̚
̛
̞
̠
̣
̦
̧
̨
̩
̪
̮
̯
̱
̲
̳
͂
ͅ
͡
α
β
γ
δ
ε
η
θ
ι
κ
λ
μ
ν
ο
π
ρ
ς
σ
τ
υ
φ
χ
ω
а
в
г
д
дзиґа
е
з
за
золота
и
к
л
м
н
на
ни
нськоі
о
офіціи
п
про
процитовано
р
с
т
та
у
украі
х
ы
э
ю
я
є
і
ә
ְ
ִ
ֵ
ֶ
ַ
ָ
ֹ
ּ
ׁ
א
ב
ה
ו
ח
י
ל
מ
נ
צ
ר
ש
ת
،
؟
ا
اب
ابن
ار
ال
الا
الدين
الله
ام
ان
ب
بن
بنت
بو
بي
ة
ت
تونس
ث
ج
ح
حمد
خ
د
دار
ذ
ر
ز
س
ش
ص
ض
ط
ظ
ع
عبد
على
علي
عمر
غ
ـ
ف
في
ق
ك
ل
لا
لكرة
للسيدات
م
محمد
مسجد
من
منتخب
ن
ه
و
وا
ون
ى
ي
يوسف
ً
ٌ
ٍ
َ
ُ
ِ
ّ
ْ
ٓ
ٔ
ٕ
ٰ
ٱل
ی
ۚ
۟
ۢ
ۭ
ް
ं
क
च
ज
त
द
न
प
ब
म
र
ल
व
स
ह
ा
ि
ी
ु
े
ो
्
ং
ক
গ
চ
জ
ট
ড
ত
থ
দ
ধ
ন
প
ফ
ব
ম
য
র
ল
শ
ষ
স
হ
়
া
ি
ী
ু
ৃ
ে
্
க
ச
ட
த
ப
ம
ல
ா
ி
ு
்
ం
ట
త
న
ర
ల
స
ా
ి
ీ
ు
ె
ే
ో
్
ಂ
ಕ
ಗ
ಜ
ಡ
ತ
ದ
ನ
ಪ
ಬ
ಮ
ಯ
ರ
ಲ
ವ
ಶ
ಷ
ಸ
ಹ
ಾ
ಿ
ು
ೂ
ೆ
್
ೕ
യ
ാ
ി
്
ං
ද
න
ර
ස
්
ා
ි
ු
ෙ
ั
ิ
ี
่
้
་
ུ
ོ
ᵐ
ᶬ
​
‌
‎
‐
‑
‒
–
—
―
‘
’
‚
‛
“
”
„
‟
†
•
…
‬
′
″
‹
›
⁄
₂
₦
€
₴
₹
⃣
№
™
↑
→
↔
↗
↵
↷
−
∗
√
∞
≥
⋅
⋆
③
④
⑦
│
▶
☃
♭
⚽
✓
➞
⟨
⟩
⦁
ⴰ
ⴱ
ⴻ
ⵉ
ⵍ
ⵎ
ⵏ
ⵓ
ⵔ
ⵙ
ⵜ
⺀
⺄
⺆
⺈
⺊
⺌
⺕
⺝
⺸
⺼
⿰
⿱
⿲
⿳
⿴
⿵
⿶
⿷
⿸
⿹
⿺
⿻
》
」
『
』
〢
あ
い
か
こ
す
つ
て
と
に
の
は
ひ
み
る
ん
゙
゚
ィ
イ
ゥ
ウ
カ
ク
コ
ス
タ
テ
ト
ナ
ハ
フ
ユ
ラ
ル
ン
・
ー
㇁
㇂
㇄
㇇
㇈
㇉
㇓
㐁
㐄
㐅
㐌
㐫
㐬
㐭
㐮
㐱
㑒
㒵
㒸
㒼
㓁
㓞
㔾
㕛
㕣
㖾
㘝
㚅
㚇
㚔
㚘
㝉
㝡
㝴
㝵
㞋
㞢
㞷
㠩
㠭
㠯
㡀
㡭
㡿
㢲
㢴
㣇
㣺
㥯
㪅
㫄
㫐
㫒
㫺
㬅
㬎
㬥
㬰
㲋
㳄
㷠
㸒
㸚
㸦
㼌
㼲
㽞
㿟
䀠
䂞
䍃
䏍
䒑
䖍
䖒
䖝
䖵
䙴
䚻
䜌
䝿
䡛
䧹
䪞
一
丁
丂
七
丄
丅
丆
万
丈
三
上
下
丌
不
与
丏
丐
丑
专
且
丕
世
丘
丙
业
东
丞
丢
丣
两
严
並
丨
丩
个
丫
丬
中
丮
丰
丱
串
丵
丶
丷
丸
丹
为
主
丽
丿
乀
乂
乃
久
乆
乇
么
义
之
乌
乍
乎
乏
乐
乑
乔
乖
乗
乘
乙
乚
乛
乜
九
乞
也
习
乡
乳
乾
亀
亅
了
亇
予
争
事
二
亍
于
亏
亐
云
互
亓
五
井
亘
亚
亜
亞
亟
亠
亡
亢
交
亥
亦
产
亨
亩
享
京
亭
亮
亯
亰
亲
亳
亶
亷
人
亻
亼
亾
仁
今
介
仌
从
仐
仑
仒
仓
仕
他
付
仝
代
令
以
仮
任
企
伊
伏
伐
休
会
伯
但
位
何
佘
余
作
佥
使
來
侈
侌
侖
侯
侵
便
保
俞
信
修
倉
倍
候
倠
備
僉
僕
儿
兀
允
兂
元
兄
充
兆
兇
先
光
兊
克
兌
免
兑
兒
兓
兔
党
兜
兟
入
全
兩
兪
八
公
六
兮
兰
共
关
兵
其
具
典
兹
兼
冀
冂
冃
冄
内
冈
冉
冊
冋
册
再
冎
冏
冐
冒
冓
冖
冗
冘
军
农
冝
冡
冥
冫
冬
冷
几
凡
凢
凵
凶
凷
凸
凹
出
函
凾
刀
刁
刂
刃
刄
刅
分
切
刍
刑
刕
刖
列
刘
则
初
別
利
别
到
制
刺
則
削
剌
前
剡
剽
劉
力
功
加
劦
助
劫
劳
劵
勃
勇
勉
勒
動
務
勞
勤
勹
勺
勻
勾
勿
匀
匂
包
匆
匈
匊
匋
匍
匕
化
北
匚
匝
匡
匪
匱
匸
匹
区
医
匽
匿
區
十
卂
千
卄
卅
卆
升
午
卉
半
卌
华
卑
卒
卓
单
卖
南
卜
卝
卞
占
卡
卢
卣
卤
卦
卩
卪
卬
卯
印
危
即
却
卵
卷
卸
卻
厂
厃
厄
历
厈
厉
厌
厓
厘
厚
原
厤
厥
厨
厭
厲
厶
厷
厸
去
厼
厽
叀
参
參
叅
又
叉
及
友
双
反
叐
发
叒
叔
叕
取
受
叚
叜
叟
口
古
句
另
叩
只
召
可
台
叱
史
右
叵
号
司
叹
吂
各
吅
合
吉
吊
吋
同
名
后
吏
向
吕
君
吝
吞
否
含
启
吳
吴
吹
吾
呂
呆
呈
告
员
呙
周
命
咅
和
咎
咠
咢
咨
咸
咼
哀
品
哉
員
哥
哲
唐
商
啇
問
啚
啬
啻
善
喜
喬
單
喿
嗇
噩
嚴
囊
囗
囘
囙
囚
四
回
囟
因
囧
囬
困
囱
囷
固
国
圂
圅
國
圍
圓
圖
土
圡
圣
圥
在
圭
地
圶
圼
坐
坒
坚
坴
垂
垔
垚
埀
埋
城
埶
執
基
堂
堅
堆
堇
堯
塞
墨
壘
士
壬
壯
声
壳
壴
壹
壺
壽
夂
处
夅
夆
备
夊
夋
夌
复
夏
夒
夕
外
夗
夘
多
夜
夢
大
夨
天
太
夫
夬
夭
央
失
夲
头
夷
夸
夹
夻
夾
奂
奄
奇
奈
奉
奎
奏
奐
契
奓
奔
奚
奞
奠
奢
奥
奭
女
奴
奻
好
如
妃
妄
妙
妟
妥
妻
妾
姑
委
姜
威
娄
婁
婴
嬰
嬴
子
孑
孔
孕
孖
字
存
孚
孛
孝
孟
季
孤
学
孫
孱
學
宀
宁
宂
它
宅
宇
守
安
宋
完
宏
宓
宗
官
定
宛
宜
宝
客
宣
室
宮
宰
害
家
容
宾
宿
寄
寅
密
富
寒
察
寧
審
寫
寬
寮
寸
对
寺
寻
寽
対
寿
封
尃
射
将
將
專
尉
尊
尋
尌
對
小
少
尒
尓
尔
尖
尗
尚
尞
尢
尣
尤
尧
尨
尭
就
尸
尹
尺
尻
尼
尽
尾
尿
局
居
屈
屋
屎
屏
屑
展
屖
屚
属
屠
屡
屬
屮
屯
屰
山
屵
屾
岁
岂
岑
岡
岩
岳
岸
峯
島
崇
崑
崔
崖
崙
崩
嵬
嶲
巂
巛
川
州
巟
巠
巢
巤
工
左
巧
巨
巩
巫
差
己
已
巳
巴
巷
巸
巽
巾
巿
帀
市
布
希
帚
帛
帝
带
師
席
帶
常
干
平
年
幵
并
幷
幸
幺
幻
幼
幽
幾
广
広
庄
床
底
店
庚
府
度
庫
庭
庶
康
庸
廉
廌
廛
廣
廩
廴
延
廷
建
廾
廿
开
弁
弃
弄
弇
弋
式
弓
弔
引
弗
弘
弜
弟
弥
弦
弱
張
強
强
彊
彌
彎
彐
彑
当
彔
录
彖
彗
彡
形
彥
彦
彧
彭
影
彳
役
彼
往
待
律
徒
得
徙
從
復
微
徵
德
心
忄
必
忌
忍
志
忝
忠
忩
快
念
忽
忿
思
怠
急
怱
恆
恒
恩
恭
息
悉
患
悤
悲
悶
惠
惡
惢
愁
愈
意
愛
感
慈
慧
慮
憂
憲
應
戀
戈
戉
戊
戋
戌
戍
戎
成
我
戒
戔
或
戚
戠
戢
截
戲
戶
户
戹
戼
戾
房
所
扁
扇
手
扌
才
打
托
执
承
折
拉
拜
拿
掌
推
提
摩
支
攴
攵
收
攸
改
放
政
敄
敏
敕
敖
敗
教
敝
敞
敢
散
敦
敫
敬
数
敷
數
斂
文
斉
斊
斗
斤
斥
斩
斬
斯
新
方
於
施
斿
旁
旋
族
旗
无
旡
既
旣
日
旦
旧
旨
早
旬
旱
旲
时
旾
昆
昇
昌
昍
明
昏
易
昔
昗
昜
星
春
昬
是
昱
昴
昷
時
晃
晋
晏
普
景
晶
智
暑
暴
曇
曩
曰
曲
曳
更
曷
書
曹
曼
曾
替
最
朁
會
月
有
朋
服
朔
朕
朗
望
朝
木
朩
未
末
本
札
朮
术
朱
朵
朶
朿
杀
李
杏
杜
束
条
来
東
杲
杳
松
析
林
枚
果
枝
枲
枼
某
柔
查
柬
柰
柴
栗
桀
桑
桼
梁
條
梟
梨
棘
棠
棥
森
楚
業
楽
榮
樂
樊
欠
次
欣
欮
欲
欶
欽
款
歆
歇
歛
止
正
此
步
武
歨
歪
歮
歯
歰
歲
歴
歷
歸
歹
歺
死
殳
段
殷
殸
殹
殺
殻
殿
毋
毌
母
每
毒
比
毕
毚
毛
毳
氏
氐
民
气
氣
水
氵
氶
氷
永
氺
氾
求
汉
汝
汞
江
沃
沓
沙
沝
河
泉
法
波
泣
泥
泰
洋
洛
洪
活
派
流
浦
浪
浮
淡
淮
清
渚
渠
湖
湯
溪
滿
漢
漸
火
灬
灭
灰
灵
灷
炅
炎
炏
炗
炙
炭
為
烈
烏
烝
焉
無
焦
焱
然
煞
熊
熏
燕
營
燮
爪
爫
爭
爯
爰
爱
爲
爵
父
爻
爽
爾
爿
片
牙
牚
牛
牜
牟
牢
牧
牪
牽
犀
犬
犭
犮
狂
狄
狊
独
狺
猋
猒
猪
献
獻
玄
率
玉
王
玟
玨
珎
班
理
琴
瑟
瑩
瓜
瓦
甘
甚
生
産
用
甫
甬
田
由
甲
申
电
甶
男
甸
甹
画
甾
畀
界
畏
畐
留
畜
畟
畢
畧
畨
番
畫
異
畱
當
畺
畾
疊
疋
疌
疑
疒
疾
癶
癸
癹
登
發
白
百
皀
皃
的
皆
皇
皋
皐
皕
皮
皷
皿
盃
盆
盇
盈
益
盍
盎
监
盒
盖
盛
盡
監
盤
盧
目
直
相
盾
省
眇
眉
看
眔
眞
真
眷
眼
眾
着
睘
睪
睿
瞏
瞢
瞻
瞿
矍
矛
矞
矢
矣
知
矦
短
石
研
破
碎
磊
磨
示
礻
礼
祖
神
祟
票
祭
禀
禁
禸
禹
禺
离
禽
禾
禿
秀
秃
秉
秋
科
秝
秦
移
稟
穀
穌
穴
究
穹
空
穿
突
窄
窒
立
竒
竜
竝
竟
章
童
竹
笑
笠
第
筆
等
答
箕
算
箴
節
篤
篭
米
粉
粛
粟
粤
粦
粲
糞
糸
糹
系
紀
約
納
素
索
紫
累
細
絜
絫
絲
維
綿
縣
繇
纍
纟
缶
网
罒
罔
罕
罗
罙
罡
罢
罪
署
罷
羅
羊
羌
羍
美
羔
羕
羗
羞
羡
羣
群
義
羲
羸
羽
翁
翏
習
翕
翟
翠
翼
老
耂
考
者
耆
而
耎
耑
耒
耳
耴
耶
耷
聂
聊
聖
聚
聶
聿
肀
肃
肅
肉
肖
肙
肥
肩
肯
育
肴
胃
背
胡
胥
能
脊
脩
膚
臣
臤
臧
自
臬
臭
臯
臱
至
致
臺
臼
臽
臾
臿
舀
舂
舄
與
興
舉
舌
舍
舛
舜
舞
舟
般
艮
良
色
艸
艹
艾
芒
芔
芬
芮
花
芳
芺
芻
苏
苔
苗
苟
若
苦
英
茶
茸
荅
草
荒
荣
荼
莆
莧
莫
莽
菆
菊
菐
華
萬
落
葉
著
葛
董
葵
蒙
蒦
蒼
蓋
蓬
蓺
蔑
蔡
蕉
蕭
薄
薛
薦
薰
藍
藏
藥
蘇
蘭
虍
虎
虐
虒
虔
處
虖
虗
虘
虚
虛
虜
虞
虫
虽
蚤
蚩
蜀
蜜
蟲
蠡
血
行
衍
街
衛
衣
衤
表
衮
衰
袁
袞
褭
褱
襄
襾
西
覀
要
覃
見
規
覓
覧
親
覽
见
视
角
解
言
訁
訇
計
詹
語
誩
諸
讠
语
谷
豆
豈
豊
豐
豕
豖
豙
象
豦
豩
豪
豸
貇
貝
貞
貟
負
貢
貧
貪
貫
責
貳
貴
買
費
賁
資
賈
賏
賓
賔
賛
賞
賢
賣
質
賴
贊
贝
贡
责
贯
贲
贵
赖
赛
赞
赤
赦
走
越
足
路
蹇
身
躬
車
軍
軎
軟
輦
车
辛
辜
辟
辥
辰
辱
農
辵
辶
边
辽
达
过
近
连
迷
追
退
送
逆
逐
通
速
造
逢
連
逮
進
遀
遂
過
道
達
遣
適
遷
遺
邊
邑
邕
那
邦
邪
郎
部
郭
都
鄉
鄧
酉
酋
配
酓
釆
采
里
重
野
量
金
釒
錢
钅
長
镸
长
門
閃
閉
開
閏
閑
閒
間
閔
閵
閻
闌
门
间
闷
阑
阜
阝
阿
降
院
陳
隆
隊
隋
隡
隨
隱
隶
隹
隺
隻
隼
隽
难
雀
雁
集
雈
雋
雍
雐
雔
雙
雚
雜
雝
離
難
雨
雩
雪
雲
零
雷
需
霍
霜
霝
霞
霸
靈
靑
青
靖
非
靡
面
靣
革
韋
韦
韭
韯
韱
音
頁
頃
項
須
頗
頡
頻
顛
页
風
风
飛
飞
食
飠
養
饣
首
香
馬
馮
駦
马
骨
高
髟
鬥
鬯
鬲
鬼
魚
魯
鮮
鱼
鲁
鳥
鳳
鸟
鹵
鹿
麃
麗
麥
麦
麻
黃
黄
黍
黎
黑
黒
黨
黹
黽
黾
鼎
鼓
鼠
鼻
齊
齋
齐
齒
齿
龍
龙
龜
龟
龠
龰
龱
龴
龵
龶
龷
龸
龹
ꝛ
者
艹
ﯿ
ﷺ
️
ﺍ
ﺎ
ﺑ
ﺓ
ﺔ
ﺗ
ﺘ
ﺩ
ﺪ
ﺭ
ﺮ
ﺲ
ﺳ
ﻄ
ﻋ
ﻌ
ﻘ
ﻝ
ﻟ
ﻠ
ﻣ
ﻤ
ﻧ
ﻨ
ﻫ
ﻭ
ﻮ
ﻰ
ﻱ
ﻲ
ﻳ
ﻴ
ﻷ
﻿
（
）
，
－
：
？
￼
𐦲
🌿
🏻
🙏
𠀁
𠀃
𠀆
𠀉
𠀎
𠀐
𠁁
𠁣
𠂆
𠂇
𠂈
𠂉
𠂊
𠂋
𠂎
𠂒
𠂔
𠂛
𠂡
𠂢
𠂤
𠂬
𠂭
𠂹
𠃊
𠃋
𠃌
𠃍
𠃎
𠃑
𠃓
𠃔
𠃜
𠄌
𠄎
𠄠
𠄢
𠆢
𠆥
𠇍
𠈌
𠌵
𠓜
𠔉
𠔥
𠔼
𠔽
𠔿
𠕀
𠕁
𠕋
𠘧
𠘨
𠙻
𠙼
𠚏
𠚒
𠚤
𠚪
𠣏
𠤎
𠤕
𠥓
𠦄
𠦑
𠦝
𠧒
𠧗
𠧪
𠩺
𠪚
𠫓
𠫔
𠫤
𠬛
𠬝
𠬞
𠬢
𠬤
𠬶
𠮛
𠮦
𠮷
𠯑
𠱠
𠳮
𠷎
𡈼
𡉀
𡉵
𡌥
𡍮
𡏳
𡕒
𡕩
𡕰
𡖅
𡗗
𡗜
𡘆
𡘤
𡧱
𡨄
𡩧
𡬠
𡭽
𡰣
𡰥
𡰪
𡰯
𡰱
𡷈
𡸁
𡿨
𡿩
𡿪
𡿺
𢀖
𢀛
𢀩
𢁙
𢆉
𢆰
𢆶
𢇁
𢇇
𢉖
𢌬
𢌿
𢏚
𢑑
𢑚
𢖻
𢙣
𢛳
𢦏
𢦒
𢧵
𢼄
𢾕
𣁋
𣄼
𣅀
𣅽
𣍘
𣎳
𣎵
𣏋
𣏼
𣗥
𣥂
𣥖
𣦵
𣦼
𣧄
𣪊
𣪠
𣬉
𣳾
𣶒
𤇾
𤊽
𤐫
𤓰
𤔔
𤕨
𤣩
𤰇
𤰔
𤰞
𤴓
𤴔
𤽄
𥁑
𥁕
𥃦
𥃩
𥃭
𥇡
𥑟
𥘅
𥘈
𥝢
𥫗
𥱡
𦈢
𦉪
𦉬
𦉼
𦍌
𦍒
𦎧
𦐇
𦓔
𦔮
𦘒
𦙃
𦚏
𦣝
𦣞
𦣻
𦥑
𦥔
𦥯
𦨉
𦭝
𦰩
𧆞
𧈧
𧘇
𧰨
𧴪
𧴮
𧵩
𧾷
𨸏
𨾴
𩙿
𩠐
𩫏
𩵋
𪉷
𪜀
𪟽
𪠲
𪩲
𫇦
𫔭
𫜸
𫝀
𫠣
𫠩
𫢉
𫥞
𫩏
𫩠
𫪡
𫲽
𫶧
𬀷
𬐘
𬗌
𬙙
𬛸
𬜯
𬟩
𬯁
𬴘
𬺻
𬼉
𬼖
𭀰
𭁈
𭁨
𭅰
𭑈
𭕄
𭗼
𭤨
𭥫
𭻾
𮅕
𮊿
𮍌
𮍏
𮓗
𮥼
𮧮
廾
𰀁
𰀄
𰀈
𰀉
𰀕
𰀠
𰀡
𰀢
𰀪
𰁜
𰃮
𰆊
𰆘
𰋙
𰕎
𰢴
𰧭
𰯲
000--
002--
008--
02--
03--
04--
05--
06--
07--
08--
09--
58--
62--
64--
72--
73--
74--
75--
79--
80--
81--
82--
83--
84--
86--
87--
91--
92--
95--
96--
97--
978--
978019--
98--
99--
a--
aa--
ab--
aba--
abdel--
abden--
abder--
abdi--
abdul--
abdur--
abe--
abi--
abo--
abs--
abu--
ac--
acc--
accele--
accep--
ace--
acqui--
act--
ad--
ada--
adam--
adapt--
ade--
adeto--
adi--
ae--
af--
afen--
afi--
afl--
african--
afro--
ag--
aga--
agro--
agu--
ah--
ahl--
ahlus--
ai--
aig--
air--
ais--
ait--
aiye--
aj--
aja--
aje--
aji--
ak--
aka--
aki--
akin--
akka--
ako--
akro--
aku--
al--
ala--
alay--
ale--
alek--
aless--
alh--
ali--
alky--
all--
allo--
alph--
alt--
alƙa--
am--
ama--
amb--
ambul--
ame--
ami--
amp--
amphi--
amr--
amu--
an--
ana--
analy--
and--
ani--
ann--
anna--
ano--
anth--
anthro--
anti--
anu--
anun--
any--
ao--
ap--
apa--
apol--
app--
approxi--
aq--
aqi--
ar--
ara--
arbit--
are--
ari--
arm--
aro--
arri--
art--
aru--
as--
asa--
asem--
ash--
asi--
ask--
aso--
asp--
ass--
astr--
asu--
at--
ata--
ath--
ati--
atlanti--
atti--
attri--
atu--
au--
aus--
austr--
auto--
av--
ave--
avent--
aw--
awa--
awo--
axi--
ay--
aya--
aye--
ayi--
ayo--
az--
aza--
azi--
azu--
aƙi--
b--
ba--
baba--
baby--
back--
bact--
bad--
bag--
bah--
bai--
bak--
bal--
bala--
ball--
bam--
ban--
bar--
bas--
bat--
bata--
bay--
baƙ--
bb--
be--
beau--
bed--
bee--
beer--
behavi--
bel--
ben--
ber--
bes--
bet--
bey--
bh--
bi--
biblio--
bid--
bien--
big--
bil--
bin--
bio--
bir--
bis--
bit--
bl--
black--
bn--
bo--
bohe--
bol--
bon--
bot--
bou--
bow--
boy--
br--
brah--
bre--
brit--
bro--
bron--
bry--
bu--
buk--
bung--
bunk--
burs--
bus--
bush--
but--
buzz--
by--
c--
ca--
cad--
cald--
camb--
can--
cap--
car--
carbohy--
care--
carto--
cas--
cast--
cat--
cay--
cc--
cd--
ce--
celes--
ch--
cha--
charm--
che--
check--
chi--
chitt--
chlo--
cho--
chu--
ci--
cid--
cin--
cir--
cit--
cite--
citeref--
city--
ck--
cl--
cle--
clear--
clo--
cm--
cn--
co--
col--
collo--
com--
comme--
compl--
compo--
con--
confu--
consi--
const--
conta--
convoc--
coor--
cop--
corn--
corr--
cosmopol--
cott--
coug--
cov--
cp--
cr--
cre--
cri--
croc--
cros--
cross--
cru--
cs--
ct--
cu--
cult--
cum--
cur--
cut--
cy--
cycl--
cyr--
cyto--
d--
da--
dad--
dag--
dah--
dai--
daily--
dal--
dam--
dama--
dan--
dar--
dara--
dare--
das--
dau--
day--
dazz--
dc--
de--
dec--
deco--
dee--
def--
degra--
del--
dem--
demo--
den--
depen--
depo--
der--
des--
desce--
detai--
dete--
dev--
dh--
di--
dia--
die--
dil--
dimen--
dimokara--
din--
dir--
disappe--
disc--
dism--
disp--
diss--
dist--
dj--
dja--
dm--
dmy--
do--
doc--
dog--
dolo--
don--
doo--
dos--
dou--
doum--
down--
dr--
dra--
du--
dua--
dun--
durk--
dw--
dy--
dz--
e--
ea--
earth--
eb--
ebu--
ec--
eco--
ed--
edo--
edu--
ee--
ef--
effi--
eg--
eh--
ei--
ej--
ek--
eke--
eku--
el--
ele--
eli--
em--
embr--
empl--
en--
end--
endoc--
endorse--
endos--
eng--
envi--
eo--
ep--
equato--
er--
eradi--
eri--
ero--
erup--
es--
esc--
esoph--
est--
et--
ethno--
eti--
eto--
etymo--
eu--
euro--
every--
ewu--
ex--
excl--
expl--
extre--
eyi--
ez--
eze--
f--
fa--
fab--
facu--
fai--
fair--
fam--
fan--
far--
fas--
fav--
faw--
fc--
fe--
fed--
fen--
fene--
fer--
fi--
fika--
fil--
film--
fin--
fir--
fire--
fis--
fit--
fix--
fl--
flag--
flav--
flu--
fly--
fo--
fon--
foot--
for--
four--
fr--
fra--
fre--
fred--
free--
ft--
fu--
full--
fun--
fur--
furof--
g--
ga--
gab--
gagg--
gai--
gal--
gall--
gam--
gan--
gar--
gas--
gastro--
gat--
gaut--
gaz--
gb--
gbe--
gc--
ge--
gen--
geo--
ger--
get--
gg--
gh--
gha--
ghana--
ghananews--
gi--
gil--
gins--
gio--
girl--
gis--
gist--
gla--
glen--
gli--
glo--
glu--
gly--
gm--
go--
god--
gods--
gold--
gonz--
good--
got--
gou--
gp--
gr--
gra--
grand--
grass--
gre--
griez--
gru--
gu--
gue--
gun--
guo--
gur--
gurgu--
gutsutt--
gwa--
gwar--
gwi--
gwo--
gwu--
gy--
gyneco--
h--
ha--
hack--
had--
hada--
hai--
haj--
hak--
hall--
ham--
han--
har--
hard--
hart--
has--
hat--
hau--
haw--
hay--
haz--
he--
head--
heli--
helm--
hels--
hen--
hend--
her--
het--
hi--
high--
him--
hip--
his--
hit--
hiz--
hl--
ho--
hodg--
home--
hon--
hong--
hop--
hot--
how--
hr--
hu--
hub--
hum--
hur--
hutc--
hw--
hy--
hydr--
hyper--
hypo--
i--
ia--
ib--
iba--
ibi--
ibrani--
ic--
id--
identi--
ideo--
ie--
if--
ife--
ig--
igbo--
ige--
ih--
ihe--
ii--
ik--
ike--
il--
ila--
ili--
ill--
ilu--
im--
ima--
imam--
immun--
imo--
imper--
implemen--
in--
ina--
inaug--
inc--
indi--
india--
indo--
indu--
ine--
inf--
info--
ing--
inhi--
ini--
inn--
ins--
instrumen--
int--
inter--
inve--
inven--
invest--
investiga--
invi--
invol--
io--
ip--
ir--
ire--
is--
isa--
ische--
ishi--
isi--
iso--
ist--
it--
ita--
iu--
iv--
iwu--
iz--
j--
ja--
jade--
jah--
jam--
jan--
jar--
jaun--
jaw--
jawa--
je--
jem--
jen--
jh--
ji--
jib--
jin--
jo--
joa--
jou--
jr--
ju--
k--
ka--
kai--
kak--
kalk--
kam--
kan--
kar--
kara--
kari--
kasa--
kaska--
kass--
kat--
kay--
kaz--
ke--
keban--
kel--
ken--
key--
kh--
khu--
ki--
kilo--
kim--
kin--
kiri--
kit--
klu--
kn--
ko--
kof--
kok--
kons--
kord--
kort--
kou--
kp--
kra--
kre--
kri--
kro--
ku--
kum--
kun--
kur--
kutut--
kuɓ--
kw--
kwa--
kwai--
kwale--
kwan--
kwark--
ky--
kyak--
l--
la--
lab--
lac--
lak--
lalla--
lam--
lan--
land--
lar--
las--
lat--
lau--
law--
lay--
lc--
le--
lea--
lect--
led--
legis--
lei--
len--
let--
lev--
leven--
lex--
ley--
li--
lia--
lib--
lie--
lim--
lin--
lit--
liveli--
ll--
lo--
lok--
long--
lorr--
los--
lou--
low--
ls--
lu--
luc--
lw--
ly--
m--
ma--
maa--
mac--
mad--
mag--
magh--
magni--
magu--
mah--
mai--
main--
maj--
majin--
mak--
maka--
makh--
mal--
mamb--
man--
manifest--
mao--
map--
maq--
mar--
mara--
mas--
mat--
mata--
mathe--
mau--
maw--
mawa--
max--
may--
maz--
maƙ--
maƙa--
mb--
mba--
mc--
mcc--
md--
me--
meche--
meck--
med--
medal--
medic--
meg--
mega--
meh--
mel--
memo--
men--
mer--
mes--
met--
meta--
mexi--
mf--
mg--
mh--
mi--
mic--
micro--
mid--
mil--
mill--
min--
mir--
mis--
mit--
mk--
mm--
mma--
mn--
mo--
moc--
mod--
moh--
moi--
mon--
mono--
mont--
monte--
moon--
morb--
morp--
mort--
mos--
mou--
mp--
ms--
mt--
mu--
mud--
mugh--
muh--
mukarr--
mukh--
multi--
mun--
muqa--
mur--
mus--
mut--
muza--
muƙa--
mw--
my--
myste--
n--
na--
nach--
naf--
nah--
naija--
nan--
naq--
nar--
nas--
nat--
nau--
navi--
naw--
nay--
naz--
nb--
nc--
nd--
ndi--
ndu--
ne--
neig--
neo--
nes--
net--
neu--
neur--
neut--
new--
news--
ng--
ngo--
ngu--
nh--
ni--
nia--
nigeria--
nin--
nj--
nk--
nl--
nna--
nni--
nno--
no--
non--
noo--
nor--
nos--
not--
nou--
ns--
nt--
nu--
nucleo--
nuisa--
nut--
nw--
nwa--
nwabu--
ny--
nz--
o--
oa--
oba--
obe--
obi--
obl--
obs--
obser--
oc--
occu--
och--
oct--
ode--
odi--
odo--
odu--
of--
off--
og--
ogbu--
ogun--
oh--
oi--
oil--
oje--
oju--
ok--
oka--
oke--
oko--
oku--
ol--
ola--
ole--
olim--
olu--
oluwa--
oly--
olymp--
om--
omo--
on--
ona--
onco--
one--
oni--
onu--
onwu--
onye--
oo--
op--
oppo--
or--
ora--
ore--
ori--
oro--
orph--
orth--
orthog--
os--
osa--
osu--
ot--
ota--
oto--
ou--
out--
ov--
over--
owo--
ox--
oxford--
oyakh--
oye--
oz--
p--
pa--
pala--
palas--
paleo--
pan--
pango--
pap--
par--
para--
park--
pas--
pat--
path--
pay--
pe--
peace--
pen--
per--
pet--
petro--
ph--
pharm--
phen--
photo--
phy--
pi--
pin--
pl--
play--
plea--
pm--
po--
poli--
policy--
poly--
pop--
por--
port--
post--
pot--
pr--
pra--
pre--
prest--
pri--
pro--
propa--
prost--
pru--
ps--
pseu--
psycho--
pt--
pu--
put--
pyr--
q--
qa--
qadd--
qarqa--
qi--
qu--
qua--
que--
qui--
quot--
r--
ra--
radio--
raff--
rafuff--
rah--
raj--
ram--
ran--
rap--
rar--
ras--
rat--
ray--
raz--
rc--
re--
recog--
recr--
red--
ref--
regu--
rein--
reinc--
rel--
ren--
rep--
repea--
republ--
require--
res--
resig--
respi--
rest--
retin--
rev--
rg--
rh--
rheto--
rheu--
ri--
rib--
rif--
riz--
rize--
rm--
rn--
ro--
rob--
rock--
rod--
roger--
ros--
rose--
round--
row--
rox--
rr--
rs--
ru--
rum--
run--
rus--
ruɓ--
rw--
ry--
s--
sa--
sacri--
sai--
sak--
sakh--
sal--
sam--
san--
sana--
sand--
sans--
sar--
sara--
sas--
sat--
sau--
saw--
say--
sc--
scar--
scen--
scha--
sche--
schl--
scho--
schu--
scor--
sd--
se--
sea--
sec--
sedi--
see--
sei--
sel--
semi--
sen--
sep--
seque--
ser--
ses--
sett--
sey--
sg--
sh--
sha--
she--
shi--
shin--
show--
shu--
si--
sil--
sim--
simul--
sin--
sir--
sit--
six--
sk--
ska--
skele--
sky--
sl--
sloven--
sm--
sme--
sn--
snow--
so--
socio--
soft--
sol--
solic--
some--
son--
sou--
soul--
south--
sow--
sp--
spa--
spec--
sports--
sq--
sr--
ss--
st--
star--
ste--
sto--
stra--
stre--
streng--
stri--
su--
sua--
sub--
subse--
subst--
sud--
suf--
sugg--
sul--
sun--
super--
supp--
sur--
survi--
sv--
sw--
sy--
syl--
symb--
synt--
syr--
t--
ta--
tab--
taba--
tag--
tai--
taj--
tak--
tal--
tamb--
tan--
tar--
task--
tat--
tau--
taw--
tay--
taɓarɓ--
tc--
tchi--
te--
team--
tech--
ted--
tee--
teh--
tek--
tel--
tele--
temp--
ten--
tes--
th--
tha--
the--
theo--
thri--
throw--
thur--
ti--
tim--
tin--
tip--
tir--
tis--
to--
tole--
tom--
top--
tor--
tou--
tr--
trans--
tre--
tri--
trou--
ts--
tsat--
tsu--
tt--
tu--
tubu--
tun--
tur--
tv--
tw--
twi--
ty--
u--
uc--
ud--
udo--
ug--
ugo--
ui--
uk--
uka--
ul--
um--
umu--
un--
una--
unani--
under--
uni--
up--
ur--
us--
uss--
ut--
uzo--
v--
va--
vacc--
val--
van--
var--
ve--
veget--
vel--
ven--
ver--
vi--
via--
vin--
voa--
voc--
voi--
vol--
volun--
vou--
vr--
vu--
w--
wa--
wai--
wal--
wan--
waqo--
war--
wars--
was--
water--
wc--
we--
web--
wei--
wen--
west--
wey--
whis--
whit--
white--
wi--
wiki--
wil--
wild--
win--
wind--
wire--
wis--
with--
wo--
wood--
wool--
world--
wr--
wu--
wy--
x--
xe--
xi--
xu--
xx--
y--
ya--
yah--
yam--
yan--
yar--
yat--
yay--
yaz--
ye--
yi--
yin--
yo--
you--
your--
yu--
yun--
z--
za--
zabubb--
zam--
zan--
zar--
zay--
zazza--
ze--
zen--
zi--
zik--
zim--
zo--
zoo--
zou--
zu--
zul--
ƙ--
ƙa--
ƙadar--
ƙan--
ƙanƙa--
ƙi--
ƙul--
ƙum--
ƙun--
ƙwarƙ--
ƴan--
ɓ--
ɓara--
ɗ--
ɗa--
ɗan--
κ--
ν--
τ--
в--
д--
к--
кіноак--
кіноп--
м--
муз--
н--
націо--
но--
нсь--
о--
п--
с--
т--
філь--
ا--
ال--
العر--
ب--
ت--
ج--
جم--
ح--
حس--
خ--
د--
ر--
س--
سع--
ش--
ص--
ع--
عي--
ـ--
ف--
ق--
ك--
كت--
ل--
م--
مو--
ن--
ه--
و--
ي--
--0
--00
--03
--04
--06
--07
--1
--11
--12
--13
--14
--17
--18
--19
--2
--20
--22
--24
--28
--3
--30
--32
--33
--37
--39
--4
--42
--44
--46
--5
--50
--51
--53
--56
--57
--59
--6
--61
--65
--67
--7
--70
--72
--73
--78
--8
--82
--83
--85
--86
--89
--9
--92
--94
--95
--98
--99
--a
--aa
--aal
--ab
--aba
--abad
--able
--ac
--ach
--ache
--acio
--ack
--acks
--ad
--ade
--ado
--ae
--ael
--af
--africa
--age
--agh
--ah
--ai
--ail
--ain
--aine
--aire
--ais
--aj
--aja
--ak
--al
--ala
--ale
--ali
--alibai
--aliban
--ally
--alo
--als
--am
--ama
--an
--ana
--ananan
--ance
--anci
--ancin
--and
--ane
--ang
--ani
--ans
--ant
--ante
--ants
--ao
--aoudou
--aq
--ar
--ara
--ard
--are
--ari
--aries
--arrun
--ars
--ary
--as
--asa
--asar
--ase
--at
--ata
--ate
--ated
--ates
--ath
--ating
--ation
--ator
--ats
--ature
--au
--aux
--ava
--aw
--awa
--awi
--ax
--ay
--aya
--az
--aza
--b
--ba
--ban
--bank
--bar
--bba
--bbi
--bce
--bci
--be
--beat
--bee
--berg
--bi
--bie
--bin
--biyi
--ble
--bles
--bo
--bon
--bor
--borg
--box
--bra
--bs
--bt
--bu
--bul
--bun
--burg
--burgh
--bus
--by
--c
--ca
--cal
--cale
--car
--cation
--cce
--ccen
--cciya
--cciyar
--ce
--ced
--cen
--cene
--cer
--ces
--ch
--cha
--che
--chi
--cht
--chy
--ci
--cia
--cience
--cier
--cil
--cin
--cing
--cio
--ciya
--ck
--cke
--cki
--cle
--co
--cock
--cos
--cot
--cott
--craft
--critic
--croft
--cs
--ct
--ction
--ctive
--ctomy
--cts
--cture
--cus
--cy
--d
--da
--dae
--daily
--dale
--day
--dda
--dden
--de
--debe
--ded
--deen
--dei
--den
--der
--des
--dge
--dh
--di
--dic
--die
--din
--dir
--dis
--disciplinary
--dium
--dle
--dman
--do
--dog
--doh
--doji
--dom
--don
--dor
--dou
--down
--doye
--dra
--dro
--ds
--dt
--du
--dum
--dun
--dur
--dura
--dus
--dy
--dza
--dzi
--e
--ea
--ean
--eb
--ebeest
--ec
--ech
--ect
--ed
--edic
--ee
--eed
--eel
--eem
--een
--eer
--ees
--ef
--egbu
--ege
--eges
--eh
--ei
--eiro
--ek
--ekwe
--el
--ela
--eld
--ell
--elli
--ello
--elo
--els
--em
--ema
--embre
--eme
--ement
--en
--ena
--enburg
--ence
--end
--ene
--ened
--eni
--enne
--ens
--ense
--ensis
--ensive
--ent
--ente
--ents
--eo
--ep
--ept
--eption
--eq
--er
--eri
--ern
--erno
--ers
--ert
--eru
--ery
--es
--ese
--ess
--est
--et
--ete
--eth
--ets
--ett
--ette
--etti
--eu
--eur
--ev
--evo
--ew
--ews
--ex
--ey
--ez
--eza
--eze
--f
--fa
--fah
--fai
--fan
--far
--fe
--feld
--ff
--ffe
--ffen
--ffun
--fi
--fia
--fication
--field
--fin
--fio
--fiya
--fm
--fo
--ford
--fp
--fs
--ft
--fta
--fu
--ful
--fy
--g
--ga
--gari
--gate
--gba
--gbe
--gbo
--gbue
--ge
--ged
--gem
--genic
--ger
--ges
--gh
--ghe
--ghs
--ght
--gi
--gia
--gie
--gin
--ging
--gist
--gle
--gn
--gne
--go
--gon
--gos
--grad
--graph
--graphy
--gs
--gton
--gu
--gua
--gue
--gwa
--gwe
--gwu
--gy
--gya
--h
--ha
--hal
--hall
--ham
--han
--hbil
--he
--head
--heal
--hed
--heid
--heim
--hel
--hen
--hene
--her
--hew
--hf
--hg
--hi
--hia
--hias
--hic
--hid
--hie
--hiko
--hin
--hing
--hip
--hiya
--hn
--hna
--ho
--hol
--hood
--house
--hr
--hra
--hs
--ht
--hu
--hua
--hy
--hyl
--i
--ia
--ial
--ian
--ians
--ias
--iation
--iations
--ib
--ibe
--ible
--ic
--ica
--ical
--ich
--ici
--icia
--ick
--ico
--ics
--id
--ide
--ides
--ids
--ie
--ied
--ien
--ienne
--ient
--ier
--iers
--ies
--iest
--iev
--if
--ified
--ify
--igi
--ih
--ii
--ik
--ika
--ikh
--iki
--il
--ila
--ile
--ilian
--im
--iment
--imi
--in
--ina
--ination
--ine
--ines
--ing
--ingham
--ings
--ington
--ini
--ino
--ins
--inus
--io
--iola
--ion
--ions
--ious
--ipline
--iq
--ique
--ir
--ira
--ire
--ires
--iro
--is
--isanci
--isation
--ise
--ised
--ish
--ished
--ism
--ist
--ista
--istic
--ists
--it
--ita
--ite
--ited
--ites
--ith
--ities
--ition
--itis
--itt
--ity
--iu
--ium
--ius
--iv
--ive
--ives
--ivity
--ix
--iy
--iya
--iyanci
--iyar
--iye
--iyya
--iz
--ization
--ize
--ized
--izes
--izing
--j
--ja
--je
--ji
--jid
--jin
--jio
--jk
--jo
--joji
--ju
--juk
--juwa
--k
--ka
--kal
--kan
--kanci
--kar
--kari
--ke
--ked
--ker
--kh
--kha
--ki
--kia
--kie
--kin
--kis
--kiya
--kke
--kla
--ko
--kolo
--kon
--kos
--kou
--koye
--kpa
--kpo
--kr
--kro
--ks
--ku
--kun
--kwah
--kwe
--kwu
--ky
--l
--la
--lade
--lagh
--lah
--laja
--lan
--land
--lar
--lation
--ld
--lde
--le
--lect
--led
--lee
--lekun
--lem
--ler
--les
--less
--let
--lets
--lewa
--ley
--lf
--lha
--li
--lia
--lic
--lifter
--lik
--lin
--line
--ling
--link
--lio
--lis
--list
--lity
--liya
--ll
--lla
--llah
--llahu
--lle
--lles
--lli
--llo
--lls
--lly
--lm
--lman
--lo
--logy
--loli
--lon
--loo
--lope
--lor
--lore
--lowo
--loye
--lr
--ls
--lt
--lu
--ly
--lyn
--lz
--m
--ma
--mah
--man
--mar
--mata
--mate
--math
--mba
--mbi
--mbo
--me
--med
--meh
--men
--ment
--ments
--mer
--mey
--mi
--mie
--min
--mma
--mmer
--mmu
--mo
--more
--morphic
--mp
--mpt
--ms
--mu
--my
--n
--na
--nah
--nal
--nam
--nan
--nas
--nay
--nberg
--nburg
--nca
--nce
--nch
--nci
--ncin
--ncy
--nd
--nda
--nder
--ndo
--ndou
--ne
--nel
--nell
--nem
--nent
--ner
--ners
--nes
--nese
--nesia
--ness
--net
--news
--ney
--ng
--nga
--ngo
--ngs
--nham
--ni
--nia
--nic
--nie
--nier
--nik
--nin
--nir
--nis
--nism
--nit
--niti
--nium
--niya
--nk
--nka
--nke
--nko
--nmu
--nn
--nna
--nne
--nnu
--nnun
--no
--now
--nro
--ns
--nsa
--nse
--nski
--nson
--nsu
--nt
--nta
--ntar
--nte
--nted
--nth
--nti
--ntly
--nto
--nton
--nts
--ntu
--nu
--nun
--nus
--ny
--nya
--nyi
--nza
--nze
--o
--oa
--oah
--oc
--oci
--ock
--ocytic
--od
--ody
--oe
--of
--off
--ofi
--ogical
--ogo
--ogu
--ogy
--oh
--oha
--oid
--oids
--ok
--oke
--ol
--ola
--oli
--olo
--ologic
--ological
--ology
--om
--oma
--ome
--omi
--omy
--on
--one
--ong
--ongo
--oni
--online
--ono
--ons
--oo
--ood
--oon
--op
--oq
--or
--ord
--ore
--ori
--orin
--orkor
--orn
--oro
--ors
--orth
--ory
--os
--ose
--oshi
--osi
--osis
--oslav
--oso
--ot
--ou
--oua
--oui
--ours
--ous
--out
--ov
--over
--ovo
--ow
--oy
--p
--pa
--pe
--ped
--pers
--pes
--ph
--phie
--phy
--pi
--pic
--piece
--pim
--play
--ply
--po
--polis
--pond
--port
--post
--pox
--pp
--pro
--ps
--pse
--psy
--pt
--ption
--ptive
--pu
--pur
--py
--q
--qa
--qi
--qs
--qu
--que
--r
--ra
--rad
--rah
--ram
--ran
--rar
--rat
--rce
--rch
--rd
--rdi
--re
--red
--ren
--rer
--res
--ret
--rets
--rf
--rfa
--rg
--rgy
--ri
--ria
--rian
--ric
--rid
--rie
--ries
--rin
--rio
--ris
--rix
--rk
--rkar
--rko
--rley
--rlin
--rm
--rma
--rman
--rn
--rne
--rno
--ro
--ron
--rori
--ros
--rou
--roup
--rov
--rra
--rran
--rre
--rri
--rry
--rs
--rsa
--rse
--rson
--rsu
--rt
--rta
--rti
--rton
--ru
--rul
--run
--rus
--rwa
--ry
--ryl
--s
--sa
--san
--sar
--sberg
--sburg
--sby
--sch
--sche
--sco
--se
--sed
--sem
--sen
--ses
--sey
--seye
--sh
--sha
--she
--shen
--shi
--shie
--ship
--shire
--sho
--si
--sia
--sian
--side
--sis
--sive
--sk
--ska
--ske
--sky
--slav
--sley
--sm
--sma
--sman
--so
--som
--son
--soye
--ss
--ssa
--ssan
--ssary
--sse
--sshe
--sshen
--ssi
--sson
--ssuka
--ssy
--st
--sta
--stan
--state
--ster
--sti
--stic
--sto
--ston
--stro
--sts
--su
--sus
--sville
--sy
--sz
--t
--ta
--taccen
--tad
--tal
--tam
--tan
--tar
--tarwa
--tas
--tattun
--tawa
--tch
--te
--tebrates
--ted
--tely
--ten
--ter
--ters
--tery
--tes
--tey
--th
--tha
--thal
--thi
--thy
--ti
--tic
--tics
--ties
--tifi
--tik
--time
--times
--tin
--ting
--tion
--tional
--tions
--tis
--tive
--tle
--tler
--tment
--to
--toci
--tock
--tology
--ton
--tone
--tor
--tors
--tou
--tov
--town
--toye
--tra
--tree
--tro
--tru
--truction
--try
--ts
--tsa
--tse
--tsi
--tt
--tta
--tte
--tti
--tto
--ttu
--ttun
--tu
--tul
--tum
--tus
--tuwa
--tv
--ty
--tz
--u
--ua
--uable
--ual
--ub
--ubba
--uc
--ud
--uda
--uddin
--udeen
--ue
--uel
--ues
--uf
--uh
--ui
--uit
--uk
--uka
--uke
--uki
--ul
--ula
--ular
--ule
--ullah
--um
--ume
--umes
--umi
--un
--una
--ung
--ungiyar
--ungiyoyin
--uo
--up
--upt
--ur
--ura
--ure
--ures
--urg
--urs
--uru
--ury
--us
--ut
--uta
--ute
--uted
--utes
--ution
--utu
--uwa
--ux
--uyi
--v
--va
--vac
--vas
--vation
--ve
--ves
--vey
--vez
--vi
--via
--vid
--view
--vik
--ville
--vir
--vity
--vn
--vo
--vsky
--vy
--w
--wa
--waa
--wal
--wan
--war
--wararrun
--wat
--way
--we
--web
--week
--well
--wen
--wi
--wich
--wick
--wiki
--witz
--wn
--wo
--woke
--wood
--world
--ws
--wu
--wumi
--wura
--wusi
--wy
--wyn
--x
--xa
--xi
--xin
--y
--ya
--yah
--yan
--yar
--ye
--yea
--yen
--yer
--yi
--yin
--yk
--yl
--ym
--yn
--yna
--ynx
--yo
--yon
--yoyi
--yr
--yra
--ys
--ysis
--yter
--yu
--yx
--yy
--yya
--yyar
--yye
--yyen
--yyu
--z
--za
--zar
--zation
--zawa
--ze
--zel
--zer
--zi
--zie
--zin
--zo
--zon
--zu
--zy
--zz
--zza
--zzy
--ƙa
--ƙar
--ƙe
--ƙi
--ƙo
--ɓa
--ɓe
--ɓi
--ɓo
--ɓɓe
--ɗa
--ɗan
--ɗe
--ɗi
--ɗin
--ς
--а
--ан
--го
--д
--е
--и
--ии
--ки
--о
--у
--ьм
--я
--і
--י
--ء
--ا
--اء
--ات
--ب
--ة
--ت
--ح
--د
--ر
--س
--ع
--ف
--ل
--م
--ن
--ه
--و
--ى
--ي
--ية
--يخ
--يل
