!
"
#
##0
##1
##10
##11
##12
##13
##14
##15
##16
##17
##18
##19
##2
##20
##21
##22
##23
##24
##25
##26
##27
##28
##29
##3
##30
##31
##32
##33
##34
##35
##36
##37
##38
##39
##4
##40
##41
##42
##43
##44
##45
##46
##47
##48
##49
##5
##50
##51
##52
##53
##54
##55
##56
##57
##58
##59
##6
##60
##61
##62
##63
##64
##65
##66
##67
##68
##69
##7
##70
##71
##72
##73
##74
##75
##76
##77
##78
##79
##8
##80
##81
##82
##83
##84
##85
##86
##87
##88
##89
##9
##90
##91
##92
##93
##94
##95
##96
##97
##98
##99
$
%
&
'
(
)
*
+
,
-
.
/
0
00
000
001
002
003
009
01
02
03
04
05
06
07
08
09
1
10
100
1000
10000
1001
1002
101
1011
1012
1016
1017
102
103
1032
104
105
1050
1054
106
1062
1066
107
1078
108
1080
1081
109
1093
1095
1098
1099
11
110
1100
111
112
113
1130
114
1140
1148
115
116
117
118
1180
1185
1187
1189
119
1191
1192
1194
1197
1198
1199
12
120
1200
1202
1203
1204
1205
1206
1208
121
1210
122
1220
1224
123
1233
1237
1238
124
1246
125
1250
1256
1259
126
1260
1261
1265
1266
1268
127
1270
1271
1272
1279
128
1282
1285
129
1294
1295
1296
13
130
1300
1301
1304
1305
131
1311
1315
1319
132
1323
133
1330
1333
1335
1336
1338
134
1346
135
1350
1353
136
1368
137
1370
1377
138
1380
1388
139
1392
14
140
1400
1402
1405
141
1415
142
1425
143
1431
144
1440
145
1450
1452
1453
146
1468
147
1470
1475
1476
1479
148
1480
1481
1483
1485
149
1490
1492
1493
1494
1495
1498
15
150
1500
1501
1503
1504
1506
1507
1509
151
1510
1511
1512
1513
1514
1515
1517
1519
152
1520
1521
1522
1523
1524
1525
1526
1527
153
1530
1531
1533
1534
1535
1536
1538
1539
154
1540
1542
1543
1544
1545
1546
1547
1548
155
1550
1551
1552
1553
1554
1555
1556
1557
1558
1559
156
1560
1561
1563
1564
1565
1568
1569
157
1570
1571
1572
1573
1574
1575
1576
1577
1578
1579
158
1580
1581
1582
1583
1584
1585
1586
1587
1588
1589
159
1590
1591
1592
1593
1594
1595
1596
1597
1598
1599
16
160
1600
1601
1602
1603
1604
1605
1606
1607
1608
1609
161
1610
1611
1612
1613
1614
1615
1616
1617
1618
1619
162
1620
1621
1622
1623
1624
1625
1626
1627
1628
1629
163
1630
1631
1632
1633
1634
1635
1636
1639
164
1640
1641
1642
1643
1644
1645
1646
1647
1648
165
1650
1651
1653
1654
1656
1658
1659
166
1660
1661
1662
1663
1665
1666
1667
1668
1669
167
1670
1671
1672
1675
1676
1678
1679
168
1680
1683
1684
1685
1686
1687
1688
1689
169
1690
1692
1693
1694
1697
1699
17
170
1700
1701
1702
1703
1704
1705
1707
1708
1709
171
1710
1712
1713
1714
1716
172
1720
1723
1724
1726
1727
1728
1729
173
1730
1731
1732
1733
1734
1735
1736
1737
1738
174
1740
1743
1744
1745
1746
1747
1748
1749
175
1750
1751
1752
1753
1754
1755
1756
1758
1759
176
1760
1761
1762
1763
1764
1765
1766
1767
1768
1769
177
1770
1771
1772
1773
1774
1775
1776
1777
1778
1779
178
1780
1781
1782
1783
1784
1785
1786
1787
1788
1789
179
1790
1791
1792
1793
1794
1795
1796
1797
1798
1799
18
180
1800
1801
1802
1803
1804
1805
1806
1807
1808
1809
181
1810
1811
1812
1813
1814
1815
1816
1817
1818
1819
182
1820
1821
1822
1823
1824
1825
1826
1827
1828
1829
183
1830
1831
1832
1833
1834
1835
1836
1837
1838
1839
184
1840
1841
1842
1843
1844
1845
1846
1847
1848
1849
185
1850
1851
1852
1853
1854
1855
1856
1857
1858
1859
186
1860
1861
1862
1863
1864
1865
1866
1867
1868
1869
187
1870
1871
1872
1873
1874
1875
1876
1877
1878
1879
188
1880
1881
1882
1883
1884
1885
1886
1887
1888
1889
189
1890
1891
1892
1893
1894
1895
1896
1897
1898
1899
19
190
1900
1901
1902
1903
1904
1905
1906
1907
1908
1909
191
1910
1911
1912
1913
1914
1915
1916
1917
1918
1919
192
1920
1921
1922
1923
1924
1925
1926
1927
1928
1929
193
1930
1931
1932
1933
1934
1935
1936
1937
1938
1939
194
1940
1941
1942
1943
1944
1945
1946
1947
1948
1949
195
1950
1951
1952
1953
1954
1955
1956
1957
1958
1959
196
1960
1961
1962
1963
1964
1965
1966
1967
1968
1969
197
1970
1971
1972
1973
1974
1975
1976
1977
1978
1979
198
1980
1981
1982
1983
1984
1985
1986
1987
1988
1989
199
1990
1991
1992
1993
1994
1995
1996
1997
1998
1999
2
20
200
2000
2001
2002
2003
2004
2005
2006
2007
2008
2009
201
2010
2011
2012
2013
2014
2015
2016
2017
2018
2019
202
2020
2021
2022
2023
2024
2025
2026
2028
203
204
205
206
207
208
209
21
210
2100
211
212
213
214
215
216
217
218
219
22
220
221
222
223
224
225
226
227
228
229
23
230
2307
231
232
233
234
235
236
237
238
239
24
240
241
242
243
244
245
246
247
248
249
25
250
2500
251
252
253
254
255
256
257
258
259
26
260
2600
261
262
263
264
265
266
267
268
269
27
270
271
272
273
274
275
276
277
278
279
28
280
281
282
283
284
285
286
287
288
289
29
290
2900
291
292
293
294
295
296
297
298
299
3
30
300
3000
301
302
303
304
305
306
307
308
309
31
310
311
312
313
314
315
316
317
318
319
32
320
321
322
323
324
325
326
327
328
329
33
330
331
332
333
334
335
336
337
338
339
34
340
341
342
343
344
345
346
347
348
349
35
350
351
352
353
354
355
356
357
358
359
36
360
361
362
363
364
365
366
367
368
369
37
370
371
372
373
374
375
376
377
378
379
38
380
381
382
383
384
385
386
387
388
389
39
390
391
392
393
394
395
396
397
398
399
4
40
400
4000
401
402
403
404
405
406
407
408
409
41
410
411
412
413
414
415
416
417
418
419
42
420
421
422
423
424
425
426
427
428
429
43
430
431
432
433
434
435
436
437
438
439
44
440
441
443
444
445
446
447
448
449
45
450
451
452
453
454
455
456
457
458
459
46
460
461
462
463
464
465
466
469
47
470
471
472
473
474
475
476
477
478
479
48
480
481
482
483
484
485
486
487
488
49
490
491
492
493
494
495
496
497
498
499
5
50
500
5000
501
502
503
504
505
506
507
508
509
51
510
511
512
513
514
515
516
517
518
519
52
520
521
522
523
524
525
526
527
528
529
53
530
531
533
534
535
536
537
538
539
54
540
541
542
543
544
545
546
547
549
55
550
551
552
553
554
555
556
557
558
559
56
560
561
562
563
564
565
566
567
568
569
57
570
571
572
573
575
576
578
58
580
581
582
583
585
586
587
588
589
59
590
592
593
594
595
596
597
598
6
60
600
6000
601
602
603
604
605
606
607
608
609
61
610
612
613
615
616
617
618
62
620
621
622
623
624
625
626
627
628
63
630
631
632
633
634
635
636
638
639
64
640
641
642
643
645
646
648
649
65
650
651
653
655
656
657
66
660
661
662
663
664
665
666
667
668
67
670
671
672
673
674
675
677
678
679
68
680
681
683
684
685
686
687
688
69
690
691
692
693
694
696
699
7
70
700
7000
701
702
703
705
707
708
709
71
710
711
714
715
716
717
718
72
720
721
722
724
725
727
729
73
730
731
732
735
736
737
738
739
74
740
741
742
744
745
747
748
75
750
751
752
753
754
755
756
757
76
760
761
765
767
768
77
770
774
775
776
777
78
780
781
782
784
785
786
787
79
790
792
793
794
8
80
800
8000
801
802
804
806
808
809
81
810
811
813
815
816
82
820
822
824
828
83
830
832
833
835
837
84
840
841
842
844
845
846
85
850
852
853
855
858
859
86
860
865
867
868
869
87
870
873
874
875
876
877
88
880
882
883
884
885
886
887
888
889
89
890
891
894
897
9
90
900
9000
901
903
904
905
906206
907
909
91
910
91055
911
912
914
915
917
918
919
92
920
921
922
923
925
927
93
930
936
937
94
940
941
947
949
95
950
954
955
957
96
960
962
963
964
965
966
968
969
97
970
971
9710800620
971910550
972
975
978
979
98
980
981
984
985
99
990
992
994
995
996
997
998
999
:
;
<
=
>
?
@
\
^
_
`
a
aa
aabot
aabuso
aabusong
aagaw
aakalang
aakit
aaklas
aakyat
aalaga
aalala
aalay
aalinlangan
aalipin
aalis
aalisin
aalok
aalsa
aalsang
aambag
aampon
aanak
aang
aangat
aangkat
aangkin
aangking
aangkop
aani
aapela
aapi
aaral
aaralan
aari
aaring
aarne
aaron
aartista
aasal
aasawa
aatas
aatubili
aaway
aawit
aayos
aayuno
ab
aba
ababa
abad
abadia
abaka
abakada
abala
abalang
abalos
abangan
abante
abate
abay
abaya
abaza
abba
abbas
abbasid
abbey
abbot
abby
abc
abd
abdel
abdul
abdullah
abe
abel
abelardo
abella
abellana
abenida
abenidang
aberahe
aberaheng
aberdeen
abi
abigail
abilidad
abiso
abkhaz
ablan
able
abnormal
abnormalidad
abo
abogado
abogadong
abogasya
abong
aboriginal
abot
about
above
abra
abraham
abram
abril
abriol
abroad
abruzzese
abruzzo
abs
abside
absolute
absolutong
abstract
abstraksiyon
abstrakto
abstraktong
abu
abucay
abuel
abueva
abugado
abugida
abuloy
abuse
abuso
abutin
abyasyon
ac
acade
academia
academic
academy
acapulco
acc
accademia
accent
accept
accepted
access
accessed
accident
according
account
accountancy
accounting
accounts
ace
aces
achievement
achilles
acid
acosta
acoustic
acquaviva
acquired
acquisition
acre
acres
acronym
across
act
acta
acting
action
active
activist
activities
activity
actor
actors
actress
acts
actual
actually
acun
acute
ad
ada
adam
adams
adan
adapa
adapsiyong
adaptasyon
adaptasyong
adaptation
adarna
adb
adbentista
adbiyento
adbokasiya
add
adda
added
addis
addison
addition
additional
address
adds
ade
adela
adelaide
adele
adenine
adha
adhikain
adi
adige
adisyon
adjacent
administrador
administrasyon
administrasyong
administratibo
administratibong
administration
administrative
administrator
admiral
admired
adobe
adolf
adolfo
adonis
adopted
adoptive
adore
adored
adrenal
adrian
adriana
adriano
adriatico
adult
adulto
adultong
adv
advance
advanced
advancement
advent
adventist
adventure
adventures
advertisement
advertising
adviser
advisory
advocate
adwana
adyghe
ae
aeneas
aeneis
aeo
aerial
aeronautics
aerosol
aerospace
aesop
aesthetic
aeta
af
afc
affair
affairs
affricate
afghan
afghanistan
afi
afp
afrancia
africa
african
africanus
afrika
afro
after
afternoon
ag
aga
agad
agahan
again
against
agama
agapito
agar
agaran
agarang
agassi
agata
agatha
agaton
agaw
agawin
age
aged
agencies
agency
agenda
agent
agents
ages
agham
agila
agimat
agios
aglipay
agn
agnes
agno
ago
agoncillo
agong
agos
agostino
agosto
agra
agrarian
agraryo
agreement
agresibo
agresibong
agresyon
agri
agricultural
agriculture
agrigento
agrikultura
agrikultural
agrippa
agrippina
agro
agta
agua
aguila
aguilar
aguilera
aguinaldo
aguirre
agusan
agustin
agustino
agusto
agwat
ah
ahab
ahas
ahaz
ahazias
ahedres
ahensiya
ahensiyang
ahensya
ahensyang
ahente
ahenteng
ahl
ahmad
ahmed
ahn
ahon
ahura
ai
aichi
aid
aida
aidan
aide
aids
aiesec
aiko
aim
aime
ain
aineias
ainu
air
airasia
airbus
aircraft
aired
aires
airline
airlines
airplay
airport
airtime
airways
ais
aise
aisha
aishwarya
aisne
aiza
aj
aja
ajax
ak
aka
akademi
akademiko
akademikong
akademiya
akademiyang
akademya
akademyang
akala
akan
akane
akari
akawnt
akawnting
akay
akb
akbar
akda
akdang
akemenida
akhenaten
aki
akihabara
akihito
akiko
akin
aking
akira
akit
akita
akitin
akkad
akkadian
akkadiano
aklan
aklat
aklatan
aklatang
akma
ako
akomodasyon
akong
aksesorya
aksidente
aksidenteng
aksis
aksiyon
aksiyong
akson
aksyon
aksyontv
aktibidad
aktibismo
aktibista
aktibistang
aktibo
aktibong
akto
aktong
aktor
aktres
aktress
aktuwal
aktwal
akusa
akusado
akusasyon
akwaryum
akwatika
akwedukto
akyat
al
ala
alaala
alaalang
alabama
alabang
alabok
aladdin
alaga
alagaan
alagad
alagang
alahas
alain
alajar
alak
alakdan
alala
alalahanin
alalay
alam
alaman
alamang
alamat
alamin
alaminos
alan
aland
alang
alarma
alas
alaska
alat
alay
alba
albanes
albanese
albania
albanian
albano
albany
albanya
albarn
albay
albert
alberta
alberto
albertville
albino
albrecht
albright
album
albums
albuquerque
alcala
alcantara
alcasid
alchemist
alcohol
alden
aldo
aldub
ale
alegasyon
alegre
alegria
alehandriya
alejandria
alejandrino
alejandro
alejo
aleksandr
aleman
alemang
alemania
alemanya
alemanyang
alena
aleppo
alerhiya
alert
alerto
alessandra
alessandria
alessandro
alex
alexa
alexander
alexandra
alexandre
alexandria
alexandrian
alexis
alfonso
alfred
alfredo
algae
algebra
algeria
algiers
algorithm
algoritmo
algoritmong
alhebra
alhebraiko
alhebraikong
alhebrang
ali
alias
alice
alicia
alien
alife
alighieri
aligin
align
alignbars
alikabok
alimango
alimasag
alin
aling
alingawngaw
alinlangan
alinman
alinmang
alinsunod
alintana
alipin
aliping
alis
alisan
alisin
alison
alitan
alitang
alituntunin
alituntuning
alive
aliw
aliwan
aliyev
alkalde
alkali
alkimika
alkimiko
alkimiya
alkohol
alkoholismo
all
alla
allah
allan
alle
allele
allen
alley
alliance
allied
allies
allison
allmusic
alma
almanac
almario
almendras
almirante
almoranas
almost
almusal
aloe
alois
alok
alon
alone
along
alongpunsiyon
alonso
alonzo
aloysius
alpabetiko
alpabeto
alpabetong
alperes
alpes
alpha
alphabet
alpine
alpombra
alps
already
alsa
also
alstonia
alt
alta
altamura
altapresyon
altar
alternatibo
alternatibong
alternative
although
altitud
alto
alu
aluminyo
alumni
alusyon
alvarado
alvarez
alveolar
alves
alvin
always
alyado
alyadong
alyansa
alyansang
alyas
alyssa
alzheimer
am
ama
amadeo
amado
amag
amain
amalfi
amalfitana
amalia
aman
amanda
amang
amangpintor
amante
amapola
amar
amaranthus
amarna
amasona
amateur
amaya
amazing
amazon
ambag
ambasador
ambassador
ambedkar
amber
ambeth
ambisyon
ambo
ambrogio
ambrose
ambrosio
ambush
ame
amelia
amen
amenhotep
america
american
americans
americas
amerika
amerikana
amerikanang
amerikang
amerikano
amerikanong
amfipoli
amherst
ami
amihan
amin
amina
aming
amino
amir
amis
amitabha
amnesia
amnesty
amniota
amo
amon
among
amor
amore
amorsolo
amos
amoy
ampatuan
ampezzo
amphibian
amphoe
ampibyan
ampibyano
ampon
ampunan
amsterdam
amt
amun
amur
amusement
amy
amygdala
an
ana
anagni
anagram
anak
anakan
anakin
anal
analisis
analitikal
analitiko
analitikong
analog
analogo
analogong
analohiya
analysis
anand
anantapur
ananus
anao
anarkismo
anarkista
anastasia
anastasio
anastasius
anatolia
anatomista
anatomiya
anatomiyang
anatomy
anay
anc
ancestry
anchor
ancient
ancona
and
anda
andal
andaman
andar
anders
andersen
anderson
andes
andhra
ando
andong
andorra
andrade
andre
andrea
andreas
andrei
andres
andrew
andrews
andria
android
andromeda
andy
anekdota
anemia
anemiang
anemometer
ang
angara
angat
angaw
angbiblia
ange
angel
angela
angeles
angeli
angelica
angelika
angelina
angelique
angelita
angelo
angels
angelus
anggulo
anggulong
anghang
anghel
anghelika
angiotensin
angkak
angkan
angkang
angkat
angkin
angking
angkinin
angkop
angkor
angle
anglican
anglikano
anglikanong
anglo
angola
angono
angry
anguilla
angular
anhui
ani
anibersaryo
anihilasyon
anim
anima
animadong
animal
animalia
animals
animasyon
animasyong
animated
animation
animator
animax
anime
animenewsnetwork
animismo
animnapu
animnapung
anino
aniplex
anita
anito
aniya
anjo
anjou
ankara
ann
anna
annales
annals
annan
anne
annette
annex
annibale
annie
anniversary
anno
announced
annual
annunziata
ano
anong
another
ans
anselmo
anson
answer
answers
ant
antagonist
antala
antananarivo
antarctic
antarctica
antartika
antas
ante
antena
anterior
antero
anthem
anthology
anthony
anthrax
anthropology
anti
antibiotiko
antibiyotiko
antibody
antibyotiko
antidepressant
antigens
antigong
antigua
antilegomena
anting
antioch
antiochus
antioquia
antipapa
antipas
antipolo
antique
antiquities
antiquity
antiretroviral
antisemitismo
anto
antoine
antoinette
antolohiya
antolohiyang
anton
antoni
antonia
antonino
antonio
antony
antropologo
antropolohiya
antropolohiyang
antwerp
anu
anuman
anumang
anunsiyo
anunsyo
anupat
anus
anvil
anwar
anxiety
any
anya
anyaya
anyo
anyong
anyos
anything
ao
aoi
aoki
aomori
aosta
aoste
aoyama
ap
apa
apache
apalit
aparato
aparatong
aparisyon
aparri
apartment
apat
apatan
apatang
apatnapu
apatnapung
apaw
apayao
apdo
ape
apec
apektado
apektadong
apela
apelyido
apelyidong
apenino
apes
apg
apganistan
aphrodite
api
aplikante
aplikasyon
aplikasyong
apo
apocalipsis
apocalypse
apocalyptic
apog
apokripa
apolinario
apollo
apollodorus
apollonius
apong
apostle
apostles
apostol
apostolic
apostoliko
apostolikong
apostolo
apoy
app
appeal
appeals
appearance
appearances
appeared
appears
appendix
apple
appleton
application
applications
applied
apply
appointed
appointment
approach
approaches
approx
approximant
apps
apr
aprika
aprikano
aprikanong
april
apro
aproksimasyon
apruba
apt
apuhan
apulia
aqua
aquaman
aquarius
aquatic
aquatics
aque
aquila
aquilino
aquinas
aquino
aquitania
ar
ara
arab
arabe
arabeng
arabia
arabian
arabic
arabiko
arabo
arabong
arabya
arabyang
arafat
arago
aragon
arahant
arai
arakan
aral
aralan
aralin
araling
aram
aramaiko
aramaikong
arameo
aranda
araneta
arang
araro
arashi
araw
arayat
arbe
arbitraryong
arbor
arc
arca
arcade
arcadia
arcangelo
arch
archaea
archaeological
archaeology
archbishop
archdiocese
archer
archery
archi
archie
archimedes
archipelago
architect
architects
architectural
architecture
architettura
archive
archived
archives
arcilla
arco
arctic
arda
are
area
areang
areas
areglo
arellano
arena
arenas
arend
ares
aresto
arestuhin
arevalo
arezzo
argentina
argon
argos
argument
argumento
argumentong
arguments
arhentina
arhentino
ari
aria
arian
ariana
ariang
arianismo
ariano
arias
ariel
aries
aring
aringay
aristokrasya
aristokrata
aristoteles
aristotle
aritmetika
arius
arizona
arjun
arjuna
ark
arka
arkanghel
arkansas
arkeologo
arkeologong
arkeolohikal
arkeolohiko
arkeolohikong
arkeolohiya
arkeolohiyang
arkibo
arkidiyosesis
arkipelago
arkitekto
arkitektong
arkitektura
arkitektural
arkitekturang
arko
arkong
arlene
arles
arlington
arm
armada
armadang
armado
armadong
armageddon
armando
armas
armed
armellini
armenia
armenian
armenya
armenyo
armes
armm
armor
arms
armstrong
army
arnaiz
arnaldo
arnibal
arnis
arno
arnold
arora
around
arranger
array
arrest
arrested
arrival
arrow
arroyo
ars
arsenal
arsenio
arsobispo
art
artaxerxes
arte
artemio
artemis
artemisia
artepakto
arterya
arteryal
artes
arthropod
arthropoda
arthur
article
articles
artificial
artiko
artikulasyon
artikulo
artikulong
artilerya
artipakto
artipisyal
artist
artista
artistang
artistic
artistikong
artists
artritis
arts
arturo
aru
aruba
arunachal
aryan
as
asa
asahi
asal
asam
asamblea
asambleya
asami
asang
asap
asasinasyon
asawa
asawang
asbjørnsen
ascii
ascoli
asean
aseksuwal
asemblea
asembleya
asembleyang
aserbayan
asero
asetiko
asf
ash
asher
asherah
ashikaga
ashita
ashley
ashliman
ashoka
ashur
ashurbanipal
asi
asia
asian
asiatic
asido
asidong
asignatura
asim
asin
asiong
asiria
asirya
asiryo
asiryong
asis
ask
asno
aso
asong
asosasyon
asosasyong
asp
aspalto
aspects
aspekto
aspektong
aspeto
aspetong
aspiras
aspx
assam
assault
assembly
assemblyman
assemblymen
assessment
asset
assets
assisi
assistance
assistant
assists
associate
associated
associates
association
assumption
assunta
assyria
assyrian
ast
aste
asteraceae
asterix
asteroid
asteroyd
asti
astro
astrologo
astrology
astrolohiya
astronaut
astronomical
astronomikal
astronomiko
astronomiya
astronomo
astronomong
astronomy
astropisika
asturias
asuka
asukal
asul
asumpsiyon
asuncio
asuncion
asupre
aswang
asya
asyano
asyanong
asyenda
asylum
at
ata
atake
atakeng
atakihin
atami
atanasio
atari
atas
atau
atay
atbp
ate
ateismo
ateista
aten
atenas
ateneo
atensiyon
atensyon
athanasius
athena
athens
athina
athlete
athletes
athletic
athletics
ati
atienza
atin
ating
atkins
atkinson
atlanta
atlantic
atlantiko
atlantis
atlas
atleta
atletang
atletika
atmospera
atmosperiko
atmospero
atmospheric
atoll
atom
atomic
atomika
atomiko
atomikong
atomo
atomong
atoms
atp
atraksiyon
atraksiyong
atraksyon
atsushi
attack
attacks
attic
attorney
atty
atu
au
auburn
auckland
auction
audience
audio
audiobook
audit
audition
auditorium
audrey
auerbach
auf
aug
august
augusta
auguste
augustin
augustine
augustino
augusto
augustus
aulnoy
aung
aunor
aura
aurea
aurelio
aurelius
aureus
auring
aurora
aus
austin
australia
australian
australopithecus
australya
australyano
australyanong
austria
austrian
austriya
austro
austronesian
austronesyo
austrya
authentic
author
authorities
authority
authors
auto
autobiography
automata
automatic
automatikong
autonomiya
autonomous
autonomy
autoridad
autosomal
autumn
aux
auxiliary
av
available
avant
avatar
ave
avec
avelino
avellana
avellino
avengers
avenida
aventino
avenue
average
aversa
avery
avestan
avex
avian
aviation
avicenna
avignon
avila
aviv
avon
aw
awa
awakening
awang
award
awarded
awardee
awards
awareness
away
awayan
awdisyon
awit
awitin
awiting
awksilyar
awstralya
awstronesyo
awtomatikong
awtonomiya
awtonomo
awtonomong
awtor
awtoridad
ax
axial
axis
ay
aya
ayaka
ayala
ayam
ayame
ayan
ayang
ayano
ayase
ayat
ayaw
ayer
ayon
ayos
ayta
ayumi
ayunan
ayusin
ayutthaya
az
azarias
azerbaijan
azerbaijani
aziz
aztec
azul
azuma
azumanga
azumi
azusa
b
ba
baal
baao
baba
bababa
babae
babaeng
babagsak
babagtasin
babaing
babala
babalik
babang
babangon
babasahin
babasahing
babayaran
babaylan
babe
babel
babes
babilonia
babilonya
babilonyano
babilonyo
baboy
babu
babuyan
baby
babylon
babylonia
babylonian
bac
baccala
bacchae
bach
bachchan
bachelor
bacillus
back
background
backgroundcolors
backing
backstreet
backup
baclaran
bacnotan
bacolod
bacolor
bacon
bacoor
bacteria
bacterium
bad
baden
badge
badjao
badminton
badyet
bae
bafta
bag
baga
bagacay
bagahe
bagama
bagaman
bagamat
bagang
baganga
bagatsing
bagay
baghdad
baging
bagkus
bagni
bago
bagobo
bagon
bagong
bagoong
bagsak
bagting
baguhan
baguhang
baguhin
baguinda
baguio
bagumbayan
bagwis
bagyo
bagyong
baha
bahagdan
bahaghari
bahagi
bahagiang
bahaging
bahagya
bahagyang
bahala
bahamas
bahang
bahasa
bahay
bahayan
bahia
bahid
bahista
bahn
baho
bahrain
baht
bahura
bai
bailey
bait
baitang
baja
bajo
bak
baka
bakal
bakalaw
bakang
bakante
bakanteng
bakas
bakasyon
bakasyunan
bakbakan
baker
baki
baking
bakit
bakla
baklang
bakod
bakr
bakterya
bakteryang
baku
bakufu
bakulaw
bakuna
bakunang
bakuran
bakwit
bakyum
bal
bala
balabal
balagtas
balagtasan
balahibo
balahibong
balak
balakang
balakid
balamban
balance
balang
balanga
balangacathedraljf
balangay
balangiga
balangkas
balanse
balarila
balarilang
balat
balatong
balayan
balbal
balbas
baldwin
bale
baler
balete
bali
balibol
balidad
balido
baligtad
balik
balikat
baliktad
balingkinitan
balintawak
balita
balitaan
balitang
balite
baliuag
baliw
baliwag
balkan
balkonahe
ball
ballad
ballads
ballerina
ballesteros
ballet
ballroom
balls
balo
balon
balong
balot
balota
baltazar
baltic
baltiko
baltimore
balud
baluktot
balumbon
balut
baluti
balwarte
balyena
balyenang
bam
bamban
bambang
bamboo
bampira
ban
bana
banahaw
banal
banalang
banana
banate
banayad
banca
banco
band
banda
bandai
bandang
bandar
bandcamp
bandera
bandido
bandila
bandilang
bands
bandung
bandz
bang
banga
bangalter
banggaan
banggit
banggitin
banghay
bangin
bangka
bangkang
bangkay
bangkero
bangketa
bangko
bangkok
bangkong
bangladesh
bangs
bangsamoro
bangui
bangungot
bangus
bani
banig
bank
banking
banks
banner
bansa
bansag
bansang
banta
bantam
bantas
bantay
bantayan
bantayog
bantog
banton
bantu
banu
banyaga
banyagang
banyo
bao
baog
bapor
baptist
baptiste
bar
bara
barack
baraha
barako
barang
barangay
barangays
baranggay
baras
barat
barbados
barbara
barbaro
barbarossa
barbell
barber
barbie
barbour
barbra
barbuda
barcelona
bardata
bardot
bari
bariabulo
bariabulong
bariasyon
baril
barilan
bariles
barilin
bariyable
barkada
barker
barko
barkong
barletta
barmm
barnabas
barnes
barnett
barngarla
barok
baroko
barokong
baron
barong
baroque
barr
barra
barre
barrel
barrett
barretto
barrier
barrio
barrios
barry
barrymore
bars
barset
bart
barter
bartholomew
bartolome
bartolomeo
barton
baruch
barya
baryabol
baryang
baryant
baryante
baryasyon
baryo
baryon
bas
basa
basag
basahan
basahin
basak
basal
basalyo
basang
basbas
basco
base
baseball
based
basehan
basehang
basel
basement
baseng
basi
basic
basikong
basil
basilan
basile
basilica
basilicata
basilika
basilio
basin
basis
baskagan
baskagang
basket
basketball
basketbol
basketbolista
basketbolistang
basko
baskular
baso
basong
basque
bass
bassano
bassist
basta
bastille
bastos
basura
basurang
basyang
bat
bata
bataan
batac
batad
batalyon
batan
batanes
batang
batangas
batas
batasan
batasang
batay
batayan
batayang
batch
baterya
bates
bath
bathala
batid
batiin
batik
batikang
batikano
batikos
batis
batista
batman
bato
batok
batong
batsilyer
battalion
batter
battista
battle
battles
battleship
batuan
batubalani
bauan
bauang
bauer
bautismo
bautista
bavaria
baviera
bawa
bawal
bawang
bawas
bawasan
bawat
bawiin
bay
bayabas
bayad
bayag
bayambang
bayan
bayang
bayani
bayanihan
bayaning
bayaran
bayarin
bayaw
baybay
baybayin
baybaying
bayesian
baylon
baylor
bayramov
bayrus
baytang
baywang
bazaar
bazhov
bb
bbc
bc
bce
bd
be
bea
beach
beagle
beaked
beam
bean
beans
bear
bears
beast
beat
beata
beatipikasyon
beatles
beatrice
beatriz
beats
beautiful
beauty
beauvoir
bebe
bec
became
because
beck
becky
become
becomes
becoming
bed
beda
beddomeia
bee
beef
been
beer
beethoven
beetle
beeton
before
began
begin
beginning
begins
behavior
behavioral
behind
beijing
being
beirut
beis
bej
beke
bektor
bel
bela
belami
belarus
belarusian
bele
belen
belfast
belgian
belgium
belgrade
belhika
belhikang
belhikano
belhikanong
belief
beliefs
believe
belize
bell
bella
belle
belli
bello
bells
belly
belmonte
belo
belong
belonio
belosidad
beloved
below
belt
beltran
belvedere
belyavskyj
ben
bench
bendita
benedetto
benedict
benedictino
benedicto
benepisyo
benepisyong
beneswela
benevento
bengal
bengali
benguela
benguet
beni
benigno
benin
benitez
benito
benjamin
benjie
bennett
benny
benson
benta
bentilador
bentilasyon
bento
benton
benus
benz
beowulf
ber
berber
berde
berdeng
berdugo
berg
bergamasco
bergamasque
bergamo
bergedorf
bergen
bergisch
bergman
bergoglio
bering
berkeley
berlin
berliner
bermudez
bernabe
bernadette
bernakular
bernal
bernard
bernardino
bernardo
bernhard
bernie
bernini
berry
bersikulo
bersiyon
bersiyong
berso
bersyon
bersyong
bert
bertebrado
bertebrata
berteks
bertha
bertikal
bertrand
beses
best
bestihiyal
bet
beta
beterano
beteranong
beterinaryo
beth
bethel
bethlehem
beto
better
betty
between
beverly
beyonce
beyond
beysbol
bf
bg
bgy
bh
bhutan
bi
bia
biagio
biak
bianca
bianchi
bianco
bias
biasanya
bibi
bibig
bibigyan
bibigyang
bibingka
bibit
bible
biblegateway
biblia
biblical
biblikal
bibliography
bibliograpiya
biblioteca
bibliotheca
bibliya
bibliyang
bibliyograpiya
bickel
bicol
bicolano
bicutan
bid
bida
bidang
biden
bidyo
bidyong
bieber
bien
bienvenido
big
biga
bigas
bigat
bigay
biggest
bigkas
bigkasin
bigkis
bigla
biglaan
biglaang
biglang
bigo
bigong
bigote
bigyan
bigyang
bihag
bihar
bihasa
bihasang
bihira
bihirang
bihon
bikameral
bikini
bikol
bikolano
biktima
bilang
bilanggo
bilanggong
bilangguan
bilangin
bilateral
bilhin
bilibid
bilig
bilihin
bilingual
biliran
bilis
bill
billboard
billie
billion
billy
bilog
bilugan
bilugang
bilyon
bilyong
bimbo
bin
binaba
binabago
binabagtas
binabalak
binabanggit
binabantayan
binabasa
binabawasan
binabayaran
binabaybay
binago
binagong
binaha
binalaan
binalak
binalangkas
binaligtad
binalik
binalonan
binalot
binanggit
binangonan
binansagan
binansagang
binaril
binary
binaryong
binasa
binasbasan
binase
binata
binatang
binatay
binatbat
binati
binatikos
binatilyo
binautismuhan
binawasan
binawi
binawian
binay
binayaran
binaybay
binding
binebenta
bing
bingen
bingi
bingit
bingo
binh
binhi
binibigay
binibigkas
binibigyan
binibigyang
binibilang
binibili
binibini
binibining
binibisita
binigay
binigkas
binigyan
binigyang
binihag
binili
bininyagan
binisita
binitay
bino
binomba
binomial
binondo
binoto
bintana
bintanang
binti
binuangan
binubuksan
binubuo
binugbog
binuhay
binuksan
binuo
binuong
binuwag
binyag
binyagan
bio
biodiversity
biographical
biography
biograpiya
biological
biology
biolohikal
biolohiya
biolohiyang
biotechnology
bipedal
bipolar
bir
bird
birdhouse
birds
birhen
birheng
birmingham
biro
birth
birthday
birtud
birus
bis
bisa
bisantino
bisantinong
bisaya
bisayas
bisdak
bise
biseksuwal
bisexual
bishop
bishops
bisig
bisikleta
bising
bisiro
bisita
bisitahin
bisitang
biskwit
bismarck
bison
bisperas
bissau
bisset
biswal
bisyesto
bisyo
bit
bitag
bitak
bitamina
bitbit
bitcoin
bitcoins
bitter
bituin
bituing
bituka
biyadukto
biyahe
biyaheng
biyak
biyas
biyaya
biyenan
biyenang
biyernes
biyetnam
biyetnames
biyograpiya
biyokimika
biyolin
biyologo
biyolohikal
biyolohiya
biyolohiyang
biyuda
biz
bizantino
bj
bjo
bk
bl
black
blacklist
blackwell
blade
blair
blake
blanca
blanchard
blanco
blank
blas
blast
bleach
bleaching
blessed
blg
blica
blind
blitz
bloc
bloch
block
blockade
blockbuster
blockbusters
blockchain
blockers
blocks
blocktime
blog
blogger
blogspot
bloke
blokeng
blonde
blondie
blood
bloody
bloom
bloomberg
bloomington
blossom
blow
blu
blue
blues
blumentritt
blunt
blur
bmatrix
bmg
bmi
bmx
bn
bnk
bo
boa
boac
board
boat
bob
bobbio
bobby
bobo
bocaue
bode
bodega
bodhi
bodhisattva
bodies
body
boeing
bogota
bohemia
bohemian
bohemya
bohol
bohr
bokabularyo
bokal
bokalista
bokan
bokasyonal
bokenkotter
boksing
boksingero
boksingerong
boku
bokura
bol
bola
bolang
bolante
bold
boldsymbol
boli
bolinao
bolivia
bollywood
bolo
bologna
bolon
bolonia
bolshevik
bolt
boltahe
bolton
boluntaryo
boluntaryong
bolyum
bom
bomb
bomba
bombang
bombay
bomber
bombero
bombing
bombings
bombo
bon
bonaparte
bond
bondoc
bone
bones
bong
bongbong
boni
bonifacio
bonn
bonnevie
bonnie
bonny
bono
bonobo
bontoc
bonus
boo
boogie
book
books
booksources
bookstore
boolean
boom
boot
booth
boots
booty
bora
boracay
borbon
bordeaux
border
borders
borghese
borghi
borgia
borgo
boris
born
borneo
boro
borongan
borough
borromeo
borromini
bosco
bose
boses
bosnia
boson
boss
boston
bosyo
bot
bota
botanical
botanika
botaniko
botante
bote
boteng
both
boto
botohan
botolan
botong
botswana
bottom
boulevard
bound
boundary
bourbon
bovidae
bow
bowell
bowers
bowie
bowl
bowling
bowser
box
boxer
boxing
boy
boyband
boycott
boyd
boyer
boyfriend
boykot
boyle
boys
boyz
boyzone
boz
bp
bpg
bpi
br
bra
brachiopod
bracken
brad
bradford
bradley
braga
brahma
brahmi
brahmin
braille
brain
branch
brand
brandeburgo
brandenburg
brandon
brangsong
bras
brasil
braso
brassica
bratislava
braun
brave
braves
bravo
brazil
brazilian
bread
break
breakdown
breakfast
breaking
breakthrough
breast
breath
breed
brembana
brembo
bremen
brenda
brennan
brent
brescia
bresciano
bretanya
breton
brett
brgy
brian
brick
bride
bridge
bridget
brief
brien
brigada
brigade
brigadier
bright
brigitte
brill
brillantes
brilliant
brilyante
brindisi
bring
brisbane
bristol
brit
britain
britaniko
britanikong
britannica
britanya
british
britney
briton
britong
britpop
brittany
bro
broadband
broadcast
broadcaster
broadcasting
broadway
brock
brocka
brodkast
brodkaster
broken
bromiley
bronchi
bronse
bronx
bronze
brook
brooke
brooklyn
brooks
brorfelde
bros
brother
brotherhood
brothers
brought
broughton
brown
browning
browser
broz
bru
bruce
bruha
brunei
brunner
bruno
brunswick
bruselas
brush
brussels
brutal
bryan
bryant
bs
bsp
bts
bu
bua
buayan
bubalus
bubble
bubbles
bubog
bubong
buboy
bubuksan
bubuo
bubuyog
buchanan
buck
buckingham
bud
budapest
buddha
buddhism
buddhist
buddy
budget
budhi
budhismo
budismo
budismong
budista
budistang
buena
buenaventura
buenavista
buencamino
buendia
bueno
buenos
buffalo
buffer
bug
bugallon
bughaw
bugso
bugtong
buha
buhakag
buhangin
buhat
buhawi
buhay
buhayin
buhi
buhok
buhol
buhos
buie
build
builder
building
buildings
built
bukal
bukana
bukang
bukas
bukavu
bukid
bukidnon
bukirin
buklod
buko
bukod
bukol
bukong
buksan
bukung
bula
bulacan
bulag
bulaga
bulak
bulakan
bulaklak
bulalakaw
bulan
bulang
bulate
bulati
bulating
bulebar
bulgar
bulgaria
bulgarian
bulgaro
bulgarya
bulgogi
bulkan
bulkang
bulkanikong
bull
bullet
bulletin
bullock
bully
bullying
bulo
bulok
bulsa
bulubundukin
bulubunduking
bulusan
bulutong
bulwagan
bulwagang
bum
bumaba
bumababa
bumabagsak
bumabagtas
bumabalik
bumagal
bumagsak
bumalik
bumaling
bumangga
bumangon
bumasa
bumbero
bumbong
bumbu
bumenta
bumibili
bumibisita
bumida
bumili
bumisita
bumoto
bumubuo
bumuhay
bumuo
bumuti
bun
bundle
bundok
bunga
bungad
bungang
bunganga
bungkos
bungo
bunin
bunko
bunny
bunnymen
bunso
bunsod
bunsong
buntabay
buntala
buntalang
buntis
bunton
buntot
buo
buod
buong
burador
bureau
burger
burgos
buri
burias
burke
burkina
burma
burmes
burmese
burn
burnham
burning
burns
burol
burton
burundi
bus
busan
busch
bush
business
businessman
busog
bust
busuanga
but
butas
butch
buti
butiki
butiking
butil
butler
buto
butong
butter
butterfly
butuan
buuin
buumbilang
buwagin
buwan
buwanang
buwang
buwaya
buwis
buy
buzz
bw
bx
by
bye
bypass
byrne
byron
byung
byzantine
byzantium
c
ca
cab
caballero
cabanatuan
cabatuan
cabello
cabeza
cabiao
cabin
cabinda
cabinet
cable
cabo
cabral
cabrera
cabrini
cabugao
cabuyao
caceres
cadiz
cady
caesar
caesarea
caesars
cafe
caffe
cagayan
cage
cagliari
cai
cain
cainta
cairo
cake
calabanga
calabarzon
calabres
calabria
calabro
calamba
calamity
calapan
calatagan
calauan
calbayog
calcio
calcium
calculus
calcutta
calderon
cale
caledonia
calendar
calgary
cali
california
caligula
call
callao
calle
called
calling
calls
calo
caloocan
caloy
caltanissetta
calumpang
calumpit
calungsod
calvi
calvin
calzado
cam
camarines
cambodia
cambrian
cambridge
came
cameo
camera
camerino
cameron
cameroon
camiguin
camila
camiling
camille
camilo
camino
camp
campagna
campaign
campania
campanile
campano
campbell
campi
campidano
campo
campobasso
campos
campus
camus
can
cana
canaan
canada
canadian
canadiense
canal
cananeo
canarias
canary
canberra
cancer
candaba
candelaria
candice
candida
candidate
candidates
candle
candon
candy
canis
canlas
canlubang
cannabis
cannes
cannon
cannot
canon
canonical
canseco
canteen
canterbury
canto
canton
cantor
canvas
canyon
cao
cap
capacity
capadocio
capas
capcom
cape
capistrano
capita
capital
capitan
capitol
capitolino
capiz
capo
cappella
capri
capricorn
capsicum
capsule
capt
captain
captured
capua
capuchino
car
cara
caracas
caracciolo
caraga
caravaggio
caravan
carbon
carboniferous
carcar
carcinoma
card
cardiac
cardinal
cardiopulmonary
cardona
cards
care
career
carey
cargo
caribbean
caridad
carin
carina
carl
carla
carles
carlo
carlomagno
carlos
carlota
carly
carmel
carmela
carmelita
carmelo
carmelray
carmen
carmina
carmine
carmona
carnegie
carney
carnival
carnivora
carol
carolina
caroline
carpenter
carpet
carpi
carpio
carr
carracci
carrara
carreras
carrie
carriedo
carrier
carries
carroll
carry
cars
carson
carta
cartel
carter
carthage
cartoon
cary
cas
casa
casablancas
casal
casale
casas
case
caserta
cases
casey
cash
casiguran
casimiro
casino
caspian
cassandra
cassell
cassette
cassino
cassius
cast
castan
caste
castel
castellana
castelli
castello
castelnuovo
castiglione
castilla
castillo
casting
castle
castor
castro
castrum
cat
catacumba
cataingan
catalan
catalina
catalog
catalogue
catalonia
catalunya
catanduanes
catania
catanzaro
catarman
catbalogan
catch
catechism
catedral
category
caterina
cathar
cathedral
catherine
catholic
catholicism
cathy
catmon
cato
catrobat
cats
cattedrale
cauayan
caucasian
caucasus
cause
causes
caussols
cava
cave
cavendish
cavestany
cavinti
cavite
cavitex
cavity
cawayan
cayabyab
cayetano
cayman
cb
cbc
cbcp
cbn
cbnnews
cbs
cc
ccp
ccr
cctv
cd
cdc
cdot
cdots
ce
ceaus
cebu
cebuano
cecil
cecilia
cecilio
cecille
cedar
celebes
celebrate
celebration
celebrities
celebrity
celeste
celestial
celestino
celia
celine
cell
cello
cellphone
cells
cellular
celsius
celso
celtic
cemetery
cenon
censo
censor
census
cent
centennial
center
centers
centrair
central
centre
centro
centuries
century
ceo
cera
cerden
cereal
cerebral
ceremonies
ceremony
ceres
cerreto
cerro
certain
certificate
certified
cervantes
ces
cesar
cesare
cesena
cetacea
cetacean
ceti
ceylon
cf
cfc
cfr
cg
cgi
ch
cha
chacha
chad
chadwick
chae
chai
chain
chair
chairman
chakra
chalcedon
chalcedoniano
challenge
challenger
cham
chamber
chamberlain
chambers
chamorro
champ
champa
champion
champions
championship
championships
chan
chance
chancellor
chandelier
chandigarh
chandler
chandra
chanel
chang
change
changed
changes
changing
changsha
changwat
channel
channels
chante
chao
chaos
chapel
chapman
chapter
chapters
character
characters
charge
charged
chargers
charito
charity
charles
charleston
charlie
charlois
charlotte
charlottenburg
charm
charming
charrie
chart
charter
charts
chase
chat
chau
chaucer
chavacano
chavez
che
check
checkpoint
ched
chedi
cheese
chef
chelsea
chemical
chemistry
chemokine
chen
cheney
cheng
chennai
cheonan
cher
cherie
chernykh
cherokee
cherry
cheryl
cheska
chess
chest
chester
cheung
chevrolet
chhattisgarh
chi
chiaki
chiang
chianti
chiara
chiba
chicago
chicken
chico
chief
chiefs
chiesa
chiese
chieti
chigi
chihuahua
chika
child
childhood
children
childress
chile
chilean
chili
chimpanzee
chin
china
chinatown
chinchilla
chinese
ching
chino
chip
chisholm
chito
chittoor
chiu
chiyoda
chizuru
chloe
chloride
cho
choco
chocolate
choe
choi
choice
choir
chol
chonburi
chong
chongqing
chopin
chopra
choreographer
chorus
chou
chow
chris
christ
christi
christian
christiana
christianity
christians
christie
christina
christine
christmas
christoph
christopher
chromosome
chronic
chronicle
chronicles
chronology
chu
chua
chuck
chul
chulalongkorn
chun
chung
church
churches
churchill
ci
cia
cicero
cicierega
cid
cie
cielo
cignal
cilentano
cilento
cima
cimatu
cincinnati
cinco
cinderella
cindy
cine
cinema
cinemalaya
cinematic
cineos
cinta
cio
cipriano
circa
circle
circuit
circuits
circulation
circumstances
circus
cirilo
ciro
cit
citation
cite
cited
cities
citing
citizen
citizens
citoyens
citra
citrus
citta
city
ciudad
civic
civil
civilization
civita
civitavecchia
civitella
cj
ck
cl
cla
cladding
clade
claim
claims
clair
claire
clan
clara
clare
clarence
clarendon
clarin
clarissa
clark
clarke
clarkson
claro
clase
clash
class
classic
classical
classics
classification
claude
claudia
claudine
claudio
claudius
claus
claveria
clay
clayton
cle
clean
clear
clement
clemente
cleopatra
clerk
cleveland
click
client
cliff
clifford
climate
clinic
clinical
clint
clinton
clio
clip
clippers
clo
clock
clone
close
closed
closer
closure
clothing
cloud
clover
clown
clsu
club
cluster
clyde
cm
cmd
cms
cn
cnn
cnnphilippines
co
coa
coach
coaches
coal
coalition
coast
coastal
coat
cobra
coca
cocaine
cochin
cockatoo
coco
coconut
cocos
code
codes
codex
cody
coe
coelom
coffea
coffee
cognitive
cogon
cohen
coin
cojuangco
col
cola
cold
coldplay
cole
colegio
colgate
coli
colin
coliseum
collaboration
collage
colle
collected
collection
collections
collective
college
colleges
collegiate
collegio
colli
collingwood
collins
colmenares
colo
cologne
colombia
colombian
colombo
colon
colonel
colonia
colonial
colonna
colony
color
colorado
colored
colors
colosas
colour
columba
columbia
columbus
column
com
coma
comacchio
comaneci
comba
combat
combined
combo
comcast
come
comeback
comedian
comedy
comelec
comes
comfort
comic
comics
comiket
coming
comite
comm
command
commander
commentary
commerce
commercial
commission
commissioner
committee
commodore
common
commons
commonwealth
commune
communes
communi
communication
communications
communist
communities
community
commuter
como
comoros
comp
compact
companies
companion
company
comparative
comparison
competition
competitive
compilation
compilations
complete
completely
complex
component
composer
composite
composition
compostela
compound
compounds
comprehensive
compton
computational
computer
computing
comunale
comune
comuni
con
conan
conca
concentration
concepcio
concepcion
concept
conception
concepts
concern
concert
concerto
concerts
conchita
concise
concordance
concordia
conde
conditioning
conditions
condom
coney
conference
configuration
confirmed
confirms
conflict
confucianismo
confucius
confused
cong
congo
congregation
congress
congressional
congressman
connect
connecticut
connection
connector
conner
connie
connor
conquest
conrad
conrado
consensus
conservation
considered
consolacion
console
consonant
consonants
consortium
conspiracy
constabulary
constance
constancia
constans
constant
constantine
constantino
constantinopla
constantinople
constantius
constitution
constitutional
construction
consuelo
consul
consultant
consultato
consumer
consumption
contact
containing
contains
contemporary
content
contents
contes
contest
context
conti
continental
continue
continues
continuing
continuum
contra
contract
contribution
contributions
control
controlled
controversy
convection
convenience
convention
converse
conversion
convert
cook
cookie
cooking
cool
cooper
cooperation
cooperative
coordinates
coordinating
coordination
coordinator
cop
copd
cope
copenhagen
copernicus
copper
cops
coptic
copy
copyright
cor
coral
corazo
corazon
corbin
cordero
cordillera
cordova
core
corey
corinth
corinto
cork
cornelius
cornell
corner
cornwall
coron
corona
coronabirus
coronavirus
corp
corporate
corporation
corps
corpse
corpus
corpuz
corrado
corrales
corregidor
corruption
corsica
corso
corte
cortes
cortesi
cortex
cortez
corticosteroid
cortina
cortona
cory
cos
cosenza
cosine
cosme
cosmetics
cosmic
cosmopolitan
cosmos
cosplay
cost
costa
costello
costume
cotabato
cottage
cotton
coubertin
could
coulomb
council
councils
count
countdown
counter
counterpart
countries
country
countryside
county
coup
couple
courage
courier
course
courses
court
courtney
courts
cousteau
cov
cover
coverage
covid
cow
cowboy
cowboys
cowell
cox
coxon
cp
cpc
cpu
cr
crab
craft
craftsman
craig
crame
crane
crash
crassus
crater
crawford
crazy
cream
create
created
creating
creation
creative
credit
credits
creed
creek
crema
cremona
creole
creta
cretaceous
crete
crew
crick
cricket
cricketer
crime
crimea
criminal
crimson
cripta
cris
crisanto
crising
crisis
crisostomo
crispa
crispin
cristiana
cristina
cristo
cristobal
critic
critical
critically
criticism
critics
crittenton
cro
croatia
croatian
croce
cronica
cronus
crony
crop
cropped
crosby
cross
crossing
crossover
crowd
crown
crowned
cruise
crunchyroll
crusade
crusades
crush
cruz
cry
crypto
cryptocurrency
crystal
cs
csc
css
ct
ctor
cu
cuba
cuban
cubao
cube
cuenca
cuenco
cuisine
cullen
cult
cultura
cultural
culture
cultures
cum
cunanan
cuneiform
cuneta
cunningham
cuore
cup
cupid
cura
cure
curia
currency
current
currently
curriculum
curry
curse
curtin
curtis
curve
cusio
custom
customer
customs
cut
cute
cutting
cuvier
cuyapo
cuyo
cw
cx
cyber
cyborg
cycle
cycling
cyclist
cyclone
cynthia
cyprus
cyril
cyrus
cytoplasma
cytosine
cyworld
czech
czechoslovakia
d
da
daambakal
daan
daanan
daanang
daang
daangbakal
daantaon
dabaw
dacera
dad
dadaan
dadalhin
daddy
dado
dae
daegu
daet
daft
daga
dagang
dagat
dagdag
dagdagan
daging
dagitab
daglat
dagliang
dagok
dagta
dagupan
dahan
dahang
dahas
dahil
dahilan
dahilang
dahl
dahon
dahong
dai
daig
daigaku
daigdig
daily
daimyo
daioh
dairy
daisuke
daisy
dakila
dakilang
dako
dakong
dakota
dakpin
dal
dala
dalag
dalaga
dalagang
dalagita
dalahikan
dalai
dalampasigan
dalampasigang
dalandan
dalang
dalangin
dalas
dalawa
dalawahan
dalawahang
dalawampu
dalawampung
dalawang
dalawin
dale
dalhin
dali
dalian
daliri
dalisay
dalisdis
dalit
dall
dalla
dallas
daloy
dalton
dalub
dalubhasa
dalubhasaan
dalubhasaang
dalubhasang
dalubwika
daluyan
daluyang
daluyong
dam
dama
damage
damasco
damascus
damaso
dambana
dambanang
dambuhala
dambuhalang
damdamin
damdaming
dame
dami
damian
damiano
damien
daming
damit
damo
damon
damong
damuhan
dan
dana
danao
danaya
dance
dancer
dancers
dances
dancing
danes
dang
dangal
danger
dangerous
danica
daniel
daniela
danielle
danilo
danish
danny
dans
dantaon
dantaong
dante
dantes
danube
dao
dap
dapat
daphne
dapitan
dar
daraan
daraga
darating
dare
dari
dario
darius
dark
darkgrey
darkness
darling
darna
darren
dart
darussalam
darwin
das
dasal
dasalan
dash
dasho
dasmarin
dat
data
database
datapuwa
datapwat
date
dateformat
dates
dati
dating
dato
datos
datu
dau
daughter
daughters
daungan
daungang
davao
dave
david
davide
davidson
davies
davis
daw
dawak
dawkins
dawn
dawson
day
dayag
dayami
dayang
dayap
dayo
days
daytona
dayuhan
dayuhang
db
dc
dd
de
dea
dead
deadly
deaf
deafness
deakono
deal
dean
dear
death
deaths
debate
debateng
debbie
debehogne
deboniyano
deborah
debosyon
deboto
debut
dec
decade
deccan
december
decision
deck
declaration
deco
decree
dedikado
dedikadong
dedikasyon
dee
deeds
deep
deer
def
default
defeated
defence
defender
defense
defensive
defensor
deficiency
defined
definition
definitive
defunct
degeneres
degli
degree
degrees
degri
degring
dei
deir
deity
dekada
dekadang
dekano
deklarasyon
dekorasyon
dekreto
del
dela
delaware
delegado
delegasyon
delfin
delgado
delhi
delia
delight
delikado
delio
delivery
dell
della
delle
dello
delos
delphi
delporte
delta
delubyo
delusyon
deluxe
dem
demand
demanda
demi
demo
democracy
democratic
demographics
demograpiko
demograpiya
demokrasya
demokrasyang
demokratiko
demokratikong
demon
demons
demonstrador
demonstrasyon
demonstration
demonym
demonyo
demonyong
den
dench
deng
dengan
dengeki
dengue
denim
denis
denise
denisovan
denmark
dennis
denominador
denominasyon
denominasyong
denr
densetsu
densidad
density
dental
dentista
denver
deo
deosai
departamento
departamentong
department
departmento
deped
depektibong
depekto
depende
dependensiya
dependiyenteng
depensa
depinisyon
depinitibong
deploy
depok
deposito
depositong
depot
depression
depresyon
depresyong
depth
deputy
der
derby
derek
deribatibo
deribatibong
derived
derrick
des
desanctis
descartes
descent
description
desentralisadong
desentralisasyon
desert
desi
design
designated
designer
desimal
desire
desisyon
desisyong
desk
deskripsiyon
desktop
despite
destinasyon
destinasyong
destination
destiny
destroyer
destruction
det
detail
details
detalyado
detalyadong
detalye
detective
detektib
determinado
determinasyon
detroit
deus
deut
deuterokanoniko
deuteronomio
deuteronomyo
deutsch
deutsche
deux
dev
deva
devanagari
developer
development
developmental
dever
deverell
devi
device
devil
devils
devon
devonian
dewey
dexter
df
dfa
dhabi
dharma
dhi
di
dia
diabetes
diablo
diagnose
diagnosis
diagnostic
diagram
diakono
dial
dialect
dialogue
diamante
diameter
diametro
diamond
diana
diane
diano
diapsida
diaries
diary
diaspora
diaz
dibdib
diberhensiya
dibersidad
dibisyon
dibisyong
diborsiyo
diborsyo
dibuho
dibuhong
dice
dick
dictionary
did
didn
die
died
diego
dies
diesel
diet
dietrich
difference
differences
different
differential
digest
digimon
digit
digital
digma
digmaan
digmaang
dignidad
digos
digri
digring
dihital
diin
dike
dikit
diksiyonaryo
diksiyonaryong
diksiyunaryo
diksiyunaryong
diksyunaryo
diksyunaryong
diktador
diktadura
diktadurang
diktadurya
dil
dila
dilao
dilaw
dilg
dili
dilim
diliman
dilis
dimasalang
dimension
dimensional
dimensiyon
dimensiyonal
dimensiyong
din
dina
dinaanan
dinadaanan
dinadaglat
dinadala
dinagat
dinagdag
dinagdagan
dinaglat
dinakip
dinala
dinalaw
dinaluhan
dinalungan
dinamarka
dinambong
dinamika
dinamikal
dinamikang
dinamiko
dinamikong
dinamita
dinaragdagan
dinas
dinastiko
dinastiya
dinastiyang
dindo
dine
dineklara
dinesenyo
ding
dingding
dingdong
dinger
dingle
dinh
dinirehe
dinirekta
dinisenyo
dino
dinosaur
dinosauro
dinosaurong
dinugtong
dinukot
dinurog
dio
diocesan
diocese
diocleciano
diocletian
diokno
dioksido
dioksidong
dion
dionisio
dionysus
dios
dioscoro
diosdado
diosesis
dioxide
diperensiya
diperensiyal
diperensiyang
diploma
diplomasya
diplomat
diplomata
diplomatic
diplomatiko
diplomatikong
dipolog
diptonggo
diputado
dir
dirac
direct
directed
direction
directly
director
directors
directory
direk
direksiyon
direksiyong
direksyon
direksyong
direkta
direktang
direktor
direktoryo
diretso
diretsong
dirty
dis
disajikan
disaster
disasters
disbursement
disc
discipline
disco
discography
discogs
discourse
discovered
discovery
discussion
disease
diseases
disenyo
disenyong
disertasyon
disiplina
disiplinang
disipulo
disk
diskarte
disko
diskograpiya
diskreto
diskretong
diskriminasyon
diskurso
diskusyon
disney
disorder
disorders
display
dispute
disputed
distance
distansiya
distansiyang
distansya
distinguished
distinksiyon
distribusyon
distribusyong
distributed
distribution
distributor
district
distrito
distritong
disyembre
disyerto
dito
ditong
diumano
diva
diver
diversion
diversity
divina
divine
diving
division
divisions
divisoria
diwa
diwang
diwata
dixon
diyablo
diyagnosis
diyakono
diyalekto
diyalektong
diyalogo
diyamante
diyametro
diyan
diyaryo
diyaryong
diyeta
diyos
diyosa
diyosan
diyosang
diyoses
diyosesis
diyus
diz
dizon
dj
djibouti
djoser
dk
dlsu
dm
dmitri
dmitry
dmu
dna
do
doble
dobleng
doc
docs
doctor
doctorate
doctors
doctrina
doctrine
doctrines
document
documentary
documentation
documents
dodge
does
doesn
dog
doggler
dogma
doh
doha
doherty
doi
doing
doj
doki
doktor
doktorado
doktoral
doktrina
doktrinang
dokumentado
dokumentadong
dokumentaryo
dokumentaryong
dokumentasyon
dokumento
dokumentong
dolce
doll
dollar
dollars
dolls
dolly
dolores
dolph
dolphin
dolphins
dolphy
dolpina
dolyar
dom
domain
dome
domeng
domenico
domestic
domestikadong
domestikasyon
domestiko
domestikong
dominado
dominant
dominante
dominanteng
dominasyon
domingo
dominguez
domini
dominic
dominican
dominikano
dominikanong
dominique
domino
dominyo
dominyon
dominyong
domitian
domus
don
dona
donald
donasyon
donato
done
donetsk
dong
donkey
donna
donnell
donor
donovan
donya
doo
doolittle
doom
doon
door
dopamino
doping
doppler
dor
dora
doraemon
dorian
doris
dormitoryo
doroteo
dorothy
dorsal
dortmund
dos
dose
dosenang
dosis
dost
dot
dota
dotc
dotr
double
doubleday
doubles
doubt
doug
douglas
dove
dover
down
downey
download
downtown
doyle
dpr
dpwh
dq
dr
dra
draco
draft
drag
dragon
dragong
dragons
drake
drama
dramang
dramas
dramatic
dramatikong
draw
drawing
drayber
dream
dreaming
dreams
dress
drew
drift
drilon
drink
drive
driver
driving
dro
droga
drogang
drone
drop
drosophila
drug
drugs
drum
drummer
drums
dry
ds
dsm
dswd
dt
du
dual
dualidad
duarte
duavit
dub
dubai
dubbing
dublin
duc
duchess
duck
duct
duda
dudang
due
duel
duet
duff
duffy
dugo
dugong
dugtong
dugtungan
duhat
dukado
duke
dukesa
dukha
dukkha
duktor
dula
dulaan
dulaang
dulag
dulang
dulce
dulo
dulong
dulot
dumaan
dumadaan
dumadalaw
dumadalo
dumadaloy
dumadami
dumagat
dumagdag
dumagsa
dumaguete
dumalaw
dumalo
dumaloy
dumami
dumanas
dumaong
dumaraan
dumarami
dumaraming
dumaranas
dumarating
dumas
dumating
dumayo
dumi
dumoble
duncan
dunn
dunst
duo
duomo
dupong
duque
duran
durant
durarara
durdy
durham
durian
during
dust
dutch
duterte
duty
duwende
duyan
dv
dvd
dwarf
dwayne
dwight
dwww
dx
dy
dyaryo
dyel
dyesebel
dying
dyip
dyipni
dyke
dylan
dynamic
dynamics
dynasty
dynic
dz
dzbb
dzmm
dzrh
e
ea
each
eagle
eagles
earl
earlier
earliest
early
earnhardt
earth
earthbound
earthquake
east
easter
eastern
eastwood
easy
eat
eating
eb
eba
ebanghelista
ebanghelyo
ebanghelyong
ebidensiya
ebidensiyang
ebidensya
ebidente
ebionita
ebionites
ebola
ebolb
ebolusyon
ebolusyonaryo
ebolusyonaryong
ebolusyong
ebook
ebreo
ec
ecclesiastical
echo
ecija
ecology
economic
economics
economist
economy
ecosystem
ecq
ecuador
ecumenical
ed
eda
edad
eddie
eden
edessa
edgar
edgardo
edge
edinburgh
edipo
edison
edisyon
edisyong
edit
edited
edith
edition
editions
editor
editore
editori
editorial
editors
editoryal
editrice
edizioni
edmonton
edmund
edna
edo
edom
eds
edsa
edu
eduard
eduardo
education
educational
educator
edukado
edukadong
edukador
edukasyon
edukasyonal
edukasyong
edward
edwards
edwin
ee
eebolb
eehersisyo
eeksperimento
eensayo
eerdmans
efeso
effect
effects
efren
eg
egeo
egg
egidio
egipto
ego
egypt
egyptian
eh
ehekutibo
ehekutibong
ehersisyo
ehersisyong
ehipsiyo
ehipsiyong
ehipto
ehiptologo
ehiptong
ehir
ehrman
ei
eid
eiffel
eigenhalaga
eigenmann
eight
eiji
eilat
eileen
ein
einstein
either
ej
ejective
ejercito
ejov
ek
ekar
ekis
eklipse
ekolohikal
ekolohiya
ekonomika
ekonomikang
ekonomiko
ekonomikong
ekonomiks
ekonomista
ekonomistang
ekonomiya
ekonomiyang
ekosistema
eksakto
eksaktong
eksaminasyon
eksena
eksenang
eksepsiyon
eksibisyon
eksibit
eksistensiya
eksklusibo
eksklusibong
eksotikong
ekspedisyon
ekspedisyong
ekspektasyon
eksperimental
eksperimento
eksperimentong
eksperto
eksplorador
eksplorasyon
eksponensiyal
ekspres
ekspresyon
ekspresyong
ekstensibo
ekstensibong
ekstensiyon
ekstinksiyon
ekstinksiyong
ekstinkt
ekstinto
ekstintong
ekstra
ekstrang
ektarya
ektaryang
ekumenikal
ekwador
ekwasyon
ekwasyong
ekwatoryal
ekwilibrium
el
ela
elaeocarpus
elaine
elam
elba
elbe
elder
eleanor
eleazar
elebasyon
elected
election
elections
electoral
electric
electrical
electricity
electro
electromagnetic
electron
electronic
electronics
eleganteng
eleksiyon
eleksyon
elektor
elektra
elektrikal
elektriko
elektrikong
elektrisidad
elektromagnetiko
elektromagnetikong
elektromagnetismo
elektron
elektronika
elektroniko
elektronikong
elektroniks
element
elemental
elementary
elementarya
elementaryong
elemento
elementong
elements
elena
elepante
elephant
elevator
eleven
eli
elia
elias
elijah
elimination
elisa
elisabeth
eliseo
elite
eliza
elizabeth
elizalde
ella
elle
ellen
elliot
elliott
elliptical
ellis
elm
elmer
elmo
elohim
elpidio
elsa
else
elsevier
elst
elton
elvira
elvis
ely
em
ema
email
emanuel
emanuele
embahada
embahador
embassy
emblem
emblema
embryo
emerald
emergency
emerhensiya
emerhensiyang
emeritus
emi
emil
emilia
emiliano
emilio
emily
emir
emirado
emirates
emisperyo
emma
emmanuel
emmy
emong
emosyon
emosyonal
emotions
emperador
emperatris
emperor
emperyo
emphysema
empire
empires
empirikal
empleo
empleyado
employees
employer
empress
empty
emu
emulsyon
en
enamel
encantadia
enchanted
encore
encounter
encyclopaedia
encyclopedia
encyclopædia
end
endangered
endate
endemiko
ending
endless
endo
endorser
endorso
ends
enemy
energy
enerhiya
enerhiyang
enero
enforcement
eng
engagement
engels
engine
engineer
engineering
engineers
engkanto
engkwentro
england
english
engrandeng
enhanced
enigma
enit
enki
enkidu
enlil
enma
enmerkar
enna
enoc
enoch
enough
enrico
enrile
enrique
enriquez
ensalada
ensaym
ensemble
ensen
ensiklopedya
ensiklopedyang
ensima
entablado
enteng
enter
enterprise
enterprises
entertainer
entertainment
entidad
entire
entity
entrada
entrance
entre
entrepreneurship
entropiya
entry
env
envelope
environment
environmental
enza
enzo
enzyme
eo
eocene
eon
eos
ep
epektibo
epektibong
epekto
epektong
ephraim
epic
epidemya
epifanio
epiko
epikong
epiphanes
epiphanius
episcopal
episentro
episkopal
episode
episodes
episodyo
episodyong
epistemolohiya
epistle
epithet
epoch
eponymous
eps
epsilon
equal
equality
equation
equatorial
equestrian
equilibrium
equipment
equity
er
era
erap
eraserheads
erasmus
ere
erectus
erehe
erehiya
ergaster
eri
eric
erica
erich
eridu
erik
erika
erin
eritrea
ermita
ermitanyo
ernest
ernesto
ernie
ernst
ero
eroplano
eroplanong
eros
erotika
erotiko
erotikong
error
eruption
erwin
erya
es
esa
esau
escape
escobar
escolta
escriva
escu
escudero
escuela
esdras
esensiya
esensiyal
esguerra
eskayan
eskimo
eskolar
eskoses
eskosya
eskriba
eskrima
eskudo
eskultor
eskultura
eskuwelahan
eskwela
eskwelahan
eskwelang
eslabo
eslabong
eslobakya
eslobenya
esmeralda
espada
espan
espanya
espanyol
espasyo
espasyong
especially
esperanto
esperanza
espesiasyon
espesipikong
espesya
espesyal
espesyalidad
espesyalisadong
espesyalisasyon
espesyalista
espesye
espesyeng
espina
espinal
espinosa
espirito
espiritu
espiritung
espirituwal
espiritwal
espiya
espn
espongha
esquilino
essay
essays
essen
essene
essential
essex
est
esta
established
estadio
estadista
estadistika
estadistikal
estadistikang
estadistiko
estado
estadong
estados
estadyo
estasyon
estasyong
estatal
estate
estatwa
estatwang
este
esteban
ester
estero
estetika
esther
estilo
estilong
estimulasyon
estimulo
estokolmo
estong
estonia
estonian
estonya
estrada
estranghero
estratehikong
estratehiya
estratehiyang
estrella
estrogen
estruktura
estrukturang
estudyante
estudyanteng
estudyo
et
eta
etau
etc
eternal
ethan
ethel
ether
ethereum
etheria
ethics
ethiopia
ethiopian
ethnic
ethnologue
etika
etikal
etikang
etimolohiya
etiopia
etiopian
etiopianong
etniko
etnikong
etnisidad
eto
etruskano
etrusko
etruskong
etsu
etymology
eu
eua
euclid
euclidean
eufrates
euge
eugene
eugenio
eukaristiya
eukaryote
eukaryotiko
eula
euler
eulogio
eun
eup
euphrates
eur
eurasia
eurasian
eurasya
eureka
euripides
euro
europa
europe
european
europeo
europeong
eurovision
eusebio
eusebius
eut
ev
eva
evacuation
evaluation
evan
evangelical
evangeline
evangelion
evangelista
evans
eve
evelyn
even
evening
event
events
ever
everest
everett
evergreen
everlasting
every
everybody
everyday
everyone
everything
evidence
evil
evita
evo
evolution
evolutionary
ex
exam
examination
example
excel
excellence
except
excerpt
exchange
exchanges
exclusive
exe
executive
exercise
exeter
exhibit
exhibition
exile
existence
existing
exit
exo
exodo
exodus
expanded
expansion
expedition
experience
experimental
experiments
expert
exploration
explorer
exploring
explosion
expo
export
exposition
exposure
express
expression
expressions
expressway
extended
extension
external
extra
extraterrestrial
extreme
extrinsic
ey
eye
eyed
eyes
ez
ezekiel
ezra
f
fa
fabaceae
fabian
fabio
fabregas
fabriano
face
facebook
faces
facilities
facility
fact
factbook
facto
factor
factors
factory
facts
faculty
faenza
fahrenheit
failon
failure
fair
fairies
fairview
fairy
faith
faithful
fajardo
fake
fakultad
falcon
falkland
fall
fallen
falling
falls
false
famas
fame
fami
famicom
familia
familiar
families
family
famous
fan
fandom
fane
fanny
fano
fans
fantasia
fantastic
fantasy
fao
faq
far
fara
faraon
farewell
farfa
fariseo
farm
farmar
farmer
farmers
farnese
farra
farro
fashion
faso
fast
fat
fatal
fate
father
fathers
fatima
fatimah
fatimid
fault
fauna
faust
faustina
faustino
favorite
faye
fbi
fc
fda
fe
fear
fearless
feast
feat
feature
featured
features
featuring
feb
february
febvre
federal
federation
federico
fee
feed
feedback
feel
feeling
feelings
feet
fei
felice
feliciano
felidae
felipe
felis
felix
fellow
fellows
fellowship
female
feminist
femme
femmes
fencing
feng
ferdie
ferdinand
ferdinando
ferguson
fermi
fermion
fermo
fern
ferna
fernandez
fernando
ferrara
ferrari
ferreira
ferrer
ferry
fest
festa
festival
festivals
fetus
feu
feud
fever
few
feynman
ff
fg
fhm
fi
fiat
fiba
fiber
fibers
fibonacci
fiction
fictional
fide
fidel
fief
field
fields
fierce
fiesta
fifa
fifth
fifty
fig
fight
fighter
fighters
fighting
figure
figures
fiji
fil
file
filemon
files
filetti
filibusterismo
filioque
filipina
filipinas
filipino
filipinong
filipinos
filipo
filipos
filippo
filisteo
film
filmfare
filmmaker
filmography
filmograpiya
films
filomena
filter
fin
final
finale
finalist
finalists
finally
finals
finance
financial
find
finding
findling
fine
finger
finish
finkelstein
finland
finn
finnish
fire
firenze
firm
first
firstnode
fiscal
fischer
fish
fisher
fisheries
fishing
fission
fist
fitness
fitr
fitzgerald
five
fixed
fl
flag
flagella
flags
flagship
flagstaff
flagstop
flame
flamen
flaminia
flanders
flansburgh
flash
flat
flavio
flavius
fleet
fletcher
flickr
flight
flint
flo
flood
floods
floor
flor
flora
florante
florence
florencia
florencio
florentino
flores
florida
floridablanca
florita
flow
flower
flowers
floyd
flu
fluid
fluorescent
fluoride
flux
fly
flying
flynn
flyover
fm
fo
focus
foggia
folds
folk
folklore
folklorista
folkloristang
folktale
folktales
follow
followed
followers
following
fonda
fonovisa
font
fontana
fontane
fontsize
food
foods
fool
fools
foot
footage
football
footballer
footnote
for
forbes
forbidden
force
forces
ford
forecast
foreign
forensic
forest
forestry
forever
forget
forgotten
fork
forli
form
formal
format
formation
former
formerly
forms
formspring
formula
forno
foro
forster
fort
forte
forteza
forth
fortress
fortunato
fortune
forum
forward
foshan
fossil
fossils
foster
found
foundation
foundations
founded
founder
founders
founding
foundry
fountain
four
fourier
fourth
fox
foxtrot
fpj
fr
fra
frac
fractions
fragment
fragrantica
fraile
frame
framework
franc
franca
francavilla
france
frances
francesca
francesco
franchise
francia
francine
francis
francisca
franciscan
franciscano
francisco
franco
frank
frankfurt
frankie
franklin
franz
fraser
fratelli
fraternity
fray
frazione
fre
freak
fred
freddie
freddy
frederic
frederick
free
freedom
freeman
freeport
freestyle
freiburg
freight
french
frequency
fresco
fresh
freshman
freshwater
freud
fricative
fricatives
friday
friedman
friedrich
friedrichshain
friend
friendly
friends
friendship
fritz
friuli
frog
frollo
from
front
frontier
frontline
frontman
frosinone
frost
frozen
frs
fruit
fruits
fry
fs
ft
fu
fuego
fuel
fuente
fuentebella
fuentes
fuji
fujian
fujii
fujimoto
fujiwara
fukuoka
fukushima
fulbright
full
fuller
fullmetal
fun
function
functional
functions
fund
fundamental
funds
funeral
fungi
fungus
funimation
funk
funny
fuori
further
furukawa
furuta
fury
fuse
fushigi
fusion
futari
futbol
futsal
future
fuwa
fuzhou
fx
g
ga
gaano
gaanong
gaas
gabaldon
gabay
gabayan
gabby
gabbydictionary
gabi
gabinete
gabing
gabon
gabriel
gabriela
gabriele
gad
gaddafi
gaeliko
gaeta
gaetano
gag
gaga
gagaling
gagamba
gagamit
gagamitin
gagampanan
gaganap
gaganapin
gagawa
gagawin
gagawing
gage
gaia
gaius
gaki
gakuen
gal
gala
galacia
galactic
galaksiya
galaksiyang
galang
galapong
galaw
galaxy
galba
galbi
gale
galen
galeon
galeria
galeriya
galerya
gales
gali
galicia
galilea
galilei
galileo
galing
galit
gallagher
galland
galleria
gallery
gallipoli
gallo
galloway
gallus
galo
galugarin
galvez
galyon
gama
gambia
gamble
gamboa
game
gamecube
gameplay
games
gaming
gamit
gamitin
gamiting
gamma
gamo
gamot
gampanan
gampanin
gampaning
gamu
gamugamo
gamutin
gan
gana
ganadora
ganang
ganap
ganapin
ganda
gandara
gandhi
gang
ganges
gangster
ganito
ganitong
ganiyang
ganoon
ganoong
gansa
ganti
gantimpala
gantimpalang
ganun
ganyak
ganyan
ganyang
gao
gaon
gaoranger
gap
gapan
garage
garahe
garantiya
garapon
garci
garcia
garde
garden
gardens
gardner
gardo
garfagnana
garfield
gargano
garibaldi
garing
garison
garland
garrett
garry
garuda
gary
gas
gasgas
gaslighting
gasolina
gaspar
gaston
gastos
gastroenteraytis
gastrointestinal
gastusin
gasuklay
gat
gata
gatas
gatchaman
gate
gates
gateway
gaudi
gauge
gaul
gaulle
gaultier
gauss
gaussian
gautama
gavan
gave
gavin
gawa
gawaan
gawad
gawain
gawaing
gawang
gawgaw
gawi
gawin
gawing
gay
gaya
gayahin
gayak
gayo
gayon
gayong
gayumpaman
gayun
gayundin
gayunman
gayunpaman
gaza
gazette
gazetteer
gb
gba
gc
gcatholic
gcq
gdp
ge
gear
gef
gehenna
geiger
geisei
geisha
gekko
gel
gem
gemini
gen
gendarmenmarkt
gender
gene
genealogy
geneon
gener
genera
general
generally
generals
generation
generator
generoso
genes
genesis
genetic
genetics
geneva
geng
genghis
genital
genius
genji
gennaro
genoa
genocide
genome
genotype
genova
genre
genres
gensan
gensokyo
gent
genus
geo
geocities
geoff
geoffrey
geographic
geographical
geography
geological
geology
geometry
geophysical
georg
george
georges
georgetown
georgia
georgian
georgina
ger
gera
gerald
geraldine
gerard
gerardo
gerhard
gerilya
gerilyang
germ
german
germania
germany
gerona
geronimo
gerry
gershwin
geschichte
gesu
get
gets
getter
getting
geum
geun
gh
ghana
ghazan
ghil
ghilardi
ghost
ghosts
gi
gia
giacomo
giambattista
gian
gianni
giant
giants
gibbon
gibbs
gibraltar
gibson
gideon
gif
gift
gifu
gig
giga
gigantic
gil
gilagid
gilas
gilbert
gilberto
gilda
giles
gilgamesh
gilid
gilingan
giliw
gill
gilles
gillespie
gillian
gilmore
gime
gin
gina
ginadgad
ginagabayan
ginagamit
ginagamitan
ginagamot
ginagampanan
ginaganap
ginagawa
ginagawang
ginagaya
ginahasa
ginalugad
ginamit
ginamitan
ginampanan
ginampanang
ginanap
ginanapan
ginang
ginantimpalaan
ginawa
ginawad
ginawan
ginawang
ginawaran
ginaya
ginea
ginebra
gingoog
ginhawa
giniba
giniling
ginintuang
ginn
gino
ginoo
ginoong
ginto
gintong
ginugol
ginugugol
ginugunita
ginuhit
ginuhitan
ginusto
ginustong
gio
gion
giordano
giorgio
giovanni
girl
girlfriend
girls
girolamo
gisaeng
gising
gita
gitara
gitarang
gitarista
gitaristang
gitling
gitna
gitnang
giulia
giuliano
giulio
giuseppe
give
given
gives
giving
giyera
giza
gje
gk
gl
gladbach
glade
gladys
glaiza
glandula
glandulang
glans
glasgow
glass
glee
glen
glenda
glenn
global
globalisasyon
globalization
globe
globo
gloc
gloria
glorietta
glory
glossary
glucose
glukosa
gluon
gm
gma
gmail
gmanetwork
gmanews
gmina
gn
gng
gnostiko
gnostikong
gnostisismo
gnp
gnu
go
goa
goal
gobernado
gobernador
gobernadorcillo
gobernasyon
goblin
gobyerno
gobyernong
god
godavari
goddess
goddesses
gods
godzilla
goemul
goes
goethe
gogh
goguryeo
goin
going
gojoseon
goku
gold
goldberg
golden
goldman
golem
golf
golfer
golgi
goliat
golp
golpo
golpong
goma
gomburza
gomez
gon
gondwana
gone
gong
goni
gonna
gonza
gonzaga
gonzales
gonzalez
gonzalo
good
goodbye
goodman
goodricke
goods
google
goose
gorbachev
gordon
gore
goreng
gorilla
gorilya
gorio
goro
goryeo
gospel
gospels
got
gotham
gothic
gotiko
gotikong
goto
gottfried
gould
gov
governance
government
governor
governorate
governors
gown
gp
gpl
gr
gra
grabidad
grabitasyon
grabitasyonal
grace
gracia
graciano
grade
gradient
grado
gradong
graduate
graduation
gradwado
gradwadong
graf
graft
graham
grain
gram
gramatika
grammar
grammy
gramo
gran
granada
grand
grande
grandes
grandmaster
grandstand
grant
grap
graph
graphic
graphical
graphics
grapiko
grapikong
grapo
grass
grasya
grave
gravina
gravity
gravure
gray
grazie
great
greater
greatest
greatness
greco
greece
greek
green
greene
greenhills
greenhouse
greenland
greenwich
greenwood
greg
gregor
gregoria
gregorian
gregoriano
gregorio
gregory
gregoryano
greko
grenada
grenoble
gresya
greta
gretchen
gretel
grey
grid
gridcolor
griego
griffin
griffith
griko
grimm
grimms
griyego
griyegong
gro
grolier
groove
gross
grosseto
grossing
ground
groundbreaking
grounds
group
groups
grove
grover
grow
growing
growth
gru
grunge
grupo
grupong
gruyter
grynberg
gs
gsis
gta
gtv
gu
gua
guadalupe
guagua
guam
guangdong
guangxi
guangzhou
guanine
guard
guardia
guardian
guardians
guatemala
gubat
gubbio
gubernador
gubyerno
guerra
guerrero
guest
guetta
guevara
guevarra
guez
gugulin
guhit
guho
gui
guiana
guida
guidance
guide
guido
guiguinto
guild
guillaume
guillermo
guilty
guimaras
guimba
guinea
guinness
guinobatan
guitar
guitarist
guitars
guiuan
gujarat
gujarati
gulag
gulaman
gulang
gulat
gulay
gulf
gull
gulo
gulod
gulong
gulpo
gulugod
gum
gumaca
gumagabay
gumagala
gumagalaw
gumagaling
gumagamit
gumagampan
gumagana
gumaganang
gumaganap
gumagapang
gumagawa
gumagawang
gumala
gumalaw
gumaling
gumamit
gumampan
gumana
gumanap
gumanti
gumapang
gumastos
gumawa
gumi
gumising
gumugol
gumuhit
gumuho
gun
gundam
guni
gunita
gunitain
gunma
guns
guntur
guo
gupta
gurkha
guro
gurong
guru
gus
gusali
gusaling
gusot
gustav
gustave
gustavo
gusto
gustong
gut
gutenberg
guthrie
gutierrez
gutom
guwardiya
guwardya
guwatemala
guy
guya
guyana
guys
guzman
gwen
gx
gyeonggi
gym
gymnasium
gymnast
gymnastics
gypsy
gyu
h
ha
haba
habag
habagat
habakuk
habambuhay
habanes
habang
habeas
habilin
habilis
habitat
habsburgo
hachiko
hachinohe
hachio
hacienda
hack
hacker
had
hadad
hades
hadith
hadji
hadlang
hadlangan
hadrian
hadron
hae
hagar
hagdan
hagdanan
hagdang
hagibis
hagonoy
hague
hagupit
hahanapin
hahantong
hahatiin
hahn
hai
haibara
hail
hain
hainan
hair
haiti
haitian
haiyan
hajime
hajj
haka
hakbang
hakbangin
haku
hakurei
hakusho
hal
halaga
halagang
halal
halalan
halalang
halaman
halamanan
halamang
halata
halatang
halaw
halaya
hale
haleakala
haley
half
haligi
haliging
halik
halikan
halili
halimaw
halimbawa
halimbawang
halina
halip
hall
halle
halloween
hallyu
halo
halong
halos
haluang
halusinasyon
ham
hamad
hamak
hamayka
hamburg
hamilton
hamiltonian
hamlet
hammadi
hammer
hammond
hammurabi
hamog
hamon
hamong
hampas
hampshire
han
hana
hanap
hanapbuhay
hanapin
hanay
hand
handa
handaan
handang
handball
handbook
handel
handheld
handog
hands
haneda
hang
hanga
hangad
hangal
hangang
hangarin
hangaring
hangga
hanggahan
hanggan
hangganan
hangganang
hanggang
hangin
hanging
hango
hangul
hangzhou
hanja
hank
hankou
hanna
hannah
hannibal
hanoi
hanover
hans
hansel
hansen
hanson
hanyang
hapag
hapdi
hapis
haplogroup
haplogrupo
hapo
hapon
hapones
hapong
happened
happiness
happy
hapunan
hara
harald
haran
harang
harangan
harap
harapan
harapang
harapin
harbin
harbor
harbour
hard
hardcore
hardcover
hardin
hardinero
harding
hardware
hardwer
hardy
hare
harem
hari
harina
harinang
haring
harlem
harley
harlock
harmatz
harmony
harold
harper
harpercollins
harrier
harriet
harris
harrison
harry
hart
haru
haruhi
haruka
harv
harvard
harvey
harvick
has
hasan
hasang
hasegawa
hash
hashim
hashimoto
hashtag
hassan
hat
hatak
hate
hati
hatid
hatiin
hatimbilang
hating
hatinggabi
hatol
hatta
hatulan
haudio
haumea
haunted
hausma
haute
havana
have
haven
having
hawai
hawaii
hawaiian
hawak
hawakan
hawayano
hawig
hawk
hawkins
hawley
hay
haya
hayaan
hayaang
hayag
hayagan
hayagang
hayakawa
hayashi
hayato
hayden
haydn
hayes
haykap
hayley
hayop
hayskul
hayti
hazael
hazel
hb
hbo
hcards
hcv
hd
he
head
headline
headlines
headlining
headquarters
headrest
heads
healing
health
healy
heap
hear
heard
hearing
heart
hearts
heat
heath
heather
heaven
heavenly
heavy
heavyweight
hebreo
hebreong
hebrew
hebrews
hector
hedgehog
hee
hefner
hegel
heian
heidegger
heidelberg
heidelbergensis
heidi
height
heights
heilongjiang
heiner
heinrich
heisenberg
heisman
hejaz
hekinan
hektarya
held
helen
helena
helene
helenistiko
helianthus
helicopter
helikopter
helin
helium
helix
hell
hellboy
hello
helmet
helmut
help
helsinki
hemispero
hemisphere
hen
henan
henares
henderson
hendricks
hendrickson
hene
henera
heneral
henerasyon
henerasyong
henero
henesis
henetika
henetikang
henetiko
henetikong
henosidyo
henri
henrietta
henry
henson
hentai
hentil
henus
henyo
heograpikal
heograpiko
heograpikong
heograpiya
heograpiyang
heograpo
heolohikal
heolohiko
heolohiya
heometriko
heometrikong
heometriya
heometriyang
heorhiya
heorhiyano
hepataytis
hepatitis
hepburn
hepe
hepeng
her
hera
heracles
herald
herarkiya
herb
herbert
hercules
here
heresiya
heretiko
heritage
herman
hermaniko
hermanikong
hermann
hermas
hermes
hermogenes
hermosa
herna
hernandez
hernando
hero
herod
herodes
herodotus
heroes
heron
herpes
herras
herrera
herschel
herself
hershey
herusalem
herzegovina
herzl
herzog
hesiod
hesse
hesu
hesukristo
hesus
heswita
heswitang
heteroseksuwal
heterosexual
hewitt
hex
hey
heydar
hezekias
hi
hiatus
hibla
hiblang
hicks
hidaka
hidalgo
hidden
hideki
hideo
hideyoshi
hidroheno
hidwaan
hidwaang
hierarchy
higaan
higad
higante
higanteng
higashi
higgins
higgs
high
higher
highest
highland
highlands
highlight
highly
highway
highways
higit
hihigit
hika
hikari
hikaru
hikaw
hikayatin
hiking
hil
hilaga
hilagaang
hilagang
hilario
hilary
hilaw
hilbert
hilda
hilera
hilig
hiligaynon
hiling
hilingin
hill
hillary
hills
hilongos
hilton
him
himagsikan
himagsikang
himala
himalang
himalaya
himaymay
hime
himig
himlayan
himmler
himnastika
himnasyo
himno
himpapawid
himpilan
himpilang
himself
hin
hina
hinabol
hinago
hinahabol
hinahain
hinahalal
hinahalo
hinahanap
hinahangaan
hinahangad
hinahangganan
hinaharap
hinahati
hinahatian
hinahawakan
hinala
hinalal
hinalang
hinalaw
hinalinhan
hinalo
hinaluan
hinamon
hinanap
hinangaan
hinangad
hinango
hinarang
hinarap
hinata
hinati
hinatulan
hinawakan
hinayaan
hinayag
hind
hindi
hindu
hinduism
hinduismo
hinggil
hinihikayat
hinihila
hinihiling
hinihimok
hinihinalang
hinihingi
hinihintay
hinihirang
hinihiwalay
hinikayat
hinila
hiniling
hinimok
hininga
hiningi
hiniram
hinirang
hiniwa
hiniwalay
hiniwang
hinlalaki
hino
hinog
hinto
hintuan
hinua
hinuang
hinubog
hinugot
hinuha
hinuhang
hinuhugasan
hinuhuli
hinukay
hinulaan
hinulaang
hinuli
hioki
hip
hipon
hipona
hipotesis
hipotetikal
hippo
hippocampus
hippocrates
hippolytus
hiragana
hiram
hirangin
hirano
hirap
hirit
hiro
hirohito
hiroki
hiromi
hiroomote
hirosaki
hiroshi
hiroshima
hiroyuki
his
hispania
hispanic
hispaniko
hispano
histo
histoire
historia
historian
historians
historic
historical
histories
historikal
historisidad
history
historyador
historyan
hit
hita
hitchcock
hitler
hitman
hito
hitomi
hits
hitsura
hittite
hiv
hiwa
hiwaga
hiwalay
hiwang
hiya
hiyas
hk
hl
hm
hna
hns
ho
hoa
hoc
hockey
hodgkin
hof
hoffman
hoffmann
hogan
hohenstaufen
hohenzollern
hokkaido
hokkien
hoku
hold
holden
holding
holdings
hole
holiday
holidays
holland
hollow
holloway
holly
hollywood
holmes
holocaust
hololive
holstein
holt
holy
hom
home
homepage
homer
homes
homestar
hominid
hominidae
hominin
hominini
homme
homo
homoousios
homoseksuwal
homoseksuwalidad
homosekswal
homosekswalidad
homosexual
homosexuality
homura
hon
honda
honduras
honey
honeymoon
hong
hongkong
honiko
honolulu
honor
honorable
honorary
honoraryong
honorato
honors
honshu
hontiveros
hood
hook
hooke
hoon
hop
hope
hopkins
hora
horace
horacio
horan
horda
hordan
horie
horisontal
horizon
horizontal
hormona
hormone
horn
hornal
horney
horror
horse
horta
horus
hosea
hoshea
hoshi
hosius
hosono
hospital
hospitality
host
hostage
hosted
hosting
hosto
hosts
hot
hotdog
hotel
hotels
hotspot
hottest
houghton
hour
hours
house
household
housemate
housemates
housing
houston
how
howard
however
hoy
hp
hpa
hr
ht
htm
html
htmlhttp
htmlhttps
http
https
hu
hua
huambo
huang
huaning
hub
hubad
hubble
hubei
hubert
hubo
hubog
hudaismo
hudaismong
hudas
hudea
hudikatura
hudisyal
hudson
hudyat
hudyo
hudyong
hue
huffington
hugasan
hugh
hughes
hugis
hugnayan
hugo
huguenot
hui
huk
hukay
hukbalahap
hukbo
hukbong
hukom
hukuman
hukumang
hula
hulaan
hulagu
hulang
hulapi
hulaping
huli
hulihan
hulihang
hulihin
huling
huliyano
hulk
hull
hulo
hulyo
humabon
humahadlang
humahantong
humaharang
humaharap
humahawak
humalal
humalili
human
humanap
humanga
humango
humanidades
humanismo
humanista
humanitarian
humanities
humans
humantong
humarap
humatol
humawak
humayo
humboldt
hume
humigit
humihigit
humihikayat
humihiling
humihina
humihinga
humihingi
humihinto
humihiwalay
humikayat
humiling
humimok
humina
huminga
humingi
huminto
humirang
humiwalay
humor
humpay
humphrey
humuhula
humula
humupa
hun
hunan
hundred
hung
hungarian
hungary
hunger
huni
hunt
hunter
hunters
huntington
hunyo
hupiter
hur
hurado
hurisdiksiyon
hurisdiksyon
hurno
hurricane
hurt
husay
husband
hussein
hustisya
husto
hustong
hut
hutchinson
huwad
huwag
huwaran
huwarang
huwebes
huxley
hwa
hwan
hwang
hwi
hyacinth
hybrid
hyderabad
hydrangea
hydrogen
hydroheno
hye
hyg
hyksos
hymn
hyo
hyper
hypostasis
hypothalamus
hypothesis
hyun
hyundai
hyung
i
ia
ian
iangat
iata
iau
ib
iba
ibaan
ibaba
ibabalik
ibabang
ibabaw
ibagsak
ibahagi
ibahin
ibalik
ibaloi
ibaloy
ibang
ibaraki
ibarra
ibat
ibayo
ibayong
ibc
ibenta
iberia
ibibigay
ibig
ibigay
ibigin
ibinaba
ibinabahagi
ibinagsak
ibinahagi
ibinalik
ibinalita
ibinase
ibinasura
ibinatay
ibinebenta
ibinenta
ibinibigay
ibinibilang
ibinigay
ibinilang
ibinilanggo
ibinuhos
ibinukod
ibinunyag
ibm
ibn
ibon
ibong
ibp
ibrahim
ibukod
ibunyag
ic
icao
ice
iceland
icelandic
ich
ichi
ichigo
ichiro
icon
iconic
id
ida
idagdag
idaho
idea
ideal
ideas
ideklara
identidad
identification
identity
ideolohikal
ideolohiya
ideolohiyang
ideya
ideyal
ideyang
idinadagdag
idinadaos
idinagdag
idinala
idinaos
idinaragdag
idinaraos
idineklara
idineklarang
idinerekta
idinirek
idinirekta
idinisenyo
idinulot
idol
idolo
idolong
idols
idrodyel
idyoma
ie
ieee
ieyasu
if
ifm
ifugao
igagawad
igalang
igat
igf
igiit
iginagalang
iginagawad
iginawad
iginigiit
iginiit
iginuhit
iglesia
iglesiang
iglesias
iglesya
ign
ignacio
ignatius
igo
igor
igorot
igos
igting
ihagis
ihahambing
ihain
ihalal
ihambing
ihanda
iharap
ihatid
ihayag
ihi
ihinto
ihiwalay
ii
iiba
iibigan
iibigin
iida
iii
iikot
iilan
iilang
iilaw
iimbak
iimbestiga
iingat
iipon
iisa
iisang
iisip
iit
iiwan
iiwas
iju
ik
ika
ikaanim
ikaapat
ikabubuti
ikadalawampu
ikadalawampung
ikakasal
ikalabindalawang
ikalabing
ikalabingwalong
ikalabinlimang
ikalabinsiyam
ikalabintatlong
ikalat
ikalawa
ikalawang
ikalima
ikalimang
ikalito
ikapito
ikapitong
ikasal
ikasampu
ikasampung
ikasiyam
ikatawan
ikatlo
ikatlong
ikaw
ikawalo
ikawalong
ike
ikebukuro
ikeda
ikinabit
ikinabubuhay
ikinagalit
ikinakabit
ikinalat
ikinamatay
ikinasal
ikinasawi
ikinatwiran
ikinuha
ikinulong
ikinuwento
ikono
ikot
ikukumpara
ikumpara
il
ilabas
ilagan
ilagay
ilalabas
ilalagay
ilalim
ilan
ilang
ilapat
ilarawan
ilathala
ilaw
ilaya
ildefonso
ilegal
iliad
iliada
ilibing
iligal
iligan
iligtas
ilimbag
ilipat
ill
illegal
illinois
illness
illustrated
illustration
ilo
ilocano
ilocos
ilog
iloilo
ilokano
iloko
ilokos
ilong
ilonggo
ilunsad
ilustrado
ilustrador
ilustrasyon
ilusyon
ilya
im
image
images
imagesize
imagine
imaging
imagna
imahe
imahen
imaheng
imahinasyon
imam
imami
imbak
imbakan
imbensiyon
imbensyon
imbentaryo
imbento
imbentor
imbertebrado
imbes
imbestiga
imbestigador
imbestigahan
imbestigasyon
imbis
imbitasyon
imdb
imee
imelda
imf
img
imigrante
imigranteng
imigrasyon
iminumungkahi
iminungkahi
iminungkahing
immaculate
immanuel
immigration
immortal
immune
immuno
imo
imodelo
imoral
imortal
imortalidad
imp
impact
impanteriya
impanterya
impeachment
impeksiyon
impeksiyong
impeksyon
impektado
impektadong
imperatore
imperfect
imperial
imperyal
imperyalismo
imperyalistang
imperyo
imperyong
impit
impiyerno
implasyon
implementasyon
implikasyon
impluwensiya
impluwensiyang
impluwensya
impluwensyang
impormal
impormasyon
impormasyong
import
importance
important
importante
importanteng
imposible
imposibleng
impossible
impostor
impraestruktura
imprastraktura
imprastruktura
imprenta
impression
impresyon
impyerno
imus
imyuno
in
ina
inaabot
inaakala
inaakalang
inaalagaan
inaalala
inaalis
inaalok
inaangkat
inaangkin
inaangking
inaani
inaanyayahan
inaasahan
inaasahang
inaasam
inaasintang
inaatake
inaawit
inaayos
inaayunan
inabandona
inabandunang
inabot
inabuso
inagaw
inagurasyon
inahing
inakala
inakalang
inakay
inakdaan
inako
inakusahan
inalagaan
inalay
inalis
inalisan
inalok
inamin
inampon
inang
inangkat
inangkin
inangking
inangkop
inanna
inanunsiyo
inanunsyo
inanyayahan
inapo
inaprubahan
inaresto
inari
inasahan
inatake
inatas
inatasan
inatasang
inaugural
inaugurasyon
inawit
inayos
inberso
inc
inca
inch
incheon
incident
include
included
includes
including
income
incorporated
increase
increment
incubator
indang
inday
indbidwal
indeks
independence
independent
independiyente
independiyenteng
independyente
independyenteng
index
india
indian
indiana
indianapolis
indiano
indianong
indibiduwal
indibidwal
indie
indies
indigenous
indigo
indikasyon
indio
individual
indiya
indiyan
indiyano
indiyanong
indiyas
indiyo
indo
indones
indonesia
indonesian
indonesya
indoor
indotsina
indra
induced
indulhensiya
indus
industrial
industries
industriya
industriyal
industriyalisadong
industriyalisasyon
industriyang
industry
indya
ine
inedit
inekwalidad
inere
ines
infanta
infantry
infected
infection
infectious
inferior
inferiore
inferno
infinite
infinity
influence
influential
influenza
info
infobox
information
infrared
infrastructure
infty
ing
ingat
ingatan
ingay
inggit
ingglatera
inggles
inggo
inglatera
inglaterang
inglaterra
ingles
ingrid
inhenyeriya
inhenyeriyang
inhenyero
inhibitor
inhibitors
inhinyeriya
inhinyeriyang
inhinyero
inhinyerong
inhinyerya
ini
inialay
iniangat
inibig
inihagis
inihahain
inihahalal
inihahambing
inihahanda
inihahandog
inihahatid
inihahayag
inihain
inihalal
inihambing
inihanay
inihanda
inihandog
iniharap
inihatid
inihaw
inihayag
inihiwalay
iniibig
iniimbak
iniinom
iniisip
iniiwan
iniiwasan
iniksiyon
inilaan
inilabas
inilagay
inilahad
inilalaan
inilalabas
inilalagay
inilalahad
inilalapat
inilalarawan
inilalathala
inilantad
inilapat
inilarawan
inilarawang
inilatag
inilathala
inilibing
iniligtas
inilikas
inilikha
inililimbag
inililipat
inilimbag
inilipat
inilista
iniluklok
iniluluwas
inilunsad
inilustra
inimbento
inimbitahan
iningatan
inirekomenda
inirerekomenda
inirerekumenda
inisip
inisyal
inisyatiba
inisyatibo
inisyu
init
initial
initiative
iniugnay
iniulat
iniutos
iniuugnay
iniuulat
iniwan
iniwanan
iniwang
injury
inkigayo
inkisisyon
inmaculada
inn
inner
innocent
innovation
innsbruck
ino
inobasyon
inocencio
inog
inokupa
inom
inookupahan
inorganisa
inosente
inosenteng
inoue
inplasyon
inpormal
input
inquirer
ins
inscription
insekto
insektong
insenso
insentibo
insert
inside
insidente
insidenteng
insider
insight
inskripsiyon
inskripsiyong
inskripsyon
inspector
inspeksiyon
inspeksyon
inspektor
inspirasyon
inspirational
inspired
instagram
install
instansiya
instant
instead
institusyon
institusyonal
institusyong
institut
institute
institutes
institution
institutions
instituto
institutong
instruction
instruksiyon
instrument
instrumental
instrumentalist
instrumento
instrumentong
instruments
insular
insulin
insurance
int
intedyer
intef
integer
integral
integrasyon
integrated
integration
integridad
intel
intelektuwal
intelektwal
intelihensiya
intelihensiyang
intellectual
intelligence
intensidad
intensity
intensive
intensiyon
intensyon
inter
interactive
interaksiyon
interaksiyong
interaksyon
interbal
interbensiyon
interbyu
interchange
intercontinental
interdisiplinaryo
interes
interesado
interest
interface
interim
interior
interloper
intermediate
internal
internasyonal
internasyunal
international
internationale
internet
interpersonal
interpolasyon
interpretasyon
interpretasyong
interpretation
interscope
interseksiyon
interstate
intervarsity
interview
interviews
interyor
into
intra
intramuros
introduced
introduction
introduksiyon
introvigne
intsik
inu
inuit
inukit
inulat
inulit
inumin
inuming
inumpisahan
inupahan
inuran
inuri
inusig
inutos
inutusan
inuugnay
inuulit
inuuri
inuyasha
invasion
inventor
inverse
investigation
investment
investments
invisible
involved
inyo
inyong
io
ioc
ion
iono
ionong
ions
ios
iowa
ip
ipa
ipaalam
ipad
ipadala
ipagbawal
ipagbili
ipagdiwang
ipagkamali
ipaglaban
ipagpalagay
ipagpaliban
ipagpapatuloy
ipagpatuloy
ipagtanggol
ipahayag
ipahiwatig
ipakilala
ipakita
ipako
ipalabas
ipalaganap
ipalagay
ipaliwanag
ipamahagi
ipanalangin
ipanganak
ipapadala
ipapakita
ipapalabas
ipasa
ipasok
ipatawag
ipatupad
ipcc
iphone
ipil
ipinaalam
ipinabatid
ipinadala
ipinag
ipinaganak
ipinagbabawal
ipinagbawal
ipinagbibili
ipinagbili
ipinagdiriwang
ipinagdiwang
ipinagkaloob
ipinagkatiwala
ipinaglaban
ipinagmamalaki
ipinagpalagay
ipinagpaliban
ipinagpalit
ipinagpapalagay
ipinagpatuloy
ipinagtanggol
ipinagtapat
ipinagtibay
ipinahahayag
ipinahayag
ipinahihiwatig
ipinahiwatig
ipinakikilala
ipinakikita
ipinakilala
ipinakita
ipinakitang
ipinako
ipinakulong
ipinalabas
ipinalagay
ipinalalagay
ipinalit
ipinaliwanag
ipinamahagi
ipinamalas
ipinamamahagi
ipinangako
ipinangalan
ipinangalanan
ipinangalang
ipinanganak
ipinangkat
ipinanukala
ipinanukalang
ipinanumbalik
ipinapadala
ipinapahayag
ipinapahiwatig
ipinapakita
ipinapalabas
ipinapalagay
ipinapaliwanag
ipinapanukalang
ipinapasa
ipinapasok
ipinapataw
ipinapatupad
ipinasa
ipinasara
ipinasok
ipinasya
ipinatapon
ipinataw
ipinatawag
ipinatayo
ipinatupad
ipinatutupad
ipininta
ipis
ipo
ipod
ipon
ipv
iq
ir
ira
irak
iral
iran
irani
iranian
iranun
iraq
iraqi
iregular
ireland
irenaeus
irene
iriga
irigasyon
iris
irish
irlanda
irlandes
irma
iro
irog
iron
irons
irpinia
irpino
irving
irwin
is
isa
isaac
isaalang
isaayos
isabel
isabela
isabella
isabelle
isagani
isagawa
isahan
isahang
isahin
isaiah
isaias
isailalim
isakatuparan
isalarawan
isalin
isama
isan
isandaang
isang
isara
isarog
isasaalang
isasagawa
isasama
isbn
ischia
isda
isdang
ise
isernia
ishaq
ishida
ishiguro
ishikawa
ishinomaki
ishmael
ishtar
isidore
isidro
isilang
isina
isinaad
isinaalang
isinaayos
isinabatas
isinaboses
isinagawa
isinagawang
isinahimpapawid
isinailalim
isinakatuparan
isinalarawan
isinalaysay
isinali
isinalin
isinaling
isinalinwika
isinama
isinamang
isinampa
isinangguni
isinanib
isinapelikula
isinara
isinasaad
isinasaalang
isinasaayos
isinasagawa
isinasakdal
isinasalarawan
isinasalaysay
isinasalin
isinasama
isinilang
isiniwalat
isinuko
isinulat
isinulong
isinumite
isinumpa
isinunod
isinuot
isinusulat
isinusulong
isinusuot
isip
isipan
isipin
isis
iskala
iskalang
iskandalo
iskariote
iskedyul
isko
iskolar
iskor
iskrin
iskrip
iskultor
iskultura
isla
islam
islamic
islamiko
islamikong
island
islandes
islandiya
islands
islang
islas
isle
isles
islogan
ismael
ismail
ismaili
isnag
iso
isola
isonzo
isotope
isotopes
isotopo
isparta
ispektrum
ispesimen
ispiker
isponsor
isport
isports
israel
israeli
israeling
israelita
issn
issue
issued
issues
ist
istadyum
istanbul
istasyon
istasyong
istat
istatistika
istatwa
istilo
istilong
istituto
istorya
istoryador
istraktura
istraktural
istrakturang
istratehiya
istreptokokus
istruktura
istruktural
istrukturang
istudiyo
istudyo
istudyong
isuko
isulan
isulat
isulong
isuot
isusulat
isyu
isyung
it
ita
itaas
itaboy
itaewon
itago
itaguyod
itakda
itakwil
itala
italaga
italia
italian
italiana
italiani
italiano
italiko
italo
italy
italya
italyano
italyanong
itama
itampok
itanghal
itanong
itapon
itataas
itatag
itatayo
itayo
itc
ite
item
items
ithaca
itigil
itik
itim
itinaas
itinago
itinaguyod
itinakda
itinakdang
itinakwil
itinala
itinalaga
itinalagang
itinalang
itinambal
itinampok
itinanggi
itinanghal
itinanim
itinanong
itinapon
itinataas
itinatag
itinatago
itinataguyod
itinatakda
itinatakwil
itinatala
itinatalaga
itinatampok
itinatanggi
itinatanghal
itinatangi
itinatanim
itinatatag
itinatayo
itinawag
itinayo
itinayong
itinigil
itiniwalag
itinulak
itinuloy
itinuon
itinuring
itinuro
itinuturing
itinuturo
itlog
ito
itogon
itong
its
itself
itsura
itu
itukoy
itulak
ituloy
itunes
ituring
ituro
ituturing
itv
iucn
iugnay
iv
ivan
ivana
ivatan
ives
ivo
ivoire
ivory
ivy
iwan
iwanan
iwant
iwas
iwasan
iwate
ix
iya
iyak
iyan
iyo
iyon
iyong
iz
iza
izumi
j
ja
jacinto
jack
jackal
jacket
jackie
jackson
jacob
jacobin
jacobs
jacopo
jacqueline
jacques
jade
jae
jaena
jaflong
jaguar
jai
jail
jaime
jain
jainismo
jak
jakarta
jake
jakob
jal
jalal
jam
jama
jamaica
jamaican
james
jamestown
jamie
jan
jana
jane
janeiro
janet
jang
janghwa
janice
janine
janssen
january
japan
japanese
jar
jaranilla
jarbo
jared
jaro
jarrett
jarvis
jasmine
jason
java
javanese
javier
jawa
jawi
jaworski
jay
jaya
jayson
jazeera
jazz
jb
jc
jd
je
jean
jeanne
jeconias
jeddah
jedi
jeepney
jeff
jefferson
jeffrey
jehoahaz
jehoash
jehoiakim
jehoram
jehoshaphat
jehova
jehovah
jehu
jejomar
jeju
jelly
jen
jenkins
jenna
jenner
jennifer
jenny
jennylyn
jens
jensen
jeon
jeong
jer
jeremiah
jeremias
jeremy
jeric
jericho
jeroboam
jerome
jeronimo
jerry
jersey
jerusalem
jesi
jess
jesse
jessica
jessie
jesu
jesucristo
jesuit
jesus
jet
jets
jett
jewel
jewish
jews
jh
ji
jia
jian
jianbing
jiang
jiangsu
jihad
jilin
jill
jillian
jim
jime
jimenez
jimmie
jimmy
jin
jing
jinggoy
jingle
jiro
jj
jkt
jm
jma
jo
joa
joachim
joan
joana
joanna
joanne
joaquin
job
jobs
jocelyn
jockey
jodi
joe
joel
joey
johan
johann
johanna
johannes
johannesburg
johansson
john
johnny
johns
johnson
johnston
johor
join
joins
joint
jojo
joker
jolie
jolina
jollibee
jolo
jomon
jon
jonas
jonathan
jones
jong
joo
joon
joong
jordan
jorge
jorgensen
jose
josef
josefa
josefina
joselito
joseon
joseph
josephine
josephus
josh
joshua
josias
josie
joson
jost
josue
jota
jotham
journal
journalism
journalist
journalists
journey
jovito
joy
joyce
jp
jpeg
jpg
jpn
jr
jstor
jtbc
jtwc
ju
juan
juana
juancho
juanico
juanito
jubilee
juche
juda
judah
judai
judaism
judas
judd
jude
judea
judge
judges
judgment
judio
judith
judo
judy
juice
jukebox
jul
jules
julia
julian
juliana
juliano
julie
juliet
julieta
julio
julius
july
jump
jumper
jumping
jun
junction
june
jung
jungkook
jungle
junior
junk
junko
juno
junta
jupiter
jurassic
jure
jury
just
justice
justify
justin
justinian
justiniano
justus
jv
jyp
k
ka
kaaba
kaagad
kaagahan
kaagapay
kaakibat
kaakit
kaalaman
kaalamang
kaalinsabay
kaalyado
kaalyadong
kaamerikahan
kaanib
kaantasan
kaanyuan
kaapu
kaarawan
kaasalan
kaasalang
kaaway
kaaya
kaayusan
kaayusang
kaba
kababaihan
kababaihang
kababalaghan
kababata
kababayan
kabahagi
kabahaging
kabahayan
kabahayang
kabaitan
kabaligtaran
kabaligtarang
kabaliktaran
kabaliwan
kabalyero
kabalyerong
kaban
kabanal
kabanalan
kabanalbanalang
kabanata
kabanatang
kabang
kabansaan
kabantugan
kabaong
kabataan
kabataang
kabatiran
kabayan
kabayanan
kabayanihan
kabayaran
kabayarang
kabayo
kabayohan
kabayong
kabesera
kabeserang
kabi
kabibe
kabibi
kabiguan
kabihasnan
kabihasnang
kabikulan
kabila
kabilang
kabilangan
kabilugan
kabisayaan
kabisera
kabiserang
kabisote
kabit
kabite
kabiyak
kable
kableng
kabo
kabuhayan
kabukiran
kabul
kabuluhan
kabundukan
kabundukang
kabuoan
kabuoang
kabute
kabutihan
kabutihang
kabuuan
kabuuang
kada
kadahilanan
kadahilanang
kadakilaan
kadalasa
kadalasan
kadalasang
kadalisayan
kadalubhasaan
kadapa
kadena
kadenang
kadikit
kadiliman
kadokawa
kaduweto
kaede
kaen
kaesong
kagagawan
kagaku
kagalakan
kagalang
kagalingan
kagamitan
kagamitang
kaganapan
kaganapang
kagandahan
kagandahang
kagat
kagawad
kagawaran
kagawarang
kagawian
kagawiang
kagaya
kaginhawaan
kaginhawahan
kagipitan
kagitingan
kagoshima
kagubatan
kagubatang
kaguluhan
kaguluhang
kagura
kaguruan
kagustuhan
kagustuhang
kagutuman
kagyat
kaha
kahabaan
kahalagaan
kahalagahan
kahalagahang
kahalayan
kahalili
kahaliling
kahalintulad
kahalumigmigan
kahanay
kahanayan
kahanga
kahapon
kaharian
kahariang
kahatian
kahawig
kahel
kahihinatnan
kahihiyan
kahilagaang
kahilera
kahilingan
kahina
kahinaan
kahinahunan
kahirapan
kahirapang
kahit
kahne
kahon
kahong
kahoy
kahugis
kahuli
kahulihan
kahulugan
kahulugang
kahusayan
kai
kaiba
kaibahan
kaibhan
kaibigan
kaibigang
kaibuturan
kaido
kaigihan
kailaliman
kailan
kailang
kailangan
kailangang
kailanganin
kailanman
kailugan
kainan
kainin
kaisa
kaisahan
kaiser
kaisipan
kaisipang
kaito
kajiura
kaka
kakahuyan
kakaiba
kakaibang
kakailanganin
kakain
kakainin
kakambal
kakampi
kakanin
kakanyahan
kakashi
kakatawan
kakaunti
kakaunting
kakaw
kakawate
kakayahan
kakayahang
kakayanan
kakayanang
kakikitaan
kakila
kakilala
kaklase
kakulangan
kala
kalaban
kalabang
kalabanin
kalabasa
kalabaw
kalabisan
kalafina
kalagayan
kalagayang
kalagitnaan
kalagitnaang
kalahatan
kalahati
kalahating
kalahok
kalakal
kalakalan
kalakalang
kalakaran
kalakasan
kalakhan
kalakhang
kalaki
kalakihan
kalakihang
kalakip
kalalabasan
kalalakihan
kalalakihang
kalalang
kalaliman
kalamangan
kalamansi
kalambatan
kalamidad
kalamnan
kalamnang
kalan
kalangitan
kalansay
kalap
kalapati
kalapit
kalapitan
kalasag
kalat
kalatagan
kalauna
kalaunan
kalaunang
kalaw
kalawakan
kalawakang
kalawang
kalayaan
kalayaang
kalayuan
kalbaryo
kaldero
kaleido
kalendaryo
kalendaryong
kalesa
kali
kalibapi
kalibo
kalibre
kalidad
kaligayahan
kaligtasan
kalihim
kalikasan
kalikasang
kalimantan
kalimitan
kalimitang
kalimutan
kalinangan
kalinangang
kalinga
kalinis
kalinisan
kalinisang
kalinya
kalipa
kalipang
kalipato
kalipatong
kalipunan
kalipunang
kalis
kaliskis
kalituhan
kaliwa
kaliwanagan
kaliwang
kalkulador
kalkulasyon
kalkulo
kalkulong
kalmado
kalokohan
kaloob
kalooban
kaloobang
kalookan
kalsada
kalsadang
kaluban
kalubhaan
kaluluwa
kaluluwang
kalunan
kalungkutan
kalungsuran
kalupaan
kalupaang
kalupitan
kalupunan
kalusugan
kalusugang
kalutasan
kaluwagan
kaluwalhatian
kalye
kalyeng
kalyeserye
kama
kamag
kamahalan
kamakailan
kamakailang
kamakura
kamalayan
kamalayang
kamalian
kamaliang
kamalig
kamandag
kamangha
kamangmangan
kamao
kamara
kamatayan
kamatayang
kamatis
kamay
kamaynilaan
kambal
kambing
kamelyo
kamen
kamera
kami
kaming
kamiseta
kamlon
kamote
kamoteng
kampana
kampanaryo
kampanilya
kampanya
kampanyang
kampeon
kampeonato
kampeonatong
kampf
kampi
kampo
kampong
kampus
kamukha
kamusmusan
kan
kana
kanada
kanadyano
kanadyanong
kanagawa
kanais
kanal
kanan
kanang
kanayunan
kanazawa
kanda
kandado
kandidata
kandidato
kandidatong
kandidatura
kandila
kandungan
kane
kaneda
kang
kani
kanila
kanilang
kanin
kanina
kanino
kaniya
kaniyang
kanji
kankanaey
kankanay
kanlaon
kanlungan
kanluran
kanlurang
kanluranin
kanluraning
kannada
kannagi
kano
kanon
kanonikal
kanonisasyon
kansai
kansas
kanser
kansilyer
kant
kanta
kantahin
kantang
kantidad
kanto
kantones
kanya
kanyan
kanyang
kanyon
kaohsiung
kaori
kaoru
kap
kapa
kapabayaan
kapag
kapaguran
kapahamakan
kapakanan
kapakanang
kapaki
kapakinabangan
kapakipakinabang
kapal
kapalaran
kapaligiran
kapaligirang
kapalit
kapalitan
kapamahalaan
kapamilya
kapampangan
kapanahon
kapanahunan
kapanahunang
kapanalig
kapanatagan
kapangalan
kapanganakan
kapangyarihan
kapangyarihang
kapani
kapansanan
kapansanang
kapansin
kapantay
kapantayan
kapapahan
kaparaanan
kaparaanang
kaparangan
kapareha
kaparehas
kapareho
kaparehong
kaparian
kaparusahan
kapasidad
kapaskuhan
kapat
kapatagan
kapatagang
kapatawaran
kapatid
kapatiran
kapayapaan
kape
kapeina
kapeng
kapihan
kapiling
kapilya
kapilyang
kapinsalaan
kapirasong
kapisanan
kapisanang
kapistahan
kapistahang
kapit
kapita
kapital
kapitalismo
kapitalista
kapitalistang
kapitan
kapitbahay
kapitbahayan
kapitolyo
kapitulo
kapoor
kapos
kappa
kapsula
kapulisan
kapuluan
kapuluang
kapulungan
kapulungang
kapuna
kapuso
kaputol
kapuwa
kapuwang
kapwa
kapwang
kar
kara
karabakh
karachi
karachkina
karagatan
karagatang
karagdagan
karagdagang
karahasan
karahasang
karakter
karamdaman
karamdamang
karami
karamihan
karamihang
karampatang
karanasan
karanasang
karang
karangalan
karangalang
karangyaan
karaniwan
karaniwang
karaoke
karapat
karapatan
karapatang
karapatdapat
karate
karatig
karatula
karayom
karbon
karbonato
karbono
kard
kardinal
karding
kare
karel
karelasyon
karen
karenina
karera
karerang
karga
kargamento
kargang
kari
karibal
karibe
karikatura
karin
karina
karit
kariton
karl
karla
karma
karnabal
karnak
karnataka
karne
karneng
karot
karpintero
kart
karta
kartago
kartang
kartel
kartun
karugtong
karuhatan
karunungan
karunungang
karwahe
karylle
kasa
kasabay
kasabayan
kasabihan
kasabihang
kasabwat
kasaganaan
kasaganahan
kasagsagan
kasagutan
kasai
kasakiman
kasakupang
kasal
kasalan
kasalanan
kasalanang
kasali
kasalukuyan
kasalukuyang
kasalukyang
kasalungat
kasama
kasamaan
kasamaang
kasamahan
kasamahang
kasamang
kasambahay
kasamu
kasanayan
kasanayang
kasangkapan
kasangkapang
kasangkot
kasangkutan
kasapi
kasaping
kasarian
kasariang
kasarinlan
kasawian
kasawiang
kasaysayan
kasaysayang
kashmir
kasi
kasiglahan
kasikatan
kasing
kasingkahulugan
kasinglaki
kasiningan
kasinlaki
kasintahan
kasintahang
kasinungalingan
kasiya
kasiyahan
kasiyangyaang
kaso
kasong
kasosyo
kast
kastanyas
kastila
kastilang
kastilyo
kastilyong
kasu
kasuan
kasuang
kasugunang
kasukalan
kasukasuan
kasukdulan
kasuklam
kasulatan
kasulatang
kasultanan
kasulukuyang
kasunduan
kasunduang
kasunod
kasuotan
kasuotang
kaswal
kasya
kat
kata
kataas
kataasan
kataastaasang
katabaan
katabi
katabing
katad
kataga
katagal
katagalan
katagalugan
katagang
katahimikan
katakana
katalan
katalik
katalinuhan
katalista
kataliwasan
katalogo
katalunya
katamaran
katambal
katamisan
katamtaman
katamtamang
katandaan
katanga
katanggap
katanghalian
katangi
katangian
katangiang
katanungan
katanungang
katanyagan
katao
kataong
katapangan
katapat
katapatan
katapatang
katapusan
katapusang
katarina
katarungan
katarungang
katas
katata
katatagan
katatakutan
katatakutang
katatapos
katatawanan
katauhan
katauhang
katawa
katawagan
katawagang
katawan
katawang
katawanin
katayuan
katayuang
kate
katedral
kategorya
kategoryang
katekismo
katha
kathang
katharine
katherine
kathleen
kathmandu
kathryn
kati
katibayan
katibayang
katie
katigasan
katihan
katimogang
katimugan
katimugang
katindihan
katinig
katipunan
katipunero
katiwala
katiwalian
katiwasayan
katiyakan
katlo
katniss
kato
katolika
katoliko
katolikong
katolisismo
katotohan
katotohanan
katotohanang
katrina
katsuura
katubigan
katubigang
katulad
katulong
katumbas
katumpakan
katunayan
katunggali
katunggaling
katungkulan
katungkulang
katuparan
katuruan
katuruang
katutubo
katutubong
katuturan
katuwaan
katuwang
katuwiran
katwiran
katy
katya
kaugalian
kaugaliang
kaugnay
kaugnayan
kaugnayang
kaukasya
kaukulang
kauna
kaunaunahang
kaunlaran
kaunlarang
kaunti
kaunting
kauri
kaurian
kausap
kausapin
kauswagan
kautusan
kautusang
kawa
kawad
kawagoe
kawal
kawalan
kawalang
kawali
kawan
kawang
kawanggawa
kawangis
kawani
kawanihan
kawasaki
kawasato
kawayan
kawi
kawikaan
kawil
kawili
kawing
kawingan
kawingang
kawit
kay
kaya
kayamanan
kayamanang
kayang
kayarian
kayariang
kayat
kayo
kayong
kaysa
kayumanggi
kayumangging
kazakh
kazakhstan
kazan
kaze
kazuma
kazumi
kazuya
kb
kbl
kbp
kbs
kc
kcmu
ke
kea
keating
keep
kei
keiji
keiko
keith
kelley
kelly
kelvin
kemika
kemikal
kemoterapiya
ken
kendal
kendi
kenji
kennedy
kenneth
kennon
kenny
kenseth
kenshin
kent
kentucky
kenya
kenyan
kenyon
kepler
kerala
kerida
kernel
kerry
kerubin
kesa
kesennuma
keso
kesong
ketchup
ketong
ketongin
ketuvim
kevin
kexp
key
keyboard
keyboardist
keyboards
keyk
keynes
keynesian
keys
kg
kgg
kh
kha
khabarovsk
khalifa
khalil
khan
khao
khm
khmer
khon
khun
khz
ki
kick
kickback
kid
kidapawan
kidlat
kidney
kids
kiel
kiev
kiha
kiko
kilabot
kilala
kilalang
kilalanin
kilay
kili
kill
killed
killer
killers
killing
killings
kills
kilmartin
kilo
kilogramo
kilometro
kilometrong
kilos
kilt
kilusan
kilusang
kim
kimberly
kimi
kimika
kimikal
kimikang
kimiko
kimikong
kimilsungismo
kimono
kimura
kin
kina
kinabibilangan
kinabilangan
kinabukasan
kinagabihan
kinahapunan
kinahinatnan
kinailangan
kinailangang
kinain
kinakaharap
kinakailangan
kinakailangang
kinakain
kinakalkula
kinakanta
kinakapatid
kinakasangkutan
kinakatawan
kinakausap
kinakikitaan
kinakitaan
kinalabasan
kinalalagyan
kinalaman
kinalauna
kinalaunan
kinanonisa
kinansela
kinanta
kinapapalooban
kinaray
kinaroroonan
kinasal
kinasangkutan
kinasasakupan
kinasasangkutan
kinasihan
kinasuhan
kinasusuklaman
kinatatakutan
kinatatayuan
kinatawan
kinatawang
kinatha
kinaugalian
kinaugaliang
kinaumagahan
kinausap
kinauukulan
kind
kinder
kindergarten
king
kingdom
kingdoms
kings
kingston
kinikilala
kinikilalang
kinikilingan
kinikilingang
kinilala
kinilalang
kinita
kinitil
kino
kinokolekta
kinokonekta
kinokonsidera
kinokontrol
kinolekta
kinomisyon
kinondena
kinontrol
kinopya
kinoronahan
kinoronahang
kinshasa
kinubkob
kinuha
kinukuha
kinukunan
kinulong
kinumbinsi
kinumpirma
kinumpleto
kinunan
kinutya
kinuwestiyon
kipot
kira
kiram
kirara
kirby
kirgistan
kiribati
kirino
kirk
kirot
kirsten
kisame
kisangani
kish
kiso
kiss
kit
kita
kitambayan
kitami
kitamura
kitang
kitchen
kite
kitniyot
kitt
kitty
kiyosato
kjv
kkk
klab
klado
klase
klaseng
klasikal
klasiko
klasikong
klasipikasyon
klasipikasyong
klaus
klein
kleon
klerk
klero
klet
kli
klima
klimang
klingon
klinika
klinikal
kliyente
klub
km
kmpha
kmt
knew
knight
knights
knock
knopf
knots
know
knowledge
knowles
known
knows
knox
ko
koalisyon
koalisyong
kobayashi
kobe
kobzar
koch
koda
kodansha
kodigo
kodigong
koepisyente
koepisyenteng
kofi
kognisyon
kognitibo
kogure
kohoutek
koi
koichi
koine
koizumi
koji
kojiki
kojima
kokaina
koko
kokoro
kolaborasyon
kolehiyo
kolehiyong
kolehyo
koleksiyon
koleksiyong
koleksyon
kolektibong
kolektor
kolera
koliseo
kolkata
kolokyal
kolombiya
kolombya
kolonisasyon
kolonya
kolonyal
kolonyalismo
kolonyang
kolum
kolumnista
kolyma
koma
komand
komandante
komander
kombensiyon
kombensyon
kombinasyon
kombinasyong
kombinatorika
kombinatorikang
kombinatoryal
komedya
komedyang
komedyante
komedyanteng
komentador
komentarista
komentaryo
komento
komersiyal
komersiyo
komersyal
komersyo
kometa
komi
komiks
komisyon
komisyonado
komisyoner
komisyong
komite
komiteng
komon
komonwelt
kompanya
kompanyang
komparatibong
kompensasyon
kompetetibong
kompetisyon
kompetisyong
kompilasyon
kompirmasyon
kompleks
kompleksidad
komplementaryong
kompletong
komplikado
komplikadong
komplikasyon
komportable
komposisyon
komposisyong
kompositor
komprehensibong
kompresyon
kompromiso
komputasyon
komputasyonal
komputasyunal
kompuwesto
kompuwestong
kompyuter
komsomolsk
komuna
komunal
komunidad
komunikasyon
komunikasyong
komunismo
komunista
komunistang
komunyon
komyun
komyuter
kon
konbeks
konbensiyon
konbersiyon
kondado
konde
kondehan
kondensada
kondensadang
kondisyon
kondisyonal
kondisyong
kondom
konduktor
koneksiyon
koneksyon
konektado
konektor
kong
konggreso
kongkreto
kongkretong
kongregasyon
kongresista
kongreso
kongresong
kongresyonal
konkatedral
konklusyon
konkreto
konkretong
kono
konoha
konotasyon
konrad
konsehal
konseho
konsehong
konsentrasyon
konsentrasyong
konsepsiyon
konsepto
konseptong
konserbasyon
konserbatibo
konserbatibong
konsesyon
konsiderasyon
konsilyo
konsilyong
konsiyerto
konsiyertong
konsolscript
konsorte
konstant
konstante
konstanteng
konstantin
konstelasyon
konstitusyon
konstitusyonal
konstitusyong
konstruksiyon
konstruksyon
konsul
konsulado
konsuladong
konsultasyon
konsumer
konsumpsiyon
konsyerto
kontak
kontaminadong
kontaminasyon
konteksto
kontekstong
kontemporaneong
kontemporaryo
kontemporaryong
kontinental
kontinente
kontinenteng
konting
kontra
kontrabida
kontrabidang
kontradiksiyon
kontrahan
kontrata
kontratang
kontratista
kontribusyon
kontrobersiya
kontrobersiyal
kontrobersiyang
kontrobersya
kontrobersyal
kontrol
kontrolado
kontroladong
kontroler
kontrolin
kooperasyon
kooperasyong
kooperatiba
koordinado
koordinadong
koordinasyon
kopa
kopff
koponan
koponang
koptikong
kopya
kopyahin
kopyang
kor
koral
koran
kordero
kordong
korea
korean
koreano
koreanong
koreanovela
koreanovelang
korelasyon
koreo
koreograpo
koridor
korina
korniko
koro
korona
koronadal
koronang
koronasyon
koronel
korong
korporasyon
korporasyong
korte
korteng
korupsiyon
koryente
koryenteng
koryo
kosai
kosmikong
kosmolohikal
kosmolohiya
kosmolohiyang
kosovo
kosta
kostumer
kota
koto
kotse
kotseng
kou
kp
kph
kr
krai
krakow
kramer
krasch
krauss
kreasyonismo
kreasyonista
kredito
kredo
kredong
krema
kremang
kretaseyoso
kreuzberg
krimen
krimeng
kriminal
kripto
kriptograpiya
kris
krisantemo
krishna
krisis
kristal
kristen
kristine
kristiyanismo
kristiyanismong
kristiyano
kristiyanong
kristo
kristolohiya
kristong
kristyanismo
kristyano
kriterya
kritikal
kritiko
kritikong
kritisismo
kritisismong
kroasya
kroato
kroketa
kromosoma
kromosomal
kromosomang
kronika
kronikong
kronolohikal
kronolohiya
krup
krus
krusada
krusadang
krusipiho
krystal
ks
ku
kuala
kuan
kuba
kubiko
kubikong
kublai
kubo
kubol
kudarat
kudeta
kudlit
kuha
kuhanin
kuhol
kuiper
kuki
kuko
kukuha
kukulangin
kukunin
kulang
kulani
kulas
kulay
kuliglig
kulisap
kulog
kulot
kulta
kultibar
kulto
kultong
kultura
kultural
kulturang
kulugo
kulungan
kuma
kumain
kumakain
kumakalat
kumakanta
kumakapit
kumakatawan
kumalahok
kumalas
kumalat
kumamoto
kumandante
kumander
kumanta
kumar
kumatawan
kumbensiyon
kumbensiyong
kumbensyon
kumbento
kumbinasyon
kumbinsido
kumbinsihin
kumikilala
kumikilos
kumikita
kumikitang
kumilala
kumilos
kumita
kumitil
kumokonekta
kumokontrol
kumokopya
kumonekta
kumontrol
kumopya
kumot
kumpanya
kumpanyang
kumpara
kumpas
kumperensiya
kumperensiyang
kumperensya
kumpesor
kumpetisyon
kumpirmadong
kumpirmahin
kumpisal
kumpiyansa
kumpleto
kumpletong
kumpletuhin
kumplikado
kumplikadong
kumplikasyon
kumpol
kumuha
kumukuha
kumukulong
kumulang
kumusta
kun
kunaicho
kundi
kundiman
kundisyon
kuneho
kung
kuni
kunin
kuomintang
kupala
kuponan
kuponang
kupunan
kura
kurba
kurbada
kurbang
kurdi
kurdish
kurdistan
kurdo
kurdong
kurikulum
kurnool
kuro
kurosaki
kurso
kursong
kurt
kuru
kuryente
kuryenteng
kusa
kusang
kush
kushida
kushiro
kusilba
kusina
kusinero
kustodiya
kustombre
kuta
kutang
kuting
kutis
kuto
kutsara
kutsero
kutsilyo
kuwadra
kuwadrado
kuwadradong
kuwadro
kuwago
kuwaho
kuwait
kuwarantina
kuwarentenang
kuwaresma
kuwartel
kuwarto
kuweba
kuwenta
kuwento
kuwentong
kuwerdas
kuwintas
kuwitis
kuya
kv
kw
kwadrado
kwadradong
kwadratikong
kwalipikado
kwalipikadong
kwalipikasyon
kwantika
kwantum
kwarto
kweba
kwentahin
kwento
kwentong
kwon
ky
kyiv
kyle
kylie
kyo
kyoko
kyon
kyosuke
kyoto
kyousuke
kyrgyz
kyrgyzstan
kyu
kyubey
kyung
kyushu
l
la
laan
lab
labag
laban
labana
labanan
labanang
labas
labasan
labasang
label
labels
labi
labia
labialized
labimpitong
labindalawa
labindalawang
labing
labingdalawang
labingwalong
labinlimang
labintatlo
labintatlong
labis
labo
labor
laboratory
laboratoryo
laboratoryong
labour
laboure
labrador
labs
labuyo
lac
lacedonia
lacey
lacson
lactase
lactose
lacus
laden
ladies
ladrilyo
lady
lafayette
laga
lagalag
laganap
lagay
lagda
lagerkvist
lagi
laging
lagman
lagnat
lago
lagom
lagoon
lagos
lagot
lagpas
lagrange
laguna
lagusan
lagusang
lagyan
lahad
lahat
lahi
lahing
lahok
lahore
lai
laing
lak
lakad
lakan
lakandula
lakang
lakas
lakbay
lake
lakedaimon
lakers
lakes
laki
laking
laksa
lal
lala
lalabas
lalagpas
lalagyan
lalake
lalakeng
lalaki
lalaking
lalamunan
lalawigan
lalawigang
lalim
lalo
lalong
lalu
lalung
lam
lama
lamad
laman
lamang
lamangan
lamazares
lamb
lambak
lambat
lambda
lambert
lamig
lamitan
lamok
lampara
lampas
lamuymoy
lan
lana
lanao
lancaster
lance
land
landa
landas
landfall
landing
landmark
lando
lands
landscape
landslide
lane
lang
langaw
langdon
lange
langgam
langis
langit
langka
langle
language
languages
languyan
lani
lanka
lannie
lansangan
lansangang
lantad
lantana
lantern
lantsa
lanza
lao
laoag
laodicea
laon
laos
lap
lapad
lapat
lapay
lapiang
lapid
lapida
lapis
lapit
laplace
laps
laptop
lapu
lapulapu
lapya
laquian
lara
larang
larangan
larangang
larawan
larawang
large
larger
largest
laro
larong
larrazabal
larry
lars
larsa
larson
larsson
laruan
laruang
laruin
las
lasa
lasang
laser
lasing
laso
lason
last
lat
lata
latag
latak
latbiya
late
later
lateral
laterano
latest
latex
lathala
lathalain
lathalaing
latian
latiang
latin
latina
lating
latino
latinong
latitud
latium
latte
latter
lattice
latvia
lau
laude
launch
launched
launches
laundering
laura
laureado
laureate
laureates
laurel
lauren
laurence
laurent
laurie
lauro
lausanne
lava
lavender
lavigne
law
lawa
lawak
lawang
lawas
laway
lawin
lawrence
laws
lawson
lawyer
lay
laya
layag
layang
layer
layo
layon
layong
layout
layunin
layuning
lazaro
lazio
lb
lc
lcd
ldots
ldp
le
lea
lead
leader
leaders
leadership
leading
leads
leaf
league
leah
leak
leandro
leap
learn
learned
learning
lease
least
leave
leaves
leaving
lebadura
lebanon
lebel
lebesgue
leblanc
lecce
lecture
lectures
led
leda
ledesma
ledger
lee
leeds
leeg
left
leg
legacy
legal
legalidad
legarda
legasiya
legaspi
legato
legazpi
legend
legendary
legends
legion
legislation
legislative
lego
lehislatibo
lehislatibong
lehislatura
lehitimo
lehitimong
lehiyon
lei
leibniz
leiden
leigh
leila
leipzig
leisure
lemery
lemmon
lemon
lena
lengguwahe
length
lengua
leni
lenin
leningrad
leninismo
lennon
lens
lente
leo
leon
leona
leonard
leonardia
leonardo
leoncito
leone
leonid
leonidas
leonor
leopard
leopold
leopoldo
lepanto
lepton
lerma
leroy
les
lesbian
leslie
lesotho
less
lesser
lesson
lessons
leste
lester
lesyon
let
letra
letran
letrang
letter
letters
leukemia
leung
leuven
lev
levant
level
levi
levine
levitico
levy
lewis
lex
lexicon
lexikon
leymaniye
leyte
lez
lg
lgbt
lgu
lhasa
lhotshampa
li
lia
liam
liang
lib
liban
libangan
libano
liber
liberal
liberalismo
liberation
liberia
libertad
liberty
libing
libingan
libingang
libis
liblib
libmanan
libo
libong
libra
libraries
library
libre
libreng
libro
librong
libu
libya
libyan
lica
license
liceo
licinius
liddell
lider
lie
liebe
liechtenstein
lies
lieu
lieutenant
life
lifestyle
lifetime
liga
ligal
ligalig
ligang
ligao
ligas
ligaw
ligaya
light
lightgrey
lightning
lights
ligid
ligtas
ligur
liguria
liham
lihim
lihis
liit
likas
like
likely
likha
likhain
likhang
likido
likidong
liko
likod
likuran
likurang
lil
lila
lilang
lilia
lilian
lilikha
liliko
lilim
lilitaw
lilith
liliw
lille
lillian
liloan
lilok
lily
lim
lima
limalok
limampu
limampung
limang
limb
limbag
limbagan
limbo
lime
limit
limitado
limitadong
limitahan
limitasyon
limitasyong
limited
limits
limon
limos
limpa
limpatiko
lin
lina
linares
linaw
lincoln
linda
linden
lindol
lindsay
lindsey
line
lineage
linear
liner
lines
lineup
linfa
ling
linga
lingayen
linggo
linggong
lingguhan
lingguhang
lingguwistika
lingguwistikang
lingguwistiko
lingid
lingkod
lingks
lingo
lingua
linguistic
linguistics
linisang
linisin
link
linked
linkedin
links
linnaeus
linnell
lino
linus
linux
linya
linyang
linyar
lion
lionel
lions
lip
lipa
lipad
lipas
lipat
lipi
lipid
liping
lipon
lips
lipulin
lipunan
lipunang
liquid
lira
lireo
liri
liriko
lirikong
liryo
lisa
lisanin
lisboa
lisbon
lisensiya
lisensiyado
lisensya
lisensyado
lisensyang
list
lista
listahan
listahang
listed
listen
listening
listing
lists
lit
lite
literal
literary
literaryo
literasiya
literatura
literaturang
literature
lithium
lithotripsy
lithuania
lithuanian
litid
lito
litratista
litratistang
litrato
litratong
litro
little
littlefield
liturgical
liturgy
liturhikal
liturhiya
litwano
litwanya
liu
live
lived
liverpool
lives
living
livingstone
livorno
liwanag
liwasan
liwasang
liwayway
lix
liyebre
liz
liza
lizard
lj
ll
lla
llanera
llc
ller
lln
lloyd
ln
lo
load
loaded
loan
lobby
lobe
lobito
lobo
lobong
loca
local
located
location
lock
lockdown
locke
loco
locsin
locus
lodge
lodi
log
logan
logaritmo
logic
logo
logos
lohika
lohikal
lohikang
lohistika
loi
loire
lois
lokal
lokalidad
lokasyon
lokasyong
loki
lola
lolita
lolo
loma
lombardi
lombardia
lombardo
lombardong
lombardy
lonchura
london
londres
lone
lonely
loneos
long
longganisa
longhitud
longman
loob
looban
loobang
looc
look
looking
looks
loon
loop
loose
lope
lopez
lord
lords
lore
loren
lorena
lorentz
lorenz
lorenzana
lorenzo
loreto
lorna
loro
lorraine
los
lose
loser
loss
lost
lot
lote
lotus
lou
loud
louie
louis
louise
louisiana
louisville
lounge
lourdes
louvre
love
lovebird
loved
lovejoy
lovely
lover
lovers
loves
lovi
loving
low
lowe
lowell
lower
loyola
loyzaga
lozada
lozano
lp
lpa
lpg
lrt
lrta
ls
lsu
lt
ltd
lu
lualhati
luang
lubang
lubao
lubhang
lubid
lubog
lubos
lubumbashi
lubusan
lubusang
luc
luca
lucania
lucano
lucas
lucban
lucca
luce
lucena
lucero
lucia
lucian
luciano
lucifer
lucio
lucius
luck
lucky
lucy
ludovico
ludwig
lugar
lugaw
luge
luglog
lugo
lugones
luha
lui
luigi
luis
luisa
luisiana
luisita
lukab
lukas
lukban
luke
luklukan
luklukang
luksemburgo
lulan
luma
lumabag
lumaban
lumabas
lumad
lumaganap
lumagda
lumago
lumagpas
lumahok
lumakad
lumakas
lumaki
lumaking
lumala
lumalabag
lumalaban
lumalabas
lumalaganap
lumalago
lumalagong
lumalagpas
lumalahok
lumalakad
lumalakas
lumalaki
lumalaking
lumalala
lumalalang
lumalampas
lumalangoy
lumalapat
lumalapit
lumalawak
lumalawig
lumamig
lumampas
lumang
lumangoy
lumaon
lumaong
lumapag
lumapit
lumawak
lumawig
lumaya
lumayo
lumba
lumban
lumbang
lumbera
lumihis
lumiit
lumikas
lumikha
lumiko
lumilibot
lumiliit
lumilikha
lumilipad
lumilipat
lumilitaw
lumingon
lumipad
lumipas
lumipat
lumisan
lumitaw
lumot
lumpur
lumubog
lumulubog
lumulutang
lumusob
luna
lunar
lunas
lunch
lund
lundayang
lunes
luneta
lung
lungga
lungsod
lunos
lunsod
lunti
luntian
luntiang
lunting
lupa
lupain
lupaing
lupalop
lupang
lupi
lupin
lupit
lupon
lupong
lupus
lusak
lusubin
lutasin
luterano
luther
lutheran
lutherano
lutjanus
luto
lutong
lutuin
lutuing
luv
luwad
luwalhati
luxembourg
luy
luya
luyang
luz
luzerne
luzon
luzviminda
lvarez
lvn
lxx
ly
lyceum
lydia
lyell
lymphoma
lyn
lynch
lynn
lyon
lyons
lyrical
lyricist
lyrics
m
ma
maa
maaabot
maaagang
maaari
maaaring
maaasahan
maaasahang
maabot
maaga
maagang
maakit
maalaala
maalala
maalam
maalamat
maalat
maalis
maanghang
maapektuhan
maari
maaring
maarten
maasahang
maasim
maasin
maayos
mababa
mabababang
mababago
mababakas
mababang
mababangis
mababasa
mababasang
mababaw
mabagal
mabago
mabagsik
mabait
mabalacat
mabangis
mabangong
mabasa
mabato
mabatong
mabawasan
mabawi
mabayaran
mabibigat
mabibilang
mabibili
mabibilis
mabigat
mabigo
mabigyan
mabigyang
mabilang
mabili
mabilis
mabilisan
mabilisang
mabilog
mabini
mabisa
mabisang
mabitac
mabubuhay
mabubuo
mabubuting
mabuhay
mabuksan
mabulunan
mabundok
mabunga
mabuo
maburol
mabuti
mabuting
mabutong
mabuwag
mac
macabeo
macaca
macapagal
macario
macarthur
macau
macculloch
macdonald
mace
maceda
macedonia
macedonian
macerata
machado
machine
macintosh
mackenzie
macmillan
macos
macross
mactan
macuja
macy
mad
madagascar
madagaskar
madagdagan
madala
madalang
madalas
madali
madaliang
madaling
madam
madama
madame
madami
madaming
madara
maddalena
madden
maddie
made
madeira
madeleine
madidilim
madikit
madilim
madison
madla
madlang
madness
madoka
madonna
madras
madrasang
madrasta
madre
madreng
madrid
madrigal
madugong
mae
maeda
maestra
maestro
mafia
mag
maga
magaan
magaang
magaaral
magadan
magagaling
magagamit
magaganap
magagandang
magagawa
magagawang
magalang
magaling
magallanes
magalona
magamit
magamot
maganap
maganda
magandang
magasin
magasing
magaspang
magastos
magat
magatas
magawa
magawang
magazine
magbabago
magbabalik
magbabayad
magbago
magbalik
magbasa
magbawas
magbayad
magbenta
magbibigay
magbigay
magbitiw
magbubukas
magbubukid
magbukas
magbunga
magbuo
magdadala
magdagdag
magdala
magdalena
magdalo
magdamag
magdangal
magdaos
magdasal
magdeklara
magdiwang
magdudulot
magdulot
magdusa
magellan
magenta
maggie
maggiore
maghain
maghalal
maghanap
maghanda
maghari
maghatid
maghiganti
maghintay
maghiwalay
magi
magia
magic
magica
magical
magician
magiging
magiliw
maging
maginhawa
maginhawang
maginoo
maginoong
magising
magister
magiting
magka
magkaanak
magkabilang
magkagayo
magkahalong
magkahawig
magkahiwalay
magkaiba
magkaibang
magkaibigan
magkaisa
magkakadikit
magkakahiwalay
magkakaiba
magkakaibang
magkakaibigan
magkakalapit
magkakambal
magkakapatid
magkakaroon
magkakasabay
magkakasalungat
magkakasama
magkakasamang
magkakasunod
magkakatulad
magkakatumbas
magkakatunggaling
magkakaugnay
magkalapit
magkamit
magkano
magkapareho
magkaparehong
magkapatid
magkaroon
magkasabay
magkasalungat
magkasama
magkasamang
magkasanib
magkasingkahulugan
magkasintahan
magkasundo
magkasunod
magkasya
magkatulad
magkatumbas
magkaugnay
magkita
maglaan
maglabas
maglagay
maglakad
maglakbay
maglalaban
maglalabas
maglalagay
maglalaro
maglaman
maglaon
maglaro
maglathala
maglayag
magliano
maglilingkod
maglingkod
maglunsad
magluto
magma
magmahal
magmukhang
magmula
magmumula
magmungkahi
magna
magnakaw
magnanakaw
magnetic
magnetiko
magnetikong
magnetismo
magnifico
magnitud
magnitude
magnitudo
magno
magnolia
magnum
magnus
mago
magpadala
magpahanggang
magpahayag
magpahinga
magpahiwatig
magpakailanman
magpakamatay
magpakasal
magpakita
magpalabas
magpalit
magpanatili
magpapadala
magpapahintulot
magpapakasal
magpapakita
magpapatuloy
magparami
magpasa
magpasimula
magpasok
magpasya
magpataas
magpatakbo
magpatuloy
magpatupad
magreresulta
magresulta
magretiro
magsabi
magsagawa
magsalita
magsama
magsanay
magsanhi
magsasagawa
magsasaka
magsasakang
magsaysay
magsilbi
magsilbing
magsimula
magsimulang
magsisilbi
magsisilbing
magsisimula
magsulat
magsuot
magtago
magtagumpay
magtaguyod
magtakda
magtalaga
magtanggol
magtanghal
magtanim
magtanong
magtapos
magtatag
magtatapos
magtatayo
magtayo
magtipon
magtrabaho
magtungo
magturo
maguindanao
magulang
magulo
magulong
magwagi
magwakas
magwawakas
maha
mahaba
mahabang
mahabharata
mahahaba
mahahabang
mahahalaga
mahahalagang
mahahanap
mahahati
mahal
mahalaga
mahalagang
mahalal
mahalin
mahalumigmig
mahanap
maharashtra
maharlika
maharlikang
mahati
mahawa
mahawaan
mahayag
mahayahay
mahayana
mahdi
mahigit
mahigpit
mahihinang
mahihirap
mahika
mahikang
mahikayat
mahilig
mahina
mahinahon
mahinang
mahirap
mahistrado
mahiwaga
mahiwagang
mahiyain
mahmoud
mahmud
maho
mahou
mahuhusay
mahulaan
mahuli
mahulog
mahusay
mai
maibabalik
maibalik
maibara
maibigay
maibsan
maid
maiden
maigi
maiging
maigsing
maigting
maihahalintulad
maihahambing
maihatid
maiikling
maiiksing
maiinit
maiitim
maiiwasan
maiiwasang
maikli
maikling
maiksi
maiksing
maikukumpara
mail
mailabas
mailagay
mailalapat
mailalarawan
mailap
mailarawan
mailathala
mailigtas
mailipat
maimpluwensiya
maimpluwensiyang
maimpluwensyang
main
mainam
maine
maingat
maingay
mainit
mainland
mainstream
maint
maintenance
maintindihan
mainz
maipahayag
maipakita
maipalabas
maipaliwanag
maipapaliwanag
maipasa
mais
maisagawa
maisakatuparan
maisalin
maisama
maisulat
maisulong
maitaguyod
maitatag
maitayo
maitim
maituturing
maiugnay
maiwasan
maja
majayjay
major
majority
maka
makaagham
makaalis
makaapekto
makabago
makabagong
makabalik
makabayan
makabayang
makabili
makabuluhan
makabuluhang
makabuo
makadiyos
makagawa
makahanap
makaharing
makahawa
makahoy
makahulugan
makahulugang
makain
makaiwas
makakaapekto
makakagawa
makakahanap
makakain
makakakita
makakakuha
makakalaban
makakaliwang
makakamit
makakapal
makakapasok
makakasama
makakatanggap
makakatulong
makakaya
makakita
makakuha
makalabas
makalangit
makaligtas
makalikha
makalikom
makalipas
makalumang
makamandag
makamit
makamtan
makamundong
makapag
makapagbigay
makapagdulot
makapagpaparami
makapagparami
makapagpatuloy
makapagsalita
makapagtapos
makapal
makapangyarihan
makapangyarihang
makapasok
makapunta
makaraan
makaraang
makaramdam
makaranas
makarating
makasalanan
makasali
makasama
makasarili
makasaysayan
makasaysayang
makasining
makata
makatagpo
makatakas
makatang
makatanggap
makatao
makataong
makatapos
makatarungan
makatarungang
makatawid
makati
makatotohanan
makatotohanang
makatulong
makatutulong
makatuwiran
makatuwirang
makatwiran
makatwirang
make
maker
makes
maki
makialam
makibahagi
makikilala
makikilalang
makikita
makikitang
makilahok
makilala
makiling
makina
makinabang
makinang
makinarya
making
makinig
makinis
makintab
makipag
makipagkumpetensya
makipaglaban
makipagpaligsahan
makipagtalik
makipagtulungan
makipot
makita
makitang
makitid
makkah
makontrol
makoto
maksimum
makuha
makukuha
makukuhang
makukulay
makulay
makumpleto
mal
mala
malabanan
malabar
malabo
malabon
malabong
malacan
malacanang
malacca
malaganap
malagkit
malakanyang
malakas
malaki
malakias
malakihang
malaking
malala
malalakas
malalaki
malalaking
malalaktawang
malalalim
malalaman
malalambot
malalamig
malalang
malalapit
malalawak
malalayang
malalayong
malalim
malaman
malamang
malambing
malambot
malamig
malapad
malapit
malapitang
malapot
malaria
malasakit
malate
malatesta
malawak
malawakan
malawakang
malawi
malay
malaya
malayalam
malayang
malaybalay
malayo
malayong
malaysia
malaysian
malayuan
malayuang
malcolm
maldives
male
mali
maliban
malibang
maligaya
maligayang
maligtas
maliit
malik
malikha
malikhain
malikhaing
maliksi
maliligtas
maliliit
malilikha
malilimutang
malimit
malinao
malinaw
maling
malinis
malinta
malito
maliwanag
mall
malley
mallorca
malls
malnutrisyon
malolos
malone
malou
malta
malubha
malubhang
malugod
maluku
malulutas
malumanay
malungkot
malupit
malusog
malutas
malutong
maluwag
maluwalhating
maluwang
malvar
mama
mamagitan
mamahala
mamahalin
mamahaling
mamahayag
mamalya
mamalyang
mamamahala
mamamahayag
mamamana
mamamatay
mamamayan
mamamayang
mamasa
mamatay
mamay
mamaya
mamayan
mamayang
mambabasa
mambabatas
mambubuno
mami
mamili
mamimili
mamluk
mammal
mammals
mammoth
mamon
mamoru
mamuhay
mamumuhunan
mamumuno
mamuno
man
mana
manabat
management
manager
manahan
manalangin
manalasa
manalo
manaloto
manami
mananakay
mananakop
mananalaysay
mananaligsa
mananaliksik
mananalita
mananalo
mananampalataya
manananggol
mananatili
mananatiling
mananayaw
manansala
manaoag
manases
manati
manatili
manatiling
mancha
manchester
manchu
manchuria
mancini
mandal
mandaluyong
mandaragat
mandaragit
mandarin
mandato
mandaue
mandaya
mandela
mandirigma
mandirigmang
mando
mandudula
mandy
manes
manetho
mang
manga
mangaawit
mangahulugan
mangahulugang
mangailangan
mangaka
manganak
mangang
mangangabayo
mangangahoy
mangangalakal
manganganak
manganganta
mangangaral
mangangaso
mangaral
mangarap
mangasiwa
mangga
manggagalugad
manggagamot
manggagawa
manggagawang
manggas
mangguguhit
mangha
manghahalal
manghang
manghihimagsik
manghuhula
manghuli
mangilan
mangingibig
mangingisda
mangingisdang
mangkhut
mangkok
mangkukulam
mangmang
mango
mangolekta
mangudadatu
manguna
mangyan
mangyari
mangyaring
mangyayari
manhattan
manhwa
mani
mania
manika
manila
manilatimes
manin
maningning
maninila
maninipis
maninisid
maninistis
manipestasyon
manipis
manipoldo
manipoldong
manipulahin
manipulasyon
manirahan
manis
manitoba
maniwala
manlalaban
manlalakbay
manlalangoy
manlalaro
manlalarong
manlalayag
manliligaw
manlilikha
manlilikhang
manlililok
manlilimbag
mann
manning
manny
mano
manobo
manok
manolo
manong
manonood
manood
manor
mansanas
mansion
manson
mansyon
mantika
mantikilya
mantsa
mantua
manu
manual
manuel
manufacturing
manugang
manumbalik
manungkulan
manunugtog
manunula
manunulang
manunulat
manunuri
manuscript
manuskrito
manuskritong
manwal
manx
many
manya
manzano
mao
maori
map
mapa
mapabilang
mapabilis
mapabuti
mapadali
mapag
mapagbigay
mapagkukunan
mapagkukunang
mapagmahal
mapagmamasdan
mapagmamasdang
mapagmataas
mapainam
mapait
mapalad
mapalapit
mapalawak
mapalaya
mapalitan
mapaminsalang
mapanatili
mapanatiling
mapang
mapangalagaan
mapanganib
mapanghimagsik
mapanglaw
mapanirang
mapanlinlang
mapanood
mapansin
mapapakinabangan
mapapangasawa
mapapanood
mapapansin
mapapansing
mapapatunayan
mapatalsik
mapatay
mapatunayan
mapaunlad
mapaunlakan
mapayapa
mapayapang
mapframe
mapigil
mapigilan
mapili
maple
maprotektahan
maps
mapula
mapulang
mapunta
mapuntahan
mapupunta
mapupuntahan
mapusyaw
maputi
maputlang
mar
mara
maragondon
marahas
marahil
marami
maramihan
maramihang
maraming
maranao
maranasan
marangal
marangyang
marano
marapat
mararaming
mararating
marasigan
marathi
marathon
marating
maraton
marawi
marble
marburg
marc
marcel
marcela
marcelino
marcello
marcellus
marcelo
march
marche
marcion
marcionismo
marco
marcos
marcus
mardon
marduk
mare
marga
margaret
margarita
margherita
margin
marguerite
marhinal
mari
maria
mariah
marian
mariana
marianas
mariang
marianne
mariano
maricel
marie
mariel
mariing
marijuana
marikina
marikit
marilao
marilou
marilyn
marimar
marin
marina
marinduque
marine
maring
maringal
marinig
marino
marinong
mario
marion
mariposa
maririnig
maris
marisa
mariskal
marissa
maritime
marittima
mariupol
marius
mariveles
marjorie
mark
marka
markahan
markang
marker
market
marketing
markets
markle
markov
marks
markus
marky
marlene
marley
marlon
marmol
marmot
maroon
marquez
marquis
marriage
married
marry
mars
marseille
marseilles
marsh
marshal
marshall
marso
marsperseverancerover
marsupial
mart
marta
marte
martel
martes
martha
marti
martial
martian
martilyo
martin
martina
martinez
martino
martir
martires
martsa
marty
martyr
martyrs
maru
maruekos
marumi
maruming
marunong
marupok
marvel
marvelous
marvin
marx
marxismo
marxist
marxista
mary
marya
maryland
marzahn
mas
masa
masada
masagana
masaganang
masahiro
masahol
masaker
masaki
masakit
masako
masakop
masaktan
masalimuot
masama
masamang
masami
masang
masarap
masasabi
masasabing
masasalimuot
masasama
masasamang
masaya
masayahin
masayang
masayuki
masbate
mascot
masedonya
masel
maselang
masidhi
masidhing
masigasig
masigla
masiglang
masiguro
masikip
masining
masipag
masira
masisira
masjid
mask
maskara
maskot
maso
mason
masoretiko
mass
massa
massachusetts
massacre
massif
massimo
massive
master
mastering
masters
masturbasyon
masubaybayan
masugid
masukat
masulong
masungit
masuri
masusing
masusukat
masusumpungan
masyado
masyadong
mat
mata
mataas
mataba
matabang
matador
matagal
matagalang
matagpuan
matagumpay
matakot
matalas
matalik
matalim
matalino
matalinong
matalo
matamis
matamo
matanda
matandang
matang
matanggal
matanggap
matangkad
mataong
matapang
matapat
matapos
matarik
matataas
matatag
matatagpuan
matatalinong
matatalo
matatanaw
matatanda
matatandang
matatanggap
matataong
matatapos
matatas
matatawag
matawag
matayog
match
matches
mate
matematika
matematikal
matematikang
matematiko
matematikong
mateo
mater
matera
material
materials
maternal
materya
materyal
materyales
materyang
matese
math
mathbb
mathbf
mathematical
mathematics
mathrm
mati
matias
matibay
matigas
matilda
matimbang
matindi
matinding
matingkad
matinik
matisse
matitigas
matitinding
matiyak
matlin
matlovich
matnog
maton
matriks
matris
matrix
matsumoto
matsuri
matt
matteo
matter
matters
matthew
matthews
matthias
matti
matto
matugunan
matuklasan
matukoy
matulis
matulog
matulungan
matunaw
matupad
mature
matuto
matutukoy
matutulis
matutunan
matutunghayan
matuwid
matuyo
mau
maubos
maui
maulan
maulang
maulit
mauna
maunawaan
maunlad
maupo
maureen
maurice
mauricio
mauritania
mauritius
mauro
maurya
mausoleo
maute
mauunawaan
mauunlad
mawala
mawalan
mawawala
mawawalan
max
maxi
maxim
maxima
maximilian
maximo
maximum
maximus
maxwell
may
maya
mayabong
mayaman
mayamang
mayang
mayayaman
mayayamang
maybahay
maybe
mayer
mayfield
maymay
maynard
maynila
mayo
mayon
mayor
mayorga
mayoridad
mayorya
mayroon
mayroong
maysakit
maysala
mayumi
mazda
maze
mazinger
mb
mba
mbc
mbox
mbs
mc
mca
mccarthy
mccartney
mcconaughey
mccoy
mcdermott
mcdonald
mcdougal
mcduffie
mcfadden
mcfarland
mcgill
mcgraw
mckinley
mcnaught
mcrae
md
me
mean
meaning
means
meant
measure
meat
mecca
meccan
mecha
mechanical
mechanics
mecklenburg
mecq
medal
medalista
medals
medalya
medalyang
medan
medes
media
median
mediaquest
medical
medici
medicine
mediebal
medieval
medikal
medikasyon
medina
medio
medisina
medisinang
meditasyon
meditation
mediteraneo
mediteranyo
mediterranean
mediterraneo
medium
medley
medulla
medya
medyas
medyebal
medyo
mee
meek
meet
meeting
meets
meg
mega
megan
megiddo
megumi
mehikanang
mehikano
mehikanong
mehiko
mei
meiji
meimi
mein
meiosis
mekanika
mekanikal
mekanikang
mekaniko
mekaniks
mekanismo
mekanismong
mekong
mel
melanesia
melanie
melayu
melbourne
melendez
melinda
melisa
melissa
melo
melodiya
melodrama
melody
melon
melor
melvin
member
members
membrane
membrano
membranong
meme
memo
memoir
memoirs
memorandum
memorial
memories
memory
memorya
memoryal
memphis
men
menahem
mendelssohn
mendez
mendiola
mendoza
menelaus
menma
menopause
menor
mensahe
mensaheng
mensahero
menta
mental
mention
mentioned
mentor
menu
menudo
mer
meralco
mercado
mercato
mercedes
mercer
merchant
mercury
mercuryo
mercy
merdeka
meredith
meridyano
merit
merito
merkado
merkadong
merkuryo
merlin
mermaid
merneptah
mero
meron
merong
merriam
merry
meryenda
mesa
mesha
mesiyas
meson
mesopotamia
mesopotamiano
mesopotamya
mesosoiko
message
messaging
messenger
messiah
messina
mestiso
mestisong
mestizo
met
meta
metabolismo
metacritic
metal
metalikong
metallica
metalurhiya
metamorphosis
metapisika
metastasis
metcalf
meteor
meteorite
meteorological
meteorolohiya
meter
method
methodist
methods
metodo
metodong
metriko
metrikong
metro
metrong
metropolis
metropolitan
metropolitano
metropolitanong
metz
metzger
mew
mexican
mexicana
mexico
meycauayan
meyer
mez
mf
mfa
mg
mga
mgm
mhz
mi
mia
miami
michael
michel
michelangelo
michele
michelle
michigan
michiko
mick
mickey
mico
micro
microformats
micronesia
microsoft
microwave
mid
middle
midi
midnight
midrash
midya
midyang
midyebal
midyibal
midyum
mie
mig
might
mighty
migrante
migranteng
migrasyon
migration
miguel
mika
mikael
mike
mikee
mikhail
miki
miko
mikoto
mikro
mikrobiyolohiya
mikrobyo
mikroekonomika
mikroorganismo
mikropono
mikroskopikong
mikroskopyo
mikroskopyong
mil
mila
milagro
milagros
milagrosong
milan
milano
milby
mile
milenyo
miles
miley
milf
milimetro
militante
militanteng
militar
military
milk
milky
mill
millenium
millennium
miller
million
mills
milo
milon
milong
milos
milton
milwaukee
milya
milyang
milyon
milyong
milyun
mimaropa
mimi
min
mina
minahal
minahan
minaj
minamahal
minamarkahan
minami
minamoto
minana
minarkahan
minas
minatamis
minato
mind
mindanao
mindanaw
mindorensis
mindoro
mine
mineral
minero
minerva
ming
minh
mini
minima
minimoni
minimum
mining
miniseries
minister
ministers
ministeryo
ministri
ministries
ministro
ministrong
ministry
mink
minna
minneapolis
minnesota
minor
minoridad
minority
minoru
minorya
minoryang
minos
minsa
minsan
minsang
mint
minumulto
minungkahi
minute
minutes
minuto
minutong
mio
mioseno
mir
mira
miracle
miracles
mirai
miranda
mirasol
miriam
mirmo
mirror
mirumo
mirza
mis
misa
misaki
misal
misamis
misang
misato
misis
mismo
mismong
miss
missile
missing
mission
missionary
mississippi
missouri
mister
misteryo
misteryong
misteryosong
mistikal
mistiko
mistral
mistulang
misuari
misyon
misyonaryo
misyonaryong
misyonero
misyonerong
misyong
mit
mitchell
mithiin
mito
mitochondria
mitochondrial
mitolohikal
mitolohikong
mitolohiya
mitolohiyang
mitong
mitra
mitsa
mitsubishi
mitsuko
mitte
miura
mix
mixed
mixing
miya
miyagi
miyako
miyamoto
miyazaki
miyembro
miyembrong
miyerkules
miyuki
mizuki
mizuno
mj
mk
ml
mm
mmda
mmhg
mn
mnet
mnl
mnlf
mo
moa
moab
mobile
mobo
moby
moc
mocha
mod
moda
modal
modalidad
mode
model
modeling
modelo
modelong
models
modena
modenese
modern
modernisasyon
modernismo
moderno
modernong
modesto
modified
modipikasyon
modo
module
moe
mohamed
mohammad
mohammed
moi
moises
mol
molar
molave
moldova
mole
molecular
molecule
molekula
molekulang
molekular
molina
molino
molise
molly
mom
moment
moments
momentum
momo
moms
mon
mona
monaco
monarchy
monarka
monarkiya
monarkiyang
monarko
monarkong
monasteryo
monasteryong
monastiko
moncada
monday
monde
mondo
monetary
money
moneygram
mong
monggol
monghe
mongheng
mongol
mongolia
mongolian
mongoloid
mongolya
monica
monique
monitor
monkey
monkeypox
monkeys
mono
monogatari
monopolyo
monoteismo
monoteistiko
monotheism
monotreme
monotype
monreal
monroe
mons
monsoon
monster
monsters
montalban
montalto
montana
montano
monte
montefeltro
montejo
monteleone
montenegro
montero
montes
montessori
montgomery
month
monthly
months
monti
montre
montreal
montserrat
monument
monumental
monumento
monumentong
monuments
mood
moog
moon
moonlight
moore
mor
mora
moral
morales
moralidad
moran
moras
more
morena
moreno
morga
morgan
mori
morioka
moritz
morley
mormon
mormonismo
morning
moro
moroccan
morocco
moroko
morong
morpolohikal
morpolohiya
morris
morrison
morrissey
morse
mortal
mortalidad
morton
mos
mosaic
moscow
moses
moske
mosku
mosque
moss
most
mosyon
moth
mother
motibasyon
motibo
motif
motion
moto
motor
motorista
motors
motorsiklo
motorsports
motown
motto
motu
mound
mount
mountain
mountains
mouse
mouskouri
mouth
move
moved
movement
movements
moves
movie
movies
moving
mozambique
mozart
mozzarella
mp
mpg
mph
mr
mrkos
mrna
mrs
mrt
mrtc
mrx
ms
msc
msgr
msn
mt
mtdna
mtk
mtrcb
mtv
mu
muang
muban
much
mueang
mughal
muh
muhammad
muhlach
mujer
mukha
mukhang
mukosa
mula
mulawin
muli
muling
multa
multi
multimedia
multinasyonal
multinasyunal
multiplayer
multiple
multiplikasyon
multiply
multiselular
multo
multong
mumbai
mummy
mun
muna
munang
mundo
mundong
munggo
mungkahi
mungkahing
muni
munich
municipal
municipalita
municipalities
municipality
municipio
munisipal
munisipalidad
munisipyo
munti
muntik
munting
muntinlupa
muog
muon
mura
murakami
mural
muramatsu
murang
muratorian
murcia
murder
murderer
muro
muromachi
murphy
murray
mus
musa
musashi
musashino
muscle
muse
museo
museong
museum
museyo
mushroom
music
musical
musician
musicians
musika
musikal
musikang
musikero
musikerong
musiko
musikong
muslim
muslims
mussolini
must
mustasa
musume
mut
mutant
mutantes
mutasyon
mutasyong
mutation
mutual
mutya
muwebles
mv
mvp
mw
mx
my
mya
myanmar
mycena
myembro
myeon
myers
mylene
myo
myrna
myself
myspace
mysterious
mystery
mystic
myth
mythology
myths
myung
myx
n
na
naaakit
naaalala
naaangkop
naaapektuhan
naaayon
naabot
naabutan
naacp
naagaw
naakay
naakit
naalala
naalis
naantala
naapektuhan
naaprubahan
naaresto
naatasan
naatasang
naayon
naayos
nababagay
nababago
nababahala
nababalot
nababaluktot
nababalutan
nababanggit
nababasa
nababatay
nababawasan
nabago
nabagong
nabalisa
nabalitaan
nabanggit
nabaril
nabasa
nabasag
nabatid
nabawasan
nabawasang
nabawi
nabe
nabenta
nabibigyan
nabibilang
nabigador
nabigasyon
nabighani
nabigo
nabigong
nabigyan
nabigyang
nabihag
nabilanggo
nabili
nabinyagan
nabla
nabonidus
nabua
nabubuhay
nabubulok
nabubuo
nabubuong
nabucodonosor
nabudonosor
nabuhay
nabuksan
nabuntis
nabuo
nabuong
nabuwag
nachi
nacino
nacional
nacionalista
nadadala
nadagdag
nadagdagan
nadakip
nadala
nadama
nadarama
nadia
nadine
nadiskubre
nadistiyerong
nadu
nag
naga
nagagalit
nagagamit
nagaganap
nagagawa
nagagawang
nagai
nagalit
nagambala
nagamit
naganap
nagano
nagapi
nagar
nagasaki
nagawa
nagawang
nagawaran
nagbabadyang
nagbabagang
nagbabago
nagbabagong
nagbabahagi
nagbabala
nagbabalak
nagbabalik
nagbabanggit
nagbabanta
nagbabantay
nagbabasa
nagbabawal
nagbabawas
nagbabayad
nagbago
nagbagong
nagbahagi
nagbalik
nagbanggit
nagbanta
nagbawas
nagbayad
nagbebenta
nagbenta
nagbibigay
nagbibigkis
nagbibilang
nagbigay
nagbitiw
nagboboses
nagboses
nagbubuhat
nagbubukas
nagbubunga
nagbubuo
nagbuhat
nagbukas
nagbunga
nagbunsod
nagbuo
nagcarlan
nagdaan
nagdaang
nagdadagdag
nagdadala
nagdadalamhati
nagdagdag
nagdala
nagdaos
nagdaragdag
nagdarasal
nagdebut
nagdeklara
nagdesisyon
nagdidisenyo
nagdiriwang
nagdisenyo
nagdiwang
nagdududa
nagdudugtong
nagdudulot
nagdulot
nagdurugtong
nagdurulot
nagdurusa
nagdusa
nagebolb
nagging
naghagis
naghahain
naghahanap
naghahanapbuhay
naghahanda
naghahangad
naghahanggan
naghahari
naghaharing
naghahati
naghahatid
naghahayag
naghain
naghanap
naghanapbuhay
naghanda
naghandog
naghangad
naghari
naghati
naghatid
naghayag
naghihikayat
naghihintay
naghihirap
naghihiwalay
naghimagsik
naghintay
naghiwalay
nagho
naghudyat
naghuhudyat
nagi
nagiging
nagiisang
naging
nagisa
nagising
nagiwan
nagkabisa
nagkaisa
nagkakahalaga
nagkakahalagang
nagkakaiba
nagkakaisa
nagkakaisang
nagkakaloob
nagkakamali
nagkakamit
nagkakaroon
nagkakasala
nagkakilala
nagkalat
nagkaloob
nagkamali
nagkamit
nagkaroon
nagkasakit
nagkasala
nagkasama
nagkasundo
nagkataon
nagkataong
nagkatawang
nagkita
nagkokodigo
nagkokodigong
nagkokonekta
nagkomento
nagkrusada
nagkukulang
naglaan
naglaban
naglabas
naglagay
naglaho
naglakad
naglakbay
naglalaan
naglalaban
naglalabas
naglalagay
naglalahad
naglalaho
naglalahok
naglalakad
naglalakbay
naglalakihang
naglalaman
naglalapat
naglalarawan
naglalaro
naglalathala
naglalayag
naglalayon
naglalayong
naglaman
naglandfall
naglaon
naglarawan
naglaro
naglatag
naglathala
naglayag
naglibot
nagligtas
naglikha
naglilimita
naglilingkod
naglilipat
naglimbag
naglingkod
naglipat
naglunsad
nagmamahal
nagmamaneho
nagmamarka
nagmamasid
nagmamay
nagmarka
nagmartsa
nagmula
nagmumula
nagmumungkahi
nagmumungkahing
nagmungkahi
nagmungkahing
nagnais
nagnakaw
nagnanais
nagnanakaw
nagngangahulugang
nagngangalang
nagniningas
nagorno
nagoya
nagpa
nagpaalam
nagpabago
nagpabagsak
nagpadala
nagpahayag
nagpahina
nagpahintulot
nagpahiwatig
nagpakamatay
nagpakasal
nagpakilala
nagpakita
nagpakitang
nagpalabas
nagpalagay
nagpalaki
nagpalawak
nagpalaya
nagpalit
nagpalitaw
nagpanatili
nagpangalan
nagpanggap
nagpanukala
nagpapaalala
nagpapababa
nagpapabawas
nagpapabuti
nagpapadala
nagpapadali
nagpapagaling
nagpapagana
nagpapahayag
nagpapahinga
nagpapahintulot
nagpapahiwatig
nagpapakilala
nagpapakita
nagpapakitang
nagpapalabas
nagpapalagay
nagpapalakas
nagpapalawig
nagpapalit
nagpapalitan
nagpapaliwanag
nagpapanatili
nagpapanggap
nagpaparami
nagpapasa
nagpapasalamat
nagpapasya
nagpapataas
nagpapatakbo
nagpapatibay
nagpapatotoo
nagpapatuloy
nagpapatunay
nagpapatupad
nagpapawalang
nagpapayo
nagpaplano
nagpaputok
nagpasa
nagpasikat
nagpasimula
nagpasimuno
nagpasiya
nagpasok
nagpasya
nagpasyang
nagpataas
nagpatakbo
nagpatalsik
nagpataw
nagpatawag
nagpatayo
nagpatibay
nagpatiwakal
nagpatotoo
nagpatuloy
nagpatunay
nagpatupad
nagpaunlad
nagpinta
nagpipigil
nagplano
nagpo
nagpoprotesta
nagpositibo
nagprotesta
nagpulong
nagpunta
nagpupulong
nagpupunta
nagreklamo
nagrekord
nagreresulta
nagreresultang
nagresulta
nagresultang
nagretiro
nagsaad
nagsabi
nagsabing
nagsagawa
nagsalaysay
nagsalin
nagsalita
nagsama
nagsampa
nagsanay
nagsanga
nagsanhi
nagsanib
nagsara
nagsasaad
nagsasaalang
nagsasaayos
nagsasabi
nagsasabing
nagsasagawa
nagsasakdal
nagsasalaysay
nagsasalin
nagsasalita
nagsasalitang
nagsasalo
nagsasama
nagsasanay
nagsasangkot
nagsasanhi
nagsasanib
nagsasara
nagsasarili
nagsasariling
nagsiganap
nagsilang
nagsilbi
nagsilbing
nagsimula
nagsimulang
nagsisi
nagsisikap
nagsisilbi
nagsisilbing
nagsisimba
nagsisimula
nagsisimulang
nagsiwalat
nagsulat
nagsulong
nagsumite
nagsuot
nagsusulat
nagsusulong
nagsusumikap
nagsusuot
nagsusuri
nagtaas
nagtagal
nagtaglay
nagtago
nagtagumpay
nagtaguyod
nagtahan
nagtakda
nagtaksil
nagtala
nagtalaga
nagtalo
nagtamasa
nagtamo
nagtampok
nagtanggal
nagtanghal
nagtangka
nagtangkang
nagtanim
nagtanong
nagtapos
nagtataas
nagtatag
nagtatagal
nagtataglay
nagtatago
nagtatagpo
nagtataguyod
nagtatakda
nagtatala
nagtatalaga
nagtatalik
nagtatamasa
nagtatampok
nagtatanggol
nagtatanghal
nagtatangi
nagtatangka
nagtatangkang
nagtatanim
nagtatanong
nagtatapos
nagtatatag
nagtatayo
nagtatrabaho
nagtayo
nagtipon
nagtitinda
nagtitipon
nagtrabaho
nagtratrabaho
nagtulak
nagtuloy
nagtungo
nagturo
nagtutulak
nagtutulungan
nagtuturo
nagugutom
naguilian
nagulat
nagumpisa
nagustuhan
nagwagi
nagwaging
nagwakas
nagwawakas
nahaharap
nahahati
nahahawig
nahalal
nahanap
naharap
nahati
nahatulan
nahawaan
nahayag
nahihirapan
nahihiwalay
nahihiya
nahikayat
nahinto
nahirang
nahirapan
nahiwalay
nahuatl
nahuhuli
nahuhulog
nahukay
nahulaan
nahuli
nahuling
nahulog
nahum
nai
naia
naiambag
naibalik
naibenta
naibigay
naic
naidagdag
naihalal
naihatid
naihiwalay
naiiba
naiibang
naiimpluwensiyahan
naiimpluwensyahan
naiintindihan
naiisip
naik
nailabas
nailagay
nailalabas
nailalarawan
nailarawan
nailathala
nailigtas
nailimbag
nailipat
nailuklok
nailunsad
naimbento
naimpluwensiyahan
naimpluwensyahan
naingatan
nainkorporadang
naipakilala
naipakita
naipakitang
naipalabas
naipanalo
naipapasa
naipasa
naipit
naipon
nairobi
nais
naisabatas
naisagawa
naisakatuparan
naisalin
naisama
naisasalin
naisin
naisip
naisipan
naisulat
naitaas
naitala
naitalaga
naitalagang
naitalang
naitampok
naitatag
naitayo
naiugnay
naiulat
naiuugnay
naiwan
naiwang
najera
naka
nakaabot
nakaakit
nakaangat
nakaapekto
nakaayos
nakababata
nakababatang
nakabalik
nakabalot
nakabaluktot
nakabase
nakabatay
nakabenta
nakabigkis
nakabilang
nakabinbin
nakabitin
nakabukas
nakabukod
nakabuo
nakadamit
nakadepende
nakadikit
nakadirekta
nakadugtong
nakagagawa
nakagapos
nakagawa
nakagawian
nakagawiang
nakagisnang
nakahahawang
nakahanap
nakahanay
nakahanda
nakaharap
nakahawak
nakahiga
nakahihigit
nakahimlay
nakahimpil
nakahiwalay
nakaimbak
nakaimpluwensiya
nakaka
nakakaakit
nakakaalam
nakakaapekto
nakakabatang
nakakabit
nakakagawa
nakakagulat
nakakahawa
nakakahawang
nakakaimpluwensiya
nakakain
nakakaing
nakakakita
nakakakuha
nakakalason
nakakalat
nakakalipas
nakakamatay
nakakamit
nakakapag
nakakapagsalita
nakakapinsala
nakakaraan
nakakaramdam
nakakaranas
nakakasakit
nakakatakot
nakakatanda
nakakatandang
nakakatanggap
nakakatawa
nakakatawang
nakakatugon
nakakatulong
nakakita
nakakonekta
nakakontrata
nakakuha
nakakulong
nakalaan
nakalabas
nakalagak
nakalagay
nakalakip
nakalalason
nakalalasong
nakalantad
nakalap
nakalarawan
nakalatag
nakalaya
nakaligtas
nakalikha
nakalikom
nakalilikha
nakalilipas
nakalimbag
nakalimutan
nakalipas
nakalista
nakalubog
nakaluklok
nakamamatay
nakamit
nakamoto
nakamtan
nakamura
nakansela
nakapag
nakapagbenta
nakapagbibigay
nakapagbigay
nakapagdurulot
nakapaglaro
nakapagpapagaling
nakapagpatuloy
nakapagsasalita
nakapagsulat
nakapagtala
nakapagtapos
nakapailalim
nakapalibot
nakapaligid
nakapaloob
nakapangalan
nakapasa
nakapasok
nakapatay
nakapatong
nakapipinsalang
nakapirmeng
nakapirming
nakaplanong
nakapokus
nakaposisyon
nakapuwesto
nakar
nakaraan
nakaraang
nakaramdam
nakaranas
nakaranggo
nakararaan
nakararami
nakararaming
nakararanas
nakarating
nakarehistro
nakarinig
nakasaad
nakasabit
nakasakay
nakasaksi
nakasalalay
nakasali
nakasalig
nakasalubong
nakasama
nakasanayan
nakasara
nakasarang
nakasasanhi
nakasentro
nakasulat
nakasuot
nakataas
nakatago
nakatagong
nakatagpo
nakatakas
nakatakda
nakatakdang
nakatala
nakatalaga
nakatalagang
nakatalang
nakatali
nakatanggap
nakatanghal
nakatapos
nakatataas
nakatatanda
nakatatandang
nakatayo
nakatayong
nakatiklop
nakatira
nakatuklas
nakatulog
nakatulong
nakatuon
nakatutok
nakatutulong
nakaugalian
nakaugaliang
nakaugnay
nakaukit
nakaupo
nakaupong
nakawin
naked
nakhon
nakibahagi
nakiisa
nakikibahagi
nakikilahok
nakikilala
nakikilalang
nakikinabang
nakikinig
nakikipag
nakikipagkumpitensya
nakikipaglaban
nakikipagtalik
nakikipagtulungan
nakikita
nakikitang
nakikitungo
nakilahok
nakilala
nakilalang
nakinabang
nakinig
nakipag
nakipagkasundo
nakipagkita
nakipagkumpitensya
nakipaglaban
nakipagpaligsahan
nakipagtulungan
nakita
nakitaan
nakitang
nakiusap
nakolekta
nakontrol
nakoronahan
nakpil
nakuha
nakuhang
nakukuha
nakulong
nakumbinsi
nakumpirma
nakumpirmang
nakumpleto
nakunan
nalagay
nalalabi
nalalabing
nalalaman
nalalamang
nalalapat
nalalapit
nalaman
nalampasan
nalang
nalantad
nalathala
naligtas
nalikha
nalikhang
nalikom
nalilikha
nalimbag
nalinang
nalipat
nalipol
naluklok
nalulutas
nalungkot
nalunod
nalusaw
nalutas
nam
nama
namagitan
namahala
namalagi
namamagang
namamagitan
namamahagi
namamahala
namamahalang
namamalagi
namamana
namamanang
namamatay
namamayani
namamayaning
naman
namana
namang
namangan
namangha
namataan
namatay
namath
namayani
namco
name
named
names
namfrel
namibia
namie
namimili
namin
naming
naminsala
namuhay
namuhunan
namumuhay
namumuhunan
namumukod
namumulaklak
namumuno
namumunong
namumuong
namuno
namuo
namuong
namwon
nan
nana
nanaig
nanalangin
nanalasa
nanalo
nanalong
nananahan
nananaig
nananalangin
nananalig
nananatili
nananatiling
nanatili
nanatiling
nanawagan
nanay
nancy
nandayuhan
nandito
nando
nandoon
nang
nangailangan
nangako
nangakong
nangaling
nangamatay
nanganak
nangangahulugan
nangangahulugang
nangangailangan
nangangailangang
nangangako
nangangalaga
nangangalang
nanganganib
nangangaral
nangangasiwa
nangangaso
nangangatwiran
nangaral
nangasiwa
nangatwiran
nangatwirang
nanggagaling
nanggaling
nangibabaw
nangingibabaw
nanginginig
nangingitlog
nangka
nangongolekta
nanguna
nangunang
nangunguna
nangungunang
nangungupahan
nangyari
nangyaring
nangyayari
nangyayaring
nanilbihan
naninigarilyo
naninirahan
naninirahang
naniniwala
naniniwalang
nanirahan
naniwala
naniwalang
nanjing
nanking
nano
nanoha
nanomina
nanonood
nanoteknolohiya
nantes
nanumbalik
nanumpa
nanungkulan
nanunungkulan
nanunungkulang
nanyang
naobserbahan
naoki
naomi
napabalitang
napabayaan
napabilang
napabuti
napadpad
napag
napagdesisyunan
napagkasunduan
napagkukunan
napagmasdan
napagmasdang
napagod
napagpasyahan
napagtanto
napagwagian
napailalim
napaka
napakabata
napakabilis
napakaganda
napakagandang
napakahabang
napakahalaga
napakahalagang
napakahirap
napakahusay
napakalakas
napakalaki
napakalaking
napakalapit
napakalawak
napakaliit
napakapopular
napakarami
napakaraming
napakataas
napalabas
napalaya
napaliligiran
napalitan
napanalunan
napanatili
napangalanan
napangasawa
napanood
napansin
napapabilang
napapailalim
napapalibutan
napapaligiran
napapaloob
napapanahon
napapanahong
napapanatili
napapanatiling
napapanood
napapansin
napapatunayan
naparito
napasailalim
napasakamay
napasama
napaslang
napasok
napatalsik
napatay
napatunayan
napatunayang
napaunlad
napawalang
napetsahan
napier
napigilan
napili
napiling
napilitan
napilitang
napinsala
napinsalang
naples
napo
napocor
napoleon
napoleoniko
napoles
napoli
napolitano
napolitanong
napukaw
napuno
napunta
napuntahan
napupuno
napupunta
naputol
nara
naraka
naramdaman
naranasan
narangha
nararamdaman
nararanasan
nararanggo
nararapat
narating
narciso
narcos
narda
narin
narinig
naririnig
naririto
narita
narito
nariyan
naro
naroon
naroroon
narra
narrative
narrator
nars
narsing
naruhito
naruto
nas
nasa
nasaan
nasabi
nasabing
nasagip
nasakop
nasaksihan
nasaktan
nasal
nasalanta
nasama
nasamsam
nasangkot
nasasakdal
nasasakop
nasasakupan
nasasakupang
nasasangkot
nasawi
nascar
nash
nashville
nasi
nasimulan
nasipit
nasira
nasirang
nasisira
nasisiyahan
nasiyahan
nasr
nasubok
nasugatan
nasugbu
nasulat
nasumpungan
nasundan
nasunog
nasuri
nasuspinde
nasusukat
nasusulat
nasusunog
nasyon
nasyonal
nasyonalidad
nasyonalismo
nasyonalismong
nasyonalista
nasyonalistang
nat
nata
natagpuan
natagpuang
natakot
natakpan
natalia
natalie
natalo
natama
natamo
natamong
natanggal
natanggap
natanto
natapos
natasha
natatag
natatagpuan
natatakot
natatakpan
natatanggap
natatangi
natatanging
natatapos
natatawag
nate
nathan
nathaniel
natibidad
natigil
natin
nating
nation
national
nationale
nationalist
nations
nationwide
natipon
natira
natirang
natitira
natitirang
natitiyak
native
natividad
natiyak
nato
natoli
natsu
natsume
natsumi
natuklasan
natuklasang
natukoy
natulog
natuloy
natunaw
natupad
natural
naturalista
naturang
nature
naturing
natuto
natutong
natutuhan
natutuklasan
natutukoy
natutulog
natutunan
natutunaw
natutupad
natututo
natuwa
natuyo
naubos
naubusan
nauchnij
naulila
nauna
naunang
naunawaan
naupo
nauru
nautical
nauugnay
nauukol
nauuna
nauunawaan
nauuri
nauwi
navajo
naval
navarre
navarro
navotas
navy
nawa
nawala
nawalan
nawalang
nawasak
nawawala
nawawalan
nawawalang
naya
nayon
nayong
nazareno
nazareth
nazi
nazionale
nb
nba
nbc
nbi
nbn
nc
ncaa
ncbi
ncca
nchez
ncia
ncipe
ncr
nct
nd
nde
ndez
ndola
ndrrmc
ne
neal
neanderthal
neanderthalensis
near
neat
neberg
nebraska
nebula
necho
neck
ned
neda
need
needs
needville
negatibo
negatibong
negative
negi
negima
negosasyon
negosyante
negosyanteng
negosyo
negosyong
negrito
negro
negros
neil
neill
neko
nekropolis
nel
nell
nella
nelson
nem
nen
nena
nene
neneng
nenets
neo
neoklasiko
neoklasikong
neolitiko
neolohismo
neon
nepal
nepali
nepomniachtchi
nepomuceno
nepotismo
neptune
neptuno
ner
nera
nerbiyos
nerbyos
neri
nero
nersborg
nerve
nervous
nes
nestle
nestor
nestorio
nestorius
net
netflix
netherlands
neto
netong
network
networking
networks
neue
neujmin
neumann
neural
neuron
neurotransmitter
neutral
neutrino
neutron
neutrons
nevada
never
nevi
neville
new
newark
newcastle
newfoundland
newman
newnode
newport
news
newscast
newsinfo
newsletter
newspaper
newspapers
newton
next
nextel
nez
nf
nfl
ng
nga
ngala
ngalan
ngalang
ngang
ngayo
ngayon
ngayong
ngc
ngel
ngilang
ngipin
ngiping
ngiti
ngo
ngum
nguni
ngunit
nguso
nguye
nguyen
nh
nha
nhcp
nhk
ni
nia
nica
nicaea
nicanor
nicaragua
niccolo
nice
nicene
niceno
niche
nicholas
nichols
nicholson
nick
nickelodeon
nicki
nicky
nico
nicola
nicolas
nicole
nicomedia
nicosia
nida
nido
nie
niels
nielsen
nieto
nietzsche
nieves
nig
niger
nigeria
nigerian
night
nightclub
nightingale
nightmare
nights
nigsberg
nih
nihilismo
nihon
niigaki
niigata
nika
nikaya
nike
nikel
nikki
nikko
nikolai
nikolay
nila
nilabag
nilabanan
nilabas
nilagang
nilagay
nilagdaan
nilagpasan
nilagyan
nilahukan
nilalabas
nilalagay
nilalagyan
nilalahad
nilalaman
nilalamang
nilalang
nilalanghap
nilalapat
nilalarawan
nilalaro
nilalathala
nilalayon
nilalayong
nilamon
nilang
nilapat
nilapitan
nilarawan
nilathala
nilay
nilayon
nilayong
nile
nilikha
nilikhang
nililikha
nililimitahan
nililinyahan
nilimbag
nilinang
nilinaw
nilinis
nilinlang
nilipat
nilisan
nilitis
nilo
niluluto
nilunsad
nilusob
niluto
nilutong
nin
nina
ninais
ninakaw
ninakawan
ninanais
ninang
nine
nineveh
ning
ningning
ninh
ninja
nino
ninong
ninoy
nintendo
ninth
ninuno
ninunong
ninurta
ninyo
ninyong
nio
nipa
nippon
nippur
niranggo
niraranggo
nirekord
nirepresentahan
nirerekomiyenda
nirva
nirvana
nis
nisan
niseno
nishi
nissin
nite
nito
nitong
nitrogen
nitroheno
nitso
niu
niv
nixon
niya
niyakap
niyang
niyanig
niyebe
niyog
niyon
nj
njan
nk
nl
nlex
nlm
nm
nme
nmi
nn
no
noah
nob
nobel
nobela
nobelang
nobelista
nobelistang
nobita
noble
nobody
nobunaga
nobya
nobyembre
nobyo
noc
nocera
noche
node
nodo
nodong
noe
noel
nogales
nogueira
noh
noise
nokia
nola
nolan
noli
nomenclature
nominado
nominal
nominasyon
nominasyons
nominated
nominations
non
nona
none
nong
nonong
nonsyndromic
noo
noodle
noodles
noon
noong
nooong
nor
nora
norberto
nord
nordic
nordiko
norfolk
nori
noriko
norm
norma
normal
norman
normandia
normando
normandong
normatibong
norris
norse
norte
north
northeast
northeastern
northern
northrail
northwest
northwestern
norton
noruwega
noruwego
noruwegong
norway
norwega
norwegian
norwich
norzagaray
nos
nossa
nosyon
not
nota
notable
notasyon
notasyong
note
notebook
noted
notes
nothing
noto
notre
nottingham
nous
nouveau
nov
nova
novak
novaliches
novara
novel
novela
noveleta
november
novgorod
novi
novo
novum
now
noynoy
nozomi
np
npa
npc
npr
nr
ns
nsan
nt
ntc
ntt
ntv
nu
nubia
nuclear
nuclei
nucleon
nucleotide
nucleus
nue
nuestra
nueva
nuevo
nuklear
nukleo
nukleyar
nukleyo
nukleyosida
nukleyus
null
num
numa
number
numbered
numbers
numerador
numeral
numerikal
numero
numerong
nun
nung
nuno
nuong
nuoro
nuova
nuovo
nur
nuremberg
nurse
nursery
nursing
nut
nutrisyon
nutrition
nuts
nv
ny
nya
nyan
nyang
nyc
nylon
nys
nytimes
nyu
nz
o
oak
oakland
oaks
oam
oasis
oav
oaxaca
ob
obama
obando
obaryo
obhektibong
obhekto
obhektong
obi
obispado
obispo
obispong
object
objects
oblast
obligasyon
obra
obrang
obs
obserbahan
obserbasyon
obserbatoryo
observatory
observer
oc
ocampo
occidental
ocean
oceania
oceanic
och
ochoa
oclc
oct
octavio
october
od
oda
odas
odd
ode
oder
odette
odin
odiseo
odisyon
odo
odysseus
odyssey
oe
oecd
oedipus
of
ofel
off
offensive
offer
offers
office
officer
officers
offices
official
officially
officials
offshore
often
ofw
og
ogawa
ogie
ogliastra
oh
ohio
oil
ois
oise
oizumi
ok
oka
okasyon
okasyong
okay
okazaki
okey
okinawa
oklahoma
okrug
oksido
oksiheno
okt
oktobre
oktubre
okutama
ol
ola
olanda
olandes
olbia
old
older
oldest
ole
oleracea
olga
oli
oliba
olibo
oligarkiya
olimpiko
olimpikong
olimpiyada
olive
oliver
olivia
olivier
olongapo
olsen
olympia
olympiad
olympian
olympic
olympics
olympus
om
oman
omar
ombudsman
omega
omg
omicron
ompong
omri
on
once
oncorhynchus
ondoy
ondr
one
ones
ong
onias
online
only
onna
ono
ontario
ontolohiya
oo
oohira
ooo
oopera
oorganisa
op
open
opening
opens
opensa
opensiba
opensibang
opera
operador
operando
operang
operasyon
operasyong
operate
operating
operation
operations
operator
operatorname
opinion
opinyon
opiser
opisina
opisinang
opisyal
opisyales
oplan
opm
oportunidad
oportunistikong
oposisyon
opposite
opposition
oprah
opsiyon
opsyon
opsyonal
optic
optical
optics
optika
optikal
optimal
optimisasyon
option
opus
opyo
or
ora
orakulo
oral
orange
orangutan
oras
orasan
orasang
oratoryo
orbit
orbital
orbito
orchestra
orden
ordeng
order
orders
ordinal
ordinansa
ordinary
ordinaryo
ordinaryong
ordovician
ore
oregon
org
organ
organelo
organic
organiko
organikong
organisa
organisado
organisadong
organisasyon
organisasyong
organisation
organismo
organismong
organization
organizations
organized
organizer
organizing
organo
organong
orgasmo
ori
oricon
orient
oriental
orientasyon
orientation
oriented
origen
origin
original
originally
originals
origins
orihinal
orion
oristano
orkestra
orlando
orleans
ormoc
oro
orochimaru
oropesa
orosa
orsini
ortega
orthodox
ortigas
ortiz
orto
ortodoksiya
ortodoksiyang
ortodokso
ortodoksong
ortogonal
ortograpiya
ortograpiyang
ortona
orvieto
oryentasyon
oryentasyong
os
osa
osaka
osama
osamu
oscar
osco
oseas
oshima
osiris
oslo
osm
osmen
osmena
oso
osong
osorio
osorkon
ospital
ossola
ost
ostia
ostra
ostrogodo
oswald
ot
otaku
otel
oterma
other
others
otherwise
otis
otoko
otomano
otome
otomo
otoridad
otso
ottawa
otto
ottoman
ou
our
ours
ousia
out
outbreak
outer
outlet
outlook
output
outreach
outside
outstanding
ov
ova
over
overall
overline
overseas
overtime
overview
ovid
owen
owens
owl
own
owned
owner
oxford
oxide
oxygen
oz
ozamiz
ozone
p
pa
paa
paalala
paalam
paalis
paalisin
paanan
paang
paano
paanong
paanyaya
paaralan
paaralang
paatras
pababa
pababang
pabago
pabagsakin
pabagu
pabahay
pabalat
pabalik
pabango
pabigat
pabilog
pablo
pabo
pabor
paborableng
paboreal
paborito
paboritong
pabrika
pabula
pabutihin
pabuya
pac
pace
pacheco
paciano
pacific
pacita
pack
package
packet
paco
pacquiao
pad
padala
padang
pader
padilla
padova
padre
padron
padua
padyak
paeng
paete
pag
pagaaral
pagaari
pagadian
pagala
pagalingin
pagamutan
pagandahan
paganismo
pagano
paganong
pagasa
pagatake
pagawaan
pagawain
pagawaing
pagba
pagbaba
pagbabago
pagbabagong
pagbabahagi
pagbabakuna
pagbabalangkas
pagbabalik
pagbabalita
pagbabangko
pagbabanta
pagbabantay
pagbabasa
pagbabasbas
pagbabawal
pagbabawas
pagbabayad
pagbabaybay
pagbagay
pagbago
pagbagsak
pagbaha
pagbalik
pagbaluktot
pagbanggit
pagbangon
pagbaril
pagbasa
pagbasang
pagbati
pagbatikos
pagbawas
pagbawi
pagbayad
pagbaybay
pagbebenta
pagbenta
pagbibigay
pagbibigkis
pagbibihis
pagbibilang
pagbibinata
pagbibinyag
pagbibisikleta
pagbibitiw
pagbibiyahe
pagbigay
pagbigkas
pagbilang
pagbili
pagbisita
pagbitay
pagbiyahe
pagbobomba
pagbomba
pagboto
pagbubuhat
pagbubuhos
pagbubukas
pagbubukod
pagbubuntis
pagbubunyi
pagbubuo
pagbubuwis
pagbuga
pagbuhay
pagbuhos
pagbukas
pagbuo
pagbura
pagbuti
pagbutihin
pagbuwag
pagdaan
pagdadagdag
pagdadala
pagdadalaga
pagdadalangtao
pagdadalisay
pagdadausan
pagdagdag
pagdagsa
pagdaka
pagdakip
pagdala
pagdalaw
pagdalo
pagdaloy
pagdami
pagdaragdag
pagdaraos
pagdarasal
pagdating
pagdedeklara
pagdeklara
pagdidisenyo
pagdikit
pagdinig
pagdiriwang
pagdisenyo
pagdududa
pagdukot
pagdumi
pagdurugo
pagdurusa
page
pageant
pages
paggabay
paggagamot
paggalang
paggalaw
paggaling
paggalugad
paggamit
paggamot
paggana
pagganap
paggasta
paggastos
paggawa
paggawad
paggaya
paggising
pagguhit
pagguho
paggunita
paggupit
paghabol
paghagod
paghahabi
paghahabol
paghahagis
paghahain
paghahalo
paghahambing
paghahanap
paghahanda
paghahandog
paghahangad
paghaharap
paghahari
paghahati
paghahatid
paghahating
paghahayag
paghalal
paghalik
paghalili
paghaliling
paghampas
paghanap
paghanga
paghango
pagharang
pagharap
paghati
paghatol
paghawak
paghihiganti
paghihigpit
paghihikayat
paghihimagsik
paghihintay
paghihirap
paghihiwalay
paghikayat
paghila
paghimok
paghina
paghinga
paghingi
paghinto
paghipo
paghiram
paghirang
paghiwa
paghiwalay
paghiwalayin
pagho
paghubog
paghuhubog
paghuhugas
paghuhukay
paghuhukom
paghula
paghuli
pagibig
pagiging
pagitan
pagitang
pagka
pagkaakay
pagkaalipin
pagkaantala
pagkababae
pagkabahala
pagkabalisa
pagkabanggit
pagkabata
pagkabigo
pagkabihag
pagkabilanggo
pagkabit
pagkabuhay
pagkabulag
pagkabulok
pagkabuo
pagkadismaya
pagkadiyos
pagkagambala
pagkagusto
pagkahalal
pagkahawa
pagkahilig
pagkahilo
pagkahulog
pagkahumaling
pagkain
pagkaing
pagkaka
pagkakaalam
pagkakaayos
pagkakabahagi
pagkakabanggit
pagkakabihag
pagkakabilanggo
pagkakabit
pagkakabuo
pagkakagawa
pagkakahalintulad
pagkakahanay
pagkakahati
pagkakahating
pagkakahawig
pagkakahirang
pagkakahiwalay
pagkakaiba
pagkakaibang
pagkakaibigan
pagkakaisa
pagkakaisang
pagkakakilala
pagkakakilanlan
pagkakakilanlang
pagkakakulong
pagkakalagay
pagkakalantad
pagkakalat
pagkakalikha
pagkakalimbag
pagkakalinya
pagkakaloob
pagkakamali
pagkakamaling
pagkakamit
pagkakapantay
pagkakapareho
pagkakaroon
pagkakasakit
pagkakasala
pagkakasangkot
pagkakasapi
pagkakasulat
pagkakasundo
pagkakasunod
pagkakasunud
pagkakataon
pagkakataong
pagkakatapon
pagkakatatag
pagkakatawan
pagkakatawang
pagkakatugma
pagkakatuklas
pagkakatulad
pagkakatumbas
pagkakaugnay
pagkakaunawa
pagkakaunawaan
pagkakautang
pagkakawasak
pagkakita
pagkakulong
pagkalalaki
pagkalantad
pagkalap
pagkalason
pagkalat
pagkalipas
pagkalipol
pagkalito
pagkalkula
pagkalooban
pagkalugi
pagkalulong
pagkamalikhain
pagkamamamayan
pagkamamamayang
pagkamartir
pagkamatay
pagkamayabong
pagkamit
pagkamuhi
pagkamulat
pagkansela
pagkanta
pagkapagod
pagkapanalo
pagkapanganak
pagkapangulo
pagkapapa
pagkapari
pagkaraan
pagkaraang
pagkasiphayo
pagkasira
pagkasunod
pagkasunog
pagkat
pagkatakot
pagkatalo
pagkatao
pagkatapon
pagkatapos
pagkatatag
pagkatawan
pagkatuklas
pagkatunaw
pagkatuto
pagkaubos
pagkaunawa
pagkawala
pagkawalang
pagkawasak
pagkikita
pagkilala
pagkiling
pagkilos
pagkit
pagkita
pagkitil
pagkokodigo
pagkolekta
pagkondena
pagkonekta
pagkonsumo
pagkontrol
pagktapos
pagkubkob
pagkuha
pagkukulang
pagkukumpara
pagkukumpuni
pagkukuwento
pagkukwenta
pagkumpleto
paglabag
paglaban
paglabas
paglaganap
paglagay
paglagda
paglago
paglagong
paglaho
paglahok
paglakad
paglakas
paglaki
paglala
paglalaan
paglalaban
paglalabas
paglalagay
paglalahad
paglalahat
paglalakad
paglalakbay
paglalangoy
paglalantad
paglalapat
paglalarawan
paglalarawang
paglalaro
paglalathala
paglalayag
paglamig
paglampas
paglanghap
paglangoy
paglaon
paglapag
paglapit
paglathala
paglawak
paglaya
paglayo
paglibot
pagligtas
paglihis
pagliit
paglikas
paglikha
paglikhang
pagliko
paglilibang
paglilibing
paglilibot
pagliligtas
paglilihi
paglilikha
paglililok
paglilimbag
paglilimita
paglilinang
paglilinaw
paglilingkod
paglilinis
paglilipat
paglilitis
paglimbag
paglinang
paglipad
paglipas
paglipat
paglisan
paglitaw
paglobo
paglubog
pagluluksa
paglulunas
paglulunsad
pagluluto
pagluluwas
paglunok
paglunsad
paglusob
paglutas
pagluto
pagluwas
pagmamahal
pagmamahalan
pagmamalaki
pagmamana
pagmamaneho
pagmamanipula
pagmamanupaktura
pagmamapa
pagmamarka
pagmamasid
pagmamatyag
pagmamay
pagmamayari
pagmimina
pagmimisa
pagmomodelo
pagmumuni
pagnanais
pagnanakaw
pagnanasa
pagnanasang
pagnenegosyo
pagninilay
pagod
pagoda
pagong
pagpalain
pagpalit
pagpanaw
pagpansin
pagpapa
pagpapaalis
pagpapababa
pagpapabaya
pagpapabuti
pagpapadala
pagpapagaling
pagpapagana
pagpapaganda
pagpapagawa
pagpapahaba
pagpapahalaga
pagpapahalagang
pagpapahayag
pagpapahid
pagpapahinga
pagpapahintulot
pagpapahirap
pagpapahiwatig
pagpapahusay
pagpapaikli
pagpapainam
pagpapairal
pagpapakahulugan
pagpapakain
pagpapakalat
pagpapakamatay
pagpapakasakit
pagpapakasal
pagpapakawala
pagpapakilala
pagpapakita
pagpapako
pagpapala
pagpapalabas
pagpapalaganap
pagpapalagay
pagpapalaglag
pagpapalakas
pagpapalaki
pagpapalamuti
pagpapalawak
pagpapalawig
pagpapalaya
pagpapalayas
pagpapaliban
pagpapaliit
pagpapalipad
pagpapalit
pagpapalitan
pagpapaliwanag
pagpapanatili
pagpapangalan
pagpapangkat
pagpapantig
pagpapanumbalik
pagpapaputi
pagpapaputok
pagpaparami
pagpaparangal
pagpaparehistro
pagpapares
pagpapasa
pagpapasigla
pagpapasinaya
pagpapasiya
pagpapasok
pagpapasuso
pagpapasya
pagpapasyang
pagpapataas
pagpapatakbo
pagpapatala
pagpapatalsik
pagpapatapon
pagpapataw
pagpapatawa
pagpapatawad
pagpapatayo
pagpapatibay
pagpapatiwakal
pagpapatuloy
pagpapatunay
pagpapatupad
pagpapaunlad
pagpapautang
pagpapawalang
pagpapayo
pagpaplano
pagpaputi
pagpasa
pagpaslang
pagpasok
pagpatay
pagpayag
pagpepetsa
pagpepresyo
pagpigil
pagpili
pagpilit
pagpinta
pagpipigil
pagpipilian
pagpipilit
pagpipinta
pagpopondo
pagpoprogramang
pagpoproseso
pagpoprotesta
pagproseso
pagprotekta
pagpukaw
pagpuna
pagpuno
pagpunta
pagpupugay
pagpupulong
pagpupunyagi
pagputok
pagputol
pagraranggo
pagrekord
pagreregla
pagrerekord
pagreretiro
pagsabog
pagsagip
pagsagot
pagsakay
pagsakop
pagsalakay
pagsali
pagsalin
pagsalungat
pagsama
pagsamahin
pagsamba
pagsambang
pagsang
pagsangguni
pagsanib
pagsanjan
pagsapi
pagsapit
pagsara
pagsasa
pagsasaalang
pagsasaayos
pagsasabatas
pagsasabi
pagsasabing
pagsasabwatan
pagsasagawa
pagsasahimpapawid
pagsasaka
pagsasakatuparan
pagsasakdal
pagsasalarawan
pagsasalaysay
pagsasali
pagsasaliksik
pagsasalin
pagsasalinwika
pagsasalita
pagsasama
pagsasamang
pagsasamantala
pagsasanay
pagsasanib
pagsasara
pagsasarili
pagsasayaw
pagsayaw
pagsibol
pagsikat
pagsiklab
pagsilakbo
pagsilang
pagsimula
pagsipi
pagsipsip
pagsira
pagsisid
pagsisikap
pagsisikip
pagsisimula
pagsisipi
pagsisisi
pagsisiwalat
pagsisiyasat
pagsubaybay
pagsubok
pagsugpo
pagsukat
pagsuko
pagsulat
pagsulong
pagsunggab
pagsunod
pagsunog
pagsupil
pagsuporta
pagsuri
pagsusugal
pagsusuka
pagsusukat
pagsusulat
pagsusulit
pagsusulong
pagsusumikap
pagsusunog
pagsusuot
pagsusuri
pagsusuring
pagsuway
pagtaas
pagtaban
pagtaguyod
pagtakas
pagtakbo
pagtakwil
pagtalakay
pagtalikod
pagtalon
pagtama
pagtanaw
pagtanda
pagtanggal
pagtanggap
pagtanggi
pagtanghal
pagtangkilik
pagtapos
pagtataas
pagtatae
pagtatag
pagtatago
pagtatagpo
pagtatagumpay
pagtataguyod
pagtatakda
pagtatakdang
pagtataksil
pagtatala
pagtatalaga
pagtatalagang
pagtatalik
pagtatalo
pagtatamo
pagtatanggal
pagtatanggol
pagtatanghal
pagtatangi
pagtatangka
pagtatangkang
pagtatanim
pagtatanong
pagtatantiya
pagtatantya
pagtatapon
pagtatapos
pagtatasa
pagtatatag
pagtataya
pagtatayo
pagtatrabaho
pagtawag
pagtawid
pagtaya
pagtayo
pagtibayin
pagtigil
pagtingin
pagtira
pagtitiis
pagtitipid
pagtitipon
pagtitipong
pagtitiwala
pagtitiyak
pagtotroso
pagtrato
pagtubo
pagtubos
pagtugis
pagtugon
pagtugtog
pagtuklas
pagtukoy
pagtulak
pagtulog
pagtulong
pagtunaw
pagtungo
pagtuon
pagtupad
pagturing
pagtutok
pagtutol
pagtutugma
pagtutukoy
pagtutuli
pagtutulungan
pagtutuon
pagtutuos
pagtuturo
pagtutuwid
pagunlad
pagus
pagwasak
pagwawagi
pagwawakas
pagwawalang
pagwawasto
pagyanig
paha
pahaba
pahabang
pahalang
paham
pahayag
pahayagan
pahayagang
pahilaga
pahilagang
pahilis
pahina
pahinang
pahinga
pahingahan
pahintulot
pahintulutan
pahiwatig
pai
paiba
paikot
pailaw
pain
paint
painter
painting
paintings
pair
paitaas
pak
pakahulugan
pakahulugang
pakainin
pakakasalan
pakaliwa
pakana
pakanan
pakanluran
pakasalan
pakawalan
pakay
pakete
pakialam
pakikialam
pakikiapid
pakikibaka
pakikidigma
pakikidigmang
pakikiisa
pakikilahok
pakikinig
pakikipag
pakikipagdigma
pakikipagkaibigan
pakikipagkalakalan
pakikipagkapwa
pakikipagkasundo
pakikipaglaban
pakikipagniig
pakikipagsabwatan
pakikipagsapalaran
pakikipagsosyo
pakikipagtalastasan
pakikipagtalik
pakikipagtalo
pakikipagtulungan
pakikipagugnayan
pakikipanayam
pakikiramay
pakikisalamuha
pakikisama
pakikitungo
pakikitungong
pakil
pakinabang
pakinggan
pakiramdam
pakistan
pakistani
pakita
pakiusap
pako
pakpak
paksa
paksang
paksiyon
paksiyong
paktisidad
paktor
pakundangan
pakwan
pal
pala
palaban
palabas
palabasin
palace
palacio
palad
palaganapin
palagay
palagi
palagian
palagiang
palaging
palais
palaisdaan
palaisip
palaisipan
palaka
palakaibigan
palakasan
palakasang
palakasin
palakihin
palakol
palaman
palamuti
palamuting
palanan
palanas
palanca
palang
palanggana
palanguyan
palapag
palaro
palarong
palaruan
palaso
palaspas
palasyo
palasyong
palatal
palatandaan
palatandaang
palatino
palatuntunan
palatuntunang
palau
palawakin
palawan
palawano
palawigin
palay
palayain
palayan
palayasin
palayaw
palayo
palayok
palazzo
palda
pale
palembang
palengke
paleo
paleolitiko
paleontolohiya
paleozoic
palermo
palestina
palestine
palestinian
palestino
palgrave
pali
palibhasa
palibot
paligid
paligsahan
paligsahang
paliguan
palihim
palikpik
palikuran
palimbagan
palingkuran
palingkurang
paliparan
paliparang
palisa
palit
palitan
palitang
paliwanag
palm
palma
palmer
palo
paloma
palomar
paloob
palos
paltok
palugit
palumpong
palya
pam
pamagat
pamahalaan
pamahalaang
pamahayan
pamahid
pamahiin
pamalit
pamalo
pamamaga
pamamagitan
pamamahagi
pamamahala
pamamahalang
pamamahayag
pamamahinga
pamamalagi
pamamalakad
pamamaraan
pamamaraang
pamamaril
pamamaslang
pamana
pamanang
pamangkin
pamangking
pamantasan
pamantasang
pamantayan
pamantayang
pamasahe
pamasko
pamaskong
pamatay
pamayanan
pamayanang
pamaypay
pambabae
pambabaeng
pambahay
pambalita
pambalot
pambansa
pambansang
pambasang
pambata
pambatang
pambatas
pambatasan
pambati
pambayad
pambayan
pambayang
pambaybaying
pambibig
pambihira
pambihirang
pambiyolohiya
pambobomba
pambungad
pamela
pamilang
pamilihan
pamilihang
pamilya
pamilyang
pamilyar
pamimili
pamimilit
pamimintuho
pamimisikleta
paminsan
paminta
pamosong
pampaalsa
pampaaralan
pampaaralang
pampaganda
pampagtatalik
pampahina
pampalakasan
pampalakasang
pampalamig
pampalasa
pampamahalaan
pampamahalaang
pampamayanan
pampamayanang
pampamilihan
pampamilya
pampananalapi
pampananampalataya
pampang
pampanga
pampangasiwaan
pampangasiwaang
pampangulo
pampanguluhan
pampanguluhang
pampanitikan
pampanitikang
pampapa
pamparlamento
pampasabog
pampasahero
pampasaherong
pampasigla
pampelikula
pampilosopiya
pampinal
pampitong
pamplona
pampolitika
pampolitikang
pampook
pampribadong
pamprograma
pampubliko
pampublikong
pampulitika
pampulitikang
pamumuhay
pamumuhunan
pamumula
pamumulaklak
pamumuno
pamumunong
pamumuo
pamunuan
pamutat
pan
pana
panadero
panaghoy
panaginip
panaguri
panahon
panahong
panahunan
panakip
panaklong
panalangin
panalanging
panalo
panama
pananabik
pananagutan
pananahi
pananaig
pananakit
pananakop
pananakot
pananalakay
pananalangin
pananalapi
pananalaping
pananalig
pananaliksik
pananalita
pananalitang
pananambang
pananamit
pananampalataya
pananampalatayang
pananatili
pananaw
pananda
panandalian
panandaliang
panandang
pananggalang
pananggol
pananim
pananong
panarion
panata
panatag
panatang
panatiko
panatilihin
panatilihing
panauhin
panauhing
panawagan
panay
panayam
pancho
panda
pandacan
pandagat
pandagdag
pandaigdig
pandaigdigan
pandaigdigang
pandalawahang
pandama
pandamang
pandamdam
pandan
pandangal
pandarambong
pandaraya
pandarayuhan
pandava
panday
pandayuhan
pandekorasyon
pandemic
pandemya
pandemyang
pandesal
pandigma
pandikit
pandinig
pandiwa
pandiwang
pandora
panel
panfilo
pang
panga
pangaea
pangako
pangakong
pangalagaan
pangalan
pangalanan
pangalang
pangalawa
pangalawang
pangamba
pangan
panganak
panganay
pangangailangan
pangangailangang
pangangalaga
pangangalagang
pangangalakal
pangangalap
pangangalunya
pangangampanya
panganganak
pangangaral
pangangasiwa
pangangaso
pangangatawan
pangangati
pangangatwiran
pangangatwirang
panganib
panganiban
pangaral
pangarap
pangasinan
pangasinense
pangasiwaan
pangasiwaang
pangatlo
pangatlong
pangatnig
pangdagat
pangdayuhan
panggabing
panggagahasa
panggagalugad
panggagamot
panggagaya
panggamot
panggatong
panggawain
panggigipit
panggitna
panggitnang
panggulugod
panghabambuhay
panghalili
panghalip
pangharap
pangheograpiya
panghihimagsik
panghihimasok
panghihina
panghimagas
panghimagsikang
panghimpapawid
panghinaharap
panghuhula
panghukbo
panghukbong
panghukuman
panghuli
panghuling
panghurno
pangil
pangilalim
pangilinan
pangingibabaw
panginginig
pangingisay
pangingisda
panginoon
panginoong
pangisahang
pangisdaan
pangit
pangitain
pangkababaihan
pangkabataan
pangkabuhayan
pangkahalatang
pangkaisipan
pangkaisipang
pangkalahatan
pangkalahatang
pangkalakal
pangkalakalan
pangkalawakan
pangkalawakang
pangkaligtasan
pangkalikasan
pangkalinangan
pangkalusugan
pangkamay
pangkapaligiran
pangkapayapaan
pangkaragatan
pangkaraniwan
pangkaraniwang
pangkasal
pangkasalukuyan
pangkasalukuyang
pangkasarian
pangkasaysayan
pangkasaysayang
pangkat
pangkatawan
pangkaunlaran
pangkimika
pangkomersiyo
pangkompyuter
pangkomunidad
pangkomunikasyon
pangkrimen
pangkukulam
pangkulay
pangkultura
pangkulturang
panglabas
panglaboratoryo
panglahat
panglima
panglipunan
panglupain
pangmadla
pangmadlang
pangmaramihan
pangmaramihang
pangmasa
pangmasang
pangmatagalan
pangmatagalang
pangmatematika
pangmedisina
pangmidya
pangmilitar
pangmundo
pangmusika
pangmusikang
pangnegosyo
pangngalan
pangngalang
pangongolekta
pangpagtatalik
pangpanlalakbay
pangradyo
pangrehiyon
pangrehiyong
pangrelihiyon
pangsayaw
pangsikolohiya
pangsimbahan
pangsining
pangtao
pangtiti
pangtugtugin
pangulay
pangulo
pangulong
panguluhan
pangunahan
pangunahin
pangunahing
pangunang
pangunguna
pangungusap
pangwakas
pangwalong
pangwika
pangyayari
pangyayaring
panibagong
panic
panig
paniki
panimpla
panimula
panimulang
paninda
paningin
paninigarilyo
paninigas
paninindigan
paninira
paninirahan
paniniwala
paniniwalang
paniqui
panirahan
panitik
panitikan
panitikang
paniwala
paniwalang
panlaban
panlabas
panlabing
panlahat
panlahatan
panlahatang
panlalake
panlalaki
panlalaking
panlalawigan
panlalawigang
panlangit
panlapi
panlaping
panlasa
panlibangan
panlihis
panlikod
panliligalig
panliligaw
panlilinlang
panlimang
panlinis
panlipunan
panlipunang
panloloko
panloob
panlulan
panlulumo
panlunas
panlungsod
panlupa
panlupang
panluwas
panonood
panoorin
panorama
panoramio
panrehiyon
panrehiyong
panrelihiyon
pansakahan
pansaliw
pansamantala
pansamantalang
pansarili
pansariling
panseguridad
pansin
pansing
pansinin
pansining
pansit
pantabangan
pantahanan
pantahanang
pantakip
pantal
pantalan
pantalang
pantalento
pantaleon
pantalon
pantangi
pantao
pantaong
pantas
pantasya
pantasyang
pantawag
pantawid
pantay
pantayong
pantelebisyon
pantelebisyong
panteon
pantheon
panther
panthera
panti
pantig
pantinig
pantog
pantransportasyon
pantry
pantubig
pantukoy
pantulong
panturista
panukala
panukalang
panukat
panulaan
panulaang
panulat
panulukan
panuluyan
panunaw
panuntunan
panuntunang
panunuhol
panunumbalik
panunumpa
panunungkulan
panunupil
panustos
panuto
panyo
pao
paola
paolo
papa
papaano
papal
papalabas
papalaking
papalapit
papalayo
papalit
papalitan
papaloob
papang
paparating
papasok
papatay
papatayin
papaya
papayag
papel
papeles
paper
paperback
papers
papet
papin
papua
papunta
papuntang
papuri
paputok
papyrus
par
para
paraan
paraang
parada
paradahan
parade
paradise
paragraph
paraguay
paragway
paraiso
paralelo
paralimpiko
parallel
paralympic
paralympics
parameter
parametro
parametrong
paramihin
paramore
paramount
paran
parang
parangal
parangalan
paranoid
paraon
paras
parasitiko
parasito
paratang
parating
parcells
parchim
parco
pardo
pare
paredes
parehas
pareho
parehong
parent
parents
pares
pari
parian
parietal
parihaba
parihabang
parin
paring
parirala
pariralang
paris
parisan
parish
parisukat
parity
pariugat
park
parke
parker
parking
parkinson
parks
parlamentaryo
parlamento
parlamentong
parlatone
parliament
parliyamento
parlyamentaryo
parlyamento
parma
parmasya
parmasyutiko
parmigiano
paro
parody
paroko
parokya
parokyang
parokyano
parol
parola
paroroonan
parsiyal
parsons
part
parte
parteng
parthian
partial
particle
particular
particularly
partido
partidong
parties
partikula
partikulang
partikular
partikulo
partikulong
partisipasyon
partisyon
partner
partners
partnership
parto
parts
party
partylist
paru
paruparo
parusa
parusahan
parusang
pas
pasa
pasadong
pasador
pasadyang
pasahero
pasaherong
pasalaysay
pasalita
pasalitang
pasan
pasanin
pasaporte
pasasalamat
pasay
pascal
pascual
paseo
pasha
pasig
pasilangan
pasilidad
pasilyo
pasimula
pasimulang
pasimuno
pasinaya
pasipiko
pasismo
pasista
pasistang
pasiya
paskil
pasko
paskuwa
paskwa
paslangin
paso
pasok
pasong
pass
passage
passenger
passes
passing
passion
passport
past
pasta
paste
pastol
pastor
pastoral
pastulan
pasubali
pasugua
pasukan
pasukin
pasulong
pasya
pasyalan
pasyalang
pasyente
pasyenteng
pasyon
pat
pata
pataas
pataasin
pataba
patag
patak
patakaran
patakarang
patakbuhin
patalastas
patalim
patalsikin
patas
patatagin
patatas
patawad
patawarin
patawid
patay
patayin
patayo
patayong
patent
patente
pater
paterno
paternong
pateros
path
pathe
pati
patid
patimog
patimpalak
pating
patinig
patis
patlang
patnubay
patnugot
pato
patok
patolohiya
patong
patotoo
patpat
patria
patriarch
patriarka
patriarkang
patricia
patricio
patrick
patriots
patriyarka
patrol
patron
patrong
patsada
pattern
patterns
patterson
patti
patty
patubig
patula
patuloy
patunay
patunayan
patungkol
patungo
patungong
patutot
patutunguhan
patyo
pau
paul
paula
paule
pauli
paulina
pauline
paulino
paulit
paulo
paumanhin
pauna
paunang
paunawa
paunlarin
paurong
pausanias
pautang
pauwi
pavel
pavia
pavilion
pawang
pawatas
pawikan
pawis
pax
pay
payagan
payak
payapa
payat
payment
payne
payo
payong
paz
pb
pba
pbb
pbs
pc
pca
pcr
pd
pdea
pdf
pdp
pe
peace
peach
peak
peaks
peanut
pearl
pearson
pebrero
pederal
pederalismo
pederasyon
pederasyong
pedro
peel
peer
pei
pekah
peke
pekeng
peking
peklat
peligro
pelikula
pelikulang
pelle
pellegrino
peminismo
peminista
pen
penal
penang
penelope
penetrasyon
peng
penguin
penh
penick
peninsula
peninsular
penisyo
penn
pennsylvania
penomena
pentagon
pentateuch
pentathlon
pentekostes
people
peoples
pep
pepe
pepeng
pepito
pepper
peppers
pepsi
pequen
per
pera
peralta
peranakan
perang
peras
percent
perciformes
percussion
percy
peregrina
peregrinasyon
peregrino
pereira
perez
perfect
perform
performance
performances
performed
performer
performing
perfume
perhaps
period
periodic
peritonyo
perkins
perkusyon
perla
perlas
perm
permanent
permanente
permanenteng
permentasyon
permian
permiso
permutasyon
pero
peroxide
perpekto
perpektong
perpetua
perpetual
perri
perry
persa
persentahe
persephone
persepsiyon
perseus
perseverance
persia
persian
persiko
persiya
persiyano
persiyanong
person
persona
personal
personalidad
personality
personipikasyon
personnel
persons
perspective
perspectives
perspektibo
persya
persyano
perth
pertilidad
pertilisasyon
pertuan
peru
perugia
peryodiko
peryodikong
pesaro
pescara
pesce
peshitta
peso
peste
pet
pete
peter
peters
petersburg
petersburgo
peterson
petisyon
petit
petra
petrolyo
petron
petsa
petsang
petty
pez
pfizer
pg
ph
pha
phantasm
phantom
pharaohs
pharmaceutical
pharmacy
phase
phd
phelps
phenomena
phenomenon
phenotype
phi
phil
philadelphia
philharmonic
philip
philipp
philippe
philippine
philippinelaw
philippines
philips
phillip
phillips
philo
philomena
philosopher
philosophical
philosophy
philstar
phisgoc
phivolcs
phl
phnom
pho
phoenix
phone
phonetic
phonetics
phong
phosphate
photo
photographer
photographic
photography
photon
photos
php
phra
phraya
phu
phuket
phylum
physical
physician
physics
physiology
pi
pia
piacentino
piacenza
piamonte
pian
piana
pianist
piano
piazza
picasso
piccolo
pice
piceno
pick
picnic
pico
picture
pictures
pie
piece
pieces
piedmont
piel
piemonte
pier
pierce
piero
pierre
pierrot
pieta
pietro
pieve
pig
pigafetta
pigilan
pigilin
piging
pigment
pigott
pigura
pigurang
piitan
pika
pikachu
piksiyon
piksiyonal
piksiyong
piksyon
pila
pilak
pilantropo
pilapil
pilar
pilato
pilay
pileser
pilgrim
pilgrimahe
pili
piliin
piling
pilipina
pilipinang
pilipinas
pilipino
pilipinong
pilit
pilita
pilitin
pilmograpiya
pilohenetiko
piloheniya
pilosopikal
pilosopiko
pilosopiya
pilosopiyang
pilosopo
pilosopong
pilot
piloto
pilotong
pimentel
pin
pina
pinaalis
pinabagsak
pinabalik
pinabayaan
pinabilis
pinaboran
pinabulaanan
pinabuting
pinadala
pinag
pinagaling
pinagbabawal
pinagbabawalan
pinagbatayan
pinagbawalan
pinagbibidahan
pinagbidahan
pinagdaanan
pinagdedebatihan
pinagdiriwang
pinagdugtong
pinaghalo
pinaghalong
pinaghihinalaan
pinaghihinalaang
pinaghihiwalay
pinaghiwalay
pinagkaiba
pinagkalooban
pinagkasunduan
pinagkuhanan
pinagkukunan
pinagkunan
pinagkunang
pinaglabanan
pinaglilingkuran
pinagmulan
pinagmulang
pinagmumulan
pinagpala
pinagpalang
pinagpapalagay
pinagpatuloy
pinagsama
pinagsamang
pinagsamantalahan
pinagsanib
pinagsasaluhan
pinagsasaluhang
pinagsasama
pinagsisilbihan
pinagtatalunan
pinagtatalunang
pinagtibay
pinagtutuunan
pinahaba
pinahabang
pinahahalagahan
pinahayag
pinahihintulutan
pinahintulutan
pinahiran
pinahirapan
pinahusay
pinaigting
pinaikli
pinaikling
pinainit
pinaka
pinakaabalang
pinakabagong
pinakabanal
pinakabantog
pinakabata
pinakabatang
pinakabumentang
pinakadakila
pinakadakilang
pinakahilagang
pinakahuli
pinakahuling
pinakahulugan
pinakakaraniwan
pinakakaraniwang
pinakakilala
pinakakilalang
pinakalaganap
pinakaluma
pinakalumang
pinakamaagang
pinakamababa
pinakamababang
pinakamabentang
pinakamabigat
pinakamabiling
pinakamabilis
pinakamabuting
pinakamadalas
pinakamagagaling
pinakamagagandang
pinakamagaling
pinakamaganda
pinakamagandang
pinakamahaba
pinakamahabang
pinakamahahalagang
pinakamahal
pinakamahalaga
pinakamahalagang
pinakamahirap
pinakamahuhusay
pinakamahusay
pinakamaimpluwensiyang
pinakamainam
pinakamainit
pinakamakapangyarihan
pinakamakapangyarihang
pinakamalakas
pinakamalaki
pinakamalaking
pinakamalalaking
pinakamalalang
pinakamalalim
pinakamalamang
pinakamalamig
pinakamalapit
pinakamalawak
pinakamalayong
pinakamaliit
pinakamamahal
pinakamarami
pinakamaraming
pinakamasamang
pinakamataas
pinakamatagal
pinakamatagumpay
pinakamatanda
pinakamatandang
pinakamatao
pinakamataong
pinakamatibay
pinakamatinding
pinakamaunlad
pinakamayaman
pinakamayamang
pinakapangunahing
pinakapayak
pinakapopular
pinakaprestihiyosong
pinakasalan
pinakasikat
pinakasimpleng
pinakatanyag
pinakatimog
pinakauna
pinakaunang
pinakawalan
pinakilala
pinakintab
pinakita
pinakuluang
pinal
pinalabas
pinalad
pinalaganap
pinalakas
pinalaki
pinalala
pinalamig
pinalamutian
pinalawak
pinalawig
pinalaya
pinalayas
pinalibutan
pinaliit
pinalilibutan
pinalista
pinalitan
pinamagatan
pinamagatang
pinamahalaan
pinamamahalaan
pinamamahalaang
pinamumunuan
pinamunuan
pinananatili
pinananatiling
pinanatili
pinangalan
pinangalanan
pinangalanang
pinangalang
pinangalingan
pinanganak
pinangangalagaan
pinangangasiwaan
pinangasiwaan
pinanggagalingan
pinanggalingan
pinanghahawakan
pinangunahan
pinangungunahan
pinangyarihan
pinaninirahan
pinaniniwalaan
pinaniniwalaang
pinaniniwalang
pinaniwalaan
pinaniwalaang
pinansin
pinansiya
pinansiyal
pinansyal
pinapaboran
pinapagana
pinapahintulot
pinapahintulutan
pinapahiwatig
pinapaikli
pinapakahulugan
pinapakita
pinapalabas
pinapalibutan
pinapaligiran
pinapalitan
pinapanatili
pinapanood
pinapansin
pinapasok
pinapatakbo
pinapatay
pinapatnubayang
pinapayagan
pinapayagang
pinapayak
pinapayuhan
pinaplano
pinarami
pinarangalan
pinarusahan
pinas
pinasikat
pinasimple
pinasimpleng
pinasimulan
pinasinayaan
pinasiyahan
pinaslang
pinasok
pinataas
pinatakbo
pinatalsik
pinatapon
pinatatakbo
pinatawad
pinatay
pinatibay
pinatubo
pinatugtog
pinatunayan
pinatutunayan
pinatuyo
pinatuyong
pinaunlad
pinawalang
pinay
pinayagan
pinayagang
pinayuhan
pindar
pindutan
pindutin
pine
pineda
pinepetsahan
pinetsahan
ping
pinggan
pinigil
pinigilan
pinili
piniling
pinilit
pininturahan
pinipigilan
pinipili
pinipilit
piniprito
pinirito
pinirmahan
pink
pinky
pinlandes
pinlandiya
pinlano
pino
pinondohan
pinong
pinopondohan
pinoproseso
pinoprotektahan
pinoy
pinpin
pinritong
pinsala
pinsalang
pinsan
pinsang
pinta
pintakasi
pintang
pintig
pinto
pintor
pintuan
pintuang
pintura
pinu
pinugutan
pinukaw
pinulbos
pinuna
pinuno
pinunong
pinuntahan
pinupuntahan
pinupuri
pinuri
pinutol
pinya
pinyin
pio
piolo
piombino
pion
pioneer
pioneers
piper
pipi
pipili
pipiliin
pipino
pipit
pira
piramide
piraso
pirasong
pirata
piratang
pirate
pirates
pirena
pirma
pisa
pisano
pisika
pisikal
pisikang
pisiko
pisikong
piskal
pisngi
piso
pisong
pista
pistang
pistoia
pistol
pistols
pisyolohiya
piszke
pit
pitak
pitaka
pitakang
pitch
pitchfork
pito
pitogo
pitong
pitsel
pitt
pittsburgh
pitumpu
piu
pius
pixel
pixies
piyanista
piyano
piye
piyer
piyesa
piyesang
piyesta
piyudal
pizza
pj
pk
pki
pl
pla
place
placental
placer
places
placid
plague
plain
plains
plaka
plakang
plake
plan
planadong
planck
plane
planet
planeta
planetang
planetary
planets
planning
plano
planong
plans
plant
planta
plantang
plantasyon
plants
plaque
plaridel
plasa
plasencia
plasma
plasmid
plastic
plastik
plata
plataporma
platapormang
plate
plateau
plates
platform
platforms
platinum
plato
platon
platong
platypus
platz
play
playback
playboy
played
player
players
playhouse
playing
playlist
playoff
playoffs
plays
playstation
plaza
pldt
please
pleasure
plebisito
pleistocene
plema
plinano
plinio
pliny
plm
plot
plota
plotarea
plotdata
pls
plug
pluido
pluidong
plum
pluma
plunder
plural
plus
plutarch
pluto
pluwido
plymouth
pm
pmc
pmid
pmpc
pna
pnb
pneumonia
pneumoniae
png
pnp
pnr
po
poaceae
pob
poblacio
poblacion
poblasyon
pocket
podcast
poe
poems
poet
poetry
poggio
pogi
point
points
poison
poke
pokemon
poker
pokus
pol
pola
polako
polakong
poland
polar
pole
poli
policarpio
police
policy
polifemo
poligon
polillo
polimero
polinesyo
polinomial
polio
polish
polisiya
polisiyang
politeismo
politeknikong
political
politician
politicians
politics
politika
politikal
politikang
politiko
politikong
poljakov
polk
poll
polo
polong
polonya
polusyon
polyeto
polymerase
polynesia
polynesian
polytechnic
polyvios
pompey
pon
ponce
pondo
pondohan
pondong
ponema
ponetikong
pong
ponograma
ponolohiya
pons
ponsonby
ponte
pontevedra
pontifex
pontifical
pontipikal
pontipise
pontus
pony
pooh
pook
pool
poor
poot
pop
popcap
pope
popes
popolo
poppy
pops
popular
popularidad
populasyon
populasyong
population
populations
por
porac
pork
porma
pormal
pormang
pormasyon
pormasyong
pormat
pormula
pormulang
pormulasyon
porn
pornograpikong
pornograpiya
poro
porpoise
porsche
porselana
porsiyento
porsiyentong
porsyento
port
porta
portable
portada
portal
porter
portico
portland
porto
portrait
portrayed
portugal
portuges
portuguese
portulaca
pos
poseidon
posibilidad
posible
posibleng
posil
posisyon
posisyong
positibo
positibong
position
positions
positive
positron
poso
posporo
possible
post
postal
poste
posteng
poster
posterior
postgraduate
posts
pot
potassium
potato
potensiyal
potensyal
potential
potenza
potograpiya
potograpo
poton
potsdam
potter
poultry
pound
pour
poverty
pow
powell
power
powerful
powers
pozorrubio
pp
ppen
ppg
ppp
pq
pr
pra
prabang
practical
practice
practices
pradesh
prado
praga
pragmento
pragmentong
prague
prairie
praise
prajn
prakash
prakashan
praksiyon
praktikal
prangkisa
prangkisang
pranses
pransiskano
pransiya
pransya
prati
prato
prats
pratt
prayer
prayle
prayleng
prayoridad
prc
pre
precious
predator
predesesor
prediksiyon
predyudis
preface
prefectural
prefecture
preform
prehistoriko
prehistorikong
prejudice
prekursor
prekwensiya
prelatura
preliminaries
preliminary
premier
premiere
premio
premios
premisa
premium
premyo
premyong
prente
prentice
prep
preparasyon
prepekto
prepektura
prepekturang
prepusyo
pres
presbyterian
prescott
presence
presensiya
presensya
present
presentasyon
presentation
presented
presenter
presents
preservation
presidency
president
presidente
presidential
presipitasyon
presley
preso
press
presse
pressure
prestihiyo
prestihiyosong
preston
presyo
presyon
presyong
presyur
pretty
prev
prevention
preview
previous
previously
prey
pri
pribado
pribadong
pribilehiyo
pribilehiyong
price
pride
priest
priests
prieto
prima
primado
primal
primary
primarya
primaryang
primasiya
primate
primates
prime
primer
primera
primetime
primitibong
primitive
primo
primordial
prince
princesa
princess
princeton
principal
principe
principia
principle
principles
prinodyus
prinsa
prinsesa
prinsesang
prinsipado
prinsipal
prinsipalidad
prinsipe
prinsipeng
prinsipyo
prinsipyong
print
printed
printer
printing
prior
priori
priority
priscilla
prism
prison
pritong
private
prix
prize
pro
probabilidad
probability
probably
probe
probinsiya
probinsiyal
probinsiyang
probinsya
probinsyano
probisyon
probisyonal
problem
problema
problemang
problems
proceedings
process
processing
processor
proclaimed
proclamation
procter
prod
produce
produced
producer
producers
product
production
productions
products
produksiyon
produksiyong
produksyon
produktibidad
produktibo
produktibong
produkto
produktong
produser
prodyuser
prof
professional
professor
profile
profiles
profit
program
programa
programang
programme
programmer
programming
programs
progresibo
progresibong
progreso
progress
progressive
project
projects
prokaryote
proklamasyon
prometheus
prominente
prominenteng
promise
promising
promo
promosyon
promosyonal
promote
promotion
promotional
promotor
pronounced
pronunciation
proof
propaganda
proper
properties
property
propesiya
propesor
propesyon
propesyonal
propesyunal
propeta
propetang
prophet
prophets
proporsiyon
proporsiyonal
proporsyon
proporsyonal
proposal
proposed
proposisyon
prosa
proseso
prosesong
prosperity
prospero
prostate
prostitusyon
protagonista
protease
protect
protected
protection
protein
proteina
proteksiyon
proteksyon
protektado
protektadong
protektahan
protest
protesta
protestang
protestante
protestanteng
protestantismo
protina
protinang
protista
proto
protocol
protokol
proton
protons
prototype
prov
provence
provided
providence
provider
province
provinces
provincia
provincial
proyekto
proyektong
prunus
prusisyon
pruso
prussia
prusya
prutas
ps
psa
psalm
pse
pseudo
pseudogene
psgc
psi
psidium
psp
pst
psyche
psychedelic
psychiatric
psychiatry
psychic
psychoanalysis
psychological
psychology
pt
ptolemaiko
ptolemy
ptolomeo
pts
ptv
pu
pub
public
publication
publications
publikasyon
publiko
publikong
publish
published
publisher
publishers
publishing
publisidad
puccini
pudding
pudong
pueblo
puella
puente
puerta
puerto
pugad
pugay
pugita
puglia
pugo
pugon
pugot
puhunan
pukawin
puke
puki
puksain
pukyutan
pula
pulang
pulbos
pulbura
pulgada
pulgadang
pulgas
pulilan
pulis
pulisya
pulitika
pulitikal
pulitiko
pulitzer
pull
pulmonary
pulmonya
pulmonyang
pulo
pulong
pulot
pulp
pulse
pulseras
pulso
pulubi
pulutong
pumabor
pumalit
pumanaw
pumangalawa
pumanig
pumapabor
pumapalibot
pumapaligid
pumapangalawa
pumapasok
pumapatak
pumapatay
pumapayag
pumasa
pumaslang
pumasok
pumatay
pumatok
pumayag
pumigil
pumili
pumipigil
pumipili
pumirma
pumoprotekta
pump
pumukaw
pumunta
pumupukaw
pumupunta
pumuputok
pumutok
pumutol
puna
punan
punang
punch
pundamental
pundasyon
pundasyong
puneeth
puniko
punit
punjab
punjabi
punk
punla
puno
punong
punongkahoy
punsiyon
punsiyonal
punsiyong
punso
punsyon
punt
punta
puntahan
puntirya
punto
puntod
puntong
puntos
punung
punungkahoy
punungkatawan
punyal
punzalan
puppet
pupunta
pura
purana
pure
purefoods
purgatoryo
puri
purihin
purine
puring
puro
purok
purong
purple
purpose
purposes
purpura
purpurang
pusa
pusang
push
pusit
puso
pusod
puson
pusong
put
putahe
putaheng
putbol
putbolista
putbolistang
puti
putifar
putih
putik
putin
puting
puto
putok
putol
putong
putukan
putulin
puwang
puwede
puwedeng
puwersa
puwersang
puwerto
puwesto
puwestong
puwit
puwitan
puyat
puzzle
pv
pvt
pwede
pwedeng
pwersa
pwersang
pwesto
px
pygmy
pyongyang
pyramid
pythagoras
python
pyudal
q
qa
qaeda
qatar
qatari
qb
qc
qf
qi
qian
qin
qing
qingdao
qquad
qs
qtv
qu
qua
quad
quake
quaker
quality
quan
quang
quantum
quanzhou
quarantine
quark
quarter
quarterback
quarterfinals
quarterly
quartet
quasar
quasi
quasimodo
quattro
que
quebec
queen
queenie
queens
queensland
quepasa
query
quest
question
questions
queue
quezon
qui
quiapo
quiboloy
quick
quiel
quiero
quiet
quijano
quincy
quinn
quinta
quintana
quintanilla
quintin
quinto
quirico
quirinal
quirinius
quirino
quite
quito
quiz
quizon
qumran
quo
quora
quote
quoted
quotes
qur
quran
quraysh
r
ra
rabaw
rabbi
rabbit
rabies
rabiniko
rabinikong
raccoon
race
racer
raceway
rachel
racing
radar
radcliffe
radial
radiasyon
radiasyong
radiation
radikal
radio
radioactive
radius
radke
radyal
radyasyon
radyasyong
radyo
radyong
rae
raf
rafael
raffles
rafflesia
raffy
ragay
rage
ragnarok
ragusa
raha
rahman
rai
raid
raiders
rail
railroad
railway
railways
rain
rainbow
rainer
raise
raised
raises
raising
raj
raja
rajah
rajasthan
rajkumar
rakhine
raliyista
rally
ralph
ram
rama
ramadan
ramayana
ramen
ramesses
rami
ramil
ramirez
ramo
ramon
ramona
ramones
ramos
rampa
ramsay
ramsey
ran
rana
rand
randall
randolph
random
randomang
randy
rang
range
ranger
rangers
ranggo
ranggong
rangle
ranillo
rank
ranked
ranking
rankings
ranma
ransom
rao
rap
rape
raphael
rapid
rapids
rapper
rappler
rapture
rapunzel
raquel
rare
ras
rashid
rashidun
rasismo
rason
raspberry
rasyo
rasyon
rasyonal
rat
ratchasima
rate
rated
rathaus
rather
ratiles
rating
ratings
ratio
ration
rattle
ratu
ratzinger
rau
raul
raven
ravena
ravenna
ravens
ravi
raw
ray
raya
raymond
raymundo
rayuma
razon
rb
rc
rchen
rd
rdoba
re
reach
reaction
read
reader
reading
ready
reagan
reaksiyon
reaksiyong
reaksyon
real
realidad
realismo
reality
really
rear
reason
reasons
reb
rebecca
rebel
rebelde
rebeldeng
rebellion
rebels
rebelyon
rebisyon
rebolusyon
rebolusyonaryo
rebolusyonaryong
rebolusyong
reboot
rebounds
rebulto
rebyu
receive
received
receiver
recent
reception
receptor
receptus
recessive
recipe
recipient
recognition
recognized
reconstruction
record
recorded
recorder
recording
recordings
records
recovery
recruit
rect
recto
red
rede
reduction
reed
reedy
reef
reese
reeve
reeves
ref
refer
reference
references
referendum
referred
reflection
reform
reformation
refugee
refugees
regal
regalado
regalo
regalong
regarding
regency
regent
reggae
reggiano
reggie
reggio
regiment
regina
regine
regio
region
regional
regions
regis
register
registry
regla
regresyong
regulador
regular
regulasyon
regulatory
regulatoryong
rehabilitasyon
rehabilitation
rehas
rehente
rehimen
rehimeng
rehistradong
rehistro
rehiyon
rehiyonal
rehiyong
rehiyunal
rehoboam
rei
reich
reichstag
reid
reign
reiko
reimer
reimu
reina
reinkarnasyon
reinmuth
reino
reissue
reitaisai
reject
reklamo
rekomendasyon
rekonstruksiyon
rekord
rekording
rektor
rekursiyon
relasyon
relasyonal
relasyong
related
relatibidad
relatibistikong
relatibo
relatibong
relation
relations
relationship
relationships
relative
relay
release
released
releases
relief
religion
religions
religious
relihiyon
relihiyong
relihiyoso
relihiyosong
relikya
relo
rem
remains
remake
remedios
remember
remembered
remigio
remix
remixed
remixes
remo
remote
ren
renaissance
renania
renasimiyento
renasimiyentong
renasimyento
renasimyentong
renato
render
rene
renew
renner
reno
renobasyon
renta
rentas
renz
reo
rep
repeat
reperendo
reperendum
reperensiya
reperensiyang
repertoire
replay
repleksiyon
replika
replikasyon
repolyo
reporma
repormador
repormang
repormasyon
repormista
report
reported
reporter
reporters
reports
representante
representasyon
representasyong
representatibo
representation
representative
representatives
reprint
reprinted
reprise
reproductive
reproduksiyon
reproduksiyong
reproduktibo
reproduktibong
reptil
reptilya
reptilyang
repu
republic
republican
republics
republika
republikang
republikanismo
republikano
republikanong
reputasyon
request
requiem
res
rescue
research
researcher
reseptor
reserba
reserbang
reserve
reservoir
resesyon
reseta
reshe
resibo
residence
resident
residente
residenteng
resipi
resistance
resistansiya
resistensiya
resolusyon
resolusyong
resolution
resonance
resort
resorts
resource
resources
respect
respektibong
respeto
respirasyon
respiratory
respiratoryo
responde
responsable
responsableng
response
responsibilidad
responsibility
responsible
respublika
ressa
rest
restaurant
restawran
restoran
restorasyon
restoration
restrictions
restriksiyon
result
resulta
resultang
results
resureksiyon
resurrection
resuscitation
retail
retiradong
retorika
retrato
retrieved
retro
retrospective
retscreen
return
returns
reunion
reuters
rev
revealed
reveals
revelation
revenge
revenue
reverse
review
reviews
revilla
revillame
revised
revision
revista
revitalization
revival
revolution
revolutionary
revue
rex
rey
reyes
reyna
reynaldo
reynang
reyno
reynolds
reyt
rez
rfc
rg
rgb
rgen
rh
rhea
rhee
rhian
rhine
rho
rhode
rhodes
rhymes
rhythm
rhythmic
ri
ria
riaa
ribbentrop
ribbon
ribosoma
ric
rica
rican
ricardo
riccardo
ricci
rice
rich
richard
richards
richardson
richie
richmond
richter
rick
ricky
rico
rida
ride
rider
ridge
riding
rido
rie
riemann
riemannian
rieti
riff
rifle
rifles
rift
right
rightarrow
rights
rigveda
rihanna
rika
riko
riles
riley
rim
rima
rimini
rin
rina
ring
ringo
rings
rio
rioja
rione
rioni
riot
ripa
riple
risa
rise
rises
rising
risk
rita
ritchie
rite
rites
ritm
ritmo
ritmong
rito
ritong
ritu
ritual
ritung
ritwal
riva
rivals
rivas
river
rivera
rivermaya
rivero
rivers
riverside
riviera
riyadh
rizal
rj
rk
rm
rmn
rn
rna
rngen
rni
ro
roa
road
roads
rob
robbie
robbins
robert
roberta
roberto
roberts
robertson
robespierre
robin
robinson
robinsons
roble
robles
roblox
robo
robot
robredo
roc
rocca
rocco
roces
rocha
rochelle
rochester
rock
rockefeller
rocket
rockman
rocks
rockwell
rocky
roco
rococo
rod
roderick
rodney
rodolfo
rodri
rodrigo
rodriguez
roel
rogelio
roger
rogers
rogge
roh
rohingya
roi
roland
rolando
roldan
role
roles
rolf
roll
roller
rolling
rolly
rolyo
rom
roma
romagna
roman
romana
romance
romani
romania
romanian
romaniko
romanikong
romanisasyon
romano
romanong
romansa
romansang
romanse
romantic
romantiko
romantikong
romantisismo
romanum
romblon
rombo
rome
romeo
romero
rommel
romo
romualdez
romulo
romulus
ron
ronald
ronaldo
ronan
ronda
ronnie
rookie
room
roon
rooney
roosevelt
root
roots
roque
ros
rosa
rosaceae
rosal
rosales
rosalinda
rosanna
rosario
rosary
rosaryo
rosas
rose
rosell
rosemarie
rosemary
rosen
roses
rosing
rosita
ross
rossellini
rossi
roster
rota
rotary
rotation
roth
rotonda
rotondang
rotten
rotterdam
rouge
rough
round
rousseau
route
routledge
rover
rovigo
row
rowan
rowena
rowing
rowland
rowling
roxanne
roxas
roy
royal
royale
rp
rpg
rpm
rpn
rquez
rr
rs
rt
rttemberg
ru
rubber
ruben
rubi
rubia
rubik
rubio
ruby
rudd
rudolf
rudolph
rudy
rue
rufino
rufus
rugby
ruggiero
ruhr
ruins
ruiz
rukh
rule
ruler
rulers
rules
rumano
rumanong
rumanya
rumble
run
runner
running
runway
rupee
rural
rurok
ruru
rus
rush
rushing
ruso
rusong
russel
russell
russia
russian
russo
rusty
rusya
rut
ruta
rutang
rutgers
ruth
rutherford
ruy
rwanda
rx
ry
ryan
ryholt
ryo
ryu
ryukyu
s
sa
saa
saan
saang
saanman
saba
sabado
sabah
sabang
sabat
sabath
sabaw
sabay
sabayang
sabbath
saber
sabi
sabihin
sabihing
sabik
sabina
sabino
sable
sabon
sabong
sabrina
sabsaban
sabtang
sabunang
sabwatan
sacra
sacramento
sacred
sacrifice
sacro
sad
saddam
sadyang
sae
safe
safer
safety
saga
sagabal
sagana
saganang
sagay
sage
saging
sagipin
sagisag
sagittarius
saglit
sago
sagot
sagrada
sagrado
sagradong
sagupaan
sagutin
sagwan
sahara
saharan
sahig
sahod
sahog
sahonya
sai
said
saigon
sailing
sailor
saint
sainte
saints
saipan
sais
saitama
saito
saka
sakahan
sakai
sakaling
sakamoto
sakay
sakdal
sake
sakha
sakhalin
saki
sakit
saklaw
saklolo
saknong
sako
sakong
sakop
sakramento
sakripisyo
sakristan
saksi
saksing
sakson
saktan
sakuna
sakunang
sakupbayan
sakupin
sakura
sakurai
sal
sala
salad
saladin
salagubang
salakayin
salamanca
salamangka
salamangkero
salamat
salambao
salamin
salaming
salamis
salang
salapi
salaping
salarin
salas
salat
salawal
salawikain
salaysay
salaysayin
salaysaying
salazar
salcedo
sale
salekhard
salem
salentino
salento
salerno
sales
salgado
sali
saligan
saligang
salik
salin
salinas
saling
salinlahi
salinlahing
salinwika
salit
salita
salitang
saliw
salix
salle
sally
salman
salmo
salmon
salmonella
salo
salome
salomon
salon
salonga
saloobin
salot
salsa
salt
salta
salu
salubungin
salud
salungat
salungatan
salute
salvacion
salvador
salvation
salvatore
salve
salvi
salzburg
sam
sama
samahan
samahang
samakatuwid
samal
samang
samantala
samantalang
samantha
samar
samaranch
samaria
samaritan
samaritano
samaritanong
samba
sambahan
sambahayan
sambahayang
sambahin
sambahsa
sambal
sambayanan
sambayanang
same
sami
sammy
samnita
samoa
samonte
sampaguita
sampaloc
sampalok
sample
sampling
sampol
sampu
sampung
samson
samsung
samu
samuel
samuelson
samurai
samut
san
sana
sanae
sanang
sanay
sanayin
sanaysay
sanchez
sanctuary
sand
sandaang
sandali
sandaling
sandata
sandatahan
sandatahang
sandatang
sanders
sandhu
sandiganbayan
sandoval
sandra
sandwich
sandy
sang
sanga
sangandaan
sangang
sangay
sanggol
sanggunian
sangguniang
sanggunihan
sangha
sangkap
sangkapat
sangkatauhan
sangke
sangkot
sangley
sangre
sangro
sanhedrin
sanhi
sanhing
sanlibutan
sannio
sannita
sans
sansinukob
sanskrit
sanskrito
sant
santa
santana
santander
santatlo
santauhan
santi
santiago
santiagong
santiban
santissima
santissimo
santo
santol
santolan
santong
santos
santuario
santuwaryo
sanya
sanzang
saori
saoshyant
sap
sapa
sapad
sapagka
sapagkat
sapang
sapat
sapatos
sapi
sapiens
sapilitan
sapilitang
sapin
saping
sapiro
saplad
sapot
sapphire
sapporo
sapul
sar
sara
sarado
saradong
saragossa
sarah
sarai
sarajevo
sarangani
saranggola
sarap
sarawak
sardinia
sargon
sarhento
sari
sarihay
sarili
sariling
saring
sariwa
sariwang
sarmiento
saro
saros
sars
sarsa
sarsang
sartre
sasa
sasabihin
sasailalim
sasaki
sasakyan
sasakyang
sasali
sasapit
saserdote
saserdoteng
sasha
saskatchewan
sassari
sasso
sastre
sasuke
sat
satanas
satay
sate
satelayt
satellite
sato
satoshi
satsuma
saturday
saturdays
saturn
saturno
sauce
saud
saudi
saul
saunders
savage
savannah
save
saving
savings
savoy
saw
sawa
sawikain
sawsawan
sawyer
saxon
saxony
saxophone
say
saya
sayaka
sayang
sayaw
sayawan
sayawing
saying
sayo
sayonara
says
saysay
sayt
sayyaf
sb
sbs
sc
scala
scale
scalemajor
scaleminor
scam
scan
scandal
scandinavia
scandinavian
scap
scarborough
scarecrow
scarlet
scarlett
scattering
scene
scenes
scented
schedule
scheme
schizophrenia
schlesinger
schleswig
schmadel
schmidt
schneider
scho
scholar
scholars
scholarship
school
schools
schopenhauer
schro
schu
schuster
schwa
schwartz
sci
science
sciences
scientific
scientist
scientists
score
scores
scoring
scorpio
scotia
scotland
scots
scott
scottish
scout
scouts
scream
screen
screening
screenplay
screenwriter
scribner
script
scripture
scriptures
scroll
scrolls
sctex
sculpture
sd
sdss
se
sea
seahorse
seal
sean
search
seas
season
seasons
seat
seattle
sebada
sebastia
sebastian
sebastiano
sebwano
sec
secchia
secolo
second
secondary
seconds
secret
secretary
secrets
section
sections
sector
secure
securities
security
seda
sede
seder
sedimentaryo
see
seed
seems
seen
sega
segg
segment
segmento
segovia
seguerra
segunda
segundo
segundong
seguridad
seguro
segurong
sei
seibu
seiko
seine
seinen
seishun
seismology
seiya
seiyu
seiyuu
sekai
seki
sekondarya
sekondaryang
sekretarya
sekretaryo
seks
seksiyon
seksiyong
seksuwal
seksuwalidad
sekswal
sekswalidad
seksyon
seksyong
sekta
sektang
sektor
sekular
sekundarya
sekundaryang
sekundaryong
sekwensiya
sekwensiyang
sela
selanda
selda
selebrasyon
select
selected
selection
seleksiyon
selektibong
selena
selestiyal
seleucid
seleucus
self
sell
seller
selling
selma
selta
seltiko
selula
selulang
selular
selva
selyo
selyong
sem
semana
semantika
semaphore
sementeryo
sementeryong
semento
semi
semifinalist
semifinals
semilya
seminar
seminary
seminaryo
semitiko
semitikong
sen
senado
senador
senakulo
senaryo
senate
senator
senators
senbatsu
send
sendai
sendler
seneca
senegal
sengoku
senior
senki
sennacherib
sensation
sense
sensei
senshi
sensilyo
sensitibo
sensitibong
sensitivity
senso
sensong
sensor
sensors
sensus
sentai
sentenaryo
sentensiya
sentido
sentimetro
sentimetrong
sentimo
sentimong
sentimos
sentinel
sentral
sentralisadong
sentro
sentrong
senyales
senyas
seo
seok
seoul
sep
separate
separatista
sept
september
septuagint
septyembre
sequel
sequence
ser
sera
seramika
serbesa
serbia
serbian
serbiano
serbisiyo
serbiskeyp
serbisyo
serbisyong
serbiya
serbiyo
serbo
serbya
seremonya
seremonyal
seremonyang
serena
serge
sergeant
sergei
sergio
serial
seriana
serie
series
serif
serina
serio
serious
sermon
serna
sero
serong
serotonin
serpent
serpiyente
serra
serrano
serravalle
sertipikadong
sertipikasyon
sertipiko
servant
serve
served
server
service
services
serye
seryeng
seryes
seryoso
seryosong
sesame
sese
session
sessions
sesyon
set
seth
seto
sets
setting
settlement
settlements
setyembre
seung
seven
sevens
seventeen
seventh
several
severe
severino
severo
severus
sevilla
seville
sex
sexiest
sexto
sexual
sexuality
sexually
sexy
seychelles
seymour
sf
sfondo
sforza
sg
sgt
sh
sha
shabu
shaddai
shadow
shadows
shaft
shah
shaider
shaira
shake
shakespeare
shall
shalmaneser
shaman
shamanismo
shampoo
shan
shandong
shane
shang
shangela
shanghai
shangri
shankar
shannon
shape
share
shared
sharia
sharif
shariff
shark
sharma
sharon
sharp
shaun
shaw
shawn
shazam
she
shea
shear
sheena
sheep
sheet
sheffield
sheikh
sheila
shek
sheldon
shelf
shell
shelley
shen
shenzhen
sheol
shepherd
sheridan
sheriff
sherlock
sherman
sheryl
sheryn
shi
shia
shibasaki
shibata
shibuya
shield
shift
shigeru
shikoku
shilling
shima
shimbun
shimizu
shin
shinagawa
shinbo
shine
shinee
shingo
shinichi
shining
shinjuku
shinkansen
shinto
shinzo
shiojiri
ship
ships
shirakawa
shiratori
shirley
shiro
shirt
shiva
shizuka
shizuoka
sho
shobo
shock
shoemaker
shoes
shogakukan
shogun
shohoku
shonen
shoot
shooter
shooting
shootout
shop
shopping
shore
short
shorts
shoshenq
shot
shoten
shoujo
should
shoulder
shounen
show
showbiz
showdown
shower
showing
shows
showtime
shrew
shrine
shroff
shtml
shu
shueisha
shuffle
shuruppak
shut
shuttle
si
sia
siam
siang
siargao
sibari
sibat
siberia
siberian
sibiko
sibil
sibilant
sibilisasyon
sibilisasyong
sibilyan
sibilyang
sibol
sibugay
sibuyan
sibuyas
sic
sichuan
sicilia
sicilian
siciliano
sicily
sick
sickle
sid
siddharta
side
siding
sidney
sidomulyo
sidon
sie
siege
siempre
siena
sierra
siete
sig
siga
sigalot
sigarilyo
sigaw
sight
sigla
siglo
siglong
sigma
sigmund
sign
signal
significance
signs
sigurado
siguradong
siguro
sihang
sihay
sik
sikap
sikat
sikh
sikhismo
siklab
siklista
siklo
siklong
sikmura
siko
sikologo
sikolohikal
sikolohiya
sikolohiyang
sikoseksuwal
sikreto
sikretong
siksik
sil
sila
silahis
silandiya
silang
silangan
silangang
silanganin
silanganing
silay
silayan
silbi
silence
silent
sili
silica
silicon
silid
silindro
siling
silipin
silk
silla
silly
silo
silog
silohismo
silong
silungan
silurian
silva
silver
silverio
silvertone
silvestre
silvestro
silya
sim
sima
simbahan
simbahang
simbang
simboliko
simbolikong
simbolismo
simbolo
simbolong
simboryo
simeis
simeon
simetriko
simetrikong
simetriya
similar
simmons
simo
simon
simone
simoun
simpatiya
simple
simplektiko
simpleng
simplified
simply
simpson
simpsons
simula
simulain
simulan
simulang
simulasyon
simulation
simulcast
simuno
sin
sina
sinaad
sinabi
sinabihan
sinabing
sinadya
sinadyang
sinag
sinagoga
sinagot
sinai
sinaiticus
sinakop
sinaksak
sinaktan
sinalakay
sinalanta
sinalihan
sinalin
sinalita
sinalubong
sinalungat
sinama
sinamahan
sinamantala
sinamba
sinampahan
sinamsam
sinanay
sinang
sinangag
sinanhi
sinanib
sinapit
sinapse
sinapupunan
sinara
sinasaad
sinasabayan
sinasabi
sinasabing
sinasadya
sinasadyang
sinasagisag
sinasaklaw
sinasakop
sinasakyan
sinasalamin
sinasalarawan
sinasalin
sinasalita
sinasalitang
sinasalungat
sinasama
sinasamahan
sinasamba
sinasanay
sinasang
sinatra
sinauna
sinaunang
since
sindak
sindh
sindikato
sindroma
sindromang
sine
sinehan
sinematograpiya
sinentensiyahan
sineserbisyuhan
sinfonia
sing
singapore
singapur
singapura
singaw
singer
singers
singgapur
singh
singil
singing
singit
singkahulugan
singko
single
singles
sings
singsing
singson
singular
sinigang
sinikap
sinilangan
siniloan
sinimulan
sinimulang
sining
sinipi
sinira
sinisi
sinisikap
sinisimulan
sinisingil
sinisira
sinisisi
sinisiyasat
siniyasat
sink
sinners
sino
sinomang
sinong
sinope
sinoptiko
sins
sinsilyo
sint
sinta
sintesis
sintetiko
sintetikong
sintomas
sinturon
sinturong
sinu
sinubok
sinubukan
sinubukang
sinugo
sinugod
sinukat
sinulat
sinulatan
sinulid
sinuman
sinumang
sinumpa
sinumulan
sinundan
sinunggaban
sinunod
sinunog
sinupan
sinupil
sinuportahan
sinuri
sinuspinde
sinusubaybayan
sinusubok
sinusubukan
sinusubukang
sinusukat
sinusulat
sinusundan
sinusunod
sinusunog
sinusuot
sinusuportahan
sinusuri
sion
sionil
siony
siouxsie
sipa
sipaang
sipi
sipilis
siping
sipit
sipnayan
sipocot
sipon
siquijor
sir
sira
sirach
siracusa
sirain
sirang
sire
sirena
siria
siriliko
sirius
sirka
sirkito
sirkitong
sirko
sirks
sirkular
sirkulasyon
sirkulatoryo
sirkunstansiya
sirmium
siruhano
siruhiya
sirya
sis
sisa
sisidlan
sisidlang
sisig
sisimulan
sisingilin
sisiw
sisne
sison
sistema
sistemang
sistematikong
sister
sisters
sit
sita
sitaw
sitcom
site
sites
sitio
sito
sitrus
sitting
situation
situwasyon
sitwasyon
sitwasyong
sityo
sityong
siu
siv
siwang
six
sixth
sixto
siya
siyam
siyamnapu
siyang
siyasatin
siyempre
siyensiya
siyensiyang
siyentipiko
siyentipikong
siyentista
siyonismo
siyudad
size
sj
sjid
sk
ska
skalang
[...]
