!
"
#
##0
##1
##10
##11
##12
##13
##14
##15
##16
##17
##18
##19
##2
##20
##21
##22
##23
##24
##25
##26
##27
##28
##29
##3
##30
##31
##32
##33
##34
##35
##36
##37
##38
##39
##4
##40
##41
##42
##43
##44
##45
##46
##47
##48
##49
##5
##50
##51
##52
##53
##54
##55
##56
##57
##58
##59
##6
##60
##61
##62
##63
##64
##65
##66
##67
##68
##69
##7
##70
##71
##72
##73
##74
##75
##76
##77
##78
##79
##8
##80
##81
##82
##83
##84
##85
##86
##87
##88
##89
##9
##90
##91
##92
##93
##94
##95
##96
##97
##98
##99
$
%
&
'
(
)
*
+
,
-
.
/
0
00
000
0001
0004
0006
001
002
0022
0028
003
004
005
006
007
008
009
01
010
0100000
011
013
0140
015
016
017
018
019
02
020
023
024
0261
0276420136
03
033
0345328167
0362
04
05
059
06
0671604767
07
08
0843709227
09
1
10
100
1000
10000
1001
1002
1007
101
1011
1016
1017
102
1021
1029
103
1038
104
1046
105
1056
106
107
1073
108
1080
1081
1086
1088
109
1093
1096
1097
1098
1099
11
110
1100
1103
1109
111
1111
112
1126
113
1130
1136
114
1146
115
116
1163
117
1177
118
1180
1186
1189
119
1192
12
120
1200
1204
1206
121
122
123
124
125
126
1260
127
128
1285
129
13
130
1300
131
132
133
1336
134
135
1350
1353
136
1365
1368
137
1370
1371
1378
138
139
1392
14
140
1400
141
142
143
144
145
1450
1453
146
14651858
1468
1469
147
1470
1471
1473
148
149
1492
1493
15
150
1500
1503
1506
151
1513
1515
1516
1517
1519
152
1520
1521
1522
1523
1524
1525
1526
1527
153
1530
1533
1534
1536
1539
154
1540
1542
1543
1544
1545
1546
1547
155
1550
1551
1554
1556
1557
1558
1559
156
1560
1563
1564
1565
1568
1569
157
1570
1571
1572
1573
1574
1575
1576
1578
1579
158
1580
1581
1582
1583
1584
1585
1586
1587
1588
159
1590
1591
1592
1593
1594
1595
1596
1597
1598
1599
16
160
1600
1601
1602
1603
1604
1605
1606
1607
1608
1609
161
1610
1611
1612
1613
1615
1616
162
1620
1621
1622
1623
1625
1626
1627
1628
163
1630
1632
1633
1635
1636
1638
1639
164
1640
1642
1644
1645
1646
1647
1648
165
1650
1651
1653
166
1660
1661
1667
1668
1669
167
1670
1671
1672
168
1680
1683
1684
1685
1687
1688
1689
169
1690
1694
1697
17
170
1700
1701
1706
1707
171
1710
1712
1716
172
1720
1723
1726
173
1730
1731
1732
1735
1737
174
1740
1741
1743
1745
1746
1748
1749
175
1750
1751
1752
1753
1754
1755
1756
1758
1759
176
1760
1762
1763
1764
1766
1767
1768
1769
177
1770
1771
1772
1773
1774
1775
1776
1777
1778
1779
178
1780
1781
1782
1783
1784
1785
1786
1787
1788
1789
179
1790
1791
1792
1793
1794
1795
1796
1797
1798
1799
18
180
1800
1801
1802
1803
1804
1805
1806
1807
1808
1809
181
1810
1811
1812
1813
1814
1815
1816
1817
1818
1819
182
1820
1821
1822
1823
1824
1825
1826
1827
1828
1829
183
1830
1831
1832
1833
1834
1835
1836
1837
1838
1839
184
1840
1841
1842
1843
1844
1845
1846
1847
1848
1849
185
1850
1851
1852
1853
1854
1855
1856
1857
1858
1859
186
1860
1861
1862
1863
1864
1865
1866
1867
1868
1869
187
1870
1871
1872
1873
1874
1875
1876
1877
1878
1879
188
1880
1881
1882
1883
1884
1885
1886
1887
1888
1889
189
1890
1891
1892
1893
1894
1895
1896
1897
1898
1899
19
190
1900
1901
1902
1903
1904
1905
1906
1907
1908
1909
191
1910
1911
1912
1913
1914
1915
1916
1917
1918
1919
192
1920
1921
1922
1923
1924
1925
1926
1927
1928
1929
193
1930
1931
1932
1933
1934
1935
1936
1937
1938
1939
194
1940
1941
1942
1943
1944
1945
1946
1947
1948
1949
195
1950
1951
1952
1953
1954
1955
1956
1957
1958
1959
196
1960
1961
1962
1963
1964
1965
1966
1967
1968
1969
197
1970
1971
1972
1973
1974
1975
1976
1977
1978
1979
198
1980
1981
1982
1983
1984
1985
1986
1987
1988
1989
199
1990
1991
1992
1993
1994
1995
1996
1997
1998
1999
2
20
200
2000
2001
2002
2003
2004
2005
2006
2007
2008
2009
201
2010
2011
2012
2013
2014
2015
2016
2017
2018
2019
202
2020
202018
2021
2022
2023
2024
2025
2026
203
2030
204
205
2050
206
207
208
209
21
210
2100
211
212
213
214
215
216
217
218
219
22
220
221
222
223
224
225
226
227
228
229
23
230
2305
2307
231
232
233
234
235
236
237
238
239
24
240
241
241600000
242
243
244
245
246
247
248
249
25
250
2500
251
2510
252
253
254
255
256
257
258
259
26
260
261
26181
262
263
264
265
266
267
268
269
27
270
271
272
273
274
275
276
277
278
279
28
280
281
282
283
284
285
286
287
288
289
29
290
291
292
293
294
295
296
297
298
299
3
30
300
3000
301
302
303
304
305
306
307
3077
308
309
31
310
311
312
313
314
315
316
317
318
319
32
320
321
322
323
324
325
326
327
328
329
33
330
331
332
333
334
335
336
337
338
339
34
340
341
342
343
344
345
346
347
348
349
35
350
351
352
353
354
355
356
357
358
359
36
360
361
362
363
364
365
366
367
368
369
37
370
371
372
373
374
375
376
377
378
379
38
380
381
382
383
384
385
386
387
388
389
39
390
391
392
393
394
395
396
397
398
399
4
40
400
4000
401
402
403
404
405
4051
406
407
408
409
41
410
411
412
413
414
415
416
417
418
419
42
420
421
422
423
424
425
426
427
428
429
43
430
431
432
433
4331
434
435
436
437
438
439
44
440
441
442
443
444
445
446
447
448
449
45
450
451
452
453
454
455
456
457
458
459
46
460
461
462
463
464
465
466
467
468
469
47
470
471
472
473
474
475
476
477
478
479
48
480
481
482
483
484
485
486
487
488
489
49
490
491
492
493
494
495
496
497
498
499
5
50
500
5000
501
502
503
504
505
506
507
508
509
51
510
511
512
513
514
515
516
517
518
519
52
520
521
522
523
524
525
526
527
528
529
53
530
531
532
533
534
535
536
537
538
539
54
540
541
542
543
544
545
546
547
548
549
55
550
551
552
553
554
555
556
557
558
559
56
560
561
562
563
564
565
566
567
568
569
57
570
571
572
573
574
575
576
578
579
58
580
581
582
583
585
586
587
588
589
59
590
592
593
594
595
596
597
598
599
6
60
600
6000
601
602
603
604
605
606
607
608
609
61
610
612
613
615
616
617
618
62
620
621
622
62265494
623
624
625
626
627
628
629
63
630
631
632
633
634
635
637
638
639
64
640
641
642
643
645
646
648
649
65
650
651
652
653
655
656
657
658
659
66
660
661
662
663
664
665
666
667
668
669
67
670
671
672
673
6736
674
675
677
678
679
68
680
681
684
685
686
687
688
689
69
690
691
692
694
696
7
70
700
7000
701
705
707
708
709
71
710
711
714
715
717
718
72
720
721
722
724
725
727
729
73
730
731
732
733
736
737
738
74
740
741
742
7432
744
745
747
748
75
750
751
752
753
754
755
756
757
76
760
763
765
767
768
77
770
771
774
775
776
777
78
780
781
7817
782
785
786
7864
787
789
79
790
791
792
794
796
799
8
80
800
8000
801
8018
802
8028
804
805
808
809
81
810
8108
813
815
816
817
82
820
822
8221
824
828
83
830
832
833
835
837
839
84
840
841
842
843
846
849
8493
85
850
851
852
853
855
856
858
859
86
860
865
867
868
869
87
870
8704
871
873
874
875
88
880
881
882
88221
883
884
885
887
888
89
890
891
894
897
9
90
900
901
903
904
906206
907
908
909
91
910
91055
911
913
914
915
917
918
919
92
921
922
925
927
928
93
930
931
936
94
940
941
949
95
950
954
956
96
960
962
963
964
965
967
968
969
97
970
971
9710800620
9710810731
9710817760
9715901077
971910550
973
974
977
978
9781597894739
979
98
980
981
983
984
985
99
990
999
:
;
<
=
>
?
@
[
\
]
^
_
`
a
aa
aabot
aabuso
aabusong
aacta
aagaw
aakalang
aaklas
aakyat
aalaga
aalala
aalay
aalinlangan
aalipin
aalis
aalisin
aalok
aalsa
aambag
aampon
aanak
aang
aangat
aangkat
aangkin
aangking
aangkop
aani
aapi
aaral
aaralan
aari
aaring
aarne
aaron
aartista
aasal
aasawa
aatas
aatubili
aaway
aawit
aayos
aayuno
ab
aba
abad
abadia
abaka
abakada
abakadang
abala
abalang
abalos
abang
abangan
abante
abate
abay
abaya
abba
abbas
abbasid
abbey
abbot
abbott
abby
abc
abd
abdel
abdul
abdullah
abe
abel
abelardo
abella
abellana
abenida
abenidang
aberaheng
aberdeen
abi
abigail
abilidad
abingdon
abiso
ablan
able
abnormal
abnormalidad
abo
abogado
abogadong
abogasya
abong
aboriginal
aborsyon
abortion
abot
about
above
abr
abra
abraham
abram
abrams
abril
abriol
abroad
abruzzese
abruzzo
abs
abside
absolute
absolutong
abstract
abstrakto
abstraktong
abu
abucay
abueva
abugado
abuloy
abuse
abuso
abutin
abyasyon
ac
acad
acade
academia
academic
academy
acapulco
acc
accademia
accent
accept
acceptance
accepted
access
accessdate
accessed
accesso
accessyear
accident
acclaimed
according
account
accountancy
accounting
accounts
accreditations
accurate
ace
achievement
achilles
acid
acids
acosta
acoustic
acquaviva
acquired
acquires
acquisition
acre
acres
acronym
across
act
acta
acting
action
active
activist
activists
activities
activity
actor
actors
actress
actresses
acts
actual
actually
acute
ad
ada
adam
adams
adan
adapa
adapsiyong
adaptasyon
adaptasyong
adaptation
adarna
adb
adbentista
adbiyento
adbokasiya
add
adda
added
addison
addition
additional
address
adds
ade
adela
adelaide
adele
aden
adha
adhikain
adi
adige
adjacent
adler
admin
administrador
administrasyon
administrasyong
administratibo
administratibong
administration
administrative
administrator
admiral
admits
adobe
adobo
adolf
adolfo
adonis
adopted
adrenal
adrian
adriana
adriano
adriatico
adult
adulto
adultong
adults
adv
advance
advanced
advancement
advances
advent
adventist
adventure
adventures
advertiser
advertising
advice
advisory
advocacy
advocate
advocates
adwana
ae
aeneas
aeneis
aero
aeronautics
aerospace
aesop
aesthetic
aesthetics
aeta
af
affair
affairs
afghan
afghanistan
afi
afp
afrancia
africa
african
africanus
afrikaans
afro
after
afternoon
ag
aga
agad
agahan
again
against
agama
agapito
agarang
agata
agatha
agaton
agaw
agawin
agb
age
aged
agence
agencies
agency
agenda
agent
agents
ages
agham
agila
agimat
aglipay
agnes
agno
ago
agoncillo
agong
agos
agostino
agosto
agrarian
agree
agreement
agresibo
agresibong
agri
agricultural
agriculture
agrigento
agrikultura
agrikultural
agro
agta
agua
aguila
aguilar
aguilera
aguinaldo
aguirre
agusan
agustin
agustino
agwat
ah
ahab
ahas
ahaz
ahazias
ahead
ahedres
ahensiya
ahensiyang
ahensya
ahensyang
ahente
ahenteng
ahmad
ahmed
ahn
ahon
ahura
ai
aichi
aid
aida
aidan
aide
aids
aiesec
aiko
ailee
aim
aime
ain
ainu
air
airasia
airbus
aircraft
aired
aires
airline
airlines
airplay
airport
airports
airs
airways
ais
aise
aisha
aishwarya
aisne
aiza
aj
aja
ajax
ak
aka
akademi
akademiko
akademikong
akademiya
akademiyang
akademya
akademyang
akala
akamatsu
akan
akawnt
akay
akb
akbar
akda
akdang
akemenida
akhenaten
aki
akihabara
akihito
akiko
akin
aking
akira
akit
akita
akitin
akkad
akkadian
akkadiano
aklan
aklat
aklatan
aklatang
akma
ako
akong
aksaya
aksidente
aksidenteng
aksis
aksiyon
aksiyong
akson
aksyon
aksyontv
aktibidad
aktibismo
aktibista
aktibistang
aktibo
aktibong
akto
aktong
aktor
aktres
aktress
aktuwal
aktwal
akusado
akusasyon
akwaryum
akyat
al
ala
alaala
alaalang
alab
alabama
alabang
alabok
aladdin
aladin
alaga
alagaan
alagad
alagang
alahas
alain
alajar
alak
alakdan
alala
alalahanin
alalay
alam
alaman
alamang
alamat
alamin
alaminos
alan
alang
alanis
alas
alaska
alat
alay
alba
albanes
albanese
albania
albanian
albano
albany
albanya
albarn
albay
albert
alberta
alberto
albino
albrecht
albright
album
albums
albuquerque
alcala
alcantara
alcasid
alchemist
alcohol
alden
aldo
aldub
ale
alegasyon
alegre
alegria
alehandriya
alejandrino
alejandro
aleksandr
aleman
alemang
alemanya
alemanyang
alena
aleppo
alerhiya
alert
alerto
alessandra
alessandria
alessandro
alex
alexa
alexander
alexandra
alexandre
alexandria
alexandrian
alexis
alfaro
alfonso
alfred
alfredo
algae
algebra
algeria
algoritmo
algoritmong
alhebra
alhebraiko
alhebraikong
alhebrang
ali
alice
alicia
alien
alighieri
aligned
alikabok
alimango
alimasag
alin
alindog
aling
alingawngaw
alinlangan
alinman
alinmang
alinsunod
alipin
aliping
alis
alisin
alison
alitan
alitang
alituntunin
alituntuning
alive
aliw
aliwan
aliyev
aljazeera
alkalde
alkali
alkimiko
alkimiya
alkohol
alkoholismo
all
alla
allah
allan
allcinema
alle
alleged
allele
allen
allergy
alley
alliance
allied
allies
allison
allkpop
allmovie
allmusic
allrovi
alma
almanac
almario
almendras
almirante
almoranas
almost
almusal
aloe
alok
alon
alone
along
alongpunsiyon
alonso
alonzo
aloysius
alpa
alpabeto
alpabetong
alperes
alpes
alpha
alphabet
alpine
alpombra
alps
already
als
alsa
also
alstonia
alt
alta
altamura
altapresyon
altar
alter
alternate
alternatibo
alternatibong
alternative
althea
although
altitud
alto
aluminyo
alumni
alvarado
alvarez
alveolar
alves
alvin
always
alyado
alyadong
alyansa
alyansang
alyas
alyssa
alzheimer
am
ama
amadeo
amado
amag
amain
amalfi
amalfitana
amalia
aman
amanda
amang
amapola
amar
amaranthus
amarna
amaryllis
amateur
amaya
amazing
amazon
ambag
ambasador
ambassador
ambedkar
amber
ambeth
ambisyon
ambo
ambon
ambrose
ambrosio
ame
ameba
amelia
amen
amended
amending
amendment
amenemhat
amenhotep
america
american
americana
americans
americas
amerika
amerikana
amerikanang
amerikang
amerikano
amerikanong
amherst
ami
amid
amihan
amin
amina
aming
aminin
amino
amir
amis
amitabh
amnesia
amnesty
amniota
amo
amon
among
amor
amore
amorsolo
amos
amour
amoy
amp
ampas
ampatuan
amphoe
ampibyan
ampon
ampunan
amsterdam
amt
amun
amur
amusement
amy
amygdala
an
ana
anagram
anak
anakan
anal
analisis
analitiko
analog
analogo
analogong
analyses
analysis
analyst
anand
anantapur
anaphylaxis
anarcon
anarkista
anastasia
anastasius
anatolia
anatomiya
anatomiyang
anatomy
anay
anc
ancestor
ancestry
anchor
ancient
ancona
and
anda
andal
andaman
andar
anders
andersen
anderson
andes
andhra
ando
andorra
andrade
andre
andrea
andreas
andrei
andres
andrew
andrews
andria
android
andromeda
andy
anemia
anemometer
ang
angara
angat
angaw
angbiblia
ange
angel
angela
angeles
angeli
angelica
angelika
angelina
angelique
angelita
angelo
angels
anger
anggulo
anggulong
anghang
anghel
anghelika
angie
angkak
angkan
angkang
angkat
angkin
angking
angkinin
angkop
angkor
angle
anglican
anglikano
anglo
angola
angono
angry
anguilla
angus
ani
anibersaryo
anim
anima
animal
animalia
animals
animasyon
animasyong
animated
animation
animator
animax
anime
animenewsnetwork
animnapu
animnapung
anino
aniplex
aniston
anita
anito
aniya
anjo
anjou
ankara
ann
anna
annales
annals
annan
anne
annette
annex
annibale
annie
anniversary
anno
annotated
announce
announced
announcement
announces
announcing
annual
annunziata
annurev
ano
anomang
anong
anonymous
another
ans
anson
answer
answers
ant
antagonist
antarctic
antarctica
antartika
antas
ante
antena
anterior
anthem
anthology
anthony
anthrax
anthropology
anti
antibiotic
antibiotiko
antibiyotiko
antibody
antidepressant
antigens
antigong
antigua
antilles
anting
antioch
antiochus
antioquia
antipapa
antipas
antipolo
antique
antiquities
antiquity
antiretroviral
anto
antoine
antoinette
antolohiya
anton
antoni
antonia
antonino
antonio
antony
antropologo
antropolohiya
antropolohiyang
antwerp
anu
anuman
anumang
anunsiyo
anunsyo
anus
anvil
anwar
anxiety
any
anyaya
anyo
anyone
anyong
anyos
anything
ao
aoi
aol
aomori
aosta
aoste
aoyama
ap
apa
apache
aparador
aparato
aparatong
aparisyon
apart
apartheid
apartment
apat
apatang
apatnapu
apatnapung
apaw
apayao
apdo
ape
apec
apektado
apektadong
apela
apelyido
apelyidong
apenino
apes
apganistan
aphrodite
api
aplikante
aplikasyon
aplikasyong
apo
apocalipsis
apocalypse
apocrypha
apog
apokripa
apolinario
apollo
apong
apostle
apostles
apostol
apostolic
apostoliko
apostolikong
apostolo
apoy
app
appeal
appeals
appear
appearance
appearances
appeared
appears
appendix
appl
apple
appleton
application
applications
applied
apply
appointed
appointment
approach
approaches
approval
approved
approves
approximately
apps
apr
aprika
aprikano
aprikanong
april
aproksimasyon
apruba
apt
apuhan
apulia
aqua
aquaman
aquarius
aquatic
aque
aquila
aquilino
aquinas
aquino
aquitania
ar
ara
arab
arabe
arabeng
arabia
arabian
arabic
arabiko
arabo
arabong
arabyang
arafat
arago
aragon
aragones
aral
aralan
aralin
araling
aram
aramaic
aramaiko
arameo
araneta
arang
araro
arashi
araw
arbe
arc
arcade
arcadia
arcangelo
arch
archaea
archaeological
archaeology
archaic
archbishop
archdiocese
archer
archery
archi
archie
archimedes
archipelago
architect
architects
architectural
architecture
architettura
archive
archived
archivedate
archives
archivio
arcilla
arctan
arctic
arda
are
area
areang
areas
areglo
arellano
arena
arenas
ares
aresto
arevalo
arezzo
argentina
argon
argos
argument
argumento
argumentong
arhentina
ari
aria
arian
ariana
ariang
arianismo
ariano
arias
ariel
aries
aring
arista
aristokrasya
aristokrata
aristoteles
aristotle
aritmetika
arius
arizona
arjun
arjuna
ark
arka
arkanghel
arkansas
arkeologo
arkeologong
arkeolohikal
arkeolohiko
arkeolohikong
arkeolohiya
arkibo
arkidiyosesis
arkipelago
arkitekto
arkitektong
arkitektura
arkitekturang
arko
arkong
arlene
arles
arlington
arm
armada
armado
armadong
armageddon
armand
armando
armas
armed
armellini
armenia
armenian
armenio
armenya
armenyo
armm
armor
arms
armstrong
army
arnaiz
arnaldo
arnibal
arno
arnold
aron
around
array
arrest
arrested
arrival
arrives
arrow
arroyo
arroz
ars
arsenal
arsenio
arsobispo
art
arte
artemio
artemis
artemisia
artepakto
arterya
arteryal
artes
arthropod
arthur
arti
article
articles
artificial
artiko
artikulasyon
artikulo
artikulong
artipakto
artipisyal
artist
artista
artistang
artistic
artistikong
artists
artritis
arts
arturo
aru
aruba
arun
arunachal
arxiv
aryan
as
asa
asahi
asal
asam
asamblea
asambleya
asang
asante
asap
asasinasyon
asawa
asawang
asbjørnsen
ascii
ascoli
asean
aseksuwal
asemblea
asembleya
aserbayan
aseri
asero
asetiko
asf
ash
asher
asherah
ashgate
ashikaga
ashita
ashley
ashliman
ashoka
ashton
ashur
ashurbanipal
asi
asia
asian
asiatic
asido
asidong
asignatura
asim
asin
asiria
asirya
asiryo
asis
ask
asked
asno
aso
asong
asosasyon
asosasyong
asp
aspects
aspekto
aspeto
aspetong
aspx
ass
assam
assassination
assault
assembly
assemblyman
assemblymen
assessment
asset
assets
assisi
assistance
assistant
associate
associated
associates
association
assumption
assunta
assyria
assyrian
astana
asterix
asteroid
asteroids
asteroyd
asthma
asti
astro
astrologo
astrology
astrolohiya
astronaut
astronomical
astronomikal
astronomiko
astronomiya
astronomo
astronomong
astronomy
astrophysical
astrophysics
asturiano
asturias
asuka
asukal
asul
asuncio
asuncion
asupre
aswang
asya
asyano
asyanong
asylum
at
ata
atake
atakeng
atakihin
atanasio
atas
atay
atbp
ate
ateista
aten
atenas
ateneo
atensiyon
atensyon
athanasius
atheism
athena
athens
athina
athlete
athletes
athletic
athletics
ati
atienza
atin
ating
atkins
atkinson
atlanta
atlantic
atlantiko
atlantis
atlas
atleta
atletang
atletika
atmospera
atmosperiko
atmospero
atmospheric
ato
atoll
atom
atomic
atomika
atomiko
atomikong
atomo
atomong
atoms
atonia
atp
atraksiyon
atraksiyong
atraksyon
atsushi
attack
attacks
attempt
attendant
attention
attic
attorney
attractions
attribute
atty
atu
atv
au
aubrey
auburn
auckland
auction
audience
audio
audit
audition
auditorium
audrey
auerbach
auf
aug
august
augusta
auguste
augustine
augusto
augustus
aulnoy
aung
aunor
aunt
aura
aurelio
auring
aurora
aus
austen
austin
australia
australian
australopithecus
australya
australyano
australyanong
austria
austrian
austriya
austro
austronesian
austronesyo
authentic
author
authorities
authority
authors
auto
autobiography
automatic
automatically
autonomiya
autonomous
autonomy
autore
autoridad
autosomal
autumn
aux
auxiliary
av
available
avant
avatar
ave
avec
avelino
avellino
avengers
avenida
aventino
avenue
average
aversa
avery
avex
avian
aviation
avicenna
avignon
avila
aviv
avoid
avril
aw
awa
awang
award
awarded
awardee
awards
awareness
away
awdisyon
awit
awitin
awiting
awstralya
awstronesyo
awtomatikong
awtonomiya
awtonomo
awtonomong
awtor
awtoridad
ax
axel
axis
ay
aya
ayala
ayan
ayang
ayano
ayase
ayat
ayaw
ayer
ayon
ayos
ayu
ayumi
ayunan
ayusin
ayutthaya
az
azalea
azerbaijan
azerbaijani
aziz
aztec
azul
azuma
azumanga
azusa
b
ba
baal
baba
bababa
babae
babaeng
babagsak
babagtasin
babaing
babala
babalik
babang
babasahin
babasahing
babayaran
babe
babel
babes
babilonia
babilonya
babilonyo
baboy
babu
babuyan
baby
babylon
babylonia
babylonian
bac
bacall
bach
bachchan
bachelor
back
background
backing
backstreet
backup
baclaran
bacnotan
bacolod
bacon
bacoor
bacteria
bacterial
bad
baden
badminton
badyet
bae
bafta
bag
baga
bagahe
bagama
bagaman
bagamat
bagang
bagatsing
bagay
baghdad
baging
bagkus
bagni
bago
bagon
bagong
bagoong
bags
bagsak
bagting
baguhan
baguhang
baguhin
baguio
bagumbayan
bagyo
bagyong
baha
bahagdan
bahaghari
bahagi
bahaging
bahagya
bahagyang
bahala
bahamas
bahasa
bahay
bahid
bahista
bahn
baho
bahrain
bahura
bai
bailey
bait
baitang
baja
baka
bakal
bakalaw
bakang
bakante
bakanteng
bakas
bakasyon
baker
baki
bakit
bakla
bakod
bakr
bakterya
bakteryang
baku
bakufu
bakulaw
bakuna
bakunang
bakuran
bakyum
bal
bala
balabal
balagtas
balagtasan
balahibo
balak
balakang
balaki
balakid
balan
balance
balang
balanga
balangay
balangiga
balangkas
balani
balanse
balarila
balarilang
balat
balayan
balbal
balbas
balboa
baldwin
bale
baler
balete
bali
balido
baligtad
baligtarin
balik
balikat
balintawak
balita
balitaan
balitang
baliw
baliwag
balkan
balkonahe
ball
ballad
ballerina
ballerini
ballesteros
ballet
balls
balo
balon
balong
balot
balota
baltazar
baltic
baltiko
baltimore
baluktot
balumbon
baluti
balyena
balyenang
bam
bamban
bambang
bamboo
bampira
ban
bana
banahaw
banal
banana
banate
banayad
banco
band
banda
bandai
bandang
bandar
bandcamp
bandera
bandido
bandila
bandilang
bandit
bands
bandung
bandz
bang
banga
bangalore
bangalter
banggaan
banggit
banggitin
banghay
bangin
bangka
bangkang
bangkay
bangketa
bangko
bangkok
bangkong
bangladesh
bangs
bangsamoro
bangui
bangungot
bangus
bani
banig
bank
banking
banks
banner
bannister
bansa
bansag
bansang
banshees
banta
bantam
bantas
bantay
bantayan
bantayog
bantog
bantu
bantwal
banu
banyaga
banyagang
banyo
bao
baog
bapor
baptist
baptiste
bar
bara
barack
baraha
barako
barangay
barangays
baranggay
baras
barbados
barbara
barbaro
barbarossa
barbell
barber
barbie
barbour
barbra
barbuda
barcelona
bard
bardot
barese
bargain
bari
bariabulo
bariabulong
bariasyon
baril
barilan
bariles
barkada
barker
barko
barkong
barletta
barlow
barmm
barnabas
barnes
barnett
baro
barok
baroko
barokong
baron
barong
baroque
barr
barra
barre
barrel
barrett
barretto
barrier
barrio
barrios
barry
barrymore
bars
bart
bartholomew
bartlett
bartolome
bartolomeo
barton
baruch
barya
baryang
baryant
baryante
baryasyon
baryo
baryon
bas
basa
basahan
basahin
basal
basalyo
basang
basco
base
baseball
based
basehan
basehang
basel
basement
baseng
basi
basic
basics
basikong
basil
basilan
basile
basilica
basilicata
basilika
basilio
basin
basis
baskagan
baskagang
basket
basketball
basketbol
basketbolista
basko
baso
basong
basque
bass
bassist
basta
bastos
basura
basyang
bat
bata
bataan
batalyon
batanes
batang
batangas
batas
batasan
batasang
batay
batayan
batayang
batch
baterya
bates
bath
bathala
batid
batiin
batik
batikang
batikano
batis
batman
bato
batok
batong
batsilyer
battalion
battista
battle
battles
battleship
batuan
batubalani
bauan
bauer
bautismo
bautista
bavaria
baviera
bawa
bawal
bawang
bawas
bawasan
bawat
bawiin
baxter
bay
bayabas
bayad
bayag
bayan
bayang
bayani
bayanihan
bayaning
bayaran
bayarin
bayaw
baybay
baybayin
baybaying
bayesian
baylon
bayramov
bayrus
baywang
bazaar
bazhov
bb
bbc
bc
bce
bd
be
bea
beach
beagle
beaked
beam
bean
beans
bear
beard
bears
beast
beat
beata
beatipikasyon
beatles
beatrice
beatriz
beats
beauties
beautiful
beauty
bec
became
because
beck
becker
beckerath
becky
become
becomes
becoming
bed
beda
beddomeia
bee
beef
been
beer
beethoven
beetle
beeton
before
began
begin
beginning
beginnings
begins
behavior
behavioral
behaviour
behind
bei
beijing
being
beirut
beis
beke
bektor
bel
bela
belarus
belarusian
bele
belen
belfast
belgian
belgium
belgrade
belhika
belhikang
belief
beliefs
believe
believed
belinda
belize
bell
bella
belle
belleza
belli
bello
bells
belly
belmonte
belo
belong
belosidad
beloved
below
belt
beltran
belvedere
bem
ben
bench
benedetto
benedict
benedictino
benedicto
benepisyo
benepisyong
beneswela
benevento
bengal
bengali
benguela
benguet
beni
benigno
benin
benitez
benito
benjamin
benjie
bennett
benny
benoist
benson
benta
bentilasyon
bento
benton
benus
benz
beowulf
ber
berber
berde
berdeng
berdugo
berg
bergamasco
bergamasque
bergamo
bergen
berger
bergman
bergoglio
berkeley
berlin
berliner
bermuda
bern
bernabe
bernadette
bernakular
bernal
bernard
bernardino
bernardo
bernhard
bernie
bernini
bernstein
berry
bersikulo
bersiyon
bersiyong
berso
bersyon
bersyong
bert
bertebrado
bertha
bertrand
beses
bessie
best
bet
beta
beterano
beteranong
beth
bethlehem
better
betty
between
beverly
beyer
beyonce
beyond
beysbol
bf
bg
bgy
bgyo
bh
bhutan
bi
bia
biagio
biak
bianca
bianchi
bianco
bias
bibcode
bibi
bibig
bibigyan
bibingka
bibit
bible
biblegateway
bibleref
bibleverse
biblia
biblical
biblikal
bibliography
biblioteca
bibliotheca
bibliya
bibliyang
biblya
bicol
bicutan
bid
bida
bidang
biden
bidyo
bidyong
bieber
bien
big
bigas
bigat
bigay
bigger
biggest
bigkas
bigkasin
bigkis
bigla
biglaan
biglaang
biglang
bigo
bigong
bigote
bigyan
bigyang
bihag
bihar
bihasa
bihasang
bihira
bihirang
bihon
bikini
bikol
bikolano
biktima
bilang
bilanggo
bilanggong
bilangguan
bilangin
bilateral
bilhin
bilibid
bilig
bilihin
bilingual
biliran
bilis
bill
billboard
billie
billion
billy
bilog
bilugan
bilugang
bilyon
bilyong
bin
binabago
binabagtas
binabanggit
binabantayan
binabasa
binabawasan
binabayaran
binabaybay
binago
binagong
binaha
binalaan
binalak
binalewala
binaligtad
binalik
binanggit
binangonan
binansagan
binansagang
binaril
binary
binaryong
binasa
binase
binata
binatang
binatay
binati
binatikos
binatilyo
binawasan
binawi
binawian
binay
binayaran
binaybay
binding
binebenta
bing
bingen
bingi
bingit
binh
binhi
binibigay
binibigkas
binibigyan
binibigyang
binibilang
binibili
binibini
binibining
binibisita
binigay
binigkas
binigyan
binigyang
binihag
binili
bininyagan
binisita
binitay
bino
binomba
binondo
binoto
bintana
bintang
binti
binubuksan
binubuo
binugbog
binuhay
binuksan
binunyag
binuo
binuwag
binyag
bio
biochemistry
biodiversity
biographical
biography
biol
biological
biology
biolohikal
biolohiya
biolohiyang
biotechnology
bipolar
bir
bird
birdhouse
birdlife
birds
birhen
birheng
birmano
birmingham
biro
birth
birthday
birtud
birus
bis
bisa
bisantino
bisantinong
bisaya
bisayas
bise
biseksuwal
bisexual
bishop
bishops
bisig
bisikleta
bisiro
bisita
bisitahin
bisitang
biskwit
bismarck
bison
bisperas
bissau
bisset
biswal
bisyesto
bisyo
bit
bitag
bitak
bitamina
bitbit
bitcoin
bitcoins
bitter
bituin
bituing
bituka
biyadukto
biyahe
biyaheng
biyas
biyaya
biyeloruso
biyenan
biyenang
biyernes
biyetnam
biyetnames
biyokimika
biyolin
biyolohikal
biyolohiya
biyolohiyang
biyuda
biz
bizantino
bj
bjo
bjork
bk
bl
black
blackburn
blackpink
blackwell
blade
blair
blake
blanca
blanchett
blanco
blangkong
blas
blast
bleach
bleaching
blend
blessed
blg
blica
blige
blind
bliss
blitz
bloc
bloch
block
blockbuster
blockchain
blocks
blog
blogger
blogs
blogspot
bloke
blokeng
blonde
blondie
blood
bloody
bloom
bloomberg
bloomington
bloomsbury
blossom
blow
blu
blue
blues
blumentritt
blunt
blur
bmatrix
bmg
bmi
bmj
bn
bnk
bo
boa
boac
board
boat
bob
bobbio
bobby
bobo
boca
bocaue
bocelli
bodega
bodhi
bodhisattva
bodies
body
bodyguard
boeing
bogota
bohemia
bohemya
bohol
bohr
bokabularyo
bokal
bokalista
bokan
bokasyonal
boksing
boksingero
boksingerong
boku
bol
bola
bolang
bold
boldsymbol
boli
bolinao
bolivia
bollywood
bolo
bologna
bolon
bolonia
bolt
boltahe
bolton
boluntaryo
boluntaryong
bolyum
bom
bomb
bomba
bombang
bombay
bomber
bombero
bombing
bombings
bombo
bon
bonaparte
bond
bondoc
bone
bones
bong
bongbong
boni
bonifacio
bonn
bonnie
bono
bonobo
bonobos
bonsai
bontoc
bonus
boo
book
booker
booklet
books
booksources
bookstore
boom
boost
boot
booth
boots
booty
bora
boracay
borbon
bordeaux
border
borders
borghi
borgia
borgo
boris
born
borneo
boro
borongan
borough
borromeo
borromini
borys
bosco
bose
boses
bosnia
boson
boss
boston
bot
bota
botanical
botanika
botaniko
botante
botany
bote
both
boto
botohan
botong
botswana
bottom
boubli
boulevard
bound
boundaries
boundary
bourbon
bow
bowers
bowie
bowl
bowling
bowser
box
boxer
boxing
boy
boyband
boycott
boyd
boyfriend
boyle
boys
boz
bp
bpi
br
bra
bracken
brad
bradford
bradley
bradshaw
brahma
brahmi
braille
brain
branch
brand
brandeburgo
brandenburg
brandon
brands
brasil
braso
brassica
braun
brave
bravo
brazil
brazilian
bread
break
breakdown
breakfast
breaking
breaks
breakthrough
breast
breath
breed
brembo
bremen
brenda
brendan
brennan
brent
brescia
bresciano
breton
brett
breuer
brexit
brgy
brian
brick
bride
bridge
bridges
bridget
brie
brief
briefing
brien
brigada
brigade
bright
brigitte
brill
brillantes
brilliant
brilyante
brindisi
bring
bringing
brings
brisbane
briseo
bristol
brit
britain
britaniko
britanikong
britannica
britanya
british
britney
briton
britong
britpop
britt
brittany
bro
broad
broadband
broadcast
broadcaster
broadcasting
broadway
brock
brocka
brodkast
brodkaster
broke
broken
bronse
bronte
bronx
bronze
brook
brooke
brooklyn
brooks
bros
brosnihan
brother
brotherhood
brothers
brought
brown
browne
browning
browser
bru
bruce
bruha
brunei
brunner
bruno
brunswick
bruselas
brush
brussels
brutal
bryan
bryant
bs
bsp
bts
bu
bubalus
bubble
bubbling
bubong
buboy
bubuo
bubuyog
buchanan
bucharest
buck
buckingham
budapest
buddha
buddhism
buddhist
buddy
budget
budhi
budismo
budismong
budista
budistang
buena
buenaventura
buenavista
buencamino
buendia
bueno
buenos
buffalo
bug
bughaw
bugs
bugso
bugtong
buhakag
buhangin
buhat
buhawi
buhay
buhayin
buhok
buhol
buhos
build
builder
building
buildings
built
bukal
bukana
bukang
bukas
bukavu
bukid
bukidnon
bukirin
buklod
buko
bukod
bukol
bukong
buksan
bukung
bula
bulacan
bulag
bulaga
bulak
bulakan
bulaklak
bulalakaw
bulan
bulang
bulate
bulati
bulating
bulebar
bulgar
bulgaria
bulgarian
bulgaro
bulgarya
bulgogi
bulkan
bulkang
bulkanikong
bull
bullet
bulletin
bullock
bully
bullying
bulo
bulok
bulong
bulsa
bulubundukin
bulubunduking
bulusan
bulutong
bulwagan
bulwagang
bum
bumaba
bumababa
bumabagsak
bumabagtas
bumabalik
bumagal
bumagsak
bumalik
bumaling
bumangon
bumasa
bumbero
bumbu
bumenta
bumibili
bumibisita
bumida
bumili
bumisita
bumoto
bumubuo
bumuo
bun
bundle
bundok
bunga
bungad
bungang
bunganga
bungo
bunin
bunko
bunny
bunnymen
bunso
bunsod
bunsong
buntala
buntalang
buntis
bunton
buntot
buo
buod
buong
burador
burden
bureau
burger
burgos
buri
burial
burias
buried
burke
burkina
burlington
burma
burmes
burmese
burn
burnham
burning
burns
burol
burton
burundi
bus
busabos
busan
busch
bush
business
businessman
businessmirror
businessweek
businessworld
busog
busy
but
butas
butch
butiki
butiking
butil
butler
buto
butong
butter
butterfly
butuan
buuin
buumbilang
buwagin
buwan
buwanang
buwang
buwaya
buweno
buwis
buy
buzz
by
byblos
bye
byrne
byron
byzantine
byzantium
c
ca
caballero
cabanatuan
cabello
cabeza
cabiao
cabin
cabinda
cabinet
cable
cabo
cabral
cabrera
cabrini
cabuyao
caceres
cad
cadiz
cady
caesar
caesarea
cafe
caffe
cagayan
cage
cagliari
cai
cain
cainta
cairo
cake
calabanga
calabarzon
calabres
calabria
calabro
calamba
calamity
calanog
calapan
calauan
calbayog
calcio
calcium
calculus
calcutta
calderon
caldwell
cale
caledonia
calendar
calgary
cali
california
call
calle
called
callicebus
calling
calls
caloocan
caltanissetta
calumpit
calungsod
calvi
calvin
calzado
cam
camarines
cambodia
cambrian
cambridge
came
cameo
camera
camerino
cameron
cameroon
camiguin
camila
camille
camino
camonica
camp
campaign
campania
campano
campbell
campi
campo
campobasso
campos
campus
camus
can
canaan
canada
canadian
canal
cananeo
canarias
canberra
cancer
candaba
candelaria
candice
candida
candidate
candidates
candle
candy
canis
canlas
canlubang
cannabis
cannes
cannon
cannot
canon
canonical
canterbury
canto
canton
cantor
canvas
canyon
cao
cap
capacity
capas
capcom
cape
capistrano
capita
capital
capitalism
capitals
capitan
capitol
capiz
capo
cappella
capri
capsicum
capsule
captain
capture
capua
car
cara
caracas
caracciolo
caraga
caravaggio
carbon
carbonate
carboniferous
card
cardiac
cardinal
cardona
cards
care
career
carey
cargo
caribbean
caridad
carin
carl
carla
carles
carlo
carlomagno
carlos
carly
carmel
carmela
carmelita
carmelo
carmen
carmencita
carmine
carmona
carnegie
carney
carnival
carnivora
caro
carol
carole
carolina
caroline
carolyn
carpenter
carpet
carpi
carpio
carr
carracci
carrara
carreras
carrie
carrier
carries
carroll
carry
cars
carson
carta
carter
carthage
cartoon
cartoonist
carvajal
cary
cas
casa
casablancas
casal
casale
casas
case
caserta
cases
casey
cash
cashbox
casiguran
casimiro
casino
casper
caspian
cassandra
cassell
cassette
cassino
cassius
cast
castan
caste
castel
castellana
castelli
castello
castelnuovo
castiglione
castilla
castillo
casting
castle
castro
castrum
casts
cat
catalan
catalina
catalog
catalogue
catalonia
catanduanes
catania
catanzaro
catarman
catbalogan
catch
catechism
catedral
categories
category
caterina
cathe
cathedral
catherine
catholic
catholicism
cathy
cato
catriona
catrobat
cats
cattedrale
cauayan
caucasian
caucasus
caught
cause
caused
causes
cava
cave
cavendish
cavinti
cavite
cavitex
cavity
cayabyab
cayetano
cayman
cb
cbc
cbcp
cbe
cbn
cbnnews
cbs
cc
ccp
cctv
cd
cdc
cdot
cdots
ce
ceaus
cebu
cebuano
cecil
cecile
cecilia
cecilio
cecille
cedar
cedric
cedsci
celebes
celebrate
celebrated
celebrates
celebrating
celebration
celebrities
celebrity
celeste
celestial
celia
celine
cell
cellphone
cells
cellular
celsius
celso
celtic
cemetery
cengage
cenon
censo
censor
censorship
census
censuses
censusindia
cent
centauri
centennial
center
centers
central
centre
centro
centuries
century
ceo
cera
cerden
cereal
cerebral
ceremonies
ceremony
ceres
cerezo
cern
cerreto
cerro
certain
certificate
certification
certifications
certified
cervantes
ces
cesar
cesare
cesena
cetacean
ceti
ceylon
cf
cfc
cfr
cg
cgi
ch
cha
chacha
chad
chadwick
chae
chai
chain
chair
chairman
chalamet
chalcedon
challenge
challenger
challenges
cham
chamber
chamberlain
chambers
chamorro
champ
champa
champion
champions
championship
championships
chan
chance
chancellor
chandigarh
chandler
chandra
chanel
chang
change
changed
changes
changing
changwat
channel
channels
chanrobles
chao
chaos
chapel
chapman
chapter
chapters
chapterurl
character
characteristics
characters
charge
charged
chargers
charges
charito
charity
charles
charleston
charlie
charlize
charlotte
charm
charming
chart
charter
chartered
charting
charts
chase
chat
chats
chau
chaucer
chavacano
chavez
che
check
ched
cheese
chef
chelsea
chem
chemical
chemistry
chemokine
chen
cheney
cheng
chennai
cheonan
cher
cherie
cherokee
cherry
cheryl
chess
chest
chester
cheung
chevalier
chevrolet
chhattisgarh
chi
chia
chiaki
chiang
chianti
chiara
chiba
chicago
chichester
chicken
chico
chief
chiesa
chiese
chieti
chigi
chihuahua
chika
child
childhood
children
chile
chilean
chili
chimpanzee
chin
china
chinatown
chinchilla
chinese
ching
chino
chip
chisholm
chito
chittoor
chiu
chizuru
chloe
chloride
cho
choco
chocolate
choi
choice
choir
chomsky
chong
chongqing
choose
chopin
chopra
chorus
chosen
chosun
chou
chow
chris
christ
christgau
christi
christian
christianity
christians
christie
christin
christina
christine
christmas
christoph
christophe
christopher
christophers
chromosome
chromosomes
chronic
chronicle
chronicles
chronological
chronology
chu
chua
chuck
chucky
chul
chun
chung
church
churches
churchill
ci
cia
ciaaw
ciara
cicero
cicierega
cid
cie
cielo
cignal
cilentano
cilento
cimatu
cincinnati
cinco
cinderella
cindy
cine
cinema
cinemalaya
cinematic
cinta
cio
cipriano
circa
circle
circuit
circulation
circumcision
circumstances
circus
cirilo
ciro
cis
cisco
cit
cita
citation
citations
cite
cited
cites
cities
citing
citizen
citizens
citizenship
citra
citrus
citta
city
citypopulation
ciudad
civic
civil
civilization
civita
civitella
cj
ck
cl
clade
claim
claims
clair
claire
clan
clara
clare
clarence
clarendon
clarissa
clark
clarke
clarkson
claro
clase
clash
class
classic
classical
classics
classification
claude
claudia
claudine
claudio
claudius
claus
claveria
clay
clayton
cle
clean
clear
clement
clemente
cleopatra
clerk
cleveland
click
clifford
climate
clin
clinic
clinical
clint
clinton
clio
clip
clippers
clock
clone
close
closed
closer
closet
closing
closure
clothing
cloud
clouds
clover
clown
club
cluster
clyde
cm
cmd
cms
cmt
cn
cnbc
cnet
cnn
cnnphilippines
co
coa
coach
coal
coalition
coast
coastal
coat
coauthors
cobra
coca
cocaine
cochrane
cockatoo
coco
coconut
cocos
code
codes
codex
coding
cody
coffea
coffee
cognitive
cogon
cohen
coin
coins
cojuangco
col
cola
cold
coldplay
cole
colegio
coleman
colgate
coli
colin
coliseum
collaboration
collaborative
collapse
colle
collected
collection
collections
collective
collector
college
colleges
collegiate
colli
collider
collier
collingwood
collins
colo
cologne
colombia
colombian
colombo
colon
colonel
colonia
colonial
colonna
colony
color
colorado
colored
colors
colosas
colour
columba
columbia
columbus
column
com
coma
comaneci
combat
combined
comcast
come
comeback
comedian
comedy
comelec
comercio
comes
comet
comfort
comic
comics
coming
comite
comm
command
commander
commemorative
commencing
comment
commentary
comments
commerce
commercial
commission
commissioner
committee
common
commonly
commons
commonwealth
commune
communes
communication
communications
communism
communist
communities
community
commuter
como
comoros
comp
compact
companies
companion
company
comparative
compare
compared
comparison
compendium
competition
competitive
compilation
complete
completed
completely
complex
component
composer
composition
compostela
compound
compounds
comprehensive
compton
computational
computer
computers
computing
comunale
comune
comuni
con
conan
conca
concattedrale
concepcio
concepcion
concept
conception
concepts
concern
concerned
concerning
concerns
concert
concise
concordance
concordia
conde
condensed
condition
conditions
condom
conduct
conducted
coney
conference
confirmed
confirms
conflict
confucianismo
confucius
confused
confusion
cong
congo
congregation
congress
congressional
congressman
conjugation
connect
connecticut
connection
connector
connell
connie
connor
conquest
conrad
conrado
consciousness
consensus
consequence
consequences
conservation
conservative
consider
considered
consiglio
consolacion
console
consolidated
consonant
consonants
consortium
conspiracy
constable
constance
constancia
constant
constantine
constantino
constantinopla
constantinople
constantius
constituent
constitution
constitutional
construction
consuelo
consul
consultant
consumer
consumption
contact
containing
contains
contemporary
content
contents
contes
contest
contestant
contestants
context
conti
continent
continental
continue
continues
continuing
continuity
continuum
contract
contribution
contributions
control
controlled
controversy
convention
conversation
converse
conversion
convert
converting
cook
cookbook
cookie
cooking
cool
cooper
cooperation
cooperative
coordinates
coordinating
coordination
coordinator
cop
copd
cope
copenhagen
copernicus
copies
copper
cops
coptic
copy
copyright
cor
coral
corazo
corazon
cord
cordero
cordillera
cordova
core
corey
corinto
cork
corn
cornejo
cornelius
cornell
corner
cornwall
coron
corona
coronation
coronavirus
coronel
corp
corporate
corporation
corporations
corps
corpus
corpuz
corrado
corrales
correct
corregidor
correspondence
correspondent
corruption
corsica
corso
corte
cortes
cortesi
cortex
cortez
corticosteroid
cortina
cortona
cory
cos
cosenza
cosimo
cosmic
cosmo
cosmopolitan
cosmos
cosplay
cost
costa
costume
cotabato
cottage
cotton
coubertin
could
coulomb
council
councils
count
countdown
counter
counties
counting
countries
country
counts
county
coup
couple
couples
courage
courier
course
courses
court
courtney
courts
cousteau
cov
cover
coverage
covered
covers
covid
cow
cowboy
cowell
cox
coxon
cp
cpu
cr
crab
craft
craig
crame
crane
crash
crassus
crater
crawford
crazy
crc
cream
create
created
creating
creation
creative
creator
credit
credited
credits
creed
creek
crema
cremona
creole
crescent
creta
cretaceous
crete
crew
cricket
cricketer
crime
crimea
crimes
criminal
crimson
cris
crisanto
crising
crisis
crisostomo
crispin
cristiana
cristina
cristo
cristobal
criteria
critic
critical
critically
criticism
critics
critique
croatia
croatian
croce
cronica
cronus
crony
crop
crosby
cross
crossing
crossover
crossroads
crow
crowd
crown
crowned
crowther
cruise
crunchyroll
crusade
crush
cruz
cry
crying
crypto
cryptocurrencies
cryptocurrency
crystal
crystalyn
cs
css
ct
cu
cuba
cuban
cubao
cube
cuenca
cuisine
cullen
cult
cultura
cultural
culture
cultures
cum
cumulative
cunanan
cuneiform
cuneta
cunningham
cup
cupid
cura
curac
cure
curia
curie
curious
curlie
curr
currency
current
currently
curriculum
curry
curse
curtin
curtis
curve
cusio
custom
customer
customs
cut
cute
cuts
cutting
cuvier
cv
cw
cx
cyber
cyborg
cycle
cycling
cyclone
cynthia
cyprus
cyril
cyrus
cyworld
czech
czechoslovakia
d
da
daambakal
daan
daanan
daanang
daang
daangbakal
daantaon
dabaw
dacera
dad
dadaan
dadalhin
daddy
dae
daegu
daet
daft
dag
daga
dagan
dagang
dagat
dagdag
dagdagan
daging
dagitab
daglat
dagliang
dagta
dagupan
dahan
dahang
dahas
dahil
dahilan
dahilang
dahl
dahon
dahong
dai
daigaku
daigdig
daily
daimyo
daing
daioh
dairy
daisuke
daisy
dakila
dakilang
dako
dakong
dakota
dakpin
dal
dala
dalag
dalaga
dalagang
dalagita
dalahikan
dalai
dalampasigan
dalandan
dalang
dalangin
dalas
dalawa
dalawahan
dalawahang
dalawampu
dalawampung
dalawang
dale
dalhin
dali
daliri
dalisay
dalisdis
dalit
dalla
dallas
daloy
dalton
dalub
dalubhasa
dalubhasaan
dalubhasaang
dalubhasang
dalubwika
daluyan
daluyong
daly
dam
dama
damage
damasco
damascus
damaso
dambana
dambanang
dambuhala
dambuhalang
damdamin
damdaming
dame
dami
damian
damien
damit
damo
damon
damong
dampa
damuhan
dan
dana
danao
danaya
dance
dancer
dancers
dances
dancing
dane
danes
dang
dangal
danger
dangerous
danica
daniel
daniela
danielle
daniels
danilo
danish
danny
dans
dantaon
dantaong
dante
dantes
danube
dao
dap
dapat
daphne
dapitan
dar
daraga
darating
dare
dari
dario
darius
dark
darkness
darling
darna
darren
dart
darussalam
darwin
das
dasal
dasalan
dash
dasmarin
dat
data
dataarchivio
database
datapuwa
datapwat
date
dated
dates
dati
dating
dato
datos
datu
dau
daughter
daughters
daum
daungan
daungang
davao
dave
david
davide
davidson
davies
davis
davison
davy
daw
dawkins
dawn
dawson
day
dayag
dayami
dayang
dayap
dayo
days
daytona
dayuhan
dayuhang
db
dc
dd
de
dea
dead
deadline
deadly
deadurl
deaf
deafness
deakono
deal
deals
dean
dear
death
deathly
deaths
debate
debbie
deboniyano
deborah
debosyon
deboto
debt
debut
debuts
dec
decade
decades
deccan
december
decision
deck
declaration
declared
declares
declaring
decline
decree
dedicated
dedikasyon
dee
deep
deepika
deer
def
default
defence
defender
defense
defensive
defensor
deficiency
defined
definition
definitions
definitive
degeneres
degli
degree
degrees
degri
degring
dei
deities
deity
dekada
dekadang
dekano
deklarasyon
deklinasyon
dekorasyon
dekreto
del
dela
delas
delaware
delayed
delegado
delegasyon
delfin
delgado
delhi
delia
delight
delivery
dell
della
delle
dello
delos
delphi
delta
delusyon
deluxe
dem
demand
demanda
demi
deming
demo
democracy
democrat
democratic
democrats
demografiche
demographia
demographic
demographics
demography
demograpiko
demograpiya
demokrasya
demokrasyang
demokratiko
demokratikong
demon
demons
demonstrador
demonstrasyon
demonyo
demonyong
demoscope
den
dench
dendle
deng
dengan
dengeki
dengue
denies
denim
denis
denise
denisovan
denmark
dennis
denominador
denominasyon
denominasyong
denr
densetsu
densidad
density
dental
dentista
dentistry
denver
deo
deosai
departamento
departamentong
department
departments
depeche
deped
depekto
depende
depensa
depinisyon
deploy
depok
deposito
depot
deprecated
depression
depresyon
depresyong
dept
depth
deputy
der
derby
derek
deribatibo
derived
derrick
des
descartes
descendants
descent
deschanel
described
description
descriptions
desentralisadong
desert
desi
design
designation
designed
designer
designers
desimal
desire
desisyon
desisyong
desk
deskripsiyon
desktop
desmond
despite
destinasyon
destinasyong
destination
destiny
destroyer
destruction
det
detail
detailed
details
detalyado
detalyadong
detalye
detected
detection
detective
determinado
determinasyon
detroit
deus
deuterocanonico
deuterokanoniko
deuteronomio
deuteronomy
deutsch
deutsche
deutschen
deutscher
deutschland
deux
dev
deva
devanagari
develop
developed
developer
developing
development
developmental
developments
dever
deverell
devi
device
devices
devil
devon
devonian
dewan
dewey
dexter
dezember
df
dfa
dfb
dhabi
dharma
di
dia
diabetes
diablo
diagnosis
diagnostic
diagram
dial
dialect
dialects
dialogue
dialogues
diamante
diametro
diamond
diana
diane
diano
diaries
diario
diary
dias
diaspora
diaz
dibdib
dibersidad
dibisyon
dibisyong
diborsiyo
diborsyo
dibuho
dibuhong
diccionario
dice
dick
dickinson
dictatorship
dictionaries
dictionary
did
didn
die
died
diego
dies
diesel
diet
dietrich
difference
differences
different
differential
difficult
difficulty
digest
digimon
digit
digital
digmaan
digmaang
dignidad
digos
digri
digring
dihital
diin
dike
dikit
diksiyonaryo
diksiyonaryong
diksiyunaryo
diksiyunaryong
diksyonaryo
diksyonaryong
diksyunaryo
diksyunaryong
diktador
diktadura
diktadurya
dil
dila
dilaw
dilemma
dilg
dili
dilim
diliman
dilis
dimaculangan
dimension
dimensional
dimensiyon
dimensiyonal
dimensiyong
din
dina
dinaanan
dinadaanan
dinadaglat
dinadala
dinagat
dinagdag
dinagdagan
dinaglat
dinakip
dinala
dinalaw
dinaluhan
dinamarka
dinamika
dinamikal
dinamiko
dinamikong
dinamita
dinastiya
dinastiyang
dindo
dine
dineklara
dinesenyo
ding
dingding
dingdong
dinger
dinirehe
dinirekta
dinisenyo
dinner
dino
dinosaur
dinosauro
dinosaurs
dinugtong
dinukot
dinurog
dio
diocese
diocleciano
diocletian
dioecesis
diokno
dioksido
dion
dionisio
dionysus
dios
diosdado
diosesis
dioxide
diperensiya
diperensiyal
diperensiyang
diploma
diplomacy
diplomasya
diplomat
diplomata
diplomatic
diplomatiko
diplomatikong
dipolog
diptonggo
dir
dirac
direct
directed
direction
directions
directly
director
directorate
directors
directory
direk
direksiyon
direksiyong
direksyon
direksyong
direkta
direktang
direktor
direktoryo
diretso
diretsong
dirty
dis
disability
disappearance
disaster
disasters
disc
discipline
disco
discography
discogs
discourse
discover
discovered
discovery
discussion
disease
diseases
disenyo
disenyong
disertasyon
dish
disiplina
disiplinang
disipulo
disk
diskarte
disko
diskretong
diskriminasyon
diskurso
disney
disorder
disorders
dispatch
display
displaystyle
dispute
disputed
distance
distansiya
distansiyang
distansya
distant
distinct
distinguished
distribusyon
distribusyong
distributed
distribution
district
districts
distrito
distritong
disyembre
disyerto
dition
ditions
dito
ditong
diumano
diva
diver
diverse
diversion
diversity
divide
divided
divina
divine
diving
division
divisions
divorce
diwa
diwang
diwata
dixon
diy
diyablo
diyagnosis
diyalekto
diyalektong
diyalogo
diyamante
diyametro
diyan
diyaryo
diyaryong
diyeta
diyos
diyosa
diyosan
diyosang
diyoses
diyosesis
diyus
diz
dizionario
dizon
dj
django
djibouti
djoser
dk
dl
dm
dmitry
dmu
dna
do
doble
dobleng
doc
docs
doctor
doctoral
doctorate
doctors
doctrine
doctrines
document
documentary
documentation
documents
dodge
dodson
does
doesn
dog
doggler
dogma
dogs
doh
doha
doherty
doi
doing
doj
doki
doktor
doktorado
doktoral
doktrina
doktrinang
dokumentado
dokumentadong
dokumentaryo
dokumentaryong
dokumentasyon
dokumento
dokumentong
dolan
doll
dollar
dollars
dolls
dolly
dolores
dolphin
dolphy
dolyar
dom
domain
dome
domenico
domestic
domestikadong
domestiko
domestikong
dominant
dominante
dominanteng
dominasyon
dominates
domingo
dominguez
domini
dominic
dominica
dominican
dominikano
dominique
domino
dominyo
dominyong
domus
don
dona
donald
donasyon
donato
done
donetsk
dong
donga
donkey
donna
donnell
donor
donovan
donya
doo
doom
doon
door
dopa
dopamino
doping
dora
doraemon
dorian
doris
dorothy
dorsal
dortmund
dos
dose
dosenang
dosis
dost
dot
dota
dotc
dotr
double
doubleday
doubles
doubt
doug
douglas
dove
dover
dow
down
downey
download
downloads
downs
downtown
doyle
dp
dpwh
dq
dr
dra
draco
dracula
draft
drag
dragon
dragong
dragons
drake
drale
drama
dramang
dramas
dramatic
dramatikong
draw
drawing
drayber
dream
dreaming
dreams
dress
drew
drift
drilling
drilon
drink
drive
driver
drivers
driving
droga
drogang
drop
drops
drosophila
drug
drugs
drum
drummer
drums
dry
ds
dsm
du
dua
dual
duarte
duavit
dub
dubai
dublin
duc
duchess
duck
duda
dudang
due
duel
duet
duffy
dugo
dugong
dugtong
dujuan
dukado
duke
dukesa
dukha
dukkha
duktor
dula
dulang
dulce
dulo
dulong
dulot
dumaan
dumadaan
dumadalaw
dumadalo
dumadaloy
dumadami
dumagat
dumaget
dumaguete
dumalaw
dumalo
dumaloy
dumami
dumanas
dumaong
dumaraan
dumarami
dumaranas
dumarating
dumas
dumating
dumayo
dumi
duncan
dunn
dunst
duo
duomo
duplicates
duran
durant
durarara
duration
durdy
durham
during
durog
dust
dutch
duterte
duty
duwag
duwende
duyan
dvd
dvds
dw
dwarf
dwayne
dwight
dx
dy
dyaryo
dyel
dyesebel
dying
dyip
dyipni
dyke
dylan
dynamic
dynamics
dynamite
dynasties
dynasty
dzbb
dzmm
dzrh
də
e
ea
each
eagle
ear
earl
earlier
earliest
early
earnhardt
earns
earth
earthquake
east
easter
eastern
easy
eat
eating
eb
eba
ebanghelista
ebanghelyo
ebanghelyong
ebert
ebidensiya
ebidensiyang
ebidensya
ebionita
ebionites
ebola
ebolb
ebolusyon
ebolusyonaryo
ebolusyonaryong
ebolusyong
ebook
ebreo
ebreong
ec
ecclesiastical
echo
echoes
ecija
eclipse
eco
ecological
ecology
economic
economics
economist
economy
ecosystem
ecq
ecuador
ecumenical
ed
eda
edad
eddie
eden
edessa
edgar
edgardo
edge
ediciones
edinburgh
edipo
edison
edisyon
edisyong
edit
edited
edith
editing
edition
editions
editor
editore
editori
editorial
editors
editoryal
editrice
edits
edizioni
edmonton
edmund
edna
edo
edom
eds
edsa
edu
eduard
eduardo
education
educational
educator
edukadong
edukador
edukasyon
edukasyonal
edukasyong
edward
edwards
edwin
ee
eehersisyo
eensayo
eerdmans
efeso
effect
effective
effects
efficacy
efforts
efren
eg
egan
egeo
egg
eggs
egidio
egl
ego
egypt
egyptian
eh
ehekutibo
ehekutibong
ehersisyo
ehersisyong
ehipsiyo
ehipsiyong
ehipto
ehiptologo
ehiptong
ehir
ehrman
ei
eid
eiffel
eigenmann
eight
eighth
eiji
ein
eine
einstein
einwohner
einwohnerinnen
either
ej
ejercito
ek
ekis
eklipse
ekolohikal
ekolohiya
ekonomika
ekonomikang
ekonomiko
ekonomikong
ekonomiks
ekonomista
ekonomistang
ekonomiya
ekonomiyang
ekosistema
eksakto
eksaktong
eksaminasyon
eksena
eksenang
eksepsiyon
eksibisyon
eksibit
eksistensiya
eksklusibo
eksklusibong
ekspedisyon
ekspedisyong
eksperimental
eksperimento
eksperimentong
eksperto
eksplorador
eksplorasyon
ekspres
ekspresyon
ekspresyong
ekstensiyon
ekstinksiyon
ekstinksiyong
ekstinto
ekstintong
ekstrang
ektarya
ektaryang
ekumenikal
ekwador
ekwasyon
ekwasyong
ekwilibrium
el
ela
elaeocarpus
elaine
elam
elba
elder
eleanor
elebasyon
elected
election
elections
electoral
electric
electrical
electricity
electro
electromagnetic
electron
electronic
electronics
eleksiyon
eleksyon
elektra
elektrikal
elektriko
elektrikong
elektrisidad
elektromagnetiko
elektromagnetikong
elektromagnetismo
elektron
elektronika
elektroniko
elektronikong
elektroniks
element
elemental
elementary
elementarya
elementaryong
elemento
elementong
elements
elena
elepante
elephant
elevation
eleven
eli
elia
elias
elijah
elisa
elisabeth
elise
eliseo
elite
eliza
elizabeth
elizalde
ella
elle
ellen
elliot
elliott
elliptical
ellis
elm
elmer
elmo
elohim
elpidio
elsa
else
elsevier
elton
elvis
ely
em
ema
email
emanuel
emanuele
embahada
embahador
embassy
emblem
embryo
emerald
emergence
emergency
emerging
emerhensiya
emerhensiyang
emeritus
emerson
emi
emil
emilia
emiliano
emilio
emily
eminem
emir
emirates
emisperyo
emissions
emma
emmanuel
emmy
emmys
emong
emosyon
emosyonal
emotion
emotional
emotions
emperador
emperatris
emperor
emperyo
empire
empires
empirikal
empleyado
employees
employer
employment
empowerment
empress
empty
emu
en
enamel
encantadia
encarta
enchanted
enciclopedia
encode
encore
encounter
encyclopaedia
encyclopedia
encyclopædia
end
endangered
ended
endemiko
ending
endless
endo
endorso
ends
ene
enemy
energy
enerhiya
enerhiyang
enero
enewsworld
eng
engagement
engels
engine
engineer
engineering
engineers
engkanto
engkwentro
engl
england
english
engrandeng
enhanced
enigma
enit
enix
enjoy
enki
enkidu
enlightenment
enlil
enma
enna
enoc
enoch
enough
enrico
enrile
enrique
enriquez
ensaym
ensemble
ensiklopedya
ensiklopedyang
ensima
ent
entablado
enteng
enter
enterprise
enterprises
enters
entertainer
entertainment
entidad
entire
entity
entrada
entrance
entre
entrepreneur
entries
entropiya
entry
enumerated
envelope
environment
environmental
enza
enzo
enzyme
eo
eocene
eos
ep
epektibo
epektibong
epekto
epektong
ephraim
epic
epidemic
epidemiology
epidemya
epifanio
epiko
epikong
epinephrine
epiphanius
episcopal
episentro
episkopal
episode
episodelink
episodes
episodyo
episodyong
epistemolohiya
epistle
epithet
epoch
eponymous
eps
epsilon
epstein
equal
equality
equation
equatorial
equestrian
equilibrium
equipment
equity
equivalent
er
era
erap
eraserheads
erasmus
ere
erectus
erehe
erehiya
ergaster
eri
eric
erica
erich
eridu
erik
erika
erin
eris
eritrea
erlewine
ermita
ermitanyo
ernest
ernesto
ernie
ernst
ero
eroplano
eroplanong
eros
erotiko
erotikong
error
eruption
erwin
erya
es
esa
esau
escape
escobar
escolta
escriva
escu
escudero
escuela
esdras
esensiya
esguerra
eskayan
eskimo
eskolar
eskoses
eskosya
eskrima
eskudo
eskultor
eskultura
eskwela
eskwelahan
eskwelang
eslabo
eslabong
eslobako
eslobakya
eslobeno
eslobenya
esmeralda
espada
espan
espanya
espanyol
espasyo
espasyong
especially
esperanto
esperanza
espesipikong
espesya
espesyal
espesyalidad
espesyalisadong
espesyalisasyon
espesyalista
espesye
espesyeng
espina
espinal
espinosa
espirito
espiritu
espiritung
espirituwal
espiritwal
espiya
espn
espo
espongha
esquire
essay
essays
essen
essene
essential
essex
est
esta
established
establishing
establishment
estadi
estadista
estadistika
estadistikal
estadistikang
estado
estadong
estados
estadyo
estasyon
estasyong
estatal
estate
estatwa
este
esteban
ester
estero
estetika
esther
estilo
estilong
estimate
estimated
estimates
estimulasyon
estokolmo
estonia
estonian
estonya
estonyo
estrada
estranghero
estratehikong
estratehiya
estrella
estrogen
estruktura
estrukturang
estudyante
estudyanteng
estudyo
et
eta
etc
eternal
ethan
ethel
ether
ethereum
etheria
ethical
ethics
ethiopia
ethiopian
ethnic
ethnicity
ethnologue
etika
etikal
etikang
etimolohiya
etniko
etnikong
etnisidad
eto
etrusko
etruskong
etsu
etymology
eu
eua
euclid
euclidean
eufrates
euge
eugene
eugenio
eukaristiya
eukaryote
eukaryotiko
eula
euler
eulogio
eun
euphrates
eur
eurasia
eurasian
eurasya
euripides
euro
eurogamer
europa
europe
european
europeo
europeong
eurostat
eurovision
eusebio
eusebius
ev
eva
evacuation
evaluation
evan
evangelical
evangelion
evangelista
evans
eve
evelyn
even
evening
event
events
ever
everest
everett
evergreen
every
everybody
everyday
everyone
everything
everywhere
evidence
evil
evita
evo
evol
evolution
evolutionary
evolved
ew
ewan
ex
exam
examination
example
excel
excellence
except
exchange
exchanges
excited
exclusive
exe
executive
exercise
exeter
exhibit
exhibition
exile
exist
existence
exit
exo
exodo
exodus
expand
expanded
expansion
expected
expedition
experience
experiences
experiment
experimental
experiments
expert
experts
explained
explains
exploitation
exploration
explore
explorer
exploring
explosion
explosive
expo
export
exposition
exposure
express
expression
expressway
extend
extended
extension
external
extinction
extra
extract
extraordinary
extraterrestrial
extreme
ey
eye
eyed
eyes
eyewitness
ez
ezekiel
ezra
f
fa
faber
fabian
fabio
fabregas
fabriano
face
facebook
faces
facilities
facility
fackler
fact
factbook
factfinder
facto
factor
factors
factory
facts
factsheet
faculty
faenza
failed
failure
fair
fairview
fairy
faith
faithful
fajardo
fake
fakultad
falcon
falkland
fall
fallen
falling
falls
false
famas
fame
fami
famicom
familia
familiar
families
family
famous
fan
fancy
fandom
fane
fang
fanny
fano
fans
fansite
fantastic
fantasy
fao
faq
far
fara
farewell
farm
farmer
farmers
farnese
farrell
farro
fashion
faso
fast
fastest
fat
fatal
fate
father
fathers
fatima
fault
fauna
faust
faustina
favorite
favourite
faye
fbi
fc
fda
fe
fear
fearless
feast
feat
feature
featured
features
featuring
feb
february
febvre
federal
federation
federico
fee
feed
feedback
feel
feeling
feelings
feels
feet
fei
felice
feliciano
felipe
felis
felix
fellow
fellows
fellowship
felt
female
feminism
feminist
femme
femmes
fencing
feng
ferdie
ferdinand
ferdinando
fergie
ferguson
fermi
fermion
fermo
fern
ferna
fernandes
fernandez
fernando
ferrara
ferrari
ferreira
ferrer
ferry
fest
festa
festival
festivals
fetus
feu
feud
fever
few
feynman
ff
fhm
fi
fiat
fiba
fiber
fibers
fibonacci
fiction
fictional
fide
fidel
fidlar
fief
field
fields
fierce
fiesta
fifa
fifth
fifty
fig
fight
fighter
fighters
fighting
figure
figures
fiji
fil
file
filemon
files
filibusterismo
filip
filipina
filipinas
filipino
filipinong
filipinos
filipo
filipos
filippo
filisteo
film
filmfare
filming
filmmaker
filmography
films
filomena
filter
fin
final
finale
finalist
finalists
finally
finals
finance
financial
find
finding
finds
fine
finest
finger
finish
finkelstein
finland
finlandes
finn
finnish
fire
firenze
firm
first
firth
fischer
fish
fishbase
fisher
fisheries
fishing
fission
fist
fit
fitness
fitr
fitzgerald
five
fix
fixed
fl
flag
flags
flagship
flame
flamen
flaminia
flanders
flansburgh
flash
flat
flavier
flavio
flavius
fleet
fleming
flemish
flerida
fletcher
flickr
flies
flight
flights
flint
flood
floods
floor
flor
flora
florante
florence
florencia
florencio
florentino
flores
floresiensis
florida
flow
flower
flowers
floyd
flu
fluid
flux
fly
flying
flynn
flyover
fm
fo
focus
foggia
foi
folds
foligno
folk
folklore
folklorista
folkloristang
folkma
folktale
folktales
follow
followed
followers
following
follows
fonda
fonovisa
font
fontaines
fontana
fonts
food
foods
fool
fools
foot
footage
football
footballer
footnote
for
forbes
forbidden
force
forced
forces
ford
forecast
foreign
forensic
forest
forestry
forever
forget
forgotten
fork
forli
form
formal
format
formation
formed
former
formerly
forms
formspring
formula
foro
forster
fort
forte
forteza
fortress
fortunato
fortune
forum
forward
foshan
fossil
fossils
foster
foto
found
foundation
foundations
founded
founder
founders
founding
foundry
fountain
fountains
four
fourier
fourth
fowler
fox
foxtrot
fpj
fr
fra
frac
fragment
fragrance
fraile
frame
framework
frana
franc
franca
francavilla
france
frances
francesca
francesco
franchise
francia
francine
francis
franciscan
franciscano
francisco
franco
frank
frankenstein
frankfurt
frankie
franklin
frans
franz
fraser
fratelli
fraternity
fray
frazione
fre
freak
fred
freddie
freddy
frederic
frederick
free
freedom
freeman
freeport
freestyle
freeze
freiburg
freight
french
frequency
frequently
fresco
fresh
freshman
freshwater
freud
fricative
friday
fried
friedman
friedrich
friedrichshain
friend
friendly
friends
friendship
fries
fritz
friuli
frog
from
front
frontier
frontline
frontman
frosinone
frost
frozen
frs
fruit
fruits
fry
ft
fu
fuego
fuel
fuentebella
fuentes
fuji
fujian
fujimoto
fujiwara
fukuoka
fukushima
fulbright
fulgado
full
fuller
fullmetal
fully
fun
function
functional
functions
fund
fundamental
fundamentals
funding
funds
funeral
fungi
fungus
funimation
funk
funny
fuori
further
fury
fuse
fushigi
fusion
futbol
future
fx
g
ga
gaano
gaanong
gaas
gabaldon
gabay
gabayan
gabby
gabbydictionary
gabi
gabinete
gabing
gabon
gaboy
gabriel
gabriela
gabriele
gabrielle
gaby
gaddafi
gaddi
gadget
gaeta
gaetano
gaffa
gag
gaga
gagamba
gagamit
gagamitin
gagampanan
gaganap
gaganapin
gagawa
gagawin
gagawing
gaia
gail
gaiman
gaisha
gaius
gakuen
gal
gala
galacia
galactic
galaksiya
galaksiyang
galang
galapong
galaw
galaxy
galbi
galbraith
gale
galen
galeriya
galerya
gales
gali
galicia
galilea
galileo
galing
galit
gall
gallagher
galleria
gallery
gallo
galloway
gallus
galo
galugarin
galvez
galyego
gambia
gamble
gamboa
game
gamecube
gameplay
gamer
games
gamespot
gaming
gamit
gamitin
gamiting
gamma
gamo
gamot
gampanan
gampanin
gampaning
gamu
gamugamo
gamutin
gan
gana
ganadora
ganadores
ganang
ganap
ganapin
ganda
gandara
gandhi
gang
ganges
gangster
ganito
ganitong
ganiyang
ganoon
ganoong
gansa
ganti
gantimpala
gantimpalang
ganun
ganyan
ganyang
gao
gaon
gap
gapan
garage
garahe
garantiya
garapon
garci
garcia
garde
garden
gardens
gardner
gargano
garing
garison
garland
garner
garrett
garrison
garupa
gary
gas
gaslighting
gasolina
gaspar
gaston
gastos
gastroenteraytis
gastrointestinal
gastusin
gasuklay
gat
gata
gatas
gate
gates
gateway
gatwood
gaudi
gauge
gaul
gaulle
gaultier
gauss
gautama
gave
gavin
gawa
gawaan
gawad
gawain
gawaing
gawang
gawgaw
gawi
gawin
gawing
gay
gaya
gayahin
gayak
gayo
gayomali
gayon
gayong
gayumpaman
gayun
gayundin
gayunman
gayunpaman
gaza
gazette
gazetteer
gb
gba
gc
gcatholic
gcq
gdp
ge
gear
geek
geiger
geisha
gel
gem
gemini
gen
gender
gene
genealogy
genera
general
generally
generated
generation
generations
generator
generic
genes
genesis
genet
genetic
genetics
geneva
genghis
genital
genius
gennaio
gennaro
genoa
genocide
genome
genomics
genova
genre
genres
gens
gensan
gensokyo
gentil
gentleman
genuine
genus
geo
geocities
geoff
geoffrey
geographic
geographical
geography
geologic
geological
geology
geometry
geophysical
georg
george
georges
georgetown
georgia
georgian
ger
gera
gerald
geraldine
gerard
gerardo
gerhard
gerilya
gerilyang
germ
german
germania
germany
gerona
geronimo
gerry
gershwin
gerwig
geschichte
gesu
get
gets
getting
getty
geum
geun
gh
ghana
ghil
ghost
ghosts
gi
gia
giacomo
giambattista
gian
gianni
giant
giants
gibbon
gibbs
gibraltar
gibson
gideon
gift
gig
giga
gil
gilagid
gilas
gilbert
gilberto
gilda
giles
gilgamesh
gilid
gilingan
giliw
gill
gilles
gillespie
gillian
gilmore
gin
gina
ginagabayan
ginagamit
ginagamitan
ginagamot
ginagampanan
ginaganap
ginagawa
ginagawang
ginagaya
ginahasa
ginalugad
ginamit
ginamitan
ginampanan
ginanap
ginang
ginantimpalaan
ginawa
ginawad
ginawan
ginawang
ginawaran
ginaya
ginea
ginebra
ginger
ginhawa
gini
giniba
giniling
ginintuang
ginn
ginoo
ginoong
ginto
gintong
ginugol
ginugugol
ginugunita
ginuhit
ginusto
ginustong
gio
gion
giordano
giorgio
giovanni
girl
girlfriend
girls
girolamo
gisaeng
gish
gising
gita
gitara
gitarista
github
gitling
gitna
gitnang
giulia
giuliano
giulio
giuseppe
give
given
gives
giving
giyera
giza
gl
glade
gladys
glaiza
glamour
glance
gland
glandula
glandulang
glasgow
glass
glee
glen
glenda
glenn
gli
global
globalisasyon
globalization
globe
globes
globo
gloria
glorietta
glorious
glory
glosbe
glossary
glukosa
glynne
gm
gma
gmail
gmanetwork
gmanews
gmbh
gmina
gmt
gn
gng
gnostiko
gnostisismo
gnp
gnu
go
goa
goal
goals
goanimate
gobernador
goblin
gobyerno
gobyernong
god
godavari
goddess
goddesses
gods
godzilla
goes
goethe
gogh
goguryeo
goin
going
gojoseon
goku
gold
goldberg
golden
goldman
goldstein
golf
goliat
golp
golpo
golpong
goma
gomez
gon
gondwana
gone
gong
goni
gonna
gonza
gonzaga
gonzales
gonzalez
gonzalo
goo
good
goodbye
goodman
goods
google
goose
gorbachev
gordon
gore
goreng
gorgeous
gorilla
gorilya
gorio
goro
goryeo
gospel
gospels
got
gotham
gothic
gotiko
gotikong
goto
gottfried
gottlieb
gould
gov
governance
government
governmental
governments
governor
governors
govt
gown
gp
gpl
gr
gra
grabidad
grabitasyon
grabitasyonal
grace
gracia
grad
grade
grado
gradong
graduate
graduation
gradwado
gradwadong
graf
graffiti
graft
graham
grain
gram
gramatika
grammar
grammy
gramo
gran
granada
grand
grande
grandes
grandmaster
grant
grap
graph
graphic
graphics
grapiko
grapikong
grapo
grass
grasya
grateful
grave
graves
gravina
gravity
gravure
gray
grazie
great
greater
greatest
greatness
greco
greece
greek
greeks
green
greene
greenhills
greenhouse
greenland
greenwich
greenwood
greg
gregor
gregorian
gregoriano
gregorio
gregory
gregoryano
greko
grenada
gresya
greta
gretchen
gretel
grey
grid
griego
griffin
griffith
griffiths
griko
grimm
grimms
grin
griyego
griyegong
gro
grolier
groove
gross
grosseto
grossing
ground
groundbreaking
grounds
group
groups
grove
grover
groves
grow
growing
grown
growth
gru
grunge
grupo
grupong
gruyter
grynberg
gsis
gta
gtv
gu
guadalupe
gualdo
gualinga
guam
guangdong
guangxi
guangzhou
guard
guardia
guardian
guardians
guatemala
gubat
gubyerno
gue
guerra
guerrero
guest
guetta
guevara
guevarra
guez
gugulin
gugustuhin
guhit
guho
gui
guia
guida
guidance
guide
guideline
guidelines
guides
guido
guiguinto
guild
guillermo
guilty
guimaras
guinea
guinness
guitar
guitarist
guitars
gujarat
gujarati
gulag
gulaman
gulang
gulat
gulay
gulf
gull
gulo
gulod
gulong
gulpo
gulugod
gum
gumaca
gumagabay
gumagala
gumagalaw
gumagaling
gumagamit
gumagampan
gumagana
gumaganang
gumaganap
gumagapang
gumagawa
gumala
gumalaw
gumaling
gumamit
gumampan
gumana
gumanap
gumanti
gumapang
gumastos
gumawa
gumising
gumugol
gumuhit
gumuho
gun
gundam
guni
gunita
gunitain
gunma
guns
gunting
guntur
guo
gupta
gurkha
guro
gurong
guru
gus
gusali
gusaling
gusot
gustav
gustave
gustavo
gusto
gustong
gustung
gut
gutenberg
guthrie
gutierrez
gutom
guwardiya
guy
guya
guyana
guys
guzma
guzman
gwen
gx
gyeonggi
gym
gymnasium
gymnast
gymnastics
gyo
gypsy
gyu
h
ha
haaretz
haba
habag
habagat
habambuhay
habanes
habang
habilis
habitat
habsburgo
hachiko
hachinohe
hachio
hacienda
hack
hacker
had
hadad
hades
hadith
hadji
hadlang
hadlangan
hadrian
hadron
hae
hagdan
hagdanan
hagdang
hagibis
hagod
hagonoy
hague
hagupit
hahanapin
hahantong
haharapin
hahatiin
hahn
hai
haifa
hail
hain
hainan
hair
haiti
haitian
haiyan
hajime
hajj
haka
hakbang
hakbangin
hakka
hakusensha
hal
halaga
halagang
halal
halalan
halalang
halaman
halamanan
halamang
halata
halatang
halaw
halaya
hale
haley
half
haligi
haliging
halik
halika
halikan
halili
halimaw
halimbawa
halimbawang
halina
halip
hall
halle
halloween
hallows
hallyu
halo
halong
halos
halsey
haluang
ham
hamad
hamada
hamak
hamayka
hamburg
hamilton
hamlet
hammadi
hammer
hammond
hammurabi
hamog
hamon
hampas
hampshire
hamunin
han
hana
hanap
hanapbuhay
hanapin
hanay
hancinema
hand
handa
handaan
handang
handball
handbook
handel
handog
hands
hang
hanga
hangad
hangal
hangang
hangarin
hangaring
hangeul
hangga
hanggahan
hanggan
hangganan
hangganang
hanggang
hangin
hanging
hango
hangul
hanja
hank
hanna
hannah
hannibal
hanoi
hanover
hans
hansel
hansen
hanson
hanyang
hanyu
hao
hapag
hapdi
hapis
haplogroup
hapo
hapon
hapones
hapong
happen
happened
happiness
happy
hapunan
har
hara
harald
harang
harangan
harap
harapan
harapang
harapin
harbin
harbor
harbour
harcourt
hard
hardcore
hardcover
hardin
hardinero
harding
hardware
hardwer
hardy
hare
harem
hari
harina
harinang
haring
harlem
harley
harlock
harmatz
harmony
harnaaz
harold
harp
harper
harpercollins
harrier
harriet
harris
harrison
harry
hart
hartford
haru
haruhi
haruka
harv
harvard
harvest
harvey
harvick
haryana
has
hasan
hasang
hash
hashim
hashimoto
hashtag
hassan
hastings
hat
hata
hate
hathaway
hati
hatiin
hatimbilang
hating
hatinggabi
hatol
hatta
hatulan
haumea
haunted
hausma
havana
have
haven
having
hawai
hawaii
hawaiian
hawak
hawakan
hawayano
hawk
hawkins
hawla
hay
haya
hayaan
hayaang
hayag
hayagang
hayato
hayden
hayes
haykap
hayley
haymarket
hayop
hayskul
hayti
hazel
hbo
hd
hdi
hdl
he
head
headed
headline
headlines
headquarters
headrest
heads
headword
healing
health
healthcare
healthy
hear
heard
hearing
hearn
hearst
heart
hearts
heat
heath
heather
heatseeker
heaven
heavenly
heavy
heavyweight
hebreo
hebreong
hebrew
hector
hedgehog
hee
hefner
hei
heian
heidegger
heidelberg
heidelbergensis
heidi
height
heights
heiner
heinrich
heinz
heisenberg
heisman
hejaz
hektarya
held
helen
helena
helene
helenistiko
helianthus
helicopter
helikopter
helium
helix
hell
hellboy
hello
helm
helmet
helmut
help
helped
helping
helsinki
hemispero
hemisphere
hemsworth
hen
henan
henares
henderson
hendricks
hendrix
hene
henera
heneral
henerasyon
henerasyong
henero
henesis
henetika
henetikang
henetiko
henetikong
henri
henry
henson
hentai
hentil
henus
henyo
heo
heograpikal
heograpiko
heograpikong
heograpiya
heograpiyang
heograpo
heolohikal
heolohiko
heolohiya
heometriko
heometrikong
heometriya
heometriyang
heorhiyano
hep
hepataytis
hepatitis
hepburn
hepe
hepeng
her
hera
heracles
herald
herbal
herbermann
herbert
hercules
here
heresiya
herge
heritage
herman
hermaniko
hermanikong
hermann
hermas
hermes
hermosa
herna
hernandez
hernando
hero
herod
herodes
herodotus
heroes
heroine
heron
herpes
herrera
herself
hershey
herusalem
herzegovina
herzl
hesiod
hesse
hesu
hesukristo
hesus
heswita
heswitang
het
heteroseksuwal
heterosexual
hewitt
hey
hezekias
hfpa
hi
hiatus
hibla
hiblang
hicks
hidalgo
hidden
hide
hideki
hideyoshi
hidroheno
hidwaan
hierarchy
higaan
higante
higanteng
higashi
higgins
higgs
high
higher
highest
highland
highlands
highlight
highlights
highly
highway
highways
higit
hihigit
hika
hikari
hikaru
hikaw
hikayatin
hiking
hilaga
hilagaang
hilagang
hilahin
hilario
hilary
hilaw
hilbert
hilda
hilera
hilig
hiligaynon
hiling
hilingin
hill
hillary
hills
hilton
him
himagsikan
himagsikang
himala
himalang
himalaya
himaymay
hime
himig
himnastika
himno
himpapawid
himpilan
himpilang
himself
hin
hina
hinabol
hinago
hinahabol
hinahain
hinahalal
hinahalo
hinahanap
hinahangaan
hinahangad
hinahangganan
hinaharap
hinahati
hinahawakan
hinaing
hinala
hinalal
hinalaw
hinalinhan
hinalo
hinaluan
hinamon
hinanap
hinangaan
hinangad
hinango
hinarang
hinarap
hinata
hinati
hinatulan
hinawakan
hinayaan
hind
hindi
hinding
hindu
hinduism
hinduismo
hindustan
hinggil
hinihikayat
hinihila
hinihiling
hinihimok
hinihinalang
hinihingi
hinihintay
hinihirang
hinihiwalay
hinikayat
hinila
hiniling
hinimok
hininga
hiningi
hiniram
hinirang
hiniwa
hiniwalay
hinlalaki
hino
hinog
hinto
hintuan
hinua
hinubog
hinugot
hinuha
hinukay
hinulaan
hinulaang
hinuli
hip
hipag
hipon
hipona
hipotesis
hipotetikal
hippo
hippocampus
hippocrates
hippolytus
hira
hiragana
hiram
hirangin
hirano
hirap
hirit
hiro
hirohito
hiroki
hirosaki
hiroshi
hiroshima
hiroyuki
his
hispania
hispanic
hispano
histo
histoire
historia
historian
historians
historic
historical
histories
historikal
historiography
history
historyador
historyan
hit
hita
hitler
hito
hitomi
hits
hitsura
hiv
hiwa
hiwaga
hiwalay
hiyas
hk
hl
hm
hms
ho
hoa
hockey
hodgkin
hodgkins
hoffman
hogan
hohenstaufen
hohenzollern
hokkaido
hokkien
hoku
hold
holden
holding
holdings
holds
hole
holi
holiday
holidays
holland
hollow
holloway
holly
hollywood
holmes
holocaust
hololive
holstein
holt
holy
hom
home
homecoming
homepage
homer
homes
homestar
hominid
hominidae
hominin
homme
homo
homoousios
homoseksuwal
homoseksuwalidad
homosekswal
homosexual
homosexuality
homura
hon
honda
honduras
honey
hong
hongkong
honiko
honolulu
honor
honorable
honorary
honored
honors
honour
honours
honshu
hontiveros
hood
hook
hoon
hop
hope
hopes
hopkins
hora
horace
horacio
horan
hordan
horie
horizon
horizons
hormona
hormone
horn
horney
horowitz
horror
horse
horus
hosea
hoshea
hoshi
hoshino
hosono
hospital
host
hostage
hosted
hosting
hosto
hosts
hot
hotdog
hotel
hotels
hottest
houghton
hour
hours
house
household
housemate
housemates
houses
housing
houston
how
howard
howe
however
hoy
hp
hq
hr
hrvatski
ht
htm
html
http
https
hu
hua
huambo
huang
hub
hubad
hubble
hubei
hubert
hubo
hubog
hudaismo
hudaismong
hudas
hudea
hudikatura
hudson
hudyat
hudyo
hudyong
hue
huffington
huffpost
hugasan
huge
hugh
hughes
hugis
hugnayan
hugo
hui
hukay
hukbalahap
hukbo
hukbong
hukom
hukuman
hukumang
hul
hula
hulaan
hulagu
hulapi
hulaping
huli
hulihan
hulihang
hulihin
huling
huliyano
hulk
hull
hulyo
hum
humabon
humahadlang
humahantong
humaharang
humaharap
humahawak
humalili
human
humanap
humanga
humanidades
humanismo
humanista
humanitarian
humanities
humanity
humans
humantong
humarap
humawak
humble
humboldt
hume
humigit
humihikayat
humihiling
humihinga
humihingi
humihinto
humihiwalay
humikayat
humiling
humina
huminga
humingi
huminto
humirang
humiwalay
humor
humpay
humphrey
humuhula
humula
hun
hunan
hundred
hundreds
hung
hungama
hungarian
hungary
hunger
hungry
huni
hunt
hunter
hunters
hunting
huntington
hunyo
hupiter
hur
hurado
hurisdiksiyon
hurisdiksyon
hurno
hurricane
hurt
husay
husband
hussain
hussein
hustisya
husto
hustong
hut
hutchinson
huwad
huwag
huwaran
huwarang
huwebes
huxley
hwa
hwan
hwang
hwi
hyatt
hybrid
hyde
hyderabad
hydrangea
hydrogen
hye
hyksos
hymn
hyo
hypertension
hypostasis
hypothalamus
hypothesis
hyun
hyundai
hyung
i
ia
ian
iangat
iata
iau
ib
iba
ibaba
ibabalik
ibabang
ibabaw
ibagsak
ibahagi
ibahin
ibalik
ibaloi
ibang
ibaraki
ibarra
ibat
ibayo
ibayong
ibc
ibenta
iberia
ibibigay
ibig
ibigay
ibigin
ibinaba
ibinabahagi
ibinahagi
ibinalik
ibinalita
ibinase
ibinasura
ibinatay
ibinebenta
ibinenta
ibinibigay
ibinibilang
ibinigay
ibinuhos
ibinukod
ibinunyag
ibm
ibn
ibon
ibong
ibp
ibrahim
ibunyag
ic
icao
icarus
ice
iceland
icelandic
ich
ichi
ichigo
ichiro
icon
iconic
icons
ics
id
ida
idagdag
idaho
ide
idea
ideal
ideas
ideklara
identidad
identification
identified
identifier
identities
identity
ideology
ideolohiya
ideolohiyang
ideya
ideyal
ideyang
idinadagdag
idinagdag
idinaos
idinaraos
idineklara
idineklarang
idinirek
idinirekta
idinisenyo
idinulot
ido
idol
idolo
idolong
idols
idyoma
ie
ieee
ieyasu
if
ifpi
ifugao
ig
igagawad
igalang
igat
igf
iggy
igiit
iginagalang
iginagawad
iginawad
iginigiit
iginiit
iginuhit
iglesia
iglesiang
iglesias
iglesya
ign
ignacio
ignatius
igo
igor
igorot
igos
ihagis
ihahambing
ihain
ihambing
ihanda
ihatid
ihayag
iheartradio
ihi
ihinto
ihip
ihiwalay
ii
iiba
iibigan
iibigin
iii
iikot
iilan
iilang
iilaw
iimbak
iimbestiga
iingat
iipon
iisa
iisang
iisip
iit
iiwan
ik
ika
ikaanim
ikaapat
ikabubuti
ikadalawampu
ikadalawampung
ikakasal
ikalabindalawang
ikalabing
ikalabinsiyam
ikalabintatlong
ikalawa
ikalawang
ikalima
ikalimang
ikalito
ikapito
ikapitong
ikasal
ikasampu
ikasampung
ikasiyam
ikatawan
ikatlo
ikatlong
ikaw
ikawalo
ikawalong
ike
ikebukuro
ikeda
ikinabit
ikinagalit
ikinakabit
ikinamatay
ikinasal
ikinasawi
ikinatwiran
ikinuha
ikinulong
ikinuwento
ikono
ikot
iku
ikukumpara
ikumpara
il
ilabas
ilagan
ilagay
ilalabas
ilalagay
ilalim
ilan
ilang
ilapat
ilarawan
ilathala
ilaw
ilaya
ilbo
ildefonso
ilegal
ili
iliad
iliada
ilibing
iligal
iligan
iligtas
ilipat
ill
illegal
illinois
illness
illustrated
ilo
ilocano
ilocos
ilog
iloilo
ilokano
iloko
ilong
ilonggo
ilunsad
ilustrado
ilustrador
ilustrasyon
ilusyon
im
ima
image
images
imagination
imagine
imaging
imagna
imahe
imahen
imaheng
imahinasyon
imam
imami
imbak
imbakan
imbensiyon
imbensyon
imbentaryo
imbento
imbentor
imbertebrado
imbes
imbestigador
imbestigahan
imbestigasyon
imbis
imbitasyon
imdb
imee
imelda
imf
img
imigrante
imigranteng
imigrasyon
iminumungkahi
iminungkahi
iminungkahing
immaculate
immanuel
immediate
immigration
immortal
immune
immuno
immunodeficiency
immunology
imo
imoral
imortal
imortalidad
imp
impact
impeachment
impeksiyon
impeksiyong
impeksyon
impektado
imperial
imperium
imperyal
imperyalismo
imperyo
imperyong
impit
impiyerno
implasyon
implementasyon
implementation
implications
implikasyon
impluwensiya
impluwensiyang
impluwensya
impluwensyang
impormal
impormasyon
impormasyong
import
importance
important
importante
importanteng
imposible
imposibleng
impossible
impostor
imprastraktura
imprastruktura
imprenta
impression
impresyon
improved
improvement
impyerno
imus
in
ina
inaabot
inaakala
inaakalang
inaalagaan
inaalala
inaalis
inaalok
inaangkat
inaangkin
inaangking
inaani
inaanyayahan
inaasahan
inaasahang
inaasam
inaasintang
inaatake
inaawit
inaayos
inabandona
inabandunang
inabot
inagaw
inagurasyon
inahing
inakala
inakalang
inakdaan
inakusahan
inalagaan
inalay
inalis
inalok
inamin
inampon
inang
inangkat
inangkin
inangking
inangkop
inanna
inanunsiyo
inanunsyo
inanyayahan
inapo
inaprubahan
inaresto
inasahan
inatake
inatasan
inatasang
inaugural
inauguration
inawit
inay
inayos
inc
inca
inch
incheon
incidence
incident
include
included
includes
including
income
incorporated
increase
incredible
indang
inday
indbidwal
indeks
independence
independent
independiyente
independiyenteng
independyente
independyenteng
index
indi
india
indian
indiana
indianapolis
indiano
indians
indiatimes
indibiduwal
indibidwal
indicate
indicates
indicators
indie
indies
indiewire
indigenous
indigo
indikasyon
indio
individual
individuals
indiya
indiyan
indiyano
indiyanong
indiyas
indo
indones
indonesia
indonesian
indonesya
indoor
indra
induced
indulhensiya
indus
industrial
industries
industriya
industriyal
industriyalisasyon
industriyang
industry
indya
ine
inedit
inere
ines
infanta
infantry
infect
infected
infection
infections
infectious
inferno
infinite
infinity
inflation
influence
influences
influential
influenza
info
infobox
infodisc
informatics
information
infrared
infrastructure
infty
ing
ingat
ingatan
ingay
inggit
ingglatera
inggles
inglatera
inglaterra
ingles
ingrid
inhenyeriya
inhenyeriyang
inhibitor
inhinyeriya
inhinyeriyang
inhinyero
inhinyerong
ini
inialay
iniangat
inibig
inihagis
inihahain
inihahalal
inihahambing
inihahanda
inihahayag
inihain
inihalal
inihambing
inihanay
inihanda
inihandog
iniharap
inihatid
inihaw
inihayag
inihiwalay
iniibig
iniinom
iniisip
iniiwan
iniiwasan
iniksiyon
inilaan
inilabas
inilagay
inilahad
inilalaan
inilalabas
inilalagay
inilalahad
inilalapat
inilalarawan
inilalathala
inilantad
inilapat
inilarawan
inilatag
inilathala
inilibing
iniligtas
inilikas
inilikha
inililipat
inilimbag
inilipat
inilista
iniluklok
iniluluwas
inilunsad
inimbento
inimbitahan
inirekomenda
inirerekomenda
inisip
inisyal
inisyatiba
inisyatibo
inisyu
init
initial
initiative
iniugnay
iniulat
iniutos
iniuugnay
iniwan
injured
injuries
injury
ink
inkigayo
inklusibo
inmaculada
inn
inner
innocent
innovation
innovative
innsbruck
inobasyon
inocencio
inog
inom
inookupahan
inorganic
inorganisa
inosente
inosenteng
inoue
inplasyon
input
inquirer
inquiry
ins
inscription
inscriptions
insect
insekto
insektong
insenso
insentibo
inside
insidente
insidenteng
insider
insight
insights
inskripsiyon
inskripsiyong
inskripsyon
inspector
inspektor
inspirasyon
inspiration
inspire
inspired
instagram
install
instansiya
instant
instead
institusyon
institusyonal
institusyong
institut
institute
institutes
institution
institutional
institutions
instituto
instruction
instruksiyon
instrument
instrumental
instrumentalist
instrumento
instrumentong
instruments
insular
insulto
insurance
int
intedyer
intef
integer
integral
integrasyon
integrated
integration
integridad
intel
intelektuwal
intelektwal
intelihensiya
intellectual
intelligence
intelligent
intensity
intensiyon
intensyon
inter
interaction
interactive
interaksiyon
interaksiyong
interaksyon
interbal
interbensiyon
interchange
intercontinental
interdisiplinaryo
interes
interesado
interest
interesting
interface
interim
interior
interlingua
intermediate
intern
internacional
internal
internasyonal
internasyunal
international
internationale
internet
interno
interpersonal
interpretasyon
interpretasyong
interpretation
interscope
interstate
interstellar
interview
interviews
interyor
into
intra
intramuros
introduced
introducing
introduction
introvigne
intsik
inu
inuit
inukit
inulat
inulit
inuman
inumin
inuming
inuri
inusig
inutos
inutusan
inuugnay
inuulit
inuuri
inuyasha
inva
invalid
invasion
invented
invention
inventor
inventory
inverse
invest
investigation
investigative
investment
investments
investor
invisible
involved
inyo
inyong
io
ioc
ion
iono
ionong
ions
ios
iowa
ip
ipa
ipaalam
ipad
ipadala
ipagbawal
ipagbili
ipagdiwang
ipagkamali
ipaglaban
ipagpalagay
ipagpaliban
ipagpatuloy
ipagtanggol
ipahayag
ipahiwatig
ipakilala
ipakita
ipalabas
ipaliwanag
ipamahagi
ipanganak
ipapadala
ipapakita
ipapalabas
ipasa
ipasok
ipatupad
ipc
ipcc
iphone
ipil
ipinaalam
ipinadala
ipinag
ipinaganak
ipinagbabawal
ipinagbawal
ipinagbibili
ipinagbili
ipinagdiriwang
ipinagdiwang
ipinagkaloob
ipinagkatiwala
ipinaglaban
ipinagmamalaki
ipinagpalagay
ipinagpaliban
ipinagpapalagay
ipinagpatuloy
ipinagtanggol
ipinagtapat
ipinagtibay
ipinahayag
ipinahihiwatig
ipinahiwatig
ipinakikilala
ipinakikita
ipinakilala
ipinakita
ipinako
ipinakulong
ipinalabas
ipinalagay
ipinalalagay
ipinalit
ipinaliwanag
ipinamahagi
ipinamalas
ipinamamahagi
ipinangako
ipinangalan
ipinangalanan
ipinangalang
ipinanganak
ipinangkat
ipinanukala
ipinanumbalik
ipinapahayag
ipinapahiwatig
ipinapakita
ipinapalabas
ipinapalagay
ipinapaliwanag
ipinapanukalang
ipinapasa
ipinapasok
ipinapatupad
ipinasa
ipinasok
ipinatapon
ipinataw
ipinatawag
ipinatayo
ipinatupad
ipininta
ipis
ipo
ipod
ipon
ipv
ir
ira
irak
iral
iran
irani
iranian
iranica
iraq
iraqi
iregular
ireland
irena
irenaeus
irene
iriga
irigasyon
iris
irish
irlanda
irlandes
irma
iro
irog
iron
irons
irpinia
irpino
irregular
irvine
irving
irwin
is
isa
isaac
isaalang
isaayos
isabel
isabela
isabella
isabelle
isagawa
isahan
isahang
isahin
isaiah
isaias
isalarawan
isalin
isama
isan
isang
isara
isarog
isasaalang
isasagawa
isasama
isbn
ischia
isda
isdang
isernia
ishida
ishiguro
ishikawa
ishinomaki
ishmael
ishtar
isidore
isidro
isilang
isina
isinaad
isinaalang
isinaayos
isinabatas
isinaboses
isinagawa
isinagawang
isinahimpapawid
isinailalim
isinakatuparan
isinalarawan
isinalaysay
isinalin
isinaling
isinalinwika
isinama
isinampa
isinangguni
isinanib
isinara
isinasaad
isinasaalang
isinasagawa
isinasalarawan
isinasalaysay
isinasalin
isinasama
isinilang
isiniwalat
isinuko
isinulat
isinulong
isinumite
isinumpa
isinunod
isinuot
isinusulat
isinusulong
isinusuot
isip
isipan
isipin
isis
iskala
iskalang
iskandalo
iskedyul
isko
iskolar
iskor
iskrin
iskrip
iskultor
iskultura
isla
islam
islamic
islamiko
islamikong
island
islandes
islandiya
islands
islang
islas
isle
isles
ismael
ismail
isn
iso
isola
isolated
isolation
isotope
isotopo
isparta
ispektrum
ispesimen
ispiker
isport
isports
israel
israeli
israelita
issn
issue
issued
issues
ist
istadistkita
istadyum
istanbul
istasyon
istasyong
istat
istatistika
istatwa
istilo
istilong
istituto
istorya
istoryador
istraktura
istrakturang
istreptokokus
istruktura
istrukturang
istudyo
isuko
isulan
isulat
isulong
isuot
isusulat
isyu
isyung
it
ita
itaas
itaboy
itaewon
itago
itaguyod
itakda
itakwil
itala
italaga
italia
italian
italiana
italiane
italiani
italiano
italic
italiko
italo
italy
italya
italyano
italyanong
itanghal
itanim
itanong
itapon
itataas
itatag
itatayo
itayo
itc
item
items
ithaca
iti
itigil
itik
itim
itinaas
itinago
itinaguyod
itinakda
itinakdang
itinakwil
itinala
itinalaga
itinalagang
itinampok
itinanggi
itinanghal
itinanim
itinanong
itinapon
itinataas
itinatag
itinatago
itinataguyod
itinatakda
itinatakwil
itinatala
itinatalaga
itinatampok
itinatanggi
itinatanghal
itinatangi
itinatanim
itinatatag
itinatayo
itinayo
itinayong
itinigil
itinulak
itinuloy
itinuon
itinuring
itinuro
itinutukoy
itinutulak
itinuturing
itinuturo
itlog
ito
itong
its
itself
itsura
itulak
ituloy
itunes
ituring
ituro
ituturing
itv
iu
iucn
iugnay
iupac
iv
ivan
ivana
ivatan
ives
ivo
ivoire
ivory
ivy
iwan
iwanan
iwant
iwas
iwasan
iwate
ix
iya
iyak
iyan
iyo
iyon
iyong
iz
iza
izumi
j
ja
jacinto
jack
jackal
jacket
jackie
jackson
jacob
jacobs
jacopo
jacqueline
jacques
jade
jae
jaena
jaguar
jai
jail
jaime
jain
jak
jakarta
jake
jakob
jal
jalal
jam
jama
jamaica
james
jameson
jamestown
jamie
jan
jana
jane
janeiro
janet
jang
janice
janine
jansen
janssen
january
japan
japanese
jar
jarbo
jared
jaro
jarrett
jarvis
jasmine
jason
jasper
java
javanese
javier
jawa
jawi
jay
jaya
jayasankar
jayson
jazeera
jazz
jb
jc
jd
je
jean
jeanne
jeconias
jeddah
jedi
jeepney
jeff
jefferson
jeffrey
jehoash
jehoiakim
jehoram
jehoshaphat
jehova
jehovah
jehu
jejomar
jeju
jelly
jen
jenkins
jenna
jenner
jennifer
jenny
jennylyn
jensen
jeon
jeong
jeremiah
jeremias
jeremy
jeric
jericho
jeroboam
jerome
jeronimo
jerry
jersey
jerusalem
jesi
jess
jesse
jessica
jessie
jesu
jesuit
jesus
jet
jets
jeune
jewel
jewish
jews
jezic
jezik
jh
jhene
ji
jia
jian
jianbing
jiang
jiangsu
jie
jihad
jilin
jill
jillian
jim
jime
jimenez
jimmy
jin
jing
jinggoy
jingle
jiro
jiten
jj
jk
jkt
jl
jm
jma
jo
joa
joachim
joan
joana
joann
joanna
joanne
joaquin
job
jobs
jocelyn
jockey
jodi
joe
joel
joey
johan
johann
johanna
johannes
johannesburg
johansson
john
johnny
johns
johnson
johnston
johor
join
joins
joint
jojo
joker
jolie
jolina
jollibee
jolo
jon
jonas
jonathan
jones
jong
joo
joon
joong
joongang
jordan
jorge
jorgensen
jose
josef
josefa
joseon
joseph
josephine
josephus
josh
joshi
joshua
josiah
josias
jost
josue
jota
journal
journalism
journalist
journalists
journals
journey
jovito
joy
joyce
jp
jpg
jpl
jr
jstor
jtbc
jtwc
ju
juan
juana
juancho
juanico
juanito
jubilee
jubileo
juche
juda
judah
judaism
judas
jude
judea
judge
judgement
judges
judgment
judi
judicial
judio
judith
judo
judy
juice
jukebox
jul
jules
julia
julian
juliana
julianne
julie
julien
juliet
juliette
julio
julius
july
jump
jumping
jumuna
jun
junction
june
jung
jungle
junior
juno
junta
jupiter
jurassic
jure
jury
just
justice
justification
justin
justiniano
justus
juvenile
juventud
jyothi
jyp
jyutping
jørgen
k
ka
kaagad
kaagahan
kaagapay
kaakibat
kaakit
kaalaman
kaalamang
kaaliwan
kaalyado
kaamerikahan
kaanib
kaanyuan
kaapu
kaarawan
kaasalan
kaasalang
kaawa
kaaway
kaaya
kaayusan
kaayusang
kaba
kababaang
kababaihan
kababaihang
kababalaghan
kababayan
kabahagi
kabahaging
kabahayan
kabaitan
kabaligtaran
kabaligtarang
kabaliktaran
kabalintunaan
kabaliwan
kabalyero
kaban
kabanal
kabanalan
kabanalbanalang
kabanata
kabanatang
kabanatas
kabansaan
kabantugan
kabaong
kabataan
kabataang
kabatiran
kabayanan
kabayanihan
kabayaran
kabayo
kabayohan
kabayong
kabesera
kabeserang
kabi
kabibe
kabibi
kabiguan
kabihasnan
kabihasnang
kabikulan
kabila
kabilang
kabilangan
kabilugan
kabisayaan
kabisera
kabiserang
kabisote
kabit
kabite
kabiyak
kable
kabo
kabuhayan
kabukiran
kabul
kabuluhan
kabuluhang
kabundukan
kabundukang
kabuoan
kabuoang
kabushiki
kabute
kabutihan
kabutihang
kabuuan
kabuuang
kada
kadahilanan
kadahilanang
kadakilaan
kadalasan
kadalasang
kadalisayan
kadalubhasaan
kadapa
kadena
kadenang
kadikit
kadiliman
kadokawa
kaduweto
kaede
kaesong
kagalakan
kagalang
kagalingan
kagamitan
kagamitang
kaganapan
kaganapang
kagandahan
kagandahang
kagat
kagawad
kagawaran
kagawarang
kagawian
kagawiang
kagaya
kaginhawaan
kaginhawahan
kagipitan
kagitingan
kagoshima
kagubatan
kagubatang
kaguluhan
kaguluhang
kaguruan
kagustuhan
kagustuhang
kagutuman
kagyat
kahabaan
kahalagaan
kahalagahan
kahalagahang
kahalayan
kahalili
kahaliling
kahalintulad
kahanay
kahanayan
kahanga
kahapon
kaharian
kahariang
kahati
kahatian
kahawig
kahel
kahihinatnan
kahihiyan
kahilagaang
kahilera
kahilingan
kahina
kahinaan
kahirapan
kahirapang
kahit
kahn
kahon
kahong
kahoy
kahugis
kahuli
kahulihan
kahulugan
kahulugang
kahusayan
kai
kaiba
kaibahan
kaibhan
kaibig
kaibigan
kaibigang
kaibuturan
kaido
kailaliman
kailan
kailang
kailangan
kailangang
kailanganin
kailanman
kainan
kainin
kaisa
kaiser
kaisipan
kaisipang
kajiura
kaka
kakahuyan
kakaiba
kakaibang
kakailanganin
kakain
kakainin
kakambal
kakampi
kakanin
kakanyahan
kakatawan
kakaunti
kakaunting
kakaw
kakayahan
kakayahang
kakayanan
kakayanang
kakikitaan
kakila
kakilala
kaklase
kaku
kakulangan
kala
kalaban
kalabang
kalabanin
kalabasa
kalabaw
kalabisan
kalagayan
kalagayang
kalagitnaan
kalagitnaang
kalahatan
kalahati
kalahating
kalahok
kalakal
kalakalan
kalakalang
kalakaran
kalakasan
kalakhan
kalakhang
kalaki
kalakihan
kalakihang
kalakip
kalalabasan
kalalakihan
kalalakihang
kalaliman
kalamangan
kalamansi
kalambatan
kalamidad
kalamnan
kalamnang
kalan
kalangitan
kalansay
kalapati
kalapit
kalapitan
kalasag
kalat
kalatagan
kalauna
kalaunan
kalaunang
kalaw
kalawakan
kalawakang
kalawang
kalayaan
kalayaang
kalayuan
kaldero
kalendaryo
kalendaryong
kalesa
kali
kalibo
kalidad
kaligayahan
kaligtasan
kalihim
kalikasan
kalikasang
kalimitan
kalimitang
kalimutan
kalinangan
kalinangang
kalinga
kalinis
kalinisan
kalinisang
kalinya
kalipa
kalipato
kaliporniya
kalipunan
kalipunang
kalis
kaliskis
kalituhan
kaliwa
kaliwanagan
kaliwang
kalkulasyon
kalkulo
kalkulong
kalmado
kalokohan
kaloob
kalooban
kalookan
kalsada
kalsadang
kalubhaan
kaluluwa
kaluluwang
kalunan
kalungkutan
kalungsuran
kalupaan
kalupaang
kalupitan
kalusugan
kalusugang
kalutasan
kaluwalhatian
kalye
kalyeng
kama
kamag
kamagong
kamahalan
kamakailan
kamakailang
kamakura
kamalayan
kamalayang
kamalian
kamaliang
kamalig
kamandag
kamangha
kamangmangan
kamao
kamara
kamatayan
kamatayang
kamatis
kamay
kamaynilaan
kambal
kambing
kamelyo
kamen
kamera
kami
kaming
kamiseta
kamlon
kamote
kampana
kampanaryo
kampanilya
kampanya
kampanyang
kampeon
kampeonato
kampeonatong
kampo
kampong
kampus
kamukha
kan
kana
kanada
kanadyanong
kanagawa
kanais
kanal
kanan
kanang
kanayunan
kandado
kandidata
kandidato
kandidatong
kandidatura
kandila
kandinsky
kandungan
kane
kang
kani
kanila
kanilang
kanin
kanina
kanino
kaniya
kaniyang
kanji
kankanaey
kanlungan
kanluran
kanlurang
kanluranin
kanluraning
kannada
kannagi
kano
kanojo
kanon
kanonikal
kanonisasyon
kansai
kansas
kanser
kansilyer
kant
kanta
kantahin
kantang
kantidad
kanto
kantones
kanya
kanyang
kanye
kanyon
kao
kaohsiung
kaori
kaoru
kap
kapa
kapabayaan
kapag
kapahamakan
kapakanan
kapakanang
kapaki
kapakinabangan
kapakipakinabang
kapal
kapalaran
kapaligiran
kapaligirang
kapalit
kapalitan
kapamilya
kapampangan
kapanahon
kapanahunan
kapanahunang
kapanalig
kapangalan
kapanganakan
kapangyarihan
kapangyarihang
kapani
kapansanan
kapansanang
kapansin
kapantay
kapapahan
kaparaanan
kaparaanang
kapareha
kaparehas
kapareho
kaparehong
kaparian
kaparusahan
kapasidad
kapaskuhan
kapat
kapatagan
kapatagang
kapatawaran
kapatid
kapatiran
kapayapaan
kape
kapeina
kapeng
kapiling
kapilya
kapinsalaan
kapirasong
kapisanan
kapisanang
kapistahan
kapistahang
kapit
kapita
kapital
kapitalismo
kapitalista
kapitalistang
kapitan
kapitbahay
kapitbahayan
kapitolyo
kapitulo
kapoor
kapos
kappa
kapsula
kapulisan
kapuluan
kapuluang
kapulungan
kapulungang
kapuna
kapuso
kaputol
kapuwa
kapuwang
kapwa
kapwang
kar
kara
karabakh
karachi
karagatan
karagatang
karagdagan
karagdagang
karahasan
karakter
karamdaman
karamdamang
karami
karamihan
karamihang
karaming
karampatang
karanasan
karanasang
karangalan
karangalang
karangyaan
karaniwan
karaniwang
karaoke
karapat
karapatan
karapatang
karate
karatig
karatula
karayom
karbon
karbono
kard
kardinal
karding
kare
karel
karen
karera
karerang
karga
kargamento
kargang
kari
karibal
karibe
karin
karina
karit
kariton
karl
karla
karma
karnabal
karnak
karnataka
karne
karneng
karnow
karo
karot
karpintero
karta
kartago
kartang
kartel
kartun
karugtong
karunungan
karunungang
karwahe
kasa
kasabay
kasabayan
kasabihan
kasabihang
kasabwat
kasaganaan
kasagsagan
kasagutan
kasai
kasakiman
kasakupang
kasal
kasalan
kasalanan
kasalanang
kasali
kasalukuyan
kasalukuyang
kasalungat
kasama
kasamaan
kasamaang
kasamahan
kasamahang
kasamang
kasambahay
kasanayan
kasanayang
kasangkapan
kasangkapang
kasangkot
kasapi
kasaping
kasarian
kasariang
kasarinlan
kasawian
kasawiang
kasaysayan
kasaysayang
kashmir
kasi
kasiglahan
kasikatan
kasing
kasingkahulugan
kasinglaki
kasiningan
kasintahan
kasintahang
kasinungalingan
kasiya
kasiyahan
kaso
kasong
kasosyo
kast
kastanyas
kastila
kastilang
kastilyo
kastilyong
kasu
kasuan
kasugunang
kasukasuan
kasukdulan
kasuklam
kasulatan
kasulatang
kasultanan
kasunduan
kasunduang
kasunod
kasuotan
kasuotang
kasuutan
kaswal
kat
kata
kataas
kataasan
kataastaasang
katabaan
katabi
katabing
katad
kataga
katagal
katagalan
katagalugan
katagang
katahimikan
katakana
katakutan
katalan
katalik
katalinuhan
katalista
katalogo
katalunya
katamaran
katambal
katamtaman
katamtamang
katandaan
katanga
katanggap
katangi
katangian
katangiang
katanungan
katanungang
katanyagan
katao
kataong
katapangan
katapat
katapatan
katapusan
katapusang
katarina
katarungan
katarungang
katas
katatagan
katatakutan
katatakutang
katatawanan
katauhan
katauhang
katawa
katawagan
katawagang
katawan
katawang
katawanin
katayuan
katayuang
kate
katedral
kategorya
kategoryang
katekismo
katha
kathambuhay
kathang
katharine
katherine
kathleen
kathmandu
kathryn
kathy
kati
katibayan
katie
katigasan
katihan
katimugan
katimugang
katinig
katipunan
katipunero
katiwala
katiwalian
katiwasayan
katiyakan
katlo
katniss
kato
katolika
katoliko
katolikong
katolisismo
katotohanan
katotohanang
katrabaho
katrina
katubigan
katubigang
katulad
katulong
katumbas
katumpakan
katunayan
katunggali
katunggaling
katungkulan
katungkulang
katuparan
katuruan
katuruang
katutubo
katutubong
katuturan
katuwaan
katuwang
katuwiran
katwiran
katy
katz
kaufman
kaugalian
kaugaliang
kaugnay
kaugnayan
kaugnayang
kaugynayan
kaukasya
kaukulang
kauna
kaunaunahang
kaunlaran
kaunlarang
kaunti
kaunting
kauri
kaurian
kausap
kausapin
kautusan
kautusang
kawad
kawagoe
kawal
kawalan
kawalang
kawali
kawan
kawang
kawanggawa
kawangis
kawani
kawanihan
kawasaki
kawayan
kawi
kawikaan
kawili
kawing
kawit
kay
kaya
kayamanan
kayamanang
kayang
kayarian
kayariang
kayat
kaye
kayo
kayong
kaysa
kayumanggi
kayumangging
kazakh
kazakhstan
kaze
kazuma
kazuya
kb
kbp
kbs
kc
ke
keeling
keep
keeping
keeps
kegan
kei
keiji
keiko
keith
keller
kelley
kelly
kelsea
kelvin
kemikal
ken
kendal
kendall
kendi
kenji
kennedy
kenneth
kennon
kenny
kenshin
kent
kentucky
kenya
kenyan
kenyon
kepler
kerala
kerida
kernel
kerry
kerubin
kesa
kesennuma
keso
kesong
ketchup
ketong
kevin
kexp
key
keyboard
keyboardist
keyboards
keyk
keynes
keys
kg
kgg
kh
kha
khabarovsk
khalifa
khalil
khan
khao
khm
khmer
kho
khon
khz
ki
kia
kick
kickback
kid
kidapawan
kidlat
kidman
kidney
kids
kiel
kierkegaard
kiev
kiha
kiki
kiko
kilabot
kilala
kilalang
kilalanin
kilay
kili
kill
killed
killer
killers
killing
killings
kills
kilo
kilogramo
kilometer
kilometre
kilometro
kilometrong
kilos
kilt
kilusan
kilusang
kim
kimberly
kimi
kimika
kimikal
kimikang
kimiko
kimikong
kimono
kimura
kin
kina
kinabibilangan
kinabukasan
kinahapunan
kinahinatnan
kinailangan
kinailangang
kinain
kinakaharap
kinakailangan
kinakailangang
kinakain
kinakalkula
kinakanta
kinakatawan
kinakausap
kinalabasan
kinalalagyan
kinalaman
kinalauna
kinalaunan
kinansela
kinanta
kinapapalooban
kinaray
kinaroroonan
kinasal
kinasangkutan
kinasasangkutan
kinasuhan
kinasusuklaman
kinatatakutan
kinatatayuan
kinatawan
kinatawang
kinatha
kinaugalian
kinaugaliang
kinaumagahan
kinausap
kind
kinder
kindergarten
king
kingdom
kingdoms
kings
kingsman
kingston
kinikilala
kinikilalang
kinikilingan
kinilala
kinilalang
kinita
kinokondena
kinokonekta
kinokonsidera
kinokontrol
kinolekta
kinomisyon
kinondena
kinontrol
kinopya
kinoronahan
kinoronahang
kinoshita
kinshasa
kinubkob
kinuha
kinukuha
kinumpirma
kinumpleto
kinunan
kipot
kira
kiram
kirby
kiribati
kirino
kirk
kirot
kirsten
kis
kisame
kisangani
kish
kishimoto
kislap
kiss
kit
kita
kitambayan
kitamura
kitang
kitchen
kite
kitniyot
kitty
kjv
kl
klab
klado
klase
klaseng
klasikal
klasiko
klasikong
klasipikasyon
klasipikasyong
klaus
klein
kleiner
klerk
klero
klima
klimang
klingon
klinika
klinikal
kliyente
klub
kluwer
km
kmt
knew
knight
knights
knjiz
knock
knopf
knots
know
knowledge
knowles
known
knows
knox
ko
koalisyon
koalisyong
kobayashi
kobe
koch
kodansha
kodigo
kodigong
koepisyenteng
kognitibo
kogure
kogyo
koi
koine
koji
kojiki
koko
kolaborasyon
kolehiyo
kolehiyong
koleksiyon
koleksiyong
koleksyon
kolektibong
kolektor
koliseo
kolkata
kolmogorov
kolokyal
kolombiya
kolonisasyon
kolonya
kolonyal
kolonyalismo
kolonyang
kolum
kolumnista
kolyma
komagawa
komandante
komander
kombensiyon
kombensyon
kombinasyon
kombinatoryal
komedya
komedyang
komedyante
komedyanteng
komentarista
komentaryo
komento
komersiyal
komersiyo
komersyal
komersyo
kometa
komi
komiks
komisyon
komisyonado
komisyoner
komisyong
komite
komiteng
komonwelt
kompanya
kompanyang
komparatibong
kompas
kompetisyon
kompetisyong
kompleks
kompleksidad
kompletong
komplikado
komplikadong
komplikasyon
komportable
komposisyon
komposisyong
kompositor
komprehensibong
kompromiso
komputasyon
komputasyonal
kompuwesto
kompuwestong
kompyuter
komsomolsk
komuna
komunal
komunidad
komunikasyon
komunikasyong
komunismo
komunista
komunistang
komunyon
komyuter
kon
kondado
konde
kondehan
kondisyon
kondisyonal
kondisyong
kondom
konduktor
koneksiyon
koneksyon
konektado
kong
konggreso
kongkreto
kongkretong
kongregasyon
kongresista
kongreso
kongresong
konkatedral
konklusyon
konkreto
konkretong
kono
konrad
konsehal
konseho
konsehong
konsentrasyon
konsepto
konseptong
konserbasyon
konserbatibo
konserbatibong
konsesyon
konsilyo
konsilyong
konsiyerto
konsiyertong
konsorte
konstant
konstante
konstanteng
konstantin
konstelasyon
konstitusyon
konstitusyonal
konstitusyong
konstruksiyon
konstruksyon
konsul
konsulado
konsuladong
konsultasyon
konsumer
konsumpsiyon
konsyerto
kontak
kontaminadong
konteksto
kontekstong
kontemporaneong
kontemporaryo
kontemporaryong
kontinental
kontinente
kontinenteng
kontra
kontrabida
kontrabidang
kontradiksiyon
kontrata
kontratang
kontratista
kontribusyon
kontrobersiya
kontrobersiyal
kontrobersiyang
kontrobersya
kontrobersyal
kontrol
kontrolado
kontroladong
kontroler
kontrolin
kooperasyon
kooperatiba
koordinado
koordinadong
koordinasyon
kopa
koponan
koponang
koptikong
kopya
kopyahin
kopyang
koral
koran
kordero
korea
korean
koreano
koreanong
koreanovela
koreanovelang
korelasyon
koreo
koreograpo
korina
koro
korona
koronadal
koronang
koronasyon
koronel
korporasyon
korporasyong
korte
korteng
korupsiyon
koryo
kosmikong
kosmolohiya
kosovo
kot
kota
kotse
kotseng
kp
kph
kpop
kr
kra
krai
krais
kramer
krasch
krauss
kreasyonismo
kredito
kredo
kredong
krema
kremang
kretaseyoso
kreuzberg
krimen
krimeng
kriminal
kripto
kris
krisantemo
krishna
krisis
kristal
kristen
kristin
kristina
kristine
kristiyanismo
kristiyanismong
kristiyano
kristiyanong
kristo
kristyanismo
kristyano
kritikal
kritiko
kritikong
kritisismo
kritisismong
kroasya
kroato
kroketa
kromosoma
kromosomal
kromosomang
kronika
kronikong
kronolohikal
kronolohiya
krup
krus
krusada
krusipiho
krystal
ks
ku
kuala
kuan
kuba
kubiko
kublai
kubo
kudarat
kudeta
kudlit
kuha
kuhanin
kuhol
kuiper
kuko
kukuha
kukunin
kulang
kulani
kulay
kuliglig
kulisap
kulog
kulot
kultibar
kulto
kultong
kultura
kultural
kulturang
kulugo
kulungan
kumain
kumakain
kumakalat
kumakanta
kumakatawan
kumalahok
kumalas
kumalat
kumamoto
kumander
kumanta
kumar
kumatawan
kumbensiyon
kumbento
kumbinasyon
kumbinsido
kumbinsihin
kumikilala
kumikilos
kumikinang
kumikita
kumikitang
kumilala
kumilos
kumita
kumitil
kumokonekta
kumokontrol
kumonekta
kumontrol
kumot
kumpanya
kumpanyang
kumpara
kumpas
kumperensiya
kumperensiyang
kumperensya
kumpesor
kumpetisyon
kumpirmadong
kumpirmahin
kumpisal
kumpiyansa
kumpleto
kumpletong
kumpletuhin
kumplikado
kumplikadong
kumplikasyon
kumpol
kumuha
kumukuha
kumukulong
kumulang
kumusta
kun
kunaicho
kundi
kundiman
kundisyon
kuneho
kung
kuni
kunin
kuomintang
kupala
kuponan
kuponang
kupunan
kura
kurba
kurbang
kurdi
kurdish
kurdistan
kurdo
kurikulum
kurnool
kuro
kurosaki
kurso
kursong
kurt
kurtina
kuru
kuryente
kuryenteng
kusa
kusang
kush
kusilba
kusina
kusinero
kuta
kutang
kuting
kuto
kutsara
kutsero
kutsilyo
kuw
kuwadrado
kuwadradong
kuwadro
kuwago
kuwait
kuwaresma
kuwarto
kuweba
kuwento
kuwentong
kuwerdas
kuwintas
kuya
kv
kw
kwadrado
kwadradong
kwadratikong
kwalipikado
kwalipikadong
kwalipikasyon
kwantum
kwarto
kweba
kwentahin
kwento
kwentong
kwon
ky
kyi
kyiv
kyle
kylie
kyo
kyoko
kyon
kyosuke
kyoto
kyousuke
kyrgyz
kyrgyzstan
kyu
kyubey
kyung
kyushu
kə
l
la
laan
lab
labag
laban
labanan
labanang
labanos
labas
labasan
label
labels
labi
labia
labialized
labimpitong
labindalawa
labindalawang
labing
labingwalong
labinlimang
labinsiyam
labintatlo
labintatlong
labis
labor
laboratory
laboratoryo
laboratoryong
labour
laboure
labrador
labs
labuyo
lac
lacedonia
lacey
lack
lacquian
lacson
lactase
lactose
lacus
laden
ladies
ladrilyo
lady
laga
lagalag
laganap
lagay
lagda
lagi
lagim
laging
lagnat
lago
lagoon
lagos
lagpas
lagrange
laguna
lagusan
lagyan
lahat
lahi
lahing
lahok
lahore
lai
laing
lakad
lakan
lakandula
lakang
lakas
lakbay
lake
lakers
lakes
lakh
laki
laking
laksa
lal
lala
lalabas
lalagyan
lalake
lalakeng
lalaki
lalaking
lalamunan
lalawigan
lalawigang
lali
lalim
lalo
lalong
lalu
lalung
lam
lama
lamad
laman
lamang
lamangan
lamazares
lamb
lambak
lambat
lambda
lambert
lamig
lamitan
lamok
lamp
lampara
lampas
lamuymoy
lan
lana
lanao
lancashire
lancaster
lance
lancet
land
landareal
landas
landfall
landing
landmark
lando
lands
landscape
landslide
lane
lang
langaw
langdon
lange
langgam
langis
langit
language
languages
lani
lanka
lansangan
lansangang
lantad
lantern
lantis
lanza
lao
laoag
laon
laos
lap
lapad
lapat
lapid
lapida
lapis
lapit
laplace
laptop
lapu
lapulapu
lapya
laquian
lara
larang
larangan
larangang
larawan
larawang
large
larger
largest
laro
larong
larry
lars
larsen
larson
larsson
laruan
laruang
las
lasa
lasang
laser
lasing
laso
lason
last
lastikman
lat
lata
latag
late
later
lateral
laterano
latest
latex
lathala
lathalain
lathalaing
lathalatin
latian
latin
latina
lating
latino
latinong
latitud
latitude
latium
latter
lattice
latvia
lau
laude
laugh
launch
launched
launches
laura
laureate
laureates
laurel
lauren
laurence
laurent
laurie
lauro
lausanne
lava
lavayna
lavender
lavigne
law
lawa
lawak
lawang
lawas
laway
lawin
lawphil
lawrence
laws
lawson
lawyer
lay
laya
layag
layang
layer
layo
layon
layong
layout
laysummary
layunin
layuning
lazada
lazaro
lazerine
lazio
lb
lc
lccn
lcd
ld
ldots
le
lea
lead
leader
leaders
leadership
leading
leads
leaf
league
leah
leak
leakey
leandro
leap
learn
learned
learning
least
leave
leaves
leaving
lebadura
lebanese
lebanon
lebel
lebesgue
leblanc
lecce
lecture
lecturer
lectures
led
ledesma
ledger
lee
leeds
leeg
left
leg
legacy
legal
legarda
legaspi
legato
legazpi
legend
legendary
legends
legion
legislation
legislative
legislature
lego
lehislatibo
lehislatura
lehitimo
lehitimong
lehiyon
lei
leibniz
leiden
leigh
leila
leipzig
leisure
lektor
lemery
lemon
lena
lengguwahe
length
lengua
leni
lenin
leningrad
leninismo
lennon
lens
lente
leo
leon
leona
leonard
leonardia
leonardo
leone
leong
leonid
leonor
leonora
leopard
leopold
leopoldo
lepanto
lepton
leq
leroy
les
lesbian
lesley
leslie
lesotho
less
lesser
lesson
lessons
leste
lester
lesyon
let
leton
letra
letran
letrang
letter
letters
leukemia
leung
leuven
lev
levant
level
levels
levi
levine
levitico
levsut
levy
lewis
lex
lexicon
lexikon
lexington
leyte
lez
lg
lgbt
lgu
li
lia
liam
lian
liang
lib
liban
libangan
libano
liber
liberal
liberalismo
liberation
liberia
libertad
liberty
libing
libingan
libingang
libis
liblib
libmanan
libo
libong
libra
libraries
library
libre
libreng
libro
librong
libu
libya
libyan
lica
license
liceo
liddell
lider
lie
liechtenstein
lies
lieutenant
life
lifestyle
lifetime
liga
ligal
ligalig
ligang
ligas
ligaw
ligaya
light
lightning
lights
ligid
ligtas
ligur
liguria
ligurian
liham
lihim
lihis
liit
likas
like
likely
likha
likhain
likhang
likido
likidong
liko
likod
likuran
likurang
lil
lila
lilang
lili
lilia
lilian
liliko
lilim
lilitaw
lilith
liliw
lille
lillian
lilok
lily
lim
lima
limalok
limampu
limampung
limang
limbag
limbagan
lime
limit
limitado
limitadong
limitahan
limitasyon
limitasyong
limited
limits
limon
limos
limpa
limpatiko
lin
lina
linares
linaw
linawin
lincoln
linda
linden
lindol
lindsay
lindsey
line
lineage
linear
liner
lines
lineup
ling
lingayen
linggo
linggong
lingguhan
lingguhang
lingguwistika
lingguwistikang
lingid
lingkod
lingo
lingua
linguist
linguistic
linguistics
linisang
linisin
link
linked
linkedin
links
linnaeus
linnell
lino
linotype
linus
linux
linya
linyang
linyar
lion
lionel
lions
lip
lipa
lipad
lipas
lipat
lipi
liping
lipon
lippincott
lips
lipshutz
lipulin
lipunan
lipunang
liquid
lira
lireo
liri
liriko
lisa
lisanin
lisboa
lisbon
lisensiya
lisensya
lisensyado
lisensyang
list
lista
listahan
listahang
listed
listen
listening
listeriabot
listing
lists
lit
lite
literacy
literal
literary
literatura
literaturang
literature
lithium
lithotripsy
lithuania
lithuanian
litid
lito
litratista
litrato
litro
little
littlefield
liturgical
liturgy
liturhikal
liturhiya
litwano
litwanya
liu
live
lived
liver
liverpool
lives
living
livingston
livingstone
livorno
liwanag
liwasan
liwasang
liwayway
lix
liyebre
liz
liza
lizard
lj
ll
lla
llanera
llc
lle
ller
lln
lloyd
lm
ln
lo
load
loan
lobby
lobo
lobong
loc
local
localities
located
location
locations
lock
lockdown
locke
loco
locsin
locus
lodge
lodi
log
logan
logaritmo
logic
logo
logos
lohika
lohikal
lohikang
loi
lois
lokal
lokalidad
lokasyon
lokasyong
loki
lola
lolita
lolo
lombard
lombardi
lombardia
lombardo
lombardy
lonchura
london
londres
lone
lonely
long
longer
longest
longganisa
longhitud
longman
longmans
loo
loob
looban
look
looking
looks
loop
loose
lope
lopez
lorca
lord
lords
lore
loren
lorena
lorentz
lorenzo
loreto
lorna
loro
lorraine
los
lose
loser
loses
losing
loss
lost
lot
lote
lotus
lou
loud
louie
louis
louise
louisiana
louisville
lounge
lourdes
louvre
love
lovebird
loved
lovejoy
lovely
lover
lovers
loves
lovi
loving
low
lowe
lowell
lower
lowry
loyola
loyzaga
lozada
lozano
lp
lpa
lrt
lrta
ls
lt
ltd
lu
lua
lualhati
luang
lubang
lubao
lubhang
lubid
lubog
lubos
lubumbashi
lubusan
lubusang
luc
luca
lucania
lucano
lucas
lucban
lucca
luce
lucena
lucero
lucia
lucian
luciano
lucien
lucifer
lucio
lucius
luck
lucky
lucy
ludovico
ludwig
lugar
lugaw
luglog
luha
lui
luigi
luis
luisa
luisiana
luisita
luka
lukas
lukban
luke
luklukan
luklukang
lulan
lulu
luma
lumabag
lumaban
lumabas
lumad
lumaganap
lumagda
lumago
lumagpas
lumahok
lumakad
lumakas
lumaki
lumaking
lumala
lumalabag
lumalaban
lumalabas
lumalaganap
lumalago
lumalagong
lumalagpas
lumalahok
lumalakad
lumalakas
lumalaki
lumalaking
lumalala
lumalampas
lumalangoy
lumalapat
lumalapit
lumalawak
lumalawig
lumamig
lumampas
lumang
lumangoy
lumaon
lumaong
lumapag
lumapit
lumawak
lumawig
lumaya
lumayo
lumba
lumban
lumbang
lumbera
lumiit
lumikas
lumikha
lumiko
lumilibot
lumiliit
lumilikha
lumilipad
lumilipas
lumilipat
lumilitaw
lumingon
lumipad
lumipas
lumipat
lumisan
lumitaw
lumot
lumpur
lumubog
lumulubog
lumulutang
lumusob
lumutang
luna
lunar
lunas
lund
lunes
luneta
lung
lungga
lungsod
lunos
lunsod
lunti
luntian
luntiang
lunting
luo
lupa
lupain
lupaing
lupalop
lupang
lupi
lupon
lupong
lupus
lusak
lusubin
lutasin
luterano
luther
lutheran
lutjanus
luto
lutong
lutuin
lutuing
luv
luwad
luwalhati
luxembourg
luxury
luy
luya
luz
luzon
lv
lvarez
lvn
lxx
ly
lyceum
lydia
lymphoma
lyn
lynch
lynn
lyon
lyons
lyric
lyrical
lyrics
lə
m
ma
maa
maaabot
maaari
maaaring
maaasahan
maaasahang
maabot
maaga
maagang
maakit
maalaala
maalala
maalam
maalamat
maalat
maalis
maanghang
maapektuhan
maari
maaring
maarten
maasim
maasin
maayos
mababa
mabababang
mababago
mababakas
mababang
mababangis
mababasa
mababaw
mabagal
mabago
mabagsik
mabait
mabalacat
mabangis
mabangong
mabasa
mabato
mabatong
mabawasan
mabawi
mabayaran
mabibigat
mabibilang
mabibili
mabigat
mabigo
mabigyan
mabigyang
mabilang
mabili
mabilis
mabilisan
mabilisang
mabini
mabisa
mabisang
mabubuhay
mabubuo
mabubuting
mabuhay
mabuksan
mabundok
mabunga
mabuo
maburol
mabuti
mabuting
mabutong
mabuwag
mac
macabeo
macapagal
macarthur
macau
macdonald
macedonia
macedonian
macerata
machi
machine
macintosh
mackenzie
macmillan
macos
macri
mactan
macy
mad
mada
madagascar
madagaskar
madagdagan
madala
madalang
madalas
madali
madaliang
madaling
madam
madama
madame
madami
madaming
madara
maddalena
madden
maddie
made
madeleine
madge
madikit
madilaw
madilim
madison
madla
madlang
madness
madoka
madonna
madrasta
madre
madreng
madrid
madrigal
madugong
mae
maeda
maestra
maestro
mafia
mag
maga
magaan
magaang
magadan
magagaling
magagamit
magaganap
magagandang
magagawa
magagawang
magalang
magaling
magalit
magallanes
magalona
magamit
maganap
maganda
magandang
magasin
magasing
magaspang
magastos
magat
magatas
magawa
magawang
magazine
magazines
magbabago
magbabalik
magbabayad
magbago
magbalik
magbasa
magbayad
magbenta
magbibigay
magbigay
magbitiw
magboo
magbubukas
magbubukid
magbukas
magbunga
magdadala
magdagdag
magdala
magdalena
magdalo
magdamag
magdangal
magdaos
magdiwang
magdudulot
magdulot
magdusa
magellan
maggie
maggiore
maghalal
maghanap
maghanda
maghapon
maghari
maghatid
maghiganti
maghintay
maghiwalay
magi
magic
magica
magical
magician
magiging
magiliw
maging
maginhawa
maginhawang
maginoo
magising
magiting
magka
magkabilang
magkahalong
magkahawig
magkahiwalay
magkaiba
magkaibang
magkaibigan
magkaisa
magkakahiwalay
magkakaiba
magkakaibang
magkakaibigan
magkakalapit
magkakambal
magkakaparehong
magkakapatid
magkakaroon
magkakasabay
magkakasalungat
magkakasama
magkakasamang
magkakasunod
magkakatulad
magkakaugnay
magkamit
magkano
magkapareho
magkaparehong
magkapatid
magkaroon
magkasabay
magkasalungat
magkasama
magkasamang
magkasanib
magkasingkahulugan
magkasintahan
magkasundo
magkasunod
magkasya
magkatulad
magkatumbas
magkaugnay
magkita
maglabas
maglagay
maglakad
maglakbay
maglalabas
maglalagay
maglalaro
maglaman
maglaon
maglaro
maglayag
magliano
maglingkod
maglunsad
magluto
magma
magmahal
magmukhang
magmula
magmumula
magna
magnakaw
magnanakaw
magnetic
magnetikong
magnificat
magnifico
magnitud
magnitude
magnitudo
magno
magnolia
magnum
magnus
mago
magpadala
magpahanggang
magpahayag
magpahinga
magpahiwatig
magpakailanman
magpakamatay
magpakasal
magpakita
magpalabas
magpalit
magpanggap
magpapadala
magpapakita
magpapatuloy
magparami
magpasa
magpasya
magpatakbo
magpatuloy
magpinta
magreresulta
magresulta
magretiro
magsabi
magsagawa
magsalita
magsama
magsanay
magsanhi
magsasabi
magsasagawa
magsasaka
magsasakang
magsaya
magsaysay
magsilbi
magsilbing
magsimula
magsimulang
magsisilbi
magsisilbing
magsisimula
magsisimulang
magsulat
magsuot
magtago
magtagumpay
magtakda
magtalaga
magtanggol
magtanghal
magtanim
magtanong
magtapos
magtatag
magtatapos
magtayo
magtipon
magtiwala
magtrabaho
magtungo
magturo
maguindanao
magulang
magulo
magulong
maha
mahaba
mahabang
mahabharata
mahahaba
mahahabang
mahahalagang
mahahanap
mahahati
mahal
mahalaga
mahalagang
mahalal
mahalin
mahalumigmig
mahanap
maharashtra
maharlika
maharlikang
mahati
mahayana
mahigit
mahigpit
mahihinang
mahihirap
mahika
mahikayat
mahilig
mahina
mahinahon
mahinang
mahirap
mahistrado
mahiwaga
mahiwagang
mahiyain
mahmoud
mahmud
maho
mahou
mahuhusay
mahuli
mahulog
mahusay
mai
maibabalik
maibalik
maibibigay
maibigay
maibsan
maid
maiden
maigi
maiging
maigsing
maihahalintulad
maihahambing
maihatid
maiikling
maiinit
maiitim
maiiwasan
maiiwasang
maikli
maikling
maiksi
maiksing
mail
mailabas
mailagay
mailalarawan
mailap
mailarawan
mailathala
mailigtas
mailipat
maimpluwensiya
maimpluwensiyang
maimpluwensyang
main
mainam
maine
maingat
maingay
mainichi
mainit
mainland
mainstream
maint
maintenance
maintindihan
mainz
maipahayag
maipakita
maipaliwanag
maipasa
mais
maisagawa
maisakatuparan
maisama
maisip
maisulat
maisulong
maitaguyod
maitatag
maitayo
maitim
maituro
maituturing
maiugnay
maiwasan
maja
majayjay
majesty
maji
major
majority
maka
makaagham
makaalis
makaapekto
makabago
makabagong
makabalik
makabayan
makabayang
makabuluhan
makabuluhang
makabuo
makadiyos
makagawa
makahanap
makaharing
makahawa
makahoy
makahulugan
makaiwas
makakaapekto
makakagawa
makakahanap
makakain
makakakuha
makakaliwang
makakamit
makakapal
makakasama
makakatanggap
makakatulong
makakaya
makakita
makakuha
makalabas
makalangit
makaligtas
makalikha
makalikom
makalipas
makaluma
makalumang
makamandag
makamit
makamundong
makapag
makapagbigay
makapagpatuloy
makapagsalita
makapagtapos
makapal
makapangyarihan
makapangyarihang
makapasok
makapunta
makaraan
makaraang
makaramdam
makaranas
makarating
makasalanan
makasama
makasarili
makasaysayan
makasaysayang
makasining
makata
makatagpo
makatakas
makatang
makatanggap
makatao
makataong
makatapos
makatarungan
makatarungang
makati
makatotohanan
makatotohanang
makatulong
makatutulong
makatuwiran
makatuwirang
makatwiran
makatwirang
make
maker
makers
makes
maki
makibahagi
makikilala
makikita
makikitang
makilahok
makilala
makiling
makina
makinabang
makinang
makinarya
making
makinig
makinilya
makinis
makintab
makipag
makipagkumpetensya
makipaglaban
makipagtalik
makipagtulungan
makipot
makita
makitang
makitid
makontrol
makoto
maksimum
makuha
makukuha
makukuhang
makukulay
makulay
makumpleto
mal
mala
malabanan
malabar
malabo
malabon
malabong
malacan
malacanang
malacca
malachite
malaganap
malagkit
malakanyang
malakas
malaki
malakihang
malaking
malala
malalakas
malalaki
malalaking
malalaktawang
malalalim
malalaman
malalambot
malalamig
malalang
malalapit
malalawak
malalayang
malalayong
malalim
malaman
malamang
malambing
malambot
malamig
malampasan
malapad
malapit
malapot
malaria
malasakit
malate
malatesta
malawak
malawakan
malawakang
malawi
malay
malaya
malayalam
malayang
malaybalay
malayo
malayong
malaysia
malaysian
malayuan
malcolm
maldives
male
mali
maliban
malibang
maligaya
maligayang
maliit
malik
malikha
malikhain
malikhaing
malikot
maliksi
maliliit
malimit
malinaw
maling
malinis
malito
maliwanag
mall
malley
mallory
malls
malnutrisyon
malolos
malone
malou
malta
maltes
maltese
malubha
malubhang
malugod
maluku
malulutas
malumanay
malungkot
malupit
malusog
malutas
malutong
maluwag
maluwalhating
malvar
mama
mamahala
mamahalin
mamahaling
mamahayag
mamalya
mamalyang
mamamahala
mamamahayag
mamamatay
mamamayan
mamamayang
mamasa
mamatay
mamaya
mambabasa
mambabatas
mambubuno
mami
mamimili
mamiya
mamluk
mamma
mammal
mammalian
mammals
mamon
mamoru
mamuhay
mamumuhunan
mamumuno
mamuno
man
mana
management
manager
managing
manalangin
manalo
manaloto
manami
mananahi
mananakop
mananalaysay
mananaliksik
mananalita
mananalo
mananampalataya
manananggol
mananatili
mananatiling
mananayaw
manaoag
manatili
manatiling
mancha
manchester
manchu
manchuria
mandal
mandaluyong
mandaragat
mandaragit
mandarin
mandato
mandaue
mandela
mandirigma
mandirigmang
mandudula
manes
manetho
manfred
mang
manga
mangaawit
mangahulugan
mangaka
manganak
mangang
mangangahoy
mangangalakal
manganganak
manganganta
mangangaral
mangangaso
mangaral
mangarap
mangasiwa
mangga
manggagalugad
manggagamot
manggagawa
manggagawang
manggas
mangguguhit
mangha
manghang
manghihimagsik
manghuhula
manghuli
mangilan
mangingibig
mangingisda
mangkok
mangkukulam
mangmang
mango
mangolekta
manguna
mangyan
mangyari
mangyaring
mangyayari
manhattan
manhunt
mani
mania
manifesto
manika
manila
manilatimes
manin
maningning
maninila
maninipis
maninisid
manipestasyon
manipis
manipoldo
manipoldong
manipulasyon
manirahan
manitoba
maniwala
manlalaban
manlalakbay
manlalangoy
manlalaro
manlalarong
manliligaw
manlilikha
manlilikhang
manlililok
mann
manning
manny
mano
manobo
manok
manolo
manong
manonood
manood
manor
mansanas
mansion
manson
mansyon
manta
mantika
mantikilya
mantle
mantsa
mantua
manu
manual
manuel
manufacturing
manugang
manumbalik
manungkulan
manunugtog
manunula
manunulang
manunulat
manunuri
manuscript
manuskrito
manuskritong
manwal
many
manzano
mao
maori
map
mapa
mapabilang
mapabuti
mapadali
mapag
mapagbigay
mapaghimalang
mapagkakatiwalaan
mapagkukunan
mapagkukunang
mapagmahal
mapagmamasdan
mapagmamasdang
mapagmataas
mapainam
mapait
mapalad
mapalawak
mapalaya
mapalitan
mapaminsalang
mapanatili
mapanatiling
mapang
mapangalagaan
mapanganib
mapanghimagsik
mapanglaw
mapanirang
mapanlinlang
mapanood
mapansin
mapapanood
mapapansin
mapapatunayan
mapatalsik
mapatay
mapatunayan
mapaunlakan
mapayapa
mapayapang
mapigil
mapigilan
mapili
maple
mapping
maprotektahan
maps
mapula
mapulang
mapunta
mapuntahan
mapupuntahan
mapusyaw
maputi
maputlang
mar
mara
maragondon
marahas
marahil
maramdaman
marami
maramihan
maramihang
maraming
maranao
maranasan
marangal
marangyang
marano
mararaming
mararating
marasigan
marathi
marathon
marating
marawi
marble
marburg
marc
marcel
marcela
marcelino
marcello
marcelo
march
marche
marcion
marco
marcos
marcus
mardon
marduk
mare
margaret
margarita
margherita
margot
marguerite
marhinal
mari
maria
mariah
marian
mariana
marianas
mariang
marianne
mariano
maricel
marie
mariel
mariing
marijuana
marikina
marikit
marilao
marilou
marilyn
marimar
marin
marina
marinduque
marine
maring
maringal
marinig
marino
marinong
mario
marion
mariposa
maririnig
maris
marisa
marissa
maritime
marittima
marius
mariveles
marivic
marjorie
mark
marka
markahan
markang
marker
market
marketing
marketplace
markets
markle
marks
markup
markus
marky
marlene
marley
marlon
marmol
marmot
marquez
marquis
marriage
married
marry
mars
marseille
marsh
marsha
marshal
marshall
marso
mart
marta
marte
martel
martes
martha
marti
martial
martilyo
martin
martina
martinez
martino
martins
martir
martires
martsa
marty
martyr
martyrs
maru
marubdob
marumi
maruming
marunong
marupok
marvel
marvelous
marvin
marx
marxismo
marxist
marxista
mary
marya
maryland
mas
masa
masabi
masada
masagana
masaganang
masahiro
masahol
masaker
masaki
masakit
masakop
masaktan
masalimuot
masama
masamang
masami
masang
masarap
masasabi
masasabing
masasalimuot
masasama
masasamang
masashi
masaya
masayang
masayuki
masbate
mascot
masedonya
masedonyo
masel
maselang
masidhing
masigasig
masigla
masiglang
masiguro
masikip
masining
masipag
masira
masisira
masjid
mask
maskara
maskot
masks
mason
masoretiko
mass
massa
massachusetts
massacre
massif
massimo
massive
master
mastering
masters
masturbasyon
masubaybayan
masugid
masukat
masulong
masungit
masunurin
masuri
masusing
masusukat
masusumpungan
masyado
masyadong
mat
mata
mataas
mataba
matabang
matador
matagal
matagalang
matagpuan
matagumpay
matakot
matalas
matalik
matalim
matalino
matalinong
matalo
matamis
matamo
matanda
matandang
matang
matanggal
matanggap
matangkad
mataong
matapang
matapat
matapos
matarik
matataas
matatag
matatagpuan
matatalinong
matatalo
matatanaw
matatanda
matatandang
matatanggap
matatapang
matatapos
matatas
matatawag
matayog
match
mate
matematika
matematikal
matematikang
matematiko
matematikong
mateo
mater
matera
material
materials
maternal
materya
materyal
materyales
materyang
matese
math
mathbb
mathbf
mathematical
mathematician
mathematics
mathrm
mathworld
mati
matias
matibay
matigas
matilda
matindi
matinding
matingkad
matinik
matisse
matitigas
matitinding
matiyak
matlovich
maton
matriks
matris
matrix
matsumoto
matt
matteo
matter
matters
matthew
matthews
matthias
matto
matugunan
matuklasan
matukoy
matulis
matulog
matulungan
matupad
mature
matuto
matutukoy
matutulis
matutunan
matutunghayan
matuwid
matuyo
mau
maubos
maugnaying
maulang
maulap
maulit
maunawaan
maunlad
maupo
maureen
maurice
mauricio
mauritania
mauritius
mauro
maurya
maute
mauunawaan
mawala
mawalan
mawawala
mawawalan
max
maxi
maxim
maximilian
maximo
maximum
maximus
maxwell
may
maya
mayabong
mayaman
mayamang
mayang
mayayaman
mayayamang
maybahay
maybe
mayer
maykapal
maynard
maynila
mayo
mayon
mayor
mayoridad
mayorya
mayroon
mayroong
maysakit
maysala
mayumi
mazda
maze
mazinger
mb
mba
mbc
mbe
mbox
mbs
mc
mca
mccarthy
mccartney
mcconaughey
mccoy
mccune
mcdermott
mcdonald
mcdougal
mcduffie
mcfadden
mcfarland
mcgraw
mckay
mckenna
mckenzie
mckinley
mcnary
mcrae
md
me
mean
meaning
means
meant
measure
measurement
measures
meat
mecca
meccan
mechanical
mechanics
mechanism
mechanisms
mecklenburg
med
medal
medals
medalya
medalyang
medan
medes
media
median
mediawiki
medical
medici
medicinal
medicine
mediebal
medien
medieval
medikal
medina
medio
medisina
medisinang
mediteraneo
mediteranyo
mediterranean
mediterraneo
medium
medley
medya
medyas
medyebal
medyo
mee
meek
meet
meeting
meets
meg
mega
megan
meghan
megiddo
megumi
mehikanang
mehikano
mehikanong
mehiko
mei
meiji
mein
mekanika
mekanikal
mekanikang
mekaniko
mekaniks
mekanismo
mekanismong
mekong
mel
melanie
melayu
melbourne
melinda
melissa
melo
melodiya
melodrama
melody
melon
melor
melvin
member
members
membership
membrane
membrano
membranong
meme
memo
memoir
memoirs
memorable
memorandum
memorial
memories
memory
memorya
memoryal
memphis
men
menahem
mendelssohn
mendes
mendez
mendiola
mendoza
mene
meningitis
menma
menor
mensahe
mensaheng
mensahero
mental
mentioned
mentor
menu
menudo
mer
meralco
mercado
mercato
mercedes
mercer
merchant
mercury
mercy
merdeka
meredith
merit
merito
merkado
merkuryo
merlin
mermaid
mero
meron
merong
merriam
merry
mers
meryenda
meryl
mes
mesa
mesha
mesiyas
meson
mesopotamia
mesopotamiano
mesopotamya
mesosoiko
message
messages
messaging
messenger
messiah
messina
mestisong
mestizo
met
meta
metabolismo
metacritic
metal
metalikong
metamorphosis
metapisika
metastasis
meteor
meteorite
meteorological
meteorolohiya
meter
method
methodist
methods
metodo
metodong
metre
metriko
metrikong
metro
metrong
metropolis
metropolitan
metropolitana
metropolitano
metropolitanong
metz
metzger
mew
mexican
mexicana
mexico
meycauayan
meyer
mez
mf
mfa
mg
mga
mgm
mgmt
mh
mhz
mi
mia
miami
mice
michael
michel
michelangelo
michele
michelle
michigan
michiko
mick
mickey
mico
micro
microbiol
microbiology
micronesia
microsoft
microwave
mid
middle
midi
midnight
midori
midya
midyang
midyebal
midyibal
midyum
mie
mifflin
mig
might
mighty
migrante
migrasyon
migration
miguel
mika
mikael
mike
mikee
mikhail
miki
miko
mikoto
mikrobyo
mikroorganismo
mikropono
mikroskopyo
mil
mila
milagro
milagros
milan
milano
mile
milenyo
miles
milestone
miley
milf
milimetro
militante
militanteng
militar
military
milk
milky
mill
millennium
miller
million
millions
mills
milo
milon
milton
milwaukee
milya
milyang
milyon
milyong
milyun
mimaropa
min
mina
minahal
minahan
minaj
minamahal
minamarkahan
minami
minana
minarkahan
minatamis
minato
mind
mindanao
mindorensis
mindoro
minds
mine
miner
mineral
minero
minerva
mines
ming
minh
mini
minimum
mining
miniseries
minister
ministerio
ministers
ministeryo
ministri
ministries
ministro
ministrong
ministry
mink
minneapolis
minnesota
minor
minoridad
minorities
minority
minorya
minoryang
minsa
minsan
minsang
mint
minungkahi
minus
minute
minutes
minuto
minutong
mio
mir
mira
miracle
miracles
miranda
mirasol
miriam
mirmo
mirror
mirumo
mirza
mis
misa
misaki
misal
misamis
misang
misato
misis
mismatch
mismo
mismong
miss
missile
missing
mission
missionary
missions
mississippi
missouri
mister
misteryo
misteryong
misteryosong
mistiko
mistress
mistulang
misyon
misyonaryo
misyonero
misyonerong
misyong
mit
mitchell
mithiin
mito
mitochondrial
mitolohikal
mitolohikong
mitolohiya
mitolohiyang
mitong
mitra
mitsa
mitsubishi
mitsuko
mitte
mittermeier
miura
mix
mixed
mixing
miya
miyagi
miyamoto
miyazaki
miyembro
miyembrong
miyerkules
mizuki
mizuno
mj
mk
ml
mm
mmda
mmff
mmk
mn
mnet
mnl
mnlf
mo
moa
moab
mob
mobile
mobileviewfix
mobo
moby
moc
mocha
mock
mod
moda
modalidad
mode
model
modeling
modelo
modelong
models
modena
modenese
modern
moderna
modernisasyon
modernity
moderno
modernong
modesto
modified
modo
module
modulo
moe
mohamed
mohammad
mohammed
mohr
moises
mojo
mol
molar
molave
moldova
mole
molecular
molecules
molekula
molekulang
molekular
molina
molino
molise
molly
mom
moment
moments
momentum
mommy
momo
momoko
moms
mon
mona
monaco
monarchy
monarka
monarkiya
monarkiyang
monarko
monarkong
monasteryo
monasteryong
moncada
monday
monde
monetary
money
moneygram
mong
monggol
monghe
mongheng
mongol
mongolia
mongolian
mongoloid
monica
monique
monitor
monitoring
monk
monkey
monkeypox
monkeys
mono
monogatari
monograph
monopolyo
monoteismo
monoteistiko
monotheism
monotype
monroe
mons
monsoon
monster
monsters
montalban
montalto
montana
montano
monte
montefeltro
monteleone
montenegro
montero
montes
montessori
montevideo
montgomery
month
monthly
months
monti
montre
montreal
montserrat
monument
monumental
monumento
monumentong
monuments
mood
moody
moog
moon
moonlight
moore
mor
mora
moral
morales
moralidad
moran
moras
more
morena
moreno
morga
morgan
mori
morioka
morissette
morita
mormon
morning
moro
morocco
morong
morphological
morphology
morpolohiya
morris
morrison
morrissey
morrow
morse
morsi
mortal
mortality
morton
mos
mosaic
moscow
moses
moske
mosku
mosque
moss
most
mosyon
mother
mothers
motibasyon
motibo
motif
motion
moto
motor
motorista
motors
motorsiklo
motorsports
motown
motto
mount
mountain
mountains
mouse
mouskouri
mouth
move
moved
movement
movements
moves
movie
movies
moving
mozambique
mozart
mozilla
mp
mph
mr
mrna
mrs
mrt
ms
msc
msgr
msn
msnbc
mt
mta
mtdna
mtk
mtrcb
mtv
mu
muban
much
mueang
mugabe
mughal
muh
muhammad
muhlach
mujer
mukha
mukhang
mula
mulawin
muli
muling
multa
multi
multilingual
multimedia
multinasyonal
multiplayer
multiple
multiplikasyon
multiselular
multo
mumbai
mummy
mun
muna
munang
mundo
mundong
munggo
mungkahi
mungkahing
muni
munich
municipal
municipalita
municipalities
municipality
municipio
munisipal
munisipalidad
munisipyo
munlist
munti
muntik
munting
muntinlupa
muog
muon
mura
murad
murakami
mural
murang
murcia
murder
muro
muromachi
murphy
murray
mus
musa
musashi
muscle
muse
museo
museong
museum
museums
museyo
mushroom
music
musical
musician
musicians
musika
musikal
musikang
musikero
musikerong
musiko
musikong
muslim
muslims
mussolini
must
mustasa
musume
mutant
mutasyon
mutasyong
mutation
mutual
mutya
muwang
muwebles
mv
mvp
mw
mx
my
mya
myanmar
mycobacterium
myembro
myers
mylene
myo
myrna
myself
myspace
mysteries
mysterious
mystery
mystic
myth
mythical
mythology
myths
myung
myx
n
na
naa
naaakit
naaalala
naaangkop
naaapektuhan
naaayon
naabot
naabutan
naacp
naakit
naalala
naalis
naantala
naapektuhan
naaprubahan
naaresto
naatasan
naayon
naayos
nababagay
nababago
nababahala
nababalot
nababalutan
nababanggit
nababasa
nababawasan
nabago
nabagong
nabalisa
nabanggit
nabasa
nabasag
nabawasan
nabawasang
nabawi
nabe
nabenta
nabibigyan
nabibilang
nabigador
nabigasyon
nabighani
nabigla
nabigo
nabigong
nabigyan
nabigyang
nabihag
nabilanggo
nabili
nabonidus
nabu
nabubuhay
nabubulok
nabubuo
nabubuong
nabucodonosor
nabudonosor
nabuhay
nabuksan
nabuo
nabuong
nabuwag
nach
nacio
nacional
nacionalista
nadagdag
nadagdagan
nadakip
nadama
nadarama
nadia
nadine
nadiskubre
nadu
nag
naga
nagagalit
nagagamit
nagaganap
nagagawa
nagagawang
nagai
nagalit
nagamit
naganap
nagano
nagapi
nagar
nagasaki
nagawa
nagawang
nagawaran
nagbabago
nagbabagong
nagbabahagi
nagbabala
nagbabalik
nagbabanggit
nagbabanta
nagbabantay
nagbabasa
nagbabawal
nagbabawas
nagbabayad
nagbago
nagbagong
nagbahagi
nagbalik
nagbanggit
nagbanta
nagbayad
nagbebenta
nagbenta
nagbibigay
nagbibigkis
nagbibilang
nagbigay
nagbitiw
nagboboses
nagboses
nagbubuhat
nagbubukas
nagbubunga
nagbubuo
nagbuhat
nagbukas
nagbunga
nagbunsod
nagcarlan
nagdaan
nagdaang
nagdadagdag
nagdadala
nagdagdag
nagdala
nagdaos
nagdaragdag
nagdarasal
nagdebut
nagdeklara
nagdesisyon
nagdidisenyo
nagdiriwang
nagdisenyo
nagdududa
nagdudugtong
nagdudulot
nagdulot
nagdurugtong
nagdurulot
nagdurusa
nagdusa
nagebolb
nagging
naghahain
naghahanap
naghahanapbuhay
naghahanda
naghahangad
naghahanggan
naghahari
naghaharing
naghahati
naghahatid
naghahayag
naghain
naghanap
naghanapbuhay
naghanda
naghangad
naghari
naghati
naghatid
naghayag
naghihikayat
naghihintay
naghihirap
naghihiwalay
naghimagsik
naghintay
naghiwalay
nagho
nagi
nagiging
naging
nagisa
nagising
nagiwan
nagkaisa
nagkakahalaga
nagkakahalagang
nagkakaiba
nagkakaisa
nagkakaisang
nagkakaloob
nagkakamali
nagkakamit
nagkakaroon
nagkakilala
nagkalat
nagkamali
nagkamit
nagkaroon
nagkasakit
nagkasala
nagkasundo
nagkataon
nagkatawang
nagkita
nagkokodigo
nagkokonekta
nagkomento
nagkrusada
nagkukulang
naglaan
naglabas
naglagay
naglaho
naglakad
naglakbay
naglalaan
naglalaban
naglalabas
naglalagay
naglalahad
naglalaho
naglalakad
naglalakbay
naglalaman
naglalarawan
naglalaro
naglalathala
naglalayag
naglalayon
naglalayong
naglandfall
naglaon
naglarawan
naglaro
naglatag
naglathala
naglayag
naglibot
nagligtas
naglikha
naglilingkod
naglimbag
naglingkod
naglipat
nagluluto
naglunsad
nagmamahal
nagmamalasakit
nagmamaneho
nagmamarka
nagmamasid
nagmamay
nagmarka
nagmartsa
nagmula
nagmumula
nagmumungkahi
nagmumungkahing
nagmungkahi
nagmungkahing
nagnais
nagnakaw
nagnanais
nagngangahulugang
nagngangalang
nagniningas
nagniningning
nagorno
nagoya
nagpa
nagpaalam
nagpabago
nagpadala
nagpahayag
nagpahintulot
nagpahiwatig
nagpakamatay
nagpakasal
nagpakilala
nagpakita
nagpakitang
nagpalabas
nagpalaki
nagpalit
nagpalitaw
nagpanatili
nagpangalan
nagpanggap
nagpapaalala
nagpapadala
nagpapagaling
nagpapagana
nagpapahayag
nagpapahinga
nagpapahintulot
nagpapahirap
nagpapahiwatig
nagpapakilala
nagpapakita
nagpapakitang
nagpapalabas
nagpapalagay
nagpapalakas
nagpapalit
nagpapaliwanag
nagpapanatili
nagpapanggap
nagpaparami
nagpapasalamat
nagpapataas
nagpapatakbo
nagpapatibay
nagpapatotoo
nagpapatuloy
nagpapatunay
nagpapatupad
nagpaplano
nagpaputok
nagpasa
nagpasikat
nagpasimula
nagpasiya
nagpasya
nagpasyang
nagpataas
nagpatakbo
nagpatalsik
nagpatayo
nagpatibay
nagpatiwakal
nagpatuloy
nagpatunay
nagpatupad
nagpaunlad
nagpinta
nagpipigil
nagplano
nagpo
nagpoprotekta
nagpoprotesta
nagpositibo
nagprotesta
nagpulong
nagpunta
nagpupulong
nagreklamo
nagreresulta
nagreresultang
nagresulta
nagresultang
nagretiro
nagsaad
nagsabi
nagsabing
nagsagawa
nagsalita
nagsama
nagsampa
nagsanay
nagsanhi
nagsanib
nagsara
nagsasaad
nagsasabi
nagsasabing
nagsasagawa
nagsasalaysay
nagsasalita
nagsasalitang
nagsasalo
nagsasama
nagsasanay
nagsasangkot
nagsasanhi
nagsasara
nagsasarili
nagsasariling
nagsilang
nagsilbi
nagsilbing
nagsimula
nagsimulang
nagsisi
nagsisikap
nagsisilbi
nagsisilbing
nagsisimula
nagsisimulang
nagsisinungaling
nagsiwalat
nagsulat
nagsulong
nagsumite
nagsuot
nagsusulat
nagsusulong
nagsusumikap
nagsusuot
nagsusuri
nagtaas
nagtagal
nagtago
nagtagumpay
nagtaguyod
nagtakda
nagtala
nagtalaga
nagtalo
nagtamo
nagtampok
nagtanghal
nagtangka
nagtangkang
nagtanim
nagtanong
nagtapos
nagtatag
nagtatagal
nagtataglay
nagtatago
nagtatagpo
nagtataguyod
nagtatakda
nagtatala
nagtatalaga
nagtatampok
nagtatanggol
nagtatanghal
nagtatangi
nagtatangkang
nagtatanim
nagtatanong
nagtatapos
nagtatatag
nagtatayo
nagtatrabaho
nagtayo
nagtipon
nagtitinda
nagtitipon
nagtrabaho
nagtratrabaho
nagtratrabahong
nagtulak
nagtungo
nagturo
nagtutulak
nagtutulungan
nagtuturo
nagugutom
nagulat
nagustuhan
nagwagi
nagwaging
nagwakas
nagwawakas
nahaharap
nahahati
nahalal
nahanap
naharap
nahati
nahatulan
nahawaan
nahayag
nahihirapan
nahihiya
nahikayat
nahinto
nahirang
nahirapan
nahiwalay
nahuatl
nahuel
nahuhuli
nahuhulog
nahukay
nahuli
nahuling
nahulog
nahum
nai
naia
naiambag
naibalik
naibenta
naibigay
naic
naidagdag
naiiba
naiibang
naiimpluwensiyahan
naiimpluwensyahan
naiinggit
naiintindihan
naiisip
naik
nailabas
nailagay
nailalarawan
nailarawan
nailathala
nailigtas
nailimbag
nailipat
nailuklok
nailunsad
naimbento
naimpluwensiyahan
naimpluwensyahan
naingatan
nainkorporadang
naipakilala
naipakita
naipalabas
naipapasa
naipasa
naipon
nairobi
nais
naisagawa
naisakatuparan
naisalin
naisama
naisasalin
naisin
naisip
naisipan
naisulat
naitaas
naitala
naitalaga
naitalang
naitampok
naitatag
naitayo
naiugnay
naiulat
naiuugnay
naiwan
naiwang
naka
nakaabot
nakaangat
nakaapekto
nakaayos
nakababata
nakababatang
nakabalik
nakabalot
nakabase
nakabatay
nakabenta
nakabilang
nakabitin
nakabukas
nakabukod
nakabuo
nakadepende
nakadikit
nakadirekta
nakagagawa
nakagapos
nakagawa
nakagawian
nakahahawang
nakahanap
nakahanay
nakaharap
nakahiga
nakahihigit
nakahimlay
nakahimpil
nakahiwalay
nakaimbak
nakaimpluwensiya
nakaka
nakakaakit
nakakaalam
nakakaapekto
nakakabatang
nakakabit
nakakagawa
nakakagulat
nakakahawa
nakakahawang
nakakain
nakakaing
nakakakita
nakakakuha
nakakalason
nakakalat
nakakalipas
nakakamatay
nakakamit
nakakapinsala
nakakaraan
nakakaramdam
nakakaranas
nakakasakit
nakakatakot
nakakatandang
nakakatanggap
nakakatawa
nakakatawang
nakakatugon
nakakatulong
nakakita
nakakonekta
nakakontrata
nakakuha
nakakulong
nakalaan
nakalabas
nakalagak
nakalagay
nakalakip
nakalalason
nakalalasong
nakalantad
nakalarawan
nakalatag
nakaligtas
nakalikha
nakalilikha
nakalilipas
nakalimbag
nakalimutan
nakalipas
nakalista
nakalubog
nakaluklok
nakalulungkot
nakamamatay
nakamit
nakamoto
nakamura
nakansela
nakapag
nakapagbenta
nakapagbibigay
nakapagbigay
nakapagdurulot
nakapagsasalita
nakapagsulat
nakapagtala
nakapagtapos
nakapailalim
nakapalibot
nakapaligid
nakapaloob
nakapasa
nakapasok
nakapatong
nakapirmeng
nakapirming
nakapokus
nakaposisyon
nakapuwesto
nakar
nakaraan
nakaraang
nakaramdam
nakaranas
nakaranggo
nakararaan
nakararami
nakararaming
nakararanas
nakarating
nakarehistro
nakarinig
nakasaad
nakasabit
nakasakay
nakasaksi
nakasalalay
nakasalig
nakasalubong
nakasama
nakasanayan
nakasara
nakasarang
nakasasanhi
nakasentro
nakasulat
nakasuot
nakataas
nakatago
nakatagong
nakatagpo
nakatakas
nakatakda
nakatakdang
nakatala
nakatalaga
nakatalagang
nakatalang
nakatali
nakatanggap
nakatapos
nakatataas
nakatatanda
nakatatandang
nakatayo
nakatayong
nakatiklop
nakatingin
nakatira
nakatuklas
nakatulog
nakatulong
nakatuon
nakatutok
nakatutulong
nakaugalian
nakaugaliang
nakaugat
nakaugnay
nakaukit
nakaupo
nakaw
nakawin
naked
nakhon
nakibahagi
nakikibahagi
nakikilahok
nakikilala
nakikilalang
nakikinabang
nakikinig
nakikipag
nakikipagkumpitensya
nakikipaglaban
nakikipagtalik
nakikipagtulungan
nakikita
nakikitang
nakikitungo
nakilahok
nakilala
nakilalang
nakinabang
nakinig
nakipag
nakipagkasundo
nakipagkita
nakipagkumpitensya
nakipaglaban
nakipagpaligsahan
nakipagtulungan
nakita
nakitaan
nakitang
nakiusap
nakolekta
nakontrol
nakoronahan
nakpil
naku
nakuha
nakuhang
nakukuha
nakulong
nakumbinsi
nakumpirma
nakumpleto
nakunan
nalagay
nalalabi
nalalabing
nalalaman
nalalamang
nalalapit
nalaman
nalampasan
nalang
nalantad
nalathala
naligtas
nalikha
nalikom
nalilikha
nalilito
nalimbag
nalipat
naluklok
nalungkot
nalunod
nalusaw
nalutas
nam
nama
namagitan
namahala
namalagi
namamagang
namamagitan
namamahagi
namamahala
namamahalang
namamalagi
namamana
namamanang
namamatay
namamayani
namamayaning
naman
namana
namang
namangan
namangha
namataan
namatay
namco
name
named
names
namibia
namibian
namie
namin
naming
namuhay
namuhunan
namumuhay
namumuhunan
namumukod
namumulaklak
namumuno
namumunong
namumuong
namuno
namuo
nan
nana
nanaig
nanalangin
nanalasa
nanalo
nanalong
nananahan
nananaig
nananatili
nananatiling
nanase
nanatili
nanatiling
nanawagan
nanay
nancy
nandito
nandoon
nang
nangailangan
nangako
nangakong
nanganak
nangangahulugan
nangangahulugang
nangangailangan
nangangailangang
nangangako
nangangalaga
nanganganib
nangangaral
nangangasiwa
nangangaso
nangaral
nangasiwa
nangatwiran
nangatwirang
nanggagaling
nanggaling
nangibabaw
nangingibabaw
nanginginig
nangingitlog
nangka
nangongolekta
nanguna
nangunguna
nangungunang
nangungupahan
nangyari
nangyaring
nangyayari
nanilbihan
naninigarilyo
naninirahan
naninirahang
naniniwala
naniniwalang
nanirahan
naniwala
naniwalang
nanjing
nano
nanomina
nanonood
nanoteknolohiya
nantes
nanumbalik
nanumpa
nanungkulan
nanunungkulan
nanunungkulang
naobserbahan
naoki
naomi
napabalitang
napabayaan
napabilang
napadpad
napag
napagdesisyunan
napagkasunduan
napagkukunan
napagmasdan
napagmasdang
napagpasyahan
napagtanto
napailalim
napaka
napakabilis
napakaganda
napakagandang
napakahabang
napakahalaga
napakahalagang
napakahirap
napakahusay
napakakaunting
napakalakas
napakalaki
napakalaking
napakalapit
napakalawak
napakaliit
napakapopular
napakarami
napakaraming
napakataas
napakatagal
napalabas
napalaya
napalitan
napanalunan
napanatili
napangalanan
napangasawa
napanood
napansin
napapabilang
napapailalim
napapalibutan
napapaligiran
napapaloob
napapanahon
napapanahong
napapanatili
napapanatiling
napapanood
napapansin
napasailalim
napasama
napaslang
napatalsik
napatay
napatunayan
napatunayang
napaunlad
napawalang
napetsahan
napigilan
napili
napiling
napilitan
napilitang
napinsala
naples
napo
napocor
napoleon
napoles
napoli
napolitano
napolitanong
napukaw
napuno
napunta
napuntahan
napupuno
napupunta
naputol
nara
naramdaman
naranasan
narangha
nararamdaman
nararanasan
nararanggo
nararapat
narating
narciso
narcos
nare
naresh
narin
narinig
naririnig
naririto
narita
narito
nariyan
naroon
naroroon
narra
narrative
narrator
nars
narses
narsing
naruhito
naruto
nas
nasa
nasaan
nasabi
nasabing
nasakop
nasaksihan
nasaktan
nasal
nasalanta
nasangkot
nasasabik
nasasakop
nasasakupan
nasasakupang
nasasangkot
nasawi
nascar
nash
nashville
nasi
nasira
nasirang
nasisira
nasisiyahan
nasiyahan
nast
nasugatan
nasugbu
nasulat
nasumpungan
nasundan
nasunog
nasuri
nasuspinde
nasusukat
nasusulat
nasusunog
nasyon
nasyonal
nasyonalidad
nasyonalismo
nasyonalista
nasyonalistang
nat
nata
natagpuan
natagpuang
natakot
natalia
natalie
natalo
natamaan
natamo
natanggal
natanggap
natanto
natapos
natasha
natatag
natatagpuan
natatakot
natatakpan
natatanggap
natatangi
natatanging
natatapos
natatawag
nate
nathalie
nathan
nathaniel
natigil
natin
nating
nation
national
nationale
nationalism
nationalist
nations
nationwide
natipon
natira
natirang
natitira
natitirang
natitiyak
native
natividad
natiyak
natl
nato
natoli
natsu
natsuki
natsume
natuklasan
natuklasang
natukoy
natulog
natuloy
natunaw
natupad
natur
natural
naturalista
naturang
nature
natuto
natutong
natutuhan
natutuklasan
natutukoy
natutulog
natutunan
natutunaw
natututo
natutuwa
natuwa
naubos
naubusan
naulila
nauna
naunang
naunawaan
naupo
nauru
nautical
nauugnay
nauukol
nauuna
nauunang
nauunawaan
nauuri
nauwi
naval
navarra
navarre
navarro
nave
naver
navotas
navy
nawa
nawala
nawalan
nawalang
nawasak
nawawala
nawawalan
nawawalang
nay
naya
nayon
nayong
nazareno
nazareth
nazi
nazionale
nba
nbc
nbi
nbn
nc
ncaa
ncbi
ncca
nchez
ncia
ncipe
ncov
ncr
nd
nde
ndez
ndola
ndrrmc
ndtv
ne
neal
neanderthal
near
nearby
nearly
neberg
nebraska
nebula
necessarily
necho
neck
ned
neda
nederland
nederlands
need
needed
needs
negatibo
negatibong
negative
negi
negima
negosasyon
negosyante
negosyanteng
negosyo
negosyong
negrito
negro
negros
nehru
neil
neill
neither
nekropolis
nel
nell
nella
nellie
nelly
nelson
nen
nena
nene
neneng
nenets
neo
neoklasiko
neoklasikong
neolitiko
neolohismo
neon
nepal
nepali
nepomniachtchi
nepomuceno
nepotismo
neptune
neptuno
nerbiyos
nerbyos
neri
nero
nersborg
nerve
nervous
nes
nestle
nestor
nestorio
net
netflix
netherlands
netizens
neto
netong
network
networking
networks
neue
neumann
neural
neuron
neuroscience
neurotransmitter
neutral
neutrino
neutron
nevada
never
neville
nevis
new
newark
newcastle
newest
newfoundland
newly
newman
newport
news
newscast
newsen
newsinfo
newsletter
newspaper
newspapers
newsweek
newswire
newton
newtype
next
nextel
nez
nfl
ng
nga
ngala
ngalan
ngalang
ngang
ngayo
ngayon
ngayong
ngc
ngd
ngel
ngilang
ngipin
ngiping
ngiti
ngo
ngu
nguni
ngunit
nguso
nguye
nguyen
nh
nha
nhk
ni
nia
niall
nic
nica
nicaea
nicanor
nicaragua
niccolo
nice
nicene
niceno
niche
nicholas
nichols
nicholson
nick
nickelodeon
nicki
nicky
nico
nicola
nicolas
nicole
nicomedia
nicosia
nida
nie
niels
nielsen
nietzsche
nig
nigel
niger
nigeria
nigerian
night
nightclub
nightingale
nightmare
nights
nih
nihon
niigata
nik
nika
nike
nikkei
nikki
nikko
nikolai
nikolay
nila
nilabanan
nilabas
nilagang
nilagay
nilagdaan
nilagyan
nilalabas
nilalagay
nilalagyan
nilalahad
nilalaman
nilalamang
nilalang
nilalapat
nilalarawan
nilalaro
nilalathala
nilalayon
nilalayong
nilamon
nilang
nilapat
nilapitan
nilarawan
nilathala
nilay
nilayon
nile
nilikha
nilikhang
nililikha
nililimitahan
nilimbag
nilinang
nilinaw
nilinlang
nilipat
nilisan
nilitis
nilo
niluluto
nilusob
niluto
nilutong
nin
nina
ninais
ninakaw
ninanais
ninang
nine
nineteenth
nineveh
ning
ningas
ningning
ninja
nino
ninong
ninoy
nintendo
ninth
ninuno
ninunong
ninurta
ninyo
ninyong
nio
nipa
nippon
nippur
niranggo
niraranggo
nirepresentahan
nirvana
nis
niseno
nissin
nite
nito
nitong
nitrogen
nitroheno
nitso
niu
niv
nixon
niya
niyakap
niyan
niyang
niyanig
niyebe
niyog
niyon
nj
nk
nl
nlex
nlm
nm
nme
nmi
nn
no
noaa
noah
nob
nobel
nobela
nobelang
nobelista
nobelistang
nobita
nobiyembre
noble
nobody
nobunaga
nobya
nobyembre
nobyo
noc
nocera
noche
node
nodo
noe
noel
noh
noinclude
noise
nokia
nola
nolan
noli
noma
nome
nomenclature
nomi
nominado
nominados
nominal
nominasyon
nominated
nomination
nominations
nominees
non
nona
none
nong
nonsyndromic
noo
noodle
noodles
noon
noong
nooong
nor
nora
nord
nordic
nordiko
norfolk
noriko
norm
norma
normal
norman
normandia
normando
normandong
normatibong
norris
norse
norte
north
northern
northrail
northwest
northwestern
norton
noruwega
noruwego
noruwegong
norway
norwega
norwegian
norwich
nos
nossa
nosyon
not
nota
notable
notasyon
notasyong
note
notebook
noted
notes
nothing
notice
notices
noto
notre
nottingham
nouveau
nouvelle
nov
nova
novak
novaliches
novara
novel
noveleta
novels
november
novi
novo
novum
now
nowhere
noynoy
nozomi
np
npa
npc
npr
nr
nrj
ns
nsa
nso
nster
nt
ntc
ntv
nu
nubia
nuclear
nuclei
nucleotide
nucleus
nue
nuestra
nuestro
nueva
nuevo
nuklear
nukleo
nukleyar
nukleyo
nukleyus
null
num
numa
number
numbered
numberedmps
numbers
numbr
numeric
numerikal
numero
numerong
nun
nung
nuno
nuong
nuoro
nuova
nuovo
nur
nuremberg
nurse
nursery
nursing
nus
nut
nutrisyon
nutrition
nuts
ny
nya
nyan
nyang
nyc
nylon
nytimes
nyu
nz
o
oak
oakland
oaks
oasis
oath
oav
oaxaca
ob
obama
obando
obaryo
obe
obhektibong
obhekto
obi
obispo
obispong
obituary
object
objects
oblast
oblasts
obligasyon
obra
obrang
obserbahan
obserbasyon
obserbatoryo
observation
observations
observatory
observed
observer
obstructive
oc
oca
ocampo
occidental
occupation
ocean
oceania
oceanic
oceans
och
oclc
oct
october
od
oda
odd
odds
ode
oder
odette
odin
odiseo
odisyon
odulio
odyssey
oe
oecd
oed
oedipus
of
ofel
off
offensive
offer
offers
office
officer
officers
offices
official
officially
officials
offshore
oficial
often
ofw
og
ogawa
ogg
ogie
oh
ohio
oil
ois
ok
oka
okamoto
okasyon
okay
okazaki
okinawa
oklahoma
okrug
okrugs
oksido
oksiheno
okt
oktobre
oktubre
ol
ola
olanda
olandes
old
older
oldest
ole
oleracea
olga
oli
oliba
olibo
olimpiko
olimpikong
olimpiyada
olipane
olive
oliveira
oliver
olivia
olivier
olongapo
olsen
olympia
olympiad
olympic
olympics
olympus
om
oman
omar
ombudsman
omega
omg
omicron
omnibus
omri
on
ona
once
oncorhynchus
ondoy
one
onepage
ones
ong
online
only
onna
ono
onsa
ontario
oo
oorganisa
op
open
opened
opening
opens
opensiba
openstreetmap
opera
operador
operando
operang
operasyon
operasyong
operate
operating
operation
operations
operator
operatorname
opin
opinion
opinyon
opiser
opisina
opisinang
opisyal
opisyales
opm
oportunidad
oposisyon
opposite
opposition
oprah
opsiyon
opsyon
opsyonal
optic
optical
optics
optika
optikal
optimal
optimisasyon
option
opus
opyo
or
ora
orakulo
oral
orange
orangutan
oras
orasan
orasang
oratoryo
orbit
orbital
orbito
orchestra
orden
ordeng
order
ordered
orders
ordinal
ordinansa
ordinary
ordinaryong
ordovician
ore
oregon
org
organ
organic
organiko
organikong
organisa
organisado
organisadong
organisasyon
organisasyong
organisation
organismo
organismong
organization
organizations
organized
organizer
organizing
organo
organong
orgasmo
ori
oricon
orient
oriental
orientation
oriented
origen
origin
original
originally
originals
origins
orihinal
orion
oristano
orkestra
orlando
orleans
ormoc
oro
orsini
ortega
orthodox
ortigas
ortiz
ortodoksiya
ortodoksiyang
ortodokso
ortodoksong
ortograpiya
ortograpiyang
ortona
orvieto
oryentasyon
oryentasyong
os
osa
osaka
osama
osamu
oscar
oscars
oseas
osen
osiris
oslo
osm
osmen
oso
osorkon
ospital
ossola
ost
ostia
oswald
ot
otaku
otel
other
others
otherwise
otoko
otomano
otome
otoridad
otranto
otso
ott
ottawa
otto
ottobre
ottoman
ou
our
ours
out
outbreak
outer
outlet
outline
outlook
output
outreach
outside
outstanding
ov
ova
over
overall
overline
overseas
overview
ovid
owen
owens
owl
own
owned
owner
ownership
oxford
oxide
oxygen
oyo
oz
ozamiz
ozone
p
pa
paa
paalala
paalam
paalis
paalisin
paanan
paang
paano
paanong
paanyaya
paaralan
paaralang
pababa
pababang
pabago
pabagsakin
pabagu
pabahay
pabalat
pabalik
pabango
pabigat
pabilog
pablo
pabo
pabor
paboreal
paborito
paboritong
pabrika
pabula
pabuya
pac
pace
paciano
pacific
pacita
pack
package
packet
paco
pacquiao
pact
pad
padala
pader
padilla
padre
padron
padua
padukone
padyak
paeng
paete
pag
pagaaral
pagaari
pagadian
pagala
pagalingin
pagamutan
pagan
paganismo
pagano
paganong
pagasa
pagawaan
pagawaing
pagbaba
pagbabago
pagbabagong
pagbabahagi
pagbabakuna
pagbabalik
pagbabangko
pagbabanta
pagbabantay
pagbabasa
pagbabatid
pagbabawal
pagbabawas
pagbabayad
pagbabaybay
pagbagay
pagbago
pagbagsak
pagbaha
pagbalik
pagbaluktot
pagbanggit
pagbangon
pagbaril
pagbasa
pagbati
pagbawas
pagbawi
pagbaybay
pagbebenta
pagbenta
pagbibigay
pagbibihis
pagbibilang
pagbibinata
pagbibinyag
pagbibisikleta
pagbibitiw
pagbibiyahe
pagbigay
pagbigkas
pagbilang
pagbili
pagbisita
pagbitay
pagbobomba
pagbomba
pagboto
pagbubuhat
pagbubukas
pagbubukod
pagbubuntis
pagbubunyi
pagbubuo
pagbubura
pagbubuwis
pagbuga
pagbuhay
pagbukas
pagbuo
pagbura
pagbutihin
pagbuwag
pagdaan
pagdadagdag
pagdadala
pagdadalaga
pagdadalangtao
pagdagdag
pagdagsa
pagdaka
pagdakip
pagdalaw
pagdalo
pagdaloy
pagdami
pagdaragdag
pagdaraos
pagdarasal
pagdating
pagdedeklara
pagdidisenyo
pagdinig
pagdiriwang
pagdisenyo
pagdududa
pagdukot
pagdumi
pagdurugo
pagdurusa
page
pageant
pages
paggabay
paggagamot
paggalang
paggalaw
paggaling
paggalugad
paggamit
paggamot
paggana
pagganap
paggasta
paggastos
paggawa
paggawad
paggaya
paggising
pagguhit
pagguho
paggunita
paggupit
paghabol
paghagod
paghahabi
paghahabol
paghahagis
paghahain
paghahalo
paghahambing
paghahanap
paghahanda
paghahandog
paghahangad
paghaharap
paghahari
paghahati
paghahatid
paghahating
paghahayag
paghalal
paghalili
paghanap
paghanga
paghango
pagharang
pagharap
paghati
paghatol
paghawak
paghihiganti
paghihigpit
paghihimagsik
paghihintay
paghihirap
paghihiwalay
paghila
paghina
paghinga
paghingi
paghinto
paghipo
paghiram
paghirang
paghiwalay
paghiwalayin
pagho
paghubog
paghuhubog
paghuhugas
paghuhukay
paghuhukom
paghuhusga
paghula
paghuli
pagiging
pagitan
pagitang
pagka
pagkaalipin
pagkaantala
pagkababae
pagkabahala
pagkabalisa
pagkabata
pagkabigla
pagkabigo
pagkabihag
pagkabilanggo
pagkabuhay
pagkabulag
pagkabulok
pagkabuo
pagkadiyos
pagkagambala
pagkagusto
pagkahalal
pagkahawa
pagkahilig
pagkahilo
pagkahulog
pagkahumaling
pagkain
pagkaing
pagkaka
pagkakaayos
pagkakabahagi
pagkakabanggit
pagkakabilanggo
pagkakabit
pagkakabuo
pagkakagawa
pagkakahalintulad
pagkakahati
pagkakahawig
pagkakahirang
pagkakahiwalay
pagkakaiba
pagkakaibang
pagkakaibigan
pagkakaisa
pagkakaisang
pagkakakilanlan
pagkakakilanlang
pagkakakulong
pagkakalantad
pagkakalat
pagkakalikha
pagkakaloob
pagkakamali
pagkakamaling
pagkakamit
pagkakapantay
pagkakapareho
pagkakaroon
pagkakasakit
pagkakasala
pagkakasangkot
pagkakasulat
pagkakasundo
pagkakasunod
pagkakasunud
pagkakataon
pagkakataong
pagkakatapon
pagkakatatag
pagkakatawan
pagkakatawang
pagkakatugma
pagkakatuklas
pagkakatulad
pagkakaugnay
pagkakaunawa
pagkakaunawaan
pagkakautang
pagkakawasak
pagkakita
pagkalalaki
pagkalap
pagkalason
pagkalat
pagkalipas
pagkalipol
pagkalito
pagkalkula
pagkalugi
pagkamalikhain
pagkamamamayan
pagkamartir
pagkamatay
pagkamit
pagkamuhi
pagkamulat
pagkansela
pagkanta
pagkapagod
pagkapanalo
pagkapanganak
pagkapangulo
pagkapapa
pagkaraan
pagkaraang
pagkasaling
pagkasira
pagkasunod
pagkasunog
pagkat
pagkatakot
pagkatalo
pagkatao
pagkatapos
pagkatatag
pagkatawan
pagkatuklas
pagkatunaw
pagkatuto
pagkaubos
pagkaunawa
pagkawala
pagkawalang
pagkawasak
pagkikita
pagkilala
pagkiling
pagkilos
pagkit
pagkokodigo
pagkolekta
pagkonsumo
pagkontrol
pagkubkob
pagkuha
pagkukulang
pagkukumpuni
pagkukunwari
pagkukuwento
pagkukwenta
pagkumpleto
paglabag
paglaban
paglabas
paglaganap
paglagay
paglagda
paglago
paglagong
paglaho
paglahok
paglakad
paglakas
paglaki
paglala
paglalaan
paglalaban
paglalabas
paglalagay
paglalahad
paglalahat
paglalakad
paglalakbay
paglalangoy
paglalantad
paglalapat
paglalarawan
paglalarawang
paglalaro
paglalathala
paglalayag
paglampas
paglanghap
paglangoy
paglaon
paglapag
paglapit
paglathala
paglawak
paglaya
paglayo
paglibot
pagligtas
paglihis
pagliit
paglikas
paglikha
paglikhang
pagliko
paglilibang
paglilibing
paglilibot
pagliligtas
paglilihi
paglililok
paglilimbag
paglilinang
paglilinaw
paglilingkod
paglilinis
paglilipat
paglilitis
paglinang
paglipad
paglipas
paglipat
paglisan
paglitaw
paglubog
pagluluksa
paglulunas
paglulunsad
pagluluto
pagluluwas
paglunsad
paglusob
paglutas
pagmamahal
pagmamahalan
pagmamalabis
pagmamalaki
pagmamana
pagmamaneho
pagmamanipula
pagmamanupaktura
pagmamapa
pagmamarka
pagmamasid
pagmamataas
pagmamay
pagmamayari
pagmimina
pagmomodelo
pagmumuni
pagnanais
pagnanakaw
pagnanasa
pagnanasang
pagnenegosyo
pagninilay
pagod
pagoda
pagong
pagpag
pagpalit
pagpanaw
pagpansin
pagpapa
pagpapaalis
pagpapababa
pagpapabaya
pagpapabuti
pagpapadala
pagpapagaling
pagpapagana
pagpapaganda
pagpapahaba
pagpapahalaga
pagpapahalagang
pagpapahayag
pagpapahinga
pagpapahintulot
pagpapahirap
pagpapaikli
pagpapainam
pagpapakahulugan
pagpapakain
pagpapakalat
pagpapakamatay
pagpapakasakit
pagpapakasal
pagpapakawala
pagpapakilala
pagpapakita
pagpapako
pagpapala
pagpapalabas
pagpapalaganap
pagpapalagay
pagpapalaglag
pagpapalakas
pagpapalaki
pagpapalawak
pagpapalawig
pagpapalaya
pagpapalayas
pagpapaliit
pagpapalit
pagpapalitan
pagpapaliwanag
pagpapanatili
pagpapangalan
pagpapanggap
pagpapangkat
pagpapanumbalik
pagpapaputi
pagpaparami
pagpaparangal
pagpapasa
pagpapasigla
pagpapasinaya
pagpapasiya
pagpapasok
pagpapasuso
pagpapasya
pagpapataas
pagpapatakbo
pagpapatala
pagpapatalsik
pagpapatapon
pagpapataw
pagpapatawad
pagpapatayo
pagpapatibay
pagpapatiwakal
pagpapatuloy
pagpapatunay
pagpapatupad
pagpapaunlad
pagpapawalang
pagpapayo
pagpaplano
pagpaputi
pagpasa
pagpaslang
pagpasok
pagpatay
pagpayag
pagpepetsa
pagpigil
pagpili
pagpilit
pagpinta
pagpipigil
pagpipilian
pagpipilit
pagpipinta
pagpopondo
pagpoproseso
pagproseso
pagprotekta
pagpuksa
pagpuna
pagpuno
pagpunta
pagpupugay
pagpupulong
pagpupunyagi
pagputok
pagputol
pagraranggo
pagrekord
pagreregla
pagreretiro
pagsabog
pagsagip
pagsagot
pagsakay
pagsakop
pagsalakay
pagsali
pagsalin
pagsalungat
pagsama
pagsamahin
pagsamba
pagsang
pagsanib
pagsanjan
pagsapit
pagsasa
pagsasaalang
pagsasaayos
pagsasabi
pagsasabing
pagsasabwatan
pagsasagawa
pagsasahimpapawid
pagsasaka
pagsasakatuparan
pagsasalarawan
pagsasalaysay
pagsasaliksik
pagsasalin
pagsasaling
pagsasalinwika
pagsasalita
pagsasama
pagsasamang
pagsasamantala
pagsasanay
pagsasanib
pagsasara
pagsasarili
pagsasayaw
pagsayaw
pagsibol
pagsikat
pagsiklab
pagsilang
pagsimula
pagsipi
pagsipsip
pagsira
pagsisid
pagsisikap
pagsisikip
pagsisimula
pagsisinungaling
pagsisisi
pagsisiwalat
pagsisiyasat
pagsubaybay
pagsubok
pagsugpo
pagsukat
pagsuko
pagsulat
pagsulong
pagsunod
pagsunog
pagsupil
pagsuporta
pagsuri
pagsusugal
pagsusuka
pagsusukat
pagsusulat
pagsusulit
pagsusulong
pagsusumikap
pagsusuot
pagsusuri
pagsusuring
pagsuway
pagtaas
pagtaban
pagtaguyod
pagtakas
pagtakbo
pagtakwil
pagtalakay
pagtalikod
pagtalon
pagtama
pagtanaw
pagtanda
pagtanggal
pagtanggap
pagtanggi
pagtanghal
pagtangkilik
pagtapos
pagtataas
pagtatae
pagtatag
pagtatago
pagtatagpo
pagtatagumpay
pagtataguyod
pagtatakda
pagtatakdang
pagtataksil
pagtatala
pagtatalaga
pagtatalagang
pagtatalik
pagtatalo
pagtatanggal
pagtatanggol
pagtatanghal
pagtatangi
pagtatangka
pagtatangkang
pagtatanim
pagtatanong
pagtatantiya
pagtatantya
pagtatapon
pagtatapos
pagtatasa
pagtatatag
pagtataya
pagtatayo
pagtatrabaho
pagtawag
pagtawid
pagtaya
pagtayo
pagtibayin
pagtigil
pagtingin
pagtira
pagtitiis
pagtitipid
pagtitipon
pagtitipong
pagtitiwala
pagtiyak
pagtrato
pagtubo
pagtubos
pagtugis
pagtugon
pagtugtog
pagtuklas
pagtukoy
pagtulak
pagtulog
pagtulong
pagtunaw
pagtuon
pagtupad
pagturing
pagtutok
pagtutol
pagtutugma
pagtutuli
pagtutulungan
pagtutuon
pagtutuos
pagtuturo
pagunlad
pagwasak
pagwawagi
pagwawakas
pagwawalang
pagwawasto
pagyanig
pahaba
pahalagahan
pahalang
paham
pahayag
pahayagan
pahayagang
pahilaga
pahilagang
pahilis
pahina
pahinang
pahinga
pahintulot
pahintulutan
pahiwatig
pai
paiba
paid
paikot
pain
paint
painter
painting
paintings
pair
paitaas
pak
pakahulugan
pakahulugang
pakainin
pakaliwa
pakana
pakanan
pakanluran
pakasalan
pakawalan
pakay
pakete
pakialam
pakikialam
pakikiapid
pakikibaka
pakikidigma
pakikiisa
pakikilahok
pakikinig
pakikipag
pakikipagkaibigan
pakikipagkalakalan
pakikipagkapwa
pakikipagkasundo
pakikipaglaban
pakikipagniig
pakikipagsapalaran
pakikipagsosyo
pakikipagtalastasan
pakikipagtalik
pakikipagtalo
pakikipagtulungan
pakikipanayam
pakikiramay
pakikisalamuha
pakikisama
pakikitungo
pakikitungong
pakil
pakinabang
pakinggan
pakiramdam
pakistan
pakistani
pakitingnan
pakiusap
pako
pakong
pakpak
paksa
paksang
paksiyon
paktor
pakundangan
pakwan
pal
pala
palabas
palabasin
palace
palacios
palad
palagay
palagi
palagian
palagiang
palaging
palaisdaan
palaisip
palaisipan
palaka
palakaibigan
palakasan
palakasang
palakasin
palakihin
palakol
palaman
palamuti
palamuting
palanca
palang
palanggana
palanguyan
palapag
palaro
palarong
palaruan
palaso
palaspas
palasyo
palasyong
palatal
palatandaan
palatandaang
palatino
palatuntunan
palatuntunang
palau
palaulatang
palawakin
palawan
palawigin
palay
palayain
palayan
palayasin
palayaw
palayo
palayok
palazzo
palda
pale
palembang
palengke
paleo
paleolitiko
paleontology
paleozoic
palermo
palestina
palestine
palestinian
palestino
palgrave
pali
palibot
paligid
paligsahan
paligsahang
paliguan
palihim
palikpik
palikuran
palimbagan
palingkurang
paliparan
paliparang
palit
palitan
palitang
paliwanag
palm
palma
palmer
palo
paloob
palos
palumpong
palya
pam
pamagat
pamahalaan
pamahalaang
pamahayan
pamahid
pamahiin
pamalit
pamalo
pamamaalam
pamamaga
pamamagitan
pamamahagi
pamamahala
pamamahalang
pamamahayag
pamamahinga
pamamalagi
pamamalakad
pamamaraan
pamamaraang
pamamaril
pamamaslang
pamamasyal
pamana
pamanang
pamangkin
pamangking
pamantasan
pamantasang
pamantayan
pamantayang
pamasahe
pamasko
pamatay
pamayanan
pamayanang
pamaypay
pambabae
pambabaeng
pambahay
pambalana
pambalita
pambalot
pambansa
pambansang
pambasang
pambata
pambatang
pambatas
pambatasan
pambayad
pambayan
pambayang
pambibig
pambihira
pambihirang
pambiyolohiya
pambobomba
pambungad
pamela
pamilang
pamilihan
pamilihang
pamilya
pamilyang
pamilyar
pamimili
pamimilit
pamimintuho
paminsan
paminta
pampaalsa
pampaaralan
pampaganda
pampagtatalik
pampalakasan
pampalamig
pampalasa
pampamahalaan
pampamahalaang
pampamayanan
pampamayanang
pampamilya
pampananalapi
pampananampalataya
pampang
pampanga
pampangasiwaan
pampangasiwaang
pampangulo
pampanguluhan
pampanguluhang
pampanitikan
pampanitikang
pampapa
pamparlamento
pampasabog
pampasahero
pampasaherong
pampelikula
pampilosopiya
pampinal
pamplona
pampolitika
pampolitikang
pampook
pamprograma
pampubliko
pampublikong
pampulitika
pampulitikang
pamumuhay
pamumuhunan
pamumula
pamumulaklak
pamumuno
pamumunong
pamumuo
pamunuan
pan
pana
panaderya
panaghoy
panaginip
panaguri
panahon
panahong
panahunan
panakip
panaklong
panalangin
panalanging
panalo
panama
pananabik
pananagutan
pananahi
pananaig
pananakit
pananakop
pananakot
pananalakay
pananalangin
pananalapi
pananalaping
pananalig
pananaliksik
pananalita
pananalitang
pananamit
pananampalataya
pananampalatayang
pananatili
pananaw
pananda
panandalian
panandaliang
panandang
pananggalang
pananim
pananong
panao
panata
panatag
panatiko
panatilihin
panatilihing
panauhin
panauhing
panawagan
panay
panayam
pancho
panda
pandacan
pandagat
pandagdag
pandaigdig
pandaigdigan
pandaigdigang
pandama
pandamang
pandamdam
pandan
pandarambong
pandaraya
pandarayuhan
panday
pandayuhan
pandekorasyon
pandemic
pandemya
pandemyang
pandesal
pandigma
pandikit
pandinig
pandiwa
pandiwang
pandora
panel
pang
panga
pangaea
pangako
pangakong
pangalagaan
pangalan
pangalanan
pangalang
pangalawa
pangalawang
pangamba
panganak
panganay
pangangailangan
pangangailangang
pangangalaga
pangangalagang
pangangalakal
pangangalap
pangangalunya
pangangampanya
panganganak
pangangaral
pangangasiwa
pangangaso
pangangatawan
pangangati
pangangatwiran
panganib
panganiban
pangaral
pangarap
pangasinan
pangasiwaan
pangasiwaang
pangatlo
pangatlong
pangatnig
pangdagat
panget
panggabing
panggagahasa
panggagalugad
panggagamot
panggamot
panggatong
panggigipit
panggitna
panggitnang
panggulugod
panghabambuhay
panghalili
panghalip
pangharap
pangheograpiya
panghihimagsik
panghihimasok
panghihina
panghimagas
panghimpapawid
panghinaharap
panghuhula
panghukbo
panghukuman
panghuli
panghuling
pangil
pangilalim
pangilinan
pangingibabaw
panginginig
pangingisda
panginoon
panginoong
pangisahang
pangit
pangitain
pangkabataan
pangkabuhayan
pangkahalatang
pangkaisipan
pangkalahatan
pangkalahatang
pangkalakal
pangkalakalan
pangkalawakan
pangkaligtasan
pangkalikasan
pangkalinangan
pangkalusugan
pangkapaligiran
pangkapayapaan
pangkaraniwan
pangkaraniwang
pangkasal
pangkasalukuyan
pangkasalukuyang
pangkasarian
pangkasaysayan
pangkasaysayang
pangkat
pangkatawan
pangkaunlaran
pangkimika
pangkomersiyo
pangkompyuter
pangkomunidad
pangkomunikasyon
pangkukulam
pangkulay
pangkultura
pangkulturang
panglipunan
pangmadla
pangmadlang
pangmaramihan
pangmaramihang
pangmasa
pangmatagalan
pangmatagalang
pangmatematika
pangmedisina
pangmilitar
pangmusika
pangmusikang
pangnegosyo
pangngalan
pangngalang
pangongolekta
pangpagtatalik
pangradyo
pangrehiyon
pangrelihiyon
pangsayaw
pangsikolohiya
pangsining
pangulay
pangulo
pangulong
panguluhan
pangunahan
pangunahin
pangunahing
pangunang
pangunguna
pangungusap
pangungutya
pangwakas
pangwika
pangyayari
pangyayaring
panibagong
panic
panig
paniki
panimpla
panimula
panimulang
paninda
paningin
paninigarilyo
paninindigan
paninira
paninirahan
paniniwala
paniniwalang
paniqui
panitik
panitikan
panitikang
paniwala
paniwalaan
paniwalang
panlaban
panlabas
panlabing
panlahat
panlahatan
panlahatang
panlahi
panlakbay
panlalake
panlalaki
panlalaking
panlalawigan
panlalawigang
panlangit
panlapi
panlaping
panlasa
panlibangan
panlikod
panliligalig
panliligaw
panlilinlang
panlimang
panlinis
panlipunan
panlipunang
panloloko
panloob
panlulan
panlunas
panlungsod
panlupa
panonood
panoorin
panorama
panrehiyon
panrehiyong
panrelihiyon
pansakahan
pansamantala
pansamantalang
pansarili
pansariling
panseguridad
pansin
pansing
pansinin
pansining
pansit
pantahanan
pantakip
pantal
pantalan
pantalang
pantalento
pantaleon
pantalon
pantangi
pantanging
pantao
pantaong
pantas
pantasya
pantasyang
pantawag
pantawid
pantay
pantayong
pantelebisyon
pantelebisyong
panteon
pantheon
panther
panthera
panti
pantig
pantog
pantransportasyon
pantsov
pantubig
pantukoy
pantulong
panturista
panukala
panukalang
panukat
panulaan
panulaang
panulat
panulukan
panunaw
panuntunan
panuntunang
panunuhol
panunumbalik
panunumpa
panunungkulan
panunupil
panunuya
panustos
panuto
panyo
pao
paola
paolo
papa
papaano
papal
papalabas
papalaking
papalapit
papalayo
papalit
papalitan
papang
paparating
papasok
papatay
papatayin
papaya
papayag
papel
papeles
paper
paperback
papers
papet
papin
papua
papunta
papuntang
papuri
paputok
papyrus
par
para
paraan
paraang
parada
paradahan
parade
paradigm
paradise
paragraph
paraguay
paraiso
paralimpiko
parallel
paralympic
paralympics
parameter
parameters
parametro
parami
paramihin
paramore
paramount
paran
parang
parangal
parangalan
paranormal
paraon
paras
parasite
parasito
paratang
parating
parco
pardo
pare
paredes
parehas
pareho
parehong
parent
parents
pares
pari
parian
parietal
parihaba
parihabang
parin
paring
parirala
pariralang
paris
parisan
parish
parisukat
park
parke
parker
parking
parkinson
parks
parlamentaryo
parlamento
parlamentong
parlatone
parliament
parliamentary
parliyamento
parlyamentaryo
parlyamento
parma
parmasya
parmigiano
paro
parody
paroko
parokya
parokyang
parokyano
parol
parola
parsiyal
parsons
part
parte
parteng
parthian
partial
particle
particles
particular
particularly
partido
partidong
parties
partikula
partikular
partikulo
partikulong
partisipasyon
partner
partners
partnership
parto
parton
parts
party
paru
paruparo
parusa
parusahan
parusang
pas
pasa
pasador
pasadyang
pasahero
pasaherong
pasalita
pasalitang
pasan
pasanin
pasaporte
pasasalamat
pasay
pascal
pascual
pasensya
paseo
pasha
pasig
pasilangan
pasilidad
pasilyo
pasimula
pasinaya
pasipiko
pasismo
pasista
pasistang
pasiya
pasko
paskuwa
paskwa
paslangin
paso
pasok
pasong
pass
passage
passenger
passengers
passes
passing
passion
passport
past
pasta
paste
pastol
pastor
pastoral
pastulan
pasubali
pasugua
pasukan
pasukin
pasulong
pasya
pasyalan
pasyalang
pasyente
pasyenteng
pasyon
pat
pata
pataas
pataba
patag
patak
patakaran
patakarang
patakbuhin
patalastas
patalim
patalsikin
patani
patas
patatas
patawad
patawarin
patay
patayin
patayo
patayong
patch
patel
patent
patente
paterno
pateros
path
pathe
pathology
pati
patid
patient
patients
patimog
patimpalak
pating
patinig
patlang
patnubay
patnugot
pato
patok
patolohiya
patong
patotoo
patpat
patria
patriarch
patriarka
patricia
patricio
patrick
patriyarka
patrol
patron
patrong
patsada
pattern
patterns
patterson
patti
patty
patubig
patula
patuloy
patunay
patunayan
patungkol
patungo
patungong
patutot
patutunguhan
patyo
paul
paula
paule
pauli
paulina
pauline
paulines
paulit
paulo
paumanhin
pauna
paunang
paunawa
paunlarin
pautang
pauwi
pavel
pavia
pavilion
pawang
pawatas
pawis
pax
pay
payagan
payak
payat
payment
payne
payo
payong
pays
paz
pb
pba
pbb
pbs
pc
pd
pdb
pdea
pdf
pdp
pe
pea
peace
peach
peak
peaked
peaks
pearl
pearson
peb
pebrero
peck
pederal
pederasyon
pederasyong
pediatric
pediatrics
pedro
peel
peer
pei
pekah
pekeng
peking
peklat
peligro
pelikula
pelikulang
pellegrino
peminismo
peminista
pen
penal
penang
penelope
penetrasyon
peng
penguin
penh
penick
peninsula
peninsular
penis
penisyo
penn
pennsylvania
penny
penomena
pensiyon
penske
pentagon
pentateuch
pentathlon
pentekostes
people
peoples
pep
pepe
pepeng
pepito
pepper
peppers
pepsi
per
pera
perak
peralta
peranakan
perang
peras
percent
perception
percussion
percy
peregrinasyon
peregrino
pereira
perez
perfect
perform
performance
performances
performed
performer
performers
performing
performs
perfume
perhaps
period
periodic
periodically
perkins
perla
perlas
perm
permanent
permanente
permanenteng
permentasyon
permian
permiso
pero
peroxide
perpekto
perpektong
perpetua
perpetual
perri
perry
persa
persephone
persepsiyon
perseus
perseverance
persia
persian
persiko
persiya
persiyano
person
persona
personal
personalidad
personality
personipikasyon
personnel
persons
perspective
perspectives
perspektibo
persya
persyano
perth
pertilidad
pertuan
peru
perugia
perya
peryodiko
pesaro
pescara
pesce
peso
peste
pet
peta
pete
peter
peters
petersburg
petersburgo
peterson
petilla
petisyon
petit
petra
petrolyo
petsa
petsang
petty
pew
pez
pfizer
pg
ph
pha
phantom
pharaohs
pharmaceutical
pharmacy
phase
phd
phelps
phenomena
phenomenon
phenotype
phi
phil
philadelphia
philip
philipp
philippe
philippine
philippinelaw
philippines
phillip
phillips
philo
philology
philomena
philosopher
philosophical
philosophy
philstar
phineas
phivolcs
phl
phnom
pho
phoebe
phoenix
phone
phonetic
phonetics
phong
phonographic
phosphate
photo
photographer
photographic
photography
photon
photos
php
phra
phrase
phraya
phrvl
phu
phuket
phyla
phylogenetic
phylogeny
phylum
phys
physical
physician
physicist
physics
physiology
physrevlett
pi
pia
piacentino
piacenza
piamonte
piana
pianist
pianista
piano
piazza
pic
picasso
piccolo
piceno
pick
picks
pico
picture
pictures
pie
piece
pieces
piedmont
piel
piemonte
pier
pierce
piero
pierre
pierrot
pieta
pietro
pieve
pig
pigafetta
pigi
pigilan
pigilin
piging
pigsa
pigura
pigurang
piitan
pika
pikachu
piksiyon
piksiyonal
piksyon
pila
pilak
pilantropo
pilapil
pilar
pilato
pilay
pileser
pilgrim
pilgrimage
pili
piliin
piling
pilipina
pilipinang
pilipinas
pilipino
pilipinong
pilit
pilitin
pilohenetiko
pilolohiya
pilosopikal
pilosopiya
pilosopiyang
pilosopo
pilosopong
pilot
piloto
pimentel
pin
pina
pinaalis
pinabalik
pinabayaan
pinaboran
pinabulaanan
pinabuting
pinadala
pinag
pinagbabatayan
pinagbabawal
pinagbabawalan
pinagbawalan
pinagbibidahan
pinagbidahan
pinagdaanan
pinagdiriwang
pinagdugtong
pinaghalo
pinaghalong
pinaghihinalaan
pinaghihinalaang
pinaghihiwalay
pinaghiwalay
pinagkaiba
pinagkakatiwalaan
pinagkalooban
pinagkasunduan
pinagkukunan
pinagkunan
pinagkunang
pinaglabanan
pinaglilingkuran
pinagmulan
pinagmulang
pinagmumulan
pinagpala
pinagpalang
pinagpapalagay
pinagpatuloy
pinagsama
pinagsamang
pinagsanib
pinagsasaluhan
pinagsasama
pinagsisilbihan
pinagtatalunan
pinagtatalunang
pinagtibay
pinagtutuunan
pinahaba
pinahabang
pinahahalagahan
pinahayag
pinahihintulutan
pinahintulutan
pinahiran
pinahirapan
pinahusay
pinaikli
pinaikling
pinaka
pinakaabalang
pinakabagong
pinakabanal
pinakabantog
pinakabata
pinakabatang
pinakabumentang
pinakadakila
pinakadakilang
pinakahilagang
pinakahuli
pinakahuling
pinakahulugan
pinakakaraniwan
pinakakaraniwang
pinakakilala
pinakakilalang
pinakaluma
pinakalumang
pinakamaagang
pinakamababa
pinakamababang
pinakamabentang
pinakamabiling
pinakamabilis
pinakamabuting
pinakamadalas
pinakamagagaling
pinakamagagandang
pinakamagaling
pinakamaganda
pinakamagandang
pinakamahaba
pinakamahabang
pinakamahahalagang
pinakamahal
pinakamahalaga
pinakamahalagang
pinakamahirap
pinakamahuhusay
pinakamahusay
pinakamaimpluwensiyang
pinakamainam
pinakamainit
pinakamakapangyarihan
pinakamakapangyarihang
pinakamalakas
pinakamalaki
pinakamalaking
pinakamalalaking
pinakamalalang
pinakamalalim
pinakamalapit
pinakamalawak
pinakamalayong
pinakamaliit
pinakamamahal
pinakamarami
pinakamaraming
pinakamasama
pinakamasamang
pinakamataas
pinakamatagal
pinakamatagumpay
pinakamatanda
pinakamatandang
pinakamatao
pinakamataong
pinakamatinding
pinakamaunlad
pinakamayaman
pinakamayamang
pinakapangunahing
pinakapopular
pinakaprestihiyosong
pinakasalan
pinakasikat
pinakasimpleng
pinakatanyag
pinakatimog
pinakauna
pinakaunang
pinakawalan
pinakilala
pinakita
pinakuluang
pinal
pinalabas
pinalad
pinalaganap
pinalakas
pinalaki
pinalamutian
pinalawak
pinalawig
pinalaya
pinalayas
pinaliit
pinalilibutan
pinalitan
pinamagatan
pinamagatang
pinamahalaan
pinamamahalaan
pinamumunuan
pinamunuan
pinananatili
pinananatiling
pinanatili
pinangalan
pinangalanan
pinangalanang
pinangalang
pinanganak
pinangangalagaan
pinangangasiwaan
pinangasiwaan
pinanggagalingan
pinanggalingan
pinanghahawakan
pinangunahan
pinangungunahan
pinangyarihan
pinaninirahan
pinaniniwalaan
pinaniniwalaang
pinaniwalaan
pinaniwalaang
pinansin
pinansiya
pinansiyal
pinansyal
pinapaboran
pinapagana
pinapahintulot
pinapahintulutan
pinapaikli
pinapakahulugan
pinapakain
pinapakita
pinapalabas
pinapalibutan
pinapaligiran
pinapalitan
pinapanatili
pinapanood
pinapansin
pinapasok
pinapatakbo
pinapatay
pinapayagan
pinapayagang
pinapayak
pinaplano
pinarami
pinarangalan
pinarusahan
pinas
pinasikat
pinasimulan
pinasinayaan
pinasiyahan
pinaslang
pinasok
pinatakbo
pinatalsik
pinatapon
pinatatakbo
pinatawad
pinatay
pinatibay
pinatubo
pinatugtog
pinatunayan
pinatutunayan
pinatuyo
pinatuyong
pinaunlad
pinawalang
pinay
pinayagan
pinayagang
pinayuhan
pindutan
pindutin
pine
pineda
pinetsahan
ping
pinggan
pinigilan
pinili
piniling
pinilit
pininturahan
pinipigilan
pinipili
pinipilit
pinirito
pinirmahan
pink
pinky
pinlandes
pinlandiya
pinlano
pino
pinondohan
pinong
pinopondohan
pinoprotektahan
pinoy
pinritong
pinsala
pinsalang
pinsan
pinsang
pinta
pintakasi
pintang
pintig
pinto
pintor
pintuan
pintura
pinugutan
pinukaw
pinulbos
pinuna
pinuno
pinunong
pinuntahan
pinupuri
pinuri
pinutol
pinya
pinyin
pio
piolo
pioneer
pioneers
pipe
piper
pipi
pipili
pipiliin
pipino
pipit
pippo
pira
piramide
piraso
pirasong
pirata
piratang
pirate
pirates
pirena
pirma
pisa
pisara
pisika
pisikal
pisikang
pisiko
pisikong
piskal
pisngi
piso
pisong
pista
pistang
pistoia
pistols
pisyolohiya
pit
pitak
pitaka
pitakang
pitch
pitchfork
pito
pitong
pitsel
pitt
pittsburg
pittsburgh
pitumpu
piu
pius
pixies
piyanista
piyano
piye
piyesa
piyesang
piyesta
piyudal
pizza
pj
pk
pl
pla
place
placed
placement
placer
places
plague
plain
plains
plaka
plakang
plan
planadong
planck
plane
planet
planeta
planetang
planetary
planets
plankton
planned
planning
plano
planong
plans
plant
planta
plantang
plantasyon
plants
plaque
plaridel
plasa
plasencia
plasma
plastic
plastik
plata
plataporma
platapormang
plate
plateau
plates
platform
platforms
platinum
plato
platon
platypus
play
playbill
playboy
played
player
players
playhouse
playing
playlist
playoff
playoffs
plays
playstation
playwright
plaza
pldt
pleasantville
please
pleasure
plebisito
pleistocene
plema
pliny
plos
plot
plug
pluido
pluidong
plum
pluma
plural
plurk
plus
plutarch
pluto
pluwido
plymouth
pm
pmc
pmid
pmpc
pna
pnas
pneumonia
png
pnp
pnr
po
pob
poblacio
poblacion
poblasyon
pocket
podcast
poe
poem
poems
poet
poetry
poets
poggio
pogi
point
points
poison
poke
pokemon
poker
pokus
pol
polako
polakong
poland
polar
pole
poli
policarpio
police
policies
policy
poligon
polinesyo
polinomial
polio
polis
polish
polisiya
polisiyang
politeismo
politeknikong
political
politician
politics
politika
politikal
politikang
politiko
politikong
poljakov
polk
poll
pollino
polly
polo
polong
polonya
polusyon
polygon
polymerase
polynesia
polynesian
polytechnic
polyvios
pompey
pon
ponce
pondo
pondohan
pondong
ponema
ponetikong
pong
ponolohiya
pons
ponsonby
ponte
pontifex
pontifical
pontipikal
pook
pool
poon
poor
poot
pop
popcap
pope
popes
popmatters
popolazione
popolo
poppy
pops
popular
popularidad
popularity
populasyon
populasyong
population
populations
por
pork
porma
pormal
pormang
pormasyon
pormasyong
pormat
pormula
pormulang
pormulasyon
porn
pornograpikong
pornograpiya
poro
porpoise
porsche
porsiyento
porsyento
port
porta
portable
portada
portal
porter
portfolio
portia
portico
portion
portland
portman
porto
portrait
portrayed
portugal
portuges
portuguese
portulaca
pose
poseidon
posibilidad
posible
posibleng
posil
posisyon
posisyong
positibo
positibong
position
positions
positive
positronium
poso
posporo
possible
possibly
post
postal
poste
poster
posterior
postgraduate
posts
postscript
pot
potassium
potato
potensiyal
potensyal
potential
potenza
potograpiya
poton
potsdam
potter
poultry
pound
pounds
pour
poverty
pow
powell
power
powered
powerful
powers
pp
ppa
ppen
ppp
pq
pr
pra
practical
practice
practices
pradesh
prado
praga
pragmento
pragmentong
prague
prairie
praise
prakash
prakashan
praksiyon
praktikal
prangkisa
prangkisang
pranses
pransiskano
pransiya
pransya
prasad
prato
prats
pratt
prayer
prayle
prayleng
prayoridad
prc
pre
precious
precision
predator
predesesor
prediksiyon
preface
prefectural
prefecture
prefix
pregnancy
prehistoric
prehistoriko
prehistorikong
prehistory
prejudice
prekursor
prekwensiya
prelatura
preliminary
premier
premiere
premieres
premio
premios
premisa
premium
premyo
premyong
prensa
prentice
prep
prepekto
prepektura
prepekturang
prepusyo
prequel
pres
presbyterian
presence
presensiya
presensya
present
presentasyon
presentation
presented
presenter
presents
preservation
presidency
president
presidente
presidential
presidents
presipitasyon
presley
preso
press
presse
pressreader
pressure
prestihiyo
prestihiyosong
preston
presyo
presyon
presyong
presyur
pretty
prevalence
prevention
preview
previous
previously
prey
pri
pribado
pribadong
pribilehiyo
pribilehiyong
price
prices
pride
priest
priests
prieto
prima
primado
primal
primary
primarya
primate
primates
prime
primer
primera
primetime
primitibong
primitive
primo
primordial
prince
princesa
princess
princeton
principal
principe
principia
principle
principles
prinodyus
prinsesa
prinsesang
prinsipado
prinsipal
prinsipalidad
prinsipe
prinsipeng
prinsipyo
prinsipyong
print
printed
printer
printing
prior
priority
priscilla
prism
prison
pritong
privacy
private
prix
priyanka
priyoridad
prize
prizes
pro
probabilidad
probability
probably
probe
probinsiya
probinsiyang
probinsya
probinsyano
probisyon
probisyonal
problem
problema
problemang
problems
proc
proceedings
process
processes
processing
processor
proclaimed
proclamation
procter
produce
produced
producer
producers
product
production
productions
products
produksiyon
produksiyong
produksyon
produktibidad
produktibo
produktibong
produkto
produktong
produser
prodyuser
prof
professional
professor
profile
profiles
profit
program
programa
programang
programme
programmer
programming
programs
progresibo
progresibong
progreso
progress
progressive
project
projects
prokaryote
proklamasyon
prometheus
prominente
prominenteng
promise
promises
promising
promo
promosyon
promote
promotion
promotional
pronounced
pronunciation
proof
propaganda
proper
properties
property
propesiya
propesor
propesyon
propesyonal
propesyunal
propeta
propetang
prophecy
prophet
proporsiyon
proporsiyonal
proporsyon
proposal
proposed
proposisyon
propulsion
prosa
proseso
prosesong
prospect
prospects
prospero
prostate
prostitusyon
protagonista
protect
protected
protection
protein
proteksiyon
proteksyon
protektado
protektadong
protektahan
protest
protesta
protestang
protestant
protestante
protestanteng
protestantismo
protests
protina
protinang
protista
proto
protocol
protokol
proton
protons
prototype
proud
provence
provide
provided
providence
provider
provides
providing
province
provinces
provincia
provincial
provisional
proyekto
proyektong
prusisyon
pruso
prussia
prusya
prutas
ps
psa
psalm
pse
pseudo
psgc
psi
psidium
psp
pst
psyche
psychedelic
psychiatric
psychiatry
psychic
psycho
psychoanalysis
psychological
psychologist
psychology
pt
ptolemaiko
ptolemy
ptolomeo
ptsd
ptv
pu
pub
public
publication
publications
publikasyon
publiko
publikong
publique
publish
published
publisher
publishers
publishing
publisidad
pubmed
pueblo
puella
puente
puerta
puerto
pugad
pugay
pugita
puglia
pugo
puhunan
pukawin
puke
puki
puksain
pukyutan
pul
pula
pulang
pulbos
pulbura
pulgada
pulgas
pulilan
pulis
pulisya
pulitika
pulitikal
pulitiko
pulitzer
pull
pulmonary
pulmonya
pulmonyang
pulo
pulong
pulot
pulp
pulse
pulseras
pulso
pulubi
pulutong
pumalit
pumanaw
pumanig
pumapabor
pumapalibot
pumapaligid
pumapangalawa
pumapasok
pumapatak
pumapatay
pumapayag
pumasa
pumasok
pumatay
pumayag
pumigil
pumili
pumipigil
pumipili
pumirma
pump
pumukaw
pumunta
pumupunta
pumuputok
pumutok
puna
punahin
punan
punch
punctuation
pundamental
pundasyon
pundasyong
puneeth
puniko
punjab
punjabi
punk
punla
puno
punong
punsiyon
punsiyong
punsyon
punt
punta
puntahan
punto
puntod
puntong
puntos
punung
punungkahoy
punzalan
puppet
pupunta
pura
purana
purdue
pure
purgatoryo
puri
purihin
puro
purok
purong
purple
purpose
purposes
purpura
pusa
pusang
push
pusit
puso
pusod
puson
pusong
put
putahe
putaheng
putakti
putbol
putbolista
putbolistang
puti
putik
putin
puting
putnam
puto
putok
putol
putong
puts
putulin
puwang
puwede
puwedeng
puwersa
puwersang
puwerto
puwesto
puwestong
puwit
puwitan
puyat
puyo
puzzle
pv
pvt
pwede
pwedeng
pwersa
pwersang
pwesto
px
pygmy
pyongyang
pyramid
pythagoras
python
pyudal
q
qa
qaeda
qatar
qc
qi
qian
qin
qing
qingdao
qquad
qs
qtv
qu
qua
quad
quake
quaker
quality
quan
quang
quantum
quanzhou
quarantine
quark
quarter
quarterback
quarterfinals
quarterly
quartet
quasi
quattro
que
quebec
queen
queens
queensland
queer
quentin
quepasa
query
quest
question
questions
queue
quezon
qui
quiapo
quick
quie
quiet
quinn
quinta
quintana
quintanilla
quintin
quinto
quintos
quirino
quit
quite
quito
quiz
quizon
qumran
quo
quora
quot
quota
quotations
quote
quoted
quotes
qur
quran
r
ra
rabaw
rabbi
rabbit
rabies
raccoon
race
racer
races
rachel
racing
radar
radcliffe
radial
radiasyon
radiasyong
radiation
radical
radikal
radio
radioactive
radius
radyal
radyasyon
radyasyong
radyo
rae
rafael
rafflesia
raffy
rafia
ragay
rage
ragnarok
ragusa
raha
rahman
rai
raid
raiders
rail
railroad
railway
railways
rain
rainbow
rainer
raise
raised
raises
raising
raj
raja
rajah
rajasthan
rajesh
rajkumar
rally
ralph
ram
rama
ramadan
ramanujan
ramayana
ramesses
rami
ramirez
ramo
ramon
ramos
ramovs
rampa
ramsay
ramsey
ran
rana
rand
randall
randolph
random
randomang
randy
rang
range
ranger
rangers
ranggo
ranggong
rangle
ranillo
rank
ranked
ranking
rankings
ranma
ransom
rao
rap
rape
raphael
rapid
rapids
rapper
rappler
rapture
rapunzel
raquel
rare
ras
rashid
rasismo
rason
raspberry
rasyo
rasyonal
rat
ratchasima
rate
rated
rates
rather
ratiles
rating
ratings
ratio
ration
raton
rattle
ratu
rau
raul
ravelo
raven
ravena
ravenna
ravens
ravi
raw
ray
raya
raymond
raymundo
rayuma
razon
rc
rca
rchen
rd
rdoba
re
reach
reached
reaches
reaction
read
reader
readers
reading
ready
reagan
reaksiyon
reaksiyong
reaksyon
real
realidad
realismo
reality
really
reason
reasoning
reasons
reb
rebecca
rebel
rebelde
rebeldeng
rebellion
rebels
rebelyon
rebirth
rebisyon
rebolusyon
rebolusyonaryo
rebolusyonaryong
rebolusyong
reboot
rebounds
rebulto
rebyu
recall
receive
received
receiver
receives
recent
reception
receptor
receptors
recessive
recipe
recipes
recipients
recognition
recognized
recommendations
reconstruction
record
recorded
recorder
recording
recordings
records
recovery
recreation
recruit
recto
red
reddy
rede
redeemer
redford
rediff
redirect
reduction
reed
reeder
reef
reel
reese
reeve
reeves
ref
refer
reference
references
referendum
referred
refers
reflection
reflections
reform
reformation
refs
refugee
refugees
regal
regalado
regalo
regalong
regarded
regarding
regency
regent
reggae
reggiano
reggie
reggio
regime
regiment
regina
regine
regio
region
regional
regionale
regione
regioni
regions
regis
register
registrar
registration
registry
regla
regulador
regular
regulasyon
regulation
regulations
regulatory
rehab
rehabilitasyon
rehabilitation
rehente
rehimen
rehimeng
rehistradong
rehistro
rehiyon
rehiyonal
rehiyong
rei
reich
reichstag
reid
reign
reiko
reilly
reimer
reina
reinkarnasyon
reino
reischauer
reklamo
rekomendasyon
rekonstruksiyon
rekord
rekording
rektor
relasyon
relasyong
related
relatibidad
relatibo
relatibong
relation
relations
relationship
relationships
relative
relay
release
released
releases
reliable
relief
reliefweb
religion
religions
religious
relihiyon
relihiyong
relihiyoso
relihiyosong
relikya
relo
rem
remain
remaining
remains
remake
remarks
remedios
remember
remembered
remembering
remix
remixes
remo
remote
removed
ren
renaissance
renania
renasimiyento
renasimiyentong
renasimyento
renasimyentong
renato
rendina
rene
renee
renew
renewal
renewed
renner
reno
rent
renz
rep
reperendum
reperensiya
repertoire
replika
replikasyon
repolyo
reporma
repormang
repormasyon
report
reported
reporter
reporters
reports
represent
representante
representasyon
representatibo
representation
representative
representatives
reprint
reprinted
reprise
reproductive
reproduksiyon
reproduksiyong
reproduktibo
reptil
reptilya
repu
repubblica
republic
republican
republics
republik
republika
republikang
republikano
reputasyon
request
requiem
required
requirements
res
rescue
research
researcher
researchers
reseptor
reserba
reserbang
reserve
reservoir
reseta
reshe
resi
residence
resident
residente
residenteng
residents
resipi
resistance
resistansiya
resistensiya
resolusyon
resolution
resonance
resort
resorts
resource
resources
respect
respectively
respektibong
respeto
respirasyon
respiratory
respiratoryo
responsable
responsableng
response
responses
responsibilidad
responsibility
responsible
respublika
ressa
rest
restaurant
restawran
restoran
restorasyon
restoration
restrictions
restriksiyon
result
resulta
resultang
results
resurrection
retail
retiradong
retorika
retrato
retrieved
retro
retrospective
retscreen
return
returns
reuben
reunion
reuters
rev
reveal
revealed
reveals
revelation
revenge
revenue
reverse
review
reviews
revilla
revillame
revised
revision
revisited
revista
revitalization
revival
revolution
revolutionary
revue
rex
rey
reyes
reyna
reynaldo
reynang
reyno
reynolds
rez
rfc
rg
rgen
rhea
rhian
rhine
rho
rhode
rhodes
rhymes
rhythm
ri
ria
riaa
riaj
ribbon
ric
rica
rican
ricardo
riccardo
ricci
rice
rich
richard
richards
richardson
richie
richmond
richter
rick
ricky
rico
riddle
ride
rider
ridge
riding
rie
riemann
riemannian
rieti
rifle
rifles
rift
right
rights
rihanna
rika
riko
riles
riley
rim
rima
rimini
rin
rina
ring
rings
rio
rione
riot
rip
ripa
riple
risa
rise
rises
rising
risk
rita
ritchie
rite
rites
ritmo
rito
ritong
ritual
ritung
ritwal
riva
rival
rivals
river
rivera
rivermaya
rivero
rivers
riviera
riyadh
rizal
rj
rk
rlts
rm
rmn
rn
rna
ro
roa
roach
road
roads
roanoke
rob
robbie
robbins
robert
roberto
roberts
robertson
robin
robinson
robinsons
roble
robles
roblox
robo
robot
robredo
roc
rocca
rocco
roces
rocha
rochelle
rochester
rock
rockefeller
rocket
rocks
rocky
roco
rococo
rod
roderick
rodney
rodolfo
rodri
rodrigo
rodrigues
rodriguez
roe
roel
rogelio
roger
rogers
rogerson
rogge
roh
rohingya
roi
rojas
roland
rolando
roldan
role
roles
rolf
roll
roller
rolling
rolls
rolly
rolyo
rom
roma
romagna
roman
romana
romance
romani
romania
romanian
romaniko
romanikong
romanisado
romanisasyon
romanisasyong
romano
romanong
romans
romansa
romanse
romantic
romantiko
romantikong
romanum
romblon
rome
romeo
romero
rommel
romo
romualdez
romulo
romulus
ron
ronald
ronaldo
ronan
ronda
ronnie
roof
rookie
room
roon
rooney
roosebelt
roosevelt
root
roots
roque
ros
rosa
rosal
rosales
rosalinda
rosanna
rosario
rosary
rosaryo
rosas
rose
rosell
rosemarie
rosemary
rosen
rosenberg
roses
rosita
ross
rossellini
rossi
roster
rota
rotary
rotation
roth
rotonda
rotten
rotterdam
rouge
rough
round
rousseau
route
routes
routledge
rover
rovi
rovigo
row
rowena
rowing
rowland
rowling
rowman
roxanne
roxas
roy
royal
royale
royce
rp
rpg
rpm
rpn
rquez
rr
rs
rss
rt
rtgs
rthk
rttemberg
ru
rubber
ruben
rubi
rubia
rubik
rubin
rubio
ruby
ruchira
rudolf
rudolph
rudy
rue
rufino
rugby
ruggiero
ruhr
ruins
ruiz
rukh
rule
ruler
rulers
rules
ruling
rumano
rumanya
run
runner
running
runs
runway
rupee
rural
rurok
rus
rush
rushing
ruso
rusong
russel
russell
russia
russiaadmmunref
russian
russo
rusty
rusya
ruta
rutang
rutgers
ruth
rutherford
ruy
rw
rwanda
ry
ryan
ryholt
ryo
ryu
ryukyu
rz
s
sa
saan
saang
saanman
saba
sabado
sabah
sabat
sabaw
sabay
sabbath
saber
sabi
sabihin
sabihing
sabik
sabina
sabino
sable
sabon
sabong
sabrina
sabsaban
sabunang
sabwatan
sacra
sacramento
sacred
sacrifice
sad
saddam
saddle
sadhpur
sadyang
safe
safer
safety
sag
saga
sagabal
sagana
sagay
sage
saging
sagisag
sagittarius
saglit
sago
sagot
sagrada
sagrado
sagradong
sagupaan
sagutin
sahara
saharan
sahig
sahitya
sahod
sahog
sahonya
sai
said
saigon
sailing
sailor
saint
sainte
saints
saipan
sais
saitama
saito
saka
sakahan
sakai
sakaling
sakamoto
sakay
sakdal
sake
sakha
sakhalin
saki
sakit
saklaw
saklolo
saknong
sako
sakong
sakop
sakramento
sakripisyo
sakristan
saksi
sakson
saktan
sakuna
sakupin
sakura
sakurai
sal
sala
salad
saladin
salakayin
salamanca
salamangka
salamangkero
salamat
salamin
salaming
salang
salapi
salaping
salarin
salas
salat
salawal
salawikain
salaysay
salaysayin
salaysaying
salazar
salcedo
sale
salem
salentino
salento
salerno
sales
salgado
sali
saligan
saligang
salik
salikop
salin
saling
salinlahi
salinwika
salit
salita
salitang
saliw
salix
salle
sally
salman
salmo
salmon
salmonella
salo
salome
salomon
salon
salonga
saloobin
salot
salsa
salt
salta
salud
salungat
salungatan
salvacion
salvador
salvation
salvatore
salve
salvi
salzburg
sam
sama
samahan
samahang
samahin
samakatuwid
samal
samang
samantala
samantalang
samantha
samar
samaranch
samaria
samaritan
samaritano
samaritanong
samba
sambahan
sambahayan
sambahin
sambahsa
sambal
sambayanan
sambayanang
same
sami
samnita
samoa
samonte
sampaguita
sampaloc
sampalok
sample
sampling
sampol
sampu
sampung
samson
samsung
samu
samuel
samurai
samut
san
sana
sanae
sanang
sanay
sanayin
sanaysay
sanchez
sancti
sanctuary
sand
sandaang
sandali
sandaling
sandata
sandatahan
sandatahang
sandatang
sanders
sandhu
sandiganbayan
sandoval
sandra
sandwich
sandy
sang
sanga
sangandaan
sangang
sangay
sanggol
sanggunian
sangguniang
sangkap
sangkapat
sangkatauhan
sangkot
sangley
sangro
sanhedrin
sanhi
sanlibutan
sannio
sannita
sans
sansinukob
sanskrit
sanskrito
sant
santa
santana
santander
santatlo
santauhan
santi
santiago
santissima
santo
santol
santolan
santong
santos
santuario
santuwaryo
sanya
sao
saori
sap
sapa
sapad
sapagka
sapagkat
sapang
sapat
sapatos
sapi
sapiens
sapienza
sapilitan
sapilitang
sapin
saplad
sapot
sapporo
sar
sara
sarado
saradong
saragossa
sarah
sarai
sarajevo
saran
sarangani
sarap
sarawak
sardinia
sargon
sarhento
sari
sarili
sariling
saring
sariwa
sariwang
sarmiento
saro
sars
sarsa
sarsang
sartre
saruta
sasabihin
sasakyan
sasakyang
sasali
saserdote
saserdoteng
sasha
sashimi
saskatchewan
sassari
sasso
sastre
sasuke
sat
satanas
satay
sate
satelayt
satellite
satellites
sato
satoshi
saturday
saturn
saturno
sauce
saud
saudi
saul
saunders
savage
save
saved
saving
savings
savior
savona
savoy
saw
sawa
sawikain
sawsawan
sawyer
saxon
saxony
say
saya
sayaka
sayang
sayaw
sayawan
sayawing
saying
sayo
sayonara
says
saysay
sayt
sayyaf
sb
sbs
sc
scala
scale
scam
scan
scandal
scandinavia
scandinavian
scarecrow
scarlet
scarlett
scene
scenes
schedule
scheme
schizophrenia
schlesinger
schleswig
schmidt
schneider
scho
scholar
scholars
scholarship
school
schools
schopenhauer
schram
schro
schuster
schwa
schwartz
sci
science
sciences
scientific
scientist
scientists
scope
score
scores
scorpio
scotia
scotland
scots
scott
scottish
scout
scouts
scream
screen
screening
screenplay
screenwriter
scribner
scribunto
script
scripture
scriptures
scroll
scrolls
sctex
sculpture
sd
se
sea
seahorse
seal
sean
search
seas
season
seasons
seat
seattle
sebastia
sebastian
sebastiano
sebwano
sec
secolo
second
secondary
seconds
secret
secretariat
secretary
secrets
section
sections
sector
secular
secure
securities
security
seda
sede
see
seed
seeing
seek
seeks
seems
seen
sees
sega
segall
segment
segmento
segunda
segundo
seguridad
seguro
sei
seibu
seiko
seine
seinen
seismology
seiyu
seiyuu
sekai
seki
sekondarya
sekondaryang
sekretarya
sekretaryo
seks
seksiyon
seksiyong
seksuwal
seksuwalidad
sekswal
sekswalidad
seksyon
seksyong
sekta
sektang
sektor
sekular
sekundarya
sekwensiya
sekwensiyang
sela
selanda
selda
selebrasyon
select
selected
selection
selective
seleksiyon
selektibong
selena
selestiyal
seleucid
seleucus
self
selk
sell
selling
selma
selta
seltiko
selula
selulang
selular
selva
selyo
sem
semana
sementeryo
sementeryong
semento
semi
semifinalist
semilya
seminar
seminary
seminaryo
semitiko
semitikong
sen
senado
senador
senakulo
senaryo
senate
senator
senators
senbatsu
send
sendai
sendler
senegal
sengoku
senior
senki
sennacherib
sensasyon
sensation
sense
sensei
senshi
sensilyo
sensitibo
sensitibong
senso
sensong
sensor
sensus
sent
sentai
sentenaryo
sentido
sentimetro
sentimo
sentinel
sentral
sentralisadong
sentro
sentrong
senyales
senyas
seo
seok
seon
seoul
sep
separate
separated
separation
separatista
separator
sept
september
septiyembre
septuagint
septyembre
sequel
sequence
sequences
ser
sera
serbesa
serbia
serbian
serbisiyo
serbisyo
serbisyong
serbiya
serbiyo
serbo
serbya
seremonya
seremonyal
seremonyang
serena
seresa
serge
sergei
sergio
serial
serie
series
serieslink
serif
serina
serio
serious
sermon
serna
sero
serotonin
serpiyente
serra
serrano
sertipikadong
sertipikasyon
sertipiko
servant
serve
served
server
service
services
serving
serye
seryeng
seryoso
seryosong
ses
sesame
sese
session
sessions
sesyon
set
seth
seto
sets
setti
setting
settlement
settlements
setyembre
seung
seurat
seven
seventeen
seventh
several
severe
severino
severo
severus
sevilla
seville
sex
sexiest
sexual
sexuality
sexually
sexy
seychelles
seymour
sf
sforza
sg
sgt
sh
sha
shabu
shaddai
shadow
shadows
shaft
shah
shaider
shake
shakespeare
shakira
shall
shalmaneser
shaman
shampoo
shan
shandong
shane
shang
shangela
shanghai
shankar
shannon
shape
shaped
shapiro
share
shared
shares
sharia
sharif
shariff
sharing
shark
sharma
sharon
sharp
sharpe
shaun
shaw
shawn
shazam
she
shea
shear
sheep
sheeran
sheet
sheets
sheffield
sheikh
sheila
shek
sheldon
shelf
shell
shelley
shem
shen
shenzhen
sheol
shepherd
sheree
sheridan
sheriff
sherlock
sherman
sherwood
sheryl
sheryn
shetty
shi
shia
shibata
shibuya
shield
shift
shigeru
shiki
shilling
shima
shimbun
shimizu
shin
shinagawa
shine
shinee
shingo
shinichi
shining
shinjuku
shinkansen
shins
shinto
shinzo
shiori
ship
ships
shirley
shiro
shirt
shiva
shizuoka
sho
shock
shoes
shogakukan
shogun
shonen
shoot
shooter
shooting
shootout
shoots
shop
shopping
shore
short
shorts
shorty
shoshenq
shot
shoten
shoujo
should
shoulder
show
showbiz
showdown
shower
showing
shown
shows
showtime
shrine
shroff
shtml
shu
shueisha
shuffle
shun
shuruppak
shut
shuttle
shy
si
sia
siam
siargao
sibat
siberia
siberian
sibiko
sibil
sibilisasyon
sibilisasyong
sibilyan
sibilyang
sibol
sibugay
sibuyan
sibuyas
sic
sica
sichuan
sicilia
sicilian
siciliano
sicily
sick
sickle
sid
side
sides
sidney
sidomulyo
sie
siege
siempre
siena
sierra
siete
sify
sig
siga
sigalot
sigarilyo
sigasig
sigaw
sige
sight
sigla
siglo
siglong
sigma
sigmund
sign
signal
signature
signed
significance
significant
signs
sigurado
siguradong
siguro
sihay
sik
sikamani
sikap
sikat
sikh
siklista
siklo
siklong
sikmura
siko
sikologo
sikolohikal
sikolohiya
sikolohiyang
sikreto
sikretong
siksik
sil
sila
silahis
silang
silangan
silangang
silanganin
silanganing
silay
silbi
silence
silent
sili
silica
silicon
silid
silindro
siling
silipin
silk
silla
silly
silo
silong
silungan
silurian
silva
silver
silverman
silvestre
silvestro
silvia
silya
sim
sima
simbahan
simbahang
simbolikong
simbolismo
simbolo
simbolong
simboryo
simbulo
simeon
simetriya
similar
simmons
simo
simon
simone
simpatiya
simple
simpleng
simplified
simply
simpson
simpsons
sims
simula
simulain
simulan
simulang
simulasyon
simulation
simuno
sin
sina
sinabi
sinabihan
sinabing
sinadya
sinadyang
sinag
sinagoga
sinagot
sinai
sinakop
sinaksak
sinaktan
sinalakay
sinalanta
sinalihan
sinalin
sinalita
sinalubong
sinalungat
sinama
sinamahan
sinamantala
sinamba
sinanay
sinang
sinangag
sinanib
sinapit
sinapupunan
sinasaad
sinasabayan
sinasabi
sinasabing
sinasadya
sinasadyang
sinasagisag
sinasaklaw
sinasakop
sinasakyan
sinasalamin
sinasalarawan
sinasalita
sinasalitang
sinasalungat
sinasama
sinasamahan
sinasamba
sinasanay
sinasang
sinatra
sinauna
sinaunang
since
sindak
sindh
sindikato
sindromang
sine
sinehan
sineserbisyuhan
sing
singapore
singapura
singaw
singer
singers
singgapur
singh
singil
singing
singit
singkahulugan
singkamas
singko
single
singles
sings
singsing
singular
sinigang
sinikap
sinilangan
siniloan
sinimulan
sinimulang
sining
sinipi
sinira
sinisi
sinisikap
sinisimulan
sinisingil
sinisira
sinisisi
sinisiyasat
siniyasat
sink
sinners
sino
sinong
sins
sinsilyo
sint
sintesis
sintetiko
sintetikong
sintomas
sinturon
sinturong
sinu
sinubok
sinubukan
sinubukang
sinugod
sinulat
sinulid
sinuman
sinumang
sinumpa
sinundan
sinungaling
sinunggaban
sinunod
sinunog
sinupan
sinuportahan
sinuri
sinuspinde
sinusubaybayan
sinusubok
sinusubukan
sinusubukang
sinusukat
sinusulat
sinusundan
sinusunod
sinusunog
sinusuot
sinusuportahan
sinusuri
sion
sionil
siouxsie
sipa
sipi
siping
sipnayan
sipon
siquijor
sir
sira
siracusa
sirain
sirang
sire
sirena
siriliko
sirius
sirka
sirkito
sirkitong
sirko
sirkular
sirkulasyon
sirkunstansiya
sirmium
siruhano
siruhiya
sirya
sis
sisa
sisidlan
sisig
sisihin
sisimulan
sisiw
sisne
sison
sistema
sistemang
sistematikong
sister
sisters
sit
sita
sitcom
site
sites
sitio
sito
sitrep
situation
situwasyon
sitwasyon
sitwasyong
sityo
sityong
siu
sivagama
siwang
six
sixteenth
sixth
sixto
siya
siyam
siyamnapu
siyang
siyasatin
siyempre
siyensiya
siyensiyang
siyentipiko
siyentipikong
siyentista
siyudad
size
sj
sk
ska
skalar
skater
skating
skeleton
sketch
ski
skier
skies
skiing
skills
skin
skinner
skolar
skopje
skriba
skrolyo
skull
sky
skyscraper
skyway
sl
slab
slam
slang
slate
slaton
slave
slavery
slavic
slavonic
slavs
slayer
slayers
sleep
sleeping
slex
slide
slim
slip
sloan
slogan
slot
slovak
slovakia
slovarji
slovenia
slovenski
slow
sm
small
smart
smartphone
smash
smc
smile
smith
smithsonian
smoke
smoking
smooth
sms
snail
snake
snakes
snap
snapper
snd
snes
snl
snooky
snow
snowden
snyder
so
soap
soberano
soberanong
soberanya
sobiyet
sobra
sobrang
sobre
sobrenatural
sobrevin
sobyet
sobyetiko
sobyetikong
soc
soccer
soccsksargen
sochi
social
socialism
socialist
sociedad
societies
society
socio
sociology
socorro
socrates
soda
sodium
sodyak
sofi
sofia
soft
softball
software
soho
soil
soju
sol
sola
solano
solar
sold
soldier
soldiers
sole
soledad
solid
solidaridad
solidarity
solido
solidong
solis
solo
solomon
solong
solusyon
solusyong
solution
solutions
solway
som
soma
somali
somalia
sombi
sombrero
some
somebody
someone
somerset
something
sometimes
somewhere
son
sona
sonang
sonata
song
songs
songwriter
songwriters
sonia
sonic
sonny
sons
sony
soo
sook
soolohiya
soompi
soon
sop
sopas
sophia
sophie
sophomore
sopistikadong
sopra
soprano
sopwer
sora
sorbetes
sorbonne
soriano
soro
sorpresa
sorrento
sorry
sorsogon
sort
sos
sosa
sosyal
sosyalismo
sosyalista
sosyalistang
sosyo
sosyolohiya
soter
soto
sotto
soul
souls
sound
sounds
soundscan
soundsystem
soundtrack
soundtracks
soup
source
sources
south
southampton
southeast
southeastern
southern
southrail
southwest
sovereign
sovetskaya
soviet
soy
sp
spa
space
spacecraft
spacex
spada
spaghetti
spain
spam
span
spanish
spark
sparks
sparql
sparrow
sparta
speak
speaker
speakers
speaking
speaks
spears
special
specialist
specials
speciation
species
specific
specification
specified
specimen
spectrum
speech
speed
speedway
spektrum
spell
spelling
spencer
sperm
spesipiko
spesipikong
spezia
sphere
spice
spider
spiegel
spielberg
spike
spin
spinal
spinoff
spinoza
spiral
spirit
spirito
spirits
spiritual
splash
split
spoken
spoleto
spongebob
sponsor
sport
sports
spot
spotify
spotlight
spratly
spread
spreadsheet
spree
spring
springer
springfield
springs
sprint
sprinter
sputnik
spy
sq
sqrt
squad
squadron
square
squarepants
squash
squid
sr
sri
sriracha
ss
sseldorf
ssr
ssri
st
sta
stable
stablecoin
stack
stadium
stadt
staff
stage
stages
stalin
stamp
stan
stand
standard
standardization
standards
standing
stanford
stanley
star
stardust
stark
starr
starring
stars
starstruck
start
started
starter
starting
starts
startup
stat
state
statement
statements
staten
states
statesman
static
station
stations
statistic
statistica
statistical
statistiche
statistics
statistik
stato
stats
statue
status
statute
stay
std
ste
steal
steam
steel
steele
stefan
stefano
stein
steiner
stela
stele
stella
stellar
stem
step
stephan
stephanie
stephen
steps
stereogum
stereotype
sterling
stern
steroid
steve
steven
stevens
stevenson
stewart
sti
stica
stick
stickmin
stigma
still
stingray
stith
stm
sto
stock
stockholm
stokes
stolen
stone
stones
stonewall
stop
storage
store
storia
storico
stories
storm
story
stra
strabo
straight
strain
strains
strait
straits
strand
strando
strandong
strange
stranger
strangers
straparola
strasbourg
strata
strategic
strategies
strategy
stratehiya
stratigraphy
strauss
strawberry
straße
stream
streamed
streaming
streep
street
streets
streisand
strength
streptomyces
stress
strictly
strike
strikes
striktong
string
strings
strip
stroke
strokes
strong
stronger
structural
structure
structures
struggle
sts
stuart
stub
student
students
studi
studies
studio
studios
study
stuff
stupa
stuttgart
style
styles
su
sua
suarez
sub
subali
subalit
subasta
subaybayan
subcontinent
subdibisyon
subdibisyong
subdistrito
subdivision
subfamily
subgenus
subgroup
subic
subject
subjects
subkontinente
subkontinenteng
submarine
submarino
suborden
suborder
subpamilya
subpamilyang
subscription
subset
subsidiary
subspecies
substance
substansiya
subtitle
subtropikal
subukan
subukang
subukin
suburb
suburban
subway
sucat
success
successful
successor
such
sud
sudan
sue
suetonius
suez
suffolk
sugal
sugar
sugat
sugatan
suggests
sugihara
sugnay
sugo
sugpuin
sugun
suharto
suhol
sui
suicide
suikoden
suit
suite
suk
suka
sukarno
sukat
sukatan
sukatin
sukdulan
sukdulang
sukhoi
suki
suklam
suklay
sul
sulat
sulatin
sulating
sulawesi
sulayman
sulfur
suliranin
suliraning
sulit
sull
sulla
suller
sullivan
sulmona
sulo
sulok
sulong
sultan
sultanato
sulu
sulyap
sum
suma
sumabak
sumabog
sumagot
sumahimpapawid
sumailalim
sumakabilang
sumakay
sumaklaw
sumakop
sumalakay
sumali
sumalungat
sumama
sumamba
suman
sumang
sumangguni
sumanib
sumapi
sumapit
sumasabog
sumasagisag
sumasagot
sumasahimpapawid
sumasailalim
sumasakay
sumasaklaw
sumasakop
sumasalamin
sumasali
sumasalungat
sumasama
sumasamba
sumasampalataya
sumasang
sumasangkot
sumasanib
sumasapat
sumasayaw
sumatra
sumayaw
sumbrero
sumerian
sumerya
sumeryo
sumibol
sumigaw
sumikat
sumiklab
sumilip
sumilong
sumira
sumisigaw
sumisikat
sumisimbolo
sumisipsip
sumisira
summary
summer
summersett
summit
sumpa
sumpong
sumubok
sumuko
sumulat
sumulong
sumunod
sumuporta
sumusubok
sumusukat
sumusulat
sumusulong
sumusunod
sumusuporta
sumusuportang
sun
sunda
sundalo
sundalong
sundan
sundance
sunday
sundhari
sundin
sunflower
sung
sungay
sunni
sunny
sunod
sunog
sunrise
sunset
sunshine
sunstar
suntok
sunud
sunugin
suny
suot
super
superficie
superhero
superheroes
superior
superiore
superkontinenteng
superman
supermarket
supermodel
supernatural
superstar
supervillain
superyor
supilin
suplay
supling
suporta
suportado
suportadong
suportahan
suportang
supot
suppl
supplement
supply
support
supporting
supports
supragano
supranational
suprema
supreme
supremo
sur
sura
surabaya
surah
surat
sure
surf
surface
surfer
surge
surgeon
surgery
surgical
surian
suriang
surigao
suriin
suriname
surpasiyo
surprise
surrey
survey
survival
survive
survivor
survivors
surya
sus
susa
susan
susana
susanna
susceptibility
sushi
sushmita
susi
susing
suskripsyon
suso
susog
suspect
suspected
suspects
suspek
suspensyon
sussex
sustainable
sustansiya
sustansiyang
susubukan
susundan
susundin
susunod
susuriin
sutherland
sutla
sutra
sutton
suu
suweko
suwekong
suweldo
suwerte
suwesya
suwisa
suwiso
suzanne
suzhou
suzuki
suzumiya
suzy
swahili
swallow
swamp
swan
swartz
swaziland
sweden
swedish
sweet
sweetheart
swerte
swift
swim
swimmer
swimming
swine
swing
swiss
switch
switzerland
sword
sws
sy
sya
syang
sydney
syed
sylvester
sylvia
symbol
symbols
symphony
symposium
symptoms
syndrome
synod
synopsis
syntax
synthesis
synthesizer
syracuse
syria
syriac
syrian
syst
system
systema
systematic
systematics
systems
sz
t
ta
taal
taas
taasan
taasang
tab
taba
tabak
tabako
tabang
tabi
tabing
tabla
tablang
table
tables
tablet
tableta
tabletang
tabloid
tabon
tabu
tachi
tachibana
tacitus
tacloban
tacurong
tadeo
tadhana
tadyang
tae
taekwondo
taeng
tafsir
taft
tag
taga
tagabantay
tagadala
tagadisenyo
tagagamit
tagaganap
tagagawa
tagaguhit
tagahalal
tagahanga
tagak
tagal
tagala
tagalabas
tagalikha
tagalog
tagamasid
tagapag
tagapagbalita
tagapagbantay
tagapagbatas
tagapagbigay
tagapagdala
tagapaglathala
tagapagligtas
tagapaglikha
tagapaglingkod
tagapagluto
tagapagmana
tagapagmaneho
tagapagmasid
tagapagpaganap
tagapagpatupad
tagapagsalaysay
tagapagsalin
tagapagsalita
tagapagsanay
tagapagtaguyod
tagapagtanggol
tagapagtanghal
tagapagtangkilik
tagapagtatag
tagapagturo
tagapakinig
tagapamagitan
tagapamahala
tagapamahalang
tagapamahayag
tagapamuno
tagapangalaga
tagapangasiwa
tagapangasiwang
tagapangulo
tagapanguna
tagapanood
tagapayo
tagasalin
tagasanay
tagasulat
tagasunod
tagasuporta
tagasuri
tagataguyod
tagatanggap
tagatukoy
tagaytay
tagbanwa
tagbilaran
tagesspiegel
taggutom
tagiliran
taglagas
taglamig
taglay
taglish
tago
tagong
tagore
tagpo
tagpuan
tagpuang
tagsibol
tagtuyot
taguan
tagubilin
taguig
tagum
tagumpay
tahanan
tahanang
tahas
tahasang
tahimik
tai
tail
taimtim
tainga
taipei
taisho
taiwan
taiwanese
taizhou
tajik
tajikistan
tak
taka
takagi
takahashi
takahiro
takas
takasaki
takashi
takbo
takda
takdang
take
takelot
taken
takes
takeshi
takilya
taking
takip
takipsilim
takot
takpan
taksi
taksil
taksonomiya
taktika
taktikang
takumi
takutin
tal
tala
talaan
talaang
talaangkanan
talaarawan
talababa
talaga
talagang
talahanayan
talahanayang
talahulugan
talahuluganan
talahuluganang
talakayan
talakayin
talaksan
talamak
talambuhay
talampakan
talampas
taland
talang
talangka
talasalitaan
talasalitaang
talata
talatakdaan
talatang
talatuntunan
talatuntunang
talavera
tale
talent
talento
talents
tales
tali
taliban
talikuran
talim
talinghaga
talino
talisay
taliwas
talk
talking
talks
tall
tally
talmud
talo
talon
talong
taludtod
talukap
taluktok
talulot
talumpati
talumpating
talunin
tam
tama
tamaan
tamad
tamang
tamar
tamaraw
tambalan
tambalang
tambilang
tambo
tambol
tambon
tamil
tamis
tamod
tampa
tampok
tan
tanaka
tanakh
tanauan
tanaw
tanawin
tanawing
tanay
tanda
tandaan
tandang
tang
tanga
tangent
tangere
tanggal
tanggalin
tanggap
tanggapan
tanggapang
tanggapin
tanggihan
tanggulan
tanggulang
tanghalan
tanghalang
tanghali
tanghalian
tangi
tanging
tangka
tangkad
tangkang
tangkay
tangke
tanglaw
tango
tangos
tangway
tanikala
tanikalang
tanim
taniman
taning
tank
tanko
tanner
tanod
tanong
tanso
tansong
tantiya
tanungin
tanya
tanyag
tanza
tanzania
tao
taoismo
taon
taong
taos
tap
tapang
tapat
tape
tapon
tapos
tapusin
tar
tara
tarangkahan
tarangkahang
taranto
tarawa
tarento
target
targets
tarheta
taripa
tarlac
taro
tartarus
taruc
tarzan
tasa
task
taste
tasyo
tat
tata
tataas
tatag
tatagal
tatak
tatakbo
tatanggap
tatanggapin
tatapos
tatar
tatawagin
tatawaging
tatawid
tatawirin
tatay
tate
tatiana
tatlo
tatlong
tatluhang
tatlumpu
tatlumpung
tatsulok
tatsunoko
tatsuya
tattoo
tatum
tau
taught
tauhan
tauhang
taumbayan
taun
taunan
taunang
taurus
tausug
tawa
tawad
tawag
tawagan
tawagin
tawaging
tawi
tawiran
tawirin
tax
taxa
taxi
taxon
taxonomic
taxonomy
tay
taya
tayabas
taylandes
taylandiya
taylor
tayo
tayong
taytay
tayuman
taywan
tb
tbilisi
tbs
tcm
td
te
tea
teach
teacher
teachers
teaching
team
teams
tear
tears
teaser
teatro
teatrong
tech
techcrunch
technical
technique
techniques
technological
technologies
technology
ted
teddy
teen
teenage
teenager
teens
teeth
tegel
tehran
tejeros
teklado
teknik
teknikal
tekniko
teknikong
teknolohikal
teknolohiya
[...]
