!
"
#
##0
##1
##10
##11
##12
##13
##14
##15
##16
##17
##18
##19
##2
##20
##21
##22
##23
##24
##25
##26
##27
##28
##29
##3
##30
##31
##32
##33
##34
##35
##36
##37
##38
##39
##4
##40
##41
##42
##43
##44
##45
##46
##47
##48
##49
##5
##50
##51
##52
##53
##54
##55
##56
##57
##58
##59
##6
##60
##61
##62
##63
##64
##65
##66
##67
##68
##69
##7
##70
##71
##72
##73
##74
##75
##76
##77
##78
##79
##8
##80
##81
##82
##83
##84
##85
##86
##87
##88
##89
##9
##90
##91
##92
##93
##94
##95
##96
##97
##98
##99
$
%
&
'
(
)
*
+
,
-
.
/
0
00
000
0000
0000367416
0001
00010
00063
001
004
0057
006
007
01
010
018
02
03
0330
039
04
0416
05
0526
06
0618851
065
07
07169
072
073
08
081
089
09
092
0931220
0944
098
0985702
1
10
100
1000
10000
100000
1007
101
10104
10142
1016
101663
10182
101970
102
102886
1038
103991
104
105
1050
107
107088
107824
108
1080
108063
108221
108628
109
1091
1093
1096
11
110
1100
11000
110723
1109
111
1111
111190
112
1124
112566
1126
113
113705
113797
1139189
113946
114
114025
114471
114520
115
1150
115359
115607
1157
115752
116
116240
117
1177
118
1185
119201
119499
12
120
1200
1201
120188
1204
1207
1209
121
1227
123
1231
124
12414
125
126
1260
12610
127
128
1289000
129
13
130
1300
1301
131
1315
132
1324
1325
133
1330
1337
134
135
1358
136
1366
137
138
1386
139
14
140
1400
141
142
1433218
144
145
1453
146
1467
147
14762
1477
14773083592
149
1492479210
15
150
1500
1510
1517
152
153
154
1543
155
156
1565
157
1576
158
1588
159
1596
16
160
1600
161
1610471
162
163
164
1642
165
16515856504050
166
166549
167
168
1680
169
17
170
171
172
1725
173
1735442
174
1746
175
176
1763
177
1776
178
1780
1788
1789
179
1790
1791
18
180
1800
1804
1809
181
1815
1816
182
1821
1822
183
1830
1831
184
1840
1841
185
1851
1852
1853
1856
1857
1858
186
1862
1868
187
1870
1871
1872
1874
1875
1878
188
1880
1881
1882
1883
1884
1885
1889
189
1890
1892
1893
1894
1895
1897
1898
1899
19
190
1900
1901
1902
1904
1906
1907
1908
190813
1909
191
1910
1911
1912
1913
1914
1916
1917
1918
1919
192
1920
1921
1922
1923
1924
1925
1926
1927
1928
1929
1930
1931
1932
1933
1934
1935
1936
1937
1938
1939
194
1940
1941
1942
1943
1944
1945
1946
1947
1948
1949
1950
1951
1952
1953
1954
1955
1956
1957
1958
1959
196
1960
1961
1962
1963
1964
1965
1966
1967
1968
1969
197
1970
1971
1972
1973
1974
1975
1976
1977
1978
1979
198
1980
1981
1982
1983
1984
1985
1986
1987
1988
1989
199
1990
1991
1992
1993
1994
1995
1996
1997
1998
1999
2
20
200
2000
2001
2002
2003
2004
2005
2006
2007
2008
20080516065506
2009
2009428
201
2010
2011
2012
20121023052224
20127801787
2013
20130503225437
2014
20140218220904
2015
2016
20160922155940
2017
201704
20170728
2018
20181014
2019
202
2020
20200814133304
20200817
202016
202018
2021
202103310232
2022
20220511144510
20220920171039
20220920171314
202209240240
2023
2024
2025
203
2030
2035
203601
204
20490
2050
206
206583
207
208
208557
209
21
210
2100
211
213
214
215
216
2165143413520180
217
217515
218
219
219033
22
220
221
222
223
224
225
2250
226
228
229
23
2307
232
233
235
236
237
239
24
240
2400
241
242
243
244
245
246
247
248
249
25
250
2500
251
252
253
254
255
2558
256
257
258
26
260
2600
261
263
264
267
27
270
2700
271
273
274
275
276
277
279
28
280
2800
281
281280
2818
282
283
2846
285
286
287
288
289
29
290
292
293
295
296
297
298
299
29939653
3
30
300
3000
302
304
306
307
308
31
310
31217
313
314
3166
317773278832874
318
31803761
319
32
320
3200
321
3212
323
323756
324
325
326
3260
327
33
330
331
332
333
334
3344
335
336
338
34
340
3400
341
343
343884
345
346
347
35
350
3500
351
352
353
354
355
357
3570539
35732
35739
36
360
3600
361
365
366
3667500
367
368
369
37
370
371
371940199
373
374
3741858
375
378
38
380
381
383
384
385
386
39
390
392
394
395
396
397
4
40
400
4000
404
405
407
4077764
409
41
410
411
414
415
416
417
419
42
420
4200
42042
422000
424
425
4258
427
428
43
430
4300
4305
432
433
437
4382
44
440
443
444
446
447
449
45
450
452
453
455
456
458
46
460
461
4687823
46895122
469
47
470
471
473
474
475
479
48
480
48000
481
482
48223
485
4853
4878732
49
498
499
5
50
500
5000
501
501095896026129837
507
508
51
5108
511
514
51850460
51858367
519
52
520
5202985364
52077
522
53
530
531
533
536
5367
538
54
5411
542
544
55
550
559
56
5600
5604
56045551
5633
57
570
571
572
57217326
577
578
579
58
580
58477515
58505
58523
588
58819
59
590
59272357
595
6
60
600
6000
60020423
603
60329775
60471687
61
61496209555
617
62
620
625
629
63
630
633
63400
6389
639
64
640
6470
65
650
6500
6521
65608
658
66
66048
666
6672000570
66889
67
670
675
676
67869
68
680
68175
6872
6892
69
692
695
697
7
70
700
7000
702
705777
70982
71
714652428
71490
71682
71825
72
720
724
73
735
73540
737
7370
73791
74
740
741
74440
748
75
750
7500
75038
75229
758814
75918
76
765
768
769
77
770
7722321
77229
77320
776
779
78
786
787
79
790
797
79778
8
80
800
8000
80370
80839
81
812
81337
817
82
82262
8268
83
83034
83066
83568
83656
84
84867
85
850
85140
852519
853
86
867
87
87348
87843
88
88050
88278
88322
88611
89
89210
893
89598
896
897
89792
898
9
90
900
9000
903
903611
906185
91
910
911
919
92
92592
929
93
933
935
94
9440727
94462
947
948
95
950
951
95149
952778
95305
955
96
97
971
97286
97743
978
9782414237135
9789231002335
98
980
981
98896
98931
99
995
997
:
;
<
=
>
?
@
\
^
_
`
a
aa
aaas
aan
aapjes
aaron
ab
aba
ababa
abababanjirije
ababana
ababandwa
ababateze
ababaye
ababigize
ababiligi
ababirigi
ababo
ababonye
ababukora
ababyaza
ababyeyi
ababyina
ababyinnyi
abacakara
abacamanza
abacanshuro
abacitse
abacungamari
abacuranzi
abacuruza
abacuruzi
abadafite
abadage
abadahuje
abadamu
abadepite
abadivantisiti
abadivantisti
abadivantitsi
abadiventisiti
abadiventiste
abadiventisti
abafana
abafaransa
abafarumasiye
abafasha
abafata
abafatanya
abafatanyabikorwa
abafilipi
abafilozofe
abafite
abaforomo
abafungiye
abafurere
abagabekazi
abagabo
abagalatiya
abagande
abaganga
abagaragu
abagaratiya
abagatifu
abagatolika
abagenerwabikorwa
abageni
abagenzi
abagera
abagereki
abagie
abagiraneza
abagiye
abagize
abagizi
abagizweho
abagore
abagorehttps
abagororwa
abaguzi
abaha
abahagarariye
abahamya
abahanga
abahanzi
abaharanira
abahatanira
abahatuye
abahawe
abaheburayo
abahembwe
abahezanguni
abahigi
abahimbyi
abahinde
abahindu
abahinzi
abahisi
abahitaga
abahize
abaho
abahohotewe
abaholandi
abahoze
abahuje
abahungu
abahutu
abajenerali
abajenosideri
abajijwe
abajyanama
abakandida
abakaraza
abakeba
abakecuru
abakekwa
abakene
abakera
abakerarugendo
abakiffian
abakiga
abakina
abakinnyi
abakinnyihttps
abakinyi
abakire
abakiri
abakirisitu
abakiriya
abakobwa
abakoloni
abakolosayi
abakomiseri
abakomoka
abakomunisiti
abakora
abakorerabushake
abakoresha
abakorinto
abakoroni
abakoze
abakozi
abakristo
abakristu
abakunda
abakundana
abakunzi
abakurambere
abakuru
abakuze
abakwe
abalatino
abalewi
abaluteriyani
abamasayi
abamasayii
abamasyi
abambari
abamenyekanye
abami
abaminisitiri
abaminisitiriavuye
abamisiyonari
abamisiyoneri
abamongoli
abamugaye
abamusimbuye
abana
abanazi
abandi
abandihttps
abanditsi
abanduye
abanenga
abangamira
abangavu
abangilikani
abanilotic
abaniwonda
abantu
abanya
abanyaburayi
abanyaburezile
abanyabwenge
abanyabyaha
abanyacyubahiro
abanyafrika
abanyafurika
abanyagihugu
abanyagitugu
abanyakenya
abanyakigali
abanyakoreya
abanyalibiya
abanyamabanga
abanyamadini
abanyamagare
abanyamaguru
abanyamahanga
abanyamakuru
abanyamategeko
abanyamerica
abanyamerika
abanyamigabane
abanyamisiri
abanyamuryango
abanyamuziki
abanyamwuga
abanyankore
abanyapolitiki
abanyaporitiki
abanyaroma
abanyarwanda
abanyarwandakazi
abanyarwenya
abanyatanzaniya
abanyekongo
abanyempano
abanyepolitiki
abanyeshuli
abanyeshuri
abanyiginya
abanyoro
abanywa
abanza
abanzi
abanziriza
abapadiri
abaparakomando
abaperezida
abapfa
abapfakazi
abapfumu
abapfuye
abapimwe
abapolisi
abaporotesitanti
abaproducer
abarabu
abaramyi
abarangije
abaraperi
abareba
abarebaga
abarebera
abaregwa
abarenga
abarezi
abari
abarigize
abarimo
abarimu
abarinzi
abaririmbyi
abarirwa
abariyo
abarizwa
abarizwamo
abarobyi
abarokokeye
abarokore
abarokotse
abaroma
abaromani
abarundi
abarusiya
abarwanashyaka
abarwanyi
abarwaye
abarwayi
abaryamana
abasaba
abasaga
abasangwa
abasangwabutaka
abasaza
abasekuruza
abaselewusi
abasenateri
abasenyeri
abasesenguzi
abasha
abashaka
abashakanye
abashakashatsi
abashe
abasheshe
abashinwa
abashinzwe
abashoferi
abashomeri
abashoramari
abashumba
abashushanya
abashya
abashyigikiye
abashyitsi
abasifuzi
abasiganwa
abasigaye
abasilamu
abasirikare
abasirikari
abasivili
abasizi
abasohoka
abasoma
abasomyi
abasore
abasoreshwa
abasosiyalisiti
abasosiyaliste
abasoviyeti
abasuwisi
abatagatifu
abataliyani
abatanga
abatarengeje
abatari
abatavuga
abategarugori
abategetsi
abategura
abatekinisiye
abaterankunga
abateranye
abatesalonika
abatesalonike
abateze
abatindi
abatinganyi
abatishoboye
abatisigiriza
abato
abatoza
abatsindiye
abatsinze
abattoir
abatuareg
abatumva
abatunganya
abaturage
abaturagehttps
abaturange
abaturanyi
abaturarwanda
abaturiye
abaturukiya
abatutsi
abatutsihttps
abatuye
abatwa
abatwara
abatware
abavandimwe
abavoka
abavuga
abavumvu
abavuzi
abawukora
abawutuye
abayahudi
abayanduye
abayanga
abayapani
abayashyigikiye
abaye
abayeho
abayigize
abayinenga
abayireba
abayirengeje
abayisenga
abayishyigikiye
abayisilamu
abayislamu
abayitabiriye
abayizera
abayo
abayoboke
abayobora
abayoboye
abayobozi
abaza
abazaba
abazi
abazigaba
abazima
abazimu
abazize
abazungu
abba
abbas
abbout
abc
abd
abdallah
abdel
abdelhamid
abdelkader
abderrahmane
abdi
abdou
abdoulaye
abdul
abdullah
abe
abeba
abebrese
abeddy
abefeso
abega
abegukanye
abeiku
abel
abenegihugu
abenshi
abeokuta
abepiskopi
abera
aberanye
aberdeen
aberekwa
abeshya
abi
abia
abibona
abibumbiye
abibumbye
abibumye
abicanyi
abidjan
abie
abifashijwemo
abifatanya
abifite
abifuza
abiga
abiganjemo
abigenga
abigeze
abigisha
abikabirije
abikora
abikorera
abikumira
ability
abimukira
abinjira
abinyujije
abiodun
abirabura
abiraburakazi
abiri
abiru
abisabira
abisabwe
abisi
abisize
abita
abitabiriye
abitangaza
abitwa
abivuga
abize
abizera
abizi
abo
abofosiye
abogamiye
abomey
abona
abone
aboneka
abongereza
abonsa
abonye
aborozi
abou
abouba
aboubakr
abouna
about
above
abraham
abrahamu
abrar
abrupt
abryanz
abs
absolute
abstract
abu
abubakar
abubatsi
abuhererwa
abuja
abukaziya
abul
abumva
abura
aburahamu
abuza
abuzukuru
abwana
abwira
abyad
abyara
abyarwa
abyibushye
abyifatamo
abyina
abyivugira
abyssinica
ac
aca
acacia
acade
academia
academic
academicinfluence
academics
academie
academies
academy
academyhttps
acappella
acca
accademia
accelerated
accelerator
access
accessed
accessories
accident
accipiter
according
account
accountability
accounting
accra
accumulation
accuse
accused
ace
achebe
achi
achievement
achievers
achour
achoura
acht
acid
acide
acides
acika
acitse
acnr
acp
acquired
acquisition
acre
acres
acrobatics
acrobats
acrocephalus
acropolis
across
acsi
act
acting
action
actions
active
activist
activists
activities
activity
actor
actores
actorid
actors
actress
actresses
actrice
actualite
actualites
acu
acumbikira
acungwa
acuruza
acute
acyerekeje
ad
ada
adabbah
adafite
adahabwa
adahari
adakeneye
adalar
adam
adama
adams
adamson
adamu
adana
adansonii
adapazarı
adaptation
adapted
adasanzwe
adashaka
adashobora
adb
add
addis
address
addressed
addressing
addy
ade
adebiiheujybix
adel
adelphi
adepr
aderesi
adichie
adil
adj
adjei
adjetey
adjorlolo
admin
administered
administration
administrative
adn
adobe
adolf
adolphe
adoma
adrar
adriano
adrien
adrienne
adult
adumu
aduwak
adv
advanced
advani
adventiste
adventure
adverb
advice
adviser
advises
advisor
advisory
advocates
adwaye
adıyaman
ae
aec
aee
aegis
aerial
af
afarit
afasha
afashe
afata
afatanije
afatanya
afatanyije
afatwa
afc
afcon
afda
afdb
afe
afer
affair
affairs
affiliated
affiliates
afi
afilime
afitanye
afite
aflit
afma
afolayan
afolayans
afp
afr
afra
afreximbank
africa
africahttps
africain
africaine
africains
africalia
africamuseum
african
africana
africancelebs
africanews
africanfilm
africanfilmny
africano
africanparks
africans
africanus
africanwomenincinema
africas
africasacountry
africavenir
africine
africultures
afrifame
afrik
afrika
afrikaans
afrikahttps
afrilivres
afrima
afrique
afro
afrobasket
afrobeat
afrocharts
aft
after
afternoon
afternoonexpress
afuganisitani
afungura
afungwa
afunzwe
afurika
afurikahttps
afyonkarahisar
ag
aga
agabanya
agabanyijemo
agaca
agace
agaciro
agacuma
agacurama
agadez
agafasha
agafata
agafuka
agaha
agahabwa
agahanga
agahato
agahebuzo
agahigo
agahije
agahimbazamusyi
agahinda
agahinduka
agahita
agahozo
agahu
agahumyo
again
against
agakapu
agakina
agakingirizo
agakira
agakiza
agakoko
agakoni
agakora
agakorerwa
agakoresha
agakoresho
agakumira
agakunda
agamije
agana
aganira
agapornis
agaragara
agaragaramo
agaragare
agaragaza
agaragaze
agaruka
agarutse
agasa
agasakoshi
agasanduku
agasanga
agasaro
agaseke
agashinyaguro
agashya
agashyira
agasoni
agasozi
agasuzuguro
agatabo
agatagangurirwa
agataganurirwa
agataka
agatanga
agatangaza
agatebo
agateganyo
agatha
agathe
agati
agatogo
agatoki
agatsiko
agatsinda
agatunda
agave
agaye
agdam
age
agemura
agence
agency
agenda
agenga
agent
agents
agenzura
agera
agerageza
agerageze
ageraho
agere
ageza
ageze
agezeho
agezeyo
agezweho
agezwehohttps
aggie
agha
agifite
agikora
agira
agirana
agire
agirira
agirwa
agisohoka
agiye
agize
agizwe
agne
agnes
ago
agomba
agonie
agony
agossou
agra
agri
agricultural
agriculture
agriprofocus
agua
aguma
agumana
agung
agura
agurisha
agurishwa
agusitini
aguye
aguze
agwa
ah
aha
ahabereye
ahabwa
ahabwe
ahafite
ahagana
ahagaragara
ahagarara
ahagarariye
ahagarika
ahagaze
ahaggar
ahagije
ahahise
ahahoze
ahakana
ahakora
ahakorera
ahakorerwa
ahakura
ahamagara
ahamagawe
ahamaze
ahambwa
ahamya
ahandi
ahanganye
ahangayikishijwe
ahanini
ahantu
aharangiza
aharanira
ahari
ahasaga
ahasanga
ahashyinguwe
ahasigaye
ahat
ahatane
ahatangirwa
ahatirwa
ahava
ahavuye
ahazajya
ahazaza
ahazwi
ahead
ahegereye
ahembwa
ahenshi
ahera
aherekejwe
aherekeza
aherereye
aherereyemo
ahereye
aheruka
aherutse
ahigira
ahimba
ahinduka
ahindura
ahinga
ahinnye
ahishakiye
ahita
ahitamo
ahitwa
ahlussunnah
ahmad
ahmadiyya
ahmed
ahmedabad
ahmet
aho
ahongaho
ahora
ahram
ahubwo
ahumeka
ahunge
ahungira
ahura
ahuriye
ahuza
ahwanye
ai
aicha
aid
aida
aide
aider
aidoo
aids
ailen
aim
aimable
aime
aims
ain
ainea
air
aired
aires
airlines
airport
airtel
airways
ais
aisa
aisawa
aise
aisha
aj
ajami
ajara
aje
ajya
ajyanye
ajye
ak
aka
akaba
akababaro
akabaha
akabambano
akabanga
akabari
akaber
akabero
akabiha
akabije
akabiri
akabirwarira
akabona
akabura
akabuto
akabyiniro
akacu
akademiki
akaga
akagaburirwa
akagali
akagaragaza
akagari
akagera
akagira
akagororerwa
akaguru
akagwingira
akajagari
akajya
akakigirira
akaliza
akamanzi
akamara
akamaro
akamenya
akamenyero
akaminuza
akamo
akamubwira
akamuhereza
akamukoza
akamunani
akamurinda
akamutera
akanaba
akanakwirakwiza
akanama
akanasaba
akanayiyobora
akanayobora
akandi
akandika
akanga
akangisha
akanguhe
akangurira
akantu
akanya
akanyana
akanyaru
akarabirana
akarabo
akaramata
akarengane
akarere
akari
akaribwa
akarira
akarusho
akarwara
akaryoshye
akatirwa
akato
akavuga
akayabo
akayaga
akayajundika
akayamucira
akayibangurira
akayihagararaho
akayiko
akayimwambika
akayobora
akayoga
akaza
akazagaruka
akazi
akazina
akazirata
akazu
akegukana
akeka
akekwaho
akemeza
akenewe
akeneye
akenge
akenshi
akerere
aki
akicwa
akiga
akigera
akilah
akimara
akimutwite
akina
akinamo
akinangira
akindele
akindoju
akinira
akinjira
akinywera
akira
akirangiza
akiri
akirin
akirinda
akishimira
akita
akitirira
akitwa
akivuka
akize
ako
akofa
akoko
akomeje
akomereza
akomeye
akomeza
akomeze
akomoka
akomokamo
akongera
akonja
akora
akoramo
akorana
akoranya
akore
akorera
akoreramo
akorerwa
akoresha
akoresheje
akoreshwa
akoreshwe
akorwa
akosua
akounak
akoze
akozwe
aksaray
akua
akubita
akubiyemo
akuffo
akuma
akumva
akunda
akundana
akundwa
akungahaye
akunze
akunzwe
akura
akuramo
akurana
akure
akuremo
akurikije
akurikira
akurikirana
akurikirwa
akurikiza
akurikizaho
akurira
akuriye
akurura
akuze
akuzwe
akwiriye
akwiye
akyurt
al
ala
alaeddin
alain
alakija
alambamento
alamy
alan
alande
alaoui
alarm
alba
albani
albany
albasa
albendasol
albert
alberta
albertine
albicollis
albino
albizia
album
albums
albus
alchetron
ale
alegizandiriya
alepo
alert
aletta
alex
alexander
alexanderstreet
alexandra
alexandre
alexei
alexia
alexis
alfabeti
alfar
alfred
algeria
algerie
algiers
alhassan
ali
aliane
alice
alicia
alien
aligeriya
alijeriya
alijeriyahttps
aliko
aline
alioune
alison
alive
aliyev
aljazeera
all
allaboutrwanda
allafrica
allan
allegoryi
allen
alli
alliah
alliance
alline
alliot
allium
allmovie
allo
allocine
allow
allrecipes
ally
alma
almeida
almost
alodie
aloe
alois
aloisea
alone
along
alonga
alors
aloyizi
aloys
aloysia
aloysie
alpha
alphabet
alphonse
alphonsine
alphonsus
also
alt
alter
alternaria
alternariose
altri
altı
altındag
alu
alubaniya
alubarika
alubumu
aluminiyumu
alumna
alumni
alur
alvera
always
alyn
am
ama
amaa
amababa
amababi
amabanga
amabanki
amabara
amabaruwa
amabati
amabendera
amabere
amabinga
amaboko
amabonekerwa
amabuye
amabwiriza
amabya
amabyi
amacakubiri
amacandwe
amacumbi
amacumu
amacunga
amacupa
amadeni
amadevise
amadi
amadini
amadolari
amadorali
amadorari
amadou
amadovize
amaduka
amafaranga
amafarangahttps
amafarashi
amafarasi
amafi
amafilime
amafilimi
amafirime
amafot
amafoto
amafotohttps
amafufu
amafunguro
amag
amagaju
amagambo
amagana
amaganga
amaganya
amagare
amagepfo
amagi
amagingo
amagorane
amagorofa
amagufa
amagufwa
amaguru
amagurubegurube
amagweja
amahame
amahane
amahanga
amahangahttps
amahano
amahema
amahembe
amahenehene
amaherena
amaherezo
amahigi
amahirwe
amahitamo
amahoro
amahororwanda
amahoteli
amahoteri
amahugurwa
amahumbezi
amahuri
amahuriro
amahuza
amahwa
amajana
amajereri
amajeri
amajoro
amajwi
amajyambere
amajyaruguru
amajyepfo
amajyepho
amajyi
amakamba
amakamyo
amakara
amakariso
amakarita
amakarito
amakendero
amakenga
amakimbirane
amakinamico
amakipe
amakoma
amakomisiyo
amakoperative
amakoro
amakosa
amakote
amakuba
amakuru
amal
amamashini
amamesa
aman
amanama
amanda
amanfo
amanga
amani
amaniinstitute
amanota
amantunguru
amanuka
amanyarwanda
amanywa
amapapayi
amapera
amapfa
amapfundo
amapine
amapingu
amara
amaradiyo
amaraka
amarangamutima
amarangi
amaraso
amarebe
amarembo
amarenga
amarira
amarozi
amarteifio
amarushanwa
amasaha
amasaka
amasakoshi
amasano
amasaro
amasasu
amasazi
amase
amasegonda
amasekurume
amasengesho
amasezerano
amasezeranohttps
amashakiro
amashami
amashanyarazi
amashashi
amashaza
amashereka
amashimwe
amashiringi
amashu
amashufureri
amashuhttps
amashuli
amashuri
amashusho
amashushohttps
amashyaka
amashyamba
amashyi
amashyiga
amashyira
amashyirahamwe
amashyo
amashyuza
amasiganwa
amaso
amasohoro
amasoko
amasomo
amasoni
amasosiyete
amasunzu
amasya
amata
amatabashayija
amatafari
amatama
amatangazo
amatara
amatariki
amategeko
amategekohttps
amateka
amateke
amatembabuzi
amateraniro
amaterasi
amateur
amatike
amato
amatora
amatorero
amatotoro
amatsiko
amatsinda
amatunda
amatungo
amaturo
amatwara
amatwi
amavangiro
amavirusi
amavu
amavubi
amavubihttps
amavuka
amavuko
amavuriro
amavuta
amayaga
amayeri
amayobera
amayugi
amaze
amazemo
amazi
amazigh
amazina
amazing
amazirantoki
amazon
amazone
amazu
ambasade
ambasaderi
ambassador
ambassadors
amber
ambere
ambilanse
ambilansi
ambrose
ambrosiaster
ambrosioides
ambulance
ambulatory
ambwira
ame
amedee
amelia
amenshi
amenya
amenye
amenyekana
amenyerewe
amenyereye
amenyo
amerekezo
america
american
americana
americanah
amerika
amerikahttps
amerique
ameyawdebrah
ameza
ameze
amezi
amherst
ami
amibe
amid
amidon
amidst
amiens
amija
amikoro
amin
amina
amine
aminu
amiringiro
amis
amissa
amitix
amizero
amlıdere
amma
amman
amnesty
amoah
amoko
among
amor
amos
amosi
amour
amours
amoya
amp
ampaw
amphibian
amphitheater
ampproject
amptelike
amputee
amr
amrani
amstel
amsterdam
amubwira
amufasha
amugi
amugira
amuhaye
amuranga
amurika
amusaba
amutwaje
amutwite
amvca
amwe
amwemerera
amwonsa
amy
amygdalina
an
ana
anaba
anabereye
anaclet
anafite
anagaragara
anagaragaramo
anahabwa
anahatanira
anakina
anakkale
anakora
analog
analyse
analysis
anambra
anang
ananse
anant
anas
anashushanya
anastase
anatanga
anayobora
ancienne
ancient
and
andalusiya
andere
andereya
andersen
anderson
andi
andong
andora
andorra
andrade
andre
andrea
andreani
andrei
andrew
andrews
andriamonta
andritz
andropadus
andy
ane
anegukana
anemia
anenga
anesu
ang
angana
angano
angaur
ange
angel
angela
angeles
angelina
angelique
angell
angelo
angie
angilicani
angilile
anglia
anglican
anglo
angola
angolahttps
angolensis
anguissola
angustifolia
angwiya
anibindi
anima
animal
animals
animasiyo
animation
anita
anitabira
anjembe
anjine
ankara
ankaya
ankırı
anlıurfa
ann
anna
annals
annan
anne
annee
annette
anniversaire
anniversary
annona
annonciata
announced
announcement
announces
annual
ano
anonciata
another
ans
ansah
ansar
answers
answersafrica
anta
antakya
antalya
antananarivo
antarigitika
antelope
antha
anthony
anthreptes
anthropologie
anthropology
anthus
anti
antibiyotiki
antibodies
antibody
antigen
antigwa
antioxydants
antipas
antiretroviral
antivirus
anto
antoine
antoinette
anton
antonia
antonio
antonov
antracol
ants
anubis
anwulika
any
anyamele
anyone
anyura
anyuranye
anyuze
anywa
ao
aoh
aos
aou
ap
apace
apacope
apade
apage
apalis
apartheid
aparude
ape
apea
apfa
apfukame
apfumaguye
apfuye
aphrodites
apiaster
apis
apk
apo
apostle
apostolat
apotre
app
apparitions
appearance
appiah
apple
apples
applied
appointed
appointments
appoints
approach
approves
apps
apr
apres
april
aprodh
aprosoma
apus
aqkkafqarabiiacaw
aqs
aqsa
aqsunqur
aquereburu
aquila
ar
ara
arab
arababwira
arabia
arabic
arabikunda
arabische
arabiya
arabyuka
aracyafite
arafa
arafat
aragenda
aragira
arago
araine
arakomereka
arakomeza
arambuye
arambwira
arambye
aranahakurira
aranga
arangije
arangiye
arangiza
arangize
arangwa
arap
arapfa
ararabirana
ararahira
ararati
arasa
arasaba
arase
arasezera
arashaka
arasharamye
arashobora
arashoboye
arateganya
araterana
aratumba
arau
aravuga
arazwi
arboretum
arbre
arc
arcade
archbishop
architecture
architettura
archive
archived
archivers
archives
archivio
ard
ardahan
ardea
ardenne
ardeola
ardzinba
are
area
areas
areba
arebana
arebye
aremereye
arena
arende
arenga
arengera
arera
areruya
arerwa
areshya
arfem
argentina
ari
ariane
aribo
aribwo
aribyo
aricwa
aricyo
arid
ariel
arif
arigato
ariho
arijantine
arikidiyosezi
arikiyepiskopi
ariko
arikumwe
arimo
arinabwo
arinabyo
arinaho
arinako
arinayo
arinda
arindwe
arindwi
arinze
arinzwe
ariouet
arirang
aririmba
arirwo
ariryo
aristide
aristote
aritegura
aritisho
aritwo
ariwe
ariwo
ariya
ariyo
arizo
arizona
arj
ark
arkiyepiskopi
arlete
armand
armenia
armenian
arms
army
arnaud
arnavutko
arno
arnold
arorere
arota
around
array
arre
arrestations
arrows
arsenaal
arsenal
art
arte
arterial
arthur
arthurian
article
articles
articulos
artificial
artify
artist
artiste
artists
artocarpus
arts
artvin
aru
aruba
arubatse
aruko
arumeniya
arundinaria
arusha
arushaho
arusheho
arv
arwana
arwanya
arwaye
arxiv
aryamanye
aryamye
aryoshye
as
asa
asaa
asaba
asabe
asabwa
asaga
asahi
asamoah
asanga
asanganywe
asangira
asante
asanu
asanze
asanzwe
asatira
asato
asazwe
ase
asengera
asengeramo
asetsa
asezera
ashaghi
ashaje
ashaka
ashakisha
ashalim
ashampiyona
ashanti
ashatse
ashima
ashimangira
ashimira
ashimirwa
ashimisha
ashimishije
ashimwa
ashimwe
ashinga
ashingiye
ashingwa
ashinjwa
ashinzwe
ashish
ashishikajwe
ashishikariza
ashize
ashobora
ashoboye
ashorkor
ashtarjan
ashushanyije
ashwin
ashyigikira
ashyigikiwe
ashyigikiye
ashyira
ashyiraho
ashyirwa
ashyirwaho
ashyushye
asia
asian
asiatica
asibangana
aside
asigaye
asiimwe
asikarisi
asima
asimbura
asimburwa
asimbuye
asinitas
asinya
asiperije
asiperile
asipirine
asiya
asize
askari
asmara
asobanura
asohoka
asohora
asoje
asoma
asoreza
asoza
asp
aspects
aspergillus
asphalt
aspx
assane
assassin
assemble
assembly
assia
assistance
assistant
asso
associate
associated
association
associations
assogba
assualt
assumpta
assures
astana
astley
aston
astrid
astrida
astronomy
astrospace
asu
asubira
asubiramo
asubiza
asura
aswan
at
ata
atabanje
atabara
atabishaka
atadukanye
atagira
atakaza
atakibarizwa
atakiri
atal
atala
atalanta
atalantika
atananutse
atandatu
atandukana
atandukanya
atandukanye
atandukanyehttps
atanduye
atanga
atangaje
atangaza
atange
atangira
atangirana
atangire
atangirira
atangirwa
atangiye
atangiza
atangwa
atanu
atarabonera
ataradefiriza
ataragera
ataragira
ataragize
atarahabwa
atarahuye
atarakorwa
atarasoza
atari
atarigeze
atatu
atavuga
atavuwe
atazi
atazigera
ataziguye
ate
ateganijwe
ateganya
ateganyijwe
ategekwa
ategereje
ategura
ategure
ategurwa
atekereza
atelier
atemba
atemera
atemewe
atenayi
atera
atere
aterwa
atetse
atewe
ateye
ateza
ateze
atezimbere
athanase
athens
athlete
athletes
athletics
athman
athmane
athol
ati
atigeze
atigisa
atik
atinda
atinya
atiq
atlanta
atlantic
atlantics
atlantike
atlantique
atlas
atm
atmospheric
ato
atodji
atome
atoranyirizwa
atoranywa
atorerwa
atorewe
atorwa
atoza
atraco
atrice
atrioventricular
atrium
atriya
ats
atsinda
atsindira
atsinze
atta
attah
attempt
attend
attia
attoh
attraction
attractions
atu
atukura
atuma
atumvikana
atunganya
atunze
atura
aturuka
aturutse
atuye
atuyemo
atwara
atwarwa
atwaye
atwite
atyo
au
aubrey
auburn
auch
auchi
audience
audio
audiovisual
audit
auditorium
auf
august
augustin
augusto
auntie
aure
aurons
aurore
aus
ausgabe
ausstats
austin
austlii
australia
australian
australie
australiya
auteur
authentic
author
authority
authors
auto
automne
autori
autorite
autosomal
autre
autres
autumn
auvergne
aux
auxiliaires
av
ava
available
avamo
avant
avanze
avast
avayo
ave
avec
avenue
average
avg
aviation
avignon
avira
aviv
avoka
avraham
avuga
avugako
avugana
avugane
avuge
avugwa
avugwaho
avuka
avukamo
avukana
avukira
avura
avutse
avuye
avuyemo
avuze
aw
awa
award
awarded
awards
awardshttps
awareness
away
awep
awet
awf
awindor
awlf
axel
axzz
ay
aya
ayabasore
ayanambye
ayanda
ayandi
ayanduzwa
ayarangiriza
ayas
ayasoreza
aydin
aydın
ayiga
ayigenga
ayigereranya
ayigira
ayihindura
ayikinira
ayikorera
ayikorerwa
ayikorewe
ayikuye
ayinkamiye
ayisohora
ayisumbuye
ayita
ayitwa
ayivamo
ayo
ayobora
ayobowe
ayoboye
ayoub
ayouch
az
aza
azaba
azabana
azabona
azabyara
azafasha
azagezwa
azagira
azajya
azakina
azakinwe
azakirana
azakora
azalai
azali
azam
azamuka
azamura
azamurika
azamurwa
azana
azanye
azarongora
azatanga
azayobora
azeda
azenguruka
azeribayijani
azerubayija
azhar
azi
azifata
aziko
azira
azitabira
azitwara
aziya
aziz
azize
azobereye
azongera
azote
azov
azt
azwi
azwiho
azərbaycan
aɪ
b
ba
baan
bab
baba
bababaye
babacar
babaga
babagabo
babagamo
babagore
babaha
babahanga
babaho
babajijwe
babakobwa
babalola
babamasayi
babamo
babana
babanaga
babanje
babanjirije
babantu
babanyapolitike
babanyapolitiki
babanyarwanda
babanye
babanza
babanzaga
babareba
babarirwa
babarizwa
babarwa
babasha
babashe
babashije
babashyira
babategeka
babaye
babayeho
babaze
babe
babeho
babeldaob
babelio
babelserver
babiba
babicishije
babifashe
babifashijwemo
babifatanyije
babigize
babika
babikeneye
babikesha
babikora
babikoresha
babilone
babinga
babinyujije
babireba
babiri
babirwanya
babishoboye
babitangaza
babitesha
babivuga
babo
baboha
babohttps
babona
babonaga
babone
baboneka
babonera
babonye
babou
babri
babujijwe
babukeneye
babumva
babur
baburiwe
babwiye
baby
babyara
babyarana
babyaranye
babyaye
babyeyi
babyina
babyinaga
babyita
babyo
babys
baca
bacamanza
baccalaure
bach
bachelor
bachelors
bacika
bacillus
bacisha
baciye
back
background
backstage
backstory
bacteria
baction
bacu
bacukura
bacuranga
bacuruza
bacuze
bacye
bacyo
bad
badafite
badahuje
badakoresha
badamu
badasanzwe
badashobora
badashoboye
badepite
badmus
badshahi
bae
bafana
bafasha
bafashe
bafashije
bafashwa
bafashwe
bafata
bafataga
bafatanije
bafatanya
bafatanyabikorwa
bafatanyije
bafatiwe
bafatwa
bafatwaga
bafbdb
bafitanye
bafite
bafta
bafumbiza
bafungiye
bag
bagaba
bagabo
bagabweho
bagabye
bagahabwa
bagahinga
bagahunga
bagakomeza
bagakora
bagakorerwa
bagakunda
bagakura
bagakuramo
bagakurikizaho
bagamije
baganga
baganira
baganire
baganiriye
bagapfa
bagapsh
bagaragaje
bagaragara
bagaragaye
bagaragaza
bagaragazaga
bagaruka
bagarutse
bagarutsweho
bagasabana
bagasanga
bagashaka
bagashyiraho
bagasigamo
bagasubiranya
bagatanga
bagatangira
bagatsindagira
bagejeje
bagemura
bagenda
bageneye
bageni
bagenzi
bagenzura
bagera
bagerageje
bagerageza
bagere
bagereranya
bageze
bagezeho
bagezweho
baghdad
baghdadi
bagifite
bagira
bagiraga
bagiranye
bagire
bagirwa
bagirwaho
bagiteri
bagitiriya
bagiye
bagize
bagizwe
bagnolet
bagomba
bagombaga
bagombye
bagore
bagosora
bags
bagufi
bagumye
baguye
bagwai
bagwire
bah
baha
bahabwa
bahabwe
bahagarariye
bahagarike
bahagaritse
bahagaze
bahageze
bahakana
bahamagajwe
bahamas
bahamasi
bahamaze
bahamya
bahanga
bahanganye
bahangayikishijwe
bahanyuze
bahanzi
baharanira
baharanire
bahari
bahasa
bahasha
bahatanira
bahataniraga
bahataniye
bahati
bahatirwa
bahatuye
bahavu
bahawe
bahaye
bahembwa
bahembwe
bahera
bahereye
baheruka
baherutse
bahiga
bahigwaga
bahinduka
bahindura
bahindutse
bahinduye
bahinga
bahinzi
bahirayini
bahise
bahisemo
bahita
bahitamo
bahitanywe
bahize
baho
bahohotewe
bahora
bahoraga
bahoze
bahrain
bahsa
bahuguwe
bahuje
bahujimihigo
bahumeka
bahumekeye
bahunga
bahungira
bahungiye
bahungu
bahunze
bahura
bahuraga
bahurije
bahurira
bahuriraga
bahuriye
bahutu
bahuye
bahuza
bahuze
baie
baird
bait
baitul
baitun
baiturrahman
baje
bajya
bajyaga
bajyanwa
bajyanywe
bajye
bakaba
bakabasha
bakabona
bakabura
bakaganira
bakagaruka
bakagera
bakagira
bakajya
bakame
bakamenya
bakamuca
bakamugoragoza
bakamukenura
bakamusaba
bakamushyira
bakamwigisha
bakamwita
bakamwogosha
bakananirwa
bakandida
bakangisha
bakanywa
bakar
bakareba
bakata
bakatiwe
bakava
bakavuga
bakayijyana
bakayisukira
bakayitangira
bakaza
bakazibika
bakaziha
bakazikikiza
bakazitera
bake
bakeka
bakekaga
bakemura
bakemure
bakeneye
bakennye
baker
bakera
bakererewe
bakeya
bakimara
bakina
bakinaga
bakinana
bakinanye
bakine
bakiniye
bakinnye
bakinnyi
bakira
bakire
bakiri
bakiriho
bakirinda
bakiriwe
bakiriye
bakirwaye
bakisubirira
bakita
bakivuka
bakizamuka
bakize
bakizihiza
bako
bakobwa
bakodesha
bakolonijwe
bakoma
bakomeje
bakomeye
bakomeza
bakomoka
bakomokaga
bakomokamo
bakomora
bakomotse
bakongera
bakongeramo
bakora
bakoraga
bakoramo
bakorana
bakoranaga
bakoranye
bakore
bakorera
bakoreraga
bakoreramo
bakorerwa
bakoresha
bakoreshaga
bakoreshe
bakoresheje
bakoreshwa
bakoreshwaga
bakorewe
bakoreye
bakoze
bakozi
bakr
baku
bakumire
bakunda
bakundaga
bakundana
bakundufite
bakundwa
bakunze
bakunzi
bakunzwe
bakura
bakureho
bakurikije
bakurikira
bakurikirana
bakuriye
bakuru
bakurura
bakusanyije
bakuze
bakwirakwiza
bakwiye
bal
bala
balaeniceps
balancingact
balearica
bali
balinda
ball
ballet
ballon
ballroom
baltimore
baltique
baltringue
balıkesir
bamako
bamamaye
bamara
bamaranye
bamasayi
bamaze
bambara
bambaraga
bambaye
bambere
bamboo
bambuka
bamenya
bamenye
bamenyekanye
bamerewe
bameze
bami
bamnara
bampaye
bamporiki
bamubaza
bamubika
bamubonye
bamubuza
bamufasha
bamufata
bamugaye
bamugeza
bamuha
bamuhaga
bamuhaye
bamuherekeje
bamukerarugendo
bamukunda
bamunegura
bamuritse
bamusabye
bamusangaga
bamusangana
bamushyigikiye
bamusiragizaga
bamutanze
bamutegaga
bamutwaje
bamutwara
bamuzi
bamwambikaga
bamwe
bamwibukiraho
bamwise
bamwita
ban
bana
banagize
banana
banandika
bananiwe
bananutse
banaturanye
banavugisha
band
bandari
bandi
bandika
banditse
banditsi
banditswe
bandura
banduye
bane
banenze
bang
banga
bangaladeshi
bangalore
bangana
bangavu
bangiwe
bangladesh
bangmedia
bangui
banikiriye
banini
banjarimasini
banjarmasin
banjul
banjye
bank
bankanguye
banker
banki
banking
banks
banned
banner
banque
banques
banquet
bantu
banyabashi
banyamakuru
banyamerika
banyamideli
banyamulenge
banyamuryango
banyarwanda
banyarwandakazi
banyeshuri
banyura
banyuramo
banyuranye
banyuze
banyuzemo
banywa
banyweye
banywi
banze
bapadiri
bapfa
bapfuye
bapima
bapimwa
bapimwe
bapolisi
baptiste
bar
bara
barabanzaga
barabaye
barabyaranye
barack
baragabanutse
baragenda
baraguhanga
barahawe
barahinga
barahungiye
barahunze
barakaat
barakatsi
barakomereka
barambeshyera
barambwira
baramu
baramuherekezaga
baramutse
baranduye
barangije
barangiza
barangwa
barangwaga
baranze
baraperi
barapfuye
barara
bararya
barasaba
barasabwa
barashakanye
barashimira
barashinze
barashobora
barashoboye
barashyingirwa
barashyizeho
baratandukanye
baratangara
baratera
baravuga
baraye
barbara
barbuda
barbuzano
barcelona
bareba
barebaga
barebare
barebe
barebye
bareganwa
baregwa
bareka
barema
barenga
barengeje
barenze
bari
baribuda
baribuka
baricwa
bariganye
barihe
bariho
barimo
barimu
barinda
barindwi
barinubira
baririmba
baririmbaga
baririmbanaga
baririmbira
baririmbye
baririmbyi
barishimira
barishwe
bariya
bariyeri
bariza
barize
barlen
barman
barmes
barnard
barokotse
baroque
barota
baroudi
barrage
barriel
barrister
barry
bars
bartın
barubadosi
baruhukire
barumuna
barura
barushaho
barusheho
barutwikiriza
barwana
barwanira
barwanya
barwanye
barwanyi
barwanyije
barwara
barwaye
barwayi
barya
baryamana
baryamanye
baryita
baryo
bas
basa
basaba
basabwa
basabwe
basabye
basaga
basanga
basanganywe
basangira
basangire
basangiye
basangwabutaka
basanze
basanzwe
basarura
base
baseball
based
baseka
basekuruza
basenga
basetsa
basezerana
basezeranye
bashabe
bashaka
bashakaga
bashakanye
bashakashatsi
bashakisha
basharat
bashatse
bashiki
bashimangiye
bashimire
bashimishe
bashimishijwe
bashimishwa
bashimye
bashinga
bashingiye
bashinja
bashinjwaga
bashinze
bashinzwe
bashir
bashira
bashiraho
bashishikajwe
bashishikarije
bashishikarizwa
bashize
bashizeho
bashobora
bashoboraga
bashobore
bashoboye
bashora
bashunga
bashya
bashyigikira
bashyigikire
bashyigikiye
bashyingiranwe
bashyingiwe
bashyinguwe
bashyira
bashyiraho
bashyiramo
bashyitsi
bashyize
bashyizwe
basic
basics
basiga
basiganwa
basigaye
basiketi
basilika
basirikare
basirikari
basizi
basketball
baso
basohotse
basohoye
basoje
basonewe
basore
bass
bassa
bassek
basson
bastien
bastos
basubira
basubiramo
basubiye
basubizwa
basunika
basura
basuye
bat
bata
bataba
batabasha
batabonye
batabuza
batabye
batagaragara
batagera
batagira
batajya
batal
batamusohora
batandatu
batandukana
batandukanye
batanduye
batanga
batangaga
batangaje
batangajwe
batangaza
batange
batangije
batangira
batangiranye
batangiye
batanu
batanye
batanze
batarageza
batarasubizamo
batarengeje
batari
batarigeze
batarya
batashoboraga
batashoboye
batashye
batashyingiranywe
batatu
batatuhttps
batavuga
batayo
batazi
batazwi
bate
bateganya
bategeramo
bategereje
bategereza
bategura
bategure
bateguye
bateje
batekereza
batekerezaga
batemberejwe
batemewe
batera
bateraniye
baterankunga
bateri
baterwa
baterwaho
bates
batewe
bateye
bateza
bateze
batezimbere
bati
batigeze
batik
batinya
batinyaga
batinze
batis
batishoboye
batitaye
bativuje
batizigama
batman
bato
batora
batoranijwe
batoranya
batoranyijwe
batorewe
batowe
batoza
batsinda
batsinde
batsindiye
batsinze
battle
battuta
batuma
batumi
batumva
batunganya
batunzwe
batuque
batura
baturage
baturanye
baturiye
baturuka
baturutse
batutsi
batuye
batwa
batwara
batware
batwarwa
batwaye
batwita
batwite
batyo
bauer
bauhaus
bava
bavandimwe
bavanye
bavanywe
bavariya
bavuga
bavugaga
bavugako
bavugana
bavugire
bavugwa
bavuka
bavukana
bavukiye
bavurwa
bavutse
bavuye
bavuze
bawe
bawita
baxu
bay
bayahinira
bayahudi
bayakanze
bayandura
bayanduye
bayburt
bayer
bayero
bayezid
bayibonaga
bayifashe
bayigire
bayikoresha
bayingana
bayirwanya
bayise
bayisenge
bayisilamu
bayita
bayitaga
bayman
bayo
bayoboka
bayobora
bayobowe
bayoboye
bayobozi
bayoumi
bayrakli
bayram
bayray
bayreuth
baza
bazaba
bazabana
bazaga
bazagira
bazahagararira
bazajya
bazamuka
bazanika
bazanye
bazanywe
bazatanga
bazaza
baze
bazengurutsa
bazi
bazilika
bazima
bazimu
bazira
bazirunge
bazirwanya
bazishimire
bazitabira
bazitera
bazize
bazo
bazwi
bazwiho
bb
bba
bbc
bbchttps
bbosa
bc
bca
bcdi
bce
bcontroller
bd
bday
bdd
bdf
be
beach
beachvolleyball
beads
bean
bear
beasts
beat
beata
beatha
beatles
beatrice
beats
beau
beautiful
beauty
bebeji
bebelo
bec
became
because
bechuanaland
become
becomes
becoming
bed
bedford
bedjaoui
bee
beef
been
beethoven
before
beg
began
begeranye
begereye
begin
begukanye
behandlung
behind
behram
behttps
beidel
beijing
being
beirut
bejeje
bek
bekend
bekendes
bekeni
beker
bel
belai
belaid
belaire
belarus
belarusi
belge
belgian
belgique
belgium
belgolaise
belgrade
belief
belinda
beline
beling
belise
belize
bell
bella
bellanaija
belle
belleville
bellevue
bello
belly
beloved
below
bemba
bemeje
bemejwe
bemera
bemeraga
bemeranya
bemerewe
bemewe
bemeye
bemeza
bemezaga
bemisia
ben
benai
benaissa
benani
benda
bene
benediction
benefactor
benefit
benefits
benga
beni
benimana
benin
benitha
benjamin
benn
bennacer
bennett
bennie
bensai
bensaihi
bensari
benshi
benson
bent
bera
berber
berbers
berdieyinne
bere
berekana
berekane
berekanye
berekeje
berekeza
berenger
bereye
berezile
berg
bergh
berhane
berimuda
beringei
berkeley
berko
berlin
berlinale
berlinhttps
bermuda
bern
berna
bernabe
bernadette
bernard
bernardin
bernardo
bernhard
berni
bertrand
berwick
bes
beshi
besoek
besri
best
bestsimilar
bet
beti
beto
betrayal
betrugs
betrunken
better
betty
between
beverly
bey
beykat
beyonce
beyond
beypazarı
beza
bezuidenhout
bf
bfi
bgc
bhangra
bhong
bhuj
bhutan
bi
bianca
biba
bibabaje
bibafasha
bibagishije
bibaho
bibajije
bibangamira
bibangamiye
bibanza
bibari
bibarirwa
bibarizwa
bibarutse
bibasirwa
bibatera
bibaya
bibaye
bibazo
bibe
bibera
bibereye
bibero
bibeshya
bibeshye
bibi
bibihanaguraho
bibihugu
bibika
bibikika
bibiliya
bibiri
bibiriya
bibitangaza
bibitse
bible
bibliographic
bibliotheken
bibogamiye
bibone
biboneka
bibonetse
bibonwa
biborohera
bibuga
bibujijwe
bibuka
bibumbano
bibumbiye
bibungabunzwe
bibwira
bibyamamare
bibyara
bibyimba
bica
bicaye
bice
bicentennial
bicika
bicira
biciwe
biciye
bicolor
bicura
bicuruza
bicuruzwa
bicwa
bicwaga
bicycle
bicye
bicyeri
bidafitanye
bidafite
bidahagije
bidahura
bidahuye
bidahwitse
bidakeneye
bidakira
bidakorwa
bidakura
bidakwiriye
bidasanzwe
bidasembuye
bidashoboka
bidashobora
bidasubirwaho
bidatinze
bideri
bididi
bidindiza
bidukikije
bienvenue
bifasha
bifashisha
bifashishije
bifata
bifatanije
bifatanya
bifatika
bifatwa
biffot
bifi
bifitanye
bifite
bifitemo
bifitiwe
bifitiye
bifuza
bifuzaga
big
biga
bigabanuka
bigabanya
bigabanywa
bigaburirwa
bigafasha
bigaga
bigaharanira
bigahinduka
bigahindukamo
bigahoraho
bigahunikwa
bigakomeza
bigakorwa
bigakwirakwiza
bigamije
bigana
biganaga
biganiro
biganisha
biganjemo
biganza
bigaragara
bigaragaza
bigaragazwa
bigari
bigarurira
bigaruriye
bigashimangira
bigashiramo
bigasigara
bigatanga
bigatekwa
bigatera
bigatuma
bigemuriwe
bigenda
bigendanye
bigenewe
bigenga
bigengwa
bigenwa
bigenzura
bigenzurwa
bigera
bigerageza
bigere
bigereranijwe
bigereranywa
bigerweho
bigeze
bigezweho
biggest
bigira
bigirumwami
bigisha
bigishe
bigishiriza
bigishwa
bigiye
bigize
bigizwe
bigizwemo
bigo
bigogwe
bigomba
bigorana
bigoranye
bigoye
bigufasha
bigufi
bigusaba
bigwana
bih
biha
bihabwa
bihagarika
bihagaze
bihagije
bihaha
bihambaye
bihana
bihangano
bihangayikishijwe
bihanitse
bihari
bihe
bihebuje
bihembo
bihendutse
bihenze
biherekejwe
biherereye
biherutse
bihindagurika
bihinduka
bihingwa
bihinzemo
bihitiramo
bihora
bihoraho
bihugu
bihuje
bihumanya
bihumbi
bihungabanya
bihura
bihuriye
bihutira
bihuye
bihuza
bihwanye
bijoux
bijumba
bijya
bijyana
bijyanye
bikaba
bikabije
bikagabanya
bikagarukira
bikagera
bikageza
bikagira
bikagirira
bikajya
bikajyana
bikamutera
bikamwongerera
bikanarinda
bikangurira
bikara
bikarangira
bikaranze
bikarinda
bikarya
bikavamo
bikavomerwa
bikayisigaramo
bikazana
bikaze
bike
bikekwa
bikenera
bikenerwa
bikenewe
bikeneye
bikennye
bikerekeza
bikikije
bikingi
bikira
bikiramariya
bikiri
bikiyongera
bikize
biko
bikombe
bikomeje
bikomera
bikomeye
bikomeyehttps
bikomeza
bikomoka
bikomye
bikongera
bikongerera
bikopo
bikora
bikorera
bikorerwa
bikoresha
bikoresho
bikoreshwa
bikoro
bikoroniza
bikorwa
bikozwe
bikubiye
bikubiyemo
bikubye
bikunda
bikungahaye
bikunze
bikunzwe
bikura
bikurikira
bikurikirana
bikurikiranye
bikurikirwa
bikuru
bikurura
bikwirakwiza
bikwirakwizwa
bikwiriye
bikwiye
bila
bilan
bilecik
biliyoni
bill
billboard
billion
billionaire
billy
bilometero
bilongo
bimanitse
bimara
bimaze
bimbo
bimenyerewe
bimenyetso
bimera
bimeze
bimfubyi
bimufasha
bimugira
bimuha
bimuka
bimukira
bimukiye
bimurirwa
bimuteje
bimutera
bimuwe
bimwe
bin
binagwaho
binat
binaza
bindi
bine
binebitandukanye
bineta
bing
bingana
bingbing
binged
bingen
bingo
binini
binjira
binjiye
binjiza
binnelanders
binogo
bintu
binyabiziga
binyabuzima
binyamakuru
binyampeke
binyamuryango
binyejana
binyobwa
binyujijwe
binyuranye
binyuranyije
binyuze
bio
biodiversity
bioethics
biografiya
biographical
biographie
biographies
biography
bioinformatics
biology
biomed
biomedical
biontech
biopharmacia
biopic
bios
bipimo
bir
birababaje
biraboneka
birabora
birabura
biracyafite
biracyahari
biracyizihizwa
birafobagana
biragaragara
biragoye
birahenze
birahuye
birakomeje
birakomeye
biramahire
birambo
birambuye
birambye
biranga
birangandwara
birangira
birangiye
birangwa
birantunguye
birarenze
biraro
birasa
birasaba
birasabwa
birasanzwe
birashimangirwa
birashishikarijwe
birashishikarizwa
birashoboka
birashobora
biratandukanye
birazwi
bird
birdlife
bireba
birebana
birebire
biremereye
biremezwa
biremwa
birenga
birengagijwe
birenge
birenze
birerekana
biri
biribwa
biriho
birimburwa
birimo
birinda
birinde
birindiro
birindwi
birinzwe
biriya
birmingham
biro
birometero
birori
biroroshye
birth
birthday
biruhuko
birukana
birukanwe
birumvikana
birunga
birushaho
birushijeho
biruta
birwa
birwanya
birya
biryo
biryogo
biryoha
bisa
bisaba
bisabwa
bisaga
bisangamo
bisangiye
bisanzwe
bisarurwa
biscuit
bise
bisenya
bisesero
bishagara
bishaje
bishanga
bishimangira
bishimira
bishimire
bishimisha
bishimishe
bishimishije
bishimiye
bishimye
bishingira
bishingiye
bishinzwe
bishishikarizwa
bishize
bishoboka
bishobora
bishobore
bishop
bishushanya
bishushanyo
bishwe
bishya
bishyigikira
bishyimbo
bishyira
bishyirwa
bishyize
bishyura
bishyushye
bishywa
bisi
bisigaye
bisimburana
bisindisha
biso
bisobanura
bisobanuro
bisobanurwa
bisobanutse
bisobanuye
bisohoka
bisohora
bisoke
bisoso
bissau
bisset
bisubira
bisubiza
bisubize
bisubizo
bisukuye
bita
bitabagoye
bitabaho
bitabangamiye
bitabaye
bitabira
bitabiriye
bitabo
bitaboneka
bitabye
bitadukanye
bitaga
bitagaragara
bitagaragaye
bitagenda
bitagera
bitagira
bitamenyerewe
bitandatu
bitandukanya
bitandukanye
bitandukanywa
bitanduza
bitanga
bitangaje
bitangaza
bitangazamakuru
bitangazwa
bitange
bitangira
bitangiza
bitangwa
bitanu
bitanze
bitaramo
bitarenze
bitari
bitarimo
bitaro
bitashoboragwa
bitatu
bite
bitebo
biteganijwe
biteganye
biteganyijwe
bitegura
bitegurwa
biteguye
bitekereza
bitekerezo
bitekerezwa
bitemewe
bitera
bitero
biterwa
bitewe
biteye
biteza
biteze
biti
bitigeze
bitinze
bitiranya
bitishoboye
bitlis
bito
bitoki
bitoroshye
bitoshye
bitoto
bitsina
bitstream
bitter
bitukurahttps
bituma
bitumiza
bitumizwa
bitunga
bitunguranye
bitunguru
bitunze
bituranye
bituruka
biturutse
bituwe
bituye
bitwa
bitwaga
bitwaje
bitwara
bitwaye
bityo
biva
bivamo
bivana
bivanga
bivangwa
bivanze
bivuga
bivugirwa
bivuguruza
bivugwa
bivugwako
bivuka
bivura
bivuye
bivuze
bivuzeko
bivuzo
bivuzwe
biw
biwe
biyaga
biyandikisha
biyandikishije
biyelorusiya
biyemeje
biyemeza
biyi
biyipima
biyongera
biyongereye
biyubaka
biyubashye
biyumvamo
biz
biza
bizaba
bizabera
bizafasha
bizagabanya
bizagera
bizagira
bizahaza
bizajya
bizakomeza
bizakorwa
bizamura
bizana
bizatangira
bizatera
bizatuma
bizcommunity
bize
bizera
bizeye
bizi
bizihiza
bizima
bizimana
bizimungu
bizinesi
bizos
bizumuremyi
bizwi
bizwiho
bjo
bjp
bk
bl
black
blackpool
blade
blair
blake
blanc
blanche
blandine
blatter
blay
blazing
blend
blessed
blica
bliss
bloc
bloemfontein
blog
blogs
blogspot
blomkamp
blonba
blood
bloodlines
bloody
bloomberg
blooming
blossom
blu
blue
blues
bmonth
bn
bnews
bnr
bo
board
boat
bob
bocconi
bochelor
boduberu
body
boeing
boekklub
boer
boesman
boetie
bog
bogeza
bogota
bohambere
bohang
bohereje
boherejwe
boherezwa
bohra
bois
bokma
boko
boldo
boliviya
bollei
bollywood
bologna
bolot
bolsheviks
bolsonaro
bolu
bombe
bombi
bombwe
bon
bonaventure
bonds
boneza
bongera
bongere
bongereye
bongeye
bongo
bonheur
bonn
bonsa
bonyine
boo
book
books
booksources
boost
boot
bootcamp
bootcamps
bordeaux
border
borders
boris
born
borora
borozi
borrelli
borujerd
bos
bosco
bose
bosebabireba
bosiniya
bosna
bosnia
boss
bossou
boston
bosveld
botanix
both
botha
bots
botswana
bottom
bouchnak
bouki
boule
boumediene
bound
bounds
bounty
bourgogne
bourgondisch
bourse
bout
boutique
bouzid
bowel
boy
boys
boyz
bozorg
bp
bpost
bpr
br
bra
bradford
bradley
bradypterus
brahim
brain
bralirwa
brand
brandeis
brandenburg
brando
brands
brandy
branwen
brasil
brassica
brassicae
brazaville
brazil
brazzaville
brd
break
breakfast
breaking
breakout
breakthrough
breeze
brenda
brenthurst
brett
brevispica
brewer
breytenbach
brian
brianne
brickhill
bridge
bridges
bridget
brief
briefly
bright
brightness
brighton
brigitte
bring
brings
bristol
britain
britannica
british
britse
broadband
broadcast
broadcasting
broadway
broadwayworld
broderick
broer
broke
broken
brolin
bronze
brooklyn
brother
brothers
brouette
brought
brown
bruce
brucei
brunei
brunner
bruno
brussel
brussels
bruxelle
bruxelles
brvm
bryan
bsc
bt
btc
btt
bu
buala
buari
buba
bubabare
bubahwa
bubake
bubakiwe
bubarizwa
bubasha
bubashywe
bubatse
bubatsi
bubera
bubi
bubiko
bubiligi
bubiri
bubirigi
bubo
buboneka
buboneye
bubu
bubwagura
bubyemeza
bucakara
buchanan
bucharest
buchenwald
buciriritse
buck
bucknor
bucks
bucucike
bucukuzi
bucumu
bucura
bucuruzi
bucye
bud
buda
budage
budagehttps
budahagije
budahangarwa
budakunda
budapest
budapfa
budasaba
budasanzwe
budasobanutse
budget
buenos
bufaransa
bufaransahttps
bufasha
bufata
bufatanije
bufatanye
bufatika
bufatwa
buffalo
bufite
bugabanuka
bugabanya
bugabanyuka
bugamije
bugana
bugande
bugangabukare
bugaragara
bugaragaza
bugarama
bugari
bugenda
bugera
bugeramiwe
bugereki
bugerwaho
bugesera
bugeshi
bugezweho
bugingo
bugira
bugiye
bugizwe
bugomba
bugoswe
bugoye
bugufi
bugwate
buhabwa
buhagarike
buhagaze
buhagije
buhambaye
buhamya
buhamye
buhanga
buhanitse
buhanzi
buhari
buhebuje
buhendutse
buhenze
buherereye
buherutse
buhindagurika
buhinde
buhindehttps
buhindi
buhinduka
buhinzi
buholandei
buholandi
buhora
buhoraho
buhoro
buhumbikiro
buhumekero
buhungiro
buhuye
build
buildcon
building
buje
buji
bujuje
bujumbura
bujya
bujyana
bujyanye
buk
bukaba
bukabije
bukagaragaza
bukagenda
bukangurambaga
bukavu
bukaze
buke
bukemura
bukene
bukenewe
bukerarugendo
bukeye
buki
bukira
bukky
bukoloni
bukomeje
bukomeye
bukomeza
bukomoka
bukora
bukorerwa
bukoresha
bukoreshwa
bukoreshwe
bukorwa
bukristu
bukubiyemo
bukungu
bukunze
bukura
bukure
bukurikira
bukuru
bukurura
bukware
bukwe
bukwiye
bula
bulawan
bulawayo
bulgaria
buli
buligariya
bull
bulletin
bullfight
bullion
bulugariya
bumara
bumaze
bumbogo
bumenyekana
bumenyerewe
bumenyi
bumoso
bumuga
bumuntu
bumva
bumvaga
bumwe
bumwinjiriza
bunararibonye
bundi
bungana
bunganira
bungurana
bungwe
bunini
bunny
bunoze
buntu
bunyago
bunyamabanga
bunyerere
bunyuranye
bunyuze
buperesi
bupimwa
burabyo
buragoye
burambuye
burambye
buramenyekana
buramusharirira
burashobora
burasirazuba
buratandukanye
buravan
burawuni
buraya
burayi
burden
burdur
bureau
burebure
burega
buregeya
buren
burenga
burenganzira
burengera
burengerazuba
burenze
burera
burezi
burezile
burezili
burger
buri
burial
buriganya
buriho
burimo
burimunsi
buringanire
buringaniye
buriri
buriwese
buriza
burkina
burkinabe
burkinafaso
burkitt
burlesque
burly
burmali
burmalı
buroko
burroughs
bursa
burugumesitiri
buruhukiro
burukina
burumbuka
burumbuke
burundi
burundian
burundians
burundihttps
burundu
buruneyi
buruse
buruseli
buruseri
burusiya
burwanya
burwayi
burya
buryo
bus
busa
busaba
busabe
busakaye
busambanye
busan
busanze
busanzwe
busasamana
buses
busesekahttp
busesuye
busey
bush
bushakashatsi
bushake
busharira
bushaririye
bushayija
bushekeri
bushenge
bushenyi
bushimangira
bushimishije
bushingira
bushingiye
bushinwa
bushinzwe
bushoboka
bushobora
bushobore
bushoboye
bushobozi
bushoki
bushombe
bushveld
bushya
bushyingirwe
bushyira
bushyuhe
busi
business
businessman
busingye
busitani
busker
busking
buso
busobanura
busobanuro
busobanurwa
busogo
busuwisi
busuwisihttps
busy
but
butabangamira
butabera
butaboneka
butajegajega
butajya
butaka
butaliyani
butandukanye
butanga
butangaje
butangira
butangiza
butangwa
butani
butanu
butare
butarehttps
butari
butarimo
butaro
butatu
butayu
butaziguye
butazwi
buteganijwe
butegetsi
butemewe
buteo
butera
buterwa
butewe
buteye
buteyeho
buti
butifashisha
butigaragaza
butike
buto
butose
butterfly
butuma
butumburuke
butumire
butumwa
butumye
butunguranye
butunzwe
buturo
buturuka
buturutse
buva
buvanganzo
buvanze
buvuga
buvugako
buvugwa
buvukanwa
buvumo
buvuzi
buvuzwe
buy
buyapani
buyobowe
buyobozi
buyoga
buyoya
buzamara
buzengurutse
buzima
buzira
buzwi
buzwiho
buzz
buzznigeria
bvwt
bvy
bw
bwa
bwaba
bwababyiboneye
bwabacakara
bwabaga
bwabagore
bwabamaze
bwabana
bwabanazi
bwabanje
bwabantu
bwabaturage
bwabaye
bwabayeho
bwabereye
bwabo
bwabyo
bwacu
bwacyo
bwafashe
bwafashwe
bwafatwaga
bwafurika
bwagabanije
bwagaragaje
bwagaragaye
bwagerageje
bwageze
bwagiye
bwagize
bwagutse
bwahambere
bwahawe
bwaho
bwakereye
bwakira
bwako
bwakomeje
bwakorerwaga
bwakoreshejwe
bwakorewe
bwakorwaga
bwakoze
bwakozwe
bwakwifashisha
bwamafaranga
bwamamare
bwamamaye
bwamaso
bwamatungo
bwamayeri
bwamaze
bwambere
bwambukiranya
bwamenyekanye
bwami
bwana
bwanacyambwe
bwandu
bwangavu
bwangirika
bwangiritse
bwanjye
bwaragabanutse
bwaragize
bwaranze
bwaranzwe
bwari
bwarimo
bwarwo
bwashatse
bwashyizwe
bwashyizweho
bwashyushye
bwasohotse
bwatangaje
bwatangiye
bwatanze
bwatanzwe
bwateguwe
bwateje
bwatewe
bwateye
bwato
bwatoranijwe
bwatsinzwe
bwatumye
bwavuze
bwawe
bwawo
bwayo
bwazo
bwe
bwegereye
bwehttps
bwemera
bwemewe
bwemeza
bwenge
bwera
bweramana
bwerekana
bwerekanye
bwerekeza
bweruye
bwi
bwibanda
bwibanze
bwibasiye
bwibigo
bwibikoresho
bwibikorwa
bwibintu
bwibinyabuzima
bwibiryo
bwibishyimbo
bwibitaramo
bwibyuma
bwicanyi
bwicyuma
bwifashe
bwiganje
bwiganjemo
bwigaragaza
bwigaruriwe
bwigaruriye
bwigenga
bwigenge
bwigihe
bwigihugu
bwigunge
bwihanganira
bwihariye
bwihene
bwiherero
bwihindurize
bwihuse
bwihuta
bwihutirwa
bwije
bwikigo
bwikirere
bwikora
bwikoranabuhanga
bwikubye
bwimbitse
bwimikorere
bwimirire
bwimvura
bwimyaka
bwimyidagaduro
bwindi
bwindimi
bwingenzi
bwinjiriro
bwinjiza
bwinka
bwinshi
bwinyoni
bwira
bwisanzure
bwisanzuye
bwishingizi
bwishyura
bwisi
bwisige
bwisumbuyeho
bwiswe
bwitabi
bwite
bwitehttps
bwitonzi
bwitumanaho
bwitwa
bwiyo
bwiyongera
bwiza
bwizewe
bwizihije
bwo
bwoba
bwoko
bwombi
bwongera
bwongereza
bwongerezahttps
bwongeye
bwonko
bwonyine
bworoha
bworohe
bworoheje
bwororerwa
bworoshye
bworozi
bwose
bwu
bwubaka
bwubatsi
bwubatswe
bwubucuruzi
bwubuhanga
bwubumuga
bwuburezi
bwubushakashatsi
bwubutaka
bwubuvuzi
bwubuzima
bwubwoko
bwugarizi
bwumubiri
bwumucanga
bwumugore
bwumujyi
bwumukobwa
bwumuntu
bwumuryango
bwumutse
bwumuturage
bwumuziki
bwumvikane
bwumwuga
bwuruhu
bwuzuye
bwuzuzanya
by
bya
byaba
byabafashije
byabaga
byabagiriki
byabaguzi
byabakobwa
byabana
byabandi
byabanduye
byabanje
byabanjirije
byabantu
byabari
byabateze
byabaturage
byabaye
byabayeho
byaberaga
byabereye
byabigiramo
byabo
byabonetse
byabonye
byabugenewe
byabyinaga
byabyo
byaciwe
byacu
byacyo
byaduka
byafasha
byafashaga
byafashije
byafashwe
byafunguwe
byafurika
byagabanije
byagabanutse
byaganiriweho
byaganirwaho
byagaragaje
byagaragajwe
byagaragaraga
byagaragaye
byagaragazwaga
byagarutsweho
byagateganyo
byagenda
byagendaga
byagenewe
byagenze
byagereranijwe
byageze
byagezweho
byagiye
byagize
byago
byagombaga
byaguka
byagurishijwe
byaguye
byaha
byahanuye
byahawe
byahe
byahindutse
byahinduwe
byahise
byaho
byahoze
byahujwe
byahuye
byaje
byakagombye
byakajije
byakarere
byakira
byakiriwe
byakomeje
byakoreshejwe
byakoreshwa
byakoreshwaga
byakorewe
byakoronijwe
byakorwaga
byakoze
byakozwe
byakunze
byakunzwe
byakurikiwe
byakurikiyeho
byakuwe
byamadini
byamamare
byamamaye
byamarembo
byamavuko
byambere
byambu
byamenyekanye
byamubayeho
byamufashije
byamuhaye
byamuhesheje
byamusuriraga
byamuteye
byanafashe
byanatera
byandika
byandikwa
byanditswe
byanduye
byanduza
byangijwe
byangirika
byangiza
byanjye
byanya
byanyuze
byanze
byapa
byaragutse
byarakomeje
byarakorwaga
byarakozwe
byaramaze
byaramubabaje
byarangaga
byarangiye
byaranze
byaratangijwe
byaratinze
byaratumye
byaravuzwe
byarebaga
byarebwe
byarebweho
byarewe
byari
byarinda
byaro
byashinzwe
byashize
byashobokaga
byashyizwe
byashyizweho
byashyizwemo
byasimbuwe
byasimbuye
byasobanuraga
byasobanurwa
byasobanuwe
byasohotse
byasuhuzaga
byatakaje
byatanga
byatangaje
byatangajwe
byatangijwe
byatangiriye
byatangiye
byatanze
byatanzwe
byateganijwe
byateguwe
byateje
byatejwe
byatewe
byateye
byateza
byatinze
byatoranijwe
byatsi
byatsindiye
byatsinze
byatsinzwe
byatuma
byatumaga
byatumye
byaturutse
byatwaye
byavanyweho
byaviriyemo
byavuguruwe
byavugwaga
byavutse
byavuye
byavuze
byavuzwe
byawe
byawo
byayo
byayobowe
byazamuye
byazanye
byazanywe
byazo
bye
byear
byegeranye
byegeranyo
byehttps
byejo
byemeje
byemejwe
byemerera
byemewe
byemeye
byemeza
byemezwa
byenda
byendagusetsa
byera
byerekana
byerekanaga
byerekanwa
byerekanwe
byerekeranye
byerekeye
byerekeza
byeri
byeruye
byibanda
byibandaga
byibanze
byibasira
byibasiye
byibiti
byibura
byibuze
byica
byiciro
byifashishijwe
byifashishwa
byifashishwaga
byiganje
byiganjemo
byigaragaje
byigaragaza
byigenga
byigengaga
byigeze
byigicucu
byigifu
byigihe
byigihugu
byigisha
byihariye
byihuse
byihuta
byihutirwa
byikinamico
byikirere
byikora
byikubye
byimana
byimazeyo
byimbitse
byimeza
byimibereho
byimigabane
byimpamyabumenyi
byimyaka
byimyidagaduro
byingenzi
byingirakamaro
byinjijwe
byinjira
byinjiza
byinjizwa
byinkwi
byinshi
byinsho
byinyongera
byiringiro
byisanzuye
byishi
byishimo
byishyize
byisi
byiswe
byita
byitabiriwe
byitabiriye
byitaweho
byiterambere
byitezwe
byitiriwe
byitumanaho
byitwa
byitwaga
byivanzemo
byiyemeje
byiyerekana
byiyongera
byiza
byizihira
byo
byoherejwe
byohereza
byoherezwa
byoherezwamo
byombi
byongera
byongere
byongerera
byongerewe
byongereye
byongeye
byonnyi
byonyine
byoroha
byoroheje
byorohera
byorohereza
byoroshye
byose
byosehttps
byron
byu
byubaka
byubatse
byubatswe
byububiko
byubucuruzi
byubuhanzi
byubukungu
byubumaji
byubumwe
byuburayi
byuburezi
byuburinganire
byubushakashatsi
byubutabazi
byubutaka
byubuvanganzo
byubuvuzi
byubuzima
byubwiza
byubwoko
byubwubatsi
byugarije
byugarijwe
byujuje
byukuri
byukusenge
byuma
byumba
byumubiri
byumuco
byumukinnyi
byumunsi
byumuryango
byumushinga
byumuvugizi
byumuziki
byumvikana
byumwami
byumweru
byumwihariko
byumwimerere
byumwuga
byumye
byuzi
byuzuraho
byuzuye
byuzuzanya
byzantine
bz
bzb
c
ca
cabinet
cabo
cabotegravir
cachexia
cad
cade
cadi
cadillac
caesaris
caf
cafe
cage
cagliari
cahier
cahiers
caine
caire
cairo
cajanus
calabria
calendar
calender
calgary
calidris
california
californiya
call
calle
called
callitrisi
calls
calvados
calvin
camara
camargo
cambodia
cambridge
came
camelus
camera
cameron
cameroon
cameroun
cami
camiff
camig
camii
camp
campaign
campbell
campephaga
campethera
camps
campus
can
cana
canada
canadezen
canadian
canal
canalolympia
canberra
cancelled
cancer
cancers
candelabrum
candice
candidates
candidiasis
candy
canga
cangwa
canis
cannes
canopy
canterbury
canvas
cap
capacity
cape
capensis
capetown
capita
capital
capitalism
capitol
caprimulgus
capt
captain
car
cara
caracas
caraes
caramel
caravan
carbon
carbone
carcass
carcasse
card
cardia
cardiff
cardinal
cardos
cardoso
care
career
cares
caribbean
carine
caring
caritas
carl
carleton
carlos
carminar
carnegie
carol
carole
carolina
caroline
caroll
carpet
carte
carter
carthage
carvalho
cary
casa
casablanca
cascade
case
cash
cass
cassa
cassanova
cassava
cassette
cassia
cassiterite
cast
castillo
casting
castle
casuarina
cat
catalog
catalogue
cataracte
categorie
category
cathedral
cathedrale
catherine
catholic
catholique
cathryn
cato
catorce
catriona
cattle
caucase
causa
cavalcade
cavalcades
cavendish
cavm
cb
cbc
cbd
cbe
cc
ccc
ccr
cd
cdc
cdjp
cdn
ce
cecafa
ceceniya
cecil
cecile
cecilia
cecropis
ceeac
cees
ceki
cekiya
celebrate
celebrates
celebrating
celebration
celebrities
celebrity
celebs
celebsagewiki
celebzmagazine
celestin
celina
celine
cell
cells
cement
cempedak
census
center
centers
centrafrique
central
centrale
centre
centropus
century
ceo
cepivorum
cercle
cercococcyx
cercopithecus
ceremony
ceri
certain
certificate
cerveaux
ces
cesar
cest
cette
cf
cfa
cfid
cfilm
cfm
cg
cgdnd
cgi
cgiar
cgtn
ch
cha
chabi
chad
chadwick
chahine
chain
chairman
chairperson
chak
chaka
challenge
challenges
chamber
chamberlain
chambers
chameleone
champ
champagnat
champagne
champaign
champion
championa
champions
championship
champs
chan
chance
chancellor
chandiru
chanelle
change
changes
changing
channel
channelid
chanson
chantal
chanteur
chaos
chapel
chaplin
chapter
chapters
characteristics
characters
charadriiformes
charadrius
charge
charitable
charity
charki
charles
charlie
charlotte
charly
charmaine
chart
charter
chartered
chash
chastain
chaturdashi
chaucer
chawk
che
cheadle
chechnya
check
chef
cheik
cheikh
chelsea
chemistry
chemouni
cheng
cheno
cheraman
cherie
chernihiv
chernobyl
cherry
chesham
chess
chester
chez
chi
chibi
chic
chicago
chicagoreader
chicagotribune
chichew
chicken
chicks
chico
chief
chikli
chikly
child
childhood
children
chile
chili
chillax
chimamanda
chimie
chimodzi
chimpanzee
chimpanzees
chimpreports
china
chine
chinedu
chinese
chinguetti
chinn
chinua
chinwo
chissano
chissapa
chitima
chiume
chiwetel
chk
chlidonias
chloropeta
cho
chocolate
choctaw
chogm
choice
choir
choleste
cholesterol
chorale
choreografiya
chosen
chou
choux
chraibi
chre
chris
chriss
christ
christabel
christella
christelle
christian
christiane
christine
christkind
christmas
christoph
christophe
christopher
chrome
chromium
chromosomal
chromosome
chromosomes
chronicle
chronicles
chronology
chrysococcyx
chub
chuk
chukwujekwu
chumani
chung
chur
church
chuwang
ci
cia
cial
ciat
ciconia
ciconiiformes
ciel
ciftci
cile
cimerwa
cinafrica
cinco
cincuenta
cine
cineaste
cinefil
cinema
cinemaescapist
cinemas
cinemasdafrique
cinemateri
cinematerial
cinematic
cinematografi
cinematography
cinematunisien
cinerea
cines
cineserie
cineuropa
cinnyris
cio
ciomara
cioms
cip
cipolla
cips
circaetus
circle
circular
circus
cisse
cisticola
citadins
citation
cite
citeaux
cites
citimuzik
citizen
citron
city
civil
civilizations
ciwa
ciye
ciza
cjwkcajwve
cl
claimingdisabili
claims
clair
claire
clam
clamator
clapnoir
clapton
clara
clare
clarisse
clark
class
classe
classic
classique
claude
claudette
claudia
claudine
claver
cle
clean
cleansing
clear
clemantine
clemence
clement
clementine
clermont
clerodendrum
cleveland
clever
client
clifford
climate
clinic
clinical
clinique
clinton
clive
close
clotilde
clown
club
clubhttps
clubs
cluster
cm
cmaao
cmhs
cmqxoc
cms
cmu
cmv
cn
cnbcafrica
cnd
cndp
cnlg
cnls
cnn
cnru
cnur
co
coach
coaches
coaching
coalition
coalitions
coast
coat
cobalt
cobar
cobb
cobus
coca
cochrane
cocktails
code
coded
coding
coertzen
coeur
cofee
coffee
coga
cohen
coker
col
cola
cole
colette
colin
colitis
collabo
collaboration
collaborative
collage
colle
collectie
collection
collections
collective
college
colleges
collette
collines
collins
colo
colobus
cologne
colombia
colombie
colombiere
colon
colonel
coloneli
colonial
colonialism
colony
color
colors
colosseum
colour
colours
coltan
colte
columba
columbia
columbine
columns
com
combo
come
comedi
comedian
comedie
comedien
comedienne
comedy
comes
comesa
comic
comics
coming
commando
comme
commencement
commended
comment
commerce
commercial
comminit
commission
commissioner
commitment
commits
committed
committee
common
commons
commonsensemedia
commonwealth
communaute
communication
communications
community
comoros
companies
companion
company
compaore
comparee
compass
compete
competition
complete
complex
complexity
complicated
component
computer
computing
con
conakry
conceic
concentration
concepcio
concept
concern
concert
concludes
conclusion
concorde
concordia
condamne
conditions
condom
conduct
confe
confederation
confemel
conference
confinement
conflict
congo
congolese
congos
conjunction
connect
connected
connecticut
connie
conque
conrad
conseil
consensus
conservation
conservatoire
considered
considering
consol
console
consolee
consortium
constance
constant
constantine
constitutionalism
construction
consul
consultancy
consultations
consulte
consulting
contact
conteh
contemporary
contemporaryand
content
contents
contest
context
contexte
continents
continue
contra
contract
contre
contribute
contributing
contributions
contributors
control
controller
controllers
controlling
convening
convention
convergence
conversation
convicted
cook
cool
coombes
cooper
cooperating
cooperation
cooperative
cooperatives
coordinated
coordinates
coordinator
coothenya
copainsdavant
copenhagen
copenhague
coperative
coping
cor
coracias
coraciiformes
core
coreca
corn
corneille
cornelius
corner
corners
coro
coronation
coronavirus
corporate
corporation
corps
corre
correa
corten
corvus
coryte
cosmetics
cosmology
cossypha
cost
costa
costalago
costume
cote
cotonou
cotton
coturnix
couilles
could
coulibaly
council
count
countries
country
coup
couple
courage
cours
course
courses
court
courtney
cousin
coutumier
couture
covent
coventry
cover
covers
covid
cow
coz
cp
cpa
cpersonne
cpme
cpr
cq
crack
cracks
craft
crafts
craig
crane
cranes
craniometric
craze
crazy
cre
create
created
creating
creation
creations
creative
creatives
creativity
creator
credentials
credit
credits
credo
creolina
crescent
crew
cri
cricket
criket
crime
crimea
criminal
crisis
cristata
criterion
criterionchannel
critic
critica
critical
critics
critique
crochet
croidja
croix
crop
cropped
crosby
cross
crowd
crown
crowned
crowning
crs
crtv
cruel
cruikshank
cruz
cry
cryptospiza
crystal
cs
cseom
csimpp
cst
ct
cth
cuatro
cuba
cubic
cucciari
cuculus
cuivre
culling
cultivation
cultura
cultural
culture
culturel
cultures
culturesofresistancefilms
cumhuriyeti
cumi
cummings
cup
cupro
cur
curbing
curitiba
currency
current
cursed
curtis
cusano
cushitike
custom
customs
cut
cutting
cuvashiya
cv
cvideo
cy
cya
cyaba
cyabacamanza
cyabaga
cyabakinnyi
cyabakoloni
cyabanduye
cyabanjirije
cyabantu
cyabashitsi
cyabaterankunga
cyabateze
cyabaturanyi
cyabaye
cyabereye
cyabingo
cyabo
cyabonetse
cyabonye
cyabukaziyani
cyabyo
cyace
cyacu
cyacyo
cyafunguwe
cyagabwe
cyagaragaje
cyagati
cyagenewe
cyagenwe
cyagenywe
cyageze
cyagiye
cyagize
cyago
cyagombaga
cyagutse
cyaguzwe
cyagwa
cyaha
cyahariwe
cyahawe
cyahaye
cyahinda
cyahinduriye
cyahindutse
cyahinduwe
cyahise
cyahitanye
cyaho
cyahoze
cyaje
cyakabiri
cyakira
cyako
cyakolonijwe
cyakomeje
cyakora
cyakorwaga
cyakoze
cyakozwe
cyakunzwe
cyakurikiranye
cyalubaniya
cyamahoro
cyamamaye
cyamashyamba
cyamatare
cyamaze
cyambere
cyambu
cyambukiranya
cyamenyekanye
cyami
cyamubabaje
cyamukomeretsa
cyandika
cyanditswe
cyanduye
cyane
cyanehttp
cyanehttps
cyanga
cyangiritse
cyangugu
cyangwa
cyangwe
cyanika
cyanjye
cyanomitra
cyanya
cyanyuma
cyanyuze
cyanzarwe
cyanzayire
cyarabu
cyaragoneze
cyarangiye
cyaranzwe
cyarashwe
cyaremye
cyari
cyarimo
cyaro
cyarumeniya
cyaryo
cyasabye
cyasandaye
cyashinzwe
cyashize
cyashyizeho
cyashyizwe
cyashyizweho
cyasobanuye
cyasohotse
cyasohowe
cyasohoye
cyasuturiya
cyatangaje
cyatangijwe
cyatangiraga
cyatangiriye
cyatangiwe
cyatangiye
cyatanzwe
cyatawe
cyateganijwe
cyateguwe
cyatereranywe
cyatewe
cyateye
cyatinze
cyatoranijwe
cyatsi
cyatsindiye
cyatsinze
cyatsinzwe
cyatumye
cyaturutse
cyavutse
cyawe
cyayi
cyayo
cyaza
cyazo
cybali
cycle
cycling
cyclisme
cye
cyegeranyo
cyegereye
cyehttps
cyemejwe
cyemeranyijweho
cyemewe
cyemeza
cyemezo
cyenda
cyera
cyerekana
cyerekanwe
cyerekanye
cyerekeye
cyerekezo
cyeru
cyesipanyole
cyesiperanto
cyesitoniya
cyeza
cyi
cyibanda
cyibanze
cyibasiye
cyibihaha
cyibihe
cyibikorwa
cyibirori
cyibiti
cyiburasirazuba
cyicaro
cyiciro
cyicyiciro
cyicyuma
cyicyumweru
cyifashishwa
cyifitiye
cyifuzo
cyiganje
cyigenga
cyigihe
cyigihugu
cyigikoni
cyigisha
cyihariye
cyihaye
cyihishe
cyihuse
cyihuta
cyihutirwa
cyijimye
cyikigo
cyikinyejana
cyimana
cyimbaraga
cyimbo
cyimbyino
cyimeza
cyimiterere
cyimodoka
cyimuka
cyimvura
cyimwe
cyimyaka
cyimyambarire
cyimyidagaduro
cyindege
cyingana
cyingenzi
cyinjiye
cyinshi
cyinyandiko
cyinzuzi
cyiri
cyirima
cyishuri
cyisi
cyisumbuye
cyiswe
cyita
cyiterambere
cyitiriwe
cyitwa
cyitwaga
cyiyongera
cyiza
cyizere
cyizewe
cyizuba
cyizwi
cynthia
cyo
cyohereza
cyomoro
cyongereza
cyongeye
cyonyine
cyorezo
cyoriya
cyoroheje
cyoromo
cyoroshye
cyose
cyosetiya
cyprien
cyprus
cyrwa
cyu
cyubahiro
cyubatse
cyubatswe
cyububiko
cyubuhanga
cyubukonje
cyubushakashatsi
cyubutayu
cyubutegetsi
cyubuzima
cyubwongereza
cyudimuriti
cyugarije
cyuho
cyuko
cyuma
cyumba
cyumuhinde
cyumukinnyi
cyumunsi
cyumuntu
cyumuryango
cyumutse
cyumuyobozi
cyumuziki
cyumwaka
cyumweru
cyumye
cyungura
cyuridu
cyuruhu
cyusa
cyuveya
cyuwatsinze
cyuzubeka
cyuzuye
cyuzuyemo
cyuzuzo
cz
czech
cœur
d
da
daar
dabbling
dabula
dac
dachra
dacobre
daction
dad
dada
daddoey
daddy
dafa
dafilms
dag
dagmawi
dahomean
dahomey
daily
dailymotion
daisy
dakar
dale
dalhalla
dalila
dall
dallaire
dallas
dam
damal
damasce
damascene
damascus
damasi
damasiko
dame
damijo
dammarie
dan
dana
danai
dance
dancehall
dancer
dancers
dancilla
dancille
dancing
danemarike
danemark
danemarke
dangote
danie
daniel
danieline
daniella
danielle
daniels
danimarike
daniyeli
dankwa
danning
danny
dano
dans
danse
dantata
daouda
dap
daphrose
dar
darc
darfur
darina
daring
dark
darkness
darling
dartmouth
darul
darunaman
darweesh
daryne
das
dashavatara
dat
data
database
date
dated
dathmane
dating
daughter
daughters
dave
davenport
david
davies
davis
davoodi
daweti
dawid
dawie
day
days
db
dbe
dbpedia
dc
dca
dcd
dd
de
dea
dead
deadline
deadly
deaf
deal
dealing
dean
death
deb
debate
debates
debbie
debonheur
deborah
debt
debut
debuts
dec
decade
december
decent
decine
decins
decision
declaration
decline
decoded
decor
decoration
decouverte
decouvertes
dede
deejay
deep
deepak
def
default
defender
defense
definition
definitions
defying
degeneres
degli
degree
degruyter
dei
deimos
del
dele
delhi
delhove
delices
delivery
della
delos
delphi
delphine
delta
deltamethrine
dem
demain
demak
demand
dembe
demille
democra
democracy
democrate
democratic
democratique
demokarasi
demukarasi
den
dendo
dendropicos
dene
denis
denise
denizli
denktas
denmark
dennis
dental
denyse
deo
deolinda
deon
department
depite
depression
depuis
deputies
deputy
der
derco
dereck
dernier
dervis
des
desai
descartes
dese
desert
desertification
desfile
design
designer
designs
desimodiyumu
desire
desmit
desmodium
desmond
destinations
destiny
destruction
detaches
detail
detailid
details
detective
detente
determine
deur
deutschland
deux
develop
developed
developing
development
devex
devil
devin
devnarain
dey
df
dh
dhabi
dhaka
dhalinyaro
dharma
dhjete
dhul
di
dia
diabat
diabete
diabetes
diagonale
diagram
diakite
diakses
dialect
diallo
dialogue
diamond
dian
diana
diane
diaphragme
diarra
diary
diaspora
diatary
diaye
dic
dictator
dictionary
dictionnaire
dicynone
did
didacienne
didgeridoo
didi
didier
didnt
didsbury
die
dieckmann
died
diedonne
diego
dieng
dies
dieu
dieudonne
diez
diff
difference
different
difret
dig
diggers
digital
digitale
dikwa
dilemme
dili
diliff
dilma
dimension
dimes
dimpoz
din
dina
dinah
dinar
dini
dinozore
dio
diocese
dioecesis
diogene
diop
dior
diorhttps
diouana
dioxyde
diplo
diploma
diplomacy
diplomasi
diplomat
diplomate
diplomatic
diplome
dipolome
dir
direct
directed
directeur
direction
director
directories
directors
directory
diregiteri
diriger
dirk
dirkie
dirt
dis
disabilities
disability
disabilityrights
disabled
disc
discography
disconnect
discothe
discover
discovery
discuss
discussed
discussion
discussions
disease
diseases
disiki
disikuru
disney
disneyland
disorder
dispaci
dispatch
displacement
distance
distancecalculator
distribution
district
dit
ditchfield
dite
dithane
ditions
ditylenchus
diva
divayi
diver
diversification
diversity
divide
divine
divinite
division
divorce
divrig
divuwari
diyabete
diyama
diyarbakir
diyarbakır
diyoseze
diyosezi
dj
djaffar
djamena
djansi
djemai
djenaidi
djenne
djerba
djerbahttps
djibouti
djibril
djinane
djinguereber
dk
dlamini
dlomo
dmeter
dmitri
dms
dna
dnb
do
doc
doce
dochter
docs
docteur
doctor
doctorat
doctorate
doctors
document
documentaire
documentaries
documentary
documents
dodoma
doer
does
doesnt
dog
dogere
dogg
doggetti
dogiteri
dogma
dogon
dogs
doha
dohafilminstitute
doi
dok
dokmai
doku
dokuz
dolan
dollar
dolly
dolmabahc
dolphinariya
dolphine
dolutegravir
domain
domanovic
dombeya
dome
domestic
dominate
domingos
dominic
dominica
dominika
dominikani
dominique
domitila
domitilla
don
dona
donald
donatille
donations
donbas
donbass
donetsk
dong
donga
donna
dons
dont
dontoh
doobsie
doppelga
doqquz
dorcas
dore
dorfman
doria
doris
dormir
dorothee
dos
dosiye
dot
dotrust
dotyouth
dou
douala
douard
double
doubt
douglas
doukoure
dove
dowdeswell
down
download
downtown
dp
dq
dr
draft
dragon
drain
drakkar
drama
dramatic
dramolett
drawing
drc
dread
dream
dreampirates
dreams
dreamtime
drek
dresden
drexciya
drexel
drinken
drinking
drive
driven
driving
droit
droits
drol
drone
drought
drugs
drum
drummer
drums
dry
dryas
dryoscopus
dsc
dscf
dstv
dt
du
dua
duarte
dubai
dublin
duce
dudca
dudikoff
dudley
due
duel
duet
dufite
duherereye
duhereye
duhora
duhumeka
duhunga
duignan
duiker
duisburg
duke
dukennye
dukesha
dukoko
dukore
dukorera
dukunda
dukurikije
dukwiye
duma
dumas
dumelo
dummies
duncan
dunster
duo
durban
durchgefu
during
duriyani
dursban
dusabane
dusabe
dusabejambo
dusanga
dusangamo
dusangiye
dushime
dushingiye
dushobora
dushyuha
dusirikare
dust
dutafari
dutandatu
dutandukanye
dutangira
dutanu
dutatu
dutch
dutera
dutere
duterimbere
duti
duto
dutukura
dutuma
duturanye
dutuwe
duverger
duvernay
duwa
dva
dvd
dw
dwight
dx
dxapihee
dyana
dynamic
dyslipidemia
dz
dzina
dzsa
dır
e
ea
eac
each
eachamps
eae
eagle
eagles
eala
early
earth
east
eastern
easy
eau
eazy
eb
ebay
ebiz
eboh
ebola
ebolas
ebonyi
ebouaney
ebu
ebyeri
ebyiri
ec
eccas
ece
ecf
eclipsed
eco
ecobank
ecole
economic
economics
economie
economique
economist
economy
ecran
ecrans
ectitledetail
ecuador
ed
edc
edda
eddie
eddy
edeni
edgar
edinburgh
edirne
edit
edith
editing
edition
editions
editor
editorial
editors
edmund
edouard
edprs
edqual
eds
edu
eduard
educating
education
edward
edwards
edwin
ee
eed
eelde
een
eerste
eesti
eeu
eeuwig
ef
efavirenz
efe
efec
efendi
efeso
effe
effective
effects
effiong
effiongs
effort
efforts
efma
efotec
eg
egidie
egiputa
eglise
eglises
egoli
egretta
egypt
egyptian
egypts
egypttoday
ehinga
ehir
ehzade
ei
eicv
eid
eiffel
eight
ein
einde
eine
einem
einfu
einstein
eisenhower
eish
ejiofor
ejo
ejuma
ek
ekasi
ekeh
ekipe
ekmece
eko
ekonomiese
ekwadoro
ekwateri
ekwatoriya
ekwatoriyale
el
eland
elayo
elazıg
elba
elcinema
eldo
eleanor
elearning
elebi
elect
elected
election
elections
electronic
electronics
elects
elegant
elegitoronike
elegitoroniki
element
elements
elena
elephant
elevate
eli
elia
elias
elie
elinkine
eliphaz
elisa
elisabeth
elite
eliyeli
elizabeth
elize
ella
elle
ellen
ellil
elliot
elliott
ellong
elmadag
elmay
elminia
elmo
eloi
elsa
elsevier
eltis
elumelu
elung
elvis
elwira
elyse
em
ema
email
emam
emancipation
emanuella
embassy
emberiza
emden
emerance
emerge
emergency
emerges
emerging
emery
emily
emir
emirate
emirates
emission
emma
emmalito
emmanuel
emmanuella
emmerson
emmy
emna
empire
employment
empowered
empowerment
emsi
emtricitabine
en
enable
enah
enatha
encomium
encyclopedia
end
ene
enemy
energy
enfant
enfants
enfin
enforcing
eng
engaged
engagement
engai
engelbrecht
engels
engelse
engil
engineer
engineering
england
english
englishfinal
enhance
enhanced
eniola
enjeniyeri
enjoyed
enoki
enos
enough
enric
enseignement
ensemble
entabeni
enterineti
enterocolitis
enterprise
enterprises
enterprising
entertainment
enticelles
entity
entrance
entre
entrepreneur
entrepreneurial
entrepreneurs
entrepreneurship
entretien
entry
enugu
environment
environmental
envoy
enwiki
enye
enzyme
enzymes
eo
ep
epfo
epfohttps
epic
epidemiologiya
epinari
epiphanie
episode
episodes
epule
equal
equality
equatorial
equipment
equity
er
era
eragrostis
erasimusi
erdog
erefeli
ereflikoc
erfsondes
eri
eric
erica
erik
eriq
erisa
eritereya
eritereyahttps
eritrea
ernest
erneste
erog
erradi
ertug
eruption
erwin
erzincan
erzurum
es
esat
escaf
escape
escenario
escp
escudo
ese
esh
eshanu
eshatu
esheshatu
esi
esid
esikudo
esipanye
esiteri
esitoniya
eski
eskis
esko
esmahan
eso
esophageal
espagne
espan
espanye
espe
especially
esperance
espn
espncricinfo
espoir
espoire
esprit
esri
essalam
essay
essence
essential
essentiel
essid
est
established
establishing
estate
esther
estimate
estimation
estrilda
eswatini
et
etage
etalon
etat
etc
ete
eten
ethan
ethics
ethiopia
ethiopian
ethiopie
ethnologue
etienne
etim
etimesgut
etincelles
etiyopiya
eto
etoile
etrade
ets
ettabaa
etudes
etv
eu
eucalyptus
euge
eugene
eugenia
eugenie
eunice
eunoto
euphorbia
euplectes
euro
euromaidan
europa
europe
european
eurosport
eurovision
eva
evac
evaluation
evangelical
eve
evelyn
evelyne
even
evenement
evenements
evening
event
events
ever
everett
everlane
every
everyday
everyone
everything
evewoman
evidence
evil
evisceration
evolution
evolutionary
evora
evren
ewn
ex
examen
example
examples
excel
excellence
exchange
exclusive
exec
executif
executive
executives
exempta
exhibition
existing
exotica
expansion
expecting
experience
experimental
expertafrica
experts
explained
explores
expo
export
expos
exposure
express
expression
extended
extending
external
eya
eye
eyeforfilm
eyes
eyo
eyu
ez
ezekiyeli
ezra
f
fa
fabien
fabio
fabiola
fabrice
fabwinstructors
face
faceafrica
facebook
faces
facility
facing
fact
facto
factories
factory
facts
factsheetforfarmers
faculty
fadia
fahad
fahavalo
failed
fair
fairfax
faisal
faissol
fait
faith
fakhredine
fakr
fala
falco
falcon
falconiformes
fall
fallon
falls
fally
falomo
false
fame
familiaris
familie
families
famille
family
famousfix
fan
fandom
fanfan
fanga
fanique
fanisau
fanning
fans
fantastic
fantasy
fany
fao
faouzi
far
farah
farai
farm
farmer
farmers
farming
farms
farouq
farowe
farrell
farumasi
fashion
fashionable
faso
fasskahone
fast
fata
fatah
fatal
fateh
faten
father
fathia
fatih
fatikaramu
fatima
fatimah
fatizo
fatou
fatoumata
fatuma
fatuna
faulkner
fauna
faustin
faut
favorite
fawe
fawzi
fay
faya
fayc
faye
fayehttps
fayili
faysal
fayum
fazl
fazle
fazzo
fb
fbclid
fbid
fc
fcak
fchttps
fd
fdi
fdlr
fe
fear
fearless
feat
feats
feature
featured
features
featuring
feb
february
fecal
federal
federasiyo
federation
feedbacks
feeding
feels
fehri
fela
felicite
felis
felix
fella
fellow
fellows
fellowship
female
femi
feminism
feminist
femme
femmes
femmesdumaroc
femnet
fen
fenari
fene
fenisiya
fennec
fer
feray
ferdinand
ferguson
feri
ferkobsang
fernandez
fernando
ferney
fernsehserien
ferrand
ferrara
ferwacy
ferwafa
ferwafahttps
fespaco
fespam
fest
festa
festival
festivalhttps
festivalmarrakech
festivals
festivalscope
festus
fet
feted
feuer
feuerbach
feuerherz
fever
fewer
feza
fezzan
ff
ffentlich
ffffffffffff
ffrp
fhi
fi
fia
fiba
fibre
fibres
fiche
fichefilm
ficheid
fichepersonne
fichier
fiction
ficus
fide
fidele
fidh
fiela
fielas
field
fieldhouse
fieme
fiennes
fiesta
fifa
fiff
fifth
fight
fighter
figueira
figure
figures
fiji
fikile
fil
file
fileadmin
filepath
files
filet
filime
filimehttps
filimi
filimihttps
filimoni
filipe
filipine
filippyne
fille
film
filmaffinity
filmdatenblatt
filmdetails
filme
filmes
filmfestival
filmfreeway
filmhttps
filmindependent
filming
filmlinc
filmlinkafrica
filmmaker
filmmakers
filmmaking
filmmart
filmmovement
filmografie
filmographie
filmography
filmoria
filmportal
films
filmshttps
filmstarts
filmweb
filozofi
filozofiya
fils
filter
fin
fina
final
finale
finalists
finally
finance
financial
financialafrik
financing
finch
find
findi
finding
fine
finest
fingers
finilande
finished
finland
finlande
fiona
fip
fire
fireman
fireworks
firime
firimehttp
firimehttps
firimi
firizone
firm
first
firstcycling
firuz
fischer
fischeri
fish
fisher
fishi
fishing
fistula
fite
fitness
fittja
fitu
fitzgerald
fitzjohn
fitzpatrick
fiu
fivb
five
fix
fiziki
fj
fk
fkbp
fla
flag
flahaut
flame
flamingo
flash
flava
flavia
flawless
fled
flemish
fleur
fleurs
flick
flickr
flight
floor
flora
florence
florian
florida
flow
flower
flux
fly
flying
flynn
flypast
fm
fmarie
fnac
fnews
fo
focus
foie
fokn
folate
folk
follow
following
folukilande
fon
fondasiyo
fondation
fonds
fonerwa
fonseca
font
fontenay
food
foods
football
footnotebonner
footwear
foq
for
forbes
force
forces
ford
fore
forecourt
foreign
forest
foret
forever
forklift
forklifts
form
formation
formations
forme
former
formerly
formula
foromaje
forson
forsythe
fort
fortis
fortnight
fortress
forum
forumfp
forumu
forward
fosifate
fossey
foston
foto
fouche
foufou
found
foundation
foundationhttps
founder
fountain
four
fourie
foursquare
fourth
fox
fpdg
fpr
fr
fradique
fragments
franc
franca
francais
france
franceculture
frances
francetvinfo
franchise
francine
francis
francisco
francise
franco
francois
francoise
francolinus
francophone
francophonie
frank
frankensaurus
frankfurt
franklin
frans
franse
frantz
franz
franzo
fre
fred
freddie
frede
frederick
free
freedom
freetown
french
frenchculture
frenchmozilla
frenkel
fresh
friborg
fribourg
frida
friday
friedl
friedrich
friends
fries
frimpong
from
fromlat
fromlng
fromplace
front
frontie
fruit
fruits
frw
fs
ft
ftc
fu
fuadi
fue
fugard
fugu
fukunaga
fula
fulani
full
fullcredits
fumani
fumbire
fumbwe
funafuti
fund
fundi
funding
funds
funeral
fungi
funguro
funke
funny
furneau
further
fusion
futuh
futuna
futur
future
futuro
fwww
g
ga
gaan
gaat
gabo
gabon
gabonais
gabonaise
gaborone
gabourey
gabriel
gaby
gacaca
gace
gacem
gaciro
gacp
gacuma
gacurabwenge
gacuruza
gadaffi
gaddafi
gadjigo
gadon
gae
gael
gaetano
gaffoor
gafite
gage
gahakwa
gahamanyi
gahana
gahanga
gahara
gahato
gahaya
gahemba
gahengeri
gaherereye
gahima
gahinda
gahindiro
gahinga
gahini
gahongayire
gahonzire
gahoraho
gahoro
gahou
gahunda
gahunga
gahuza
gaidar
gains
gajereti
gajeti
gakabije
gake
gakenke
gakeya
gakikije
gakino
gakire
gakiza
gako
gakoko
gakomeye
gakondo
gakoni
gakoreshwa
gakuba
gakwaya
gal
gala
galatiya
galaxy
galeries
galese
galileo
gallego
galleries
gallery
gallimard
gallinago
gallipoli
galuzzi
gambia
gambiya
gambo
gamboa
game
gamelan
games
gana
ganahttps
gandhi
gando
gandun
ganesh
gang
gangi
gangs
gangster
gangz
gann
gao
gap
gapfundikiye
gapoti
gapyisi
gara
garage
garama
garamantes
garci
garcia
garden
gardener
gardeningchannel
gardens
gardiner
gare
garfield
gari
garki
garnier
garrett
garth
gary
gas
gasabo
gasaka
gasana
gasange
gasanzwe
gasasira
gashamura
gashari
gashinzwe
gashoboka
gashobora
gashonga
gashora
gashumba
gashya
gashyantare
gashyuha
gashyushye
gasingirwa
gasinzigwa
gasogi
gasore
gasozi
gaston
gastrointestinal
gasumuni
gasutamo
gasuzuguro
gatabazi
gatagara
gatandatu
gatanu
gatanya
gataraga
gatare
gatatu
gate
gatebe
gatekerezi
gatenga
gatera
gates
gatete
gather
gato
gatolika
gatore
gatorika
gatozi
gatsata
gatsi
gatsibo
gatsiko
gatsinzi
gatumba
gatuna
gatunda
gaturika
gatuwe
gatuza
gatwa
gaudence
gaul
gauteng
gavin
gaye
gaz
gaza
gaze
gazette
gazettes
gazi
gaziantep
gb
gbagura
gcatholic
gcct
gclid
gcon
gd
gdp
ge
gears
gebruik
gedi
gedresseerde
geduld
geen
geht
gel
geluk
gems
gen
genda
gender
gene
general
generated
generation
generations
generique
genes
genesis
genesisbizz
genetic
genetics
geneva
geneve
genghis
genie
genji
genocide
genocidio
genome
genoside
genre
gens
geodetic
geoffrey
geografiya
geograph
geographic
geographical
geography
geologiya
geometrical
geophysical
georg
george
georges
georgetown
georgia
geospatial
geppi
gera
gerageza
gerald
geraldine
gerard
gerardine
geremili
gerenada
gerenadine
gereverya
gereza
gerima
germaans
germaanse
germain
germaine
german
germany
gert
gertrude
gervain
gervais
geschlechterkampf
get
getrouwd
gets
getting
gevolg
geworigiya
geworugiya
geyf
gfr
gggi
gh
ghafla
ghalia
ghallywood
ghana
ghanaba
ghanacelebrities
ghanafilmindustry
ghanahomepage
ghanaian
ghanas
ghanaweb
ghardai
ghetto
ghgossip
ghmoviefreak
ghost
gi
giants
giburalitari
gica
gicamunsi
gicanda
gice
giceceni
giceke
gicewa
giciriritse
giciro
giciye
gicokitawu
gicucu
gicuku
gicuma
gicumbi
gicurasi
gicuti
gicuvashi
gidage
gidan
gideon
gie
gifaransa
gifasha
gifata
gifatika
gifatirwaho
gifero
giffonifilmfestival
gifijiyani
gifinilande
gifitanye
gifite
gifitiye
gifs
gifu
gifuniko
giha
gihabwa
gihagije
gihana
gihanga
gihangano
gihangayikishije
giharanira
gihari
gihawusa
gihe
giheburayo
gihembo
gihembwe
gihera
giherere
giherereye
giherero
giheruka
gihindagurika
gihindi
gihinduka
gihingwa
gihinze
gihiye
gihombo
gihongiriya
gihoraho
gihugu
gihundwe
gihuza
gikaranze
gikari
gikatalani
gikazaki
gikenera
gikenewe
gikeneye
gikennye
gikikije
gikikijwe
gikinwa
gikirigizi
gikirisitu
gikoloni
gikombe
gikomeje
gikomere
gikomero
gikomeye
gikomeza
gikomoka
gikomunisiti
gikondo
gikongoro
gikoni
gikonje
gikonjesha
gikora
gikorera
gikorerwa
gikoresha
gikoreshwa
gikoreya
gikorwa
gikozwe
gikristo
gikubiyemo
gikunda
gikundamvura
gikungahaye
gikunze
gikunzwe
gikura
gikurikira
gikurikiraho
gikurikirana
gikuru
gikuyu
gikwirakwira
gikwiye
gil
gilbert
gilgamesh
gillo
gin
gineya
giornate
gipalawani
gipima
gipimo
gipolisi
giporutigali
gipushito
gira
giraffe
giramata
giresun
girimbabazi
girinka
girl
girleffect
girley
girlfriend
girlie
girls
girne
girubuntu
gis
gisa
gisaba
gisagara
gisaka
gisakura
gisamagwe
gisansikiriti
gisanzwe
gisate
gisekuru
gisele
gisenge
gisenyi
gishaje
gishamikaho
gishanga
gishari
gishingiye
gishinwa
gishinzwe
gishishikariza
gishize
gishizwe
gishoboka
gishobora
gishoboye
gishoma
gishushanyo
gishushu
gishwati
gishya
gishyigikira
gishyigikiye
gishyira
gishyita
gishyuha
gishyushye
gisibo
gisigaye
gisigo
gisilovaki
gisimba
gisimenti
gisirikare
gisirikari
gisivili
gisobanura
gisobanuro
gisohoka
gisomali
gisosiyalisiti
gisotho
gisovu
gisoza
gisozi
gisubizo
giswahili
giswayili
gita
gitabo
gitagaloge
gitagatifu
gitaha
gitajiki
gitaliyani
gitambi
gitamili
gitaminsi
gitanda
gitandukanye
gitanga
gitangaje
gitange
gitangira
gitangwa
gitarama
gitaramo
gitari
gitatari
gitau
gitayi
gitega
giteganijwe
gitegerejwe
gitegura
gitegurwa
gitekereje
gitekerezo
gitekwa
gitera
giterane
gitero
giterwa
gitesi
gitetse
giteye
giti
giticyinyoni
gito
gitoki
gitondo
gitose
gitovu
gitoya
gitsina
gitsura
gitswana
gitukura
gituma
gitumbuka
gitunganya
gitunguru
gituruka
gituruki
giturukimeni
giturukiya
gituwe
gitwa
gitwaza
gitwe
give
given
giza
gj
gjashte
gje
gkc
gks
glacial
glaciei
gladiator
gladys
glamour
glareola
glasgow
glaucidium
glaxosmithkline
glitz
glitzafrica
glo
global
globalisation
globalpost
globe
globefeed
gloria
glory
glosbe
glucose
gmail
gmbh
gnlu
gnonlonfin
go
goal
goat
goatsandsoda
gobero
god
godelie
godelieve
godhra
godliver
gods
goed
goes
goethe
goharshad
going
goingoutguide
goings
goire
gold
golden
golek
goma
gomantaka
gombe
gombuj
gomes
gomez
gonarezhou
gonc
good
goodluck
goodman
goodreads
goodrich
google
gopal
gopie
gorbachev
gordian
gordon
gore
goreth
gorilla
gorillas
goronulande
gororoka
gospel
gossips
got
gothenburg
gou
goumba
gourevitch
gouverneur
gov
goverinoma
governance
government
governments
governor
govhar
goye
goyemide
gq
gr
grac
grace
gracien
gracilirostris
grade
grader
graduate
graduated
graham
gram
grammy
grand
grande
grands
grange
grano
grant
grantii
grants
grantshttps
graphic
gras
graset
gratien
grave
gray
gre
great
greater
greece
greek
green
greene
greenwich
gref
greg
gregory
grenade
grenville
grey
gridcolor
gride
grigny
grimme
grimms
gringo
grises
grolia
grond
groot
groove
gros
gross
grosso
grote
ground
group
groupe
groupid
groups
grover
grow
growing
growth
grozny
gruiformes
gryhound
gs
gsa
gsob
gt
gu
gua
guadeloupe
guardian
guatemala
guca
gucamo
gucana
gucapa
guceceka
gucengera
gucht
gucibwa
gucika
gucikamo
gucira
gucogora
gucukumbura
gucukura
gucumbikira
gucunga
gucura
gucuranga
gucurangira
gucurangisha
gucurangwa
gucuruza
gucutsa
gucyura
gue
guerouabi
guerra
guerre
guesso
guest
guests
gueye
gufasha
gufashwa
gufata
gufatanya
gufatira
gufatirwa
gufatwa
gufotora
gufumbira
gufunga
gufungirwa
gufungura
gufungurwa
gufungwa
gufurura
gugu
guha
guhabwa
guhagarara
guhagararira
guhagararirwa
guhagarika
guhagarikwa
guhaguruka
guhagurutsa
guhaha
guhakana
guhakura
guhamagara
guhamagarwa
guhambanwa
guhambira
guhamiriza
guhamya
guhana
guhanagura
guhanahana
guhanga
guhangana
guhangarwa
guhangayika
guhangwa
guhanura
guhara
guharanira
guhashya
guhata
guhatana
guhatanira
guhaza
guheka
guhekenya
guhemba
guhera
guhererekanya
guhesha
guheta
guhezwa
guhiga
guhigima
guhimba
guhimbaza
guhina
guhinda
guhinduka
guhindukirira
guhindura
guhinduranya
guhindurirwa
guhindurwa
guhinga
guhingira
guhingwa
guhingwamo
guhirika
guhisha
guhita
guhitamo
guhitwa
guhohotera
guhohoterwa
guhora
guhorana
guhubuka
guhugura
guhumana
guhumbika
guhumeka
guhunga
guhungabana
guhungabanya
guhungira
guhunika
guhura
guhurira
guhuriza
guhurizwa
guhuza
guhuzwa
guichet
guide
guidelines
guides
guido
guild
guillermina
guincho
guine
guinea
guinee
guinness
gujarat
gukabije
gukabya
gukama
gukamura
gukanda
gukandagira
gukandamiza
gukangurira
gukaraba
gukaresa
gukata
gukaza
gukebwa
gukeka
gukemura
gukendera
gukenera
gukina
gukinamo
gukinana
gukingira
gukingirwa
gukinira
gukinirwa
gukinisha
gukinishwa
gukinwa
gukira
gukirana
gukiza
gukizwa
gukodesha
gukoloniza
gukoma
gukomatanya
gukomera
gukomereka
gukomeretsa
gukomeretswa
gukomereza
gukomeye
gukomeza
gukonja
gukonjesha
gukonoza
gukora
gukoraho
gukorana
gukorera
gukoreramo
gukorerwa
gukorerwamo
gukoresha
gukoreshwa
gukorora
gukorwa
gukuba
gukubana
gukubita
gukubitwa
gukumira
gukunda
gukundana
gukundisha
gukundwa
gukura
gukuraho
gukuramo
gukurikira
gukurikirana
gukurikiranwa
gukurikiranya
gukurikirwa
gukurikiza
gukurikizwa
gukurira
gukurura
gukururwa
gukusanya
gukusanywa
gukuyakuya
gukuza
gukwa
gukwirakwira
gukwirakwiza
gukwirakwizwa
gularis
guljan
gum
guma
gumamurugo
gun
guns
gupfa
gupfukama
gupfusha
gupiganirwa
gupima
gupimwa
gupta
gurgi
gurira
gurria
gurwanya
gusa
gusaba
gusabana
gusabira
gusabwa
gusakara
gusama
gusambanya
gusana
gusanga
gusangira
gusanwa
gusarana
gusarura
gusarurwa
gusasa
gusaza
gusebanya
guseka
gusenga
gusengera
gusenya
gusenyuka
gusesa
gusesengura
gusetsa
gusezera
gusezerana
gushabura
gushaka
gushakashakisha
gushakira
gushakisha
gusharira
gushashagirana
gushibuka
gushidikanya
gushima
gushimangira
gushimangirwa
gushimira
gushimirwa
gushimisha
gushimishwa
gushimuta
gushimwa
gushinga
gushingira
gushingwa
gushira
gushiraho
gushiramo
gushishikariza
gushobora
gushonga
gushora
gushotorana
gushushanya
gushwanyagurika
gushwanyaguza
gushwanyaguzwa
gushya
gushyigikira
gushyigikirwa
gushyikirana
gushyingira
gushyingiranwa
gushyingirwa
gushyingo
gushyingura
gushyira
gushyiraho
gushyiramo
gushyirwa
gushyirwaho
gushyirwamo
gushyuha
gushyukwa
gushyushya
gusiba
gusibwa
gusifura
gusiga
gusiganwa
gusigara
gusigasira
gusilamura
gusilamurwa
gusimbuka
gusimbura
gusimburanya
gusimburwa
gusimbuza
gusimbuzwa
gusinya
gusinyana
gusinyira
gusinywa
gusinzira
gusiramura
gusiramurwa
gusobanuka
gusobanukirwa
gusobanura
gusobanurwa
gusogongera
gusohoka
gusohora
gusohoza
gusoma
gusomana
gusonza
gusoza
gustav
gusubira
gusubiramo
gusubiza
gusuhuza
gusuka
gusukira
gusukura
gusunika
gusura
gusurwa
gususurutsa
gusuzugura
gusuzuma
gusuzumwa
gusya
guta
gutabara
gutabaruka
gutabarwa
gutabwa
gutaha
gutahuka
gutahura
gutaka
gutakaza
gutambuka
gutandukana
gutandukanya
gutandukanywa
gutanga
gutangaza
gutangazwa
gutangira
gutangiza
gutangwa
gutaramira
gutashya
gute
gutega
guteganya
gutegeka
gutegekesha
gutegekwa
gutegereza
gutegura
gutegurwa
guteka
gutekereza
gutekesha
gutekwa
gutema
gutembera
gutemberamo
gutera
guterana
guteranya
guterekera
guterera
gutereta
guterres
guterura
guterwa
gutesha
guteta
guteza
gutezimbere
gutierrez
gutinda
gutinya
gutinyuka
gutitira
gutiza
gutobora
gutondekwa
gutontoma
gutora
gutoranya
gutoranywa
gutorerwa
gutoroka
gutorwa
gutoteza
gutotezwa
gutoza
gutozwa
gutsinda
gutsindagira
gutsindira
gutsindwa
gutubuka
gutubya
gutuganya
gutukana
gutukura
gutuma
gutumanaho
gutumba
gutumira
gutumirwa
gutumiza
gutumizwa
gutunga
gutungana
gutunganya
gutunganywa
gutunguranye
gutura
guturamo
guturika
guturuka
gutuza
gutwara
gutwarwa
gutwika
gutwikira
gutwikurura
gutwikwa
gutwita
gutya
gutyo
guverinema
guverineri
guverinima
guverinoma
guy
guyana
guyane
guys
gw
gwami
gwanki
gwantanamo
gwasi
gwatemala
gwaza
gwiza
gws
gy
gye
gyr
gys
h
ha
haart
haba
habaga
habaho
habamo
habanza
habarirwa
habarizwa
habarurema
habaye
habayeho
habe
habeel
habeho
habera
haberaga
habereye
habi
habib
habimana
habineza
habitat
habo
haboneka
habonekamo
habonetse
habugenewe
habumuremyi
habyalimana
habyarimana
hachemi
hachkar
hacye
hacı
had
hadi
hadidja
hadija
hadithi
hadj
hadley
hafashwe
hafez
hafi
hafite
hafunguwe
hagahin
hagakomeza
hagakorwa
hagakurikiraho
hagamijwe
hagaragajwe
hagaragara
hagaragaramo
hagaragaye
hagaragayemo
hagari
hagashyirwa
hagashyirwaho
hagasigaramo
hagati
hagaɵ
hagen
hagenda
hagendewe
hagendeye
hagenewe
hagenia
hagenimana
haggiag
hagicucu
hagiye
hagize
hagomba
hagoranye
haguruka
hahanamye
hahandi
hahise
hahoe
hahoraho
hai
haile
haine
hair
hairstyle
haiti
haje
hajja
hajjah
hajjaj
hajya
hajyaho
haka
hakaba
hakabaho
hakamera
hakan
hakaza
hakenerwa
hakenewe
hakim
hakiri
hakiyongeraho
hakizimana
hakka
hakkar
hakomeje
hakomeye
hakonje
hakorerwa
hakoreshejwe
hakoreshwa
hakorwa
hakozwe
hakubahirizwa
hakunze
hakurikijwe
hakurikiraho
hakurya
hakuziyaremye
hala
halcyon
half
halfa
halim
hall
hama
hamad
hamagara
hamamaye
hamaze
hambere
hamburg
hamelink
hamenyekana
hamenyekane
hamenyekanye
hameraho
hameze
hamid
hamidiye
hamilton
hamiss
hamlyni
hammas
hammouda
hampshire
hamwe
hand
handball
handbook
hande
handel
handi
handicap
handicraft
handle
hands
hane
hanga
hangana
hangu
hani
hania
hanifa
hanika
hanini
hano
hans
hanssen
hantu
hanu
hanyuma
hanze
hapfa
hapfuye
hapimwa
haplogroup
happiness
happy
har
haracyakorwa
haracyari
haram
harambee
haramoko
harangije
haranira
harare
harbour
harcourt
hard
harding
harebwe
harerimana
hari
harigihe
hariho
harimo
haringingo
harinzwe
hariya
harlekin
harlem
harlequin
harmattan
harnessed
harold
harolimana
harper
harriet
harris
harrison
harry
hartfield
hartwig
haruguru
haruna
harvard
harvest
harvesting
has
hasan
hashingiwe
hashinzwe
hashize
hashobora
hashtag
hashyirwaho
hashyizwe
hashyizweho
hashyushye
hasi
hasigara
hasigaye
hasinywe
hasohotse
hassan
hassani
hasukuye
hasuwe
hasuzumwe
hatabayeho
hataboneka
hatagira
hatameramo
hatanakoreshejwe
hatandukanye
hatangajwe
hatangijwe
hatangiye
hatangizwe
hatangwa
hataniye
hatanzwe
hatari
hatatu
hatavuzwe
hate
hateganijwe
hategeka
hategekimana
hategurwa
hateguwe
hatekerejwe
haterwa
hateye
hatitawe
hato
hatose
hattingh
hatubahirizwa
haturwa
hatuwe
hatwikiriwe
hausa
haut
haute
havamo
havana
havard
have
haven
haver
havugwa
havuka
havumbuwe
havutse
haw
hawa
hawaii
hawayi
hawe
hayat
haye
hayes
hayiti
haymana
hayrettin
hayy
haza
hazaba
hazabaho
hazaho
hazakenerwa
hazamo
hazava
hazaza
hazwi
hbo
hcards
hd
hdi
hdl
hdr
he
head
headed
headquarters
health
healthcare
heard
heart
heat
heaven
heavenly
heavy
heb
hebben
hebdo
hebe
hec
hectares
heeft
heerden
heffes
hefzy
heg
hegel
hegitare
hegitari
hehe
heidemarie
heidi
height
heilige
heineken
heinrich
heinz
heirs
heist
hej
hejuru
held
helena
helene
heliopolis
hell
hellula
help
helped
helper
helping
helproadshowsmartrwandadayslistofparticipants
helsinki
helst
hemisphere
hemorrhoid
hend
henderson
hendrik
henk
hennie
henri
henrietta
henriette
henrique
henry
henshi
hepatite
hepatitis
hepfo
her
hera
herald
herbert
hercegovina
here
heres
heritage
herizegovina
hermajestyvanessa
herman
herminiimonas
hernie
herniette
hero
heroes
herouville
herpes
herpesvirus
herself
herve
herzegovina
het
hey
heydar
heydariye
heyns
heza
hhv
hi
hibandwa
hibiscus
hiciwe
hiderabadi
hidja
hier
hierdie
hifashishije
hifashishijwe
hifashishwa
hifuzwa
higanjemo
high
higher
highest
highland
highlandwedding
highlighted
highlights
highly
higiro
hihariye
hiherereye
hihishe
hij
hija
hilarious
hilary
hill
hillary
hills
him
himalaya
himself
hinari
hind
hindiro
hindura
hinjiramo
hino
hip
hiphop
hippo
hirami
hirengeye
hirindwa
hirondelle
hiroshima
hirtle
hirundo
hirwa
hirya
his
hisar
hishwe
hishyuwe
histoire
historical
historique
history
historydaily
hit
hitamo
hitimana
hitler
hits
hitu
hitwa
hiv
hiva
hiyongeraho
hiyongereyeho
hizihizwa
hl
hlengiwe
hmroc
hmtl
ho
hobday
hochzeitsmahl
hoe
hoekwater
hoest
hoffman
hoggar
hogofulu
hoi
hol
hola
holcim
hold
holdings
holds
holi
holland
hollande
hollywood
hollywoodhttps
hollywoodreporter
holmes
holocaust
holocene
holy
home
homeland
homer
homme
homo
hon
hondo
hondurasi
hong
hongerwe
hongiriya
hongo
hongyang
honor
honorable
honorary
honorine
honoris
honors
honour
honourable
honourables
honoured
honours
honte
honyine
hoop
hoops
hoover
hop
hope
hopes
hopkins
hopscotch
horn
horoshye
horror
horst
hortense
hose
hosehttps
hospital
hospitality
host
hosts
hot
hotel
hoteli
hotels
hoteri
houden
houdini
houlihan
hounkpatin
hour
hours
house
housemate
houston
how
howard
hoziana
hoʔe
hp
hpv
hr
hrte
hrung
hrvatski
hrvwiki
hso
htm
html
htmlhttp
htmlhttps
htmlyari
http
https
hu
huaisheng
hub
hubahirizwa
hubatswe
hubby
hubert
hubris
huda
huffington
huffingtonpost
huge
hugh
hughes
hugo
huis
huisgenoot
huit
hulu
human
humane
humanitaire
humanity
humble
humidite
humour
humphrey
humutse
hun
hungarian
hunt
hunter
hunting
huriro
hurrell
hurst
husayn
husband
huseni
hush
hussein
husseni
huston
hutu
huye
hvussu
hw
hwoc
hy
hybrid
hyderabad
hydro
hydropower
hyenas
hykie
hyper
hyperleap
hypertension
hystrix
i
ia
iaaf
iab
iaccelerator
iaido
ian
iapo
iara
ib
iba
ibaba
ibabi
ibadan
ibagiro
ibaha
ibahasha
ibaho
ibamo
ibana
ibandi
ibanga
ibango
ibanza
ibanze
ibara
ibaraza
ibarerera
ibarizwa
ibarura
ibaruramari
ibarurisha
ibarurishamibare
ibaruwa
ibarwa
ibasha
ibashe
ibashishikariza
ibasirwa
ibategeka
ibaye
ibazwa
ibe
ibendera
ibera
iberanye
ibere
ibero
ibi
ibibabi
ibibanza
ibibari
ibibaya
ibibazo
ibibembe
ibibera
ibibi
ibibondo
ibibuga
ibibwana
ibibyimba
ibicanwa
ibice
ibiciro
ibicishije
ibicu
ibicumbi
ibicurane
ibicurangisho
ibicuruzwa
ibicyeri
ibidafite
ibidukikije
ibidukikijehttps
ibifite
ibiganiro
ibiganza
ibigaragaza
ibigega
ibigendanye
ibigenderwaho
ibigeragezo
ibigereranyo
ibigize
ibigo
ibigoli
ibigolihttps
ibigomba
ibigori
ibiguruka
ibigwana
ibigwi
ibihaha
ibihangange
ibihangano
ibihano
ibihaza
ibihe
ibihekane
ibihembo
ibihembohttps
ibihembwe
ibiheri
ibihimbano
ibihingwa
ibihozo
ibihugu
ibihuha
ibihumbi
ibihumyo
ibihuru
ibihwagari
ibijumba
ibijyanye
ibika
ibikapu
ibikapuhttps
ibikenerwa
ibikenewe
ibikennye
ibikinisho
ibikoko
ibikombe
ibikomere
ibikomoka
ibikora
ibikorerwa
ibikoresho
ibikoro
ibikorwa
ibikorwaremezo
ibikorwaremezohttps
ibikurikira
ibikururanda
ibikururuka
ibikwiye
ibilo
ibimanuka
ibimasa
ibimenyetso
ibimera
ibimonyo
ibimuga
ibimuhuza
ibimyira
ibin
ibindi
ibindis
ibingana
ibinini
ibintu
ibinure
ibinyabijumba
ibinyabiziga
ibinyabutabire
ibinyabuzima
ibinyagu
ibinyamakuru
ibinyamisogwe
ibinyampeke
ibinyamushongo
ibinyasukari
ibinyejana
ibinyobwa
ibinyoma
ibinyomoro
ibinyoro
ibinyugunyugu
ibinyujije
ibinyuranye
ibipimo
ibipupe
ibir
ibirahuri
ibirambuye
ibiranga
ibirangandwara
ibirangirire
ibirango
ibiraro
ibirayi
ibirebana
ibirego
ibiremwa
ibirenge
ibirenze
ibirenzeho
ibireti
ibiri
ibiribwa
ibiriho
ibirimo
ibirindiro
ibiro
ibirombe
ibirometero
ibirongoranywa
ibirori
ibirunga
ibirunge
ibirungo
ibirura
ibirushijeho
ibirwa
ibiryo
ibisa
ibisabwa
ibisakuzo
ibisambo
ibisanzwe
ibisasu
ibisazi
ibisebe
ibiseke
ibisekuru
ibisekuruza
ibisenge
ibishanga
ibishashara
ibishegabo
ibisheke
ibishishwa
ibishoboka
ibishushanyo
ibishya
ibishyimbo
ibisi
ibisiga
ibisigazwa
ibisigo
ibisimba
ibisingizo
ibisobanuro
ibisohoka
ibisonga
ibisubizo
ibisumizi
ibitabo
ibitambaro
ibitanda
ibitanga
ibitangaje
ibitangaza
ibitangazamakuru
ibitaramo
ibitare
ibitaro
ibiteganijwe
ibitego
ibitekerezo
ibitera
ibitero
ibiti
ibitoki
ibitonyanga
ibitotsi
ibitse
ibitsina
ibitsinsi
ibitukura
ibitunguru
ibituruka
ibivuga
ibivugwa
ibiyaga
ibiyobyabwenge
ibiza
ibizamini
ibizazane
ibiziga
ibizwi
ibn
ibobere
iboberi
ibona
ibone
iboneka
ibonekamo
ibonekerwa
iboneye
iboze
ibrahim
ibujyakuzimu
ibuka
ibumba
ibumoso
ibungabunga
ibungabungwa
ibura
iburasirazuba
iburasirazubahttps
iburayi
iburengerazuba
iburengerazubahttps
iburyo
ibutare
ibuye
ibuza
ibwagura
ibwagure
ibwami
ibwiriza
iby
ibya
ibyabaye
ibyabereye
ibyabitswe
ibyabo
ibyagaciro
ibyagezweho
ibyago
ibyaha
ibyahishuwe
ibyaho
ibyakozwe
ibyamamare
ibyambu
ibyamubayeho
ibyamuranze
ibyana
ibyanditswe
ibyangiza
ibyangombwa
ibyanya
ibyara
ibyaremwe
ibyari
ibyaro
ibyashyizwe
ibyataburuwe
ibyateganijwe
ibyatsi
ibyatuma
ibyatumye
ibyavuye
ibyavuzwe
ibyayi
ibye
ibyegeranyo
ibyemezo
ibyerekanwe
ibyerekeranye
ibyerekeye
ibyiciro
ibyifuzo
ibyimanyi
ibyingenzi
ibyino
ibyinshi
ibyinwa
ibyiringiro
ibyishimo
ibyitso
ibyitwa
ibyivugo
ibyiyoni
ibyiyumvo
ibyiza
ibyo
ibyobya
ibyoherezwa
ibyokurya
ibyondo
ibyonnyi
ibyorezo
ibyubaka
ibyubatswe
ibyuka
ibyuma
ibyumba
ibyumweru
ibyuririzi
ibyuya
ica
icapiro
icatsi
icc
ice
icegeranyo
iceland
ichele
ichiro
ici
iciriritse
iciro
iciye
ick
icm
icn
icon
icons
icpar
icrc
ict
ictd
ictr
ictsd
icu
icuka
icukije
icumbi
icumbikiye
icumi
icumu
icunga
icungamari
icungamutungo
icupa
icuruzwa
icy
icya
icyace
icyago
icyagombaga
icyaha
icyahoze
icyakora
icyalubaniya
icyamamare
icyambere
icyambu
icyamuzinuye
icyanga
icyanya
icyapa
icyarabu
icyaragoneze
icyari
icyarimwe
icyaro
icyarumeniya
icyasuturiya
icyatsi
icyatumye
icyayi
icyegeranyo
icyelamite
icyemezo
icyena
icyenda
icyerekezo
icyesipanyole
icyesipanyoli
icyesiperanto
icyesitoniya
icyewe
icyewonaviya
icyewondo
icyi
icyicaro
icyiciro
icyifuzo
icyinterlingue
icyirangantego
icyiraro
icyitegererezo
icyitonderwa
icyivugo
icyiyone
icyiyoni
icyiza
icyizere
icyo
icyogajuru
icyogere
icyogihe
icyondi
icyondo
icyongereza
icyongerezahttps
icyorezo
icyoriya
icyoromo
icyororo
icyoseje
icyosetiya
icyubahiro
icyudimuriti
icyugaritike
icyuhagiro
icyuho
icyuma
icyumba
icyumbundu
icyumi
icyumweru
icyunamo
icyungo
icyuveya
id
idafite
idahagije
idaharanira
idahosa
idahuje
idahura
idahwitse
idakanga
idakingiye
idakira
idakunda
idakurikiza
idasaba
idasanzwe
idashingiye
idashobora
idasobanukiwe
idasobanutse
idasubira
idatojwe
ide
idea
ideal
ideas
idenari
idenge
identification
identifier
identify
identities
identity
idfa
idi
idindira
idini
idoa
idolari
idoma
idris
idrissou
idubu
iduka
ie
ieew
ierland
if
ifad
ifapp
ifaranga
ifarashi
ifarine
ifasha
ifashe
ifashwe
ifasi
ifata
ifatabuguzi
ifatanije
ifatanya
ifatanye
ifatika
ifatwa
ifcinema
ifeanyi
ifeza
iffr
ifg
ifi
ifirimbi
ifiriti
ifishi
ifitanye
ifite
ifitiwe
ifitiye
ifitwe
ifmsa
ifoto
ifpma
ifra
ifrc
ifu
ifufu
ifumbire
ifunga
ifungura
ifunguro
ifunguye
ifungwa
ifunze
ig
igaba
igabana
igabanuka
igabanya
igabanye
igabanyuka
igabanywa
igaburira
igaburo
igakomeza
igakora
igakoreshwa
igakurikirwa
igamije
igana
iganisha
igaragara
igaragaramo
igaragaye
igaragaza
igaragazwa
igare
igaruka
igarukira
igashimisha
igashyirwa
igast
igasubirwamo
igatanga
igatangira
igatera
igaterwa
igazeti
igbo
igc
igejeje
igenamigambi
igenda
igendanwa
igenewe
igenga
igengwa
igenzura
igenzurandwara
igera
igerageza
igeragezwa
igere
igereranijwe
igereranya
igereranywa
igeze
igezweho
igf
ighodaro
igi
igice
igiceceni
igiceke
igiceri
igicewa
igiciro
igico
igicokitawu
igicucu
igicumbi
igicumbinews
igicumucumu
igicunshu
igicuvashi
igifaransa
igifero
igifijiyani
igifinilande
igifoni
igifu
igifulama
igifungo
igifuniko
igihagararo
igihanga
igihangange
igihano
igihawusa
igihaza
igihe
igiheburayo
igihembo
igihembwe
igiherero
igihihimba
igihimba
igihinde
igihingwa
igihinyage
igiholandi
igihombo
igihome
igihondohondo
igihongiriya
igihu
igihubutsi
igihugu
igihuguhttps
igihumbi
igihupa
igihura
igihuru
igikakarubamba
igikamba
igikapu
igikatalani
igikazaki
igikerewole
igikinisho
igikirigizi
igikoma
igikomangoma
igikombe
igikomere
igikomeye
igikondo
igikoni
igikoresho
igikoreya
igikorwa
igikundiro
igikuri
igikuriro
igikuyu
igikwiye
igipfunyika
igipimo
igiporutigali
igiporutugali
igira
igisabo
igisakuzo
igisangungu
igisansikiriti
igisasu
igisavumvuri
igisebe
igisekuru
igisekuruza
igisenge
igishanga
igishinwa
igishishwa
igishoro
igishuhe
igishushanyo
igishusho
igishyimbo
igishyito
igisibo
igisigara
igisigo
igisilovaki
igisimba
igisingizo
igisirikare
igisirikari
igisobanuro
igisonga
igisoro
igisubizo
igisukari
igisura
igiswahili
igiswahiri
igiswayili
igiswayire
igitabo
igitajiki
igitaka
igitaliyani
igitambo
igitamili
igitangaje
igitangaza
igitangira
igitaramo
igitego
igitekerezo
igitenetene
igitera
igiterane
igiteranyo
igitero
igiti
igitinyiro
igitoborwa
igitoki
igitokihttps
igitondo
igitotsi
igitovu
igitsina
igitsinagore
igituba
igitugu
igitumbuka
igitunguru
igituntu
igiturage
igiturukimeni
igiturukiya
igitutu
igiye
igize
igizwe
iglesia
ignatienne
ignite
igogorwa
igomba
igor
igorofa
igoye
iguhugu
iguma
igura
iguriro
igurishwa
igwa
igweja
igwingira
iha
ihabara
ihabwa
ihagarariwe
ihagarariye
ihagaze
ihagije
ihahamuka
ihame
ihamye
ihana
ihanamye
ihangana
ihangane
ihanitse
iharanira
ihari
ihazabu
ihe
ihema
ihembe
iheme
ihene
ihenze
iherekejwe
iherere
iherereye
ihereye
iherezo
iheruka
iherutse
ihf
ihimbaza
ihindagurika
ihinduka
ihindura
ihindurwa
ihindurwamo
ihinga
ihingwa
ihirika
ihirikwa
ihita
ihitamo
ihitana
ihohoterwa
ihomye
ihora
ihoraho
ihore
ihorere
ihuje
ihujwe
ihumanya
ihumeka
ihumura
ihumure
ihungabana
ihunika
ihura
ihurira
ihuriro
ihuriweho
ihuriye
ihuza
ihuze
ihuzwa
ii
iii
iisd
iita
ijabiro
ijabo
ijambo
ijana
ijanisha
ije
ijigija
ijimye
ijipo
ijisho
ijonjora
ijoro
ijosi
ijuru
ijwi
ijya
ijyana
ijyanye
ijye
ik
ikaba
ikabashimisha
ikabije
ikabikwa
ikabutura
ikabyara
ikagenda
ikagera
ikagira
ikajya
ikamba
ikamera
ikampa
ikamuye
ikamwa
ikamyo
ikanagira
ikanakorwa
ikanatanga
ikanezeza
ikanuka
ikanyura
ikanzu
ikara
ikaramu
ikarayini
ikarishye
ikarita
ikasiya
ikawa
ikayoborwa
ikaza
ikazakurwa
ikazamuka
ikaze
ikazenguruka
ikedieze
ikegera
ikegeranya
ikenera
ikenewe
ikeneye
ikenne
ikennye
ikerene
ikhlas
iki
ikibabaje
ikibabi
ikibaho
ikibantu
ikibanza
ikibarisho
ikibatsi
ikibaya
ikibazo
ikibeho
ikibi
ikibonezamvugo
ikibonobono
ikibuga
ikibulugariya
ikibumbano
ikibuye
ikibyimba
ikibyimbye
ikicaro
ikiciro
ikidage
ikigage
ikigali
ikigalisiya
ikigande
ikiganiro
ikiganza
ikigaragara
ikigega
ikigeragezo
ikigereki
ikigereranyo
ikigero
ikigibo
ikigihe
ikigina
ikigishanga
ikigisosa
ikigo
ikigore
ikigori
ikigoyi
ikiguzi
ikigwarara
ikihe
ikihishe
ikijuju
ikijumba
ikikije
ikikoramo
ikilatini
ikilativiya
ikilazi
ikilituwaniya
ikilivoniya
ikilo
ikiluba
ikimara
ikimarishali
ikimasa
ikimasedoniyani
ikimenyabose
ikimenyetso
ikimera
ikimero
ikimokisha
ikimoteri
ikimungu
ikina
ikinamico
ikinamicohttps
ikinamo
ikinanira
ikindi
ikinege
ikingira
ikingirwa
ikingiye
ikinimba
ikinira
ikinirwa
ikintu
ikinwa
ikinwamo
ikinya
ikinyabiziga
ikinyabupfura
ikinyabutabire
ikinyabuzima
ikinyadeneta
ikinyafino
ikinyafurikansi
ikinyagihumbi
ikinyakokaze
ikinyamakuru
ikinyampeke
ikinyamushongo
ikinyankore
ikinyaperisi
ikinyarwanda
ikinyasemiti
ikinyaturukiya
ikinyawositoroneziya
ikinyazeribayijani
ikinyejana
ikinyiga
ikinyirilande
ikinyobwa
ikinyomoro
ikinyuranyo
ikipe
ikipehttps
ikirago
ikiraka
ikiranga
ikirangantego
ikirangirire
ikirango
ikirapanuyi
ikiraro
ikiratini
ikirato
ikirayi
ikire
ikirego
ikiremwa
ikiremwamuntu
ikirene
ikirenga
ikirenge
ikirere
ikirerehttps
ikirezi
ikiri
ikiribwa
ikirimo
ikiriyo
ikiromanisi
ikirombe
ikiruhuko
ikirukana
ikirundi
ikirunga
ikirusiya
ikirwa
ikitabazwa
ikitabwaho
ikitaringanira
ikitegererezo
ikitwa
ikivenda
ikivoro
ikivuguto
ikivungovongo
ikivurahinda
ikiyaga
ikiyapani
ikiyitera
ikiza
ikizaba
ikizami
ikizamini
ikize
ikizere
ikizimyamuliro
ikiziranyenzi
ikomatanya
ikomatanyabukungu
ikomeje
ikomera
ikomerekeye
ikomeye
ikomeza
ikomoka
ikongerera
ikonje
ikora
ikorana
ikoranabuhanga
ikoranabuhangahttps
ikoraniro
ikore
ikorera
ikorerwa
ikoresha
ikoresheje
ikoreshwa
ikoreshwe
ikorinto
ikorwa
ikorwamo
ikosa
ikote
ikoti
ikoze
ikozwe
iktas
ikubitir
ikubitiro
ikubiyemo
ikubye
ikumira
ikunda
ikundwa
ikungahaye
ikungeri
ikunja
ikunze
ikunzwe
ikura
ikureho
ikurikira
ikurikirana
ikurikiranye
ikurikirwa
ikurikiza
ikurura
ikurwa
ikusanya
ikuze
ikuzimu
ikwirakwira
ikwirakwiza
ikwirakwizwa
ikwiranye
ikwiye
il
ilc
ilde
ile
ilham
ili
iliad
ilibagiza
ilingala
illadopsis
illinois
illness
illuminati
ilo
ilorin
ilpd
ils
ilw
im
image
images
imagine
imahanga
imam
imamu
iman
imana
imanahttps
imandwa
imaniriho
imanishimwe
imanza
imanzi
imara
imararungu
imaret
imari
imashini
imasoro
imax
imaze
imbabare
imbabazi
imbabura
imbaga
imbaho
imbamutima
imbangukiragutabara
imbara
imbaraga
imbarutso
imbata
imbazi
imbeba
imbehe
imbeho
imberakuri
imbere
imberehttps
imbibe
imbibi
imbitse
imboga
imbogamizi
imbogo
imbohe
imbona
imbonankubone
imbonekarimwe
imbonerahamwe
imborera
imboro
imbuga
imbumbe
imbunda
imburagihe
imbusane
imbuto
imbutofoundation
imbwa
imbwebwe
imbyaro
imbyeyi
imbyino
imbyonyi
imdb
imegidendere
imena
imenye
imenyekana
imenyekane
imenyesha
imera
imeri
imeze
imf
imfashabere
imfashanyigisho
imfashanyo
imfatiro
imfizi
imfubyi
imfungwa
imfura
imfurayacu
img
imibabaro
imibanire
imibare
imibereho
imibi
imibiri
imibonano
imibu
imibyizi
imico
imicungire
imidari
imideli
imideri
imidido
imidugudu
imigabane
imigambi
imigani
imigano
imigaragarire
imigati
imigenzo
imigeri
imigeze
imigezi
imigi
imigisha
imigozi
imigwegwe
imihanda
imihango
imiheha
imihigo
imihindagurikire
imihoro
imijyi
imikaya
imikindo
imikino
imikoranire
imikorere
imikoreshereze
imikurire
iminara
imineke
iminota
iminsi
iminwa
iminyago
iminyorogoto
imipaka
imipira
imirambo
imirasire
imirasiretv
imirenge
imiribwa
imirima
imirimo
imiringoti
imirire
imiriro
imirishyo
imirizo
imirongo
imirwa
imirwano
imiryango
imisambi
imisanzu
imisatsi
imisemburo
imishahara
imishinga
imishingiriro
imishwi
imishyikirano
imisigiti
imisoro
imisozi
imitako
imitanyu
imitegekere
imitego
imitegurire
imiteja
imitekerereze
imitere
imiterere
imiti
imitima
imitingito
imitobe
imitoma
imitsi
imitsindo
imitunganyirize
imitungo
imiturire
imitwaro
imitwe
imivugire
imivugo
imivumba
imivunde
imivurungano
imiyobora
imiyobore
imiyoborere
imiyoboro
imizi
imizigo
imiziki
imiziririzo
imiziro
immacule
immaculee
immi
immunodeficiency
immunosuppression
imo
imodoka
imoh
impact
impagarara
impaka
impala
impamba
impamo
impamvu
impamya
impamyabumenyi
impamyabumyenyi
impamyabushobozi
impande
impanga
impano
impanuka
impanya
impapuro
impara
imparage
impashyi
impatwe
impeke
imperial
imperialism
imperuka
impeshyi
impeta
impfu
impfubyi
impimbano
impinduka
impinduramatwara
impine
impinja
impirimbanyi
impiswi
implants
implementation
impongo
important
impresarios
imprisonment
impromptu
improving
improvised
impu
impuguke
impuha
impuhwe
impumuro
impumyi
impundu
impungenge
impunzi
impuruza
impuzamashyirahamwe
impuzandengo
impyiko
impyisi
imt
imuhira
imunga
imungu
imurika
imurikabikorwa
imurikagurisha
imutera
imva
imvaho
imvahonshya
imvange
imvano
imvaruganda
imvubu
imvugo
imvune
imvura
imvururu
imvuvumu
imwaka
imwe
imwehttps
imwemerera
imyaka
imyakura
imyambarire
imyambaro
imyambi
imyanda
imyandikire
imyanya
imyanzuro
imyato
imyembe
imyemerere
imyenda
imyidagaduro
imyifatire
imyigaragambyo
imyigire
imyigishirize
imyinshi
imyitozo
imyitwarire
imyiyerekano
imyizerere
imyobo
imyororokere
imyubakire
imyuga
imyuka
imyumbati
imyumbatihttps
imyumvire
imyunyu
imyunyungugu
imyuzure
in
ina
inabategeka
inabi
inagaragaramo
inama
inana
inanasi
inanc
inanda
inanga
inani
inararibonye
inaugural
inauguration
inc
incamake
inciting
include
including
inclusion
inclusive
inclusivesecurity
inconnu
incorporates
increasing
incredible
increment
incubator
incuke
incuro
incuti
inda
indaba
indabo
indabyo
indagara
indagi
indahemuka
indahiro
indamutsa
indangagaciro
indangaminsi
indangamuntu
indanganturo
indashyikirwa
indatwa
indaya
inde
indege
indembe
indengera
independe
independent
indeshyo
index
indi
india
indian
indiana
indianspice
indiba
indica
indicator
indie
indiegogo
indiewire
indigenous
indimi
indimu
indiri
indirimbo
indishyi
individu
individual
indobanure
indogoba
indogobe
indonesia
indonesiya
indoneziya
indorerezi
indoto
induru
indurwe
industrial
industries
industry
indwanyamikorobi
indwanyi
indwara
indwi
indyo
ine
ineg
inege
inenge
ines
ineza
infected
infection
infections
infero
infinity
infirmie
inflation
inflexion
influential
influenza
info
information
informations
infrastructure
ing
inga
ingabe
ingabire
ingabo
ingabohttps
ingagi
ingamba
ingamiya
ingana
inganda
ingando
ingangi
inganji
ingano
inganzo
ingaragu
ingaruka
ingasire
ingeli
ingemwe
ingendo
ingengabitekerezo
ingengo
ingentaconnect
ingenzi
ingeri
ingero
ingese
ingeso
ingewe
ingimbi
ingingo
ingirabuzimafatizo
ingirakamaro
ingirakamarohttps
ingo
ingofero
ingoma
ingombajwi
ingomero
ingona
ingonokera
ingorabahizi
ingorane
ingore
ingoro
ingufu
ingufugin
inguge
ingunzu
ingurane
ingurube
inguzanyo
ingwa
ingwate
ingwe
inheemse
inhibitor
inhibitors
ini
inigi
inigwahabiri
inilak
initiative
initiatives
injangwe
injeniyeri
injiriro
injyana
inka
inkambi
inkamire
inkanda
inkanga
inkangu
inkari
inkarishya
inkeli
inkende
inkengero
inkera
inkeragutabara
inkesha
inkiko
inkima
inkindi
inking
inkingi
inkingo
inko
inkoko
inkokokazi
inkokoubworozi
inkombe
inkomere
inkomo
inkomoko
inkondo
inkongi
inkongoro
inkoni
inkono
inkoranyamagambo
inkorora
inkota
inkotanyi
inkotanyihttps
inkovu
inkuba
inkuga
inkumbi
inkumi
inkunda
inkunga
inkura
inkuru
inkuta
inkuyu
inkwano
inkwavu
inkweto
inkwi
inline
inn
inne
innocent
innovation
innovative
innovators
ino
inomero
inoze
ins
insanganyamatsiko
inseko
insenda
inshinga
inshingano
inshinge
inshuke
inshuro
inshuti
inshutiarts
inshutso
inside
insimbura
insina
insinga
insoro
inspiration
inspire
inspired
inst
instagram
instance
institut
institute
institutfrancais
institution
institutions
instructors
instruments
instyle
insulin
insurance
int
intabera
intabwa
intagondwa
intaho
intama
intambara
intambi
intambwe
intandaro
intanga
intangangore
intangarugero
intangiriro
intango
intara
intare
intayoberana
inte
intebe
integanyanyigisho
intege
integer
intego
integrase
integrated
integration
intekerezo
inteko
intellectual
intelligence
intembe
inter
intera
interahamwe
interest
interested
interesting
interet
interfaces
interinet
interineti
interior
internacional
internal
international
internationale
internet
internetwork
intersexions
intertropical
interuro
interventricular
interview
interviews
intestinal
intestine
intete
intgovforum
intgovurubuga
intimba
intiti
intizanyo
intl
into
intoke
intoki
intore
intoryi
intoya
intra
intrahealth
introduced
introduction
intsinzi
intumbero
intumwa
intunga
intungamubiri
inturugunyu
intwali
intwararumuri
intwari
intwaro
intyoza
inuma
invasive
invented
invest
investment
investments
investor
investors
invests
invite
invloed
involvement
inyabarasanya
inyagazi
inyajwi
inyama
inyamabere
inyamanswa
inyamaswa
inyamata
inyambo
inyamswa
inyana
inyandiko
inyangamugayo
inyange
inyanja
inyanya
inyarwanda
inyemezabumenyi
inyenyeri
inyenzi
inyeshyamba
inyeyurudu
inyigisho
inyigo
inyinshi
inyito
inyo
inyoko
inyongera
inyoni
inyota
inyubako
inyuguti
inyuma
inyumba
inyungu
inyunguhttps
inyura
inyuramo
inyuranye
inyuze
inzahabu
inzandiko
inzangano
inzara
inzego
inzibacyuho
inzibutso
inzira
inzirakarengane
inzirane
inzitane
inzitiramubu
inzitizi
inzobe
inzobere
inzoga
inzogera
inzoka
inzora
inzovu
inzozi
inzu
inzugi
inzuki
inzuri
inzuzi
io
ioc
iol
ion
iother
iowa
ipa
ipamba
ipapaya
ipar
ipb
iperereza
ipeti
ipfa
ipfunwe
ipima
ipine
ipl
iprage
iprc
iprchuye
iprcs
iprctumba
ipt
ir
ira
irabagiza
irabora
iracyari
iradukunda
iragabanuka
iragaragaza
iragira
irahagije
irahari
irahinda
irake
iraki
irakinguye
irakoreshwa
irakoze
irakundwa
irambona
irambuye
irambye
iramutse
iran
iranatekereza
irandura
iranga
irangamuntu
irangi
irangira
irangiye
irangwa
irani
iranzi
iraq
iraqia
irari
irarira
iraryama
irasaba
irashaka
irashimisha
irashize
irashobora
irashyize
irasobanura
irasubiza
iraswa
iratandukanye
iratangira
irateganya
iratera
iratuzi
irazenguruka
irazwi
irct
ire
ireba
irebenet
irebere
irekura
irekurwa
ireland
irembo
ireme
iremereye
iremezo
iremwa
irene
irenga
irengera
irengero
irenze
irere
irerekana
irerekanwa
irerero
ireshya
iri
iriba
iribagiza
iribanews
iriburiro
irigwe
irihimbano
iriho
irikumwe
irilande
irimbi
irimbuka
irimo
irinda
irinde
irindi
irindwi
iriphabliki
iririmbira
iris
irish
irishyirahamwe
iriya
irkutsk
irlande
iron
irondakoko
irondo
irononekara
iroza
iruhande
iruka
irumbo
irunga
irungu
irusha
irushaho
irushanwa
iruta
irwanya
irwara
irwin
iry
irya
iryama
iryera
iryinyo
iryo
is
isa
isaac
isaba
isabel
isabelle
isabukuru
isabune
isabwa
isae
isaga
isaha
isakaza
isakazabumenyi
isakazamakuru
isake
isakramentu
isamaza
isambu
isanduku
isangano
isango
isangostar
isano
isanwa
isanzwe
isar
isaro
isazi
isbaheysiga
isbn
isch
ise
isederera
isekurume
isengesho
isenyuka
iserukira
iserukiramuco
iseseme
isesemi
isesengura
iseswa
isetsa
isezera
isezerano
isfahan
ishaba
ishaje
ishaka
ishakiro
ishakisha
ishakwe
ishami
ishati
isheja
ishema
ishhr
ishi
ishidikanya
ishima
ishimangira
ishimishije
ishimwa
ishimwe
ishimwehttps
ishinga
ishingamategeko
ishingano
ishingiro
ishingiye
ishingiyeho
ishingwa
ishinjwa
ishinya
ishinzwe
ishira
ishirahamwe
ishishikarize
ishishikarizwa
ishize
ishoboka
ishobora
ishora
ishoramari
ishu
ishuli
ishure
ishuri
ishushanya
ishushanyije
ishusho
ishwagara
ishya
ishyaka
ishyamaba
ishyamba
ishyanga
ishyano
ishyigikira
ishyigikiwe
ishyigikiye
ishyira
ishyirahamwe
ishyiraho
ishyirwa
ishyirwaho
ishyize
ishyo
ishyushye
isi
isibaya
isibo
isidingo
isidingos
isidore
isiga
isiganwa
isigara
isigaye
isihttps
isii
isilamu
isilande
isima
isimbi
isime
isiraheli
isiraheri
isirayeli
isithembiso
isiyaka
iskr
islam
islamabad
islamique
islamu
island
islands
islas
ismael
ismahane
ismail
ismaili
ismiecnhj
iso
isobanura
isobanurwa
isobanutse
isobekeranye
isogi
isogisi
isogo
isohoka
isohora
isoko
isolo
isoma
isombe
isomero
isomo
isonga
isoni
isoniazid
isono
isosi
isosiyete
isoza
isozaamashuri
isparta
israel
isreal
issa
issue
issues
issuu
ist
istanbul
istiqamah
istiqlal
isubiramo
isubiza
isugi
isuhuka
isuka
isukari
isuku
isukura
isukuye
isumba
isumbuye
isumo
isura
isuran
isuri
isuzuma
isuzumwa
it
ita
itabaro
itabi
itabiriye
itabye
itadowa
itafari
itagaragara
itagaragararira
itagaragarira
itagazamakuru
itagira
itaha
itaka
italia
italian
italiano
italiki
italy
itambuka
itamu
itandatu
itandukana
itandukanijwe
itandukaniro
itandukanya
itandukanye
itandukanyijwe
itanduza
itanga
itangaje
itangaza
itangazamakuru
itangazo
itange
itangira
itangirana
itangiranye
itangirira
itangiriro
itangiye
itangiza
itangizwa
itangwa
itanu
itapi
itara
itaramenyekana
itari
itariki
itarimo
itatanye
itatse
itatu
itatuhttps
itava
itavugwaho
itavuwe
itazanduza
itaziguye
itazwi
itcz
ite
itegamiye
iteganijwe
iteganya
itegeko
itegekongenga
itegekonshinga
iteghete
itegura
itegurwa
iteka
itekanye
iteko
item
itemba
iteme
itemerwa
itemewe
itemid
items
itera
iterabwoba
iteramakofe
iterambere
iterana
iteraniye
itererana
iterwa
iteye
iteza
iti
itigeze
itikafu
itike
itinda
itishoboye
itora
itorero
itoroshye
itorwa
itotezwa
itoto
itotobahoranye
its
itself
itsembabwoko
itsinda
itsindangishwanama
itsindwa
itsura
itu
itukura
ituma
itumanaho
itumba
itume
itumiza
itunganijwe
itunganya
itunganywa
itungo
ituranye
ituritswa
ituruka
iturutse
ituwe
ituye
ituze
itwa
itwara
itwaye
iucn
ius
iv
iva
ivan
ivangura
ivanguramoko
ivanjili
ivanovo
ivanze
ive
ivermectine
iverson
ivi
ivoire
ivory
ivu
ivuga
ivugabutumwa
ivugurura
ivugururwa
ivuguruye
ivugwa
ivuka
ivuko
ivunjisha
ivura
ivuriro
ivurwa
ivutse
ivuye
ivyabona
iwabo
iwacu
iwacumarket
iwanyu
iwar
iwawa
iwawe
iwayo
iwe
ix
ixzz
iy
iya
iyabo
iyahoze
iyambere
iyamuremye
iyangirika
iyerekwa
iyi
iyicarubozo
iyicwa
iyihe
iyindi
iyinjira
iyinjizamo
iyinzu
iyirmi
iyitwa
iyke
iyo
iyobokamana
iyobora
iyoborwa
iyobowe
iyubahirizwa
iyubakwa
iyunganira
iz
iza
izaba
izabafasha
izabera
izabukuru
izafasha
izahabu
izajya
izakinwa
izakomeza
izamu
izamuka
izamura
izana
izanwa
izarushaho
izashimangira
izashyirwa
izashyirwe
izasohoka
izatangira
izaza
ize
izenguruka
izera
izere
izerekanwa
izerimana
izi
izibyaye
izidatemye
izifite
izimaze
izina
izindi
izingiro
iziri
izitarwaye
izitegurwamo
izitwa
izivangiye
izmir
izo
izongera
izuba
izunguruka
izuru
izwi
izwiho
j
ja
jaar
jabana
jac
jack
jackie
jackson
jacob
jacobs
jacqueline
jacques
jada
jadf
jado
jae
jagdish
jager
jah
jahan
jahresarchive
jahrmarkt
jailed
jair
jakaranda
jakarta
jakaya
jali
jalil
jallow
jam
jama
jamaat
jamae
jamaica
jamaika
jamayika
jamayike
jambo
jamek
james
jamhuri
jami
jamia
jamie
jamkaran
jammer
jamus
jan
jane
janeiro
janet
janeyiro
janice
janisha
jansen
janssens
january
janvier
japan
japanese
jarama
jardin
jarrid
jasmine
jason
jatibarang
jattu
java
javan
javanix
javier
jawatha
jay
jazama
jazeera
jazz
jd
je
jean
jeanette
jeanne
jeannette
jebel
jedi
jedwab
jeff
jefferson
jeffery
jeffrey
jehovah
jembit
jenda
jenerali
jenetike
jeneve
jenita
jenkins
jennifer
jenocide
jenoside
jericho
jerise
jerome
jerry
jersey
jerusalem
jesenice
jesesi
jesse
jessica
jessie
jesus
jeudi
jeune
jeuneafrique
jeunes
jeunesse
jeworujiya
jezzar
jhu
ji
jiangsu
jibuti
jide
jij
jim
jimmie
jimmy
jinan
jinja
jinjia
jiosaavn
jireh
jisho
jizzo
jjuuko
jkhttps
jlica
jm
jnr
jo
joa
joannah
joaquim
job
jobcenter
jobinrwanda
jobs
joburg
jocelyn
jock
joe
joey
johan
johann
johannes
johannesburg
johannesburgs
john
johnny
johns
johnscott
johnson
join
joins
joint
joji
jojo
jolie
jolly
jomba
jombo
jomo
jon
jonas
jonathan
jones
jordan
jorge
joro
jos
jose
joselyn
joselyne
joseph
josette
josh
joshua
josiane
josue
josza
jou
jour
journal
journalism
journalist
journalists
journals
journey
joy
joyce
joyeuse
jozi
jp
jpeg
jpg
jr
js
jstor
ju
juba
jubilee
judaism
judicaelle
judiciary
judith
judo
judy
jugler
jugling
juice
juin
jules
julia
juliana
julie
julienne
juliet
juliette
julio
julius
july
juma
jumaa
jumia
jun
junction
june
jungle
junior
juno
juru
jury
just
justagric
justice
justiceinfo
justin
juve
juvenal
juwaneziburu
jw
jwi
jy
jya
k
ka
kaas
kaba
kabacuzi
kabaganza
kabagari
kabageni
kabagire
kabale
kabanda
kabango
kabano
kabare
kabarebe
kabari
kabarizwa
kabarondo
kabarore
kabasengerezi
kabash
kabatwa
kabaya
kabaye
kabazo
kabbatende
kabendera
kabera
kaberahttps
kaberuka
kabeza
kabgayi
kabila
kabili
kabiri
kabirihttps
kabo
kabone
kaboneka
kabongo
kabuga
kabuhariwe
kabul
kabumba
kaburimbo
kabuye
kabyiniro
kacyira
kacyiru
kada
kadaga
kaddu
kade
kader
kadhimiya
kadiri
kado
kaduha
kaduna
kae
kaga
kagaba
kagabanijwemo
kagali
kagame
kagano
kagarama
kagari
kagarukiraga
kagashya
kagera
kagere
kageyo
kagga
kagira
kagire
kagirimpundu
kagizwe
kagogo
kagoma
kagomba
kagoro
kagoyire
kagufi
kagugu
kaguta
kagwa
kah
kahina
kahinduriwe
kahiu
kahiuhttps
kahn
kahoze
kahramanmaras
kai
kaijuka
kairouan
kaitesi
kajangwe
kajiado
kajuga
kajugujugu
kajya
kaka
kakaba
kakoma
kakomeje
kakrail
kala
kalahari
kalanchoe
kalasha
kale
kalecik
kalema
kalendari
kalenderhane
kalenjin
kalgan
kalibata
kalidoniya
kaligirwa
kalihangabo
kalimantana
kalimba
kalimpinya
kalisa
kalisimbi
kalisiyumu
kaliyandara
kalsaka
kalushi
kama
kamabuye
kamagaju
kamal
kamali
kamaliza
kamanzi
kamariza
kamaro
kamau
kamayirese
kamaze
kamba
kambanda
kambodiya
kamboje
kamegeli
kamegeri
kamembe
kamena
kamera
kamere
kameroen
kameron
kameruni
kamichi
kamikazi
kaminiza
kaminski
kaminuza
kaminuzahttps
kamkwamba
kamonyi
kamoza
kamp
kampala
kampani
kampara
kampeta
kampiouzepo
kampong
kampung
kamuli
kamunuza
kamwe
kana
kanada
kanaka
kanakuze
kanama
kanata
kanater
kandi
kandida
kandidatire
kandihttps
kandt
kandti
kane
kaneza
kangana
kanguka
kani
kaniga
kanimba
kanini
kanjongo
kankan
kankwanzi
kano
kanombe
kanoze
kanseri
kansi
kansiime
kant
kantegwa
kantengwa
kantesi
kantu
kanwa
kanya
kanyange
kanyangeyo
kanyankore
kanyarwanda
kanyinya
kanyombya
kanyomozi
kanzenze
kanziza
kao
kaouther
kapitan
kapiteni
kaposi
kapote
kapu
karabu
karago
karagoz
karagwe
karahanyuze
karama
karaman
karambi
karambo
karamira
karande
karangazi
karangwa
karanj
karanja
karaoke
karasira
karate
karateka
karato
karayibe
karbala
karbide
kare
kareba
karekezi
karektas
karel
karemano
karemara
karembo
karemera
karen
karengane
karenge
karengera
karenzi
karera
karere
karerehttps
kareremba
kari
kariba
karibu
karidinali
karidinari
karigirwa
karigombe
karimo
karindari
karindwi
karinga
karisimbi
karisiyumu
karisoke
kariya
kariza
karlovy
karnivali
karoli
karongi
karongihttps
karoti
kars
kartal
kartenhaus
karubanda
karubone
karuhimbi
karuruma
karusisi
kas
kasbah
kasete
kaseti
kashe
kashira
kasho
kasi
kasigaye
kasim
kasimov
kastamonu
kasubi
katana
katanga
katangiranye
katari
katauti
kate
katedirali
katedrali
katende
katese
kateye
kathia
kathmiyah
kathy
katiba
katinka
katjavivi
katleho
kato
katung
katwe
kau
kauatu
kava
kavaruganda
kaviri
kavukire
kavumu
kavuna
kawa
kawempe
kawera
kawo
kay
kaya
kayangel
kayele
kayenzi
kayibanda
kayihura
kayikosi
kayiranga
kayirangwa
kayirebwa
kayisire
kayitankore
kayitare
kayitesi
kayo
kayoborwa
kayonga
kayonza
kayseri
kayumba
kayumbu
kazakhstan
kazakisitani
kazan
kazarwa
kazdag
kazdal
kazeneza
kazengurutse
kazi
kaziga
kazo
kazu
kazungu
kazwi
kb
kbela
kc
kcb
kcbgroup
kck
kcrc
kdi
ke
kec
kecapu
keen
keennan
keeping
kefeli
keita
keith
keizerstraat
kelia
keling
kelly
kemeje
kemi
kemtiyu
ken
kena
kenia
kennedy
kenneth
kenny
kenshi
kent
kentucky
kenya
kenyabuzz
kenyahttps
kenyan
kenyans
kenyanvibe
kenyas
kenyatta
kenzo
kepler
kera
kerala
kereka
kerekana
kerere
keretse
kerneels
kerry
kerstin
keruruka
kesearch
keshubhai
kesiya
ketchaoua
ketting
keutel
kevin
kevine
key
keza
kfm
kg
kgb
kgbayi
kgl
kgsp
kgspis
kh
khadija
khaldun
khalid
khalil
khama
khan
khana
khanya
khanym
kharkiv
khartoum
khartum
khattab
kherson
khi
khoja
khonakhan
khor
khotan
khouribga
khulu
khumalo
khumi
khusruwiyah
ki
kiba
kibagabaga
kibaho
kibaki
kibalama
kibamo
kibangamiye
kibangu
kibanjari
kibanza
kibarinde
kibaya
kibaye
kibazo
kibe
kibeho
kibengali
kibera
kibi
kibifashwamo
kibikwa
kibilizi
kibirizi
kibisi
kibisilamu
kibitangaza
kibiyaga
kibogo
kibogora
kiboneka
kibonezamvugo
kibonge
kibonke
kibuga
kibugabuga
kibujijwe
kibuli
kibulugariya
kibumbano
kibumbwe
kibungo
kibuno
kibura
kibutse
kibuye
kibyarwa
kicd
kiciro
kickin
kicks
kics
kicukiro
kid
kidafite
kidage
kidaharanira
kidakaze
kidanwa
kidasanzwe
kidashoboka
kidatonoye
kids
kie
kiev
kiffian
kiga
kigabanyijemo
kigabiro
kigabo
kigakora
kigal
kigali
kigalian
kigalicity
kigalihttps
kigalitoday
kigaliwomen
kigamije
kigana
kiganiro
kiganisha
kigapfunyarara
kigaragara
kigaragaza
kigarama
kigari
kigega
kigeli
kigenda
kigendera
kigenewe
kigenga
kigenzura
kigera
kigereki
kigereranyayo
kigereranyo
kigero
kigeze
kigibo
kigihugu
kigina
kigira
kigirira
kigisosa
kigiye
kigize
kigizwe
kigo
kigoma
kigomba
kigufi
kigwa
kihuta
kijya
kijyambere
kijyana
kijyanye
kikaba
kikabora
kikac
kikagera
kikagira
kikananuka
kikava
kiki
kikwete
kilakarai
kilamidiya
kilatini
kilativiya
kilazi
kilcher
kilimanjaro
kilis
kilituwaniya
kiliziya
kill
killed
killer
killers
kilo
kilometero
kilometerokare
kilometre
kilometres
kilwa
kim
kimalayalamu
kimalayi
kimaldivezi
kimani
kimara
kimarishali
kimasedoniyani
kimaze
kimberley
kimberly
kimeneke
kimenyetso
kimenyi
kimera
kimeza
kimeze
kimihurura
kimironko
kimisagara
kimokisha
kimonako
kimora
kimoteri
kimwe
kin
kina
kinabalu
kinakakumira
kinamico
kinazi
kinberg
kind
kinderen
kindi
kinekor
king
kingana
kingdom
kings
kingston
kinigi
kinihira
kinini
kinks
kino
kinolorber
kinoni
kinshasa
kintobo
kintu
kinunu
kiny
kinya
kinyababa
kinyabiziga
kinyabosiniya
kinyabulugariya
kinyafurika
kinyafurikansi
kinyageworugiya
kinyagihumbi
kinyaholande
kinyakorowasi
kinyalubaniya
kinyamakuru
kinyamarike
kinyampeke
kinyamwuga
kinyanoruveji
kinyaperisi
kinyarumaniya
kinyarwanda
kinyarwandahttps
kinyaseribiya
kinyasiloveniya
kinyasuwede
kinyatibeti
kinyaviyetinamu
kinyazeribayijani
kinyejana
kinyendonisiya
kinyinya
kinyirilande
kinyobwa
kinyura
kinzimba
kipe
kira
kirabiranya
kirabo
kiragaragara
kirago
kirambuye
kirambye
kiramuruzi
kiranga
kirangiriraho
kirangiye
kirangiza
kirango
kirangwa
kirapanuyi
kiraro
kirasa
kirazira
kirebana
kirego
kirehe
kirekire
kiremereye
kirenga
kirenge
kirenze
kirenzeho
kirere
kirezi
kiri
kiribati
kiribwa
kirigizisitani
kiriho
kiriketi
kirimbuzi
kirimo
kiringaniye
kirisatura
kirisito
kirisitu
kiriya
kiriziya
kirkii
kirombe
kirometero
kiruhanije
kiruhije
kiruhuko
kiruhura
kirundi
kirundo
kirusha
kirushye
kirusiya
kiruta
kirwa
kirwanya
kirwaye
kirwayehttps
kisangani
kisaro
kisilamu
kisiwani
kismayo
kiss
kissfm
kist
kisumu
kiswe
kita
kitabi
kitabı
kitageze
kitagira
kitamenyekanye
kitap
kitarenze
kitari
kitazwi
kitchen
kitoko
kitoroshye
kitsi
kitts
kituo
kitwa
kitwaga
kiva
kivanzemo
kivenda
kivoro
kivu
kivubelt
kivuga
kivugwa
kivura
kivuye
kiwaluni
kiwani
kiyaga
kiyahudi
kiyapani
kiyobowe
kiyovu
kiyumba
kiza
kizaba
kizafasha
kizagera
kizakorera
kizamini
kizarangira
kizatanga
kizaza
kizigenza
kiziguro
kizima
kizimkazi
kizimyamoto
kizira
kizito
kizungu
kizwi
kizwiho
kk
klab
klara
klein
km
kminuza
kmp
kn
knc
knf
knight
knot
know
knowledge
knowledgebank
knowles
knowless
known
knox
ko
kobe
kobo
koca
kocatepe
koch
kode
koffi
kofi
koga
kogeza
kogosha
kohereza
koherezwa
kojo
koko
kole
koleji
kolera
kolkata
kolombiya
kolomyagi
koloneli
koma
komeza
komezart
komezusenge
komine
komini
komiseri
komisiyo
komite
komoguel
komore
kompanyi
komt
konare
kondomu
kong
kongera
kongere
kongerera
kongerwa
kongo
kongohttps
koninkryk
konkombure
konotop
konrad
konsa
konserwatori
konseye
konti
kony
konya
kopen
koperative
kopi
kora
korali
korari
korea
korean
koreografiya
koresha
korewe
koreya
koridor
koridoro
koroha
korohereza
koronavirusi
koror
korora
kororera
kororerwa
kororoka
koroshya
korowani
korowasiya
korowatiya
korsakov
kose
kosita
kosoko
kosovo
kota
kote
kotze
kouam
koumba
koundi
kountable
kourouma
koutouan
koutoubia
kouyate
koweti
kowloon
koza
koze
kozwa
kp
kpai
kpr
kramer
krimi
krischka
krisito
krisitu
kristaline
kristo
kristu
kruger
krump
krupp
krus
krw
ks
ksar
kso
kt
ktora
ktpress
ktradio
ku
kuala
kub
kuba
kubabara
kubabarira
kubabikora
kubabumva
kubabwira
kubabyeyi
kubabyinnyi
kubafasha
kubafata
kubafite
kubaga
kubagabo
kubaganga
kubaganiriza
kubagara
kubagarwa
kubagenzi
kubagira
kubagore
kubagwa
kubaha
kubahana
kubahanzi
kubahindurira
kubahinzi
kubahiriza
kubahirizwa
kubaho
kubahugura
kubaka
kubakiriya
kubakisha
kubakobwa
kubakorerwa
kubakoresha
kubakozi
kubakwa
kubamaze
kubamenyesha
kubamo
kubana
kubandwa
kubangamira
kubangurira
kubangurirwa
kubantu
kubanyamuryango
kubanyamwuga
kubanyeshuri
kubanza
kubara
kubareba
kubarinda
kubarizwa
kubarwayi
kubasha
kubashyira
kubasomyi
kubatera
kubateza
kubateze
kubatizwa
kubaturage
kubatuye
kubavugira
kubavura
kubayinenga
kubaza
kubazwa
kubenegihugu
kubera
kuberako
kuberana
kubere
kuberekana
kubeshya
kubibazo
kubibika
kubibona
kubibungabunga
kubica
kubicuruzwa
kubidashoboka
kubidukikije
kubigeraho
kubigeza
kubigisha
kubigo
kubigondera
kubigura
kubihabwa
kubihekenya
kubihinga
kubihisha
kubihunika
kubijyanye
kubika
kubikora
kubikoresha
kubikoresho
kubikorwa
kubikunda
kubikuza
kubikwa
kubimenya
kubindi
kubintu
kubinyabuzima
kubira
kubirya
kubisabira
kubisanga
kubishyira
kubisobanura
kubisubizo
kubitangazamakuru
kubitekerezo
kubitera
kubivuga
kubizana
kuboha
kubohereza
kubohora
kubohoza
kuboko
kubona
kubonana
kuboneka
kuboneza
kubongerera
kubonsa
kubora
kuboza
kubucuruzi
kubufatanye
kubufumbiza
kubuhanga
kubuhinzi
kubukungu
kubumbatira
kubunda
kubungabunga
kubungabungwa
kubuntu
kubura
kuburanishwa
kuburiganya
kuburira
kuburobyi
kuburyo
kubushakashatsi
kubushake
kubushobozi
kubuso
kubutaka
kubutegetsi
kubuvuzi
kubuza
kubuzima
kubuzwa
kubw
kubwa
kubwibyo
kubwimana
kubwimpamvu
kubwinshi
kubwira
kubwiriza
kubwitaho
kubwo
kubwubatsi
kubwububiko
kubyara
kubyarana
kubyaza
kubyerekeranye
kubyerekeye
kubyibuha
kubyimba
kubyina
kubyinira
kubyo
kubyuka
kubyumva
kubyutsa
kuchi
kudahubukira
kudakoresha
kudapfa
kudashobora
kudashyira
kudasobanukirwa
kudatinya
kudeta
kudindiza
kudoda
kudu
kudus
kufa
kufuor
kugaba
kugabana
kugabanuka
kugabanukamo
kugabanya
kugabanyirizwa
kugabanyuka
kugabanywa
kugabanywamo
kugaburira
kugaburirwa
kugagara
kugahesha
kugana
kugandukira
kuganira
kuganirwaho
kugaragara
kugaragaza
kugaruka
kugarukira
kugarura
kugarurwa
kugasongero
kugemekwa
kugemura
kugena
kugenda
kugendana
kugendera
kugendwamo
kugenera
kugenzura
kugenzurwa
kugera
kugerageza
kugeraho
kugereranya
kugerwaho
kugeza
kugezwa
kugikora
kugira
kugirana
kugirango
kugirara
kugirira
kugirirwa
kugirwa
kugisha
kugisohora
kugiteka
kugiti
kugitike
kugitunganya
kugona
kugorana
kugota
kuguma
kugumana
kugura
kugurisha
kugurishwa
kuguriza
kugurizanya
kuguruka
kugurwa
kugwa
kuhagera
kuhakorera
kuhasanga
kuhasura
kuhatura
kuhava
kuhira
kui
kujugunya
kujugunywa
kujya
kujyamo
kujyana
kujyenda
kujyira
kuke
kuki
kukibuga
kukigo
kukirisha
kuko
kukuba
kulturele
kuma
kumabuye
kumajwi
kumanika
kumanikwa
kumanwa
kumanywa
kumara
kumasenu
kumasha
kumashuri
kumashusho
kumaso
kumasoko
kumasosiyete
kumateka
kumazina
kumbh
kumbuga
kumekucha
kumena
kumenera
kumenya
kumenyakana
kumenyekana
kumenyekanisha
kumenyera
kumenyesha
kumera
kumererwa
kumi
kumibereho
kumigenzo
kumihanda
kumikorere
kumisha
kumiterere
kumkani
kummer
kumpande
kumpera
kumubera
kumubiri
kumubwira
kumubyara
kumufasha
kumufata
kumugabane
kumugani
kumugaragaro
kumugezi
kumugira
kumuha
kumuhamba
kumuhana
kumuhanda
kumuka
kumukibita
kumukoresha
kumumenya
kumunsi
kumuntu
kumupaka
kumurika
kumurikira
kumurikirwamo
kumurongo
kumuryango
kumushinga
kumushyingura
kumusozi
kumusozo
kumutera
kumutima
kumuvuduko
kumuvuna
kumuyoboro
kumuziki
kumuzingo
kumva
kumvikana
kumvisha
kumvugo
kumwaka
kumwana
kumwanya
kumwe
kumwonsa
kumyaka
kumyandikire
kunaga
kunama
kunanirwa
kunda
kundirimbo
kunegura
kunene
kunenga
kunengwa
kung
kunga
kungana
kunganira
kunganya
kungeza
kungoma
kungufu
kunguka
kungukirwa
kungurana
kunja
kunle
kunnya
kunoza
kunozwa
kunshuro
kuntego
kuntu
kunyara
kunyerera
kunyereza
kunyundo
kunyura
kunyuzwa
kunywa
kunywera
kuragira
kuragura
kuraguza
kurakara
kuramba
kurambagiza
kurambirwa
kuramukanya
kuramya
kurandura
kuranga
kurangaza
kurangira
kurangirira
kurangiza
kurangwa
kurara
kurasa
kure
kureba
kurebera
kurebwa
kurega
kureka
kurekura
kurekurwa
kurema
kuremba
kurenga
kurengana
kurengera
kurenza
kurenze
kurera
kuri
kuribwa
kuriha
kurikirana
kurimbuka
kurimo
kurinda
kurindwa
kuringaniza
kurira
kuririmba
kuririmbana
kuririmbira
kurisha
kuriwe
kuriyi
kuroba
kuroga
kurokoka
kurokora
kurongora
kurpfalz
kuru
kurubu
kurubuga
kurubyiniro
kurugero
kuruhande
kuruhu
kuruhuka
kuruhukira
kuruka
kurukuta
kuruma
kurumwa
kurundi
kurupapuro
kurusha
kurushaho
kurushanwa
kurushinga
kuruta
kurutonde
kurwana
kurwanira
kurwanya
kurwara
kurwaragurika
kurwego
kurya
kuryama
kuryamana
kuryana
kuryoha
kurzprosa
kutabasha
kutabivugaho
kutabona
kutagaragaza
kutagira
kutamenya
kutavuga
kutavugwaho
kutemera
kuti
kutigunga
kutiremereza
kutita
kutonsa
kutubahiriza
kutumva
kutumvikana
kutzbach
kuva
kuvaho
kuvamo
kuvana
kuvanaho
kuvanamo
kuvanga
kuvangavanga
kuvangura
kuvanwa
kuvoma
kuvomera
kuvomerera
kuvuga
kuvugako
kuvugana
kuvugira
kuvugurura
kuvugururwa
kuvugwa
kuvuka
kuvukira
kuvumbura
kuvuna
kuvunika
kuvunja
kuvura
kuvurwa
kuvuza
kuwa
kuwornu
kuwubona
kuwundi
kuya
kuyabona
kuyagiraho
kuyamamaza
kuyandura
kuyashyira
kuyifata
kuyigenzura
kuyigira
kuyiha
kuyihagarika
kuyihesha
kuyihuza
kuyikingira
kuyikira
kuyikora
kuyikoresha
kuyikunda
kuyirinda
kuyirwanya
kuyirwara
kuyita
kuyitanga
kuyivamo
kuyivanga
kuyivumbura
kuyivura
kuyobora
kuyobya
kuza
kuzaba
kuzajya
kuzamuka
kuzamura
kuzamurwa
kuzana
kuzategura
kuzenguruka
kuzerera
kuzey
kuziba
kuzibona
kuzibukira
kuzifatanyamo
kuzigama
kuziha
kuzikuriraho
kuzimangana
kuzimira
kuzimu
kuzimya
kuzirikana
kuzirwanya
kuzisangira
kuzitera
kuzitunga
kuzubaka
kuzungura
kuzunguruka
kuzura
kuzuza
kuzuzanya
kuzuzwa
kviff
kw
kwa
kwabana
kwabantu
kwabaterankunga
kwabayeho
kwabena
kwabo
kwagaragaye
kwaguka
kwagura
kwaha
kwahira
kwakira
kwakirwa
kwaku
kwakurikiyeho
kwamamara
kwamamaza
kwamateka
kwambara
kwambarwa
kwambere
kwambika
kwambikwa
kwambuka
kwambukiranya
kwambura
kwame
kwandika
kwandikisha
kwandikwa
kwandura
kwanduriramo
kwanduza
kwanduzwa
kwanga
kwangirika
kwangiza
kwangizwa
kwanika
kwanikwa
kwari
kwarley
kwashiorkor
kwatumye
kwatura
kwawe
kwawo
kwayo
kwazulu
kwe
kwegera
kwegerana
kwegeranya
kwegereza
kwegukana
kwegura
kwegurira
kweku
kweli
kwemera
kwemerera
kwemererwa
kwemerwa
kwemeza
kwemezwa
kwenga
kwera
kwerekana
kwerekanwa
kwerekera
kwerekeza
kwesa
kwetu
kweza
kwezi
kwi
kwiba
kwibagirwa
kwibagisha
kwibanda
kwibandaho
kwibasira
kwibasirwa
kwibaza
kwibera
kwibeshaho
kwibeshya
kwibiti
kwibohora
kwibuka
kwibumbira
kwibutsa
kwica
kwicara
kwicira
kwicirwaho
kwicwa
kwidagadura
kwidagadurira
kwifashisha
kwifashishwa
kwifata
kwifatanya
kwifotoza
kwifunga
kwifuza
kwiga
kwigaho
kwigana
kwigaragaza
kwigarurira
kwigenga
kwigira
kwigirira
kwigisha
kwigomeka
kwigunga
kwigurira
kwigwaho
kwiha
kwihagarika
kwihangana
kwihanganira
kwihangira
kwihaza
kwiheba
kwihesha
kwihimbaza
kwihisha
kwihorera
kwihugura
kwihuta
kwihutira
kwihutisha
kwihuza
kwijana
kwijandika
kwikinisha
kwikoma
kwikoranabuhanga
kwikorera
kwikura
kwimakaza
kwimenyereza
kwimika
kwimikwa
kwimuka
kwimukira
kwimura
kwimurirwa
kwimurwa
kwimya
kwinaza
kwinezeza
kwinjira
kwinjiramo
kwinjiza
kwinjizwa
kwinshi
kwinyuma
kwipimisha
kwira
kwirinda
kwirindwa
kwiririmbira
kwiruka
kwirukana
kwirukanwa
kwirwanaho
kwisanga
kwisanzura
kwisatura
kwishakira
kwishima
kwishimira
kwishimisha
kwishingikiriza
kwishora
kwishura
kwishuri
kwishyira
kwishyiriraho
kwishyura
kwisi
kwisiga
kwisilamuza
kwisiramuza
kwisoko
kwisonga
kwisubiraho
kwisuzumisha
kwita
kwitaba
kwitabira
kwitabwaho
kwitaho
kwitandukanya
kwitanga
kwitangira
kwitegereza
kwitegura
kwitera
kwiteza
kwitiranya
kwitirirwa
kwitonda
kwitondera
kwitoza
kwituma
kwitura
kwitwa
kwitwara
kwitwararika
kwivanga
kwivuga
kwivuguruza
kwivuriza
kwivuza
kwiyahura
kwiyakira
kwiyamamariza
kwiyamamaza
kwiyambaza
kwiyandarika
kwiyandikisha
kwiyegereza
kwiyegurira
kwiyemeza
kwiyerekana
kwiyita
kwiyongera
kwiyoroshya
kwiyubaka
kwiyubakira
kwiyuhagira
kwiyumvamo
kwiyunga
kwizera
kwizerana
kwizigama
kwizigamira
kwizigira
kwizihiza
kwizihizwa
kwizina
kwumwaka
ky
kya
kyiv
kzn
kıbrıs
kılıc
kırklareli
kırs
kırıkkale
kızılcahamam
l
la
laan
laat
lab
label
labelled
labor
laboratoire
laboratwari
labouba
labour
labs
ladies
ladji
lady
laetitia
lafras
lagonosticta
lagos
lague
lahmar
lahore
laid
laika
laikipia
laisse
lake
lakemba
lakes
lakhdar
lala
lalama
laleli
lama
lamattina
lambert
lamche
lamia
lamido
lamivudine
lamprotornis
lamu
lan
lancet
land
lande
landing
lando
landoald
landrace
lands
landscape
lane
lang
langa
langiri
langon
language
languages
langue
laniarius
lanius
lanka
lannea
lansana
laongo
laos
laptop
lar
lara
larabanga
larcier
large
largeau
larry
larus
las
last
late
latency
later
laterano
laterit
latest
latimes
latin
latina
latite
lativiya
laugh
launch
launched
launches
laura
laureat
laureate
lauren
laurent
laurie
lav
lava
law
lawosi
lawrence
laws
layer
layoussifi
lbas
lbrahim
lccn
lcp
ldk
le
lea
lead
leader
leaders
leadership
leading
leaf
league
learn
learning
leather
leave
leaves
lebanon
leben
leconomie
lecture
lecturer
led
lee
leeds
leenwoorde
lefilmcamerounais
left
legacy
legal
legend
legendary
legends
legis
legislative
legit
lego
legrain
lehma
lehoko
leibbrandt
leighton
leila
leilah
leipzig
leisure
lekker
lekota
lekrik
lemonde
lena
lenana
lenin
leningrad
lenny
lentivirus
lentiviruses
leo
leoafricainstitute
leon
leonard
leonardo
leone
leonotis
leontiev
lepoint
ler
lerato
leroy
les
lesena
lesia
lesite
leslie
lesotho
lesoto
lespert
lessons
leste
lestin
let
leta
letekidan
leti
letras
letter
letterboxd
lettre
lettres
leucaena
leucocephala
leucophrys
leur
lev
levant
level
levels
leverages
levtzion
lewis
lewone
lexvo
leymaniye
lezoul
lgbt
lgm
lhasa
lhe
lhoesti
li
liam
liban
libani
libe
liberal
liberata
liberation
liberdade
liberia
liberie
liberiya
liberte
liberty
libiya
library
libre
libres
libreville
libya
licien
licit
licite
lick
lie
liebe
liebesgedichte
liechtenstein
lies
lietuviu
lieutenant
life
lifestyle
lifetime
lift
light
lights
ligue
ligues
likarion
like
likely
likke
lilet
lilian
liliane
lille
lilly
lily
lima
limited
limiting
limpopo
lincoln
linda
lindiwe
line
linegrey
lines
lineup
lingala
lingua
linguere
link
linkedin
links
lint
linternaute
lion
lioness
lionessesofafrica
lionheart
lions
lipide
lipodystrophy
lisa
lisansi
lisboa
lisbon
lisbonne
list
liste
listing
lists
lit
lite
literary
literature
lithapo
litiro
litondo
litterature
little
lituwaniya
live
livearticles
livelihood
livelihoods
liverpool
lives
living
livre
livres
lix
liyeshitensiteyine
liyetona
liz
liza
lizin
lizz
lk
ll
lla
lle
ller
lll
llorin
lloyd
lmen
lnn
lo
load
loam
loana
loc
local
locale
locally
located
location
locations
lockdown
locking
locks
loda
lode
log
logan
logistics
logo
loin
lois
loisirs
lojisiyeli
lokarno
lokey
lola
lom
lomami
lome
londere
london
londres
lonely
long
longgang
longin
longman
loni
look
lookee
looking
looks
lookup
loose
lope
lopez
lorcia
lord
lore
lorenzo
loreto
lorraine
los
losing
loss
lost
lotanna
lotfi
lotusi
lotz
louis
louise
louisehttps
louisiana
louisville
lounge
lourdes
lous
louvain
louw
love
loves
loving
low
lowe
lowladee
loyiso
lpg
ls
lt
ltd
ltdhttps
ltnp
lu
lua
luanda
luang
lubumbashi
luc
luca
lucas
lucht
lucia
luck
lucky
lucrecia
lucy
ludwig
lugansk
lugizamburu
luhansk
lui
luigi
luiz
luka
lula
lumie
lumiere
lumpur
lumumba
lundgren
lungula
luo
lupita
lupus
lusaka
lusiya
luther
lutte
lutuli
luxembourg
luxor
luxorafricanfilmfestival
lv
lvl
lwakabamba
lwenje
ly
lyalya
lyambabaje
lybius
lyce
lycee
lyceedekigali
lycopersicum
lydia
lydie
lymph
lymphoma
lynca
lynder
lyndon
lynn
lyon
lyrics
lys
lı
m
ma
maa
maakt
maame
maandag
maar
maart
maasai
maastricht
mababi
mabanga
mabara
mabare
mabaso
mabata
mabati
mabere
mabi
maboko
mabonekerwa
mabura
mabwiriza
mabya
mac
macarthur
macaulay
macedonia
machakos
machel
machete
machine
machte
mack
mackenzie
mackenzies
macky
macro
macroeconomic
macrourus
mad
madagascar
madagasikari
madam
madamasr
madamazela
madame
madamu
made
madebeats
madeleine
maden
madhvani
madi
madiba
madih
madikizela
madina
madini
madison
mado
madorari
madrase
madrid
maduka
maestro
mafanato
mafaranga
mafarashi
mafatshe
mafi
mafilime
mafoto
mag
magaajyia
magambo
magana
magara
magare
magari
magazine
magazines
magdalena
magendu
mageragere
maggie
maggy
maghreb
magi
magic
magingo
magnesium
magona
magroun
magufi
maguru
magweja
magyar
maha
mahabharata
mahadeo
mahaleo
mahama
mahame
mahanga
mahatma
mahdi
mahema
mahembe
mahima
mahinda
mahirwe
mahlangu
mahlasela
mahmood
mahmoud
mahmud
mahmudiya
mahoney
mahoniboni
mahoro
mahrez
mahugurwa
mai
maid
mail
maimouna
main
maina
maine
maingi
mais
maisha
maishafilmlab
maison
maize
maj
majdi
majid
majonjora
major
majoro
majuro
majwi
majyambere
majyaruguru
majyepfo
maka
makadamiya
makafui
makam
makama
makanyaga
makawo
make
makeba
makeda
maken
maker
makerere
makers
makes
makeup
makhumi
makimbirane
makinamico
making
makipe
makka
makmur
mako
makolo
makonikoshwa
makuba
makumi
makumyabiri
makun
makuru
makutano
makuza
mal
malabar
malabo
maladie
malahide
malaika
malala
malampa
malan
malaria
malariya
malatya
malawi
malaysia
maldives
maldoror
male
maleisie
malema
malesiya
maleziya
mali
malidivezi
malika
malimba
malindi
malita
malkoc
mall
mallem
malmo
malo
malta
maltepe
malzi
mam
mama
mamak
maman
mamba
mambe
mambrui
mame
man
mana
management
managementhttps
manager
managers
managing
managua
manaka
manama
manasseh
manchester
manda
mandabi
mandarine
mandate
mandefro
mandela
mandell
mandhry
mandla
mandy
mane
maneakaba
manegeka
maneko
manga
manganese
mangartom
mangifera
mango
mangwende
mani
manie
maniema
manifeste
manila
maninagar
manini
manioc
maniraguha
manirarora
manisa
manizabayo
mankhamba
manmohan
manner
manners
mano
manota
manouchka
manque
mansa
mansaray
manso
mansohttps
mansos
mansouri
manu
manual
manuel
manufacturers
manufacturing
many
manyagiro
manyatta
manyeziyumu
manyobwa
manywa
manza
manzi
map
mapantsula
mapcarta
mapeti
maphttps
maplandia
mapping
maps
mapule
maputo
mar
mara
maraba
maracana
maradiyo
marais
marakuja
marang
marangamutima
marasmus
maraso
marathon
marato
marc
marcel
marcelin
march
marchands
marche
marchio
marcos
marcus
mardin
mardum
mare
maremare
marembo
margaret
marginata
mari
maria
marianne
marie
mariko
marina
marine
marines
marino
mario
marishali
marita
maritinike
maritz
mariupol
marius
mariya
mariyana
mark
market
marketing
markets
markhamia
markus
marley
marlon
marnaud
marne
maroc
marochttps
maroke
marrakech
marriage
married
mars
marseille
marseilles
marshall
mart
martha
martie
martin
martine
marume
marushanwa
marushanywa
marvel
marvin
marwa
mary
maryam
maryland
masa
masaa
masaha
masai
masaka
masangano
masanja
masarura
masasa
masashi
masasu
masean
masedoniya
masekela
maseko
masenge
masengo
maseru
maserukiramuco
masezerano
masgid
mashami
mashanyarazi
masharawi
mashariki
mashereka
mashhad
mashini
mashirika
mashu
mashuli
mashure
mashuri
mashusho
mashushongero
mashya
mashyaka
mashyamba
mashyirahamwe
mashyuza
masijid
masike
masinzo
masire
masisi
masjed
masjid
maso
masoko
masomero
masomo
mason
masoretike
masoro
masosiyete
masque
masr
mass
massachusetts
massage
massai
massalikoul
massamba
massdesigngroup
masses
massy
master
mastercard
masters
mastery
masturah
masturbation
masumeh
masupu
mat
mata
mataba
matabane
matako
matapato
matara
matayo
match
mategeko
mateka
matembabuzi
materaniro
material
maternal
maternelles
mateso
mathematical
mathematics
mathew
mathilde
mati
mato
matodes
matographiques
matongo
matookerepublic
matora
matorero
matos
matoya
matrilineal
matsinda
matsumunyane
mattar
matter
matthee
matthew
matthews
matungo
matures
matwi
matyazo
mau
maungu
maurice
mauritania
mauritanian
mauritius
mavenge
mavka
mavubi
mavuriro
mavuso
mavuta
mawe
max
maximilian
maximum
maximus
maxwell
may
maya
mayaga
mayaka
mayange
mayanimari
mayfair
mayor
mayoti
mayotte
mays
mayyor
maz
mazane
maze
mazi
mazimhaka
mazimpaka
mazina
maziyateke
mazu
mazuru
mazutu
mazzamauro
mb
mba
mbabazi
mbaga
mbagarumbise
mbaho
mbakungahaze
mbali
mbangeni
mbaraga
mbariro
mbarushimana
mbawah
mbaye
mbazi
mbe
mbeehe
mbega
mbeki
mberabyombi
mbere
mberehttps
mbese
mbgn
mbi
mbiligi
mbirigi
mbirurume
mbisi
mboga
mbogamizi
mbogo
mbona
mbonera
mbonerahamwe
mbonezamubano
mbonimana
mbonimpa
mbonye
mbonyi
mbonyicyambu
mboursaly
mbow
mbu
mbuga
mbugua
mbungo
mburugu
mbusa
mbuto
mbuye
mbwirwaruhame
mbyino
mc
mcb
mcbaror
mcbarors
mcbrown
mccabe
mcdonald
mcgrath
mcgreal
mcgregor
mckenzie
mckinley
mcnamara
mcnwizu
mcpherson
mcqueen
mcutimes
md
mdgs
mdr
mdrou
mduduzi
mdundo
me
meaning
means
meaprotocol
meaza
meb
mebendazol
mechanisms
mecidiye
med
medal
meddie
meddy
medeiros
medelli
media
mediasearch
mediatheques
mediatrice
medical
medicalnewstoday
medication
medicine
medicines
medina
meditalents
mediterane
mediterranean
medium
medizinische
medvedev
mees
meet
meeting
meetings
meets
meg
mega
megawatt
megawatts
megbele
meghan
megizike
mehari
mehmed
mehmet
mehret
mei
meier
mein
meintjes
meireles
meirelles
mekong
mel
mela
melaenornis
melaka
melanie
melanin
melanine
melaniparus
melanogaster
melbourne
melbournecup
melchior
meles
meliane
melinda
mellifica
mellon
melodie
melodramatic
melody
melville
member
members
membership
membres
memoir
memorial
memory
men
menace
menara
mence
mendrisio
mends
mendy
meneer
menes
mengo
mens
mensah
mense
menshi
menshihttps
mental
mentals
menthe
mentine
menya
menyanibi
menyekanye
menyo
mercenaries
merci
mercy
mere
merger
meridien
meriem
merit
merkt
merkushkin
merlin
merops
merouane
mersin
meru
merwe
mes
meshack
meshi
mesopotamiya
message
met
metacritic
metani
metathronos
meteorwanda
metero
method
methodiste
methods
metjidi
metrage
metres
metro
metrocable
metropolitan
mevlana
mevrouw
mexico
mexique
meya
meyshar
meza
meze
mezi
mezquita
mfa
mfi
mfite
mfizi
mfonobongnsehe
mfubyi
mg
mghd
mi
mia
miami
mibambwe
mibande
mibanire
mibare
mibereho
mibi
mibilizi
mibiri
mibirizi
mibonano
mibyinire
mic
micael
michael
michaella
miche
michel
michele
michelle
michie
michigan
mickey
mico
micro
microbial
microcredit
microfinance
microlitre
microsoft
micungire
mid
middag
middelengels
middle
middleton
mide
midimar
midrand
midugudu
midwives
mie
mifotra
mifuka
migabane
migambi
migani
migari
migenzo
migeprof
migezi
mighty
migi
mignone
mignonne
migrated
migration
miguel
migufi
mihanda
mihango
mihigo
mihogo
mihrimah
mija
mijn
mijne
mijyi
mike
mikeloni
mikhail
mikino
mikki
mikoranire
mikorere
mikoreshereze
mikorobe
mikorobi
mikoronesiya
mikurire
mikuru
mil
milan
mild
mildiou
mildred
miligarama
milimetero
military
miliyali
miliyari
miliyoni
miljoen
millais
mille
miller
milles
millimetres
million
millioni
millions
mills
milraz
milton
milwaukee
mimi
mimosa
mimosafilms
mimuli
min
minaffet
minagri
minaire
minaloc
minani
minare
minaret
mind
minder
mine
mineac
minecofin
mineduc
mines
minh
minha
mini
miniature
minicom
mininfra
mining
minini
minisante
minisitere
minisiteri
minisitiri
minispoc
minisports
minister
ministeri
ministermondays
ministers
ministiri
ministries
ministry
minor
minota
minsi
minsk
minstrel
minstrels
minuar
minusca
minutes
mipaka
mira
miracle
mirage
mirambi
miranda
mirasire
mireille
miremire
mirenge
miriam
miribel
miribwa
mirima
mirimo
mirire
miriyari
miriyoni
mirko
mirongo
miroplast
mirror
mirrors
miryango
mis
misa
misago
misconducts
mishinga
mishwi
mishya
misigaro
misigiti
misile
misiri
misiyo
misoro
misozi
miss
missa
misschien
missed
missing
mission
mississippi
missrwanda
mist
mit
mitarayeze
mitekerereze
miterere
miti
mitima
mitis
mito
mitochondial
mitochondrial
mitsi
mitsuoki
mittelalter
mitungo
mitwe
mivugo
mixtape
miyagi
miyajima
miyoborere
miyoboro
miyove
mizi
mk
mkangisa
mkapa
mkhonto
mku
ml
mla
mlah
mlasa
mm
mme
mmi
mn
mnangagwa
mngqolo
mnr
mo
moba
mobarak
mobile
mobutu
mocratique
moctar
mod
mode
model
modeling
models
moderi
modern
moderne
modernghana
modi
modisane
modise
modo
modoka
modul
module
modules
moe
moeko
mofe
mogadishu
mogae
mohabbat
mohamed
mohammad
mohammed
mohcine
moi
moise
moisture
mojak
mokae
moko
mokoena
mokwena
moldova
molefe
molidova
molla
moller
molybdenum
mom
mombasa
moment
momentum
momin
mon
mona
monaco
monaheng
monako
monarchiste
monastery
monastir
monay
monbiot
mondaini
monde
mondiale
monetary
money
mongolia
mongoliya
moni
monica
monique
monitor
monitoring
monkey
monnier
monnouh
monologues
mononucleose
mononychellus
monrovia
mons
monserati
monsieur
monsters
mont
montana
montane
monte
montenegoro
montenegro
montessori
montfort
month
monthly
months
monticola
montreal
montreuil
monuc
monument
monuments
monusco
monyane
mooi
moon
moore
mopti
mora
morais
morake
morddeich
more
morel
morella
morgan
morgen
moriah
moriaux
morise
moritaniya
morning
moroccan
morocco
moroccoworldnews
morodoviya
morogoro
moroni
morreu
morris
morse
mort
mortezai
mory
mosai
mosaic
mosaiquefm
mosalasi
moschea
moschee
moscou
mose
moses
moshi
mosiuoa
moske
moskee
mosonngoa
mosotho
mosqu
mosque
mosquee
moss
mosse
mossi
most
mostra
mot
mota
motacilla
moteri
mother
motherhood
motherland
motion
motivators
motlatsi
moto
motorcade
motors
motsilanyane
mou
mouille
mouna
mount
mountain
mountains
mourns
moussa
mouton
mouvement
move
movement
moves
movie
moviefit
moviefone
moviemeter
movies
moya
moyo
mozambike
mozambique
mp
mpa
mpaanga
mpaka
mpambara
mpamo
mpamvu
mpamyabumenyi
mpanabyaha
mpande
mpandenye
mpanganye
mpano
mpanuka
mpanvu
mpapuro
mpatsibihugu
mpazimaka
mpc
mpembyemungu
mpera
mpesacharges
mpeshyi
mpeta
mpg
mph
mphahlele
mpho
mpimba
mpimbano
mpinduka
mpinga
mpinji
mpisha
mpla
mps
mpu
mpumalanga
mpunzi
mpuza
mpuzabitsina
mpuzamahanaga
mpuzamahanga
mpuzamahangahttps
mpyiko
mpyisi
mq
mr
mrca
mri
mridha
mrnd
mrs
ms
msa
msalame
msc
msf
msg
msn
msnigpql
mst
mstapere
mt
mtb
mtd
mtdna
mthwalo
mtn
mtshali
mtungi
mtv
mu
muallaq
muamini
muammar
muayyad
mub
muba
mubafashishwe
mubagabo
mubagize
mubagore
mubahanzi
mubahatanira
mubahize
mubakinnyi
mubakobwa
mubakora
mubamasayi
mubana
mubano
mubantu
mubanyamakuru
mubanyamuryango
mubanyarwanda
mubanyeshuri
mubare
mubari
mubasanganywe
mubashinze
mubateze
mubaturage
mubaturanyi
mubatuye
mubayobozi
mubi
mubibaya
mubibazo
mubice
mubicuruzwa
mubidukikije
mubigabanya
mubiganiro
mubigega
mubigo
mubihe
mubihugu
mubijyanye
mubikoresho
mubikorwa
mubindi
mubintu
mubinyabuzima
mubinyamakuru
mubiri
mubiro
mubirori
mubisanzwe
mubisi
mubisigo
mubisubizo
mubitabo
mubitangazamakuru
mubitaro
mubitekerezo
mububiligi
mubucuruzi
mubudage
mubufaransa
mubufatanye
mubuga
mubuhanzi
mubuhinde
mubuhinzi
mubuhungiro
mubukene
mubukungu
mubukwe
mubumenyi
mubundi
mubunini
muburasirazuba
muburayi
muburengerazuba
muburezi
muburwayi
muburyo
mubusanzwe
mubushakashatsi
mubushyuhe
mubutaka
mubutaliyani
mubutayu
mubutegetsi
mubutumwa
mubuvanganzo
mubuvuzi
mubuyapani
mubuyobozi
mubuzima
mubwami
mubwiza
mubwoko
mubwongereza
mubwubatsi
muby
mubya
mubyara
mubyaro
mubyatsi
mubyerekeranye
mubyeyi
mubyiciro
mubyifuzo
mubyigisho
mubyishimo
mubyiza
mubyo
mubyongeyeho
mubyukuri
mubyuma
much
muckrack
muco
mucyahoze
mucyaro
mucye
mucyiciro
mucyo
mucyongereza
mucyumba
mucyumweru
mudasobwa
mudende
muderis
muduce
mudugudu
mug
mugabane
mugabe
mugabekazi
mugabo
mugabohttps
mugace
mugambi
muganga
mugano
muganza
mugaragaro
mugari
mugatsia
mugemana
mugenzi
mugenziwe
mugesera
mugezi
mugi
mugice
mugihe
mugihugu
mugikombe
mugikorwa
mugina
mugiraneza
mugisata
mugisha
mugitabo
mugitaramo
mugitondo
mugiye
mugombwa
mugonero
mugongo
mugore
mugoroba
mugozi
mugufi
muguharanira
muguhindura
mugukina
mugukora
mugukoresha
mugunga
mugupima
mugushyira
mugushyiraho
mugusya
mugutanga
mugutangira
mugutegura
muguteza
mugutezimbere
mugutunganya
mugwaneza
muhabura
muhadjiri
muhammad
muhammadu
muhanda
muhanga
muhango
muhanzi
muhanzikazi
muhazi
muhaziyacu
muhdhar
muheto
muhima
muhinduzi
muhinzi
muhira
muhire
muhirwa
muhogo
muhongayire
muhororo
muhoza
muhtarov
muhuggiag
muhutukazi
mujawamariya
mujawayo
mujy
mujyana
mujyanama
mujyi
muka
mukabagwiza
mukabalisa
mukabaramba
mukabaranga
mukagahima
mukagasana
mukakarangwa
mukakayange
mukakigeli
mukama
mukamabano
mukamana
mukamazimpaka
mukamira
mukamulisa
mukamurenzi
mukandayisenga
mukandemezo
mukandida
mukangango
mukangira
mukangiro
mukangoga
mukankomeje
mukankubito
mukankuranga
mukankusi
mukansanga
mukantabana
mukantaganzwa
mukanyange
mukanyirigira
mukarange
mukarere
mukarivuze
mukarram
mukaru
mukarubayiza
mukarubega
mukarujanga
mukaruliza
mukarusine
mukasakindi
mukasarasi
mukashema
mukasine
mukasonga
mukayijore
mukazayire
mukazi
muke
mukeba
mukeka
mukenke
mukerarugendo
mukeshimana
mukibuga
mukiciro
mukiganiro
mukigero
mukigo
mukikira
mukindi
mukingo
mukinnyi
mukino
mukinyamakuru
mukirere
mukiyaga
mukiza
muko
mukobwa
mukozi
muku
mukubaga
mukubungabunga
mukugaragaza
mukugira
mukundente
mukungwa
mukunzi
mukura
mukuralinda
mukuru
mukuruhttps
mukwamamaza
mukwezi
mukwizihiza
mula
mulago
mulford
mulher
mulholland
muli
mulindi
mulinga
mulisa
muller
mulondo
multi
multimedia
multinational
multistakeholder
multisystem
multnomah
muma
mumaboko
mumafaranga
mumagambo
mumahanga
mumajwi
mumajyaruguru
mumajyepfo
mumakipe
mumaraso
mumarushanwa
mumasaha
mumashami
mumashanyarazi
mumashini
mumashuri
mumashusho
mumashyamba
mumashyirahamwe
mumaso
mumateka
mumatsinda
mumatwi
mumazi
mumazu
mumbai
mumena
mumezi
mumico
mumidugudu
mumigenzo
mumihango
mumijyi
mumikino
mumin
muminota
muminsi
mumirima
mumirire
mumiryango
mumisigiti
mumiterere
mumitsi
mumitungo
mummy
mumodoka
mumpamvu
mumubiri
mumuco
mumudugudu
mumugi
mumuhanda
mumujyi
mumukino
mumunwa
mumupira
mumureke
mumurenge
mumurima
mumuryango
mumushinga
mumutwe
mumuziki
mumwaka
mumwanya
mumwuga
mumyaka
mumyigaragambyo
muna
munama
munani
munanira
munda
mundia
mundimi
mundirimbo
mundwara
muneza
munezero
mungai
munganda
mungo
mungoshi
mungu
munich
municipality
munigo
munini
munjyana
munjyi
munkengero
munota
munsi
muntambara
muntangiriro
muntara
munteko
muntera
muntu
munwa
munyaga
munyamabanga
munyamakuru
munyana
munyandiko
munyaneza
munyanshoza
munyarwanda
munyarwandakazi
munyax
munyeshuri
munyeshyaka
munyiri
munyubako
munyurangabo
munzego
munzira
munzu
mupaka
mupende
mupira
mur
mura
murage
muraho
murakaza
murakoze
murama
murambi
muramuke
murandasi
murangwa
muraperi
murasaki
murasira
murat
murdered
murders
murekatete
murekezi
muremure
murenge
murenzi
murerwa
mureshyankwano
muri
muribi
muribo
muribyo
muricyo
muriki
murikigali
murima
murimo
murimwe
murindahabi
muringa
murinzi
muriro
muriyi
muriyo
murizo
murongo
muru
murubyiruko
muruganda
murugendo
murugo
muruhame
muruhando
muruhu
murukiko
murukurikirane
murumuna
murumunawabo
murumunawe
murundi
murungi
mururimi
muruziga
murwa
murwanda
murwayi
murwego
muryango
mus
musa
musabyimana
musafiri
musambira
musamu
musana
musange
musanze
musaruro
musayidire
musaza
musazawe
muscicapa
muse
musebeya
musee
musekeweya
museminali
musenyeri
musenyi
museum
museums
museveni
musezero
musha
mushabizi
mushahara
mushiki
mushikiri
mushikiwabo
mushimiyimana
mushinga
mushishiro
mushobora
mushonyi
mushubati
mushubi
mushya
music
musical
musician
musicinafrica
musigiti
musiitwa
musik
musindarwezo
musindi
musinga
musique
musixmatch
muslim
muslims
musoni
musore
musozi
must
mustafa
mustang
mustapha
mut
mutabaruka
mutabazi
mutagatifu
mutambagiro
mutamuliza
mutara
mutarama
mutegarugori
mutekano
mutenderi
mutesasira
mutesi
muteteri
muti
mutiah
mutiba
mutiganda
mutima
mutimawurugo
mutimura
mutingito
mutiny
muto
mutobe
mutohttps
mutoni
mutoya
mutoza
mutsi
mutsindashyaka
mutsinzi
mutually
mutubyiniro
mutuelles
mutuma
mutungo
mutuntu
muturage
muturere
mutuyeyezu
mutware
mutwe
muvandimwe
muvhango
muvuduko
muvumba
muw
muwa
muwi
muyaga
muyandi
muyango
muyenzi
muyindi
muyira
muyoboke
muyoboro
muyobozi
muyombo
muzabukuru
muzampahanga
muzi
muzika
muziki
muzima
muzindi
muzinga
muzo
muzungu
mv
mva
mvaruganda
mvarugandahttps
mvuga
mvugo
mvura
mvururu
mvuyekure
mvuzo
mw
mwai
mwaka
mwakahttps
mwalimu
mwamba
mwambaro
mwami
mwana
mwanda
mwanditsi
mwania
mwansa
mwanya
mwape
mwaramutse
mwari
mwarimu
mwashumbe
mwaura
mwaya
mwe
mweka
mwenda
mwendo
mwene
mwese
mwezi
mwi
mwia
mwiherero
mwijima
mwikipe
mwima
mwingi
mwinshi
mwinyi
mwiri
mwirirwe
mwiriwe
mwirushanwa
mwiseneza
mwishami
mwishuri
mwishyamba
mwishywa
mwitangaza
mwiterambere
mwitumba
mwiza
mwizahttps
mwobo
mwogo
mwonsa
mwosa
mwubatsi
mwuga
mwuka
mwulire
mwumvaneza
my
myaka
myambarire
myanda
myandikire
myanya
mycobacteria
mycobacterium
myemerere
myenda
myheraldmagazine
myheritage
myidagaduro
myigaragambyo
myigire
myigishirize
myinshi
myitozo
myitwarire
myiza
myizerere
myjoyonline
mymoviepicker
mynhardt
myrmecocichla
myself
mystery
myubakire
myuga
myugariro
myuka
myumbati
myumvire
myunyu
myunyungugu
mzansi
mzee
məc
məscidi
n
na
naa
naacp
naar
naasho
naason
naba
nabab
nababajwe
nababumva
nababyeyi
nabacuranzi
nabafana
nabafatanyabikorwa
nabafilozofe
nabafite
nabaforomo
nabagabo
nabaganga
nabagize
nabagore
nabagumana
nabahanzi
nabahinde
nabakinnyi
nabakiriya
nabakobwa
nabakora
nabakoresha
nabakoroni
nabakozi
nabakunzi
nabakuze
nabamasayi
nabamwe
nabana
nabandi
nabanegura
nabantu
nabanya
nabanyamahanga
nabanyamerika
nabanyamuryango
nabanyarwanda
nabanyeshuri
nabari
nabarimo
nabarimu
nabaririmbyi
nabasaza
nabashinzwe
nabasuye
nabatanga
nabatari
nabataribake
nabatekinisiye
nabaturage
nabatuye
nabawi
nabayobozi
nabenshi
nabi
nabil
nabimwe
nabishobora
nabitabiriye
nabiullina
nabo
nabonye
nabta
nabwana
nabwiso
nabwo
nabyo
nacional
nacyo
nada
nadege
nadia
nadim
nadine
naeb
nagasaki
nagev
nagiye
nago
nahandi
nahantu
nahawe
nahimana
naho
nahodka
nahuye
naija
naijagists
nailla
naima
nair
naira
nairaland
nairobi
nairobifashionhub
nairobinews
naje
najyaga
naka
nakabira
nakabonye
nakamaro
nakaminuza
nakandi
nakarere
nakazi
naked
nakia
nakimwe
nakku
nako
nakom
nakumat
nakumatt
nakunze
nakuru
nal
naledi
nallıhan
nalu
nalwanga
nam
nama
namagana
namahanga
namahugurwa
namakinamico
namakipe
namakoperative
namakuru
namasagali
namashanyarazi
namashuri
namasosiyete
namata
namategeko
namateka
namba
name
named
names
namibia
namibian
namibie
namibiya
namubiru
namur
namwe
nana
nancy
nande
nandi
nanga
nani
nanjing
nanjye
nano
nanone
nantes
nanubu
nanze
nao
naomi
naomie
naouret
napoleon
napomuceno
napredak
napumoceno
nar
narabikundaga
nare
narendra
nari
narimwe
narok
narrative
nartey
narwanda
narwo
naryo
naryshkin
nas
nasa
nashaka
nashwa
nasib
nasir
nasiyonali
nasomye
nass
natacha
nataki
natal
natalensis
natangiye
natasha
natekereje
nathalie
nathan
nation
national
nationale
nationalgeographic
nationaux
nations
native
nato
natuhwera
natural
nature
natwe
natwo
nav
nava
navigator
navio
navuga
navukiye
nawe
nawo
nawuru
naya
nayin
nayisumbuye
nayituriki
nayo
nayoti
naza
nazareth
nazareti
nazo
nb
nba
nbsp
nc
nca
ncbagroup
ncbi
ncc
nchen
ncia
ncipe
ncis
ncuti
nd
nda
ndaba
ndabo
ndacyemera
ndadaye
ndagijimana
ndagukunda
ndahindurwa
ndahiro
ndakurongoye
ndakwiringiye
ndamirabana
ndangagitsina
ndangamateka
ndangamuco
ndangamuntu
ndangamurage
ndangiza
ndaro
ndasago
ndashaka
ndashimira
ndasingwa
ndatekereza
ndatsinda
ndavuga
ndayambaje
ndayisaba
ndayisenga
ndayishimiye
ndayizeye
nde
ndebele
ndege
ndego
ndende
ndendehttps
ndengakamere
ndera
nderabarezi
nderabuzima
ndetse
ndi
ndiaye
ndibwira
ndikumana
ndimbati
ndimi
ndimo
ndiri
ndirimbo
ndirimbohttps
ndiwe
ndizeye
ndjavera
ndlovu
ndo
ndobo
ndoli
ndori
ndoussoudji
ndu
nduba
nduhungirehe
ndulu
ndungu
ndungutse
nduwimana
ndwara
ndyo
ne
near
neba
nebo
nec
necessary
nectarinia
nederilande
nederland
nederlands
need
needs
neels
neem
neema
negara
negative
negev
negrada
negro
nehemia
neige
neil
neill
nel
nelly
nelsap
nelson
nelsons
nema
nemba
nemeye
nenge
neo
neolithic
neonatal
nep
nepad
nepali
nepetifolia
neratzes
neria
neshanu
nest
net
netflix
netflixhttps
netherlands
netmed
netrebko
nets
netwerk
network
networks
networthpost
neucha
never
nevis
nevisi
nevs
new
newborn
newcomer
newlifekigali
newman
news
newsarchive
newscontent
newsdetail
newsid
newsletter
newsofafrica
newspaper
newsreel
newtimes
newton
newvision
newyorker
next
nez
neza
nezahttps
nff
nfnv
ng
nga
ngabe
ngabo
ngagi
ngaho
ngali
ngalick
ngamba
ngamiani
ngamije
ngamiya
nganda
ngandura
ngandurarugo
ngano
ngarama
ngarambe
ngardy
ngari
ngaruka
ngarukamwaka
ngarukiye
ngarukiyimana
ngazija
ngcobo
ngemwe
ngendahimana
ngendanwa
ngenderwaho
ngendo
ngenga
ngengabukungu
ngengo
ngenzi
ngera
ngerekebesang
ngeri
ngero
ngeruka
ngeso
ngeze
ngingo
ngirabuzimafatizo
ngirente
ngiro
ngishwanama
ngissah
ngiye
ngiyo
ngizwe
ngo
ngobyi
ngodzopf
ngogozi
ngoma
ngomba
ngombwa
ngomijana
ngonokera
ngor
ngorane
ngoro
ngorongoro
ngorora
ngororamubiri
ngororero
ngos
ngoyi
ngozi
ngubene
nguesso
ngufi
ngufu
nguge
ngugu
ngukunda
nguni
ngurube
ngutembereze
nguzanyo
ngwenya
ngwino
nh
nha
nhcr
nhk
ni
nia
niall
niamey
niang
niani
niava
niba
nibagwire
nibanga
nibara
nibi
nibibazo
nibice
nibicuruzwa
nibidukikije
nibigize
nibihe
nibihembo
nibihugu
nibijyanye
nibikenewe
nibikoresho
nibikorwa
nibimenyetso
nibimwe
nibindi
nibindihttps
nibintu
nibirahuri
nibisanzwe
nibisobanuro
nibisohoka
nibitangaza
nibitekerezo
nibiti
nibo
niboye
nibura
nibwa
nibwo
nibyabaye
nibyiciro
nibyingenzi
nibyiza
nibyo
nic
niccolo
nice
nicholas
nicht
nichts
nick
nicky
nicolas
nicole
nicosia
nicyatsi
nicyayi
nicyegeranyo
nicyiciro
nicyo
nicyorezo
nicyuma
nie
niet
nieu
nig
nigaga
niger
nigeri
nigeria
nigeriafilms
nigerian
nigerie
nigeriya
nigeriyahttps
nigeze
niggie
night
nightingale
nightingales
nigice
nigicuruzwa
nigihe
nigihembo
nigihugu
nigikombe
nigikorwa
nigisenge
nigishushanyo
nigisobanuro
nigitekerezo
nigitoki
nigitsina
nigute
nih
nihabwa
nihamwe
niho
nihohoterwa
nii
niied
nijambo
nijeri
nijeriya
nijeriyahttps
nijniy
nijoro
nijwi
nikaragwa
nikel
niki
nikibazo
nikibuga
nikiciro
nikigo
nikimwe
nikinamico
nikintu
nikipe
nikirere
nikki
niko
nikolai
nikolay
nikoranabuhanga
nikosiya
nikotine
nikuze
nil
nile
nili
nilin
nilo
nilotic
nilotica
nima
nimari
nimba
nimbaraga
nimbogamizi
nimbuto
nimbyino
nimero
nimibereho
nimikino
nimirire
nimiryango
nimiterere
nimiyoborere
nimiyoboro
nimpamvu
nimpera
nimpfubyi
nimpinduka
nimpyisi
nimugoroba
nimuyihe
nimvura
nimwe
nimwiza
nimyaka
nimyidagaduro
nimyumvire
nin
nina
ninaho
ninama
ninde
nindege
nindi
nindirimbo
nindwara
nine
ningabo
ninganda
ningaruka
ningemwe
ningo
ningobwa
ningona
ningufu
ninguge
ninguzanyo
nini
ninkombe
ninkunga
ninkuru
ninkuta
ninkwavu
ninsanganyamatsiko
ninshingano
ninshuti
nintama
nintambara
nintambwe
nintara
nintego
nintwaro
ninyama
ninyamaswa
ninyampinga
ninyandiko
ninyanja
ninyigisho
ninyubako
ninyuma
ninzara
ninzego
ninzira
ninzobere
nio
nipine
niragire
nirere
niringiyimana
nirwo
niryo
nis
nisesengura
nish
nishami
nishimwe
nishoramari
nishuri
nisi
nisoko
nisosiyete
nisr
nissan
nital
nitanu
niterambera
niterambere
nitin
nitorero
nitsinda
nitsinzi
nitwa
niue
niujie
niumukinnyi
niwe
niwemwiza
niwitegereza
niwo
niyawuli
niyi
niyibikora
niyibizi
niyigaba
niyigena
niyitanga
niyitegeka
niyo
niyompamvu
niyongira
niyonkuru
niyonsenga
niyonshuti
niyonzima
niyuwe
nizamuka
nize
nizera
nizeyimana
nizindi
nizindihttps
nizo
nizuba
nizzo
nj
njagah
nje
njemanze
njoum
njue
njya
njyana
njyanama
njye
njyewe
nk
nka
nkaba
nkabandi
nkabantu
nkabanyamahanga
nkahantu
nkaho
nkahttps
nkajya
nkaka
nkake
nkakumugabo
nkambi
nkana
nkanka
nkavuga
nkawe
nke
nkemurampaka
nkenerwa
nkengero
nkeragutabara
nkeya
nki
nkibanze
nkibi
nkibikoresho
nkibikorwa
nkibimenyetso
nkibisanzwe
nkibishobora
nkibisobanuro
nkibiti
nkibyo
nkigice
nkigihe
nkigikoresho
nkigikorwa
nkikigo
nkiko
nkimbyino
nkimikino
nkimpano
nkimwe
nkimyidagaduro
nkinganda
nkingi
nkingo
nkinsanganyamatsiko
nkintego
nkinyenyeri
nkiri
nkiryo
nkishuri
nkiyi
nkizo
nko
nkoko
nkokokazi
nkomane
nkombe
nkombo
nkomeje
nkomoko
nkongi
nkongwa
nkono
nkora
nkoranya
nkoranyambaga
nkosi
nkotanyi
nkotsi
nkoulou
nkrumah
nku
nkuba
nkubana
nkubito
nkubone
nkubukwe
nkubumaji
nkuburyo
nkubwicanyi
nkuhagarariye
nkuko
nkulikiyinka
nkumba
nkumu
nkumubyeyi
nkumufasha
nkumugore
nkumuhanzi
nkumuhinzi
nkumuhuzabikorwa
nkumukinnyi
nkumukobwa
nkumukozi
nkumuntu
nkumunyamakuru
nkumunyamideli
nkumunyamuryango
nkumuririmbyi
nkumushinga
nkumushyitsi
nkumusore
nkumuyobozi
nkumuziki
nkumwanditsi
nkumwe
nkumwuga
nkuna
nkunda
nkunga
nkungu
nkuranga
nkurikije
nkuru
nkurugendo
nkurugero
nkurunziza
nkusi
nkuta
nkuwashinze
nkuyu
nkuze
nkwavu
nl
nlm
nm
nnchensache
nnegest
nnrti
nnrtis
nnyanzi
nnyo
no
nobel
nobilis
noble
nobuhle
noces
nocide
node
noe
noel
noella
nog
nogent
nogukina
nogukora
noguteza
noh
nohanze
noheli
noheri
noir
noire
noirs
nok
nokuba
nollywood
nollywoodhttps
nollywoodreinvented
nollywoods
noma
nomero
nominal
nominated
nomination
nominations
nomine
nominee
nominees
nomsa
non
none
noneho
nonoxynol
nonprogressors
noor
noord
noose
nopoko
norberg
norbert
nord
normal
normale
normally
norman
normandiese
norsworthy
norte
nortey
north
northern
northup
norufoluki
noruveje
norvege
nos
not
nota
notable
note
notes
nothing
noticias
notre
nou
nouah
nouba
noun
nour
nous
nouveau
nouvelle
nov
nova
novel
november
novembre
noventa
novgorod
now
nowa
nowtoronto
noyabaad
nozubu
np
npfwgrmm
npk
npr
nqobile
nr
nrfdu
nrti
nrtis
nsa
nsabimana
nsanga
nsanganyamatsiko
nsanzabaganwa
nsenergybusiness
nsengero
nsengimana
nsengiyumva
nsenye
nsf
nshimiyimana
nshinga
nshingano
nshingwabikorwa
nshinjabyaha
nshobora
nshoboye
nshuro
nshuti
nshya
nshyahttps
nshyashya
nsoro
nster
nt
nta
ntabone
ntabwo
ntabyo
ntacyananira
ntacyo
ntagatifu
ntagereranywa
ntagerura
ntagire
ntago
ntagungira
ntagwabira
ntaho
ntajya
ntakavuro
ntakibazo
ntakintu
ntakiri
ntakirutimana
ntakura
ntakure
ntambara
ntamuntu
ntanga
ntangarugero
ntangira
ntangiriro
ntango
ntara
ntarabana
ntarama
ntaramakuru
ntare
ntarengwa
ntari
ntarindwa
ntaruka
ntaryamira
ntashobora
ntavuga
ntawe
nte
ntebe
ntega
ntego
ntekereza
nteko
ntera
ntezilyayo
ntezimana
nthiga
nti
ntibaba
ntibagomba
ntibakuraho
ntibakwiye
ntibari
ntibashobora
ntibibabuze
ntibibe
ntibifatwa
ntibigeze
ntibigomba
ntibihangana
ntibikenewe
ntibisanzwe
ntibishoboka
ntibishobora
ntibisobanutse
ntibivugwaho
ntibukunze
ntibumva
ntibumve
ntibyancira
ntibyari
ntibyatinze
ntibyoroshye
nticyari
ntiganza
ntigeze
ntigishobora
ntigura
ntihanabayo
ntihinyurwa
ntikavugwaho
ntikigomba
ntikiyigaragaze
ntikunda
ntiramenyekana
ntirenganya
ntiryigeze
ntishobora
ntiwahagiye
ntiwigeze
ntiyabasha
ntiyabashije
ntiyagize
ntiyaharenga
ntiyakuze
ntiyapfaga
ntiyari
ntiyashoboye
ntiyemerwa
ntiyigeze
ntiyongera
ntiyongere
ntiyumva
ntizashoboye
ntizigomba
ntizipfa
ntiziryana
ntizishobora
nto
ntoki
ntore
ntoya
ntshinga
ntsinzi
ntugu
ntungamubiri
nturo
ntushobora
ntuyahaga
ntuzibagirwe
ntuzongera
ntv
ntwari
nu
nubian
nubians
nubiya
nubu
nububiko
nubucuruzi
nubuhanga
nubuhanzi
nubuhinzi
nubuhoro
nubuke
nubukene
nubukungu
nubukwe
nubumenyi
nubumuga
nubunararibonye
nubundi
nubunini
nuburanga
nuburemere
nuburenganzira
nuburengerazuba
nuburere
nuburezi
nuburinganire
nubururu
nuburyo
nubusabane
nubushakashatsi
nubushobozi
nubushyuhe
nubusizi
nubuso
nubutaka
nubutwari
nubuvuzi
nubuyobozi
nubuzima
nubwato
nubwenge
nubwinshi
nubwitonzi
nubwiza
nubwo
nubwoko
nubwubatsi
nubwumvikane
nucleoside
nuduce
nudukoko
nuernberg
nugutanga
nuist
nuit
nuko
nukuntu
nukuvuga
numa
number
numero
numerous
numidia
numu
numubare
numubiri
numubyeyi
numuco
numudamu
numugabo
numugenzi
numugore
numuhanga
numuhanzi
numuhungu
numukinnyi
numukino
numukobwa
numukunzi
numuntu
numunyamakuru
numunyapolitiki
numunyarwandakazi
numuproducer
numuririmbyi
numuriro
numuryango
numusaruro
numusore
numuti
numuvandimwe
numuyoboro
numuyobozi
numuziki
numva
numvaga
numvise
numwana
numwanditsi
numwanya
numwe
numweru
numwuka
nundi
nunu
nur
nuremberg
nuriat
nursery
nurses
nursing
nurubyiruko
nuruhererekane
nurukuta
nuruosmaniye
nurwego
nusoma
nusretiye
nutrition
nutubyimba
nutundi
nuuk
nuur
nuveli
nuvuyeho
nuwa
nuwahoze
nuwari
nuwashinze
nuwitabira
nuwo
nuyobora
nwa
nwc
ny
nya
nyababyeyi
nyabagendwa
nyabarongo
nyabihu
nyabimata
nyabinghi
nyabingi
nyabinoni
nyabisindu
nyabugogo
nyaburanga
nyabwo
nyabyo
nyacyo
nyafurika
nyafurikahttp
nyafurikahttps
nyagakecuru
nyagasani
nyagatare
nyagatarehttps
nyagazi
nyagihanga
nyagisozi
nyakabanda
nyakabuye
nyakanga
nyakariro
nyakatsi
nyakibanda
nyakiliba
nyakubahwa
nyakubyara
nyakuri
nyakuron
nyakwigendera
nyakwigenderahttps
nyama
nyamabuye
nyamagabe
nyamagana
nyamagege
nyamagumba
nyamanswa
nyamara
nyamasheke
nyamaswa
nyamata
nyamerika
nyamfaransa
nyaminga
nyamirama
nyamirambo
nyamiyaga
nyampinga
nyampingahttps
nyamugali
nyamugari
nyamugigima
nyamukuru
nyamuragira
nyamvumba
nyamwasa
nyamwinshi
nyamyumba
nyan
nyandiko
nyandungu
nyange
nyangufi
nyanja
nyankenke
nyankora
nyanya
nyanza
nyarabu
nyarubaka
nyarubuye
nyarugenge
nyarugunga
nyaruguru
nyarungege
nyarusange
nyarutarama
nyarutovu
nyarwanda
nyarwo
nyaryo
nyatanyi
nyaxo
nyayo
nyazo
nyc
nyemvugo
nyenyeri
nyerere
nyeyurudu
nyiginya
nyigisho
nyigo
nyin
nyina
nyinawambogo
nyinawamwiza
nyinawumuntu
nyinci
nyine
nyinsh
nyinshi
nyir
nyirabakwiye
nyirabarame
nyirabayazana
nyirabukwe
nyirabwo
nyiragongo
nyirahabimana
nyirakuru
nyiramariza
nyiramasuhuko
nyiramavugo
nyirambangutse
nyiramilimo
nyiraminani
nyiramongi
nyiramunukanabi
nyirangarama
nyirankoko
nyiransabimana
nyiranyamibwa
nyirarugero
nyirarukundo
nyirarume
nyirarutenge
nyirasafari
nyirasenge
nyirayo
nyiri
nyiricyubahiro
nyirimpuhwe
nyirizina
nyirubwite
nyirurugo
nyishi
nyobora
nyobozi
nyoko
nyong
nyongereza
nyoni
nyos
nytimes
nyu
nyubako
nyuguti
nyugwe
nyuma
nyundo
nyundohttps
nyungu
nyungura
nyunguranabitekerezo
nyungwe
nyungweforestnationalpark
nz
nzafashwanayo
nzajyibwami
nzakamwita
nzakomeza
nzamukosha
nzamwita
nzanywa
nzayisenga
nzego
nzeli
nzeri
nzeyimana
nzi
nzibutso
nzige
nzima
nzioki
nzira
nzisabira
nzitizi
nziza
nzizahttps
nzobere
nzoga
nzojibwami
nzoka
nzove
nzozi
nzu
nzuki
nzuzi
nǃxau
o
oa
oafla
oakland
oaklands
oasis
oath
oba
obaldi
obama
obasanjo
oberhausen
oberkappel
obituary
object
objective
obliqsound
observation
observatoire
observatory
observer
obstruction
oc
occupe
oceania
oceanne
oceng
ochieng
oclc
oct
october
octobre
ocug
ocuk
oda
odds
ode
oder
odesa
odessa
odette
odhiambo
odile
odo
odyssey
oec
oecd
oenanthe
of
ofafa
off
offer
offers
office
officer
official
officially
officiates
officiel
officielle
officiers
officinalis
offscreen
offside
ofisi
ofisiye
ofori
og
ogba
oge
ogilvy
ogisijeni
ogola
ogratias
ogun
ogv
oh
ohchr
ohereza
ohio
oid
oignon
oil
ois
oise
ojiambo
ok
okafor
okagbue
okayafrica
okeke
okinda
okiside
oklahoma
okmzansi
okorie
okoro
okoroafor
okpako
okpakohttps
ol
old
ole
olempike
oleracea
olita
oliva
olive
oliveira
oliver
olivia
olivier
olivierkarekezi
oloture
olpc
olson
olu
olusegun
oluwole
olwenya
olympia
olympiads
olympians
olympic
olympics
om
oman
omani
omar
omawumi
ombudsman
omdurman
omega
omegatiming
omo
omondi
omope
oms
omu
on
onard
once
oncology
one
onechi
ones
oneste
ong
onicha
oniga
onion
online
onlineradiobox
only
ono
ons
onsongo
ontario
ontlasting
onto
ontwikkel
onu
onyango
onychognathus
onyeabor
onyo
ooja
ook
oor
oos
oosthuizen
op
ope
open
opening
openness
opens
opera
operation
operations
operative
operetta
operieren
opinion
opinions
opobo
opperman
opportunities
opportunity
opposition
oprah
option
optique
oq
or
ora
oral
oran
orange
oraquick
oray
orbit
orchestra
orchestre
orchide
order
ordre
ordu
ore
oregon
oreor
org
organic
organisation
organization
organizational
organizations
organized
organs
orianka
orientation
original
originally
originalsubdomain
orinfor
oriolus
orlando
oro
orotodogisi
ortako
orto
ortpn
orum
oryx
os
osage
osama
osarhieme
osas
osasco
oscar
oscars
oscillation
osei
osetiya
oseyaniya
oseyemi
oshogbo
osita
ositaraliya
ositarariya
ositiriya
oslo
osmaniye
osmtalent
osogbo
ostrich
osu
osun
oswald
otanwa
otard
otedola
other
others
otherwise
otieno
otirishiya
ots
ottawa
otto
ottoman
ottomani
ou
ouagadougou
ouakam
oud
oudengels
oued
ouedraogo
ouest
ougadougou
oukbir
oulanya
ould
ouma
oumar
oumelkheir
oumma
oup
our
ousmane
out
outbreak
outfest
outlook
outreach
outstanding
ouvrages
ouvre
ov
over
overall
overseas
overview
ovta
owas
owlapps
own
owner
owusu
oxfam
oxford
oxychlorure
oxyde
oya
oyelowo
oyo
oz
ozone
p
pa
pablo
pac
paccy
pacfa
pacha
pacifique
pacino
pacis
packed
paco
pacome
pada
padiri
padsmit
pae
paes
page
pageant
pages
pagina
pain
paix
pakisitani
pakistan
pakkies
palace
palais
palau
palawu
palayam
palermo
palestine
palette
palikir
palio
pallet
palm
pam
pamela
pamella
pan
panafrican
panama
pandemic
panel
panelists
panic
panorama
panoramic
panoramio
pantheon
panther
pantomimes
panzer
pap
papa
paper
papers
papi
papias
papillomavirus
papoea
papouasie
papua
papuwa
par
para
paracetamol
parade
paradise
paragraph
paragraphs
paraguay
paragwe
parajubaea
paralysie
parasiki
parasitica
parc
parce
parcours
pardons
parents
parfum
parike
pariki
parikingi
paris
parishttps
park
parker
parkers
parks
parle
parlement
parler
parliament
parliamentary
parmehutu
parnell
parody
paroisse
parrasana
parsons
part
parti
participants
participation
particular
partner
partners
partnership
parts
party
paruwasi
parviz
pas
pascal
pascale
pascaline
pascar
pascasie
pasha
pasifika
pasiporo
pasiteri
pasolini
passeriformes
passion
passy
past
pasteditions
pasteur
pastor
pastoral
pat
patch
patel
path
pathe
patient
patients
patoranking
patricia
patricie
patrick
patriot
patriotic
patriotique
patriots
patrol
patron
patsey
patterns
pau
paukwa
paul
paula
paulin
pauline
paulo
pavilion
pavlakis
paw
pawpaw
pawulo
pay
pays
pazzo
pbs
pcb
pcm
pcp
pcr
pdc
pdf
pdfhttps
pdfs
pdi
pe
peabody
peace
peacefmonline
peach
peacock
peak
pearl
pearson
peau
pectoralis
pedro
pee
peele
pelagie
pelecaniformes
peleliu
pen
penama
pendo
pene
penelope
penesiline
penguinrandomhouse
penicilline
peninsula
penis
penisetumu
pennisetum
pennsylvania
people
peoplepill
peoples
pep
pepfar
pepiniere
pepiniyeri
pepper
per
percy
perefe
perefegitura
peresibiteriyene
peresida
perez
perezida
perezidansi
perfect
performance
performer
performing
period
periphery
perivi
perm
permanent
peronospora
perraudin
perrine
perry
person
personal
personality
personen
personnalite
personnalites
personnasiyo
personne
personnes
persons
perspective
perspectives
pertevniyal
peru
perugamo
pese
pete
peter
petero
peteroli
peters
petersburg
petit
petite
petra
peut
pf
pferd
pfizer
pfundo
pg
pggss
ph
phant
phantom
pharlap
pharmaceutical
pharmaceuticals
pharmacy
pharmalab
phase
phd
phelane
pheto
phil
philadelphia
philbert
philemon
philip
philippe
philippines
phillip
phillips
philosophy
phiona
pho
phobos
phoebe
phoeniculidae
phoeniculus
phoenix
phone
phones
phonote
phonse
phosphore
photo
photography
photos
php
phphttps
phr
phyllastrephus
phylloscopus
physicians
physics
physiologique
physiotherapists
physique
pi
piano
piantagione
pic
piciformes
picks
picture
pictures
pid
pie
piece
pierce
pierra
pierre
pieter
pietermaritzburg
pietman
pigment
pigmentation
pigra
pii
pike
pilgrims
pill
pilot
pin
pindula
pinnata
pinterest
pinus
pinusi
pioneers
piperazine
pipesanddrums
pipi
pira
piracy
piraino
pirate
pirimusi
pirogue
piscine
pisine
pita
pitch
piti
piticayirine
piu
piyano
piyo
pl
place
places
plage
plan
planet
planning
planocritico
plans
plant
plantation
planting
plants
plantwise
plasma
plasmodisphora
plastic
plastike
plastiki
plata
plate
plateau
platform
platine
platini
platinihttps
platinum
platon
platoon
play
playa
played
player
players
playgroupau
playgroupaustralia
playing
plays
plaza
plc
please
plessis
pleuropneumonia
plo
ploceus
plooy
plot
plotdata
plum
plus
plutella
pm
pmc
pmnewsnigeria
pneumatike
pneumococcal
pneumocystis
pneumonia
png
po
poacher
pod
podcast
podcasts
podium
podocarpus
podolsk
poe
poensis
poet
poetry
pogoniulus
poicephalus
point
pointe
poisonous
poissons
poker
polar
polatlı
police
policies
policy
polinesiya
polisi
politica
political
politically
politician
politics
politike
politiki
politique
pollution
polly
pollyhttps
polo
pologne
polonye
polyglot
polysaccharide
polytechnic
pome
pomme
pompe
pond
pongamia
pont
ponte
poolo
poor
pop
popote
popovitch
populaire
popular
popularity
population
por
pornography
porofeseri
porogarama
porogaramu
poroteyine
porphyrio
porri
port
portada
portail
portal
portela
porter
portfolio
portland
porto
portrait
portugal
portugue
portuguesa
portuguese
porutigali
porutugali
porzana
position
positive
posner
post
poster
posters
postgraduate
posts
potahto
potasi
potasiyumu
potassium
potato
potatorum
potomanto
potsiyumu
potter
poubelles
pouchain
pound
pour
pouvoir
poverty
power
powerful
pp
ppc
ppp
ppsb
pr
practice
practices
pradesh
praha
praise
prayer
praying
pre
preacher
precious
pregnancy
prehistory
premier
premiere
premiered
premieres
premium
premiumtimesng
prep
preparation
present
presentation
presenter
presents
preservearticles
presidence
president
presidential
presidents
presley
press
presse
pressreader
pressreleases
pressrels
preto
pretoria
pretorius
pretoriya
prevention
preventive
preview
prey
pri
price
pricewaterhousecoopers
prie
priere
prima
primaire
primary
primature
prime
primetime
primoz
primus
prince
princes
princess
princeton
principal
principe
prinia
print
printemps
prionops
prioritise
priscilla
priscillah
prison
prisons
private
prix
prize
pro
process
prochnow
procurement
procyclingstats
prod
prodafrica
produce
produced
producer
producerhttp
producerhttps
producers
product
production
productions
productionshttps
productive
products
prof
profemmes
professeur
professional
professionals
professions
professor
profhylaxis
profil
profile
profileability
profiles
profit
progaramu
program
programm
programme
programmes
programs
progre
progress
prohibiting
project
projects
projet
promising
promote
promoted
promotes
promoting
promotion
pron
proper
properly
prophylaxis
proposal
proposals
propose
proposed
prosecution
prospective
prospects
prosper
prostate
protais
prote
protea
protease
protect
protected
protection
protein
proteine
proteins
protest
protestant
proteyine
protocol
protocole
prototype
prototyping
protouch
providence
provides
province
provincial
prs
prunier
pryce
ps
psalms
psd
pseudo
psf
psg
psi
psoroptes
psp
psr
psychiatric
psychologiya
psychology
psychotic
pt
ptb
ptole
pu
pub
pubescens
public
publicain
publication
publications
publique
published
publishers
publishes
pubmed
puerto
pul
pulamu
pulasitike
pulasitiki
pulo
pulse
pumzi
punch
punjab
puppen
purensipe
purple
purpose
pursaklar
pursuit
pushas
pushed
puteri
putin
putra
putuo
puu
puwerito
pvt
px
pxikarita
pyamootoo
pygme
pyongyang
pyramide
pyre
pyrotechniste
pz
q
qa
qaboos
qad
qatar
qavd
qazvin
qc
qgortcjy
qiblatain
qolsharif
qpztgkc
qrz
qu
quadrille
qualifiers
quality
quand
quantity
quarshie
quarter
quarters
quartz
quasi
quatar
quatermain
quatre
quayle
quaynor
quba
qubbat
que
quebec
queen
queenof
queens
queenscommonwealthcanopy
queensland
queer
quelea
quelle
query
questions
quett
qui
quid
quince
quincy
quinn
quinne
quintille
quito
quotes
qura
qwasi
qwmk
qz
r
ra
rab
rabat
rabbit
rabe
rabi
rable
race
rachel
rachid
racontas
radar
radio
radiotimes
radiotv
radisson
radiyo
radiyoyacuvoa
radoje
rafael
rafiki
raheem
rahimi
rahma
rahman
rai
rail
raimondo
rain
rainbow
raise
raised
raises
raissa
rajah
rajesh
raksha
ral
raleigh
ralga
rallies
rally
ralph
ralston
raltegravir
ram
ramadhan
ramadhani
ramadhwan
ramaphakela
ramayana
rambura
rametsi
ramon
ramphele
ramsey
rance
randa
randall
rands
ranepa
rangers
rangombwa
rankings
rantao
raouf
rap
rapa
rapanuyi
raperi
raphael
raphaela
rapid
rapidlion
raporo
raps
raquel
rard
rarda
ras
rashid
rather
ratio
ration
rauf
ravel
rawdha
ray
raya
raymond
rayon
rayons
rb
rba
rbc
rc
rca
rcd
rcs
rcsprwanda
rd
rda
rdb
rdc
rdf
rdr
re
reach
reaching
read
readers
reading
ready
reagan
real
realisateur
realisateurs
realism
realities
reality
realness
realscreen
reason
reb
reba
rebecca
rebellie
rebelo
rebera
rebero
rebuilding
rec
recap
recapture
receive
receives
recently
recep
recherche
recht
rechtsfa
recipe
reconciliation
record
records
recovery
recreatrales
rector
red
redemption
redentore
redirect
reel
reeves
ref
refane
referances
reference
references
referendum
referrer
refinery
reflect
reflects
refugee
refugees
reg
regard
regardt
reggae
regime
regimes
regina
region
regional
regionalinformation
regions
regis
register
registrar
registration
regulating
regulations
regulorum
rehabilitation
reich
reign
reigning
reims
reine
reinvented
reis
reiterated
rejected
reka
rekambys
related
relation
relations
relationships
reld
reldwyd
release
released
releases
relentless
relief
reliefweb
religion
religions
religious
reload
relocate
rema
remdoogo
remembering
remembrance
remera
remezo
remix
remote
remporte
ren
renaissance
renaudot
rence
rencontre
rencontres
rene
renegade
renewable
renewal
renewed
rennes
rensburg
rentals
renus
repebulika
repertory
rephaboliki
replace
report
reporter
reporters
reportgirinkaapril
reports
represent
representative
representatives
represented
represents
repu
repubblica
repubilika
republic
republican
republik
republika
republished
repubulika
repuburika
req
request
require
requires
rero
res
rescue
research
researchgate
reserve
resgate
reshuffles
residents
resignation
resilience
resistance
resitora
resolutions
resource
resources
response
responsibility
responsive
rest
restaurant
restaurent
reste
restoration
restored
restricted
result
results
resurrection
reta
retains
rethabile
rethymnon
reticulata
retour
retrieved
retrovirus
return
returns
reuters
rev
reveals
revenge
revenue
reverend
revers
reverse
review
reviewed
reviews
revision
revival
revolution
revolutionary
revolutionise
rex
reyiniyo
reykjavi
reyneke
rez
reza
rfi
rfimusique
rgb
rgen
rgio
rh
rha
rhapidophyllum
rhimes
rhinoceros
rhizoctonia
rho
rhode
rhodes
rhodesia
rhys
rhythm
ri
ria
riahi
rian
rib
riba
ribanza
ribarizwa
ribaye
riber
ribera
ribi
ribivuga
riboneka
ribuza
ric
rica
ricain
rich
richard
richmond
rick
rico
ricuruza
ridahagije
ridaharanira
ridasubirwaho
ride
rider
riderman
ridm
rie
rien
rienne
riepa
rieur
rieure
rifasha
rifashe
rifata
rifatanije
rifatwa
rifayi
rifitanye
rifite
rift
rig
riga
rigamije
rigaragara
rigaragaza
rigari
rigena
rigenda
rigenewe
rigenga
rigera
right
rights
rigira
rigiye
rigizwe
rigoga
rigomba
rihagarara
rihana
riharanira
riherereye
rihereye
rihinduka
rihindurwa
rihoraho
rihuye
rihuze
rije
rijigije
rijyanye
rika
rikaba
rikikije
rikikijwe
riko
rikomeje
rikomeye
rikomeza
rikomoka
rikora
rikorera
rikorerwa
rikoresha
rikoresheje
rikoreshwa
rikorwa
rikubiyemo
rikurikirana
rikuru
rikuze
rilima
rilpivirine
rim
rima
rimaze
rimgana
rimsky
rimwe
rimwehttps
rin
rinderpest
rindi
ringana
rinini
rino
rinunce
rio
riparia
ripples
rir
riracyari
rirambye
rirangira
rirangiye
rirasaba
rire
rirenga
rirengera
rirenze
riri
ririho
ririmo
rirongera
rirwanya
risa
risaba
risanga
risanzwe
rise
rises
rishaje
rishimishije
rishingiye
rishinzwe
rishishikariza
rishobora
rishya
rishyira
rishyiraho
rishyirwa
rising
risk
risks
risobanura
risobanurwa
rita
ritagira
ritandukanye
ritanga
ritangira
ritangiza
ritashye
ritegeka
ritegura
ritegurwa
ritera
riterwa
riti
rito
ritukura
riva
river
riverhttps
rivers
riviera
rivuga
riyadha
riyo
riyoborwa
riyobowe
riza
rizakomeza
rize
riziki
rizwi
rk
rkc
rkiye
rlrc
rmc
rn
rna
rnb
rnp
rnud
ro
road
roads
roasted
rob
robbery
robbie
robert
roberts
robey
robin
robinson
roc
rocancourt
rochester
rock
rockefeller
rocketreach
rocky
rodney
rodriguez
roger
rogerebert
rogers
rogosin
roho
roi
rok
rokhaya
rol
roland
rolande
role
roles
roll
rolland
rollers
rolling
roma
romainville
roman
romance
romania
romaniya
romantic
romantism
romarin
romcom
romdhane
rome
romeo
ronald
rondereza
rongi
roodt
roof
room
roosevelt
roots
rosa
rosalie
rosamund
rose
roselyn
rosemary
roses
rosette
rosine
ross
rossa
rossouw
rotary
rottentomatoes
rotterdam
roubaix
roues
rouge
rouget
rough
roukiata
roumani
round
roundabout
rousseff
route
routledge
rouville
roux
rova
rover
roy
royal
royale
royalty
royaume
roza
rozin
rp
rpa
rpc
rpf
rpfinkotanyi
rppa
rr
rra
rsb
rse
rss
rst
rt
rtbf
rtd
rtlm
rtp
rtv
ru
rua
ruanda
ruasagavulu
ruba
rubagimpande
rubaho
rubanda
rubangura
rubangurirwa
rubanza
rubarinda
rubarirwa
rubarizwa
rubavu
rubaya
rubengera
ruberwa
rubi
rubibi
rubingo
rubirizi
rubitangaza
rubona
ruboneka
rubrique
rubuga
rubura
rubyara
rubyiniro
rubyiro
rubyiruko
rucogoza
rucyeye
rudafite
rudahigwa
rudasanzwe
rudasingwa
rudloff
rudolf
rue
rufata
rufatwa
rufite
rufitiye
rufiventris
rufonsina
rufonsinahttps
rugabano
rugabanya
rugabira
rugabire
rugacutsa
rugahinduka
rugakomera
rugali
rugalika
rugamba
rugambwa
rugamije
rugana
ruganda
rugangura
ruganzu
rugaragara
rugaragaza
rugarama
rugari
rugby
rugege
rugendabari
rugende
rugendo
rugenge
rugera
rugerero
rugero
rugerwaho
rugeze
rugezi
ruggiu
rugimbana
rugira
rugirangoga
rugiye
rugizwe
rugo
rugohttps
rugomba
rugomero
rugufi
rugunga
ruguru
rugwabiza
rugwizangoga
ruha
ruhabwa
ruhagije
ruhago
ruhaka
ruhame
ruhamya
ruhana
ruhande
ruhando
ruhanga
ruhango
ruhangwambone
ruhanitse
ruhare
ruhari
ruharwa
ruhashya
ruhengeri
ruhererekane
ruherereye
ruherereyemo
ruheru
ruhira
ruhita
ruhondo
ruhongohongo
ruhoraho
ruhu
ruhuha
ruhunde
ruhura
ruhuza
ruhwa
ruins
ruje
rujindiri
rujyanye
rukaba
rukabishoramo
rukagira
rukamba
rukara
rukarara
rukari
rukenera
rukera
rukiga
rukiko
rukina
rukingiwe
rukingo
rukira
rukiri
rukirinda
rukitwa
rukoma
rukomeje
rukomeye
rukomeza
rukomo
rukora
rukorera
rukoresha
rukoreshwa
rukotana
rukozo
rukumberi
rukumbi
rukundo
rukunze
rukurikira
rukurikirane
rukuru
rukuruzi
rukuta
rukuze
rukwavu
rul
rule
ruli
rulinda
rulindo
rum
rumaga
rumaniya
rumanukaho
rumaze
rumeze
rumuri
rumwe
run
runaka
runana
runaway
rund
runda
rundi
rungano
rungqu
rungu
runini
runinihttps
runner
runningthe
runoza
runoze
runs
runyankore
runyanya
rupfa
rupfu
rupima
ruqayya
rura
ruraboneka
rurahagije
rural
ruramba
ruramira
rurangwa
rurema
rurembo
ruremesha
rurenda
rurenga
rurenge
rurenze
rurerure
ruri
rurimi
rurimo
rurinda
rurindo
rusange
rusangehttps
rusangwa
rusanzwe
rusarabuye
rusenge
rusengero
rusesabagina
rushaje
rushaki
rushanwa
rushashi
rushimishije
rushimusi
rushinge
rushingiye
rushinzwe
rushoboka
rushobora
rushora
rushya
rushyashya
rusi
rusia
rusiga
rusine
rusizi
rusobe
rusohoka
rusororo
russell
russet
russia
russian
rusumo
ruswa
rutabura
rutagatifu
rutagengwa
rutagira
rutahizamu
rutandukanye
rutanga
rutangaje
rutangarwamaboko
rutangira
rutare
rutaremara
rutari
rutarindwa
rutayisire
rutemba
rutera
ruterwa
ruteye
ruth
rutherford
ruti
rutigeze
rutishoboye
ruto
rutonde
rutongo
rutoroshye
rutoya
rutsinze
rutsiro
rutugu
rutumiza
rutunga
rutunganya
rutunguranye
rutura
ruturutse
ruva
ruvanzemo
ruvuga
ruvugwa
ruwe
ruwenzori
ruyobowe
ruza
ruzengurutse
ruzi
ruzindana
ruzinduko
ruzirinda
ruzitiye
ruzizi
ruzwi
rv
rw
rwa
rwaba
rwabahanzi
rwabantu
rwabaye
rwabereye
rwabo
rwabonye
rwabugili
rwabugiri
rwacu
rwafashe
rwagasabo
rwagasana
rwagasore
rwagati
rwagenewe
rwagize
rwagurishije
rwahawe
rwahaye
rwahindutse
rwahsyize
rwahuguwe
rwaje
rwaka
rwakabamba
rwakarere
rwakazina
rwakira
rwakoze
rwakozwe
rwakuma
rwakunda
rwamagana
rwamamaye
rwamateka
rwamenyekanye
rwamiko
rwana
rwanda
rwandaday
rwandaecocompany
rwandaequip
rwandagorillasafaris
rwandahttp
rwandahttps
rwandair
rwandais
rwandaise
rwandaises
rwandajournalists
rwandamagazine
rwandamilitaryhospital
rwandamountaintea
rwandan
rwandans
rwandapedia
rwandas
rwandatoday
rwandayp
rwandese
rwandikiwe
rwanditswe
rwangombwa
rwanjye
rwankuba
rwanyindo
rwanyuze
rwaragabanutse
rwarakabije
rwaravuzwe
rwari
rwarimo
rwasa
rwasamanzi
rwasanze
rwashinzwe
rwashyize
rwashyizwe
rwasibo
rwasohotse
rwasojwe
rwatangaje
rwatangajwe
rwatangiraga
rwatangiye
rwatanze
rwateje
rwatewe
rwateye
rwatsi
rwatsinzwe
rwatubyaye
rwatumizaga
rwavumbuwe
rwavuyemo
rwawe
rwayo
rwaza
rwca
rwe
rwego
rwema
rwemarika
rwemeje
rwemewe
rwenga
rwenya
rwenzori
rwera
rwerekana
rwerere
rweru
rwesero
rwezamenyo
rwf
rwi
rwibanze
rwibikorwa
rwibintu
rwibinyabuzima
rwibitabo
rwiburengerazuba
rwibutso
rwibyago
rwiga
rwigamba
rwigema
rwigenga
rwigihugu
rwihariye
rwihaye
rwihishwa
rwijimye
rwikigo
rwimbogo
rwimbyino
rwimijyi
rwinarizo
rwinganda
rwingufu
rwinjira
rwinjiye
rwinkwavu
rwinshi
rwintego
rwinzira
rwisi
rwisumbuye
rwiteguye
rwitwa
rwiyemeje
rwiyemeza
rwiyemezamirimo
rwiza
rwo
rwogera
rwohambere
rwohejuru
rwohereza
rwonyine
rworohereye
rworoshye
rwose
rwot
rwu
rwubatswe
rwuburezi
rwuburyo
rwumuhanda
rwumukungugu
rwumurage
rwumwuka
rwunge
rwuri
rwurugendo
rwurwenya
rwuzuye
ry
rya
ryaba
ryabaga
ryabakinnyi
ryabakozi
ryabana
ryabantu
ryabanyeshuri
ryabaye
ryabayeho
ryabayobozi
ryaberaga
ryabereye
ryabirabura
ryabo
ryabonye
ryabujijwe
ryabyo
ryacu
ryagaragaje
ryagaragaye
ryagereranya
ryagiye
ryagize
ryagutse
ryahawe
ryahesheje
ryahinduwe
ryahinduye
ryahise
ryahitanye
ryaho
ryahoze
ryaje
ryakarere
ryakira
ryakiriwe
ryakomeje
ryakomotse
ryakoreshejwe
ryakorewe
ryakoze
ryakozwe
ryamakinamico
ryamamaye
ryamamaza
ryamaso
ryamatsinda
ryamaze
ryambabaje
ryambere
ryan
ryanditswe
ryangiza
ryangombe
ryanjye
ryarahindutse
ryarangiye
ryaremye
ryari
ryarimo
ryariyongereye
ryarwo
ryasanze
ryashingiwe
ryashinzwe
ryashyizeho
ryashyizwe
ryashyizweho
ryatakaje
ryatangaje
ryatangajwe
ryatangijwe
ryatangira
ryatangiriye
ryatangiye
ryatanze
ryatanzwe
ryateganijwe
ryateguwe
ryateje
ryatewe
ryatoranijwe
ryatowe
ryatsinze
ryatumye
ryaturutse
ryatwaye
ryavuguruwe
ryavutse
ryavuye
ryawe
ryawo
ryayo
ryayobowe
ryazanye
ryazanywe
ryazengurukaga
ryazo
rye
ryegereye
ryemeje
ryemejwe
ryemerera
ryemereye
ryemewe
ryemeza
ryera
ryerekana
ryerekanwa
ryerekanwe
ryerekanye
ryerekeye
ryerekeza
ryi
ryibanda
ryibanze
ryibasiye
ryibicuruzwa
ryibiti
ryibumba
ryiganjemo
ryigenga
ryigihe
ryigihugu
ryigisha
ryigisonga
ryihariye
ryihuse
ryijimye
ryijisho
ryikoranabuhanga
ryimakaza
ryimigabane
ryimiterere
ryimyidagaduro
ryinganda
ryinshi
ryinyubako
ryiruka
ryishe
ryishimiwe
ryisumbuye
ryiswe
ryita
ryitabiriwe
ryiterambere
ryitiriwe
ryitumanaho
ryitwa
ryitwaga
ryiyongera
ryiza
ryizuba
ryo
ryongera
ryonyine
ryorohereje
ryose
ryu
ryubatswe
ryubuhanzi
ryubukungu
ryubumenyi
ryuburezi
ryubuzima
ryujuje
ryumukinnyi
ryumurimo
ryumuryango
ryumuziki
rı
s
sa
saa
saad
saadi
saan
sabah
sabanci
sabc
sabela
sabena
saber
sabha
sabin
sabizeze
sabri
sabune
sabyinyo
sacchi
sacco
sachs
sada
sadc
sadio
safaa
safari
safaris
safe
safi
safta
saftas
saga
sagas
sage
sagesse
saha
sahabo
sahara
saharan
saheb
sahel
sai
said
saif
saifuddin
sain
saint
sainte
saintlouis
sais
saison
sake
sakhrah
saknussemm
sakwe
salaam
salade
salah
salahiyya
salahuddin
salama
salawu
salax
saleh
salih
salima
salle
sallim
sally
salma
salo
salogi
salome
salomo
salon
salus
salusiyo
salute
saluvadoro
salvador
salwa
sam
samad
samama
samantha
samar
samarra
samba
sambaza
sambizanga
samburu
same
samedi
sami
samir
samira
sammy
samoa
samowa
samples
samsun
samuel
samukondo
samurai
samusure
samweli
san
sana
sancaktar
sanders
sandra
sandrine
sands
sandton
sanduwice
sandy
sane
sangui
sangwa
sani
sankara
sankofa
sankore
sanma
sano
sanou
sans
santa
santara
sante
santiago
santimetero
santos
sanu
sanusi
sanya
sanzwe
saphine
sapiens
sar
sara
sarah
sarajevo
saranda
sarcoma
sarcoptes
sardar
sarie
sarothrura
sarovar
sarpong
sarudi
sarıc
sasa
sasha
sassou
sat
satani
satanskoraal
satelite
satellite
satire
satirical
satisfashionug
sativa
saturday
satya
saud
saul
saulve
sauti
sava
savage
savanhu
savanna
savannah
savannanews
save
saverina
savethechildren
savio
savoir
sawo
sawudi
sawudite
sawuli
say
saye
sayinzoga
says
sayyidah
sazi
sberbank
sbw
sc
scandal
scandals
scandinavia
scarification
scene
scenes
schedule
scheherazade
scheideni
schema
schifter
schilling
schlingensief
schmidhuber
schneider
scholaire
scholar
scholarship
scholarships
scholastique
school
schools
schoolsinrwanda
schoucair
schreckens
schulz
schwarze
schweinfurtii
sci
science
sciencedirect
sciences
scientific
scientifique
sclerotium
sclient
scolaire
sconce
sconces
scoops
score
scores
scorpion
scotland
scott
scottish
scovia
screen
screenafrica
screendaily
screened
screening
screens
screenwriter
script
scriptus
scum
sdn
se
sea
seal
sean
search
season
seasons
seat
seattle
sebanani
sebastian
sebastien
sebazungu
sebera
sebeya
sebu
sebukwe
seburikoko
sebutimbiri
sec
sechaba
second
secondaire
secondary
secret
secretary
secrets
section
sections
sector
securities
security
sedufia
sedufias
see
seeing
seek
seeks
seeland
seen
sefer
sefu
segatashya
segment
segrate
segun
sehene
sehttps
seine
seis
seite
seka
sekarongoro
sekibi
sekiz
seko
sekoko
sekuru
sekuruza
sel
selangor
selassie
selat
selected
selection
selects
selenium
self
selfie
selhami
selile
selim
selimiye
selina
selinawamucii
selmon
selo
selon
semaine
semainedelacritique
semanticscholar
sembe
sembene
semi
seminaire
seminari
semineri
sempoma
semugeshi
semuhungu
sen
sena
senate
senateri
senateur
senator
senators
sendanyoye
sendashonga
senderi
sendling
senecio
senegal
senegalensis
senegalhttps
senegali
senhor
seninga
senior
senna
sensation
senscritique
sense
sensing
sensors
sentation
sentenced
sentiment
sentimetero
sentore
seoul
sep
separate
sepp
sept
septante
september
septembre
septin
septum
sequel
ser
seraphine
serbia
seremoliya
serena
serengeti
seretse
serge
sergent
sergio
seri
serial
seribiya
serie
series
serigne
serija
serinus
seriously
seriveri
serivise
serivisi
seroconversion
seroconvert
serotonin
serpentine
serukiramuco
serval
service
services
servilien
serving
ses
sesbania
sese
sesenta
session
sessions
set
setanta
setariya
seth
sets
setting
settle
sevastopol
seven
sevota
sex
sexual
sexuellement
sexy
seychelles
seychellois
seyin
seyishele
sezari
sezioni
sf
sfb
sfn
sg
sga
sgt
sh
sha
shacolas
shaddyboo
shadia
shadow
shadyboo
shafaqna
shagara
shah
shahjahan
shahnameh
shahryar
shaina
shaka
shake
shakespeare
shakira
shalon
shami
shamira
shampiona
shampiyona
shana
shane
shangani
shangasha
shangazi
shanghai
shangi
shanitah
shapers
shapi
sharangabo
share
shareef
sharena
shares
shark
sharon
shat
shaughnessy
shauna
shaw
she
shebuja
sheet
shefa
sheffield
sheikh
sheila
sheja
shekki
shelegi
shema
shene
shengren
sheraton
sherrie
shezi
shi
shia
shift
shigellosis
shigeru
shikibu
shili
shilubana
shimwe
shine
shingiro
shipure
shira
shirley
shitani
shitta
shiva
shonda
shoooosh
shoot
shooting
shop
shopping
short
shot
should
show
showbiz
showid
showing
showmax
shown
shows
shqipe
shri
shrine
shtml
shtmlhttps
shu
shuga
shumbusho
shuri
shusha
shusho
shuvalov
shyaka
shyamba
shyara
shyari
shyira
shyirahamwe
shyirambere
shyogwe
shyorongi
si
siatta
sibo
sibomana
sibongile
sibyo
sic
sid
sida
side
sidechic
sidi
sidibe
sidiki
sidna
sidney
sie
sieff
siegfried
sien
sierra
sifa
sig
siganwa
sight
sign
signed
significant
signs
siirt
siki
sikizofreniya
siko
silas
silberfeld
silence
silent
silicon
siligo
silovakiya
siloveniya
silva
silvao
silver
silverbird
sima
simba
simbi
simbizi
similar
similis
simon
simone
simoni
simpson
simusiga
sin
sina
sinan
sinatra
sinayi
sinayobye
sincan
since
sindikubwabo
sinema
sinemahttps
sing
singa
singapoer
singapore
singer
singh
singida
singira
single
singles
sinifuza
sinizite
sinking
sinohydro
sinop
sintex
sinzi
siperansiya
siphiwe
sipho
sipiriyani
siporo
siprage
sir
siri
siriya
sirus
sirusi
sis
sisalana
sischen
sisi
sisiteme
sisitemu
sissako
sissili
sister
sita
sitade
sitasiyo
sitati
sitcom
sitcoms
site
sitereputokusi
sites
sithole
siti
sitidiyo
sivas
sivile
siwa
six
siyanse
siyansi
siyera
siyoni
sk
skales
skateboard
skeleton
skeletons
skenjana
skills
skin
skopje
skotty
sky
skyline
sl
slaheddine
slated
slim
slovakia
slovenia
slow
slowakiya
small
smart
smc
sme
smec
smh
smiled
smiri
smith
smoking
sms
smuts
sn
snake
so
soad
soapie
soapies
sobanukirwa
soccer
social
sociale
sociales
socie
societe
societies
society
socio
sociologiya
sociology
sodiyumu
soedan
soeur
soeurs
sofapaka
sofi
sofia
sofiya
sofonisba
software
sogokuru
sogokuruza
sogonya
sohag
soir
sokhulu
soko
sokollu
sol
solange
solani
solanum
solar
soldier
soldiers
sole
soleil
soli
solid
solidality
solidarity
solina
solo
solomon
solomoni
solomons
solothurn
solution
solutions
soma
somaliya
sombre
some
something
sometimes
somewhere
somi
sommer
son
sonarwa
song
songa
songhay
songs
sonia
sonny
sono
sons
sonsorol
sont
sony
sood
sool
soon
soos
sophia
sophiatown
sophie
soraya
sorbonne
sors
sort
sos
sosiyete
sosiyeti
soso
sosthene
sotigui
souffrance
souhila
soul
souleymane
sound
soundcloud
soundtrack
source
sources
sous
sousa
south
southafrica
southern
soviet
sovu
sowetanlive
soweto
soya
sp
spa
space
spain
sparrow
spe
speak
speaker
speakers
speaking
speaks
spearheading
special
specialist
species
specogna
spectrum
speech
speleothem
speleothems
spermestes
spf
spice
spieler
spinney
spip
spirit
spiritualityandpractice
spiu
spla
spodoptera
spoelstra
spoken
sport
sportif
sportifs
sporting
sports
sportshttps
spotify
spotlight
spread
spreading
springer
springs
sprint
sprinter
sq
sqoop
square
sr
srebrenica
sri
ssa
ssali
ssr
st
staatsschuld
stab
stability
stable
stade
stadhuis
stadia
stadium
stadt
staff
stage
stagecraftgari
stake
stakeholder
stakeholders
stallion
stam
stan
stanbul
stand
standard
standardmedia
stander
standing
stanford
stanislas
stanley
star
starbucks
starch
starhttps
starring
stars
start
started
starting
starts
startup
state
stated
states
station
statistics
stats
statshttps
statue
status
staub
stay
ste
steen
steenkamp
stefania
stefanie
stefanos
stein
stella
stellenbosch
stem
stenvers
stephanie
stephen
ster
stereo
sterilizers
steve
steven
stevie
stewardson
stewart
stext
steyn
sti
stickin
stiglitz
still
stock
stockholm
stokvel
stolz
stone
stop
storeygard
storie
stories
storm
story
stradija
strand
strasbourg
strategic
strategy
strawberry
stre
stream
streaming
street
strengthen
streptopelia
striata
strike
stringfixer
strip
striptease
stromae
strong
strongle
structure
structures
stuart
student
studente
students
studies
studio
studios
studiyo
study
studyportals
stunning
stunt
style
stype
su
suakin
sub
subject
submitted
subpluvial
subsp
subtropical
suburb
suburban
success
successful
such
sucre
sud
sudabeh
sudan
sudanese
sudani
sudi
sue
sugar
suggested
sugira
suid
suisse
suite
suits
sukumi
sul
sulcus
suleiman
suleymaniye
sulfamethoxazole
sultan
sultanahmet
sulutani
sulwe
sumbuye
sumithion
summaries
summarizes
summary
summer
summit
sumo
sumy
sun
sundance
sunday
sundayworld
sung
sunnewsonline
sunrise
sunset
suomi
supa
supe
super
superciliosus
superieur
superman
supermarket
supplement
supplies
supplmentation
supply
support
supporting
suppress
supranational
supreme
sur
sura
surgery
suriansyah
suriname
surinamu
survey
surveying
surveyors
survival
survive
surviving
survivor
survivors
sus
susan
susi
suspended
sustainability
sustainable
sutherland
suva
suvorin
suwede
suzana
suzanne
suzman
sv
svg
sw
swahili
swaniker
swansea
swaziland
swearing
sweden
sweet
sweetness
swhs
swimming
swing
swiss
swisse
swissfilms
switch
sworn
swpe
sxsrf
sy
syakirin
sybil
sycholt
sydney
syhaka
sylla
sylvain
sylvia
sylvie
sylviidae
symbol
symphonic
symphony
symptoms
synchronization
syndrome
system
systems
sz
szymanowski
səkkiz
t
ta
taal
taarifa
tab
taba
tabaci
tabane
tabet
tabia
tabid
tachi
tackle
tadeyo
tadias
taekwondo
tafea
taft
tag
tage
taghit
tagisi
tags
taha
tahi
tahya
tai
taille
tailteann
taipei
taisamo
tait
taiwan
tajikisitani
tajouj
tajudeen
take
taken
takes
takht
taking
takisi
takwa
tal
tala
talal
talat
talavera
tale
talent
talenta
talents
tales
taliki
talk
talkafricanmovies
talks
tallinn
taluksangay
tam
tamahagane
tamara
tamaryn
tambour
tamil
tamy
tana
tanaioa
tandfonline
tandukaniro
tang
tanga
tanganyika
tangawizi
tangazo
tangier
tango
tanit
tant
tanu
tanzania
tanzanie
tanzaniya
tanzaniyahttps
tapiwa
tare
target
targets
tariki
tariq
tariro
tarnagda
tarnovo
tas
task
tasp
tat
tatarisitani
tatiana
tats
tattooing
tatu
tau
taumelt
taurotragus
taux
tavares
tawheed
tax
taxes
taxi
taye
tayilande
tayipeyi
tayiwani
taylor
taynal
tayyip
tazoughai
tb
tbb
tbhbyeiwaaktm
tbilisi
tbm
tboss
tc
tchad
tchagra
tchindas
tcm
tcmdb
tdf
tdpelmedia
te
tea
teacher
teaching
team
teams
tears
teatre
teatro
tebogo
tech
technical
technique
techniques
technologies
technology
ted
tedalat
teddy
tedx
tedxeuston
teen
teenage
teeniez
tegeko
teguia
tegura
tehran
teigne
tekinike
tekiniki
tekinologi
tekinoloji
tekinoroji
tekirdag
tekke
tekkiye
tel
tele
telecom
telefone
telefoni
telegraph
telenovela
telephone
telerama
teleserial
television
televisiyo
televiziyo
tell
telling
tells
telluride
telophorus
telquel
tembera
temer
template
templates
temple
tempo
temps
tempy
temzu
ten
tenacity
tendaiishe
tender
teneriya
tengah
tengku
teniya
tennis
tenofovir
tenshi
tephrosia
tequilana
ter
tera
teradignews
terambere
terefone
teresa
tereviziyo
terite
teritwari
term
terra
terre
terrence
terrestrial
terrick
territory
terry
tertullien
tes
tessa
test
testament
testamento
testis
teta
tetanus
tete
tetero
tewologiya
tewolojiya
texas
text
textile
tezeta
tf
tfiny
tgv
th
tha
thabang
thabo
thacien
thadde
thai
thailand
thakkar
tham
thami
than
thanh
thank
thanks
thanksgivig
that
thato
thayna
the
theafricareport
theater
theatre
thebeehive
thebridge
thecable
thecampus
thechoicelive
thecitizen
thecityceleb
theconversation
theculturenewspaper
theculturetrip
theeagleonline
theeastafrican
thefacts
thefamousnaija
thefreelibrary
theguardian
theheadandtheload
theigc
theindependentcritic
their
them
themba
thembeka
thembi
theme
themes
themoviedb
then
thenation
thenet
theodore
theogene
theology
theoneste
theory
theportcitynews
therapy
there
thereby
therese
theron
these
theses
thesouthafrican
thewellspringfoundation
they
thiamine
thierry
things
think
third
this
thisday
thisdaylive
thisisafrica
thkuri
thoko
thomas
thompson
thompsonhttps
those
thoughts
three
thriftbooks
thriller
thrombosis
through
thuis
thulani
thuli
thumb
thumbtime
thursday
thuto
thyme
ti
tibesti
tibet
tibeti
tica
tidjara
tie
tien
tienne
tierra
tiff
tiffany
tiger
tigers
tijd
tike
tilden
till
tim
timaya
timbuktu
time
timeout
times
timeslive
timor
timoro
timoteyo
timothy
timu
tin
tina
tinghir
tini
tino
tinyuka
tips
tipu
tirana
tirikomunasi
tirinida
tiripoli
tiripusi
tiriyari
tisch
tishkoff
tit
titi
title
titleid
titles
tito
titre
tivoli
tiwa
tk
tm
tmc
tme
tmnr
tn
tnp
to
tobacco
tobago
tobi
tobong
tobongu
tockus
today
todd
toddalia
toe
toerisme
together
togetherness
togo
toit
toka
tokat
tokelawu
token
tokyo
tolat
told
toledo
tolerance
tolng
tolo
tolu
tom
tomas
tomasi
tomate
tomaterosafleisch
tomaterosafleischhttps
tomato
tomatoes
tombul
tome
tommy
tomorrow
tonder
tong
tonga
toni
tonic
tony
tonzi
too
tooba
took
tools
top
topafricanews
topic
topics
topik
topis
toplace
torah
torallyi
torba
torero
torino
torinofilmlab
torkelt
toroitich
toronto
torre
torres
torso
torture
toru
tosa
tosh
tot
total
totale
totenmelodie
totenquintett
totentraum
totia
toto
touba
toubabdialaw
touch
touchrwanda
touki
toulouse
tour
toure
tourism
tourist
tours
tout
toute
touzani
towards
towel
tower
towers
town
townsend
township
toxicology
toxoplasmose
toxoplasmosis
toyin
toyosi
tpg
tpn
tr
trabzon
trac
trace
tracey
tracing
track
tracy
trade
tradition
traditional
traditionnelle
tragelaphus
trail
trailblazersimpact
trailblazing
trailer
trails
train
training
trakt
trang
trans
transcorp
transcribed
transcriptase
transcripts
transfer
transfermarkt
transformation
transfusion
transgender
[...]
