!
"
#
##0
##1
##10
##11
##12
##13
##14
##15
##16
##17
##18
##19
##2
##20
##21
##22
##23
##24
##25
##26
##27
##28
##29
##3
##30
##31
##32
##33
##34
##35
##36
##37
##38
##39
##4
##40
##41
##42
##43
##44
##45
##46
##47
##48
##49
##5
##50
##51
##52
##53
##54
##55
##56
##57
##58
##59
##6
##60
##61
##62
##63
##64
##65
##66
##67
##68
##69
##7
##70
##71
##72
##73
##74
##75
##76
##77
##78
##79
##8
##80
##81
##82
##83
##84
##85
##86
##87
##88
##89
##9
##90
##91
##92
##93
##94
##95
##96
##97
##98
##99
$
%
&
'
(
)
*
+
,
-
.
/
0
00
000
0000
0001
0002
0003
0004
0006
001
002
0021
0022
0028
003
0031
004
005
006
007
008
009
01
010
011
012
013
014
0140
015
016
017
018
019
0190
02
020
021
022
024
025
0261
03
030
033
0362
04
05
050
06
067
07
08
083
09
0971
1
10
100
1000
1001
1002
1006
1007
101
1016
1017
102
1021
1023
1029
103
1037
1038
1039
104
1042
1046
105
1050
1051
1055
1056
106
1063
1066
107
1071
1073
1074
108
1080
1086
1088
109
1090
1093
1095
1096
1097
1098
1099
11
110
1100
1101
1103
1109
111
1111
112
1126
1128
113
1130
1134
1136
114
1145
1146
115
116
1163
11646
117
1175
1177
118
1186
119
12
120
1200
121
1210
122
123
1235
124
125
1250
126
127
128
129
13
130
1300
131
132
133
134
135
1350
1353
136
1365
137
1371
138
1385
139
14
140
1400
141
142
143
144
1440
145
1450
1453
146
1460
1467
1468
1469
147
1471
1475
1476
148
149
1492
15
150
1500
151
1515
1517
152
1520
1521
1523
1524
1525
1526
1527
153
1530
1534
1535
1536
1537
1538
1539
154
1540
1541
1542
1545
1547
1548
155
1550
1552
1553
1554
1555
1556
1557
1558
1559
156
1560
1561
1562
1563
1564
1565
1566
1567
1568
1569
157
1570
1571
1572
1573
1574
1575
1578
158
1580
1581
1582
1583
1584
1585
1586
1587
1588
1589
159
1590
1591
1592
1593
1594
1595
1596
1597
1598
1599
16
160
1600
1601
1602
1603
1604
1605
1606
1607
1608
1609
161
1610
1611
1612
1613
1614
1615
1616
1617
1618
1619
162
1620
1621
1622
1623
1624
1625
1626
1627
1628
1629
163
1630
1631
1632
1633
1634
1635
1636
1637
1638
1639
164
1640
1641
1642
1643
1644
1645
1646
1647
1648
1649
165
1650
1651
1652
1653
1654
1655
1656
1657
1658
1659
166
1660
1661
1662
1663
1664
1665
1666
1667
1668
1669
167
1670
1671
1672
1673
1674
1675
1676
1677
1678
1679
168
1680
1681
1682
1683
1684
1685
1686
1687
1688
1689
169
1690
1691
1692
1693
1694
1695
1696
1697
1698
1699
17
170
1700
1701
1702
1703
1704
1705
1706
1707
1708
1709
171
1710
1711
1712
1713
1714
1715
1716
1717
1718
1719
172
1720
1721
1722
1723
1724
1725
1726
1727
1728
1729
173
1730
1731
1732
1733
1734
1735
1736
1737
1738
1739
174
1740
1741
1742
1743
1744
1745
1746
1747
1748
1749
175
1750
1751
1752
1753
1754
1755
1756
1757
1758
1759
176
1760
1761
1762
1763
1764
1765
1766
1767
1768
1769
177
1770
1771
1772
1773
1774
1775
1776
1777
1778
1779
178
1780
1781
1782
1783
1784
1785
1786
1787
1788
1789
179
1790
1791
1792
1793
1794
1795
1796
1797
1798
1799
18
180
1800
1801
1802
1803
1804
1805
1806
1807
1808
1809
181
1810
1811
1812
1813
1814
1815
1816
1817
1818
1819
182
1820
1821
1822
1823
1824
1825
1826
1827
1828
1829
183
1830
1831
1832
1833
1834
1835
1836
1837
1838
1839
184
1840
1841
1842
1843
1844
1845
1846
1847
1848
1849
185
1850
1851
1852
1853
1854
1855
1856
1857
1858
1859
186
1860
1861
1862
1863
1864
1865
1866
1867
1868
1869
187
1870
1871
1872
1873
1874
1875
1876
1877
1878
1879
188
1880
1881
1882
1883
1884
1885
1886
1887
1888
1889
189
1890
1891
1892
1893
1894
1895
1896
1897
1898
1899
19
190
1900
1901
1902
1903
1904
1905
1906
1907
1908
1909
191
1910
1911
1912
1913
1914
1915
1916
1917
1918
1919
192
1920
1921
1922
1923
1924
1925
1926
1927
1928
1929
193
1930
1931
1932
1933
1934
1935
1936
1937
1938
1939
194
1940
1941
1942
1943
1944
1945
1946
1947
1948
1949
195
1950
1951
1952
1953
1954
1955
1956
1957
1958
1959
196
1960
1961
1962
1963
1964
1965
1966
1967
1968
1969
197
1970
1971
1972
1973
1974
1975
1976
1977
1978
1979
198
1980
1981
1982
1983
1984
1985
1986
1987
1988
1989
199
1990
1991
1992
1993
1994
1995
1996
1997
1998
1999
2
20
200
2000
2001
2002
2003
2004
2005
2006
2007
2008
2009
201
2010
2011
2012
2013
2014
2015
2016
2017
2018
2019
202
2020
2021
2022
2023
2024
2025
2027
203
2030
204
205
206
207
208
209
21
210
211
212
213
214
215
216
217
218
219
22
220
221
222
223
224
225
226
227
228
229
23
230
2305
2307
231
232
233
234
235
236
237
238
239
24
240
241
242
243
244
245
246
247
248
249
25
250
2500
251
2510
252
253
254
255
256
257
258
259
26
260
261
262
263
264
265
266
267
268
269
27
270
271
272
273
274
275
276
277
278
279
28
280
281
282
283
284
285
286
287
288
289
29
290
291
292
293
294
295
296
297
298
299
3
30
300
3000
301
302
303
304
305
306
307
3077
308
309
31
310
311
312
313
314
315
316
317
318
319
32
320
321
322
323
324
325
326
327
328
329
33
330
331
332
333
334
335
336
337
338
3389
339
3390
34
340
341
342
343
344
345
346
347
348
349
35
350
351
352
353
354
355
356
357
358
359
36
360
361
362
363
364
365
366
367
368
369
37
370
371
372
373
374
375
376
377
378
379
38
380
381
382
383
384
385
386
387
388
389
3897
39
390
391
392
393
394
395
396
397
398
399
4
40
400
4000
401
402
403
404
405
406
407
408
409
41
410
411
412
413
414
415
416
417
418
419
42
420
421
422
423
424
425
426
427
428
429
43
430
431
432
433
4331
434
435
436
437
438
439
44
440
441
442
443
444
445
446
447
448
449
45
450
451
452
453
454
455
456
457
458
459
46
460
461
462
463
464
465
466
467
468
469
47
470
471
472
473
474
475
476
477
478
479
48
480
481
482
483
484
485
486
487
488
489
49
490
491
492
493
494
495
496
497
498
499
5
50
500
5000
501
502
503
504
505
506
507
508
509
51
510
511
512
513
514
515
516
517
518
519
52
520
521
522
523
524
525
526
527
528
529
53
530
531
532
533
534
535
536
537
538
539
54
540
541
542
543
544
545
546
547
548
549
55
550
551
552
553
554
555
556
557
558
559
56
560
561
562
563
564
565
566
567
568
569
57
570
571
572
573
574
575
576
577
578
579
58
580
581
582
583
584
585
586
587
588
589
59
590
591
592
593
594
595
596
597
598
599
6
60
600
6000
601
602
603
604
605
606
607
608
609
61
610
611
612
613
614
615
616
617
618
619
62
620
621
622
623
624
625
626
627
628
629
63
630
631
632
633
634
635
636
6361
637
638
639
64
640
641
642
643
644
645
646
647
648
649
65
650
651
652
653
654
655
656
657
658
659
66
660
661
662
663
664
665
666
667
668
669
67
670
671
672
673
674
675
676
677
678
679
68
680
681
682
683
684
685
686
687
688
689
69
690
691
692
693
694
695
696
697
698
699
7
70
700
7000
701
702
703
704
705
706
707
708
709
71
710
711
712
713
714
715
716
717
718
719
72
720
721
722
723
724
725
726
727
728
729
73
730
731
732
733
734
735
736
737
738
739
74
740
741
742
743
744
745
746
747
748
749
75
750
751
752
753
754
755
756
757
758
759
76
760
761
762
763
764
765
767
768
769
77
770
771
772
773
774
775
776
777
778
779
78
780
781
782
783
785
786
7864
787
788
789
79
790
791
792
793
794
795
798
799
8
80
800
8000
801
802
803
804
805
806
807
808
809
81
810
8108
811
812
813
814
815
816
817
818
819
82
820
821
822
823
824
825
826
827
828
8286
829
83
830
831
833
835
837
838
84
840
841
842
843
845
846
847
85
850
852
853
855
857
86
860
861
863
865
866
867
869
87
870
871
872
875
877
878
879
88
880
883
885
886
888
89
890
893
895
896
899
9
90
900
901
902
903
904
905
907
908
909
91
910
911
912
914
915
917
918
919
92
920
921
922
923
924
925
93
930
933
935
936
939
94
940
95
950
951
952
953
954
955
956
96
960
961
962
963
965
966
967
968
97
970
971
972
973
975
977
978
979
98
980
981
983
985
987
99
990
995
999
:
;
<
=
>
?
@
[
\
]
^
_
`
a
aa
aaa
aachen
aadt
aan
aarhus
aaron
ab
aba
abandon
abandoned
abandoning
abandonment
abba
abbas
abbe
abbey
abbot
abbott
abbreviated
abbreviation
abby
abc
abd
abdel
abdomen
abdominal
abducted
abduction
abdul
abdullah
abe
abel
aberdeen
abi
abide
abigail
abilities
ability
abingdon
abkhazia
ablative
able
abnormal
abnormalities
aboard
abode
abolish
abolished
abolition
abolitionist
aboriginal
aborigines
abortion
abortions
abound
about
above
abraham
abram
abrams
abridged
abroad
abrupt
abruptly
abs
absence
absent
absolute
absolutely
absorb
absorbed
absorbing
absorption
abstract
abstraction
abstracts
absurd
abu
abundance
abundant
abundantly
abuse
abused
abuses
abusive
abyss
ac
acacia
acad
acade
academia
academic
academics
academies
academy
acc
accelerate
accelerated
acceleration
accelerator
accent
accents
accept
acceptable
acceptance
accepted
accepting
accepts
access
accessed
accessibility
accessible
accession
accessories
accessory
accident
accidental
accidentally
accidents
acclaim
acclaimed
accolades
accommodate
accommodation
accommodations
accompanied
accompanies
accompaniment
accompany
accompanying
accomplish
accomplished
accomplishment
accomplishments
accord
accordance
accorded
according
accordingly
accordion
account
accountability
accountable
accountant
accounted
accounting
accounts
accra
accreditation
accreditations
accredited
accumulate
accumulated
accumulation
accuracy
accurate
accurately
accusation
accusations
accusative
accuse
accused
accuses
accusing
accustomed
ace
aces
acetate
achieve
achieved
achievement
achievements
achieves
achieving
achilles
acid
acidic
acids
acknowledge
acknowledged
acknowledges
acknowledging
acknowledgment
acm
acorn
acosta
acoustic
acquaintance
acquaintances
acquainted
acquire
acquired
acquires
acquiring
acquisition
acquisitions
acquitted
acre
acres
acronym
across
acs
act
acta
acted
acting
action
actions
activate
activated
activation
active
actively
activism
activist
activists
activities
activity
acton
actor
actors
actress
actresses
acts
actual
actually
acute
ad
ada
adair
adam
adams
adamson
adapt
adaptation
adaptations
adapted
adapting
adaptive
add
added
addicted
addiction
adding
addis
addison
addition
additional
additionally
additions
additive
address
addressed
addresses
addressing
adds
ade
adelaide
adele
adelungius
aden
adequate
adequately
adhere
adhered
adherence
adherents
adhesion
adi
adj
adjacent
adjectival
adjective
adjectives
adjoining
adjudged
adjunct
adjust
adjusted
adjusting
adjustment
adjustments
adjusts
adjutant
adler
admin
administer
administered
administering
administration
administrations
administrative
administratively
administrator
administrators
admirable
admiral
admiralty
admiration
admire
admired
admission
admissions
admit
admits
admitted
admitting
ado
adobe
adolescence
adolescent
adolescents
adolf
adolph
adopt
adopted
adopting
adoption
adoptive
adopts
adoration
adorned
adrian
adriana
adriatic
adrienne
ads
adult
adultery
adulthood
adults
adv
advance
advanced
advancement
advances
advancing
advantage
advantageous
advantages
advent
adventist
adventure
adventurer
adventurers
adventures
adventurous
adverb
adverbial
adversaries
adversary
adverse
advertised
advertisement
advertisements
advertiser
advertising
advice
advise
advised
adviser
advisers
advises
advising
advisor
advisors
advisory
advocacy
advocate
advocated
advocates
advocating
ae
aegean
aek
aerial
aero
aerobic
aerodrome
aeronautical
aeronautics
aeroplane
aerospace
aesthetic
aesthetics
aew
af
afar
afb
afc
affair
affairs
affect
affected
affecting
affection
affectionate
affections
affects
affidavit
affiliate
affiliated
affiliates
affiliation
affinity
affirm
affirmation
affirmative
affirmed
affirming
affixed
afflicted
affliction
affluent
afford
affordable
afforded
affords
afghan
afghanistan
afi
afl
afloat
aforementioned
aforesaid
afp
afraid
africa
african
africans
afrikaans
afrique
afro
aft
after
afterlife
aftermath
afternoon
afterward
afterwards
ag
aga
again
against
agatha
age
aged
ageing
agence
agencies
agency
agenda
agent
agents
ages
aggies
aggravated
aggregate
aggregation
aggregator
aggression
aggressive
agile
aging
agitated
agitation
agnes
ago
agony
agra
agrarian
agree
agreeable
agreed
agreeing
agreement
agreements
agrees
agricultural
agriculture
aground
aguilar
aguilera
agusti
ah
ahead
ahl
ahmad
ahmed
ahmedabad
ahn
ai
aid
aidan
aide
aided
aiding
aids
aim
aime
aimed
aiming
aims
ain
air
airborne
airbus
aircraft
aire
aired
aires
airfield
airfields
airing
airlift
airline
airlines
airmen
airplane
airplanes
airplay
airport
airports
airs
airship
airways
airy
ais
aise
aises
aisle
aitken
aix
aj
aja
ajax
ajay
ak
aka
akade
akademi
akademie
akademiens
akbar
aki
akin
akira
akron
al
ala
alabama
aladdin
alain
alam
alameda
alan
alarm
alarmed
alas
alaska
alastair
alba
alban
albania
albanian
albanians
albans
albany
albeit
albert
alberta
alberto
albion
albrecht
albright
album
albums
albuquerque
alchemy
alcohol
alcoholic
alcoholism
alden
alder
alderman
aldermen
aldershot
aldo
aldrich
ale
alec
alejandro
aleksandar
aleksandr
aleppo
alert
alessandro
alex
alexa
alexander
alexandra
alexandre
alexandria
alexandru
alexei
alexis
alf
alfa
alfonso
alfred
alfredo
algae
alge
algebra
algebraic
algebras
alger
algeria
algerian
algiers
algorithm
algorithms
ali
alia
alias
alice
alicia
alien
alienation
aliens
align
aligned
alignment
alike
alison
alistair
alive
alkaline
all
alla
allah
allan
alle
allegation
allegations
alleged
allegedly
alleges
allegheny
allegiance
alleging
allegro
allen
allergy
alleviate
alley
allgemeine
alliance
alliances
allied
allies
alligator
allison
allmovie
allmusic
allocated
allocation
allotted
allow
allowance
allowances
allowed
allowing
allows
alloy
alloys
alluded
allusion
alluvial
ally
alma
almanac
almeida
almighty
almond
almost
alms
alo
alone
along
alongside
alonso
aloud
alpes
alpha
alphabet
alphabetical
alphonse
alpine
alps
already
alright
als
alsace
also
alt
alta
altai
altar
altars
alter
alteration
alterations
altered
altering
alternate
alternately
alternating
alternative
alternatively
alternatives
although
altitude
altitudes
alto
altogether
alton
alum
aluminium
aluminum
alumni
alumnus
alvarado
alvarez
alves
alvin
always
alzheimer
am
ama
amadeus
amalgamated
amalgamation
amanda
amar
amassed
amateur
amateurs
amazed
amazement
amazing
amazon
ambassador
ambassadors
amber
ambient
ambiguity
ambiguous
ambition
ambitions
ambitious
ambrose
ambulance
ambush
ambushed
amc
amd
ame
amelia
amen
amend
amended
amending
amendment
amendments
amenities
amer
america
american
americana
americans
americas
ames
amherst
ami
amiable
amid
amidst
amiens
amiga
amin
amino
amir
amman
ammonia
ammunition
amnesty
among
amongst
amor
amore
amos
amount
amounted
amounting
amounts
amour
amp
amphibian
amphibians
amphibious
ample
amplifier
amplitude
amr
ams
amsterdam
amt
amtrak
amused
amusement
amusing
amy
an
ana
anaheim
anal
analog
analogous
analogue
analogy
analyse
analyses
analysis
analyst
analysts
analytic
analytical
analytics
analyze
analyzed
analyzing
anand
anarchism
anarchist
anarchists
anarchy
anastasia
anatole
anatolia
anatomical
anatomy
anc
ancestor
ancestors
ancestral
ancestry
anchor
anchorage
anchored
anchors
ancient
ancients
and
andean
anders
andersen
anderson
andersson
andes
andhra
andorra
andover
andra
andrade
andre
andrea
andreas
andreeva
andrei
andres
andrew
andrews
andrey
android
andrzej
andy
ane
anecdotes
anew
ang
ange
angel
angela
angeles
angelica
angelina
angelo
angels
anger
angered
angers
angie
angle
angles
anglia
anglican
anglo
angola
angrily
angry
anguish
angular
angus
anhalt
ani
anil
anim
animal
animals
animate
animated
animation
animator
anime
anita
ankara
ankle
ann
anna
annales
annals
annapolis
anne
annette
annex
annexation
annexed
anni
annie
annihilation
anniversary
anno
annotated
announce
announced
announcement
announcements
announcer
announcers
announces
announcing
annoyance
annoyed
annoying
annual
annually
annum
annurev
ano
anomaly
anon
anonymous
another
ans
anson
answer
answered
answering
answers
ant
antagonist
antagonists
antarctic
antarctica
ante
antelope
antenna
anterior
anthem
anthologies
anthology
anthony
anthropological
anthropologist
anthropology
anti
antibiotic
antibiotics
antibodies
antibody
anticipated
anticipation
antigen
antigua
antilles
antioch
antiquarian
antique
antiques
antiquities
antiquity
antisemitism
antitrust
anto
antoine
antoinette
anton
antoni
antonia
antonio
antony
antonym
antrim
ants
antwerp
anu
anwar
anxiety
anxious
any
anybody
anyhow
anymore
anyone
anything
anyway
anywhere
anzac
ao
aol
aorist
ap
apa
apache
apart
apartheid
apartment
apartments
apc
ape
aperture
apes
apex
aphia
api
apj
apo
apocalypse
apocalyptic
apollo
apologize
apologized
apology
apoptosis
apostle
apostles
apostolic
app
appalachian
apparatus
apparel
apparent
apparently
appeal
appealed
appealing
appeals
appear
appearance
appearances
appeared
appearing
appears
appellant
appellants
appellate
appellee
appended
appendix
appetite
applause
apple
apples
appleton
appliances
applicable
applicant
applicants
application
applications
applied
applies
apply
applying
appoint
appointed
appointing
appointment
appointments
appoints
apportionment
appraisal
appreciate
appreciated
appreciation
apprehended
apprehension
apprentice
apprenticeship
approach
approached
approaches
approaching
appropriate
appropriated
appropriately
appropriation
appropriations
approval
approve
approved
approves
approx
approximate
approximately
approximation
apps
apr
apra
apre
april
apron
aps
apt
aqua
aquarium
aquatic
aquatics
aqueduct
aqueous
aquila
aquinas
aquino
aquitaine
ar
ara
arab
arabia
arabian
arabic
arabs
arago
aragon
aramaic
aran
arbitrary
arbitration
arbor
arboretum
arbuthnot
arc
arca
arcade
arcadia
arcgis
arch
archaeological
archaeologist
archaeologists
archaeology
archaic
archangel
archbishop
archdeacon
archdiocese
archduke
arched
archeological
archer
archers
archery
arches
archibald
archie
archipelago
architect
architects
architectural
architecture
archiv
archival
archive
archived
archives
arctic
ard
arden
ardent
are
area
areas
aren
arena
arenas
arg
argent
argentina
argentine
arguably
argue
argued
argues
arguing
argument
arguments
argus
argyle
argyll
ari
aria
ariana
arias
arid
ariel
arild
aris
arise
arisen
arises
arising
aristocracy
aristocratic
aristotle
arithmetic
arizona
arjun
ark
arkansas
arla
arlington
arm
armada
armagh
armament
armand
armando
arme
armed
armenia
armenian
armenians
armies
armistice
armor
armored
armory
armour
armoured
arms
armstrong
army
arnaud
arne
arno
arnold
aromatic
arose
around
aroused
arrange
arranged
arrangement
arrangements
arranger
arranging
array
arrays
arrest
arrested
arrests
arrival
arrivals
arrive
arrived
arrives
arriving
arrogant
arrondissement
arrow
arrows
arroyo
ars
arsenal
arsenic
arson
art
arte
artefacts
artemis
arterial
arteries
artery
artes
arthritis
arthur
article
articles
articulated
artifact
artifacts
artificial
artificially
artillery
artisans
artist
artistic
artists
arts
artur
arturo
artwork
artworks
arun
arundel
arxiv
aryan
as
asa
asahi
asbestos
asbury
ascap
ascend
ascended
ascending
ascension
ascent
ascertain
ascertained
ascii
ascribed
asean
ash
ashamed
ashby
asher
ashes
asheville
ashford
ashgate
ashland
ashley
ashok
ashore
ashton
asi
asia
asian
asiatic
aside
asin
ask
asked
asking
asks
asleep
asn
asp
aspect
aspects
aspen
asphalt
aspirations
aspiring
aspx
ass
assad
assam
assamese
assassin
assassinate
assassinated
assassination
assassins
assault
assaulted
assaults
assemblage
assemble
assembled
assemblies
assembly
assent
assert
asserted
asserting
assertion
asserts
assess
assessed
assessing
assessment
assessments
asset
assets
assign
assigned
assigning
assignment
assignments
assigns
assimilated
assimilation
assist
assistance
assistant
assistants
assisted
assisting
assists
associate
associated
associates
association
associations
assume
assumed
assumes
assuming
assumption
assumptions
assurance
assure
assured
assyrian
ast
astana
asteroid
asteroids
asthma
aston
astonished
astonishing
astonishment
astor
astoria
astra
astro
astrology
astronaut
astronauts
astronomer
astronomers
astronomical
astronomy
astrophysical
astrophysics
astros
asturias
asu
asylum
asymmetric
at
ata
atari
ate
atheism
atheist
athena
athenian
athenians
athens
atherton
athlete
athletes
athletic
athletics
atkins
atkinson
atlanta
atlantic
atlantis
atlas
atle
atm
atmosphere
atmospheric
atoll
atom
atomic
atoms
atonement
atop
atp
atrocities
att
attach
attached
attachment
attack
attacked
attacker
attackers
attacking
attacks
attain
attained
attaining
attainment
attains
attempt
attempted
attempting
attempts
attend
attendance
attendant
attendants
attended
attendees
attending
attends
attention
attested
attic
attila
attire
attitude
attitudes
attorney
attorneys
attract
attracted
attracting
attraction
attractions
attractive
attracts
attribute
attributed
attributes
attribution
atwood
au
aubrey
auburn
auckland
auction
auctions
audi
audible
audience
audiences
audio
audit
audition
auditioned
auditions
auditor
auditorium
auditory
audrey
audubon
auf
aug
aught
augmented
augsburg
august
augusta
auguste
augustin
augustine
augusto
augustus
aunt
aur
aura
aurora
aus
auschwitz
auspices
aussie
austen
austin
australasia
australasian
australia
australian
australians
australis
austria
austrian
austrians
austro
austronesian
authentic
authentication
authenticity
author
authored
authorised
authoritarian
authoritative
authorities
authority
authorization
authorize
authorized
authorizing
authors
authorship
autism
auto
autobiographical
autobiography
automated
automatic
automatically
automation
automobile
automobiles
automotive
autonomous
autonomy
autopsy
autosport
autumn
aux
auxiliary
av
ava
avail
availability
available
avalanche
avalon
avant
avatar
ave
avec
avenge
avengers
avenue
avenues
average
averaged
averages
averaging
aversion
avery
aves
avian
aviation
aviator
avid
avignon
aviv
avoid
avoidance
avoided
avoiding
avoids
avon
avril
aw
awa
await
awaited
awaiting
awake
awakened
awakening
award
awarded
awarding
awards
aware
awareness
away
awe
awesome
awful
awhile
awkward
awoke
ax
axe
axel
axes
axial
axiom
axis
axle
ay
aya
ayala
aye
ayr
ayrshire
az
azad
azerbaijan
azerbaijani
aziz
azores
aztec
azul
azure
aɾ
b
ba
baba
babcock
babe
babies
babu
baby
babylon
babylonian
bac
bach
bachelor
back
backbone
backdrop
backed
background
backgrounds
backing
backlash
backs
backstage
backstroke
backup
backward
backwards
backyard
bacon
bacteria
bacterial
bacterium
bad
bade
baden
badge
badger
badges
badly
badminton
bae
baer
bafta
bag
baggage
baghdad
bags
baha
bahadur
bahamas
bahasa
bahia
bahn
bahrain
bai
bail
bailey
bailly
bain
baird
bait
baja
bak
bake
baked
baker
bakery
baking
baku
bal
bala
balance
balanced
balancing
balcony
bald
baldwin
bale
balearic
balfour
bali
balkan
balkans
ball
ballad
ballads
ballarat
ballard
ballast
ballet
balliol
ballistic
balloon
balloons
ballot
ballotpedia
ballots
ballpark
ballroom
balls
baltic
baltimore
bam
bamboo
ban
banana
bananas
banco
bancroft
band
banda
bandcamp
banded
bandit
bandits
bands
bandwidth
bane
banerjee
bang
bangalore
bangkok
bangla
bangladesh
bangladeshi
bangor
banished
banjo
bank
banker
bankers
banking
banknotes
bankrupt
bankruptcy
banks
banned
banner
banners
banning
banquet
bans
bantam
bantamweight
bantu
bao
baptised
baptism
baptist
baptiste
baptized
bar
bara
barack
barangay
barbados
barbara
barbarian
barbarians
barber
barbie
barcelona
barclay
bard
bare
barely
bargain
bargaining
barge
barges
bari
baritone
bark
barker
barking
barley
barlow
barn
barnard
barnes
barnet
barnett
barney
barnsley
baron
baroness
baronet
baronetage
barons
barony
baroque
barr
barracks
barrage
barre
barred
barrel
barrels
barren
barrett
barrie
barrier
barriers
barrington
barrio
barrister
barron
barrow
barry
bars
bart
bartholomew
bartlett
barton
bas
basal
basalt
base
baseball
based
basel
baseline
baseman
basement
bases
bash
basic
basically
basics
basil
basilica
basin
basins
basis
basket
basketball
baskets
basque
bass
bassett
bassist
bastard
bastien
bastion
bat
batavia
batch
bateman
bates
bath
bathing
bathroom
baths
bathurst
batman
baton
bats
batsman
battalion
battalions
batted
batter
battered
batteries
batters
battery
batting
battista
battle
battled
battlefield
battles
battleship
battleships
battling
bauer
baum
bautista
bavaria
bavarian
baxter
bay
bayer
bayern
baylor
bayou
bays
bazaar
bb
bbc
bc
bce
bcp
bd
bdfutbol
be
bea
beach
beaches
beacon
beads
beak
beale
beam
beams
bean
beans
bear
beard
bearded
bearer
bearers
bearing
bearings
bears
beast
beasts
beat
beaten
beating
beatles
beatrice
beats
beatty
beau
beauchamp
beaufort
beaumont
beauties
beautiful
beautifully
beauty
beaux
beaver
beavers
bec
became
because
beccaloni
beck
becker
beckett
becky
become
becomes
becoming
bed
bede
bedford
bedfordshire
bedroom
bedrooms
beds
bee
beech
beef
been
beer
beers
bees
beethoven
beetle
beetles
before
beforehand
befriended
beg
began
beggar
begged
begging
begin
beginners
beginning
beginnings
begins
begotten
begum
begun
behalf
behave
behaved
behavior
behavioral
behaviors
behaviour
behavioural
behaviours
beheaded
beheld
behind
behold
bei
beijing
being
beings
beirut
beit
beitra
bel
bela
belarus
belarusian
belfast
belgian
belgium
belgrade
belief
beliefs
believe
believed
believer
believers
believes
believing
belinda
belize
bell
bella
bellamy
bellator
belle
belles
bellevue
bellied
bello
bells
belly
belmont
belong
belonged
belonging
belongings
belongs
beloved
below
belt
belts
ben
bench
benches
benchmark
bend
bender
bending
bends
bene
beneath
benedict
benedictine
benefactor
beneficial
benefit
benefited
benefits
benevolent
benfica
bengal
bengali
bengals
bengaluru
beni
benign
benin
benito
benjamin
bennet
bennett
benny
benoit
benson
bent
bentley
benton
benz
beograd
bequeathed
ber
berber
beresford
berg
bergen
berger
bergman
berkeley
berkshire
berlin
berliner
berman
bermuda
bern
bernard
bernardino
bernardo
bernd
bernhard
bernie
bernstein
berries
berry
bert
berth
bertha
bertie
bertram
bertrand
berwick
bes
besar
beside
besides
besieged
bess
bessie
best
bestow
bestowed
bestseller
bet
beta
beth
bethany
bethel
bethesda
bethlehem
betray
betrayal
betrayed
betsy
better
betting
betty
between
bevan
beverage
beverages
beverley
beverly
bevo
beware
bey
beyonce
beyond
bf
bfi
bg
bh
bha
bharat
bharatiya
bhp
bhutan
bi
bia
bianca
bias
biased
bibcode
bibel
bible
biblical
bibliography
biblioteca
bibliothe
bicycle
bicycles
bid
bidding
biden
bids
bie
bieber
bien
biennale
biennial
big
bigger
biggest
bihar
bij
bike
bikes
biking
bilateral
bilbao
bile
bilingual
bill
billboard
billed
billiards
billie
billing
billings
billion
billionaire
billions
bills
billy
bin
binary
bind
binding
binds
bing
bingen
bingham
bio
biochem
biochemical
biochemistry
biodiversity
biographer
biographical
biographie
biographies
biography
bioinformatics
biol
biolib
biological
biologist
biology
biomass
biomedical
bios
biosphere
biotechnology
biplane
bipolar
bir
birch
bird
birdlife
birds
birmingham
birth
birthday
birthplace
births
bis
biscuit
bisexual
bishop
bishopric
bishops
bismarck
bison
bissau
bit
bitch
bite
bites
biting
bits
bitten
bitter
bitterly
bitterness
biz
bizarre
bj
bjo
bjp
bk
bl
bla
blabbermouth
black
blackburn
blackhawks
blackish
blackout
blackpool
blacks
blacksmith
blackstone
blackwell
blackwood
bladder
blade
blades
blaine
blair
blake
blame
blamed
blames
blanc
blanca
blanchard
blanche
blanco
bland
blank
blanket
blankets
blasphemy
blast
blasts
blaze
blazers
blazing
ble
bleacher
bleak
bleeding
blend
blended
blender
blending
bless
blessed
blessing
blessings
blew
blica
blind
blinded
blindness
blink
bliss
blitz
blizzard
bloc
bloch
block
blockade
blockbuster
blocked
blocking
blocks
blog
blogger
blogs
blogspot
blonde
blood
bloody
bloom
bloomberg
bloomfield
blooming
bloomington
bloomsbury
blossom
blossoms
blount
blow
blowing
blown
blows
blu
blue
bluegrass
blueprint
blues
bluff
blum
blunt
blush
blvd
blyth
bm
bmatrix
bmc
bmg
bmi
bmj
bmw
bn
bner
bo
boa
boar
board
boarded
boarding
boards
boast
boasted
boasts
boat
boating
boats
bob
bobby
boca
bochum
bock
bodied
bodies
bodily
body
bodyguard
boeing
boer
bog
bogota
bohemia
bohemian
boil
boiled
boiler
boilers
boiling
bois
boise
bok
bokma
bold
boldly
boldsymbol
boleti
boli
bolivia
bolivian
bollywood
bologna
bolshevik
bolsheviks
bolster
bolt
bolton
bolts
bomb
bombardier
bombardment
bombay
bombed
bomber
bombers
bombing
bombings
bombs
bon
bona
bonaparte
bond
bondage
bonded
bonding
bonds
bone
bones
bong
boniface
bonn
bonner
bonnet
bonnie
bono
bonus
bonuses
bony
boo
boogie
book
booked
booker
booking
booklet
books
bookseller
bookstore
boolean
boom
boon
boone
boost
booster
boot
booth
boots
booty
bor
bora
bordeaux
border
bordered
bordering
borders
bore
bored
borg
boring
boris
borja
born
borne
borneo
borough
boroughs
borrow
borrowed
borrowing
borussia
bos
bosch
bosco
bose
bosnia
bosnian
bosom
boss
bosses
boston
boswell
bosworth
bot
botanic
botanical
botanist
botany
both
bother
botswana
bottle
bottles
bottom
bou
boucher
bouchet
bought
boulder
boulders
boulevard
boulogne
bounce
bound
boundaries
boundary
bounded
bounds
bounty
bourbon
bourgeois
bourke
bourne
bournemouth
bout
boutique
bouts
bow
bowden
bowed
bowen
bower
bowers
bowie
bowl
bowled
bowler
bowles
bowling
bowls
bowman
bows
box
boxer
boxes
boxing
boxrec
boy
boyce
boycott
boyd
boydell
boyer
boyfriend
boyhood
boyle
boys
boz
bp
br
bra
brabant
brace
bracket
brackets
brad
bradbury
bradford
bradley
bradshaw
brady
braga
bragg
brahma
brahman
brahmi
brahmin
brain
brains
brake
brakes
braking
brampton
branch
branched
branches
branching
brand
branded
brandeis
brandenburg
branding
brandon
brands
brandt
brandy
bras
brasil
brasileira
brasileiro
brass
bratislava
braun
brave
bravery
braves
bravo
brawl
braxton
bray
brazil
brazilian
bre
breach
bread
breadth
break
breakaway
breakdown
breaker
breakers
breakfast
breaking
breakout
breaks
breakthrough
breakup
breast
breasted
breasts
breaststroke
breath
breathe
breathed
breathing
bred
breed
breeders
breeding
breeds
breeze
bremen
brenda
brendan
brennan
brenner
brent
brentford
brescia
brest
bret
brethren
breton
brett
breuning
brevet
brew
brewer
breweries
brewers
brewery
brewing
brewster
brexit
brian
bribe
bribery
bribes
brick
bricks
bride
bridegroom
bridge
bridgeport
bridges
bridget
bridgewater
bridging
brief
briefing
briefly
briefs
brien
brig
brigade
brigades
brigadier
briggs
brigham
bright
brighter
brightest
brightly
brightness
brighton
brigitte
brill
brilliant
bring
bringing
brings
brink
brisbane
bristol
brit
britain
britannia
britannica
british
britney
britons
britt
brittany
britten
britton
brno
bro
broad
broadband
broadcast
broadcaster
broadcasters
broadcasting
broadcasts
broader
broadly
broadway
brochure
brock
brodie
brody
broke
broken
broker
bromley
bromwich
broncos
bronson
bronx
bronze
brood
brook
brooke
brooklyn
brooks
broom
bros
brother
brotherhood
brothers
brought
broughton
brow
brown
browne
browning
brownish
browns
browser
bru
bruce
bruins
brunei
bruno
brunswick
brush
brussels
brutal
brutality
brute
brutus
bryan
bryant
bryce
bryn
bs
bsc
bt
bts
bu
bubble
bubbles
bubbling
buc
buccaneers
buchanan
bucharest
buck
bucket
buckingham
buckinghamshire
buckley
bucks
bucures
bud
budapest
buddha
buddhism
buddhist
buddy
budget
budgets
buds
buena
buenos
buff
buffalo
buffer
buffy
bug
bugguide
bugs
build
builder
builders
building
buildings
builds
built
bulb
bulgaria
bulgarian
bulk
bull
bulldogs
bullet
bulletin
bulletins
bullets
bullock
bulls
bully
bullying
bump
bumper
bun
bunch
bundesliga
bundestag
bundle
bundles
bunker
bunny
bunting
burbank
burden
burdens
bureau
bureaucracy
buren
burger
burgess
burgh
burgos
burgundy
burial
burials
buried
burke
burkina
burlington
burma
burmese
burn
burned
burnet
burnett
burnham
burning
burnley
burns
burnt
burr
burroughs
burrow
burrows
burst
bursting
bursts
burt
burton
burundi
bury
burying
bus
busan
busch
buses
bush
bushes
busiest
business
businesses
businessman
businessmen
businessweek
bust
buster
busy
but
butch
butcher
butler
butt
butte
butter
butterflies
butterfly
butterworth
button
buttons
buxton
buy
buyer
buyers
buying
buys
buzz
bv
bwf
bwv
by
bydgoszcz
bye
bypass
byrd
byrne
byron
byte
bytes
byu
byzantine
byzantium
c
ca
caa
cab
cabaret
cabbage
cabin
cabinet
cabins
cable
cables
cabo
cabot
cabrera
cache
cactus
cad
cadet
cadets
cadillac
caen
caesar
caf
cafe
cage
cagematch
cahill
cai
cain
cairns
cairo
caitlin
cake
cakes
cal
calabria
calais
calamity
calcio
calcium
calculate
calculated
calculating
calculation
calculations
calculator
calculus
calcutta
calder
caldwell
caleb
caledonia
caledonian
calendar
calf
calgary
calhoun
cali
caliber
calif
california
caliph
caliphate
call
callaghan
callahan
calle
called
caller
calling
calls
calm
calmly
calque
calvert
calvin
cam
cambodia
cambodian
cambrian
cambridge
cambridgeshire
camden
came
camel
camels
cameo
camera
cameras
cameron
cameroon
camilla
camille
camouflage
camp
campaign
campaigned
campaigning
campaigns
campbell
campeonato
campground
camping
campo
campos
camps
campus
campuses
can
canaan
canada
canadian
canadians
canadiens
canal
canals
canary
canberra
cancel
canceled
cancellation
cancelled
cancels
cancer
cancers
candidacy
candidate
candidates
candle
candles
candy
cane
cange
cangjie
cannabis
cannes
canning
cannon
cannons
cannot
canoe
canoes
canon
canonical
canons
canopy
cans
cant
cantata
canterbury
canto
canton
cantonese
cantons
cantor
canucks
canvas
canyon
cao
cap
capabilities
capability
capable
capacities
capacitor
capacity
capcom
cape
capita
capital
capitalism
capitalist
capitals
capitol
capo
capped
cappella
caps
capsule
capt
captain
captained
captains
caption
captive
captives
captivity
capture
captured
captures
capturing
car
cara
carabidae
caracas
caravan
carbon
carbonate
carcinoma
card
cardboard
cardiac
cardiff
cardinal
cardinals
cardiovascular
cards
care
cared
career
careers
careful
carefully
careless
cares
caretaker
carey
cargo
caribbean
caring
carl
carla
carleton
carlisle
carlo
carlos
carlson
carlton
carly
carlyle
carmel
carmen
carmichael
carnegie
carney
carnival
caro
carol
carole
carolina
caroline
carolyn
carp
carpenter
carpenterius
carpet
carpets
carr
carrera
carriage
carriages
carrie
carried
carrier
carriers
carries
carrington
carroll
carry
carrying
cars
carson
cart
carta
cartagena
carte
cartel
carter
carthage
cartier
cartography
cartoon
cartoonist
cartoons
cartridge
cartridges
carts
cartwright
carvalho
carved
carver
carving
carvings
cary
cas
casa
casablanca
cascade
cascades
case
cases
casey
cash
casimir
casino
caspar
casper
caspian
cass
cassandra
cassell
cassette
cassidy
cassius
cast
caste
castello
castes
castile
castilla
castillo
casting
castle
castles
castro
casts
casual
casualties
casualty
cat
catala
catalan
catalana
catalans
catalina
catalog
catalogue
catalogues
catalonia
catalunya
catalyst
catalytic
catastrophe
catastrophic
catch
catcher
catches
catching
catchment
cate
catechism
categories
categorized
category
cater
catering
caterpillar
catfish
cathedral
cathedrals
catherine
catholic
catholicism
catholics
cathy
cato
cats
cattle
caucasian
caucasus
caucus
caught
caulfield
causa
causal
cause
caused
causes
causeway
causing
caution
cautious
cavalier
cavaliers
cavalry
cavan
cave
cavendish
cavern
caves
cavity
cayman
cb
cbc
cbd
cbe
cbn
cbs
cc
ccc
ccp
cd
cdc
cdna
cdot
cdots
cdp
cds
cdu
ce
cease
ceased
ceasefire
ceases
cebu
cecil
cecilia
cedar
ceded
cedric
ceiling
ceilings
celebrate
celebrated
celebrates
celebrating
celebration
celebrations
celebrities
celebrity
celeste
celestial
celia
cell
cellar
cello
cells
cellular
celsius
celtic
celtics
cement
cemeteries
cemetery
cena
censor
censorship
censure
census
censuses
cent
centenary
centennial
center
centered
centers
centimeters
centimetres
central
centralized
centrally
centre
centred
centres
centro
cents
centuries
century
centurycomm
ceo
cerambycidae
ceramic
ceramics
cereal
cerebral
ceremonial
ceremonies
ceremony
ceres
cerro
certain
certainly
certainty
certificate
certificates
certification
certifications
certified
certiorari
cervantes
cervical
ces
cesar
cesare
cessation
cet
ceylon
cf
cfa
cfl
cfr
cg
cgi
ch
cha
chad
chadwick
chai
chain
chains
chair
chaired
chairman
chairperson
chairs
chalk
challenge
challenged
challenger
challenges
challenging
chalmers
cham
chamber
chamberlain
chambers
champ
champagne
champaign
champion
champions
championship
championships
champs
chan
chance
chancel
chancellor
chancery
chances
chandigarh
chandler
chandra
chang
change
changed
changes
changing
channel
channels
chant
chao
chaos
chaotic
chap
chapel
chapels
chaplain
chaplin
chapman
chappell
chapter
chapters
char
character
characterised
characteristic
characteristics
characterization
characterize
characterized
characters
charcoal
charge
charged
chargers
charges
charging
chariot
charismatic
charitable
charities
charity
charlemagne
charles
charleston
charley
charlie
charlotte
charlottesville
charlton
charm
charmed
charming
charms
chart
charted
charter
chartered
charters
charting
charts
chas
chase
chased
chasing
chassis
chastity
chat
chateau
chatham
chattanooga
chatterjee
chaucer
chavez
che
cheap
cheaper
cheat
cheating
chechen
check
checked
checking
checklist
checkpoint
checks
cheek
cheeks
cheer
cheerful
cheers
cheese
chef
chefs
chelsea
cheltenham
chem
chemical
chemicals
chemist
chemistry
chemotherapy
chen
cheney
cheng
chengdu
chennai
cher
cherished
cherokee
cherry
cheryl
chesapeake
cheshire
chess
chest
chester
chesterfield
chestnut
chet
cheung
chevalier
chevrolet
chevron
chew
cheyenne
chez
chi
chia
chiang
chiba
chicago
chichester
chick
chicken
chickens
chicks
chico
chief
chiefly
chiefs
chieftain
chien
chih
chihuahua
child
childbirth
childhood
childish
childless
children
childs
chile
chilean
chili
chill
chimney
chin
china
chinatown
chinese
ching
chip
chips
chisholm
chittagong
chiu
chloe
chloride
chlorine
cho
chocolate
choi
choice
choices
choir
choirs
choke
cholera
cholesterol
chong
chongqing
choose
chooses
choosing
chop
chopin
chopped
chopra
choral
chord
chords
choreographed
choreographer
choreography
chorus
chose
chosen
chosun
chou
chow
chowdhury
chr
chre
chris
christ
christchurch
christensen
christgau
christi
christian
christianity
christians
christie
christina
christine
christmas
christoph
christophe
christopher
christy
chrome
chromosome
chromosomes
chronic
chronicle
chronicler
chronicles
chronological
chronology
chrysler
chu
chua
chuck
chun
chung
church
churches
churchill
churchyard
ci
cia
cicero
cid
cider
cie
cigar
cigarette
cigarettes
cincinnati
cinderella
cindy
cine
cinema
cinemas
cinematic
cinematographer
cinematography
cinnamon
cio
cipher
cir
circ
circa
circle
circles
circuit
circuits
circular
circulated
circulating
circulation
circumcision
circumference
circumstance
circumstances
circus
cis
cisco
cit
citadel
citation
citations
cite
cited
cites
citeseerx
cities
citing
citizen
citizens
citizenship
citrus
citta
city
ciudad
civic
civil
civilian
civilians
civilisation
civilization
civilizations
civilized
cj
ck
cke
cken
cl
cla
clad
clade
claim
claimant
claimants
claimed
claiming
claims
clair
claire
clan
clancy
clandestine
clans
clapton
clara
clare
claremont
clarence
clarendon
clarification
clarified
clarify
clarinet
clarion
clarity
clark
clarke
clarkson
clash
clashed
clashes
class
classed
classes
classic
classical
classics
classification
classifications
classified
classifier
classify
classmate
classmates
classroom
classrooms
claude
claudia
claudio
claudius
claus
clause
clauses
claw
claws
clay
clayton
cle
clean
cleaned
cleaner
cleaning
cleansing
cleanup
clear
clearance
cleared
clearer
clearing
clearly
cleavage
clemens
clement
clemente
clements
clemson
cleopatra
cler
clergy
clergyman
cleric
clerical
clerk
clerks
clermont
cleveland
clever
cliche
click
clicking
client
clients
cliff
clifford
cliffs
clifton
climate
climates
climatic
climax
climb
climbed
climbing
climbs
clin
clinch
clinched
clinic
clinical
clinics
clint
clinton
clio
clip
clippers
clipping
clips
clive
cloak
clock
clocks
clockwise
cloister
clone
clones
cloning
close
closed
closely
closer
closes
closest
closet
closing
closure
cloth
clothed
clothes
clothing
cloud
clouds
cloudy
clover
clown
club
clube
clubhouse
clubs
clue
clues
cluj
clumsy
cluster
clusters
clutch
clyde
cm
cmll
cms
cmt
cn
cnbc
cnet
cnn
co
coa
coach
coached
coaches
coaching
coal
coalition
coarse
coast
coastal
coaster
coastline
coasts
coat
coated
coates
coating
coats
cobalt
cobb
cobra
coca
cocaine
cochin
cochran
cochrane
cock
cockpit
cocktail
coco
cocoa
coconut
cod
code
coded
codes
codex
coding
cody
coe
coefficient
coefficients
coercion
coffee
coffin
cognate
cognates
cognition
cognitive
cohen
coherent
cohn
cohort
coil
coin
coinage
coincide
coincided
coincidence
coined
coins
coke
col
cola
colbert
colby
colchester
cold
colder
cole
colegio
coleman
coleoptera
coleridge
coles
coli
colin
coliseum
coll
collaborate
collaborated
collaborating
collaboration
collaborations
collaborative
collaborator
collaborators
collapse
collapsed
collapses
collar
collateral
colle
colleague
colleagues
collect
collected
collecting
collection
collections
collective
collectively
collector
collectors
collects
colleen
college
colleges
collegiate
collided
collider
collier
colliery
collin
collingwood
collins
collision
collisions
colloquial
colloquially
colo
cologne
colombia
colombian
colombo
colon
colonel
colonial
colonialism
colonies
colonists
colonization
colony
color
colorado
coloration
colored
colorful
coloring
colors
colossal
colour
coloured
colourful
colours
colt
colts
columbia
columbian
columbus
column
columnist
columns
com
coma
comb
combat
combatants
combination
combinations
combine
combined
combines
combining
combo
combs
combustion
come
comeback
comedian
comedians
comedic
comedies
comedy
comes
comet
cometh
comets
comfort
comfortable
comfortably
comforts
comic
comics
coming
comm
command
commandant
commanded
commander
commanders
commanding
commandment
commandments
commando
commandos
commands
comme
commemorate
commemorated
commemorates
commemorating
commemoration
commemorative
commence
commenced
commencement
commencing
commendation
commended
comment
commentaries
commentary
commentator
commentators
commented
commenting
comments
commerce
commercial
commercially
commercials
commission
commissioned
commissioner
commissioners
commissioning
commissions
commit
commitment
commitments
commits
committed
committee
committees
committing
commodities
commodity
commodore
common
commonly
commonplace
commons
commonwealth
communal
commune
communes
communicate
communicated
communicating
communication
communications
communion
communism
communist
communists
communities
community
commuter
como
comp
compact
companies
companion
companions
company
comparable
comparative
comparatively
compare
compared
compares
comparing
comparison
comparisons
compartment
compass
compassion
compatibility
compatible
compel
compelled
compelling
compendium
compensate
compensated
compensation
compete
competed
competence
competent
competes
competing
competition
competitions
competitive
competitor
competitors
compilation
compilations
compile
compiled
compiler
compiling
complain
complainant
complained
complaining
complaint
complaints
complement
complementary
complete
completed
completely
completes
completing
completion
complex
complexes
complexion
complexity
compliance
compliant
complicated
complications
complied
compliment
comply
component
components
compose
composed
composer
composers
composing
composite
composition
compositions
compostela
compound
compounds
comprehend
comprehension
comprehensive
compressed
compression
comprise
comprised
comprises
comprising
compromise
compromised
compton
comptroller
compulsory
computation
computational
compute
computed
computer
computers
computing
comrade
comrades
comte
comune
comuni
con
conan
concacaf
concave
conceal
concealed
conceded
conceive
conceived
concentrate
concentrated
concentrating
concentration
concentrations
concept
conception
conceptions
concepts
conceptual
concern
concerned
concerning
concerns
concert
concerto
concerts
concession
concessions
concise
conclude
concluded
concludes
concluding
conclusion
conclusions
conclusive
concord
concordia
concourse
concrete
concurrency
concurrent
concurrently
concurring
concussion
conde
condemn
condemnation
condemned
condemning
condemns
condensed
condition
conditional
conditioned
conditioning
conditions
condor
conduct
conducted
conducting
conductor
conductors
conducts
cone
cones
confederacy
confederate
confederates
confederation
confer
conference
conferences
conferred
confess
confessed
confesses
confession
confessions
confessor
confidence
confident
confidential
configuration
configurations
confine
confined
confinement
confirm
confirmation
confirmed
confirming
confirms
confiscated
conflict
conflicting
conflicts
confluence
conform
conformity
confounded
confront
confrontation
confronted
confronting
confronts
confucius
confused
confusing
confusion
cong
congenital
congestion
conglomerate
congo
congolese
congratulations
congregation
congregational
congregations
congress
congresses
congressional
congressman
conical
conjecture
conjugation
conjunction
conn
connacht
connect
connected
connecticut
connecting
connection
connections
connectivity
connector
connects
connell
conner
connexion
connie
connolly
connor
conor
conquer
conquered
conquering
conqueror
conquest
conquests
conrad
cons
conscience
conscientious
conscious
consciously
consciousness
conscription
consecrated
consecration
consecutive
conseil
consensus
consent
consented
consequence
consequences
consequent
consequently
conservancy
conservation
conservatism
conservative
conservatives
conservatoire
conservatory
conserve
conserved
consider
considerable
considerably
consideration
considerations
considered
considering
considers
consist
consisted
consistency
consistent
consistently
consisting
consists
consolation
console
consoles
consolidate
consolidated
consolidation
consonant
consonants
consort
consortium
conspicuous
conspiracy
conspirators
const
constable
constabulary
constance
constant
constantin
constantine
constantinople
constantinopolitan
constantly
constants
constellation
constituencies
constituency
constituent
constituents
constitute
constituted
constitutes
constituting
constitution
constitutional
constitutionality
constitutionally
constitutions
constrained
constraint
constraints
construct
constructed
constructing
construction
constructions
constructive
constructs
construed
consul
consular
consulate
consuls
consult
consultancy
consultant
consultants
consultation
consultative
consulted
consulting
consume
consumed
consumer
consumers
consuming
consumption
contact
contacted
contacts
contain
contained
container
containers
containing
contains
contaminated
contamination
conte
contemplated
contemplation
contemporaries
contemporary
contempt
contend
contended
contender
contenders
contends
content
contented
contention
contentious
contents
contest
contestant
contestants
contested
contests
context
contexts
contiguous
continent
continental
continents
contingency
contingent
continual
continually
continuance
continuation
continue
continued
continues
continuing
continuity
continuous
continuously
continuum
contra
contract
contracted
contracting
contraction
contractor
contractors
contracts
contractual
contradiction
contradictions
contradictory
contrary
contrast
contrasted
contrasting
contrasts
contribute
contributed
contributes
contributing
contribution
contributions
contributor
contributors
contrived
control
controlled
controller
controllers
controlling
controls
controversial
controversies
controversy
conus
convection
convened
convenience
convenient
convent
convention
conventional
conventions
converge
convergence
conversation
conversations
converse
conversely
conversion
conversions
convert
converted
converter
convertible
converting
converts
convex
convey
conveyance
conveyed
conveying
convict
convicted
conviction
convictions
convicts
convince
convinced
convinces
convincing
convocation
convoy
convoys
conway
coo
cook
cookbook
cooke
cooked
cookie
cookies
cooking
cooks
cool
cooled
cooler
coolidge
cooling
cooper
cooperate
cooperation
cooperative
coordinate
coordinated
coordinates
coordinating
coordination
coordinator
cop
copa
cope
copeland
copenhagen
copied
copies
coping
coppa
copper
cops
coptic
copy
copying
copyright
copyrighted
cor
cora
coral
corbett
corbin
cord
cordial
cords
core
cores
corey
corinth
corinthians
cork
corn
cornelia
cornelius
cornell
corner
cornerback
corners
cornerstone
cornish
cornwall
corona
coronary
coronation
coronavirus
coroner
corp
corporal
corporate
corporation
corporations
corps
corpse
corpses
corpus
correct
corrected
correction
correctional
corrections
correctly
correctness
correlated
correlation
correspond
corresponded
correspondence
correspondent
corresponding
corresponds
corridor
corridors
corriere
corrosion
corrupt
corrupted
corruption
corsica
corte
cortes
cortex
cortez
cortical
corvette
cory
cos
cosmetic
cosmetics
cosmic
cosmology
cosmopolitan
cosmos
cossack
cossacks
cost
costa
costello
costing
costly
costs
costume
costumes
cottage
cottages
cotton
couch
cougars
cough
could
couldn
council
councillor
councillors
councilor
councils
counsel
counseling
counsellor
counselor
count
countable
countdown
counted
countenance
counter
counterfeit
counterpart
counterparts
counters
countess
counties
counting
countless
countries
country
countrymen
countryside
counts
county
coup
coupe
couple
coupled
couples
coupling
courage
courageous
courant
courier
course
courses
court
courtesy
courthouse
courtney
courtroom
courts
courtship
courtyard
cousin
cousins
cov
cove
covenant
covent
coventry
cover
coverage
covered
covering
covers
covert
covid
covington
cow
cowan
coward
cowboy
cowboys
cowley
cows
cox
coyote
coyotes
cp
cpi
cpu
cr
crab
crabs
crack
crackdown
cracked
cracking
cracks
cradle
craft
crafted
crafts
craftsman
craftsmen
craig
crambidae
cramer
crane
cranes
crash
crashed
crashes
crashing
crater
craters
craven
crawford
crawl
crawley
crazy
crc
cre
cream
create
created
creates
creating
creation
creations
creative
creativity
creator
creators
creature
creatures
credentials
credibility
credible
credit
credited
creditor
creditors
credits
cree
creed
creek
creeks
creep
creeping
creighton
creole
crept
crescent
crest
crested
cretaceous
crete
crew
crewe
crews
cri
cricinfo
cricket
cricketarchive
cricketer
cricketers
cried
cries
crime
crimea
crimean
crimes
criminal
criminals
crimson
crippled
crises
crisis
crisp
cristian
cristina
cristo
criteria
criterion
critic
critical
critically
criticised
criticism
criticisms
criticize
criticized
criticizing
critics
critique
cro
croatia
croatian
croats
crocker
crockett
crocodile
croft
croix
cromwell
crook
crooked
crop
crops
crore
crosby
cross
crosse
crossed
crosses
crossing
crossings
crossover
crossroads
crouch
crow
crowd
crowded
crowds
crowe
crowley
crown
crowned
crowns
crows
croydon
crtc
crucial
crucified
crucifixion
crude
cruel
cruelty
cruise
cruiser
cruisers
cruises
cruising
crunchyroll
crusade
crusader
crusaders
crusades
crush
crushed
crushing
crust
cruz
cry
crying
crypt
crystal
crystalline
crystals
cs
csa
csi
cska
css
ct
ctor
ctv
cu
cub
cuba
cuban
cube
cubic
cubs
cuckoo
cue
cues
cui
cuisine
culinary
cullen
culminated
culminating
cult
cultivate
cultivated
cultivation
cultura
cultural
culturally
culture
cultured
cultures
cum
cumberland
cumbria
cummings
cummins
cumulative
cunning
cunningham
cup
cups
curate
curated
curator
curb
cure
cured
curiosity
curious
curiously
curl
curling
curly
curran
currency
current
currently
currents
curriculum
currie
curry
curse
cursed
curt
curtain
curtains
curtis
curtiss
curvature
curve
curved
curves
cushing
custer
custody
custom
customary
customer
customers
customs
cut
cute
cuthbert
cutler
cuts
cutter
cutting
cv
cw
cx
cy
cyber
cycle
cycles
cyclic
cycling
cyclingnews
cyclist
cyclists
cyclone
cyclones
cyclopedia
cyclopædia
cylinder
cylinders
cylindrical
cymru
cynthia
cypress
cypriot
cyprus
cyril
cyrillic
cyrus
cz
czech
czechoslovak
czechoslovakia
cæsar
d
da
dad
dada
daddy
dade
dae
dag
dagger
dahl
dai
daibuun
daijirin
daily
dairy
daisy
dakar
dakota
dal
dalai
dale
daley
dali
dall
dallas
dalton
daly
dam
damage
damaged
damages
damaging
damascus
dame
damian
damien
damn
damned
damon
damp
dams
dan
dana
dance
danced
dancer
dancers
dances
dancing
dane
danes
danger
dangerous
dangers
dani
daniel
daniela
danielle
daniels
danish
danny
dans
danske
dante
danube
danzig
daphne
dar
dara
darby
darcy
dare
dared
dari
daring
dario
darius
dark
darker
darkest
darkness
darling
darlington
darmstadt
darrell
darren
darryl
dart
dartmouth
darts
darwin
daryl
das
dash
dashed
dat
data
database
databases
dataset
date
dated
dates
dating
dative
dau
daughter
daughters
dauphin
davao
dave
davenport
davey
david
davidson
davies
davis
davison
davy
dawn
dawson
day
daylight
days
daytime
dayton
daytona
db
dc
dd
ddr
de
dea
deacon
dead
deadliest
deadline
deadly
deaf
deal
dealer
dealers
dealing
dealings
deals
dealt
dean
deane
dear
dearest
death
deaths
deb
debate
debated
debates
debating
debbie
deborah
debra
debrett
debris
debt
debtor
debts
debut
debuted
debuting
debuts
dec
decade
decades
decatur
decay
decca
deccan
deceased
deceit
deceive
deceived
december
decennial
decent
deception
decide
decided
decidedly
decides
deciding
deciduous
decimal
decision
decisions
decisive
deck
decker
decks
declaration
declarations
declare
declared
declares
declaring
declension
decline
declined
declines
declining
deco
decommissioned
decomposition
decorated
decoration
decorations
decorative
decrease
decreased
decreases
decreasing
decree
decreed
decrees
dedicated
dedication
deduced
deducted
deduction
dee
deed
deeds
deem
deemed
deep
deeper
deepest
deeply
deer
def
defamation
default
defaulted
defeat
defeated
defeating
defeats
defect
defected
defective
defects
defence
defences
defend
defendant
defendants
defended
defender
defenders
defending
defends
defense
defenses
defensive
deferred
defiance
deficiencies
deficiency
deficient
deficit
define
defined
defines
defining
definite
definitely
definition
definitions
definitive
deforestation
deformation
defunct
degenerate
degli
degradation
degraded
degree
degrees
dei
deities
deity
del
delaney
delaware
delay
delayed
delays
delegate
delegated
delegates
delegation
delete
deleted
deletion
delgado
delhi
deliberate
deliberately
deliberation
delicacy
delicate
delicious
delight
delighted
delightful
delights
deliver
deliverance
delivered
deliveries
delivering
delivers
delivery
dell
della
delle
dello
delta
delusion
deluxe
dem
demand
demanded
demanding
demands
dementia
demetrius
demi
demise
demo
democracy
democrat
democratic
democrats
demographic
demographics
demolished
demolition
demon
demons
demonstrate
demonstrated
demonstrates
demonstrating
demonstration
demonstrations
demonstrators
demos
demoted
dempsey
den
deng
denial
denied
denies
denis
denise
denmark
dennis
denny
denomination
denominations
denote
denoted
denotes
denoting
denounced
dense
densely
density
dent
dental
dentist
dentistry
denton
denver
deny
denying
deo
depart
departed
departing
department
departmental
departments
departs
departure
departures
depend
depended
dependence
dependencies
dependency
dependent
depending
depends
depict
depicted
depicting
depiction
depictions
depicts
depleted
deploy
deployed
deployment
deportation
deported
deportes
deportivo
deposed
deposit
deposited
deposition
deposits
depot
depressed
depression
deprivation
deprive
deprived
dept
depth
depths
depuis
deputies
deputy
der
derby
derbyshire
derek
derivation
derivative
derivatives
derive
derived
derives
deriving
dermatology
derogatory
derrick
derry
des
descartes
descend
descendant
descendants
descended
descending
descends
descent
describe
described
describes
describing
description
descriptions
descriptive
deseret
desert
deserted
deserts
deserve
deserved
deserves
deserving
design
designate
designated
designation
designations
designed
designer
designers
designing
designs
desirable
desire
desired
desires
desiring
desirous
desk
desktop
desmond
desolate
despair
desperate
desperately
despise
despised
despite
dessert
destination
destinations
destined
destiny
destitute
destroy
destroyed
destroyer
destroyers
destroying
destroys
destruction
destructive
det
detached
detachment
detail
detailed
detailing
details
detained
detainee
detainees
detect
detected
detecting
detection
detective
detectives
detector
detectors
detention
deter
deteriorated
deterioration
determination
determine
determined
determines
determining
detrimental
detroit
deus
deuteronomy
deutsch
deutsche
deutschen
deutscher
deutsches
deutschland
deux
dev
deva
devanagari
devastated
devastating
develop
developed
developer
developers
developing
development
developmental
developments
develops
devi
deviation
device
devices
devil
devils
devin
devine
devise
devised
devlin
devoid
devon
devonian
devonshire
devote
devoted
devotees
devotion
devotional
devout
dew
dewan
dewey
dexter
dey
df
dfb
dg
dh
dhabi
dhaka
dharma
di
dia
diabetes
diablo
diagnosed
diagnosis
diagnostic
diagonal
diagram
diagrams
dial
dialect
dialectal
dialects
dialog
dialogue
dialogues
diameter
diamond
diamonds
diana
diane
diaries
diario
diary
dias
diaspora
diaz
diccionari
diccionario
dice
diciona
dicionario
dick
dickens
dickinson
dickson
dico
dict
dictated
dictator
dictatorship
dictionaries
dictionary
dictionnaire
did
didier
didn
didst
die
died
diego
dies
diesel
diet
dietary
dieter
dietrich
differ
differed
difference
differences
different
differential
differentiate
differentiated
differentiation
differently
differing
differs
difficult
difficulties
difficulty
diffraction
diffuse
diffusion
dig
digby
digest
digestive
digging
digit
digital
digitales
digitally
digitized
digits
dignified
dignity
dil
dilemma
diligence
dillon
dim
dimension
dimensional
dimensions
diminish
diminished
diminishing
diminutive
dimitri
din
dina
dinamo
dine
diner
ding
dining
dinner
dino
dinosaur
dinosaurs
dio
diocesan
diocese
dioceses
dion
dionysius
dioxide
dip
diploma
diplomacy
diplomat
diplomatic
diplomats
diptera
dir
dire
direct
directed
directing
direction
directional
directions
directive
directly
director
directorate
directorial
directors
directory
directs
dirk
dirt
dirty
dis
disabilities
disability
disabled
disadvantage
disadvantaged
disadvantages
disagree
disagreeable
disagreed
disagreement
disagreements
disambiguation
disappear
disappearance
disappeared
disappearing
disappears
disappointed
disappointing
disappointment
disapproval
disarmament
disaster
disasters
disastrous
disbanded
disc
discarded
discern
discharge
discharged
disciple
disciples
disciplinary
discipline
disciplined
disciplines
disclose
disclosed
disclosure
disco
discography
discogs
discomfort
discontent
discontinued
discord
discount
discourage
discouraged
discourse
discourses
discover
discovered
discoveries
discovering
discovers
discovery
discrete
discretion
discrimination
discriminatory
discs
discus
discuss
discussed
discusses
discussing
discussion
discussions
disease
diseases
disgrace
disguise
disguised
disgust
disgusting
dish
dishes
disk
disks
dislike
disliked
dismal
dismantled
dismay
dismiss
dismissal
dismissed
disney
disneyland
disobedience
disorder
disorders
dispatch
dispatched
dispatches
dispersal
disperse
dispersed
dispersion
displaced
displacement
display
displayed
displaying
displays
displaystyle
displeasure
disposal
dispose
disposed
disposition
dispute
disputed
disputes
disqualification
disqualified
disregard
disrupt
disrupted
disruption
dissatisfaction
dissatisfied
dissemination
dissent
dissenting
dissertation
dissident
dissipated
dissolution
dissolve
dissolved
distal
distance
distances
distant
distillery
distinct
distinction
distinctions
distinctive
distinctly
distinguish
distinguished
distinguishes
distinguishing
distorted
distortion
distracted
distraction
distress
distressed
distribute
distributed
distributing
distribution
distributions
distributor
distributors
district
districts
distrust
disturb
disturbance
disturbances
disturbed
disturbing
disused
dit
ditch
ditches
dition
ditions
div
diva
dive
diver
divergence
divergent
divers
diverse
diversification
diversified
diversion
diversity
divert
diverted
dives
divide
divided
dividend
dividends
divides
dividing
divine
diving
divinity
divisio
division
divisional
divisions
divorce
divorced
dix
dixie
dixon
diy
diz
dizionario
dizzy
dj
djibouti
djs
djvu
dk
dl
dm
dmitri
dmitry
dn
dna
dns
do
dobson
doc
dock
docking
docks
dockyard
docs
doctor
doctoral
doctorate
doctors
doctrine
doctrines
document
documentaries
documentary
documentation
documented
documenting
documents
dod
dodd
dodge
dodgers
dodson
doe
does
doesn
dog
dogg
dogma
dogs
doha
doherty
doi
doing
dolan
dole
doll
dollar
dollars
dolls
dolly
dolores
dolphin
dolphins
dom
domain
domainfalsefalse
domainpublic
domains
dome
domenico
domes
domesday
domestic
domesticated
dominance
dominant
dominate
dominated
dominates
dominating
domination
domingo
dominic
dominica
dominican
dominion
dominions
dominique
domino
don
donald
donaldson
donate
donated
donation
donations
doncaster
done
donegal
donetsk
dong
donkey
donna
donne
donnell
donnelly
donor
donors
donovan
dons
doo
doom
doomed
door
doors
doorway
dopamine
doping
dora
dorado
doran
dorchester
dorian
doris
dormant
dormitory
dorothea
dorothy
dorsal
dorset
dorsey
dortmund
dos
dose
doses
dossier
dost
dot
doth
dots
dotted
dou
douard
double
doubled
doubleday
doubles
doublet
doubling
doubt
doubted
doubtful
doubtless
doubts
doug
dough
douglas
douglass
dove
dover
dow
dowager
down
downey
downfall
downhill
downing
download
downloadable
downloaded
downloads
downs
downstairs
downstream
downtown
downward
downwards
dowry
doyle
dozen
dozens
dp
dr
dra
dracula
draft
drafted
drafting
drafts
drag
dragged
dragging
dragon
dragons
dragoons
drain
drainage
drained
draining
drains
drake
drama
dramas
dramatic
dramatically
dramatist
drank
draper
drastic
drastically
draught
draw
drawer
drawing
drawings
drawn
draws
dre
dread
dreadful
dream
dreamed
dreamer
dreaming
dreams
dresden
dress
dressed
dresses
dressing
drew
dried
drift
drifted
drifting
drill
drilling
drink
drinking
drinks
driscoll
drive
driven
driver
drivers
drives
driving
dro
drone
drones
drop
dropped
dropping
drops
drosophila
drought
drove
drown
drowned
drowning
drug
drugs
drum
drummer
drummond
drums
drunk
drunken
drury
dry
dryden
drying
ds
dsm
dso
dt
du
dua
dual
duane
duarte
dub
dubai
dubbed
dubious
dublin
dubois
duc
duchess
duchy
duck
ducks
duckworth
duct
dude
duden
dudley
due
duel
dues
duet
duff
duffy
dug
duke
dukes
dull
duluth
duly
duma
dumas
dumb
dumbarton
dumka
dummy
dumont
dump
dumped
dun
dunbar
duncan
dundas
dundee
dune
dunedin
dunes
dunfermline
dung
dungeon
dungeons
dunham
dunkirk
dunlap
dunlop
dunn
dunne
duo
duplicate
dupont
durable
duran
durand
durant
duration
durban
durch
durga
durham
during
dus
dusk
dusky
dust
dustin
dusty
dutch
dutchcharts
duterte
duties
dutton
duty
duval
dv
dvd
dvds
dw
dwarf
dwarfs
dwell
dwellers
dwelling
dwellings
dwelt
dwight
dwyer
dx
dy
dye
dyer
dying
dyke
dylan
dynamic
dynamical
dynamics
dynamite
dynamo
dynastic
dynasties
dynasty
dysfunction
dyson
dz
də
e
ea
each
eager
eagerly
eagle
eagles
ean
ear
eared
earl
earle
earlier
earliest
earls
early
earn
earned
earnest
earnestly
earning
earnings
earns
ears
earth
earthly
earthquake
earthquakes
ease
easier
easiest
easily
east
eastbound
eastenders
easter
easterly
eastern
eastman
easton
eastward
eastwood
easy
eat
eaten
eater
eating
eaton
eats
eau
eb
ebenezer
eberhard
ebert
ebola
ebony
ebook
ec
eccentric
ecclesiastical
echo
echoed
echoes
eclectic
eclipse
eco
ecological
ecology
economic
economical
economically
economics
economies
economist
economists
economy
ecosystem
ecosystems
ecstasy
ecuador
ecuadorian
ecumenical
ecw
ed
eddie
eddy
eden
edgar
edge
edged
edges
edible
edicio
edict
edifice
edinburgh
edison
edit
edited
edith
editing
edition
editions
editor
editore
editorial
editors
edm
edmond
edmonds
edmonton
edmund
edmunds
edn
edna
edo
eds
edt
edu
eduard
eduardo
educate
educated
educating
education
educational
educator
educators
edward
edwards
edwin
ee
eel
eels
een
eerdmans
eesti
ef
effect
effected
effective
effectively
effectiveness
effects
efficacy
efficiency
efficient
efficiently
effort
efforts
efl
eg
egan
egerton
egg
eggs
ego
egypt
egyptian
egyptians
eh
ei
eid
eight
eighteen
eighteenth
eighth
eighty
eileen
ein
eine
einer
einstein
eintracht
eisenhower
either
ej
ejected
ek
eki
el
ela
elaborate
elaborated
elaine
elapsed
elastic
elbow
elder
elderly
elders
eldest
ele
eleanor
elect
elected
electing
election
elections
elective
elector
electoral
electorate
electors
electric
electrical
electricity
electrification
electrified
electro
electromagnetic
electron
electronic
electronics
electrons
elects
elegance
elegans
elegant
element
elemental
elementary
elements
elena
elephant
elephants
elevated
elevation
elevations
elevator
elevators
eleven
eleventh
elf
elgin
eli
elias
eligibility
eligible
elijah
eliminate
eliminated
eliminating
elimination
eliot
elisa
elisabeth
elise
elite
eliteprospects
elites
eliza
elizabeth
elizabethan
elk
ell
ella
elle
ellen
ellie
ellington
elliot
elliott
elliptic
elliptical
ellis
ellison
ellsworth
elm
elmer
elongated
eloquence
eloquent
elsa
else
elsevier
elsewhere
elsie
elton
elusive
elvis
ely
em
email
emails
emancipation
emanuel
embankment
embargo
embark
embarked
embarrassed
embarrassing
embarrassment
embassies
embassy
embedded
emblem
embodied
embrace
embraced
embraces
embracing
embroidered
embroidery
embryo
embryonic
emerald
emerge
emerged
emergence
emergencies
emergency
emerges
emerging
emeritus
emerson
emery
emi
emigrants
emigrated
emigration
emil
emile
emilia
emilio
emily
eminem
eminence
eminent
emir
emirates
emission
emissions
emitted
emma
emmanuel
emmett
emmy
emmys
emory
emotion
emotional
emotionally
emotions
empathy
emperor
emperors
emphasis
emphasize
emphasized
emphasizes
emphasizing
empire
empires
empirical
employ
employed
employee
employees
employer
employers
employing
employment
employs
emporis
empowered
empowerment
empress
empty
ems
emu
en
ena
enable
enabled
enables
enabling
enact
enacted
enactment
enamel
enchanted
enciclope
enciclopedia
enclosed
enclosure
encoded
encoding
encompass
encompassed
encompasses
encompassing
encore
encounter
encountered
encounters
encourage
encouraged
encouragement
encourages
encouraging
encryption
encyclopaedia
encyclopedia
encyclopædia
end
endangered
ende
endeavor
endeavors
endeavour
endeavoured
ended
endemic
ending
endings
endless
endorse
endorsed
endorsement
endorsements
endorses
endowed
endowment
ends
endurance
endure
endured
enduring
enemies
enemy
energetic
energies
energy
enfield
enforce
enforced
enforcement
enforcing
eng
engage
engaged
engagement
engagements
engages
engaging
engel
engine
engined
engineer
engineered
engineering
engineers
engines
england
english
englishman
englishmen
engraved
engraver
engraving
engravings
enhance
enhanced
enhancement
enhancing
enigma
enix
enjoy
enjoyable
enjoyed
enjoying
enjoyment
enjoys
enlarge
enlarged
enlargement
enlightened
enlightenment
enlisted
enmity
eno
enoch
enormous
enough
enquirer
enquiry
enraged
enriched
enrichment
enrico
enrique
enrolled
enrollment
ensembl
ensemble
ensembles
ensg
ensign
enslaved
ensued
ensuing
ensure
ensured
ensures
ensuring
ent
enter
entered
entering
enterprise
enterprises
enters
entertain
entertained
entertainer
entertaining
entertainment
enthusiasm
enthusiast
enthusiastic
enthusiasts
entire
entirely
entirety
entities
entitled
entity
entomological
entomologist
entomology
entrance
entrances
entre
entrepreneur
entrepreneurs
entrepreneurship
entrez
entries
entropy
entrusted
entry
enumerated
enumeration
envelope
environment
environmental
environmentally
environments
environs
envisioned
envoy
envoys
envy
enzo
enzyme
enzymes
eo
eocene
ep
epa
ephraim
epic
epidemic
epidemiology
epilepsy
epilogue
episcopal
episode
episodes
epistle
epistles
epitaph
epithet
epoch
eponymous
eps
epsilon
epsom
epstein
eq
equal
equality
equally
equals
equation
equations
equator
equatorial
equestrian
equibase
equilibrium
equipment
equipped
equitable
equity
equiv
equivalence
equivalent
er
era
eras
erasmus
ere
erect
erected
erection
eric
erica
erich
erickson
erie
erik
erika
erin
eritrea
erlewine
ernest
ernesto
ernie
ernst
ero
eroded
eros
erosion
erotic
err
erroneous
erroneously
error
errors
ers
erskine
erupted
eruption
eruptions
erwin
es
esa
escape
escaped
escapes
escaping
escort
escorted
eske
esoteric
esp
espan
especial
especially
esperanto
espionage
espn
espncricinfo
esports
esq
esquire
essay
essayist
essays
essen
essence
essendon
essential
essentially
essentials
essex
est
esta
establish
established
establishes
establishing
establishment
establishments
estadi
estadio
estado
estate
estates
este
esteban
esteem
esteemed
ester
esther
estimate
estimated
estimates
estimating
estimation
estonia
estonian
estrada
estranged
estuary
estudis
et
eta
etc
eternal
eternity
eth
ethan
ethanol
ethel
ether
ethernet
ethical
ethics
ethiopia
ethiopian
ethnic
ethnicity
ethnographic
ethnologue
etienne
eton
etymological
etymology
eu
eucalyptus
eucharist
euclid
euclidean
euge
eugen
eugene
eugenia
eugenio
eukaryotic
euler
eun
euphrates
eur
eurasia
eurasian
eureka
euro
eurobasket
eurogamer
euroleague
europa
europaea
europe
european
europeans
euros
eurosport
eurovision
eusebius
ev
eva
evacuate
evacuated
evacuation
evade
evaluate
evaluated
evaluating
evaluation
evan
evangelical
evangelist
evans
evasion
eve
evelyn
even
evening
evenings
evenly
event
events
eventual
eventually
ever
everest
everett
evergreen
everlasting
everton
every
everybody
everyday
everyone
everything
everywhere
evic
evicted
eviction
evidence
evidenced
evidences
evident
evidently
evil
evils
evo
evolution
evolutionary
evolve
evolved
evolving
ew
ewing
ex
exact
exactly
exaggerated
exalted
exam
examination
examinations
examine
examined
examiner
examines
examining
example
examples
exams
excavated
excavation
excavations
exceed
exceeded
exceeding
exceedingly
exceeds
excel
excelled
excellence
excellency
excellent
excelsior
except
excepted
excepting
exception
exceptional
exceptionally
exceptions
excerpt
excerpts
excess
excessive
excessively
exchange
exchanged
exchanges
exchequer
excise
excite
excited
excitement
exciting
exclaim
exclaimed
exclude
excluded
excludes
excluding
exclusion
exclusive
exclusively
excursion
excursions
excuse
exe
execute
executed
executing
execution
executions
executive
executives
exemplary
exemplified
exempt
exempted
exemption
exercise
exercised
exercises
exercising
exert
exerted
exertion
exeter
exhaust
exhausted
exhaustion
exhaustive
exhibit
exhibited
exhibiting
exhibition
exhibitions
exhibits
exile
exiled
exiles
exist
existed
existence
existent
existing
exists
exit
exiting
exits
exo
exodus
exotic
exp
expand
expanded
expanding
expands
expansion
expect
expectancy
expectation
expectations
expected
expecting
expects
expedient
expedition
expeditionary
expeditions
expel
expelled
expended
expenditure
expenditures
expense
expenses
expensive
experience
experienced
experiences
experiencing
experiment
experimental
experimentation
experimented
experimenting
experiments
expert
expertise
experts
expiration
expire
expired
explain
explained
explaining
explains
explanation
explanations
explanatory
explicit
explicitly
explode
exploded
exploit
exploitation
exploited
exploits
exploration
explorations
explore
explored
explorer
explorers
explores
exploring
explosion
explosions
explosive
explosives
expo
exponent
exponential
export
exported
exports
expose
exposed
exposing
exposition
exposure
express
expressed
expresses
expressing
expression
expressions
expressive
expressly
expressway
expulsion
exquisite
extant
extend
extended
extending
extends
extension
extensions
extensive
extensively
extent
exterior
extermination
external
externally
extinct
extinction
extinguished
extra
extract
extracted
extraction
extracts
extradition
extraordinary
extravagant
extreme
extremely
extremes
extremity
eye
eyed
eyes
eyewitness
eyre
ez
ezekiel
ezra
f
fa
faa
faber
fabian
fabio
fable
fables
fabric
fabricated
fabrication
fabricius
fabrics
fabulous
fac
facade
face
facebook
faced
facelift
faces
facial
facilitate
facilitated
facilitates
facilitating
facilities
facility
facing
facsimile
fact
factbook
factfinder
faction
factions
facto
factor
factories
factors
factory
facts
factsheet
factual
faculties
faculty
fade
faded
fading
fai
fail
failed
failing
fails
failure
failures
fain
faint
faintly
fair
fairbanks
fairchild
faire
fairest
fairfax
fairfield
fairies
fairly
fairness
fairs
fairy
faisal
faith
faithful
faithfully
fake
falco
falcon
falcons
falk
falkirk
falkland
fall
fallen
falling
fallon
fallout
falls
falmouth
false
falsehood
falsely
fam
fame
famed
familia
familial
familiar
familiarity
families
family
familysearch
famine
famitsu
famous
famously
fan
fancied
fancy
fandango
fandom
fang
fanny
fans
fantasia
fantastic
fantasy
fao
faq
far
farah
farce
fare
fares
farewell
fargo
farley
farm
farmer
farmers
farmhouse
farming
farmland
farms
farnham
faroe
farrar
farrell
farther
fascinated
fascinating
fascination
fascism
fascist
fashion
fashionable
fashioned
faso
fast
fastened
faster
fastest
fasti
fasting
fat
fatal
fatalities
fatally
fate
fates
father
fathers
fathoms
fatigue
fatima
fats
fatty
faulkner
fault
faults
faulty
fauna
faust
favor
favorable
favorably
favored
favorite
favorites
favors
favour
favourable
favoured
favourite
favourites
favours
favre
fawcett
fax
fay
faye
fayette
fayetteville
fb
fbi
fc
fcc
fd
fda
fe
fear
feared
fearful
fearing
fearless
fears
feasibility
feasible
feast
feasts
feat
feather
feathers
featherweight
feature
featured
features
featuring
feb
february
fed
federal
federalist
federally
federated
federation
federer
federico
fee
feeble
feed
feedback
feeder
feeding
feeds
feel
feeling
feelings
feels
fees
feet
fei
feldman
felicia
felicity
felipe
felix
fell
fellow
fellows
fellowship
fellowships
felony
felt
fem
female
females
feminine
feminism
feminist
femme
femmes
fen
fence
fencer
fences
fencing
fender
feng
fenton
fer
feral
ferdinand
fergus
ferguson
fermentation
fern
ferna
fernandes
fernandez
fernando
ferns
ferrara
ferrari
ferreira
ferrer
ferries
ferris
ferry
fertile
fertility
fest
festival
festivals
festive
festivities
fetal
fetch
fetus
feud
feudal
fever
few
fewer
fewest
ff
fg
fi
fia
fiance
fiat
fiba
fiber
fibers
fibre
fibres
fico
fiction
fictional
fictitious
fiddle
fide
fidel
fidelity
field
fielded
fielder
fielding
fields
fierce
fiercely
fiery
fiesta
fifa
fife
fifteen
fifteenth
fifth
fifty
fig
figaro
fight
fighter
fighters
fighting
fights
figs
figurative
figuratively
figure
figured
figures
fiji
fil
file
filed
files
filing
filip
filipino
filipinos
filippo
fill
filled
filling
fills
filly
film
filmed
filmfare
filming
filmmaker
filmmakers
filmmaking
filmography
films
filter
filtering
filters
filthy
fin
fina
final
finale
finalist
finalists
finalized
finally
finals
finance
financed
finances
financial
financially
financier
financing
finch
find
finder
finding
findings
finds
fine
fined
finely
finer
fines
finest
finger
fingers
finish
finished
finishes
finishing
finite
fink
finland
finlay
finley
finn
finnish
fins
fiona
fir
fire
firearm
firearms
fired
firefighters
fireplace
fires
fireworks
firing
firm
firmly
firms
first
firstly
firstpost
firth
fis
fiscal
fischer
fish
fishbase
fisher
fisheries
fisherman
fishermen
fishery
fishes
fishing
fisk
fission
fist
fit
fitch
fitness
fits
fitted
fitting
fitz
fitzgerald
fitzpatrick
fitzroy
fivb
five
fix
fixed
fixing
fixture
fixtures
fjord
fk
fl
fla
flag
flags
flagship
flair
flame
flames
flaming
flanagan
flanders
flank
flanked
flanks
flap
flare
flash
flashback
flashed
flashes
flashing
flat
flats
flattened
flavor
flavour
flawed
flaws
flax
flea
fled
flee
fleeing
flees
fleet
fleets
fleetwood
fleischer
fleming
flemish
flesh
fletcher
flew
flex
flexibility
flexible
flick
flickr
flies
flight
flights
flinders
flint
flip
flo
float
floated
floating
floats
flock
flocks
flood
flooded
flooding
floods
floor
floors
flora
floral
florence
florentine
flores
florian
florida
flotilla
flour
flourish
flourished
flourishing
flow
flowed
flower
flowering
flowers
flowing
flown
flows
floyd
flu
fluctuations
fluent
fluid
fluids
flung
fluorescent
flush
flushed
flushing
flute
flux
fly
flyer
flyers
flying
flynn
flyweight
fm
fn
fo
foam
focal
foclo
focus
focused
focuses
focusing
foe
foes
fog
foil
fol
fold
folded
folder
folding
folds
foley
foliage
folio
folk
folklore
folks
follow
followed
follower
followers
following
follows
folly
fond
fong
font
fontaine
fontana
fonts
foo
food
foods
fool
foolish
fools
foot
footage
football
footballdatabase
footballer
footballers
foote
footed
foothills
footing
footnote
footnotes
footprint
footprints
footsteps
for
foraging
forbade
forbes
forbid
forbidden
forbidding
forbids
force
forced
forces
forcibly
forcing
ford
fordham
fore
forecast
forefront
foregoing
forehead
foreign
foreigner
foreigners
foreman
foremost
forensic
forerunner
forest
forested
forestry
forests
forever
forewings
foreword
forfeit
forfeited
forfeiture
forge
forged
forgery
forget
forgetting
forgive
forgiven
forgiveness
forgot
forgotten
fork
forks
form
formal
formally
format
formation
formations
formative
formats
formed
former
formerly
formidable
forming
formosa
forms
formula
formulas
formulated
formulation
forrest
forster
forsyth
fort
forte
forth
forthcoming
forthwith
fortification
fortifications
fortified
fortnight
fortress
fortresses
forts
fortuna
fortunate
fortunately
fortune
fortunes
forty
forum
forums
forward
forwarded
forwards
foss
fossil
fossils
foster
fostering
fought
foul
found
foundation
foundations
founded
founder
founders
founding
foundry
fountain
fountains
four
fourier
fourteen
fourteenth
fourth
fowl
fowler
fox
foxes
fp
fr
fra
frac
fraction
fractional
fracture
fractured
fractures
fragile
fragment
fragmentation
fragments
fragrance
fragrant
frame
framed
frames
framework
framing
fran
franc
france
frances
francesc
francesca
francesco
franchise
franchises
francis
franciscan
francisco
franck
franco
francois
francs
frank
frankenstein
frankfort
frankfurt
frankfurter
frankie
frankish
franklin
frankly
franks
frans
franz
fraser
fraternal
fraternity
frau
fraud
fraudulent
fray
frazer
frazier
fre
freak
fred
freddie
freddy
frederic
frederick
frederik
fredrik
free
freed
freedman
freedom
freedoms
freeing
freelance
freely
freeman
freestyle
freeway
freeze
freezing
freiburg
freight
fremantle
fremont
french
frenchman
frenzy
frequencies
frequency
frequent
frequented
frequently
fresco
frescoes
fresh
freshman
freshwater
fresne
fresno
freud
frey
fri
friar
friars
friction
friday
fridays
fried
friedman
friedrich
friend
friendly
friends
friendship
fries
frieze
frigate
frigates
fright
frightened
fringe
frisian
fritz
fro
froese
frog
frogs
from
front
frontal
fronted
frontier
frontiers
frontline
frontman
fronts
frost
frozen
frs
fru
fruit
fruitful
fruits
frustrated
frustration
fry
fs
ft
fu
fuchs
fuck
fucking
fuel
fueled
fuels
fuentes
fugitive
fugitives
fuji
fujian
fujiwara
fukuoka
fukushima
fulbright
fulfil
fulfill
fulfilled
fulfilling
fulfillment
fulfilment
fulham
full
fullback
fuller
fullerton
fully
fulton
fumble
fun
function
functional
functionality
functioned
functioning
functions
fund
fundacio
fundamental
fundamentally
fundamentals
funded
funding
fundraiser
fundraising
funds
funeral
fung
fungal
fungi
fungus
funimation
funk
funky
funnel
funny
fur
furious
furnace
furnish
furnished
furniture
further
furthermore
fury
fuscous
fuse
fused
fuselage
fusiliers
fusion
futebol
futile
futon
futsal
future
futures
fuzhou
fuzzy
fw
fx
fy
g
ga
gaa
gabe
gable
gables
gabon
gabriel
gabriela
gabriele
gabrielle
gad
gaddafi
gaeilge
gael
gaelic
gaffiot
gag
gaga
gage
gai
gaia
gail
gain
gained
gaines
gainesville
gaining
gains
gait
gaius
gal
gala
galactic
galatasaray
galaxies
galaxy
gale
galega
galerie
gales
galicia
galician
galilee
galileo
gall
gallagher
gallant
gallantry
galleries
gallery
galley
gallo
gallon
gallons
galloway
gallows
galveston
galway
gam
gama
gambia
gamble
gambling
game
gameplay
gamepro
gamer
gamers
games
gamespot
gaming
gamma
gan
gandhi
ganesh
gang
ganga
ganges
gangs
gangster
gannett
gao
gaon
gap
gaps
gar
garage
garbage
garci
garcia
garde
garden
gardener
gardening
gardens
gardiner
gardner
gareth
garfield
garland
garlic
garment
garments
garner
garnered
garnett
garrett
garrison
garry
garth
gary
gas
gases
gasoline
gaston
gastrointestinal
gastropod
gastropoda
gastropods
gate
gates
gateway
gather
gathered
gathering
gatherings
gathers
gators
gau
gauge
gaul
gaulle
gaunt
gave
gavin
gay
gayle
gaz
gaza
gaze
gazed
gazeta
gazette
gazetteer
gazing
gb
gbif
gc
gd
gdan
gdp
ge
gear
gearbox
geared
gears
gecko
gee
geek
geelong
geese
geiger
gel
gem
gemeinden
gemini
gemma
gems
gen
gender
gene
genealogical
genealogy
genera
general
generalized
generally
generals
generate
generated
generates
generating
generation
generations
generator
generators
generic
generosity
generous
genes
genesis
genet
genetic
genetically
genetics
geneva
genie
genital
genitive
genius
genoa
genocide
genome
genomes
genomic
genomics
genre
genres
gens
gent
gentile
gentiles
gentle
gentleman
gentlemen
gently
gentry
genuine
genuinely
genus
geo
geoff
geoffrey
geographer
geographic
geographical
geographically
geography
geologic
geological
geologist
geology
geometric
geometrical
geometridae
geometry
geonet
geophysical
georg
george
georges
georgetown
georgia
georgian
georgina
geothermal
geq
ger
gerais
gerald
geraldine
gerard
gerhard
germ
germain
german
germanic
germans
germany
gerry
gertrude
gerund
geschichte
gesellschaft
gesture
gestures
get
gets
getting
getty
gettysburg
gf
gfk
gg
gh
ghana
ghanaian
ghent
ghetto
ghosh
ghost
ghosts
ghz
gi
gia
giacomo
gian
gianni
giant
giants
gibb
gibbon
gibbons
gibbs
gibraltar
gibson
gico
gideon
gifford
gift
gifted
gifts
gig
gigantic
gigs
gil
gilbert
gilded
giles
gill
gilles
gillespie
gillian
gillingham
gilman
gilmore
gilt
gin
gina
ginger
gino
gio
gion
giorgio
giovanni
girard
girdle
girl
girlfriend
girls
giro
gis
git
gita
github
giulio
giuseppe
give
given
gives
giving
gjerde
gk
gl
glacial
glacier
glaciers
glad
gladly
gladstone
gladys
glamorgan
glamour
glance
glanced
gland
glands
glasgow
glass
glasses
glastonbury
glee
glen
glendale
glenn
gli
glide
glider
gliding
glimpse
glittering
glo
global
globalization
globally
globe
globes
globiz
globo
gloom
gloomy
gloria
glorious
glory
glossarium
glossary
glossy
gloucester
gloucestershire
glove
glover
gloves
glow
glowing
glu
glucose
glue
gm
gma
gmbh
gmina
gnome
gnu
go
goa
goal
goalkeeper
goals
goaltender
goat
goats
gob
gobierno
goblin
god
goddard
goddess
goddesses
godfather
godfrey
gods
godwin
godzilla
goes
goethe
gogh
goin
going
gol
gold
goldberg
golden
goldman
goldsmith
goldstein
golf
golfer
gomes
gomez
gon
gone
gong
gonna
gonza
gonzaga
gonzales
gonzalez
gonzalo
goo
good
goodbye
goodman
goodness
goods
goodwill
goodwin
google
goose
gop
gordon
gore
gorge
gorgeous
gorilla
gorman
gospel
gospels
gossip
got
goth
gotham
gothenburg
gothic
goto
gotta
gotten
gottfried
gottlieb
gough
gould
gouv
gov
govern
governance
governed
governing
government
governmental
governments
governor
governorate
governors
governorship
governs
govt
gower
gown
gp
gps
gq
gr
gra
grab
grabbed
grabs
grace
graceful
graces
gracie
gracious
grad
grade
graded
grades
gradient
grading
gradual
gradually
graduate
graduated
graduates
graduating
graduation
grady
graeme
graf
graffiti
graft
grafton
graham
grain
grains
gram
grammar
grammatical
grammy
grams
gran
granada
grand
grandchildren
granddaughter
grande
grandes
grandeur
grandfather
grandmaster
grandmother
grandparents
grandson
grange
granger
granite
grant
granted
granting
grants
granville
grape
grapes
graph
graphic
graphical
graphics
graphs
grasp
grasped
grass
grasses
grasshopper
grassland
grasslands
grassroots
grassy
grateful
gratitude
grave
gravel
gravely
graves
graveyard
gravitational
gravity
gray
grayson
graz
grazing
grch
gre
grease
great
greater
greatest
greatly
greatness
grec
greco
greece
greed
greedy
greek
greeks
green
greenberg
greene
greenfield
greenhouse
greenish
greenland
greens
greensboro
greenville
greenway
greenwich
greenwood
greer
greet
greeted
greeting
greg
gregg
gregor
gregorian
gregorio
gregory
grenada
grenade
grenades
grenoble
greta
grew
grey
greyhound
grid
grief
grievances
grieve
grievous
griffin
griffith
griffiths
grill
grim
grimes
grimm
grimsby
grin
grind
grinding
grip
gro
grocery
groningen
groom
groove
grooves
gross
grossed
grossing
grossman
grosvenor
grotesque
ground
groundbreaking
grounded
grounds
groundwater
group
groupe
grouped
grouping
groups
grouse
grove
grover
groves
grow
growers
growing
grown
grows
growth
gru
grupo
gruyter
gs
gt
gu
gua
guadalajara
guadalupe
guadeloupe
guam
guan
guangdong
guangzhou
guantanamo
guarantee
guaranteed
guarantees
guard
guarded
guardian
guardians
guarding
guards
guatemala
gubernatorial
gue
guelph
guernsey
guerra
guerre
guerrero
guerrilla
guerrillas
guess
guessed
guest
guests
guez
guggenheim
gui
guiana
guidance
guide
guided
guidelines
guides
guiding
guido
guild
guildford
guilford
guillaume
guillermo
guilt
guilty
guinea
guineas
guinness
guise
guitar
guitarist
guitars
gujarat
gujarati
gulf
gull
gum
gun
gundam
gunfire
gunman
gunmen
gunn
gunnar
gunner
gunners
gunpowder
guns
gunter
guo
gupta
gurney
guru
gus
gustaf
gustav
gustave
gustavo
gut
gutenberg
guthrie
gutie
gutierrez
guy
guyana
guys
guzma
gw
gwen
gwoyeu
gy
gym
gymnasium
gymnast
gymnastics
gyo
gypsy
h
ha
haaretz
haas
habeas
haben
habib
habit
habitat
habitation
habitats
habits
habitual
habsburg
hachette
hack
hacker
hackett
hacking
hackney
had
hadith
hadley
hadn
hae
hagen
hagfa
haggard
hague
hahn
hai
haifa
haig
hail
hailed
hails
haines
hair
haired
hairs
hairy
haiti
haitian
haji
hakim
hakka
hal
hale
haley
half
halfback
halftime
halfway
halifax
hall
halle
hallmark
halloween
halls
halo
halt
halted
halves
ham
hamas
hamburg
hamburger
hamid
hamilton
hamish
hamlet
hamlets
hamlin
hammer
hammersmith
hammond
hampden
hampered
hampshire
hampson
hampstead
hampton
han
hana
hancock
hand
handball
handbook
handbuch
handed
handel
handful
handicap
handing
handkerchief
handle
handled
handler
handles
handling
hands
handsome
handwriting
handy
hang
hangar
hanged
hangeul
hanging
hangs
hangul
hanja
hank
hanks
hanley
hanna
hannah
hannibal
hannover
hanoi
hanover
hans
hansard
hansen
hanson
hanyu
hao
hapoel
happen
happened
happening
happens
happier
happily
happiness
happy
har
hara
harald
harassed
harassment
harbor
harbour
harcourt
hard
hardcore
hardcover
harden
hardened
harder
hardest
hardin
harding
hardly
hardness
hardship
hardships
hardware
hardy
hare
hari
harlan
harlem
harley
harlow
harm
harman
harmful
harmless
harmon
harmonic
harmonica
harmonies
harmonious
harmony
harness
harold
harp
harper
harpercollins
harpsichord
harriet
harrington
harris
harrisburg
harrison
harrow
harry
harsh
hart
hartford
hartlepool
hartley
hartman
hartmann
hartwell
harvard
harvest
harvested
harvesting
harvey
harvnb
haryana
has
hasan
hash
haskell
hasn
hassan
hast
haste
hasten
hastened
hastily
hastings
hasty
hat
hatch
hate
hated
hates
hatfield
hath
hathaway
hatred
hats
hau
haue
haul
hauled
haunt
haunted
haunting
haus
haut
haute
havana
have
haven
havilland
having
havoc
havre
hawai
hawaii
hawaiian
hawk
hawke
hawker
hawkins
hawks
hawley
haworth
hawthorn
hawthorne
hay
hayden
haydn
hayes
hayley
haymarket
haynes
hays
hayward
hazard
hazardous
hazards
haze
hazel
hb
hbo
hc
hd
hdl
he
head
headache
headed
header
heading
headings
headline
headlined
headlines
headmaster
headquartered
headquarters
heads
headwaters
heal
healed
healing
health
healthcare
healthy
healy
heap
heaps
hear
heard
hearing
hearings
hearn
hears
hearst
heart
hearted
hearth
heartily
heartland
hearts
hearty
heat
heated
heath
heathen
heather
heating
heats
heaven
heavenly
heavens
heavier
heaviest
heavily
heavy
heavyweight
heb
hebrew
hebrews
hectare
hectares
hector
hedge
hedgehog
hedges
hee
heed
heel
heels
hegel
hei
heiban
heidelberg
heidi
height
heightened
heights
heijmans
heinemann
heinrich
heinz
heir
heiress
heirs
held
helen
helena
helene
helens
helicopter
helicopters
helium
helix
hell
hellenic
hellenistic
heller
hello
helm
helmet
helmets
helmut
help
helped
helper
helpful
helping
helpless
helps
helsinki
hem
hemingway
hemisphere
hemp
hen
henan
hence
henceforth
henderson
hendricks
hendrik
hendrix
henley
henning
henri
henrietta
henrik
henry
henson
hepatitis
hepburn
her
herald
heraldic
heraldry
herb
herbarium
herbert
herbs
hercules
herd
herds
here
hereafter
hereby
hereditary
hereford
herein
heresy
heretics
heretofore
heritage
herman
hermann
hermes
hermione
hermit
hermitage
herna
hernandez
hero
herod
herodotus
heroes
heroic
heroin
heroine
heroism
heron
herr
herrera
herring
hers
herschel
herself
hertfordshire
herzegovina
herzog
hesitate
hesitated
hesitation
hess
hesse
hester
het
heterogeneous
hewitt
hewlett
hey
hezbollah
hf
hg
hh
hi
hiatus
hibernian
hickey
hickman
hicks
hid
hidalgo
hidden
hide
hideous
hides
hiding
hierarchical
hierarchy
higgins
high
highbeam
higher
highest
highland
highlanders
highlands
highlight
highlighted
highlighting
highlights
highly
highness
highs
highway
highways
hike
hiking
hilary
hilbert
hilda
hill
hillary
hills
hillsborough
hillside
hilly
hilton
him
himachal
himalaya
himalayan
himalayas
himself
hind
hinder
hindered
hindi
hindu
hinduism
hindus
hindustan
hindwings
hine
hines
hint
hinted
hinton
hints
hip
hir
hiram
hire
hired
hires
hiring
hiroshi
hiroshima
hirsch
his
hispanic
hist
histo
histoire
historia
historian
historians
historic
historical
historically
historie
histories
historiography
historique
history
hit
hitchcock
hither
hitherto
hitler
hits
hitter
hitting
hiv
hive
hk
hl
hla
hler
hm
hms
hn
hng
ho
hoa
hoard
hoax
hobart
hobbs
hobby
hoboken
hobson
hoc
hockey
hodder
hodge
hodges
hodgson
hoe
hof
hoffman
hoffmann
hofmann
hog
hogan
hogg
hoi
hokkaido
hokkien
hold
holden
holder
holders
holding
holdings
holds
hole
holes
holiday
holidays
holiness
holland
hollis
hollow
holloway
holly
hollywood
holm
holman
holmes
holocaust
holotype
holstein
holt
holy
homage
home
homecoming
homeland
homeless
homepage
homer
homeric
homes
homestead
hometown
homicide
homme
homo
homogeneous
homophone
homophones
homosexual
homosexuality
hon
honda
honduras
honest
honestly
honesty
honey
honeymoon
hong
honneur
honolulu
honor
honorable
honorary
honored
honoring
honors
honour
honourable
honoured
honours
hood
hook
hooked
hooker
hooks
hoon
hoop
hooper
hoops
hoover
hop
hope
hoped
hopeful
hopeless
hopes
hoping
hopkins
hopper
hora
horace
horatio
horde
horizon
horizons
horizontal
horizontally
hormone
hormones
horn
horne
horned
horner
hornet
hornets
horns
horowitz
horrible
horrid
horror
horrors
horse
horseback
horsemen
horsepower
horses
horseshoe
horst
horticultural
horticulture
horton
hose
hospital
hospitality
hospitalized
hospitals
host
hostage
hostages
hosted
hostel
hostess
hostile
hostilities
hostility
hosting
hosts
hot
hotel
hotels
hotspur
hottest
hou
houghton
hound
hounds
hour
hourly
hours
house
housed
household
householder
households
housekeeper
housemates
houses
housewives
housing
houston
hove
hover
how
howard
howe
howell
however
hoy
hoyt
hp
hq
hr
hrer
hrvatski
hs
hsu
ht
htm
html
http
https
hu
hua
huang
hub
hubbard
hubble
hubei
huber
hubert
huddersfield
hudson
hue
huey
huff
huffington
huffpost
huge
hugh
hughes
hugo
huh
hui
hulk
hull
hulu
hum
human
humane
humanist
humanitarian
humanities
humanity
humans
humber
humble
humboldt
hume
humid
humidity
humiliation
humility
humor
humorous
humour
humphrey
humphreys
hun
hunan
hundred
hundreds
hung
hungama
hungarian
hungarians
hungary
hunger
hungry
hunt
hunted
hunter
hunters
hunting
huntingdon
huntington
huntsville
huo
hurdle
hurdles
hurley
hurling
huron
hurricane
hurricanes
hurried
hurry
hurst
hurt
hurts
hus
husband
husbands
hush
huskies
hussain
hussein
hut
hutchinson
huts
hutton
huxley
hwa
hwang
hwy
hy
hybrid
hybrids
hyde
hyderabad
hydra
hydraulic
hydro
hydroelectric
hydrogen
hye
hygiene
hym
hyman
hymenoptera
hymn
hymns
hyo
hype
hyper
hyperbolic
hypertension
hyphenation
hypocrisy
hypotheses
hypothesis
hypothetical
hyun
hyundai
hz
i
ia
iaaf
iain
ian
ias
iata
iau
ib
iba
iberia
iberian
ibge
ibid
ibis
ibm
ibn
ibrahim
ic
ica
icao
icarus
icc
ice
iceland
icelandic
icf
ich
ichi
icon
iconic
iconography
icons
ict
icy
id
ida
idaho
ide
idea
ideal
ideals
ideas
idem
identical
identification
identified
identifier
identifiers
identifies
identify
identifying
identities
identity
ideological
ideology
idf
idiomatic
idiot
idle
idol
idols
ie
iec
ieee
if
ifpi
ig
iga
iglesias
ign
ignacio
ignatius
ignition
ignorance
ignorant
ignore
ignored
ignoring
igor
ih
ii
iihf
iii
ij
ik
ike
il
ila
ilbo
ile
ilga
ili
iliad
ill
illegal
illegally
illegitimate
illicit
illinois
illness
illnesses
illuminated
illumination
illusion
illusions
illustrate
illustrated
illustrates
illustrating
illustration
illustrations
illustrator
illustre
illustrious
ilo
ilya
im
ima
image
imagery
images
imaginary
imagination
imaginative
imagine
imagined
imaging
imagining
imam
imdb
imf
imitate
imitation
immaculate
immature
immediate
immediately
immense
immensely
immersed
immersion
immigrant
immigrants
immigrated
immigration
imminent
immoral
immortal
immortality
immune
immunity
immunology
imp
impact
impacted
impacts
impaired
impairment
impartial
impatient
impeachment
impedance
impending
imperative
imperfect
imperfective
imperial
imperialism
impersonal
impetus
impf
implement
implementation
implementations
implemented
implementing
implements
implicated
implication
implications
implicit
implied
implies
imply
implying
import
importance
important
importantly
importation
imported
importing
imports
impose
imposed
imposes
imposing
imposition
impossibility
impossible
impoverished
impress
impressed
impression
impressions
impressive
imprint
imprisoned
imprisonment
improbable
improper
improve
improved
improvement
improvements
improves
improving
improvisation
improvised
impulse
impulses
in
ina
inability
inaccessible
inaccurate
inactivated
inactive
inadequate
inadvertently
inan
inanimate
inappropriate
inasmuch
inaugural
inaugurated
inauguration
inc
inca
incapable
incarcerated
incarnation
incense
incentive
incentives
inception
inch
inches
incidence
incident
incidental
incidentally
incidents
incl
inclination
incline
inclined
include
included
includes
including
inclusion
inclusive
income
incomes
incoming
incompatible
incompetent
incomplete
inconsistent
incorporate
incorporated
incorporates
incorporating
incorporation
incorrect
incorrectly
increase
increased
increases
increasing
increasingly
incredible
incredibly
incumbent
incurred
ind
indebted
indeclinable
indeed
indefinite
indefinitely
indemnity
independence
independent
independently
independents
index
indexed
indi
india
indian
indiana
indianapolis
indians
indicate
indicated
indicates
indicating
indication
indications
indicative
indicator
indicators
indices
indicted
indictment
indie
indies
indiewire
indifference
indifferent
indigenous
indignation
indigo
indira
indirect
indirectly
indispensable
individual
individuality
individually
individuals
indo
indochina
indonesia
indonesian
indoor
indoors
indra
induce
induced
induces
inducing
inducted
inductees
induction
indulge
indulgence
indus
industrial
industrialist
industries
industry
indy
ine
ineffective
ineligible
inen
inequalities
inequality
inevitable
inevitably
inexpensive
inexperienced
inf
infamous
infancy
infant
infantry
infants
infected
infection
infections
infectious
infer
inference
inferior
inferno
inferred
infimæ
infinite
infinitely
infinitive
infinity
infirmary
inflammation
inflammatory
inflation
inflected
inflection
inflict
inflicted
influence
influenced
influences
influencing
influential
influenza
influx
info
inform
informal
informally
informant
informatics
information
informatise
informed
informer
informing
informs
infrared
infrastructure
infringement
infty
ing
inge
ingenious
ingenuity
inglis
ingram
ingredient
ingredients
ingrid
inhabit
inhabitant
inhabitants
inhabited
inhabits
inherent
inherently
inherit
inheritance
inherited
inhibit
inhibition
inhibitor
inhibitors
inhibits
ini
iniquity
initial
initialism
initially
initials
initiate
initiated
initiation
initiative
initiatives
injected
injection
injunction
injure
injured
injuries
injuring
injurious
injury
injustice
ink
inland
inlet
inline
inmate
inmates
inn
innate
inner
innes
inning
innings
innocence
innocent
innovation
innovations
innovative
inns
innsbruck
innumerable
inorganic
inoue
input
inputs
inquest
inquire
inquired
inquirer
inquiries
inquiry
inquisition
ins
insane
insanity
inscribed
inscription
inscriptions
insect
insecta
insects
insee
insert
inserted
inserting
insertion
inside
insider
insight
insights
insignia
insignificant
insist
insisted
insistence
insisting
insists
inspect
inspected
inspection
inspector
inspectors
inspiration
inspire
inspired
inspires
inspiring
instability
instagram
install
installation
installations
installed
installing
installment
instance
instances
instant
instantly
instead
instinct
instincts
institut
institute
instituted
institutes
institution
institutional
institutions
instituto
instruct
instructed
instruction
instructional
instructions
instructor
instructors
instrument
instrumental
instrumentation
instruments
instytut
insufficient
insular
insulation
insulin
insult
insulted
insulting
insults
insurance
insured
insurgency
insurgent
insurgents
insurrection
int
intact
intake
inte
integer
integers
integral
integrate
integrated
integrating
integration
integrity
intel
intellect
intellectual
intellectuals
intelligence
intelligencer
intelligent
intelligible
intend
intended
intending
intends
intense
intensely
intensified
intensity
intensive
intent
intention
intentional
intentionally
intentions
inter
interact
interacting
interaction
interactions
interactive
interacts
intercept
intercepted
interception
interceptions
interchange
intercity
intercollegiate
intercontinental
intercourse
interdisciplinary
interest
interested
interesting
interests
interface
interfaces
interfere
interfered
interference
interfering
interim
interior
interiors
intermediate
intermittent
intern
internacional
internal
internally
international
internationale
internationalism
internationally
internationals
internazionale
internet
internment
interpersonal
interpret
interpretation
interpretations
interpreted
interpreter
interpreting
interred
interrogation
interrupt
interrupted
interruption
interscholastic
intersection
intersections
intersects
interspersed
interstate
interstellar
interval
intervals
intervene
intervened
intervening
intervention
interventions
interview
interviewed
interviews
intestinal
intimacy
intimate
into
intolerable
intra
intransitive
intricate
intrigue
intrinsic
intro
introduce
introduced
introduces
introducing
introduction
introductory
intrusion
intuition
intuitive
inuit
invade
invaded
invaders
invading
invalid
invaluable
invariable
invariably
invariant
invasion
invasions
invasive
invent
invented
invention
inventions
inventor
inventors
inventory
inverness
inverse
inversion
invertebrates
inverted
invest
invested
investigate
investigated
investigates
investigating
investigation
investigations
investigative
investigator
investigators
investing
investment
investments
investor
investors
invincible
invisible
invitation
invitational
invite
invited
invites
inviting
invoke
invoked
involuntary
involve
involved
involvement
involves
involving
inward
io
ioc
ion
ionic
ions
ios
iowa
ip
ipa
ipad
ipc
iphone
ipo
ipswich
iq
iqbal
ir
ira
iran
iranian
iranica
iraq
iraqi
ire
ireann
ireland
irene
irina
iris
irish
irma
iron
ironic
ironically
irons
irony
iroquois
irrational
irregular
irregularities
irrelevant
irresistible
irrespective
irrigation
irritation
irs
irvine
irving
irwin
is
isa
isaac
isabel
isabella
isabelle
isaiah
isbn
ise
ish
isi
isidore
isil
isis
isla
islam
islamabad
islamic
islamist
island
islander
islanders
islands
isle
isles
ismail
isn
iso
isolate
isolated
isolation
isotope
isotopes
israel
israeli
israelis
israelites
iss
issn
issuance
issue
issued
issues
issuing
ist
istanbul
isthmus
istituto
istva
isu
it
ita
italia
italian
italiana
italiano
italians
italic
italics
italy
ite
item
items
iteration
itf
ithaca
itis
ito
its
itself
itu
itunes
itv
iu
iucn
ius
iv
iva
ivan
ivanov
ivat
ives
ivo
ivor
ivory
ivy
ix
iz
j
ja
jack
jacket
jackets
jackie
jackson
jacksonville
jacob
jacobite
jacobs
jacobsen
jacobson
jacqueline
jacques
jade
jae
jag
jaguar
jaguars
jahre
jai
jail
jailed
jaime
jain
jaipur
jakarta
jake
jakob
jalan
jalisco
jam
jama
jamaica
jamaican
jamal
james
jameson
jamestown
jamie
jammu
jams
jan
jana
janata
jane
janeiro
janet
jang
janice
jansen
january
japan
japanese
jar
jared
jarrett
jars
jarvis
jas
jasmine
jason
jasper
jat
java
javanese
javascript
javelin
javier
jaw
jaweon
jaws
jay
jaya
jays
jazeera
jazyka
jazz
jb
jbc
jc
jd
je
jealous
jealousy
jean
jeanne
jeans
jedi
jeep
jeff
jefferson
jeffery
jeffrey
jeffries
jehovah
jelly
jem
jen
jena
jenkins
jenna
jennie
jennifer
jennings
jenny
jens
jensen
jeong
jeopardy
jer
jeremiah
jeremy
jericho
jerk
jeroen
jerome
jerry
jersey
jerusalem
jerzy
jess
jesse
jessica
jessie
jest
jesu
jesuit
jesuits
jesus
jet
jets
jew
jewel
jewellery
jewelry
jewels
jewish
jews
jezic
jf
jg
jh
jha
jharkhand
ji
jia
jian
jiang
jiangsu
jie
jihad
jill
jim
jime
jimi
jimmie
jimmy
jin
jing
jir
jiten
jiu
jj
jk
jl
jm
jn
jo
joa
joachim
joan
joanna
joanne
joaqui
joaquin
job
jobs
jocelyn
jock
jockey
jody
joe
joel
joey
johan
johann
johanna
johannes
johannesburg
johansson
john
johnny
johns
johnson
johnston
johnstone
johor
join
joined
joining
joins
joint
jointly
joints
jojo
joke
joker
jokes
jolly
jon
jonah
jonas
jonathan
jones
jong
jonny
joo
joon
jordan
jordanian
jorge
jos
jose
josef
joseon
joseph
josephine
josephus
josh
joshi
joshua
josiah
jour
journal
journalism
journalist
journalists
journals
journey
journeys
jove
joy
joyce
joyful
joyous
joys
jp
jpg
jpl
jr
js
jstor
jt
ju
jua
juan
jubilee
judah
judaism
judas
judd
jude
judge
judged
judgement
judges
judging
judgment
judgments
judicial
judiciary
judith
judo
judy
jug
juice
jul
jules
julia
julian
juliana
julie
julien
juliet
juliette
julio
julius
july
jump
jumped
jumper
jumping
jumps
jun
junction
junctions
june
jung
jungle
junior
juniors
junk
juno
junta
jupiter
jura
jurassic
jure
juries
juris
jurisdiction
jurisdictions
jurisprudence
jurist
jurors
jury
jus
jussive
just
justice
justices
justification
justified
justify
justin
justine
justly
juvenile
juveniles
juventus
jw
jy
jyutping
k
ka
kabul
kahn
kai
kais
kaiser
kal
kala
kali
kalki
kam
kamal
kamen
kami
kampala
kan
kana
kane
kang
kangaroo
kangxi
kanji
kannada
kano
kansas
kant
kanwa
kanye
kao
kaohsiung
kaplan
kapoor
kappa
kar
kara
karabakh
karachi
karan
karate
karel
karen
kari
karim
karin
karl
karlsruhe
karma
karnataka
kas
kashmir
kassel
kat
kate
katharine
katherine
kathleen
kathmandu
kathryn
kathy
katie
kato
katrina
katy
katz
kau
kaufman
kaufmann
kaur
kawasaki
kay
kaye
kazakh
kazakhstan
kazan
kb
kbs
kc
ke
keane
kearney
keating
keefe
keel
keen
keenan
keene
keep
keeper
keepers
keeping
keeps
kegan
kei
keith
keller
kelley
kellogg
kelly
kelsey
kelvin
kemp
ken
kendall
kendrick
kennedy
kenneth
kenny
kensington
kent
kentucky
kenya
kenyan
kenyon
kepler
kept
ker
kerala
kern
kernel
kerr
kerry
kershaw
kessler
kettle
kevin
kew
key
keyboard
keyboardist
keyboards
keynes
keynote
keys
keystone
kg
kgb
kh
kha
khaled
khalid
khalifa
khalil
khan
kharkiv
khmer
kho
khorasan
khu
khyber
khz
ki
kia
kiado
kick
kicked
kicker
kicking
kickoff
kicks
kickstarter
kid
kidd
kidnap
kidnapped
kidnapping
kidney
kids
kie
kiel
kiev
kilda
kildare
kilkenny
kill
killed
killer
killers
killing
killings
kills
kilmarnock
kilograms
kilometer
kilometers
kilometre
kilometres
kim
kimball
kimberley
kimberly
kin
kinase
kind
kinder
kindergarten
kindle
kindly
kindness
kindred
kinds
kinetic
king
kingdom
kingdoms
kings
kingsley
kingston
kinship
kipling
kira
kirby
kirk
kirkland
kirkpatrick
kirkus
kirsten
kiss
kissed
kisses
kissing
kit
kita
kitchen
kitchener
kitching
kite
kits
kitty
kiwi
kjv
kk
kl
kla
klan
klaus
klein
kluge
km
kml
kn
knapp
knee
kneeling
knees
knesset
knew
knicks
knife
knight
knighted
knights
knit
knitting
knives
knob
knock
knocked
knocking
knockout
knocks
knopf
knot
knots
know
knowing
knowledge
knowles
known
knows
knox
knoxville
knut
ko
kobayashi
kobe
koch
kochi
koda
kodansha
koh
koi
koine
kok
kola
kolkata
kom
kon
kondolojy
kong
konrad
konstantin
korea
korean
koreans
korn
kos
kosovo
kota
kotaku
kova
kr
kra
kraft
krai
krako
kramer
krause
kremlin
kris
krishna
kristen
kristian
kristin
kristina
kro
kru
ks
kt
ku
kuala
kuan
kuhn
kumar
kun
kung
kunst
kuo
kurdish
kurdistan
kurds
kursk
kurt
kus
kuwait
kv
kw
kwan
kwon
ky
kyiv
kyle
kylie
kyo
kyoto
kyrgyz
kyrgyzstan
kyu
kyung
kyushu
kz
kɐ
kɔ
l
la
lab
label
labeled
labeling
labelled
labels
labor
laboratories
laboratory
laborers
labors
labour
labourers
labours
labrador
labs
labyrinth
lac
lace
lacey
lack
lacked
lacking
lacks
lacrosse
lacy
lad
ladder
laden
ladies
lads
lady
lafayette
lag
laga
lago
lagoon
lagos
laguna
lahore
lai
laid
laing
laird
lake
lakeland
lakers
lakes
lakshmi
lal
lam
lama
lamar
lamb
lambda
lambert
lambeth
lame
lament
lamont
lamp
lamps
lan
lana
lancashire
lancaster
lance
lancelot
lancet
land
landau
landed
lander
landesamt
landfall
landing
landings
landlord
landlords
landmark
landmarks
landon
landowner
landowners
landry
lands
landscape
landscapes
landslide
lane
lanes
lang
lange
langer
langford
langle
langley
language
languages
langue
lanham
lanka
lankan
lansing
lantern
lao
laos
lap
laps
lapse
laptop
lar
lara
large
largely
larger
largest
lark
larkin
larry
lars
larsen
larson
larsson
larva
larvae
las
laser
lasers
last
lasted
lasting
lastly
lasts
lat
late
lately
latent
later
lateral
latest
latham
latin
latina
latinitatis
latino
latinos
latitude
latter
lattice
latvia
latvian
lau
laude
lauded
lauderdale
laugh
laughed
laughing
laughs
laughter
launceston
launch
launched
launcher
launches
launching
laundering
laundry
laura
laureate
laurel
lauren
laurence
laurent
laurie
lausanne
lava
laval
lavender
lavish
law
lawful
lawfully
lawless
lawmakers
lawn
lawrence
laws
lawson
lawsuit
lawsuits
lawton
lawyer
lawyers
lax
lay
layer
layered
layers
laying
layout
lays
layton
lazarus
lazio
lazy
lb
lbs
lc
lccn
ld
ldots
lds
le
lea
leach
lead
leader
leaders
leadership
leading
leads
leaf
leaflets
leafs
league
leagues
leah
leak
leaked
leaks
lean
leaned
leaning
leap
leaped
lear
learn
learned
learner
learners
learning
learns
learnt
leary
lease
leased
leases
leasing
least
leather
leave
leaves
leaving
lebanese
lebanon
leben
leblanc
lecture
lectured
lecturer
lectures
led
ledge
ledger
lee
leeds
lees
left
leftist
leg
lega
legacy
legal
legality
legally
legend
legendary
legends
legged
legion
legions
legislation
legislative
legislator
legislators
legislature
legislatures
legitimacy
legitimate
lego
legs
lehigh
lehman
lehmann
lei
leicester
leicestershire
leiden
leigh
leighton
leila
leinster
leipzig
leisure
leith
leksikon
leland
lemma
lemon
len
lena
lend
lending
length
lengths
lengthy
lengua
lenin
leningrad
lennon
lennox
lenny
lens
lenses
lent
leo
leon
leonard
leonardo
leone
leonid
leopard
leopold
lepidoptera
leq
ler
lerner
leroy
les
lesbian
lesions
lesley
leslie
lesotho
less
lesser
lesson
lessons
lest
lester
let
lethal
lets
letter
letters
letting
lettres
leukemia
leung
leuven
lev
levant
level
levels
lever
leverage
levi
levied
levin
levine
levy
lew
lewes
lewis
lewiston
lex
lexical
lexicon
lexikon
lexington
ley
lez
lg
lgbt
lgbtq
lh
li
lia
liabilities
liability
liable
liaison
liam
liang
liao
liar
lib
libby
libe
libel
liber
liberal
liberalism
liberals
liberated
liberation
liberia
libertadores
libertarian
liberties
liberty
librarian
libraries
library
libre
libretto
libya
libyan
lica
licence
licences
license
licensed
licenses
licensing
lichen
lichfield
lick
lid
liddell
lie
liechtenstein
lied
lien
lies
lieu
lieut
lieutenant
lieutenants
life
lifeboat
lifelong
lifespan
lifestyle
lifetime
lift
lifted
lifting
lifts
liga
ligament
ligand
light
lightcurve
lighted
lighter
lighthouse
lighthouses
lighting
lightly
lightning
lights
lightweight
ligue
like
liked
likelihood
likely
likened
likeness
likes
likewise
liking
lil
lille
lillian
lilly
lily
lim
lima
limb
limbs
limburg
lime
limerick
limestone
limit
limitation
limitations
limited
limiting
limits
lin
lina
lincoln
lincolnshire
linda
linden
lindsay
lindsey
line
lineage
lineages
linear
linebacker
lined
lineman
linen
liner
lines
lineup
ling
lingering
lingua
linguist
linguistic
linguistics
lining
link
linked
linkedin
linking
links
linn
linnaeus
linnean
linton
linux
lio
lion
lionel
lions
lip
lipa
lipid
lippincott
lips
liquid
liquidation
liquids
liquor
lis
lisa
lisbon
list
lista
liste
listed
listen
listened
listener
listeners
listening
lister
listing
listings
lists
liszt
lit
lite
liter
literacy
literal
literally
literary
literature
lithium
lithuania
lithuanian
litigation
litre
litres
litte
litter
little
littlefield
liturgical
liturgy
liu
liv
live
lived
livelihood
lively
liver
liverpool
livery
lives
livestock
living
livingston
livingstone
livre
livy
lix
liz
liza
lizard
lizards
lizzie
lj
ljubljana
lk
lkerung
ll
lla
llc
lle
llengua
ller
llewellyn
lloyd
lm
ln
lni
lo
load
loaded
loading
loads
loaf
loan
loaned
loans
lobby
lobbying
lobe
lobes
lobster
loc
local
localities
locality
localization
localized
locally
locals
locate
located
locating
location
locations
locative
locator
loch
lock
lockdown
locke
locked
locker
lockhart
lockheed
locking
locks
lockwood
loco
locomotive
locomotives
locus
lodge
lodged
lodges
lodging
loeb
loft
lofty
log
logan
logging
logic
logical
logistics
logo
logos
logs
loi
loire
lois
lok
lokomotiv
lola
lombard
lombardy
lon
london
lone
loneliness
lonely
long
longer
longest
longevity
longing
longitude
longitudinal
longman
longmans
longtime
loo
look
looked
looking
lookout
looks
looney
loop
loops
loose
loosely
looted
looting
lopes
lopez
lord
lords
lordship
lore
loren
lorenz
lorenzo
lori
lorna
lorraine
los
lose
loser
losers
loses
losing
loss
losses
lost
lot
lothian
lots
lottery
lotus
lou
loud
louder
loudly
lough
louie
louis
louisa
louise
louisiana
louisville
lounge
lourdes
louvre
love
loved
lovell
lovely
lover
lovers
loves
loving
low
lowe
lowell
lower
lowered
lowering
lowest
lowland
lowlands
lowry
loyal
loyalist
loyalists
loyalty
loyola
lp
lpga
lr
ls
lst
lsu
lt
ltd
lu
lubbock
lublin
luc
luca
lucas
luce
lucha
lucia
lucian
luciano
lucie
lucien
lucifer
lucille
lucius
luck
lucknow
lucky
lucrative
lucy
ludlow
ludwig
luftwaffe
luggage
lui
luigi
luis
luisa
luiz
luka
lukas
luke
lulu
lumber
luminous
lump
lumpur
luna
lunar
lunch
lund
lung
lungs
luo
lupin
lure
lus
lush
lust
lute
luther
lutheran
luton
lutz
lux
luxembourg
luxurious
luxury
luz
luzon
lv
lvarez
lvaro
lviv
ly
lyal
lyce
lyceum
lydia
lying
lyle
lyman
lymphoma
lyn
lynch
lyndon
lynn
lynne
lynx
lyon
lyons
lyric
lyrical
lyricist
lyrics
lɔ
lɛ
m
ma
maa
mabel
mac
macarthur
macau
macaulay
macbeth
maccabi
macdonald
mace
macedonia
macedonian
macfarlane
macgregor
mach
machado
machine
machinery
machines
macintosh
mack
mackay
mackenzie
maclean
macleod
macmillan
macon
macpherson
macquarie
macro
macy
mad
madagascar
madam
madame
madden
made
madeira
madeleine
madeline
mademoiselle
madhya
madison
madman
madness
madonna
madras
madre
madrid
mae
maestro
mafia
mag
magazine
magazines
magdalen
magdalena
magdalene
magdeburg
maggie
magic
magical
magician
magistrate
magistrates
magma
magna
magnate
magnesium
magnet
magnetic
magnetism
magnificent
magnitude
magnolia
magnum
magnus
maguire
magyar
mah
maha
mahal
maharaja
maharashtra
mahatma
maher
mahmoud
mahmud
mahoney
mai
maid
maiden
maidens
maids
mail
mailing
main
maine
mainland
mainline
mainly
mainstream
maint
maintain
maintained
maintaining
maintains
maintenance
mainz
maires
mais
maison
maitland
maize
maj
majestic
majesty
maji
major
majority
majors
mak
make
maker
makers
makes
makeup
making
mal
mala
malabar
malacca
malaria
malawi
malay
malaya
malayalam
malayo
malaysia
malaysian
malcolm
maldives
male
males
mali
malice
malicious
malignant
malik
mall
malley
mallon
mallorca
mallory
malls
malmo
malone
malt
malta
maltese
malvern
mama
mamma
mammal
mammalian
mammals
mammoth
man
mana
manage
managed
management
manager
managerial
managers
manages
managing
manchester
manchu
manchuria
mandal
mandarin
mandate
mandated
mandates
mandatory
mandela
mandir
mandolin
mandy
mane
maneuver
maneuvers
manfred
manga
manganese
mango
mangrove
manhattan
manhood
mani
mania
manifest
manifestation
manifestations
manifested
manifesto
manifold
manila
manipulate
manipulated
manipulation
manipur
manitoba
mankind
manly
mann
manned
manner
manners
mannheim
manning
manny
manor
manpower
mans
mansfield
mansion
mansions
manson
mantle
manu
manual
manually
manuals
manuel
manufacture
manufactured
manufacturer
manufacturers
manufactures
manufacturing
manuscript
manuscripts
manx
many
mao
maori
map
maple
mapped
mapping
maps
mar
mara
marathi
marathon
marble
marc
marca
marcel
marcelo
march
marche
marched
marches
marching
marcia
marco
marcos
marcus
mare
marek
margaret
margarita
margin
marginal
margins
margot
marguerite
mari
maria
mariah
marian
mariana
marianne
mariano
marie
marijuana
marilyn
marin
marina
marine
mariner
mariners
marines
marinespecies
marino
mario
marion
marital
maritime
marius
marjorie
mark
marked
marker
markers
market
marketed
marketing
marketplace
markets
markham
marking
markings
markku
marko
marks
markus
marlborough
marley
marlins
marlowe
marne
maroon
marque
marques
marquess
marquette
marquis
marriage
marriages
married
marries
marriott
marrow
marry
marrying
mars
marsden
marseille
marsh
marshal
marshall
marshes
marston
mart
marta
martha
marti
martial
martian
martin
martina
martinez
martini
martinique
martins
marty
martyn
martyr
martyrdom
martyrs
maru
marvel
marvellous
marvelous
marvin
marx
marxism
marxist
mary
maryland
marylebone
mas
masc
mascot
masculine
masjid
mask
masked
masks
mason
masonic
masonry
masovian
mass
massa
massachusetts
massacre
massacres
masses
massey
massif
massimo
massive
mast
master
mastered
mastering
masterpiece
masterpieces
masters
mastery
masts
mat
mata
match
matched
matches
matching
mate
mateo
mater
material
materially
materials
maternal
maternity
mates
math
mathbb
mathbf
mathcal
mathematical
mathematician
mathematicians
mathematics
mather
mathew
mathews
mathfrak
mathias
mathieu
mathrm
matilda
mating
matric
matrices
matrix
mats
matsumoto
matt
matteo
matter
matters
matthew
matthews
matthias
mature
maturity
mau
maud
maude
maui
maureen
maurer
maurice
mauricio
mauritania
mauritius
mauro
maury
mausoleum
maverick
mavericks
max
maxi
maxim
maximilian
maximize
maximum
maximus
maxine
maxwell
may
maya
maybe
mayer
mayfield
mayhem
maynard
mayo
mayor
mayoral
mayors
mays
mazda
maze
mb
mba
mbc
mbe
mc
mca
mcarthur
mcbride
mcc
mccabe
mccain
mccall
mccann
mccarthy
mccartney
mcclellan
mcclure
mcconnell
mccormack
mccormick
mccoy
mcculloch
mcdermott
mcdonald
mcdonnell
mcdowell
mcfarland
mcfarlane
mcgee
mcgill
mcgowan
mcgrath
mcgraw
mcgregor
mcguire
mcintosh
mcintyre
mckay
mckee
mckenna
mckenzie
mckinley
mckinney
mclaren
mclaughlin
mclean
mcleod
mcmahon
mcmillan
mcnally
mcnamara
mcneil
mcnulty
mcpherson
mcqueen
md
me
mead
meade
meadow
meadows
meal
meals
mean
meaning
meaningful
meanings
means
meant
meantime
meanwhile
measure
measured
measurement
measurements
measures
measuring
meat
meath
mecca
mechanic
mechanical
mechanically
mechanics
mechanism
mechanisms
mechanized
mecklenburg
med
medal
medalist
medalists
medallist
medals
media
mediaeval
medial
median
mediated
mediation
mediator
medical
medicare
medication
medications
medici
medicinal
medicine
medicines
medien
medieval
medina
meditation
mediterranean
medium
mediæ
medley
mee
meek
meet
meeting
meetings
meets
meg
mega
megan
meghan
mehmet
mehta
mei
meier
meiji
mein
meinong
mel
melancholy
melanie
melbourne
melinda
melissa
mellon
melo
melodic
melodies
melody
melon
melrose
melt
melted
melting
melton
melville
melvin
mem
member
members
membership
membrane
membranes
memo
memoir
memoirs
memorable
memorandum
memorial
memorials
memoriam
memories
memory
memphis
men
menace
mendelssohn
mendes
mendoza
meng
mennonite
menon
ment
mental
mentally
mention
mentioned
mentioning
mentions
mentor
menu
mer
mercantile
mercedes
mercenaries
mercenary
mercer
merchandise
merchant
merchants
merciful
mercury
mercy
mere
meredith
merely
merge
merged
merger
mergers
merging
meridian
merit
meritorious
merits
merle
merlin
mermaid
merriam
merrill
merritt
merry
merton
mes
mesa
mesh
mesopotamia
mess
message
messages
messaging
messenger
messengers
messiah
messina
messrs
met
meta
metabolic
metabolism
metacritic
metadata
metal
metallic
metallica
metals
metaphor
metaphysical
metaphysics
metcalf
meteor
meteorological
meteorology
meter
meters
methane
method
methodist
methodology
methods
methuen
methyl
metre
metres
metric
metrics
metro
metropolis
metropolitan
mets
metz
mex
mexican
mexicana
mexicans
mexico
meyer
meyers
meyrick
mez
mf
mfa
mg
mgm
mh
mhz
mi
mia
miai
miami
miaoli
mic
mica
mice
mich
michael
michaels
michel
michelangelo
michele
michelin
michelle
michigan
mick
mickey
micro
microbial
microbiology
microphone
microscope
microscopic
microscopy
microsoft
microwave
mid
midday
middle
middlesbrough
middlesex
middleton
middletown
middleweight
midfield
midfielder
midhg
midi
midland
midlands
midnight
midshipman
midst
midsummer
midtown
midway
midwest
mie
mifflin
mig
might
mighty
migrant
migrants
migrate
migrated
migration
migrations
migratory
miguel
mika
mikael
mike
mikhail
mil
milan
milano
mild
mildred
mile
miles
milestone
milestones
miley
milford
militant
militants
military
militia
militias
milk
milky
mill
millar
millennium
miller
millet
milligan
millimetres
milling
million
millionaire
millions
mills
millwall
milne
milner
milo
milos
milton
milwaukee
mimi
mimic
min
mina
minaj
minas
mind
mindanao
minded
minds
mine
mined
miner
mineral
mineralogy
minerals
miners
minerva
mines
ming
mingled
minh
mini
miniature
miniatures
minimal
minimize
minimum
mining
miniseries
ministe
minister
ministerial
ministers
ministries
ministry
minneapolis
minnesota
minnie
minogue
minor
minorities
minority
minors
minsk
mint
minus
minute
minutes
mio
miocene
mir
mira
miracle
miracles
miraculous
mirage
miranda
miriam
miroslav
mirror
mirrors
mirza
mis
miscellaneous
mischief
misconduct
mise
miserable
misery
misfortune
mishra
misleading
miss
missed
misses
missile
missiles
missing
mission
missionaries
missionary
missions
mississippi
missouri
misspelling
mist
mistake
mistaken
mistakenly
mistakes
mister
mistress
misty
misunderstanding
misunderstood
misuse
mit
mitch
mitchell
mitigate
mitigation
mitochondrial
mitra
mitsubishi
mix
mixed
mixer
mixes
mixing
mixtape
mixture
mj
mk
ml
mla
mlb
mls
mm
mma
mmajunkie
mme
mn
mnras
mo
moat
mob
mobile
mobility
mobilization
mobygames
mock
mocking
mod
mode
model
modeled
modeling
modelled
modelling
models
modena
moderate
moderately
moderation
moderator
modern
moderne
modernism
modernist
modernity
modernization
modernized
modes
modest
modesty
modi
modification
modifications
modified
modify
modifying
modular
modulation
module
modules
moe
moffat
mohamed
mohammad
mohammed
mohan
mohawk
moi
moines
moist
moisture
mojo
mol
mold
moldova
moldovan
mole
molecular
molecule
molecules
molina
moll
mollusca
mollusk
molly
molten
mom
moment
moments
momentum
mon
mona
monaco
monaghan
monarch
monarchs
monarchy
monasteries
monastery
monastic
monday
monde
mondo
monetary
money
moneys
mongol
mongolia
mongolian
mongols
monica
moniker
monique
monitor
monitored
monitoring
monitors
monk
monkey
monkeys
monks
monmouth
mono
monograph
monographs
monopoly
monotypic
monroe
mons
monsieur
monsoon
monster
monsters
monstrous
mont
montagu
montague
montana
montane
monte
montenegrin
montenegro
monterey
monterrey
montevideo
montgomery
month
monthly
months
montpellier
montre
montreal
montrose
monty
monument
monumental
monuments
mood
moods
moody
moon
mooney
moonlight
moons
moor
moore
moors
moose
mor
mora
moral
morale
morales
morality
morally
morals
moran
moravia
moravian
moray
more
moreau
moreno
moreover
morgan
mori
moritz
morley
mormon
morning
mornings
moro
moroccan
morocco
morphological
morphology
morris
morrison
morrissey
morrow
morse
mort
mortal
mortality
mortally
mortals
mortar
mortars
mortgage
mortgages
mortimer
morton
mos
mosaic
moscow
moselle
moser
moses
moshe
mosley
mosque
mosques
mosquito
moss
most
mostly
mosul
mot
motel
moth
mother
mothers
motherwell
moths
motif
motifs
motilal
motion
motionless
motions
motivated
motivation
motive
motives
moto
motogp
motor
motorcycle
motorcycles
motorized
motorola
motors
motorsport
motorsports
motorway
motown
mott
motto
mou
mould
mound
mounds
mount
mountain
mountaineers
mountainous
mountains
mounted
mounting
mounts
mourn
mourning
mouse
mouth
mouths
movable
move
moved
movement
movements
moves
movie
movies
moving
mozambique
mozart
mp
mph
mps
mr
mri
mrna
mrs
mrt
ms
msc
msn
msnbc
mss
msu
mt
mta
mtv
mu
much
mud
muddy
mueller
mughal
muhammad
muir
mukherjee
mulder
mule
mules
mullen
muller
multi
multicultural
multimedia
multinational
multiplayer
multiple
multiplication
multiplied
multiply
multitude
mum
mumbai
mummy
mun
mundo
munich
municipal
municipalities
municipality
munitions
munro
munster
mur
mural
murals
murcia
murder
murdered
murderer
murderers
murdering
murders
murdoch
muriel
murmur
murmured
murphy
murray
mus
musa
muscle
muscles
muscular
muse
museo
museum
museums
mushroom
mushrooms
music
musica
musical
musicale
musically
musicals
musician
musicians
musik
musique
musk
muslim
muslims
mussolini
must
mustafa
mustang
mustard
muster
mustered
mutant
mutants
mutation
mutations
mute
mutiny
muttered
mutual
mutually
muzzle
mv
mvp
mw
mx
my
myanmar
myers
myles
myriad
myrtle
myself
mysore
myspace
mysteries
mysterious
mystery
mystic
mystical
mysticism
myth
mythical
mythological
mythology
myths
mɑ
mɛ
n
na
naacp
naar
nabla
nac
nach
nacio
nacional
nad
nada
nadal
nadia
nadine
nadu
naga
nagano
nagar
nagasaki
nagoya
nagy
nai
naia
nail
naill
nails
nair
nairobi
naive
nakamura
naked
nal
nam
name
named
namely
names
namesake
namibia
naming
nan
nana
nancy
nanjing
nano
nantes
naomi
napa
napier
naples
napoleon
napoleonic
napoli
nar
nara
narayan
narcotics
narrated
narration
narrative
narratives
narrator
narrow
narrower
narrowly
narrows
nas
nasa
nasal
nascar
nash
nashville
nasir
nassau
nasser
nasty
nat
natal
natalia
natalie
natasha
nate
nath
nathalie
nathan
nathaniel
nation
national
nationale
nationalism
nationalist
nationalists
nationalities
nationality
nationally
nationals
nations
nationwide
native
natives
nativity
natl
nato
natur
natural
naturalist
naturalization
naturalized
naturally
nature
natures
naughty
naukova
nautical
navajo
naval
navarre
navarro
nave
naver
navigable
navigate
navigation
navigator
navsource
navy
nawab
nay
nazareth
nazi
nazionale
nazis
nb
nba
nbc
nbl
nc
ncaa
ncbi
nchen
nchez
ncia
ncis
nd
nda
nde
nder
ndez
ndp
ndtv
ne
nea
neal
neale
near
nearby
nearer
nearest
nearly
neat
nebraska
nebula
nec
necessarily
necessary
necessitated
necessities
necessity
neck
necked
necklace
necks
nectar
ned
nederland
nederlandse
nee
need
needed
needham
needing
needle
needles
needs
needy
negative
negatively
neglect
neglected
negligence
negotiate
negotiated
negotiating
negotiation
negotiations
negro
negroes
nehru
nei
neighbor
neighborhood
neighborhoods
neighboring
neighbors
neighbour
neighbourhood
neighbourhoods
neighbouring
neighbours
neil
neill
neither
nek
nel
nell
nellie
nelly
nelson
nem
nemesis
nen
neo
neoclassical
neolithic
neon
nepal
nepalese
nepali
nephew
neptune
ner
nero
nerve
nerves
nervous
nes
ness
nest
nesting
nestor
nests
net
netball
netflix
netherlands
nets
network
networking
networks
neu
neue
neumann
neural
neurological
neurology
neuron
neuronal
neurons
neuroscience
neuter
neutral
neutrality
neutron
nevada
never
nevertheless
neville
new
newark
newborn
newbury
newcastle
newcomer
newcomers
newell
newer
newest
newfoundland
newly
newman
newmarket
newport
news
newscast
newsday
newsletter
newspaper
newspapers
newsroom
newsweek
newswire
newton
newtown
next
nexus
nez
nf
nfc
nfl
ng
nga
ngc
nge
ngel
ngo
ngos
ngu
ngua
nguye
nguyen
nh
nha
nhk
nhl
nhs
ni
nia
niagara
niall
nic
nica
nicaragua
nice
nicene
niche
nicholas
nicholls
nichols
nicholson
nicht
nick
nickel
nickelodeon
nicki
nickname
nicknamed
nicky
nico
nicola
nicolae
nicolas
nicole
nicolson
nie
niece
niels
nielsen
nietzsche
nig
nigel
niger
nigeria
nigerian
nigh
night
nightclub
nightingale
nightly
nightmare
nights
nih
nihon
nije
nik
nike
nikita
nikki
nikola
nikolai
nikolaus
nikolay
nil
nile
niles
nils
nilsson
nin
nina
nine
nineteen
nineteenth
ninety
ning
ninja
nino
nintendo
ninth
nio
nippon
nirvana
nis
nissan
nit
nitrate
nitrogen
nixon
nj
nk
nl
nla
nlm
nm
nme
nmi
nn
no
noaa
noah
nobel
nobility
noble
nobleman
nobles
nobody
nocturnal
nod
nodded
node
nodes
noe
noel
noi
noir
noise
noises
noisy
nokia
nolan
nom
nomadic
nomenclature
nominal
nominally
nominate
nominated
nomination
nominations
nominative
nominee
nominees
non
none
nonetheless
nonfiction
nonlinear
nonprofit
nonsense
nonstandard
noon
noor
nor
nora
norbert
nord
nordic
norfolk
norm
norma
normal
normally
norman
normandy
norms
norris
norse
norsk
norske
norte
north
northampton
northamptonshire
northbound
northeast
northeastern
northern
northernmost
northumberland
northward
northwards
northwest
northwestern
norton
norway
norwegian
norwich
norwood
nos
nose
nosed
nostalgia
not
notable
notably
notary
notation
notch
note
notebook
noted
notes
noteworthy
nothing
notice
noticeable
noticed
notices
noticias
noticing
notification
notified
notify
noting
notion
notions
notoriety
notorious
notre
nottingham
nottinghamshire
notts
notwithstanding
noun
nouns
nous
nouveau
nouvelle
nov
nova
novak
novel
novelist
novella
novels
novelty
november
novgorod
novi
novice
novo
now
nowadays
nowhere
np
npr
nps
nr
nrc
nrhp
nrl
ns
nsa
nster
nsw
nt
nta
nter
nther
nu
nuclear
nuclei
nucleic
nucleotide
nucleus
nude
nueva
nuevo
nugent
nuisance
null
num
number
numbered
numbering
numbers
numerals
numeric
numerical
numerous
nun
nunavut
nuns
nuovo
nur
nuremberg
nurse
nursery
nurses
nursing
nus
nut
nutrient
nutrients
nutrition
nutritional
nuts
nv
nw
nwa
nxt
ny
nya
nyc
nye
nyelv
nyi
nyj
nynorsk
nytimes
nyu
nz
nɐ
o
oa
oak
oakland
oakley
oaks
oasis
oates
oath
oaths
oats
oaxaca
ob
obama
obe
obedience
obedient
obesity
obey
obeyed
obituaries
obituary
object
objected
objection
objections
objective
objectives
objects
oblast
oblasts
obligation
obligations
obligatory
obliged
oblique
oblivion
oblong
oboe
obs
obscene
obscure
obscured
obscurity
observance
observation
observational
observations
observatory
observe
observed
observer
observers
observes
observing
obsessed
obsession
obsolete
obstacle
obstacles
obstruction
obtain
obtained
obtaining
obtains
obvious
obviously
oc
occasion
occasional
occasionally
occasioned
occasions
occidental
occitan
occult
occupancy
occupants
occupation
occupational
occupations
occupied
occupies
occupy
occupying
occur
occurred
occurrence
occurrences
occurring
occurs
ocean
oceania
oceanic
oceans
och
oclc
oct
octagonal
octave
october
octopus
od
oda
odd
odds
ode
oder
odessa
odi
odin
odisha
odnb
odor
odyssey
oecd
of
off
offence
offences
offend
offended
offender
offenders
offense
offenses
offensive
offer
offered
offering
offerings
offers
office
officer
officers
offices
official
officially
officials
offiziellecharts
offs
offset
offshore
offspring
oficial
oft
often
og
ogden
oh
ohio
oi
oil
oilers
oils
oireachtas
ois
oise
ok
okay
okinawa
oklahoma
okrug
ol
ola
olaf
old
oldenburg
older
oldest
oldham
olds
ole
oleg
olga
oli
olive
oliveira
oliver
olivetti
olivia
olivier
ollie
olsen
olson
olympedia
olympia
olympiacos
olympiad
olympian
olympic
olympics
olympus
om
omaha
oman
omar
ombudsman
omega
omission
omit
omitted
omnibus
on
once
oncology
one
ones
oneself
ong
ongoing
oni
onion
onions
online
only
ono
ons
onset
ont
ontario
onto
onward
onwards
oo
op
ope
open
opened
opener
opening
openings
openly
opens
opera
operas
operate
operated
operates
operatic
operating
operation
operational
operations
operative
operatives
operator
operatorname
operators
opined
opinion
opinions
opioid
opium
opold
opponent
opponents
opportunities
opportunity
oppose
opposed
opposes
opposing
opposite
opposition
oppressed
oppression
oppressive
oprah
ops
opt
opted
optic
optical
optics
optimal
optimism
optimistic
optimization
option
optional
options
opus
or
ora
oracle
oral
orange
orator
oratory
orb
orbit
orbital
orbiting
orbits
orchard
orchards
orchestra
orchestral
orchestras
orchid
orchids
ord
ordained
ordbok
ordeal
order
ordered
ordering
orderly
orders
ordinance
ordinances
ordinarily
ordinary
ordination
ordnance
ordre
ore
oregon
oregonian
ores
orf
org
organ
organic
organisation
organisations
organise
organised
organising
organism
organisms
organist
organization
organizational
organizations
organize
organized
organizer
organizers
organizes
organizing
organs
ori
oricon
orient
oriental
orientation
oriented
origen
origin
original
originality
originally
originals
originate
originated
originates
originating
origins
orioles
orion
orissa
orkney
orlando
orle
orleans
ornament
ornamental
ornaments
ornate
ornithology
oro
orphan
orphanage
orphans
orr
orson
orsza
ortega
orthodox
orthodoxy
orthography
ortiz
orton
orwell
os
osaka
osborn
osborne
oscar
oscars
oskar
oslo
osman
osprey
ost
ostensibly
oswald
ot
ota
otago
other
others
otherwise
otis
ott
ottawa
otter
otto
ottoman
ottomans
ou
ouest
ought
ounces
oup
our
ours
ourselves
ousted
out
outbreak
outbreaks
outcome
outcomes
outdated
outdoor
outdoors
outer
outfielder
outfit
outgoing
outlaw
outlaws
outlet
outlets
outline
outlined
outlines
outlook
outlying
outpost
output
outputs
outrage
outraged
outrageous
outreach
outright
outs
outset
outside
outsider
outsiders
outskirts
outspoken
outstanding
outward
ouverte
ov
ova
oval
oven
over
overall
overboard
overcame
overcome
overcoming
overdose
overflow
overhaul
overhead
overland
overlap
overlapping
overline
overlook
overlooked
overlooking
overly
overnight
overruled
overrun
overs
oversaw
overseas
oversee
overseeing
overseen
oversees
oversight
overthrow
overthrown
overtime
overture
overturned
overview
overwhelmed
overwhelming
overwhelmingly
ovid
owe
owed
owen
owens
owes
owing
owl
owls
own
owned
owner
owners
ownership
owning
owns
ox
oxen
oxford
oxfordshire
oxidation
oxide
oxon
oxonienses
oxygen
oy
oyster
oz
ozone
p
pa
pablo
pac
pace
paced
pacheco
pacific
pack
package
packaged
packages
packaging
packard
packed
packer
packers
packet
packets
packing
packs
pact
pad
paddington
paddle
paddy
padilla
padma
padre
padres
pads
padua
pagan
page
pageant
pages
paget
pagoda
pai
paid
paige
pain
paine
painful
pains
paint
painted
painter
painters
painting
paintings
paints
pair
paired
pairing
pairs
paisley
pak
pakistan
pakistani
pal
pala
palace
palaces
palaearctic
palais
palatinate
palatine
palau
palazzo
pale
paleobiology
paleontology
palermo
palestine
palestinian
palestinians
palette
palgrave
pali
palladium
palm
palma
palmer
palmerston
palms
palo
pam
pamela
pamphlet
pamphlets
pan
panama
panchayat
pancreatic
panda
pandemic
pandit
pandora
panel
panels
pang
panic
panorama
pantheon
panther
panthers
pants
panzer
pao
paola
paolo
pap
papa
papacy
papal
paper
paperback
papers
papua
papyrus
par
para
parable
parachute
parade
parades
paradigm
paradise
paradox
paragraph
paragraphs
paraguay
paraguayan
parallel
parallels
paralympic
paralympics
paralysis
parameter
parameters
paramilitary
paramount
parana
paranormal
parasite
parasites
parasitic
parc
parcel
parcels
parchment
pardon
pardoned
parent
parental
parentheses
parenting
parents
paris
parish
parishes
parisian
parity
park
parker
parkes
parking
parkinson
parks
parkway
parliament
parliamentary
parliaments
parlor
parlour
parma
parnell
parochial
parody
parole
parque
parr
parramatta
parrish
parrot
parry
parson
parsons
part
partake
parte
parted
partement
parti
partial
partially
participant
participants
participate
participated
participates
participating
participation
participle
particle
particles
particular
particularly
particulars
partido
parties
parting
partisan
partisans
partition
partitive
partizan
partly
partner
partnered
partners
partnership
partnerships
partridge
parts
party
pas
pasadena
pascal
pasha
paso
pass
passage
passages
passed
passenger
passengers
passeriformes
passes
passing
passion
passionate
passions
passive
passover
passport
passports
password
past
pasta
paste
pastor
pastoral
pastry
pasture
pastures
pat
patch
patches
patel
patent
patented
patents
paternal
paterson
path
pathetic
pathogen
pathogens
pathological
pathology
paths
pathway
pathways
patience
patient
patients
patna
patriarch
patriarchal
patriarchate
patrice
patricia
patrick
patriot
patriotic
patriotism
patriots
patrol
patrols
patron
patronage
patrons
patsy
pattern
patterns
patterson
patti
patton
patty
pau
paul
paula
pauli
pauline
paulo
pauly
pausanias
pause
paused
paved
pavel
pavement
pavilion
paving
pavn
paw
pawn
pax
paxton
pay
payable
paying
payload
payment
payments
payne
pays
paz
pb
pba
pbs
pc
pcr
pcs
pd
pdc
pdf
pdp
pe
pea
peabody
peace
peaceful
peacefully
peacekeeping
peach
peacock
peak
peakbagger
peaked
peaking
peaks
peanut
pear
pearce
pearl
pearls
pearson
peas
peasant
peasants
peat
peck
peculiar
peculiarities
peculiarly
pedagogical
pedagogy
pedal
pedersen
pedestal
pedestrian
pedestrians
pediatric
pediatrics
pedigree
pedro
pee
peek
peel
peer
peerage
peers
peg
pegasus
peggy
pei
peking
pelham
pelican
pemberton
pembroke
pen
penal
penalties
penalty
penance
penang
pence
pencil
pendant
pending
pendleton
pendulum
penelope
penetrate
penetrated
penetrating
penetration
peng
penguin
penguins
peninsula
peninsular
penis
penitentiary
penn
pennant
penned
pennington
pennsylvania
penny
pens
pensacola
pension
pensions
penske
pentagon
penultimate
people
peoples
peoria
pep
pepe
pepper
peppers
peptide
per
perak
perceive
perceived
percent
percentage
perception
perceptions
perch
percival
percussion
percy
pereira
perennial
perez
perfect
perfected
perfection
perfective
perfectly
perform
performance
performances
performed
performer
performers
performing
performs
perfume
perhaps
peri
peril
perilous
perimeter
period
periodic
periodical
periodically
periodicals
periods
peripheral
periphery
perish
perished
perkins
perm
permanent
permanently
permian
permissible
permission
permit
permits
permitted
permitting
pero
perpendicular
perpetrators
perpetual
perrin
perry
pers
persecuted
persecution
perseus
perseverance
persia
persian
persians
persist
persisted
persistence
persistent
person
persona
personal
personalities
personality
personally
personnel
persons
perspective
perspectives
persuade
persuaded
persuasion
pertaining
perth
pertoire
peru
peruvian
pes
peshawar
pest
pet
petals
pete
peter
peterborough
peters
petersburg
petersen
peterson
petit
petite
petition
petitioned
petitioner
petitioners
petitions
petr
petra
petro
petrol
petroleum
pets
petty
peugeot
pevsner
pew
peyton
pez
pf
pfa
pfeiffer
pfs
pg
pga
ph
pha
phane
phantom
pharaoh
pharmaceutical
pharmaceuticals
pharmacology
pharmacy
phase
phased
phases
phd
phe
phelps
phenomena
phenomenon
phi
phil
philadelphia
philanthropic
philanthropist
philanthropy
philharmonic
philip
philipp
philippe
philippine
philippines
philips
phillies
phillip
phillips
philly
philology
philosopher
philosophers
philosophical
philosophy
phipps
pho
phoebe
phoenix
phofsit
phone
phones
phonetic
phonographic
phonology
phosphate
phosphorus
phosphorylation
photo
photograph
photographed
photographer
photographers
photographic
photographs
photography
photon
photos
php
phrase
phrases
phu
phyllis
phylogenetic
phylogeny
phylum
phys
physical
physically
physician
physicians
physicist
physicists
physics
physiological
physiology
pi
pia
pianist
piano
pianos
piazza
pic
picard
picasso
piccadilly
pick
picked
pickering
picking
picks
pickup
picnic
pico
pictorial
picture
pictured
pictures
picturesque
pie
piece
pieces
pied
piedmont
pier
pierce
pierced
piercing
piero
pierre
piers
pies
pieter
pietro
piety
pig
pigeon
pigeons
pigment
pigs
pike
pilar
pile
piled
piles
pilgrim
pilgrimage
pilgrims
pill
pillai
pillar
pillars
pillow
pills
pilot
pilots
pin
pinch
pine
pines
ping
pink
pinnacle
pinned
pins
pint
pinto
pinyim
pinyin
pio
pioneer
pioneered
pioneering
pioneers
piotr
pious
pip
pipe
pipeline
piper
pipes
piracy
pirate
pirates
pisa
pistol
pistols
piston
pistons
pit
pitch
pitched
pitcher
pitchers
pitches
pitchfork
pitching
pitkin
pits
pitt
pitts
pittsburgh
pity
piu
pius
pivot
pivotal
pixel
pixels
pizza
pj
pk
pl
pla
place
placebo
placed
placement
places
placing
plague
plagued
plain
plainly
plains
plaintiff
plaintiffs
plan
planck
plane
planes
planet
planetary
planets
plank
planned
planner
planners
planning
plans
plant
plantation
plantations
planted
planting
plants
plaque
plaques
plasma
plaster
plastic
plastics
plata
plate
plateau
plateforme
plates
platform
platforms
platinum
plato
platoon
platt
plausible
play
playable
playback
playbill
playboy
played
player
players
playful
playground
playhouse
playing
playlist
playoff
playoffs
plays
playstation
playwright
playwrights
plaza
plc
plea
plead
pleaded
pleading
pleads
pleas
pleasant
please
pleased
pleasing
pleasure
pleasures
pledge
pledged
pledges
pleistocene
plenary
plentiful
plenty
plight
pliny
plo
plos
ploso
plot
plots
plotting
plough
plug
plum
plumage
plume
plummer
plunder
plundered
plunge
plunged
pluperfect
plural
plurality
plus
plutarch
pluto
plymouth
pm
pmatrix
pmc
pmid
pn
pnas
pneumonia
png
po
poc
pocket
pockets
pod
podcast
podcasts
podium
poe
poem
poems
poet
poetic
poetical
poetry
poets
point
pointe
pointed
pointer
pointers
pointing
points
poised
poison
poisoned
poisoning
poisonous
poj
poke
poker
pol
poland
polar
polarization
pole
poles
poli
police
policeman
policemen
policies
policing
policy
polis
polish
polished
polite
political
politically
politician
politicians
politico
politics
politique
polity
polk
poll
pollard
polled
pollen
polling
pollock
polls
pollution
polly
polo
polska
polskiego
poly
polygon
polymer
polymerase
polymers
polynesia
polynesian
polynomial
polynomials
polytechnic
pomerania
pomeranian
pomona
pompey
ponce
pond
ponds
pone
pont
ponte
pontiac
pontifical
pony
pool
poole
pools
poor
poorer
poorest
poorly
pop
pope
popes
poplar
popmatters
poppy
pops
populace
popular
popularity
popularized
popularly
populated
population
populations
populist
populous
por
porcelain
porch
pore
pores
pork
porn
pornography
porsche
port
porta
portable
portage
portal
portals
porte
porter
portfolio
portico
portion
portions
portland
porto
portrait
portraits
portray
portrayal
portrayed
portraying
portrays
ports
portsmouth
portugal
portuguesa
portuguese
pos
pose
posed
poses
posing
position
positioned
positioning
positions
positive
positively
posse
possess
possessed
possesses
possessing
possession
possessions
possessive
possibilities
possibility
possible
possibly
post
postage
postal
postdoctoral
posted
poster
posterior
posterity
posters
postgraduate
posthumous
posthumously
posting
postmaster
postponed
posts
postscript
postseason
posture
postwar
pot
potassium
potato
potatoes
potent
potential
potentially
potomac
pots
potsdam
potter
pottery
potts
poultry
pound
pounder
pounds
pour
poured
pouring
poverty
pow
powder
powell
power
powered
powerful
powerhouse
powerless
powerplant
powers
poznan
pp
ppen
ppp
ppv
pr
pra
practicable
practical
practically
practice
practiced
practices
practicing
practise
practised
practising
practitioner
practitioners
pradesh
prado
praeger
prague
prairie
praise
praised
praises
praising
prakash
prakrit
prasad
pratt
pravda
pray
prayed
prayer
prayers
praying
prc
pre
preach
preached
preacher
preachers
preaching
precautions
preceded
precedence
precedent
preceding
precepts
precinct
precious
precipitation
precise
precisely
precision
precursor
predation
predator
predators
predatory
predecessor
predecessors
predicate
predict
predictable
predicted
predicting
prediction
predictions
predicts
predominant
predominantly
preface
prefect
prefectural
prefecture
prefer
preference
preferences
preferred
preferring
prefers
prefix
prefixed
pregnancy
pregnant
prehistoric
prehistory
prejudice
prejudices
prelate
preliminary
prelude
prem
premature
prematurely
premie
premier
premiere
premiered
premieres
premiers
premiership
premio
premios
premise
premises
premium
prentice
prep
preparation
preparations
preparatory
prepare
prepared
prepares
preparing
prepositional
prequel
prerogative
pres
presbyterian
preschool
prescott
prescribe
prescribed
prescription
preseason
presence
present
presentation
presentations
presented
presenter
presenters
presenting
presently
presents
preservation
preserve
preserved
preserves
preserving
presided
presidency
president
presidente
presidential
presidents
presiding
presley
press
presse
pressed
presses
pressing
pressure
pressured
pressures
prestige
prestigious
preston
presumably
presume
presumed
presumption
pretend
pretended
pretending
preterite
pretext
pretoria
pretty
prevail
prevailed
prevailing
prevails
prevalence
prevalent
prevent
prevented
preventing
prevention
preventive
prevents
preview
previews
previous
previously
prey
pri
price
priced
prices
pricing
pride
priest
priesthood
priestley
priestly
priests
prima
primaries
primarily
primary
primate
primates
prime
primer
primera
primetime
primitive
primo
prince
princely
princes
princess
princeton
principal
principality
principally
principals
principle
principles
pringle
prins
print
printed
printer
printers
printing
prints
prior
priorities
priority
priory
priscilla
prism
prison
prisoner
prisoners
prisons
pritchard
privacy
private
privateer
privately
privatization
privilege
privileged
privileges
privy
prix
priya
prize
prizes
pro
probability
probable
probably
probate
probation
probe
problem
problematic
problems
proc
procedural
procedure
procedures
proceed
proceeded
proceeding
proceedings
proceeds
process
processed
processes
processing
procession
processor
processors
proclaim
proclaimed
proclamation
proctor
procure
procured
procurement
procyclingstats
prod
prodigy
produce
produced
producer
producers
produces
producing
product
production
productions
productive
productivity
products
prof
professed
profession
professional
professionally
professionals
professions
professor
professors
professorship
proficiency
profile
profiles
profit
profitable
profits
profound
profoundly
program
programme
programmed
programmer
programmers
programmes
programming
programs
progress
progressed
progresses
progression
progressive
progressively
prohibit
prohibited
prohibiting
prohibition
prohibits
project
projected
projectile
projecting
projection
projections
projective
projects
proliferation
prolific
prologue
prolonged
promenade
prometheus
prominence
prominent
prominently
promise
promised
promises
promising
promo
promote
promoted
promoter
promoters
promotes
promoting
promotion
promotional
promotions
prompt
prompted
prompting
promptly
promulgated
prone
pronominal
pronoun
pronounce
pronounced
pronouns
pronunciation
proof
proofs
prop
propaganda
propagation
propelled
propeller
propellers
proper
properly
properties
property
prophecies
prophecy
prophet
prophetic
prophets
proponent
proponents
proportion
proportional
proportions
proposal
proposals
propose
proposed
proposes
proposing
proposition
propositions
proprietary
proprietor
proprietors
propriety
propulsion
proquest
pros
prose
prosecute
prosecuted
prosecuting
prosecution
prosecutions
prosecutor
prosecutors
prospect
prospective
prospects
prosper
prosperity
prosperous
prostate
prostitute
prostitutes
prostitution
protagonist
protagonists
protect
protected
protecting
protection
protections
protective
protector
protectorate
protects
protein
proteins
protest
protestant
protestantism
protestants
protested
protesters
protesting
protests
proto
protocol
protocols
proton
prototype
prototypes
protracted
proud
proudly
prove
proved
proven
provence
proverb
proverbs
proves
provide
provided
providence
provider
providers
provides
providing
province
provinces
provincia
provincial
proving
provision
provisional
provisions
proviso
provo
provoke
provoked
provost
prowess
proximity
proxy
pru
prudence
prudent
prussia
prussian
pryor
ps
psa
psalm
psalms
pseudo
pseudonym
psg
psi
psp
psv
psyche
psychedelic
psychiatric
psychiatrist
psychiatry
psychic
psycho
psychoanalysis
psychological
psychologist
psychologists
psychology
psychotherapy
pt
ptolemy
pts
pty
pu
pub
publ
public
publication
publications
publicity
publicly
publique
publiques
publish
published
publisher
publishers
publishes
publishing
pubmed
pubs
pucci
puck
pudding
puebla
pueblo
puerto
puff
puget
pugh
pulitzer
pull
pulled
pulling
pullman
pulls
pulmonary
pulp
pulpit
pulse
pulses
pump
pumped
pumping
pumpkin
pumps
pun
punch
punches
pune
punish
punishable
punished
punishment
punishments
punjab
punjabi
punk
punt
punta
pupil
pupils
puppet
puppets
puppy
purcell
purchase
purchased
purchaser
purchases
purchasing
purdue
pure
purely
purge
puri
purification
purified
puritan
purity
purple
purported
purpose
purposes
purse
pursuance
pursuant
pursue
pursued
pursuing
pursuit
pursuits
pus
push
pushed
pushes
pushing
put
putin
putnam
puts
putting
puzzle
puzzled
puzzles
pv
pvt
pwn
py
pyraloidea
pyramid
pyramids
pyre
python
pɐ
pɔ
q
qa
qaeda
qatar
qb
qc
qf
qi
qian
qin
qing
qld
qquad
qu
qua
quad
quadrangle
quadrant
quaint
quake
quaker
quakers
qualification
qualifications
qualified
qualifier
qualifiers
qualify
qualifying
qualitative
qualities
quality
quan
quantitative
quantities
quantity
quantum
quanzhou
quarantine
quarrel
quarries
quarry
quarter
quarterback
quarterfinal
quarterfinals
quarterly
quartermaster
quarters
quartet
quartz
quasi
quaternary
quay
que
quebec
quechua
queen
queens
queensland
queer
quentin
quercus
queries
query
quest
question
questionable
questioned
questioning
questions
queue
quezon
qui
quick
quicker
quickly
quickstats
quiet
quietly
quill
quincy
quinn
quintet
quit
quite
quito
quits
quixote
quiz
quo
quod
quorum
quota
quotation
quotations
quote
quoted
quotes
quoth
quotient
quoting
qur
quran
r
ra
raaf
rabbi
rabbis
rabbit
rabbits
rac
race
racecourse
raced
racehorse
racer
racers
races
raceway
rachael
rachel
racial
racine
racing
racism
racist
rack
rad
rada
radar
radcliffe
radford
radha
radial
radiant
radiation
radical
radically
radicals
radio
radioactive
radios
radius
rae
raf
rafael
raffles
raft
rag
rage
ragged
raging
rags
rahman
rahul
rai
raid
raided
raider
raiders
raiding
raids
rail
railroad
railroads
rails
railway
railways
rain
rainbow
rainer
rainfall
rainforest
rains
rainy
raion
raise
raised
raises
raising
raj
raja
rajasthan
raju
rake
ral
rale
raleigh
rallied
rallies
rally
ralph
ram
rama
raman
ramesh
rami
ramirez
ramo
ramon
ramos
ramp
rampage
rampant
ramps
rams
ramsay
ramsey
ran
rana
ranch
rancho
rand
randall
randolph
random
randomized
randomly
randy
rang
range
ranged
ranger
rangers
ranges
ranging
rangle
rani
rank
ranked
rankin
ranking
rankings
ranks
ransom
rant
rao
raoul
rap
rape
raped
raphael
rapid
rapidly
rapids
rapper
rappers
rappler
raptors
rard
rare
rarely
ras
rash
rashid
rasmussen
rat
rate
rated
rates
rather
ratification
ratified
rating
ratings
ratio
ration
rational
rationale
rations
ratios
raton
rats
rattle
rau
raul
rave
raven
ravenna
ravens
ravi
ravine
raw
ray
raya
rayment
raymond
rays
razor
rb
rbi
rbis
rc
rca
rczi
rd
rde
rdoba
re
rea
reach
reached
reaches
reaching
react
reacted
reaction
reactions
reactive
reactor
reactors
reacts
read
reader
readers
readily
readiness
reading
readings
reads
ready
reagan
real
realise
realised
realism
realistic
realities
reality
realization
realize
realized
realizes
realizing
really
realm
realms
reap
rear
reared
reason
reasonable
reasonably
reasoned
reasoning
reasons
reassigned
rebecca
rebel
rebelled
rebellion
rebellious
rebels
rebirth
reboot
reborn
rebound
rebounds
rebranded
rebuild
rebuilding
rebuilt
rec
recall
recalled
recalling
recalls
recap
recapture
recaptured
receipt
receipts
receive
received
receiver
receivers
receives
receiving
recent
recently
reception
receptions
receptor
receptors
recess
recession
recipe
recipes
recipient
recipients
reciprocal
recital
recited
reckless
reckon
reckoned
reckoning
reclaim
reclaimed
reclamation
recognise
recognised
recognition
recognizable
recognize
recognized
recognizes
recognizing
recollection
recollections
recommend
recommendation
recommendations
recommended
recommends
reconcile
reconciled
reconciliation
reconnaissance
reconstructed
reconstruction
record
recorded
recorder
recording
recordings
records
recount
recounted
recounts
recourse
recover
recovered
recoveries
recovering
recovery
recreation
recreational
recruit
recruited
recruiting
recruitment
recruits
rectangle
rectangular
rector
rectory
recurrence
recurrent
recurring
recycled
recycling
red
reddish
reddy
redeem
redeemed
redeemer
redemption
redesign
redesignated
redesigned
redevelopment
rediff
rediscovered
redistribution
redistricting
redmond
redress
reds
redskins
reduce
reduced
reduces
reducing
reduction
reductions
redundant
redwood
reed
reeds
reef
reefs
reel
reelected
reelection
rees
reese
reeve
reeves
ref
refer
referee
referees
reference
referenced
references
referencing
referendum
referred
referring
refers
refined
refinement
refinery
refining
reflect
reflected
reflecting
reflection
reflections
reflective
reflects
reflex
reflexive
reform
reformation
reformed
reformer
reformers
reforming
reforms
refrain
refreshing
refueling
refuge
refugee
refugees
refurbished
refurbishment
refusal
refuse
refused
refuses
refusing
reg
regain
regained
regal
regan
regard
regarded
regarding
regardless
regards
regatta
regency
regeneration
regent
regents
reggae
reggie
regime
regiment
regimental
regiments
regimes
regina
reginald
regio
region
regional
regions
regis
register
registered
registering
registers
registrar
registration
registry
regression
regret
regrets
regretted
regular
regularly
regulars
regulate
regulated
regulates
regulating
regulation
regulations
regulator
regulators
regulatory
rehabilitation
rehearsal
rehearsals
rei
reich
reid
reign
reigned
reigning
reigns
reilly
reims
rein
reina
reindeer
reinforce
reinforced
reinforcement
reinforcements
reinhard
reinhold
reins
reinstated
reis
reissue
reissued
reiterated
reject
rejected
rejecting
rejection
rejects
rejoice
rejoin
rejoined
rel
relate
related
relates
relating
relation
relational
relations
relationship
relationships
relative
relatively
relatives
relativity
relaunched
relax
relaxation
relaxed
relay
release
released
releases
releasing
relegated
relegation
relentless
relevance
relevant
reliability
reliable
reliance
relic
relics
relied
relief
reliefs
relies
relieve
relieved
religion
religions
religious
relinquished
relocate
relocated
relocation
reluctance
reluctant
reluctantly
rely
relying
rem
remain
remainder
remained
remaining
remains
remake
remanded
remark
remarkable
remarkably
remarked
remarks
remarried
remastered
rematch
rembrandt
remedies
remedy
remember
remembered
remembering
remembers
remembrance
remind
reminded
reminder
reminds
remington
reminiscences
reminiscent
remix
remixed
remixes
remnant
remnants
remorse
remos
remote
remotely
removal
remove
removed
removes
removing
ren
renaissance
renal
renamed
renaming
renato
renault
render
rendered
rendering
renders
rendezvous
rendition
rene
renee
renew
renewable
renewal
renewed
rennes
reno
renounce
renounced
renovated
renovation
renovations
renown
renowned
rent
rental
rented
rents
reopen
reopened
reopening
reorganisation
reorganization
reorganized
rep
repair
repaired
repairing
repairs
repay
repeal
repealed
repeat
repeated
repeatedly
repeating
repeats
repent
repentance
repertoire
repertory
repetition
repetitive
replace
replaced
replacement
replacements
replaces
replacing
replay
replica
replication
replied
replies
reply
report
reported
reportedly
reporter
reporters
reporting
reports
repose
repository
represent
representation
representations
representative
representatives
represented
representing
represents
repression
reprint
reprinted
reprise
reprised
reproach
reproduce
reproduced
reproduction
reproductive
reptile
reptiles
repu
repubblica
republic
republican
republicans
republics
republika
republished
repulsed
reputation
reputed
request
requested
requesting
requests
requiem
require
required
requirement
requirements
requires
requiring
requisite
rer
res
rescheduled
rescue
rescued
rescues
rescuing
research
researched
researcher
researchers
researches
researching
resemblance
resemble
resembled
resembles
resembling
resentment
reservation
reservations
reserve
reserved
reserves
reservoir
reservoirs
reset
reside
resided
residence
residences
residency
resident
residential
residents
resides
residing
residual
residue
residues
resign
resignation
resigned
resigning
resigns
resilience
resin
resist
resistance
resistant
resisted
resisting
resistor
resolute
resolution
resolutions
resolve
resolved
resolving
resonance
resort
resorted
resorts
resource
resources
respect
respectable
respected
respectful
respecting
respective
respectively
respects
respelling
respiratory
respond
responded
respondent
respondents
responding
responds
response
responses
responsibilities
responsibility
responsible
responsive
rest
restart
restaurant
restaurants
rested
resting
restitution
restless
restoration
restore
restored
restoring
restrain
restrained
restraining
restraint
restrict
restricted
restricting
restriction
restrictions
restrictive
restructuring
rests
result
resultant
resulted
resulting
results
resume
resumed
resurgence
resurrected
resurrection
ret
retail
retailer
retailers
retain
retained
retaining
retains
retaliation
retention
rethinking
retina
retire
retired
retirement
retires
retiring
retreat
retreated
retreating
retribution
retrieval
retrieve
retrieved
retro
retrosheet
retrospective
return
returned
returning
returns
reuben
reunification
reunion
reunite
reunited
reuse
reused
reuters
rev
reveal
revealed
revealing
reveals
revelation
revelations
revenge
revenue
revenues
revered
reverence
reverend
reversal
reverse
reversed
reversing
reverted
review
reviewed
reviewer
reviewers
reviewing
reviews
revise
revised
revision
revisions
revisited
revista
revival
revive
revived
reviving
revoked
revolt
revolution
revolutionaries
revolutionary
revolutions
revolver
revolves
revolving
revue
reward
rewarded
rewards
rex
rey
reyes
reynolds
rez
reza
rf
rfc
rfdef
rg
rgen
rh
rhapsody
rhein
rhetoric
rhetorical
rhine
rhineland
rhino
rho
rhode
rhodes
rhodesia
rhs
rhyme
rhymes
rhys
rhythm
rhythmic
rhythms
ri
ria
riaa
rib
ribbon
ribbons
ribeiro
ribs
ric
rica
rican
ricardo
ricci
rice
rich
richard
richards
richardson
richer
riches
richest
richie
richly
richmond
richness
richter
rick
ricky
rico
rid
rida
ridden
riddle
ride
rider
riders
ridership
rides
ridge
ridges
ridicule
ridiculous
riding
ridley
rie
riff
rifle
rifles
rift
rig
riga
rigged
rigging
riggs
right
rightarrow
righteous
righteousness
rightful
rightly
rights
rigid
rigorous
rihanna
riley
rim
rime
rin
ring
ringing
ringo
rings
rink
rio
rios
riot
riots
rip
ripe
ripley
ris
rise
risen
rises
rising
risk
risks
risky
rit
rita
ritchie
rite
rites
ritter
ritual
rituals
rius
rival
rivalry
rivals
river
rivera
rivers
riverside
rivie
riviera
rizal
rj
rk
rko
rl
rlts
rm
rms
rn
rna
rnberg
ro
roach
road
roads
roadside
roadway
roanoke
roar
roaring
roast
roasted
rob
robb
robbed
robber
robbers
robbery
robbie
robbins
robe
robert
roberta
roberto
roberts
robertson
robes
robin
robins
robinson
robot
robotic
robotics
robots
robson
robust
robyn
roc
rocco
rocha
rochdale
roche
rochelle
rochester
rock
rockefeller
rocker
rocket
rockets
rockies
rocking
rocks
rockwell
rocky
rod
rode
rodents
rodeo
roderick
rodgers
rodney
rodolfo
rodri
rodrigo
rodrigues
rodriguez
rods
roe
roger
rogers
rogue
roh
rohan
roi
rojas
rok
roland
role
roles
rolf
roll
rolled
roller
rolling
rollins
rolls
rom
roma
roman
romance
romances
romanesque
romani
romania
romanian
romanization
romanized
romano
romans
romantic
romatzyh
rome
romeo
romero
romney
ron
ronald
ronnie
roof
roofed
roofs
rook
rookie
room
rooms
rooney
roosevelt
rooster
root
rooted
roots
rope
roper
ropes
rory
ros
rosa
rosalind
rosario
roscoe
rose
rosemary
rosen
rosenberg
rosenthal
roses
rosie
ross
rossi
roster
rostov
rosy
rot
rotary
rotate
rotated
rotating
rotation
rotational
roth
rotherham
rothschild
rotor
rotten
rotterdam
rouen
rouge
rough
roughly
round
roundabout
rounded
rounds
roundup
rourke
rouse
roused
rousseau
rout
route
routed
routes
routine
routinely
routines
routing
routledge
roux
rovat
rover
rovers
rovi
row
rowan
rowe
rower
rowing
rowland
rowley
rowman
rows
roxy
roy
royal
royale
royalist
royals
royalties
royalty
royce
rp
rpg
rpm
rr
rrez
rs
rsa
rsssf
rt
rte
rtelmezo
rterbuch
rtl
rts
rttemberg
ru
rua
rub
rubbed
rubber
rubbing
rubbish
rubble
rube
ruben
rubens
rubin
rubio
ruby
ruc
rudd
rudder
rude
rudolf
rudolph
rudy
rue
rufus
rugby
rugbyleagueproject
rugged
rui
ruin
ruined
ruins
ruiz
rule
ruled
ruler
rulers
rules
ruling
rulings
rum
rumble
rumor
rumors
rumours
run
runaway
rung
runner
runners
running
runoff
runs
runway
runways
rupees
rupert
rupture
rural
rus
rush
rushed
rushes
rushing
russ
russell
russia
russian
russians
russo
rust
rustic
rusty
rutgers
ruth
rutherford
ruthless
rutland
rv
rw
rwanda
rx
ry
ryan
ryder
rye
ryo
ryu
rz
rzburg
s
sa
saab
saba
sabah
sabbath
saber
sabha
sabine
sable
sabotage
sabre
sabres
sabrina
sac
sachs
sack
sacked
sacks
sacrament
sacramento
sacraments
sacred
sacrifice
sacrificed
sacrifices
sad
saddam
saddle
sadie
sadler
sadly
sadness
sae
saeed
safari
safe
safeguard
safely
safer
safety
saffron
sag
saga
sage
sahara
saharan
sahib
sahitya
sai
said
saigon
sail
sailed
sailing
sailor
sailors
sails
saint
sainte
saints
saith
saito
sake
sakura
sal
sala
salaam
salad
salamanca
salamander
salaries
salary
salazar
sale
saleh
salem
sales
salesman
salford
salient
salim
salinas
saline
salisbury
salle
sally
salman
salmon
salomon
salon
saloon
salsa
salt
salts
salute
salvador
salvage
salvation
salvatore
salzburg
sam
sama
samantha
samba
same
sami
sammy
samoa
samoan
sample
sampled
samples
sampling
sampson
samson
samsung
samuel
samurai
san
sana
sanchez
sancho
sanction
sanctioned
sanctions
sanctuary
sand
sanders
sanderson
sandoval
sandra
sands
sandstone
sandwich
sandwiches
sandy
sane
sanford
sang
sanger
sanitary
sanitation
sanjay
sank
sans
sanseido
sanskrit
sant
santa
santana
santander
santiago
santo
santos
sao
sap
sapphire
sar
sara
sarah
sarajevo
sarasota
saratoga
sarawak
sardinia
sargent
sari
sarkar
sars
sas
sash
sasha
saskatchewan
saskatoon
sat
satan
satellite
satellites
satin
satire
satirical
satisfaction
satisfactory
satisfied
satisfies
satisfy
satisfying
sato
saturated
saturday
saturdays
saturn
sau
sauce
saudi
saul
saunders
sausage
sava
savage
savages
savannah
save
saved
savela
saves
saving
savings
savior
saviour
savoy
saw
sawmill
sawyer
sax
saxe
saxon
saxons
saxony
saxophone
saxophonist
say
saying
sayings
says
sb
sbs
sc
scala
scalar
scale
scaled
scales
scaling
scam
scan
scandal
scandals
scandinavia
scandinavian
scanning
scar
scarborough
scarce
scarcely
scarcity
scare
scarecrow
scared
scarlet
scarlett
scars
scary
scatter
scattered
scattering
sce
scenario
scenarios
scene
scenery
scenes
scenic
scent
scha
schaff
schal
schedule
scheduled
schedules
scheduling
schema
scheme
schemes
schiller
schism
schizophrenia
schleswig
schloss
schmidt
schmitt
schneider
scho
schofield
scholar
scholarly
scholars
scholarship
scholarships
scholastic
school
schoolhouse
schooling
schoolmaster
schools
schooner
schro
schroeder
schu
schubert
schultz
schulz
schumacher
schumann
schuster
schuyler
schwartz
schwarz
schweiz
schweizer
sci
science
sciences
scientific
scientist
scientists
scientology
sclerosis
sco
scoble
scoop
scope
score
scorecard
scored
scoreless
scorer
scorers
scores
scoring
scorn
scorpion
scot
scotch
scotia
scotland
scots
scotsman
scott
scottish
scout
scouting
scouts
scranton
scrap
scrapped
scratch
scream
screaming
screams
screen
screened
screening
screenings
screenplay
screens
screenwriter
screw
scribe
scribner
scripps
script
scripted
scriptorium
scripts
scriptstyle
scripture
scriptures
scroll
scrolls
scrub
scrum
scrutiny
scuba
scully
sculpted
sculptor
sculptors
sculpture
sculptures
sd
se
sea
seafood
seahawks
seal
sealed
sealing
seals
seaman
seamen
sean
search
searchable
searched
searches
searching
sears
seas
seaside
season
seasonal
seasons
seat
seated
seater
seating
seats
seattle
sebastia
sebastian
sec
secession
second
secondary
secondly
seconds
secrecy
secret
secretariat
secretaries
secretary
secretion
secretly
secrets
sect
sectarian
section
sectional
sections
sector
sectors
sects
secular
secure
secured
secures
securing
securities
security
sed
sedan
sediment
sedimentary
sediments
see
seed
seeded
seeds
seeing
seek
seekers
seeking
seeks
seem
seemed
seeming
seemingly
seems
seen
sees
sega
segal
segment
segments
segona
segregated
segregation
segunda
sei
seidman
sein
seine
seismic
seize
seized
seizing
seizure
seizures
sek
sel
selangor
selby
seldom
select
selected
selecting
selection
selections
selective
selector
selects
selena
self
selfish
sell
seller
sellers
selling
sells
selma
selo
selsoviet
sem
semantic
semantics
semester
semi
semiconductor
semifinal
semifinals
seminal
seminar
seminars
seminary
seminole
semitic
semitism
sen
sena
senate
senator
senatorial
senators
send
sending
sends
seneca
senegal
senior
seniors
sensation
sensational
sensations
sense
senses
sensibility
sensible
sensing
sensitive
sensitivity
sensor
sensors
sensory
sent
sentai
sentence
sentenced
sentences
sentencing
sentiment
sentimental
sentiments
sentinel
seo
seok
seoul
sep
sepals
separate
separated
separately
separates
separating
separation
separatist
sept
september
seq
sequel
sequels
sequence
sequences
sequencing
sequential
ser
sera
serb
serbia
serbian
serbo
serbs
serena
serene
serge
sergeant
sergei
sergey
sergio
serial
serialized
serials
serie
series
serious
seriously
sermon
sermons
serpent
serra
serrano
serum
servant
servants
serve
served
server
servers
serves
service
serviced
servicemen
services
serving
servitude
ses
sesame
sess
session
sessions
set
seth
setlist
seton
sets
setting
settings
settle
settled
settlement
settlements
settler
settlers
settles
settling
setup
seung
seven
sevens
seventeen
seventeenth
seventh
seventies
seventy
several
severe
severed
severely
severity
severn
sevilla
seville
sewage
seward
sewell
sewer
sewing
sex
sexes
sexton
sexual
sexuality
sexually
sexy
seychelles
seymour
sf
sfn
sg
sgt
sh
sha
shack
shade
shaded
shades
shadow
shadows
shady
shaft
shafts
shaggy
shah
shahid
shake
shaken
shakes
shakespeare
shaking
shale
shall
shallow
shalt
sham
shame
shamrock
shan
shandong
shane
shang
shanghai
shanghainese
shankar
shannon
shape
shaped
shapes
shaping
shapiro
share
shared
shareholder
shareholders
shares
sharif
sharing
shark
sharks
sharma
sharon
sharp
sharpe
sharply
shattered
shaun
shaw
shawn
she
shea
shear
shed
sheds
sheehan
sheen
sheep
sheer
sheet
sheets
sheffield
sheikh
sheila
shelby
sheldon
shelf
shell
shelley
shells
shelter
sheltered
shelters
shelton
shelves
shen
sheng
shenzhen
shepard
shepherd
shepherds
sheppard
sherdog
sheridan
sheriff
sherlock
sherman
sherry
sherwood
shetland
shew
shi
shia
shield
shields
shift
shifted
shifting
shifts
shih
shilling
shillings
shimbun
shin
shine
shines
shining
shinto
shiny
ship
shipbuilding
shipment
shipments
shipped
shipping
ships
shipwreck
shipwrecks
shipyard
shire
shirley
shirt
shirts
shit
shiva
sho
shock
shocked
shocking
shocks
shoe
shoemaker
shoes
shogakukan
shone
shook
shoot
shooter
shooters
shooting
shootings
shootout
shoots
shop
shopping
shops
shore
shoreline
shores
short
shortage
shortages
shortened
shorter
shortest
shortlist
shortlisted
shortly
shorts
shortstop
shot
shotgun
shots
should
shoulder
shoulders
shouldn
shout
shouted
shouting
shouts
show
showbuzz
showbuzzdaily
showcase
showcased
showcases
showdown
showed
shower
showers
showing
shown
shows
showtime
shreveport
shrew
shrewsbury
shri
shrimp
shrine
shrines
shrink
shrinking
shropshire
shrub
shrubs
shu
shueisha
shuffle
shui
shun
shut
shutdown
shutting
shuttle
shy
si
sia
siam
siamese
siberia
siberian
sibling
siblings
sic
sica
sich
sichuan
sicilian
sicily
sick
sickle
sickness
sid
side
sided
sides
sidewalk
sideways
siding
sidney
sie
siege
siegel
siegfried
siemens
siena
sierra
sify
sig
sigh
sighed
sight
sighted
sights
sigismund
siglo
sigma
sign
signal
signaling
signalling
signals
signature
signatures
signed
significance
significant
significantly
signified
signifies
signify
signing
signings
signs
sik
sikh
sikhs
sikkim
sil
silas
silence
silent
silently
silesia
silesian
silica
silicon
silk
silly
silva
silver
silverman
silvia
silvio
sim
sima
simeon
similar
similarities
similarity
similarly
simmons
simms
simo
simon
simone
simons
simonsen
simp
simple
simpler
simplest
simplicity
simplified
simply
simpson
simpsons
sims
simulated
simulation
simulations
simulator
simulcast
simultaneous
simultaneously
sin
sina
sinai
sinatra
since
sincere
sincerely
sincerity
sinclair
sind
sindh
sine
sinful
sing
singapore
singaporean
singer
singers
singh
singing
single
singled
singles
singleton
sings
singular
sinha
sinhala
sinhalese
sinister
sink
sinking
sinks
sinn
sinner
sinners
sino
sinological
sins
sint
sio
sion
sioux
sir
sire
siren
sirius
sis
sistema
sister
sisters
sit
sita
sitcom
site
sites
sits
sitting
situ
situated
situation
situations
siu
siva
six
sixian
sixteen
sixteenth
sixth
sixties
sixty
size
sized
sizes
sj
sja
sjo
sk
ska
skate
skater
skaters
skating
skeletal
skeleton
skeletons
skeptical
sketch
sketches
ski
skier
skies
skiing
skilful
skill
skilled
skills
skin
skinned
skinner
skinny
skins
skip
skipper
skirmish
skirt
skirts
sko
skopje
skull
skulls
sky
skye
skyline
skyscraper
sl
sla
slab
slack
slade
slain
slalom
slam
slams
slang
slant
slap
slash
slate
slated
slater
slaughter
slaughtered
slave
slavery
slaves
slavic
slavonic
slavs
slay
slayer
sleep
sleeper
sleeping
sleeps
sleepy
sleeve
sleeves
slender
slept
slew
sli
slice
slices
slick
slide
slides
sliding
slight
slightest
slightly
sligo
slim
slip
slipped
slippery
slipping
slips
slit
sloan
sloane
slogan
sloop
slope
slopes
sloping
slot
slots
slough
slovak
slovakia
slovene
slovenia
slovenian
slovni
slovnik
slow
slowed
slower
slowly
slug
sly
sm
sma
smackdown
small
smaller
smallest
smallpox
smart
smartphone
smash
smashed
smashing
smell
smile
smiled
smiles
smiley
smiling
smith
smithsonian
smoke
smoked
smoking
smoky
smooth
smoothly
sms
smuggling
smyth
sn
snack
snail
snails
snake
snakes
snap
snapped
snare
snatch
sneak
sniper
snooker
snoop
snout
snow
snowfall
snowy
snp
snyder
so
soaked
soap
soares
soaring
sober
sobre
soc
soccer
soccerbase
soccerway
sochi
social
socialism
socialist
socialists
socially
socie
sociedad
societal
societies
society
socio
socioeconomic
sociological
sociologist
sociology
socket
socks
socrates
soda
sodium
sofa
sofia
soft
softball
softer
softly
software
soho
soil
soils
sol
solar
sold
soldier
soldiers
sole
solely
solemn
solemnly
solicitor
solid
solidarity
solids
solitary
solitude
solo
soloist
solomon
solos
soluble
solution
solutions
solve
solved
solvent
solving
som
soma
somali
somalia
somaliland
some
somebody
somehow
someone
somerset
somerville
something
sometime
sometimes
somewhat
somewhere
somme
son
sonata
song
songs
songwriter
songwriters
songwriting
sonia
sonic
sonnet
sonnets
sonny
sonoma
sonora
sons
sony
soo
soon
sooner
sophia
sophie
sophisticated
sophomore
soprano
sor
sorbonne
sorcerer
sore
sorrow
sorrows
sorry
sort
sorted
sorting
sorts
sos
soto
sou
sought
soul
souls
sound
sounded
sounders
sounding
sounds
soundtrack
soundtracks
soup
sour
source
sourced
sources
sous
sousa
south
southampton
southbound
southeast
southeastern
southend
southern
southernmost
southland
southport
southward
southwark
southwest
southwestern
souvenir
souza
sovereign
sovereignty
soviet
soviets
sow
sox
soy
soyuz
sp
spa
space
spacecraft
spaced
spaceflight
spaces
spacex
spacing
spacious
spade
spain
spake
spalding
span
spaniards
spanish
spanned
spanning
spans
spare
spared
spark
sparked
sparkling
sparks
sparrow
sparse
sparsely
sparta
spartak
spartan
spartans
spatial
spawn
spawned
spd
spe
speak
speaker
speakers
speaking
speaks
spear
spears
spec
special
specialised
specialising
specialist
specialists
specialization
specialized
specializes
specializing
specially
specials
specialty
species
specific
specifically
specification
specifications
specificity
specified
specifies
specify
specimen
specimens
spectacle
spectacles
spectacular
spectator
spectators
spectra
spectral
spectrometry
spectroscopy
spectrum
speculated
speculation
speculations
speculative
speech
speeches
speed
speedily
speeds
speedway
speedy
spell
spelled
spelling
spells
spence
spencer
spend
spending
spends
spent
sperm
sphere
spheres
spherical
spice
spices
spider
spiders
spiegel
spielberg
spies
spike
spikes
spill
spin
spinal
spindle
spine
spines
spinning
spinoff
spiral
spire
spirit
spirited
spirits
spiritual
spirituality
spisovne
spit
spite
spitfire
splash
splendid
splendor
splendour
split
splits
splitting
spoil
spoiled
spoils
spokane
spoke
spoken
spokesman
spokesperson
sponge
spongebob
sponsor
sponsored
sponsors
sponsorship
spontaneous
spontaneously
spoon
sporadic
spores
sport
sporting
sports
sportsman
sportsnet
spot
spotify
spotlight
spots
spotted
spouse
spp
sprache
sprague
sprang
spray
spread
spreading
spreads
spree
spring
springer
springfield
springs
springsteen
sprint
sprinter
spruce
sprung
spun
spur
spurred
spurs
spy
sq
sql
sqrt
squad
squadron
squadrons
squads
square
squared
squares
squash
squeeze
squid
squire
squirrel
sr
src
sri
ss
ssc
sse
sseldorf
ssr
st
sta
stab
stabbed
stability
stabilization
stable
stables
stacey
stack
stacy
stade
stadion
stadium
stadiums
stadt
staff
staffed
stafford
staffordshire
stag
stage
stagecoach
staged
stages
staggered
staging
stain
stained
stainless
stair
staircase
stairs
stake
stakeholders
stakes
stalin
stalk
stall
stalled
stallion
stalls
stamford
stamp
stamped
stampede
stamps
stan
stance
stand
standalone
standard
standardization
standardized
standards
standing
standings
standout
standpoint
stands
stanford
stanhope
stanisław
stanley
stanton
stanza
staple
staples
stapleton
star
starboard
starch
stardom
stare
stared
staring
stark
starr
starred
starring
stars
start
started
starter
starting
startled
startling
starts
startup
starvation
starving
stat
state
stated
statehood
stately
statement
statements
staten
states
statesman
statesmen
statewide
static
stating
station
stationary
stationed
stationery
stations
statistical
statistics
statistik
stats
statscrew
statue
statues
stature
status
statute
statutes
statutory
staunch
stay
stayed
staying
stays
std
ste
stead
steadily
steady
steak
steal
stealing
steals
stealth
steam
steamboat
steamed
steamer
steamers
steamship
steel
steele
steelers
steep
steer
steering
stefan
stefano
steffen
stein
steinberg
steiner
stella
stellar
stem
stems
step
stephan
stephanie
stephen
stephens
stephenson
steppe
stepped
stepping
steps
ster
stereo
stereogum
stereotypes
sterling
stern
steve
steven
stevenage
stevens
stevenson
stevie
stew
steward
stewardship
stewart
sti
stica
stick
sticking
sticks
sticky
stico
stiff
stigma
still
stills
stimulate
stimulated
stimulating
stimulation
stimuli
stimulus
sting
stint
stipulated
stipulation
stir
stirling
stirred
stirring
stitch
sto
stochastic
stock
stockholders
stockholm
stockings
stockport
stocks
stockton
stoke
stokes
stole
stolen
stomach
stone
stones
stonewall
stony
stood
stool
stop
stopped
stopping
stops
storage
store
stored
stores
storey
storia
stories
storing
storm
stormed
storms
stormy
story
storyline
storylines
storytelling
stoughton
stout
stove
str
stra
strabo
straight
straightforward
strain
strained
strains
strait
straits
strand
stranded
strands
strange
strangely
stranger
strangers
strap
strasbourg
strata
strategic
strategies
strategy
stratford
stratigraphic
stratton
straus
strauss
straw
strawberry
stray
streak
stream
streamed
streaming
streams
street
streetcar
streets
strength
strengthen
strengthened
strengthening
strengths
stress
stressed
stresses
stretch
stretched
stretches
stretching
stricken
strickland
strict
strictly
stride
strife
strike
strikeouts
striker
strikers
strikes
striking
string
strings
strip
stripe
striped
stripes
stripped
strips
strive
striving
stro
stroke
strokes
strong
stronger
strongest
stronghold
strongly
stroud
strove
struck
structural
structure
structured
structures
struggle
struggled
struggles
struggling
sts
stu
stuart
stub
stubborn
stubbs
stuck
stud
student
students
studied
studies
studio
studios
study
studying
stuff
stuffed
stump
stunned
stunning
stunt
stupid
sturdy
sturgeon
stuttgart
style
styled
styles
styling
stylistic
stylized
su
sua
sub
subclass
subcommittee
subcontinent
subdistrict
subdivided
subdivision
subdivisions
subdued
subfamily
subgenus
subgroup
subject
subjected
subjective
subjects
subjunctive
sublime
submarine
submarines
submerged
submission
submissions
submit
submitted
submitting
subordinate
subparagraph
subscribe
subscribed
subscribers
subscription
subscriptions
subsection
subsequent
subsequently
subset
subsidiaries
subsidiary
subsidies
subsidy
subsistence
subsp
subspecies
substance
substances
substantial
substantially
substantive
substitute
substituted
substitutes
substituting
substitution
substrate
substrates
subterranean
subtitle
subtle
subtropical
subunit
suburb
suburban
suburbs
subway
succeed
succeeded
succeeding
succeeds
success
successes
successful
successfully
succession
successive
successively
successor
successors
such
suck
sud
sudan
sudanese
sudbury
sudden
suddenly
sue
sued
sues
suez
suffer
suffered
suffering
sufferings
suffers
suffice
sufficient
sufficiently
suffix
suffixes
suffolk
suffrage
sufi
sugar
suggest
suggested
suggesting
suggestion
suggestions
suggestive
suggests
sui
suicide
suisse
suit
suitable
suite
suited
suites
suits
suk
sul
sulawesi
sulfate
sulfur
sullivan
sulphur
sultan
sultanate
sum
sumatra
summa
summarized
summary
summed
summer
summers
summit
summits
summon
summoned
summons
sumner
sumo
sums
sun
sundance
sunday
sundays
sunderland
sung
sunil
sunk
sunken
sunlight
sunni
sunny
sunrise
suns
sunset
sunshine
suny
suo
suomen
sup
supe
super
superb
superfamily
superficial
superfluous
superhero
superintendent
superior
superiority
superiors
superlative
superliga
superman
supermarket
supermarkets
supernatural
superseded
superstar
superstition
supervised
supervising
supervision
supervisor
supervisors
supervisory
supine
supp
supper
suppl
supplement
supplemental
supplementary
supplemented
supplements
supplied
supplier
suppliers
supplies
supply
supplying
support
supported
supporter
supporters
supporting
supportive
supports
suppose
supposed
supposedly
supposing
supposition
suppress
suppressed
suppression
supra
supremacy
supreme
sur
sure
surely
suresh
surf
surface
surfaced
surfaces
surfing
surge
surgeon
surgeons
surgery
surgical
suriname
surmounted
surname
surnames
surpassed
surpassing
surplus
surprise
surprised
surprises
surprising
surprisingly
surrender
surrendered
surrey
surround
surrounded
surrounding
surroundings
surrounds
suru
surveillance
survey
surveyed
surveying
surveyor
surveys
survival
survive
survived
survives
surviving
survivor
survivors
sus
susan
susanna
susanne
susceptibility
susceptible
susie
suspect
suspected
suspects
suspend
suspended
suspense
suspension
suspicion
suspicions
suspicious
susquehanna
sussex
sustain
sustainability
sustainable
sustained
sustaining
sutherland
sutton
suzanne
suzuki
sv
sven
svensk
svenska
sveriges
sverigetopplistan
sw
swain
swallow
swallowed
swam
swami
swamp
swamps
swan
swann
swans
swansea
swanson
swap
swarm
sway
swear
swearing
sweat
sweden
swedes
swedish
sweeney
sweep
sweeping
sweeps
sweet
sweetheart
sweetness
sweets
swell
swelling
swept
swift
swiftly
swim
swimmer
swimmers
swimming
swindon
swine
swing
swinging
swings
swiss
switch
switched
switches
switching
switzerland
swollen
sword
swords
swore
sworn
swung
sy
sydney
syed
sykes
syllabification
syllable
syllables
syllabus
sylvester
sylvia
symbol
symbolic
symbolism
symbols
symmetric
symmetrical
symmetry
sympathetic
sympathies
sympathy
symphonic
symphonies
symphony
symposium
symptom
symptoms
syn
synagogue
sync
synchronized
syndicate
syndicated
syndrome
synod
synonym
synonymous
synonyms
synopsis
syntax
synth
synthesis
synthesized
synthesizer
synthesizers
synthetic
syracuse
syria
syriac
syrian
syrup
system
systematic
systematically
systematics
systemic
systems
sz
sza
sze
szlo
szo
słownik
sɐ
sɔ
sə
sɛ
sɨ
t
ta
tab
tabernacle
table
tables
tablet
tablets
tabloid
taboo
tac
tacitus
tackle
tackles
tacoma
tactic
tactical
tactics
tae
taekwondo
taft
tag
tagalog
tagore
tags
tahiti
tai
tail
tailed
tailor
tails
taipei
tait
taiwan
taiwanese
taj
tajik
tajikistan
tak
takahashi
takashi
take
taken
takeoff
takeover
takes
taking
tal
talbot
tale
talent
talented
talents
tales
taliban
talk
talked
talking
talks
tall
tallahassee
taller
tallest
tallinn
tally
talmud
taluk
tam
tama
tamar
tamara
tame
tamil
tammy
tampa
tan
tanaka
tandem
tang
tangent
tangible
tangled
tango
tank
tanker
tanks
tanner
tanya
tanzania
tao
tap
tape
tapes
tapestry
tapped
tapping
taps
tar
tara
targ
target
targeted
targeting
targets
tariff
tariffs
taro
tarzan
tas
tashkent
task
tasked
tasks
tasmania
tasmanian
taste
tastes
tat
tata
tatar
tate
tatiana
tattoo
tau
taught
taunton
tauris
taurus
tavern
tax
taxa
taxable
taxation
taxdetails
taxed
taxes
taxi
taxis
taxon
taxonomic
taxonomy
taxpayer
taxpayers
tay
taylor
tb
tbilisi
tbol
tbs
tc
tchaikovsky
tcm
tcp
td
te
tea
teach
teacher
teachers
teaches
teaching
teachings
team
teamed
teammate
teammates
teams
tear
tearing
tears
teaser
teatro
teau
tech
techcrunch
technical
technically
technician
technicians
technique
techniques
techno
technological
technologies
technology
tectonic
ted
teddy
tedious
tee
teen
teenage
teenager
teenagers
teens
teeth
tehran
tehsil
tek
tel
telangana
tele
telecom
telecommunication
telecommunications
telegram
telegraph
telenovela
telephone
telescope
telescopes
televised
television
telford
tell
teller
telling
tells
telstra
telugu
tem
temp
temper
temperament
temperance
temperate
temperature
temperatures
tempered
tempest
template
templates
temple
temples
tempo
temporal
temporarily
temporary
temps
temptation
temptations
tempted
ten
tenant
tenants
tend
tended
tendencies
tendency
tender
tenderness
tending
tends
tenerife
tennessee
tennis
tennyson
tenor
tens
tense
tension
tensions
tensor
tent
tentative
tenth
tents
tenure
teo
teochew
ter
tercera
terence
teresa
term
termed
terminal
terminals
terminate
terminated
terminates
terminating
termination
terminology
terminus
terms
terra
terrace
terraces
terrain
terre
terrestrial
terrible
terribly
terrific
terrified
territorial
territories
territory
terror
terrorism
terrorist
terrorists
terry
tertiary
teryt
tes
tesla
tesouro
tess
test
testament
tested
testified
testify
testimony
testing
testosterone
tests
teutonic
tex
texans
texas
text
textbook
textbooks
textile
textiles
texts
textstyle
textual
texture
tf
tfrac
tg
th
tha
thai
thailand
tham
thames
than
thank
thanked
thankful
thanks
thanksgiving
that
thatcher
thayer
the
theater
theaters
theatre
theatres
theatrical
thebes
thee
theft
theguardian
their
theirs
them
thematic
theme
themed
themes
themselves
then
thence
theo
theodor
theodore
theologian
theologians
theological
theology
theorem
theoretical
theoretically
theories
theorist
theorists
theory
ther
therapeutic
therapeutics
therapies
therapist
therapy
there
thereafter
thereby
therefor
therefore
therein
thereof
thereon
theresa
thereto
thereupon
thermal
thesaurus
these
thesis
thessaloniki
theta
they
thi
thick
thicker
thickness
thief
thierry
thieves
thigh
thin
thine
thing
things
think
thinker
thinkers
thinking
thinks
third
thirds
thirst
thirteen
thirteenth
thirty
this
thistle
thither
tho
thom
thomas
thompson
thomson
thor
thorax
thorn
thorne
thorns
thornton
thorough
thoroughbred
thoroughly
thorpe
those
thou
though
thought
thoughtful
thoughts
thousand
thousands
thrace
thrash
thread
threads
threat
threaten
threatened
threatening
threatens
threats
three
threshold
threw
thrice
thrill
thriller
thrilling
thrive
thriving
throat
throated
throne
thrones
through
throughout
throw
throwing
thrown
throws
thrush
thrust
thu
thumb
thunder
thursday
thurston
thus
thy
thyroid
thyself
ti
tia
tian
tianjin
tiberius
tibet
tibetan
tica
tick
ticket
tickets
tico
tidal
tide
tides
tidings
tie
tied
tiempo
tien
tienne
tier
tierra
tiers
ties
tiffany
tiger
tigers
tight
tightly
til
tile
tiles
till
tilt
tim
timber
timberlake
timbers
time
timed
timeless
timeline
timely
timer
times
timetable
timid
timing
timo
timor
timothy
tin
tina
ting
tiny
tio
tion
tip
tipped
tipperary
tips
tirana
tire
tired
tires
tis
tissue
tissues
tit
titan
titanic
titanium
titans
title
titled
titles
tito
titular
titus
tj
tk
tko
tl
tm
tn
tna
tnt
to
toad
toast
tobacco
tobago
tobias
tobin
toby
tod
today
todd
todo
toe
toes
together
togo
toi
toil
toilet
toilets
tok
token
tokens
tokugawa
tokyo
told
toledo
tolerance
tolerant
tolerate
tolerated
tolkien
toll
tolls
tolstoy
tom
toma
tomas
tomato
tomatoes
tomb
tombs
tombstone
tome
tomlinson
tommy
tomorrow
ton
tonal
tone
tones
tong
tonga
tongue
tongues
tongyong
toni
tonic
tonight
tonnage
tonnes
tons
tony
too
took
tool
toole
tools
tooth
top
topeka
topic
topical
topics
topographic
topographical
topography
topological
topology
topped
topping
tops
tor
torah
torch
tore
tori
tories
torino
torment
torn
tornado
tornadoes
toro
toronto
torpedo
torpedoes
torquay
torque
torre
torrent
torres
tort
tortoise
tortricidae
torture
tortured
tory
tos
toss
tossed
tot
total
totaled
totaling
totally
totals
toto
tottenham
tou
touch
touchdown
touchdowns
touched
touches
touching
tough
toulon
toulouse
tour
toured
touring
tourism
tourist
tourists
tournament
tournaments
tours
tous
tout
tow
toward
towards
towed
tower
towers
town
townland
towns
townsend
township
townships
townsville
toxic
toxicity
toxicology
toxin
toy
toyota
toys
tp
tr
tra
trace
traced
traces
tracey
tracing
track
tracked
tracker
tracking
tracks
tract
traction
tractor
tracts
tracy
trad
trade
traded
trademark
trader
traders
trades
trading
tradition
traditional
traditionally
traditions
trafalgar
traffic
trafficking
trafford
tragedies
tragedy
tragic
trail
trailer
trailers
trailing
trails
train
trained
trainer
trainers
training
trains
trait
traitor
traits
trajectory
tram
tramp
trams
tramway
tran
trance
trans
transaction
transactions
transatlantic
transcribed
transcript
transcription
transcripts
transfer
transferred
transferring
transfers
transform
transformation
transformations
transformed
transformers
transforming
transforms
transgender
transient
transistor
transit
transition
transitional
transitioned
transitions
transitive
transl
translate
translated
translates
translating
translation
translations
translator
translators
transliteration
transmission
transmissions
transmit
transmitted
transmitter
transmitters
transmitting
transnational
transparency
transparent
transplant
transplantation
transport
transportation
transported
transporter
transporting
transports
transvaal
transverse
transylvania
trap
trapped
traps
trash
trauma
traumatic
travel
traveled
traveler
travelers
traveling
travelled
traveller
travellers
travelling
travels
travers
traverse
traversed
travis
tray
tre
treacherous
treachery
tread
treason
treasure
treasurer
treasures
treasury
treat
treated
treaties
treating
treatise
treatises
treatment
treatments
treats
treaty
treble
treccani
tree
trees
trek
tremble
trembled
trembling
tremendous
trench
trenches
trend
trends
trent
trenton
tres
trevor
trey
tri
triad
trial
trials
triangle
triangles
triangular
triassic
triathlon
tribal
tribe
tribes
tribunal
tribunals
tribune
tributaries
tributary
tribute
tributes
trick
tricks
trident
tried
trier
tries
trieste
trifle
trifling
trigger
triggered
triggers
trillion
trilogy
trim
trimmed
trinidad
trinity
trio
trip
triple
tripoli
trips
tristan
triumph
triumphant
triumphs
trivial
tro
trois
trojan
trojans
trolley
trombone
trondheim
troop
troopers
troops
trophies
trophy
tropical
tropics
trouble
troubled
troubles
troublesome
trough
troupe
trousers
trout
trove
troy
tru
truce
truck
trucks
trudeau
true
trujillo
truly
truman
trump
trumpet
trumpeter
trumpets
truncated
trunk
trunks
truss
trust
trusted
trustee
trustees
trusts
truth
truths
try
trying
ts
tsai
tsar
tse
tsn
tsu
tsunami
tt
tte
ttingen
ttir
tu
tua
tub
tube
tuberculosis
tubes
tubular
tuck
tucker
tucson
tudes
tudor
tuesday
tufts
tug
tui
tuition
tulane
tulsa
tum
tumor
tumors
tun
tuna
tune
tuned
tunes
tung
tuning
tunis
tunisia
tunisian
tunnel
tunnels
tur
turbine
turbines
turbo
turbulent
turf
turin
turing
turk
turkey
turkic
turkish
turkmen
turkmenistan
turks
turmoil
turn
turnbull
turned
turner
turning
turnout
turnover
turnpike
turns
turret
turrets
turtle
turtles
tus
tuscaloosa
tuscany
tutor
tutorial
tuttle
tv
tva
tw
twain
twas
tweed
tweet
twelfth
twelve
twentieth
twenty
twice
twilight
twin
twins
twist
twisted
twitch
twitter
two
tx
txt
ty
tying
tyler
tyne
type
types
typhoon
typical
typically
tyranny
tyrant
tyre
tyres
tyrol
tyrone
tyson
tz
tzu
tɐ
tɔ
tɛ
u
ua
uae
ub
ubc
uber
ubiquitous
uboat
ubuntu
uc
uci
ucl
ucla
ud
ue
uefa
ufc
ufo
ug
uganda
ugandan
ugly
uh
uhf
ui
uk
ukraine
ukrainian
ukrainians
ul
ulrich
ulster
ultimate
ultimately
ultra
ultrasound
ultratop
ultraviolet
ulysses
um
uma
umar
umberto
umbrella
umpire
un
una
unable
unabridged
unacceptable
unaffected
unanimous
unanimously
unarmed
unauthorized
unavailable
unaware
unbeaten
unbroken
unc
uncanny
uncertain
uncertainty
unchanged
unclassified
uncle
unclean
unclear
uncomfortable
uncommon
unconscious
unconstitutional
unconventional
uncountable
uncovered
uncredited
uncut
und
undefeated
under
undercover
undergo
undergoes
undergoing
undergone
undergraduate
underground
underlying
undermine
underneath
underside
understand
understanding
understands
understood
undertake
undertaken
undertaking
undertook
underwater
underway
underwent
underwood
underworld
undesirable
undisclosed
undisputed
undivided
undoubtedly
undrafted
undue
une
unearthed
uneasy
unemployed
unemployment
unequal
unesco
uneven
unexpected
unexpectedly
unfair
unfamiliar
unfavorable
unfinished
unfit
unfortunate
unfortunately
ung
unhappy
uni
unicef
unicode
unicorn
unidentified
unification
unified
uniform
uniformity
uniformly
uniforms
unihan
unincorporated
uninhabited
unio
union
unionist
unions
unique
uniquely
unit
unitarian
unitary
unite
united
uniting
units
unity
univ
universal
universally
universe
universiade
universidad
universita
universite
universities
university
univision
unix
unjust
unknown
unlawful
unless
unlike
unlikely
unlimited
unlock
unlocked
unmanned
unmarried
unnamed
unnatural
unnecessary
uno
unofficial
unopposed
unpaid
unpleasant
unpopular
unprecedented
unpublished
unreasonable
unrelated
unreleased
unreliable
unrest
unsafe
unsatisfactory
unseen
unsigned
unsolved
unspecified
unstable
unsuccessful
unsuccessfully
unsuitable
unter
until
untitled
unto
untold
untouched
unused
unusual
unusually
unveil
unveiled
unveils
unwanted
unwilling
unwin
unworthy
up
upcoming
update
updated
updates
upgrade
upgraded
upgrades
upgrading
upheld
uphold
upi
upland
upload
uploaded
uploads
upon
upper
uppsala
upright
uprising
ups
upset
upside
upstairs
upstream
upton
uptown
upward
upwards
ur
ural
uranium
urban
urbana
urdu
urge
urged
urgent
urges
urging
uri
urine
url
urn
ursula
uruguay
uruguayan
us
usa
usable
usaf
usage
usatoday
usb
usc
usd
usda
use
used
useful
usefulness
useless
usenet
user
users
uses
usgs
usher
using
usl
uss
ussr
usual
usually
usurped
ut
uta
utah
utc
utica
utilities
utility
utilization
utilize
utilized
utilizes
utilizing
utmost
utopia
utrecht
uttar
utter
utterance
uttered
utterly
uv
uw
uyghur
uz
uzbek
uzbekistan
v
va
vacancies
vacancy
vacant
vacated
vacation
vaccination
vaccine
vaccines
vacuum
vague
vaguely
vai
vain
val
vale
valence
valencia
valencian
valenciana
valentin
valentina
valentine
valerie
valiant
valid
validation
validity
valladolid
valle
valley
valleys
valor
valour
valuable
valuation
value
valued
values
valve
valves
vampire
vampires
van
vance
vancouver
vandals
vanderbilt
vane
vanessa
vanguard
vanilla
vanish
vanished
vanishing
vanity
vans
vanuatu
vapor
var
varepsilon
vargas
variability
variable
variables
variance
variant
variants
variation
variations
varied
varies
varieties
variety
various
variously
varma
varphi
varsity
vary
varying
vas
vasco
vascular
vase
vasily
vassal
vast
vastly
vat
vatican
vaudeville
vaughan
vaughn
vault
vaults
vb
vc
vdot
ve
vec
vector
vectors
veda
vedic
vega
vegan
vegas
vegetable
vegetables
vegetarian
vegetation
vehicle
vehicles
veil
veiled
vein
veins
vel
vela
velar
velocities
velocity
velvet
ven
vendor
vendors
venerable
venetian
veneto
venezia
venezuela
venezuelan
vengeance
venice
venom
vent
ventilation
ventral
ventura
venture
ventured
ventures
venue
venues
venus
ver
vera
veracruz
verandah
verb
verbal
verbs
verde
verdi
verdict
vere
verge
verification
verified
verify
verily
verlag
verma
vermont
vernacular
verne
vernon
vero
verona
veronica
versa
versailles
versatile
verse
verses
version
versions
verso
versus
vert
vertebrae
vertebrate
vertebrates
vertex
vertical
vertically
vertices
vertigo
very
ves
vessel
vessels
vest
vested
vet
veteran
veterans
veterinary
veto
vez
vfl
vg
vh
vhs
vi
via
viable
viacom
viaduct
vibe
vibrant
vibration
vibrations
vic
vicar
vice
vicente
viceroy
vices
vichy
vicinity
vicious
vickers
vicki
vicky
victim
victims
victor
victoria
victorian
victories
victorious
victory
vid
vida
vidal
vide
video
videos
vie
vienna
viet
vietnam
vietnamese
view
viewed
viewer
viewers
viewership
viewing
viewpoint
views
vige
vigil
vigo
vigor
vigorous
vigorously
vigour
vii
viii
vijay
viking
vikings
vikram
viktor
vila
vile
villa
village
villagers
villages
villain
villains
villarreal
villas
ville
villiers
vilnius
vin
vince
vincent
vincenzo
vinci
vine
vinegar
vines
vineyard
vineyards
vintage
vinyl
viola
violate
violated
violates
violating
violation
violations
violence
violent
violently
violet
violin
violinist
violins
vip
viper
viral
virgil
virgin
virginia
virginiadot
virtual
virtually
virtue
virtues
virtuous
virus
viruses
vis
visa
visas
viscount
vishnu
visibility
visible
vision
visionary
visions
visit
visitation
visited
visiting
visitor
visitors
visits
vista
visual
visualization
visually
visuals
vit
vita
vitae
vital
vitality
vitamin
vito
vitro
vittorio
viva
vivekananda
vivian
vivid
vivo
viz
vizier
vladimir
vn
vnto
vo
vocabolario
vocabulary
vocal
vocalist
vocals
vocation
vocational
vocative
vogel
vogue
voice
voiced
voices
void
voivodeship
vojvodina
vol
volatile
volcanic
volcano
volcanoes
volga
volkswagen
volley
volleyball
vols
volt
volta
voltage
voltaire
volts
volume
volumes
voluntarily
voluntary
volunteer
volunteered
volunteers
volvo
vom
von
voodoo
voor
vor
vortex
vos
voseo
voss
vote
voted
voter
voters
votes
voting
vous
vow
vowed
vowel
vowels
vows
vox
voyage
voyager
voyages
voz
vp
vr
vre
vs
vt
vu
vuelta
vulcan
vulgar
vulnerability
vulnerable
vulture
vv
vy
w
wa
wac
wade
wadi
wadsworth
wage
wages
wagner
wagon
wagons
wah
wai
waikato
wainwright
waist
wait
waite
waited
waiter
waiting
waits
waive
waived
waiver
waivers
wake
wakefield
wakes
waking
wal
walden
waldo
wales
walk
walked
walker
walking
walkover
walks
wall
walla
wallace
walled
waller
wallis
walls
wally
walnut
walpole
walsall
walsh
walt
walter
walters
walther
walton
waltz
wan
wand
wanda
wander
wandered
wanderers
wandering
wang
wanna
want
wanted
wanting
wants
war
warbler
ward
warden
wardrobe
wards
ware
warehouse
warehouses
wares
warfare
warlord
warm
warmer
warming
warmly
warmth
warn
warned
warner
warning
warnings
warns
warp
warrant
warrants
warren
warrington
warrior
warriors
wars
warsaw
warship
warships
warszawa
wartime
warwick
warwickshire
was
wash
washburn
washed
washing
washington
wasn
wasp
wasps
waste
wasted
wastewater
wasting
wat
watanabe
watch
watched
watches
watching
water
waterfall
waterfalls
waterford
waterfront
waterloo
waterman
waters
watershed
waterway
waterways
watford
watkins
watson
watt
watts
waugh
wave
waved
wavelength
waves
waving
wax
way
wayback
wayne
ways
wb
wbc
wc
wcw
wd
we
weak
weaken
weakened
weakening
weaker
weakly
weakness
weaknesses
wealth
wealthy
weapon
weaponry
weapons
wear
wearing
wears
weary
weather
weave
weaver
weaving
web
webb
webber
weber
webpage
website
websites
webster
wed
wedding
weddings
wedge
wednesday
wee
weed
weeds
week
weekday
weekdays
weekend
weekends
weekly
weeks
weep
weeping
wehrmacht
wei
weigh
weighed
weighing
weighs
weight
weighted
weightlifting
weights
weil
weimar
weinberg
weiner
weinstein
weir
weird
weiss
welch
welcome
welcomed
welcomes
welcoming
weld
welding
welfare
well
welle
weller
welles
wellesley
wellington
wellness
wells
welsh
welt
welterweight
wembley
wen
wendell
wendy
went
wentworth
wept
were
weren
werner
wes
wesley
wesleyan
wessex
west
westbound
westchester
westerly
western
westfield
westminster
weston
westphalia
westport
westward
westwood
wet
wetland
wetlands
wexford
weymouth
wha
whale
whales
whaling
wharf
wharton
what
whatever
whatsoever
wheat
wheatley
wheaton
wheel
wheelchair
wheeled
wheeler
wheeling
wheels
when
whence
whenever
where
whereabouts
whereas
whereby
wherefore
wherein
whereof
whereupon
wherever
whether
which
whig
whigs
while
whilst
whip
whiskey
whisky
whisper
whispered
whispering
whispers
whistle
whistler
whistling
whitaker
whitburn
whitby
white
whitehall
whitehead
whitehouse
whites
whitfield
whither
whiting
whitish
whitley
whitman
whitney
whittaker
who
whoever
whole
wholesale
wholesome
wholly
whom
whose
why
whyte
wi
wichita
wick
wicked
wickedness
wicket
wickets
wide
widely
widened
widening
wider
widespread
widow
widowed
widows
width
wie
wielki
wien
wiener
wiesbaden
wife
wig
wigan
wight
wii
wiki
wikibooks
wikidata
wikileaks
wikimedia
wikinews
wikipedia
wikiquote
wikisource
wikispecies
wikiversity
wikivoyage
wiktionary
wil
wilbur
wilcox
wild
wildcats
wilde
wilder
wilderness
wildlife
wildly
wiley
wilfred
wilfrid
wilhelm
wilkes
wilkins
wilkinson
will
willamette
willard
willem
william
williams
williamsburg
williamson
willie
willing
willingly
willingness
willis
willoughby
willow
wills
willy
wilmington
wilson
wilt
wilton
wiltshire
wimbledon
win
winchester
wind
winding
windmill
window
windows
winds
windsor
windy
wine
winery
wines
winfield
wing
winged
winger
wings
wingspan
winkler
winner
winners
winning
winnipeg
wins
winslow
winston
winter
winters
winthrop
wipe
wiped
wir
wird
wire
wired
wireless
wires
wis
wisconsin
wisden
wisdom
wise
wisely
wiseman
wiser
wish
wished
wishes
wishing
wit
witch
witchcraft
witches
with
withdraw
withdrawal
withdrawing
withdrawn
withdraws
withdrew
withheld
within
without
withstand
witness
witnessed
witnesses
witnessing
wits
witt
witty
wives
wizard
wizards
wm
wnba
wo
woe
woes
woke
wolf
wolfe
wolff
wolfgang
wolfram
wolverhampton
wolverine
wolverines
wolves
woman
womb
women
won
wonder
wondered
wonderful
wonderfully
wondering
wonderland
wonders
wong
wont
woo
wood
woodbridge
wooded
wooden
woodhouse
woodland
woodlands
woodpecker
woodrow
woodruff
woods
woodstock
woodward
woody
wool
woolf
woolwich
worcester
worcestershire
word
wordpress
words
wordsworth
wore
work
worked
worker
workers
workforce
working
workings
workman
workmen
workplace
works
workshop
workshops
world
worldcat
worldfootball
worldly
worlds
worldwide
worm
worms
worn
worried
worries
worry
worse
worship
worshipped
worst
worth
worthington
worthless
worthy
wortschatz
would
wouldn
wound
wounded
wounding
wounds
woven
wow
wp
wr
wrap
wrapped
wraps
wrath
wrc
wreath
wreck
wreckage
wrecked
wren
wrestle
wrestled
wrestlemania
wrestler
wrestlers
wrestling
wretched
wrexham
wright
wrist
writ
write
writer
writers
writes
writing
writings
written
wrocław
wrong
wrongly
wrongs
wrote
wrought
ws
wta
wu
wuhan
wv
ww
wwe
wwf
wwii
www
wyatt
wycombe
wylie
wyndham
wynn
wynne
wyoming
x
xa
xavier
xbox
xe
xf
xi
xia
xiamen
xiang
xiao
xico
xie
xii
xiii
xin
xing
xinhua
xinjiang
xiv
xix
xl
xls
xm
xml
xo
xp
xs
xu
xue
xv
xvi
xvii
xviii
xx
xxi
xxii
xxiii
xxiv
xxix
xxv
xxvi
xxvii
xxviii
xxx
xxxi
xy
y
ya
yacht
yachts
yadav
yahoo
yahweh
yale
yam
yamada
yamaguchi
yamaha
yamamoto
yamato
yan
yang
yankee
yankees
yao
yard
yards
yarmouth
yarn
yas
yates
yd
ye
yea
yeah
year
yearbook
yearly
years
yeast
yee
yeh
yell
yellow
yellowish
yellowstone
yemen
yen
yeo
yeomanry
yeon
yeovil
yer
yerevan
yes
yeshiva
yesterday
yet
yew
yi
yiddish
yield
yielded
yielding
yields
yin
ying
ymca
yn
yo
yoga
yogi
yoke
yoko
yokohama
yomi
yon
yonder
yong
yoo
yoon
york
yorke
yorker
yorkshire
yoruba
yoshida
you
young
younger
youngest
your
yours
yourself
yourselves
youth
youthful
youths
youtube
yr
ys
yu
yuan
yue
yuen
yugoslav
yugoslavia
yuki
yukon
yun
yung
yunnan
yuri
yusuf
yves
yvonne
z
za
zac
zach
zachary
zack
zagreb
zambia
zamora
zane
zanzibar
zap
zar
zara
zaragoza
zavod
ze
zeal
zealand
zealous
zebra
zee
zef
zeit
zeitschrift
zeitung
zelda
zeller
zen
zenith
zeppelin
zero
zeta
zeus
zh
zha
zhang
zhangzhou
zhao
zhe
zhejiang
zheng
zhengzhang
zhi
zho
zhong
zhou
zhu
zhuyin
zi
zidian
ziegler
ziff
zimbabwe
zimmer
zimmerman
zimmermann
zinc
zion
zionist
zip
zo
zodiac
zoe
zombie
zombies
zone
zones
zoning
zoo
zookeys
zoological
zoologist
zoology
zoom
zootaxa
zquez
zu
zulu
zum
zur
zurich
zyka
zɐ
{
|
}
~




¡
¢
£
¥
§
¨
©
ª
«
¬
­
®
¯
°
±
²
²²
²³
²¹
²¹¹
²¹⁴
²⁴
³
³²
³³
³⁵
´
µ
¶
·
¹
¹³
¹¹
º
»
¼
½
¾
¿
×
ß
æ
ð
÷
ø
þ
þa
þat
þe
đa
đo
ı
ł
ło
ŋ
œ
ƒ
ɐ
ɑ
ɒ
ɔ
ɕ
ɕi
ə
ən
ɛ
ɜ
ɡ
ɡa
ɣ
ɤ
ɨ
ɪ
ɪj
ɪl
ɪm
ɪn
ɪr
ɪs
ɪt
ɫ
ɯ
ɰ
ɲ
ɴ
ɹ
ɻ
ɾ
ɾa
ɾi
ʁ
ʂ
ʂʐ
ʃ
ʃa
ʃi
ʈ
ʉ
ʊ
ʋ
ʌ
ʐ
ʒ
ʒi
ʔ
ʰ
ʱ
ʲ
ʲˈ
ʷ
ʹ
ʺ
ʻ
ʼ
ʽ
ʾ
ʿ
ˀ
ˇ
ˈ
ˊ
ˋ
ˌ
ː
ːˈ
ˑ
˙
ˠ
ˢ
ˣ
ˤ
˥
˦
˧
˨
˩
̀
́
̂
̃
̄
̆
̇
̈
̉
̊
̋
̌
̍
̏
̑
̓
̔
̚
̛
̝
̞
̟
̠
̣
̤
̥
̦
̧
̨
̩
̪
̬
̮
̯
̰
̱
̲
̸
̹
̺
̻
̽
͂
ͅ
͈
͘
͜
͡
΄
α
ας
β
γ
δ
δε
ε
ει
εν
ζ
ζω
η
θ
ι
κ
κα
και
κο
λ
μ
μα
με
ν
να
νη
νος
ξ
ο
οι
ος
ου
π
πα
πο
ρ
ρα
ς
σ
τ
τα
τε
τη
την
της
τι
το
τον
του
τω
των
υ
φ
χ
ψ
ω
ϕ
ϵ
а
административно
б
в
внесении
во
всероссии
вступил
вшии
вы
г
года
городских
д
да
до
е
ж
з
за
закон
закона
и
из
к
ка
карта
карте
л
ла
ли
ло
м
мови
муниципальных
н
на
населе
населения
не
ни
ние
нных
нськоі
о
об
области
образовании
округов
он
она
онов
опубликован
от
п
перепись
по
поселении
пунктов
р
ра
раи
расстояние
ред
республики
россии
с
се
сельских
силу
ская
скои
словник
со
ся
т
та
те
ти
том
ть
ться
у
украі
ф
федерации
х
ц
ч
численность
ш
щ
ъ
ы
ь
э
ю
я
января
і
ә
ա
է
ի
֫
ְ
ֲ
ִ
ֵ
ֶ
ַ
ָ
ֹ
ֻ
ּ
ֽ
־
ֿ
ׁ
ׂ
א
ב
ג
ד
ה
ו
וכ
ז
ח
ט
י
ך
כ
ל
ם
מ
ן
נ
ס
ע
פ
צ
ק
ר
ש
ת
׳
״
،
؛
؟
ا
ار
ال
الا
ب
ة
ت
ث
ج
ح
خ
د
ذ
ر
ز
س
ش
ص
ض
ط
ظ
ع
غ
ـ
ف
في
ق
ك
ل
م
ن
ه
و
وا
ون
ى
ي
ً
ٌ
ٍ
َ
ُ
ِ
ّ
ْ
ٓ
ٔ
ٕ
ٰ
ی
ܐ
ܒ
ܝ
ܠ
ܡ
ܢ
ܪ
ܬ
ܲ
ܵ
ܸ
ܹ
ܼ
݂
އ
ަ
ި
ު
ް
ँ
ं
ः
अ
आ
ई
ए
क
ख
ग
घ
च
छ
ज
झ
ञ
ट
ठ
ड
ण
त
थ
द
ध
न
प
फ
ब
भ
म
य
र
ल
व
श
ष
स
ह
़
ा
ि
ी
ु
ू
ृ
े
ै
ॉ
ो
ौ
्
।
॥
ঁ
ং
ই
ও
ক
খ
গ
চ
ছ
জ
ট
ঠ
ড
ণ
ত
থ
দ
ধ
ন
প
ফ
ব
ভ
ম
য
র
ল
শ
ষ
স
হ
়
া
ি
ী
ু
ূ
ৃ
ে
ৈ
্
ৗ
ৰ
ৱ
ਂ
ਕ
ਗ
ਜ
ਤ
ਦ
ਨ
ਪ
ਬ
ਮ
ਰ
ਲ
ਵ
ਸ
ਹ
਼
ਾ
ਿ
ੀ
ੁ
ੂ
ੇ
ੋ
ੰ
ੱ
ં
ક
ગ
ત
ન
મ
ય
ર
વ
સ
ા
િ
ી
ુ
ે
ો
્
ା
ି
୍
க
ங
ச
ஜ
ட
ண
த
ந
ன
ப
ம
ய
ர
ற
ல
ள
ழ
வ
ஸ
ா
ி
ீ
ு
ூ
ெ
ே
ை
்
ం
క
గ
చ
జ
ట
డ
త
ద
ధ
న
ప
బ
మ
య
ర
ల
ళ
వ
శ
ష
స
ా
ి
ీ
ు
ూ
ె
ే
ొ
ో
్
ౖ
ಂ
ಕ
ಗ
ತ
ದ
ನ
ಪ
ಮ
ಯ
ರ
ಲ
ವ
ಸ
ಾ
ಿ
ು
ೂ
ೆ
್
ೕ
ം
ക
ഗ
ച
ജ
ട
ണ
ത
ദ
ന
പ
മ
യ
ര
റ
ല
ള
വ
ശ
ഷ
സ
ാ
ി
ീ
ു
ൂ
െ
േ
്
ං
ක
ග
ත
ද
න
ප
ම
ය
ර
ල
ව
ස
්
ා
ි
ී
ු
ෙ
ก
ข
ค
ง
จ
ช
ซ
ด
ต
ท
น
บ
ป
ผ
พ
ม
ย
ร
ล
ว
ศ
ส
ห
อ
ั
า
ิ
ี
ึ
ื
ุ
ู
ฺ
็
่
้
๊
์
ນ
ສ
ັ
ິ
ີ
ຸ
຺
ົ
່
້
་
།
ག
ང
ད
ན
པ
བ
མ
ར
ལ
ས
ི
ུ
ེ
ོ
ྱ
ྲ
࿒
က
ခ
ဂ
င
စ
ဆ
ဇ
ည
တ
ထ
ဒ
န
ပ
ဖ
ဗ
ဘ
မ
ယ
ရ
လ
ဝ
သ
အ
ါ
ာ
ိ
ီ
ု
ူ
ေ
ဲ
ံ
့
း
္
်
ျ
ြ
ွ
ှ
ၵ
ၼ
ႃ
ႇ
ႈ
년
월
일
ᜒ
᜔
ក
គ
ង
ច
ជ
ដ
ត
ទ
ន
ប
ព
ម
យ
រ
ល
វ
ស
អ
ា
ិ
ី
ុ
ូ
ើ
េ
ែ
ោ
ំ
ះ
់
្
᠋
ᨲ
᩠
ᩣ
ᩥ
ᩩ
ᩮ
ᩴ
᭄
ᵝ
᾽
​
‌
‍
‎
‏
‐
‑
‒
–
—
―
‖
‘
’
‚
‛
“
”
„
†
‡
•
‥
…
‧
‬
‭
′
″
‹
›
‿
⁄
⁊
⁠
⁡
⁴
⁴¹
⁴⁴
⁵
⁵³
⁵¹
⁵⁵
⁵⁵⁴
⁻
⁽
⁾
ⁿ
₁
₂
₃
₩
€
₱
₹
ℏ
ℓ
℔
№
™
⅓
←
↑
→
↓
↔
↦
↷
⇌
⇒
∀
∂
∃
∅
∇
∈
∏
∑
−
∖
∗
∘
∙
√
∞
∣
∧
∨
∩
∪
∫
∮
∼
≅
≈
≡
≤
≥
⊂
⊆
⊕
⊗
⊙
⊥
⋅
⋆
⋮
⋯
⌊
⌋
⏟
②
③
④
⑦
─
━
│
═
█
■
□
▲
△
►
◄
◆
●
◻
★
☆
☉
☏
♠
♣
♥
♦
♪
♭
♯
⚡
⟨
⟩
⟶
ⲁ
ⲉ
ⲓ
ⲙ
ⲛ
ⲟ
ⲡ
ⲣ
ⲥ
ⲧ
ⲩ
ⲱ
ⴰ
⺀
⺄
⺆
⺈
⺊
⺌
⺕
⺝
⺸
⺼
⿰
⿱
⿲
⿳
⿴
⿵
⿶
⿷
⿸
⿹
⿺
⿻
、
。
々
〈
〉
《
》
「
」
『
』
【
】
〜
〢
〮
あ
い
う
え
お
か
き
く
け
こ
さ
し
す
せ
そ
た
ち
っ
つ
て
と
な
に
ぬ
ね
の
は
ひ
ふ
へ
ほ
ま
み
む
め
も
ゃ
や
ゅ
ゆ
ょ
よ
ら
り
る
れ
ろ
わ
を
ん
゙
゚
ァ
ア
ィ
イ
ゥ
ウ
ェ
エ
ォ
オ
カ
キ
ク
ケ
コ
サ
シ
ス
セ
ソ
タ
チ
ッ
ツ
テ
ト
ナ
ニ
ヌ
ネ
ノ
ハ
ヒ
フ
ヘ
ホ
マ
ミ
ム
メ
モ
ャ
ヤ
ュ
ユ
ョ
ヨ
ラ
リ
ル
レ
ロ
ワ
ン
・
ー
ㄅ
ㄆ
ㄇ
ㄈ
ㄉ
ㄊ
ㄋ
ㄌ
ㄍ
ㄎ
ㄏ
ㄐ
ㄑ
ㄒ
ㄓ
ㄔ
ㄕ
ㄖ
ㄗ
ㄘ
ㄙ
ㄚ
ㄛ
ㄜ
ㄝ
ㄞ
ㄟ
ㄠ
ㄡ
ㄢ
ㄣ
ㄤ
ㄥ
ㄦ
ㄧ
ㄨ
ㄩ
㇁
㇂
㇄
㇇
㇈
㇉
㇓
㐁
㐄
㐅
㐌
㐫
㐬
㐭
㐮
㐱
㑒
㒵
㒸
㒼
㓁
㓞
㔾
㕛
㕣
㖾
㘝
㚅
㚇
㚔
㚘
㝉
㝡
㝴
㝵
㞋
㞢
㞷
㠩
㠭
㠯
㡀
㡭
㡿
㢲
㢴
㣇
㣺
㥯
㪅
㫄
㫐
㫒
㫺
㬅
㬎
㬥
㬰
㲋
㳄
㷠
㸒
㸚
㸦
㼌
㼲
㽞
㿟
䀠
䂞
䍃
䏍
䒑
䖍
䖒
䖝
䖵
䙴
䚻
䜌
䝿
䡛
䧹
䪞
一
丁
丂
七
丄
丅
丆
万
丈
三
上
下
丌
不
与
丏
丐
丑
专
且
丕
世
丘
丙
业
东
丞
両
丢
丣
两
严
並
丨
丩
个
丫
丬
中
丮
丰
丱
串
丵
丶
丷
丸
丹
为
主
丽
丿
乀
乂
乃
久
乆
乇
么
义
之
乌
乍
乎
乏
乐
乑
乔
乖
乗
乘
乙
乚
乛
乜
九
乞
也
习
乡
书
乱
乳
乾
亀
亅
了
亇
予
争
事
二
亍
于
亏
亐
云
互
亓
五
井
亘
亚
些
亜
亞
亟
亠
亡
亢
交
亥
亦
产
亨
亩
享
京
亭
亮
亯
亰
亲
亳
亶
亷
人
亻
亼
亾
什
仁
今
介
仌
从
仐
仑
仒
仓
仔
仕
他
付
仙
仝
代
令
以
们
仮
仲
件
任
份
企
伊
伏
伐
休
会
伝
传
伯
但
位
低
住
佐
体
何
佘
余
佛
作
你
佥
佳
使
來
侈
例
侌
侍
侖
供
依
侯
侵
便
係
俊
俗
保
俞
信
修
倉
個
倍
們
倒
候
倠
値
值
假
做
停
健
偵
備
催
傳
傷
僉
像
僕
儀
優
儿
兀
允
兂
元
兄
充
兆
兇
先
光
兊
克
兌
免
児
兑
兒
兓
兔
党
兜
兟
入
內
全
兩
兪
八
公
六
兮
兰
共
关
兴
兵
其
具
典
兹
兼
冀
冂
冃
冄
内
円
冈
冉
冊
冋
册
再
冎
冏
冐
冒
冓
冖
冗
冘
写
军
农
冝
冠
冡
冥
冫
冬
冰
决
况
冷
准
几
凡
凢
凵
凶
凷
凸
凹
出
函
凾
刀
刁
刂
刃
刄
刅
分
切
刊
刍
刑
划
刕
刖
列
刘
则
创
初
判
別
利
别
到
制
刺
刻
則
削
剌
前
剛
剡
剣
剧
副
創
剽
劇
劉
力
办
功
加
务
劦
动
助
劫
劳
劵
勃
勇
勉
勒
動
務
勝
勞
勢
勤
勹
勺
勻
勾
勿
匀
匂
包
匆
匈
匊
匋
匍
匕
化
北
匚
匝
匡
匪
匱
匸
匹
区
医
匽
匿
區
十
卂
千
卄
卅
卆
升
午
卉
半
卌
华
协
卑
卒
卓
協
单
卖
南
単
博
卜
卝
卞
占
卡
卢
卣
卤
卦
卩
卪
卫
卬
卯
印
危
即
却
卵
卷
卸
卻
厂
厃
厄
历
厈
厉
厌
厓
厘
厚
原
厤
厥
厨
厭
厲
厶
厷
厸
去
厼
厽
县
叀
参
參
叅
又
叉
及
友
双
反
収
叐
发
叒
叔
叕
取
受
变
叚
叜
叟
口
古
句
另
叩
只
召
可
台
叱
史
右
叵
叶
号
司
叹
吂
吃
各
吅
合
吉
吊
吋
同
名
后
吏
向
吕
君
吝
吞
否
含
启
吳
吴
吹
吾
呂
呆
呈
告
员
呙
周
味
呼
命
咅
和
咎
咠
咢
咨
咸
咼
哀
品
哈
哉
員
哥
哲
唐
唱
商
啇
問
啚
啬
啻
善
喜
喬
單
喿
嗇
嘉
器
噩
嚴
囊
囗
囘
囙
囚
四
回
囟
因
团
団
囧
囬
园
困
囱
図
囷
固
国
图
圂
圅
國
圍
園
圓
圖
團
土
圡
圣
圥
在
圭
地
圳
圶
场
圼
坂
均
坐
坒
坚
坪
坴
垂
型
垔
垚
埀
埋
城
域
埶
執
基
堂
堅
堆
堇
堯
報
場
塔
塘
塚
塞
境
增
墨
壘
士
壬
壯
声
売
壳
壴
壹
壺
壽
夂
处
夅
夆
备
変
夊
夋
夌
复
夏
夒
夕
外
夗
夘
多
夜
夢
大
夨
天
太
夫
夬
夭
央
失
夲
头
夷
夸
夹
夻
夾
奂
奄
奇
奈
奉
奎
奏
奐
契
奓
奔
奖
奚
奞
奠
奢
奥
奪
奭
女
奴
奻
好
如
妃
妄
妖
妙
妟
妥
妹
妻
妾
始
姑
姓
委
姜
姫
威
娄
娘
娱
婁
婆
婚
婦
婴
嬰
嬴
子
孑
孔
孕
孖
字
存
孙
孚
孛
孝
孟
季
孤
学
孫
孱
學
宀
宁
宂
它
宅
宇
守
安
宋
完
宏
宓
宗
官
宙
定
宛
宜
宝
实
実
客
宣
室
宮
宰
害
家
容
宾
宿
寄
寅
密
富
寒
察
實
寧
審
寫
寬
寮
寶
寸
对
寺
寻
导
寽
対
寿
封
尃
射
将
將
專
尉
尊
尋
尌
對
導
小
少
尒
尓
尔
尖
尗
尚
尞
尢
尣
尤
尧
尨
尭
就
尸
尹
尺
尻
尼
尽
尾
尿
局
居
屈
届
屋
屎
屏
屑
展
屖
屚
属
屠
屡
屬
屮
屯
屰
山
屵
屾
岁
岂
岑
岛
岡
岩
岳
岸
峯
峰
島
崇
崎
崑
崔
崖
崙
崩
嵬
嶲
巂
巛
川
州
巟
巠
巢
巤
工
左
巧
巨
巩
巫
差
己
已
巳
巴
巷
巸
巻
巽
巾
巿
帀
市
布
师
希
帚
帛
帝
带
師
席
帰
帶
常
幕
干
平
年
幵
并
幷
幸
幹
幺
幻
幼
幽
幾
广
広
庄
庆
床
库
应
底
店
庚
府
度
座
庫
庭
庶
康
庸
廉
廌
廛
廣
廩
廴
延
廷
建
廾
廿
开
弁
弃
弄
弇
弋
式
弓
弔
引
弗
弘
弜
弟
张
弥
弦
弱
張
強
强
弾
彊
彌
彎
彐
彑
当
彔
录
彖
彗
彡
形
彥
彦
彧
彩
彭
影
彳
役
彼
往
征
待
很
律
後
徐
徒
得
徙
從
御
復
微
徳
徵
德
心
忄
必
忌
忍
志
応
忝
忠
忩
快
念
忽
忿
思
怠
急
性
怪
怱
总
恆
恋
恐
恒
恩
恭
息
恵
悉
患
悤
悪
悲
悶
情
惠
惡
惢
想
愁
愈
意
愛
感
慈
慧
慮
慶
憂
憲
應
戀
戈
戉
戊
戋
戌
戍
戎
戏
成
我
戒
戔
或
战
戚
戠
戢
戦
截
戰
戲
戶
户
戸
戹
戼
戾
房
所
扁
扇
手
扌
才
打
托
执
批
承
技
把
投
抗
折
报
担
拉
拍
招
拜
拳
拿
持
指
挑
挙
振
据
授
掌
排
探
接
推
描
提
援
摩
撃
播
支
攴
攵
收
攸
改
攻
放
政
敄
故
敏
救
敕
敖
敗
教
敝
敞
敢
散
敦
敫
敬
数
整
敵
敷
數
斂
文
斉
斊
斗
料
斤
斥
斩
斬
断
斯
新
方
於
施
斿
旁
旅
旋
族
旗
无
旡
既
旣
日
旦
旧
旨
早
旬
旱
旲
时
旾
昆
昇
昌
昍
明
昏
易
昔
昗
昜
星
映
春
昬
昭
是
昱
昴
昷
時
晃
晋
晏
晓
晚
普
景
晴
晶
智
暑
暗
暴
曇
曝
曩
曰
曲
曳
更
曷
書
曹
曼
曾
替
最
朁
會
[...]
