!
"
#
##0
##1
##10
##11
##12
##13
##14
##15
##16
##17
##18
##19
##2
##20
##21
##22
##23
##24
##25
##26
##27
##28
##29
##3
##30
##31
##32
##33
##34
##35
##36
##37
##38
##39
##4
##40
##41
##42
##43
##44
##45
##46
##47
##48
##49
##5
##50
##51
##52
##53
##54
##55
##56
##57
##58
##59
##6
##60
##61
##62
##63
##64
##65
##66
##67
##68
##69
##7
##70
##71
##72
##73
##74
##75
##76
##77
##78
##79
##8
##80
##81
##82
##83
##84
##85
##86
##87
##88
##89
##9
##90
##91
##92
##93
##94
##95
##96
##97
##98
##99
$
%
&
'
(
)
*
+
,
-
.
/
0
00
000
001
002
003
004
007
01
02
03
04
05
06
07
08
09
1
10
100
1000
1001
101
1016
102
103
104
105
106
1066
107
108
1080
1086
109
11
110
1100
111
112
113
114
115
116
117
118
119
12
120
1200
121
122
123
124
125
1250
126
127
128
129
13
130
1300
131
132
133
134
135
1350
136
137
138
139
14
140
1400
141
142
143
144
1440
145
1450
146
1460
147
1470
148
1480
149
1490
1492
15
150
1500
151
1510
1515
1517
152
1520
1521
1524
1525
1526
153
1530
1534
1535
1536
1537
1538
1539
154
1540
1541
1542
1543
1545
1547
1549
155
1550
1552
1553
1554
1555
1556
1557
1558
1559
156
1560
1561
1562
1563
1564
1565
1566
1567
1568
1569
157
1570
1571
1572
1573
1574
1575
1576
1577
1578
1579
158
1580
1581
1582
1583
1584
1585
1586
1587
1588
1589
159
1590
1591
1592
1593
1594
1595
1596
1597
1598
1599
16
160
1600
1601
1602
1603
1604
1605
1606
1607
1608
1609
161
1610
1611
1612
1613
1614
1615
1616
1617
1618
1619
162
1620
1621
1622
1623
1624
1625
1626
1627
1628
1629
163
1630
1631
1632
1633
1634
1635
1636
1637
1638
1639
164
1640
1641
1642
1643
1644
1645
1646
1647
1648
1649
165
1650
1651
1652
1653
1654
1655
1656
1657
1658
1659
166
1660
1661
1662
1663
1664
1665
1666
1667
1668
1669
167
1670
1671
1672
1673
1674
1675
1676
1677
1678
1679
168
1680
1681
1682
1683
1684
1685
1686
1687
1688
1689
169
1690
1691
1692
1693
1694
1695
1696
1697
1698
1699
17
170
1700
1701
1702
1703
1704
1705
1706
1707
1708
1709
171
1710
1711
1712
1713
1714
1715
1716
1717
1718
1719
172
1720
1721
1722
1723
1724
1725
1726
1727
1728
1729
173
1730
1731
1732
1733
1734
1735
1736
1737
1738
1739
174
1740
1741
1742
1743
1744
1745
1746
1747
1748
1749
175
1750
1751
1752
1753
1754
1755
1756
1757
1758
1759
176
1760
1761
1762
1763
1764
1765
1766
1767
1768
1769
177
1770
1771
1772
1773
1774
1775
1776
1777
1778
1779
178
1780
1781
1782
1783
1784
1785
1786
1787
1788
1789
179
1790
1791
1792
1793
1794
1795
1796
1797
1798
1799
18
180
1800
1801
1802
1803
1804
1805
1806
1807
1808
1809
181
1810
1811
1812
1813
1814
1815
1816
1817
1818
1819
182
1820
1821
1822
1823
1824
1825
1826
1827
1828
1829
183
1830
1831
1832
1833
1834
1835
1836
1837
1838
1839
184
1840
1841
1842
1843
1844
1845
1846
1847
1848
1849
185
1850
1851
1852
1853
1854
1855
1856
1857
1858
1859
186
1860
1861
1862
1863
1864
1865
1866
1867
1868
1869
187
1870
1871
1872
1873
1874
1875
1876
1877
1878
1879
188
1880
1881
1882
1883
1884
1885
1886
1887
1888
1889
189
1890
1891
1892
1893
1894
1895
1896
1897
1898
1899
19
190
1900
1901
1902
1903
1904
1905
1906
1907
1908
1909
191
1910
1911
1912
1913
1914
1915
1916
1917
1918
1919
192
1920
1921
1922
1923
1924
1925
1926
1927
1928
1929
193
1930
1931
1932
1933
1934
1935
1936
1937
1938
1939
194
1940
1941
1942
1943
1944
1945
1946
1947
1948
1949
195
1950
1951
1952
1953
1954
1955
1956
1957
1958
1959
196
1960
1961
1962
1963
1964
1965
1966
1967
1968
1969
197
1970
1971
1972
1973
1974
1975
1976
1977
1978
1979
198
1980
1981
1982
1983
1984
1985
1986
1987
1988
1989
199
1990
1991
1992
1993
1994
1995
1996
1997
1998
1999
2
20
200
2000
2001
2002
2003
2004
2005
2006
2007
2008
2009
201
2010
2011
2012
2013
2014
2015
2016
2017
2018
2019
202
2020
2021
2022
2023
2024
2025
2026
203
2030
204
205
206
207
208
209
21
210
211
212
213
214
215
216
217
218
219
22
220
221
222
223
224
225
226
227
228
229
23
230
231
232
233
234
235
236
237
238
239
24
240
241
242
243
244
245
246
247
248
249
25
250
2500
251
252
253
254
255
256
257
258
259
26
260
2600
261
262
263
264
265
266
267
268
269
27
270
271
272
273
274
275
276
277
278
279
28
280
281
282
283
284
285
286
287
288
289
29
290
291
292
293
294
295
296
297
298
299
3
30
300
3000
301
302
303
304
305
306
307
308
309
31
310
311
312
313
314
315
316
317
318
319
32
320
321
322
323
324
325
326
327
328
329
33
330
331
332
333
334
335
336
337
338
339
34
340
341
342
343
344
345
346
347
348
349
35
350
351
352
353
354
355
356
357
358
359
36
360
361
362
363
364
365
366
367
368
369
37
370
371
372
373
374
375
376
377
378
379
38
380
381
382
383
384
385
386
387
388
389
39
390
391
392
393
394
395
396
397
398
399
4
40
400
4000
401
402
403
404
405
406
407
408
409
41
410
411
412
413
414
415
416
417
418
419
42
420
421
422
423
424
425
426
427
428
429
43
430
431
432
433
434
435
436
437
438
439
44
440
441
442
443
444
445
446
447
448
449
45
450
451
452
453
454
455
456
457
458
459
46
460
461
462
463
464
465
466
467
468
469
47
470
471
472
473
474
475
476
477
478
479
48
480
481
482
483
484
485
486
487
488
489
49
490
491
492
493
494
495
496
497
498
499
5
50
500
5000
501
502
503
504
505
506
507
508
509
51
510
511
512
513
514
515
516
517
518
519
52
520
521
522
523
524
525
526
527
528
529
53
530
531
532
533
534
535
536
537
538
539
54
540
541
542
543
544
545
546
547
548
549
55
550
551
552
553
554
555
556
557
558
559
56
560
561
562
563
564
565
566
567
568
569
57
570
571
572
573
574
575
576
577
578
579
58
580
581
582
583
584
585
586
587
588
589
59
590
591
592
593
594
595
596
597
598
599
6
60
600
6000
601
602
603
604
605
606
607
608
609
61
610
611
612
613
614
615
616
617
618
619
62
620
621
622
623
624
625
626
627
628
629
63
630
631
632
633
634
635
636
637
638
639
64
640
641
642
643
644
645
646
647
648
649
65
650
651
652
653
654
655
656
657
658
659
66
660
661
662
663
664
665
666
667
668
67
670
671
672
673
675
676
678
679
68
680
681
682
683
684
685
686
688
69
690
691
692
694
695
696
7
70
700
7000
701
702
703
704
705
706
707
708
709
71
710
711
712
713
714
715
716
717
718
72
720
721
722
723
724
725
726
727
728
729
73
730
731
732
733
735
737
738
74
740
741
742
744
745
747
75
750
751
753
754
755
757
76
760
762
765
767
768
77
770
772
774
775
777
78
780
785
786
787
79
790
8
80
800
8000
801
802
803
805
806
808
81
810
811
812
813
814
815
818
819
82
820
821
824
825
83
830
833
835
84
840
845
846
85
850
855
857
86
860
865
87
870
875
88
880
888
89
890
895
9
90
900
901
902
903
904
905
907
908
909
91
910
911
912
914
915
917
92
920
923
924
925
93
930
935
94
940
95
950
96
960
97
970
975
978
98
980
985
99
990
996
997
999
:
;
<
=
>
?
@
\
^
_
`
a
aa
aaa
aachen
aaf
aarhus
aaron
ab
aba
ababa
abandon
abandoned
abandoning
abandonment
abba
abbas
abbasid
abbe
abbey
abbot
abbott
abbreviated
abbreviation
abby
abc
abd
abdel
abdomen
abdominal
abducted
abduction
abdul
abdullah
abe
abel
aberdeen
abi
abide
abigail
abilities
ability
abingdon
abkhazia
able
abnormal
abnormalities
aboard
abode
abolish
abolished
abolition
abolitionist
aboriginal
abortion
abortions
about
above
abraham
abram
abrams
abroad
abrupt
abruptly
abs
absence
absent
absolute
absolutely
absorb
absorbed
absorbing
absorption
abstract
abstraction
absurd
abu
abundance
abundant
abuse
abused
abuses
abusing
abusive
abyss
ac
acacia
acade
academia
academic
academics
academies
academy
acc
accademia
accelerate
accelerated
accelerating
acceleration
accelerator
accent
accents
accept
acceptable
acceptance
accepted
accepting
accepts
access
accessed
accessibility
accessible
accessing
accession
accessories
accessory
accident
accidental
accidentally
accidents
acclaim
acclaimed
accolades
accommodate
accommodated
accommodation
accommodations
accompanied
accompanies
accompaniment
accompany
accompanying
accomplice
accomplish
accomplished
accomplishment
accomplishments
accord
accordance
accorded
according
accordingly
accordion
accords
account
accountability
accountable
accountant
accountants
accounted
accounting
accounts
accra
accreditation
accredited
accumulate
accumulated
accumulation
accuracy
accurate
accurately
accusation
accusations
accuse
accused
accuses
accusing
accustomed
ace
aces
acetate
achieve
achieved
achievement
achievements
achieves
achieving
achilles
acid
acidic
acids
acknowledge
acknowledged
acknowledges
acknowledging
acl
acm
acorn
acosta
acoustic
acquaintance
acquaintances
acquainted
acquire
acquired
acquires
acquiring
acquisition
acquisitions
acquitted
acre
acres
acronym
across
acs
act
acta
acted
acting
action
actions
activate
activated
activates
activation
active
actively
activism
activist
activists
activities
activity
acton
actor
actors
actress
actresses
acts
actual
actually
acute
ad
ada
adair
adam
adams
adamson
adapt
adaptation
adaptations
adapted
adapter
adapting
adaptive
add
added
addicted
addiction
adding
addis
addison
addition
additional
additionally
additions
additive
address
addressed
addresses
addressing
adds
ade
adelaide
adele
aden
adequate
adequately
adhere
adhered
adherence
adherents
adhesion
adi
adj
adjacent
adjective
adjectives
adjoining
adjudged
adjudication
adjunct
adjust
adjustable
adjusted
adjusting
adjustment
adjustments
adjutant
adler
administer
administered
administering
administers
administration
administrations
administrative
administratively
administrator
administrators
admirable
admiral
admirals
admiralty
admiration
admire
admired
admission
admissions
admit
admits
admitted
admitting
ado
adobe
adolescence
adolescent
adolescents
adolf
adolfo
adolph
adolphe
adopt
adopted
adopting
adoption
adoptive
adopts
adoration
adorned
adria
adrian
adriana
adriatic
ads
adult
adultery
adulthood
adults
adv
advance
advanced
advancement
advances
advancing
advantage
advantageous
advantages
advent
adventist
adventure
adventurer
adventures
adventurous
adversaries
adversary
adverse
adversely
advertised
advertisement
advertisements
advertiser
advertising
advice
advise
advised
adviser
advisers
advises
advising
advisor
advisors
advisory
advocacy
advocate
advocated
advocates
advocating
ae
aegean
aek
aerial
aero
aerodrome
aerodynamic
aeronautical
aeronautics
aeroplane
aerospace
aesthetic
aesthetics
aew
af
afar
afb
afc
affair
affairs
affect
affected
affecting
affection
affectionate
affections
affects
affidavit
affiliate
affiliated
affiliates
affiliation
affiliations
affinity
affirm
affirmation
affirmative
affirmed
affirming
afflicted
affliction
affluent
afford
affordable
afforded
afghan
afghanistan
afi
afl
afloat
afonso
aforementioned
aforesaid
afp
afraid
africa
african
africans
afrikaans
afro
aft
after
afterlife
aftermath
afternoon
afternoons
afterward
afterwards
ag
aga
again
against
agatha
age
aged
ageing
agencies
agency
agenda
agent
agents
ages
aggies
aggravated
aggregate
aggregation
aggregator
aggression
aggressive
aggressively
agile
aging
agitated
agitation
agnes
ago
agony
agra
agrarian
agree
agreeable
agreed
agreeing
agreement
agreements
agrees
agricultural
agriculture
aground
aguilar
aguilera
aguirre
agusti
ah
ahead
ahl
ahmad
ahmed
ahmedabad
ahn
ai
aichi
aid
aida
aidan
aide
aided
aiding
aids
aim
aime
aimed
aiming
aims
ain
air
airborne
airbus
aircraft
airdate
aired
aires
airfield
airfields
airing
airlift
airline
airliner
airlines
airmen
airplane
airplanes
airplay
airport
airports
airs
airship
airspace
airstrikes
airways
ais
aise
aisle
aisles
aitken
aix
aj
ajax
ajay
ak
aka
akademi
akbar
aki
akin
akira
akron
al
ala
alabama
aladdin
alain
alam
alameda
alamo
alan
alarm
alarmed
alas
alaska
alaskan
alastair
alba
alban
albania
albanian
albanians
albans
albany
albedo
albeit
albert
alberta
alberto
albion
albrecht
albright
album
albums
albuquerque
alchemy
alcohol
alcoholic
alcoholism
alden
alder
alderman
aldermen
aldershot
aldo
aldrich
ale
alec
alegre
alejandro
aleksandar
aleksandr
aleppo
alert
alerted
alessandro
alex
alexa
alexander
alexandra
alexandre
alexandria
alexandru
alexei
alexey
alexis
alf
alfa
alfonso
alfred
alfredo
algae
algebra
algebraic
algebras
alger
algeria
algerian
algiers
algorithm
algorithms
ali
alia
alias
alice
alicia
alien
alienated
alienation
aliens
align
alignbars
aligned
alignment
alike
alison
alistair
alive
alkaline
all
alla
allah
allan
alle
allegation
allegations
alleged
allegedly
alleges
allegheny
allegiance
alleging
allegorical
allegory
allegro
allen
allentown
allergic
alleviate
alley
alliance
alliances
allied
allies
alligator
allison
allmusic
allocated
allocation
allotment
allotted
allow
allowance
allowances
allowed
allowing
allows
alloy
alloys
alluded
alludes
allusion
alluvial
ally
alma
almanac
almeida
almighty
almond
almost
alms
alone
along
alongside
alonso
alonzo
aloud
alouettes
alp
alpes
alpha
alphabet
alphabetical
alphabetically
alphonse
alpine
alps
already
alright
als
alsace
also
alt
alta
altai
altar
altarpiece
altars
alter
alteration
alterations
altercation
altered
altering
alternate
alternately
alternating
alternative
alternatively
alternatives
although
altitude
altitudes
altman
alto
altogether
alton
aluminium
aluminum
alumni
alumnus
alvarado
alvarez
alveolar
alves
alvin
always
alzheimer
am
ama
amadeus
amalgamated
amalgamation
amanda
amar
amassed
amateur
amateurs
amazed
amazing
amazon
ambassador
ambassadors
amber
ambient
ambiguity
ambiguous
ambition
ambitions
ambitious
ambrose
ambulance
ambush
ambushed
amc
amd
ame
amelia
amen
amend
amended
amending
amendment
amendments
amenities
america
american
americana
americans
americas
ames
amherst
ami
amid
amidst
amiens
amiga
amin
amino
amir
amman
ammonia
ammunition
amnesia
amnesty
amon
among
amongst
amor
amore
amos
amount
amounted
amounting
amounts
amour
amp
amphibians
amphibious
ample
amplification
amplified
amplifier
amplifiers
amplitude
amr
amsterdam
amt
amtrak
amur
amusement
amusing
amy
an
ana
anaheim
anal
analog
analogous
analogue
analogy
analysed
analyses
analysis
analyst
analysts
analytic
analytical
analytics
analyze
analyzed
analyzing
anand
anarchism
anarchist
anarchists
anarchy
anastasia
anatolia
anatoly
anatomical
anatomy
anc
ancestor
ancestors
ancestral
ancestry
anchor
anchorage
anchored
anchors
ancient
and
andalusia
andean
anders
andersen
anderson
andersson
andes
andhra
andorra
andover
andrade
andre
andrea
andreas
andrei
andres
andretti
andrew
andrews
andrey
android
andrzej
andy
anecdotes
anemia
anew
ang
ange
angel
angela
angeles
angelica
angelina
angelo
angels
anger
angered
angers
angie
angle
angled
angles
anglia
anglican
anglo
angola
angolan
angrily
angry
anguish
angular
angus
anhalt
ani
animal
animals
animated
animation
animations
animator
anime
anita
anjou
ankara
ankle
ann
anna
annales
annals
annapolis
anne
annette
annex
annexation
annexed
annie
annihilation
anniversary
anno
annotated
announce
announced
announcement
announcements
announcer
announcers
announces
announcing
annoyed
annual
annually
annulled
annum
annunciation
anomalies
anomaly
anonymous
anonymously
another
ans
anson
answer
answered
answering
answers
ant
antagonist
antagonists
antarctic
antarctica
ante
antelope
antenna
antennae
antennas
anterior
anthem
anthologies
anthology
anthony
anthropological
anthropologist
anthropology
anthropomorphic
anti
antibiotic
antibiotics
antibodies
antibody
anticipated
anticipation
antigen
antigua
antilles
antioch
antiochus
antiquarian
antique
antiques
antiquities
antiquity
antisemitic
antisemitism
antitrust
anto
antoine
antoinette
anton
antoni
antonia
antonio
antony
antrim
ants
antwerp
anu
anwar
anxiety
anxious
any
anybody
anymore
anyone
anything
anyway
anywhere
anzac
ao
ap
apa
apache
apart
apartheid
apartment
apartments
apc
ape
apertura
aperture
apes
apex
aphia
api
apical
apocalypse
apocalyptic
apollo
apologize
apologized
apology
apoptosis
apostle
apostles
apostolic
app
appalachian
apparatus
apparel
apparent
apparently
appeal
appealed
appealing
appeals
appear
appearance
appearances
appeared
appearing
appears
appellant
appellants
appellate
appellee
appendix
appetite
applauded
applause
apple
apples
appleton
appliances
applicable
applicant
applicants
application
applications
applied
applies
apply
applying
appoint
appointed
appointing
appointment
appointments
appoints
appraisal
appreciate
appreciated
appreciation
apprehended
apprehension
apprentice
apprenticeship
approach
approached
approaches
approaching
appropriate
appropriated
appropriately
appropriation
appropriations
approval
approve
approved
approves
approving
approx
approximate
approximately
approximation
apps
apr
april
apron
apse
apt
aqua
aquaculture
aquarium
aquatic
aquatics
aqueduct
aqueous
aquila
aquinas
aquino
aquitaine
ar
ara
arab
arabia
arabian
arabic
arable
arabs
aragon
aramaic
araneta
arbitrarily
arbitrary
arbitration
arbor
arboretum
arc
arca
arcade
arcades
arcadia
arch
archaeological
archaeologist
archaeologists
archaeology
archaic
archangel
archbishop
archdeacon
archdiocese
archduke
arched
archeological
archer
archers
archery
arches
archibald
archie
archipelago
architect
architects
architectural
architecture
archival
archive
archived
archives
arcs
arctic
ard
arden
ardent
are
area
areas
aren
arena
arenas
ares
arg
argent
argentina
argentine
argentinian
argonauts
arguably
argue
argued
argues
arguing
argument
arguments
argus
argyle
argyll
ari
aria
arias
arid
ariel
aris
arise
arisen
arises
arising
aristocracy
aristocrat
aristocratic
aristotle
arithmetic
arizona
arjun
ark
arkansas
arlington
arm
armada
armagh
armament
armaments
armand
armando
arme
armed
armenia
armenian
armenians
armies
armistice
armor
armored
armory
armour
armoured
arms
armstrong
army
arnaud
arne
arnhem
arno
arnold
aromatic
arose
around
aroused
arr
arrange
arranged
arrangement
arrangements
arranger
arranges
arranging
arras
array
arrays
arrest
arrested
arresting
arrests
arrival
arrivals
arrive
arrived
arrives
arriving
arrogant
arrondissement
arrow
arrows
arroyo
ars
arsenal
arsenic
arson
art
arte
artefacts
artemis
arterial
arteries
artery
artes
arthritis
arthur
article
articles
articulated
articulation
artifact
artifacts
artificial
artificially
artillery
artisans
artist
artistic
artists
arts
artur
arturo
artwork
artworks
arun
arundel
aryan
as
asa
asahi
asbestos
asbury
ascend
ascended
ascending
ascension
ascent
ascertain
ascertained
ascot
ascribed
asean
ash
asha
ashamed
ashanti
ashby
asher
ashes
asheville
ashford
ashland
ashley
ashok
ashore
ashton
asi
asia
asian
asians
asiatic
aside
ask
asked
asking
asks
asleep
asp
aspect
aspects
aspen
asphalt
aspiration
aspirations
aspiring
aspx
ass
assad
assam
assassin
assassinate
assassinated
assassination
assassins
assault
assaulted
assaulting
assaults
assemblage
assemble
assembled
assemblies
assembling
assembly
assemblyman
assent
assert
asserted
asserting
assertion
asserts
assess
assessed
assessing
assessment
assessments
asset
assets
assign
assigned
assigning
assignment
assignments
assigns
assimilated
assimilation
assist
assistance
assistant
assistants
assisted
assisting
assists
associate
associated
associates
association
associations
assume
assumed
assumes
assuming
assumption
assumptions
assurance
assure
assured
assyria
assyrian
assyrians
ast
asteroid
asteroids
asthma
aston
astonished
astonishing
astonishment
astor
astoria
astra
astral
astro
astrology
astronaut
astronauts
astronomer
astronomers
astronomical
astronomy
astrophysics
astros
asturias
asylum
asymmetric
at
ata
atari
ate
atelier
atf
athanasius
atheism
atheist
athena
athenian
athenians
athens
atherton
athlete
athletes
athletic
athletics
atkins
atkinson
atlanta
atlantic
atlantis
atlas
atle
atm
atmosphere
atmospheric
atoll
atom
atomic
atoms
atonement
atop
atp
atrium
atrocities
att
attach
attache
attached
attaching
attachment
attack
attacked
attacker
attackers
attacking
attacks
attain
attained
attaining
attainment
attains
attempt
attempted
attempting
attempts
attend
attendance
attendant
attendants
attended
attendees
attending
attends
attention
attested
attic
attila
attire
attitude
attitudes
attorney
attorneys
attract
attracted
attracting
attraction
attractions
attractive
attracts
attributable
attribute
attributed
attributes
attribution
atv
au
aubrey
auburn
auckland
auction
auctioned
auctions
audi
audible
audience
audiences
audio
audit
audition
auditioned
auditions
auditor
auditorium
auditory
audrey
auf
aug
augmented
augsburg
august
augusta
auguste
augustin
augustine
augustinian
augusto
augustus
aung
aunt
aur
aura
aurora
aus
auschwitz
auspices
austen
austerity
austin
australasia
australasian
australia
australian
australians
australis
austria
austrian
austrians
austro
authentic
authentication
authenticity
author
authored
authorised
authoritarian
authoritative
authorities
authority
authorization
authorize
authorized
authorizing
authors
authorship
autism
auto
autobiographical
autobiography
automated
automatic
automatically
automation
automobile
automobiles
automotive
autonomous
autonomy
autopsy
autumn
auvergne
aux
auxiliary
av
ava
avail
availability
available
avalanche
avalon
avant
avatar
ave
avec
avenge
avenger
avengers
avenue
avenues
average
averaged
averages
averaging
avery
avg
avian
aviation
aviator
avid
avignon
aviv
avoid
avoidance
avoided
avoiding
avoids
avon
avro
aw
awa
await
awaited
awaiting
awake
awakened
awakening
awakens
award
awarded
awarding
awards
aware
awareness
away
awe
awesome
awful
awkward
ax
axe
axel
axes
axial
axiom
axis
axle
ay
ayala
aye
ayr
ayrshire
az
azad
azerbaijan
azerbaijani
aziz
azores
aztec
azul
azure
b
ba
bab
baba
babcock
babe
babies
babu
baby
babylon
babylonian
bac
baccalaureate
bach
bachelor
back
backbone
backdrop
backed
background
backgrounds
backing
backlash
backs
backstage
backstroke
backup
backward
backwards
backyard
bacon
bacteria
bacterial
bacterium
bad
bade
baden
badge
badger
badgers
badges
badly
badminton
bae
baer
bafta
bag
baggage
baghdad
bags
baha
bahadur
bahamas
bahia
bahn
bahrain
bai
bail
bailey
bain
baird
bait
baja
baked
baker
bakersfield
bakery
baking
bakr
baku
bal
bala
balance
balanced
balances
balancing
balcony
bald
baldwin
bale
balfour
bali
balkan
balkans
ball
ballad
ballads
ballarat
ballard
ballast
ballet
ballistic
balloon
balloons
ballot
ballots
ballpark
ballroom
balls
balochistan
baltic
baltimore
bam
bamboo
ban
banana
bananas
banco
bancroft
band
banda
bandar
banded
bandit
bandits
bandleader
bands
bandwidth
bane
banerjee
bang
bangalore
bangkok
bangladesh
bangladeshi
bangor
bani
banished
banjo
bank
banker
bankers
banking
banknotes
bankrupt
bankruptcy
banks
banned
banner
banners
banning
banquet
bans
bantamweight
bantu
banu
bao
baptised
baptism
baptist
baptiste
baptists
baptized
bar
bara
barack
barangay
barangays
barbados
barbara
barbarian
barbarians
barbarossa
barbed
barber
barbera
barbie
barcelona
barclay
barclays
bard
bare
barefoot
barely
bargain
bargaining
barge
barges
bari
baritone
bark
barker
barking
barkley
barley
barlow
barn
barnabas
barnard
barnes
barnet
barnett
barney
barns
barnsley
baron
baroness
baronet
baronetage
baronetcy
baronets
barons
barony
baroque
barr
barra
barracks
barrage
barre
barred
barrel
barrels
barren
barrett
barrie
barrier
barriers
barrington
barrio
barrios
barrister
barron
barrow
barry
bars
bart
bartender
bartholomew
bartlett
barton
bas
basal
basalt
base
baseball
based
basel
baseline
baseman
basement
bases
bash
bashir
basic
basically
basics
basil
basilica
basin
basins
basis
basket
basketball
baskets
basque
basra
bass
bassett
bassist
bassoon
bastard
bastien
bastion
bat
batavia
batch
bateman
bates
bath
bathing
bathroom
baths
bathurst
batista
batman
baton
bats
batsman
battalion
battalions
batted
batter
battered
batteries
batters
battery
batting
battista
battle
battled
battlefield
battles
battleship
battleships
battling
bauer
baum
bautista
bavaria
bavarian
baxter
bay
bayer
bayern
baylor
bayonet
bayou
bays
bazaar
bazar
bb
bbc
bc
bce
bcs
bd
bde
be
bea
beach
beaches
beacon
beads
beak
beale
beam
beams
bean
beans
bear
beard
bearded
bearer
bearers
bearing
bearings
bears
beast
beasts
beat
beaten
beating
beatles
beatrice
beats
beatty
beau
beauchamp
beaufort
beaumont
beautiful
beautifully
beauty
beaux
beaver
beavers
bec
became
because
beck
becker
beckett
becky
become
becomes
becoming
bed
bede
bedford
bedfordshire
bedouin
bedrock
bedroom
bedrooms
beds
bee
beech
beef
been
beer
beers
bees
beethoven
beetle
beetles
bef
before
beforehand
befriended
befriends
beg
began
beggar
begged
begging
begin
beginning
beginnings
begins
begotten
begs
begum
begun
behalf
behave
behaved
behavior
behavioral
behaviors
behaviour
beheaded
beheld
behest
behind
behold
bei
beijing
being
beings
beirut
beit
bel
bela
belarus
belarusian
belfast
belgian
belgium
belgrade
belief
beliefs
believe
believed
believer
believers
believes
believing
belinda
belize
bell
bella
bellamy
bellator
belle
belleville
bellevue
bellied
bello
bells
belly
belmont
belong
belonged
belonging
belongings
belongs
beloved
below
belt
belts
ben
bench
benches
benchmark
bend
bender
bendigo
bending
bends
beneath
benedict
benedictine
benefactor
beneficial
beneficiaries
beneficiary
benefit
benefited
benefits
benevolent
benfica
bengal
bengali
bengals
bengaluru
beni
benign
benin
benito
benjamin
bennet
bennett
benny
benoit
benson
bent
bentley
benton
benz
beograd
bequeathed
ber
berber
berg
bergen
berger
bergman
berkeley
berkshire
berlin
berliner
berman
bermuda
bern
bernard
bernardino
bernardo
bernhard
bernie
bernstein
berries
berry
bert
berth
bertha
bertie
bertram
bertrand
berwick
bes
beside
besides
besieged
bess
bessie
best
bestowed
bests
bestseller
bet
beta
beth
bethany
bethel
bethesda
bethlehem
bethune
betray
betrayal
betrayed
betsy
better
betting
betty
between
beverage
beverages
beverley
beverly
beware
bey
beyonce
beyond
bf
bg
bharat
bharatiya
bhutan
bhutto
bi
bianca
bias
biased
biathlon
bible
biblical
bibliography
bibliothe
bicentennial
bicycle
bicycles
bid
bidding
biden
bids
bie
bieber
bien
biennale
biennial
big
bigger
biggest
bihar
bike
bikes
biking
bikini
bilateral
bilbao
bilingual
bill
billboard
billboards
billed
billie
billing
billings
billion
billionaire
billions
bills
billy
bin
binary
bind
binding
binds
bing
bingen
bingham
binghamton
bingo
bio
biochemical
biochemistry
biodiversity
biographer
biographical
biographies
biography
biolib
biological
biologist
biology
biomass
biomedical
biosphere
biotechnology
bipartisan
biplane
bipolar
bir
birch
bird
birds
birmingham
birth
birthday
birthplace
births
bis
bisexual
bishop
bishopric
bishops
bismarck
bison
bissau
bit
bitch
bite
bites
biting
bits
bitten
bitter
bitterly
bitterness
bizarre
bjo
bjp
bk
bl
bla
black
blackburn
blackhawks
blackish
blackmail
blackout
blackpool
blacks
blacksmith
blackstone
blackwell
blackwood
bladder
blade
blades
blaine
blair
blake
blame
blamed
blames
blaming
blanc
blanca
blanchard
blanche
blanco
bland
blank
blanket
blankets
blasphemy
blast
blasts
blaze
blazers
blazing
bleak
bleed
bleeding
blend
blended
blending
blends
bless
blessed
blessing
blessings
blew
blind
blinded
blindness
bliss
blitz
blizzard
bloc
bloch
block
blockade
blockbuster
blocked
blocking
blocks
blog
blogger
blogs
blond
blonde
blood
bloody
bloom
bloomberg
bloomfield
bloomington
blooms
bloomsbury
blossom
blossoms
blount
blow
blowing
blown
blows
blu
blue
bluegrass
blueprint
blues
bluetooth
bluff
blum
blunt
blvd
blyth
bm
bmatrix
bmg
bmi
bmw
bmx
bn
bner
bo
boa
boar
board
boarded
boarding
boards
boardwalk
boast
boasted
boasts
boat
boating
boats
bob
bobby
boca
bodied
bodies
bodily
body
bodyguard
boeing
boer
bog
bogdan
bogota
bohemia
bohemian
boiled
boiler
boilers
boiling
bois
boise
bold
boldly
boldsymbol
boli
bolivia
bolivian
bollywood
bologna
bolshevik
bolsheviks
bolster
bolt
bolton
bolts
bomb
bombarded
bombardier
bombardment
bombay
bombed
bomber
bombers
bombing
bombings
bombs
bon
bona
bonaparte
bond
bondage
bonded
bonding
bonds
bone
bones
bong
boniface
bonn
bonner
bonnet
bonnie
bono
bonus
bonuses
bony
boo
boogie
book
booked
booker
booking
booklet
books
bookstore
boom
boomerang
boon
boone
boost
boosted
booster
boot
booth
boots
booty
bop
bor
bora
bordeaux
borden
border
bordered
bordering
borders
bore
bored
borg
boring
boris
born
borne
borneo
borough
boroughs
borrow
borrowed
borrowing
borussia
bos
bosch
bosco
bose
bosnia
bosnian
bosom
boss
bosses
boston
boswell
bot
botanic
botanical
botanist
botany
both
botswana
bottle
bottles
bottom
boucher
bought
boulder
boulders
boulevard
boulogne
bounce
bounced
bound
boundaries
boundary
bounded
bounds
bounty
bourbon
bourgeois
bourke
bourne
bournemouth
bout
boutique
bouts
bow
bowden
bowed
bowen
bower
bowers
bowie
bowl
bowled
bowler
bowlers
bowles
bowling
bowls
bowman
bows
box
boxed
boxer
boxers
boxes
boxing
boy
boyce
boycott
boyd
boyer
boyfriend
boyle
boys
boyz
boz
bp
br
bra
brabant
brace
bracket
brackets
brad
bradbury
bradford
bradley
bradshaw
brady
braga
bragg
brahma
brahman
brahmin
brahms
brain
brains
brake
brakes
braking
brampton
branch
branched
branches
branching
brand
branded
brandeis
brandenburg
branding
brandon
brands
brandt
brandy
brant
bras
brasil
brasileiro
brass
bratislava
braun
braunschweig
brave
bravery
braves
bravo
brawl
braxton
bray
brazil
brazilian
bre
breach
breached
breaches
bread
breadth
break
breakaway
breakdown
breaker
breakers
breakfast
breaking
breakout
breaks
breakthrough
breakup
breast
breasted
breasts
breaststroke
breath
breathe
breathing
bred
breda
breech
breed
breeder
breeders
breeding
breeds
breeze
bremen
brenda
brendan
brennan
brent
brentford
brescia
breslau
brest
bret
brethren
breton
brett
breuning
brevet
brew
brewer
breweries
brewers
brewery
brewing
brewster
brexit
brian
bribe
bribery
bribes
brick
bricks
bride
bridge
bridgehead
bridgeport
bridges
bridget
bridgewater
bridging
brief
briefing
briefly
brien
brig
brigade
brigades
brigadier
briggs
brigham
bright
brighter
brightest
brightly
brightness
brighton
brigitte
brill
brilliant
bring
bringing
brings
brink
brisbane
bristol
brit
britain
britannia
britannica
british
britney
britons
britt
brittany
britten
britton
brno
bro
broad
broadband
broadcast
broadcaster
broadcasters
broadcasting
broadcasts
broader
broadly
broadway
brock
brodie
brody
broke
broken
broker
brokers
bromley
bromwich
broncos
bronson
bronx
bronze
brood
brook
brooke
brooklyn
brooks
broom
bros
brothel
brother
brotherhood
brothers
brought
broughton
brow
brown
browne
browning
brownish
browns
browser
bru
bruce
bruges
bruins
brunei
bruno
brunswick
brush
brussels
brutal
brutality
brutally
brute
brutus
bryan
bryant
bryce
bryn
bs
bsc
bt
bty
bu
bubble
bubbles
buccaneers
buchanan
bucharest
buck
bucket
buckingham
buckinghamshire
buckley
bucks
bucures
bud
budapest
budd
buddha
buddhism
buddhist
buddhists
buddy
budget
budgetary
budgets
buds
buena
buenos
buff
buffalo
buffer
buffy
bug
bugs
buick
build
builder
builders
building
buildings
builds
buildup
built
bukit
bulb
bulbs
bulgaria
bulgarian
bulgarians
bulge
bulk
bull
bulldog
bulldogs
bullet
bulletin
bulletins
bullets
bullock
bullpen
bulls
bully
bullying
bump
bumper
bun
bunch
bundesliga
bundestag
bundle
bundled
bundles
bungalow
bunker
bunkers
bunny
burbank
burden
burdens
bureau
bureaucracy
bureaucratic
buren
burger
burgess
burgh
burgos
burgundy
burial
burials
buried
burke
burkina
burlesque
burlington
burma
burmese
burn
burned
burnett
burnham
burning
burnley
burns
burnside
burnt
burr
burrell
burroughs
burrow
burrows
burst
bursts
burt
burton
burundi
bury
burying
bus
busan
busch
buses
bush
bushes
busiest
business
businesses
businessman
businessmen
businesswoman
bust
buster
busy
but
butch
butcher
bute
butler
butt
butte
butter
butterfield
butterflies
butterfly
button
buttons
buxton
buy
buyer
buyers
buying
buyout
buys
buzz
bwf
bwv
by
bydgoszcz
bye
bypass
bypassed
bypassing
byrd
byrne
byron
byte
bytes
byu
byzantine
byzantines
byzantium
c
ca
caa
cab
cabaret
cabbage
cabin
cabinet
cabinets
cabins
cable
cables
cabo
cabot
cabrera
cache
cactus
cad
cadet
cadets
cadillac
cadre
caen
caesar
caf
cafe
cafeteria
cage
cahill
cai
cain
caine
cairns
cairo
cake
cakes
cal
calabria
calais
calamity
calcio
calcium
calculate
calculated
calculating
calculation
calculations
calculus
calcutta
calder
caldera
caldero
caldwell
cale
caleb
caledonia
caledonian
calendar
calf
calgary
calhoun
cali
caliber
calibre
california
caliph
caliphate
call
callaghan
callahan
calle
called
caller
calligraphy
calling
calls
calm
calvary
calvert
calvin
cam
cambodia
cambodian
cambrian
cambridge
cambridgeshire
camden
came
camel
camels
cameo
camera
cameras
cameron
cameroon
camilla
camille
camino
camouflage
camp
campaign
campaigned
campaigner
campaigning
campaigns
campbell
camped
campeonato
camping
campo
campos
camps
campus
campuses
can
canaan
canada
canadian
canadians
canadiens
canal
canals
canary
canberra
cancel
canceled
cancellation
cancelled
cancer
cancers
candidacy
candidate
candidates
candle
candles
candy
cane
cannabis
cannes
canning
cannon
cannons
cannot
canoe
canoeing
canoes
canon
canonical
canons
canopy
cans
cantata
canterbury
canto
canton
cantonese
cantons
cantor
canucks
canvas
canyon
cao
cap
capabilities
capability
capable
capacities
capacitor
capacity
capcom
cape
capita
capital
capitalism
capitalist
capitals
capitol
capo
capped
cappella
caps
capsule
capt
captain
captaincy
captained
captains
caption
captive
captives
captivity
capture
captured
captures
capturing
car
cara
caracas
caravan
carbon
carbonate
carcinoma
card
cardboard
cardiac
cardiff
cardinal
cardinals
cardiovascular
cards
care
cared
career
careers
careful
carefully
careless
cares
caretaker
carex
carey
cargo
caribbean
caribou
caring
carl
carla
carleton
carlisle
carlo
carlos
carlson
carlton
carly
carlyle
carmel
carmen
carmichael
carnage
carnegie
carney
carnival
caro
carol
carole
carolina
caroline
carolyn
carousel
carp
carpenter
carpenters
carpet
carpets
carr
carrera
carriage
carriages
carriageway
carrie
carried
carrier
carriers
carries
carrington
carroll
carry
carrying
cars
carson
cart
cartagena
carte
cartel
carter
carthage
cartier
cartilage
cartoon
cartoonist
cartoons
cartridge
cartridges
carts
cartwright
carvalho
carved
carver
carving
carvings
cary
cas
casa
casablanca
casas
cascade
cascades
case
cases
casey
cash
casimir
casino
casinos
casper
caspian
cass
cassandra
cassette
cassidy
cassie
cassius
cast
caste
castello
castes
castile
castillo
casting
castle
castles
castor
castro
casts
casual
casualties
casualty
cat
catalan
catalina
catalog
catalogue
catalonia
catalunya
catalyst
catalytic
catania
catarina
catastrophe
catastrophic
catch
catcher
catches
catching
catchment
catchy
catechism
categories
categorized
category
cater
catering
caterpillar
catfish
cathedral
cathedrals
catherine
cathode
catholic
catholicism
catholics
cathy
cato
cats
cattle
caucasian
caucasus
caucus
caudal
caught
causal
cause
caused
causes
causeway
causing
caution
cautious
cavalier
cavaliers
cavalry
cavan
cave
cavendish
caves
cavity
cayman
cb
cbc
cbd
cbe
cbi
cbn
cbs
cc
ccc
ccp
cctv
cd
cdc
cdot
cdots
cdp
cds
cdu
ce
cease
ceased
ceasefire
ceases
cebu
cecil
cecilia
cedar
ceded
cedric
ceiling
ceilings
celebrate
celebrated
celebrates
celebrating
celebration
celebrations
celebrities
celebrity
celeste
celestial
celia
cell
cellar
cellist
cello
cells
cellular
celtic
celtics
cement
cemented
cemeteries
cemetery
cena
censor
censored
censorship
censure
census
cent
centenary
centennial
center
centered
centers
centimeters
central
centralized
centrally
centre
centred
centres
centric
centro
cents
centuries
century
ceo
cerambycidae
ceramic
ceramics
cereal
cerebral
ceremonial
ceremonies
ceremony
ceres
cerro
certain
certainly
certainty
certificate
certificates
certification
certifications
certified
certiorari
cervical
ces
cesar
cesare
cessation
cessna
ceylon
cf
cfa
cfl
cfr
cg
cgi
ch
cha
chaco
chad
chadwick
chai
chaim
chain
chains
chair
chaired
chairman
chairmanship
chairmen
chairperson
chairs
chalk
challenge
challenged
challenger
challengers
challenges
challenging
chalmers
cham
chamber
chamberlain
chambers
champ
champagne
champaign
champion
championed
champions
championship
championships
champlain
champs
chan
chance
chancel
chancellor
chancery
chances
chand
chandigarh
chandler
chandra
chang
change
changed
changes
changing
channel
channels
chant
chanting
chants
chao
chaos
chaotic
chap
chapel
chapelle
chapels
chaplain
chaplains
chaplin
chapman
chappell
chapter
chapters
char
character
characterised
characteristic
characteristics
characterization
characterize
characterized
characters
charcoal
charge
charged
charger
chargers
charges
charging
chariot
charismatic
charitable
charities
charity
charlemagne
charles
charleston
charley
charlie
charlotte
charlottesville
charlton
charm
charming
charms
chart
charted
charter
chartered
charters
charting
charts
chase
chased
chases
chasing
chassis
chastity
chat
chateau
chatham
chattanooga
chatterjee
chaucer
chavez
che
cheap
cheaper
cheat
cheating
chechen
check
checked
checking
checklist
checkpoint
checks
cheek
cheeks
cheer
cheerful
cheerleading
cheers
cheese
chef
chefs
chelmsford
chelsea
cheltenham
chem
chemical
chemically
chemicals
chemist
chemistry
chemotherapy
chen
cheney
cheng
chengdu
chennai
cher
cherokee
cherry
cheryl
chesapeake
cheshire
chess
chest
chester
chesterfield
chestnut
chet
cheung
chevalier
chevrolet
chevron
chew
cheyenne
chi
chiang
chiba
chicago
chichester
chick
chicken
chickens
chicks
chico
chief
chiefly
chiefs
chieftain
chihuahua
child
childbirth
childhood
childish
childless
children
chile
chilean
chili
chill
chimney
chimneys
chin
china
chinatown
chinese
ching
chip
chips
chisholm
chittagong
chloe
chloride
chlorine
cho
chocolate
choctaw
choi
choice
choices
choir
choirs
choke
chola
cholera
cholesterol
chong
chongqing
choose
chooses
choosing
chop
chopin
chopped
chopra
choral
chorale
chord
chords
choreographed
choreographer
choreography
chorus
chose
chosen
chow
chowdhury
chr
chre
chris
christ
christchurch
christened
christensen
christi
christian
christianity
christians
christie
christina
christine
christmas
christoph
christophe
christopher
christy
chromatic
chrome
chromium
chromosome
chromosomes
chronic
chronicle
chronicler
chronicles
chronological
chronology
chrysler
chu
chuck
chun
chung
church
churches
churchill
churchyard
ci
cia
cicero
cid
cider
cie
cigar
cigarette
cigarettes
cincinnati
cinderella
cindy
cine
cinema
cinemas
cinematic
cinematographer
cinematography
cinnamon
cio
cipher
cir
circ
circa
circle
circles
circuit
circuits
circular
circulated
circulating
circulation
circumcision
circumference
circumstance
circumstances
circus
cis
cisco
cit
citadel
citation
citations
cite
cited
cites
cities
citing
citizen
citizens
citizenship
citroe
citrus
citta
city
ciudad
civic
civil
civilian
civilians
civilisation
civilization
civilizations
civilized
cj
ck
cke
cken
cl
cla
clad
clade
claim
claimant
claimants
claimed
claiming
claims
clair
claire
clan
clancy
clandestine
clans
clapton
clara
clare
claremont
clarence
clarendon
clarified
clarify
clarinet
clarity
clark
clarke
clarkson
clash
clashed
clashes
class
classed
classes
classic
classical
classics
classification
classifications
classified
classify
classmate
classmates
classroom
classrooms
claude
claudia
claudio
claudius
claus
clause
clauses
clausura
claw
claws
clay
clayton
cle
clean
cleaned
cleaner
cleaning
cleansing
cleanup
clear
clearance
cleared
clearer
clearing
clearly
clearwater
cleavage
clemens
clement
clemente
clements
clemson
cleopatra
clergy
clergyman
cleric
clerical
clerics
clerk
clerks
clermont
cleveland
clever
cliche
click
client
clients
cliff
clifford
cliffs
clifton
climate
climates
climatic
climax
climb
climbed
climber
climbers
climbing
climbs
clinch
clinched
cline
clinic
clinical
clinics
clint
clinton
clio
clip
clipper
clippers
clips
clive
cloak
clock
clocks
clockwise
cloister
clone
clones
close
closed
closely
closer
closes
closest
closet
closing
closure
closures
cloth
clothed
clothes
clothing
cloud
clouds
cloudy
clover
clown
club
clube
clubhouse
clubs
clue
clues
cluj
clumsy
cluster
clustered
clusters
clutch
clyde
cm
cmll
cms
cn
cnn
co
coa
coach
coached
coaches
coaching
coadjutor
coal
coalition
coarse
coast
coastal
coaster
coastline
coasts
coat
coated
coates
coating
coats
cobalt
cobb
cobra
coburg
coca
cocaine
cochin
cochran
cochrane
cock
cockpit
cocktail
coco
cocoa
coconut
cod
coda
code
coded
codes
codex
codified
coding
cody
coe
coefficient
coefficients
coercion
coffee
coffin
cognition
cognitive
cohen
coherent
cohesion
cohn
cohort
coil
coils
coin
coinage
coincide
coincided
coincidence
coincidentally
coinciding
coined
coins
coke
col
cola
colbert
colby
colchester
cold
colder
coldest
cole
colegio
coleman
coleophora
coleridge
coles
coli
colin
coliseum
coll
collaborate
collaborated
collaborating
collaboration
collaborations
collaborative
collaborator
collaborators
collage
collapse
collapsed
collapses
collapsing
collar
collateral
colle
colleague
colleagues
collect
collected
collecting
collection
collections
collective
collectively
collector
collectors
collects
colleen
college
colleges
collegiate
collided
collier
colliery
collin
collingwood
collins
collision
collisions
colloquial
colloquially
colo
cologne
colombia
colombian
colombo
colon
colonel
colonels
colonia
colonial
colonialism
colonies
colonists
colonization
colony
color
colorado
coloration
colored
colorful
coloring
colors
colossal
colour
coloured
colourful
colours
colt
colts
columbia
columbian
columbus
column
columnist
columns
com
coma
comanche
comb
combat
combatant
combatants
combating
combination
combinations
combine
combined
combines
combining
combo
combs
combustion
comcast
come
comeback
comedian
comedians
comedic
comedies
comedy
comes
comet
cometh
comets
comfort
comfortable
comfortably
comforts
comic
comics
coming
comm
command
commandant
commanded
commander
commanders
commanding
commandment
commandments
commando
commandos
commands
commemorate
commemorated
commemorates
commemorating
commemoration
commemorative
commence
commenced
commencement
commencing
commendation
commended
comment
commentaries
commentary
commentator
commentators
commented
commenting
comments
commerce
commercial
commercially
commercials
commission
commissioned
commissioner
commissioners
commissioning
commissions
commit
commitment
commitments
commits
committed
committee
committees
committing
commodities
commodity
commodore
common
commonly
commonplace
commons
commonwealth
communal
commune
communes
communicate
communicated
communicating
communication
communications
communion
communism
communist
communists
communities
community
commute
commuted
commuter
commuters
como
comp
compact
companies
companion
companions
company
comparable
comparative
comparatively
compare
compared
compares
comparing
comparison
comparisons
compartment
compartments
compass
compassion
compassionate
compatibility
compatible
compatriot
compel
compelled
compelling
compendium
compensate
compensated
compensation
compete
competed
competence
competent
competes
competing
competition
competitions
competitive
competitiveness
competitor
competitors
compilation
compilations
compile
compiled
compiler
compiling
complain
complainant
complainants
complained
complaining
complaint
complaints
complement
complementary
complemented
complete
completed
completely
completes
completing
completion
complex
complexes
complexity
compliance
compliant
complicated
complications
complied
complimented
comply
component
components
compose
composed
composer
composers
composing
composite
composition
compositions
compound
compounded
compounds
comprehend
comprehension
comprehensive
compressed
compression
compressor
comprise
comprised
comprises
comprising
compromise
compromised
compton
comptroller
compulsory
computation
computational
compute
computed
computer
computers
computing
comrade
comrades
comte
comune
con
conan
concacaf
concave
conceal
concealed
conceded
conceding
conceive
conceived
concentrate
concentrated
concentrating
concentration
concentrations
concept
conception
conceptions
concepts
conceptual
concern
concerned
concerning
concerns
concert
concerto
concertos
concerts
concession
concessions
concise
conclude
concluded
concludes
concluding
conclusion
conclusions
conclusive
concord
concordia
concourse
concrete
concubine
concurrency
concurrent
concurrently
concurring
concussion
conde
condemn
condemnation
condemned
condemning
condensed
condition
conditional
conditioned
conditioning
conditions
condolences
condominium
condor
conduct
conducted
conducting
conductivity
conductor
conductors
conducts
cone
cones
coney
confederacy
confederate
confederates
confederation
confer
conference
conferences
conferred
confess
confessed
confesses
confession
confessions
confessor
confidence
confident
confidential
configuration
configurations
configured
confined
confinement
confirm
confirmation
confirmed
confirming
confirms
confiscated
confiscation
conflict
conflicting
conflicts
confluence
conform
conformity
confront
confrontation
confronted
confronting
confronts
confucian
confused
confusing
confusion
cong
congenital
congestion
conglomerate
congo
congolese
congregation
congregational
congregations
congress
congresses
congressional
congressman
conical
conjecture
conjunction
conley
conn
connacht
connect
connected
connecticut
connecting
connection
connections
connectivity
connector
connects
connell
conner
connie
connolly
connor
connors
conor
conquer
conquered
conquering
conqueror
conquest
conquests
conrad
conscience
conscientious
conscious
consciously
consciousness
conscription
consecrated
consecration
consecutive
conseil
consensus
consent
consented
consequence
consequences
consequent
consequently
conservancy
conservation
conservatism
conservative
conservatives
conservatoire
conservatory
conserve
conserved
consider
considerable
considerably
consideration
considerations
considered
considering
considers
consist
consisted
consistency
consistent
consistently
consisting
consists
consolation
console
consoles
consolidate
consolidated
consolidation
consonant
consonants
consort
consortium
conspicuous
conspiracy
conspirators
constable
constabulary
constance
constant
constantin
constantine
constantinople
constantly
constants
constellation
constituencies
constituency
constituent
constituents
constitute
constituted
constitutes
constituting
constitution
constitutional
constitutionality
constitutionally
constitutions
constrained
constraint
constraints
construct
constructed
constructing
construction
constructions
constructive
constructors
constructs
construed
consul
consular
consulate
consuls
consult
consultancy
consultant
consultants
consultation
consultations
consultative
consulted
consulting
consume
consumed
consumer
consumers
consuming
consumption
contact
contacted
contacts
contain
contained
container
containers
containing
containment
contains
contaminated
contamination
conte
contemplated
contemplation
contemporaneous
contemporaries
contemporary
contempt
contend
contended
contender
contenders
contends
content
contention
contentious
contents
contest
contestant
contestants
contested
contesting
contests
context
contexts
contiguous
continent
continental
continents
contingency
contingent
continual
continually
continuance
continuation
continue
continued
continues
continuing
continuity
continuous
continuously
continuum
contour
contra
contract
contracted
contracting
contraction
contractor
contractors
contracts
contractual
contradicted
contradiction
contradictory
contrary
contrast
contrasted
contrasting
contrasts
contribute
contributed
contributes
contributing
contribution
contributions
contributor
contributors
control
controlled
controller
controllers
controlling
controls
controversial
controversially
controversies
controversy
conus
convection
convened
convenience
convenient
convent
convention
conventional
conventions
converge
convergence
conversation
conversations
converse
conversely
conversion
conversions
convert
converted
converter
convertible
converting
converts
convex
convey
conveyance
conveyed
conveying
convict
convicted
conviction
convictions
convicts
convince
convinced
convinces
convincing
convocation
convoy
convoys
conway
coo
cook
cookbook
cooke
cooked
cookie
cookies
cooking
cooks
cool
cooled
cooler
cooley
coolidge
cooling
cooper
cooperate
cooperated
cooperation
cooperative
cooperatives
coordinate
coordinated
coordinates
coordinating
coordination
coordinator
cop
copa
cope
copeland
copenhagen
copied
copies
coping
coppa
copper
cops
coptic
copy
copying
copyright
copyrighted
cor
cora
coral
corbett
corbin
corcoran
cord
cordon
cords
core
cores
corey
corinth
corinthian
corinthians
cork
corn
cornelia
cornelis
cornelius
cornell
corner
cornerback
corners
cornerstone
cornice
cornish
cornwall
cornwallis
corona
coronary
coronation
coronavirus
coroner
corp
corporal
corporate
corporation
corporations
corps
corpse
corpses
corpus
correa
correct
corrected
correction
correctional
corrections
correctly
correlated
correlation
correspond
corresponded
correspondence
correspondent
correspondents
corresponding
corresponds
corridor
corridors
corrosion
corrugated
corrupt
corrupted
corruption
corsica
corte
cortes
cortex
cortez
corvette
cory
cos
cosby
cosmetic
cosmetics
cosmic
cosmology
cosmopolitan
cosmos
cossack
cossacks
cost
costa
costello
costing
costly
costs
costume
costumes
cottage
cottages
cotton
couch
cougar
cougars
could
couldn
council
councillor
councillors
councilman
councilor
councils
counsel
counseling
counsellor
counselor
count
countdown
counted
countenance
counter
counterattack
countered
counterfeit
counterpart
counterparts
counters
countess
counties
counting
countless
countries
country
countrymen
countryside
counts
county
coup
coupe
couple
coupled
couples
coupling
courage
courageous
courier
course
courses
court
courtenay
courtesy
courthouse
courtney
courtroom
courts
courtship
courtyard
cousin
cousins
couture
cov
cove
covenant
covenants
covent
coventry
cover
coverage
covered
covering
covers
covert
covid
covington
cow
cowan
coward
cowboy
cowboys
cows
cox
coyote
coyotes
cp
cpa
cpc
cpi
cpr
cpu
cr
crab
crabs
crack
crackdown
cracked
cracking
cracks
cradle
craft
crafted
crafts
craftsman
craftsmen
craig
crambidae
cramer
crane
cranes
crank
crash
crashed
crashes
crashing
crater
craters
craven
crawford
crawl
crawley
crazy
crc
cre
cream
create
created
creates
creating
creation
creations
creative
creativity
creator
creators
creature
creatures
credentials
credibility
credible
credit
credited
creditor
creditors
credits
cree
creed
creek
creeks
creep
creeping
creighton
cremated
creole
crescent
crest
crested
cretaceous
crete
crew
crewe
crewed
crews
crichton
cricinfo
cricket
cricketarchive
cricketer
cricketers
cried
cries
crime
crimea
crimean
crimes
criminal
criminals
crimson
crippled
crises
crisis
crisp
cristian
cristina
cristo
criteria
criterion
critic
critical
critically
criticised
criticism
criticisms
criticize
criticized
criticizing
critics
critique
critiques
croatia
croatian
croats
crocker
crockett
crocodile
croft
croix
cromwell
crook
crooked
crop
cropped
crops
crore
crosby
cross
crossed
crosses
crossing
crossings
crossover
crossroads
crouch
crow
crowd
crowded
crowds
crowe
crowley
crown
crowned
crowns
crows
croydon
crtc
crucial
crucified
crucifixion
crude
cruel
cruelty
cruise
cruiser
cruisers
cruises
cruising
crusade
crusader
crusaders
crusades
crush
crushed
crushing
crust
crustaceans
cruz
cry
crying
crypt
crystal
crystalline
crystals
cs
csa
csi
cska
css
csu
csx
ct
ctor
ctv
cu
cub
cuba
cuban
cube
cubic
cubs
cuckoo
cue
cues
cuisine
culinary
cullen
culminated
culminating
culmination
cult
cultivars
cultivate
cultivated
cultivation
cults
cultura
cultural
culturally
culture
cultures
culver
cum
cumberland
cumbria
cummings
cummins
cumulative
cunning
cunningham
cuomo
cup
cupola
cups
curac
curate
curated
curator
curb
cure
cured
cures
curfew
curiosity
curious
curiously
curling
curly
curran
currency
current
currently
currents
curriculum
currie
curry
curse
cursed
curt
curtain
curtains
curtis
curtiss
curvature
curve
curved
curves
curving
cushing
custer
custody
custom
customary
customer
customers
customized
customs
cut
cute
cuthbert
cutler
cuts
cutter
cutters
cutting
cv
cw
cx
cy
cyber
cyborg
cycle
cycles
cyclic
cycling
cyclist
cyclists
cyclone
cyclones
cyclops
cylinder
cylinders
cylindrical
cymru
cynical
cynthia
cypress
cypriot
cyprus
cyril
cyrillic
cyrus
cz
czech
czechoslovak
czechoslovakia
d
da
dad
dada
daddy
dade
dae
dag
dagger
dahl
dai
daily
daimler
daimyo
dairy
daisy
dakar
dakota
dal
dalai
dale
daley
dali
dall
dallas
dalmatia
dalton
daly
dam
damage
damaged
damages
damaging
damascus
dame
damian
damien
damn
damned
damon
damp
dams
dan
dana
dance
danced
dancer
dancers
dances
dancing
dandy
dane
danes
danger
dangerous
dangerously
dangers
dani
daniel
daniela
danielle
daniels
danish
danny
dans
dante
danube
danville
danzig
daphne
dar
darby
darcy
dare
dared
daredevil
darfur
daring
dario
darius
dark
darker
darkness
darling
darlington
darmstadt
darrell
darren
darryl
dart
dartmouth
darts
darwin
daryl
das
dash
dashed
dat
data
database
databases
date
dated
dateformat
dates
dating
daughter
daughters
dauphin
davao
dave
davenport
davey
david
davidson
davies
davis
davison
davy
dawes
dawkins
dawn
dawson
day
daylight
days
daytime
dayton
daytona
db
dc
dd
ddr
ddt
de
dea
deacon
deacons
dead
deadliest
deadline
deadly
deaf
deal
dealer
dealers
dealing
dealings
deals
dealt
dean
deane
deanery
dear
dearborn
death
deaths
debate
debated
debates
debating
debbie
deborah
debra
debris
debt
debtor
debts
debut
debuted
debuting
debuts
dec
decade
decades
decatur
decay
decca
deccan
deceased
deceive
deceived
december
decent
deception
decide
decided
decider
decides
deciding
deciduous
decimal
decision
decisions
decisive
decisively
deck
decker
decks
declaration
declarations
declare
declared
declares
declaring
decline
declined
declines
declining
deco
decommissioned
decommissioning
decomposition
decompression
decorated
decoration
decorations
decorative
decrease
decreased
decreases
decreasing
decree
decreed
decrees
dedicated
dedication
deduced
deduction
dee
deed
deeds
deem
deemed
deep
deeper
deepest
deeply
deer
def
defamation
default
defeat
defeated
defeating
defeats
defect
defected
defective
defects
defence
defenceman
defences
defend
defendant
defendants
defended
defender
defenders
defending
defends
defense
defenses
defensive
deferred
defiance
deficiencies
deficiency
deficient
deficit
deficits
define
defined
defines
defining
definite
definitely
definition
definitions
definitive
deflection
deforestation
deformation
defunct
degenerate
degli
degradation
degraded
degree
degrees
dei
deir
deities
deity
del
delaney
delaware
delay
delayed
delaying
delays
delegate
delegated
delegates
delegation
delegations
deleted
deletion
delgado
delhi
deliberate
deliberately
deliberation
delicate
delicious
delight
delighted
delightful
deliver
deliverance
delivered
deliveries
delivering
delivers
delivery
dell
della
delle
delphi
delta
deluxe
dem
demand
demanded
demanding
demands
dementia
demetrius
demi
demise
demo
democracy
democrat
democratic
democrats
demographic
demographics
demography
demolish
demolished
demolition
demon
demonic
demons
demonstrate
demonstrated
demonstrates
demonstrating
demonstration
demonstrations
demonstrators
demos
demoted
dempsey
den
deng
denial
denied
denies
denis
denise
denison
denmark
dennis
denny
denomination
denominational
denominations
denote
denoted
denotes
denoting
denounced
denouncing
dense
densely
densities
density
dent
dental
dentist
dentistry
denton
denver
deny
denying
depart
departed
departing
department
departmental
departments
departs
departure
departures
depend
depended
dependence
dependencies
dependency
dependent
depending
depends
depict
depicted
depicting
depiction
depictions
depicts
depleted
depletion
deploy
deployed
deploying
deployment
deployments
deportation
deported
deportivo
deposed
deposit
deposited
deposition
deposits
depot
depots
depressed
depression
deprivation
deprive
deprived
dept
depth
depths
deputies
deputy
der
derailed
derby
derbyshire
derek
derelict
derivation
derivative
derivatives
derive
derived
derives
deriving
derrick
derry
des
descend
descendant
descendants
descended
descending
descends
descent
describe
described
describes
describing
description
descriptions
descriptive
desert
deserted
deserts
deserve
deserved
deserves
design
designate
designated
designation
designations
designed
designer
designers
designing
designs
desirable
desire
desired
desires
desiring
desk
desktop
desmond
desolate
despair
desperate
desperately
despised
despite
dessert
destination
destinations
destined
destiny
destitute
destroy
destroyed
destroyer
destroyers
destroying
destroys
destruction
destructive
det
detached
detachment
detachments
detail
detailed
detailing
details
detained
detainee
detainees
detect
detected
detecting
detection
detective
detectives
detector
detectors
detention
deter
deteriorated
deteriorating
deterioration
determination
determine
determined
determines
determining
detonated
detrimental
detroit
deus
deutsch
deutsche
deutschen
deutscher
deutschland
deux
dev
deva
devastated
devastating
devastation
develop
developed
developer
developers
developing
development
developmental
developments
develops
devi
deviation
device
devices
devil
devils
devin
devine
devise
devised
devlin
devoid
devolved
devon
devonian
devonport
devonshire
devote
devoted
devotees
devotion
devotional
devout
dew
dewey
dewitt
dexter
dey
df
dfb
dg
dh
dhabi
dhaka
dharma
di
dia
diabetes
diablo
diagnosed
diagnosis
diagnostic
diagonal
diagram
diagrams
dial
dialect
dialects
dialogue
dialogues
diameter
diamond
diamondbacks
diamonds
diana
diane
diaries
diarrhea
diary
dias
diaspora
diaz
dice
dick
dickens
dickinson
dickson
dictated
dictator
dictatorship
dictionaries
dictionary
did
didier
didn
die
died
diego
dies
diesel
diet
dietary
dieter
dietrich
diets
differ
differed
difference
differences
different
differential
differentiate
differentiated
differentiation
differently
differing
differs
difficult
difficulties
difficulty
diffraction
diffuse
diffusion
dig
digby
digest
digestive
digging
digit
digital
digitally
digits
dignitaries
dignity
dil
dilemma
diligence
dillon
dim
dimension
dimensional
dimensions
diminish
diminished
diminishing
diminutive
dimitri
din
dina
dinah
dinamo
dine
diner
ding
dining
dinner
dino
dinosaur
dinosaurs
dio
diocesan
diocese
dioceses
dion
dionysius
dioxide
dip
diploma
diplomacy
diplomat
diplomatic
diplomats
dir
dire
direct
directed
directing
direction
directional
directions
directive
directives
directly
director
directorate
directorial
directors
directory
directs
dirk
dirt
dirty
dis
disabilities
disability
disabled
disadvantage
disadvantaged
disadvantages
disagree
disagreed
disagreement
disagreements
disambiguation
disappear
disappearance
disappeared
disappearing
disappears
disappointed
disappointing
disappointment
disapproval
disapproved
disarmament
disaster
disasters
disastrous
disbanded
disbanding
disbandment
disc
discarded
discharge
discharged
discharges
disciple
disciples
disciplinary
discipline
disciplined
disciplines
disclose
disclosed
disclosure
disco
discography
discogs
discomfort
disconnected
discontent
discontinued
discount
discourage
discouraged
discourse
discourses
discover
discovered
discoverer
discoveries
discovering
discovers
discovery
discrete
discretion
discrimination
discriminatory
discs
discus
discuss
discussed
discusses
discussing
discussion
discussions
disease
diseases
disgrace
disguise
disguised
disgust
dish
dishes
disillusioned
disk
disks
dislike
disliked
dismal
dismantled
dismay
dismiss
dismissal
dismissed
dismissing
disney
disneyland
disobedience
disorder
disorders
disparity
dispatch
dispatched
dispatches
dispensation
dispersal
disperse
dispersed
dispersion
displaced
displacement
display
displayed
displaying
displays
displeasure
disposal
dispose
disposed
disposition
dispute
disputed
disputes
disqualification
disqualified
disregard
disregarded
disrepair
disrupt
disrupted
disruption
dissatisfaction
dissatisfied
dissemination
dissent
dissenting
dissertation
dissident
dissidents
dissipated
dissolution
dissolve
dissolved
distal
distance
distances
distancing
distant
distillery
distinct
distinction
distinctions
distinctive
distinctly
distinguish
distinguishable
distinguished
distinguishes
distinguishing
distorted
distortion
distract
distracted
distraction
distress
distressed
distribute
distributed
distributing
distribution
distributions
distributor
distributors
district
districts
distrust
disturb
disturbance
disturbances
disturbed
disturbing
disused
dit
ditch
ditches
ditions
div
diva
dive
diver
divergence
divergent
divers
diverse
diversified
diversion
diversity
divert
diverted
dives
divide
divided
dividend
dividends
divides
dividing
divine
diving
divinity
divisio
division
divisional
divisions
divorce
divorced
dix
dixie
dixon
diz
dizzy
dj
djibouti
djokovic
djs
dk
dl
dlc
dm
dmitri
dmitry
dna
do
dobson
doc
dock
docked
docking
docks
dockyard
docs
doctor
doctoral
doctorate
doctors
doctrinal
doctrine
doctrines
document
documentaries
documentary
documentation
documented
documenting
documents
dod
dodd
dodge
dodgers
doe
does
doesn
dog
dogg
dogs
doha
doherty
doi
doing
dolan
dole
doll
dollar
dollars
dolls
dolly
dolores
dolphin
dolphins
dom
domain
domains
dome
domed
domenico
domes
domesday
domestic
domestically
domesticated
dominance
dominant
dominate
dominated
dominates
dominating
domination
domingo
dominic
dominica
dominican
dominion
dominions
dominique
domino
don
donald
donaldson
donate
donated
donation
donations
doncaster
done
donegal
donetsk
dong
donkey
donna
donnell
donnelly
donnie
donor
donors
donovan
dons
doo
doom
doomed
door
doors
doorway
dopamine
doping
doppler
dora
dorado
dorchester
dorian
doric
doris
dormant
dormitory
dorothea
dorothy
dorsal
dorset
dorsey
dortmund
dos
dose
doses
dost
dot
doth
dots
dotted
douard
double
doubled
doubleday
doubles
doubling
doubt
doubted
doubtful
doubtless
doubts
doug
dough
douglas
douglass
dove
dover
dow
dowager
down
downed
downey
downfall
downgraded
downhill
downing
download
downloadable
downloaded
downloads
downs
downstairs
downstream
downtown
downward
downwards
dowry
doyle
dozen
dozens
dp
dr
dra
dracula
draft
drafted
drafting
drafts
drag
dragged
dragging
dragon
dragons
dragoon
dragoons
drain
drainage
drained
draining
drains
drake
drama
dramas
dramatic
dramatically
dramatist
drank
draper
drastic
drastically
draught
draw
drawing
drawings
drawn
draws
dre
dread
dreadful
dream
dreamed
dreamer
dreaming
dreams
dresden
dress
dressed
dresses
dressing
drew
dreyfus
dried
drift
drifted
drifting
drill
drilled
drilling
drills
drink
drinking
drinks
driscoll
drive
driven
driver
drivers
drives
driving
drone
drones
drop
dropped
dropping
drops
drought
drove
drowned
drowning
drug
drugs
drum
drummer
drumming
drummond
drums
drunk
drunken
drury
druze
dry
dryden
drying
ds
dsc
dso
dt
du
dual
duane
duarte
dub
dubai
dubbed
dubbing
dubious
dublin
dubois
duc
ducal
duchess
duchy
duck
ducks
duct
dudley
due
duel
dues
duet
duets
duff
duffy
dug
duke
dukes
dull
duluth
duly
duma
dumas
dumb
dumbarton
dumfries
dummy
dumont
dump
dumped
dumping
dun
dunbar
duncan
dundas
dundee
dune
dunedin
dunes
dunfermline
dung
dungeon
dungeons
dunham
dunkirk
dunlop
dunn
dunne
duo
duplicate
duplication
dupont
dura
durability
durable
duran
durand
durango
durant
duration
durban
durga
durham
during
dus
dusk
dust
dustin
dusty
dutch
duterte
duties
dutt
dutton
duty
duval
dvd
dvds
dwarf
dwarfs
dwayne
dwell
dwellers
dwelling
dwellings
dwelt
dwight
dwyer
dx
dy
dye
dyer
dyes
dying
dyke
dylan
dynamic
dynamics
dynamite
dynamo
dynastic
dynasties
dynasty
dysfunction
dyson
dz
e
ea
each
eager
eagerly
eagle
eagles
ealing
ear
eared
earl
earle
earlier
earliest
earls
early
earn
earned
earnest
earnestly
earnhardt
earning
earnings
earns
ears
earth
earthly
earthquake
earthquakes
ease
easier
easily
east
eastbound
eastbourne
eastenders
easter
easterly
eastern
easternmost
eastman
easton
eastward
eastwards
eastwood
easy
eat
eaten
eater
eating
eaton
eats
eau
eb
ebenezer
eberhard
ebert
ebony
ec
eccentric
ecclesiastical
echelon
echo
echoed
echoes
eclectic
eclipse
ecm
eco
ecological
ecology
economic
economical
economically
economics
economies
economist
economists
economy
ecoregion
ecosystem
ecosystems
ecstasy
ecuador
ecuadorian
ecumenical
ecw
ed
eddie
eddy
eden
edgar
edge
edged
edges
edible
edict
edifice
edinburgh
edison
edit
edited
edith
editing
edition
editions
editor
editorial
editors
edmond
edmonds
edmonton
edmund
edmunds
edn
edna
edo
eds
edt
edu
eduard
eduardo
educate
educated
educating
education
educational
educator
educators
edward
edwards
edwin
ee
eel
eels
ef
effect
effected
effective
effectively
effectiveness
effects
efficacy
efficiency
efficient
efficiently
effort
efforts
efl
eg
egan
egg
eggs
ego
egypt
egyptian
egyptians
eh
ei
eid
eight
eighteen
eighteenth
eighth
eighty
eileen
ein
eindhoven
eine
einer
einstein
eisenhower
eisner
either
ej
ejected
ek
el
elaborate
elaborated
elaine
elastic
elbe
elbow
elder
elderly
elders
eldest
eleanor
elect
elected
electing
election
elections
elective
elector
electoral
electorate
electors
electric
electrical
electrically
electricity
electrification
electrified
electro
electrode
electrodes
electromagnetic
electron
electronic
electronically
electronics
electrons
elects
elegance
elegans
elegant
elektra
element
elemental
elementary
elements
elena
elephant
elephants
elevated
elevation
elevations
elevator
elevators
eleven
eleventh
elf
elgin
eli
elias
eligibility
eligible
elijah
eliminate
eliminated
eliminating
elimination
eliot
elisa
elisabeth
elise
elisha
elite
elites
eliza
elizabeth
elizabethan
elk
ell
ella
elle
ellen
ellie
ellington
elliot
elliott
elliptic
elliptical
ellis
ellison
ellsworth
elm
elmer
elongated
elsa
else
elsevier
elsewhere
elsie
elton
elusive
elves
elvis
ely
em
email
emails
emancipation
emanuel
embankment
embargo
embark
embarked
embarrassed
embarrassing
embarrassment
embassies
embassy
embedded
emblem
embodied
embrace
embraced
embraces
embracing
embroidered
embroidery
embryo
embryonic
emerald
emerge
emerged
emergence
emergencies
emergency
emerges
emerging
emeritus
emerson
emery
emi
emigrants
emigrated
emigration
emil
emile
emilia
emilio
emily
eminem
eminent
emir
emirate
emirates
emission
emissions
emit
emitted
emma
emmanuel
emmett
emmy
emory
emotion
emotional
emotionally
emotions
empathy
emperor
emperors
emphasis
emphasised
emphasize
emphasized
emphasizes
emphasizing
empire
empires
empirical
employ
employed
employee
employees
employer
employers
employing
employment
employs
empower
empowered
empowerment
empress
empty
ems
emu
emulate
en
enable
enabled
enables
enabling
enact
enacted
enactment
enamel
encampment
enchanted
encircled
enclave
enclosed
enclosure
encoded
encodes
encoding
encompass
encompassed
encompasses
encompassing
encore
encounter
encountered
encountering
encounters
encourage
encouraged
encouragement
encourages
encouraging
encrypted
encryption
encyclopaedia
encyclopedia
encyclopædia
end
endangered
endeavor
endeavors
endeavour
ended
endemic
ending
endings
endless
endorse
endorsed
endorsement
endorsements
endowed
endowment
ends
endurance
endure
endured
enduring
enemies
enemy
energetic
energies
energy
enfield
enforce
enforced
enforcement
enforcing
eng
engage
engaged
engagement
engagements
engages
engaging
engel
engine
engined
engineer
engineered
engineering
engineers
engines
england
english
englishman
engraved
engraver
engraving
engravings
enhance
enhanced
enhancement
enhancements
enhancing
enid
enigma
enjoy
enjoyable
enjoyed
enjoying
enjoyment
enjoys
enlarge
enlarged
enlargement
enlightened
enlightenment
enlist
enlisted
enmity
eno
enoch
enormous
enough
enquiry
enraged
enriched
enrichment
enrico
enrique
enroll
enrolled
enrollment
ensemble
ensembles
enshrined
ensign
enslaved
ensued
ensuing
ensure
ensured
ensures
ensuring
enter
entered
entering
enterprise
enterprises
enters
entertain
entertained
entertainer
entertaining
entertainment
enthusiasm
enthusiast
enthusiastic
enthusiasts
entire
entirely
entirety
entities
entitled
entity
entomologist
entourage
entrance
entrances
entrant
entrants
entre
entrenched
entrepreneur
entrepreneurial
entrepreneurs
entrepreneurship
entries
entropy
entrusted
entry
enumerated
envelope
environment
environmental
environmentally
environments
envisaged
envisioned
envoy
envoys
envy
enzo
enzyme
enzymes
eo
eocene
eos
ep
epa
ephraim
epic
epidemic
epidemiology
epilepsy
epilogue
epirus
episcopal
episode
episodes
epistle
epistles
epitaph
epithet
epoch
eponymous
eps
epsilon
epsom
epstein
equal
equality
equally
equals
equation
equations
equator
equatorial
equestrian
equilibrium
equip
equipment
equipped
equitable
equity
equivalence
equivalent
equivalents
er
era
eras
erased
erasmus
erdog
ere
erebidae
erect
erected
erection
eredivisie
eric
erica
erich
erickson
ericsson
erie
erik
erika
erin
eritrea
ernest
ernesto
ernie
ernst
eroded
eros
erosion
erotic
erratic
erroneous
erroneously
error
errors
ers
erskine
erupted
eruption
eruptions
erwin
es
esa
escalated
escalation
escape
escaped
escapes
escaping
escobar
escort
escorted
escorting
escorts
eskimos
esoteric
esp
espan
especially
esperanto
espionage
espn
esports
esq
esquire
essay
essayist
essays
essen
essence
essendon
essential
essentially
essex
est
esta
establish
established
establishes
establishing
establishment
establishments
estadio
estado
estate
estates
este
esteban
esteem
esteemed
estelle
ester
esther
estimate
estimated
estimates
estimating
estimation
estonia
estonian
estrada
estradiol
estranged
estrogen
estuary
et
eta
etc
etching
eternal
eternity
ethan
ethanol
ethel
ether
ethernet
ethic
ethical
ethics
ethiopia
ethiopian
ethnic
ethnically
ethnicities
ethnicity
ethnographic
etienne
eton
etymological
etymology
eu
eubel
eucalyptus
eucharist
euclidean
euge
eugen
eugene
eugenia
eugenio
euler
eun
euphrates
eupithecia
eurasia
eurasian
eureka
euro
eurobasket
euroleague
europa
europe
european
europeans
euros
eurovision
eusebius
ev
eva
evacuate
evacuated
evacuation
evade
evaluate
evaluated
evaluating
evaluation
evaluations
evan
evangelical
evangelist
evans
evansville
evaporation
evasion
eve
evelyn
even
evening
evenings
evenly
event
events
eventual
eventually
ever
everest
everett
evergreen
everlasting
everton
every
everybody
everyday
everyone
everything
everywhere
evic
evicted
eviction
evidence
evidenced
evident
evidently
evil
evils
evo
evolution
evolutionary
evolve
evolved
evolving
ewing
ex
exacerbated
exact
exactly
exaggerated
exalted
exam
examination
examinations
examine
examined
examiner
examines
examining
example
examples
exams
excavated
excavation
excavations
exceed
exceeded
exceeding
exceedingly
exceeds
excel
excelled
excellence
excellency
excellent
excelsior
except
excepted
exception
exceptional
exceptionally
exceptions
excerpt
excerpts
excess
excessive
excessively
exchange
exchanged
exchanges
exchanging
exchequer
excise
excited
excitement
exciting
exclaimed
exclude
excluded
excludes
excluding
exclusion
exclusive
exclusively
excursion
excursions
excuse
execute
executed
executing
execution
executions
executive
executives
executor
exemplary
exemplified
exempt
exempted
exemption
exemptions
exercise
exercised
exercises
exercising
exert
exerted
exeter
exhaust
exhausted
exhaustion
exhaustive
exhibit
exhibited
exhibiting
exhibition
exhibitions
exhibits
exile
exiled
exiles
exist
existed
existence
existent
existential
existing
exists
exit
exited
exiting
exits
exo
exodus
exotic
exp
expand
expanded
expanding
expands
expansion
expansions
expansive
expect
expectancy
expectation
expectations
expected
expecting
expects
expedition
expeditionary
expeditions
expel
expelled
expended
expenditure
expenditures
expense
expenses
expensive
experience
experienced
experiences
experiencing
experiment
experimental
experimentation
experimented
experimenting
experiments
expert
expertise
experts
expiration
expire
expired
explain
explained
explaining
explains
explanation
explanations
explanatory
explicit
explicitly
explode
exploded
explodes
exploding
exploit
exploitation
exploited
exploiting
exploits
exploration
explorations
explore
explored
explorer
explorers
explores
exploring
explosion
explosions
explosive
explosives
expo
exponent
exponential
export
exported
exporting
exports
expos
expose
exposed
exposing
exposition
exposure
express
expressed
expresses
expressing
expression
expressions
expressive
expressly
expressway
expulsion
exquisite
extant
extend
extended
extending
extends
extension
extensions
extensive
extensively
extent
exterior
extermination
external
externally
extinct
extinction
extinguished
extortion
extra
extracellular
extract
extracted
extraction
extracts
extradition
extraordinary
extras
extratropical
extravagant
extreme
extremely
extremes
extremism
extremist
extremity
eye
eyed
eyes
eyewitness
eyre
ez
eze
ezekiel
ezra
f
fa
faa
faber
fabian
fabio
fable
fables
fabric
fabricated
fabrication
fabricius
fabrics
fabulous
fac
facade
facades
face
facebook
faced
facelift
faces
facets
facial
facilitate
facilitated
facilitates
facilitating
facilities
facility
facing
fact
faction
factions
facto
factor
factories
factors
factory
facts
factual
faculties
faculty
fade
faded
fading
fai
fail
failed
failing
fails
failure
failures
faint
fair
fairbanks
fairchild
faire
fairest
fairfax
fairfield
fairies
fairly
fairness
fairs
fairy
faisal
faith
faithful
faithfully
faiths
fake
falco
falcon
falcons
falk
falkirk
falkland
fall
fallen
falling
fallon
fallout
falls
falmouth
false
falsely
fame
famed
famer
familia
familial
familiar
familiarity
families
family
famine
famous
famously
fan
fancy
fanfare
fang
fanny
fans
fantasia
fantastic
fantasy
far
farah
farce
fare
fared
fares
farewell
fargo
farley
farm
farmed
farmer
farmers
farmhouse
farming
farmland
farms
farnham
faroe
farrar
farrell
farther
fascinated
fascinating
fascination
fascism
fascist
fashion
fashionable
fashioned
faso
fast
fastened
faster
fastest
fasting
fat
fatal
fatalities
fatality
fatally
fate
fated
father
fatherland
fathers
fatigue
fatima
fats
fatty
faulkner
fault
faults
faulty
fauna
faust
favor
favorable
favorably
favored
favoring
favorite
favorites
favors
favour
favourable
favoured
favourite
favourites
fawcett
fay
faye
fayette
fayetteville
fb
fbi
fbs
fc
fcc
fcs
fd
fda
fdp
fe
fear
feared
fearful
fearing
fearless
fears
feasibility
feasible
feast
feasts
feat
feather
feathers
featherweight
feature
featured
features
featuring
feb
february
fed
federal
federalist
federally
federated
federation
federations
federer
federico
fee
feeble
feed
feedback
feeder
feeding
feeds
feel
feeling
feelings
feels
fees
feet
fei
felder
feldman
felice
felicity
felipe
felix
fell
fellow
fellows
fellowship
fellowships
felony
felt
female
females
feminine
feminism
feminist
feminists
femme
fen
fence
fencer
fences
fencing
fender
fenerbahc
feng
fenton
fenway
fer
feral
ferdinand
ferenc
ferguson
fermentation
fern
ferna
fernandes
fernandez
fernando
ferns
ferrara
ferrari
ferreira
ferrer
ferries
ferris
ferry
fertile
fertility
fertilizer
fest
festival
festivals
festive
festivities
fetal
fetch
fetus
feud
feudal
fever
few
fewer
fewest
ff
ffer
fg
fi
fia
fiance
fianna
fiat
fiba
fiber
fiberglass
fibers
fibre
fibres
fiction
fictional
fictitious
fiddle
fiddler
fide
fidel
fidelity
field
fielded
fielder
fielding
fields
fierce
fiercely
fiery
fiesta
fifa
fife
fifteen
fifteenth
fifth
fifty
fig
figaro
fight
fighter
fighters
fighting
fights
figueroa
figurative
figure
figured
figures
figurines
fiji
fijian
file
filed
files
filing
filip
filipino
filipinos
filippo
fill
filled
filling
fillmore
fills
filly
film
filmed
filmfare
filming
filmmaker
filmmakers
filmmaking
filmography
films
filter
filtered
filtering
filters
filtration
fin
fina
final
finale
finalist
finalists
finalized
finally
finals
finance
financed
finances
financial
financially
financier
financing
finch
find
finding
findings
finds
fine
fined
finely
finer
fines
finest
finger
fingers
finish
finished
finisher
finishers
finishes
finishing
finite
finland
finlay
finley
finn
finnish
fins
fiona
fir
fire
firearm
firearms
fired
firefighters
fireman
fireplace
firepower
fires
fireworks
firing
firm
firmly
firms
first
firstly
firth
fis
fiscal
fischer
fish
fisher
fisheries
fisherman
fishermen
fishery
fishes
fishing
fisk
fission
fist
fit
fitch
fitness
fits
fitted
fitting
fittings
fitz
fitzgerald
fitzpatrick
fitzroy
fivb
five
fix
fixed
fixing
fixture
fixtures
fjord
fk
fl
fla
flag
flags
flagship
flair
flame
flamenco
flames
flaming
flanagan
flanders
flank
flanked
flanking
flanks
flap
flare
flash
flashback
flashbacks
flashes
flashing
flat
flats
flattened
flavor
flavors
flavour
flawed
flaws
flea
fled
fledged
fledgling
flee
fleeing
flees
fleet
fleets
fleetwood
fleischer
fleming
flemish
flesh
fletcher
flew
flex
flexibility
flexible
flick
flies
flight
flights
flinders
flint
flip
flipped
flo
float
floated
floating
floats
flock
flocks
flood
flooded
flooding
floods
floor
floors
flora
floral
florence
florentine
flores
florian
florida
flotilla
flour
flourish
flourished
flourishing
flow
flowed
flower
flowering
flowers
flowing
flown
flows
floyd
flu
fluctuations
fluent
fluid
fluids
flung
fluorescent
fluoride
flush
flushing
flute
flutes
flux
fly
flycatcher
flyer
flyers
flying
flynn
flyweight
fm
fn
fo
foam
focal
focus
focused
focuses
focusing
foe
foes
fog
foil
fokker
fold
folded
folding
folds
foley
foliage
folio
folk
folklore
folks
follow
followed
follower
followers
following
follows
folly
fond
fong
font
fontaine
fontana
fonts
fontsize
foo
food
foods
fool
foolish
fools
foot
footage
football
footballer
footballers
footbridge
foote
footed
foothills
footing
footnote
footnotes
footprint
footprints
footsteps
footwear
for
forage
foraging
forbade
forbes
forbid
forbidden
forbidding
forbids
force
forced
forces
forcibly
forcing
ford
fordham
fore
forecast
forecasting
forecasts
foreclosure
forefront
foregoing
foreground
forehead
foreign
foreigner
foreigners
foreman
foremost
forensic
forerunner
forest
forested
forestry
forests
forever
forewings
foreword
forfeit
forfeited
forfeiture
forge
forged
forgery
forget
forgetting
forging
forgive
forgiven
forgiveness
forgot
forgotten
fork
forks
form
formal
formalized
formally
format
formation
formations
formative
formats
formed
former
formerly
formidable
forming
formosa
forms
formula
formulas
formulated
formulation
forrest
forrester
forster
forsyth
fort
forte
forth
forthcoming
fortification
fortifications
fortified
fortnight
fortress
fortresses
forts
fortuna
fortunate
fortunately
fortune
fortunes
forty
forum
forums
forward
forwarded
forwards
fossil
fossils
foster
fostered
fostering
fought
foul
found
foundation
foundations
founded
founder
founders
founding
foundry
fountain
fountains
four
fourier
fours
fourteen
fourteenth
fourth
fowler
fox
foxes
fp
fps
fr
fra
frac
fraction
fractional
fracture
fractured
fractures
fragile
fragment
fragmentary
fragmentation
fragmented
fragments
fragrance
frame
framed
frames
framework
frameworks
framing
fran
franc
france
frances
francesca
francesco
franchise
franchises
francis
franciscan
francisco
franck
franco
francois
francophone
francs
frank
frankenstein
frankfurt
frankfurter
frankie
frankish
franklin
frankly
franks
frans
franz
fraser
fraternal
fraternity
fraud
fraudulent
fray
frazier
fre
freak
fred
freddie
freddy
frederic
frederick
frederik
fredrik
free
freed
freedman
freedom
freedoms
freeing
freelance
freely
freeman
freestyle
freeway
freeze
freezing
freiburg
freight
freighter
fremantle
fremont
french
frenchman
frenzy
frequencies
frequency
frequent
frequented
frequently
fresco
frescoes
fresh
freshman
freshmen
freshwater
fresno
freud
frey
friar
friars
friction
friday
fridays
fried
friedman
friedrich
friend
friendlies
friendly
friends
friendship
friendships
frieze
frigate
frigates
fright
frightened
fringe
fritz
fro
frog
frogs
from
front
frontage
frontal
fronted
frontier
frontiers
frontline
frontman
fronts
frost
frozen
frs
fruit
fruitful
fruition
fruits
frustrated
frustration
fry
fs
ft
fu
fuchs
fuck
fuel
fueled
fuels
fuentes
fugitive
fugue
fuji
fujian
fujiwara
fukuoka
fukushima
fulbright
fulfil
fulfill
fulfilled
fulfilling
fulfillment
fulham
full
fullback
fuller
fullerton
fully
fulton
fumble
fumbles
fun
function
functional
functionality
functioned
functioning
functions
fund
fundamental
fundamentally
fundamentals
funded
funding
fundraiser
fundraising
funds
funeral
funerals
funerary
fung
fungal
fungi
fungus
funk
funky
funnel
funny
fur
furious
furlong
furlongs
furnace
furnaces
furness
furnish
furnished
furnishings
furniture
further
furthermore
fury
fuscous
fuse
fused
fuselage
fusiliers
fusion
futile
futsal
future
futures
futuristic
fuzzy
fw
fx
fy
g
ga
gaa
gabe
gable
gabled
gables
gabon
gabriel
gabriela
gabriele
gabrielle
gaddafi
gael
gaelic
gag
gaga
gage
gaia
gail
gain
gained
gaines
gainesville
gaining
gains
gaius
gal
gala
galactic
galatasaray
galaxies
galaxy
gale
galen
galerie
galicia
galician
galilee
galileo
gall
gallagher
gallant
gallantry
gallen
galleria
galleries
gallery
galley
gallipoli
gallo
gallon
gallons
galloway
gallows
galveston
galway
gama
gambia
gambit
gamble
gambler
gambling
game
gameplay
gamer
games
gaming
gamma
gan
gandhi
ganesh
gang
ganga
ganges
gangs
gangster
gao
gaol
gaon
gap
gaps
gar
garage
garbage
garci
garcia
garde
garden
gardener
gardening
gardens
gardiner
gardner
gareth
garfield
garibaldi
garland
garlic
garment
garments
garner
garnered
garnett
garrett
garrison
garrisons
garry
garth
gary
garza
gas
gases
gasoline
gaston
gastrointestinal
gastropod
gate
gates
gateshead
gateway
gather
gathered
gathering
gatherings
gathers
gators
gauge
gaul
gaulle
gauntlet
gaussian
gave
gavin
gay
gaye
gayle
gaza
gaze
gazette
gazetteer
gb
gc
gdan
gdp
gdr
ge
gear
gearbox
geared
gears
gecko
gee
geek
geelong
geese
geiger
gel
gem
gemini
gemma
gems
gen
gendarmerie
gender
gene
genealogical
genealogy
genera
general
generalization
generalized
generally
generals
generate
generated
generates
generating
generation
generations
generator
generators
generic
generosity
generous
genes
genesis
genetic
genetically
genetics
geneva
genie
genital
genitive
genius
genoa
genocide
genome
genomes
genomic
genomics
genre
genres
gent
gentile
gentiles
gentle
gentleman
gentlemen
gently
gentry
genuine
genuinely
genus
geo
geoff
geoffrey
geograph
geographer
geographic
geographical
geographically
geography
geologic
geological
geologist
geology
geometric
geometridae
geometry
geophysical
georg
george
georges
georgetown
georgia
georgian
georgina
geothermal
geq
ger
gerais
gerald
geraldine
gerard
gerhard
germ
germain
german
germanic
germans
germany
gerry
gershwin
gertrude
geschichte
gesellschaft
gestapo
gesture
gestures
get
gets
getting
getty
gettysburg
gh
ghana
ghanaian
ghent
gheorghe
ghetto
ghosh
ghost
ghostarchive
ghosts
ghulam
ghz
gi
gia
giacomo
gian
gianni
giant
giants
gibb
gibbon
gibbons
gibbs
gibraltar
gibson
gideon
gif
gifford
gift
gifted
gifts
gig
gigantic
gigs
gil
gilbert
gilchrist
gilded
giles
gill
gilles
gillespie
gillette
gillian
gillingham
gills
gilman
gilmore
gilmour
gin
gina
ginger
gino
gion
giorgio
giovanni
girard
girl
girlfriend
girls
giro
gis
giulia
giuliani
giulio
giuseppe
give
given
gives
giving
gk
gl
glacial
glacier
glaciers
glad
gladiator
gladiators
gladstone
gladys
glamorgan
glamour
glance
glanced
gland
glands
glasgow
glass
glasses
glastonbury
glazed
gleason
glee
glen
glendale
glenn
glide
glider
gliding
glimpse
global
globalization
globally
globe
globo
gloom
gloomy
gloria
glorified
glorious
glory
gloss
glossary
glossy
gloucester
gloucestershire
glove
glover
gloves
glow
glowing
glucose
glue
gm
gma
gmbh
gmina
gmt
gnome
gnu
go
goa
goal
goalkeeper
goalkeepers
goalless
goals
goalscorer
goalscorers
goaltender
goat
goats
goblin
god
goddard
goddess
goddesses
godfather
godfrey
gods
godwin
godzilla
goes
goethe
gogh
goin
going
gold
goldberg
golden
goldman
goldsmith
goldstein
goldwyn
golf
golfer
gomes
gomez
gone
gong
gonna
gonza
gonzaga
gonzales
gonzalez
gonzalo
goo
good
goodbye
goode
goodman
goodness
goods
goodwill
goodwin
goodyear
google
goose
gop
goran
gorbachev
gordon
gore
gorge
gorgeous
gorilla
gorman
gospel
gospels
gossip
got
gotha
gotham
gothenburg
gothic
goto
gott
gotta
gotten
gottfried
gottlieb
gough
gould
gov
govern
governance
governed
governing
government
governmental
governments
governor
governorate
governors
governorship
governs
govt
gower
gown
gp
gps
gr
gra
grab
grabbed
grabs
grace
graceful
graces
gracie
gracious
grad
grade
graded
grades
gradient
grading
gradual
gradually
graduate
graduated
graduates
graduating
graduation
grady
graeme
graf
graffiti
graft
grafton
graham
grail
grain
grains
gram
grammar
grammatical
grammy
grams
gran
granada
grand
grandchildren
granddaughter
grande
grandeur
grandfather
grandmaster
grandmother
grandparents
grandson
grandstand
grange
granger
granite
grant
granted
grantham
granting
grants
granville
grape
grapes
graph
graphic
graphical
graphics
graphite
graphs
gras
grasp
grass
grasses
grasshopper
grassland
grasslands
grassroots
grassy
grateful
gratitude
grave
gravel
gravely
graves
graveyard
gravitational
gravity
gray
grayson
graz
grazing
gre
grease
great
greater
greatest
greatly
greatness
greco
greece
greed
greedy
greek
greeks
green
greenberg
greene
greenfield
greenhouse
greenish
greenland
greens
greensboro
greenville
greenway
greenwich
greenwood
greer
greet
greeted
greeting
greg
gregg
gregor
gregorian
gregorio
gregory
grenada
grenade
grenades
grenadier
grenoble
greta
grew
grey
greyhound
greyish
grid
gridcolor
grief
grievances
grievous
griffin
griffith
griffiths
grill
grille
grim
grimes
grimm
grimsby
grind
grinding
grip
grizzlies
gro
grocery
groin
groningen
groom
groove
grooves
gross
grossed
grossing
grossman
grosso
grosvenor
grotesque
ground
groundbreaking
grounded
grounds
groundwater
group
groupe
grouped
grouping
groupings
groups
grove
grover
groves
grow
growers
growing
grown
grows
growth
gru
grumman
grupo
gruppe
gs
gt
gu
guadalajara
guadalcanal
guadalupe
guadeloupe
guam
guan
guangdong
guangxi
guangzhou
guantanamo
guarantee
guaranteed
guarantees
guard
guarded
guardian
guardians
guarding
guards
guatemala
guatemalan
gubernatorial
gue
guelph
guernsey
guerra
guerre
guerrero
guerrilla
guerrillas
guess
guest
guests
guevara
guez
guggenheim
gui
guiana
guidance
guide
guided
guidelines
guides
guiding
guido
guild
guildford
guillaume
guillermo
guilt
guilty
guinea
guineas
guinness
guise
guitar
guitarist
guitarists
guitars
gujarat
gujarati
gules
gulf
gull
gully
gum
gun
gunboat
gundam
gunfire
gunmen
gunn
gunnar
gunner
gunners
gunnery
gunpowder
guns
gunshot
guo
gupta
gurney
guru
gus
gustaf
gustav
gustave
gustavo
gusts
gut
guthrie
gutie
gutierrez
guy
guyana
guys
guzma
gwen
gwr
gwynedd
gym
gymnasium
gymnast
gymnastics
gyo
gypsy
h
ha
haa
haaretz
haarlem
haas
habeas
habib
habit
habitat
habitation
habitats
habits
habitual
habsburg
hack
hacker
hackett
hacking
hackney
had
hades
hadith
hadley
hadn
hadrian
hae
hagen
haggard
hague
hahn
hai
haifa
haig
hail
hailed
hainan
haines
hair
haired
hairs
hairy
haiti
haitian
haji
hakim
hal
hale
haleakala
haley
half
halfback
halftime
halfway
halifax
hall
halle
hallmark
halloween
halls
halo
halsey
halt
halted
halves
ham
hamas
hamburg
hamburger
hamid
hamilton
hamlet
hamlets
hamlin
hammer
hammersmith
hammond
hampden
hampered
hampshire
hampson
hampstead
hampton
hamstring
han
hana
hancock
hand
handball
handbook
handed
handel
handful
handheld
handicap
handicapped
handing
handle
handled
handler
handles
handling
hands
handsome
handwriting
handy
hang
hangar
hanged
hanging
hangs
hangzhou
hank
hanley
hanna
hannah
hannibal
hannover
hanoi
hanover
hans
hansen
hanson
hao
haplogroup
hapoel
happen
happened
happening
happens
happily
happiness
happy
har
hara
harald
harassed
harassment
harbor
harbors
harbour
harbours
harcourt
hard
hardcore
hardcover
harden
hardened
harder
hardest
hardin
harding
hardly
hardness
hardship
hardships
hardware
hardy
hare
harem
hari
harlan
harlem
harley
harlow
harm
harman
harmful
harmless
harmon
harmonic
harmonica
harmonies
harmony
harness
harold
harp
harper
harpercollins
harpsichord
harriet
harrington
harris
harrisburg
harrison
harrow
harry
harsh
harshly
hart
hartford
hartlepool
hartley
hartman
hartmann
harvard
harvest
harvested
harvesting
harvey
haryana
has
hasan
hash
haskell
hasn
hassan
hast
haste
hastened
hastily
hastings
hasty
hat
hatch
hate
hated
hates
hatfield
hath
hathaway
hatred
hats
hatton
haul
hauled
haunted
haunting
haus
haut
haute
havana
have
haven
havilland
having
havoc
havre
hawaii
hawaiian
hawk
hawke
hawker
hawkins
hawks
hawley
haworth
hawthorn
hawthorne
hay
hayden
haydn
hayes
hayley
haynes
hays
hayward
hazard
hazardous
hazards
haze
hazel
hb
hbo
hc
hd
he
head
headache
headed
header
heading
headline
headlined
headlines
headlining
headmaster
headquartered
headquarters
heads
headwaters
heal
healed
healing
health
healthcare
healthy
healy
heap
hear
heard
hearing
hearings
hearn
hears
hearst
heart
heartbeat
hearted
hearth
heartland
hearts
heat
heated
heath
heathen
heather
heathrow
heating
heats
heaven
heavenly
heavens
heavier
heaviest
heavily
heavy
heavyweight
heb
hebei
hebrew
hebrews
hebron
hectare
hectares
hector
hedge
hedgehog
hedges
hee
heed
heel
heels
hegel
hegemony
heidelberg
heidi
height
heightened
heights
heinrich
heinz
heir
heiress
heirs
heisman
heist
held
helen
helena
helene
helens
helicopter
helicopters
helium
helix
hell
hellenic
hellenistic
heller
hello
hells
helm
helmet
helmets
helms
helmut
help
helped
helper
helpful
helping
helpless
helps
helsinki
hem
hemingway
hemisphere
hemp
hen
henan
hence
henceforth
henchman
henderson
hendricks
hendrik
hendrix
henley
henning
henri
henrietta
henrik
henry
henson
hepatitis
hepburn
her
heracles
herald
heraldic
heraldry
herb
herbal
herbert
herbie
herbs
hercules
herd
herds
here
hereafter
hereby
hereditary
hereford
herefordshire
herein
heresy
heretics
heretofore
heritage
herman
hermann
hermes
hermit
hermitage
herna
hernandez
hero
herod
herodotus
heroes
heroic
heroin
heroine
heroism
heron
herr
herrera
herrich
herring
hers
herself
hershey
hertfordshire
herzegovina
herzog
hesitate
hesitated
hesitation
hess
hesse
hester
het
heterogeneous
heterosexual
hewitt
hewlett
hex
hexagonal
hey
heyday
hezbollah
hf
hi
hiatus
hibernian
hickman
hickory
hicks
hid
hidalgo
hidden
hide
hides
hiding
hierarchical
hierarchy
higgins
high
higher
highest
highland
highlanders
highlands
highlight
highlighted
highlighting
highlights
highly
highness
highs
highway
highways
hike
hiking
hilary
hilbert
hilda
hill
hillary
hillman
hills
hillsborough
hillside
hilltop
hilly
hilton
him
himachal
himalayan
himalayas
himself
hind
hinder
hindered
hindi
hindu
hinduism
hindus
hindustan
hindwings
hines
hint
hinted
hinton
hints
hip
hir
hiram
hire
hired
hires
hiring
hiroshi
hiroshima
hirsch
his
hispanic
hispanics
hist
histo
histoire
historia
historian
historians
historic
historical
historically
histories
historiography
history
hit
hitchcock
hitherto
hitler
hits
hitter
hitting
hiv
hive
hk
hl
hla
hler
hm
hms
ho
hoa
hoard
hoax
hobart
hobbs
hobby
hoboken
hobson
hoc
hockey
hodge
hodges
hodgson
hof
hoffman
hoffmann
hog
hogan
hogg
hokkaido
hold
holden
holder
holders
holding
holdings
holds
hole
holes
holiday
holidays
holiness
holistic
holland
holliday
hollis
hollow
holloway
holly
hollywood
holm
holman
holmes
holocaust
holotype
holstein
holt
holy
homage
home
homecoming
homeland
homeless
homelessness
homepage
homer
homes
homestead
hometown
homicide
homme
homo
homogeneous
homosexual
homosexuality
homosexuals
hon
honda
honduran
honduras
honest
honestly
honesty
honey
honeymoon
hong
honneur
honolulu
honor
honorable
honorary
honored
honoring
honors
honour
honourable
honoured
honours
hood
hook
hooked
hooker
hooks
hoon
hoop
hooper
hoover
hop
hope
hoped
hopeful
hopeless
hopes
hoping
hopkins
hopper
horace
horatio
horde
horizon
horizons
horizontal
horizontally
hormone
hormones
horn
horne
horned
horner
hornet
hornets
horns
horowitz
horrible
horrified
horror
horrors
horse
horseback
horsemen
horsepower
horses
horseshoe
horst
horticultural
horticulture
horton
hose
hospice
hospital
hospitality
hospitalized
hospitals
host
hostage
hostages
hosted
hostel
hostess
hostile
hostilities
hostility
hosting
hosts
hot
hotel
hotels
hotspur
hottest
hou
houghton
hound
hour
hourly
hours
house
housed
household
householder
households
housekeeper
housemates
houses
housewife
housewives
housing
houston
hove
how
howard
howe
howell
however
howie
howitzer
howitzers
hoy
hoyt
hp
hq
hr
hrer
hrs
hs
hsu
ht
htm
html
http
https
hu
hua
huang
hub
hubbard
hubei
huber
hubert
hubs
huddersfield
hudson
hue
huey
huff
huffington
huge
hugely
hugh
hughes
hugo
hui
hulk
hull
hulu
hum
human
humane
humanist
humanitarian
humanities
humanity
humanoid
humans
humber
humble
humboldt
hume
humid
humidity
humiliation
humility
humor
humorous
humour
humphrey
humphreys
hun
hunan
hundred
hundreds
hung
hungarian
hungarians
hungary
hunger
hungry
hunt
hunted
hunter
hunters
hunting
huntingdon
huntington
hunts
huntsville
hurdle
hurdles
hurley
hurling
huron
hurricane
hurricanes
hurried
hurry
hurst
hurt
hurts
husayn
husband
husbandry
husbands
hush
huskies
hussain
hussars
hussein
huston
hut
hutchinson
hutchison
huts
hutt
hutton
huxley
hwa
hwang
hyatt
hybrid
hybrids
hyde
hyderabad
hydra
hydraulic
hydro
hydroelectric
hydrogen
hye
hygiene
hym
hymn
hymns
hyo
hyper
hyperbolic
hypertension
hypotheses
hypothesis
hypothesized
hypothetical
hyun
hyundai
hz
i
ia
iaaf
iain
ian
ias
iata
ib
iba
iberia
iberian
ibf
ibid
ibm
ibn
ibrahim
ic
ica
icc
ice
iceland
icelandic
ich
ichi
icon
iconic
iconography
icons
ict
icy
id
ida
idaho
ide
idea
ideal
ideally
ideals
ideas
identical
identifiable
identification
identified
identifier
identifies
identify
identifying
identities
identity
ideological
ideologies
ideology
idf
idiot
idle
idol
idolatry
idols
idris
ie
iec
ieee
if
ifk
ig
iga
iglesias
ign
ignacio
ignatius
ignited
ignition
ignorance
ignorant
ignore
ignored
ignores
ignoring
igor
ii
iihf
iii
ij
ik
ike
il
ile
ili
ill
illawarra
illegal
illegally
illegitimate
illicit
illinois
illness
illnesses
illuminated
illumination
illusion
illusions
illustrate
illustrated
illustrates
illustrating
illustration
illustrations
illustrator
illustrious
iloilo
ilya
im
ima
image
imagery
images
imagesize
imaginary
imagination
imaginative
imagine
imagined
imaging
imam
imdb
imf
img
imitate
imitation
immaculate
immature
immediate
immediately
immense
immensely
immersed
immersion
immigrant
immigrants
immigrated
immigration
imminent
immoral
immortal
immortality
immune
immunity
impact
impacted
impacts
impaired
impairment
impartial
impatient
impeachment
impedance
impending
imperative
imperfect
imperial
imperialism
impetus
implant
implement
implementation
implementations
implemented
implementing
implements
implicated
implication
implications
implicit
implicitly
implied
implies
imply
implying
import
importance
important
importantly
importation
imported
importing
imports
impose
imposed
imposes
imposing
imposition
impossible
impoverished
impractical
impress
impressed
impression
impressions
impressive
imprint
imprisoned
imprisonment
improper
improperly
improve
improved
improvement
improvements
improves
improving
improvisation
improvised
impulse
in
ina
inability
inaccessible
inaccurate
inactivated
inactive
inadequate
inadvertently
inappropriate
inasmuch
inaugural
inaugurated
inauguration
inc
inca
incapable
incarcerated
incarceration
incarnation
incense
incentive
incentives
inception
inch
inches
incidence
incident
incidental
incidentally
incidents
inclination
incline
inclined
include
included
includes
including
inclusion
inclusive
income
incomes
incoming
incompatible
incompetent
incomplete
inconsistent
incorporate
incorporated
incorporates
incorporating
incorporation
incorrect
incorrectly
increase
increased
increases
increasing
increasingly
incredible
incredibly
increment
incumbent
incumbents
incurred
ind
indebted
indebtedness
indeed
indefinite
indefinitely
indemnity
independence
independent
independently
independents
index
indexed
indexes
indexing
india
indian
indiana
indianapolis
indians
indicate
indicated
indicates
indicating
indication
indications
indicative
indicator
indicators
indices
indicted
indictment
indie
indies
indifference
indifferent
indigenous
indignation
indigo
indira
indirect
indirectly
indispensable
individual
individually
individuals
indo
indochina
indonesia
indonesian
indoor
indoors
indra
induce
induced
induces
inducing
inducted
inductee
induction
indus
industrial
industrialist
industrialization
industries
industry
indy
indycar
ine
ineffective
inefficient
ineligible
inequalities
inequality
inevitable
inevitably
inexpensive
inexperienced
inf
infamous
infancy
infant
infantry
infants
infected
infection
infections
infectious
infer
inference
inferior
inferno
inferred
infielder
infiltrate
infiltration
infinite
infinitely
infinity
infirmary
inflammation
inflammatory
inflated
inflation
inflict
inflicted
inflorescence
influence
influenced
influences
influencing
influential
influenza
influx
info
inform
informal
informally
informant
informatics
information
informed
informing
informs
infrared
infrastructure
infringement
infty
infused
ing
inge
ingenious
inglis
ingram
ingredient
ingredients
ingrid
inhabit
inhabitants
inhabited
inhabits
inherent
inherently
inherit
inheritance
inherited
inhibit
inhibition
inhibitor
inhibitors
inhibits
iniquity
initial
initially
initials
initiate
initiated
initiating
initiation
initiative
initiatives
injected
injection
injunction
injure
injured
injuries
injuring
injury
injustice
ink
inland
inlet
inline
inmate
inmates
inn
innate
inner
innes
inning
innings
innocence
innocent
innovation
innovations
innovative
inns
innsbruck
innumerable
inorganic
inoue
input
inputs
inquest
inquire
inquired
inquirer
inquiries
inquiry
inquisition
ins
insane
insanity
inscribed
inscription
inscriptions
insect
insects
insert
inserted
inserting
insertion
inside
insider
insight
insights
insignia
insignificant
insist
insisted
insistence
insisting
insists
insolvency
insolvent
inspect
inspected
inspection
inspections
inspector
inspectors
inspiration
inspirational
inspire
inspired
inspiring
instability
instagram
install
installation
installations
installed
installing
installment
installments
instance
instances
instant
instantly
instead
instigated
instinct
institut
institute
instituted
institutes
institution
institutional
institutionalized
institutions
instituto
instruct
instructed
instruction
instructional
instructions
instructor
instructors
instrument
instrumental
instrumentalist
instrumentation
instruments
insufficient
insular
insulation
insulin
insult
insulted
insulting
insults
insurance
insured
insurgency
insurgent
insurgents
insurrection
int
intact
intake
integer
integers
integral
integrate
integrated
integrating
integration
integrity
intel
intellect
intellectual
intellectuals
intelligence
intelligent
intelligible
intend
intended
intending
intends
intense
intensely
intensified
intensity
intensive
intent
intention
intentional
intentionally
intentions
inter
interact
interacting
interaction
interactions
interactive
interacts
intercept
intercepted
interception
interceptions
interceptor
interchange
interchangeable
interchanges
intercity
intercollegiate
interconnected
intercontinental
intercourse
interdisciplinary
interest
interested
interesting
interests
interface
interfaces
interfere
interfered
interference
interfering
intergovernmental
interim
interior
interiors
interlude
intermediary
intermediate
intermittent
intermittently
intern
internacional
internal
internally
international
internationale
internationally
internationals
interned
internet
internment
internship
interpersonal
interpret
interpretation
interpretations
interpreted
interpreter
interpreting
interred
interrogated
interrogation
interrupt
interrupted
interruption
interscholastic
intersect
intersecting
intersection
intersections
intersects
interspersed
interstate
interstellar
interval
intervals
intervene
intervened
intervening
intervention
interventions
interview
interviewed
interviewer
interviewing
interviews
interwar
intestinal
intimacy
intimate
intimidation
into
intra
intracellular
intricate
intrinsic
intro
introduce
introduced
introduces
introducing
introduction
introductory
intrusion
intuition
intuitive
inuit
invade
invaded
invaders
invading
invalid
invariably
invariant
invasion
invasions
invasive
invented
invention
inventions
inventor
inventors
inventory
inverness
inverse
inversion
invertebrates
inverted
invest
invested
investigate
investigated
investigates
investigating
investigation
investigations
investigative
investigator
investigators
investing
investment
investments
investor
investors
invincible
invisible
invitation
invitational
invitations
invite
invited
invites
inviting
invoke
invoked
involuntary
involve
involved
involvement
involves
involving
inward
io
ioc
iodine
ion
ionic
ions
ios
iowa
ip
ipa
ipad
ipc
iphone
ipo
ipswich
iq
iqbal
ir
ira
iran
iranian
iraq
iraqi
ire
ireann
ireland
irene
irina
iris
irish
irma
iron
ironic
ironically
irons
irony
iroquois
irrational
irregular
irregularities
irrelevant
irresistible
irrespective
irrigation
irs
irvin
irvine
irving
irwin
is
isa
isaac
isabel
isabella
isabelle
isaiah
isbn
ise
isfahan
isil
isis
isla
islam
islamabad
islamic
islamist
island
islander
islanders
islands
isle
isles
islet
islington
ismail
isn
iso
isolate
isolated
isolation
isotope
isotopes
israel
israeli
israelis
israelites
iss
issn
issuance
issue
issued
issues
issuing
ist
istanbul
isthmus
istva
isu
it
ita
italia
italian
italiana
italianate
italians
italic
italics
italo
italy
item
items
iteration
itf
ithaca
ito
its
itself
itu
itunes
itv
iu
iucn
ius
iv
iva
ivan
ivanov
ives
ivo
ivoire
ivor
ivory
ivy
iwo
ix
iz
j
ja
jack
jacket
jackets
jackie
jackson
jacksonville
jacob
jacobite
jacobs
jacobsen
jacobson
jacqueline
jacques
jade
jae
jaffa
jaguar
jaguars
jai
jail
jailed
jaime
jain
jaipur
jakarta
jake
jakob
jalan
jalisco
jam
jamaica
jamaican
jamal
james
jameson
jamestown
jamie
jammu
jan
jana
janata
jane
janeiro
janet
jang
janice
jansen
january
japan
japanese
jar
jardine
jared
jarrett
jars
jarvis
jasmine
jason
jasper
java
javanese
javelin
javier
jaw
jaws
jay
jaya
jays
jazeera
jazz
jc
jd
je
jealous
jealousy
jean
jeanne
jeans
jedi
jeep
jeff
jefferson
jeffery
jeffrey
jehovah
jelly
jen
jena
jenkins
jenna
jennie
jennifer
jennings
jenny
jens
jensen
jeong
jeopardy
jer
jeremiah
jeremy
jericho
jerome
jerry
jersey
jerseys
jerusalem
jerzy
jess
jesse
jessica
jessie
jesu
jesuit
jesuits
jesus
jet
jets
jew
jewel
jewellery
jewelry
jewels
jewish
jews
jg
jharkhand
ji
jia
jian
jiang
jiangsu
jihad
jill
jim
jima
jime
jimi
jimmie
jimmy
jin
jing
jingle
jir
jiu
jj
jma
jn
jo
joa
joachim
joan
joanna
joanne
joaqui
joaquin
job
jobs
jock
jockey
jody
joe
joel
joey
johan
johann
johanna
johannes
johannesburg
johansson
john
johnny
johns
johnson
johnston
johnstone
johor
join
joined
joining
joins
joint
jointly
joints
joke
joker
jokes
jolly
jon
jonah
jonas
jonathan
jones
jong
jonny
joo
joon
jordan
jordanian
jorge
jos
jose
josef
joseon
joseph
josephine
josephus
josh
joshi
joshua
josiah
josie
journal
journalism
journalist
journalistic
journalists
journals
journey
journeys
joy
joyce
joyful
jp
jpeg
jpg
jr
js
jstor
jtwc
ju
jua
juan
jubilee
judah
judaism
judas
judd
jude
judea
judge
judged
judgement
judges
judging
judgment
judgments
judicial
judiciary
judith
judo
judoka
judy
jug
juice
jul
jules
julia
julian
juliana
julie
julien
juliet
juliette
julio
julius
july
jump
jumped
jumper
jumping
jumps
jun
junction
junctions
june
jung
jungle
junior
juniors
juniper
junk
junkers
juno
junta
jupiter
jura
jurassic
jure
juries
juris
jurisdiction
jurisdictions
jurisprudence
jurist
jurors
jury
just
justice
justices
justification
justified
justify
justin
justine
justinian
justly
jutland
juvenile
juveniles
juventus
k
ka
kabir
kabul
kahn
kai
kaiser
kal
kala
kalamazoo
kali
kam
kamal
kamen
kami
kampala
kan
kane
kang
kangaroo
kanji
kannada
kano
kansas
kant
kanye
kaplan
kapoor
kappa
kar
kara
karabakh
karachi
karan
karaoke
karate
karel
karen
kari
karim
karin
karl
karlsruhe
karma
karnataka
kashmir
kassel
kat
kate
katharine
katherine
kathleen
kathmandu
kathryn
kathy
katie
kato
katrina
katy
katz
kaufman
kaunas
kawasaki
kay
kaye
kazakh
kazakhstan
kazan
kb
kbs
kc
kd
ke
keane
kearney
keating
kedah
keefe
keegan
keel
keen
keenan
keene
keep
keeper
keepers
keeping
keeps
kei
keith
keller
kelley
kellogg
kelly
kelsey
kelvin
kemp
ken
kendall
kendrick
kennedy
kenneth
kenny
kensington
kent
kentucky
kenya
kenyan
kenyon
kepler
kept
ker
kerala
kerman
kern
kernel
kerr
kerry
kershaw
kessler
kettle
kevin
kew
key
keyboard
keyboardist
keyboards
keynes
keynote
keys
keystone
kf
kg
kgb
kh
kha
khaled
khalid
khalifa
khalil
khan
khanate
khanna
kharkiv
khmer
khorasan
khrushchev
khyber
khz
ki
kia
kick
kickboxing
kicked
kicker
kicking
kickoff
kicks
kickstarter
kid
kidd
kidnap
kidnapped
kidnapping
kidney
kids
kiel
kieran
kiev
kilda
kildare
kilkenny
kill
killed
killer
killers
killing
killings
kills
kilmarnock
kiln
kilograms
kilometer
kilometers
kilometre
kilometres
kim
kimball
kimberley
kimberly
kimura
kin
kinase
kind
kindergarten
kindle
kindly
kindness
kindred
kinds
kinetic
king
kingdom
kingdoms
kings
kingsley
kingston
kinship
kira
kirby
kirk
kirkland
kirkpatrick
kirsten
kiss
kissed
kisses
kissing
kit
kita
kitchen
kitchener
kitchens
kite
kits
kitt
kitts
kitty
kjv
kk
kl
klan
klaus
klein
kluge
km
knapp
knee
kneeling
knees
knesset
knew
knicks
knife
knight
knighted
knights
knitting
knives
knob
knock
knocked
knocking
knockout
knocks
knopf
knot
knots
know
knowing
knowingly
knowledge
knowles
known
knows
knox
knoxville
ko
kobayashi
kobe
koch
kochi
koda
kodak
kok
kola
kolkata
kombat
kon
kong
konrad
konstantin
kor
korea
korean
koreans
kos
kosovo
kota
kova
kowloon
kpa
kr
kra
kraft
krai
krako
kramer
kremlin
kris
krishna
kristen
kristin
kristina
kro
kruger
ks
kt
ku
kuala
kuhn
kumar
kun
kung
kunst
kuomintang
kurdish
kurdistan
kurds
kursk
kurt
kuwait
kv
kw
kwan
kwazulu
kwon
ky
kyiv
kyle
kylie
kyo
kyoto
kyrgyzstan
kyu
kyung
kyushu
l
la
laa
lab
label
labeled
labeling
labelled
labels
labor
laboratories
laboratory
laborers
labour
labourers
labrador
labs
labyrinth
lac
lace
lacey
lack
lacked
lacking
lacks
lacrosse
lacy
lad
ladd
ladder
laden
ladies
lady
lafayette
lag
laga
lago
lagoon
lagos
laguna
lahore
lai
laid
lair
laird
lake
lakeland
lakers
lakes
lakeside
lakshmi
lal
lam
lama
lamar
lamb
lambda
lambert
lambeth
lame
lament
lamented
lamont
lamp
lamps
lan
lana
lancashire
lancaster
lance
lancelot
lancers
lancet
land
landau
landed
lander
landfall
landfill
landing
landings
landlord
landlords
landmark
landmarks
landon
landowner
landowners
landry
lands
landscape
landscapes
landscaping
landslide
landslides
lane
lanes
lang
lange
langer
langford
langle
langley
language
languages
lanka
lankan
lansing
lantern
lanterns
lao
laos
lap
laps
lapse
laptop
lara
laredo
large
largely
larger
largest
largo
lark
larkin
larry
lars
larsen
larson
larsson
larva
larvae
larval
las
laser
lasers
last
lasted
lasting
lastly
lasts
lat
late
lately
latent
later
lateral
latest
latham
latin
latina
latino
latinos
latitude
latitudes
latter
lattice
latvia
latvian
lau
laude
lauded
lauderdale
laugh
laughed
laughing
laughs
laughter
launceston
launch
launched
launcher
launchers
launches
launching
laundering
laundry
laura
laureate
laurel
lauren
laurence
laurent
laurie
lausanne
lava
laval
lavender
lavish
law
lawful
lawfully
lawless
lawmakers
lawn
lawrence
laws
lawson
lawsuit
lawsuits
lawton
lawyer
lawyers
lax
lay
layer
layered
layers
laying
layout
lays
layton
lazarus
lazio
lazy
lb
lbs
lc
lcd
ld
ldots
lds
le
lea
leach
lead
leader
leaders
leadership
leading
leads
leaf
leaflets
leafs
league
leagues
leah
leak
leakage
leaked
leaking
leaks
lean
leaned
leaning
leap
lear
learn
learned
learners
learning
learns
learnt
leary
lease
leased
leases
leasing
least
leather
leave
leaves
leaving
lebanese
lebanon
leben
leblanc
lebron
lecture
lectured
lecturer
lectures
led
ledge
ledger
lee
leeds
lees
left
leftist
leg
lega
legacy
legal
legality
legally
legend
legendary
legends
leger
legged
legion
legions
legislation
legislative
legislator
legislators
legislature
legislatures
legitimacy
legitimate
lego
legs
lehigh
lehman
lehmann
lei
leicester
leicestershire
leiden
leigh
leighton
leinster
leipzig
leisure
leith
leland
lemmon
lemon
len
lena
lend
lending
length
lengthened
lengths
lengthy
lenin
leningrad
lennon
lennox
lenny
lens
lenses
lent
leo
leon
leonard
leonardo
leone
leonid
leopard
leopold
lepidoptera
leprosy
leq
lerner
leroy
les
lesbian
lesbians
lesions
lesley
leslie
lesotho
less
lesser
lesson
lessons
lest
lester
let
lethal
lets
letter
lettering
letterman
letters
letting
lettres
leukemia
leung
leuven
lev
levant
level
levels
lever
leverage
levi
levied
levin
levine
levy
lew
lewes
lewis
lex
lexical
lexicon
lexington
ley
leyland
leyte
lez
lg
lgbt
lgbtq
li
lia
liabilities
liability
liable
liaison
liam
liang
liao
liar
lib
libby
libel
liber
liberal
liberalism
liberals
liberate
liberated
liberation
liberator
liberia
libertadores
libertarian
liberties
liberty
librarian
libraries
library
libre
libretto
libya
libyan
lica
licence
licences
license
licensed
licenses
licensing
lichen
lick
lid
lie
lieberman
liechtenstein
lied
lien
lies
lieu
lieutenant
lieutenants
life
lifeboat
lifelong
lifespan
lifestyle
lifetime
lift
lifted
lifting
lifts
liga
ligament
ligand
ligands
light
lightcurve
lighted
lighter
lighthouse
lighting
lightly
lightning
lights
lightweight
ligue
like
liked
likelihood
likely
likened
likeness
likes
likewise
liking
lil
lille
lillian
lilly
lily
lim
lima
limb
limbs
limburg
lime
limerick
limestone
limit
limitation
limitations
limited
limiting
limits
lin
lina
lincoln
lincolnshire
lind
linda
linden
lindsay
lindsey
line
lineage
lineages
linear
linebacker
lined
lineman
linen
liner
liners
lines
lineup
ling
linguist
linguistic
linguistics
linguists
lining
link
linkage
linked
linking
links
linn
linnaeus
linton
linux
linz
lio
lion
lionel
lions
lip
lipid
lips
liquid
liquidation
liquids
liquor
lis
lisa
lisbon
list
listed
listen
listened
listener
listeners
listening
lister
listing
listings
lists
liszt
lit
lite
liter
literacy
literal
literally
literary
literate
literature
lithium
lithuania
lithuanian
litigation
litre
litter
little
littlefield
liturgical
liturgy
liu
liv
live
lived
livelihood
lively
liver
liverpool
livery
lives
livestock
living
livingston
livingstone
livre
livy
lix
liz
liza
lizard
lizards
lizzie
ljubljana
ll
llc
ller
lloyd
lm
ln
lo
load
loaded
loading
loads
loaf
loan
loaned
loans
lobbied
lobby
lobbying
lobe
lobes
lobo
lobster
loc
local
localities
locality
localization
localized
locally
locals
locate
located
locating
location
locations
loch
lock
lockdown
locke
locked
locker
lockhart
lockheed
locking
lockout
locks
lockwood
loco
locomotive
locomotives
locus
locust
lodge
lodged
lodges
lodging
loeb
loft
lofty
log
logan
logged
logging
logic
logical
logistic
logistical
logistics
logo
logos
logs
loi
loire
lois
lok
loki
lokomotiv
lola
lombard
lombardi
lombardy
lon
london
londonderry
lone
loneliness
lonely
loneos
long
longer
longest
longevity
longing
longitude
longitudinal
longstanding
longtime
look
looked
looking
lookout
looks
looney
loop
loops
loose
loosely
loot
looted
looting
lopes
lopez
lord
lords
lordship
lore
loren
lorentz
lorenz
lorenzo
loretta
lori
lorna
lorne
lorraine
los
lose
loser
losers
loses
losing
loss
losses
lost
lot
lothian
lots
lottery
lotus
lou
loud
louder
loudly
lough
louie
louis
louisa
louise
louisiana
louisville
lounge
lourdes
louvre
love
lovecraft
loved
lovell
lovely
lover
lovers
loves
loving
low
lowe
lowell
lower
lowered
lowering
lowest
lowland
lowlands
lowry
loyal
loyalist
loyalists
loyalty
loyola
lp
lpga
lps
lr
ls
lsd
lst
lsu
lt
ltd
ltte
lu
lubbock
lublin
luc
luca
lucas
luce
lucerne
lucha
lucia
lucian
luciano
lucie
lucien
lucifer
lucille
lucius
luck
lucknow
lucky
lucrative
lucy
ludlow
ludwig
luftwaffe
luggage
lui
luigi
luis
luisa
luiz
luka
lukas
luke
lullaby
lulu
lumber
luminosity
luminous
lump
lumpur
luna
lunar
lunch
lund
lung
lungs
luo
lupin
lure
lured
lush
lust
lute
luther
lutheran
luthor
luton
lutz
lux
luxembourg
luxurious
luxury
luz
luzon
lv
lvarez
lvaro
lviv
ly
lyce
lyceum
lydia
lying
lyle
lyman
lymphoma
lyn
lynch
lyndon
lynn
lynne
lynx
lyon
lyons
lyric
lyrical
lyrically
lyricist
lyrics
m
ma
maastricht
mabel
mac
macarthur
macau
macbeth
maccabi
macdonald
mace
macedonia
macedonian
macfarlane
macgregor
mach
machado
machine
machinery
machines
macintosh
mack
mackay
mackenzie
maclean
macleod
macmillan
macon
macos
macpherson
macquarie
macro
macy
mad
madagascar
madam
madame
madden
made
madeira
madeleine
madeline
mademoiselle
madhya
madison
madness
madonna
madras
madre
madrid
madurai
maduro
mae
maestro
mafia
mag
magazine
magazines
magdalen
magdalena
magdalene
magdeburg
magee
maggie
magic
magical
magician
magistrate
magistrates
magma
magna
magnate
magnesium
magnet
magnetic
magneto
magnificent
magnitude
magnolia
magnum
magnus
maguire
magyar
mah
maha
mahabharata
mahal
maharaj
maharaja
maharashtra
mahatma
mahdi
maher
mahler
mahmoud
mahmud
mahogany
mahoney
mai
maid
maiden
maidens
maids
maidstone
mail
mailing
main
maine
mainland
mainline
mainly
mainstream
maintain
maintained
maintaining
maintains
maintenance
mainz
maison
maitland
maize
maj
majestic
majesty
major
majority
majors
make
maker
makers
makes
makeshift
makeup
making
makoto
mal
mala
malabar
malacca
malaria
malawi
malay
malaya
malayalam
malayan
malaysia
malaysian
malcolm
maldives
maldonado
male
males
mali
malibu
malice
malicious
malignant
malik
mall
malley
mallorca
mallory
malls
malmo
malone
maloney
malt
malta
maltese
malvern
mama
mamluk
mamma
mammal
mammalian
mammals
mammoth
man
mana
manage
managed
management
manager
managerial
managers
manages
managing
manchester
manchu
manchuria
mandal
mandarin
mandate
mandated
mandates
mandatory
mandela
mandir
mandolin
mandy
mane
maneuver
maneuvers
manfred
manga
manganese
mango
mangrove
manhattan
mani
mania
manifest
manifestation
manifestations
manifested
manifesto
manifold
manila
manipulate
manipulated
manipulating
manipulation
manipur
manitoba
mankind
manly
mann
manned
manner
manners
mannheim
manning
manny
manor
manors
manpower
mans
mansfield
mansion
mansions
manslaughter
manson
mansur
mantle
mantua
manu
manual
manually
manuals
manuel
manufacture
manufactured
manufacturer
manufacturers
manufactures
manufacturing
manuscript
manuscripts
manx
many
mao
maori
map
maple
mapped
mapping
maps
mar
mara
maratha
marathi
marathon
marble
marc
marcel
marcello
marcelo
march
marche
marched
marches
marching
marcia
marco
marconi
marcos
marcus
mare
marek
margaret
margarita
marge
margin
marginal
marginalized
margins
margot
margrave
marguerite
mari
maria
mariah
marian
mariana
marianne
mariano
marie
marietta
marijuana
marilyn
marin
marina
marine
mariner
mariners
marines
marinespecies
marino
mario
marion
marist
marital
maritime
marius
marjorie
mark
marked
markedly
marker
markers
market
marketed
marketing
marketplace
markets
markham
marking
markings
marko
marks
markus
marlborough
marlene
marley
marlin
marlins
marlon
marne
maroon
maroons
marque
marquee
marques
marquess
marquette
marquis
marred
marriage
marriages
married
marries
marriott
marrow
marry
marrying
mars
marsden
marseille
marsh
marshal
marshall
marshals
marshes
marston
mart
marta
martha
marti
martial
martian
martin
martina
martinez
martini
martinique
martino
martins
marty
martyn
martyr
martyrdom
martyrs
maru
marvel
marvelous
marvin
marx
marxism
marxist
mary
maryland
marylebone
mas
mascot
masculine
masjid
mask
masked
masks
mason
masonic
masonry
masovian
mass
massa
massachusetts
massacre
massacred
massacres
masse
masses
massey
massif
massimo
massive
mast
master
mastered
mastering
masterpiece
masters
mastery
masts
mat
mata
match
matchday
matched
matches
matching
matchup
mate
mateo
mater
material
materials
materiel
maternal
maternity
mates
math
mathbb
mathbf
mathcal
mathematical
mathematician
mathematicians
mathematics
mather
matheson
mathew
mathews
mathfrak
mathias
mathieu
mathis
mathrm
matilda
mating
matrices
matrix
matron
mats
matsumoto
matt
matteo
matter
matters
matthew
matthews
matthias
mature
maturity
mau
maud
maude
maui
maureen
maurer
maurice
mauricio
mauritania
mauritius
mauro
mausoleum
maverick
mavericks
max
maxi
maxim
maximal
maximilian
maximize
maximum
maximus
maxine
maxwell
may
maya
mayan
maybe
mayer
mayfield
mayhem
maynard
mayo
mayor
mayoral
mayors
mays
mazda
maze
mb
mba
mbc
mbe
mc
mca
mcbride
mcc
mccabe
mccain
mccall
mccann
mccarthy
mccartney
mcclellan
mcclure
mcconnell
mccormack
mccormick
mccoy
mcculloch
mcdermott
mcdonald
mcdonnell
mcdowell
mcfarland
mcgee
mcgill
mcgovern
mcgowan
mcgrath
mcgraw
mcgregor
mcguire
mcintosh
mcintyre
mckay
mckee
mckenna
mckenzie
mckinley
mckinney
mclaren
mclaughlin
mclean
mcleod
mcmahon
mcmanus
mcmaster
mcmillan
mcnally
mcnamara
mcneil
mcpherson
mcqueen
mcrae
md
me
mead
meade
meadow
meadows
meal
meals
mean
meaning
meaningful
meanings
means
meant
meantime
meanwhile
measurable
measure
measured
measurement
measurements
measures
measuring
meat
meath
mecca
mechanic
mechanical
mechanically
mechanics
mechanism
mechanisms
mechanized
mecklenburg
med
medal
medalist
medalists
medallion
medallist
medals
media
medial
median
mediate
mediated
mediation
mediator
medicaid
medical
medicare
medication
medications
medici
medicinal
medicine
medicines
medieval
medina
mediocre
meditation
mediterranean
medium
medley
meek
meet
meeting
meetings
meets
meg
mega
megan
mehmed
mehmet
mehta
mei
meier
meiji
mein
meir
mel
melancholy
melanie
melbourne
melinda
melissa
mellon
melo
melodic
melodies
melodrama
melody
melrose
melt
melted
melting
melton
melville
melvin
member
members
membership
memberships
membrane
membranes
memo
memoir
memoirs
memorabilia
memorable
memorandum
memorial
memorials
memoriam
memories
memory
memphis
men
menace
mendelssohn
mendes
mendoza
meng
mennonite
menon
ment
mental
mentally
mention
mentioned
mentioning
mentions
mentor
mentored
mentoring
mentors
menu
menzies
mep
mer
mercantile
mercedes
mercenaries
mercenary
mercer
merchandise
merchant
merchants
merciful
mercury
mercy
mere
meredith
merely
merge
merged
merger
mergers
merges
merging
meridian
merit
meritorious
merits
merkel
merle
merlin
mermaid
merrick
merrill
merritt
merry
merseyside
merton
mes
mesa
mesh
mesopotamia
mess
message
messages
messaging
messenger
messengers
messiah
messina
messrs
met
meta
metabolic
metabolism
metacritic
metadata
metal
metallic
metallica
metals
metaphor
metaphysical
metaphysics
meteor
meteorological
meteorology
meter
meters
methane
method
methodist
methodology
methods
methyl
metre
metres
metric
metrics
metro
metropolis
metropolitan
mets
metz
meuse
mexican
mexicana
mexicans
mexico
meyer
meyers
meyrick
mez
mezzo
mf
mfa
mg
mgm
mh
mhz
mi
mia
miami
mic
mica
mice
mich
michael
michaels
michel
michelangelo
michele
michelin
michelle
michigan
mick
mickey
micro
microbial
microbiology
microorganisms
microphone
microscope
microscopic
microscopy
microsoft
microwave
mid
midday
middle
middlesbrough
middlesex
middleton
middletown
middleweight
midfield
midfielder
midi
midland
midlands
midnight
midst
midsummer
midtown
midway
midwest
midwestern
mie
mifflin
mig
might
mighty
migrant
migrants
migrate
migrated
migrating
migration
migrations
migratory
miguel
mika
mike
mikhail
miki
mil
milan
milano
mild
mildred
mile
miles
milestone
milestones
milford
militant
militants
military
militia
militias
milk
milky
mill
millar
millard
mille
millennium
miller
millet
milligan
milling
million
millionaire
millions
mills
millwall
milne
milner
milo
milos
milton
milwaukee
mimi
mimic
min
mina
minas
mind
mindanao
minded
minds
mine
mined
miner
mineral
minerals
miners
minerva
mines
ming
mingled
minh
mini
miniature
miniatures
minimal
minimize
minimum
mining
miniseries
minister
ministerial
ministers
ministries
ministry
minneapolis
minnesota
minnie
minogue
minor
minorities
minority
minors
minsk
mint
minted
minus
minute
minutes
mio
miocene
mir
mira
miracle
miracles
miraculous
mirage
miranda
miriam
mirror
mirrored
mirrors
mirza
mis
miscellaneous
mischief
misconduct
misdemeanor
mise
miserable
misery
misfortune
mishnah
mishra
misleading
miss
missed
misses
missile
missiles
missing
mission
missionaries
missionary
missions
mississauga
mississippi
missouri
mist
mistake
mistaken
mistakenly
mistakes
mister
mistress
misty
misunderstanding
misunderstood
misuse
mit
mitch
mitchell
mitigate
mitigation
mitochondrial
mitra
mitsubishi
mitt
mix
mixed
mixer
mixes
mixing
mixtape
mixture
mk
ml
mla
mlb
mls
mm
mma
mme
mn
mo
moat
mob
mobile
mobility
mobilization
mobilized
mock
mocked
mocking
mod
modal
mode
model
modeled
modeling
modelled
modelling
models
modena
moderate
moderately
moderation
moderator
modern
moderne
modernism
modernist
modernity
modernization
modernized
modes
modest
modesty
modi
modification
modifications
modified
modify
modifying
modular
modulation
module
modules
moe
moffat
mogadishu
mohamed
mohammad
mohammed
mohan
mohawk
moi
moines
moist
moisture
mojo
mol
molar
mold
moldavia
moldova
moldovan
mole
molecular
molecule
molecules
molina
molluscabase
mollusk
molly
molten
mom
moment
moments
momentum
mon
mona
monaco
monaghan
monarch
monarchs
monarchy
monasteries
monastery
monastic
monday
mondays
monde
mondo
monetary
money
mongol
mongolia
mongolian
mongols
monica
moniker
monique
monitor
monitored
monitoring
monitors
monk
monkey
monkeys
monks
monmouth
mono
monograph
monographs
monologue
monoplane
monopoly
monotypic
monoxide
monroe
mons
monsieur
monsoon
monster
monsters
monstrous
mont
montagu
montague
montana
montane
monte
montenegrin
montenegro
monterey
monterrey
montevideo
montgomery
month
monthly
months
montoya
montpellier
montre
montreal
montrose
montserrat
monty
monument
monumental
monuments
monza
mood
moody
moon
mooney
moonlight
moons
moor
moore
moored
moors
moose
mor
mora
moral
morale
morales
morality
morally
morals
moran
moravia
moravian
moray
more
moreau
moreno
moreover
moreton
morgan
mori
moritz
morley
mormon
mormons
morning
mornings
moro
moroccan
morocco
morphological
morphology
morris
morrison
morrissey
morrow
morse
mort
mortal
mortality
mortally
mortar
mortars
mortgage
mortgages
mortimer
morton
mos
mosaic
mosaics
moscow
moselle
moses
moshe
mosley
mosque
mosques
mosquito
moss
most
mostly
mosul
motel
moth
mother
mothers
motherwell
moths
motif
motifs
motion
motions
motivated
motivation
motivations
motive
motives
moto
motor
motorcycle
motorcycles
motorized
motorola
motors
motorsport
motorsports
motorway
motown
mott
motte
motto
mou
mould
mound
mounds
mount
mountain
mountaineer
mountaineers
mountainous
mountains
mounted
mounting
mounts
mourning
mouse
mouth
mouths
movable
move
moved
movement
movements
moves
movie
movies
moving
mozambique
mozart
mp
mph
mps
mr
mri
mrna
mrs
mrt
ms
msc
msnbc
mss
msu
mt
mta
mtv
mu
muay
mubarak
much
mud
muddy
mueller
mughal
muhammad
muir
mukherjee
mulder
mule
mules
mullen
muller
mulligan
mullins
multi
multicultural
multilateral
multimedia
multinational
multiplayer
multiple
multiplication
multiplied
multiply
multitude
mumbai
mummy
mun
mundo
munich
municipal
municipalities
municipality
munitions
munro
munster
murad
mural
murals
murcia
murder
murdered
murderer
murderers
murdering
murders
murdoch
muriel
murmured
murphy
murray
mus
musa
muscle
muscles
muscular
muse
museo
museum
museums
mushroom
mushrooms
music
musica
musical
musically
musicals
musician
musicians
musicologist
musik
musique
musk
muslim
muslims
mussolini
must
mustafa
mustang
mustangs
mustard
muster
mustered
mutant
mutants
mutation
mutations
mute
mutiny
muttered
mutual
mutually
muzzle
mv
mvp
mw
mx
my
myanmar
myers
myles
myra
myriad
myrtle
myself
mysore
myspace
mysteries
mysterious
mystery
mystic
mystical
mysticism
myth
mythical
mythological
mythology
myths
n
na
naacp
nabla
nac
nach
nacional
nad
nadal
nader
nadia
nadu
naga
nagano
nagar
nagasaki
nagorno
nagoya
nagpur
nagy
nai
naia
nail
nails
nair
nairobi
naive
nakajima
nakamura
naked
nakhon
nam
namco
name
named
namely
names
namesake
namibia
naming
nan
nana
nancy
nanda
nanjing
nanny
nano
nantes
naomi
napa
napier
naples
napoleon
napoleonic
napoli
nara
narayan
narcotics
narendra
narrated
narration
narrative
narratives
narrator
narrow
narrowed
narrower
narrowly
narrows
nas
nasa
nasal
nascar
nascent
nash
nashville
nasir
nasr
nassau
nasser
nasty
nat
natal
natalia
natalie
natasha
nate
nath
nathan
nathaniel
nation
national
nationale
nationalism
nationalist
nationalists
nationalities
nationality
nationally
nationals
nations
nationwide
native
natives
nativity
nato
natural
naturalist
naturalization
naturalized
naturally
nature
naughty
nausea
nautical
navajo
naval
navarre
navarro
nave
navigable
navigate
navigation
navigational
navigator
navy
nawab
nay
nazareth
nazi
nazionale
nazis
nazism
nb
nba
nbc
nbl
nc
ncaa
nchen
nchez
nd
nde
nder
ndez
ndp
ne
nea
neal
near
nearby
nearer
nearest
nearing
nearly
neat
nebraska
nebula
nec
necessarily
necessary
necessitated
necessities
necessity
neck
necked
necklace
necks
nectar
ned
need
needed
needham
needing
needle
needles
needs
needy
negation
negative
negatively
neglect
neglected
negligence
negligible
negotiate
negotiated
negotiating
negotiation
negotiations
negro
negroes
negros
nehru
neighbor
neighborhood
neighborhoods
neighboring
neighbors
neighbour
neighbourhood
neighbourhoods
neighbouring
neighbours
neil
neill
neither
nel
nell
nellie
nelly
nelson
nemesis
nen
neo
neoclassical
neolithic
neon
nepal
nepalese
nepali
nephew
neptune
ner
nero
nerve
nerves
nervous
nes
ness
nest
nesting
nestor
nests
net
netanyahu
netball
netflix
netherlands
nets
netted
netting
network
networking
networks
neue
neumann
neural
neurological
neuron
neuronal
neurons
neuroscience
neutral
neutrality
neutron
nevada
never
nevertheless
neville
nevis
new
newark
newborn
newbury
newcastle
newcomer
newcomers
newell
newer
newest
newfoundland
newly
newman
newmarket
newport
news
newscast
newscasts
newsletter
newspaper
newspapers
newsweek
newton
newtown
next
nexus
nez
nf
nfc
nfl
ng
nga
ngc
ngel
ngo
ngos
nguye
nguyen
nh
nha
nhk
nhl
nhs
ni
nia
niagara
nic
nica
nicaragua
nicaraguan
nice
niche
niches
nicholas
nicholls
nichols
nicholson
nicht
nick
nickel
nickelodeon
nickname
nicknamed
nicknames
nicky
nico
nicola
nicolae
nicolas
nicole
nie
niece
niels
nielsen
nietzsche
nig
nigel
niger
nigeria
nigerian
nigh
night
nightclub
nightingale
nightly
nightmare
nightmares
nights
nighttime
nih
nik
nike
nikita
nikki
nikola
nikolai
nikolaus
nikolay
nil
nile
niles
nils
nilsson
nin
nina
nine
nineteen
nineteenth
ninety
ning
ninja
nino
nintendo
ninth
nio
nippon
nirvana
nis
nissan
nit
nitrate
nitro
nitrogen
nix
nixon
nizhny
nj
nk
nkvd
nl
nm
nme
no
noaa
noah
nobel
nobility
noble
nobleman
nobles
nobody
nocturnal
nod
nodded
node
nodes
noe
noel
noir
noise
noises
noisy
nokia
nolan
nom
nomadic
nomads
nomenclature
nominal
nominally
nominate
nominated
nomination
nominations
nominee
nominees
non
none
nonetheless
nonfiction
nonlinear
nonprofit
nonsense
nonstop
noodles
noon
noor
nor
nora
norbert
nord
nordic
norfolk
norm
norma
normal
normalized
normally
norman
normandy
norms
norris
norse
norte
north
northampton
northamptonshire
northbound
northeast
northeastern
northerly
northern
northernmost
northrop
northumberland
northward
northwards
northwest
northwestern
norton
norway
norwegian
norwich
norwood
nos
nose
nosed
nostalgia
not
notable
notably
notary
notation
notch
note
notebook
noted
notes
noteworthy
nothing
notice
noticeable
noticeably
noticed
notices
notification
notified
notify
noting
notion
notions
notoc
notoriety
notorious
notre
nottingham
nottinghamshire
notts
notwithstanding
noun
nouns
nouveau
nouvelle
nov
nova
novak
novel
novelist
novella
novels
novelty
november
novgorod
novi
novice
novo
now
nowadays
nowhere
np
npc
npr
nr
nrhp
nrl
ns
nsa
nster
nsw
nt
nther
nu
nuclear
nuclei
nucleotide
nucleus
nude
nudity
nuestra
nueva
nuevo
nugent
nuggets
nuisance
null
num
number
numbered
numbering
numbers
numerals
numerical
numerous
nun
nunavut
nuns
nur
nuremberg
nurse
nursery
nurses
nursing
nut
nutrient
nutrients
nutrition
nutritional
nuts
nv
nw
nwa
nxt
ny
nyc
nye
nyi
nylon
nypd
nys
nyu
nz
o
oak
oakland
oakley
oaks
oara
oasis
oates
oath
oaths
oaxaca
ob
obama
obe
obedience
obelisk
oberliga
obesity
obey
obeyed
obituary
object
objected
objection
objections
objective
objectives
objects
oblast
obligated
obligation
obligations
obligatory
obliged
oblique
oblivion
oblong
oboe
obs
obscene
obscure
obscured
obscurity
observable
observance
observation
observations
observatory
observe
observed
observer
observers
observes
observing
obsessed
obsession
obsolete
obstacle
obstacles
obstruction
obtain
obtained
obtaining
obtains
obverse
obvious
obviously
oc
occasion
occasional
occasionally
occasioned
occasions
occidental
occult
occupancy
occupants
occupation
occupational
occupations
occupied
occupies
occupy
occupying
occur
occurred
occurrence
occurrences
occurring
occurs
ocean
oceania
oceanic
oceans
och
ochreous
oct
octagonal
octave
october
octopus
od
oda
odd
odds
ode
oder
odessa
odi
odin
odisha
odor
odyssey
oecd
of
off
offaly
offence
offences
offended
offender
offenders
offending
offense
offenses
offensive
offer
offered
offering
offerings
offers
office
officer
officers
offices
official
officially
officials
officio
offline
offs
offseason
offset
offshore
offspring
often
og
ogden
oh
ohio
oi
oil
oilers
oils
ois
oise
ok
okay
okinawa
oklahoma
okrug
ol
ola
olaf
olav
old
oldenburg
older
oldest
oldham
oldies
olds
ole
oleg
olfactory
olga
olive
oliveira
oliver
olives
olivia
olivier
ollie
olsen
olson
olya
olympia
olympiacos
olympiad
olympian
olympic
olympics
olympus
om
omaha
oman
omar
ombudsman
omega
omission
omitted
omnibus
on
onboard
once
oncology
one
ones
oneself
ong
ongoing
onion
onions
online
only
ono
ons
onset
onstage
ontario
onto
onward
onwards
op
ope
opel
open
opened
opener
opening
openings
openly
openness
opens
opera
operas
operate
operated
operates
operatic
operating
operation
operational
operations
operative
operatives
operator
operatorname
operators
operetta
opined
opinion
opinions
opioid
opium
opponent
opponents
opportunities
opportunity
oppose
opposed
opposes
opposing
opposite
opposition
oppressed
oppression
oppressive
oprah
ops
opt
opted
optic
optical
optics
optimal
optimism
optimistic
optimization
optimized
optimum
opting
option
optional
optioned
options
opus
or
ora
oracle
oral
oran
orange
orator
oratorio
oratory
orb
orbit
orbital
orbiter
orbiting
orbits
orchard
orchards
orchestra
orchestral
orchestras
orchestrated
orchestration
orchid
ordained
ordeal
order
ordered
ordering
orderly
orders
ordinance
ordinances
ordinarily
ordinary
ordination
ordnance
ore
oregon
orf
org
organ
organic
organisation
organisations
organise
organised
organiser
organisers
organising
organism
organisms
organist
organization
organizational
organizations
organize
organized
organizer
organizers
organizes
organizing
organs
ori
oricon
orient
oriental
orientation
oriented
origen
origin
original
originality
originally
originals
originate
originated
originates
originating
origins
orioles
orion
orkney
orlando
orle
orleans
ornament
ornamental
ornamentation
ornaments
ornate
oro
orphan
orphanage
orphaned
orphans
orpheus
orr
orson
ortega
orthodox
orthodoxy
orthogonal
orthography
ortiz
orton
orwell
os
osaka
osborn
osborne
osbourne
oscar
oskar
oslo
osman
osprey
ost
ostensibly
oswald
ot
otago
other
others
otherwise
otimes
otis
ott
ottawa
otter
otto
ottoman
ottomans
ou
ought
our
ours
ourselves
ousted
out
outbreak
outbreaks
outcome
outcomes
outcry
outdated
outdoor
outdoors
outer
outfield
outfielder
outfit
outfits
outflow
outgoing
outing
outlaw
outlawed
outlaws
outlet
outlets
outline
outlined
outlines
outlook
outlying
outnumbered
outpatient
outpost
outposts
output
outputs
outrage
outraged
outrageous
outreach
outright
outs
outscored
outset
outside
outsider
outsiders
outskirts
outspoken
outstanding
outward
ov
ova
oval
ovarian
ovation
oven
over
overall
overboard
overcame
overcome
overcoming
overdose
overflow
overhaul
overhead
overland
overlap
overlapping
overline
overlook
overlooked
overlooking
overlord
overly
overnight
override
overruled
overrun
overs
oversaw
overseas
oversee
overseeing
overseen
oversees
overshadowed
oversight
overt
overtaken
overthrow
overthrown
overtime
overtook
overture
overturn
overturned
overview
overwhelmed
overwhelming
overwhelmingly
ovid
owe
owed
owen
owens
owes
owing
owl
owls
own
owned
owner
owners
ownership
owning
owns
ox
oxen
oxford
oxfordshire
oxidation
oxide
oxygen
oyster
oz
ozone
p
pa
pablo
pac
pace
paced
pacers
pacheco
pacific
pacifist
pack
package
packaged
packages
packaging
packard
packed
packer
packers
packet
packets
packing
packs
pact
pad
paddington
paddle
paddy
padilla
padma
padre
padres
pads
padua
pagan
page
pageant
pages
paget
pagoda
pahang
pai
paid
paige
pain
paine
painful
pains
paint
painted
painter
painters
painting
paintings
paints
pair
paired
pairing
pairs
paisley
pak
pakistan
pakistani
pal
palace
palaces
palacio
palais
palatinate
palatine
palau
palazzo
pale
palermo
palestine
palestinian
palestinians
palette
palgrave
pali
palin
palladium
palm
palma
palmer
palmerston
palms
palo
palomar
pam
pamela
pamphlet
pamphlets
pan
panama
panathinaikos
panchayat
pancreatic
panda
pandemic
pandit
pandora
panel
panels
pang
panic
panorama
panoramic
pantheon
panther
panthers
pants
panzer
pao
paola
paolo
pap
papa
papacy
papal
paper
paperback
papers
papua
papyrus
par
para
parable
parachute
parade
parades
paradigm
paradise
paradox
paragraph
paragraphs
paraguay
paraguayan
parallel
parallels
paralympic
paralympics
paralysis
paralyzed
parameter
parameters
paramilitary
paramount
parana
paranormal
parapet
parasite
parasites
parasitic
paratroopers
parc
parcel
parcels
parchment
pardon
pardoned
parent
parental
parentheses
parenthood
parenting
parents
paris
parish
parishes
parishioners
parisian
parity
park
parked
parker
parking
parkinson
parkland
parks
parkway
parliament
parliamentarian
parliamentarians
parliamentary
parliaments
parlor
parma
parnell
parochial
parodies
parody
parole
parque
parr
parramatta
parrish
parrot
parry
parson
parsons
part
partake
parte
parted
partement
parti
partial
partially
participant
participants
participate
participated
participates
participating
participation
particle
particles
particular
particularly
particulars
partido
parties
parting
partisan
partisans
partition
partitions
partizan
partly
partner
partnered
partnering
partners
partnership
partnerships
partridge
parts
party
pas
pasadena
pascal
pasha
paso
pass
passage
passages
passed
passenger
passengers
passer
passeriformesfamily
passes
passing
passion
passionate
passions
passive
passover
passport
passports
password
past
paste
pastor
pastoral
pastors
pastry
pasture
pastures
pat
patch
patches
patel
patent
patented
patents
paternal
paterson
path
pathogen
pathogens
pathological
pathology
paths
pathway
pathways
patience
patient
patients
patna
patriarch
patriarchal
patriarchate
patrice
patricia
patrick
patriot
patriotic
patriotism
patriots
patrol
patrolled
patrolling
patrols
patron
patronage
patrons
patsy
pattern
patterned
patterns
patterson
patti
patton
patty
pau
paul
paula
pauli
pauline
paulista
paulo
pause
paused
paved
pavel
pavement
pavia
pavilion
pavilions
paving
pavn
paw
pawn
pax
paxton
pay
payable
paying
payload
payment
payments
payne
payroll
pays
payton
paz
pb
pba
pbs
pc
pci
pcr
pcs
pd
pdc
pdf
pdp
pe
pea
peabody
peace
peaceful
peacefully
peacekeeping
peacetime
peach
peacock
peak
peaked
peaking
peaks
peanut
peanuts
pear
pearce
pearl
pearls
pearson
peas
peasant
peasants
peat
peck
peculiar
pedagogical
pedagogy
pedal
pedersen
pedestal
pedestrian
pedestrians
pediatric
pedigree
pediment
pedro
pee
peel
peer
peerage
peers
peg
pegasus
peggy
pei
peking
pelham
pelican
pelvic
pemberton
pembroke
pen
penal
penalties
penalty
penance
penang
pence
pencil
pendant
pending
pendleton
pendulum
penelope
penetrate
penetrated
penetrating
penetration
peng
penguin
penguins
peninsula
peninsular
penis
penitentiary
penn
pennant
penned
pennington
pennsylvania
penny
penrith
pens
pensacola
pension
pensions
pentagon
pentecostal
penultimate
people
peoples
peoria
pep
pepe
pepper
peppers
pepsi
peptide
per
perak
perceive
perceived
percent
percentage
percentages
perception
perceptions
perch
percival
percussion
percy
pereira
perennial
perez
perfect
perfected
perfection
perfectly
perform
performance
performances
performed
performer
performers
performing
performs
perfume
perhaps
peril
perimeter
period
periodic
periodical
periodically
periodicals
periods
peripheral
periphery
perish
perished
perkins
perm
permanent
permanently
permian
permissible
permission
permit
permits
permitted
permitting
pero
perpendicular
perpetrated
perpetrator
perpetrators
perpetual
perry
persecuted
persecution
perseverance
persia
persian
persians
persist
persisted
persistence
persistent
person
persona
personal
personalities
personality
personally
personnel
persons
perspective
perspectives
persuade
persuaded
persuasion
pertaining
perth
pertinent
peru
perugia
peruvian
peshawar
pesos
pest
pesticides
pests
pet
petals
petar
pete
peter
peterborough
peters
petersburg
petersen
peterson
petit
petite
petition
petitioned
petitioner
petitioners
petitions
petr
petra
petro
petrol
petroleum
petrus
pets
petty
peugeot
pew
peyton
pez
pf
pfa
pfeiffer
pg
pga
ph
pha
phane
phantom
pharaoh
pharmaceutical
pharmaceuticals
pharmacist
pharmacology
pharmacy
phase
phased
phases
phd
phelps
phenomena
phenomenon
phi
phil
philadelphia
philanthropic
philanthropist
philanthropy
philharmonic
philip
philipp
philippe
philippine
philippines
philips
phillies
phillip
phillips
philologist
philology
philosopher
philosophers
philosophical
philosophy
phoebe
phoenix
phone
phones
phonetic
phonology
phosphate
phosphorus
phosphorylation
photo
photograph
photographed
photographer
photographers
photographic
photographs
photography
photon
photons
photos
php
phra
phrase
phrases
phu
phyllis
phylogenetic
phylogeny
physical
physically
physician
physicians
physicist
physics
physiological
physiology
pi
pia
pianist
piano
pianos
piazza
pic
picard
picasso
piccadilly
piccolo
pick
picked
pickering
picket
pickett
picking
picks
pickup
picnic
pico
pictorial
picture
pictured
pictures
picturesque
pie
piece
pieces
pied
piedmont
pier
pierce
pierced
piercing
piero
pierre
piers
pieter
pietro
piety
pig
pigeon
pigeons
pigment
pigments
pigs
pike
pilar
pilasters
pile
piles
pilgrim
pilgrimage
pilgrims
pill
pillai
pillar
pillars
pillow
pills
pilot
piloted
pilots
pin
pinch
pine
pines
ping
pink
pinnacle
pinned
pins
pinto
pioneer
pioneered
pioneering
pioneers
piotr
pious
pip
pipe
pipeline
pipelines
piper
pipes
piping
piracy
pirate
pirates
pisa
pistol
pistols
piston
pistons
pit
pitch
pitched
pitcher
pitchers
pitches
pitchfork
pitching
pits
pitt
pitted
pittsburgh
pity
pius
pivot
pivotal
pixel
pixels
pizza
pk
pl
pla
place
placebo
placed
placement
placements
places
placing
plague
plagued
plain
plainly
plains
plaintiff
plaintiffs
plan
planar
planck
plane
planes
planet
planetary
planets
plank
planned
planner
planners
planning
plans
plant
plantation
plantations
planted
planter
planters
planting
plants
plaque
plaques
plasma
plaster
plastic
plastics
plata
plate
plateau
plates
platform
platforms
platinum
plato
platoon
platt
plausible
play
playable
playback
playbill
playboy
played
player
players
playful
playground
playhouse
playing
playlist
playoff
playoffs
plays
playstation
playwright
playwrights
plaza
plc
plea
plead
pleaded
pleading
pleas
pleasant
please
pleased
pleasing
pleasure
pleasures
plebiscite
pledge
pledged
pleistocene
plenary
plenipotentiary
plentiful
plenty
plight
pliny
plo
plot
plotarea
plotdata
plots
plotted
plotting
plough
plug
plum
plumage
plumbing
plume
plummer
plunder
plundered
plunge
plunged
plural
plurality
plus
plutarch
pluto
plutonium
plymouth
pm
pmatrix
pneumatic
pneumonia
png
po
pocket
pockets
pod
podcast
podcasts
podium
podiums
pods
poe
poem
poems
poet
poetic
poetry
poets
point
pointe
pointed
pointer
pointers
pointing
points
poison
poisoned
poisoning
poisonous
pokal
poke
poker
pol
poland
polar
polaris
polarization
polarized
pole
poles
poli
police
policeman
policemen
policies
policing
policy
polis
polish
polished
politburo
polite
political
politically
politician
politicians
politico
politics
polity
polk
polka
poll
pollard
polled
pollen
polling
pollock
polls
pollutants
polluted
pollution
polly
polo
poly
polydor
polygon
polymer
polymerase
polymers
polynesia
polynesian
polynomial
polynomials
polytechnic
pomerania
pomeranian
pomona
pompey
ponce
pond
ponds
pont
ponte
pontiac
pontifical
pony
pooh
pool
poole
pools
poor
poorer
poorest
poorly
pop
pope
popes
poplar
poppy
pops
populace
popular
popularity
popularized
popularly
populated
population
populations
populist
populous
por
porcelain
porch
pore
pork
porn
pornographic
pornography
porous
porsche
port
porta
portable
portage
portal
portals
porte
ported
porter
portfolio
portfolios
portico
portion
portions
portland
porto
portrait
portraits
portray
portrayal
portrayed
portraying
portrays
ports
portsmouth
portugal
portuguese
pos
pose
posed
poseidon
poses
posing
position
positioned
positioning
positions
positive
positively
posse
possess
possessed
possesses
possessing
possession
possessions
possessive
possibilities
possibility
possible
possibly
post
postage
postal
postcard
postcards
postdoctoral
posted
poster
posterior
posterity
posters
postgraduate
posthumous
posthumously
posting
postmaster
postpone
postponed
posts
postseason
posture
postwar
pot
potassium
potato
potatoes
potent
potential
potentially
potomac
pots
potsdam
potter
pottery
potts
poultry
pound
pounder
pounds
pour
poured
pouring
poverty
pow
powder
powell
power
powered
powerful
powerhouse
powers
pows
powys
poznan
pp
ppen
ppp
pr
pra
practicable
practical
practically
practice
practiced
practices
practicing
practise
practised
practising
practitioner
practitioners
pradesh
prado
pragmatic
prague
prairie
praise
praised
praises
praising
prakash
prasad
pratt
pray
prayed
prayer
prayers
praying
prc
pre
preach
preached
preacher
preachers
preaching
precautions
preceded
precedence
precedent
preceding
precepts
precinct
precious
precipitation
precise
precisely
precision
precursor
precursors
predation
predator
predators
predatory
predecessor
predecessors
predicate
predict
predictable
predicted
predicting
prediction
predictions
predicts
predominant
predominantly
preface
prefect
prefectural
prefecture
prefer
preference
preferences
preferential
preferred
preferring
prefers
prefix
prefixes
pregnancy
pregnant
prehistoric
prehistory
prejudice
prelate
preliminary
prelude
prem
premature
prematurely
premie
premier
premiere
premiered
premieres
premiers
premiership
premio
premise
premises
premium
prentice
prep
preparation
preparations
preparatory
prepare
prepared
preparedness
prepares
preparing
prequel
prerogative
pres
presbyterian
presbytery
preschool
prescott
prescribe
prescribed
prescription
preseason
presence
present
presentation
presentations
presented
presenter
presenters
presenting
presently
presents
preservation
preserve
preserved
preserves
preserving
presided
presidency
president
presidential
presidents
presiding
presidium
presley
press
presse
pressed
presses
pressing
pressure
pressured
pressures
prestige
prestigious
preston
presumably
presumed
presumption
pretend
pretended
pretending
pretext
pretoria
pretty
prevail
prevailed
prevailing
prevalence
prevalent
prevent
prevented
preventing
prevention
preventive
prevents
preview
previews
previous
previously
prey
pri
price
priced
prices
pricing
pride
priest
priesthood
priestly
priests
prima
primaries
primarily
primary
primate
primates
prime
primeira
primer
primera
primetime
primitive
primo
prince
princely
princes
princess
princesses
princeton
principal
principality
principally
principals
principle
principles
pringle
print
printed
printer
printers
printing
prints
prior
priorities
priority
priory
priscilla
prism
prison
prisoner
prisoners
prisons
pritchard
privacy
private
privateer
privately
privatization
privilege
privileged
privileges
privy
prix
priya
prize
prized
prizes
pro
probabilities
probability
probable
probably
probate
probation
probe
probes
problem
problematic
problems
procedural
procedure
procedures
proceed
proceeded
proceeding
proceedings
proceeds
process
processed
processes
processing
procession
processor
processors
proclaim
proclaimed
proclaiming
proclamation
proctor
procure
procured
procurement
prod
prodigy
produce
produced
producer
producers
produces
producing
product
production
productions
productive
productivity
products
prof
professed
profession
professional
professionally
professionals
professions
professor
professors
professorship
proficiency
proficient
profile
profiles
profit
profitable
profits
profound
profoundly
program
programme
programmed
programmer
programmers
programmes
programming
programs
progress
progressed
progresses
progressing
progression
progressive
progressively
prohibit
prohibited
prohibiting
prohibition
prohibitions
prohibits
project
projected
projectile
projectiles
projecting
projection
projections
projective
projects
proliferation
prolific
prologue
prolonged
prom
promenade
prometheus
prominence
prominent
prominently
promise
promised
promises
promising
promo
promote
promoted
promoter
promoters
promotes
promoting
promotion
promotional
promotions
prompt
prompted
prompting
promptly
promulgated
prone
pronoun
pronounce
pronounced
pronouns
pronunciation
proof
proofs
prop
propaganda
propagation
propellant
propelled
propeller
propellers
proper
properly
properties
property
prophecies
prophecy
prophet
prophetic
prophets
proponent
proponents
proportion
proportional
proportions
proposal
proposals
propose
proposed
proposes
proposing
proposition
propositions
proprietary
proprietor
proprietors
propriety
props
propulsion
prose
prosecute
prosecuted
prosecuting
prosecution
prosecutions
prosecutor
prosecutors
prospect
prospective
prospects
prosper
prospered
prosperity
prosperous
prostate
prostitute
prostitutes
prostitution
protagonist
protagonists
prote
protect
protected
protecting
protection
protections
protective
protector
protectorate
protects
protein
proteins
protest
protestant
protestantism
protestants
protested
protesters
protesting
protestors
protests
proto
protocol
protocols
proton
prototype
prototypes
protracted
proud
proudly
prove
proved
proven
provence
proves
provide
provided
providence
provider
providers
provides
providing
province
provinces
provincial
proving
provision
provisional
provisions
proviso
provocative
provoke
provoked
provoking
provost
prowess
proximity
proxy
prudence
prudent
prussia
prussian
pryor
ps
psa
psalm
psalms
pseudo
pseudonym
psi
psp
psv
psyche
psychedelic
psychiatric
psychiatrist
psychiatry
psychic
psycho
psychoanalysis
psychological
psychologist
psychologists
psychology
psychotherapy
pt
ptolemy
pts
pty
pu
pub
public
publication
publications
publicity
publicized
publicly
publique
publish
published
publisher
publishers
publishes
publishing
pubs
puck
pudding
puebla
pueblo
puerto
puget
pugh
pulitzer
pull
pulled
pulling
pullman
pulls
pulmonary
pulp
pulpit
pulse
pulses
puma
pump
pumped
pumping
pumpkin
pumps
pun
punch
punched
punches
pune
punish
punishable
punished
punishment
punishments
punitive
punjab
punjabi
punk
punt
punta
pupil
pupils
puppet
puppets
puppy
purana
purcell
purchase
purchased
purchaser
purchasers
purchases
purchasing
purdue
pure
purely
purge
puri
purification
purified
puritan
purity
purple
purported
purportedly
purpose
purposes
purse
pursuant
pursue
pursued
pursues
pursuing
pursuit
pursuits
push
pushed
pushes
pushing
put
putin
putnam
puts
putting
puzzle
puzzles
pv
pvt
px
pygmy
pyotr
pyramid
pyramids
pyre
pyrenees
python
q
qa
qaeda
qatar
qb
qc
qf
qi
qian
qin
qing
qquad
qu
qua
quad
quadrangle
quadrant
quadratic
quadruple
quake
quaker
quakers
qualification
qualifications
qualified
qualifier
qualifiers
qualifies
qualify
qualifying
qualitative
qualities
quality
quan
quantitative
quantities
quantity
quantum
quarantine
quarrel
quarries
quarry
quarter
quarterback
quarterbacks
quarterfinal
quarterfinals
quarterly
quartermaster
quarters
quartet
quartz
quasi
quaternary
quay
que
quebec
quechua
queen
queens
queensland
queer
quentin
quercus
queries
query
quest
question
questionable
questioned
questioning
questions
queue
quezon
qui
quick
quicker
quickly
quiet
quietly
quincy
quinn
quintana
quintet
quintus
quit
quite
quito
quixote
quiz
quo
quorum
quota
quotas
quotation
quotations
quote
quoted
quotes
quotient
quoting
qur
quran
r
ra
raaf
rabbi
rabbis
rabbit
rabbits
rac
race
racecourse
raced
racehorse
racer
racers
races
racetrack
raceway
rachel
racial
racially
racine
racing
racism
racist
rack
rad
rada
radar
radars
radcliffe
radford
radha
radial
radiant
radiation
radical
radically
radicals
radio
radioactive
radios
radius
rae
raf
rafael
raffles
raft
rafvr
rag
rage
raging
rahman
rahul
rai
raid
raided
raider
raiders
raiding
raids
rail
railroad
railroads
rails
railway
railways
rain
rainbow
rainer
rainfall
rainforest
rains
rainy
raion
raise
raised
raises
raising
raj
raja
rajasthan
raju
rake
ral
rale
raleigh
rallied
rallies
rally
rallying
ralph
ram
rama
ramadan
ramakrishna
raman
ramesh
rami
ramirez
ramo
ramon
ramos
ramp
rampage
rampant
ramps
rams
ramsay
ramsey
ran
rana
ranch
rancho
rand
randall
randolph
random
randomly
randy
rang
range
ranged
ranger
rangers
ranges
ranging
rangle
rani
rank
ranked
rankin
ranking
rankings
ranks
ransom
rao
raoul
rap
rape
raped
raphael
rapid
rapidly
rapids
rapper
rappers
raptors
rard
rare
rarely
rarity
ras
rash
rashid
rasmussen
rat
rate
rated
rates
rather
ratification
ratified
rating
ratings
ratio
ration
rational
rationale
rations
ratios
rats
rau
raul
ravaged
rave
raven
ravenna
ravens
ravi
ravine
raw
ray
raymond
rays
razed
razor
rb
rbi
rbis
rc
rca
rcaf
rd
rdoba
re
rea
reach
reached
reaches
reaching
react
reacted
reaction
reactions
reactivated
reactive
reactor
reactors
reacts
read
reader
readers
readily
readiness
reading
readings
reads
ready
reaffirmed
reagan
real
realignment
realise
realised
realises
realising
realism
realist
realistic
realities
reality
realization
realize
realized
realizes
realizing
really
realm
realms
reappeared
rear
reason
reasonable
reasonably
reasoned
reasoning
reasons
reassigned
rebecca
rebel
rebelled
rebellion
rebellions
rebellious
rebels
rebirth
reboot
reborn
rebound
rebounds
rebranded
rebranding
rebuild
rebuilding
rebuilt
rec
recall
recalled
recalling
recalls
recap
recapture
recaptured
receipt
receipts
receive
received
receiver
receivers
receives
receiving
recent
recently
reception
receptions
receptor
receptors
recess
recession
recipe
recipes
recipient
recipients
reciprocal
recital
recited
reckless
reckon
reckoned
reckoning
reclaim
reclaimed
reclamation
reclassified
recognise
recognised
recognises
recognising
recognition
recognizable
recognize
recognized
recognizes
recognizing
recoil
recollection
recollections
recommend
recommendation
recommendations
recommended
recommending
recommends
reconcile
reconciled
reconciliation
reconnaissance
reconstituted
reconstruct
reconstructed
reconstruction
record
recorded
recorder
recorders
recording
recordings
records
recount
recounted
recounts
recourse
recover
recovered
recoveries
recovering
recovers
recovery
recreate
recreated
recreation
recreational
recruit
recruited
recruiting
recruitment
recruits
rectangular
rector
rectory
recurrence
recurrent
recurring
recycled
recycling
red
reddish
reddy
redeem
redeemed
redeemer
redemption
redesign
redesignated
redesigned
redeveloped
redevelopment
redirect
rediscovered
redistribution
redistricting
redmond
redress
reds
redskins
reduce
reduced
reduces
reducing
reduction
reductions
redundant
redwood
reed
reeds
reef
reefs
reel
reelected
reelection
rees
reese
reeve
reeves
ref
refer
referee
referees
reference
referenced
references
referencing
referendum
referred
referring
refers
refined
refinement
refinery
refining
refit
reflect
reflected
reflecting
reflection
reflections
reflective
reflects
reflex
reform
reformation
reformed
reformer
reformers
reforming
reformist
reforms
refrain
refueling
refuge
refugee
refugees
refurbished
refurbishment
refusal
refuse
refused
refuses
refusing
reg
regain
regained
regaining
regal
regan
regard
regarded
regarding
regardless
regards
regatta
regency
regeneration
regent
regents
reggae
reggie
reggio
regime
regiment
regimental
regiments
regimes
regina
reginald
region
regional
regions
regis
register
registered
registering
registers
registrar
registration
registry
regression
regret
regrets
regretted
regular
regularly
regulars
regulate
regulated
regulates
regulating
regulation
regulations
regulator
regulators
regulatory
rehab
rehabilitation
rehearsal
rehearsals
rei
reich
reichstag
reid
reign
reigned
reigning
reigns
reilly
reims
rein
reina
reincarnation
reindeer
reinforce
reinforced
reinforcement
reinforcements
reinforcing
reinhard
reins
reinstated
reintroduced
reis
reissue
reissued
reiterated
reject
rejected
rejecting
rejection
rejects
rejoice
rejoin
rejoined
rel
relate
related
relates
relating
relation
relational
relations
relationship
relationships
relative
relatively
relatives
relativity
relaunch
relaunched
relax
relaxation
relaxed
relay
relays
release
released
releases
releasing
relegated
relegation
relentless
relevance
relevant
reliability
reliable
reliance
reliant
relic
relics
relied
relief
reliefs
relies
relieve
relieved
religion
religions
religious
relinquished
relocate
relocated
relocating
relocation
reluctance
reluctant
reluctantly
rely
relying
rem
remade
remain
remainder
remained
remaining
remains
remake
remanded
remark
remarkable
remarkably
remarked
remarks
remarried
remastered
rematch
rembrandt
remedies
remedy
remember
remembered
remembering
remembers
remembrance
remind
reminded
reminder
reminds
remington
reminiscent
remission
remix
remixed
remixes
remnant
remnants
remodeled
remorse
remote
remotely
removable
removal
remove
removed
removes
removing
remuneration
ren
renaissance
renal
renamed
renaming
renato
renault
render
rendered
rendering
renders
rendezvous
rendition
rene
renee
renegade
renew
renewable
renewal
renewed
rennes
reno
renounce
renounced
renovate
renovated
renovation
renovations
renown
renowned
rensselaer
rent
rental
rented
rents
renumbered
reopen
reopened
reopening
reorganisation
reorganised
reorganization
reorganized
rep
repair
repaired
repairing
repairs
reparations
repatriation
repay
repayment
repeal
repealed
repeat
repeated
repeatedly
repeating
repeats
repechage
repel
repelled
repent
repentance
repertoire
repertory
repetition
repetitive
replace
replaced
replacement
replacements
replaces
replacing
replay
replays
replica
replicate
replication
replied
replies
reply
report
reported
reportedly
reporter
reporters
reporting
reports
repose
repository
represent
representation
representations
representative
representatives
represented
representing
represents
repression
reprint
reprinted
reprints
reprise
reprised
reprising
reproach
reproduce
reproduced
reproduction
reproductive
reptile
reptiles
republic
republican
republicans
republics
republika
republished
repulsed
reputation
reputed
request
requested
requesting
requests
requiem
require
required
requirement
requirements
requires
requiring
requisite
rer
reruns
res
rescheduled
rescinded
rescue
rescued
rescues
rescuing
research
researched
researcher
researchers
researches
researching
resemblance
resemble
resembled
resembles
resembling
resented
resentment
reservation
reservations
reserve
reserved
reserves
reservoir
reservoirs
reset
resettlement
reside
resided
residence
residences
residency
resident
residential
residents
resides
residing
residual
residue
residues
resign
resignation
resigned
resigning
resigns
resilience
resin
resist
resistance
resistant
resisted
resisting
resolution
resolutions
resolve
resolved
resolving
resonance
resort
resorted
resorts
resource
resources
respect
respectable
respected
respectful
respecting
respective
respectively
respects
respiratory
respond
responded
respondent
respondents
responding
responds
response
responses
responsibilities
responsibility
responsible
responsive
rest
restart
restarted
restaurant
restaurants
rested
resting
restitution
restless
restoration
restore
restored
restoring
restrain
restrained
restraining
restraint
restrict
restricted
restricting
restriction
restrictions
restrictive
restructured
restructuring
rests
result
resultant
resulted
resulting
results
resume
resumed
resuming
resumption
resurgence
resurrected
resurrection
ret
retail
retailer
retailers
retain
retained
retaining
retains
retake
retaliation
retention
retina
retire
retired
retirement
retiring
retracted
retreat
retreated
retreating
retribution
retrieval
retrieve
retrieved
retro
retrospective
return
returned
returning
returns
reuben
reunification
reunion
reunite
reunited
reuniting
reuse
reused
reuters
rev
revamped
reveal
revealed
revealing
reveals
revelation
revelations
revenge
revenue
revenues
revere
revered
reverence
reverend
reversal
reverse
reversed
reversible
reversing
reverted
review
reviewed
reviewer
reviewers
reviewing
reviews
revise
revised
revision
revisions
revisited
revista
revitalization
revival
revive
revived
reviving
revoked
revolt
revolted
revolts
revolution
revolutionaries
revolutionary
revolutions
revolver
revolves
revolving
revue
reward
rewarded
rewards
reworked
rewrite
rewritten
rex
rey
reyes
reykjavi
reynolds
rez
reza
rf
rfc
rg
rgb
rgen
rgt
rhapsody
rhein
rhetoric
rhetorical
rhine
rhineland
rhino
rhinos
rho
rhode
rhodes
rhodesia
rhodesian
rhyme
rhymes
rhys
rhythm
rhythmic
rhythms
ri
ria
riaa
rib
ribbon
ribbons
ribeiro
ribs
ric
rica
rican
ricardo
riccardo
ricci
rice
rich
richard
richards
richardson
richelieu
richer
riches
richest
richie
richly
richmond
richter
rick
ricky
rico
rid
rida
ridden
riddle
ride
rider
riders
ridership
rides
ridge
ridges
ridiculous
riding
ridley
rie
riff
rifle
rifles
rift
rig
riga
rigged
rigging
riggs
right
rightarrow
righteous
righteousness
rightful
rightly
rights
rigid
rigorous
rihanna
riley
rim
rime
rin
ring
ringing
ringo
rings
rink
rio
riot
rioting
riots
rip
riparian
ripe
ripley
ripped
ripper
rise
risen
rises
rising
risk
risks
risky
rita
ritchie
rite
rites
ritter
ritual
rituals
ritz
rival
rivalries
rivalry
rivals
river
rivera
rivers
riverside
rivie
riviera
riyadh
rizal
rj
rk
rko
rl
rm
rms
rn
rna
rnberg
ro
roach
road
roads
roadside
roadway
roadways
roanoke
roar
roaring
roasted
rob
robb
robbed
robber
robbers
robbery
robbie
robbins
robe
robert
roberta
roberto
roberts
robertson
robes
robin
robins
robinson
robot
robotic
robotics
robots
robson
robust
robyn
roc
rocco
rochdale
roche
rochelle
rochester
rock
rockefeller
rocker
rocket
rockets
rockford
rockhampton
rockies
rocking
rockingham
rocks
rockwell
rocky
rod
rode
rodents
rodeo
roderick
rodgers
rodney
rodolfo
rodri
rodrigo
rodrigues
rodriguez
rods
roe
roger
rogers
rogue
roh
rohan
roi
rojas
rok
roland
role
roles
rolf
roll
rolled
roller
rollers
rolling
rollins
rolls
rom
roma
roman
romance
romances
romanesque
romani
romania
romanian
romanians
romanized
romano
romans
romantic
romanticism
rome
romeo
romero
romney
ron
ronald
ronaldo
rondo
ronnie
roof
roofed
roofs
rooftop
rook
rookie
room
roommate
rooms
rooney
roosevelt
rooster
roosters
root
rooted
roots
rope
roper
ropes
roque
rory
ros
rosa
rosario
rosary
roscoe
rose
rosemary
rosen
rosenberg
rosenthal
roses
rosie
ross
rossi
rossini
roster
rostov
rot
rotary
rotate
rotated
rotating
rotation
rotational
roth
rotherham
rothschild
rotor
rotten
rotterdam
rotunda
rouen
rouge
rough
roughly
roughriders
round
roundabout
rounded
rounder
rounding
rounds
rourke
rouse
rousseau
rout
route
routed
routes
routine
routinely
routines
routing
routledge
roux
rover
rovers
row
rowan
rowe
rower
rowing
rowland
rowley
rows
roxy
roy
royal
royale
royalist
royals
royalties
royalty
royce
rp
rpg
rpm
rquez
rr
rrez
rs
rsssf
rt
rte
rtl
rttemberg
ru
rubber
rubble
rube
ruben
rubens
rubin
rubio
rubles
ruby
rudd
rudder
rude
rudolf
rudolph
rudy
rue
rufous
rufus
rugby
rugged
ruhr
rui
ruin
ruined
ruins
ruiz
rule
ruled
ruler
rulers
rules
ruling
rulings
rum
rumble
rumor
rumored
rumors
rumours
run
runaway
rune
runner
runners
running
runoff
runs
runtime
runway
runways
rupert
rupture
rural
rus
ruse
rush
rushed
rushes
rushing
russ
russell
russia
russian
russians
russo
rust
rustic
rusty
rutgers
ruth
rutherford
ruthless
rutland
rv
rwanda
rwandan
rx
ry
ryan
ryder
rye
ryo
ryu
rzburg
s
sa
saab
saba
sabah
sabbath
saber
sabha
sabine
sable
sabotage
sabre
sabres
sabrina
sac
sachs
sack
sacked
sacks
sacrament
sacramento
sacraments
sacred
sacrifice
sacrificed
sacrifices
sacrificing
sad
saddam
saddle
sadie
sadler
sadly
sadness
sae
saeed
safari
safe
safeguard
safeguards
safely
safer
safety
saffron
saga
sage
sahara
saharan
sahib
sahitya
sai
said
saigon
sail
sailed
sailing
sailor
sailors
sails
saint
sainte
saints
saipan
saitama
saith
saito
sake
sakura
sal
sala
salaam
salad
salamanca
salamander
salaries
salary
salazar
sale
saleh
salem
salerno
sales
salesman
salford
salient
salim
salinas
saline
salinity
salisbury
salle
sally
salman
salmon
salome
salomon
salon
saloon
salsa
salt
salts
salute
salvador
salvage
salvaged
salvation
salvatore
salzburg
sam
sama
samantha
samaritan
samba
same
sami
sammy
samoa
samoan
sample
sampled
sampler
samples
sampling
sampson
samson
samsung
samuel
samurai
san
sana
sanchez
sancho
sanction
sanctioned
sanctions
sanctuary
sand
sanders
sanderson
sandman
sandoval
sandra
sands
sandstone
sandwich
sandy
sanford
sang
sanitary
sanitation
sanjay
sank
sans
sanskrit
sant
santa
santana
santander
santiago
santo
santos
sao
sap
sapphire
sapporo
sar
sara
sarah
sarajevo
sarasota
saratoga
sarawak
sardar
sardinia
sargent
sari
sars
sas
sasaki
sash
sasha
saskatchewan
saskatoon
sat
satan
satellite
satellites
satire
satirical
satisfaction
satisfactory
satisfied
satisfies
satisfy
satisfying
sato
saturated
saturation
saturday
saturdays
saturn
sauce
saud
saudi
saul
saunders
sausage
sava
savage
savanna
savannah
save
saved
saves
saving
savings
savior
saviour
savoy
saw
sawmill
sawyer
sax
saxe
saxon
saxons
saxony
saxophone
saxophonist
say
saying
sayings
says
sb
sbs
sc
scala
scalar
scale
scaled
scalemajor
scales
scaling
scam
scan
scandal
scandals
scandinavia
scandinavian
scanned
scanning
scans
scar
scarborough
scarce
scarcely
scarcity
scare
scarecrow
scared
scarlet
scarlett
scars
scary
scattered
scattering
scenario
scenarios
scene
scenery
scenes
scenic
scent
scha
schal
schedule
scheduled
schedules
scheduling
schema
scheme
schemes
schiffermu
schiller
schism
schizophrenia
schleswig
schloss
schmidt
schmitt
schneider
scho
schofield
scholar
scholarly
scholars
scholarship
scholarships
scholastic
school
schoolboy
schoolhouse
schooling
schools
schooner
schro
schroeder
schu
schubert
schultz
schulz
schumacher
schumann
schuster
schuyler
schwartz
schwarz
sci
science
sciences
scientific
scientifically
scientist
scientists
scientology
sclerosis
scooby
scope
score
scorecard
scored
scoreless
scorer
scorers
scores
scoring
scorn
scorpion
scorpions
scot
scotch
scotia
scotland
scots
scotsman
scott
scottish
scotty
scout
scouting
scouts
scranton
scrap
scrapped
scratch
scream
screaming
screen
screened
screening
screenings
screenplay
screens
screenwriter
screw
scribe
scribes
scripps
script
scripted
scripts
scripture
scriptures
scroll
scrolls
scrub
scrutiny
scuba
scully
sculpted
sculptor
sculptors
sculptural
sculpture
sculptures
scunthorpe
sd
se
sea
seaboard
seafood
seahawks
seal
sealed
sealing
seals
seaman
seamen
sean
seaplane
search
searched
searches
searching
sears
seas
seaside
season
seasonal
seasoned
seasons
seat
seated
seater
seating
seats
seattle
seawater
sebastia
sebastian
sec
secession
second
secondary
secondly
seconds
secrecy
secret
secretariat
secretaries
secretary
secretion
secretly
secrets
sect
sectarian
section
sectional
sections
sector
sectors
sects
secular
secure
secured
securing
securities
security
sed
sedan
sediment
sedimentary
sediments
see
seed
seeded
seeding
seeds
seeing
seek
seekers
seeking
seeks
seem
seemed
seeming
seemingly
seems
seen
sees
sega
segment
segments
segregated
segregation
segunda
sei
seine
seismic
seize
seized
seizing
seizure
seizures
sejm
selangor
selby
seldom
select
selected
selecting
selection
selections
selective
selector
selects
selena
self
selfish
sell
seller
sellers
selling
sells
selma
selo
selsoviet
semantic
semantics
semester
semi
semiconductor
semifinal
semifinals
seminal
seminar
seminars
seminary
seminole
semitic
semitism
sen
sena
senate
senator
senatorial
senators
send
sending
sends
seneca
senegal
senegalese
senior
seniority
seniors
senna
sensation
sensational
sensations
sense
senses
sensibility
sensible
sensing
sensitive
sensitivity
sensor
sensors
sensory
sent
sentai
sentence
sentenced
sentences
sentencing
sentiment
sentimental
sentiments
sentinel
seo
seok
seoul
sep
sepals
separate
separated
separately
separates
separating
separation
separatist
sept
september
septuagint
sepulchre
seq
sequel
sequels
sequence
sequences
sequencing
sequential
ser
sera
serb
serbia
serbian
serbs
serena
serge
sergeant
sergei
sergey
sergio
serial
serialized
serials
serie
series
serious
seriously
sermon
sermons
serpent
serra
serrano
serum
servant
servants
serve
served
server
servers
serves
service
serviced
servicemen
services
servicing
serving
servitude
ses
sesame
session
sessions
set
setback
setbacks
seth
seton
sets
setting
settings
settle
settled
settlement
settlements
settler
settlers
settling
setup
seung
seven
sevens
seventeen
seventeenth
seventh
seventies
seventy
several
severe
severed
severely
severity
severn
sevilla
seville
sewage
seward
sewell
sewer
sewing
sex
sexes
sexton
sexual
sexuality
sexually
sexy
seychelles
seymour
sf
sg
sgt
sh
sha
shaanxi
shack
shade
shaded
shades
shadow
shadows
shady
shaft
shafts
shah
shahid
shake
shaken
shaker
shakespeare
shaking
shale
shall
shallow
shalt
sham
shaman
shame
shamrock
shan
shandong
shane
shang
shanghai
shankar
shannon
shanxi
shape
shaped
shapes
shaping
shapiro
share
shared
shareholder
shareholders
shares
sharia
sharif
sharing
shark
sharks
sharma
sharon
sharp
sharpe
sharply
shattered
shaun
shaw
shawn
shawnee
she
shea
shear
shed
sheds
sheen
sheep
sheer
sheet
sheets
sheffield
sheikh
sheila
shek
shelby
sheldon
shelf
shell
shelled
shelley
shelling
shells
shelly
shelter
sheltered
shelters
shelton
shelved
shelves
shen
shenandoah
sheng
shenzhen
shepard
shepherd
shepherds
sheppard
sher
sheridan
sheriff
sherlock
sherman
sherry
sherwood
shetland
shi
shia
shield
shields
shift
shifted
shifting
shifts
shillings
shin
shine
shines
shining
shinto
shiny
ship
shipbuilding
shipment
shipments
shipped
shipping
ships
shipwreck
shipyard
shipyards
shire
shirley
shirt
shirts
shit
shiva
sho
shoals
shock
shocked
shocking
shocks
shoe
shoemaker
shoes
shogunate
shone
shook
shoot
shooter
shooters
shooting
shootings
shootout
shoots
shop
shopping
shops
shore
shoreline
shores
short
shortage
shortages
shortcomings
shortened
shorter
shortest
shortlist
shortlisted
shortly
shorts
shortstop
shot
shotgun
shots
should
shoulder
shoulders
shouldn
shout
shouted
shouting
show
showcase
showcased
showcases
showcasing
showdown
showed
shower
showers
showing
shown
shows
showtime
shreveport
shrew
shrewsbury
shri
shrimp
shrine
shrines
shrink
shrinking
shropshire
shrub
shrubs
shu
shuffle
shun
shut
shutdown
shutout
shutouts
shutter
shutting
shuttle
shy
si
sia
siam
siamese
siberia
siberian
sibling
siblings
sic
sica
sichuan
sicilian
sicily
sick
sickle
sickness
sid
side
sided
sidekick
sideline
sidelined
sides
sidewalk
sideways
sidi
siding
sidings
sidney
sie
siege
siegel
siegfried
siemens
siena
sierra
sig
sigh
sight
sighted
sighting
sightings
sights
sigismund
sigma
sigmund
sign
signage
signal
signaling
signalling
signals
signatories
signature
signatures
signed
significance
significant
significantly
signified
signifies
signify
signifying
signing
signings
signs
sikh
sikhs
sikkim
silas
silence
silent
silently
silesia
silesian
silhouette
silica
silicon
silk
silla
silly
silva
silver
silverman
silvia
silvio
sim
sima
simeon
similar
similarities
similarity
similarly
simmons
simms
simo
simon
simone
simons
simple
simpler
simplest
simplex
simplicity
simplified
simply
simpson
simpsons
sims
simulate
simulated
simulation
simulations
simulator
simulcast
simultaneous
simultaneously
sin
sinai
sinatra
since
sincere
sincerity
sinclair
sindh
sine
sinful
sing
singapore
singaporean
singer
singers
singh
singing
single
singled
singles
singleton
sings
singular
sinha
sinister
sink
sinking
sinks
sinn
sinner
sinners
sino
sins
sint
sion
sioux
sir
sire
siren
sirens
sirius
sis
sister
sisters
sit
sitcom
site
sited
sites
sits
sitting
situ
situated
situation
situations
siu
six
sixteen
sixteenth
sixth
sixties
sixty
sizable
size
sized
sizes
sj
sjo
sk
ska
skate
skater
skaters
skating
skeletal
skeleton
skeletons
skeptical
skepticism
sketch
sketches
ski
skier
skies
skiing
skill
skilled
skills
skin
skinned
skinner
skins
skip
skipped
skipper
skirmish
skirmishes
skirt
skirts
skopje
skull
skulls
sky
skye
skyline
skyscraper
sl
slab
slabs
slack
slade
slain
slalom
slam
slang
slant
slash
slate
slated
slater
slaughter
slaughtered
slave
slavery
slaves
slavic
slavs
slay
slayer
sleep
sleeper
sleeping
sleeps
sleepy
sleeve
sleeves
slender
slept
slew
slice
slick
slid
slide
slides
sliding
slight
slightest
slightly
sligo
slim
slip
slipped
slipping
slips
slit
sloan
sloane
slogan
slogans
sloop
slope
slopes
sloping
slot
slots
slough
slovak
slovakia
slovene
slovenia
slovenian
slow
slowed
slower
slowing
slowly
slug
sly
sm
smackdown
small
smaller
smallest
smallpox
smart
smartphone
smartphones
smash
smashed
smashing
smell
smile
smiled
smiles
smiley
smiling
smith
smithsonian
smoke
smoked
smoking
smoky
smooth
smoothly
sms
smuggled
smuggling
smyrna
smyth
sn
snack
snail
snails
snake
snakes
snap
snapped
snare
sneak
sniper
snooker
snoop
snout
snow
snowfall
snowy
snp
snyder
so
soaked
soap
soaring
sober
sobre
soc
soccer
sochi
social
socialism
socialist
socialists
socialite
socially
socie
sociedad
societal
societies
society
socio
socioeconomic
sociological
sociologist
sociology
socket
socks
socorro
socrates
soda
sodium
soe
sofa
sofia
sofla
soft
softball
softer
softly
software
soho
soil
soils
sol
solar
sold
soldier
soldiers
sole
solely
solemn
solemnly
solicitor
solid
solidarity
solids
solitary
solitude
solo
soloist
soloists
solomon
solos
soluble
solution
solutions
solve
solved
solvent
solving
som
soma
somali
somalia
somaliland
some
somebody
somehow
someone
somerset
somerville
something
sometime
sometimes
somewhat
somewhere
somme
son
sonar
sonata
sonatas
song
songs
songwriter
songwriters
songwriting
sonia
sonic
sonnets
sonny
sonoma
sonora
sons
sony
soo
soon
sooner
sophia
sophie
sophisticated
sophomore
soprano
sorbonne
sorcerer
sore
sorority
sorrow
sorrows
sorry
sort
sorted
sorties
sorting
sorts
sos
soto
sought
soul
souls
sound
sounded
sounding
sounds
soundtrack
soundtracks
soup
sour
source
sourced
sources
sous
sousa
south
southampton
southbound
southeast
southeastern
southend
southern
southernmost
southland
southport
southward
southwards
southwark
southwest
southwestern
souvenir
souza
sovereign
sovereignty
soviet
soviets
sow
sox
soy
soyuz
sp
spa
space
spacecraft
spaced
spaces
spaceship
spacewatch
spacing
spacious
spain
spake
spalding
span
spaniards
spanish
spanned
spanning
spans
spare
spared
spark
sparked
sparkling
sparks
sparrow
sparse
sparsely
sparta
spartak
spartan
spartans
spatial
spawn
spawned
spawning
spd
speak
speaker
speakers
speaking
speaks
spear
spearheaded
spears
spec
special
specialised
specialising
specialist
specialists
specialization
specialized
specializes
specializing
specially
specials
specialties
specialty
species
specific
specifically
specification
specifications
specificity
specified
specifies
specify
specifying
specimen
specimens
spectacle
spectacular
spectator
spectators
spectra
spectral
spectroscopy
spectrum
speculated
speculation
speculative
speech
speeches
speed
speeding
speeds
speedway
speedy
spell
spelled
spelling
spellings
spells
spelt
spence
spencer
spend
spending
spends
spent
sperm
sphere
spheres
spherical
sphinx
spice
spices
spider
spiders
spiegel
spielberg
spies
spike
spikes
spill
spin
spinal
spindle
spine
spines
spinning
spinoza
spins
spiny
spiral
spire
spirit
spirited
spirits
spiritual
spirituality
spit
spite
spitfire
splash
splendid
splinter
split
splits
splitting
spoil
spoiled
spoils
spokane
spoke
spoken
spokesman
spokesperson
sponge
sponsor
sponsored
sponsoring
sponsors
sponsorship
spontaneous
spontaneously
spoon
sporadic
sporadically
spores
sport
sporting
sports
sportsman
spot
spotify
spotlight
spots
spotted
spouse
spouses
spp
sprague
sprang
spray
spread
spreading
spreads
spree
spring
springer
springfield
springs
springsteen
sprint
sprinter
spruce
sprung
spun
spur
spurred
spurs
spy
spying
sq
sql
sqrt
squad
squadron
squadrons
squads
square
squared
squares
squash
squeeze
squid
squire
squirrel
sr
sri
srpska
ss
sse
sseldorf
ssp
ssr
st
sta
stab
stabbed
stabbing
stability
stabilization
stabilize
stabilized
stable
stables
stacey
stack
stacked
stacks
stacy
stade
stadion
stadium
stadiums
stadt
staff
staffed
stafford
staffordshire
stag
stage
stagecoach
staged
stages
staggered
staging
stain
stained
stainless
stair
staircase
stairs
stairway
stake
stakeholders
stakes
stalin
stalingrad
stalk
stall
stalled
stallion
stalls
stamford
stamp
stamped
stampede
stamps
stan
stance
stand
standalone
standard
standardization
standardized
standards
standing
standings
standout
standpoint
stands
stanford
stanisław
stanley
stanton
stanza
staple
staples
stapleton
star
starboard
starch
stardom
stare
stared
stargate
staring
stark
starlight
starr
starred
starring
starrs
stars
starship
start
started
starter
starters
starting
startled
starts
startup
starvation
stat
state
stated
statehood
statement
statements
staten
states
statesman
statewide
static
stating
station
stationary
stationed
stations
statistical
statistically
statistics
stats
statue
statues
stature
status
statute
statutes
statutory
staunch
stay
stayed
staying
stays
ste
stead
steadily
steady
steal
stealing
steals
stealth
steam
steamboat
steamed
steamer
steamers
steamship
steel
steele
steelers
steen
steep
steeplechase
steer
steering
stefan
stefano
stein
steinberg
steiner
stella
stellar
stem
stemmed
stemming
stems
step
stepfather
stephan
stephanie
stephen
stephens
stephenson
stepmother
steppe
stepped
stepping
steps
stereo
stereotype
stereotypes
sterile
sterling
stern
steve
steven
stevenage
stevens
stevenson
stevie
stew
steward
stewardship
stewart
sti
stica
stick
sticking
sticks
sticky
stiff
stigma
still
stills
stimulate
stimulated
stimulating
stimulation
stimuli
stimulus
sting
stint
stints
stipulated
stipulation
stir
stirling
stirred
stirring
stitch
sto
stochastic
stock
stockholders
stockholm
stockings
stockport
stocks
stockton
stoke
stokes
stole
stolen
stomach
stone
stones
stonewall
stony
stood
stop
stoppage
stopped
stopping
stops
storage
store
stored
stores
storey
storeys
storia
stories
storing
storm
stormed
storms
stormy
story
storyline
storylines
storytelling
stout
stove
str
stra
strabo
straight
straightforward
strain
strained
strains
strait
straits
strand
stranded
strands
strange
strangely
stranger
strangers
strap
strasbourg
strata
strategic
strategically
strategies
strategy
stratford
stratton
strauss
stravinsky
straw
strawberry
stray
straße
streak
streaks
stream
streamed
streaming
streamlined
streams
street
streetcar
streets
strength
strengthen
strengthened
strengthening
strengths
stress
stressed
stresses
stretch
stretched
stretches
stretching
stricken
strickland
strict
strictly
strife
strike
strikeouts
striker
strikers
strikes
striking
string
stringent
strings
strip
stripe
striped
stripes
stripped
strips
strive
striving
stroke
strokes
strong
stronger
strongest
stronghold
strongly
stroud
struck
structural
structurally
structure
structured
structures
struggle
struggled
struggles
struggling
sts
stu
stuart
stubborn
stubbs
stucco
stuck
stud
student
students
studied
studies
studio
studios
study
studying
stuff
stuffed
stump
stunned
stunning
stunt
stunts
stupid
sturgeon
stuttgart
style
styled
styles
styling
stylistic
stylized
su
sua
sub
subaru
subchannel
subcommittee
subcontinent
subdistrict
subdivided
subdivision
subdivisions
subdued
subfamily
subgenus
subgroup
subgroups
subject
subjected
subjective
subjects
sublime
submarine
submarines
submerged
submission
submissions
submit
submitted
submitting
subordinate
subordinated
subordinates
subparagraph
subscribed
subscribers
subscription
subscriptions
subsection
subsequent
subsequently
subset
subsets
subsidiaries
subsidiary
subsidies
subsidy
subsistence
subsp
subspecies
substance
substances
substantial
substantially
substantive
substitute
substituted
substitutes
substituting
substitution
substrate
substrates
subterranean
subtitle
subtitles
subtle
subtropical
subunit
subunits
suburb
suburban
suburbs
subversive
subway
succeed
succeeded
succeeding
succeeds
success
successes
successful
successfully
succession
successive
successively
successor
successors
succumbed
such
sud
sudan
sudanese
sudbury
sudden
suddenly
sue
sued
suez
suffer
suffered
suffering
sufferings
suffers
suffice
sufficiency
sufficient
sufficiently
suffix
suffixes
suffolk
suffragan
suffrage
sufi
sugar
sugarcane
suggest
suggested
suggesting
suggestion
suggestions
suggestive
suggests
sui
suicidal
suicide
suisse
suit
suitable
suite
suited
suites
suits
suk
sul
sulawesi
suleiman
sulfate
sulfide
sulfur
sullivan
sulphur
sultan
sultanate
sum
sumatra
summaries
summarized
summary
summed
summer
summers
summit
summits
summon
summoned
summons
sumner
sumo
sums
sun
sundance
sunday
sundays
sunderland
sunflower
sung
sunil
sunk
sunken
sunlight
sunni
sunny
sunrise
suns
sunset
sunshine
suny
sup
supe
super
superb
supercup
superfamily
superficial
superhero
superheroes
superhuman
superintendent
superior
superiority
superiors
superliga
superman
supermarket
supermarkets
supernatural
supernova
superseded
supersonic
superstar
superstars
superstition
superstructure
supervise
supervised
supervising
supervision
supervisor
supervisors
supervisory
supp
supper
supplement
supplemental
supplementary
supplemented
supplements
supplied
supplier
suppliers
supplies
supply
supplying
support
supported
supporter
supporters
supporting
supportive
supports
suppose
supposed
supposedly
suppress
suppressed
suppressing
suppression
supra
supremacy
supreme
sur
sure
surely
suresh
surf
surface
surfaced
surfaces
surfer
surfing
surge
surgeon
surgeons
surgeries
surgery
surgical
suriname
surmounted
surname
surnames
surpassed
surpassing
surplus
surprise
surprised
surprising
surprisingly
surreal
surrender
surrendered
surrey
surrogate
surround
surrounded
surrounding
surroundings
surrounds
surveillance
survey
surveyed
surveying
surveyor
surveys
survival
survive
survived
survives
surviving
survivor
survivors
surya
sus
susan
susanna
susceptibility
susceptible
susie
suspect
suspected
suspects
suspend
suspended
suspense
suspension
suspicion
suspicions
suspicious
susquehanna
sussex
sustain
sustainability
sustainable
sustained
sustaining
sutherland
sutra
sutton
suv
suzanne
suzuki
sv
sven
svenska
svetlana
svg
sw
swallow
swallowed
swam
swami
swamp
swamps
swan
swann
swans
swansea
swanson
swap
swapped
swarm
swat
sway
swear
swearing
sweat
sweden
swedes
swedish
sweeney
sweep
sweeping
sweeps
sweet
sweetheart
sweetness
sweets
swell
swelling
swept
swift
swiftly
swim
swimmer
swimmers
swimming
swindon
swine
swing
swinging
swings
swiss
switch
switched
switches
switching
switzerland
swollen
sword
swords
swore
sworn
swung
sy
sydney
syed
sykes
syllable
syllables
sylvester
sylvia
symbol
symbolic
symbolism
symbolize
symbolizes
symbols
symmetric
symmetrical
symmetry
sympathetic
sympathies
sympathy
symphonic
symphonies
symphony
symposium
symptom
symptoms
syn
synagogue
synagogues
sync
synchronized
syndicate
syndicated
syndication
syndrome
synod
synonym
synonymous
synonyms
synopsis
syntax
synth
synthesis
synthesized
synthesizer
synthesizers
synthetic
syracuse
syria
syriac
syrian
syrup
system
systematic
systematically
systematics
systemic
systems
sz
szczecin
sze
szlo
t
ta
tab
tabernacle
table
tables
tablet
tablets
tabloid
taboo
tac
tacitus
tackle
tackled
tackles
tackling
tacoma
tactic
tactical
tactics
tae
taekwondo
taft
tag
tagalog
tagged
tagore
tags
tahiti
tai
tail
tailed
tailor
tailored
tails
taipei
tait
taiwan
taiwanese
taj
tajikistan
tak
takahashi
takashi
take
taken
takeoff
takeover
takes
taking
tal
talbot
tale
talent
talented
talents
tales
taliban
talk
talked
talking
talks
tall
tallahassee
taller
tallest
tallinn
tally
talmud
taluk
tam
tama
tamar
tamara
tame
tamil
tammy
tampa
tamworth
tan
tanaka
tandem
tang
tangent
tangible
tango
tank
tanker
tankers
tanks
tanner
tanya
tanzania
tao
tap
tape
taped
tapes
tapestry
tapped
tapping
tar
tara
target
targeted
targeting
targets
tariff
tariffs
taro
tartu
tarzan
tas
tashkent
task
tasked
tasks
tasman
tasmania
tasmanian
taste
tastes
tat
tata
tatar
tatars
tate
tatiana
tattoo
tau
taught
taunton
taurus
tavern
tax
taxa
taxable
taxation
taxdetails
taxed
taxes
taxi
taxing
taxis
taxon
taxonomic
taxonomy
taxpayer
taxpayers
tay
taylor
tb
tbilisi
tbs
tc
tchaikovsky
tcu
td
te
tea
teach
teacher
teachers
teaches
teaching
teachings
teal
team
teamed
teaming
teammate
teammates
teams
tear
tearing
tears
teaser
teatro
teau
tech
technical
technically
technician
technicians
technique
techniques
techno
technological
technologies
technology
tectonic
ted
teddy
tee
teen
teenage
teenager
teenagers
teens
tees
teeth
tehran
tehsil
tel
telangana
telecast
telecom
telecommunication
telecommunications
telegram
telegraph
telenovela
telephone
telephones
telescope
telescopes
televised
television
telford
tell
teller
telling
tells
telugu
temp
temper
temperament
temperance
temperate
temperature
temperatures
tempered
tempest
templar
template
temple
temples
tempo
temporal
temporarily
temporary
temps
temptation
temptations
tempted
ten
tenant
tenants
tend
tended
tendencies
tendency
tender
tendered
tenderness
tenders
tending
tendon
tends
tenerife
tennant
tennessee
tennis
tenor
tens
tense
tension
tensions
tensor
tent
tentacles
tentative
tentatively
tenth
tents
tenure
ter
terence
teresa
term
termed
terminal
terminals
terminate
terminated
terminates
terminating
termination
terminator
terminology
terminus
terms
tern
terra
terrace
terraces
terracotta
terrain
terre
terrell
terrence
terrestrial
terrible
terrific
terrified
territorial
territories
territory
terror
terrorism
terrorist
terrorists
terry
tertiary
tes
tesla
tess
test
testament
tested
testified
testify
testimonies
testimony
testing
testosterone
tests
teutonic
tex
texans
texas
text
textbook
textbooks
textcolor
textile
textiles
texts
textual
texture
textures
tf
tfrac
tg
th
tha
thai
thailand
thakur
thames
than
thank
thanked
thanks
thanksgiving
that
thatcher
thayer
the
theater
theaters
theatre
theatres
theatrical
theatrically
thebes
thee
theft
their
theirs
them
thematic
theme
themed
themes
themselves
then
thence
theo
theodor
theodore
theodosius
theologian
theologians
theological
theology
theorem
theoretical
theoretically
theories
theorist
theorists
theory
therapeutic
therapies
therapist
therapy
there
thereafter
thereby
therefor
therefore
therein
thereof
thereon
theresa
thereto
thereupon
thermal
these
theses
thesis
thessaloniki
theta
they
thi
thick
thicker
thickness
thief
thierry
thieves
thigh
thin
thine
thing
things
think
thinker
thinkers
thinking
thinks
thinner
third
thirds
thirst
thirteen
thirteenth
thirty
this
thistle
thither
tho
thom
thomas
thompson
thomson
thor
thorax
thorn
thorne
thorns
thornton
thorough
thoroughbred
thoroughly
thorpe
those
thou
though
thought
thoughtful
thoughts
thousand
thousands
thrace
thrash
thread
threads
threat
threaten
threatened
threatening
threatens
threats
three
threshold
threw
thrice
thrill
thriller
thrilling
thrive
thriving
throat
throated
throne
thrones
throttle
through
throughout
throw
thrower
throwing
thrown
throws
thru
thrust
thu
thug
thumb
thumbnail
thunder
thunderbolt
thunderstorms
thuringia
thursday
thurston
thus
thwarted
thy
thyroid
thyself
ti
tian
tianjin
tiberius
tibet
tibetan
tica
tick
ticket
tickets
tico
tidal
tide
tides
tie
tiebreaker
tied
tien
tienne
tier
tierra
tiers
ties
tiffany
tiger
tigers
tight
tightly
tijuana
til
tilde
tile
tiles
till
tilt
tim
timber
timberlake
timbers
time
timeaxis
timed
timeless
timeline
timely
timer
times
timeslot
timetable
timing
timis
timor
timothy
timur
tin
tina
ting
tinker
tiny
tip
tipped
tipperary
tips
tirana
tire
tired
tires
tis
tissue
tissues
tit
titan
titanic
titanium
titans
title
titled
titles
tito
titular
titus
tj
tko
tl
tm
tn
tna
tnt
to
toad
toast
tobacco
tobago
tobias
tobin
toby
toc
tod
today
todd
toe
toes
together
togo
toilet
toilets
token
tokens
tokugawa
tokyo
told
toledo
tolerance
tolerant
tolerate
tolerated
tolkien
toll
tolls
tolstoy
tom
toma
tomas
tomato
tomatoes
tomb
tombs
tombstone
tome
tomlinson
tommy
tomorrow
tompkins
ton
tonal
tone
tones
tong
tonga
tongue
tongues
toni
tonic
tonight
tonnage
tonnes
tons
tony
too
took
tool
toole
tools
tooth
toothed
top
topeka
topic
topical
topics
topographic
topographical
topography
topological
topology
topped
topping
tops
tor
torah
torch
tore
tori
torino
torn
tornado
tornadoes
torneo
toro
toronto
torpedo
torpedoed
torpedoes
torquay
torque
torre
torres
torso
tort
tortoise
tortricidae
torture
tortured
tory
toss
tossed
total
totaled
totaling
totalling
totally
totals
toto
tottenham
touch
touchdown
touchdowns
touched
touches
touching
tough
toulon
toulouse
tour
toured
touring
tourism
tourist
tourists
tournament
tournaments
tours
tow
toward
towards
towed
tower
towers
towing
town
townland
towns
townsend
townshend
township
townships
townspeople
townsville
toxic
toxicity
toxin
toxins
toy
toyota
toys
tp
tr
tra
trace
traced
traces
tracey
tracing
track
tracked
tracker
tracking
tracks
tract
traction
tractor
tractors
tracts
tracy
trade
traded
trademark
trader
traders
trades
trading
tradition
traditional
traditionally
traditions
trafalgar
traffic
trafficking
trafford
tragedy
tragic
trail
trailed
trailer
trailers
trailing
trails
train
trained
trainee
trainees
trainer
trainers
training
trains
trait
traitor
traits
trajectory
tram
tramp
trams
tramway
tramways
trance
trans
transaction
transactions
transatlantic
transcontinental
transcribed
transcript
transcription
transcripts
transept
transfer
transferred
transferring
transfers
transform
transformation
transformations
transformed
transformer
transformers
transforming
transforms
transgender
transient
transistor
transit
transition
transitional
transitioned
transitioning
transitions
transitive
translate
translated
translates
translating
translation
translations
translator
translators
translucent
transmission
transmissions
transmit
transmitted
transmitter
transmitters
transmitting
transnational
transparency
transparent
transplant
transplantation
transport
transportation
transported
transporter
transporting
transports
transvaal
transverse
transylvania
trap
trapped
trapping
traps
trash
trauma
traumatic
travancore
travel
traveled
traveler
travelers
traveling
travelled
traveller
travellers
travelling
travels
travers
traverse
traversed
travis
tray
tre
treachery
tread
treason
treasure
treasurer
treasures
treasury
treat
treated
treaties
treating
treatise
treatises
treatment
treatments
treats
treaty
treble
tree
trees
trek
trembling
tremendous
trench
trenches
trend
trends
trent
trenton
tres
trevor
trey
tri
triad
trial
trials
triangle
triangles
triangular
triassic
triathlon
tribal
tribe
tribes
tribunal
tribunals
tribune
tributaries
tributary
tribute
tributes
trick
tricked
tricks
trident
tried
trier
tries
trieste
trigger
triggered
triggering
triggers
trillion
trilogy
trim
trimmed
trinidad
trinity
trio
trip
triple
triples
tripoli
trips
tristan
triton
triumph
triumphant
trivia
trivial
tro
trois
trojan
trojans
trolley
trombone
trondheim
troop
trooper
troopers
troops
trophies
trophy
tropical
tropics
trouble
troubled
troubles
troublesome
trough
troupe
trousers
trout
troy
tru
truce
truck
trucks
trudeau
true
trujillo
truly
truman
trump
trumpet
trumpeter
trumpets
truncated
trunk
trunks
truss
trust
trusted
trustee
trustees
trusts
truth
truths
try
trying
ts
tsai
tsar
tsn
tsunami
tt
ttingen
ttir
tu
tuba
tube
tuberculosis
tubes
tubular
tuck
tucker
tucson
tudes
tudor
tuesday
tufts
tug
tuition
tulane
tully
tulsa
tumor
tumors
tun
tuna
tundra
tune
tuned
tunes
tung
tuning
tunis
tunisia
tunisian
tunnel
tunnels
turbine
turbines
turbo
turbocharged
turbulence
turbulent
turf
turin
turing
turk
turkey
turkic
turkish
turkmen
turkmenistan
turks
turku
turmoil
turn
turnbull
turned
turner
turning
turnout
turnover
turnpike
turns
turret
turrets
turtle
turtles
tuscany
tutor
tv
tva
tvb
twain
tweed
tweet
tweeted
twelfth
twelve
twenties
twentieth
twenty
twice
twilight
twin
twinned
twins
twist
twisted
twists
twitter
two
tx
ty
tycoon
tying
tyler
tyne
type
types
typhoon
typical
typically
tyranny
tyrant
tyre
tyres
tyrol
tyrone
tyson
tz
u
ua
uae
ub
ubiquitous
uc
uci
ucla
uconn
ud
uefa
ufc
ufo
uganda
ugandan
ugly
uh
uhf
ui
uk
ukraine
ukrainian
ukrainians
ul
ulm
ulrich
ulster
ultimate
ultimately
ultimatum
ultra
ultraman
ultrasound
ultraviolet
ulysses
um
uma
umar
umayyad
umberto
umbrella
umm
umpire
un
una
unable
unacceptable
unaffected
unanimous
unanimously
unarmed
unauthorized
unavailable
unaware
unbeaten
unbroken
unc
uncanny
uncertain
uncertainty
unchanged
uncle
unclean
unclear
uncomfortable
uncommon
unconditional
unconscious
unconstitutional
unconventional
uncover
uncovered
uncredited
und
undated
undefeated
under
underage
undercover
undergo
undergoes
undergoing
undergone
undergraduate
underground
underlying
undermine
undermined
underneath
underside
understand
understanding
understands
understood
undertake
undertaken
undertaker
undertaking
undertook
underwater
underway
underwent
underwood
underworld
undesirable
undeveloped
undisclosed
undisputed
undivided
undocumented
undoubtedly
undrafted
undue
une
unearthed
uneasy
unemployed
unemployment
unequal
unesco
uneven
unexpected
unexpectedly
unfair
unfamiliar
unfavorable
unfinished
unfit
unfortunate
unfortunately
unhappy
uni
unicef
unicode
unicorn
unidentified
unification
unified
uniform
uniformity
uniformly
uniforms
unilateral
unincorporated
uninhabited
unio
union
unionist
unionists
unions
unique
uniquely
unit
unitarian
unitary
unite
united
uniting
units
unity
univ
universal
universally
universe
universiade
universidad
universita
universite
universities
university
unix
unjust
unknown
unlawful
unleashed
unless
unlike
unlikely
unlimited
unloading
unlock
unlocked
unmanned
unmarked
unmarried
unnamed
unnatural
unnecessary
uno
unofficial
unofficially
unopposed
unpaid
unpleasant
unpopular
unprecedented
unpredictable
unpublished
unreasonable
unrelated
unreleased
unreliable
unresolved
unrest
unrestricted
unsafe
unseen
unsigned
unsolved
unspecified
unstable
unsuccessful
unsuccessfully
unsuitable
unsure
until
untitled
unto
untold
untouched
unused
unusual
unusually
unveiled
unveiling
unwanted
unwilling
unworthy
up
upbeat
upbringing
upcoming
update
updated
updates
updating
upgrade
upgraded
upgrades
upgrading
upheld
uphold
upi
upland
uplift
uploaded
uploads
upon
upper
uppsala
upright
uprising
uprisings
ups
upset
upside
upstairs
upstate
upstream
uptake
upton
uptown
upward
upwards
ur
ural
uranium
urban
urbana
urbanization
urdu
urge
urged
urgency
urgent
urges
urging
uri
urinary
urine
url
urn
ursula
uruguay
uruguayan
us
usa
usaaf
usable
usaf
usage
usb
usc
usd
usda
use
used
useful
usefulness
useless
user
users
uses
usgs
usher
using
usl
usn
uss
ussr
ust
usual
usually
ut
uta
utah
utc
utica
utilised
utilities
utility
utilization
utilize
utilized
utilizes
utilizing
utmost
utopia
utrecht
uttar
uttarakhand
utter
uttered
utterly
uv
uyghur
uz
uzbek
uzbekistan
v
va
vacancies
vacancy
vacant
vacated
vacation
vaccinated
vaccination
vaccine
vaccines
vacuum
vaginal
vague
vaguely
vain
val
valdez
vale
valence
valencia
valentin
valentina
valentine
valentino
valerie
valiant
valid
validated
validation
validity
valladolid
valle
valley
valleys
valor
valour
valuable
valuation
value
valued
values
valve
valves
vampire
vampires
van
vance
vancouver
vandalism
vandals
vanderbilt
vane
vanessa
vanguard
vanilla
vanished
vanishing
vanity
vans
vanuatu
vapor
var
varepsilon
vargas
variability
variable
variables
variance
variant
variants
variation
variations
varied
varies
varieties
variety
various
variously
varma
varphi
varsity
vary
varying
vas
vasco
vascular
vase
vasily
vassal
vast
vastly
vat
vatican
vaudeville
vaughan
vaughn
vault
vaulted
vaults
vauxhall
vc
ve
vec
vector
vectors
vedic
vega
vegan
vegas
vegetable
vegetables
vegetarian
vegetation
vehicle
vehicles
veil
veiled
vein
veins
vela
velasco
velocity
velvet
vendor
vendors
venerable
venerated
veneration
venetian
veneto
venezia
venezuela
venezuelan
vengeance
venice
venom
vent
ventilation
ventral
vents
ventura
venture
ventured
ventures
venue
venues
venus
ver
vera
veracruz
verandah
verb
verbal
verbs
verde
verdi
verdict
verdun
verge
verification
verified
verify
verizon
verlag
vermont
vernacular
verne
vernon
vero
verona
veronica
versa
versailles
versatile
verse
verses
version
versions
versus
vert
vertebrae
vertebrate
vertebrates
vertex
vertical
vertically
vertices
vertigo
verve
very
vessel
vessels
vest
vested
veteran
veterans
veterinary
veto
vetoed
vettel
vez
vf
vfl
vh
vhf
vhs
vi
via
viability
viable
viaduct
vibe
vibrant
vibration
vibrations
vic
vicar
vice
vicente
viceroy
vices
vichy
vicinity
vicious
vickers
vicki
vicksburg
vicky
victim
victims
victor
victoria
victorian
victories
victorious
victory
vida
vidal
video
videos
vie
vienna
viet
vietnam
vietnamese
view
viewed
viewer
viewers
viewership
viewing
viewpoint
views
vigil
vigilante
vigo
vigorous
vigorously
vii
viii
vijay
viking
vikings
vikram
viktor
vila
vile
villa
village
villagers
villages
villain
villains
villanova
villanueva
villas
ville
villeneuve
villiers
vilnius
vin
vince
vincent
vincenzo
vinci
vine
vinegar
vines
vineyard
vineyards
vintage
vinyl
viola
violate
violated
violates
violating
violation
violations
violence
violent
violently
violet
violin
violinist
violins
vip
viper
viral
virgil
virgin
virginia
virginity
virtual
virtually
virtue
virtues
virtuous
virus
viruses
vis
visa
visas
visconti
viscosity
viscount
vishnu
visibility
visible
visibly
vision
visionary
visions
visit
visitation
visited
visiting
visitor
visitors
visits
vista
visual
visualization
visually
visuals
vita
vital
vitality
vitamin
vito
vitro
vittorio
viva
vivian
vivid
vivo
viz
vizier
vladimir
vnto
vo
vocabulary
vocal
vocalist
vocalists
vocals
vocational
vogel
vogue
voice
voiced
voiceless
voices
voicing
void
voivodeship
vojvodina
vol
volatile
volcanic
volcano
volcanoes
volga
volkswagen
volley
volleyball
vologda
vols
volt
volta
voltage
voltaire
volume
volumes
voluntarily
voluntary
volunteer
volunteered
volunteers
volvo
vom
vomiting
von
voodoo
voor
vortex
vos
voss
vote
voted
voter
voters
votes
voting
vous
vow
vowed
vowel
vowels
vows
vox
voyage
voyager
voyages
vp
vr
vs
vt
vu
vuc
vuelta
vulcan
vulgar
vulnerability
vulnerable
vulture
vy
w
wa
wabash
waco
wade
wadi
wadsworth
wage
waged
wages
wagner
wagon
wagons
wah
wai
waikato
wainwright
waist
wait
waite
waited
waiter
waiting
waitress
waits
waived
waiver
waivers
wake
wakefield
wakes
waking
wal
walden
waldo
wales
walk
walked
walker
walkers
walking
walks
walkway
wall
walla
wallace
walled
waller
wallis
walls
wally
walmart
walnut
walpole
walsall
walsh
walt
walter
walters
walther
walton
waltz
wan
wanda
wander
wandered
wanderers
wandering
wang
wanna
want
wanted
wanting
wants
war
warbler
ward
warden
wardrobe
wards
ware
warehouse
warehouses
warfare
warhead
warhol
warlord
warm
warmer
warming
warmth
warn
warned
warner
warning
warnings
warns
warp
warrant
warrants
warren
warring
warrington
warrior
warriors
wars
warsaw
warship
warships
wartime
warwick
warwickshire
wary
was
wash
washburn
washed
washing
washington
wasn
wasp
wasps
waste
wasted
wastes
wastewater
wasting
wat
watanabe
watch
watched
watches
watching
water
watercolor
waterfall
waterfalls
waterford
waterfront
waterhouse
waterloo
waterman
waters
watershed
waterway
waterways
watford
watkins
watson
watt
watts
waugh
wave
waved
wavelength
wavelengths
waverley
waves
waving
wax
way
wayback
wayne
ways
wb
wba
wbc
wc
wcw
wd
we
weak
weaken
weakened
weakening
weaker
weakest
weakly
weakness
weaknesses
wealth
wealthiest
wealthy
weapon
weaponry
weapons
wear
wearing
wears
weary
weather
weaver
weavers
weaving
web
webb
webber
weber
webpage
website
websites
webster
wed
wedding
weddings
wedge
wednesday
wee
weed
weeds
week
weekday
weekdays
weekend
weekends
weekly
weeks
weep
weeping
wehrmacht
wei
weigh
weighed
weighing
weighs
weight
weighted
weightlifting
weights
weil
weimar
weinberg
weinstein
weir
weird
weiss
welch
welcome
welcomed
welcomes
welcoming
weld
welded
welding
welfare
well
weller
welles
wellesley
wellington
wellness
wells
welsh
welt
welterweight
wembley
wen
wendell
wendy
went
wentworth
wept
were
weren
werewolf
werner
wes
wesley
wesleyan
wessex
west
westbound
westbrook
westchester
westerly
western
westernmost
westfield
westinghouse
westland
westminster
weston
westphalia
westport
westward
westwood
wet
wetland
wetlands
wexford
weymouth
whale
whalers
whales
whaling
wharf
wharton
what
whatever
whatsoever
wheat
wheatley
wheaton
wheel
wheelbase
wheelchair
wheeled
wheeler
wheeling
wheels
when
whence
whenever
where
whereabouts
whereas
whereby
wherefore
wherein
whereof
whereupon
wherever
whether
which
whichever
whig
while
whilst
whip
whiskey
whisky
whisper
whispered
whistle
whistler
whitaker
whitby
white
whitehall
whitehead
whites
whitfield
whither
whiting
whitish
whitley
whitman
whitney
whittaker
who
whoever
whole
wholesale
wholly
whom
whorls
whose
why
whyte
wi
wichita
wick
wicked
wickedness
wicket
wickets
wickham
wide
widely
widened
widening
wider
widespread
widest
widow
widowed
widows
width
wie
wien
wiener
wiesbaden
wife
wig
wigan
wiggins
wight
wii
wiki
wikipedia
wilbur
wilcox
wild
wildcard
wildcards
wildcat
wildcats
wilde
wilder
wilderness
wildfire
wildlife
wildly
wiley
wilfred
wilfrid
wilhelm
wilkes
wilkins
wilkinson
will
willamette
willard
willem
william
williams
williamsburg
williamson
willie
willing
willingly
willingness
willis
willoughby
willow
wills
willy
wilmington
wilson
wilt
wilton
wiltshire
wimbledon
win
winchester
wind
winding
windmill
window
windows
winds
windsor
windy
wine
winery
wines
winfield
wing
winged
winger
wings
wingspan
winifred
winner
winners
winnie
winning
winnipeg
wins
winslow
winston
winter
winters
winthrop
wipe
wiped
wire
wired
wireless
wires
wiring
wis
wisconsin
wisden
wisdom
wise
wish
wished
wishes
wishing
wit
witch
witchcraft
witches
with
withdraw
withdrawal
withdrawals
withdrawing
withdrawn
withdrew
withers
withheld
within
without
withstand
witness
witnessed
witnesses
witnessing
wits
witt
witty
wives
wizard
wizards
wm
wnba
wo
woe
woke
wolf
wolfe
wolff
wolfgang
wolverhampton
wolverine
wolverines
wolves
woman
womb
women
won
wonder
wondered
wonderful
wondering
wonderland
wonders
wong
wont
woo
wood
woodbridge
wooded
wooden
woodland
woodlands
woodpecker
woodrow
woodruff
woods
woodstock
woodward
woody
wool
woolf
woolwich
worcester
worcestershire
word
wording
words
wore
work
worked
worker
workers
workforce
working
workings
workman
workmen
workplace
works
workshop
workshops
world
worldcat
worldly
worlds
worldwide
worm
worms
worn
worried
worries
worry
worse
worsened
worship
worshipped
worst
worth
worthington
worthless
worthy
would
wouldn
wound
wounded
wounding
wounds
woven
wow
wp
wr
wrap
wrapped
wrath
wrc
wreath
wreck
wreckage
wrecked
wren
wrestle
wrestled
wrestlemania
wrestler
wrestlers
wrestling
wretched
wrexham
wright
wrist
writ
write
writer
writers
writes
writing
writings
written
wrocław
wrong
wrongdoing
wrongful
wrongly
wrote
wrought
ws
wta
wu
wuhan
ww
wwe
wwf
wwii
www
wyatt
wycombe
wylie
wyndham
wynn
wynne
wyoming
władysław
x
xavier
xbox
xi
xia
xiang
xiao
xico
xii
xiii
xin
xinjiang
xiv
xix
xl
xm
xml
xp
xs
xu
xv
xvi
xvii
xviii
xx
xxi
xxii
xxiii
xxiv
xxv
xxx
y
ya
yacht
yachts
yadav
yahoo
yahweh
yahya
yak
yale
yam
yamada
yamaguchi
yamaha
yamamoto
yamato
yan
yang
yangtze
yankee
yankees
yao
yard
yards
yarmouth
yarn
yat
yates
yd
ye
yea
yeah
year
yearbook
yearly
years
yeast
yee
yeh
yellow
yellowish
yellowstone
yemen
yemeni
yen
yeo
yeomanry
yeon
yeovil
yer
yerevan
yes
yeshiva
yesterday
yet
yeung
yew
yi
yiddish
yield
yielded
yielding
yields
yin
ying
ymca
yo
yoga
yogi
yoke
yoko
yokohama
yokosuka
yong
yoo
yoon
york
yorke
yorker
yorkshire
yoruba
yoshida
you
young
younger
youngest
youngstown
your
yours
yourself
yourselves
youth
youthful
youths
youtube
ypres
yr
yu
yuan
yucata
yue
yuen
yugoslav
yugoslavia
yuki
yukon
yuma
yun
yung
yunnan
yuri
yusuf
yves
yvonne
z
za
zach
zachary
zack
zagreb
zambia
zamora
zane
zanzibar
zappa
zara
zaragoza
ze
zeal
zealand
zebra
zee
zef
zeit
zeitschrift
zeitung
zelda
zeller
zen
zenit
zenith
zeppelin
zero
zeta
zeus
zhang
zhao
zhejiang
zheng
zhi
zhou
zhu
zi
zia
ziegler
zimbabwe
zimbabwean
zimmer
zimmerman
zinc
zion
zionism
zionist
zip
zo
zodiac
zoe
zombie
zombies
zone
zoned
zones
zoning
zoo
zoological
zoologist
zoology
zoom
zquez
zu
zulu
zum
zur
zurich
zx
{
|
}
~



¡
¢
£
¥
§
©
ª
«
¬
­
®
°
±
²
³
´
µ
¶
·
¹
º
»
¼
½
¾
¿
×
ß
æ
ð
ø
þat
þe
đa
đo
ı
ł
ło
ŋ
ſhal
ƒ
ə
ʰ
ʷ
ʹ
ʻ
ʼ
ʽ
ʾ
ʿ
ˈ
ː
̀
́
̂
̃
̄
̆
̇
̈
̉
̊
̋
̌
̓
̔
̛
̣
̦
̧
̨
̮
̱
̲
̸
͂
ͅ
͡
΄
α
β
γ
δ
δε
ε
ει
εν
ζ
η
θ
ι
κ
και
λ
μ
ν
ξ
ο
οι
ου
π
ρ
ς
σ
τ
τη
της
το
του
υ
φ
χ
ψ
ω
а
б
в
г
года
городских
д
до
е
з
за
и
к
л
м
н
на
населения
о
от
п
по
р
расстояние
с
т
у
х
ъ
ь
я
і
֫
ְ
ִ
ֵ
ֶ
ַ
ָ
ֹ
ּ
ׁ
ׂ
א
ב
ג
ד
ה
ו
ז
ח
י
כ
ל
ם
מ
ן
נ
ס
ע
פ
ק
ר
ש
ת
״
،
ا
م
و
ي
َ
ُ
ِ
ّ
ْ
ٓ
ٔ
ٕ
ं
ः
क
ख
ग
च
ज
ट
ड
ण
त
द
ध
न
प
ब
भ
म
य
र
ल
व
श
ष
स
ह
ा
ि
ी
ु
ू
े
ै
ो
्
।
॥
ক
ত
দ
ন
প
ব
ম
য
র
ল
স
়
া
ি
ী
ু
ে
্
ਾ
ਿ
ੀ
க
ச
ட
த
ன
ப
ம
ய
ர
ல
வ
ா
ி
ு
ெ
ே
ை
்
ు
్
ಾ
ಿ
ು
ೆ
್
ം
ക
ട
ത
ന
പ
ാ
ി
ു
െ
േ
്
්
ා
ි
น
ม
ร
ว
ั
ิ
ี
ื
ุ
ู
็
่
้
์
་
က
င
ာ
ိ
ု
ေ
း
်
ា
្
᾽
​
‌
‍
‎
‐
‑
‒
–
—
―
‘
’
‚
“
”
„
†
‡
•
…
‰
′
″
⁊
⁠
€
₱
₹
ℓ
№
™
←
↑
→
↓
↔
↷
⇒
∈
−
∞
≈
≡
≤
≥
⋅
③
④
⑦
─
│
█
●
★
☆
♦
♭
⟨
⟩
⠤
⡇
⢥
⣀
⺀
⺄
⺆
⺈
⺊
⺌
⺕
⺝
⺸
⺼
⽥
⿰
⿱
⿲
⿳
⿴
⿵
⿶
⿷
⿸
⿹
⿺
⿻
、
。
《
》
「
」
『
』
【
】
〜
〢
あ
い
う
え
お
か
き
く
け
こ
さ
し
す
せ
そ
た
ち
っ
つ
て
と
な
に
ぬ
ね
の
は
ひ
ふ
へ
ほ
ま
み
む
め
も
や
ゆ
よ
ら
り
る
れ
ろ
わ
を
ん
゙
゚
ア
ィ
イ
ウ
エ
オ
カ
キ
ク
ケ
コ
サ
シ
ス
セ
ソ
タ
チ
ッ
ツ
テ
ト
ナ
ニ
ネ
ノ
ハ
ヒ
フ
ヘ
ホ
マ
ミ
ム
メ
モ
ャ
ュ
ユ
ョ
ラ
リ
ル
レ
ロ
ワ
ン
・
ー
㇁
㇂
㇄
㇇
㇈
㇉
㇓
㐁
㐄
㐅
㐌
㐫
㐬
㐭
㐮
㐱
㑒
㒵
㒸
㒼
㓁
㓞
㔾
㕛
㕣
㖾
㘝
㚅
㚇
㚔
㚘
㝉
㝡
㝴
㝵
㞋
㞢
㞷
㠩
㠭
㠯
㡀
㡭
㡿
㢲
㢴
㣇
㣺
㥯
㪅
㫄
㫐
㫒
㫺
㬅
㬎
㬥
㬰
㲋
㳄
㷠
㸒
㸚
㸦
㼌
㼲
㽞
㿟
䀠
䂞
䍃
䏍
䒑
䖍
䖒
䖝
䖵
䙴
䚻
䜌
䝿
䡛
䧹
䪞
一
丁
丂
七
丄
丅
丆
万
丈
三
上
[...]
