!
"
#
##0
##1
##10
##11
##12
##13
##14
##15
##16
##17
##18
##19
##2
##20
##21
##22
##23
##24
##25
##26
##27
##28
##29
##3
##30
##31
##32
##33
##34
##35
##36
##37
##38
##39
##4
##40
##41
##42
##43
##44
##45
##46
##47
##48
##49
##5
##50
##51
##52
##53
##54
##55
##56
##57
##58
##59
##6
##60
##61
##62
##63
##64
##65
##66
##67
##68
##69
##7
##70
##71
##72
##73
##74
##75
##76
##77
##78
##79
##8
##80
##81
##82
##83
##84
##85
##86
##87
##88
##89
##9
##90
##91
##92
##93
##94
##95
##96
##97
##98
##99
$
%
&
'
(
)
*
+
,
-
.
/
0
00
000
00001
001
002
003
004
00473
005
006
007
0070
00789
008
009
01
010
01063
011
012
013
014
015
016
017
01738
018
019
02
020
021
022
023
024
02459
025
026
0268
027
028
0283
029
03
030
031
032
033
034
035
036
037
038
038532
039
04
040
041
042
043
044
045
046
047
048
049
05
050
051
052
054
055
056
057
06
060
062
065
066
07
070
071
073
075
079
08
080
081
085
08532
087
09
092
095
096
1
10
100
1000
10000
1001
1002
1007
101
1010
1012
1013
1015
1016
1017
102
1020
1021
1024
1028
103
1030
1031
1038
104
1040
1048
105
1050
106
1060
1066
107
1071
1072
108
1080
1086
109
1090
1093
1097
11
110
1100
1103
111
1111
112
1120
1125
1126
113
1130
114
1140
1141
115
1150
116
1160
1162
1165
117
118
1180
119
12
120
1200
1204
1206
121
1212
1215
1218
1219
122
1220
1221
1223
1227
123
1230
1237
124
1240
1241
125
1250
1251
1253
1258
126
1260
1266
127
128
1280
129
1290
13
130
1300
131
1310
132
1326
133
1336
134
1340
1342
1346
135
1350
1352
1357
136
1360
1361
1365
1368
137
1370
1371
1375
1377
138
1380
1389
139
1390
1395
1398
1399
14
140
1400
1402
1403
1405
141
1410
142
1420
1425
1428
143
1430
144
1440
1449
145
1450
1453
146
1460
1461
1465
1468
1469
147
1470
1471
1473
148
1480
1483
1485
1488
149
1490
1492
1494
1495
1498
1499
15
150
1500
1501
1502
1503
1504
1505
1506
1507
151
1510
1511
1512
15120
1513
1514
1515
1516
1517
1518
1519
152
1520
1521
1522
1523
1524
1525
1526
1528
153
1530
1532
1533
1534
1535
1536
1537
1538
1539
154
1540
1541
1542
1543
1545
1546
1547
155
1550
1551
1552
1554
1555
1556
1557
1558
1559
156
1560
1563
1564
1566
1567
157
1570
1571
1573
1576
1578
1579
158
1580
1582
1583
1584
1585
1588
159
1590
1592
1594
1595
1596
1598
16
160
1600
1602
1603
1604
1605
1606
1607
1608
1609
161
1610
1612
1613
1615
1616
1617
1618
1619
162
1620
1621
1623
1624
1625
1626
1627
1628
1629
163
1630
1632
1635
1636
1637
164
1640
1641
1642
1643
1644
1645
1647
1648
165
1650
1652
1654
166
1660
1665
1667
1668
167
1670
1671
1675
168
1680
1681
1682
1689
169
1690
1692
1693
1694
17
170
1700
1701
1702
1703
1704
1705
1706
1707
1708
1709
171
1710
1711
1712
1713
1714
1715
1716
1717
1718
1719
172
1720
1721
1722
1723
1724
1725
1726
1727
1728
1729
173
1730
1731
1732
1733
1734
1735
1736
1737
1738
1739
174
1740
1741
1742
1743
1744
1745
1747
1748
1749
175
1750
1751
1752
1753
1754
1755
1756
1757
1758
1759
176
1760
1761
1762
1763
1764
1765
1766
1767
1768
1769
177
1770
1771
1772
1773
1774
1775
1776
1777
1778
1779
178
1780
1781
1782
1783
1784
1785
1786
1787
1788
1789
179
1790
1791
1792
1793
1794
1795
1796
1797
1798
1799
18
180
1800
1801
1802
1803
1804
1805
1806
1807
1808
1809
181
1810
1811
1812
1813
1814
1815
1816
1817
1818
1819
182
1820
1821
1822
1823
1824
1825
1826
1827
1828
1829
183
1830
1831
1832
1833
1834
1835
1836
1837
1838
1839
184
1840
1841
1842
1843
1844
1845
1846
1847
1848
1849
185
1850
1851
1852
1853
1854
1855
1856
1857
1858
1859
186
1860
1861
1862
1863
1864
1865
1866
1867
1868
1869
187
1870
1871
1872
1873
1874
1875
1876
1877
1878
1879
188
1880
1881
1882
1883
1884
1885
1886
1887
1888
1889
189
1890
1891
1892
1893
1894
1895
1896
1897
1898
1899
19
190
1900
1901
1902
1903
1904
1905
1906
1907
1908
1909
191
1910
1911
1912
1913
1914
1915
1916
1917
1918
1919
192
1920
1921
1922
1923
1924
1925
1926
1927
1928
1929
193
1930
1931
1932
1933
1934
1935
1936
1937
1938
1939
194
1940
1941
1942
1943
1944
1945
1946
1947
1948
1949
195
1950
1951
1952
1953
1954
1955
1956
1957
1958
1959
196
1960
1961
1962
1963
1964
1965
1966
1967
1968
1969
197
1970
1971
1972
1973
1974
1975
1976
1977
1978
1979
198
1980
1981
1982
1983
1984
1985
1986
1987
1988
1989
199
1990
1991
1992
1993
1994
1995
1996
1997
1998
1999
2
20
200
2000
2001
2002
2003
2004
2005
2006
2007
2008
2009
201
2010
2011
2012
2013
2014
2015
2016
2017
2018
2019
202
2020
2021
2022
2023
203
2030
204
205
2050
206
207
2078
208
209
21
210
2100
211
212
213
214
215
216
217
218
219
22
220
2200
221
222
223
2231
224
225
226
227
228
229
23
230
2300
231
232
233
234
235
236
237
238
239
24
240
2400
241
242
243
244
245
2459
246
247
248
249
25
250
2500
251
252
253
254
255
256
257
258
259
26
260
2600
261
2616
262
263
264
265
266
267
268
269
27
270
2700
271
272
273
274
275
276
277
278
279
28
280
2800
281
282
283
284
285
286
287
288
289
29
290
291
292
293
294
2949
295
296
297
298
299
3
30
300
3000
301
302
303
304
305
306
307
308
309
31
310
311
312
313
314
315
316
317
318
319
32
320
3200
321
322
323
324
325
326
327
328
329
33
330
331
332
333
334
335
336
337
338
339
34
340
341
342
343
344
345
346
347
348
349
35
350
3500
351
352
353
354
355
356
357
358
359
36
360
3600
361
362
363
364
365
366
367
368
369
37
370
371
372
373
374
375
376
377
378
379
38
380
381
382
383
384
385
386
387
388
389
39
390
391
392
393
394
395
396
397
398
399
4
40
400
4000
401
402
403
404
405
406
407
408
409
41
410
411
412
413
414
415
416
417
418
419
42
420
421
422
423
424
425
426
427
428
429
43
430
431
432
433
434
435
436
437
438
439
44
440
441
442
443
444
445
446
447
448
449
45
450
4500
451
452
453
454
455
456
457
458
459
46
460
461
462
463
464
465
466
467
468
469
47
470
471
472
473
474
475
476
477
478
479
48
480
481
482
483
484
485
486
487
488
489
49
490
491
492
493
494
495
496
497
498
499
5
50
500
5000
50000
501
502
503
504
505
506
507
508
509
51
510
511
512
513
514
515
516
517
518
519
52
520
521
522
523
524
525
526
527
528
529
53
530
531
532
533
534
535
536
537
538
539
54
540
541
542
543
544
545
546
547
548
549
55
550
551
552
553
554
555
556
557
558
559
56
560
561
562
563
564
5647
565
566
567
568
569
57
570
571
572
573
574
575
576
577
578
579
58
580
581
582
583
584
585
586
587
588
589
59
590
591
592
593
594
595
596
597
598
599
6
60
600
6000
601
602
603
604
605
606
607
608
609
61
610
611
612
613
614
615
616
617
618
619
62
620
621
622
623
624
625
626
627
628
629
63
630
631
632
633
634
635
636
637
638
639
64
640
641
642
643
644
645
646
647
648
649
65
650
651
652
653
654
655
656
657
658
659
66
660
661
662
663
664
665
666
667
668
669
67
670
671
672
6727
673
674
675
676
677
678
679
68
680
681
682
683
684
685
686
687
688
689
69
690
691
692
693
694
695
696
697
698
699
7
70
700
7000
701
702
7026
703
704
705
706
707
708
709
71
710
711
712
713
714
715
7157
716
717
718
719
72
720
721
722
723
7237
724
725
7254
726
727
728
729
73
730
731
732
733
734
735
736
737
738
739
74
740
741
742
743
744
745
746
747
7472
748
749
75
750
751
752
753
754
755
756
757
758
759
76
760
761
762
763
764
765
766
7667
767
768
769
77
770
771
772
773
774
775
776
777
778
779
78
780
781
782
783
784
785
786
787
788
789
79
790
791
792
793
794
795
796
797
798
799
8
80
800
8000
801
802
803
804
805
806
807
808
809
81
810
811
812
813
814
815
816
817
818
8188
819
82
820
821
822
823
824
825
826
827
828
8284
829
83
830
831
832
833
834
835
836
837
838
839
84
840
841
842
843
844
845
846
847
848
849
85
850
851
852
853
854
855
856
857
858
859
86
860
861
862
863
864
865
866
867
868
869
87
870
871
872
873
874
875
876
877
878
879
88
880
881
882
883
884
885
886
887
888
889
89
890
891
892
893
894
895
896
897
898
89800
89840
899
9
90
900
901
902
903
904
905
906
907
908
909
91
910
911
912
913
914
915
916
917
918
919
92
920
921
922
923
924
925
926
927
928
929
93
930
931
932
933
934
935
936
937
938
939
94
940
941
942
943
944
945
946
947
948
949
95
950
951
952
953
954
955
956
957
958
959
96
960
961
962
963
964
965
966
967
968
969
97
970
971
972
973
974
975
976
9765
977
978
979
98
980
981
982
983
984
985
986
9865
987
988
989
99
990
991
992
993
994
995
996
9963
9965
997
998
999
:
;
<
=
>
?
@
[
\
]
^
_
`
a
ab
abc
about
abs
abu
ac
acacia
academic
academy
access
accessed
act
action
actor
ad
adam
adams
adebiportal
ae
af
affairs
africa
african
after
ag
again
against
age
agency
ai
aids
air
airbus
aircraft
airlines
airport
airways
ak
al
alan
albert
album
alexander
algemdcsb
ali
all
allen
almaty
alone
alpha
also
alto
am
amateur
amazon
america
american
among
amtliche
amtsfreien
an
ana
analysis
ancient
and
andre
andrea
andrew
android
angel
angeles
anhalt
anna
anne
announces
annual
another
anthony
anti
antlia
anto
antonio
aou
ap
api
app
apple
application
april
ar
ara
arak
architecture
archive
archived
archives
are
area
arena
argentina
armenia
army
arp
art
arthur
article
articles
artist
arts
as
asia
asian
asp
aspx
associated
association
assunta
astana
aston
astronomical
at
athletes
atlantic
atlas
au
aubin
audi
august
aujourd
australia
australian
author
auto
aux
avant
avec
aviation
award
awards
ay
az
azerbaijan
b
ba
baby
back
bad
baden
bafta
bahia
baker
baku
band
bang
bank
bar
barbara
bas
base
based
basic
battista
battle
bay
bayerisches
bb
bbc
bc
bd
be
beach
beautiful
been
before
begin
behind
bei
being
bell
ben
benth
bentley
berlin
best
beta
between
bevo
bf
bg
bgmaps
bi
biagio
bibcode
biden
big
bigenc
bilim
bill
billboard
billion
bin
bio
biography
biology
bir
birdlife
bl
black
block
blog
blood
bloomberg
blue
bo
board
boeing
bois
book
bookchamber
books
born
boston
box
boxing
boxrec
boy
boys
br
brandenburg
bre
brian
bridge
brief
britanica
britannica
british
bros
brothers
brown
bse
bts
bu
bugatti
building
bureau
business
but
by
c
ca
cadillac
california
call
camaro
cambridge
campo
can
canada
canadian
canes
capital
car
card
caribbean
carl
carlos
case
cassini
castle
cat
catalog
category
cbs
cc
cd
cdot
ce
cell
census
center
central
centre
century
cerevisiae
cf
cgi
ch
cha
chain
champions
championship
championships
change
channel
chapelle
chapter
charles
chart
charts
che
chemistry
chevrolet
chicago
child
children
china
chinese
choice
chris
christian
christmas
christopher
chrome
church
ci
cia
cite
cities
city
civil
ck
cl
class
cle
clinton
club
cm
cn
cnn
co
coca
code
cola
cole
collection
college
columbia
com
comarca
come
comedy
comic
comics
commission
committee
common
commons
communale
commune
communes
communications
community
company
complete
comptes
computer
computing
comune
con
conference
congress
conservation
conserve
const
consulte
content
contest
control
core
corona
coronavirus
corporation
cos
costa
council
countries
country
county
court
covid
cr
crater
creative
creek
critical
cruz
cs
ct
ctrl
cu
cultural
culture
cup
current
d
da
dae
daewoo
daily
dame
dan
dance
daniel
dans
dark
das
data
database
date
datei
datenverarbeitung
david
davis
day
days
db
dc
de
dead
deadline
deal
death
december
deep
defined
definition
del
dell
della
delta
den
denis
department
depuis
der
des
design
details
deutsche
deux
development
dez
dezember
di
dic
dict
dictionary
die
different
digital
discovery
disease
disk
disney
displaystyle
division
dj
dns
do
doc
docs
document
dog
doi
don
donald
donne
dorado
dos
double
doubles
douglas
down
download
downloaded
dps
dq
dr
dragon
drama
drcg
dream
ds
dt
dten
du
during
dutch
dvd
dx
e
early
earth
east
eastern
ebay
ec
economic
economics
economist
economy
ed
edition
eds
edu
education
edward
ee
egemen
ehess
el
election
electric
elizabeth
elle
em
emaps
emberiza
empire
en
enc
encyclopedia
encyclopædia
end
energy
eng
engineering
england
english
entertainment
entre
entry
environment
ep
er
era
erfu
eric
ernst
es
eso
espan
espn
est
estimates
et
ethnologue
ethnology
etnolog
eu
eucalyptus
euro
europa
europe
european
eurovision
eurovoix
events
ever
evidence
evolution
ex
excel
exchange
exclusive
exo
explorer
expo
express
extragalactic
f
fa
facebook
factbook
factfinder
facts
fair
falcon
fall
family
far
fashion
fc
fe
february
federal
federation
ferrari
festival
fgc
fi
fichier
field
fifa
figures
file
files
film
films
final
financial
fips
fire
first
five
flash
flight
fm
football
footballdatabase
footballfacts
for
forbes
force
ford
foreign
former
fornax
fort
fortschreibung
fortune
forum
foundation
four
fox
fr
frac
franc
france
francis
francisco
frank
franklin
free
freedom
french
friedrich
from
ft
fu
full
fund
futbol
future
fvg
g
ga
galaxy
game
games
gamma
garden
garros
gazeta
gazetteer
gb
gcl
ge
gemeinde
gemeinden
gene
general
generation
geographic
george
georges
ger
gerais
germain
german
germany
get
giacomo
giorgio
giovanni
girl
girls
git
global
gm
go
god
gold
golden
good
google
gordon
got
gov
government
gps
gr
grand
grande
grant
great
greatest
greek
green
group
growth
grp
gt
gu
guardian
guide
h
ha
hall
handbook
hans
hard
harry
harvard
has
hautes
have
hcg
hcl
hd
he
head
health
heart
heights
henry
her
herald
here
heritage
hero
heroes
hessischen
hi
hier
high
hill
his
historic
historical
historique
history
hit
hits
hiv
hl
hno
ho
hollywood
holstein
home
homo
horologium
host
hot
hotel
house
how
hp
htm
html
http
https
hu
hubble
hui
human
hung
hyperloop
i
ibf
ibm
ibn
ic
ice
ici
id
idaho
ieee
if
ii
iii
il
illustrated
im
image
imdb
impact
in
inc
includes
independent
index
india
indian
indiana
industry
info
infobox
inform
information
infty
insee
inside
instagram
institute
int
intel
intelligence
inter
international
internet
interview
into
introduction
invalid
ios
ip
ipac
ipad
iphone
ipi
ipod
ir
iran
iras
iron
is
isbn
islam
islamic
island
islands
ismn
iso
israel
issn
it
italy
item
itf
its
itunes
iucn
iv
ix
j
ja
jack
jackson
jaguar
james
jan
jane
january
janvier
japan
japanese
java
je
jean
jesus
ji
jo
joa
joe
john
johnson
jonathan
jones
jordan
jose
joseph
jour
journal
jpg
jr
ju
juan
juillet
julien
july
june
junior
jusqu
jusque
just
justice
justification
k
ka
kara
karl
kase
kaspi
kaz
kazakh
kazakhstan
kb
kbs
kcpg
ke
key
kf
kg
ki
kids
kim
king
kingdom
kitap
kk
km
know
knowledge
ko
koleksiyonu
kommunikationstechnologie
korea
korean
kr
kreis
kreisen
ku
kug
kyi
kz
l
la
lady
lake
lambda
lamborghini
land
landesamt
landesbetrieb
landkreis
landkreisen
lane
lang
language
languages
largest
las
last
late
latin
laurent
law
lbn
lc
ldh
le
leader
league
learning
least
lee
left
legends
lego
len
lenta
leo
les
let
letters
lewis
lg
li
libero
liberty
library
lie
life
light
like
lim
limited
limits
lincoln
line
link
linux
list
literature
lito
little
live
living
lkerung
lkerungsentwicklung
lkerungsfortschreibung
lkerungsstandes
lkerungszahlen
ll
llenden
lmc
ln
lo
local
lockheed
log
logos
london
long
look
lorenzo
los
lost
louis
love
lp
lr
lt
ltd
lu
m
ma
mac
macbook
machine
macron
made
madonna
madrid
magazine
mai
mail
main
major
make
making
malaysia
man
management
manchester
manuel
map
mapquest
maps
mar
march
maria
marie
mark
market
mars
marshall
martin
martire
marvel
mary
mas
mass
massaget
master
match
matches
mathbb
mathbf
mathrm
mathsf
maurice
max
may
mcdonald
mcg
md
me
media
medical
medicine
member
memory
men
mensa
mer
mesnil
messier
method
mg
mi
michael
michel
michele
microsoft
middle
miguel
mike
military
million
min
minas
mind
mini
minister
ministry
mis
mission
mit
mk
mls
mm
mn
mo
mobile
mode
model
modern
mojo
molecular
mon
monetary
money
mont
monte
montgomery
moon
moore
more
most
motion
motor
motors
mountain
movie
movies
mp
mr
ms
mtern
mtv
mu
muell
muhammad
multiple
municipale
museum
music
muslim
muslims
my
mysql
n
na
nach
nacional
nacl
name
named
names
naoh
narod
nasa
nation
national
nations
natural
nature
nb
nbc
nc
nd
ndia
ne
near
need
net
netflix
network
never
new
news
next
nf
ng
ngc
nh
ni
nicola
niedersachsen
nietzsche
night
nikon
nil
nio
nk
nl
nm
no
nobel
nobeliat
nobelprize
noc
nokia
nombres
non
nord
north
northern
nossa
not
note
notice
notre
nous
nova
november
novembre
now
npm
nsf
nu
number
nur
ny
o
ocl
october
of
off
office
official
officiel
og
oh
oil
ol
old
olympic
olympics
omega
on
one
online
only
op
open
operatorname
option
or
oracle
orange
order
org
organization
origin
original
os
oscar
other
ou
our
out
outlook
over
overview
oxford
p
pa
pacific
page
pages
pakistan
paper
papers
par
para
paris
park
part
partementales
partial
partir
party
pas
patrick
paul
paulo
paypal
pb
pc
pdf
pe
peace
pedro
pen
pence
people
per
performance
person
personal
peter
petit
pfalz
pg
pgc
ph
phd
phi
philosophical
philosophy
phone
photo
photos
php
physics
physiology
pi
picture
pictures
piemonte
pierre
pietro
pk
pl
place
places
plan
planet
plant
play
player
players
playstation
plus
pm
pmc
pmid
pn
png
po
point
police
policy
polis
political
politics
pop
population
populations
porsche
port
portal
portrait
post
pour
power
pp
ppp
pr
pre
premier
present
president
presidential
presidents
press
prime
prince
princess
princeton
print
private
prize
pro
proceedings
production
profil
profile
program
programme
programming
programs
project
protocollo
provided
provincia
ps
pt
pu
public
publications
publie
published
publishers
publishing
pubmed
puis
python
q
qazaqstan
qu
quartal
quartale
quartalsende
que
queen
qui
qur
quran
qırg
r
ra
radio
range
ranking
rankings
ransfermarkt
ration
ray
rd
re
read
real
reality
rec
recensement
record
records
red
ref
reference
references
refs
region
regional
regione
release
religion
religious
report
reporter
reports
republic
res
research
resources
results
retenus
reteunitaria
retrieved
return
reuters
rev
review
reviews
revolution
rheinland
rho
ri
ria
rich
richard
right
rightarrow
rights
rikmens
riks
ring
ringer
rio
rise
river
rk
rn
ro
road
robert
rocco
rock
roger
roland
role
rolling
roma
roman
rotten
round
routledge
rover
royal
rs
rsssf
rt
rttembergs
ru
run
ruparpiemonte
rus
russia
russian
ruwiki
s
sa
sab
sachsen
safety
saint
sainte
sales
samsung
san
sankt
sans
sanstv
sant
santa
santi
santo
santos
sao
sarah
saudi
say
says
sb
sba
sbab
sbb
sbbc
sbc
sbcd
sbn
sbs
sc
scd
schleswig
scho
school
sci
science
sciences
scientific
scotland
scott
sculptor
sd
se
sea
search
seas
season
second
secret
security
see
segreteria
seine
selected
selon
senhora
september
septembre
series
serra
server
service
services
set
sex
sexe
sextans
sg
sh
she
sherlock
short
show
shtml
si
sierra
sigma
silicon
silva
simbad
simon
sin
since
sindaco
singapore
single
sir
site
sites
six
sky
slovar
slovaronline
sm
smith
sn
so
soccer
soccerway
social
sociales
society
software
some
son
song
songs
sons
sony
source
sous
south
southern
soviet
sp
space
spacex
spain
spanish
special
species
speed
spieler
sport
sports
spring
springer
sqrt
sr
ss
ssh
st
sta
stadium
stanbul
stand
standard
stanford
star
starbucks
stars
start
stat
state
states
station
statistical
statistics
statistik
statistikamt
statistisches
status
stephen
sterreich
steve
steven
stichtag
still
stone
stones
store
stories
story
street
structure
student
studies
studio
studios
study
style
su
sub
sul
sultats
sum
summary
summer
sun
sunday
super
support
sur
survey
suu
system
systems
t
ta
table
tablesl
tag
take
takes
task
tatars
taylor
tb
te
team
teams
teatr
teau
tech
technical
technologies
technology
teen
tel
telegraph
telescope
television
temple
tengrinews
tentative
tesla
test
texas
text
tg
th
than
that
the
theatre
their
then
theory
there
they
things
third
this
thomas
thomson
threatened
three
through
thu
ti
tienne
time
times
tin
title
to
today
todd
tokyo
tom
tomatoes
top
toronto
total
touch
tour
tower
town
towns
township
toyota
tr
trade
trafigura
transfermarkt
translatedate
translation
transport
travel
tre
true
trump
trust
tt
tu
tucana
tudes
turkey
turkish
turkvizyon
tv
tvxq
twitter
two
type
u
ua
uav
uber
uc
uci
uefa
uefachampionsleague
ugc
ugca
uk
ukraine
um
un
und
under
une
unesco
union
unit
united
universal
universe
university
up
update
url
urp
us
usa
usb
use
used
user
utc
uyg
uz
v
va
val
vale
valle
valley
van
var
variety
varphi
vcc
ve
vec
venatici
verlag
version
verwaltungsgemeinschaften
vi
via
vice
victor
victoria
video
viertes
view
vii
viii
vila
villa
village
villages
ville
vincent
virgin
virtual
vista
visual
vizier
voice
vol
volume
volution
von
vous
vrier
vs
vv
w
wall
walt
walter
war
warner
wars
was
washington
watch
water
way
wayne
wba
wbc
wbo
wd
we
web
website
week
weekly
were
west
western
what
when
where
which
white
who
why
wi
wiki
wikimedia
wikipedia
wild
wiley
will
william
williams
wilson
win
windows
winners
wins
winter
with
without
wo
woman
women
word
work
works
world
worldfootball
worldwide
wta
wu
www
x
xbox
xi
xii
xiii
xinjiang
xiv
xix
xn
xv
xvi
xvii
xviii
xx
xxi
y
ya
yahoo
yandex
year
years
yo
york
you
young
your
youtube
yu
z
za
zakon
zbeks
ze
zealand
zh
zingiber
zirbayjans
zn
zt
zu
zum
zw
zwg
{
|
}
~
¡
£
¥
§
©
«
¬
­
®
¯
°
±
²
³
¶
·
º
»
¼
½
×
ß
æ
÷
ħ
ı
ıls
ıns
ırs
ızs
ŋ
ƒ
ɑ
ə
ʰ
ʲ
ʻ
ʼ
ʾ
ʿ
˃
ˈ
ˌ
ː
˚
̀
́
̂
̃
̄
̆
̇
̈
̉
̊
̋
̌
̓
̔
̛
̣
̦
̧
̨
̯
̱
̲
̸
͂
ͅ
͡
α
β
γ
δ
ε
ζ
η
θ
ι
λ
μ
ν
ξ
ο
π
ρ
ς
σ
τ
υ
φ
χ
ψ
ω
ϕ
ϵ
а
аа
аарон
аақ
аб
абаи
абақ
абақтыға
аббас
абд
абдаллах
абдолла
абдрахманов
абдрахманова
абдул
абдулин
абдулла
абдуллаһ
абердин
абзал
абоненттік
аборт
абрамович
абруццо
абс
абсолют
абсолютт
абсолютті
абсолюттік
абстрактілі
абу
абхаз
абхазия
абыз
абыздар
абыл
абылаи
абыралы
абырои
ав
аваллон
авангард
аванесов
авар
август
августа
аве
авеи
авеллино
авен
авиация
авиациялық
авиацияның
авиациясы
авила
авр
авраам
авранш
аврора
австралия
австралияда
австралиялық
австралияның
австрия
австрияда
австриялық
австрияның
авт
авто
автобус
автобустар
автокөлік
автокөліктер
автомат
автоматика
автоматтандыру
автоматтандырылған
автоматты
автоматтық
автомобиль
автомобильдер
автомобильдердің
автомобильді
автомобильдің
автомобилі
автономды
автономдық
автономдік
автономия
автономиялы
автономиялық
автономиясы
автономиясын
автономиясының
автор
автордың
авторитарлық
авторлар
авторлардың
авторлары
авторларының
авторлық
авторы
агент
агенттігі
агенттігінде
агенттігінің
агенттік
агенттіктері
агенттіктің
агенті
агломерациясы
агломерациясында
аграрлы
аграрлық
агрегат
агрегаттар
агрегаттары
агрегаттық
агрессивті
агресте
агроклиматтық
агроном
агрономия
агрономы
агротехникалық
агроөнеркәсіп
агроөнеркәсіптік
ад
ада
адаи
адал
адалдық
адам
адамгершілік
адамгершілікке
адамда
адамдар
адамдарда
адамдардан
адамдарды
адамдардың
адамдармен
адамдары
адамдарын
адамдарына
адамдарының
адамдарға
адамды
адамдық
адамзат
адамзатты
адамзаттық
адамзаттың
адамзатқа
адами
адаммен
адамнан
адамның
адамс
адамы
адамын
адамының
адамға
адасып
адасқан
адвокат
адидже
админ
административно
адмирал
адольф
адрес
адресі
адриан
адыгеи
адыгея
ажал
ажар
ажыраи
ажырамас
ажырап
ажырасу
ажырасып
ажырасқан
ажырата
ажыратады
ажырату
ажыратуға
ажыратылады
ажыратып
ажырау
аз
аза
азабы
азабын
азаи
азамат
азаматтар
азаматтарды
азаматтардың
азаматтары
азаматтарына
азаматтарының
азаматтарға
азаматтығы
азаматтығын
азаматтық
азаматтың
азаматы
азан
азап
азапты
азат
азаттығы
азаттық
азаюы
азаюына
азая
азаяды
аздап
аздау
аздаған
азды
аздығы
азербаи
азиз
азии
азия
азияда
азиядан
азиядағы
азиялық
азияны
азияның
азияға
азов
азот
азотты
азоттың
азу
азшылық
азын
азырақ
азығы
азығын
азық
азықтық
азғана
азғантаи
азғыр
аи
аив
аида
ак
акад
академигі
академии
академик
академика
академия
академиялық
академияны
академияның
академиясы
академиясын
академиясына
академиясында
академиясының
акбар
аквитания
акино
аккад
аккумулятор
акср
акт
акте
актер
актердің
актерлер
актерлердің
актерлік
актері
актив
активтер
активтерді
активтері
активті
актриса
актрисасы
актілер
актілердің
актілері
актілерін
актісі
акуила
акула
акулалар
акуланың
акустикалық
акушерлік
акционерлік
акция
акциялар
акцияларды
акциялардың
акциялары
акцияларын
акцияларының
ал
ала
алабота
алабы
алабын
алабына
алабында
алабындағы
алабының
алабұға
алагоас
алады
алаи
алакөл
аламан
аламыз
аламын
алан
алания
алансон
алап
алапат
алаптары
алаптарында
алаптың
алар
аласа
аласапыран
аласыз
алатау
алатауларында
алатауы
алатауында
алатауындағы
алатауының
алатын
алатындаи
алатындығын
алатыны
алатынын
алатырь
алау
алауыздық
алаш
алаша
алашорда
алашорданың
алаштың
алақан
алаң
алаңда
алаңдар
алаңдары
алаңдарында
алаңдағы
алаңнан
алаңның
алаңы
алаңын
алаңына
алаңында
алаңындағы
алаңының
алаңға
алаңқаи
албан
албания
алгавре
алгарве
алгебра
алгебралық
алгоритм
алда
алдабергенов
алдамшы
алдап
алдар
алдау
алдағы
алды
алдым
алдымен
алдын
алдына
алдынан
алдында
алдындағы
алдынғы
алдырып
алдық
алдыңғы
алегри
алеи
алекс
александр
александра
александрия
александров
александрович
александровка
александровна
александровск
алексеев
алексеевич
алексеевка
алексеи
ален
алентежу
алеппо
алес
алессандрия
алжир
али
аликанте
алиса
алкоголь
алкогольді
алла
алладан
алланы
алланың
аллаға
аллаһ
аллаһның
аллаһтан
аллаһтың
аллаһу
аллаһқа
аллен
аллергиялық
аллювии
алма
алмады
алмаз
алмаи
алмалы
алмалық
алмас
алмаса
алмасады
алмасты
алмастырады
алмастырды
алмастыру
алмастыруға
алмастырылды
алмастырып
алмасу
алмасуды
алмасудың
алмасуы
алмасуын
алмасуына
алмасуының
алмасуға
алмасы
алмасып
алматы
алматыда
алматыдан
алматыдағы
алматыкітап
алматылық
алматының
алматыға
алмау
алмауы
алмаған
алмағандықтан
алмақ
алмұрт
алои
алпамыс
алпыс
алса
алсақ
алта
алтаи
алту
алты
алтын
алтынаи
алтынбеков
алтынды
алтынемел
алтынмен
алтыннан
алтынның
алтынсарин
алтынсариннің
алтыншы
алтынға
алу
алуан
алуда
алудан
алуды
алудың
алумен
алушы
алушылар
алушылардың
алушыларға
алушының
алушыға
алуы
алуымен
алуын
алуына
алуға
алфавит
алшақ
алшақтық
алшын
алым
алымы
алына
алынады
алынатын
алынбаи
алынбаған
алынды
алынса
алынуы
алынып
алынған
алып
алыпты
алыс
алыста
алыстан
алыстап
алыстағы
алысып
алысқа
аль
альб
альба
альберт
альберто
альбом
альбомның
альбомы
альбомын
альбомының
альгои
алье
альпі
альпілік
альт
альта
альтенкирхен
альткирш
альто
альфа
альфред
альянс
алюминии
аляска
алға
алғабас
алған
алғанда
алғандар
алғандағы
алғаннан
алғаны
алғанымен
алғанын
алғанға
алғаш
алғашкы
алғашында
алғашқы
алғашқыда
алғашқылардың
алғашқысы
алғы
алғыр
алғыс
алғысы
алқа
алқабы
алқабын
алқабына
алқабында
алқабындағы
алқабының
алқалар
алқап
алқапта
алқаптар
алқаптарда
алқаптары
алқаптарын
алқаптарында
алқапты
алқаптың
алқасы
алқасының
алқызыл
ам
амазонас
амал
амалдар
амалдарды
амалдары
амалдарын
амалсыз
амалы
амалын
аман
аманат
амангелді
амандық
аманжол
аманжолов
аманкелді
амантаи
амбулатория
америка
америкада
америкадан
америкадағы
америкалық
америкалықтар
американ
американдық
американдықтар
американы
американың
америкасы
америкаға
ами
амин
аммиак
аммонии
аморфты
амплитудасы
амстердам
амур
амштеттен
ан
ана
анадан
анадолы
аналар
аналардың
аналары
анализ
аналитикалық
аналогтық
аналығы
аналығының
аналық
аналықтары
аналь
ананың
анар
анастасия
анасы
анасымен
анасын
анасына
анасынан
анасының
анатолии
анатольевич
анатомия
анатомиялық
анатомиясы
анау
анаэробты
анаға
анағұрлым
англ
англии
англия
англияда
англиядағы
англиялық
англиямен
англияның
англияға
ангола
анд
анда
андалусия
андас
андели
андерсон
анджелес
анджелесте
андорра
андре
андреа
андреас
андреев
андреевич
андреи
андрес
андромеда
андронов
анемия
анимация
анимациялық
аниме
анкара
анна
анотомия
анри
ансамбль
ансамблі
ансамблінің
ант
антанта
антарктида
антарктикалық
антенна
антенналар
анти
антибиотиктер
антиген
антидене
антиденелер
антик
антика
антикалық
антиклинории
антиль
антологиясы
антон
антонии
антонимдері
антонио
антониу
антонов
антропоген
антропогендік
антропология
антропологиялық
антуан
анхальт
анхель
анық
анықтады
анықтаи
анықталады
анықталатын
анықталды
анықталмаған
анықталуы
анықталып
анықталған
анықтама
анықтамаламық
анықтамалар
анықтамалығы
анықтамалық
анықтамасы
анықтамаңызды
анықтап
анықтау
анықтауда
анықтауды
анықтаудың
анықтаушы
анықтауыш
анықтауға
анықтаған
аның
ао
аоста
ап
апа
апаи
апалы
апарады
апаратын
апарып
апасы
апат
апатит
апаттан
апаттар
апатты
апаттық
апаты
апатынан
апатқа
апельсин
апертура
апматы
аполлон
апостол
аппарат
аппараттар
аппараттары
аппараттарын
аппараттарының
аппаратты
аппараттық
аппараттың
аппараты
аппаратын
аппаратында
аппаратының
аппақ
апреля
апта
аптада
аптадан
апталық
аптаның
аптасына
аптаға
апулия
ар
ара
араб
арабия
арабиясы
арабиясының
арабтар
арабтардың
арабтарға
арабтың
арабша
арагон
арада
арадағы
араи
арал
аралаи
аралап
аралар
аралары
араларында
аралас
араласа
араласады
араласпаи
араласты
араластыра
араластырады
араластыру
араластырып
араласу
араласуы
араласуымен
араласуына
араласуынан
араласып
араласқан
аралаған
аралбаи
аралда
аралдар
аралдарда
аралдарды
аралдардың
аралдары
аралдарын
аралдарына
аралдарынан
аралдарында
аралдарындағы
аралдарының
аралды
аралдың
аралтөбе
аралы
аралын
аралына
аралынан
аралында
аралындағы
аралының
аралығы
аралығын
аралығына
аралығында
аралығындағы
аралық
аралықта
аралықтарында
аралықтарындағы
аралықтағы
аралықты
аралға
арам
арамеи
арамшөп
араның
арасан
арасы
арасын
арасына
арасынан
арасында
арасындағы
араға
арақ
арақатынасы
арақатынасын
арақашықтығы
арақашықтық
арба
арбау
аргау
аргентина
аргентинада
аргентиналық
аргентинаның
аргумент
аргун
ардагер
ардагерлер
ардагерлері
ардагері
ардақ
ардақты
арена
аренада
аренасы
аржантан
арзан
аридтік
аризона
арии
аристов
аристотель
аристотельдің
арифметика
арифметикалық
арка
аркадии
арктика
арктикалық
аркуль
аркуш
аркылы
арлан
арм
арман
армандаи
армандаған
арманы
арманын
армения
арменияның
армии
армия
армияның
армиясы
армиясын
армиясына
армиясында
армиясының
армияға
армор
армстронг
армян
армяндар
арн
арна
арнада
арнады
арнаи
арналады
арналар
арналары
арналган
арналды
арналы
арналып
арналық
арналған
арнаның
арнап
арнасы
арнасын
арнасына
арнасынан
арнасында
арнасындағы
арнасының
арнау
арнаулы
арнаға
арнаған
арнольд
ароматты
арпа
аррас
арре
аррои
аррондиссеман
арсенал
арслан
арт
арта
артады
арте
артезиан
артерия
артериялық
артиллерия
артиллериялық
артиллерияның
артист
артистері
артисі
артта
артты
арттыра
арттырады
арттыратын
арттырды
арттыру
арттыруға
арттырып
артур
артуы
артуына
арты
артына
артынан
артында
артынша
артып
артық
артықшылығы
артықшылық
артықшылықтар
артықшылықтары
артқа
артқан
артқы
ару
аруана
аруна
аруы
арх
архаикалық
архангел
архангель
архангельск
археи
археол
археолог
археология
археологиялық
археологтар
архив
архивировано
архиві
архимед
архит
архитектор
архитекторы
архитектура
архитектуралық
архитектурасы
арша
аршалы
аршылған
аршып
ары
арыз
арылу
арын
арынды
арыс
арыстан
арыстандар
арыстанның
арық
арғы
арғын
арқа
арқалық
арқан
арқаның
арқар
арқарлы
арқасы
арқасына
арқасында
арқау
арқауы
арқылы
ас
аса
асады
асан
асанов
асар
асатын
асау
асбест
асдп
аскин
аскорбин
аскр
аскөк
аспа
аспабы
аспады
аспаздық
аспаи
аспалы
аспан
аспанда
аспандағы
аспанды
аспаннан
аспанның
аспанға
аспап
аспапта
аспаптар
аспаптарда
аспаптарды
аспаптардың
аспаптармен
аспаптары
аспаптарын
аспаптарының
аспаптарға
аспапты
аспаптық
аспаптың
аспара
аспауы
аспаған
аспектілері
аспирант
аспирантура
аспирантурасын
аспирантурасында
аспиранты
асса
ассамблея
ассамблеясы
ассамблеясының
ассимиляция
ассирия
ассистент
ассистенті
ассоциация
ассоциациясы
ассоциациясының
асср
аст
астам
астамы
астамын
астан
астана
астанада
астанадағы
астаналық
астананы
астананың
астанасы
астанасын
астанасының
астанаға
астар
астарлы
астары
астасу
астасып
астау
астероид
асти
астон
астралылар
астрахан
астрахань
астрель
астроном
астрономдар
астрономия
астрономиялық
астрономы
астрофизика
астурия
асты
астына
астынан
астында
астындағы
астыртын
астық
астықты
астың
астыңғы
асу
асуы
асуына
асфальт
асфендияров
асхана
асханалық
асханасы
асхат
асы
асыл
асылбек
асылдандыру
асып
асыра
асырады
асыраи
асырап
асыратын
асырды
асыру
асыруда
асыруды
асырудың
асырушы
асыруға
асырылады
асырылатын
асырылды
асырылуда
асырылуы
асырылып
асырылған
асырып
асырған
асығыс
асық
асықпаи
асықты
асқа
асқабақ
асқазан
асқазанның
асқан
асқанадам
асқар
асқақ
асқорыту
асқын
асқынып
асқынған
ат
ата
атадан
атады
атаи
атала
аталады
аталар
аталары
аталатын
аталды
аталмыш
аталу
аталуы
аталы
аталып
аталығы
аталығының
аталық
аталықтары
аталықтарының
аталған
атам
атаман
атамекен
атамұра
атан
атанады
атанды
атанып
атаның
атанған
атап
атасу
атасы
атасынан
атасының
ататын
ататүрік
атау
атауды
атаудың
атаулар
атауларды
атаулардың
атаулары
атауларын
атауларының
атаулы
атаулының
атаумен
атауы
атауымен
атауын
атауына
атауынан
атауының
атауға
атаға
атаған
атағы
атағымен
атағын
атағына
атағының
атақ
атақтар
атақтары
атақты
атаққа
атбасар
атеист
аткомының
атлант
атланта
атлантикалық
атлас
атласы
атлет
атлетик
атлетика
атлетикадан
атлетико
атмосфера
атмосферада
атмосферадағы
атмосфералық
атмосфераның
атмосфераға
атолл
атом
атомдар
атомдардың
атомдары
атомдарының
атомды
атомдық
атомның
атомы
атомының
атпа
атпен
атс
атсалысты
атсалысқан
аттан
аттанады
аттанды
аттандырды
аттанып
аттанған
аттап
аттар
аттары
аттарын
аттас
аттестациялық
аттила
атты
аттың
ату
атуға
атф
аты
атылды
атылып
атылған
атым
атымен
атын
атына
атынан
атынд
атында
атындағы
атының
атып
атырабы
атырабында
атырау
атырауда
атыс
атыспен
атысты
атығаи
атқа
атқан
атқара
атқарады
атқаратын
атқарды
атқару
атқаруда
атқарушы
атқаруы
атқаруға
атқарылады
атқарылатын
атқарылды
атқарылуы
атқарып
атқарған
атқылаи
атқылап
атқылау
атқылауы
атқылаған
атқыш
атқыштар
ау
ауа
ауада
ауадан
ауадағы
ауамен
ауаны
ауаның
ауасы
ауаға
аубакиров
ауд
аудан
ауданда
аудандар
аудандарда
аудандардан
аудандардағы
аудандарды
аудандардың
аудандары
аудандарымен
аудандарын
аудандарына
аудандарынан
аудандарында
аудандарындағы
аудандарының
аудандарға
аудандастыру
аудандағы
ауданды
аудандық
ауданнан
ауданның
ауданы
ауданымен
ауданын
ауданына
ауданынан
ауданында
ауданындағы
ауданының
ауданға
аудара
аударады
аударарлық
аударатын
аударды
аударма
аудармаи
аудармалар
аудармалары
аудармасы
аудармашы
аудартады
аудару
аударуды
аударушы
аударушылар
аударуы
аударуға
аударылады
аударылды
аударылып
аударылған
аударып
аударған
аударғанда
аударғандар
аудио
аудит
аудитория
аудиторияға
аудиторлық
аузы
аузын
аузына
аузынан
аузында
аузындағы
аула
аулаи
ауланады
аулап
аулау
аулаумен
аулауға
аулаған
аулақ
аулы
аулына
аулында
аулының
аум
аумағы
аумағымен
аумағын
аумағына
аумағынан
аумағында
аумағындағы
аумағының
аумақ
аумақта
аумақтар
аумақтарда
аумақтарды
аумақтардың
аумақтары
аумақтарынан
аумақтағы
аумақты
аумақтық
аумақтың
аумаққа
аун
аургазин
ауру
аурудан
ауруды
аурудың
аурулар
аурулардан
ауруларды
аурулардың
аурулармен
аурулары
ауруларын
ауруларына
ауруларының
ауруларға
аурумен
аурухана
ауруханада
ауруханалар
аурухананың
ауруханасы
ауруханасында
ауруханасының
ауруханаға
ауруы
ауруымен
ауруын
ауруына
ауруынан
ауруының
ауруға
аустралия
аустралияда
аустралиялық
аустралияның
аустрия
аустриядағы
аустриялық
аустрияның
ауыз
ауыздан
ауызды
ауыздың
ауызекі
ауызша
ауызға
ауыл
ауылда
ауылдан
ауылдар
ауылдарда
ауылдарды
ауылдардың
ауылдары
ауылдарын
ауылдарына
ауылдарында
ауылдарының
ауылдарға
ауылдағы
ауылды
ауылдық
ауылдың
ауылшаруашылығы
ауылшаруашылық
ауылы
ауылын
ауылына
ауылынан
ауылында
ауылындағы
ауылындағысу
ауылының
ауылға
ауып
ауыр
ауырады
ауыратын
ауырлық
ауырсыну
ауыру
ауыруы
ауырып
ауырған
ауырғанда
ауыса
ауысады
ауыспалы
ауысты
ауыстырады
ауыстыратын
ауыстырды
ауыстыру
ауыстыруы
ауыстыруға
ауыстырылады
ауыстырылды
ауыстырылып
ауыстырылған
ауыстырып
ауыстырған
ауысу
ауысуы
ауысуына
ауысым
ауысып
ауысқан
ауысқанда
ауытқиды
ауытқу
ауытқулар
ауытқуы
ауытқып
ауық
ауған
ауғанстан
ауғанстанда
ауғанстандағы
ауғанстанның
ауғанстанға
ауқат
ауқатты
ауқымда
ауқымды
ауқымы
ауқымын
ауқымында
ауқымындағы
афина
афинада
афины
афк
африка
африкада
африкадан
африкадағы
африкалық
африканы
африканың
африкаға
афро
ахмад
ахмади
ахмадия
ахмед
ахмет
ахметжан
ахметов
ахметова
ахметұлы
ахтанов
ахтановтың
ахуал
ахуалды
ахуалы
ахун
ачинск
аш
аша
ашады
ашамаи
ашар
ашаршылық
ашатын
ашина
ашты
аштық
аштықтан
аштыққа
ашу
ашуды
ашуы
ашуға
ашхабад
ашыла
ашылады
ашылатын
ашылды
ашылу
ашылуы
ашылуына
ашылып
ашылған
ашылғаннан
ашып
ашыту
ашытқы
ашыған
ашық
ашқан
ашқаны
ащы
ащыбұлақ
ащыкөл
ащысаи
ащысу
аэробты
аэродинамикалық
аэродром
аэропорт
аэс
аю
аюлы
аягөз
аяз
аязды
аякс
аямаи
аян
аянбаи
аясы
аясын
аясына
аясында
аясындағы
аят
аяттан
аяттар
аяттары
аяулы
аяусыз
аяччо
аяған
аяғы
аяғымен
аяғын
аяғына
аяғынан
аяғында
аяғындағы
аяғының
аяқ
аяқпен
аяқсыз
аяқтады
аяқтаи
аяқталады
аяқталатын
аяқталды
аяқталмаи
аяқталмаған
аяқталуы
аяқталуына
аяқталып
аяқталған
аяқталғаннан
аяқтап
аяқтар
аяқтары
аяқтарын
аяқтарында
аяқтарының
аяқтау
аяқтаған
аяқтағаннан
аяқты
аяқтың
аяққа
аға
ағады
ағаи
ағалары
ағарту
ағартушы
ағартушылық
ағартушысы
ағасы
ағасының
ағатын
ағаш
ағашпен
ағаштан
ағаштар
ағаштардан
ағаштарды
ағаштардың
ағаштары
ағаштарының
ағаштарға
ағашты
ағаштың
ағашы
ағашын
ағашының
ағашқа
ағза
ағзада
ағзадағы
ағзалар
ағзалардың
ағзаларға
ағзалық
ағзаны
ағзаның
ағзасы
ағзасына
ағзасында
ағзаға
ағу
ағуы
ағыбаи
ағызу
ағызып
ағыл
ағылш
ағылшын
ағылшындар
ағылшындардың
ағылшындық
ағылшынның
ағылшынша
ағылып
ағым
ағымдар
ағымдағы
ағымды
ағымның
ағымы
ағымына
ағымында
ағымының
ағын
ағындары
ағынды
ағынның
ағынсыз
ағыны
ағынымен
ағынын
ағынының
ағып
ағыс
ағысы
ағысын
ағысына
ағысында
ағысындағы
ағысының
ақ
ақаба
ақадыр
ақаи
ақан
ақау
ақауы
ақбас
ақбастау
ақбұлақ
ақдала
ақжаи
ақжал
ақжар
ақжелкен
ақжол
ақиық
ақиқат
ақиқатты
ақиқаттың
ақиқатқа
ақкөл
ақмешіт
ақмола
ақп
ақпан
ақпанда
ақпандағы
ақпаннан
ақпанның
ақпанынан
ақпанында
ақпарат
ақпаратпен
ақпараттандыру
ақпараттар
ақпараттарды
ақпаратты
ақпараттық
ақпараттың
ақпараты
ақпаратқа
ақсаи
ақсары
ақсақ
ақсақал
ақсақалдар
ақсақалдары
ақсу
ақсуат
ақсүи
ақтабан
ақтаи
ақталды
ақталған
ақтан
ақтар
ақтас
ақтасты
ақтау
ақтоғаи
ақтоқты
ақтық
ақтөбе
ақтөбеде
ақтөбемұнаи
ақуыз
ақуыздар
ақуызды
ақш
ақша
ақшалаи
ақшалар
ақшалардың
ақшамен
ақшаны
ақшаның
ақшасы
ақшасын
ақшатау
ақшаға
ақши
ақшоқы
ақшыл
ақы
ақыл
ақылбаи
ақылды
ақылдың
ақылмен
ақылы
ақылға
ақымақ
ақын
ақындар
ақындардың
ақындармен
ақындары
ақындарының
ақынды
ақындық
ақынның
ақыны
ақынға
ақыр
ақырет
ақыры
ақырын
ақырына
ақырында
ақырғы
ақысы
ақысыз
ақысын
ақышев
аққаи
аққан
аққу
аққулы
аққыстау
аққұдық
аққұм
аң
аңдар
аңдарды
аңдардың
аңды
аңдып
аңның
аңсаған
аңшы
аңшылар
аңшылық
аңшылықпен
аңыз
аңызда
аңыздар
аңыздарда
аңыздары
аңыздың
аңызы
аңызға
аңырақаи
аңға
аңғар
аңғарамыз
аңғардың
аңғарлар
аңғарлары
аңғарларында
аңғарлық
аңғартады
аңғаруға
аңғары
аңғарылады
аңғарына
аңғарында
аңғарындағы
аңғарының
аұп
б
ба
баб
баба
бабалар
бабалары
бабаларымыз
бабаларының
бабаның
бабасы
бабы
бабына
бабында
бабының
бабыр
бавария
баварияның
бад
бадам
баден
баев
баева
баж
баз
база
базалық
базальт
базар
базарбаев
базарбаи
базары
базасы
базасын
базасына
базасында
базасындағы
базасының
базель
базиликата
базистік
баи
баия
бак
бакалавр
бакалавриат
бакалавры
бакалин
бактериологиялық
бактерия
бактериялар
бактерияларды
бактериялардың
бактериялары
бактериялық
баку
бакуде
бал
бала
балабақша
балабақшасы
баладан
балалар
балаларда
балаларды
балалардың
балалармен
балалары
балаларын
балаларына
балаларының
балаларға
балалы
балалық
балам
балама
баламалы
баламасы
баланс
балансы
баланы
баланың
балапан
балапандар
балапандарды
балапандары
балапандарын
баласағұн
баласы
баласын
баласына
баласының
балауса
балауыз
балаға
балақ
балақаев
балаң
балды
балдыр
балдырлар
балдырлардың
балдырған
балет
балетмеи
балеті
балка
балкан
балл
баллада
баллистикалық
балпық
балта
балтачев
балтық
балуан
балшық
балшықпен
балшықтан
балшықты
балы
балығы
балық
балықтар
балықтарды
балықтардың
балықтармен
балықтары
балықтарға
балықты
балықтың
балықшы
балықшылар
балыққа
балға
балғын
балқан
балқар
балқарағаи
балқаш
балқитын
балқу
балқыту
балқытылған
балқытып
балқыған
бамбук
банан
бангкок
бангладеш
бангладештің
бани
банк
банкке
банкнот
банкноттар
банктер
банктердің
банктік
банктің
банкі
банкілер
банкінің
бану
бап
бапкер
бапкерлер
бапкерлік
бапкерлікпен
бапкері
баптау
баптың
бар
бара
барабан
барабар
барады
барак
барар
баратын
барақ
барбара
барды
баренц
бари
барии
барит
барланған
барлау
барлаудың
барлаушы
барлаушылар
барлаушысы
барлык
барлығы
барлығын
барлығына
барлығында
барлығының
барлық
бармаи
бармақ
барнаул
барнауыл
барокко
барон
барри
барса
барселона
барселонаға
барселуш
бартольд
бару
баруы
баруға
барша
баршаға
баршылық
бары
барымта
барын
барынша
барып
барыс
барысы
барысын
барысына
барысында
барысындағы
барған
барғанда
барқыт
бас
баса
басады
басар
басатын
баск
баска
баскару
баскетбол
баспа
баспагер
баспагерлері
баспадан
баспаи
баспалдақ
баспана
баспаның
баспасы
баспасынан
баспасында
баспасының
баспасөз
баспасөзде
баспахана
баспаханасы
баспаға
баспен
бассеи
бассүи
баста
бастады
бастаи
басталады
басталар
басталатын
басталды
басталу
басталуы
басталуына
басталып
басталған
басталғанда
басталғаннан
басталғанға
бастама
бастамасы
бастамасымен
бастамасын
бастамашысы
бастан
бастап
бастапқы
бастапқыда
бастар
бастары
бастарын
бастарына
бастаса
бастау
бастаудан
бастаушы
бастаушысы
бастауы
бастауымен
бастауын
бастауына
бастауынан
бастауында
бастауыш
бастауға
бастаған
бастағанда
бастағанын
бастағы
бастия
басты
бастырып
бастысы
бастығы
бастығының
бастық
бастықтың
бастың
басу
басуы
басуға
басшы
басшылар
басшылары
басшыларын
басшыларына
басшыларының
басшылығы
басшылығымен
басшылығына
басшылығының
басшылық
басшылықты
басшылықтың
басшылыққа
басшысы
басшысының
басы
басыбаи
басылады
басылды
басылым
басылымда
басылымдар
басылымдарда
басылымдардың
басылымдары
басылымдарында
басылымның
басылымы
басылымында
басылымының
басылымға
басылып
басылған
басым
басымдылық
басымдық
басымен
басымырақ
басын
басына
басынан
басында
басындағы
басының
басып
басқа
басқада
басқадаи
басқалар
басқалардан
басқаларды
басқалардың
басқалармен
басқалары
басқаларына
басқаларға
басқан
басқанда
басқаны
басқаның
басқара
басқарады
басқаратын
басқарды
басқарма
басқармалары
басқарманың
басқармасы
басқармасына
басқармасында
басқармасының
басқару
басқаруда
басқаруды
басқарудың
басқарушы
басқарушылық
басқарушысы
басқаруы
басқаруымен
басқаруына
басқаруға
басқарылады
басқарылатын
басқарып
басқарған
басқасы
басқаша
басқаға
басқыншыларына
басқыншылық
бат
бата
батальон
батальоны
батарея
батасын
батпақ
батпақтар
батпақты
батпаққа
бату
батыл
батылдық
батып
батыр
батырды
батырдың
батырлар
батырлардың
батырлары
батырларының
батырлығы
батырлық
батырмасын
батырмен
батыры
батырып
батырға
батыс
батыста
батыстан
батыстағы
батыстық
батыстың
батысы
батысын
батысына
батысынан
батысында
батысындағы
батысқа
батқан
бау
баулу
бауман
баураи
баурап
бауру
бауыр
бауырда
бауырдың
бауыржан
бауырлары
бауырлас
бауырластық
бауыры
бауырымен
бауырын
бауырына
бах
баха
бахреи
баш
башқұрт
башқұртстан
башқұртстанның
башқұрттар
баязит
баялыш
баян
баянауыл
баяндады
баяндаи
баяндалады
баяндалған
баяндама
баяндамалар
баяндап
баяндау
баяндауыш
баяндаған
баянды
баяу
баяулаи
баяғы
баға
бағады
бағалады
бағалаи
бағаланады
бағаланды
бағаланып
бағаланған
бағалап
бағалар
бағалау
бағалаудың
бағалауы
бағалауға
бағалаған
бағалы
бағам
бағамен
бағамы
бағамын
баған
бағана
бағаналар
бағаналы
бағанасы
бағаны
бағаның
бағар
бағасы
бағасын
бағасына
бағасының
бағаға
бағдаламасының
бағдар
бағдарлама
бағдарламада
бағдарламалар
бағдарламаларды
бағдарламалардың
бағдарламалары
бағдарламаларын
бағдарламаларына
бағдарламаларының
бағдарламаларға
бағдарламалау
бағдарламалық
бағдарламаны
бағдарламаның
бағдарламасы
бағдарламасымен
бағдарламасын
бағдарламасына
бағдарламасында
бағдарламасының
бағдарламаға
бағдарланған
бағдарлау
бағдары
бағдарын
бағдат
бағдатта
бағзы
бағу
бағы
бағынады
бағынатын
бағынбаи
бағында
бағынды
бағындырды
бағындыру
бағындыруға
бағындырып
бағындырған
бағыныстағы
бағынышты
бағыныңқы
бағынған
бағып
бағыт
бағытпен
бағытта
бағыттаи
бағытталады
бағытталды
бағытталып
бағытталған
бағыттан
бағыттап
бағыттар
бағыттарда
бағыттарды
бағыттардың
бағыттары
бағыттарын
бағыттарының
бағыттау
бағыттаушы
бағыттағы
бағытты
бағыттың
бағыты
бағытымен
бағытын
бағытына
бағытында
бағытындағы
бағытының
бағытқа
бақ
бақа
бақаи
бақан
бақанас
бақи
бақсаи
бақсы
бақтар
бақтары
бақташы
бақтияр
бақты
бақтыбаи
бақша
бақшасараи
бақшасы
бақылаи
бақыланатын
бақылап
бақылау
бақылауда
бақылауды
бақылаудың
бақылаулар
бақылаушы
бақылауы
бақылауымен
бақылауына
бақылауында
бақылауға
бақыт
бақытжан
бақытсыз
бақытты
бақыты
бақытқа
баққан
баңладештің
баңлаша
баһадүр
баә
бб
бе
бегалин
бегім
беде
бедел
беделге
беделді
беделі
беделін
бедер
бедердің
бедерленген
бедерлі
бедері
бедерін
бедеріне
бедерінің
бежа
без
безгек
бездер
бездердің
бездері
бездерінің
безді
бездің
безендіру
безендірілген
безье
безі
безінің
беи
бек
бекболат
бекболатұлы
бекер
бекет
бекеті
бекзат
бекиді
беккер
беков
бектібаев
бектұров
бекіген
бекінген
бекінеді
бекініп
бекініс
бекіністер
бекіністі
бекіністің
бекінісі
бекінісін
бекінісіне
бекінісінің
бекіре
бекітеді
бекітетін
бекіткен
бекітті
бекіту
бекітуге
бекітілген
бекітілді
бекітіледі
бекітілетін
бекітіліп
бекітіп
бел
беларусь
белая
белаяға
белағаш
белбеу
белг
белгород
белград
белгі
белгілеген
белгіледі
белгілеи
белгіленген
белгіленді
белгіленеді
белгіленетін
белгіленуі
белгіленіп
белгілеп
белгілер
белгілерге
белгілерді
белгілердің
белгілермен
белгілері
белгілерімен
белгілерін
белгілеріне
белгілерінің
белгілеу
белгілеуге
белгілі
белгімен
белгінің
белгісі
белгісіз
белгісімен
белгісін
белгісіне
белгісінің
белдем
белдемде
белдемдер
белдемше
белдемі
белдемінде
белдемінің
белдеу
белдеуде
белдеудің
белдеулер
белдеулерде
белдеулерінде
белдеуі
белдеуінде
белдеуінің
белді
белдік
беле
белебеев
белес
белесті
белең
белинскии
белл
белок
белоктар
белорет
белорус
белоруссия
белсенді
белсенділігі
белсенділігін
белсенділігінің
белсенділік
белсенділіктің
белсене
белу
белыи
бельгия
бельгияда
бельгиялық
бельгияның
белі
белімінің
бен
бенгал
бенджамин
беневенто
бенедикт
бензин
бензол
бенфика
бер
берг
бергамо
берген
бергенде
бергеннен
бергенов
бергені
бергенін
бергі
берд
берді
бердібек
бердіұлы
бере
беред
береді
березники
березовка
береи
береке
берекелі
берекет
берел
береміз
беремін
берен
берер
берет
беретін
беретінін
бержерак
бериллии
беринг
берке
беркли
берлин
берлинде
берлиндегі
бермеген
бермеді
бермеи
бермек
бермеу
берн
бернар
бернард
бернд
берне
бернхард
бернштам
берсе
берсін
бертін
беру
беруге
беруде
берудегі
беруден
беруді
берудің
берумен
беруші
берушілер
берушілердің
берушінің
беруі
беруін
беруіне
бері
берік
беріктігі
беріктігін
беріктік
берілген
берілді
беріле
беріледі
берілетін
берілмеген
берілмеи
берілсе
берілу
берілуі
берілуін
беріліп
беріліс
беріп
беріпті
беріс
беріш
беріңіз
бес
бесағаш
бесжылдық
бесжылдықта
бескөл
бесоба
бестен
бестөбе
бесік
бесікке
бесін
бесінші
бесқарағаи
бет
бета
беташар
бетбұрыс
бетеге
бетегелі
бетке
беткеи
беткі
бетон
бетонды
бетоннан
бетпақдала
бетпе
бетте
беттегі
беттен
беттер
беттерді
беттердің
беттері
беттерін
беттерінде
беттеріне
беттерінен
беттерінің
бетті
беттік
беттің
бетховен
бетюн
беті
бетімен
бетін
бетінде
бетіндегі
бетіне
бетінен
бетінше
бетінің
бешикташ
беғазы
би
библиография
библиографиялық
библиотека
бибі
бибігүл
биге
бидаи
биден
биді
бидің
бие
биекенов
биенің
бижбуляк
бизнес
бизнеске
бизнесмен
бизнесті
бизнестің
бизнесі
бии
бикеш
бил
билеген
биледі
билеи
билеп
билер
билердің
билері
билерінің
билет
билеу
билеуші
билеушілер
билеушілердің
билеушілері
билеушілерінің
билеушінің
билеушісі
билл
билли
бильярд
билігі
билігін
билігінде
билігіне
билігінің
билік
билікке
биліктен
билікті
биліктің
бимен
бин
бинт
биогендік
биография
биографиясы
биол
биолог
биология
биологияда
биологиялық
биологиясы
биоморфология
биосфера
биосфералық
биосфераның
биотехнология
биохимик
биохимия
биохимиялық
бир
биржа
биржалық
биржасы
бирма
бируни
бисмарк
бит
битбург
бич
биші
бишілер
биыл
бия
биязы
биі
биігі
биік
биікке
биікт
биікте
биіктеу
биіктігі
биіктігін
биіктігіне
биіктік
биіктікке
биіктікте
биіктіктегі
биіктіктен
биіктіктері
биінің
бк
бкп
бл
благовар
благовещен
благоевград
бле
блеи
блкжо
блог
блогы
блок
блоктар
блоктың
блюз
бниц
бо
боак
боб
бобби
боз
бозаи
бозащы
бозбала
бозторғаи
бозғылт
бои
бокс
боксит
бокстан
боксшы
боксшысы
бол
бола
болады
боламыз
боламын
болар
боларлық
болат
болатбаев
болаттан
болатты
болаттың
болатын
болатындаи
болатындығы
болатындығын
болатындықтан
болатыны
болатынын
болатынына
болашағы
болашағын
болашағына
болашақ
болашақта
болашақтағы
болашақты
болашаққа
болг
болган
болгар
болгария
болгарияда
болгариядағы
болгарияның
болдан
болды
болдым
болдырмаи
болдырмау
болдырмауға
болдық
болжаи
болжам
болжамдар
болжамды
болжамдық
болжамы
болжап
болжау
болжауға
болжаған
боливия
болма
болмады
болмаи
болмас
болмаса
болмасын
болмау
болмауы
болмауына
болмашы
болмаған
болмағанда
болмағандықтан
болмағаны
болмағанымен
болмақ
болмыс
болмысты
болмыстың
болмысы
болмысын
болмысына
болмысының
болонья
болса
болсам
болсақ
болсаң
болсын
болу
болуда
болудан
болуды
болудың
болумен
болуы
болуымен
болуын
болуына
болуынан
болуында
болуының
болуға
болымсыз
болып
болыпты
болыс
болыстар
болыстары
болыстық
болыстың
болысы
болысында
болысының
больцано
большая
большевик
большевиктер
большевиктердің
большевиктік
большои
болған
болғанда
болғандаи
болғандар
болғандардың
болғандығы
болғандығын
болғандықтан
болғанмен
болғаннан
болғанша
болғаны
болғанымен
болғанын
болғанына
болғанға
болғысы
бомба
бомбалаушы
бон
бондюг
боп
бор
боралдаи
боран
борат
бордақылау
бордо
бордың
борис
борисович
боровскои
бородулиха
борпылдақ
борсық
бортында
боруссия
борыш
борышты
борышын
бос
босану
босап
босатады
босатты
босату
босатуға
босатылады
босатылды
босатылып
босатылған
босатып
босаға
босаған
босния
бостандығы
бостандығын
бостандығына
бостандығынан
бостандық
бостандықтарын
бостандыққа
бостон
босқа
босқындар
бота
ботагөз
ботаи
ботаника
ботаникалық
ботақара
ботбаи
ботқа
бочкаре
бояи
боялады
боялған
бояу
бояулар
бояулармен
бояулы
бояумен
бояуы
бояуға
бояғыш
бояғыштар
брага
браганса
бразилия
бразилияда
бразилиядағы
бразилиялық
бразилияның
браи
бранденбург
бранку
браун
браунау
бреи
бренд
брест
бретань
брешия
брив
бригада
бригадасы
бригадасының
бригадир
бригадирі
брие
британ
британдық
британия
бриуд
бродвеи
бродскии
брои
брокгауз
бром
брондау
бронх
брук
бруклин
брунеи
бруно
брусиловскии
брюс
брюссель
брянск
бсэ
бу
буа
будан
будандастыру
будапешт
будда
буддалық
будданың
буддизм
буддизмнің
будет
буды
будың
буздяк
буи
булаев
булану
буле
булонь
бумен
бундеслигада
бур
бура
бурабаи
бураев
бург
бургас
бургенланд
бургомистрі
бургундия
бурж
буржуазия
буржуазиялық
буркина
бурыл
бурят
бутан
бутлеров
бухарест
бухари
бухгалтер
бухгалтерлік
бухгалтері
буш
буы
буылтық
буын
буында
буындар
буындардың
буындары
буындарының
буынды
буыннан
буынның
буыны
буынын
буының
буынға
буып
буэнос
буға
бы
был
былаи
былғары
былғарыдан
бын
бынды
бытыраңқы
быть
бышев
бьелла
бэи
бэк
бэкон
бэтмен
бюджет
бюджетке
бюджеттен
бюджеттердің
бюджетті
бюджеттік
бюджеттің
бюджеті
бюро
бюросы
бюросының
бюст
бяла
біз
бізбен
бізге
бізде
біздегі
бізден
бізді
біздің
біл
білге
білген
білгір
білдек
білді
білдірген
білдірді
білдіре
білдіреді
білдіретін
білдірмеи
білдірсе
білдіру
білдіруге
білдіруі
білдіріп
біле
біледі
білезік
білезіктер
білек
білеміз
білемін
білесің
білетін
білмеген
білмеи
білсе
білу
білуге
білудің
білуші
білуі
білігі
білік
білікті
біліктілігі
біліктілігін
біліктілік
біліктілікті
біліктің
білім
білімге
білімдер
білімдерді
білімдерін
білімді
біліммен
білімнің
білімі
білімін
білімінде
біліміне
білімінің
білінбеи
білінеді
біліп
бір
біраз
біразы
бірак
бірауыздан
бірақ
бірақта
бірге
бірде
бірдеи
бірден
бірегеи
бірен
бірер
біресе
біреу
біреуге
біреуден
біреуді
біреудің
біреулер
біреулері
біреулерінде
біреулерінің
біреуі
біреуін
біреуінде
біреуіне
біреуінің
біржан
біржақты
біржола
біржолата
біржылдық
біркелкі
бірлесе
бірлескен
бірлестігі
бірлестігінде
бірлестігіндегі
бірлестігіне
бірлестігінің
бірлестік
бірлестіктер
бірлестіктердің
бірлестіктері
бірлестіктің
бірлесіп
бірлігі
бірлігімен
бірлігін
бірлігінде
бірлігіне
бірлігінің
бірлік
бірлікке
бірлікте
бірліктер
бірліктердің
бірліктері
бірліктерін
бірліктерінің
бірлікті
бірліктің
бірнеше
бірсыпыра
бірталаи
бірте
біртектес
біртекті
біртуар
біртіндеп
біртұтас
біршама
бірыңғаи
бірі
біріге
бірігеді
бірігу
бірігуі
бірігуінен
бірігіп
біріккен
бірікті
біріктірген
біріктірді
біріктіре
біріктіреді
біріктіретін
біріктіру
біріктіруге
біріктірілген
біріктірілді
біріктіріледі
біріктіріліп
біріктіріп
бірімен
бірімжанов
бірін
бірінде
біріне
бірінен
бірінші
біріншіден
біріншілігі
біріншілігінде
біріншілігіне
біріншілігінің
біріншілік
біріншісі
бірінің
бірқазан
бірқалыпты
бірқатар
бірқатары
біт
біте
бітеді
бітеу
біткен
біткеннен
бітпеи
бітті
бітшілік
бітшілікті
бітік
бітім
бітімге
бітімі
бітіп
бітірген
бітіргеннен
бітірді
бітіреді
бітіріп
біше
бішесі
бішкек
бғм
бқо
бү
бүг
бүгін
бүгінге
бүгінгі
бүгінде
бүгіп
бүи
бүк
бүкіл
бүкілодақтық
бүкілресеи
бүкілхалықтық
бүкіләлемдік
бүл
бүлдірген
бүлік
бүлінген
бүркеншік
бүркеніш
бүркіп
бүркіт
бүркітті
бүркіттің
бүршік
бүтін
бүтіндеи
бұ
бұдан
бұдыр
бұдырлы
бұзады
бұзатын
бұзау
бұзбаи
бұзды
бұзу
бұзушылық
бұзуға
бұзылады
бұзылды
бұзылмаи
бұзылу
бұзылуы
бұзылуына
бұзылуынан
бұзылып
бұзылыстар
бұзылыстары
бұзылған
бұзылғанда
бұзып
бұзған
бұзғаны
бұи
бұл
бұлаи
бұлан
бұланды
бұланты
бұлар
бұларда
бұлардан
бұларды
бұлардың
бұларға
бұлағы
бұлақ
бұлақтар
бұлақтардан
бұлбұл
бұлдырық
бұлжытпаи
бұлт
бұлттар
бұлтты
бұлшық
бұлшықет
бұлшықеттер
бұлшықеттері
бұлғар
бұлғын
бұнда
бұндаи
бұны
бұның
бұр
бұрады
бұрама
бұранда
бұрандалы
бұрды
бұру
бұршақ
бұршақты
бұрылу
бұрылып
бұрылыс
бұрын
бұрындық
бұрыннан
бұрынырақ
бұрынғы
бұрынғыдаи
бұрынғыдан
бұрып
бұрыс
бұрыш
бұрышпен
бұрыштар
бұрыштары
бұрышты
бұрыштық
бұрыштың
бұрышы
бұрышын
бұрышына
бұрышында
бұрышының
бұрышқа
бұрыңғы
бұрғы
бұрғылау
бұрғышы
бұрғышының
бұта
бұталар
бұталардың
бұталары
бұталы
бұтағы
бұтағынан
бұтақ
бұтақталған
бұтақтанған
бұтақтары
бұтақтарының
бұтақты
бұхар
бұхара
бұхарада
бұхараға
бұхари
бұға
бұғаз
бұғазы
бұған
бұғы
бұғылар
бұғылы
бұқа
бұқар
бұқара
бұқаралық
бұқараның
бұқтырма
бұұ
бәи
бәкр
бәкір
бәлкім
бәрі
бәрібір
бәрін
бәрінде
бәріне
бәрінен
бәрінің
бәсеке
бәсекеге
бәсекелес
бәсекелестік
бәсекелестікті
бөбек
бөбекжаи
бөгде
бөген
бөгенбаи
бөгеннің
бөгені
бөгенінің
бөгет
бөгеттер
бөгеті
бөдене
бөкеи
бөкен
бөкетов
бөктерінде
бөл
бөлген
бөлгіш
бөлді
бөле
бөледі
бөлеи
бөлек
бөленген
бөленді
бөлетін
бөлме
бөлмеге
бөлмеде
бөлмеден
бөлмеи
бөлмелер
бөлмелердің
бөлмелері
бөлмелі
бөлмені
бөлменің
бөлмесі
бөлмесінде
бөлтірік
бөлу
бөлуге
бөлуді
бөлудің
бөлшегі
бөлшек
бөлшектеп
бөлшектер
бөлшектерге
бөлшектерден
бөлшектерді
бөлшектердің
бөлшектері
бөлшектерін
бөлшектерінің
бөлшектеу
бөлшектің
бөлігі
бөлігімен
бөлігін
бөлігінде
бөлігіндегі
бөлігіне
бөлігінен
бөлігінің
бөлік
бөлікке
бөлікте
бөліктен
бөліктер
бөліктерге
бөліктерден
бөліктерді
бөліктердің
бөліктері
бөліктерін
бөліктерінде
бөліктеріне
бөліктерінен
бөліктерінің
бөлікті
бөліктің
бөлім
бөлімге
бөлімде
бөлімдер
бөлімдерден
бөлімдердің
бөлімдері
бөлімдерін
бөлімдерінде
бөлімдеріне
бөлімдерінің
бөлімді
бөлімнен
бөлімнің
бөлімше
бөлімшелер
бөлімшелердің
бөлімшелері
бөлімшелерін
бөлімшелерінің
бөлімшенің
бөлімшесі
бөлімшесін
бөлімшесінде
бөлімшесіне
бөлімшесінің
бөлімі
бөлімін
бөлімінде
бөліміне
бөлімінен
бөлімінің
бөлінбеген
бөлінбеи
бөлінген
бөлінді
бөліне
бөлінеді
бөлінетін
бөліну
бөлінуі
бөлінуін
бөлінуіне
бөлінуінің
бөлініп
бөлініс
бөлінісі
бөлінісінің
бөліп
бөлісті
бөлісу
бөлісіп
бөрлі
бөрте
бөртпе
бөрі
бөрібаи
бөрік
бөрілі
бөтен
в
ва
вавилов
вавилон
вага
вагнер
вагон
вадим
ваз
ваи
вакуум
вакуумдық
вакцина
валансьенн
вале
валенсия
валентин
валентина
валентті
валенттік
валенттілік
валерии
вали
валле
валь
валье
вальес
вальтер
валюта
валюталық
валютаның
валютасы
ван
ванадии
ваниль
ванкувер
ванн
вань
варезе
варианты
варна
варфоломеи
варшава
василии
васильев
васильевич
васильевна
васко
васюган
васюганнан
васюганға
ватикан
вах
вахқа
вашингтон
вашингтонда
вв
введение
ве
веб
вебер
вега
вегетативті
вегетативтік
вегетациялық
ведомости
ведомстволық
веи
век
века
вексель
вектор
векторлық
векторы
веле
велико
великои
велосипед
вен
вена
венада
веналық
венаға
венгер
венгр
венгрия
венгрияның
венера
венесуэла
венето
венеция
вер
вера
вергилии
верде
верден
верди
вернадскии
вернер
верныи
верона
вероника
версаль
версиясы
вертикаль
верховного
верчелли
вест
вестервальд
вестник
вестфалия
ветеринария
ветеринариялық
ветеринарлық
ветлуга
взвод
ви
виана
виган
вид
видео
видин
византия
византиялық
визеу
визуалды
виктор
виктория
викторович
вила
вилен
вилла
вилли
виль
вильгельм
вильнев
вильнюс
вильсон
вильхельм
вильянуэва
вильярреал
винер
виноградов
винсент
винчи
вир
виргиния
вирджиния
виртуалды
вирус
вирусология
вирустар
вирустардың
вирусты
вирустық
вирустың
вирусы
вирусқа
вис
висенте
виска
виски
висла
висмут
виста
виталии
витамин
витаминдер
витаминдері
витамині
витебск
витория
вице
виченца
виши
вка
вконтакте
вкп
владивосток
владимир
владимирович
владимировна
владислав
во
вогез
вож
вои
вокал
вокалды
вокалдық
вокзал
вокзалы
вол
волга
волгоград
волеи
волков
вологда
володар
волошин
вольтер
вольф
вольфганг
вольфрам
вон
воннегут
вопросы
ворона
воронеж
воронов
воронскии
ворошилов
восток
востока
восточныи
воткин
воуга
враца
времени
время
вс
все
вт
второи
вуд
вулкан
вулкандық
вып
высшая
вычегда
вьенна
вьетнам
вьетнамда
вьетнамның
вэи
вюртемберг
вятка
вячеслав
г
га
габбро
габриэль
габрово
гаваи
гагарин
газ
газбарлау
газбен
газдан
газдар
газдарды
газдардың
газдары
газды
газдық
газдың
газет
газета
газетте
газеттер
газеттерде
газеттердің
газеттері
газеттерінде
газеттерінің
газеттің
газеті
газетін
газетінде
газетіне
газетінің
газы
газын
газының
газға
гаи
гаити
галактика
галактикалар
галактикалардың
галактикалық
галактиканың
галатасараи
галенит
галерея
галереясы
галилеи
галина
галисия
галлен
гама
гамбург
гамильтон
гамлет
гамма
ган
гана
ганг
ганди
ганновер
гаплоидты
гар
гарвард
гармоникалық
гармония
гарнизон
гарольд
гаронна
гарри
гарсия
гастрольдік
гаусс
гауһар
гафурии
гаярд
гб
гвадалахара
гвардия
гвардиялық
гвардияшылар
гватемала
гвинея
гг
ггц
где
гдр
ге
геге
гегель
геи
гектар
гектардан
гектарынан
гектарға
гелдиев
гелии
гематит
гемоглобин
геморрагиялық
ген
генде
гендер
гендердің
гендерлік
гендік
генерал
генералы
генератор
генераторы
генетик
генетика
генетикалық
генетикасы
гензерндорф
геннадии
геннің
генри
генрих
генуя
гені
геоақпараттық
геогр
географ
географии
географическии
география
географиялық
географияның
географиясы
географы
геодезия
геодезиялық
геол
геолог
геология
геологиялық
геологиясы
геологтар
геологы
геометрия
геометриялық
геометрияның
геоморфология
геоморфологиялық
георг
георгиевич
георгиевка
георгии
геосаяси
геофизика
геофизикалық
геохимиялық
гепатит
гер
гера
геракл
герасимов
герберт
герд
гере
гереи
геркулес
герман
германдық
германии
германия
германияда
германиядан
германиядағы
германиялық
германиямен
германияны
германияның
германияға
геродот
герои
героя
герхард
герцеговина
герцин
герцог
герцогы
герцогі
гершель
герім
гессен
гете
гз
ги
гибридті
гигиена
гигиеналық
гигиенасы
гидра
гидравликалық
гидрогеология
гидрогеологиялық
гидродинамикалық
гидрокарбонатты
гидрологиялық
гидростатикалық
гидротермалық
гидротехникалық
гии
гильманов
гималаи
гимараи
гимназия
гимназиясын
гимназиясында
гимнастика
гингам
гипотеза
гипофиз
гиппократ
гипс
гиссен
гистология
гитара
гитарист
гитлер
гл
глава
глазго
гликоген
глинка
глицерин
глобус
глория
глубокое
глюкоза
гмюнд
гнеи
го
гоголь
гогольдің
год
года
годы
гои
гол
голдар
голдардың
голды
голдың
голланд
голландия
голландиялық
голливуд
голос
голощекин
голы
голын
гольджи
гольф
гольштеи
гомер
гондурас
гонконг
гонсалес
горбачев
гордон
горизонт
горизонталь
гормон
гормондар
гормоны
горна
горно
город
города
горькии
горьков
государства
государственного
государственныи
готикалық
гояс
гр
гравитациялық
градус
градусқа
граи
грамм
грамматика
грамматикалық
грамматикасы
грамоталарымен
грамотасы
грамотасымен
гран
гранада
гранд
гранде
гранди
гранит
граниттен
гранитті
грант
граубюнден
граф
графигі
график
графика
графикалық
графикасы
графикасына
графиктік
графит
графы
грац
греи
грек
грекия
грекияда
грекиядағы
грекияның
грекияға
гректер
гректердің
гректің
грекше
гренландия
григориан
григории
григорьев
григорьевич
грин
грозныи
грос
гроссмеи
гросу
груз
грузин
грузия
грузияда
грузияның
грунт
грэмми
гу
гуарда
губ
губернатор
губернаторы
губернаторының
губерния
губерниялық
губерниясы
губерниясында
губерниясының
гук
гуманизм
гуманистік
гуманитарлық
гумилев
гун
гурьев
густав
гфр
гц
гэмпшир
гюнтер
гі
гілі
гін
гіш
гүл
гүлдеген
гүлдеи
гүлден
гүлденген
гүлдену
гүлденуі
гүлдеп
гүлдер
гүлдердің
гүлдері
гүлдерінің
гүлдеу
гүлді
гүлдің
гүлжан
гүлнәр
гүлстан
гүлшоғыры
гүлшоғырын
гүлшоғырына
гүлі
гүлінен
гүлінің
гөрі
д
да
дабол
дабыл
давид
давлекан
даи
дакота
дакс
дал
дала
далабаева
далада
даладағы
далаи
далаларда
далаларында
далалы
далалық
далана
даланады
даланатын
даланбаи
даланды
далану
далануда
даланудан
далануды
даланудың
даланумен
даланушы
даланушылар
даланушылардың
даланушыларға
даланушының
далануы
далануына
далануға
даланы
даланыла
даланылады
даланылатын
даланылды
даланылмаи
даланылуда
даланылуы
даланылып
даланылған
даланып
даланың
даланған
даланғанда
даланғаны
далап
даласы
даласын
даласына
даласынан
даласында
даласындағы
даласының
далаға
даллас
далы
дам
дамаи
дамаск
дами
дамиды
дамитын
даму
дамуда
дамуды
дамудың
дамушы
дамуы
дамуымен
дамуын
дамуына
дамуында
дамуындағы
дамуының
дамуға
дамыды
дамымаған
дамып
дамыта
дамытады
дамытты
дамыту
дамытуда
дамытудағы
дамытуды
дамытудың
дамытуға
дамытып
дамытқан
дамыған
дан
дана
даналығы
даналық
данасы
данда
дандарында
дандағы
даниэль
дания
данияда
даниялық
данияның
данияр
данлоп
даннан
данные
данных
данның
даны
данына
данында
данының
данышпан
даның
данға
дао
дап
дар
дара
даралық
дарбаза
дарвин
дардың
дарии
дария
дариға
дарлы
дармштадт
даров
дарова
дархан
дары
дарын
дарынды
дарыны
дарыған
дарға
дарқанбаев
дас
дастан
дастанда
дастандар
дастандары
дастандарын
дастанның
дастаны
дастанын
дастанында
дастанының
дастарқан
дастарқанға
дасы
дасыз
дасын
дасына
дат
дата
датқа
датұлы
дау
дауда
дауды
даулы
даун
даусы
даусыз
дауы
дауыл
дауылпаз
дауыс
дауыспен
дауыссыз
дауыссыздар
дауыстап
дауысты
дауыстылар
дауыстың
дауысы
дауысын
дауысқа
дауға
дахо
даяр
даярлаи
даярланады
даярланды
даярлау
даярлауда
даярлауға
даярлық
даға
дағдарыс
дағдарыстан
дағдарысты
дағдарыстың
дағдарысы
дағдарысқа
дағды
дағдыларын
дағдылы
дағы
дағыдаи
дағыстан
дақ
дақтар
дақтары
дақты
дақыл
дақылдар
дақылдардан
дақылдарды
дақылдардың
дақылдары
дақылдарын
дақылдарының
даңғыл
даңғылы
даңғылынан
даңқ
даңқты
даңқы
даңқын
даңққа
даһар
дб
дба
два
двина
двинск
двои
дворян
дд
де
дебют
дебюттік
дебюті
дебютін
дева
девон
девонның
деггер
деген
дегенге
дегенде
дегендеи
дегенді
дегенмен
дегеннен
дегеннің
дегені
дегеніміз
дегерес
дегі
деді
деи
декабря
декан
деканның
деканы
декарт
декларация
декларациясы
декорация
декрет
дел
делдал
делдалдық
делегат
делегаты
деления
дели
дело
дель
дельберг
дельфин
дельфиндер
делювии
делінген
делінеді
делінетін
делінсе
дем
демалу
демалыс
демалыста
демалысқа
демеи
демек
демеу
демеушілік
демография
демографиялық
демокр
демократ
демократия
демократиялық
демократияның
демократтар
ден
денгеи
дене
денеге
денеде
денедегі
денеден
денелер
денелерді
денелердің
денелері
денелерінің
денелі
денені
дененің
денесі
денесімен
денесін
денесінде
денесіндегі
денесіне
денесінен
денесінің
денешынықтыру
дени
денис
денисов
денсаулығы
денсаулығын
денсаулығына
денсаулығының
денсаулық
денсаулықты
денсаулыққа
денудациялық
день
дені
деп
департамент
департаменттер
департаменттерінің
департаменттің
департаменті
департаментінде
департаментінің
депп
депрессия
депті
депутат
депутаттар
депутаттары
депутаттарының
депутаттық
депутаты
дер
дербент
дербес
дербестігін
деревнясы
дерегі
дерек
дереккөз
дереккөздер
дереккөзі
дереккөзінен
дерексіз
деректер
деректерге
деректерде
деректерден
деректерді
деректердің
деректермен
деректері
деректерін
деректерінде
деректеріне
деректі
дереу
дерлік
дернәсіл
дернәсілдер
дернәсілдері
дернәсілі
дерт
дертке
дерттің
десант
десанттық
десе
деседі
десек
десең
десятина
детеи
детектив
детрои
деу
деуге
деформация
дешті
деңгеи
дж
джаз
джаи
джастин
джеи
джек
джеки
джексон
дженнифер
джереми
джерри
джерси
джессика
джефф
джефферсон
джеффри
джи
джим
джимми
джин
джо
джобс
джованни
джозеф
джои
джон
джонатан
джонни
джонс
джонсон
джордан
джордж
джорджия
джорджтаун
джош
джузеппе
джулия
джульетта
джэфферсон
дзержинскии
дзюдо
ди
диагноз
диагностика
диагностикалық
диагностикасы
диаграмма
диаграммасы
диалект
диалектика
диалектикалық
диалекті
диалектілер
диалектілері
диалектілік
диалектісі
диалектісінде
диалог
диам
диаметрі
диана
диапазоны
диаспорасы
диафрагма
диваев
дивизион
дивизионда
дивизионы
дивизионында
дивизия
дивизияның
дивизиясы
дивизиясының
дидактикалық
дидар
диего
диета
диеталық
дижон
дизаи
дизель
дизельді
дик
диктор
дин
дина
динамикалық
динамикасы
динамикасын
динамо
динан
динара
диннің
динозавр
динозаврдың
динозаврлар
дионис
диплом
дипломанты
дипломат
дипломатия
дипломатиялық
дипломдық
дипломмен
дипломы
дипломымен
дипломын
директор
директордың
директорлар
директоры
директорының
дирижер
дирижерлік
дирижері
диск
дискретті
дискі
дискілер
дискінің
диснеи
дисплеи
дисс
диссертация
диссертациялық
диссертациясын
диссертациясының
дитер
диуан
диуани
дифференциалды
дифференциалдық
диффузия
диффузиялық
диірмен
диқан
для
дм
дмитриев
дмитриевич
дмитрии
днеи
днепр
днепрден
днепропетровск
днк
дня
днқ
до
добрич
добы
добын
дои
докт
доктор
докторантура
докторлары
докторлық
докторы
документов
документі
дол
долана
долган
долл
долла
доллар
доллардан
долларды
доллары
долларын
долларына
долларға
доломит
дом
домалақ
домбыра
домбыраны
домбыраның
домбырашы
доминантты
доминго
доминикан
домна
дон
дональд
дондағы
донецк
доп
доппен
допты
доптың
допқа
дор
дордонь
дортмунд
дору
дос
досан
досжан
доси
досмұхамедов
досмұхамедұлы
доссор
достар
достары
достарымен
достарының
достастығы
достастық
достоевскии
достығы
достық
досы
доуру
доцент
доценті
доға
доғал
доғасы
доңғалақ
доңғалақты
др
драи
драма
драмалық
драмасы
драмасында
драматург
драматургия
драматургі
дрезден
дреи
дружба
дтің
ду
дуадақ
дуалмен
дуалы
дубаи
дублин
дубль
дубляж
дуглас
дулат
дулати
дулатов
дулаттың
дулу
дулыға
дума
думан
думаның
думаға
дунаи
дус
душ
душанбе
душар
дуэт
дхофен
ды
дыбыс
дыбыстан
дыбыстар
дыбыстарды
дыбыстардың
дыбыстары
дыбыстарының
дыбыстаған
дыбысты
дыбыстық
дыбыстың
дыбысы
дыбысын
дыбысының
дыбысқа
дым
дымқыл
дын
дыны
дынының
дық
дың
дье
дьеп
дэ
дэвид
дэвис
дэи
дэн
дэниел
дю
дюи
дюк
дюнкерк
дюртюлин
дюссельдорф
ді
дібек
діл
ділмарлары
дін
дінге
діндар
діндер
діндердің
дінді
діни
дінмұхамед
діннен
діннің
дінтану
діні
дінін
дінінде
дініндегі
дініне
дінінің
діргіш
діру
діріл
дірілген
діріп
дің
діңгек
діңі
діңінің
дүи
дүкен
дүкендер
дүкендері
дүкені
дүлеи
дүнген
дүние
дүниеге
дүниеде
дүниедегі
дүниеден
дүниежүз
дүниежүзі
дүниежүзілік
дүниежүзінде
дүниежүзіндегі
дүниежүзіне
дүниелер
дүниелік
дүниені
дүниенің
дүниесі
дүниесін
дүниесінде
дүниесіне
дүниесінің
дүниетаным
дүниетанымдық
дүниетанымы
дүниетанымын
дүр
дүре
дүркін
дұрыс
дұрыстығы
дұрыстығын
дұшпан
дұға
дәи
дәл
дәлдігі
дәлдігін
дәлдікпен
дәлел
дәлелдеген
дәлелдеді
дәлелдеи
дәлелденген
дәлелденді
дәлелдеп
дәлелдер
дәлелдеу
дәлелдеуге
дәлелді
дәлелі
дәлме
дәліз
дәлірек
дәм
дәмдеуіштер
дәмді
дәмі
дәмін
дән
дәндері
дәнді
дәндібаи
дәнек
дәнекер
дәні
дәнін
дәр
дәреже
дәрежеге
дәрежеде
дәрежедегі
дәрежелері
дәрежелі
дәрежесі
дәрежесімен
дәрежесін
дәрежесінде
дәрежесіне
дәрежесінің
дәрет
дәрмек
дәрмектер
дәрменсіз
дәрумендер
дәрумені
дәрі
дәрігер
дәрігерге
дәрігердің
дәрігерлер
дәрігерлердің
дәрігерлігінде
дәрігерлік
дәрігері
дәрілер
дәрілерді
дәрілердің
дәрілік
дәріні
дәрінің
дәріптеи
дәріптеу
дәріс
дәрістер
дәрісі
дәріхана
дәстүр
дәстүрге
дәстүрді
дәстүрдің
дәстүрлер
дәстүрлерді
дәстүрлері
дәстүрлерін
дәстүрлі
дәстүрлік
дәстүрі
дәстүрімен
дәстүрін
дәстүрінде
дәстүріне
дәстүрінің
дәу
дәулет
дәулеткереи
дәулетті
дәурен
дәуір
дәуірге
дәуірде
дәуірдегі
дәуірден
дәуірдің
дәуірлерде
дәуірі
дәуірімізге
дәуіріміздің
дәуірін
дәуірінде
дәуіріндегі
дәуіріне
дәуірінен
дәуірінің
дәуіт
дөп
дөрекі
дөң
дөңгелегі
дөңгелек
дөңгелекті
дөңгелектің
дөңгеленген
дөңгелене
дөңес
е
ев
ева
евгении
евклид
евразии
евразия
евре
евреи
европалық
европеи
ег
ега
еган
егде
еге
егеді
егемен
егеменді
егемендігі
егемендігін
егемендік
егер
егерде
егеубаева
егеуқұи
егжеи
египет
египетке
египетте
египеттегі
египеттің
его
егор
егу
егуге
егі
егіз
егіздер
егілген
егіледі
егілетін
егін
егінде
егінді
егіндібұлақ
егіндікөл
егіне
егінен
егінші
егіншілер
егіншілік
егіншілікке
егіншілікпен
егіншіліктің
егінің
егіп
егіс
егістік
егістікке
ед
еде
едегі
еден
еденге
едені
еді
едіге
едік
еділ
еділге
еділдің
едім
едің
едәуір
ее
ежелг
ежелгі
ежелден
ежен
ез
езілген
езіп
еи
ек
екатерина
екатеринбург
екатте
екен
екендігі
екендігін
екендігіне
екенсің
екені
екенін
екеніне
екеу
екеуі
екеуін
екеуінде
екеуіне
екеуінің
екке
еккен
екпе
екпен
екпін
екпінді
екпіні
екте
ектегі
ектен
ектер
ектерге
ектерді
ектердің
ектері
ектерін
ектерінің
екті
ектік
ектің
екі
екібастұз
екіге
екіден
екіжақты
екілік
екінші
екіншіден
екіншілік
екіншісі
екіншісін
екіншісінде
екіншісіне
екіншісінің
ел
еламан
елбасы
елбасының
елга
елге
елд
елде
елдегі
елден
елдер
елдерге
елдерде
елдердегі
елдерден
елдерді
елдердің
елдермен
елдері
елдерімен
елдерін
елдерінде
елдеріндегі
елдеріне
елдерінен
елдерінің
елді
елдік
елдің
елебеков
елегінен
елек
елена
еленген
елеп
елер
елерге
елерде
елерді
елердің
елері
елерін
елерінде
елеріне
елерінің
елес
елестету
елеу
елеулі
елеусіз
елең
елизабет
елизавета
елмен
елорда
елордасы
елтаи
елтаңба
елтаңбасы
елу
елшанка
елші
елшілер
елшілігі
елшілігінің
елшілік
елшісі
елшісінің
ель
ельп
елі
елік
еліктеп
еліктеу
елім
елімен
еліміз
елімізге
елімізде
еліміздегі
еліміздің
елін
елінде
еліндегі
еліне
елінен
елінің
ем
ембі
ембімұнаи
емдеген
емдеи
емделу
емдеп
емдеу
емдеуге
емдеуде
емдеудің
емдік
емелдеу
емелдеуімен
емен
емес
емеспін
еместігі
еместігін
емле
емтихан
емхана
емшек
емші
емі
емін
ен
енбеи
енг
енген
енгізген
енгізді
енгізе
енгізеді
енгізу
енгізуге
енгізуді
енгізілген
енгізілді
енгізіледі
енгізілетін
енгізілуі
енгізіліп
енгізіп
енд
ендеше
енді
ендігі
ендік
ендікке
ендіктерде
ендіру
ене
енеді
енетін
енжар
енисеи
еноорд
енсек
енсіз
ену
енуі
енуіне
еншілес
ені
еніп
енің
ео
еп
епиналь
епископ
ептеп
епті
ер
ералиев
ералы
ербол
ерге
ергежеи
ерген
ерден
ердің
ереван
ереже
ережеге
ережелер
ережелерге
ережелерді
ережелердің
ережелері
ережелерін
ережелеріне
ережелерінің
ережені
ережесі
ережесін
ережесіне
ереи
ерекше
ерекшел
ерекшеленген
ерекшеленді
ерекшеленеді
ерекшеленетін
ерекшеленіп
ерекшелігі
ерекшелігімен
ерекшелігін
ерекшелігіне
ерекшелік
ерекшеліктер
ерекшеліктерге
ерекшеліктерді
ерекшеліктері
ерекшеліктерімен
ерекшеліктерін
ерекшеліктеріне
ерекшеліктерінің
ерен
ересек
ересектер
ересектерге
ересектері
ереуіл
ержан
ержанов
ержүрек
ериді
еритін
ерк
ерке
еркебаи
еркегі
еркек
еркектер
еркектің
еркі
еркімен
еркін
еркіндігі
еркіндігін
еркіндік
еркіне
ерлан
ерлер
ерлерге
ерлердің
ерлері
ерлі
ерлігі
ерлігімен
ерлігін
ерлік
ерлікке
ерлікпен
ерліктері
ермак
ермек
ермеков
ермен
ерназар
ернеуі
ерні
ерстен
ерте
ертегі
ертегілер
ертегілері
ертегісі
ертеде
ертедегі
ертеден
ертерек
ертеректе
ертеректегі
ертең
ертеңгі
ертіп
ертіс
ертіске
ертістен
ертістің
еру
еруі
ері
еріген
ерік
еріксіз
ерікті
еріктілер
ерімеи
ерін
ерінгүлділер
ерінді
еріп
еріткіш
еріткіштерде
еріту
ерітілген
ерітінді
ерітіндіге
ерітіндіде
ерітіндідегі
ерітінділер
ерітінділердің
ерітінділері
ерітіндіні
ерітіндінің
ерітіндісі
ерітіндісімен
ерітіндісін
ерітіп
ерғалиев
ес
есбол
есе
есебі
есебімен
есебін
есебінде
есебіне
есебінен
есебінің
есеге
еседеи
есеи
есек
еселенген
еселі
есен
есенбаи
есенберлин
есенов
есеп
есепке
есеппен
есепте
есептеген
есептегенде
есептеді
есептеи
есептелген
есептелді
есептеледі
есептелетін
есептелінеді
есептеліп
есептемегенде
есептеп
есептер
есептерді
есептері
есептерін
есептеу
есептеуге
есептеудің
есептеулер
есептеуіш
есепті
есептік
есептің
есепші
есесіне
есет
есж
еске
ескелді
ескендір
ескене
ескерген
ескере
ескеретін
ескермеи
ескерсек
ескертеді
ескертк
ескерткіш
ескерткіштер
ескерткіштерді
ескерткіштердің
ескерткіштері
ескерткіштерін
ескерткіштерінде
ескерткіштеріне
ескерткіштерінің
ескерткішті
ескерткіштің
ескерткіші
ескерту
ескеру
ескерілген
ескеріледі
ескеріліп
ескеріп
ескі
ескірген
ескіше
еспе
ест
естаи
есте
естелік
естеліктер
естеліктері
естен
естиді
есту
есть
есті
естіген
естіледі
естіп
есу
есі
есігі
есігін
есік
есікті
есіктің
есіл
есілге
есім
есімдер
есімдердің
есімдері
есімдерімен
есімдерін
есімді
есімен
есімнің
есімі
есімімен
есімін
есіміне
есін
есінде
есіндегі
есіне
есінен
есінің
есірткі
ет
етамп
ете
етегі
етегін
етегінде
етегіндегі
етегіне
етегінен
етед
етеді
етек
етектерінде
етене
етер
ететін
ететінін
етке
еткен
еткенде
еткені
еткенін
етпеи
етсе
етт
еттен
еттер
еттердің
еттері
еттерінің
етті
еттің
ету
етуге
етуде
етуді
етудің
етумен
етуші
етуі
етуімен
етуін
етуіне
етуінің
еті
етік
етілген
етілді
етіледі
етілетін
етілмеген
етілмеи
етілуі
етіліп
етін
етіне
етінен
етінің
етіп
етістік
етістіктер
етістіктің
еу
еуге
еур
еуразия
еуразиялық
еуразияның
еуро
еуроны
еуропа
еуропада
еуропадан
еуропадағы
еуропалық
еуропалықтар
еуропалықтардың
еуропаны
еуропаның
еуропаға
еуроға
еуі
еуінің
еш
ешбір
ешкі
ешкім
ешкімге
ешкімді
ешкімнің
ешкінің
ешнәрсе
ештеңе
ешқаи
ешқандаи
ешқашан
еқыұ
ең
еңб
еңбег
еңбегі
еңбегімен
еңбегін
еңбегінде
еңбегіне
еңбегінің
еңбек
еңбекақы
еңбекке
еңбекпен
еңбекте
еңбектегі
еңбектер
еңбектерде
еңбектердің
еңбектері
еңбектерімен
еңбектерін
еңбектерінде
еңбектеріне
еңбектерінен
еңбектерінің
еңбекті
еңбектің
еңбекші
еңбекшілер
еңбекшілердің
еңбекшілерінің
еңбекшіқазақ
еңкеи
еңкі
еңлік
еңіс
еңістігі
еұу
ж
жа
жабады
жабаев
жабаи
жабатын
жабағы
жабағылы
жабдыктары
жабдығы
жабдық
жабдықталады
жабдықталды
жабдықталған
жабдықтар
жабдықтарды
жабдықтардың
жабдықтармен
жабдықтары
жабдықтарын
жабдықтау
жабдықтауға
жабдықты
жабу
жабуға
жабылады
жабылатын
жабылды
жабылу
жабылып
жабылған
жабын
жабыны
жабысады
жабысып
жабысқан
жабысқақ
жабық
жад
жадтың
жады
жадында
жадқа
жаз
жаза
жазады
жазалау
жазалаушы
жазаны
жазаның
жазасы
жазасын
жазасына
жазатын
жазаға
жазба
жазбаи
жазбалар
жазбаларда
жазбаларды
жазбалары
жазбаларын
жазбаларында
жазбасы
жазбаша
жазда
жазды
жаздық
жаздың
жазира
жазса
жазу
жазуда
жазуды
жазудың
жазулар
жазулары
жазумен
жазушы
жазушылар
жазушылардың
жазушылары
жазушыларының
жазушылық
жазушының
жазушысы
жазуы
жазуымен
жазуын
жазуына
жазуында
жазуының
жазуға
жазы
жазылады
жазылатын
жазылды
жазылмаи
жазылу
жазылуы
жазылып
жазылған
жазында
жазып
жазығы
жазығында
жазығының
жазық
жазықсыз
жазықта
жазықтар
жазықты
жазықтығы
жазықтығына
жазықтығының
жазықтық
жазықтықта
жазықтықтағы
жазықтықтың
жазықтыққа
жазықтың
жазыққа
жазған
жазғы
жаи
жак
жал
жала
жалаи
жалалабат
жалатылған
жалау
жалағаш
жалақы
жалақысы
жалаң
жалаңаш
жалаңтөс
жалбыз
жалдамалы
жалдау
жалпақ
жалпақтау
жалпы
жалпылаи
жалпылама
жалпылау
жалпылық
жалпыредакциясынбасқарғанэ
жалпыхалықтық
жалпыға
жалпықазақ
жалпыұлттық
жалтыр
жалы
жалын
жалынды
жалға
жалғаи
жалған
жалғанады
жалғанған
жалғас
жалғаса
жалғасады
жалғасатын
жалғасты
жалғастыра
жалғастырады
жалғастыратын
жалғастырды
жалғастыру
жалғастыруда
жалғастырушы
жалғастыруға
жалғастырып
жалғастырған
жалғасуда
жалғасы
жалғасын
жалғасып
жалғасқан
жалғау
жалғыз
жалғыздық
жалқы
жамал
жаман
жамандық
жамағат
жамағатының
жамбас
жамбыл
жамбылдың
жамылған
жамылғы
жамылғысы
жамылғысында
жамылғысының
жан
жана
жанады
жанаи
жанама
жанар
жанармаи
жанартау
жанартаудың
жанартаулар
жанартаулық
жанартаутекті
жанартауы
жанасу
жанасып
жанат
жанатын
жанашырлық
жанақ
жанбаи
жангелдин
жангелді
жанда
жандана
жанданды
жандандыру
жандар
жандардың
жандосов
жанды
жандыбаев
жанеи
жанжал
жанкент
жанкүи
жанна
жанның
жанов
жанр
жанрда
жанрдағы
жанрдың
жанрлар
жанрлардың
жанрлары
жанрлық
жанры
жанрын
жанрына
жанрында
жанрындағы
жанрының
жанрға
жансыз
жансүгіров
жантану
жантөрин
жану
жануар
жануардың
жануарлар
жануарларда
жануарлардан
жануарларды
жануарлардың
жануарлармен
жануарлары
жануарларының
жануарларға
жануары
жануы
жаны
жаным
жанын
жанына
жанынан
жанында
жанындағы
жанының
жанып
жанға
жанған
жанғыш
жанқожа
жанұя
жанұясы
жап
жапа
жапалақ
жапон
жапондық
жапония
жапонияда
жапониядағы
жапонияның
жапонияға
жапонша
жаппаи
жаппас
жапсарлас
жапсары
жапсырма
жапырағы
жапырағын
жапырағынан
жапырағының
жапырақ
жапырақтар
жапырақтары
жапырақтарымен
жапырақтарын
жапырақтарынан
жапырақтарының
жапырақты
жапырақтың
жапырақшалары
жапқан
жапқыш
жар
жара
жарады
жараи
жаралады
жараланды
жараланып
жараланған
жаралу
жаралы
жаралған
жарамаи
жарамды
жарамдылық
жарамсыз
жараны
жараның
жарасы
жарасымды
жаратты
жарату
жаратушы
жаратылыс
жаратылыстану
жаратылысы
жаратылған
жаратқан
жараға
жарағы
жарақ
жарақат
жарақаттанған
жарақтар
жарақты
жарды
жария
жариялады
жариялаи
жариялана
жарияланады
жарияланбаған
жарияланды
жарияланым
жарияланымдар
жарияланымдардың
жарияланымның
жарияланып
жарияланған
жарияланғаннан
жариялап
жариялау
жариялауға
жариялаған
жаркент
жаркөл
жарлы
жарлығы
жарлығымен
жарлығына
жарлық
жарлыққа
жарма
жарнама
жарнамалық
жарнаманың
жарнақты
жартас
жартастар
жартасты
жартасқа
жарты
жартылаи
жартысы
жартысын
жартысына
жартысынан
жартысында
жартысындағы
жару
жаршысы
жары
жарылады
жарылымдар
жарылып
жарылыс
жарылыстан
жарылыстар
жарылыстың
жарылысы
жарылған
жарылғыш
жарым
жарып
жарыс
жарыса
жарыста
жарыстан
жарыстар
жарыстарда
жарыстардың
жарыстары
жарыстарында
жарыстарға
жарысты
жарыстың
жарысы
жарысында
жарысқа
жарығы
жарық
жарықтандыру
жарықтар
жарықты
жарықтық
жарықтың
жарықшақтар
жарықшақты
жарыққа
жарған
жарғақ
жарғақты
жарғы
жарғылық
жарғысы
жарғыш
жарқабақты
жарқаи
жарқын
жарқыраи
жарқырап
жарқырауы
жарқыраған
жас
жаса
жасады
жасаи
жасала
жасалады
жасалатын
жасалды
жасалса
жасалу
жасалуы
жасалуына
жасалынады
жасалынатын
жасалынды
жасалынып
жасалынған
жасалып
жасалған
жасамаи
жасампаз
жасампаздық
жасанды
жасап
жасар
жасаса
жасасты
жасасу
жасасып
жасасқан
жасау
жасауда
жасаудан
жасаудағы
жасауды
жасаудың
жасаумен
жасаушы
жасаушылар
жасаушылардың
жасауы
жасауын
жасауына
жасауға
жасаған
жасағанда
жасағаны
жасағы
жасағымен
жасағын
жасағының
жасақ
жасақтаи
жасақталды
жасақталған
жасақтама
жасақтар
жасақтары
жасақтарының
жасақтау
жаста
жастаи
жастан
жастар
жастарды
жастардың
жастары
жастарының
жастарға
жастағы
жасты
жастық
жастың
жасуша
жасушааралық
жасушада
жасушадан
жасушадағы
жасушалар
жасушаларда
жасушалардан
жасушаларды
жасушалардың
жасушалары
жасушаларын
жасушаларына
жасушаларынан
жасушаларында
жасушаларының
жасушаларға
жасушалы
жасушалық
жасушаның
жасушасы
жасушасының
жасушаға
жасы
жасыбаи
жасыл
жасылдау
жасын
жасына
жасынан
жасында
жасындағы
жасының
жасыру
жасырын
жасырынып
жасырынған
жасырып
жасқа
жасөспірім
жасөспірімдер
жасөспірімдерге
жасөспірімдердің
жат
жата
жатады
жататын
жататындар
жататынын
жатаған
жатақхана
жаткан
жатпаи
жатса
жаттап
жатты
жаттығу
жаттығулар
жаттықтырды
жаттықтырушы
жаттықтырушысы
жату
жатуы
жатуға
жатын
жатындардың
жатынның
жатыны
жатып
жатыр
жатырдың
жатыс
жатық
жатқа
жатқан
жатқанда
жатқандығын
жатқандықтан
жатқаны
жатқанын
жатқызады
жатқызу
жатқызуға
жатқызылады
жатқызылды
жатқызылған
жатқызып
жатқызған
жау
жауабы
жауабын
жауады
жауап
жауапкершілігі
жауапкершілігін
жауапкершілік
жауапкершілікке
жауапкершілікті
жауапты
жауапқа
жаугершілік
жаудан
жауды
жаудың
жаулап
жаулары
жаулық
жаумен
жауы
жауыз
жауын
жауынгер
жауынгердің
жауынгерлер
жауынгерлерге
жауынгерлерді
жауынгерлердің
жауынгерлері
жауынгерлерінің
жауынгерлік
жауынгері
жауып
жауырын
жауға
жауған
жаю
жая
жаяды
жаяу
жаға
жағады
жағажаи
жағалаи
жағалары
жағаларында
жағалау
жағалауда
жағалаудағы
жағалаулары
жағалауларын
жағалауларына
жағалауларында
жағалаулық
жағалауы
жағалауын
жағалауына
жағалауынан
жағалауында
жағалауындағы
жағалауының
жағалауға
жағалы
жағалық
жағармаи
жағасы
жағасын
жағасына
жағасынан
жағасында
жағасындағы
жағасының
жағаға
жағдаи
жағу
жағы
жағылады
жағылған
жағымды
жағымен
жағымсыз
жағын
жағына
жағынан
жағында
жағындағы
жағының
жағып
жақ
жақан
жақия
жақсарады
жақсарды
жақсартады
жақсарту
жақсартуға
жақсартылған
жақсартып
жақсы
жақсылап
жақсылық
жақсылыққа
жақсырақ
жақсысы
жақта
жақтады
жақтаи
жақтан
жақтап
жақтардың
жақтары
жақтарын
жақтарында
жақтарының
жақтастары
жақтаушы
жақтаушылар
жақтаушылары
жақтаушысы
жақтағы
жақты
жақтың
жақын
жақында
жақындаи
жақындап
жақындау
жақындаған
жақындағанда
жақындығы
жақындық
жақынырақ
жақып
жаққа
жаңа
жаңаарқа
жаңаауыл
жаңадан
жаңадария
жаңажол
жаңалығы
жаңалық
жаңалықтар
жаңалықтарды
жаңалықтардың
жаңалықтары
жаңалықты
жаңартты
жаңарту
жаңартылды
жаңартылып
жаңартылған
жаңартып
жаңарып
жаңаталап
жаңатас
жаңатұрмыс
жаңаша
жаңашыл
жаңашылдық
жаңағы
жаңақала
жаңақорған
жаңаөзен
жаңбыр
жаңбырлы
жаңғағы
жаңғақ
жаңғақша
жаңғырту
жаңғыртып
жаңғыру
жаңғырық
жаһандану
жаһандық
жданов
же
жебе
жеген
жегі
жедел
жеделдету
жез
жезді
жезқазған
жеи
жек
жеке
жекелеген
жекелеи
жекеленген
жекеменшік
жекеше
жекешелендіру
жекке
жекпе
жексенбі
жексенбіде
жекте
жел
желбезек
желге
желдер
желдеткіш
желдету
желді
желдің
железин
железинка
желкен
желкенді
желмен
желтау
желтоқсан
желтоқсанда
желтоқсандағы
желтоқсаннан
желтоқсанның
желтоқсаны
желтоқсанына
желтоқсанынан
желтоқсанында
желтоқсанға
желі
желіге
желіде
желідегі
желілер
желілерде
желілерді
желілердің
желілері
желілерін
желілерінде
желілерінің
желілі
желілік
желім
желіні
желінің
желісі
желісімен
желісін
желісінде
желісіндегі
желісіне
желісінің
жем
жемеи
жеменеи
жемшөп
жемін
жеміс
жемістенеді
жемістер
жемістерді
жемістері
жемісті
жемістің
жемісі
жемісін
жемісінің
жемқорлық
жемқорлыққа
жене
женева
жент
женіндегі
жеп
жер
жераи
жерасты
жерг
жерге
жергілікті
жерде
жердегі
жерден
жерді
жердің
жеребе
жерлеген
жерленген
жерленді
жерленеді
жерлер
жерлерге
жерлерде
жерлердегі
жерлерден
жерлерді
жерлердің
жерлері
жерлерін
жерлерінде
жерлеріне
жерлерінен
жерлерінің
жерлеу
жермен
жером
жерорта
жерортатеңіздік
жерсіндірілген
жері
жерімен
жерін
жерінде
жеріндегі
жеріне
жерінен
жерінің
жерұи
жесір
жет
жете
жетегі
жетеді
жетек
жетекш
жетекші
жетекшілері
жетекшілерінің
жетекшілігімен
жетекшілік
жетекшісі
жетекшісінің
жетелеи
жетер
жетерлік
жететін
жетк
жеткен
жеткенде
жеткеннен
жеткенше
жеткені
жеткізген
жеткізді
жеткізе
жеткізеді
жеткізетін
жеткізу
жеткізуге
жеткізуді
жеткізудің
жеткізуші
жеткізілген
жеткізілді
жеткізіледі
жеткізілетін
жеткізіліп
жеткізіп
жеткіліксіз
жеткіліксіздігі
жеткілікті
жетпеген
жетпеи
жетпес
жетпіс
жетсе
жетті
жету
жетуге
жетудің
жетуі
жетуіне
жеті
жетібаи
жетіген
жетік
жетілген
жетілдірді
жетілдіре
жетілдіру
жетілдіруге
жетілдірілген
жетілдірілді
жетілдіріліп
жетілдіріп
жетіле
жетіледі
жетілмеген
жетілу
жетілуі
жетілуіне
жетіліп
жетім
жетімді
жетінші
жетіп
жетіру
жетісаи
жетіспеи
жетіспеушілігі
жетіспеуі
жетістігі
жетістік
жетістікке
жетістіктер
жетістіктерге
жетістіктері
жетістіктерін
жетістіктеріне
жетістіктерінің
жетісу
жетісуда
жетісудағы
жетісуды
жетісудың
жетісуға
жетіқарақшы
жеу
жеуге
жең
жеңген
жеңгені
жеңді
жеңе
жеңеді
жеңсіз
жеңу
жеңуге
жеңі
жеңіл
жеңілген
жеңілдетеді
жеңілдететін
жеңілдету
жеңілдетілген
жеңілді
жеңілдік
жеңілдіктер
жеңіліп
жеңіліс
жеңіліске
жеңілісі
жеңімпаз
жеңімпаздар
жеңімпаздары
жеңімпазы
жеңіп
жеңіс
жеңіске
жеңіспен
жеңістен
жеңістер
жеңісті
жеңістің
жеңісі
жеңісімен
жеңісіне
жж
жи
животных
жиде
жидебаи
жидек
жидектер
жиделі
жиегі
жиегінде
жиегіне
жиек
жиектері
жиекті
жиен
жиені
жизни
жизнь
жинады
жинаи
жиналады
жиналатын
жиналды
жиналу
жиналуы
жиналып
жиналыс
жиналысы
жиналысына
жиналысында
жиналысының
жиналған
жинап
жинау
жинаумен
жинаушы
жинауыш
жинауға
жинаған
жинағы
жинағын
жинағына
жинағында
жинағының
жинағыш
жинақ
жинақта
жинақтаи
жинақталады
жинақталып
жинақталған
жинақтап
жинақтар
жинақтарда
жинақтары
жинақтарын
жинақтарына
жинақтарында
жинақтарының
жинақтарға
жинақтау
жинақтаушы
жинақтаған
жинақты
жинақтың
жинақы
жинаққа
жирен
жиренше
жиронда
житс
жиын
жиында
жиындар
жиынның
жиынтығы
жиынтығын
жиынтығына
жиынтығынан
жиынтығының
жиынтық
жиыны
жиынын
жиынында
жиынының
жиып
жиырма
жиырмасыншы
жиырылу
жиырылуы
жиырылып
жиі
жиілеи
жиілігі
жиілігін
жиілігіне
жиілігінің
жиілік
жиіліктегі
жиілікті
жиіліктік
жиірек
жиған
жиһаз
жоба
жобада
жобаланған
жобалар
жобаларды
жобалардың
жобалары
жобаларын
жобаларының
жобаларға
жобалау
жобалық
жобамен
жобаны
жобаның
жобасы
жобасымен
жобасын
жобасына
жобасында
жобасының
жобаға
жозе
жозеф
жои
жок
жол
жолаи
жоламан
жолаушы
жолаушылар
жолаушыларды
жолаушыларға
жолағы
жолақ
жолақтар
жолақтары
жолақты
жолбарыс
жолда
жолдады
жолдама
жолдан
жолдар
жолдарды
жолдардың
жолдармен
жолдары
жолдарымен
жолдарын
жолдарына
жолдарынан
жолдарында
жолдарының
жолдас
жолдастық
жолдасы
жолдаған
жолдағы
жолды
жолдыбаи
жолдық
жолдың
жоли
жолмен
жолы
жолымбетов
жолымен
жолын
жолына
жолынан
жолында
жолындағы
жолының
жолға
жолғы
жомарт
жон
жонды
жоне
жону
жоны
жоо
жора
жорамал
жорж
жорығы
жорығын
жорығына
жорық
жорықта
жорықтар
жорықтары
жорықтарына
жорықтарға
жорыққа
жорға
жорғалаушылар
жорғалаушылардың
жосалы
жоспар
жоспарда
жоспарды
жоспардың
жоспарлады
жоспарлануда
жоспарланып
жоспарланған
жоспарлап
жоспарлар
жоспарлары
жоспарларын
жоспарлау
жоспарлаған
жоспарлы
жоспары
жоспарын
жоспарына
жоспарында
жоспарының
жота
жоталар
жоталары
жоталарында
жоталарының
жотаның
жотасы
жотасынан
жотасында
жотасының
жошы
жошының
жою
жоюды
жоюға
жоя
жояды
жоятын
жоғ
жоғалады
жоғалтады
жоғалтпаи
жоғалтты
жоғалту
жоғалтып
жоғалтқан
жоғалуы
жоғалып
жоғалған
жоғары
жоғарыда
жоғарыдан
жоғарыдағы
жоғарылаи
жоғарылатады
жоғарылату
жоғарылауы
жоғарылаған
жоғарырақ
жоғарыға
жоғарғы
жоғы
жоғын
жоқ
жоқтау
жоқтығы
жоқтығын
жоқтың
жоққа
жоңышқа
жоңғар
жоңғарлар
жоңғарлардың
жоңғарлармен
жоңғарларға
жуа
жуады
жуалы
жуан
жуандығы
жуантөбе
жуатын
жуи
жуков
жуковскии
журнал
журналда
журналдар
журналдарда
журналдарында
журналдың
журналист
журналистер
журналистердің
журналистика
журналистиканың
журналистикасы
журналистикасының
журналистік
журналисі
журналы
журналын
журналына
журналында
журналының
жусан
жусанды
жуу
жууға
жуылған
жуып
жуығы
жуығын
жуық
жуғыш
жшс
жыл
жылаи
жылан
жыландар
жыланды
жыланның
жыланшық
жылап
жылда
жылдаи
жылдам
жылдамдығы
жылдамдығымен
жылдамдығын
жылдамдығына
жылдамдығының
жылдамдық
жылдамдықпен
жылдамдықты
жылдамдыққа
жылдан
жылдар
жылдарда
жылдардан
жылдардағы
жылдарды
жылдардың
жылдары
жылдарын
жылдарына
жылдарынан
жылдарында
жылдарындағы
жылдарының
жылдарға
жылдарғы
жылдағы
жылды
жылдығы
жылдығын
жылдығына
жылдық
жылдың
жылжи
жылжиды
жылжу
жылжуы
жылжыды
жылжымаи
жылжымалы
жылжып
жылжыту
жылжыған
жылмен
жылнамалар
жылнамаларында
жылнамасы
жылтыр
жылтырлығы
жылу
жылуды
жылудың
жылулық
жылумен
жылуы
жылы
жылыжаи
жылын
жылына
жылынан
жылында
жылының
жылыои
жылыту
жылға
жылғы
жылқы
жылқылар
жылқыны
жылқының
жылқысы
жылқысын
жылқышы
жылқыға
жымдастығы
жымпиты
жын
жыныс
жыныссыз
жыныстар
жыныстарда
жыныстардан
жыныстарды
жыныстардың
жыныстармен
жыныстары
жыныстарымен
жыныстарын
жыныстарына
жыныстарынан
жыныстарында
жыныстарының
жыныстарға
жынысты
жыныстық
жынысы
жынысына
жынысының
жынысытар
жынысытардың
жыр
жыра
жыралармен
жыралы
жырасы
жырау
жыраудың
жыраулар
жыраулық
жырда
жырды
жырдың
жырлады
жырлаи
жырлап
жырлар
жырларда
жырларды
жырлардың
жырлары
жырларын
жырларында
жырларының
жырлаған
жырту
жыртылған
жыртып
жыртқыш
жыртқыштар
жыршы
жыры
жырын
жырында
жырының
жырға
жыңғыл
жыңғылды
жэне
жэо
жэс
жюль
жібек
жіберген
жіберді
жібере
жібереді
жіберетін
жібермеи
жіберу
жіберуге
жіберуді
жіберілген
жіберілді
жіберіледі
жіберілетін
жіберіліп
жіберіп
жігер
жігерлі
жігері
жігерін
жігі
жігіт
жігітке
жігіттер
жігіттердің
жігіттері
жігітті
жігіттің
жігіті
жік
жіктеи
жіктелген
жіктеледі
жіктелу
жіктелуі
жіктеу
жіктеуге
жілік
жіне
жіп
жіппен
жіптен
жіптер
жіпті
жіптің
жіпше
жіпшелері
жіті
жітіқара
жің
жіңішке
жіө
жүген
жүгері
жүгінеді
жүгіреді
жүгіру
жүгіріп
жүз
жүзбе
жүзбелі
жүзге
жүзгін
жүзде
жүздеген
жүздегі
жүзден
жүзді
жүздің
жүзеге
жүзеді
жүзетін
жүзу
жүзуге
жүзі
жүзік
жүзілік
жүзім
жүзін
жүзінде
жүзіндегі
жүзіне
жүзінің
жүзіп
жүи
жүк
жүктеи
жүктелген
жүктелді
жүктеледі
жүктеме
жүктерді
жүктеу
жүкті
жүктілік
жүктіліктің
жүктің
жүлде
жүлдеге
жүлдегер
жүлдегері
жүлделі
жүлдені
жүлдесі
жүлдесін
жүлдесіне
жүлдесінің
жүмыс
жүн
жүнді
жүннен
жүннің
жүні
жүнін
жүнінен
жүніс
жүнісов
жүр
жүрг
жүрген
жүргенде
жүргенов
жүргенін
жүргізген
жүргізгенде
жүргізді
жүргізе
жүргізеді
жүргізетін
жүргізу
жүргізуге
жүргізуде
жүргізуді
жүргізудің
жүргізуші
жүргізушілер
жүргізушінің
жүргізушісі
жүргізуі
жүргізілген
жүргізілді
жүргізіле
жүргізіледі
жүргізілетін
жүргізілуде
жүргізілуі
жүргізіліп
жүргізіп
жүрді
жүре
жүрегі
жүрегім
жүрегін
жүрегінде
жүрегіне
жүрегінің
жүреді
жүрек
жүрекке
жүректен
жүректі
жүректің
жүретін
жүрмеи
жүрсе
жүру
жүруге
жүруі
жүруіне
жүріп
жүріс
жүрісі
жүсіп
жүсіпбек
жүсіпов
жұбаи
жұбанов
жұбанова
жұбановтың
жұбы
жұлдыз
жұлдыздар
жұлдыздарды
жұлдыздардың
жұлдыздары
жұлдыздарының
жұлдыздарға
жұлдызды
жұлдыздық
жұлдыздың
жұлдызы
жұлдызында
жұлдызының
жұлдызға
жұлын
жұлынның
жұлып
жұма
жұмабаев
жұмабаи
жұмабек
жұмада
жұмалиев
жұманұлы
жұмашева
жұмағали
жұмағалиев
жұмақ
жұмбақ
жұмды
жұмсады
жұмсаи
жұмсалады
жұмсалатын
жұмсалды
жұмсалған
жұмсап
жұмсау
жұмсаған
жұмсақ
жұмылдыру
жұмыр
жұмыртқа
жұмыртқадан
жұмыртқалар
жұмыртқаларды
жұмыртқалары
жұмыртқаларын
жұмыртқаны
жұмыртқаның
жұмыртқасы
жұмыртқасын
жұмыс
жұмыскер
жұмыспен
жұмыссыз
жұмыссыздық
жұмыста
жұмыстан
жұмыстар
жұмыстарда
жұмыстарды
жұмыстардың
жұмыстармен
жұмыстары
жұмыстарымен
жұмыстарын
жұмыстарына
жұмыстарынан
жұмыстарында
жұмыстарының
жұмыстарға
жұмыстағы
жұмысты
жұмыстық
жұмыстың
жұмысшы
жұмысшылар
жұмысшыларды
жұмысшылардың
жұмысшылары
жұмысшыларының
жұмысшыларға
жұмысшысы
жұмысы
жұмысымен
жұмысын
жұмысына
жұмысынан
жұмысында
жұмысының
жұмысқа
жұп
жұпар
жұптасып
жұптық
жұрнағы
жұрнақ
жұрнақтары
жұрт
жұртты
жұрттың
жұртшылық
жұртшылықтың
жұртшылыққа
жұрты
жұртын
жұртына
жұртының
жұртқа
жұт
жұтады
жұту
жұтып
жұтқыншақ
жұғады
жұқа
жұқалап
жұқпалы
жұө
жәбіреи
жәдігер
жәдігерлер
жәи
жән
жәндік
жәндіктер
жәндіктерді
жәндіктердің
жәндіктермен
және
жәнеде
жәнібек
жәнө
жәрдем
жәрдемақы
жәрдемдеседі
жәрдемдесу
жәрдемімен
жәрмеңке
жәрмеңкелер
жәрмеңкелік
жәрмеңкесі
жәшік
жәңгір
жөн
жөндеи
жөндеу
жөндеуге
жөндеуден
жөндеуші
жөне
жөнекеи
жөнеледі
жөнелту
жөні
жөнін
жөнінде
жөніндегі
жөнінен
жөтел
з
за
заале
завод
заводы
загора
загреб
заж
заи
зак
закон
зал
залал
залалсыздандыру
залда
залдары
залдың
залы
залына
залында
залының
зальцбург
зальцведель
заман
замана
заманауи
заманда
замандарда
замандардан
замандас
замандастары
замандастарының
замандасы
замандағы
заманнан
заманның
заманы
заманымыздан
заманымыздың
заманымызға
заманына
заманынан
заманында
заманындағы
заманының
заманға
заманғы
замбия
занды
запастағы
запасқа
записки
запорожье
зар
зарарсыздандыру
заратуштра
зардабы
зардабын
зардап
зардаптарын
зарубежнои
заря
заряд
зарядталған
зарядты
зарядтың
заряды
зарядының
зат
затаевич
затпен
заттаи
заттан
заттар
заттардан
заттарды
заттардың
заттармен
заттары
заттарын
заттарының
заттарға
заттектер
затты
заттық
заттың
заты
затын
затының
затқа
зауыт
зауытта
зауыттар
зауыттары
зауыттарында
зауыттық
зауыттың
зауыты
зауытын
зауытына
зауытында
зауытының
зағаи
зақ
зақов
зақым
зақымдаи
зақымдалған
зақымданады
зақымдану
зақымдануы
зақымданған
зақымдау
заң
заңгер
заңгерлер
заңгерлік
заңгері
заңда
заңдар
заңдарда
заңдарды
заңдардың
заңдары
заңдарымен
заңдарын
заңдарына
заңдарының
заңдарға
заңды
заңдылығы
заңдылығын
заңдылық
заңдылықтар
заңдылықтарды
заңдылықтары
заңдылықтарын
заңдылықтарына
заңдылықты
заңдық
заңи
заңмен
заңнама
заңнамада
заңнамалық
заңнамасына
заңның
заңсыз
заңы
заңымен
заңын
заңына
заңында
заңының
заңға
заңғар
звания
звезда
звеношысы
зг
зд
зе
зевс
зевстің
зеи
зекет
зеландия
зеландияда
зеландияның
зеле
зеленскии
зеліске
земство
зен
зенит
зениттік
зер
зергерлік
зерде
зерделеи
зерделеу
зерделі
зерек
зеренді
зерт
зертеу
зерттеген
зерттегенде
зерттеді
зерттеи
зерттелген
зерттелді
зерттеле
зерттеледі
зерттелетін
зерттелмеген
зерттелу
зерттелуде
зерттелуі
зерттеліп
зерттеп
зерттеу
зерттеуге
зерттеуде
зерттеудегі
зерттеуді
зерттеудің
зерттеулер
зерттеулерге
зерттеулерде
зерттеулерді
зерттеулердің
зерттеулермен
зерттеулері
зерттеулерін
зерттеулерінде
зерттеулерінің
зерттеумен
зерттеуші
зерттеушілер
зерттеушілердің
зерттеушілері
зерттеушісі
зерттеуі
зертхана
зертханалық
зертханасы
зертханасында
зертханасының
зеңбірек
зеңбіректер
зз
зи
зианчурин
зидан
зинг
зират
зираттар
зираты
зиратына
зиратында
зия
зияда
зиялы
зиялылары
зиялыларының
зиян
зиянды
зиянкестері
зияны
зиянын
зияның
зиярат
зияткер
зияткерлік
знамя
значение
золотая
золотица
золотои
золотурн
зомбылық
зона
зонасы
зонасында
зонд
зоология
зоологиялық
зоологиясы
зоотехнигі
зоотехник
зоотехникалық
зор
зорлық
зорлықпен
зу
зубцов
зылиха
зымыран
зырян
зырянское
зығыр
зікір
зұлым
зұлымдық
зұлқарнаи
зәи
зәр
зәулім
и
иаков
иасауи
ибн
ибрагим
ибрагимов
ибраева
ибраһим
иван
иванов
иванович
ивановна
иваново
иваньков
иващенко
ивелин
ивр
иврит
ивуар
игерген
игерді
игере
игеру
игеруге
игерудің
игерілген
игерілді
игерілуде
игеріп
иглин
игол
игорь
игі
игілігі
игілігіне
игілік
игіліктер
игілікті
ид
идеал
идеалды
идеалистік
идеалы
идентификациялық
идеология
идеологиялық
идеологиясы
идея
идеялар
идеяларды
идеялардың
идеялары
идеяларын
идеяларының
идеялық
идеяны
идеяның
идеясы
идеясын
идеясына
идеясының
идеяға
ие
иегерлері
иегері
иек
иеленген
иеленді
иеленеді
иелену
иеленуге
иеленуші
иеленіп
иелері
иелерін
иелеріне
иелерінің
иелігі
иелігінде
иелігіндегі
иелігіне
иелік
иеліктері
иеліктерін
иеліктеріне
иемденген
иемденді
иемденеді
иемдену
иемденіп
иен
иерархиялық
иерусалим
иесі
иесін
иесіне
иесінің
иж
ижма
из
известия
изд
издание
издательство
изен
измир
изотопы
израиль
израильдің
ии
ик
икемді
икс
ил
илеи
иленген
илеу
или
илишев
иллинои
иль
ильин
ильич
ильхам
илья
илік
им
имам
имамның
имамы
иман
имандылық
иманов
имантаи
имек
имени
иммигранттар
иммунды
иммундық
иммунитет
иммунология
иммунологиялық
император
императордың
императорлар
императорлық
императоры
империалистік
империя
империялық
империяның
империясы
империясын
империясына
империясында
империясындағы
империясының
импорт
импорттық
импульс
импульстік
ин
инвестиция
инвестициялар
инвестицияларды
инвестициялардың
инвестициялық
инвесторлар
ингуш
инд
индекс
индекстері
индексі
индер
индиана
индивидтің
индии
индикатор
индикаторлық
индия
индонезия
индонезияда
индонезиядағы
индонезияның
индуизм
индуистік
индукция
индукциялық
индустриалды
индустриалдық
индустрия
индустрияландыру
индустриялық
индустриясы
ине
инеден
инемен
инені
инертті
инерция
инерциялық
инж
инженер
инженерия
инженерлер
инженерлері
инженерлік
инженері
инжиниринг
инк
инкубациялық
инн
инне
инновация
инновациялық
инсбрук
инспектор
инспекторы
инспекциясының
институт
институтта
институттар
институттардың
институттары
институттарының
институтты
институттың
институты
институтын
институтына
институтында
институтының
институтқа
инсулин
интегралдық
интеграция
интеграциялық
интеллект
интеллектуалды
интеллектуалдық
интенсивті
интер
интерактивті
интервью
интериор
интернат
интернатта
интернационал
интернационалдық
интернационале
интернет
интернетке
интернетте
интертото
интерфеи
интонация
инфекция
инфекциялық
инфекцияның
инфляция
инфляцияның
информатика
информации
информация
инфрақызыл
инфрақұрылым
инфрақұрылымы
инфрақұрылымын
инь
иня
иняи
иоанн
иоганн
ион
иондар
иондарды
иондардың
иондары
иондарының
ионды
иондық
ионы
иордания
иосиф
ип
ипотекалық
ир
ирак
иракта
ирактағы
ирактың
иран
иранда
ирандағы
ирандық
иранның
иранға
ирек
ириклинск
ирина
иркутск
ирланд
ирландия
ирландиялық
ирландияның
ирландық
ис
иса
исаак
исабеков
исады
исаев
исатаи
исеть
искра
искусство
ислам
исламда
исламдағы
исламды
исламдық
ислами
исламның
исламға
исландия
исмаил
исп
испан
испандық
испандықтар
испания
испанияда
испаниядан
испаниядағы
испаниялық
испанияның
испанияға
исследование
исследования
иссуар
ист
исток
истории
историческая
история
источник
ит
итал
италия
италияда
италиядан
италиядағы
италиялық
италияндық
италияның
италияға
итальян
итальяндық
итбалық
итермеледі
итермелеи
итке
итмұрын
итоги
иттер
иттердің
итті
иттің
иті
иудаизм
иудеи
их
ишан
иығына
иық
иыққа
июля
июня
ия
иілген
иілгіш
иілу
иіліп
иін
иінді
иіп
иіру
иірім
иіс
иісті
иісі
иісін
иә
к
ка
кабардин
кабашев
кабель
кабельді
кабельдік
кабинет
кабинеті
кабинетінің
каваду
кавалері
кавказ
кавказда
кавказдағы
кавказдың
кавказға
кадастрларын
каддафи
кадет
кадмии
кадр
кадрлар
кадрларды
кадрларын
кадрлық
кажет
кажетті
каз
казак
казакстанға
казактар
казактардың
казактары
казань
казахов
казахская
казахскии
казахских
казахского
казахскои
казахском
казахстан
казахстана
казахстане
казахстанская
казерта
казсср
казталов
казталовка
казіргі
каи
каир
как
какао
кал
кала
калабрия
калады
кале
каледон
калибрлі
калии
калинин
калининград
калифорния
калифорнияда
калтасин
калуга
калужа
калық
кальвадос
кальции
кальцит
кальяри
калған
кама
камал
камбоджа
камбре
каменка
камера
камералы
камералық
камерасы
камерос
камерун
кампания
кампань
кампо
кампобассо
кампу
кампус
кампусы
камское
камтамасыз
камчатка
камю
кан
канада
канадада
канададағы
канадалық
канаданың
канал
каналдар
каналдары
каналдың
канализация
каналы
каналының
канд
кандидат
кандидата
кандидаттар
кандидаттары
кандидаттық
кандидатурасын
кандидаты
канеда
канзас
канин
канн
кант
канталь
кантон
кантоны
кантонында
канттың
канцлер
канцлері
кап
капиллярлық
капитал
капиталды
капиталдың
капитализм
капитализмнің
капиталистік
капиталы
капиталын
капиталының
капиталға
капитан
капитаны
капуста
кар
кара
караи
карамель
каратэ
карағанда
карбон
карбонаттар
карбонатты
кардинал
карен
кариб
каркассонн
карл
карло
карлос
карлсруэ
кармаскалин
кармен
карнеги
каролина
каротаж
каротин
карпат
карст
карсы
карта
картада
картадағы
карталар
карталарда
карталарды
карталары
картаны
картаның
картасы
картасын
картасында
картаға
картер
картина
картиналар
картинтия
картография
картографиялық
картоп
карьерасын
карьерасында
карьерасының
кас
каспии
кассалық
кассель
кастилия
кастро
кат
катализ
катализатор
каталог
каталогтарда
каталогтағы
каталогтың
каталогы
каталогында
каталогқа
каталония
катандзаро
катар
категория
категориялар
категориялары
категориясы
категорияға
като
катод
католик
католиктер
католиктік
катонқарағаи
катунь
катысты
кауфман
каучук
каф
кафе
кафедра
кафедрада
кафедраның
кафедрасы
кафедрасын
кафедрасында
кафедрасының
кашмир
каштелу
кв
квадрат
квадраттық
квант
кванттық
кварц
кварцит
кварцты
квебек
квт
кг
кгц
кдж
ке
кебек
кевин
кеген
кегін
кедеи
кеден
кедендік
кедергі
кедергілер
кедергілерді
кедергісі
кедергісіз
кедір
кез
кезбе
кезге
кезде
кездегі
кездеи
кезден
кездерде
кездері
кездерінде
кездесе
кездеседі
кездесетін
кездесетіні
кездескен
кездескенде
кездескендіктен
кездеспеи
кездессе
кездесті
кездестіреді
кездестіреміз
кездестіруге
кездесу
кездесуге
кездесуде
кездесулер
кездесуі
кездесуін
кездесуінде
кездесіп
кездің
кезегі
кезегінде
кезек
кезекпен
кезекте
кезектегі
кезектен
кезектесе
кезектесіп
кезекті
кезекші
кезенде
кезең
кезеңге
кезеңде
кезеңдегі
кезеңдер
кезеңдерге
кезеңдерде
кезеңдердің
кезеңдері
кезеңдерін
кезеңдерінде
кезеңдеріне
кезеңдерінің
кезеңді
кезеңдік
кезеңмен
кезеңнен
кезеңнің
кезеңі
кезеңімен
кезеңін
кезеңінде
кезеңіндегі
кезеңіне
кезеңінен
кезеңінің
кезі
кезін
кезінде
кезіндегі
кезіне
кезінен
кезіп
кеи
кек
кекілік
кел
келбеті
келбетін
келген
келгенге
келгенде
келгендер
келгеннен
келгенше
келгені
келгенін
келд
келді
келдік
келдім
келе
келед
келеді
келеи
келелі
келер
келес
келесі
келесідеи
келет
келетін
келетіні
келетінін
келешегі
келешек
келешекте
келеңсіз
келли
келмеген
келмеді
келмеи
келмесе
келмеуі
келсе
келсек
келт
келте
келтірген
келтірді
келтіре
келтіреді
келтіретін
келтірмеи
келтіру
келтіруге
келтіруді
келтіруі
келтірілген
келтірілді
келтіріледі
келтіріліп
келтіріп
келу
келуге
келушілер
келушілерге
келушілердің
келуі
келуімен
келуін
келуіне
кельт
келі
келіге
келік
келін
келіннің
келіншек
келіншектер
келіні
келіп
келіпті
келіс
келісе
келіседі
келіскен
келіспеи
келіспеушілік
келіссөз
келіссөздер
келісті
келісу
келісілген
келісім
келісімге
келісімдер
келісімді
келісімен
келісімнің
келісімшарт
келісімшартқа
келісімі
келісімімен
келісімін
келісіміне
келісімінсіз
келісіп
кем
кемал
кембридж
кембрии
кеме
кемеге
кемежаи
кемел
кемелер
кемелерді
кемелердің
кемелері
кемелерін
кемелерінің
кемені
кеменің
кемер
кемеров
кемерово
кемесі
кемесімен
кемесін
кемесінің
кемеңгер
кемиді
кемпер
кемпір
кемуі
кемшілігі
кемшіліктер
кемшіліктері
кемшіліктерін
кемінде
кеміп
кеміргіштер
кемірушілер
кемістігі
кен
кендер
кендерді
кендердің
кендері
кендерін
кендерінде
кендерінің
кенді
кендір
кене
кенелер
кенен
кенеп
кенесариев
кенесары
кенесарының
кенесбаева
кенет
кенеттен
кенже
кенжеахметұлы
кенжебаев
кенжебаи
кения
кеннеди
кеннің
кенов
кенорын
кенорындар
кенорындары
кенорындарын
кент
кентас
кентастары
кентастарының
кентасты
кентасы
кентау
кентте
кенттер
кенттік
кентукки
кенті
кентінде
кентіндегі
кентінен
кентінің
кеншілер
кені
кенін
кенінің
кеніш
кеніші
кенішінде
кеп
кепкен
кептер
кептіреді
кептіру
кептірілген
кептіріп
кепіл
кепілге
кепілдік
кепілі
кер
керамика
керамикалық
кербұлақ
кереге
керегетас
керегі
кереи
керек
керекті
керектігі
керектігін
керемет
кереғар
кермек
кернеи
кернеу
кернеудің
кернеулер
кернеулі
кернеуі
керосин
кертартпа
керуен
кері
керік
керілген
керіп
керісінше
кес
кесе
кеседі
кесек
кесене
кесененің
кесенесі
кесенесінің
кесетін
кескен
кескілескен
кескін
кескіндеме
кескіндемеші
кескіндемешісі
кескінді
кескіні
кескінін
кескіш
кеспе
кесте
кестеде
кестеленген
кестелер
кестелі
кестендіру
кестені
кестенің
кестесі
кестесін
кесті
кестігі
кестігін
кестік
кестікті
кесу
кесуге
кесі
кесілген
кесілді
кесіледі
кесіліп
кесімді
кесінді
кесіндісі
кесінше
кесіп
кесіртке
кесірткелер
кесірінен
кет
кете
кетеді
кетеи
кетер
кететін
кетке
кеткен
кеткенде
кеткеннен
кеткені
кеткенін
кетпеи
кетпен
кетпес
кетпеуі
кетсе
кеттен
кетті
кету
кетуге
кетуден
кетуі
кетуін
кетуіне
кетуінен
кеть
кетіп
кетіпті
кетіру
кеуде
кеудесі
кеуек
кеуекті
кеуектілігі
кеуіп
кеш
кеше
кешегі
кешек
кешен
кешендер
кешендері
кешенді
кешеннің
кешені
кешенін
кешенінде
кешеніне
кешенінің
кешке
кешкен
кешкі
кештер
кешті
кешу
кеші
кешікпеи
кешіп
кешірген
кешірді
кешірім
кең
кеңгір
кеңгірбаи
кеңеи
кеңес
кеңесбаев
кеңеске
кеңесте
кеңестер
кеңестердің
кеңестері
кеңестерінің
кеңестік
кеңестің
кеңесші
кеңесшісі
кеңесі
кеңесімен
кеңесін
кеңесінде
кеңесіне
кеңесінің
кеңею
кеңеюі
кеңеюіне
кеңсе
кеңсесі
кеңсесінде
кеңсесінің
кеңшар
кеңшарда
кеңшардың
кеңшары
кеңшарында
кеңшарының
кеңінен
кеңірдек
кеңірек
кеңістігі
кеңістігін
кеңістігінде
кеңістігіндегі
кеңістігіне
кеңістігінің
кеңістік
кеңістікке
кеңістікте
кеңістіктегі
кеңістікті
кеңістіктік
кеңістіктің
ки
кибернетика
киген
кигізіп
киді
кие
киев
киевте
киевтің
киеді
киелі
киетін
кии
кикя
килограмм
километр
километрге
ким
кимешек
кин
кинг
кинель
кинематографистер
кинематография
кинетикалық
кино
киноактер
киноактері
кинода
кинодағы
киноның
кинорежиссе
кинорежиссер
киностудиясы
киностудиясында
киностудиясының
киносы
кинотеатр
кинофестивалінде
киноға
киото
кипр
кир
киргиз
киргизии
кирилл
кириллица
кириллицаға
киров
кит
китаб
китаи
китая
киттер
кишинев
кию
киюге
киіз
киізден
киік
киім
киімге
киімдер
киімдерді
киімдері
киімдерін
киімді
киіммен
киімнің
киімі
киімін
киіміне
киімінің
киіп
кк
ккал
кке
кл
клабрук
клаи
кламси
клапан
клара
кларк
класс
классигі
классик
классика
классикалық
классиктерінің
классификатор
классификация
классификациясы
классицизм
классы
класты
кластық
класы
класына
класының
класқа
клаус
клаусура
клеи
клетка
клеткалар
клеткалардың
клеткалары
клеткаларының
клеткалы
клеткалық
клетканың
клиент
клиенттер
клиенттерге
клиенттің
климат
климатты
климаттық
климаттың
климаты
климатқа
клиника
клиникалық
клинтон
клод
клуб
клубпен
клубта
клубтан
клубтар
клубтарда
клубтардың
клубтары
клубтарында
клубтарының
клубты
клубтық
клубтың
клубы
клубымен
клубын
клубына
клубынан
клубында
клубының
клубқа
ключ
клязьма
км
кн
книга
князь
князі
ко
коа
коалиция
кобальт
кобленц
ков
коваленттік
ковскии
ковшарь
когда
когнитивтік
когуре
код
кодекс
кодексі
кодексінің
кодтау
кодты
коды
коз
козенца
кои
коимбра
кока
кокос
кокп
кокс
коктеи
кол
кола
колданылады
колледж
колледжде
колледждер
колледждің
колледжі
колледжін
колледжінде
колледжіне
колледжінің
коллекциясы
коллинз
колония
колониясы
колорадо
колумб
колумбия
колумбияның
колхоз
колхозда
колхоздар
колхозшы
колхозы
колхозына
колхозында
колхозының
колчак
ком
кома
команда
командада
командадан
командалар
командалардың
командалары
командаларының
командалық
команданы
команданың
командасы
командасымен
командасын
командасына
командасында
командасының
командаға
командир
командирі
командирінің
комарка
комбаи
комбинат
комбинаттары
комбинаты
комбинатында
комбинатының
комедия
комедиялық
комедиясы
комедиясында
коми
комикс
комиссар
комиссариаты
комиссариатының
комиссарлар
комиссарлары
комиссары
комиссарының
комиссия
комиссиялар
комиссияның
комиссиясы
комиссиясына
комиссиясының
комитет
комитеттер
комитеттері
комитеттерінің
комитеттің
комитеті
комитетін
комитетінде
комитетіне
комитетінің
комментарии
коммерси
коммерция
коммерциялық
коммуна
коммуналары
коммуналдық
коммунаны
коммунаның
коммунасы
коммунизм
коммуникативтік
коммуникация
коммуникациялар
коммуникациялық
коммунист
коммунистер
коммунистік
комо
комп
компании
компания
компаниялар
компанияларды
компаниялардың
компаниялары
компанияларының
компанияларға
компанияны
компанияның
компаниясы
компаниясымен
компаниясын
компаниясына
компаниясында
компаниясының
компанияға
компартия
компартиясы
компартиясының
комплекс
комплексті
комплексі
композитор
композитордың
композиторлар
композиторлардың
композиторлары
композиторларының
композиторлық
композиторы
композиция
композициялық
композициясы
компонент
компоненттер
компоненттері
компоненттерінің
компоненті
компьютер
компьютерге
компьютерде
компьютерді
компьютердің
компьютерлер
компьютерлердің
компьютерлік
компьютермен
комсомол
комсомолы
кон
конвеи
конвенция
конвенциясы
конго
конгресс
конгресі
конгресінде
конгресінің
конда
конденсат
конденсатор
кондитер
кондитерлік
кондома
конкакаф
конкурс
конкурсында
конкурсының
конмебол
коннектикут
коннор
конрад
консервативті
консерваториясы
консерваториясын
консерваториясында
консерваториясының
консерві
консервілеу
константин
константинович
константинополь
конституция
конституцияда
конституциялық
конституцияны
конституцияның
конституциясы
конституциясын
конституциясына
конституциясында
конституциясының
конституцияға
конструктивті
конструктор
конструкторлық
конструкциялық
конструкциясы
консультанты
консультативтік
контеи
континенталды
континентті
континенттік
контрреволюциялық
конус
конустық
конфедерация
конфедерациялар
конфедерациясы
конференции
конференция
конференцияда
конференциялар
конференцияларға
конференциясы
конференциясында
конференциясының
конференцияға
конфуции
концентрация
концентрациясы
концентрациясын
концентрациясына
концентрациясының
концепция
концепциясы
концерт
концертмеи
концерттер
концерттік
концерті
коньки
конькимен
коньяк
кооператив
кооперативтер
кооперативтік
кооперативі
координаталар
координаталары
координаттар
координаттары
коп
копенгаген
кор
кордова
коре
кореи
корея
кореяда
кореядағы
кореялық
кореяның
кореяға
королева
король
корольдық
корольдігі
корольдігінің
корольдік
корольдің
королі
королінің
корпоративтік
корпорация
корпорациясы
корпорациясының
корпус
корпусы
корпусын
корпусында
корпусының
корр
коррез
корректор
корреспондент
коррозияға
корсика
корте
кос
коса
косметикалық
космос
космостық
косово
коста
кострома
костюм
косьва
кот
котельнич
котто
коул
кофе
кох
коциттер
коэффиценті
коэффициент
коэффициенті
коэффициентінің
коғамдық
коңыр
кп
кпен
кпсс
кр
краи
краков
кран
красная
красноармеи
красноводск
краснодар
краснои
краснояр
красноярск
красныи
кратер
крахмал
кредит
кредиттік
крез
креи
крем
кремль
кремнии
кремона
кремс
крест
креститель
кризистік
крик
крис
кристал
кристалданады
кристалдану
кристалдар
кристалдардың
кристалдары
кристалды
кристалдық
кристалдың
кристалл
кристаллография
кристиан
кристина
кристоф
кристофер
крит
критерии
крои
кросс
крупская
крус
крылов
кс
кср
ксрнің
ксро
ксроның
кт
кте
ктер
ктерд
ктест
ктк
кто
ку
куала
куандықов
куб
куба
кубалық
кубань
кубен
кубень
кубогы
кубогын
кубогына
кубогында
кубогының
кубогінің
кубок
кубокты
кубоктың
кубтық
кувеи
кугарчин
кузнецов
куи
кук
кулактар
культура
культуры
кума
кун
кунео
купер
кур
курган
курорт
курс
курск
курста
курстар
курстары
курстарын
курсты
курсы
курсын
курсына
курсында
курсының
курт
курчатов
кутанс
кутулук
куэнка
куюргазин
куә
куәландыратын
куәлігі
куәлік
куәсі
кхдр
кхмер
кы
кызмет
кызметін
кызыл
кын
кырджали
кьети
кэи
кэтрин
кюри
кюстендил
кі
кібісе
кілегеи
кілем
кілемдер
кілт
кілті
кім
кімге
кімде
кімді
кімнің
кіндігі
кіндік
кінәз
кінәлі
кір
кірген
кіргізеді
кіргізіп
кірді
кіре
кіреберіс
кіреді
кірер
кіретін
кірме
кірмеи
кірмесі
кірпі
кірпікшелі
кірпіш
кірпішпен
кірпіштен
кіру
кіруге
кіруі
кіруіне
кіріктіреді
кіріктіретін
кіріп
кіріс
кіріседі
кіріскен
кіріспе
кірістер
кірісті
кірісі
кірісіп
кісі
кісіге
кісілер
кісілерге
кісілердің
кісілік
кісіні
кісінің
кітаби
кітабы
кітабын
кітабына
кітабынан
кітабында
кітабының
кітап
кітапта
кітаптан
кітаптар
кітаптарда
кітаптарды
кітаптардың
кітаптары
кітаптарын
кітаптарында
кітаптарының
кітаптарға
кітапты
кітаптың
кітапхана
кітапханада
кітапханалар
кітапханалық
кітапхананың
кітапханасы
кітапханасында
кітапханасының
кітапханаға
кітапша
кітапқа
кішкене
кішкентаи
кіші
кішігірім
кішілеу
кішілі
кішіреи
кішірек
кішісі
күдік
күдікті
күз
күзге
күзгі
күзде
күздік
күздің
күзен
күзет
күзету
күзетші
күзінде
күи
күкірт
күкіртті
күл
күлгін
күлдіргі
күлкі
күлкілі
күллі
күлте
күлтегін
күлтелері
күлтесі
күлі
күліп
күләш
күмбез
күмбезбен
күмбездер
күмбездері
күмбезді
күмбездің
күмбезі
күмбезінің
күміс
күміспен
күмістеи
күмістен
күмісті
күмән
күмәнді
күн
күнбағыс
күнге
күнгеи
күнгі
күнде
күндеи
күнделігі
күнделік
күнделікті
күндер
күндерде
күндердің
күндері
күндерінде
күндеріне
күнді
күндіз
күндізгі
күндік
күнкөріс
күннен
күннің
күнтізбе
күнтізбелік
күнтізбесі
күнтізбесінде
күншығыс
күні
күнін
күнінде
күніне
күнінен
күнінің
күнә
күрд
күрделене
күрделі
күрделілігі
күрдтер
күре
күрек
күрес
күреске
күрескен
күрескер
күресте
күрестен
күресті
күрестің
күресу
күресуге
күресі
күресін
күресіне
күресінен
күресінің
күресіп
күрең
күрт
күрті
күршім
күріш
күріштің
күтеді
күткен
күтпеген
күту
күтуге
күтілуде
күтім
күтімі
күтіп
күш
күшеи
күшеюі
күшеюіне
күшке
күшпен
күшт
күштеп
күштер
күштерге
күштерді
күштердің
күштері
күштерімен
күштерін
күштерінде
күштеріне
күштерінің
күшті
күштік
күштірек
күштің
күші
күшік
күшімен
күшін
күшіне
күшінен
күшінің
күшәла
күң
күңгірт
кұи
кұраи
кұрамында
кәде
кәдеге
кәделі
кәдімгі
кәмелетке
кәмелеттік
кәміл
кәпір
кәрі
кәрілік
кәрім
кәрімде
кәрімнің
кәс
кәсіби
кәсібі
кәсібін
кәсіп
кәсіпкер
кәсіпкерлер
кәсіпкерлердің
кәсіпкерлік
кәсіпкерлікті
кәсіподақ
кәсіподақтар
кәсіпорны
кәсіпорнының
кәсіпорын
кәсіпорында
кәсіпорындар
кәсіпорындарда
кәсіпорындарды
кәсіпорындардың
кәсіпорындары
кәсіпорындарын
кәсіпорындарында
кәсіпорындарының
кәсіпорындарға
кәсіпорынның
кәсіпорынға
кәсіптері
кәсіптік
кәсіпшілігі
кәсіпшілігінде
кәсіпшілігінің
кәсіпшілік
кәсіпшіліктерінде
кәсіпқои
көб
көбеи
көбелегі
көбелек
көбелектер
көбею
көбеюге
көбеюі
көбеюіне
көбі
көбік
көбін
көбінде
көбіне
көбінесе
көбінің
көбірек
көбісі
көгалдандыру
көгалдағы
көгершін
көгілдір
көде
көже
көз
көзбен
көзге
көздеген
көздеді
көздеи
көзделген
көзделді
көзделеді
көзден
көздеп
көздер
көздері
көздерін
көздеріне
көздерінен
көздерінің
көздеу
көзді
көздің
көзе
көзі
көзілдірік
көзімен
көзін
көзінде
көзіне
көзінен
көзінше
көзінің
көзқарас
көзқараспен
көзқарастар
көзқарастарды
көзқарастардың
көзқарастары
көзқарастарын
көзқарасты
көзқарастың
көзқарасы
көзқарасын
көзқарасына
көзқарасының
көи
көк
көкбаи
көкбауыр
көкеи
көкек
көкжиек
көкке
көкнәр
көкпар
көкпек
көкпекті
көксерке
көксу
көктал
көктеи
көктем
көктемгі
көктемде
көктемнің
көктемі
көктемінде
көктен
көктеп
көктерек
көктоғаи
көктөбе
көкше
көкшетау
көкшіл
көкірегі
көкірек
көкөзек
көкөніс
көкөністер
көкөністерді
көл
көлбаи
көлбеу
көлге
көлде
көлден
көлденең
көлденеңі
көлденеңінен
көлдер
көлдерге
көлдерде
көлдердің
көлдері
көлдерінде
көлдерінің
көлді
көлдің
көлем
көлемде
көлемдегі
көлемдері
көлемді
көлемдік
көлемі
көлемімен
көлемін
көлемінде
көлеміндегі
көлеміне
көлемінен
көлемінің
көлеңке
көлеңкеде
көлеңкелі
көлеңкесі
көлі
көлігі
көлігін
көлігінің
көлік
көлікке
көлікпен
көліктер
көлікті
көліктік
көліктің
көлін
көлінде
көліне
көлінен
көлінің
көм
көмбе
көмегі
көмегімен
көмегін
көмегіне
көмеи
көмек
көмекеи
көмекке
көмектесе
көмектеседі
көмектесетін
көмектескен
көмектесті
көмектесу
көмектесуге
көмектесуіңізді
көмектесіп
көмекті
көмекші
көмекшісі
көмескі
көмкерген
көмкерілген
көмілген
көміп
көмір
көмірді
көмірдің
көмірлі
көмірсу
көмірсулар
көмірсутек
көмірсутектер
көмірсутектердің
көміртегі
көміртек
көміртекті
көміртектің
көмірі
көмірқышқыл
көн
көне
көп
көпеи
көпес
көпестер
көпестері
көпжылдық
көпке
көптеген
көптен
көптеп
көпті
көптігі
көптік
көптің
көпш
көпше
көпшілігі
көпшілігін
көпшілігінде
көпшілігіне
көпшілігінің
көпшілік
көпшілікке
көпшіліктің
көпір
көпірдің
көпірлер
көпіршік
көпіршіктер
көпірі
көпқабатты
көпұлтты
көр
көрген
көргенде
көрді
көрдік
көрдім
көре
көреді
көреи
көреміз
көремін
көрермен
көрерменге
көрермендер
көрермендерге
көрермендердің
көрерменді
көрерменнің
көретін
көркеи
көркем
көркемдеу
көркемдік
көркемсурет
көркемөнер
көркемөнерпаздар
көркі
көрме
көрмеге
көрмеген
көрмеде
көрмеи
көрмелер
көрмелерге
көрмелері
көрменің
көрмесі
көрмесінде
көрмесіне
көрмесінің
көрнекті
көрнекі
көрпе
көрпеш
көрсе
көрсет
көрсете
көрсетеді
көрсететін
көрсеткен
көрсеткендеи
көрсеткені
көрсеткіш
көрсеткішке
көрсеткіштер
көрсеткіштерге
көрсеткіштерді
көрсеткіштердің
көрсеткіштері
көрсеткіштерін
көрсеткіштеріне
көрсеткіштерінің
көрсеткіші
көрсеткішін
көрсеткішінің
көрсетпеи
көрсетсе
көрсетті
көрсету
көрсетуге
көрсетуде
көрсетуді
көрсетудің
көрсетумен
көрсетуші
көрсетуі
көрсетілген
көрсетілгендеи
көрсетілді
көрсетіледі
көрсетілетін
көрсетілмеген
көрсетілуі
көрсетілімі
көрсетіліп
көрсетіп
көру
көруге
көруі
көрші
көршілері
көршілес
көршісі
көрі
көрік
көрікті
көрінбеи
көрінген
көрінді
көріне
көрінеді
көрінетін
көріну
көрінуі
көрініп
көрініс
көріністер
көріністерді
көріністері
көріністерін
көріністі
көрінісі
көрінісін
көріп
көріпкел
көсе
көсем
көсемдері
көсемдерінің
көсемі
көтер
көтерген
көтергіш
көтерді
көтере
көтереді
көтеретін
көтерме
көтеру
көтеруге
көтерілген
көтерілгенде
көтерілді
көтеріле
көтеріледі
көтерілетін
көтерілу
көтерілуге
көтерілуі
көтерілуіне
көтеріліп
көтеріліс
көтеріліске
көтерілістер
көтерілістері
көтерілісті
көтерілістің
көтерілісшілер
көтерілісшілерге
көтерілісшілерді
көтерілісшілердің
көтерілісі
көтерілісін
көтерілісіне
көтерілісінің
көтеріп
көтеріңкі
көш
көшбасшы
көшбасшылық
көшбасшысы
көше
көшеге
көшеде
көшеді
көшелер
көшелері
көшелерімен
көшелерін
көшелерінің
көшенін
көшенің
көшесі
көшесімен
көшесінде
көшесіндегі
көшесіне
көшесінен
көшесінің
көшкен
көшкенде
көшпелі
көшпелілер
көшпелілердің
көшпенді
көшпенділер
көшпенділердің
көшті
көшу
көшуге
көшуі
көшуіне
көші
көшім
көшіп
көшірді
көшірме
көшірмелері
көшірмесі
көшірмесін
көшіру
көшіруге
көшірілген
көшірілді
көшіріліп
көшіріп
көң
көңіл
көңілге
көңілді
көңілі
көңілім
көңілін
көңіліне
көңілінен
л
ла
лаборант
лаборатория
лабораториялық
лабораториясы
лабораториясында
лабораториясының
лава
лавр
лаврентии
лагерь
лагері
лагерінде
лады
лазер
лазерлік
лаи
лак
лам
лама
ламаи
лан
лана
ланады
ланатын
ланбаи
лангедок
лангон
ланд
ланди
ландшафт
ландшафты
ланды
ландыру
ланка
лану
лануға
ланып
ланыс
ланысады
ланысатын
ланыссыз
ланыста
ланыстар
ланыстарды
ланыстардың
ланыстары
ланыстарын
ланыстарының
ланыстағы
ланысты
ланыстыра
ланыстырады
ланыстыратын
ланыстырды
ланыстыру
ланыстырушы
ланыстырылады
ланыстырып
ланыстың
ланысу
ланысы
ланысын
ланысының
ланысып
ланысқа
ланысқан
ланған
лао
лаос
лап
лар
ларда
лардан
лардағы
ларды
лардың
лармен
ларри
лары
ларымен
ларын
ларына
ларынан
ларында
ларындағы
ларының
ларға
лас
ластаи
ластану
ластануы
ластанған
ластырылған
ласы
ласқан
лат
латвия
латвиядағы
латын
латынның
латынша
латыш
лау
лауазым
лауазымды
лауазымдық
лауазымы
лауазымын
лауазымына
лауазымында
лауазымға
лауда
лаудан
лауды
лаудың
лаура
лауреат
лауреаттары
лауреаты
лаушы
лаушылар
лаушылардың
лауы
лауын
лауына
лауында
лауға
лафои
лацио
лаған
лағы
лақ
лақап
лақтырады
лақтыру
лақтырып
лаңкестік
лген
лд
лдар
лдарды
лдер
лды
лдың
ле
лебедев
лев
леви
леген
лед
леди
леді
лез
лезде
лезирия
леи
лек
лекко
лексика
лексикалық
лексикасы
лексикология
лекция
лекциялар
лекциялардың
лем
лемде
лемдегі
лемдер
лемдердің
лемді
лемнің
лен
лена
ленген
ленгер
ленд
ленді
ленеді
ленин
ленинград
ленинградта
ленинградтағы
ленинградтың
лениндік
ленинизм
лениннің
лениногор
лениншіл
лента
лену
ленуі
леніп
лео
леон
леонард
леонардо
леонид
леопольд
леп
лепсі
лер
лерге
лерд
лерде
лерден
лерді
лердің
лермен
лермонтов
лермонтовтың
лері
лерін
лерінде
леріндегі
леріне
лерінен
лерінің
лес
лесе
леседі
лескен
лестер
лестіре
лестіру
лестіруді
лестіріп
лесу
лесуі
лесім
лесімді
лесімділік
лесімі
лесіп
лет
летт
леу
леуге
леудің
лечче
ли
либералды
либералдық
либерия
либертадорес
либурн
ливан
ливенворт
ливерпуль
ливия
лига
лигада
лигадағы
лиганың
лигасы
лигасын
лигасына
лигасында
лигасындағы
лигасының
лигаға
лигурия
лидер
лидері
лидия
лиза
лизинг
лизье
лили
лилль
лима
лимож
лимон
лиму
лимузен
лимфа
лимфоидты
лимфоциттер
лин
лингвист
лингвистика
лингвистикалық
линда
линза
линия
линкольн
линн
линнеи
линнің
лион
липецк
лира
лирик
лирика
лирикалық
лирикасы
лиро
лиссабон
лит
литва
литван
литваның
литература
литературы
литии
литологиялық
литорал
литр
лихтенштеи
лицеи
лицен
лицензия
лицензиялық
лицензиясы
лкжо
лл
ллои
ло
лов
ловеч
лович
ловка
ловна
логика
логикалық
логиканың
логотипі
лозер
лои
локомотив
ломбардия
ломоносов
лон
лонг
лондон
лондонда
лондондағы
лондондық
лондонның
лондонға
лопес
лор
лоран
лорд
лоренц
лоренцо
лорьян
лос
лот
лотар
лотарингия
лоуренс
лс
лу
луан
луар
луара
луганск
луго
луговои
луи
луиза
луис
лука
лукас
лукашенко
лун
луна
лы
лыбаи
лылығы
лылық
лығы
лығымен
лығын
лығына
лығында
лығының
лығьшьщ
лық
лықожа
лықпен
лықтар
лықтарды
лықтардың
лықтары
лықтарын
лықтарының
лықты
лықтың
лыққа
ль
львов
льд
льн
льтен
льюис
лэи
лю
любви
любовь
людвиг
люди
людмила
людовик
люк
люксембург
люневиль
люси
люцерн
ля
лі
лігі
лік
ліктер
лінше
лұғат
лә
ләззат
ләи
м
ма
маб
мавзолеи
маврикии
мавритания
магеллан
магистр
магистралі
магистратура
магистрі
магиялық
магма
магмалық
магманың
магнетит
магнии
магнит
магнитогорск
магнитті
магниттік
мадагаскар
мадам
мадақ
мадақтау
мадеи
мадрид
мады
маж
мажар
мажарстан
мажарстанның
мазар
мазары
мазасыз
мазақ
мазин
мазмұн
мазмұндағы
мазмұнды
мазмұндық
мазмұны
мазмұнын
мазмұнына
мазмұнының
мазмұнға
мазһабы
маи
мак
макарон
македония
македонскии
макинск
макон
макрон
макроэкономикалық
макс
максвелл
максим
максимал
максималды
максимум
мал
малави
малага
малаи
малар
маларда
малардың
малары
маларын
маларында
маларының
малау
малдан
малдардың
малдарын
малды
малдың
малдәрігерлік
малжың
мали
малик
малка
мало
малонисогорская
малшы
малшылар
малы
малын
малының
мальта
малға
мама
мамаи
маман
мамандандырылған
маманданған
мамандар
мамандарды
мамандардың
мамандары
мамандарын
мамандарының
мамандарға
мамандығы
мамандығын
мамандығына
мамандық
мамандықтар
мамандықтары
маманы
мамлют
мамыр
мамырда
мамырдан
мамырдағы
мамырдың
мамыры
мамырына
мамырынан
мамырында
мамық
ман
манас
манат
манга
манд
мандар
мандардың
маневр
манихеи
манның
манов
мансабы
мансабын
мансабының
мансап
мансии
мансфельд
мансұр
мант
мантия
мантуя
мануэль
манфред
манча
манчестер
манш
маның
мань
маньчжур
манұлы
мао
мар
мара
марал
маралды
мараньян
марапат
марапаттады
марапатталады
марапатталды
марапатталған
марапаттары
марапаттау
марапаты
марапатын
марапатына
марат
марафон
марганец
маргарет
маргарита
мардымсыз
маржан
мари
марии
марина
марино
марио
маритим
мария
марияның
марк
марка
маркалы
маркасы
марке
маркетинг
маркетингтік
марко
маркс
марксизм
марксистік
маркстік
маркус
маркшеи
марманд
марн
марна
марокко
марс
марсан
марсель
март
марта
мартен
мартин
мартинес
мартөк
марш
маршал
маршалл
маршрут
марғұлан
марқакөл
марқұм
марқұмның
мас
маса
масақ
маска
масрур
масс
масса
массаж
массалары
массаларының
массалық
массаның
массасы
массасын
массасына
массасынан
массасының
массачусетс
массив
массиві
мастер
мастері
масштаб
масштабта
масштабтағы
масштабты
масштабы
масы
масын
масына
масынан
масының
мат
мата
матадан
матаи
маталар
маталардан
маталарды
матамен
матаны
матаның
матаға
матем
математигі
математик
математика
математикада
математикалық
математиканы
математиканың
материал
материалдан
материалдар
материалдардан
материалдарды
материалдардың
материалдармен
материалдары
материалдарын
материалдарына
материалдарының
материалдарға
материалды
материалдық
материалдың
материализм
материалистік
материалов
материалы
материктік
материя
материялық
материяның
матрица
маттиас
мату
матч
матчта
матчтар
матчтары
матчтың
матчы
матчын
матчында
матчқа
мау
маусым
маусымда
маусымдағы
маусымды
маусымдық
маусымнан
маусымның
маусымы
маусымына
маусымынан
маусымында
маусымының
маусымға
мауытов
махаббат
махаббаттың
махаббаты
махаббатын
махамбет
махатхир
махмуд
махмұд
махмұт
машина
машинажасау
машиналар
машиналарды
машиналардың
машиналары
машиналарын
машиналарының
машиналық
машинамен
машинаны
машинаның
машинасы
машинасын
машинасының
машинаға
машинисі
мая
маяк
маяковскии
маға
маған
мағауия
мағжан
мағлұмат
мағлұматтар
мағы
мағымен
мағын
мағына
мағынада
мағынадағы
мағыналар
мағыналарды
мағыналары
мағыналарын
мағыналарында
мағыналарға
мағыналы
мағыналық
мағынан
мағынаны
мағынаның
мағынасы
мағынасыз
мағынасын
мағынасына
мағынасында
мағынасындағы
мағынасының
мағынаға
мағында
мағындағы
мағының
мақ
мақал
мақала
мақалада
мақалалар
мақалалардың
мақалалары
мақалаларын
мақалаларында
мақаланы
мақаланың
мақаласы
мақаласын
мақаласында
мақалаға
мақаншы
мақат
мақатаев
мақаш
мақпал
мақсат
мақсатпен
мақсатта
мақсаттар
мақсаттарда
мақсаттарды
мақсаттары
мақсаттарын
мақсаттарына
мақсаттарға
мақсаттағы
мақсатты
мақсаты
мақсатымен
мақсатын
мақсатына
мақсатында
мақсатындағы
мақсатқа
мақсұт
мақта
мақтаарал
мақтан
мақтаныш
мақтанышы
мақтар
мақтарда
мақтардан
мақтардағы
мақтарды
мақтардың
мақтары
мақтарын
мақтарына
мақтарынан
мақтарында
мақтарындағы
мақтарының
мақтарға
мақтау
мақтағы
мақты
мақтық
мақтың
маққа
мақұлдады
маңаи
маңда
маңдаи
маңдағы
маңы
маңыз
маңызды
маңыздылары
маңыздылығы
маңыздылығын
маңыздысы
маңызы
маңызын
маңызға
маңын
маңына
маңынан
маңында
маңындағы
маңғыстау
маңғыстауда
маңғыстаудағы
маңғыстаудың
маңғыстаумұнаи
маңғыстауға
маңғыт
маңғышлақ
маңғышлақмұнаи
мб
мвт
мг
мге
мгц
мгөб
мд
мда
мдер
ме
мед
медалдармен
медалдарымен
медаль
медальдар
медальдармен
медальдарымен
медальмен
медальға
медалі
медалімен
медалін
медалінің
медведев
медведевтің
медведица
медет
медеу
медиа
медиафаи
медине
мединеге
медиу
медицина
медицинада
медициналық
медицинаның
медицинасы
медицинасында
медресе
медреседе
медреселер
медресесі
медресесінде
между
межеленген
мез
мезгіл
мезгілде
мезгілі
мезгілінде
мезгіліне
мезень
мезетте
мезозои
мезолит
мезорегионының
меи
мекгеп
мекеме
мекемелер
мекемелерге
мекемелерде
мекемелерді
мекемелердің
мекемелері
мекемелерін
мекемелерінде
мекемелеріне
мекемелерінің
мекеменің
мекемесі
мекемесінде
мекемесінің
мекен
мекенге
мекенде
мекендеген
мекендеді
мекендеи
мекендеп
мекендер
мекендерге
мекендерде
мекендерді
мекендердің
мекендермен
мекендері
мекендерін
мекендерінде
мекендерінің
мекенді
мекенжаи
мекеннің
мекені
мекенін
мекенінде
мекеніне
мекенінен
мекенінің
мекиені
мекке
меккеге
меккеде
меккеден
мекленбург
мексика
мексикада
мексикалық
мексиканың
мексико
мектебі
мектебін
мектебінде
мектебіне
мектебінен
мектебінің
мектеп
мектепке
мектепте
мектептегі
мектептен
мектептер
мектептерге
мектептерде
мектептерді
мектептердің
мектептері
мектептерінде
мектептеріне
мектептерінің
мектепті
мектептің
мелен
мелеуз
мелиорация
мелиорациялық
мельбурн
мельк
мельников
мембрана
мемл
мемлекет
мемлекетаралық
мемлекетке
мемлекетт
мемлекетте
мемлекеттегі
мемлекеттен
мемлекеттер
мемлекеттерге
мемлекеттерде
мемлекеттерді
мемлекеттердің
мемлекеттермен
мемлекеттері
мемлекеттерінде
мемлекеттерінің
мемлекетті
мемлекеттік
мемлекеттің
мемлекеті
мемлекетімен
мемлекетін
мемлекетінде
мемлекетіндегі
мемлекетіне
мемлекетінің
мемлекттік
мемориал
мемориалды
мемориалдық
мен
менде
менделеев
мендель
менеджер
менеджері
менеджмент
менеджменті
менен
мении
менов
менова
ментау
менш
меншігі
меншігінде
меншігіне
меншік
меншікке
меншікті
меншіктің
меня
мені
менің
мер
мерв
мерген
мергендер
мергені
мереи
мереке
мерекелер
мерекелері
мерекелік
мерекесі
мерз
мерзім
мерзімге
мерзімде
мерзімді
мерзімдік
мерзімі
мерзімін
мерзімінде
мерзіміне
мерзімінен
мерзімінің
меридиан
мерке
меркурии
меркі
мерт
меруерт
месопотамия
месси
мессина
мессье
место
мет
метал
металдан
металдар
металдардан
металдарды
металдардың
металдармен
металды
металдық
металдың
металл
металлогендік
металлург
металлургия
металлургияда
металлургиялық
металмен
метаморфизм
метаморфтық
метан
метафизика
метафизикалық
метеорология
метеорологиялық
метил
метод
методикалық
методологиялық
методы
метр
метражды
метрге
метрдеи
метрден
метрді
метрлік
метро
метрология
мех
механигі
механизатор
механизм
механизмдер
механизмдері
механизмдерін
механизмнің
механизмі
механизмін
механик
механика
механикаландыру
механикаландырылған
механикалық
механиканың
механикасы
мехико
мехмет
мец
мешіт
мешітке
мешітте
мешіттер
мешітті
мешіттің
мешіті
мешітінің
меңгерген
меңгерді
меңгеру
меңгеруге
меңгеруші
меңгерушісі
меңгерушісінің
меңгеріп
меңдіқара
меңзеи
меңлі
ми
миасс
мигел
мигель
миграция
мида
мидың
мии
микеланджело
микро
микроб
микробиология
микробиологиялық
микробтар
микронезия
микроорганизмдер
микроорганизмдердің
микрорегионының
микроскоп
микроскопиялық
микроскоппен
микроскоптың
микрофон
милан
милиция
миллер
миллиард
миллион
миллиондаған
миллионер
миллионнан
миллионға
миль
мин
мина
минас
минеи
минерал
минералдар
минералдардан
минералдарды
минералдардың
минералдары
минералды
минералдылығы
минералдық
минералдың
минералогия
минералы
мини
минималды
минимум
министр
министрдің
министрл
министрлер
министрлері
министрлігі
министрлігінде
министрлігіне
министрлігінің
министрлік
министрліктер
министрліктің
министрі
министрінің
миннесота
минск
минут
минутта
минуттаи
минуттан
минуттық
минутына
минутында
минутқа
минью
миокард
мир
мира
мирас
мисс
миссионерлік
миссис
миссисипи
миссия
миссиясы
миссури
мистельбах
мистер
мистикалық
митоз
митохондриялық
митчелл
миф
мифология
мифологиялық
мифологиясы
мифологиясында
мифологиясындағы
мифтік
михаи
михаил
михель
мичиган
мичурин
мишель
мишкин
миы
миында
миының
мия
миякин
миялы
миға
мк
мкб
мкм
мл
млн
млрд
мм
мму
мн
мне
мо
мобильді
мобильдік
модель
модельдер
модельдері
модельдеу
модельдік
модельдің
моделі
моделін
моделінің
модуль
модулі
мозамбик
мозель
мои
мокша
мокшыге
мокшыден
мокшыға
мол
мола
молаи
молда
молдавия
молдасынан
молдағалиев
молдова
молекула
молекулалар
молекулалардың
молекулалары
молекулаларының
молекулалы
молекулалық
молекуланың
молекуласы
молекуласында
молекуласының
молекулярлық
молибден
молизе
молла
молога
молодая
молотов
молшылық
молынан
молықбаи
моль
мольер
момент
моменті
момын
момынбаев
момышұлы
момышұлының
мон
монако
монарх
монархия
монархиялық
монастырь
монах
монбар
мондегу
монета
монеталар
монетаның
моника
мониторинг
мониторингі
монлюсон
моно
монография
монографиялар
монографиялық
монографияның
монографиясы
моноклиндік
монолог
монополия
монополияларды
монополиялық
монополияға
монпелье
монреаль
монтаж
монтаждау
монтана
монте
монтеш
монтиш
монтреи
монумент
монументті
монументі
монша
моншақ
моншақтар
монғол
моос
мор
мораль
моральдық
морбиан
морган
мордовия
море
мореи
морена
мореналық
морис
морозково
моррис
морт
мортань
мору
морфология
морфологиялық
морфологиясы
москва
москвада
мосфильм
мотоатқыштар
мотор
моторлы
мотоцикл
моцарт
моя
моғол
моғолдар
моғолстан
моғолстанның
моғолстанға
моңғ
моңғол
моңғолдар
моңғолдардың
моңғолдың
моңғолия
моңғолияда
моңғолиядағы
моңғолияның
моңғолияға
мпа
мрнқ
мс
мтс
му
муз
музеи
музыка
музыкада
музыкалы
музыкалық
музыкамен
музыкант
музыканттар
музыканы
музыканың
музыкасы
музыкасын
музыкасына
музыкасында
музыкасының
музыкаға
мулен
муллер
мультфильм
мун
муниципалды
муниципалдық
муниципалитет
муниципалитеттері
муниципалитеттің
муниципалитеті
муниципалитетінің
мунк
мур
мусин
муслим
муссондық
мутация
мухаммад
мухаммед
мш
мы
мыз
мыл
мылдар
мылтық
мылқау
мын
мына
мынада
мынадаи
мыналар
мыналарды
мынандаи
мынаны
мынау
мынаған
мыр
мырза
мырзакент
мырзаның
мырыш
мыс
мысал
мысалдар
мысалдары
мысалы
мысалға
мыстан
мысты
мыстың
мысыр
мысырда
мысырдағы
мысырдың
мысырлық
мысырға
мысығы
мысық
мышьяк
мығым
мықтап
мықты
мықын
мың
мыңбаев
мыңбаи
мыңбұлақ
мыңдаи
мыңдаған
мыңдық
мыңжылдық
мыңжылдықта
мыңжылдықтар
мыңжылдықтың
мыңнан
мыңы
мыңға
мьянма
мэдисон
мэи
мэн
мэри
мэриленд
мэрі
мэтт
мэттью
мюзикл
мюллер
мюнстер
мюнхен
міз
мін
мінген
мінгізіп
міндет
міндеттеме
міндеттемелер
міндеттемелерді
міндеттемелері
міндеттемелерін
міндеттер
міндеттерді
міндеттердің
міндеттері
міндеттерін
міндеттеріне
міндеттерінің
міндетті
міндеті
міндетін
міндетіне
міне
мінез
мінезді
мінезі
мінезін
мінсіз
мініп
мініс
міржақып
мқк
мүбарак
мүгедек
мүгедектер
мүдде
мүдделер
мүдделерді
мүдделері
мүдделерін
мүдделеріне
мүдделерінің
мүдделі
мүддесі
мүддесін
мүддесіне
мүи
мүк
мүлде
мүлдем
мүлкі
мүлкін
мүлкіне
мүлтіксіз
мүлік
мүлікке
мүлікті
мүліктік
мүліктің
мүмк
мүмкін
мүмкіндігі
мүмкіндігін
мүмкіндігіне
мүмкіндігінен
мүмкіндігінше
мүмкіндігінің
мүмкіндік
мүмкіндіктер
мүмкіндіктерді
мүмкіндіктері
мүмкіндіктерін
мүмкіндіктеріне
мүмкіндікті
мүмкіншілігі
мүмкіншілік
мүнаи
мүнда
мүндаи
мүрсеи
мүсін
мүсіндер
мүсіндері
мүсінді
мүсіндік
мүсіннің
мүсінші
мүсіншісі
мүсіні
мүсінін
мүсірепов
мүсіреповтің
мүше
мүшел
мүшелер
мүшелерге
мүшелерді
мүшелердің
мүшелері
мүшелерімен
мүшелерін
мүшелерінде
мүшелеріне
мүшелерінен
мүшелерінің
мүшелі
мүшелігіне
мүшелік
мүшелікке
мүшенің
мүшес
мүшесі
мүшесін
мүшесіне
мүшесінің
мүшәи
мұз
мұзды
мұздығы
мұздық
мұздықтар
мұздықтардың
мұздықтың
мұздың
мұзы
мұнаи
мұнан
мұнара
мұнаралар
мұнаралары
мұнаралы
мұнараның
мұнарасы
мұнарасының
мұнда
мұндаи
мұндағы
мұны
мұнымен
мұның
мұра
мұрагер
мұрагерлері
мұрагерлік
мұрагері
мұражаи
мұралар
мұраларды
мұралары
мұраларын
мұраны
мұрасы
мұрасын
мұрасының
мұрат
мұратбаев
мұраты
мұраға
мұрағат
мұрағатталған
мұрағаттар
мұрағаттық
мұрағаты
мұрағатында
мұртаза
мұртты
мұртшалары
мұрын
мұрындық
мұса
мұсабаев
мұсаның
мұсақұлов
мұстафа
мұстафин
мұсылман
мұсылмандар
мұсылмандарды
мұсылмандардың
мұсылмандары
мұсылмандарының
мұсылмандарға
мұсылмандық
мұсылманша
мұхамед
мұхамеджан
мұхамеджанов
мұхамеджановтың
мұхамедханов
мұхаммад
мұхаммед
мұхаммедтің
мұхит
мұхитта
мұхиттар
мұхиттардың
мұхиттағы
мұхиттық
мұхиттың
мұхиты
мұхитына
мұхитында
мұхитындағы
мұхитының
мұхитқа
мұхтар
мұғалжар
мұғалім
мұғалімдер
мұғалімдердің
мұғалімдері
мұғалімдік
мұғалімнің
мұғалімі
мұқан
мұқанов
мұқановтың
мұқағали
мұқият
мұқтаж
мұқыр
мұң
мұңаи
мұңды
мұңлы
мұңы
мұңын
мәдени
мәдениет
мәдениетке
мәдениеттану
мәдениетте
мәдениеттер
мәдениеттердің
мәдениетті
мәдениеттің
мәдениеті
мәдениетімен
мәдениетін
мәдениетінде
мәдениетіне
мәдениетінен
мәдениетінің
мәди
мәдина
мәж
мәжбүр
мәжбүрлеп
мәжбүрлеу
мәжбүрлі
мәжнүн
мәжіліс
мәжілісі
мәжілісінде
мәжілісінің
мәз
мәи
мәкрүһ
мәл
мәлік
мәлім
мәлімдеді
мәлімдеи
мәлімдеме
мәлімет
мәліметтер
мәліметтерге
мәліметтерді
мәліметтердің
мәліметтермен
мәліметтері
мәліметтерін
мәліметтеріне
мәліметті
мәліметі
мәмбет
мәмбетов
мәметова
мәміле
мән
мәнге
мәнде
мәндер
мәндері
мәндерін
мәндерінің
мәндес
мәнді
мәнерлеп
мәнерлі
мәнері
мәншүк
мәні
мәнін
мәнінде
мәніндегі
мәніне
мәнінен
мәнінің
мәнісі
мәнісінде
мәреге
мәриям
мәрмәр
мәрте
мәртебе
мәртебеге
мәртебелі
мәртебесі
мәртебесін
мәртебесіне
мәртөк
мәселе
мәселеге
мәселеде
мәселелер
мәселелерге
мәселелерді
мәселелердің
мәселелермен
мәселелері
мәселелерімен
мәселелерін
мәселелеріне
мәселелерінің
мәселен
мәселені
мәселенің
мәселесі
мәселесімен
мәселесін
мәселесінде
мәселесіне
мәселесінің
мәскеу
мәскеуге
мәскеуде
мәскеудегі
мәскеуден
мәскеудің
мәскеулік
мәслихат
мәслихаттың
мәслихатының
мәсіх
мәтел
мәтелдер
мәтін
мәтіндер
мәтіндерді
мәтіндері
мәтінді
мәтіндік
мәтіннің
мәтіні
мәтінін
мәшһүр
мәңгі
мәңгілік
мәңгілікке
мөлдір
мөлш
мөлшер
мөлшерге
мөлшерде
мөлшердегі
мөлшерден
мөлшерлеме
мөлшерлемесі
мөлшерлері
мөлшерлі
мөлшері
мөлшерімен
мөлшерін
мөлшерінде
мөлшеріне
мөлшерінен
мөлшерінің
мөр
мөңке
н
на
набұлақ
навигациялық
над
надан
надандық
надежда
нады
надым
назар
назарбаев
назарбаева
назарбаевтың
назаров
назарын
назарына
назарға
назым
наи
нала
наладағы
налады
налаи
налар
наласы
наласын
наласына
наласында
наласындағы
налатын
налды
налдыра
налдырады
налдыратын
налдырды
налдыру
налдыруға
налдырылды
налдырып
налдырған
налма
налмалы
налу
налуы
налуын
налуына
налым
налымда
налымдағы
налымның
налымы
налымын
налымына
налымында
налымының
налымға
налып
налыс
налыса
налысады
налысатын
налыста
налыстағы
налысты
налысу
налысуға
налысы
налысының
налысып
налысқа
налысқан
налған
нам
намаз
намазда
намазды
намаздың
намазы
намазын
намазға
наме
намыс
намысы
намысын
нан
нанның
нанси
наным
нанымдар
нанымды
нап
наполеон
нар
наразы
наразылығын
наразылық
нарбонн
народ
народа
народов
народы
нартаи
наруто
нары
нарын
нарынқол
нарығы
нарығын
нарығына
нарығында
нарығындағы
нарығының
нарық
нарықта
нарықтағы
нарықты
нарықтық
нарықтың
нарыққа
нас
наса
населения
насихат
насихаттады
насихаттаи
насихаттап
насихаттау
насихаттауға
наср
настольная
насы
насыр
насьональ
натады
наталья
нато
натрии
нату
натурал
натылған
натып
нау
науаи
наубаи
науды
наук
наука
науки
наумов
науру
наурыз
наурызбаи
наурызда
наурыздан
наурыздағы
наурыздың
наурызы
наурызым
наурызына
наурызынан
наурызында
наурызға
научно
наушы
наушылар
науы
науын
науына
науынан
науында
науындағы
науының
науырзым
науға
науқан
науқаны
науқас
науқастар
науқастарда
науқастарды
науқастардың
науқастарға
науқасты
науқастың
науқасқа
науқат
науқаттық
науқаттың
национальнои
национальныи
нацистік
начало
нашар
нашарлаи
нашарлап
нашарлауы
нашарлауына
ная
наған
нағашы
нағашысы
нағыз
нақ
нақты
нақтылаи
нақтылау
нақтылы
нақтырақ
нақыл
нберг
нбург
нг
нге
нд
нда
ндағы
нде
ндег
ндегі
ндер
нджерс
нді
не
неаполь
небары
небраска
небір
небәрі
невада
невер
невскии
нег
неге
негіз
негізге
негізгі
негізгілері
негізгісі
негізде
негіздегі
негіздеді
негіздеи
негізделген
негізделді
негізделеді
негізделіп
негіздер
негіздердің
негіздері
негіздерін
негіздеріне
негіздерінің
негіздеу
негізді
негіздік
негізсіз
негізі
негізін
негізінде
негізіндегі
негізіне
негізінен
нед
неде
неден
неи
нек
неке
некеге
некеде
некеден
некелік
некені
некесі
некті
нелеген
неледі
нелеи
неленген
неленеді
неленуі
нелеп
нелер
нелерді
нелердің
нелері
нелерін
нелеу
нелеуге
нельсон
нелі
неліктен
нем
немене
немере
немерелері
немересі
немес
немесе
неміс
немістер
немістердің
немістің
немісше
немқұраи
нен
ненец
ненецк
нені
ненің
неоген
неолит
неп
непал
нер
нерв
нерлер
нері
нес
несеп
несие
несиеге
несиелер
несиелеу
несиелік
несиенің
нестор
несі
несін
несінде
несіне
несінің
нет
нетақы
нетке
неткер
неткерлік
неткерлікке
неу
нефтеюганск
нефшато
неше
неғүрлым
неғұрлым
ни
нива
нигер
нигерия
нид
нидер
нидерланд
нидерландтық
нидерланды
ниет
ниетпен
ниетті
ниеті
ниетімен
ниетін
нижегород
нижнии
низами
ник
никарагуа
никель
никита
никола
николаев
николаевич
николаевка
николаевна
николаи
николас
николь
нил
ним
нина
нинген
ниобии
них
ница
ницше
ницшенің
нияз
ниязбаева
нквд
нкирхен
нланд
нм
нмен
нн
нның
ннің
но
нобаи
нобель
нобельдік
нов
нова
новара
новая
новгород
новелла
ново
новобогат
новое
новои
новоишим
новокузнецк
новороссии
новосибирск
новости
новосібір
новые
новыи
ное
нозои
нои
нолла
номиналды
номиналы
номинанты
номинация
номинациясы
номинациясын
номинациясында
нонтрон
нор
норберт
норв
норвег
норвегия
норвегиялық
норвегияның
норма
нормалар
нормаларды
нормалардың
нормалары
нормаларын
нормаларының
норман
нормандия
нормасы
нормативті
нормативтік
норте
норти
нос
нота
нотаға
ноября
ноян
ноғаи
ноқта
нрих
нс
нт
ну
нуклеин
нур
нфурт
нхард
нц
нш
нше
нштеи
нштрассе
нші
ны
ныи
нымалы
нымалылар
нын
нына
нында
нының
нысан
нысана
нысаналарды
нысаналы
нысананы
нысананың
нысанасы
нысанаға
нысанбаев
нысанбаи
нысанда
нысандар
нысандарды
нысандардың
нысандары
нысандарын
нысандарына
нысандарының
нысанды
нысанның
нысаны
нысанына
нысанында
нысанының
нысанға
нышандары
нышаны
нығаи
нығмет
нық
ның
ньевр
нью
ньюкасл
ньютон
ньютонның
нюрнберг
нязепетровск
ні
ніл
нінде
нінің
нің
нүкте
нүктеге
нүктеде
нүктеден
нүктелер
нүктелердің
нүктелері
нүктелерін
нүктелерінің
нүктелі
нүктелік
нүктені
нүктенің
нүктесі
нүктесін
нүктесінде
нүктесіндегі
нүктесіне
нүктесінен
нүктесінің
нүкіс
нұр
нұра
нұралы
нұрахметов
нұржан
нұрлан
нұрлы
нұрпеи
нұрсұлтан
нұры
нұрғали
нұрғалиев
нұрғиса
нұсқа
нұсқабаи
нұсқада
нұсқаи
нұсқалар
нұсқалары
нұсқаларын
нұсқаларында
нұсқаларының
нұсқаны
нұсқаның
нұсқасы
нұсқасын
нұсқасына
нұсқасында
нұсқасының
нұсқау
нұсқаулар
нұсқаушы
нұсқаушысы
нұсқауы
нұсқауымен
нұх
нұқсан
нәжіс
нәзік
нәпіл
нәр
нәресте
нәрестені
нәрестенің
нәрлі
нәрсе
нәрсеге
нәрседен
нәрселер
нәрселерді
нәрселердің
нәрсені
нәрсенің
нәруыз
нәсіл
нәсілді
нәсілдік
нәсілдің
нәсіліне
нәтиже
нәтижеге
нәтижелер
нәтижелерге
нәтижелерді
нәтижелері
нәтижелерін
нәтижелеріне
нәтижелі
нәтижені
нәтижес
нәтижесі
нәтижесіз
нәтижесін
нәтижесінде
нәтижесіне
нәтижесінен
нөл
нөлге
нөлден
нөлдік
нөмір
нөмірге
нөмірлері
нөмірлі
нөмірі
нөсер
о
оак
оар
оахим
об
оба
обадан
обаев
обалар
обалардың
обалары
обама
обаның
обасы
обаған
обкомының
обл
области
область
облигациялар
облыс
облыста
облыстар
облыстарда
облыстардың
облыстары
облыстарымен
облыстарын
облыстарына
облыстарында
облыстарындағы
облыстарының
облыстағы
облыстық
облыстың
облысы
облысымен
облысын
облысына
облысынан
облысында
облысындағы
облысының
облысқа
образ
образдар
образды
образование
образования
образы
образын
обсерватория
общеи
общероссии
общества
объект
объективті
объективтік
объектов
объекті
объектіге
объектілер
объектілерді
объектілердің
объектілері
объектілерін
объектілеріне
объектілерінің
объектіні
объектінің
объектісі
объектісінің
обь
обьвасюган
обьвах
обьке
обюссон
ова
овернь
огаи
огпу
од
ода
одан
одағаи
одағы
одағын
одағына
одағында
одағының
одақ
одақтар
одақтас
одақтастар
одақтасы
одақтасып
одақтық
одақтың
одаққа
одер
одесса
один
ож
оз
озат
озаты
озды
озеро
озеф
озон
озып
озық
озған
ои
ок
ока
окато
океания
оклахома
округ
округке
округте
округтегі
округтер
округтерге
округтері
округтік
округтің
округы
округының
округі
округінде
округіндегі
округіне
округінен
округінің
оксерр
оксиді
оксфорд
октаваның
октвиль
октябрь
октября
оку
окулық
ол
олаи
олар
оларда
олардан
олардағы
оларды
олардын
олардың
олармен
оларға
олбани
олд
олег
олжа
олжабаи
олжас
оливеи
оливер
олимп
олимпиада
олимпиадада
олимпиадалық
олимпиаданың
олимпиадасында
олимпиадасының
олимпиадаға
олимпик
олимпия
олимпиялық
олорон
оль
ольга
ом
оман
омар
омаров
омарова
омарханұлы
омарұлы
омбы
омбыда
омеи
омер
омыртқа
омыртқалы
омыртқалылар
омыртқасыз
омыртқасыздар
омь
он
она
онан
онвиль
онда
ондаи
ондатр
ондаған
ондағы
ондық
онега
онегин
онжылдығының
онжылдықта
они
онкология
онкологиялық
онкүндігінде
онлаи
онна
оннан
ономастика
онсыз
онтарио
онша
оншақты
оны
онымен
онын
оныншы
оның
оо
оон
ооо
оп
опасыздық
опат
опера
опералық
операның
операсы
операсын
операсында
операсының
оперативті
оперативтік
оператор
оператордың
операторлар
операторлары
операторы
операция
операциядан
операциялар
операцияларды
операциялардың
операциялары
операцияларын
операцияларының
операцияларға
операциялық
операцияны
операцияның
операциясы
операциясын
описание
оппозиция
оппозициялық
оптика
оптикалық
оптимистік
опыт
ор
ораз
ораза
оразбаи
ораи
орал
орала
оралады
оралда
оралдағы
оралды
оралдың
оралу
оралуы
оралуға
оралхан
оралып
оралған
оралғаннан
орам
орама
орамал
орамжапырақ
орамы
орап
орасан
орақ
орбита
орбиталық
орбитаға
орв
орган
органдар
органдарда
органдарды
органдардың
органдары
органдарымен
органдарын
органдарына
органдарында
органдарының
органдарға
организм
организмге
организмде
организмдегі
организмдер
организмдерге
организмдерде
организмдерді
организмдердің
организмді
организмнен
организмнің
организмі
организмінде
организміне
организмінің
органик
органикалық
органның
органы
органының
орда
ордабасы
ордада
ордадағы
орданы
орданың
ордасы
ордасын
ордасына
ордасында
ордасындағы
ордасының
ордаға
орден
ордендермен
ордендері
ордендерімен
ордендерінің
орденді
орденмен
ордені
орденімен
орденінің
орджоникидзе
ордовик
оре
орегон
орел
оренбург
оренсе
оризонти
орион
ористано
орияк
орк
оркестр
оркестрге
оркестрдің
оркестрлік
оркестрі
оркестрінің
оркте
орктегі
орла
орлов
орловка
орман
орманда
ормандар
ормандарда
ормандарды
ормандардың
ормандары
ормандарында
орманды
орманның
орманы
орманға
ормонд
орн
орнады
орнаи
орналасады
орналасатын
орналаскан
орналасса
орналасты
орналастырады
орналастырды
орналастыру
орналастыруға
орналастырылады
орналастырылды
орналастырылған
орналастырып
орналастырған
орналасу
орналасуы
орналасуын
орналасуына
орналасып
орналасқан
орналасқандықтан
орнатады
орнатты
орнату
орнатуды
орнатуға
орнатылады
орнатылатын
орнатылды
орнатылып
орнатылған
орнатып
орнатқан
орнаған
орнағаннан
орны
орнымен
орнын
орнына
орнынан
орнында
орнындағы
орнының
орнығып
орнықты
орныққан
орск
орт
орта
ортаазиялық
ортада
ортадан
ортадағы
орталау
орталығы
орталығымен
орталығын
орталығына
орталығынан
орталығында
орталығындағы
орталығының
орталық
орталықта
орталықтан
орталықтандырылған
орталықтар
орталықтардың
орталықтары
орталықтарымен
орталықтарын
орталықтарына
орталықтарында
орталықтарының
орталықтың
орталыққа
ортамен
ортан
ортаны
ортаның
ортасы
ортасын
ортасына
ортасынан
ортасында
ортасындағы
ортасының
орташа
ортаға
ортағасырлық
ортақ
ортаққорда
ортаңғы
орфографиялық
орхон
оры
орын
орынбаи
орынбасарлары
орынбасары
орынбасарының
орынбор
орынборда
орынбордағы
орынборға
орында
орындады
орындаи
орындалады
орындалатын
орындалды
орындалмаи
орындалу
орындалуы
орындалуын
орындалуына
орындалып
орындалған
орындап
орындар
орындарда
орындарды
орындардың
орындары
орындарымен
орындарын
орындарына
орындарынан
орындарында
орындарындағы
орындарының
орындарға
орындау
орындауда
орындаудан
орындауды
орындаушы
орындаушылар
орындаушылардың
орындаушылық
орындаушысы
орындауы
орындауында
орындауындағы
орындауға
орындаған
орындағы
орынды
орындық
орындықтар
орыннан
орынның
орынсыз
орыны
орынға
орыс
орыстар
орыстардың
орыстың
орысша
ос
осака
осакаров
осакаровка
осал
осетин
осетия
оскар
осло
осман
османлы
османлылар
основные
основы
особенности
оспан
оспанов
остин
островскии
осы
осыдан
осылаи
осылар
осылардың
осымен
осынау
осында
осындаи
осындағы
осыны
осының
осыған
ось
осьті
осьтік
осі
осіне
осінен
осінің
от
ота
отан
отанды
отандық
отаны
отанын
отанына
отанға
отар
отарлау
отарлық
отаршыл
отаршылдық
отары
отау
отбасы
отбасылар
отбасылардың
отбасылық
отбасымен
отбасын
отбасына
отбасынан
отбасында
отбасындағы
отбасының
отбасысында
отен
отечественнои
отпен
отряд
отрядтары
отряды
отрядына
отрядының
отрядқа
отставкаға
отта
оттан
оттегі
оттегімен
оттегін
оттегінің
оттек
оттекпен
оттекті
оттектің
отто
отты
оттың
оты
отыз
отын
отынды
отынның
отыр
отыра
отырады
отырар
отыратын
отырды
отырмыз
отырса
отыру
отыруы
отыруға
отырып
отырысы
отырысында
отырықшы
отырықшыландыру
отырықшылық
отырықшылыққа
отырған
отырғанда
отырғаны
отырғанын
отырғызады
отырғызды
отырғызу
отырғызылған
отырғызып
отқа
оуэн
оф
офицер
офицерлер
офицері
официальныи
офк
офф
охан
оханнес
очерк
очерки
очерктер
очерктері
ош
оша
ошағы
ошақ
ошақтары
ошақты
оэште
ою
оюлы
оған
оғаш
оғы
оғыз
оғыздар
оғыздардың
оқ
оқжетпес
оқи
оқиды
оқитын
оқиға
оқиғадан
оқиғалар
оқиғалардан
оқиғаларды
оқиғалардың
оқиғалары
оқиғаларын
оқиғаларға
оқиғалы
оқиғаны
оқиғаның
оқиғасы
оқиғаға
оқо
оқтын
оқтың
оқу
оқудан
оқуды
оқудың
оқулығы
оқулық
оқулықтар
оқулықтардың
оқулықтары
оқулықтың
оқушы
оқушылар
оқушыларды
оқушылардың
оқушылары
оқушыларына
оқушыларының
оқушыларға
оқушының
оқушысы
оқуы
оқуын
оқуға
оқшау
оқшауланған
оқшаулау
оқы
оқыды
оқылады
оқылатын
оқылуы
оқылған
оқымысты
оқып
оқырман
оқырмандар
оқырмандардың
оқырмандарға
оқырманның
оқырманға
оқыс
оқытатын
оқыту
оқытуды
оқытудың
оқытушы
оқытушылар
оқытушылары
оқытушылық
оқытушысы
оқытуға
оқытылады
оқытып
оқыған
оқығанда
оққа
оң
оңаи
оңалту
оңаша
оңды
оңт
оңтаи
оңтүст
оңтүстігі
оңтүстігін
оңтүстігінде
оңтүстігіндегі
оңтүстігіне
оңтүстігінен
оңтүстік
оңтүстікке
оңтүстікте
оңтүстіктегі
оңтүстіктен
оңшыл
оңға
п
па
пабло
павел
павия
павлов
павлович
павловна
павловск
павлодар
павлодарда
падова
пазарджик
паи
пак
палар
палардан
паларды
палардың
палармен
палары
паларымен
паларын
паларына
паларынан
паларының
паларға
палата
палаталы
палатасы
палатасынан
палатасының
палау
палеоген
палеозои
палеолит
палеонтологиялық
палермо
палестина
палмеи
палуан
палық
пальма
пальмасы
памир
памяти
памятники
пан
пана
паналаи
панама
панда
панфилов
паның
паоло
папа
папасы
папуа
пар
пара
парагваи
парадигма
паразит
паразиттер
паразитті
паразиттік
параи
параиба
параллель
параллельді
параметр
параметрлер
параметрлері
параметрлерін
парасат
парасатты
парафин
парафинді
парақ
парақшасы
пари
париж
парижге
парижде
париждегі
париждің
парк
паркер
паркі
паркінде
парламент
парламентке
парламенттік
парламенттің
парламенті
парламентіне
парламентінің
парма
парсонс
парсы
парсылар
парсыша
партизан
партизандар
партизандық
партии
партия
партиядан
партиялар
партияларды
партиялардың
партиялары
партиялық
партияны
партияның
партиясы
партиясын
партиясына
партиясынан
партиясының
партияға
парыз
парызы
пас
паскаль
пассивті
пасха
пасы
пасына
пасынан
пасының
пат
патент
патенті
патология
патологиялық
патриархалдық
патрик
патриот
патриотизм
патриоттық
патты
патша
патшаи
патшалар
патшалардың
патшалары
патшаларының
патшалығы
патшалығын
патшалығына
патшалығының
патшалық
патшалықтың
патшаны
патшаның
патшасы
патшасының
патшаға
паты
патында
патының
паулиста
паулу
пауль
паш
паша
паюта
пақ
паң
пе
пегас
пед
педагог
педагогика
педагогикалық
педагогикасы
педагогты
педагогы
педиатрия
педогогикалық
педро
педру
пеи
пекин
пеле
пен
пенальти
пенальтилер
пенде
пенза
пензен
пенс
пенсильвания
пер
первая
первомаи
первыи
перде
перевод
переи
переме
перепись
перзент
перзенті
периге
период
периодты
периодтық
периоды
перифериялық
пермь
пернамбуку
перне
пернесі
пернетақта
перник
перовск
перовскии
перпендикуляр
перпиньян
персеи
перси
перт
перу
перш
пері
періште
періштелер
песни
песня
петер
петербург
петербургке
петербургте
петербургтегі
петр
петрдің
петров
петрович
петровна
петроград
петрография
петропавл
петрушка
печора
печорск
пеш
пешке
пештің
пеші
пи
пианист
пиауи
пигменттер
пиза
пинега
пиньял
пионер
пионері
пирамида
пиренеи
пирит
письма
питер
пифагор
пияз
пиязды
плазма
плазмалық
план
пландағы
планета
планеталар
планеталардың
планеталық
планетаның
планетарлық
планк
пластикалық
пластинка
пластмасса
пластмассадан
плата
платина
платон
платонның
платформа
платформалар
платформалық
платформаның
платформасы
платформасының
плацдармды
плевен
плеи
пловдив
плюс
пм
пневматикалық
пневмония
по
победа
повестер
повестері
повесть
повесі
повесін
повуа
под
подполковник
поезд
позиция
позициясы
позициясын
позициясында
пои
покровка
пол
поле
полеводству
полигон
полигоны
полиграфистері
полиграфия
полиграфиялық
полимер
полимерлер
полимерлі
полиметалл
полина
политехникалық
политика
полицеи
полиция
полициясы
полиэтилен
полк
полковнигі
полковник
полктің
полкі
полкінде
полкінің
полтава
поль
польша
польшада
польшадағы
польшаның
польшаға
полюс
полюсті
полюстік
поляк
поляктар
поляна
поляр
полярлы
полярлық
померания
понте
понти
понтуаз
поп
попов
популяция
популяцияның
порошенко
порт
портал
порталегре
порталы
портрет
портреттер
портреттері
портреттік
портреті
порттары
портты
порту
португал
португалия
португалиядағы
португалиялық
португалияның
порты
поршеньді
посеи
поселкесі
после
пособие
пост
посттан
посты
постына
постынан
постықа
постқа
потанин
потенца
потенциал
потенциалды
потенциалдық
потенциалы
потигуар
поттер
почта
пошта
пошталық
поштасы
поэзия
поэзиялық
поэзияның
поэзиясы
поэзиясын
поэзиясына
поэзиясында
поэзиясындағы
поэзиясының
поэма
поэмалар
поэмалары
поэмасы
поэмасын
поэмасында
поэтика
поэтикалық
пп
правда
правительства
право
православ
православие
православиелік
прага
прад
праи
практика
практикада
практикалық
практикасы
практикасында
пре
председателі
президент
президента
президенти
президентке
президенттігіне
президенттік
президенттікке
президенттің
президенті
президентіне
президентінің
президиума
президиумы
президиумының
премиясы
премиясының
премьер
премьера
премьерасы
препарат
препараттар
препараттарды
пресервед
пресновка
пресс
прету
префектурасының
при
прибор
приборлар
призма
приморье
принстон
принц
принцип
принциптер
принциптері
принциптерін
принциптеріне
принципті
принципі
принципін
принципіне
присвоении
про
проблема
проблемалар
проблемаларды
проблемалары
проблемаларын
проблемалық
проблемасы
проблемы
провен
проверено
провинция
провинциялар
провинциялық
провинцияның
провинциясы
провинциясына
провинциясында
провинциясындағы
провинциясының
программа
программалар
программаларды
программалау
программалық
программаны
программаның
программасы
прогресс
прогрессивті
прогресшіл
продюсер
продюсерлік
продюсері
продюссер
проект
проекциясы
проза
прозалық
прокуратура
прокуратурасының
прокурор
прокурордың
прокуроры
прокурорының
пролетариат
пролювии
прометеи
проня
пропан
пропорционал
пропорционалды
прорва
проректор
проректоры
просвещение
простор
протеин
протерозои
протестант
протестанттар
протестанттық
против
протон
протондар
прототипі
проф
професор
профессор
профессорлар
профессорлық
профессоры
профилактикалық
профиль
профилі
процент
процес
процеске
процесс
процессор
процессордың
процессі
процесте
процестер
процестерге
процестерде
процестерді
процестердің
процестері
процестерін
процестеріне
процестерінің
процесті
процестің
процесі
процесін
процесінде
процесіне
процесінің
пруденти
пруссия
прюм
пс
псв
психикалық
психолог
психология
психологияда
психологиялық
психологияның
психологиясы
психологиясын
психологиясының
псков
пт
птолемеи
публицист
публицистика
публицистикалық
пугачев
пулемет
пульмонология
пункт
пункттер
пункттері
пункті
пур
пусан
пути
путин
путиннің
путь
пушкин
пушкиннің
пуэрто
пфальц
пциг
пышақ
пышақпен
пышақтар
пышма
пьемонт
пьер
пьерр
пьеса
пьесалар
пьесалары
пьесаларын
пьесаның
пьесасы
пьесасын
пьесасында
пьетро
пюи
пі
пікір
пікірге
пікірде
пікірді
пікірдің
пікірлер
пікірлерді
пікірлердің
пікірлері
пікірлерін
пікірсаи
пікірталас
пікірталастар
пікірі
пікірін
пікіріне
пікірінше
піл
пін
пінде
пір
пірі
піседі
пісетін
піскен
пісіп
пісірген
пісіреді
пісіру
пісіруге
пісірілген
пісіріледі
пісіріп
пішен
пішімі
пішін
пішінге
пішінде
пішіндегі
пішіндер
пішіндері
пішіндерінің
пішіндес
пішінді
пішіні
пішінін
пішінінде
пішініне
пішінінің
пүаж
пұт
пұтқа
пәк
пәкістан
пәкістанда
пәкістанның
пәле
пән
пәндер
пәндерді
пәндердің
пәндері
пәндерінің
пәндік
пәні
пәнін
пәнінен
пәнінің
пәрменді
пәтер
пәтері
р
ра
рабат
раббым
рада
радиалды
радиация
радиациялық
радиацияның
радии
радикалды
радио
радиоактивті
радиоактивтік
радиобаи
радиология
радиолокациялық
радиосы
радиосында
радиосының
радиотехника
радиотехникалық
радиохабар
радиоэлектрондық
радиус
радиусы
радлов
развитие
развития
разград
разряд
разрядты
разы
раи
рак
ракета
ракеталар
ракеталық
ракетаны
ракетаның
ракетка
ральф
рам
рама
рамазан
рамбуе
рамхана
рамханалар
рамы
ран
рап
раритет
рас
рассвет
рассел
рассказы
рассоха
растады
растаи
растау
расы
расында
рат
раткер
раткерлер
раткерлері
раткерлерінің
раткері
раттар
раттардың
ратты
раттың
раты
ратқа
рау
рауан
рауль
раунд
раундта
раушан
рауық
рафаэль
рахат
рахимбекова
рахимов
рахман
рахмет
рационал
рационалды
раш
рашид
рашиди
рақ
рақты
рақымшылық
раң
рг
рге
рген
рд
рде
ре
реактивті
реактивтік
реактор
реакция
реакциялар
реакцияларды
реакциялардың
реакциялары
реакциялық
реакцияны
реакцияның
реакциясы
реакциясын
реакциясының
реакцияға
реал
реализм
реалистік
реаль
рев
ревда
революционер
революция
революциядан
революциялық
революцияның
революциясы
революциясына
революциясынан
революциясының
революцияшыл
революцияға
регби
реген
регионына
регионында
регі
ред
редак
редактор
редактордың
редакторлық
редакторы
редакторының
редакциеи
редакция
редакциялық
редакциясы
редакциясын
редакциясында
редакциясының
реджо
реестрі
реестріндегі
реж
режим
режимде
режимі
режимін
режимінде
режиміне
режиссе
режиссер
режиссердің
режиссерлер
режиссерлік
режиссеры
режиссері
режім
режімі
режімін
резерв
резервтік
резеңке
резиденциясы
резина
резонанс
резонанстық
реи
рек
река
рекорд
рекордтар
рекордтық
рекордын
рекреациялық
ректер
ректор
ректоры
ректің
релиз
реликт
рельеф
рельске
рем
рен
ренген
ренді
рене
ренеді
ренессанс
ренн
рента
рентген
рентгендік
рену
ренуге
реншікті
реніп
реп
репертуарынан
репертуарында
репортаж
рес
ресе
ресеи
ресми
респ
республик
республика
республикада
республикадағы
республикалар
республикалардың
республикалары
республикаларының
республикалық
республикамызда
республикамыздың
республиканы
республиканың
республикасы
республикасымен
республикасын
республикасына
республикасында
республикасындағы
республикасының
республикаға
республики
ресурс
ресурстар
ресурстарды
ресурстардың
ресурстары
ресурстарын
ресурстарының
ресурстарға
ресурсы
рет
рете
ретеді
рететін
ретке
реткен
ретпен
ретсіз
ретте
реттегіш
реттеи
реттелген
реттеледі
реттелетін
реттелу
реттеліп
реттен
реттеп
реттерде
реттеу
реттеуге
реттеуді
реттеудің
реттеуші
ретті
реттік
рету
ретуге
реті
ретілген
ретімен
ретін
ретінде
ретіндегі
ретіне
ретіп
реу
реуі
реуік
реуіш
реферат
референдум
рефлекс
рефлекстер
реформа
реформалар
реформаларды
реформалау
реформасы
реформасын
рецепторлар
рецессивті
речка
речь
рең
реңді
реңі
ри
риа
рибатежу
рибеи
ривер
рига
рид
риддер
риза
рик
рика
рикардо
рико
рим
римге
римде
римдегі
римдік
римдіктер
римдіктердің
римнің
римскии
ринг
рио
риоха
рис
рита
ритм
риу
рихард
ричард
рия
рк
ркп
ркфср
рл
рлер
рмк
рн
рная
рнеше
рныи
рнқ
ро
роберт
роберто
робин
робот
роботтар
род
роджер
родина
родригес
рождество
роза
рои
рок
роланд
роль
рольдері
ролі
ролін
рома
роман
романда
романдар
романдары
романдарын
романның
романов
романтизм
романтикалық
романы
романын
романында
романының
романья
ромб
ромбылық
ромео
рон
рональд
рондония
рорбах
росмэн
росс
россии
россия
ростов
рот
рота
ротасы
ротенбург
роуз
роциттер
рр
рсджп
рсфср
рт
ртрк
ртұтас
ру
руан
руанда
рубен
рубин
рубинштеи
рубль
руд
руда
рудныи
рудольф
рудың
рузвельт
рулар
рулардың
рулары
руларының
рулық
рум
румын
румыния
румынияның
руна
рус
русе
руслан
руссильон
русская
русскии
русско
русского
русскои
руссо
русь
рут
рух
рухани
руханият
рухты
рухтың
рухы
рухын
рухына
рухында
руш
руы
руынан
руының
руға
рф
ры
рыбинск
рылды
рылып
рылған
рын
рынок
рыноктық
рысқалиева
рысқұлов
рыцарь
рығы
рығымен
рығын
рығына
рығының
рық
рықтар
рықтары
рықты
рықтың
рықша
рэи
рэп
рэпер
рядовому
рязань
рі
рік
рүстем
рұқсат
рұқсатсыз
рұқсатымен
рәсім
рәсімдер
рәсімі
рәсімін
рәсімінде
рәсіміне
рөл
рөлге
рөлде
рөлдер
рөлдерде
рөлдерді
рөлдердің
рөлдері
рөлдерін
рөлді
рөлі
рөлімен
рөлін
рөлінде
рөліне
рөлінің
с
са
саадет
саар
саарбург
саба
сабан
сабағы
сабағын
сабағына
сабағынан
сабағында
сабағының
сабақ
сабақтар
сабақтары
сабақтарын
сабақтас
сабақты
сабақтың
сабаққа
сабы
сабын
сабының
сабыр
сабырлы
саванна
саверн
савои
садақ
садақа
саддам
садыр
садырова
садық
садықов
саз
сазан
сазгер
саздан
саздар
саздақты
сазды
сазы
саи
саид
сакмара
саксония
сал
сала
салааралық
салада
саладағы
салады
салалар
салаларда
салалардағы
салалардың
салалары
салаларымен
салаларын
салаларына
салаларынан
салаларында
салаларындағы
салаларының
салаларға
салалас
салалы
салалық
саламанка
саланы
саланың
салар
саласы
саласын
саласына
саласынан
саласында
саласындағы
саласының
салат
салатын
салауат
салауатты
салаға
салбырап
салвадор
салдар
салдары
салдарын
салдарынан
салды
салдырып
салдырған
сален
салерно
салехард
салжұқ
салих
салм
салма
салмаи
салмағы
салмағын
салмағына
салмағының
салмақ
салмақта
салмақтағы
салмақты
салса
салт
салтанат
салтанатты
салтанаты
салтанатына
салтанатында
салты
салтын
салтына
салтында
салтының
салу
салуда
салуды
салудың
салумен
салушы
салушылар
салушылардың
салуы
салуға
салым
салына
салынады
салынатын
салынбаи
салынды
салындыдағы
салыну
салынуы
салынуына
салынып
салынған
салып
салысты
салыстыра
салыстырады
салыстырмалы
салыстырмалылық
салыстырмалық
салыстыру
салыстыруға
салыстырып
салыстырғанда
салыстырғандағы
салысымен
салысқан
салығы
салығын
салық
салықтан
салықтар
салықтарды
салықтардың
салықты
салықтық
салықтың
сальвадор
салған
салғанда
салқын
салқындату
сам
самаи
самал
самани
самар
самара
самарқан
самарқанд
самбо
самур
самураи
самырсын
самұрық
сан
сана
санада
санады
санаи
саналады
саналатын
саналды
саналмаи
саналы
саналып
саналған
сананы
сананың
санап
санасы
санасын
санасына
санасында
санасының
санат
санатории
санаттағы
санатты
санаты
санатына
санатында
санатқа
санау
санаулы
санауға
санаға
санаған
санағанда
санағы
санағының
санақ
санда
сандар
сандарды
сандардың
сандары
сандарының
сандуғаш
санды
сандық
сандықтау
санжар
санитариялық
санитарлық
санкт
санмен
санның
санскрит
сансыз
сант
санта
сантана
сантарен
сантиметр
сантиметрге
санто
сантос
санту
сантьяго
саны
санымен
санын
санына
санынан
санында
санының
санға
сап
сапа
сапалы
сапалық
сапар
сапарда
сапармен
сапары
сапарын
сапарында
сапарға
сапасы
сапасын
сапасына
сапасының
сапақ
сапты
сапына
сапында
сапындағы
сапқа
сар
сара
сарагоса
сараи
саралаи
сараланады
саралап
саралау
саран
сараптама
сараптамалық
сараптау
сарапшы
сарапшылар
сарапшысы
сарапқа
саратов
сараң
сарбаз
сарбаздар
сарбаздары
сардар
сардиния
саржан
сарла
сармат
саррбур
сарргемин
сарт
сары
сарыарқа
сарыарқаның
сарыағаш
сарыбаев
сарыбаи
сарыбұлақ
сарыкөл
сарымсақ
сарын
сарыны
сарыоба
сарысу
сарытау
сарытоғаи
сарышаян
сарышұнақ
сарықамыс
сарыүи
сарыөзек
сарыөзен
сарғаи
сарғылт
сарғыш
сарқан
сарқырама
сарқырамасы
сасық
сатады
сатаи
сататын
сатира
сатиралық
сатпаев
саттаров
сатты
саттық
сату
сатудан
сатумен
сатурн
сатушы
сатушылар
сатуға
саты
сатыбалды
сатыда
сатыдан
сатыдағы
сатылады
сатылары
сатыларында
сатылатын
сатылды
сатылы
сатылымға
сатылып
сатылған
сатып
сатысы
сатысын
сатысына
сатысында
сатыға
сатқан
сау
сауал
сауалнама
сауат
сауатсыздықты
сауатты
сауаттылық
сауатын
сауд
сауда
саудагер
саудагерлер
саудада
саудамен
сауданы
сауданың
саудасы
саудаға
саулық
саумалкөл
сауран
сауранбаев
саусағы
саусақ
саусақпен
саусақтары
саусақтарының
саусақты
саусақтың
сауын
сауыншы
сауыр
сауыт
сауытты
сауыты
сауық
сауықтыру
сафа
саха
сахаба
сахабалар
сахалин
сахара
сахараның
сахиб
сахих
сахна
сахнада
сахналық
сахнасына
сахнасында
сахнаға
саша
сая
саябағы
саябағында
саябақ
саябақта
саябақтар
саябақтың
саяды
саяжаи
саяз
саян
саясат
саясаткер
саясаткерлер
саясаткері
саясатпен
саясатта
саясаттану
саясаттанушы
саясаттағы
саясатты
саясаттың
саясаты
саясатын
саясатына
саясатында
саясатының
саясатқа
саяси
саят
саятшылық
саяхат
саяхатшы
саяхатшылар
саяхатшысы
саяхаты
саяхатқа
саяқ
сағ
саға
саған
сағасы
сағасына
сағасынан
сағасында
сағасындағы
сағат
сағатта
сағаттан
сағаттар
сағаттық
сағаттың
сағаты
сағатына
сағатқа
сағақтары
сағақты
сағыз
сағындықов
сағыныш
сақ
сақа
сақал
сақина
сақиналар
сақиналы
сақинасы
сақтады
сақтаи
сақталады
сақталатын
сақталды
сақталмаған
сақталу
сақталуда
сақталуы
сақталуын
сақталуына
сақталып
сақталған
сақтандыру
сақтандырудың
сақтану
сақтап
сақтар
сақтардың
сақтау
сақтауда
сақтауды
сақтаудың
сақтаулы
сақтаушы
сақтауы
сақтауға
сақтаған
сақтық
саң
саңлақ
саңылау
саңылаулары
саңылауы
саңырау
саңырауқұлақ
саңырауқұлақтар
саңырауқұлақтардың
сб
сбол
сборник
свердлов
свердловск
светлана
свифт
свияга
свои
связи
се
сеара
себастьян
себебі
себебін
себебінен
себеді
себеп
себепкер
себепсіз
себептен
себептер
себептерге
себептерден
себептердің
себептермен
себептері
себептерін
себептерінің
себепті
себепші
себет
себу
севастополь
северная
северныи
севилья
сегіз
сегізінші
сез
сезген
сезгіш
сезеді
сезу
сезіледі
сезім
сезімге
сезімдер
сезімдері
сезімдерін
сезімді
сезімдік
сезіммен
сезімнің
сезімтал
сезімталдығы
сезімталдық
сезімі
сезімін
сезіміне
сезімінің
сезіне
сезінеді
сезіну
сезініп
сезіп
сеи
сек
секрет
секретары
секреция
секс
сексен
сексеуіл
сексуалды
сектор
секторы
секторын
секторында
секторының
секунд
секундта
секундына
секундқа
секциясы
секциясының
секілді
секіру
секіріп
сел
селекция
селекциялық
селен
селеста
селеу
село
селолық
селосы
селосында
селосының
семантикалық
сембаев
семе
семеи
семен
семенов
семенович
семинар
семинарлар
семит
семсер
семіз
сен
сена
сенат
сенатов
сенатор
сенаттың
сенаты
сенатының
сенбаев
сенбаи
сенбеи
сенбі
сенбіде
сенген
сендер
сендерге
сендерді
сендердің
сенді
сенегал
сенеді
сенемін
сенен
сенетін
сенов
сенова
сенсорлық
сент
сентября
сену
сенушілер
сенушілердің
сені
сенім
сенімге
сенімдер
сенімдері
сенімді
сенімділігі
сенімділік
сеніммен
сенімнің
сенімсіз
сенімсіздік
сенімі
сенімін
сеніміне
сеніп
сенің
сенғалиев
септігін
септік
сер
серафим
серб
сербия
сербияның
сербтер
сервер
сервис
сергеев
сергеевич
сергеи
сергек
сержант
сериал
сериалда
сериалдың
сериалында
сериалындағы
сериалының
серия
сериялы
сериялық
сериясы
сериясын
сериясына
сериясында
сериясындағы
сериясының
серке
серологиялық
серпіліс
серпімді
серпімділік
серпін
серпінді
серра
серрания
серт
сертан
сертификат
сертификаттау
серхио
сері
серігі
серік
серікбаи
серіктері
серіктерінің
серіктес
серіктестері
серіктестігі
серіктестік
серіктестіктер
серіктесі
серінің
серіппе
серіппелі
сессиясы
сессиясында
сетубал
сеул
сеуіп
сеңгір
си
сибири
сигнал
сигналдар
сигналдарды
сигналдарын
сигналды
сигналдық
сигналдың
сигналы
сиднеи
сиезінде
силва
силикат
силикаттар
силистра
силур
сим
символ
символдар
символдық
символизм
символикалық
символы
симметрия
симметриялы
симметриялық
симон
симпатикалық
симптомдар
симфония
симфониялық
син
сина
сингапур
сингл
синглы
сингонияда
сингониясы
синдром
синдромы
синоним
синонимдер
синонимдері
синонимі
синтаксис
синтаксистік
синтез
синтездеу
синтездік
синтезі
синтетикалық
синхронды
сипап
сипат
сипатта
сипаттады
сипаттаи
сипатталады
сипатталатын
сипатталды
сипатталған
сипаттама
сипаттамалар
сипаттамалары
сипаттамаларын
сипаттамасы
сипаттамасын
сипаттап
сипаттар
сипаттары
сипаттарын
сипаттау
сипаттауға
сипаттаған
сипаттағы
сипатты
сипаты
сипатымен
сипатын
сипатына
сипатында
сипатқа
сирегірек
сирек
сиректеу
сирия
сирияда
сириялық
сирияның
система
системы
сити
ситиге
сицилия
сиыр
сиырдың
сиыршы
сиыры
сия
сиякты
сияқты
сиқырлы
сиқыршы
ск
ска
скаи
скандинавия
ская
ске
ские
скии
скиф
скифтер
ских
ского
ское
скои
скотт
скрипка
скрипкашы
скуратов
сл
славян
славяндар
слесарь
слесарі
сливен
слова
словак
словакия
словари
словарь
словен
словения
слово
служба
см
смаи
смартфон
смағұлов
смена
смикалық
смирнов
смит
смоленск
смолян
сн
снаряд
снарядтар
снарядтың
со
соавт
собор
соборы
собрание
сов
совет
совета
советская
советскии
советских
советского
советскои
советтік
советі
советінің
современная
современном
совхоз
совхозында
сода
содан
соз
созақ
созу
созыла
созылады
созылатын
созылды
созылмалы
созылу
созылуы
созылып
созылыңқы
созылған
созып
сои
соим
сок
соколов
сокп
сократ
сократтың
сол
солаи
солар
соларды
солардың
солармен
соларға
солақаи
солдан
солдат
солдаттар
солдаты
солисті
солисі
соло
соловьева
соломон
солт
солтүст
солтүстик
солтүстігі
солтүстігін
солтүстігінде
солтүстігіндегі
солтүстігіне
солтүстігінен
солтүстік
солтүстікке
солтүстікте
солтүстіктегі
солтүстіктен
солшыл
соль
солға
солғын
сом
сома
сомали
соманы
сомасы
сомасын
сомдады
сомдаи
сомдап
сомдаған
сомерсет
сомға
сон
сона
сонан
сонау
сонда
сондаи
сондағы
сондықтан
сонша
соншалық
соншалықты
соны
соныкі
сонымен
соның
сопақ
сопақша
сопрано
сопы
сопылар
сопылық
сор
сораң
сория
сорлы
сорос
сорочинск
сорпа
сорпасы
сорпаға
сорт
сортаң
сортаңды
сорттары
сорттарын
сортты
сорты
сору
соры
сорып
сорғы
сорғыш
сосна
сост
состав
составители
составу
сосын
сосьва
сосьваға
сот
сотта
сотталды
сотталған
соттар
соттардың
соттық
соттың
соты
сотында
сотының
сотқа
соус
софия
софокл
софья
соц
социал
социализм
социализмнің
социалист
социалистических
социалистического
социалисттік
социалистік
социология
социологиялық
соч
сочи
союз
союза
соя
соға
соғады
соған
соғатын
соғды
соғу
соғуы
соғылды
соғылып
соғылған
соғым
соғып
соғыс
соғыста
соғыстан
соғыстар
соғыстарда
соғыстары
соғыстарға
соғыстағы
соғысты
соғыстың
соғысы
соғысын
соғысына
соғысынан
соғысында
соғысындағы
соғысының
соғысып
соғысқа
соғысқан
соғұрлым
соқ
соқпа
соқпаи
соқпалы
соқпақ
соқты
соқтырады
соқтырды
соқтық
соқыр
соққан
соққы
соққылар
соққыны
соққысы
соққыға
соң
соңды
соңы
соңына
соңынан
соңында
соңындағы
соңғы
соңғысы
спарта
спартак
спартакиадасының
спасск
спб
спектакль
спектакльдер
спектакльдерде
спектакльдері
спектаклі
спектр
спектрдің
спектрлік
спектроскопия
спектрі
спектрін
спенсер
спецификалық
спин
спираль
спиральді
спирт
спиртті
спирті
список
спора
споралар
споралы
спорт
спортинг
спортпен
спортты
спорттық
спорттың
спортшы
спортшылар
спортшылардың
спортшылары
спортшының
спортшысы
спорты
спортынан
спортының
спортқа
справочник
спрингс
спутник
спутниктік
среднеи
сс
сср
ссср
ссылка
ст
ставрополь
ставропольск
стадион
стадионда
стадионның
стадионы
стадионында
стажер
стакан
стал
сталин
сталинград
сталиндік
сталиннің
стамбул
стамбұл
стан
стандарт
стандарттар
стандарттары
стандарттарға
стандарттау
стандартты
стандарты
стандартқа
станислав
станиславскии
станок
станса
стансалары
стансасы
стансасында
стансасының
станция
станциялар
станциялары
станцияларының
станцияның
станциясы
станциясына
станциясынан
станциясында
станциясының
стара
старшина
статикалық
статистика
статистикалар
статистикалық
статистикасы
статистики
статус
статусы
статусын
статьи
статья
стационарлы
стационарлық
стақан
ства
ство
стеи
степан
степанович
степногорск
степное
степнои
степняк
стер
стерлибашев
стерлинг
стерлитамак
стері
стефан
стив
стивен
стилистикалық
стиль
стильде
стильді
стильдік
стильдің
стилі
стилін
стилінде
стиліндегі
стиліне
стилінің
стипендия
стихи
сток
стокгольм
стол
стоматология
стоматологиялық
стоун
стр
страница
страны
страсбур
стратегия
стратегиялық
стратегиясы
стратегиясын
стратиграфиялық
стрель
стрит
стронции
структура
студент
студенттер
студенттерге
студенттерді
студенттердің
студенттері
студенттеріне
студенттік
студенті
студия
студиялық
студиясы
студиясын
студиясында
студиясының
стэнли
стэнфорд
стюарт
стюарттың
сті
стің
су
суаи
суан
суармалау
суармалы
суару
суаруға
суарылады
суасты
субальпі
субальпілік
субрегионының
субстанция
субтропикалық
субтропиктік
субъект
субъективті
субъективтік
субъектілер
субъектілердің
субъектілері
субъектілерінің
субъектінің
субъектісі
субэкваторлық
суворов
суда
судан
судағы
суды
судың
судья
судьялар
судьясы
сужикова
суи
сул
сулак
суландыру
суландыруға
сулар
суларда
суларды
сулардың
сулары
суларымен
суларын
суларында
суларының
суларға
сулеи
сулы
сульфатты
сульфаты
сульфидті
суматра
сумен
сун
сунжа
сунна
сунь
супер
суперкубогы
суперкубогының
суперкубок
сур
сура
сурет
суретке
суреткер
суреткерлік
суретте
суреттеген
суреттеді
суреттеи
суреттелген
суреттеледі
суреттеп
суреттер
суреттерді
суреттердің
суреттермен
суреттері
суреттерін
суреттеу
суретті
суреттің
суретші
суретшілер
суретшілердің
суретшілері
суретшілерінің
суретшінің
суретшісі
суреті
суретін
сурсельва
сусар
сусыз
сусымалы
сусын
сусындар
сутегі
сутегінің
сутек
сутекті
сутектік
сутектің
сухона
сушаруашылығы
сушаруашылық
суы
суымен
суын
суына
суынан
суында
суының
суыр
суырып
суыту
суық
суыққа
суға
суғару
суғаруға
суқои
суқұюшы
сфалерит
сфера
сфералық
сферасының
схема
схемасы
сценарии
сценарист
сш
сша
съез
съезд
съезде
съездерінің
съездің
съезі
съезін
съезінде
съезіне
съезінің
сы
сыбаи
сыбызғы
сыбір
сыз
сызба
сызбасы
сызда
сыздық
сыздықов
сыздықова
сызу
сызылған
сызып
сызығы
сызығын
сызығына
сызығынан
сызығының
сызық
сызықпен
сызықтар
сызықтардың
сызықтары
сызықты
сызықтық
сызықтың
сыи
сыктывкар
сыланған
сылва
сылтау
сым
сымбат
сымбатты
сымды
сымсыз
сын
сына
сынады
сынаи
сынама
сынап
сынау
сынауға
сынаған
сынақ
сынақтан
сынақтар
сында
сындарлы
сынды
сындырып
сыни
сыну
сыншы
сыншыл
сыншылар
сыншылардың
сыншысы
сыны
сыныбына
сынып
сыныпта
сыныптан
сыныптар
сыныпты
сыныптық
сыныпқа
сынығы
сынық
сынықтары
сынықты
сының
сынға
сынған
сынғыш
сыпаи
сыпатаи
сыпыра
сыпыртқы
сыр
сыра
сыраи
сырата
сырдария
сырдарияның
сырдың
сырлы
сырмақ
сырнаи
сырт
сыртта
сырттаи
сырттан
сырты
сыртын
сыртына
сыртынан
сыртында
сыртындағы
сыртқа
сыртқы
сыры
сырым
сырымбет
сырын
сырға
сырғалар
сырғанау
сырқат
сырқаттың
сысы
сысын
сысына
сысында
сысының
сығанақ
сығу
сығылу
сығылған
сықақ
сың
сыңар
сыңары
сьерра
сьюдад
сэи
сэм
сэр
сэс
сюжет
сюжетті
сюжеттік
сюжеті
сюр
ся
сі
сібір
сібірге
сібірде
сібірдегі
сібірдің
сібірлік
сіз
сізге
сізді
сіздің
сік
сілекеи
сілемдері
сілемі
сілеміндегі
сілеті
сілеусін
сілкіну
сілкінісі
сілтеи
сілтеме
сілтемелер
сілті
сілтілі
сілтілік
сім
сін
сінде
сіндер
сіндердің
сіне
сіну
сініп
сіргелі
сірке
сірлі
сірне
сірі
сірә
сің
сіңген
сіңдер
сіңеді
сіңімді
сіңіп
сіңір
сіңірген
сіңірді
сіңіре
сіңіреді
сіңіретін
сіңіру
сіңіріп
сіңісіп
сқо
сүгір
сүзбе
сүзгі
сүзек
сүзіп
сүи
сүлеи
сүмбіле
сүннет
сүнниттік
сүр
сүрген
сүргін
сүргінге
сүрді
сүре
сүреді
сүресі
сүретін
сүрме
сүру
сүруге
сүруі
сүруін
сүруіне
сүріп
сүт
сүтке
сүттен
сүтті
сүттіген
сүттің
сүті
сүтін
сүтінен
сүтінің
сүтқоректі
сүтқоректілер
сүтқоректілерде
сүтқоректілердің
сүю
сүңгуір
сұи
сұлама
сұлбасы
сұлтан
сұлтанбек
сұлтандар
сұлтандардың
сұлтандары
сұлтанды
сұлтандығы
сұлтанмахмұт
сұлтанның
сұлтанов
сұлтаны
сұлтанға
сұлу
сұлулығы
сұлулығын
сұлулық
сұлы
сұлыбас
сұмдық
сұр
сұрады
сұраи
сұраншы
сұраным
сұраныс
сұранысты
сұраныстың
сұранысы
сұранысқа
сұрап
сұрапыл
сұрау
сұраған
сұрағанда
сұрақ
сұрақтар
сұрақтары
сұрақтарға
сұраққа
сұрыпталу
сұрыптау
сұрғылт
сұхбат
сұхбатында
сұңқар
сәби
сәбиді
сәбидің
сәбит
сәбіз
сәдуақасов
сәжде
сәи
сәкен
сәл
сәлем
сәлемі
сәлім
сән
сәнді
сәндік
сәрсенбаи
сәрсенбіде
сәт
сәтбаев
сәтбаевтың
сәтсіз
сәтсіздікке
сәтте
сәттен
сәтті
сәті
сәтін
сәтінде
сәуегеи
сәукеле
сәуле
сәулелену
сәулеленудің
сәулелер
сәулелерді
сәулелердің
сәулелері
сәулелерінің
сәулелі
сәулелік
сәулені
сәуленің
сәулесі
сәулесімен
сәулесін
сәулесінің
сәулет
сәулетті
сәулеттік
сәулетші
сәулетшілер
сәулетшісі
сәуір
сәуірде
сәуірдегі
сәуірден
сәуірдің
сәуірінде
сәуіріне
сәуірінен
сөз
сөзбе
сөзбен
сөзге
сөзде
сөзден
сөздер
сөздерге
сөздерде
сөздерден
сөздерді
сөздердің
сөздермен
сөздері
сөздерімен
сөздерін
сөздерінде
сөздеріне
сөздерінен
сөздерінің
сөзді
сөздігі
сөздігін
сөздігінде
сөздігінің
сөздік
сөздікпен
сөздікте
сөздіктер
сөздіктің
сөздің
сөзжасам
сөзжасамдық
сөзсіз
сөзі
сөзім
сөзімен
сөзін
сөзінде
сөзіне
сөзінен
сөзінің
сөи
сөл
сөлі
сөлінің
сөнген
сөндіру
т
та
таба
табады
табамыз
табан
табанды
табандылық
табаны
табанына
табанында
табанының
табатын
табаға
табақ
табақша
табаққа
табиғат
табиғатпен
табиғатта
табиғаттан
табиғаттағы
табиғатты
табиғаттың
табиғаты
табиғатын
табиғатына
табиғатынан
табиғатының
табиғатқа
табиғи
табу
табуда
табуды
табуы
табуға
табы
табылады
табылатын
табылды
табылмады
табылмаи
табылса
табылуы
табылып
табылған
табын
табынатын
табыну
табынушылық
табының
табынған
табыс
табыстар
табыстары
табыстарға
табысты
табыстың
табысы
табысын
табысының
табысқа
тавда
тагил
тадан
тады
таз
таза
тазалаи
тазалап
тазалау
тазалығы
тазалығын
тазалық
тазартады
тазарту
тазартуға
тазартылған
тазартып
тазы
таи
таиланд
так
такси
тактикалық
тактикасы
тал
талабы
талабын
талабына
талады
талаи
талама
талан
таланады
таланатын
таланбаи
таланбас
талант
талантты
таланты
талантын
талану
талануы
таланып
таланған
талап
талапкер
талаптар
талаптарды
талаптардың
талаптары
талаптарын
талаптарына
талаптарға
талапты
талапқа
талас
таласты
таласы
таласып
таласқан
талау
талдаи
талданатын
талдап
талдау
талдауда
талдауды
талдаудың
талдауы
талдауға
талды
талдыбұлақ
талдысаи
талдықорған
талиб
талпынды
талпыныс
талшығы
талшық
талшықтар
талшықтары
талшықтарынан
талшықтарының
талшықты
талық
талғамаи
талғар
талғат
талқан
талқандады
талқандалды
талқандап
талқандау
талқылады
талқыланды
талқылап
талқылау
талқылауға
там
тама
тамамдаған
таман
тамара
тамаша
тамашалауға
тамағы
тамақ
тамақтандыру
тамақтану
тамақты
тамақтың
тамаққа
тамбов
тамды
тамега
тамшы
тамыз
тамызда
тамыздан
тамыздағы
тамыздың
тамызына
тамызынан
тамызында
тамызға
тамыр
тамырдың
тамырлар
тамырлардың
тамырлары
тамырларын
тамырларына
тамырларының
тамырлы
тамыры
тамырымен
тамырын
тамырына
тамырынан
тамырында
тамырының
тамған
тан
тана
танау
танзания
тани
таниды
танк
танка
танкіге
танкісін
танмыдық
танның
тантал
тану
танудың
танушы
тануға
таныды
таныла
танылады
танылатын
танылды
танылып
танылған
таным
танымал
танымалдылыққа
танымалы
танымдық
танымның
танып
таныс
танысады
танысты
таныстырады
таныстырды
таныстыру
таныстырылды
танысу
танысуға
танысып
танысқан
таныта
танытады
танытатын
танытты
таныту
танытып
танытқан
таныған
тап
тапанша
таппаи
таппаған
тапса
тапсырады
тапсырды
тапсырма
тапсырмалар
тапсырмаларды
тапсырмаларын
тапсырманы
тапсырмасы
тапсырмасымен
тапсырмасын
тапсыру
тапсырылады
тапсырылды
тапсырылған
тапсырып
тапсырыс
тапсырысы
тапсырған
таптар
тапты
таптық
таптың
тапшы
тапшылығы
тапшылығын
тапшылығына
тапшылық
тапқан
тапқаннан
тапқыр
тапқырлық
тар
тара
тарады
таражға
тараз
тарази
таразы
тараи
тарала
таралады
таралатын
таралды
таралу
таралуы
таралуын
таралуына
таралуының
таралым
таралымы
таралып
таралған
таралғаны
тарамдалған
таран
тарантино
тарап
тараптар
тараптардың
тарапынан
тарата
таратады
тарататын
таратты
тарату
таратуды
таратудың
таратушы
таратуға
таратылады
таратылатын
таратылды
таратылып
таратылған
таратын
таратып
таратқан
таратқыш
тарау
тарауда
тараудан
тарауы
тарауына
тарауында
тараған
тарағаны
тарақ
тарақты
тарбағатаи
тарды
тарифтік
тарих
тарихи
тарихта
тарихтан
тарихтағы
тарихты
тарихтың
тарихшы
тарихшылар
тарихшылардың
тарихшылары
тарихшысы
тарихы
тарихымен
тарихын
тарихына
тарихынан
тарихында
тарихындағы
тарихының
тарихқа
тарка
тарлан
тарлықтаи
тармағы
тармағын
тармағына
тармағынан
тармағының
тармақ
тармақталған
тармақтан
тармақтар
тармақтары
тармақтарының
тармақты
тармаққа
тарта
тартады
тартатын
тартпаи
тартса
тартты
тарту
тартуды
тартуы
тартуға
тартылады
тартылатын
тартылды
тартылуы
тартылып
тартылыс
тартылған
тартымды
тартып
тартыс
тартысты
тартқан
тартқанда
тартқыш
тару
таруға
тархан
тары
тарылады
тарылды
тарылуы
тарылып
тарылған
тарының
тарып
тарыс
тарғын
тас
тасбақа
тасбақалар
тасиды
таситын
таскөмір
тасмола
таспа
таспаға
таспен
тасс
тастады
тастаи
тасталады
тасталды
тасталған
тастамаи
тастан
тастап
тастар
тастардан
тастарды
тастардың
тастармен
тастары
тастарға
тастау
тастауға
тастаған
тастақ
тастақты
тасты
тастың
тасу
тасушы
тасуға
тасы
тасымал
тасымалдаи
тасымалданады
тасымалданатын
тасымалдау
тасымалдаушы
тасымалдауға
тасымалы
тасын
тасып
тасыған
тасқа
тасқала
тасқын
тасқыны
тасқұдық
тасөткел
тат
татар
татарлар
татарлардың
татарлары
татарларының
татарстан
тату
татулық
татын
татып
татьяна
тау
тауар
тауаралық
тауарды
тауардың
тауарих
тауарлар
тауарларды
тауарлардың
тауарлары
тауарларын
тауарларының
тауарларға
тауарлы
тауарлық
тауарға
тауда
таудан
таудағы
тауды
таудың
таужыныстар
таужыныстардың
таулар
тауларда
таулардан
таулардың
таулары
тауларын
тауларына
тауларынан
тауларында
тауларындағы
тауларының
тауларға
таулы
таулық
таун
тауншип
таутеке
таушаи
таушық
тауы
тауына
тауынан
тауында
тауындағы
тауының
тауып
тауыс
тауық
тауға
тахо
таш
ташкент
ташкентке
ташкентте
ташкенттегі
ташкенттің
таяз
таяу
таяқ
таяқша
таға
тағады
тағаи
тағала
тағаланың
тағалаға
тағам
тағамдар
тағамдарды
тағамдардың
тағамдары
тағамдарын
тағамдарына
тағамдарының
тағамдарға
тағамды
тағамдық
тағамның
тағамы
тағамға
тағатын
тағдыр
тағдырдың
тағдыры
тағдырын
тағдырына
тағзым
тағы
тағыда
тағылады
тағылатын
тағылды
тағылымы
тағылып
тағылған
тағын
тағына
тағып
тақ
тақия
тақпақ
тақта
тақтаи
тақталар
тақтан
тақтасы
тақтасының
тақтатас
тақтатастар
тақты
тақуа
тақыр
тақырыбы
тақырыбын
тақырыбына
тақырыбында
тақырыбындағы
тақырып
тақырыпта
тақырыптар
тақырыптарды
тақырыптары
тақырыптарға
тақырыптағы
тақырыпты
тақырыптық
тақырыптың
тақырыпқа
таққа
таққан
таң
таңба
таңбалар
таңбалары
таңбалы
таңбасы
таңбасын
таңда
таңдады
таңдаи
таңдалады
таңдалды
таңдалып
таңдалған
таңдамалы
таңдап
таңдау
таңдаулы
таңдауы
таңдауға
таңдаған
таңдағы
таңертең
таңертеңгі
таңы
таңғажаи
таңғы
таңқаларлық
таңқураи
тбаев
тбаи
тбилиси
тв
тверь
творчестволық
те
театр
театрда
театрдың
театрлар
театрларда
театрлары
театрларында
театрларының
театрлық
театры
театрын
театрына
театрында
театрының
театрға
тебеді
тебу
тевкелев
тег
тегене
тегеран
тегеранда
тегеурінді
тегжеи
тегі
тегін
тегінде
тегіне
тегінен
тегінің
тегіс
тегістелген
тегістеу
тед
теді
тежегіш
тежеи
тежелу
тежеу
тежу
тез
тезек
тезірек
теи
тек
теке
текелі
текес
тексереді
тексеру
тексеруге
тексеруден
тексерілген
тексерілді
тексеріледі
тексеріп
текст
текстол
текстологиялық
тектес
тектоник
тектоникалық
текті
тектік
текше
тел
теле
телеарна
телеарнасы
телеарнасында
телеарнасының
телевидение
телевизия
телевизиялық
телевизиясы
телеграф
теледидар
теледидарда
теледидардың
теледидарлық
теледидары
теледидарында
тележурналист
тележүргізуші
телекоммуникация
телекоммуникациялық
телерадио
телесериал
телесериалында
телескоп
телефон
телефоны
телехикая
телехикаяның
телехикаясы
телехикаясында
телецкое
тель
тельман
телімі
теліміндегі
тем
темекі
темен
темников
темп
темпель
температура
температурада
температурадағы
температуралы
температуралық
температураны
температураның
температурасы
температурасын
температурасына
температурасында
температурасының
температураға
темір
темірбек
темірболат
темірге
темірден
темірді
темірдің
теміржол
теміржолшы
теміржолы
темірлан
темірлі
темірмен
теміртау
темірқазық
тен
тенант
тенанты
теннис
теннисшы
тенор
тентек
тео
теодор
теология
теологиялық
теор
теорема
теоремасы
теоретигі
теория
теориялар
теориялары
теориялық
теорияны
теорияның
теориясы
теориясын
теориясына
теориясында
теориясының
теорияға
тепе
тепкен
тепкіш
тепті
тер
терапия
тербелмелі
тербеліс
тербелістер
тербелістердің
тербелісі
тергеу
тергеуші
тергеушісі
тердің
тереза
терезе
терезелер
терезелері
терезесі
терек
теректі
терендігі
терең
тереңге
тереңд
тереңде
тереңдеи
тереңдеп
тереңдете
тереңдетіп
тереңдігі
тереңдігін
тереңдігіне
тереңдік
тереңдікке
тереңдікте
тереңдіктегі
тереңдіктен
тереңкөл
тереңнен
тереңірек
тереңөзек
терме
термин
терминал
терминдер
терминдерді
терминдердің
терминдері
терминдерінің
терминді
терминнің
терминология
терминологиялық
термині
терминін
терминінің
термиялық
термињдерініњ
термиңдерінің
термодинамикалық
термоядролық
тернер
терригендік
территориального
территория
территориялық
территориясы
территориясын
территориясына
территориясында
территориясының
террор
терса
теру
теруэль
тері
теріге
теріде
теріден
терілі
терімен
теріні
терінің
теріп
теріс
терісаққан
теріске
теріскеи
теріскен
терістік
терісі
терісін
терісінде
терісіне
терісінен
терісінің
тест
тесті
тестілеу
тесігі
тесік
тесіктер
тесіктері
тесіп
тетігі
тетік
тетіктер
тетіктерді
тетіктердің
тетіктері
тетіктерін
тетін
теуіп
теуір
тех
техас
техн
техник
техника
техникада
техникалық
техникамен
техниканы
техниканың
техникасы
техникасын
техникасында
техникасының
техникумы
техникумын
техникумында
техникумының
техногендік
технол
технолог
технологии
технология
технологиялар
технологияларды
технологиялардың
технологиялары
технологияларын
технологиялық
технологияны
технологияның
технологиясы
технологиясын
технологиясының
технологы
тең
теңбіл
теңбілді
теңге
теңгеге
теңгелер
теңгені
теңгенің
теңдесі
теңдеу
теңдеуді
теңдеудің
теңдеулер
теңдеулерді
теңдеуі
теңдеуін
теңдігі
теңдігін
теңдік
теңдікке
теңдікті
теңдіктің
теңестіру
теңестірілген
теңеу
теңсіздік
теңсіздікті
теңіз
теңізбен
теңізге
теңізде
теңіздегі
теңізден
теңіздер
теңіздерде
теңіздердің
теңіздері
теңіздерінде
теңізді
теңіздік
теңіздің
теңізі
теңізімен
теңізін
теңізінде
теңізіндегі
теңізіне
теңізінен
теңізінің
ти
тибет
тиген
тигенде
тигізбеи
тигізген
тигізді
тигізеді
тигізетін
тигізіп
тиді
тиеді
тиек
тиесілі
тиетін
тиеу
тим
тимеи
тимирязев
тимор
тимур
тинг
тингі
тингінде
тип
типке
типологиялық
типтегі
типтер
типтері
типтерін
типтес
типті
типтік
типі
типін
типіне
типінің
тирмизи
тироль
тисе
титан
титрлеу
титул
титулын
тиым
тиын
тиындар
тию
тиянақты
тиімді
тиімділігі
тиімділігін
тиімділік
тиімсіз
тиін
тиіп
тиіс
тиісті
тиісінше
ткен
ткені
ткіш
тматов
тматовтың
тмд
тное
то
тобы
тобыл
тобылдан
тобылға
тобылғы
тобымен
тобын
тобына
тобынан
тобында
тобындағы
тобының
тобықты
того
тогы
тогын
тогының
тоз
тозақ
тозаң
тозаңданады
тозаңды
тозған
тои
ток
токантинс
токио
токиода
токсикалық
токты
токтың
толады
толассыз
толағаи
толедо
толковыи
толмаи
толмаған
толстов
толстои
толтырады
толтыру
толтыруға
толтырылады
толтырылған
толтырып
толу
толуы
толуына
толы
толымды
толып
толысады
толығады
толығымен
толығып
толығырақ
толық
толықтаи
толықтыра
толықтырады
толықтырды
толықтыру
толықтырулар
толықтырылды
толықтырылып
толықтырылған
толықтырып
толыққанды
только
толғаи
толған
толғанда
толғау
толғаулары
толғауы
толқулар
толқын
толқындар
толқындарды
толқындардың
толқындары
толқындарының
толқынды
толқындық
толқынның
толқыны
толқынын
толқынының
том
томас
томат
томах
томаға
томдық
томирис
томнан
томск
томсон
томы
томына
томында
томының
томь
тон
тонап
тонау
тонга
тони
тонна
тоннадан
тоннаға
топ
топан
топографиялық
топонимика
топономикалық
топпен
топта
топталып
топталған
топтама
топтамасы
топтамасын
топтан
топтанып
топтап
топтар
топтарда
топтарды
топтардың
топтармен
топтары
топтарын
топтарына
топтарының
топтарға
топтастыру
топтастырылған
топтасып
топтасқан
топтағы
топты
топтық
топтың
топырағы
топырағын
топырағында
топырағының
топырақ
топырақпен
топырақта
топырақтан
топырақтану
топырақтар
топырақтарда
топырақтағы
топырақты
топырақтың
топыраққа
топқа
тор
торабы
торабына
торабынан
торабының
тораи
торап
тораптары
тораңғы
тордың
тории
торлар
торлы
торонто
торпақ
торпедо
торре
торрес
торша
торы
торының
торға
торғаи
торғауытов
тоскана
тостаған
тостағанша
тостағаншасы
тосын
тосып
тосқауыл
тот
тоталитарлық
тоттенхэм
тотығады
тотығу
тотығуы
тотығы
тотықсыздану
тотықтырғыш
тотыққан
тоғаи
тоған
тоғыз
тоғызыншы
тоғысбаев
тоғысында
тоғысқан
тоғыту
тоқ
тоқа
тоқаев
тоқаи
тоқал
тоқаш
тоқиды
тоқмақ
тоқпан
тоқсан
тоқтады
тоқтаи
тоқталады
тоқталып
тоқтамаи
тоқтамыс
тоқтап
тоқтар
тоқтата
тоқтатады
тоқтатпаи
тоқтатты
тоқтату
тоқтатуға
тоқтатылады
тоқтатылды
тоқтатылған
тоқтатып
тоқтатқан
тоқтау
тоқтаусыз
тоқтаған
тоқты
тоқу
тоқылады
тоқылдақ
тоқылған
тоқыма
тоқымашылық
тоқып
тоқырау
тоқырауын
тоң
тоңазыту
тоңазытқыш
тпаи
тпас
тпаған
тпесе
тр
трагедия
трагедиялық
трагедиясы
траз
трактат
трактор
тракторшы
трамваи
трамп
трамптың
транзистор
транзиттік
транскрипция
транспорт
транспорттық
трансфер
трансұлттық
трапеция
траян
тревизо
треи
трек
трентино
тренто
тресі
тресінде
тресінің
третьяков
три
триас
тригонометриялық
трик
тринидад
трир
трлн
трои
троицк
трон
трондар
трондардың
тропикалық
тропиктік
троя
труда
труды
труппасы
трявна
тс
тса
тсақ
тсе
тт
тта
ттар
ттары
тте
ттер
тты
ттым
ттық
ттың
тті
ттің
ту
туа
туады
туар
туатын
туберкулез
тува
туге
туда
туды
тудырады
тудыратын
тудырды
тудырмаи
тудыру
тудырушы
тудыруы
тудырып
тудырған
тудың
туді
туи
тула
тулуза
тулы
туль
тульн
тума
тумасы
тумен
тун
тунгус
тундра
тунис
тур
тура
тураи
туралы
туралған
турап
турасында
турбина
тургау
турда
туризм
туризмді
туризмнің
туризмі
турин
турист
туристер
туристік
турнир
турнирге
турнирде
турнирден
турнирдің
турнирлерде
турнирлердің
турнирі
турнирінде
турниріне
турнирінің
турскии
туры
турында
туса
туу
тууы
тууына
тушы
туы
туылды
туылып
туылған
туымен
туын
туына
туындады
туындаи
туындап
туындауы
туындаған
туынды
туындылар
туындыларды
туындылардың
туындылары
туындыларын
туындыларында
туындыларының
туындыны
туындының
туындысы
туынша
туының
туып
туыс
туыстар
туыстары
туыстарына
туыстарының
туыстас
туыстығы
туыстық
туыстың
туысы
туысына
туысының
туысқа
туысқан
туысқандары
туысқандық
туғ
туға
туған
туғанда
туғандар
туғаннан
туғанына
туғызады
туғызатын
туғызды
туғызу
туғызып
туғызған
ты
тыва
тыи
тыл
тыла
тылады
тылатын
тылды
тылмаи
тылса
тылсым
тылу
тылуы
тылып
тылған
тылғандаи
тым
тымақ
тымды
тымсыз
тын
тына
тынан
тында
тындаи
тындар
тындағы
тындығы
тындығын
тындықтан
тыны
тынымсыз
тынын
тынына
тыныс
тынысалу
тынысы
тыныш
тынышбаев
тыныштық
тынық
тының
тып
тыпты
тырговище
тырна
тырналар
тырнақ
тырнақтары
тырново
тырысады
тырысатын
тырысты
тырысу
тырысып
тырысқан
тырысқақ
тыс
тыскер
тыста
тыстары
тыстың
тысы
тысына
тысында
тысының
тысқа
тысқан
тысқары
тышқан
тышқаны
тығыз
тығызд
тығыздығы
тығыздығын
тығыздығына
тығыздығының
тығыздық
тығылып
тығып
тық
тықыр
тың
тыңаи
тыңдаи
тыңдап
тыңдау
тыңдаушы
тыңдаушысы
тыңдауға
тыңға
тьерра
тьеррас
тьи
тьюринг
тюбинген
тюль
тюмень
тюрингия
тянь
ті
тігеді
тігетін
тігу
тігуге
тігілген
тігіледі
тігілетін
тігіліп
тігін
тігінен
тігіп
тігіс
тізбегі
тізбегін
тізбегіндегі
тізбегіне
тізбегінен
тізбегінің
тізбек
тізбектегі
тізбектеле
тізбектер
тізбектері
тізбекті
тізбектің
тізбесі
тізгінін
тізе
тізілімі
тізіліміндегі
тізілімінің
тізім
тізімге
тізімде
тізімдері
тізімі
тізімін
тізімінде
тізіміне
тік
тікбұрышты
тіке
тікелеи
тікенді
тікенекті
тіккен
тіктеу
тікұшақ
тіл
тілге
тілген
тілде
тілдегі
тілден
тілдер
тілдерге
тілдерде
тілдердегі
тілдерден
тілдерді
тілдердің
тілдері
тілдерін
тілдерінде
тілдеріндегі
тілдеріне
тілдерінен
тілдерінің
тілдес
тілді
тілдік
тілдін
тілдің
тілегі
тілегін
тіледі
тілеи
тілек
тілендиев
тілеп
тілеу
тілешев
тілмен
тілші
тілшісі
тілі
тілімделген
тілімденген
тілімен
тілімізде
тіліміздегі
тіліміздің
тілін
тілінде
тіліндегі
тіліне
тілінен
тілінің
тіліп
тін
тінде
тіндеи
тіндер
тіндердің
тінді
тіндігі
тіндігін
тіндіктен
тіндісі
тіндісіне
тіні
тінін
тінің
тіп
тіптен
тіпті
тірегі
тіреді
тіреи
тірек
тіреледі
тіреп
тіреу
тіркеи
тіркелген
тіркелді
тіркеледі
тіркелу
тіркеліп
тіркеме
тіркес
тіркестер
тіркестері
тіркесі
тіркесін
тіркесінің
тіркесіп
тіркеу
тіркеуге
тіркеуден
тірлік
тіршілігі
тіршілігін
тіршілігінде
тіршілігіне
тіршілігінің
тіршілік
тіршілікке
тіршілікті
тіршіліктің
тірі
тірідеи
тірілеи
тірісінде
тіс
тістер
тістердің
тістері
тістерінің
тісті
тістің
тісі
тітіркендіргіш
тің
тқа
тқан
тқанда
тқандаи
тқаны
тқанын
тқысы
тқыш
тқышпен
тқыштар
тқыштарды
түбегеи
түбегі
түбегін
түбегінде
түбегіндегі
түбегіне
түбегінің
түбек
түбектің
түбі
түбін
түбінде
түбіндегі
түбіне
түбінен
түбінің
түбір
түбірлі
түбірі
түгел
түгелге
түгелдеи
түгелімен
түгі
түгіскен
түз
түзбеи
түзе
түзеді
түзеи
түзеп
түзету
түзетуге
түзетулер
түзетін
түзеу
түзу
түзуге
түзудің
түзуші
түзілген
түзіледі
түзілетін
түзілу
түзілуі
түзілуін
түзілуіне
түзілімдер
түзілімдердің
түзілімдері
түзіліп
түзіп
түи
түк
түкпір
түкпірінде
түкпірінен
түксіз
түктер
түктері
түкті
түлегі
түлеи
түлектер
түлектері
түлеп
түлкі
түлкібас
түлкінің
түлік
түлікпен
түлікті
түліктің
түмен
түн
түнге
түнгі
түнде
түндік
түннің
түні
түнінде
түп
түпкі
түпкілікті
түпнұсқа
түпнұсқасы
түпнұсқасындағы
түптеп
түпқараған
түр
түратын
түрақты
түрге
түрген
түргеш
түрде
түрдегі
түрден
түрді
түрдің
түрк
түркия
түркияда
түркиядағы
түркияның
түркияға
түрксіб
түркі
түркілер
түркілердің
түркілік
түркімен
түркіменстан
түркістан
түркістанда
түркістандағы
түркістанды
түркістанның
түркістанға
түркітану
түркітанушы
түрл
түрлендіретін
түрлендіру
түрлену
түрленіп
түрлер
түрлерге
түрлерді
түрлердің
түрлері
түрлерімен
түрлерін
түрлерінде
түрлеріне
түрлерінен
түрлерінің
түрлі
түрлілігі
түрліше
түрме
түрмеге
түрмеде
түрмеден
түрмесінде
түрмесіне
түрткі
түрі
түрік
түрікмен
түрікмендер
түрікменстан
түрікменстанның
түріктер
түріктердің
түріктері
түріктің
түрікше
түрімен
түрін
түрінде
түріндегі
түріне
түрінен
түрінің
түрған
түрғыдан
түс
түсе
түседі
түсер
түсетін
түске
түскен
түскенде
түскеннен
түскені
түскенін
түскі
түспеген
түспеи
түспен
түссе
түссіз
түст
түсте
түстен
түстер
түстердің
түстері
түстес
түсті
түстік
түстің
түсу
түсуге
түсуде
түсуді
түсуі
түсуін
түсуіне
түсуінен
түсі
түсік
түсім
түсімдер
түсімі
түсін
түсінбеи
түсінген
түсінді
түсіндірген
түсіндірді
түсіндіре
түсіндіреді
түсіндіретін
түсіндірме
түсіндірмелі
түсіндіру
түсіндіруге
түсіндіріледі
түсіндіріп
түсіне
түсінеді
түсінетін
түсіну
түсінуге
түсінігі
түсінігін
түсінігінде
түсінік
түсінікке
түсініксіз
түсініктеме
түсініктер
түсініктерді
түсініктері
түсінікті
түсініледі
түсініп
түсінің
түсіп
түсірген
түсірді
түсіре
түсіреді
түсіретін
түсірмеи
түсіру
түсіруге
түсірілген
түсірілді
түсіріледі
түсірілетін
түсірілім
түсірілімі
түсіріліп
түсіріп
түтігі
түтік
түтікті
түтіктің
түтікше
түтін
түңғыш
тұжырым
тұжырымдады
тұжырымдаи
тұжырымдама
тұжырымдамасы
тұжырымдамасын
тұжырымдар
тұжырымдары
тұжырымдаған
тұжырымды
тұжырымы
тұжырымға
тұз
тұзақ
тұздалған
тұздар
тұздардың
тұздары
тұздарының
тұзды
тұздылығы
тұздық
тұздың
тұзы
тұзын
тұзының
тұи
тұлпар
тұлға
тұлғалар
тұлғаларды
тұлғалардың
тұлғалары
тұлғаларының
тұлғаларға
тұлғалы
тұлғалық
тұлғаны
тұлғаның
тұлғасы
тұлғасын
тұлғасына
тұлғасында
тұлғасының
тұлғаға
тұман
тұмандық
тұмар
тұмау
тұмсығы
тұмсығының
тұмсық
тұмсықты
тұнба
тұнбасы
тұнбаға
тұндыру
тұнық
тұр
тұра
тұрады
тұран
тұрар
тұрарлық
тұратын
тұратындықтан
тұратынын
тұрағы
тұрақ
тұрақсыз
тұрақсыздық
тұрақтандыру
тұрақтап
тұрақтары
тұрақты
тұрақтылығы
тұрақтылығын
тұрақтылық
тұрақтылықты
тұрақтысы
тұрды
тұрмаи
тұрман
тұрмыс
тұрмыста
тұрмыстық
тұрмысы
тұрмысын
тұрмысына
тұрмысында
тұрмысқа
тұрпаи
тұрпаты
тұрса
тұрсын
тұрсынов
тұрсыновтың
тұрсынұлы
тұрсынұлының
тұру
тұруы
тұруына
тұруға
тұрып
тұрған
тұрғанда
тұрғандаи
тұрғаны
тұрғанын
тұрғыда
тұрғыдан
тұрғызады
тұрғызды
тұрғызу
тұрғызылды
тұрғызылып
тұрғызылған
тұрғызып
тұрғызған
тұрғылықты
тұрғын
тұрғындар
тұрғындарды
тұрғындардың
тұрғындары
тұрғындарын
тұрғындарына
тұрғындарының
тұрғындарға
тұрғынның
тұрғыны
тұрғынға
тұрғысынан
тұрғысында
тұрқы
тұс
тұсау
тұсаукесері
тұспа
тұста
тұстан
тұстары
тұстарын
тұстас
тұстағы
тұсы
тұсын
тұсына
тұсынан
тұсында
тұсындағы
тұт
тұтады
тұтас
тұтастаи
тұтастығы
тұтастығын
тұтастық
тұтасып
тұтатын
тұтты
тұту
тұтынатын
тұтыну
тұтынудың
тұтынушы
тұтынушылар
тұтынушылардың
тұтынушыларға
тұтынушылық
тұтынушыға
тұтынуға
тұтып
тұтқан
тұтқасы
тұтқиылдан
тұтқын
тұтқында
тұтқындалды
тұтқындалып
тұтқындап
тұтқындар
тұтқындарды
тұтқыннан
тұтқынға
тұтқыр
тұтқырлығы
тұщы
тұщықұдық
тұяғы
тұяқ
тұяқты
тұғын
тұғыр
тұғыры
тұғырыл
тұғырға
тұқы
тұқым
тұқымдары
тұқымдарын
тұқымдарының
тұқымдас
тұқымдастар
тұқымдастардың
тұқымдастары
тұқымдасы
тұқымдасына
тұқымдасының
тұқымдасқа
тұқымды
тұқымдық
тұқымның
тұқымы
тұқымымен
тұқымын
тұқымына
тұқымынан
тұқымының
тұңғиық
тұңғыш
тәбеті
тәж
тәжі
тәжібаев
тәжібаевтың
тәжік
тәжікстан
тәжікстанның
тәжіктер
тәжірибе
тәжірибеге
тәжірибеде
тәжірибеден
тәжірибелер
тәжірибелері
тәжірибелі
тәжірибелік
тәжірибені
тәжірибенің
тәжірибесі
тәжірибесін
тәжірибесінде
тәжірибесіне
тәжірибесінен
тәжірибесінің
тәи
тәлім
тәмамдады
тәмамдаи
тәмамдап
тәмамдаған
тән
тәнті
тәр
тәрбие
тәрбиелеген
тәрбиелеи
тәрбиеленген
тәрбиеленушісі
тәрбиелеп
тәрбиелеу
тәрбиелеуге
тәрбиелік
тәрбиенің
тәрбиесі
тәрбиесінде
тәрбиесіне
тәрбиесінің
тәрбиеші
тәркілеу
тәрт
тәртібі
тәртібімен
тәртібін
тәртібінде
тәртібіне
тәртібінің
тәртіп
тәртіпке
тәртіппен
тәртіпте
тәртіпті
тәртіптік
тәртіптің
тәрізденіп
тәріздес
тәрізді
тәрізділер
тәсіл
тәсілдер
тәсілдерді
тәсілдердің
тәсілдермен
тәсілдері
тәсілдерін
тәсілдеріне
тәсілдерінің
тәсілді
тәсілдің
тәсілмен
тәсілі
тәсілімен
тәсілін
тәсіліне
тәсілінің
тәтті
тәттімбет
тәу
тәубе
тәуекел
тәуелді
тәуелділігі
тәуелділігін
тәуелділік
тәуелділікті
тәуелс
тәуелсіз
тәуелсіздігі
тәуелсіздігін
тәуелсіздігіне
тәуелсіздігінің
тәуелсіздік
тәуелсіздікке
тәуелсіздіктің
тәуке
тәулігіне
тәулік
тәулікке
тәулікте
тәуліктік
тәуір
тәшенов
тәңір
тәңірберген
тәңірі
төбе
төбеге
төбеде
төбелер
төбелері
төбелі
төбенің
төбесі
төбесін
төбесінде
төбесіне
төбесінен
төбет
төбешік
төбешікті
төгілген
төгіліп
төгіп
төзімді
төзімділігі
төзімділігін
төзімділік
төл
төле
төлебаев
төлебаи
төлеген
төледі
төлеи
төлем
төлемдер
төлемдерді
төленген
төленеді
төленетін
төлеп
төлеу
төлеубаев
төлеуге
төлеуден
төлеуді
төлеудің
төлеушілер
төм
төмен
төменге
төменгі
төменде
төмендеген
төмендегі
төмендегідеи
төмендеді
төмендеи
төмендеп
төмендетеді
төмендететін
төмендету
төмендетуге
төмендетіп
төмендеу
төмендеуі
төмендеуіне
төменнен
төменірек
төнген
төндірді
төніп
төраи
төралқасы
төралқасының
төраға
төрағалары
төрағалық
төрағаның
төрағасы
төрағасының
төре
төрелік
төренің
төреші
төрешілер
төрешісі
төркіні
төркінін
төрт
төртбұрыш
төртбұрышты
төртеу
төртеуі
төртке
төрткүл
төрткөл
төрттен
төрттік
төртінші
төртіншіден
төс
төсбелгісі
төсеи
төсек
төселген
төселіп
төсеніш
төсеп
төте
төтенше
төтеп
төңкеріс
төңкеріске
төңкерістен
төңкерісі
төңкерісіне
төңкерісінен
төңкерісінің
төңірегі
төңірегін
төңірегінде
төңірегіндегі
төңірегіне
у
уа
уаз
уаи
уан
уанаттар
уахи
уағыз
уағыздаи
уақ
уақтылы
уақыт
уақытта
уақыттан
уақыттарда
уақыттағы
уақытты
уақыттық
уақыттың
уақытша
уақыты
уақытылы
уақытымен
уақытын
уақытына
уақытынан
уақытында
уақытының
уақытқа
уват
уве
увелька
уганда
уголь
угор
угра
удине
удмуртия
уез
уезд
уездері
уезді
уездік
уезер
уезі
уезінде
уезіндегі
уезіне
уезінің
уефа
уж
уи
уикипедия
уикипедияда
уикипедияның
уикипедияға
уилл
уилсон
уильям
уильямс
уимблдон
ук
указ
укр
украин
украина
украинада
украинадан
украинадағы
украиналық
украинаның
украинаға
украиндар
украиндық
украины
украі
ул
улану
уланудың
уланған
улағыш
улы
ульрих
ультракүлгін
ультранегізді
ульянов
умбрия
умра
умәи
ун
унжа
универсиада
университет
университета
университетке
университетте
университеттер
университеттердің
университеттері
университеттерінде
университеттерінің
университетті
университеттік
университеттің
университеті
университетімен
университетін
университетінде
университетіндегі
университетіне
университетінің
уоллес
уолтер
уоррен
уотсон
упа
управление
управления
урал
уран
уранның
урду
уругваи
уса
усаға
условиях
успен
устрои
усть
уу
уфа
уфим
уч
учалин
учаске
учаскелік
учаскесі
учаскесінің
учебное
училище
училищеде
училищені
училищесі
училищесін
училищесінде
училищесіне
училищесінің
уш
ушинскии
ушін
уы
уыз
уылдырығын
уылдырық
уытты
уық
уэи
уэльва
уэльс
уэст
уі
уә
уәде
уәжіп
уәзір
уәи
уәкілетті
уәкілі
уәлаяты
уәлаятының
уәли
уәлиханов
уәлихановтың
ф
фа
фабрика
фабрикалары
фабрикасы
фабрикасының
фаза
фазада
фазалар
фазалы
фазалық
фазаның
фазасы
фаи
факт
фактор
фактордың
факторинг
факторлар
факторларды
факторлардың
факторлармен
факторлары
факторларын
факторларының
факторларға
факторы
фактілер
фактілерді
факультет
факультетте
факультеттері
факультеттің
факультеті
факультетін
факультетінде
факультетіне
факультетінің
фамаликан
фан
фантастика
фантастикалық
фараби
фарабидің
фарадеи
фарер
фарм
фармацевтика
фармацевтикалық
фарс
фару
фарфор
фатима
фатх
фауна
фаунасы
фауст
фациялық
фашист
фашистік
фе
февраля
федералды
федералдық
федеративтік
федерации
федерация
федерациясы
федерациясымен
федерациясындағы
федерациясының
федор
федоров
федорович
федоровка
феи
феликс
фель
фельдшер
фельдшерлік
феникс
феномен
феодал
феодалдар
феодалдардың
феодалдық
фер
фердинанд
ферма
фермент
ферменттер
ферменттердің
фермер
фернандес
фернандо
ферреи
ферғана
фестиваль
фестивалі
фестивалінде
фестиваліне
фестивалінің
фи
фигеи
фигура
фигуралар
фиджи
физ
физигі
физик
физика
физикада
физикалық
физиканың
физикасы
физико
физиолог
физиология
физиологиялық
физиологиясы
физическои
фикһ
фил
филадельфия
филармония
филармониясы
филармониясының
филиал
филиалдары
филиалы
филиалының
филип
филипп
филиппин
филиппиндер
филол
филолог
филология
филологиялық
филологиясы
филос
философ
философия
философияда
философиялық
философияны
философияның
философиясы
философиясын
философиясына
философиясында
философиясының
философияға
философтар
философы
фильм
фильмге
фильмде
фильмдегі
фильмдер
фильмдерге
фильмдерде
фильмдерді
фильмдердің
фильмдері
фильмдерінде
фильмдеріне
фильмдерінің
фильмді
фильмнің
фильмі
фильмін
фильмінде
фильміндегі
фильміне
фильмінің
фин
финал
финалда
финалдық
финалист
финалисты
финалисті
финалисі
финалы
финалына
финалында
финалға
финанс
финистер
финляндия
финляндияның
финн
фирма
фирмалар
фирмалардың
фирмалық
фирманың
фирмасы
фирмасының
фифа
фишер
фиқһ
фк
флеи
флои
флора
флорасы
флоренция
флорида
флот
флоты
флотында
флотының
флур
флюорит
фои
фолиант
фольклор
фольклорлық
фольклоры
фольклорында
фольклорының
фома
фон
фонд
фонда
фонетика
фонетикалық
фонтенбло
форд
форма
формада
формалар
формалардың
формалары
формаларын
формаларының
формалды
формалы
формальды
форманың
формасы
формасын
формасына
формасында
формасының
формат
форматы
формаға
формула
формуламен
формуласы
формуласын
форт
фортепиано
форум
форумы
фосфат
фосфор
фосфордың
фосфорит
фосфорлы
фото
фотограф
фотографиялық
фотосинтез
фотосурет
фотосуреттер
фр
фразеологиялық
фраи
фракциясы
фракциясының
фран
франк
франклин
франко
франкония
франкфурт
франс
франсиско
франсуа
франц
франциск
франциско
франция
францияда
франциядан
франциядағы
франциялық
франциямен
францияның
францияға
француз
француздар
француздардың
француздық
француздың
французша
франчаи
франческо
фрегезия
фред
фредди
фредерик
фреи
фридрих
фризия
фриули
фриц
фрозиноне
фрунзе
фрэнк
фрэнсис
фтор
фу
фужер
фуллин
фуллиннің
функционалды
функционалдық
функция
функциялар
функцияларды
функциялардың
функциялары
функцияларын
функциялық
функцияны
функцияның
функциясы
функциясын
функциясының
фунт
фурманов
фут
футбол
футболдан
футболмен
футболшы
футболшылар
футболшылардың
футболшылары
футболшылық
футболшының
футболшысы
футболының
фф
фэи
х
ха
хабар
хабардар
хабарды
хабардың
хабарлады
хабарлаи
хабарлама
хабарламалар
хабарландыру
хабарлап
хабарлар
хабарларды
хабарлары
хабарларын
хабарлау
хабарлауынша
хабарсыз
хабаршы
хабаршысы
хабары
хабарын
хаббл
хавьер
хадис
хадисте
хадистер
хадиша
хазар
хазірет
хазіреті
хаи
хакас
хакасия
хаким
хакім
хал
халел
халил
халиф
халифа
халифат
халифаты
халифатының
халық
халықар
халықаралық
халықараралық
халықпен
халықта
халықтан
халықтар
халықтарда
халықтарды
халықтардың
халықтармен
халықтары
халықтарымен
халықтарын
халықтарына
халықтарында
халықтарының
халықтарға
халықты
халықтық
халықтың
халыққа
халькопирит
хальмер
халқы
халқымен
халқымыз
халқымыздың
халқын
халқына
халқында
халқының
хамза
хамиди
хамит
хан
хана
ханафи
хандар
хандардың
хандары
хандарының
ханды
хандығы
хандығымен
хандығын
хандығына
хандығында
хандығының
хандық
хандықтары
хандықтың
ханзада
ханзадасы
ханифа
ханмен
ханнан
ханның
ханов
ханс
ханты
ханшаи
ханы
ханым
ханымның
ханымы
ханының
хань
ханға
хара
харальд
харам
харрис
харрисон
харьков
хас
хасан
хасен
хасенов
хасково
хат
хатта
хаттама
хаттамасы
хаттар
хаттары
хатты
хатшы
хатшылығы
хатшылығының
хатшылық
хатшының
хатшысы
хатшысының
хаты
хатымен
хатын
хатында
хатқа
хауа
хаус
хафиз
хақ
хақназар
хақында
хдп
хе
хеи
хельмут
хельсинки
хемингуэи
херберт
херман
херона
херсон
хет
хи
хикая
хикаясы
хикаят
хикмет
хилл
хим
химигі
химик
химия
химияда
химиялык
химиялық
химияның
химиясы
хинди
хип
хиросима
хирург
хирургия
хирургиялық
хирургиясы
хит
хиуа
хиуаға
хкк
хлор
хлориді
хлорлы
хлорофилл
хмельницкии
хо
хоббиі
хозяи
хои
хок
хоккеи
холдинг
холл
холлабрун
холмс
хольцланд
хоп
хопер
хоперге
хопкинс
хор
хорасан
хорват
хорватия
хорезм
хорезми
хорезмшах
хореография
хореографиялық
хорн
хорст
хорхе
хоры
хосе
хош
храм
храмдар
храмы
хрестоматия
христиан
христиандар
христиандардың
христиандық
христофор
хром
хроматография
хромосома
хромосомалар
хромосомалардың
хромосомалық
хромосоманың
хромтау
хроника
хронологиялық
хсфельд
хтқо
ху
хуан
хулагу
хун
хунсрюк
хусеи
хх
ххі
хшжк
хью
хьюстон
хэи
хі
хіх
хіі
хііі
хұсаи
хәрри
ц
цаи
цар
цария
царияда
цариялық
царияның
цветль
цезарь
цеи
целинныи
целиноград
целль
целлюлоза
цемент
центавр
центнер
центнерден
центр
центральнои
центрі
цефеи
цех
цехтар
цехтары
цехы
цехында
цехының
цзы
ци
цивиль
цикл
циклді
циклдік
циклдің
циклы
циклі
циклінің
цилиндр
цилиндрлі
цилиндрлік
цильма
цин
цинь
цирк
цирконии
цитология
цитоплазма
цитоплазмасында
цитрус
цифр
цифрлы
цифрлық
цна
цнах
цои
цска
цц
цы
цюрих
ч
чад
чаи
чан
чапаев
чарлз
чарли
чарльз
чартында
часть
че
чебоксар
чек
чекмагушев
чел
человек
человека
челси
челябин
челябинск
челябі
чемпион
чемпионат
чемпионатта
чемпионаттары
чемпионаттарына
чемпионаттарында
чемпионаттарының
чемпионатты
чемпионаттың
чемпионаты
чемпионатын
чемпионатына
чемпионатынан
чемпионатында
чемпионатындағы
чемпионатының
чемпионатқа
чемпиондар
чемпиондары
чемпиондық
чемпионы
чен
чепца
черемшан
череповец
черкасск
черная
чернигов
черногория
чернышевскии
черняев
чероки
черчилль
чех
чехия
чехов
чеховтың
чехословакия
чжан
чжи
чжоу
чжу
чикаго
чили
численность
чишмин
чкалов
чон
чосон
что
чуваш
чулым
чулымнан
чулымға
чумыш
чусовая
чч
ш
ша
шабақ
шабдалы
шабу
шабуыл
шабуылдар
шабуылдаушы
шабуылды
шабуылшы
шабуылшысы
шабуылы
шабуылын
шабуылына
шабуылынан
шабуылға
шабындық
шабындыққа
шабыт
шаи
шал
шала
шалаөткізгіш
шалбар
шалдығады
шалдыққан
шалон
шалу
шалудан
шалуды
шалуларды
шалынған
шалып
шалыс
шальке
шалғаи
шалғын
шалғындар
шалғынды
шалғындық
шалқар
шалқасынан
шам
шама
шамада
шамадан
шамалар
шамаларды
шамалардың
шамалас
шамалы
шамамен
шаманы
шаманың
шамасы
шамасын
шамасына
шамасында
шамасындағы
шамасының
шамаға
шамдар
шамшырақ
шамы
шан
шана
шанағы
шанақ
шанин
шанхаи
шаншар
шаншып
шанышқылы
шань
шаньда
шаньның
шап
шапан
шапағат
шапель
шапшаң
шапырашты
шапқан
шапқыншылығы
шапқыншылығына
шапқыншылығынан
шапқыншылық
шар
шара
шаралар
шараларды
шаралардың
шаралары
шараларын
шараларына
шараларының
шараларға
шаран
шарап
шарасы
шараға
шарбақты
шарда
шардара
шардың
шариғат
шарлотта
шарль
шароль
шарт
шартсыз
шартта
шарттар
шарттарда
шарттарды
шарттардың
шарттары
шарттарын
шарттарына
шарттарының
шарттарға
шартты
шарттың
шарты
шартымен
шартын
шартына
шартының
шартқа
шаруа
шаруалар
шаруаларды
шаруалардың
шаруалары
шаруаларын
шаруаларының
шаруаларға
шаруаның
шаруасымен
шаруашылығы
шаруашылығымен
шаруашылығын
шаруашылығына
шаруашылығында
шаруашылығындағы
шаруашылығының
шаруашылық
шаруашылықта
шаруашылықтар
шаруашылықтардың
шаруашылықтары
шаруашылықтарында
шаруашылықтарының
шаруашылықты
шаруашылықтың
шаруашылыққа
шарушылығы
шаршау
шаршы
шары
шарын
шарында
шарындағы
шарының
шарықтау
шасси
шат
шато
шаттық
шатыр
шатырша
шатыршагүлділер
шатыры
шатқал
шатқалды
шатқалы
шатқалында
шауып
шаффхаузен
шах
шахмат
шахта
шахтада
шахтаның
шахтер
шахтинск
шаш
шашады
шашатын
шашақ
шашақты
шашты
шаштың
шашу
шашы
шашын
шашынның
шашып
шашыраи
шашыранды
шашырап
шашырау
шашырауы
шашыраңқы
шаю
шаян
шаяндар
шаянтәрізділер
шаяхметов
шаға
шағала
шағалалы
шаған
шағатаи
шағы
шағыл
шағылыстыру
шағылған
шағым
шағын
шағынан
шағынауданында
шағында
шағып
шағыр
шақ
шақпақ
шақта
шақты
шақшақ
шақшақаи
шақырады
шақыратын
шақырды
шақырту
шақыру
шақыруы
шақыруымен
шақыруға
шақырылады
шақырылды
шақырылымының
шақырылып
шақырылған
шақырым
шақырымдаи
шақырымды
шақырымдық
шақырымға
шақырып
шақырған
шаққан
шаққанда
шаққандағы
шаң
шаңды
шаңырақ
шаңғы
шаңғымен
шаңғысы
шаһ
шаһар
шаһзада
швабия
шваи
швац
швед
швеи
швеция
швецияда
швецияның
швиц
ше
шебер
шеберлер
шеберлердің
шеберлері
шеберлерінің
шеберлігі
шеберлігімен
шеберлігін
шеберлігіне
шеберлік
шеберлікпен
шеберлікті
шеберхана
шеберханасы
шеберханасында
шеберханасының
шебері
шебі
шебін
шебінде
шебіне
шебінің
шевченко
шеге
шегеді
шеген
шегендеу
шегу
шегі
шегін
шегінде
шегіндегі
шегінді
шегіне
шегінен
шегінуге
шегініп
шегіп
шегіртке
шежіре
шежіресі
шежіресін
шежіресінде
шеи
шек
шекара
шекарада
шекарадан
шекаралары
шекараларын
шекаралас
шекаралық
шекараны
шекарасы
шекарасын
шекарасына
шекарасынан
шекарасында
шекарасындағы
шекарасының
шекараға
шеккен
шекпен
шексна
шекспир
шекспирдің
шексіз
шексіздік
шектеи
шектелген
шектелді
шектеледі
шектелмеи
[...]
