!
"
#
##0
##1
##10
##11
##12
##13
##14
##15
##16
##17
##18
##19
##2
##20
##21
##22
##23
##24
##25
##26
##27
##28
##29
##3
##30
##31
##32
##33
##34
##35
##36
##37
##38
##39
##4
##40
##41
##42
##43
##44
##45
##46
##47
##48
##49
##5
##50
##51
##52
##53
##54
##55
##56
##57
##58
##59
##6
##60
##61
##62
##63
##64
##65
##66
##67
##68
##69
##7
##70
##71
##72
##73
##74
##75
##76
##77
##78
##79
##8
##80
##81
##82
##83
##84
##85
##86
##87
##88
##89
##9
##90
##91
##92
##93
##94
##95
##96
##97
##98
##99
$
%
&
'
(
)
*
+
,
-
.
/
0
00
000
00001
001
002
003
004
00473
005
006
007
0070
00789
008
009
01
010
01063
011
012
013
014
015
016
017
01738
018
019
02
020
021
022
023
024
02459
025
026
0268
027
028
0283
03
030
031
032
033
035
036
038
038532
04
040
041
042
044
045
049
05
051
052
055
057
06
060
066
07
070
071
08
080
08532
09
092
095
096
1
10
100
1000
10000
1001
1002
1003
1004
1005
1006
1007
1008
1009
101
1010
1011
1012
1013
1014
1015
1016
1017
1018
1019
102
1020
1021
1022
1023
1024
1025
1026
1027
1028
1029
103
1030
1031
1032
1033
1034
1035
1036
1037
1038
1039
104
1040
1041
1042
1043
1044
1045
1046
1047
1048
1049
105
1050
1052
1053
1054
1055
1056
1057
1058
1059
106
1060
1061
1062
1063
1064
1065
1066
1067
1068
1069
107
1070
1071
1072
1073
1074
1075
1076
1077
1078
1079
108
1080
1081
1082
1083
1084
1085
1086
1087
1088
1089
109
1090
1091
1092
1093
1094
1095
1096
1097
1098
1099
11
110
1100
1101
1102
1103
1104
1105
1106
1107
1108
1109
111
1110
1111
1112
1113
1114
1115
1116
1117
1118
1119
112
1120
1121
1122
1123
1124
1125
1126
1127
1128
1129
113
1130
1131
1132
1133
1134
1135
1137
1138
114
1140
1141
1142
1143
1144
1145
1146
1147
1148
1149
115
1150
1151
1152
1153
1154
1155
1156
1157
1158
1159
116
1160
1162
1163
1164
1165
1166
1168
117
1170
1171
1172
1173
1174
1175
1176
1178
1179
118
1180
1181
1182
1183
1184
1185
1186
1187
1188
1189
119
1190
1193
1194
1195
1197
1198
1199
12
120
1200
12000
1201
1202
1203
1204
1205
1206
1207
1208
1209
121
1210
1211
1212
1213
1214
1215
1216
1217
1218
1219
122
1220
1221
1222
1223
1224
1226
1227
1228
1229
123
1230
1231
1232
1233
1234
1235
1236
1237
1238
1239
124
1240
1241
1242
1243
1245
1246
1247
1248
125
1250
1251
1252
1253
1254
1255
1256
1257
1258
1259
126
1260
1261
1262
1265
1266
1269
127
1270
1271
1273
1274
1275
1276
1277
1279
128
1280
1281
1282
1286
1287
1288
129
1290
1293
1294
1296
1297
1299
13
130
1300
1301
1302
1303
1304
1305
1306
1307
1308
1309
131
1310
1311
1312
1313
1314
1315
1316
1317
1318
132
1320
1321
1322
1324
1326
1327
1328
1329
133
1330
1332
1333
1334
1335
1336
1337
1339
134
1340
1341
1342
1343
1344
1345
1346
1347
1349
135
1350
1351
1353
1356
1357
1358
136
1360
1361
1362
1363
1364
1365
1366
1367
1368
1369
137
1370
1371
1372
1374
1375
1376
1377
1378
1379
138
1380
1381
1382
1383
1386
1388
1389
139
1390
1391
1392
1394
1395
1396
1398
1399
14
140
1400
14000
1401
1402
1403
1404
1405
1406
1409
141
1410
1411
1413
1414
1415
1416
1419
142
1420
1421
1422
1423
1424
1425
1426
1428
1429
143
1430
1431
1433
1434
1435
1436
1437
144
1440
1441
1445
1446
1447
1449
145
1450
1451
1452
1453
1454
1455
1456
1457
1459
146
1460
1461
1462
1465
1466
1467
1468
1469
147
1470
1471
1472
1473
1475
1478
148
1480
1481
1482
1483
1485
1486
1487
1488
149
1490
1492
1493
1494
1495
1498
1499
15
150
1500
1501
1502
1503
1504
1505
1506
1507
1508
1509
151
1510
1511
1512
15120
1513
1514
1515
1516
1517
1518
1519
152
1520
1521
1522
1523
1524
1525
1526
1527
1528
1529
153
1530
1531
1532
1533
1534
1535
1536
1537
1538
1539
154
1540
1541
1542
1543
1545
1546
1547
1548
1549
155
1550
1551
1552
1553
1554
1555
1556
1557
1558
1559
156
1560
1561
1562
1563
1564
1565
1566
1567
1568
1569
157
1570
1571
1573
1574
1575
1576
1577
1578
1579
158
1580
1582
1583
1584
1585
1586
1588
1589
159
1590
1592
1594
1595
1596
1598
1599
16
160
1600
16000
1601
1602
1603
1604
1605
1606
1607
1608
1609
161
1610
1612
1613
1614
1615
1616
1617
1618
1619
162
1620
1621
1622
1623
1624
1625
1626
1627
1628
1629
163
1630
1632
1633
1634
1635
1636
1637
1639
164
1640
1641
1642
1643
1644
1645
1646
1647
1648
1649
165
1650
1651
1652
1653
1654
1657
1658
166
1660
1661
1664
1665
1666
1667
1668
167
1670
1671
1672
1673
1675
1676
168
1680
1681
1682
1683
1684
1685
1687
1689
169
1690
1692
1693
1694
1697
1698
1699
17
170
1700
1701
1702
1703
1704
1705
1706
1707
1708
1709
171
1710
1711
1712
1713
1714
1715
1716
1717
1718
1719
172
1720
1721
1722
1723
1724
1725
1726
1727
1728
1729
173
1730
1731
1732
1733
1734
1735
1736
1737
1738
1739
174
1740
1741
1742
1743
1744
1745
1746
1747
1748
1749
175
1750
1751
1752
1753
1754
1755
1756
1757
1758
1759
176
1760
1761
1762
1763
1764
1765
1766
1767
1768
1769
177
1770
1771
1772
1773
1774
1775
1776
1777
1778
1779
178
1780
1781
1782
1783
1784
1785
1786
1787
1788
1789
179
1790
1791
1792
1793
1794
1795
1796
1797
1798
1799
18
180
1800
1801
1802
1803
1804
1805
1806
1807
1808
1809
181
1810
1811
1812
1813
1814
1815
1816
1817
1818
1819
182
1820
1821
1822
1823
1824
1825
1826
1827
1828
1829
183
1830
1831
1832
1833
1834
1835
1836
1837
1838
1839
184
1840
1841
1842
1843
1844
1845
1846
1847
1848
1849
185
1850
1851
1852
1853
1854
1855
1856
1857
1858
1859
186
1860
1861
1862
1863
1864
1865
1866
1867
1868
1869
187
1870
1871
1872
1873
1874
1875
1876
1877
1878
1879
188
1880
1881
1882
1883
1884
1885
1886
1887
1888
1889
189
1890
1891
1892
1893
1894
1895
1896
1897
1898
1899
19
190
1900
1901
1902
1903
1904
1905
1906
1907
1908
1909
191
1910
1911
1912
1913
1914
1915
1916
1917
1918
1919
192
1920
1921
1922
1923
1924
1925
1926
1927
1928
1929
193
1930
1931
1932
1933
1934
1935
1936
1937
1938
1939
194
1940
1941
1942
1943
1944
1945
1946
1947
1948
1949
195
1950
1951
1952
1953
1954
1955
1956
1957
1958
1959
196
1960
1961
1962
1963
1964
1965
1966
1967
1968
1969
197
1970
1971
1972
1973
1974
1975
1976
1977
1978
1979
198
1980
1981
1982
1983
1984
1985
1986
1987
1988
1989
199
1990
1991
1992
1993
1994
1995
1996
1997
1998
1999
2
20
200
2000
20000
2001
2002
2003
2004
2005
2006
2007
2008
2009
201
2010
2011
2012
2013
2014
2015
2016
2017
2018
2019
202
2020
2021
2022
2023
2025
203
2030
204
205
2050
206
207
2078
208
209
21
210
2100
211
212
213
214
215
216
217
218
219
22
220
2200
221
222
223
2231
224
225
226
227
228
229
23
230
2300
231
232
233
234
235
236
237
238
239
24
240
2400
241
242
243
244
245
2459
246
247
248
249
25
250
2500
25000
251
252
253
254
255
256
257
258
259
26
260
2600
261
2616
262
263
264
265
266
267
268
269
27
270
2700
271
272
273
274
275
276
277
278
279
28
280
2800
281
282
283
284
285
286
287
288
289
29
290
291
292
293
294
2949
295
296
297
298
299
3
30
300
3000
30000
301
302
303
304
305
306
307
308
309
31
310
311
312
313
314
315
316
317
318
319
32
320
321
322
323
324
325
326
327
328
329
33
330
331
332
333
334
335
336
337
338
339
34
340
341
342
343
344
345
346
347
348
349
35
350
3500
351
352
353
354
355
356
357
358
359
36
360
3600
361
362
363
364
365
366
367
368
369
37
370
371
372
373
374
375
376
377
378
379
38
380
381
382
383
384
385
386
387
388
389
39
390
391
392
393
394
395
396
397
398
399
4
40
400
4000
401
402
403
404
405
406
407
408
409
41
410
411
412
413
414
415
416
417
418
419
42
420
421
422
423
424
425
426
427
428
429
43
430
431
432
433
434
435
436
437
438
439
44
440
441
442
443
444
445
446
447
448
449
45
450
4500
451
452
453
454
455
456
457
458
459
46
460
461
462
463
464
465
466
467
468
469
47
470
471
472
473
474
475
476
477
478
479
48
480
481
482
483
484
485
486
487
488
489
49
490
491
492
493
494
495
496
497
498
499
5
50
500
5000
50000
501
502
503
504
505
506
507
508
509
51
510
511
512
513
514
515
516
517
518
519
52
520
521
522
523
524
525
526
527
528
529
53
530
531
532
533
534
535
536
537
538
539
54
540
541
542
543
544
545
546
547
548
549
55
550
551
552
553
554
555
556
557
558
559
56
560
561
562
563
564
565
566
567
568
569
57
570
571
572
573
574
575
576
577
578
579
58
580
581
582
583
584
585
586
587
588
589
59
590
591
592
593
594
595
596
597
598
599
6
60
600
6000
601
602
603
604
605
606
607
608
609
61
610
611
612
613
614
615
616
617
618
619
62
620
621
622
623
624
625
626
627
628
629
63
630
631
632
633
634
635
636
637
638
639
64
640
641
642
643
644
645
646
647
648
649
65
650
651
652
653
654
655
656
657
658
659
66
660
661
662
663
664
665
666
667
668
669
67
670
671
672
6727
673
674
675
676
677
678
679
68
680
681
682
683
684
685
686
687
688
689
69
690
691
692
693
694
695
696
697
698
699
7
70
700
7000
701
702
7026
703
704
705
706
707
708
709
71
710
711
712
713
714
715
7157
716
717
718
719
72
720
721
722
723
724
725
7254
726
727
728
729
73
730
731
732
733
734
735
736
737
738
739
74
740
741
742
743
744
745
746
747
7472
748
749
75
750
751
752
753
754
755
756
757
758
759
76
760
761
762
763
764
765
766
7667
767
768
769
77
770
771
772
773
774
775
776
777
778
779
78
780
781
782
783
784
785
786
787
788
789
79
790
791
792
793
794
795
796
797
798
799
8
80
800
8000
801
802
803
804
805
806
807
808
809
81
810
811
812
813
814
815
816
817
818
8188
819
82
820
821
822
823
824
825
826
827
828
8284
829
83
830
831
832
833
834
835
836
837
838
839
84
840
841
842
843
844
845
846
847
848
849
85
850
851
852
853
854
855
856
857
858
859
86
860
861
862
863
864
865
866
867
868
869
87
870
871
872
873
874
875
876
877
878
879
88
880
881
882
883
884
885
886
887
888
889
89
890
891
892
893
894
895
896
897
898
89800
89840
899
9
90
900
9000
901
902
903
904
905
906
907
908
909
91
910
911
912
913
914
915
916
917
918
919
92
920
921
922
923
924
925
926
927
928
929
93
930
931
932
933
934
935
936
937
938
939
94
940
941
942
943
944
945
946
947
948
949
95
950
951
952
953
954
955
956
957
958
959
96
960
961
962
963
964
965
966
967
968
969
97
970
971
972
973
974
975
976
9765
977
978
979
98
980
981
982
983
984
985
986
987
988
989
99
990
991
992
993
994
995
996
9963
9965
997
998
999
:
;
<
=
>
?
@
\
^
_
`
a
ab
abc
able
ablon
about
ac
academic
academy
access
accessed
account
act
action
ad
add
added
address
adebiportal
advanced
advice
ae
aero
af
affect
africa
african
after
ag
again
age
ai
air
airbus
airlines
airways
al
album
algemdcsb
ali
align
alignbars
all
allows
almaty
almt
alpha
already
als
also
alt
am
amateur
ambassadors
america
american
amtliche
amtsfreien
an
analysis
anbek
ancien
and
andrew
android
anhalt
anne
another
antlia
antonio
any
anyone
ap
api
app
apple
applies
april
ar
ara
arabic
arak
architecture
archive
archives
are
area
arena
arms
around
arp
art
article
articles
artist
arts
as
ashina
asia
asian
ask
asp
aspx
assembly
association
assume
astana
aston
at
attribution
au
audi
august
aujourd
australia
australian
author
auto
aux
available
avant
aviation
award
awards
ay
az
b
ba
baby
back
background
backgroundcolors
bad
baden
bafta
band
bang
bank
bar
baratier
bardata
barra
base
based
bases
basic
batyrbek
bayerisches
bb
bbc
bc
bd
be
beatles
because
been
before
begin
being
believe
bell
below
berlin
best
beta
better
between
bevo
bf
bg
bgmaps
bi
big
bigenc
bilim
billboard
biography
bl
black
block
blog
blue
bmw
bn
bo
board
body
boeing
bois
bolatbek
book
bookchamber
books
border
borealis
bot
both
bottom
box
boxing
boy
boys
br
break
bridge
britanica
britannica
british
bros
brown
bs
bse
bts
bu
bugatti
bugs
building
bureau
business
but
button
by
c
ca
cadillac
calendar
california
call
called
camaro
cambridge
can
canada
canes
canvas
capital
car
cargo
caribbean
carina
case
cassini
cassinidonne
cassinihttp
castle
cat
category
cc
cd
cdot
ce
cell
census
center
central
centre
century
cerevisiae
cf
ch
cha
change
changed
changes
channel
chapelle
charles
chart
charter
che
check
chevrolet
chiffres
child
children
china
chinese
choice
christian
chrome
church
ci
cite
cities
city
civil
cl
class
click
club
cm
cn
cnn
co
coat
code
collapsible
collection
college
color
colors
columbia
column
com
come
comics
comments
commercial
committee
common
commons
communale
commune
communes
communities
community
company
compatible
complete
comptes
computer
comune
con
config
conserve
const
consulte
contact
content
contest
contribute
control
copy
copyright
core
corona
corporation
cos
could
council
countries
country
coupe
court
cover
covid
cr
crater
create
created
creative
cs
css
cu
culture
cup
current
currently
cy
cyrillic
d
da
daily
dance
daniyar
dark
darkgrey
data
database
date
dateformat
datei
datenverarbeitung
david
day
days
db
dbsk
dc
dd
de
dead
dear
death
december
default
del
deletion
delivery
della
delta
den
department
depuis
der
des
description
design
detail
details
developers
development
dez
dezember
di
dic
dict
dictionary
did
die
different
digital
discovery
discussion
disney
display
div
dj
dl
do
doc
docs
document
documentation
does
doi
domain
don
done
donne
dorado
dos
double
doubles
down
dps
dr
dragon
drcg
dream
ds
dt
dten
du
duby
during
dvd
dx
dy
e
ea
each
eagle
early
earth
easier
east
ebay
ec
economic
ed
edit
editing
edition
editor
editors
edits
edu
education
edward
ehess
ehessehess
ehesshttp
el
election
electric
elizabeth
else
em
emaps
empire
en
enc
encyclopedia
end
energy
engineering
england
english
entertainment
eo
ep
er
erfu
error
es
esetok
eso
et
etc
ethnology
etnolog
eu
europe
european
eurovision
even
event
events
everyone
ex
example
examples
excel
exo
explicit
explorer
express
extension
extragalactic
f
fa
face
facebook
fact
fair
falcon
false
family
fc
fe
feature
features
february
federation
feedback
ferrari
festival
few
ff
fi
fiche
fichier
fifa
file
files
film
filter
final
financial
find
fips
fire
first
five
fix
fixed
flag
flight
flying
fm
following
font
fontsize
football
footballfacts
footer
for
forbes
force
ford
form
format
fornax
fortschreibung
forum
foundation
four
fox
fr
frac
franc
france
free
freedom
freely
french
from
front
fu
full
function
future
fvg
g
ga
gaijin
galaxy
gallery
game
games
gaux
ge
gemeinden
general
generation
george
german
germany
get
gfdl
gif
gime
giovanni
girl
girls
give
given
gives
gje
gl
global
gm
gnu
go
gold
golden
good
google
got
gov
government
gps
grand
gray
great
green
gridcolor
group
grp
gt
gta
gu
guardian
guide
guidelines
h
ha
hall
happen
harvard
has
have
hcg
hcl
hd
he
head
header
heart
height
hello
help
henry
her
here
heritage
hessischen
hi
hier
high
hildesheimer
hill
his
historical
historique
history
ho
holder
hollywood
holstein
home
homo
horizontal
horologium
hot
hotel
house
how
hp
hr
htm
html
http
https
hu
hui
human
i
ibf
ibm
ibn
ic
icon
id
ieee
if
ii
iii
il
im
image
images
imagesize
imdb
img
important
in
inc
include
including
increment
independent
index
india
indicated
info
infobox
inform
information
insee
inseecha
inseee
inseehttp
inseeinsee
inseela
inseele
inseeles
inseeme
inseepopulation
inseesaint
insert
inside
instagram
instead
institute
int
intel
interface
international
internet
interview
into
introduction
io
ios
ip
ipac
ipad
iphone
iran
iras
irc
is
isbn
islam
islamic
island
iso
issn
issue
issus
it
italy
item
itf
its
itunes
iv
ix
j
ja
jaguar
james
jan
january
janvier
japan
java
javascript
je
jean
jet
john
join
jones
jordan
joseph
jour
journal
jpeg
jpg
js
juillet
july
june
junior
jusque
just
justify
k
ka
kaiyr
kara
kase
kasymov
kaz
kazakh
kazakhstan
kb
kcpg
kept
key
kg
ki
kids
kim
king
kingdom
kk
know
knowledge
ko
koleksiyonu
kommunikationstechnologie
korea
korean
kr
kreisen
ku
kug
kz
l
la
label
lady
lake
lambda
lamborghini
land
landesamt
landesbetrieb
landkreis
landkreisen
lang
language
languages
last
later
latest
latin
law
layer
lb
lc
ldh
le
league
lee
left
legend
lego
les
let
letter
lg
li
libero
library
license
life
light
lightgrey
like
limited
limits
line
lines
link
links
linux
list
listed
lists
literature
little
live
lkerung
lkerungsentwicklung
lkerungsfortschreibung
lkerungsstandes
lkerungszahlen
ll
llenden
lmc
ln
lo
load
local
location
log
logo
logos
london
long
longer
look
los
louis
love
lp
lr
lt
ltd
lu
lv
m
ma
mac
machine
made
madonna
magazine
magic
mai
mail
main
major
make
man
management
manchester
many
map
mapquest
maps
march
margin
maria
mark
mars
martin
martire
marvel
mary
master
match
matches
mathbf
mathrm
mathsf
max
may
mc
mcg
md
me
means
media
mediawiki
medicine
meeting
meetings
members
memory
men
mensa
message
messages
meta
method
mexico
mg
mi
michael
microsoft
middle
might
military
min
mini
minutes
mis
mit
mk
ml
mls
mm
mn
mo
mobile
mode
model
modern
monoceros
month
moon
more
mosque
most
motor
motors
mountain
move
movement
movie
mp
mr
ms
mtern
mtrr
mtv
mu
multiple
municipale
museum
music
muslim
must
mw
my
mysql
n
na
nach
nacl
name
names
naoh
narod
nasa
national
nations
nature
nc
nd
ne
near
need
needs
net
network
new
news
newsletter
next
nf
ng
ngc
nh
ni
niedersachsen
nietzsche
night
nl
nn
no
nokia
nombres
non
none
nord
north
not
note
notice
notifications
notoc
november
now
npm
ns
nsf
nu
number
numbers
o
oc
ocl
october
of
off
office
official
officiel
oh
oil
ok
old
omega
on
one
online
only
op
open
ophiuchus
option
optional
options
or
oracle
orange
order
org
orientation
original
os
other
others
ou
our
out
over
own
oxford
p
pa
pacific
padding
page
pages
pakistan
par
parameter
parameters
paris
park
part
partementales
partial
partir
party
paul
paypal
pb
pc
pdf
pe
people
per
performance
period
permission
permitted
person
peter
pfalz
pg
pgc
ph
phd
phi
philosophy
phone
photo
php
pi
pictures
pierre
pietro
pk
pl
place
plan
plantilla
play
player
players
playstation
please
plotarea
plotdata
plus
pm
pmid
pn
png
po
point
policy
political
politics
poly
pop
population
populations
porsche
portal
portrait
position
possible
post
posted
pour
power
pp
ppp
pr
pre
preferences
prepared
president
press
prince
prize
pro
problem
problems
proceed
process
production
profil
profile
program
project
projects
provincia
ps
pt
public
publications
publie
published
publishing
pubmed
puis
puppis
px
python
q
qarakesek
qazaqstan
quartal
quartale
quartalsende
que
queen
query
questions
r
ra
radio
range
ransfermarkt
rationales
ray
re
read
reading
real
reason
reasonable
recensement
recensements
recent
record
records
rect
recurrent
red
ref
reference
region
regione
related
release
religion
remove
removed
replace
report
representatives
republic
request
res
research
resources
restriction
results
retenus
retrieved
return
returns
review
rgb
rheinland
rho
ri
richard
right
rightarrow
rights
ring
ringer
river
rn
ro
road
robert
rocco
rock
roland
rolling
round
rover
row
royal
royalty
rs
rsssf
rttembergs
ru
run
ruparpiemonte
rus
russia
russian
ruwiki
rys
rystanbek
s
sa
sab
sachsen
saint
same
samsung
san
sans
sant
santa
sao
save
sb
sba
sbab
sbb
sbbc
sbc
sbcd
sbn
sc
scalemajor
scaleminor
schleswig
school
science
sciences
scotland
scripts
sculptor
sd
se
sea
search
seas
season
second
secret
section
security
see
seem
segreteria
select
self
senate
september
series
server
service
services
set
sextans
sfondo
sh
share
sharealike
shift
short
should
show
shtml
si
sibom
sigma
sign
simbad
simple
sin
since
sindaco
singapore
single
site
sites
size
sk
skin
sky
sl
slovaronline
sm
small
smith
sn
so
soccer
soccerway
social
society
software
solid
some
song
sony
soon
source
sous
south
soviet
sp
space
spain
special
specific
speed
speedy
spieler
sport
sports
spring
sqrt
square
sr
ss
st
sta
stadium
stand
standard
star
starbucks
stars
start
state
states
station
statistics
statistik
statistikamt
statistisches
status
stephen
stichtag
still
stone
stones
store
stories
story
strategy
street
structure
studies
studio
studios
study
style
su
subscribe
succession
such
sultats
sum
summary
summer
sun
super
support
sur
survey
sv
svg
sweden
switch
syntax
system
systems
t
ta
tab
table
tags
take
talk
task
te
team
teams
tech
technical
technologies
technology
tell
template
templates
tengrinews
test
texas
text
textcolor
th
than
thank
thanks
that
the
theft
their
them
then
theory
there
these
they
things
think
third
this
thomas
thomson
those
three
through
thu
thumb
ti
till
time
timeaxis
times
title
titles
tl
to
today
tokyo
tom
tool
tools
top
topic
total
touch
tour
tower
town
toyota
tr
trans
transfermarkt
translate
translated
translation
translations
transport
travel
true
trump
try
ts
tt
tu
tucana
turkey
tv
twitter
two
type
u
ua
uav
uefa
ugc
ugca
uk
ukraine
ul
um
un
und
under
union
unit
united
universal
university
unsubscribe
until
up
update
updated
upload
uploaded
uploader
upright
ur
url
urp
us
usa
usage
usb
use
used
user
users
uses
using
utc
uz
v
va
valley
value
van
var
varphi
vcc
ve
vec
vector
venatici
version
vertical
verwaltungsgemeinschaften
very
vi
via
victoria
video
viertes
view
vii
viii
villages
ville
virgin
visual
visualeditor
vizier
vol
volume
volunteer
volution
von
vote
vrier
vs
vv
w
wall
want
war
warner
was
washington
watch
water
way
ways
wba
wbc
wbo
wd
we
web
website
week
weekly
welcome
well
were
west
western
what
when
where
which
while
white
who
why
wi
width
wiki
wikibilim
wikidata
wikimedia
wikipedia
wikipedias
wikis
wikitext
will
william
win
windows
wishlist
with
without
wmf
woman
women
word
work
working
works
world
worldfootball
would
wp
write
writers
writing
wta
wu
www
x
xbox
xi
xii
xiii
xinjiang
xiv
xix
xn
xp
xv
xvi
xvii
xviii
xx
xxi
y
ya
yahoo
year
years
yellow
yo
york
you
young
your
youtube
z
ze
zh
zingiber
zn
zum
zw
zwg
{
|
}
~
¡
¢
£
¥
§
©
«
¬
­
®
°
±
²
³
µ
¶
·
¹
º
»
¼
½
¾
×
ß
æ
÷
ı
ŋ
ƒ
ə
ʻ
ʼ
ʿ
˃
ˈ
ː
˚
̀
́
̂
̃
̄
̆
̇
̈
̉
̊
̋
̌
̓
̔
̛
̣
̦
̧
̨
̱
̸
͂
α
β
γ
δ
ε
ζ
η
θ
ι
λ
μ
ν
ξ
ο
π
ρ
ς
σ
τ
υ
φ
χ
ω
а
аа
аақ
абаи
абақ
аббас
абд
абдолла
абдрахманов
абдрахманова
абдул
абдулин
абдулла
абдуллаһ
абдуль
абзал
аборт
абруццо
абсолют
абсолютт
абсолютті
абсолюттік
абу
абхаз
абхазия
абыз
абылаи
абырои
ав
аваллон
авангард
аванесов
авар
август
августа
аве
авеи
авеллино
авен
авиация
авиациялық
авиацияның
авила
авр
авраам
авранш
аврора
австралия
австралияда
австралиялық
австралияның
австрия
австриялық
австрияның
авт
авто
автобус
автобустар
автокөлік
автокөліктер
автомат
автоматтандыру
автоматтандырылған
автоматты
автоматтық
автомобиль
автомобильдер
автомобильдері
автомобильді
автомобильдің
автомобилі
автономды
автономдік
автономия
автономиялы
автономиялық
автономиясы
автономиясын
автономиясының
автор
автордың
авторитарлық
авторлар
авторлардың
авторлары
авторларының
авторлық
авторы
агент
агенттігі
агенттігінің
агенттік
агенттіктің
агенті
агломерациясы
агломерациясында
аграрлы
аграрлық
агрегаттар
агрегаттары
агрегаттық
агрессивті
агресте
агроклиматтық
агроном
агрономы
агротехникалық
агроөнеркәсіп
агроөнеркәсіптік
ад
ада
адаи
адал
адалдық
адам
адамгершілік
адамгершілікке
адамда
адамдар
адамдарда
адамдардан
адамдарды
адамдардың
адамдармен
адамдары
адамдарын
адамдарына
адамдарының
адамдарға
адамды
адамдық
адамзат
адамзатты
адамзаттық
адамзаттың
адамзатқа
адами
адаммен
адамнан
адамның
адамс
адамы
адамының
адамға
адаптер
адасқан
адвокат
адидже
админ
админдер
административно
адмирал
адольф
адрес
адресі
адриан
адыгеи
адыгея
ажал
ажар
ажыраи
ажырамас
ажырап
ажырасу
ажырасып
ажырасқан
ажырата
ажыратады
ажырату
ажыратуға
ажыратылады
ажыратып
аз
аза
азаи
азамат
азаматтар
азаматтарды
азаматтардың
азаматтары
азаматтарына
азаматтарының
азаматтарға
азаматтығы
азаматтығын
азаматтық
азаматтың
азаматы
азан
азап
азат
азаттық
азаюы
азаюына
азая
азаяды
аздап
аздау
аздаған
азды
аздығы
азербаи
азиз
азии
азия
азияда
азиядан
азиядағы
азиялық
азияны
азияның
азияға
азов
азот
азотты
азоттың
азу
азырақ
азығы
азығын
азық
азықтық
аи
аив
ак
акад
академигі
академик
академика
академиктер
академиктері
академия
академиялық
академияны
академияның
академиясы
академиясын
академиясына
академиясында
академиясының
акбар
аквитания
акино
аккад
аккумулятор
акср
акт
акте
актер
актердің
актерлер
актерлердің
актерлері
актерлік
актері
актив
активтер
активтерді
активті
актриса
актрисалары
актрисасы
актілер
актісі
акуила
акула
акулалар
акустикалық
акушерлік
акционерлік
акция
акциялар
акциялары
акцияларын
акцияларының
акциясы
ал
ала
алабы
алабын
алабына
алабында
алабындағы
алабының
алабұға
алагоас
алады
алаи
алакөл
аламан
аламыз
аламын
алан
алания
алансон
алап
алаптары
алаптың
алар
аласа
аласапыран
аласыз
алатау
алатауларында
алатауы
алатауында
алатауындағы
алатауының
алатын
алатындаи
алатынын
алатырь
алау
алауыздық
алаш
алаша
алашорда
алашорданың
алаштың
алақан
алаң
алаңда
алаңдар
алаңдары
алаңдарында
алаңдағы
алаңнан
алаңның
алаңы
алаңын
алаңына
алаңында
алаңындағы
алаңының
алаңға
алаңқаи
албан
албания
алгарве
алгебра
алгебралық
алгоритм
алда
алдамшы
алдап
алдар
алдау
алдағы
алды
алдым
алдымен
алдын
алдына
алдынан
алдында
алдындағы
алдынғы
алдыңғы
алегри
алеи
алекс
александр
александра
александрия
александров
александрович
александровна
александровск
алексеев
алексеевич
алексеевка
алексеи
алентежу
алеппо
алес
алессандрия
алжир
али
аликанте
алкогольді
алла
алладан
алланың
аллаға
аллаһ
аллаһтан
аллаһтың
аллаһу
аллаһқа
аллен
аллергиялық
аллювии
алма
алмады
алмаз
алмаи
алмалы
алмас
алмаса
алмасады
алмастырды
алмастыру
алмастырылды
алмастырып
алмасу
алмасуды
алмасудың
алмасуы
алмасуын
алмасуына
алмасуының
алмасуға
алмасып
алматы
алматыда
алматыдан
алматыдағы
алматыкітап
алматылық
алматының
алматыға
алмау
алмауы
алмаған
алмақ
алмұрт
алпамыс
алпыс
алса
алсақ
алта
алтаи
алту
алты
алтын
алтынаи
алтынбеков
алтынды
алтынемел
алтынмен
алтыннан
алтынның
алтынсарин
алтыншы
алтынға
алу
алуан
алуда
алудан
алуды
алудың
алумен
алушы
алушылар
алушылардың
алушының
алушыға
алуы
алуын
алуына
алуға
алфавит
алшақ
алшын
алым
алымы
алынады
алынатын
алынбаи
алынбаған
алынды
алынса
алынуы
алынып
алынған
алып
алыс
алыста
алыстан
алыстағы
алысып
алысқа
аль
альберт
альберто
альбом
альбомдар
альбомдары
альбомның
альбомы
альбомын
альгои
алье
альпі
альпілік
альт
альта
альткирш
альто
альфа
альфред
альянс
алюминии
аляска
алға
алғабас
алған
алғанда
алғандар
алғаннан
алғаны
алғанымен
алғанын
алғанға
алғаш
алғашкы
алғашында
алғашқы
алғашқыда
алғашқылардың
алғашқысы
алғы
алғыр
алғыс
алғысы
алғышарттары
алқа
алқабы
алқабын
алқабында
алқабындағы
алқабының
алқап
алқапта
алқаптар
алқаптарда
алқаптары
алқаптарында
алқапты
алқасы
алқасының
алқызыл
ам
амазонас
амал
амалдар
амалдары
амалы
амалын
аман
аманат
амангелді
аманжолов
аманкелді
амантаи
амбулатория
америка
америкада
америкадан
америкадағы
америкалық
америкалықтар
американ
американдық
американдықтар
американы
американың
америкасы
америкаға
амин
аммиак
аммонии
амплитудасы
амстердам
амур
ан
ана
анадан
анадолы
аналар
аналардың
аналары
анализ
аналитикалық
аналығы
аналығының
аналық
аналықтары
ананың
анар
анастасия
анасы
анасымен
анасын
анасына
анасынан
анасының
анатолии
анатомия
анатомиялық
анатомиясы
анау
анаэробты
анаға
анағұрлым
англ
англии
англия
англияда
англиядағы
англиялық
англиямен
англияның
англияға
ангола
анд
анда
андалусия
андели
андерлехт
андерсон
анджелес
анджелесте
андорра
андре
андреа
андреас
андреев
андреевич
андреи
андрес
андромеда
андронов
анемия
анжелес
ани
анимациялық
аниме
анкара
анна
анотомия
анри
ансамбль
ансамблі
ансамблінің
ант
антанта
антарктида
антенна
анти
антибиотиктер
антиген
антидене
антиденелер
антик
антика
антикалық
антиклинории
антиль
антон
антонии
антонио
антониу
антонов
антропогендік
антропология
антропологиялық
антуан
анхальт
анхель
анық
анықтады
анықтаи
анықталады
анықталатын
анықталды
анықталмаған
анықталуы
анықталып
анықталған
анықтама
анықтамаламық
анықтамалар
анықтамалығы
анықтамалық
анықтамасы
анықтап
анықтау
анықтауда
анықтауды
анықтаудың
анықтауға
анықтаған
ао
аоста
ап
апа
апаи
апалы
апарады
апаратын
апарып
апат
апаттар
апатты
апаты
апатынан
апатқа
апельсин
апертура
апматы
аполлон
апостол
аппарат
аппараттар
аппараттары
аппаратты
аппараттық
аппараттың
аппараты
аппаратын
аппаратында
аппаратының
аппақ
апреля
апта
аптада
аптадан
апталық
аптаның
аптасына
аптаға
апулия
ар
ара
араб
арабия
арабиясы
арабиясының
арабтар
арабтардың
арабтың
арабша
арагон
арада
арадағы
араи
арал
аралап
аралар
аралары
араларында
аралас
араласа
араласады
араласпаи
араласты
араластыра
араластырады
араластыру
араластырып
араласу
араласуы
араласып
араласқан
аралбаи
аралда
аралдар
аралдарда
аралдарды
аралдардың
аралдары
аралдарын
аралдарына
аралдарында
аралдарындағы
аралдарының
аралды
аралдың
аралы
аралын
аралына
аралынан
аралында
аралындағы
аралының
аралығы
аралығын
аралығына
аралығында
аралығындағы
аралық
аралықта
аралықтарында
аралықтарындағы
аралықтағы
аралықты
аралға
арам
арамеи
арамшөп
арасан
арасы
арасын
арасына
арасынан
арасында
арасындағы
араға
арақ
арақатынасы
арақашықтығы
арақашықтық
арба
аргау
аргентина
аргентинада
аргентиналық
аргентинаның
ардагер
ардагерлер
ардагерлері
ардагері
ардақты
арена
аренада
арендада
аржантан
арзан
аризона
арии
аристотель
аристотельдің
арифметика
арифметикалық
арка
аркадии
арктика
арктикалық
аркуль
аркылы
арлан
арман
армандаи
арманы
армения
арменияның
армии
армия
армияның
армиясы
армиясын
армиясының
армор
армстронг
армян
армяндар
арн
арна
арнады
арнаи
арналады
арналар
арналары
арналды
арналып
арналық
арналған
арнаның
арнап
арнасы
арнасын
арнасына
арнасынан
арнасында
арнасының
арнау
арнаулы
арнаға
арнаған
арнольд
ароматты
арпа
аррас
арре
аррои
арсенал
арслан
арт
арта
артады
артезиан
артерия
артериялық
артиллерия
артиллериялық
артисі
артта
артты
арттыра
арттырады
арттыратын
арттырды
арттыру
арттыруға
арттырып
артур
артуы
артуына
арты
артына
артынан
артында
артынша
артып
артық
артықшылығы
артықшылық
артықшылықтары
артқа
артқан
артқы
ару
аруана
аруна
аруы
арх
архаикалық
архангел
архангельск
археи
археол
археолог
археология
археологиялық
археологтар
архив
архивировано
архимед
архит
архитектор
архитекторы
архитектура
архитектуралық
архитектурасы
арша
аршалы
ары
арыз
арылу
арын
арынды
арыс
арыстан
арыстанның
арық
арғы
арғын
арқа
арқалық
арқан
арқар
арқасы
арқасында
арқау
арқауы
арқылы
ас
аса
асады
асан
асанов
асар
асатын
асау
асбест
асдп
аскр
аслан
аспа
аспабы
аспады
аспаздық
аспаи
аспалы
аспан
аспанда
аспандағы
аспанды
аспаннан
аспанның
аспанға
аспап
аспаптар
аспаптарда
аспаптарды
аспаптардың
аспаптары
аспаптарын
аспаптарының
аспапты
аспаптық
аспаптың
аспауы
аспаған
аспектілері
аспирант
аспирантура
аспирантурасын
аспиранты
асса
ассамблея
ассамблеясы
ассамблеясының
ассирия
ассистент
ассистенті
ассоциация
ассоциациясы
ассоциациясының
асср
аст
астам
астамы
астамын
астана
астанада
астанадағы
астаналары
астаналық
астананы
астананың
астанасы
астанасын
астанаға
астар
астарлы
астасып
астероидтар
асти
астон
астралылар
астрахан
астрахань
астрель
астроном
астрономдар
астрономия
астрономиялық
астрономы
астрофизика
асты
астына
астынан
астында
астындағы
астыртын
астық
астықты
астыңғы
асу
асулары
асуы
асфендияров
асхана
асханасы
асы
асыл
асылбек
асып
асыра
асырады
асырап
асыратын
асырды
асыру
асыруда
асыруды
асырудың
асыруға
асырылады
асырылатын
асырылды
асырылуда
асырылуы
асырылып
асырылған
асырып
асырған
асығыс
асық
асықпаи
асықты
асқа
асқабақ
асқазан
асқазанның
асқан
асқанадам
асқар
асқақ
асқорыту
асқын
асқынған
ат
ата
атадан
атады
атаи
атала
аталады
аталары
аталатын
аталды
аталмыш
аталу
аталуы
аталып
аталығы
аталығының
аталық
аталықтары
аталған
атаман
атамекен
атамұра
атан
атанады
атанды
атанып
атаның
атанған
атап
атасу
атасы
атасынан
атасының
ататүрік
атау
атауды
атаудың
атаулар
атауларды
атаулардың
атаулары
атауларын
атауларының
атаулы
атаулының
атаумен
атауы
атауымен
атауын
атауына
атауынан
атауының
атауға
атаға
атаған
атағы
атағымен
атағын
атағына
атағының
атақ
атақтар
атақтары
атақты
атаққа
атбасар
атлант
атланта
атлантикалық
атлас
атласы
атлет
атлетик
атлетика
атлетикадан
атлетико
атлеттер
атлеттері
атмосфера
атмосферада
атмосферадағы
атмосфералық
атмосфераның
атмосфераға
атом
атомдар
атомдардың
атомдары
атомдарының
атомдық
атомның
атомы
атомының
атпен
атс
атсалысты
аттан
аттанады
аттанды
аттанып
аттанған
аттар
аттары
аттарын
аттас
аттестациялық
атты
аттың
ату
атуға
атф
аты
атылды
атылған
атым
атымен
атын
атына
атынан
атынд
атында
атындағы
атының
атып
атырабы
атырау
атырауда
атыс
атысты
атығаи
атқа
атқан
атқара
атқарады
атқаратын
атқарды
атқару
атқаруда
атқарушы
атқаруы
атқаруға
атқарылады
атқарылатын
атқарып
атқарған
атқылау
атқылауы
атқыштар
ау
ауа
ауада
ауадан
ауадағы
ауамен
ауаны
ауаның
ауасы
ауаға
аубакиров
ауд
аудан
ауданда
аудандар
аудандарда
аудандардан
аудандардағы
аудандарды
аудандардың
аудандары
аудандарымен
аудандарын
аудандарына
аудандарынан
аудандарында
аудандарындағы
аудандарының
аудандарға
аудандастыру
аудандағы
ауданды
аудандық
ауданнан
ауданның
ауданы
ауданымен
ауданын
ауданына
ауданынан
ауданында
ауданындағы
ауданының
ауданға
аудара
аударады
аударарлық
аударатын
аударды
аударма
аудармалар
аудармалары
аудармасы
аудармашы
аудармашылар
аудармашылары
аудару
аударушылар
аударуы
аударуға
аударылады
аударылды
аударылып
аударылған
аударып
аударған
аударғанда
аударғандар
аудио
аудит
аудитория
аудиторлық
аузы
аузын
аузына
аузынан
аузында
аузындағы
аула
аулаи
ауланады
аулап
аулау
аулаумен
аулауға
аулақ
аулы
аулында
аумағы
аумағын
аумағына
аумағынан
аумағында
аумағындағы
аумағының
аумақ
аумақта
аумақтар
аумақтарда
аумақтарды
аумақтардың
аумақтары
аумақтарынан
аумақтағы
аумақты
аумақтық
аумақтың
аумаққа
аун
аургазин
ауру
аурудан
ауруды
аурудың
аурулар
аурулардан
ауруларды
аурулардың
аурулармен
аурулары
ауруларын
ауруларына
ауруларының
ауруларға
аурумен
аурухана
ауруханада
аурухананың
ауруханасы
ауруханасында
ауруханасының
ауруханаға
ауруы
ауруымен
ауруын
ауруына
ауруынан
ауруының
ауруға
аустралия
аустралияда
аустралиялық
аустралияның
аустрия
аустриядағы
аустриялық
аустрияның
ауыз
ауыздан
ауыздың
ауызекі
ауызша
ауызға
ауыл
ауылда
ауылдан
ауылдар
ауылдарда
ауылдарды
ауылдардың
ауылдары
ауылдарын
ауылдарына
ауылдарында
ауылдарының
ауылдарға
ауылдағы
ауылды
ауылдық
ауылдың
ауылшаруашылығы
ауылшаруашылық
ауылы
ауылын
ауылына
ауылынан
ауылында
ауылындағы
ауылындағысу
ауылының
ауылға
ауып
ауыр
ауырады
ауыратын
ауырлық
ауырсыну
ауыру
ауыруы
ауырып
ауырған
ауырғанда
ауыса
ауысады
ауыспалы
ауысты
ауыстырады
ауыстырды
ауыстыру
ауыстыруы
ауыстыруға
ауыстырылады
ауыстырылды
ауыстырып
ауыстырған
ауысу
ауысуы
ауысуына
ауысым
ауысып
ауысқан
ауытқиды
ауытқу
ауытқулар
ауытқуы
ауытқып
ауық
ауған
ауғанстан
ауғанстанда
ауғанстандағы
ауғанстанның
ауқат
ауқатты
ауқымда
ауқымды
ауқымы
ауқымын
ауқымында
афина
афины
афк
африка
африкада
африкадан
африкадағы
африкалық
африканың
африкаға
афро
ахли
ахмад
ахмади
ахмадия
ахмед
ахмет
ахметов
ахметова
ахметұлы
ахуал
ахуалы
ахун
ачинск
аш
аша
ашады
ашамаи
ашар
ашаршылық
ашатын
ашина
ашты
аштық
аштықтан
ашу
ашуды
ашуы
ашуға
ашхабад
ашыла
ашылады
ашылатын
ашылды
ашылу
ашылуы
ашылуына
ашылып
ашылған
ашылғаннан
ашып
ашыту
ашытқы
ашық
ашқан
ашқаны
ащы
ащысаи
ащысу
аэробты
аэродинамикалық
аэс
аю
аюлы
аягөз
аяз
аякс
аямаи
аян
аянбаи
аясы
аясын
аясына
аясында
аясындағы
аят
аяттан
аяттар
аяттары
аяулы
аяусыз
аяғы
аяғымен
аяғын
аяғына
аяғынан
аяғында
аяғындағы
аяғының
аяқ
аяқпен
аяқтады
аяқтаи
аяқталады
аяқталатын
аяқталды
аяқталмаи
аяқталмаған
аяқталуы
аяқталуына
аяқталып
аяқталған
аяқталғаннан
аяқтап
аяқтары
аяқтарын
аяқтарының
аяқтау
аяқтаған
аяқтағаннан
аяқты
аяқтың
аяққа
аға
ағады
ағаи
ағалары
ағарту
ағартушы
ағартушылық
ағасы
ағасының
ағатын
ағаш
ағаштан
ағаштар
ағаштарды
ағаштардың
ағаштары
ағаштарының
ағашты
ағаштың
ағашы
ағашының
ағашқа
ағза
ағзада
ағзадағы
ағзалар
ағзалардың
ағзалық
ағзаның
ағзасына
ағзаға
ағу
ағызу
ағызып
ағыл
ағылш
ағылшын
ағылшындар
ағылшындардың
ағылшындық
ағылшынның
ағылшынша
ағым
ағымдар
ағымдары
ағымдағы
ағымның
ағымы
ағымының
ағын
ағынды
ағынның
ағынсыз
ағыны
ағынымен
ағынын
ағынының
ағып
ағыс
ағысы
ағысын
ағысына
ағысында
ағысындағы
ағысының
ақ
ақаба
ақан
ақау
ақбас
ақбастау
ақбұлақ
ақжаи
ақжал
ақжар
ақжол
ақиқат
ақиқатты
ақиқатқа
ақкөл
ақмешіт
ақмола
ақпан
ақпанда
ақпандағы
ақпаннан
ақпанның
ақпанынан
ақпанында
ақпарат
ақпаратпен
ақпараттандыру
ақпараттану
ақпараттар
ақпараттарды
ақпаратты
ақпараттық
ақпараттың
ақпараты
ақпаратқа
ақсаи
ақсақ
ақсақал
ақсақалдар
ақсу
ақсуат
ақсүи
ақтабан
ақтаи
ақталды
ақталған
ақтан
ақтар
ақтас
ақтасты
ақтау
ақтоғаи
ақтоқты
ақтық
ақтөбе
ақтөбеде
ақуыз
ақуыздар
ақуызды
ақш
ақша
ақшалаи
ақшалар
ақшамен
ақшаны
ақшаның
ақшасы
ақшасын
ақшатау
ақшаға
ақши
ақшоқы
ақшыл
ақы
ақыл
ақылбаи
ақылды
ақылы
ақылға
ақымақ
ақын
ақындар
ақындардың
ақындармен
ақындары
ақындарының
ақынды
ақындық
ақынның
ақыны
ақынға
ақыр
ақырет
ақыры
ақырын
ақырына
ақырында
ақырғы
ақысы
ақысыз
ақысын
ақышев
аққаи
аққан
аққу
аққулы
аққұдық
аққұм
аң
аңдар
аңдарды
аңдардың
аңды
аңның
аңшы
аңшылар
аңшылық
аңыз
аңызда
аңыздар
аңыздарда
аңыздары
аңызы
аңызға
аңырақаи
аңға
аңғар
аңғарлар
аңғарлары
аңғарларында
аңғартады
аңғаруға
аңғары
аңғарылады
аңғарына
аңғарында
аңғарындағы
аңғарының
аұп
б
ба
баб
баба
бабалар
бабалары
бабаларымыз
бабасы
бабы
бабына
бабында
бабыр
бавария
багам
бад
бадам
баден
баев
баева
баж
база
базалық
базальт
базар
базарбаев
базарбаи
базары
базасы
базасын
базасына
базасында
базасындағы
базасының
базель
базиликата
баи
баия
бакалавр
бакалавриат
бакалавры
бактерия
бактериялар
бактерияларды
бактериялардың
бактериялық
баку
бакуде
бал
бала
балабақша
балабақшасы
балалар
балаларда
балаларды
балалардың
балалармен
балалары
балаларын
балаларына
балаларының
балаларға
балалы
балалық
балам
балама
баламалы
баламасы
балансы
баланы
баланың
балапан
балапандар
балапандарды
балапандары
балапандарын
баласағұн
баласы
баласын
баласына
баласының
балауса
балауыз
балаға
балды
балдырлар
балдырлардың
балдырған
балет
балетмеи
балеті
балка
балкан
балл
баллада
баллистикалық
балпық
балта
балтық
балуан
балуандар
балуандары
балшық
балшықпен
балшықтан
балшықты
балы
балығы
балық
балықтар
балықтарды
балықтардың
балықтармен
балықтары
балықты
балықтың
балықшы
балықшылар
балыққа
балға
балғын
балқан
балқар
балқарағаи
балқаш
балқитын
балқу
балқыту
балқытып
балқыған
бамбук
банан
бангладеш
бангладештің
бани
банк
банкноттар
банктер
банктердің
банктік
банктің
банкі
банкілер
банкінің
бап
бапкер
бапкерлер
бапкерлері
бапкерлік
бапкерлікпен
бапкері
бар
бара
барабан
барады
барак
барар
баратын
барақ
барбара
барды
баренц
бари
барии
барит
барланған
барлау
барлаушы
барлығы
барлығын
барлығына
барлығында
барлығының
барлық
бармаи
бармақ
барнаул
барнауыл
барокко
барон
барри
барса
барселона
барселонаға
барселуш
бартольд
бару
баруы
баруға
барша
баршаға
баршылық
бары
барымта
барын
барынша
барып
барыс
барысы
барысын
барысында
барысындағы
барған
барғанда
барқыт
бас
баса
басады
басатын
баска
баскетбол
баспа
баспагер
баспагерлері
баспадан
баспаи
баспалар
баспалдақ
баспана
баспасы
баспасынан
баспасында
баспасының
баспасөз
баспасөзде
баспахана
баспаханасы
баспаға
баспен
бассеи
бассүи
баста
бастады
бастаи
басталады
басталар
басталатын
басталды
басталу
басталуы
басталуына
басталып
басталған
басталғанда
басталғаннан
басталғанға
бастама
бастамасы
бастамасымен
бастамасын
бастан
бастап
бастапқы
бастапқыда
бастар
бастары
бастарын
бастарына
бастаса
бастау
бастаушы
бастауы
бастауымен
бастауын
бастауына
бастауынан
бастауында
бастауыш
бастауға
бастаған
бастағанда
бастағанын
бастия
басты
бастырып
бастысы
бастығы
бастығының
бастық
бастың
басу
басуға
басшы
басшылар
басшылары
басшыларын
басшыларына
басшыларының
басшылығы
басшылығымен
басшылығына
басшылығының
басшылық
басшылықты
басшылыққа
басшысы
басшысының
басы
басыбаи
басылады
басылды
басылым
басылымда
басылымдар
басылымдарда
басылымдардың
басылымдары
басылымдарында
басылымның
басылымы
басылымының
басылып
басылған
басым
басымдылық
басымдық
басымен
басымырақ
басын
басына
басынан
басында
басындағы
басының
басып
басқа
басқада
басқадаи
басқалар
басқалардан
басқаларды
басқалардың
басқалармен
басқалары
басқаларға
басқан
басқаны
басқара
басқарады
басқаратын
басқарды
басқарма
басқармалары
басқарманың
басқармасы
басқармасына
басқармасында
басқармасының
басқару
басқаруда
басқаруды
басқарудың
басқарушы
басқарушысы
басқаруы
басқаруымен
басқаруға
басқарылады
басқарылатын
басқарып
басқарған
басқасы
басқаша
басқаға
басқыншыларына
басқыншылық
бат
бата
батальон
батальоны
батарея
батасын
батпақ
батпақты
бату
батыл
батылдық
батып
батыр
батырды
батырдың
батырлар
батырлардың
батырлары
батырларының
батырлық
батырмасын
батыры
батырға
батыс
батыста
батыстан
батыстағы
батыстық
батыстың
батысы
батысын
батысына
батысынан
батысында
батысындағы
батысқа
батқан
бау
баураи
бауыр
бауырда
бауырдың
бауыржан
бауырлары
бауырлас
бауыры
бауырымен
бауырына
бах
бахреи
башқұрт
башқұртстан
башқұртстанның
башқұрттар
баязит
баялыш
баян
баянауыл
баяндаи
баяндалады
баяндалған
баяндама
баяндамалар
баяндап
баяндау
баяндауыш
баяндаған
баянды
баяу
баяулаи
баяғы
баға
бағалады
бағалаи
бағаланады
бағаланды
бағаланып
бағаланған
бағалап
бағалар
бағалау
бағалауға
бағалаған
бағалы
бағамен
бағамы
баған
бағана
бағаналар
бағаналы
бағанасы
бағаны
бағаның
бағасы
бағасын
бағасына
бағасының
бағаға
бағдаламасының
бағдар
бағдарлама
бағдарламада
бағдарламалар
бағдарламаларды
бағдарламалардың
бағдарламалары
бағдарламаларын
бағдарламаларына
бағдарламаларының
бағдарламаларға
бағдарламалау
бағдарламалық
бағдарламаны
бағдарламаның
бағдарламасы
бағдарламасын
бағдарламасына
бағдарламасында
бағдарламасының
бағдарламаға
бағдарланған
бағдарлау
бағдары
бағдат
бағу
бағы
бағынады
бағынатын
бағынбаи
бағында
бағынды
бағындырды
бағындыру
бағындырып
бағынышты
бағыныңқы
бағынған
бағып
бағыт
бағытта
бағыттаи
бағытталады
бағытталды
бағытталып
бағытталған
бағыттап
бағыттар
бағыттарда
бағыттарды
бағыттардың
бағыттары
бағыттарын
бағыттарының
бағыттау
бағыттаушы
бағыттағы
бағытты
бағыттың
бағыты
бағытымен
бағытын
бағытына
бағытында
бағытындағы
бағытының
бағытқа
бақ
бақа
бақаи
бақанас
бақи
бақсаи
бақсы
бақтар
бақтары
бақташы
бақтияр
бақты
бақтыбаи
бақша
бақшасараи
бақшасы
бақылаи
бақыланатын
бақылап
бақылау
бақылауда
бақылауды
бақылаудың
бақылаулар
бақылаушы
бақылауы
бақылауына
бақылауында
бақылауға
бақыт
бақытжан
бақытты
бақыты
бақытқа
баққан
баңладештің
баһадүр
баә
бб
бд
бе
бегім
бедел
беделге
беделді
беделі
беделін
бедер
бедердің
бедерленген
бедерлі
бедері
бедерін
бедеріне
бедерінің
бежа
без
безгек
бездер
бездердің
бездері
бездерінің
безді
бездің
безендіру
безендірілген
безье
безі
безінің
беи
бек
бекболат
бекболатұлы
бекер
бекет
бекеттері
бекеті
бекзат
беков
бектібаев
бекінген
бекініп
бекініс
бекіністер
бекіністі
бекінісі
бекінісін
бекінісінің
бекіре
бекітеді
бекітетін
бекіткен
бекітті
бекіту
бекітуге
бекітілген
бекітілді
бекітіледі
бекітілетін
бекітіліп
бекітіп
бел
беларусь
белая
белаяға
белбеу
белг
белгород
белград
белгі
белгілеген
белгіледі
белгілеи
белгіленген
белгіленді
белгіленеді
белгіленетін
белгіленуі
белгіленіп
белгілеп
белгілер
белгілерді
белгілердің
белгілермен
белгілері
белгілерімен
белгілерін
белгілеріне
белгілерінің
белгілеу
белгілеуге
белгілі
белгінің
белгісі
белгісіз
белгісіздер
белгісімен
белгісін
белгісіне
белгісінің
белдем
белдемде
белдемше
белдемі
белдемінде
белдеу
белдеуде
белдеудің
белдеулер
белдеулерде
белдеулері
белдеулерінде
белдеуі
белдеуінде
белдеуінің
белді
белдік
беле
белесті
белең
белинскии
белл
белок
белоктар
белорус
белоруссия
белсенді
белсенділігі
белсенділігін
белсенділігінің
белсенділік
белсене
белу
белыи
бельгия
бельгиялық
бельгияның
бен
бенгал
бенджамин
бенедикт
бензин
бензол
бенфика
бер
берг
бергамо
берген
бергенде
бергеннен
бергенов
бергені
бергі
берд
берді
бердібек
бердіұлы
бере
беред
береді
березники
березовка
береи
береке
берекет
берел
беремін
берер
беретін
беретінін
бержерак
бериллии
беринг
берке
беркли
берлин
берлинде
берлиндегі
бермеген
бермеді
бермеи
бермек
бермеу
берн
бернард
бернд
берне
бернхард
бернштам
берсе
берсін
бертін
беру
беруге
беруде
беруден
беруді
берудің
берумен
беруші
берушілер
берушінің
беруі
беруін
беруіне
бері
берік
беріктігі
беріктігін
беріктік
берілген
берілді
беріле
беріледі
берілетін
берілмеи
берілсе
берілу
берілуі
берілуін
беріліп
беріліс
беріп
беріпті
беріс
беріш
беріңіз
бес
бесжылдық
бескөл
бессаи
бестен
бесік
бесінші
бесқарағаи
бет
бета
беташар
бетбұрыс
бетеге
бетегелі
бетке
беткеи
беткі
бетон
бетоннан
бетпақдала
бетпе
бетте
беттегі
беттен
беттер
беттерді
беттердің
беттері
беттерін
беттерінде
беттерінен
беттерінің
бетті
беттік
беттің
бетховен
бетшелері
беті
бетімен
бетін
бетінде
бетіндегі
бетіне
бетінен
бетінше
бетінің
бешикташ
беғазы
би
библиография
библиографиялық
библиотека
бибі
биге
бидаи
биден
биді
бидің
бие
биекенов
бизнес
бизнесмен
бизнесті
бизнестің
бизнесі
бикеш
билеген
биледі
билеи
билеп
билер
билердің
билері
билет
билеу
билеуші
билеушілер
билеушілері
билеушілерінің
билеушісі
билл
билли
бильбао
билігі
билігін
билігінде
билігіне
билігінің
билік
билікке
биліктен
билікті
биліктің
бин
бинт
биография
биографиясы
биол
биолог
биология
биологиялық
биологиясы
биологтар
биологтары
биоморфология
биосфера
биотехнология
биохимик
биохимия
биохимиялық
бир
биржа
биржалық
биржасы
бирма
бирмингем
бируни
бисмарк
бит
битбург
бич
биші
бия
биязы
биі
биік
биікке
биікт
биіктігі
биіктігін
биіктігіне
биіктік
биіктікке
биіктікте
биіктіктегі
биіктіктен
бк
благовещен
благоевград
блеи
блкжо
блогы
блок
блэк
блюз
бниц
бо
боак
боб
боз
бозащы
бозбала
бозторғаи
бозғылт
бои
бока
бокс
боксит
бокстан
боксшы
боксшылар
боксшылары
боксшысы
бол
бола
болады
боламыз
боламын
болар
боларлық
болат
болаттан
болатты
болатын
болатындаи
болатындығы
болатындығын
болатындықтан
болатыны
болатынын
болатынына
болашағы
болашағын
болашақ
болашақта
болашақтағы
болашаққа
болгар
болгария
болгариядағы
болгарияның
болды
болдым
болдырмаи
болдырмау
болжаи
болжам
болжамдар
болжамды
болжамдық
болжамы
болжап
болжау
болжауға
болжаған
боливия
болмады
болмаи
болмас
болмаса
болмасын
болмау
болмауы
болмауына
болмашы
болмаған
болмағанда
болмағандықтан
болмағаны
болмақ
болмыс
болмысты
болмыстың
болмысы
болмысын
болонья
болса
болсам
болсақ
болсаң
болсаңыз
болсын
болу
болуда
болудан
болуды
болудың
болумен
болуы
болуымен
болуын
болуына
болуынан
болуында
болуының
болуға
болымсыз
болып
болыпты
болыс
болыстар
болыстары
болыстық
болыстың
болысы
болысында
болысының
больцано
большая
большевик
большевиктер
большевиктік
большои
болған
болғанда
болғандаи
болғандар
болғандығы
болғандығын
болғандықтан
болғанмен
болғаннан
болғанша
болғаны
болғанымен
болғанын
болғанына
болғанға
болғысы
бомба
бомбалаушы
бон
бондюг
боп
бор
боралдаи
боран
борат
бордо
борис
борисович
бородулиха
борпылдақ
борсық
боруссия
борыш
борышын
бос
босану
босап
босатады
босатты
босату
босатуға
босатылады
босатылды
босатылып
босатылған
босатып
босаға
босаған
босния
бостандығы
бостандығын
бостандығынан
бостандық
бостандыққа
бостон
босқа
босқындар
бот
бота
ботаника
ботаникалық
ботақара
ботбаи
ботқа
боялады
боялған
бояу
бояулар
бояулармен
бояулы
бояумен
бояуы
бояғыш
бояғыштар
брага
браганса
бразилия
бразилияда
бразилиядағы
бразилиялық
бразилияның
браи
бранденбург
бранку
браун
бреи
бренд
брест
бретань
брешия
бригада
бригадасы
бригадасының
бригадир
бригадирі
брие
британ
британдық
британия
бродвеи
бродскии
бром
брондау
бронх
брук
бруклин
брунеи
бруно
брусиловскии
брюгге
брюс
брюссель
брянск
бу
буа
будан
будандастыру
будапешт
будда
буддалық
будданың
буддизм
будет
буды
будың
буи
булаев
булану
булл
булонь
бундеслигада
бура
бурабаи
бург
бургас
бургенланд
бургомистрі
бургундия
буржуазия
буржуазиялық
буркина
бурят
бутан
бухарест
бухгалтер
бухгалтерлік
буш
буы
буылтық
буын
буындар
буындардың
буындары
буынды
буынның
буыны
буынға
буэнос
буға
бы
был
былаи
былғары
былғарыдан
бын
бышев
бэи
бэкон
бэтмен
бюджет
бюджетке
бюджеттен
бюджетті
бюджеттік
бюджеттің
бюджеті
бюро
бюросы
бюросының
біз
бізбен
бізге
бізде
біздегі
бізден
бізді
біздің
біл
білге
білген
білгір
білдек
білді
білдірген
білдірді
білдіре
білдіреді
білдіретін
білдірмеи
білдірсе
білдіру
білдіруі
білдіріп
біле
біледі
білезік
білеміз
білемін
білесің
білетін
білмеген
білмеи
білу
білуге
білудің
білуі
білік
білікті
біліктілігі
біліктілігін
біліктілік
біліктің
білім
білімге
білімдер
білімдерді
білімдерін
білімді
біліммен
білімнің
білімі
білімін
білімінде
білімінің
білінбеи
білінеді
біліп
бір
біраз
біразы
бірауыздан
бірақ
бірақта
бірге
бірде
бірдеи
бірден
бірегеи
бірер
біресе
біреу
біреуге
біреуді
біреудің
біреулер
біреулері
біреуі
біреуін
біреуінде
біреуіне
біреуінің
біржан
біржақты
біржола
біржолата
біржылдық
біркелкі
бірлесе
бірлескен
бірлестігі
бірлестігінде
бірлестігіндегі
бірлестігіне
бірлестігінің
бірлестік
бірлестіктер
бірлестіктердің
бірлестіктері
бірлестіктің
бірлесіп
бірлігі
бірлігін
бірлігіне
бірлігінің
бірлік
бірлікке
бірлікте
бірліктер
бірліктердің
бірліктері
бірліктерін
бірліктерінің
бірлікті
бірліктің
бірнеше
бірсыпыра
бірталаи
бірте
біртекті
біртіндеп
біртұтас
біршама
бірыңғаи
бірі
біріге
бірігеді
бірігу
бірігуі
бірігуінен
бірігіп
біріккен
бірікті
біріктірген
біріктірді
біріктіре
біріктіреді
біріктіретін
біріктіру
біріктіруге
біріктірілген
біріктірілді
біріктіріледі
біріктіріліп
біріктіріп
бірімен
бірімжанов
бірін
бірінде
біріне
бірінен
бірінші
біріншіден
біріншілігі
біріншілігінде
біріншілігіне
біріншілігінің
біріншілік
біріншісі
бірінің
бірқалыпты
бірқатар
бірқатары
біт
біте
бітеді
бітеу
біткен
біткеннен
бітті
бітшілік
бітшілікті
бітікші
бітім
бітімге
бітімі
бітіп
бітірген
бітіргеннен
бітірді
бітіреді
бітіріп
біше
бішесі
бішкек
бғм
бқо
бүгін
бүгінге
бүгінгі
бүгінде
бүгіп
бүи
бүк
бүкіл
бүкілодақтық
бүкілресеи
бүкілхалықтық
бүкіләлемдік
бүл
бүлдірген
бүлік
бүлінген
бүркеншік
бүркеніш
бүркіп
бүркіт
бүркітті
бүркіттің
бүршік
бүтін
бүтіндеи
бұдан
бұдыр
бұдырлы
бұзады
бұзатын
бұзау
бұзбаи
бұзды
бұзу
бұзушылық
бұзуға
бұзылады
бұзылды
бұзылмаи
бұзылу
бұзылуы
бұзылуына
бұзылуынан
бұзылып
бұзылыстар
бұзылыстары
бұзылған
бұзып
бұзған
бұзғаны
бұи
бұл
бұлаи
бұлан
бұланды
бұланты
бұлар
бұларда
бұлардан
бұларды
бұлардың
бұларға
бұлағы
бұлақ
бұлақтар
бұлақтардан
бұлақтары
бұлбұл
бұлжытпаи
бұлт
бұлттар
бұлтты
бұлшық
бұлшықет
бұлшықеттер
бұлшықеттері
бұлғар
бұлғын
бұнда
бұндаи
бұны
бұның
бұр
бұрама
бұрды
бұру
бұршақ
бұршақтар
бұрылу
бұрылып
бұрын
бұрыннан
бұрынырақ
бұрынғы
бұрынғыдаи
бұрынғыдан
бұрып
бұрыс
бұрыш
бұрышпен
бұрыштар
бұрыштары
бұрышты
бұрыштық
бұрыштың
бұрышы
бұрышына
бұрышында
бұрышқа
бұрыңғы
бұрғы
бұрғылау
бұрғышы
бұрғышының
бұта
бұталар
бұталардың
бұталы
бұтағы
бұтағынан
бұтақ
бұтақтары
бұтақты
бұхар
бұхара
бұхари
бұғаз
бұғаздары
бұғазы
бұған
бұғы
бұғылар
бұқа
бұқар
бұқара
бұқаралық
бұқтырма
бұұ
бәи
бәкір
бәлкім
бәрі
бәрібір
бәрін
бәрінде
бәріне
бәрінен
бәрінің
бәсеке
бәсекеге
бәсекелес
бәсекелестік
бәсекелестікті
бөбекжаи
бөгде
бөген
бөгенбаи
бөгендері
бөгені
бөгет
бөгеттер
бөгеті
бөдене
бөкеи
бөкен
бөкетов
бөктерінде
бөл
бөлген
бөлгіш
бөлді
бөле
бөледі
бөлек
бөленген
бөленді
бөлетін
бөлме
бөлмеге
бөлмеде
бөлмеден
бөлмелер
бөлмелері
бөлмелі
бөлменің
бөлмесі
бөлтірік
бөлу
бөлуге
бөлуді
бөлудің
бөлшегі
бөлшек
бөлшектеп
бөлшектер
бөлшектерге
бөлшектерден
бөлшектерді
бөлшектердің
бөлшектері
бөлшектерін
бөлшектерінің
бөлшектің
бөлігі
бөлігімен
бөлігін
бөлігінде
бөлігіндегі
бөлігіне
бөлігінен
бөлігінің
бөлік
бөлікке
бөлікте
бөліктен
бөліктер
бөліктерге
бөліктерден
бөліктердің
бөліктері
бөліктерін
бөліктерінде
бөліктеріне
бөліктерінен
бөліктерінің
бөлікті
бөліктің
бөлім
бөлімге
бөлімде
бөлімдер
бөлімдердің
бөлімдері
бөлімдерін
бөлімдерінде
бөлімдеріне
бөлімдерінің
бөлімді
бөлімнен
бөлімнің
бөлімше
бөлімшелер
бөлімшелердің
бөлімшелері
бөлімшелерінің
бөлімшесі
бөлімшесін
бөлімшесінде
бөлімшесінің
бөлімі
бөлімін
бөлімінде
бөліміне
бөлімінен
бөлімінің
бөлінбеген
бөлінбеи
бөлінген
бөлінді
бөліне
бөлінеді
бөлінетін
бөліну
бөлінуі
бөлінуін
бөлінуіне
бөлінуінің
бөлініп
бөлініс
бөлінісі
бөліп
бөлісті
бөлісу
бөрлі
бөртпе
бөрі
бөрік
бөтен
в
ва
вавилон
вага
вагнер
вагон
вадим
ваз
ваи
вакуум
вакуумдық
вакцина
валенсия
валентин
валентина
валентті
валенттік
валерии
вали
валле
валь
валье
вальтер
валюта
валюталық
валютаның
валютасы
ван
ванадии
ванильді
ванкувер
ванн
вань
варезе
варна
варшава
василии
васильев
васильевич
васильевна
васко
васюган
васюганнан
васюганға
ватикан
вах
вахқа
вашингтон
вв
ве
веб
вебер
вега
вегетативті
вегетативтік
ведомости
ведомстволық
веи
века
вексель
вектор
векторлық
векторы
веле
велико
великои
велосипед
велоспорт
вен
вена
венада
венаға
венгер
венгр
венгрия
венера
венесуэла
венето
венеция
вер
вера
верде
верден
вердер
верди
вернер
верныи
верона
вероника
версаль
версиясы
вертикаль
верховного
вест
вестервальд
вестник
вестфалия
ветеринария
ветеринарлық
ветлуга
взвод
виана
вид
видео
видин
византия
византиялық
визеу
визуалды
виктор
виктория
викторович
вила
вилен
вилла
вилли
виль
вильгельм
вильнев
вильнюс
вильярреал
винсент
винчи
виргиния
вирджиния
виртуалды
вирус
вирусология
вирустар
вирустардың
вирусты
вирустық
вирустың
вирусы
вис
висенте
висла
висмут
виталии
витамин
витаминдер
витамині
витебск
витория
вице
виченца
виши
вконтакте
владимир
владимирович
владислав
во
вогез
вож
вои
вокал
вокалды
вокалдық
вокзал
вокзалы
вол
волга
волгоград
волеи
вологда
володар
волошин
вольф
вольфганг
вольфрам
вон
воннегут
вопросы
ворона
воронеж
воронов
восток
воткин
воуга
враца
время
все
вт
вулкандық
вы
вып
вычегда
вьенна
вьетнам
вэи
вюртемберг
вятка
вячеслав
г
га
габбро
габон
габриэль
габрово
гаваи
гагарин
газ
газбарлау
газбен
газдар
газдарды
газдардың
газды
газдық
газдың
газет
газета
газетте
газеттер
газеттерде
газеттері
газеттерінде
газеттерінің
газеттің
газеті
газетін
газетінде
газетіне
газетінің
газы
газын
газының
газға
гаи
гаити
галактика
галактикалар
галактикалық
галактиканың
галатасараи
галерея
галереясы
галилеи
галина
галисия
галлен
гама
гамбург
гамильтон
гамлет
гамма
ган
гана
ганг
гандбол
ганди
ганновер
гар
гарвард
гармоникалық
гаронна
гарри
гастрольдік
гаусс
гауһар
гафурии
гб
гвадалахара
гвардия
гвардиялық
гватемала
гвинея
ггц
где
гдр
ге
геге
гегель
геи
гектар
гектардан
гектарынан
гектарға
гелдиев
гелии
гемоглобин
геморрагиялық
ген
генде
гендер
гендердің
гендерлік
гендік
генерал
генералы
генератор
генераторы
генетик
генетика
генетикалық
геннадии
геннің
генри
генрих
генуя
гені
геоақпараттық
геогр
географ
географии
географическии
география
географиялық
географиясы
географы
геодезия
геодезиялық
геол
геолог
геология
геологиялық
геологиясы
геологтар
геологтары
геологы
геометрия
геометриялық
геоморфологиялық
георг
георгиевич
георгии
геосаяси
геофизика
геофизикалық
геохимиялық
гер
геракл
герберт
гере
гереи
геркулес
герман
германдық
германии
германия
германияда
германиядан
германиядағы
германиялық
германиямен
германияны
германияның
германияға
геродот
герои
героя
герхард
герцеговина
герцог
герцогы
гершель
герім
гессен
гете
гз
ги
гибридті
гигиена
гигиеналық
гигиенасы
гидра
гидравликалық
гидрогеология
гидрогеологиялық
гидрографикасы
гидрографиясы
гидродинамикалық
гидрология
гидрологиялық
гидрологиясы
гидротехникалық
гии
гильманов
гималаи
гимараи
гимназия
гимнастика
гипоксия
гипотеза
гипс
гистология
гитара
гитлер
глазго
глинка
глобус
глубокое
глюкоза
гнеи
го
гоголь
гогольдің
год
года
годы
гои
гол
голдар
голды
голдың
голланд
голландия
голландиялық
голливуд
голмен
голы
голын
гольджи
гольф
гольштеи
гомер
гондурас
гонконг
гордон
горизонт
горизонталь
гормондар
город
города
горькии
горьков
готикалық
гояс
гр
гравитациялық
градус
градусқа
граи
грамм
грамматика
грамматикалық
грамматикасы
грамоталарымен
грамотасы
грамотасымен
грамотасының
гран
гранада
гранд
гранди
гранит
граниттен
гранитті
грант
граубюнден
граф
графигі
график
графика
графикалық
графикасы
графикасына
графиктік
графит
графы
греи
грек
грекия
грекияда
грекиядағы
грекияның
гректер
гректердің
гректің
грекше
гремио
гренландия
григориан
григории
григорьевич
грин
грозныи
грос
гроссмеи
гроссу
гросу
грузин
грузия
грузияның
грунт
грэмми
гу
гуарда
губернатор
губернаторы
губернаторының
губерниялық
губерниясы
губерниясында
губерниясының
гук
гуманизм
гуманистік
гуманитарлық
гумилев
гурьев
густав
гфр
гц
гэмпшир
гюнтер
гі
гілі
гін
гіш
гүл
гүлдеи
гүлденген
гүлдену
гүлдеп
гүлдер
гүлдері
гүлдерінің
гүлдеу
гүлді
гүлдің
гүлстан
гүлшоғыры
гүлшоғырына
гүлі
гүлінің
гөрі
д
да
даби
дабол
дабыл
давид
даи
дакс
дала
далабаева
далада
даладағы
далалы
далалық
далана
даланады
даланатын
даланбаи
даланды
далану
далануда
далануды
даланудың
даланумен
даланушы
даланушылар
даланушылардың
даланушыларға
даланушының
далануы
далануына
далануға
даланы
даланылады
даланылатын
даланылды
даланылмаи
даланылуы
даланылып
даланылған
даланып
даланың
даланған
даланғанда
даланғаны
даласы
даласын
даласына
даласында
даласындағы
даласының
далаға
даллас
далы
дам
дамаи
дамаск
дами
дамиды
дамитын
даму
дамуда
дамуды
дамудың
дамушы
дамуы
дамуымен
дамуын
дамуына
дамуында
дамуындағы
дамуының
дамуға
дамыды
дамымаған
дамып
дамыта
дамытады
дамытты
дамыту
дамытуда
дамытудағы
дамытуды
дамытудың
дамытуға
дамытып
дамытқан
дамыған
дан
дана
данадан
даналық
данасы
данда
дандағы
даниэль
дания
даниялық
данияның
данияр
данлоп
даннан
данных
данның
даны
данына
данында
данының
данышпан
даның
данға
дао
дап
дар
дара
даралық
дарвин
дардың
дарии
дария
дариға
дарлы
дармштадт
даров
дарова
дархан
дары
дарын
дарынды
дарға
дарқанбаев
дас
дастан
дастанда
дастандар
дастандары
дастанның
дастаны
дастанын
дастанында
дастанының
дастарқан
дастарқанға
дасы
дасыз
дасын
дасына
дат
дата
датқа
датұлы
дау
дауда
даулы
даун
даусы
даусыз
дауы
дауыл
дауыс
дауыспен
дауыссыз
дауыссыздар
дауысты
дауыстылар
дауысы
дауысын
дауысқа
дауға
дахо
даяр
даярлаи
даярлау
даярлауға
даярлық
даға
дағдарыс
дағдарысты
дағдарыстың
дағдарысы
дағдарысқа
дағдылы
дағы
дағыдаи
дағыстан
дақ
дақтар
дақтары
дақты
дақыл
дақылдар
дақылдарды
дақылдардың
дақылдары
дақылдарын
дақылдарының
даңғыл
даңғылы
даңғылынан
даңқ
даңқты
даңқы
даңқын
даңққа
даһар
движения
двина
двинск
де
дебют
дебюттік
дебюті
дебютін
дева
девон
девонның
деггер
деген
дегенге
дегенде
дегендеи
дегенді
дегенмен
дегеннен
дегеннің
дегені
дегеніміз
дегі
деді
деи
декабря
декан
деканның
деканы
декарт
декларация
декларациясы
дел
делдал
делегат
делегаттары
делегаты
деления
дели
дель
дельфин
дельфиндер
делювии
делінген
делінеді
делінетін
дем
демалу
демалыс
демалысқа
демеи
демек
демеушілік
демография
демографиялық
демографиясы
демокр
демократ
демократия
демократиялық
демократияның
демократтар
ден
денгеи
дене
денеге
денеде
денедегі
денеден
денелер
денелердің
денелері
денелерінің
денелі
денені
дененің
денесі
денесімен
денесін
денесінде
денесіндегі
денесіне
денесінен
денесінің
дени
денис
денисов
денсаулығы
денсаулығын
денсаулығына
денсаулық
денсаулықты
денсаулыққа
денудациялық
день
дені
деп
департамент
департаменттер
департаменттері
департаменттерінің
департаменттің
департаменті
департаментінде
департаментінің
депортиво
депп
депрессия
депті
депутат
депутаттар
депутаттары
депутаттарының
депутаты
дер
дербент
дербес
дерегі
дерек
дереккөз
дереккөздер
деректер
деректерге
деректерде
деректерден
деректерді
деректердің
деректермен
деректері
деректерін
деректерінде
деректеріне
деректі
дерекөздер
дереу
дерлік
дернәсіл
дернәсілдері
дерт
дерттің
десант
десе
деседі
десек
детальдар
детектив
деу
деуге
дефолт
деформация
дешті
деңгеи
дж
джаз
джаи
джастин
джафар
джеи
джек
джексон
дженнифер
джерси
джефф
джефферсон
джеффри
джим
джимми
джин
джо
джобс
джованни
джозеф
джои
джон
джонатан
джонни
джонс
джонсон
джордан
джордж
джорджия
джош
джузеппе
джулия
джульетта
дзержинскии
дзюдо
ди
диагноз
диагностика
диагностикалық
диагностикасы
диаграмма
диаграммасы
диалект
диалектика
диалектикалық
диалектілері
диалектісі
диалог
диам
диаметрі
диана
диапазоны
диаспорасы
диваев
дивизион
дивизионда
дивизионы
дивизионында
дивизионының
дивизия
дивизиясы
дивизиясының
дидактикалық
дидар
диего
диета
дижон
дизаи
дизель
дик
дин
дина
динамикалық
динамикасы
динамикасын
динамо
динара
диннің
динозавр
динозаврлар
диплом
дипломанты
дипломат
дипломатия
дипломатиялық
дипломмен
дипломымен
дипломын
директор
директордың
директорлар
директорлары
директоры
директорының
дирижер
дирижері
диск
дискография
дискографиясы
дискретті
дискілер
диснеи
дисплеи
дисс
диссертация
диссертациялық
диссертациясын
диссертациясының
дитер
диуани
дифференциалды
дифференциалдық
диффузия
диффузиялық
диірмен
диқан
для
дм
дмитриевич
дмитрии
днепр
днепропетровск
днк
днқ
до
добрич
добы
добын
дои
докт
доктор
докторантура
докторлары
докторлық
докторы
документов
документі
дол
долана
долган
долл
долла
доллар
доллардан
долларды
доллары
долларын
долларына
долларға
доломит
дом
домалақ
домбыра
домбырашы
доминантты
доминикан
домна
дон
дональд
дондағы
донецк
доп
доппен
допты
допқа
дор
дордонь
дортмунд
дору
дос
досмұхамедов
досмұхамедұлы
доссор
достар
достары
достарымен
достарының
достастық
достоевскии
достығы
достық
досы
доуру
доцент
доценті
доға
доғал
доңғалақ
доңғалақты
др
драи
драма
драмалық
драмасы
драмасында
драматург
драматургия
драматургтері
дрезден
дреи
дружба
ду
дуадақ
дуалмен
дубаи
дубль
дубляж
дуглас
дулат
дулати
дулатов
дулыға
дума
думан
думаның
дунаи
дус
душ
душанбе
душар
дуэт
ды
дыбыс
дыбыстан
дыбыстар
дыбыстарды
дыбыстардың
дыбыстары
дыбыстарының
дыбыстаған
дыбысты
дыбыстық
дыбыстың
дыбысы
дыбысқа
дым
дымқыл
дын
дыны
дық
дың
дье
дьеп
дэвид
дэвис
дэи
дэн
дэниел
дю
дюи
дюк
дюнкерк
дюссельдорф
ді
дібек
дін
дінге
діндар
діндер
діндердің
дінді
діни
діннің
дінтану
діні
дінін
дінінде
дініне
дінінің
діру
діріл
дірілген
дің
діңгек
дүи
дүкен
дүкендер
дүкені
дүнген
дүние
дүниеге
дүниеде
дүниедегі
дүниеден
дүниежүз
дүниежүзі
дүниежүзілік
дүниежүзіндегі
дүниелер
дүниелік
дүниені
дүниенің
дүниесі
дүниесін
дүниесіне
дүниесінің
дүниетаным
дүниетанымдық
дүниетанымы
дүр
дүркін
дұрыс
дұрыстығын
дұшпан
дұға
дәи
дәл
дәлдігі
дәлдікпен
дәлел
дәлелдеген
дәлелдеді
дәлелдеи
дәлелденген
дәлелденді
дәлелдеп
дәлелдер
дәлелдеу
дәлелдеуге
дәлелді
дәлелі
дәлме
дәліз
дәлірек
дәм
дәмдеуіштер
дәмді
дәмі
дәмін
дән
дәнді
дәндібаи
дәнекер
дәні
дәреже
дәрежеге
дәрежеде
дәрежедегі
дәрежелері
дәрежелі
дәрежесі
дәрежесімен
дәрежесін
дәрежесінде
дәрежесіне
дәрежесінің
дәрет
дәрмек
дәрмектер
дәрменсіз
дәрумендер
дәрумені
дәрі
дәрігер
дәрігерге
дәрігердің
дәрігерлер
дәрігерлердің
дәрігерлері
дәрігерлік
дәрігері
дәрілер
дәрілерді
дәрілік
дәріні
дәріптеи
дәріс
дәрістер
дәрісі
дәріхана
дәстүр
дәстүрге
дәстүрді
дәстүрдің
дәстүрлер
дәстүрлерді
дәстүрлері
дәстүрлерін
дәстүрлі
дәстүрі
дәстүрін
дәстүрінде
дәстүріне
дәстүрінің
дәу
дәулет
дәулеткереи
дәулетті
дәурен
дәуір
дәуірге
дәуірде
дәуірдегі
дәуірден
дәуірдің
дәуірлерде
дәуірі
дәуірімізге
дәуірін
дәуірінде
дәуіріндегі
дәуіріне
дәуірінен
дәуірінің
дәуіт
дөп
дөрекі
дөң
дөңгелек
дөңгелекті
дөңгеленген
дөңес
е
ева
евгении
евклид
евразия
евре
евреи
европалық
ег
еган
егде
еге
егеді
егемен
егеменді
егемендігі
егемендігін
егемендік
егер
егерде
егеуқұи
егжеи
египет
египетте
его
егор
егу
егі
егіз
егіздер
егілген
егіледі
егін
егінде
егіндібұлақ
егіндікөл
егіне
егінен
егінші
егіншілер
егіншілік
егіншілікке
егіншілікпен
егінің
егіп
егіс
егістік
егістікке
ед
еде
едегі
еден
еденге
еді
едіге
едік
еділ
еділге
еділдің
едім
едің
едәуір
ее
ежелгі
ежелден
ежен
ез
еи
ек
екатерина
екатеринбург
екатте
екен
екендігі
екендігін
екендігіне
екенсің
екені
екенін
екеніне
екеу
екеуі
екеуін
екеуінде
екеуіне
екеуінің
екке
екпе
екпін
екпінді
екте
ектегі
ектен
ектер
ектерге
ектерді
ектердің
ектері
ектерін
ектерінің
екті
ектік
ектің
екі
екібастұз
екіге
екіден
екіжақты
екілік
екінші
екіншіден
екіншілік
екіншісі
екіншісін
екіншісінде
екіншісіне
екіншісінің
ел
еламан
елбасы
елбасының
елге
елд
елде
елдегі
елден
елдер
елдерге
елдерде
елдердегі
елдерден
елдерді
елдердің
елдермен
елдері
елдерімен
елдерін
елдерінде
елдеріндегі
елдеріне
елдерінен
елдерінің
елді
елдік
елдің
елек
елена
елеп
елер
елерге
елерде
елерді
елердің
елері
елерін
елерінде
елеріне
елерінің
елес
елестету
елеу
елеулі
елеусіз
елизабет
елизавета
елмен
елорда
елордалары
елордасы
елтаи
елтаңба
елтаңбасы
елу
елші
елшілер
елшілері
елшілігі
елшілігінің
елшілік
елшісі
ель
ельп
елі
елік
еліктеу
елім
елімен
еліміз
елімізде
еліміздегі
еліміздің
елін
елінде
еліндегі
еліне
елінен
елінің
ем
ембі
ембімұнаи
емдеи
емделу
емдеу
емдеуге
емдеуде
емдеудің
емдік
емелдеуімен
емен
емес
емеспін
еместігі
еместігін
емле
емтихан
емхана
емші
емі
емін
ен
енбеи
енг
енген
енгізген
енгізді
енгізе
енгізеді
енгізу
енгізуге
енгізуді
енгізілген
енгізілді
енгізіледі
енгізілетін
енгізілуі
енгізіліп
енгізіп
ендеше
енді
ендігі
ендік
ендіктерде
ендіру
ене
енеді
енетін
енжар
енисеи
еноорд
енсек
енсіз
ену
енуі
енуіне
еншілес
ені
еніп
енің
ео
епиналь
епископ
ер
ералиев
ералы
ербол
ерге
ергежеи
ерден
ердің
ереван
ереже
ережеге
ережелер
ережелерге
ережелерді
ережелердің
ережелері
ережелерін
ережелеріне
ережені
ережесі
ережесін
ереи
ерекше
ерекшел
ерекшеленген
ерекшеленді
ерекшеленеді
ерекшеленетін
ерекшелігі
ерекшелігімен
ерекшелігін
ерекшелігіне
ерекшелік
ерекшеліктер
ерекшеліктерді
ерекшеліктері
ерекшеліктерімен
ерекшеліктерін
ерекшеліктеріне
ерекшеліктерінің
ерен
ересек
ересектер
ереуіл
ержан
ержанов
ержүрек
ериді
еритін
ерке
еркегі
еркек
еркектер
еркі
еркімен
еркін
еркіндігі
еркіндігін
еркіндік
ерлан
ерлер
ерлерге
ерлердің
ерлері
ерлі
ерлігі
ерлігімен
ерлігін
ерлік
ерлікпен
ерліктері
ермак
ермек
ермеков
ерте
ертегі
ертегілер
ертегілері
ертегісі
ертеде
ертедегі
ертеден
ертерек
ертеректе
ертеректегі
ертең
ертіп
ертіс
ертіске
ертістен
ертістің
еру
еруі
ері
еріген
ерік
еріксіз
ерікті
еріктілер
ерімеи
ерін
еріп
еріткіш
ерітілген
ерітінді
ерітіндіге
ерітіндіде
ерітіндідегі
ерітінділер
ерітінділердің
ерітінділері
ерітіндінің
ерітіндісі
ерітіндісімен
ерітіндісін
ес
есбол
есе
есебі
есебімен
есебін
есебінде
есебіне
есебінен
есеге
есеи
есек
еселі
есен
есенов
есеп
есепке
есеппен
есепте
есептеген
есептегенде
есептеді
есептеи
есептелген
есептелді
есептеледі
есептелетін
есептелінеді
есептеліп
есептемегенде
есептеп
есептер
есептерді
есептеу
есептеуге
есептеудің
есептеулер
есептеуіш
есепті
есептік
есептің
есепші
есесіне
есет
еске
ескелді
ескендір
ескене
ескерген
ескере
ескеретін
ескермеи
ескерсек
ескертеді
ескертк
ескерткіш
ескерткіштер
ескерткіштерді
ескерткіштердің
ескерткіштері
ескерткіштерін
ескерткіштерінде
ескерткіштерінің
ескерткішті
ескерткіштің
ескерткіші
ескертпелер
ескерту
ескертулер
ескеру
ескерілген
ескеріледі
ескеріліп
ескеріп
ескі
ескірген
если
естаи
есте
естелік
естеліктер
естеліктері
естен
есту
есть
естіген
естіледі
естіп
есу
есі
есігі
есігін
есік
есікті
есіктің
есіл
есілге
есім
есімдер
есімдердің
есімдері
есімдерін
есімді
есімен
есімнің
есімі
есімімен
есімін
есін
есінде
есіндегі
есіне
есінен
есінің
есірткі
ет
ете
етегі
етегінде
етегіндегі
етегіне
етегінен
етед
етеді
етек
етене
ететін
ететінін
етке
еткен
еткенде
еткені
етпеи
етсе
етт
еттен
еттер
еттері
еттерінің
етті
еттің
ету
етуге
етуде
етуді
етудің
етумен
етуші
етуі
етуімен
етуін
етуіне
етуінің
еті
етік
етілген
етілді
етіледі
етілетін
етілмеген
етілмеи
етілуі
етіліп
етін
етінен
етінің
етіп
етістік
етістіктер
етістіктің
еу
еуге
еуразия
еуразиялық
еуразияның
еуро
еуроны
еуропа
еуропада
еуропадан
еуропадағы
еуропалық
еуропалықтар
еуропаны
еуропаның
еуропаға
еуроға
еуі
еуінің
еш
ешбір
ешкі
ешкім
ешкімге
ешкімді
ешкімнің
ешкімүи
ешкінің
ештеңе
ешқаи
ешқандаи
ешқашан
еқыұ
ең
еңбегі
еңбегімен
еңбегін
еңбегінде
еңбегіне
еңбегінің
еңбек
еңбекақы
еңбекке
еңбекпен
еңбекте
еңбектегі
еңбектер
еңбектерде
еңбектердің
еңбектері
еңбектерімен
еңбектерін
еңбектерінде
еңбектеріне
еңбектерінен
еңбектерінің
еңбекті
еңбектің
еңбекші
еңбекшілер
еңбекшілердің
еңбекшіқазақ
еңкеи
еңкі
еңлік
еңіс
ж
жа
жабады
жабаев
жабаи
жабағылы
жабдыктары
жабдығы
жабдық
жабдықталады
жабдықталды
жабдықталған
жабдықтар
жабдықтарды
жабдықтардың
жабдықтармен
жабдықтары
жабдықтарын
жабдықтау
жабу
жабуға
жабылады
жабылатын
жабылды
жабылып
жабылған
жабын
жабыны
жабысып
жабысқақ
жабық
жад
жадтың
жады
жадында
жаз
жаза
жазады
жазалау
жазалаушы
жазасы
жазасын
жазасына
жазатын
жазаға
жазба
жазбаи
жазбалар
жазбаларда
жазбаларды
жазбалары
жазбаларын
жазбаларында
жазбасы
жазбаша
жазда
жазды
жаздық
жаздың
жазса
жазу
жазуда
жазуды
жазудың
жазулар
жазулары
жазумен
жазушы
жазушылар
жазушылардың
жазушылары
жазушыларының
жазушының
жазушысы
жазуы
жазуымен
жазуын
жазуына
жазуының
жазуға
жазы
жазылады
жазылатын
жазылды
жазылмаи
жазылмаған
жазылу
жазылуы
жазылып
жазылған
жазында
жазып
жазығы
жазығында
жазығының
жазық
жазықсыз
жазықта
жазықтар
жазықты
жазықтығы
жазықтығына
жазықтық
жазықтықта
жазыққа
жазған
жазғы
жаи
жак
жал
жала
жалаи
жалалабат
жалау
жалағаш
жалақы
жалақысы
жалаң
жалаңаш
жалаңтөс
жалдамалы
жалдау
жалпақ
жалпы
жалпылама
жалпылық
жалпыхалықтық
жалпыға
жалпықазақ
жалпыұлттық
жалын
жалынды
жалға
жалғаи
жалған
жалғанады
жалғанған
жалғаса
жалғасады
жалғасты
жалғастыра
жалғастырады
жалғастыратын
жалғастырды
жалғастыру
жалғастыруда
жалғастырушы
жалғастыруға
жалғастырып
жалғастырған
жалғасуда
жалғасы
жалғасын
жалғасып
жалғасқан
жалғау
жалғыз
жалқы
жамал
жаман
жамандық
жамағат
жамағатының
жамбас
жамбыл
жамбылдың
жамылғы
жамылғысы
жамылғысында
жамылғысының
жан
жана
жанады
жанаи
жанама
жанар
жанармаи
жанартау
жанартаудың
жанартаулар
жанартаулық
жанартаутекті
жанартауы
жанасу
жанат
жанатын
жанбаи
жангелдин
жангелді
жанда
жандар
жандардың
жандағы
жандосов
жанды
жанеи
жанжал
жанкүи
жанна
жанның
жанов
жанр
жанрда
жанрдағы
жанрдың
жанрлар
жанрлары
жанрлық
жанры
жанрын
жанрына
жанрында
жанрындағы
жанрының
жансыз
жансүгіров
жантану
жантөрин
жану
жануар
жануардың
жануарлар
жануарларда
жануарлардан
жануарларды
жануарлардың
жануарлары
жануарларының
жануарларға
жаны
жаным
жанын
жанына
жанынан
жанында
жанындағы
жанып
жанға
жанған
жанғыш
жанқожа
жанұясы
жап
жапа
жапалақ
жапон
жапондық
жапония
жапонияда
жапониядағы
жапонияның
жапонияға
жаппаи
жапсарлас
жапсары
жапсырма
жапырағы
жапырағын
жапырағының
жапырақ
жапырақтар
жапырақтары
жапырақтарымен
жапырақтарын
жапырақтарының
жапырақты
жапырақтың
жапырақшалары
жапқан
жапқыш
жар
жара
жараи
жараланып
жараланған
жаралу
жаралы
жаралған
жарамаи
жарамды
жарамдылық
жарамсыз
жараны
жарасы
жарасымды
жарату
жаратушы
жаратылыс
жаратылыстану
жаратылысы
жаратылған
жаратқан
жарақ
жарақат
жарақаттанған
жарақтар
жарақты
жарды
жария
жариялады
жариялаи
жариялана
жарияланады
жарияланбаған
жарияланды
жарияланым
жарияланымдар
жарияланымның
жарияланып
жарияланған
жарияланғаннан
жариялап
жариялау
жариялауға
жариялаған
жаркент
жарлы
жарлығы
жарлығымен
жарлығына
жарлық
жарлыққа
жарма
жарнама
жарнамалық
жарнақтылар
жартас
жартастар
жартасты
жарты
жартылаи
жартысы
жартысын
жартысына
жартысынан
жартысында
жартысындағы
жару
жаршысы
жары
жарылымдар
жарылып
жарылыс
жарылыстар
жарылған
жарылғыш
жарым
жарып
жарыс
жарыста
жарыстан
жарыстар
жарыстарда
жарыстардың
жарыстары
жарыстарында
жарыстарға
жарыстың
жарысы
жарысында
жарысқа
жарығы
жарық
жарықтандыру
жарықтар
жарықты
жарықтық
жарықтың
жарықшақты
жарыққа
жарған
жарғақ
жарғы
жарғылық
жарғысы
жарқабақты
жарқаи
жарқын
жарқыраи
жарқырап
жарқырауы
жарқыраған
жас
жасады
жасаи
жасалады
жасалатын
жасалды
жасалса
жасалу
жасалуы
жасалуына
жасалынады
жасалынды
жасалынып
жасалынған
жасалып
жасалған
жасамаи
жасанды
жасап
жасар
жасаса
жасасты
жасасу
жасасып
жасау
жасауда
жасаудан
жасауды
жасаудың
жасаумен
жасаушы
жасаушылар
жасаушылардың
жасауы
жасауына
жасауға
жасаған
жасағанда
жасағаны
жасағы
жасағын
жасақ
жасақтаи
жасақталды
жасақталған
жасақтама
жасақтары
жасақтау
жаста
жастаи
жастан
жастар
жастарды
жастардың
жастары
жастарының
жастарға
жастағы
жасты
жастық
жастың
жасуша
жасушада
жасушадан
жасушадағы
жасушалар
жасушаларда
жасушалардан
жасушаларды
жасушалардың
жасушалары
жасушаларына
жасушаларынан
жасушаларында
жасушаларының
жасушаларға
жасушалы
жасушалық
жасушаның
жасушасы
жасушасының
жасушаға
жасы
жасыбаи
жасыл
жасын
жасына
жасынан
жасында
жасындағы
жасыру
жасырын
жасырынып
жасырып
жасқа
жасөспірім
жасөспірімдер
жасөспірімдерге
жат
жатады
жататын
жататындар
жатаған
жатақхана
жатпаи
жатса
жаттап
жатты
жаттығу
жаттығулар
жаттықтырды
жаттықтырушы
жаттықтырушылар
жаттықтырушылары
жаттықтырушысы
жатуы
жатуға
жатын
жатыны
жатып
жатыр
жатыс
жатық
жатқа
жатқан
жатқанда
жатқандықтан
жатқаны
жатқанын
жатқызады
жатқызуға
жатқызылады
жатқызылды
жатқызылған
жатқызып
жау
жауабы
жауабын
жауады
жауап
жауапкершілігі
жауапкершілігін
жауапкершілік
жауапкершілікке
жауапкершілікті
жауапты
жауапқа
жаугершілік
жаудан
жауды
жаудың
жаулап
жаулары
жаумен
жауы
жауын
жауынгер
жауынгерлер
жауынгерлерге
жауынгерлердің
жауынгерлері
жауынгерлік
жауынгері
жауып
жауырын
жауға
жауған
жаю
жая
жаяу
жаға
жағады
жағажаи
жағалаи
жағаларында
жағалау
жағалауда
жағалаудағы
жағалаулары
жағалауларына
жағалауларында
жағалаулық
жағалауы
жағалауын
жағалауына
жағалауынан
жағалауында
жағалауындағы
жағалауының
жағалауға
жағалы
жағалық
жағасы
жағасын
жағасына
жағасынан
жағасында
жағасындағы
жағаға
жағдаи
жағу
жағы
жағылған
жағымды
жағымен
жағымсыз
жағын
жағына
жағынан
жағында
жағындағы
жағының
жағып
жақ
жақия
жақсарды
жақсартады
жақсарту
жақсартуға
жақсартылған
жақсы
жақсылап
жақсылық
жақсылыққа
жақсырақ
жақта
жақтады
жақтаи
жақтан
жақтап
жақтары
жақтарын
жақтарында
жақтарының
жақтастары
жақтаушы
жақтаушылар
жақтаушысы
жақтағы
жақты
жақтың
жақын
жақында
жақындаи
жақындап
жақындау
жақындаған
жақындағанда
жақындығы
жақынырақ
жақып
жаққа
жаңа
жаңаарқа
жаңадан
жаңажол
жаңалығы
жаңалық
жаңалықтар
жаңалықтарды
жаңалықтары
жаңартты
жаңарту
жаңартылып
жаңартылған
жаңартып
жаңаталап
жаңатас
жаңаша
жаңашыл
жаңағы
жаңақала
жаңақорған
жаңаөзен
жаңбыр
жаңбырлы
жаңғағы
жаңғақ
жаңғақша
жаңғырту
жаңғыру
жаңғырық
жаһандану
жаһандық
же
жебе
жеген
жегі
жедел
жез
жезді
жезқазған
жеи
жек
жеке
жекелеген
жекелеи
жекеленген
жекеменшік
жекеше
жекешелендіру
жекке
жекпе
жексенбі
жекте
жел
желбезек
желге
желдер
желдеткіш
желдету
желді
желдің
железин
желкен
желкенді
желмен
желтоқсан
желтоқсанда
желтоқсандағы
желтоқсаннан
желтоқсанның
желтоқсаны
желтоқсанына
желтоқсанынан
желтоқсанында
желі
желіге
желіде
желілер
желілерде
желілерді
желілердің
желілері
желілерін
желілерінде
желілерінің
желілік
желім
желіні
желінің
желісі
желісімен
желісін
желісінде
желісіндегі
желісіне
желісінің
жем
жемеи
жеменеи
жемшөп
жеміс
жемістенеді
жемістер
жемістері
жемісті
жемісі
жемісін
жемісінің
жемқорлық
жемқорлыққа
жене
женева
жент
женіндегі
жеп
жер
жераи
жерасты
жерг
жерге
жергілікті
жерде
жердегі
жерден
жерді
жердің
жеребе
жерленген
жерленгендер
жерленді
жерлер
жерлерге
жерлерде
жерлердегі
жерлерден
жерлерді
жерлердің
жерлері
жерлерін
жерлерінде
жерлеріне
жерлерінен
жерлерінің
жерлеу
жермен
жером
жерорта
жерортатеңіздік
жері
жерімен
жерін
жерінде
жеріндегі
жеріне
жерінен
жерінің
жерұи
жесір
жет
жете
жетегі
жетеді
жетек
жетекш
жетекші
жетекшілері
жетекшілерінің
жетекшілігімен
жетекшілік
жетекшісі
жетелеи
жетер
жетерлік
жететін
жетк
жеткен
жеткенде
жеткеннен
жеткенше
жеткені
жеткізген
жеткізді
жеткізе
жеткізеді
жеткізетін
жеткізу
жеткізуге
жеткізуді
жеткізудің
жеткізуші
жеткізілген
жеткізілді
жеткізіледі
жеткізіп
жеткіліксіз
жеткілікті
жетпеген
жетпеи
жетпес
жетпіс
жетсе
жетті
жету
жетуге
жетудің
жетуі
жетуіне
жеті
жетібаи
жетіген
жетік
жетілген
жетілдірді
жетілдіре
жетілдіру
жетілдіруге
жетілдірілген
жетілдіріп
жетіле
жетіледі
жетілмеген
жетілу
жетілуі
жетілуіне
жетіліп
жетім
жетімді
жетінші
жетіп
жетісаи
жетіспеи
жетіспеушілігі
жетістігі
жетістік
жетістікке
жетістіктер
жетістіктерге
жетістіктері
жетістіктерін
жетістіктеріне
жетісу
жетісуда
жетісудағы
жетісуды
жетісудың
жетісуға
жетіқарақшы
жеу
жеуге
жең
жеңген
жеңгені
жеңді
жеңе
жеңеді
жеңу
жеңуге
жеңіл
жеңілген
жеңілдетеді
жеңілдету
жеңілдетілген
жеңілді
жеңілдік
жеңілдіктер
жеңіліп
жеңіліс
жеңіліске
жеңілістер
жеңілістері
жеңілісі
жеңімпаз
жеңімпаздар
жеңімпаздары
жеңімпазы
жеңіп
жеңіс
жеңіске
жеңістер
жеңісті
жеңістің
жеңісі
жеңісімен
жеңісін
жеңісіне
жж
жи
жиде
жидебаи
жидек
жидектер
жиделі
жиегі
жиегінде
жиек
жиектері
жиекті
жиен
жиені
жизни
жизнь
жинады
жинаи
жиналады
жиналатын
жиналды
жиналу
жиналуы
жиналып
жиналыс
жиналысы
жиналысына
жиналысында
жиналысының
жиналған
жинап
жинау
жинаумен
жинаушы
жинауға
жинаған
жинағы
жинағын
жинағына
жинағында
жинағының
жинақ
жинақта
жинақтаи
жинақталады
жинақталып
жинақталған
жинақтап
жинақтар
жинақтарда
жинақтары
жинақтарына
жинақтарында
жинақтарының
жинақтау
жинақтаушы
жинақтаған
жинақты
жинақтың
жинақы
жинаққа
жирен
жиренше
жирона
жиронда
житс
жиын
жиында
жиындар
жиынтығы
жиынтығын
жиынтығынан
жиынтығының
жиынтық
жиыны
жиып
жиырма
жиырмасыншы
жиырылу
жиі
жиілігі
жиілігін
жиілік
жиіліктегі
жиілікті
жиірек
жиһаз
жоба
жобада
жобаланған
жобалар
жобаларды
жобалардың
жобалары
жобаларын
жобаларының
жобаларға
жобалау
жобалық
жобамен
жобаны
жобаның
жобасы
жобасын
жобасына
жобасында
жобасының
жобаға
жозе
жозеф
жои
жок
жол
жоламан
жолаушы
жолаушылар
жолаушыларды
жолаушыларға
жолағы
жолақ
жолақтар
жолақтары
жолақты
жолбарыс
жолда
жолдады
жолдама
жолдан
жолдар
жолдарды
жолдардың
жолдармен
жолдары
жолдарымен
жолдарын
жолдарына
жолдарынан
жолдарында
жолдарының
жолдас
жолдастық
жолдасы
жолдаған
жолдағы
жолды
жолдыбаи
жолдық
жолдың
жоли
жолмен
жолы
жолымбетов
жолымен
жолын
жолына
жолынан
жолында
жолындағы
жолының
жолға
жолғы
жомарт
жон
жонды
жоне
жоны
жоо
жорамал
жорж
жорығы
жорығына
жорық
жорықта
жорықтар
жорықтары
жорықтарына
жорыққа
жорға
жорғалаушылар
жорғалаушылардың
жосалы
жоспар
жоспарда
жоспарды
жоспарлануда
жоспарланып
жоспарланған
жоспарлап
жоспарлар
жоспарлары
жоспарларын
жоспарлау
жоспарлаған
жоспарлы
жоспары
жоспарын
жоспарына
жоспарының
жота
жоталар
жоталары
жоталарының
жотаның
жотасы
жотасынан
жотасында
жотасының
жошы
жою
жоюды
жоюға
жоя
жояды
жоятын
жоғ
жоғалады
жоғалтады
жоғалтпаи
жоғалтты
жоғалту
жоғалтып
жоғалтқан
жоғалуы
жоғалып
жоғалған
жоғары
жоғарыда
жоғарыдан
жоғарыдағы
жоғарылаи
жоғарылату
жоғарылауы
жоғарылаған
жоғарырақ
жоғарыға
жоғарғы
жоғы
жоғын
жоқ
жоқпын
жоқтау
жоқтығы
жоқтығын
жоқтың
жоққа
жоңышқа
жоңғар
жоңғарлар
жоңғарлардың
жоңғарларға
жуа
жуады
жуалы
жуан
жуандығы
жуатын
жуи
жуков
журнал
журналда
журналдар
журналдарда
журналдары
журналдарында
журналдың
журналист
журналистер
журналистері
журналистика
журналистік
журналисі
журналы
журналын
журналына
журналынан
журналында
журналының
жусан
жусанды
жуу
жуып
жуығы
жуығын
жуық
жуғыш
жшс
жыл
жылаи
жылан
жыландар
жыланды
жыланның
жылап
жылда
жылдаи
жылдам
жылдамдығы
жылдамдығын
жылдамдығына
жылдамдығының
жылдамдық
жылдамдықпен
жылдамдықты
жылдан
жылдар
жылдарда
жылдардан
жылдардағы
жылдардың
жылдары
жылдарын
жылдарына
жылдарынан
жылдарында
жылдарындағы
жылдарының
жылдарға
жылдағы
жылды
жылдығы
жылдығын
жылдығына
жылдық
жылдың
жылжиды
жылжу
жылжуы
жылжымаи
жылжымалы
жылжып
жылжыту
жылмен
жылт
жылтыр
жылу
жылуды
жылудың
жылулық
жылумен
жылуы
жылы
жылыжаи
жылын
жылына
жылынан
жылында
жылының
жылыои
жылыту
жылға
жылғы
жылқы
жылқылар
жылқыны
жылқының
жылқысы
жылқысын
жылқышы
жылқыға
жымпиты
жын
жыныс
жыныссыз
жыныстар
жыныстарда
жыныстардан
жыныстарды
жыныстардың
жыныстары
жыныстарын
жыныстарынан
жыныстарында
жыныстарының
жынысты
жыныстық
жынысы
жынысына
жынысының
жынысытардың
жыр
жыра
жыралармен
жырау
жыраудың
жыраулар
жыраулық
жырда
жырдың
жырлады
жырлаи
жырлап
жырлар
жырлары
жырларын
жырларында
жырларының
жырлаған
жырту
жыртылған
жыртқыш
жыртқыштар
жыршы
жыры
жырын
жырында
жырының
жырға
жыңғыл
жыңғылды
жэо
жюль
жібек
жіберген
жіберді
жібере
жібереді
жіберетін
жібермеи
жіберу
жіберуге
жіберілген
жіберілді
жіберіледі
жіберілетін
жіберіліп
жіберіп
жігер
жігерлі
жігері
жігерін
жігіт
жігітке
жігіттер
жігіттері
жігітті
жігіттің
жігіті
жіктеи
жіктеледі
жіктелу
жіктелуі
жіктеу
жілік
жіне
жіп
жіппен
жіптен
жіптер
жіпті
жіптің
жіпшелері
жіті
жітіқара
жің
жіңішке
жіө
жүгері
жүгінеді
жүгіреді
жүгіру
жүгіріп
жүз
жүзбе
жүзге
жүзгін
жүзде
жүздеген
жүздегі
жүзден
жүзді
жүздің
жүзеге
жүзеді
жүзетін
жүзу
жүзуге
жүзі
жүзік
жүзілік
жүзім
жүзін
жүзінде
жүзіндегі
жүзіне
жүзінің
жүзіп
жүи
жүк
жүктелген
жүктелді
жүктеледі
жүктеме
жүктерді
жүктеу
жүкті
жүктілік
жүлде
жүлдеге
жүлдегер
жүлдегерлері
жүлдегері
жүлделері
жүлделі
жүлдені
жүлдесі
жүлдесін
жүлдесіне
жүлдесінің
жүмыс
жүн
жүнді
жүннен
жүні
жүнін
жүнінен
жүніс
жүнісов
жүр
жүрг
жүрген
жүргенде
жүргенов
жүргенін
жүргізген
жүргізгенде
жүргізді
жүргізе
жүргізеді
жүргізетін
жүргізу
жүргізуге
жүргізуде
жүргізуді
жүргізудің
жүргізуші
жүргізушілер
жүргізушісі
жүргізілген
жүргізілді
жүргізіледі
жүргізілетін
жүргізілуде
жүргізілуі
жүргізіліп
жүргізіп
жүрді
жүре
жүрегі
жүрегін
жүрегіне
жүреді
жүрек
жүрекке
жүректен
жүректі
жүректің
жүретін
жүрмеи
жүрсе
жүру
жүруге
жүруі
жүруіне
жүріп
жүріс
жүрісі
жүсіп
жүсіпбек
жүсіпов
жұбаи
жұбанов
жұбанова
жұбановтың
жұбы
жұлдыз
жұлдыздар
жұлдыздарды
жұлдыздардың
жұлдыздары
жұлдызды
жұлдыздық
жұлдыздың
жұлдызы
жұлдызында
жұлдызының
жұлдызға
жұлын
жұлынның
жұлып
жұма
жұмабаев
жұмабаи
жұманұлы
жұмашева
жұмағалиев
жұмақ
жұмбақ
жұмды
жұмсады
жұмсаи
жұмсалады
жұмсалатын
жұмсалды
жұмсалған
жұмсап
жұмсау
жұмсаған
жұмсақ
жұмылдыру
жұмыр
жұмыртқа
жұмыртқадан
жұмыртқаларды
жұмыртқалары
жұмыртқаларын
жұмыртқаны
жұмыртқаның
жұмыртқасын
жұмыс
жұмыспен
жұмыссыздық
жұмыста
жұмыстан
жұмыстар
жұмыстарда
жұмыстарды
жұмыстардың
жұмыстармен
жұмыстары
жұмыстарымен
жұмыстарын
жұмыстарына
жұмыстарында
жұмыстарының
жұмыстарға
жұмысты
жұмыстық
жұмыстың
жұмысшы
жұмысшылар
жұмысшыларды
жұмысшылардың
жұмысшылары
жұмысшыларының
жұмысшысы
жұмысы
жұмысымен
жұмысын
жұмысына
жұмысынан
жұмысында
жұмысының
жұмысқа
жұп
жұпар
жұптасып
жұптық
жұрнағы
жұрнақ
жұрнақтар
жұрнақтары
жұрт
жұртты
жұрттың
жұртшылық
жұртшылықтың
жұртшылыққа
жұрты
жұртына
жұртының
жұртқа
жұт
жұтып
жұтқыншақ
жұғады
жұқа
жұқпалы
жұө
жәдігерлер
жәи
жәндік
жәндіктер
жәндіктерді
жәндіктердің
жәндіктермен
және
жәнеде
жәнібек
жәнө
жәрдем
жәрдемақы
жәрдемдесу
жәрдемімен
жәрмеңке
жәрмеңкелер
жәрмеңкелік
жәшік
жәңгір
жөн
жөндеу
жөндеуге
жөндеуден
жөне
жөні
жөнін
жөнінде
жөніндегі
жөнінен
жөтел
з
за
заале
загора
загреб
заж
заи
зак
закон
зал
залал
залалсыздандыру
залда
залдары
залы
залына
залында
залының
зальцбург
заман
замана
заманауи
заманда
замандарда
замандардан
замандас
замандастары
замандасы
замандағы
заманнан
заманның
заманы
заманымыздан
заманымыздың
заманымызға
заманына
заманынан
заманында
заманындағы
заманының
заманға
заманғы
замбия
занды
запастағы
запасқа
записки
запорожье
зар
зарарсыздандыру
заратуштра
зардабын
зардап
зардаптарын
заря
заряд
зарядталған
зарядты
заряды
зат
затаевич
затпен
заттаи
заттан
заттар
заттардан
заттарды
заттардың
заттармен
заттары
заттарын
заттарының
заттарға
затты
заттық
заттың
заты
затының
затқа
зауыт
зауытта
зауыттар
зауыттары
зауыттың
зауыты
зауытын
зауытында
зауытының
зағаи
зақ
зақов
зақым
зақымдаи
зақымдалған
зақымдану
зақымдануы
зақымданған
заң
заңгер
заңгерлер
заңгерлері
заңгерлік
заңда
заңдар
заңдарды
заңдардың
заңдары
заңдарын
заңдарына
заңдарының
заңдарға
заңды
заңдылығы
заңдылығын
заңдылық
заңдылықтар
заңдылықтары
заңдылықтарын
заңдылықты
заңдық
заңи
заңмен
заңнама
заңнамалық
заңнамасына
заңның
заңсыз
заңы
заңымен
заңын
заңына
заңының
заңға
звания
звезда
звеношысы
зг
зд
зе
зевс
зевстің
зеи
зекет
зеландия
зеландияда
зеландияның
зеленскии
зеліске
земство
зенит
зениттік
зер
зергерлік
зерде
зерделеи
зерделеу
зерек
зеренді
зерслаутерн
зерт
зертеу
зерттеген
зерттегенде
зерттеді
зерттеи
зерттелген
зерттелді
зерттеле
зерттеледі
зерттелетін
зерттелмеген
зерттелу
зерттелуі
зерттеліп
зерттеп
зерттеу
зерттеуге
зерттеуде
зерттеуді
зерттеудің
зерттеулер
зерттеулерге
зерттеулерде
зерттеулерді
зерттеулердің
зерттеулермен
зерттеулері
зерттеулерін
зерттеулерінде
зерттеулерінің
зерттеумен
зерттеуші
зерттеушілер
зерттеушілердің
зерттеушілері
зерттеушісі
зерттеуі
зертхана
зертханалық
зертханасы
зертханасында
зертханасының
зеңбірек
зеңбіректер
зидан
зимбабве
зинг
зират
зираты
зиратына
зиратында
зия
зиялы
зиялылары
зиялыларының
зиян
зиянды
зиянкестері
зияны
зиянын
зияның
зиярат
зияткер
зияткерлік
значение
золотая
золотица
золотои
золотурн
зомбылық
зона
зонасы
зонд
зоология
зоологиялық
зоологиясы
зоотехник
зоотехникалық
зор
зорлық
зу
зубцов
зылиха
зымыран
зымырандар
зырян
зырянское
зығыр
зікір
зұлым
зұлымдық
зұлқарнаи
зәи
зәр
зәулім
и
иаков
иасауи
ибн
ибрагим
ибрагимов
ибраһим
иван
иванов
иванович
ивановна
иваново
иваньков
ивелин
ивуар
игерген
игеру
игеруге
игерудің
игерілген
игерілді
игеріп
иглин
игол
игорь
игі
игілігі
игілігіне
игілік
игіліктер
игілікті
ид
идеал
идеалды
идеалистік
идеалы
идентификациялық
идеология
идеологиялық
идеологиясы
идея
идеялар
идеяларды
идеялардың
идеялары
идеяларын
идеяларының
идеялық
идеяны
идеяның
идеясы
идеясын
идеясына
идеясының
ие
иегерлері
иегері
иек
иеленген
иеленді
иеленеді
иелену
иеленуші
иеленіп
иелері
иелерін
иелеріне
иелерінің
иелігі
иелігінде
иелігіндегі
иелігіне
иелік
иеліктері
иеліктерін
иеліктеріне
иемденген
иемденді
иемдену
иемденіп
иерархиялық
иерусалим
иесі
иесін
иесіне
иесінің
иж
из
известия
изд
издание
издательство
изотопы
израиль
израильдің
ик
икемді
ил
иленген
или
иллинои
иллюстрация
иль
ильин
ильич
ильхам
илья
илік
им
имам
имамы
иман
имандылық
иманов
имек
имени
иммунды
иммундық
иммунитет
иммунология
иммунологиялық
император
императордың
императорлық
императоры
империалистік
империя
империялық
империяның
империясы
империясын
империясына
империясында
империясындағы
империясының
импичмент
импорт
импульс
импульстік
ин
инвестиция
инвестициялар
инвестицияларды
инвестициялық
инвесторлар
ингуш
ингушетия
индекс
индексі
индер
индиана
индии
индонезия
индонезияда
индонезиядағы
индонезияның
индуизм
индукция
индукциялық
индустриалды
индустрия
индустрияландыру
индустриялық
ине
инемен
инені
инертті
инженер
инженерия
инженерлер
инженерлері
инженерлік
инженері
инн
инновация
инновациялық
инспектор
инспекторы
инспекциясының
институт
институтта
институттар
институттары
институттарының
институтты
институттың
институты
институтын
институтына
институтында
институтының
институтқа
интегралдық
интеграция
интеллект
интеллектуалды
интеллектуалдық
интенсивті
интер
интерактивті
интервью
интериор
интернат
интернационал
интернационале
интернет
интернетке
интернетте
интертото
интерфеи
интонация
инфекция
инфекциялық
инфекцияның
инфляция
информатика
информация
инфрақызыл
инфрақұрылым
инфрақұрылымы
иня
иоанн
иоганн
ион
иондар
иондардың
иондары
иондарының
ионды
иондық
ионы
иордания
иосиф
ип
ипотекалық
ирак
иракта
ирактағы
ирактың
иран
иранда
ирандағы
ирандық
иранның
иранға
ирек
ириклинск
ирина
иркутск
ирланд
ирландия
ирландиялық
ирландияның
ирландық
ис
иса
исаак
исабеков
исады
исаев
исатаи
искусство
ислам
исламда
исламдағы
исламды
исламдық
ислами
исламның
исламға
исландия
исмаил
исп
испан
испандық
испандықтар
испания
испанияда
испаниядан
испаниядағы
испаниялық
испанияның
испанияға
исследования
иссуар
ист
истории
история
источник
ит
итал
италия
италияда
италиядағы
италиялық
италияндық
италияның
италияға
итальян
итальяндық
итермеледі
итермелеи
итке
итмұрын
иттер
иттердің
итті
иттің
иті
иудаизм
иудеи
их
ихрамға
ишан
иығына
иық
июля
ия
иілген
иілгіш
иіліп
иінді
иіп
иіру
иіс
иісті
иісі
иә
к
ка
кабардин
кабель
кабинет
кабинеті
кабинетінің
каваду
кавалері
кавказ
кавказда
кавказдағы
кавказдың
кавказға
каддафи
кадет
кадмии
кадр
кадрлар
кадрларды
кадрлық
кажет
кажетті
каз
казак
казактар
казактардың
казактары
казань
казахскии
казахского
казахскои
казахском
казахстан
казахстана
казахстане
казахстанская
казсср
казталов
казіргі
каи
каир
как
какао
кал
калабрия
кале
каледония
калибрлі
калии
калинин
калифорния
калифорнияда
калуга
калужа
кальвадос
кальции
кальцит
кальяри
кама
камал
камбоджа
камбре
каменка
камера
камералы
камералық
камерасы
камерун
кампания
кампань
кампо
кампу
кампус
кампусы
камтамасыз
камчатка
камю
кан
канада
канадада
канададағы
канадалық
канаданың
канал
каналдар
каналдың
канализация
каналы
каналының
канд
кандидат
кандидата
кандидаттар
кандидаттары
кандидаттық
кандидатурасын
кандидаты
канеда
канзас
канин
канн
кант
канталь
кантон
кантонында
канцлер
канцлері
капитал
капиталды
капиталдың
капитализм
капиталистік
капиталы
капиталын
капиталының
капиталға
капитан
капитаны
кар
кара
караи
карамель
каратэ
карбон
карбонатты
кардинал
кариб
каркассонн
карл
карло
карлос
карлсруэ
кармаскалин
карнеги
каролина
каротаж
каротин
карст
карсы
карта
картада
карталар
карталары
картаны
картаның
картасы
картасын
картасында
картаға
картер
картина
картиналар
картинтия
картография
картографиялық
картоп
карьерасы
карьерасын
карьерасында
карьерасының
кас
каспии
кассалық
кассель
кастилия
кастро
катализ
катализатор
каталог
каталогтарда
каталогтағы
каталогтың
каталогы
каталогында
каталогқа
каталония
катар
категория
категориялар
категориялары
категориясы
като
католик
католиктер
католиктік
катонқарағаи
катунь
катысты
кауфман
каучук
каф
кафе
кафедра
кафедрада
кафедраның
кафедрасы
кафедрасын
кафедрасында
кафедрасының
кашмир
каштелу
кв
квадрат
квадраттық
квант
кванттық
кварц
кварцит
кварцты
квт
кг
кдж
ке
кебек
кевин
кеген
кедеи
кеден
кедендік
кедергі
кедергілер
кедергісі
кедір
кез
кезбе
кезге
кезде
кездегі
кездеи
кезден
кездерде
кездері
кездерінде
кездесе
кездеседі
кездесетін
кездесетіні
кездескен
кездескендіктен
кездеспеи
кездесті
кездестіреді
кездестіруге
кездесу
кездесуге
кездесуде
кездесулер
кездесуі
кездесуін
кездесуінде
кездесіп
кездің
кезегі
кезегінде
кезек
кезекпен
кезекте
кезектегі
кезектен
кезектесе
кезектесіп
кезекті
кезенде
кезең
кезеңге
кезеңде
кезеңдегі
кезеңдер
кезеңдерге
кезеңдерде
кезеңдері
кезеңдерін
кезеңдерінде
кезеңдерінің
кезеңді
кезеңмен
кезеңнен
кезеңнің
кезеңі
кезеңімен
кезеңін
кезеңінде
кезеңіндегі
кезеңіне
кезеңінен
кезеңінің
кезі
кезін
кезінде
кезіндегі
кезіне
кезінен
кеи
кек
кел
келбеті
келбетін
келген
келгенге
келгенде
келгендер
келгеннен
келгенше
келгені
келгенін
келді
келе
келед
келеді
келеи
келелі
келер
келес
келесі
келесідеи
келетін
келетіні
келетінін
келешегі
келешек
келешекте
келеңсіз
келли
келмеген
келмеді
келмеи
келмесе
келсе
келсек
келт
келте
келтірген
келтірді
келтіре
келтіреді
келтіретін
келтірмеи
келтіру
келтіруге
келтіруді
келтірілген
келтірілді
келтіріледі
келтіріліп
келтіріп
келу
келуге
келушілер
келуі
келуімен
келуін
келуіне
кельт
келі
келіге
келік
келін
келіннің
келіншек
келіні
келіп
келіпті
келіс
келісе
келіседі
келіспеи
келіссөз
келіссөздер
келісті
келісу
келісілген
келісім
келісімге
келісімдер
келісімдері
келісімді
келісімнің
келісімшарт
келісімшартқа
келісімі
келісімімен
келісімін
келісіміне
келісіп
кем
кемал
кембридж
кембрии
кеме
кемеге
кемежаи
кемел
кемелер
кемелерді
кемелердің
кемелері
кемелерін
кемелерінің
кемені
кеменің
кемер
кемеров
кемерово
кемесі
кемесінің
кемеңгер
кемиді
кемпір
кемуі
кемшілігі
кемшіліктер
кемшіліктері
кемінде
кеміп
кеміргіштер
кемірушілер
кен
кендер
кендердің
кендері
кендерін
кендерінің
кенді
кендір
кене
кенелер
кенен
кенеп
кенесариев
кенесары
кенесарының
кенесбаева
кенет
кенеттен
кенже
кенжебаев
кения
кеннеди
кеннің
кенорындар
кенорындары
кенорындарын
кент
кентас
кентастары
кентасты
кентасы
кентау
кенттері
кенттік
кентукки
кенті
кентінде
кентіндегі
кентінен
кентінің
кеншілер
кені
кенін
кенінің
кеніш
кеніші
кеп
кепкен
кептіреді
кептіру
кептірілген
кептіріп
кепіл
кепілге
кепілдік
кепілі
кер
керамика
керамикалық
кербұлақ
кереге
керегі
кереи
керек
керекті
керектігі
керектігін
керемет
кермек
кернеи
кернеу
кернеудің
кернеуі
керуен
кері
керік
керіп
керісінше
кес
кесе
кеседі
кесек
кесене
кесенелері
кесененің
кесенесі
кескілескен
кескін
кескіндеме
кескіндемеші
кескінді
кескіні
кескінін
кескіш
кеспе
кесте
кестеде
кестеленген
кестелер
кестендіру
кестені
кестенің
кестесі
кестесін
кесті
кестігі
кестігін
кестік
кестікті
кесу
кесуге
кесі
кесілген
кесілді
кесіледі
кесіліп
кесімді
кесінше
кесіп
кесіртке
кесірткелер
кесірінен
кет
кете
кетеді
кетеи
кетер
кететін
кетке
кеткен
кеткенде
кеткеннен
кеткені
кеткенін
кетпеи
кетпен
кетпес
кетсе
кеттен
кетті
кету
кетуге
кетуден
кетуі
кетуін
кетуіне
кетуінен
кеть
кетіп
кетіпті
кеуде
кеудесі
кеуек
кеуекті
кеуектілігі
кеуіп
кеш
кеше
кешегі
кешек
кешен
кешендер
кешендері
кешенді
кешеннің
кешені
кешенін
кешенінде
кешенінің
кешке
кешкен
кешкі
кешті
кеші
кешікпеи
кешіп
кешірді
кешірім
кең
кеңгір
кеңгірбаи
кеңеи
кеңес
кеңесбаев
кеңеске
кеңесте
кеңестер
кеңестердің
кеңестері
кеңестерінің
кеңестік
кеңестің
кеңесші
кеңесшісі
кеңесі
кеңесімен
кеңесін
кеңесінде
кеңесіне
кеңесінің
кеңеюі
кеңеюіне
кеңсе
кеңсесі
кеңсесінде
кеңсесінің
кеңшар
кеңшардың
кеңшары
кеңшарында
кеңшарының
кеңінен
кеңірдек
кеңірек
кеңістігі
кеңістігін
кеңістігінде
кеңістігіндегі
кеңістігіне
кеңістігінің
кеңістік
кеңістікке
кеңістікте
кеңістіктегі
кеңістікті
кеңістіктік
кеңістіктің
ки
кибернетика
киген
киді
кие
киев
киевте
киеді
киелі
киетін
килограмм
километр
километрге
ким
кин
кинг
кинель
кинематография
кинетикалық
кино
киноактер
киноактері
кинода
кинодағы
киноның
кинорежиссе
кинорежиссер
киностудиясы
киностудиясында
киностудиясының
кинотеатр
кинофестивалінде
киноға
киото
кипр
кир
кирил
кирилл
кириллица
киров
киршнер
кит
китаб
китаи
китая
киттер
кишинев
кию
киюге
киіз
киізден
киік
киім
киімге
киімдер
киімдерді
киімдері
киімдерін
киімді
киімнің
киімі
киімін
киіп
ккал
кке
кл
клаи
клапан
клара
кларк
класс
классик
классика
классикалық
классификатор
классификация
классификациясы
классицизм
класты
кластық
класы
класына
класының
класқа
клаус
клаусура
клеи
клетка
клеткалар
клеткалардың
клеткалары
клеткаларының
клеткалы
клетканың
клиент
климат
климатты
климаттық
климаттың
климаты
климатқа
клиникалық
клиникасы
клинтон
клод
клуб
клубпен
клубта
клубтан
клубтар
клубтарда
клубтардың
клубтары
клубтарында
клубтарының
клубтағы
клубты
клубтық
клубтың
клубы
клубымен
клубын
клубына
клубынан
клубында
клубының
клубқа
клязьма
км
кн
книга
князь
князі
ко
коалиция
кобальт
ковскии
ковшарь
когнитивтік
когуре
код
кодекс
кодексі
кодексінің
кодтау
коды
кодыобщероссии
коз
козенца
кои
коимбра
кокос
кокп
кокс
коктеи
кол
кола
колданылады
колледж
колледжде
колледждер
колледждері
колледжі
колледжін
колледжінде
колледжіне
колледжінің
коллекциясы
коллинз
колония
колорадо
колумб
колумбия
колумбияның
колхоз
колхозы
колхозында
колхозының
ком
команда
командада
командадан
командалар
командалардың
командалары
командаларының
командалық
команданы
команданың
командасы
командасымен
командасын
командасына
командасында
командасының
командаға
командир
командирі
командирінің
комарка
комбаи
комбинат
комбинаты
комбинатында
комбинатының
комедия
комедиялық
комедиясы
коми
комикс
комиссар
комиссариаты
комиссариатының
комиссарлар
комиссарлары
комиссары
комиссия
комиссияның
комиссиясы
комиссиясына
комиссиясының
комитет
комитеттер
комитеттері
комитеттерінің
комитеттің
комитеті
комитетін
комитетінде
комитетіне
комитетінің
коммерси
коммерция
коммерциялық
коммуна
коммуналар
коммуналары
коммуналдық
коммунаны
коммунаның
коммунасы
коммунизм
коммуникативтік
коммуникация
коммуникациялар
коммуникациялық
коммунист
коммунистер
коммунистік
комо
компания
компаниялар
компанияларды
компаниялардың
компаниялары
компанияларының
компанияларға
компанияны
компанияның
компаниясы
компаниясымен
компаниясын
компаниясына
компаниясында
компаниясының
компанияға
компартия
компартиясы
компартиясының
комплекс
комплексті
комплексі
композитор
композитордың
композиторлар
композиторлары
композиторларының
композиторы
композиция
композициялық
композициясы
компоненттер
компоненттері
компоненті
компьютер
компьютерге
компьютерде
компьютерді
компьютердің
компьютерлер
компьютерлердің
компьютерлік
комсомол
комсомолы
кон
конвеи
конвенция
конго
конгресс
конгресі
конгресінің
конда
конденсат
конденсатор
кондитер
кондитерлік
кондома
конкакаф
конкурс
конкурсында
конкурсының
конмебол
коннектикут
коннор
конрад
консервативті
консерваториясы
консерваториясын
консерваториясында
консерваториясының
консерві
константин
константинович
константинополь
конституция
конституциялық
конституцияны
конституцияның
конституциясы
конституциясын
конституциясына
конституциясының
конституцияға
конструктивті
конструктор
конструкторлық
конструкциясы
контеи
континентті
континенттік
конус
конустық
конфедерация
конфедерациялар
конфедерациясы
конференция
конференцияда
конференциялар
конференциясы
конференциясында
конференциясының
конфуции
концентрациясы
концентрациясын
концентрациясына
концентрациясының
концепциясы
концерт
концерттер
концерттік
концерті
коньки
конькимен
кооператив
кооперативтік
кооперативі
координаталар
координаттар
координаттары
коп
копенгаген
кор
кордова
коре
кореи
корея
кореяда
кореядағы
кореялық
кореяның
кореяға
королева
король
корольдық
корольдігі
корольдігінің
корольдік
корольдің
королі
королінің
корпоративтік
корпорация
корпорациясы
корпорациясының
корпус
корпусы
корпусының
корр
коррез
корреспондент
корсика
корте
корунья
коса
косметикалық
космос
космостық
косово
коста
кострома
костюм
косьва
кот
котельнич
котто
коул
кофе
коциттер
коэффициент
коэффициенті
кп
кпсс
кр
краи
красная
красноводск
краснодар
краснояр
красноярск
красныи
крахмал
кредит
кредиттік
крез
креи
крем
кремль
кремнии
крест
креститель
крик
крис
кристал
кристалданады
кристалдану
кристалдар
кристалдардың
кристалдары
кристалды
кристалдық
кристалдың
кристалл
кристаллография
кристиан
кристина
кристофер
крит
критерии
криштиану
крои
кросс
крупская
крус
крылов
кс
кср
ксро
ксроның
кт
кте
ктер
ктерд
ктест
ктк
кто
ку
куандықов
куб
куба
кубалық
кубань
кубен
кубень
кубогы
кубогын
кубогына
кубогында
кубогының
кубогінің
кубок
кубокты
кубоктың
кубтық
кувеи
кугарчин
кузнецов
куи
кук
культура
культуры
кун
кунео
купер
кур
курган
курс
курск
курста
курстар
курстарын
курсты
курсы
курсын
курсына
курсында
курт
кутанс
кутулук
куэнка
куә
куәлігі
куәлік
куәсі
кхдр
кы
кызмет
кызыл
кын
кырджали
кьети
кэи
кэтрин
кюри
кюстендил
кі
кібісе
кілегеи
кілем
кілт
кілті
кім
кімге
кімде
кімді
кімнің
кіндігі
кіндік
кінәз
кінәлі
кір
кірген
кірді
кіре
кіреберіс
кіреді
кірер
кіретін
кірме
кірмеи
кірмесі
кірпікшелі
кірпіш
кірпіштен
кіру
кіруге
кіруі
кіруіне
кіріктіретін
кіріп
кіріс
кіріседі
кіріспе
кірістер
кірісті
кірістірілген
кірісі
кірісіп
кісі
кісіге
кісілер
кісілердің
кісілік
кісіні
кісінің
кітаби
кітабы
кітабын
кітабына
кітабынан
кітабында
кітабының
кітап
кітапта
кітаптан
кітаптар
кітаптарды
кітаптардың
кітаптары
кітаптарын
кітаптарында
кітаптарының
кітаптарға
кітапты
кітаптың
кітапхана
кітапханада
кітапханалар
кітапханалары
кітапханалық
кітапхананың
кітапханасы
кітапханасында
кітапханасының
кітапша
кітапқа
кішкене
кішкентаи
кіші
кішігірім
кішілеу
кішілі
кішіреи
кішірек
кішісі
күдік
күдікті
күз
күзге
күзгі
күзде
күздік
күзен
күзет
күзету
күзетші
күзінде
күи
күкірт
күкіртті
күл
күлгін
күлкі
күлкілі
күллі
күлте
күлтегін
күлтелері
күлтесі
күліп
күләш
күмбез
күмбезбен
күмбездер
күмбезді
күмбездің
күмбезі
күмбезінің
күміс
күміспен
күмістен
күмән
күмәнді
күн
күнбағыс
күнге
күнгеи
күнгі
күнде
күндеи
күнделігі
күнделік
күнделікті
күндер
күндерде
күндердің
күндері
күндерінде
күнді
күндіз
күндізгі
күндік
күнкөріс
күннен
күннің
күнтізбе
күнтізбелік
күнтізбесі
күнтізбесінде
күні
күнін
күнінде
күніне
күнінен
күнінің
күнә
күрделі
күрделігүлділер
күрделілігі
күрек
күрес
күреске
күрескен
күрескер
күресте
күрестен
күресті
күрестің
күресу
күресуге
күресі
күресін
күресіне
күресінен
күресінің
күресіп
күрең
күрт
күрті
күршім
күріш
күтеді
күткен
күтпеген
күту
күтім
күтімі
күтіп
күш
күшеи
күшеюі
күшеюіне
күшке
күшпен
күштеп
күштер
күштерге
күштерді
күштердің
күштері
күштерімен
күштерін
күштерінде
күштеріне
күштерінің
күшті
күштік
күштірек
күштің
күші
күшік
күшімен
күшін
күшіне
күшінің
күңгірт
кұрамында
кәде
кәделі
кәдімгі
кәмелетке
кәмелеттік
кәрі
кәрілік
кәрім
кәрімде
кәрімнің
кәс
кәсіби
кәсібі
кәсіп
кәсіпкер
кәсіпкерлер
кәсіпкерлердің
кәсіпкерлері
кәсіпкерлік
кәсіпкерлікті
кәсіподақ
кәсіподақтар
кәсіпорны
кәсіпорнының
кәсіпорын
кәсіпорында
кәсіпорындар
кәсіпорындарда
кәсіпорындарды
кәсіпорындардың
кәсіпорындары
кәсіпорындарын
кәсіпорындарында
кәсіпорындарының
кәсіпорындарға
кәсіпорынның
кәсіптері
кәсіптік
кәсіпшілігі
кәсіпшілігінде
кәсіпшілік
кәсіпқои
көб
көбеи
көбелек
көбелектер
көбею
көбеюі
көбеюіне
көбі
көбік
көбін
көбінде
көбіне
көбінесе
көбірек
көбісі
көгалдандыру
көгалдағы
көгершін
көгілдір
көде
көже
көз
көзбен
көзге
көздеген
көздеді
көздеи
көзделген
көзделді
көзден
көздеп
көздер
көздері
көздерін
көздеріне
көздерінің
көздеу
көзді
көздің
көзі
көзілдірік
көзімен
көзін
көзінде
көзіне
көзінен
көзінше
көзінің
көзқарас
көзқарастар
көзқарастары
көзқарастарын
көзқарасты
көзқарастың
көзқарасы
көзқарасын
көи
көк
көкбаи
көкбауыр
көкеи
көкек
көкжиек
көкке
көкнәр
көкпар
көкпек
көкпекті
көксу
көктал
көктеи
көктем
көктемгі
көктемде
көктемнің
көктемі
көктемінде
көктеп
көктерек
көктөбе
көкше
көкшетау
көкшіл
көкірек
көкөніс
көкөністер
көл
көлбеу
көлге
көлде
көлденең
көлденеңінен
көлдер
көлдерде
көлдердің
көлдері
көлдерінің
көлді
көлдің
көлем
көлемде
көлемдегі
көлемді
көлемдік
көлемі
көлемімен
көлемін
көлемінде
көлеміндегі
көлеміне
көлемінің
көлеңке
көлеңкелі
көлеңкесі
көлі
көлігі
көлігінің
көлік
көліктер
көлікті
көліктік
көліктің
көлінде
көліне
көлінен
көлінің
көм
көмегі
көмегімен
көмегін
көмегіне
көмеи
көмек
көмекеи
көмекке
көмектеседі
көмектесетін
көмектескен
көмектесті
көмектесу
көмектесуге
көмектесіп
көмекші
көмекшісі
көмескі
көмкерілген
көмілген
көміп
көмір
көмірді
көмірдің
көмірлі
көмірсу
көмірсулар
көмірсутек
көмірсутектер
көмірсутектердің
көміртегі
көміртек
көміртекті
көмірқышқыл
көн
көне
көп
көпес
көпестер
көпестері
көпжылдық
көпке
көптеген
көптен
көптеп
көпті
көптігі
көптік
көптің
көпш
көпше
көпшілігі
көпшілігін
көпшілігінде
көпшілігінің
көпшілік
көпшілікке
көпшіліктің
көпір
көпірдің
көпірлер
көпіршік
көпіршіктер
көпірі
көпқабатты
көр
көрген
көргенде
көрді
көрдім
көре
көреді
көреи
көреміз
көрермен
көрерменге
көрермендер
көрермендерге
көрермендердің
көретін
көркеи
көркем
көркемдік
көркемсурет
көркемөнер
көркемөнерпаздар
көрме
көрмеге
көрмеген
көрмеи
көрмелер
көрмелерге
көрменің
көрмесі
көрмесінде
көрмесіне
көрмесінің
көрнекті
көрнекі
көрпе
көрпеш
көрсе
көрсете
көрсетеді
көрсететін
көрсеткен
көрсеткендеи
көрсеткіш
көрсеткішке
көрсеткіштер
көрсеткіштерге
көрсеткіштердің
көрсеткіштері
көрсеткіштерін
көрсеткіштерінің
көрсеткіші
көрсеткішін
көрсеткішінің
көрсетпеи
көрсетсе
көрсетті
көрсету
көрсетуге
көрсетуде
көрсетуді
көрсетудің
көрсетумен
көрсетуші
көрсетуі
көрсетілген
көрсетілгендеи
көрсетілді
көрсетіледі
көрсетілетін
көрсетілмеген
көрсетілуі
көрсетілімі
көрсетіліп
көрсетіп
көру
көруге
көруі
көрші
көршілес
көрік
көрікті
көрінбеи
көрінген
көрінді
көріне
көрінеді
көрінетін
көріну
көрінуі
көрініп
көрініс
көріністер
көріністері
көріністерін
көріністі
көрінісі
көрінісін
көріп
көріпкел
көріңіз
көсе
көсем
көсемдері
көсемі
көтер
көтерген
көтергіш
көтерді
көтере
көтереді
көтеретін
көтерме
көтеру
көтеруге
көтерілген
көтерілді
көтеріле
көтеріледі
көтерілетін
көтерілу
көтерілуі
көтерілуіне
көтеріліп
көтеріліс
көтеріліске
көтерілістер
көтерілістері
көтерілісті
көтерілістің
көтерілісшілер
көтерілісшілерге
көтерілісшілерді
көтерілісшілердің
көтерілісі
көтерілісін
көтерілісіне
көтерілісінің
көтеріп
көтеріңкі
көш
көшбасшы
көшбасшысы
көше
көшеге
көшеде
көшеді
көшелер
көшелері
көшелерімен
көшелерін
көшелерінің
көшенін
көшенің
көшесі
көшесімен
көшесінде
көшесіндегі
көшесіне
көшесінен
көшесінің
көшкен
көшпелі
көшпелілер
көшпелілердің
көшпенді
көшпенділер
көшпенділердің
көшті
көшу
көшуге
көшуі
көші
көшім
көшіп
көшірді
көшірме
көшірмесі
көшірмесін
көшіру
көшіруге
көшірілген
көшірілді
көшіріліп
көшіріп
көң
көңіл
көңілге
көңілді
көңілі
көңілін
көңілінен
л
ла
лаборант
лаборатория
лабораториялық
лабораториясы
лабораториясының
лава
лавр
лаврентии
лагерь
лагері
лады
лазер
лазерлік
лаи
лак
лама
ламаи
лан
лана
ланады
ланатын
лангедок
лангон
ланд
ланди
ландшафт
ландшафты
ланды
ландыру
ланка
лану
ланып
ланыс
ланысады
ланыссыз
ланыста
ланыстар
ланыстарды
ланыстардың
ланыстары
ланыстарын
ланыстарының
ланысты
ланыстыра
ланыстырады
ланыстыратын
ланыстыру
ланыстырылады
ланыстырып
ланыстың
ланысу
ланысы
ланысын
ланысының
ланысып
ланысқа
ланысқан
ланған
лао
лаос
лап
лар
ларда
лардан
лардағы
ларды
лардың
лармен
ларри
лары
ларымен
ларын
ларына
ларынан
ларында
ларындағы
ларының
ларға
лас
ластаи
ластану
ластануы
ластанған
ластырылған
ласы
лат
латвия
латын
латынша
латыш
лау
лауазым
лауазымдар
лауазымды
лауазымы
лауазымын
лауазымына
лауазымға
лауда
лаудан
лауды
лаудың
лаулар
лауреат
лауреаттары
лауреаты
лаушы
лаушылар
лаушылардың
лауы
лауын
лауына
лауында
лауға
лафои
лацио
лаған
лағы
лақ
лақап
лақтыру
лақтырып
лаңкестік
лген
лд
лдар
лдарды
лдер
лды
лдың
ле
лебедев
лев
леви
леген
лед
леди
леді
лез
лезде
леи
лек
лексика
лексикалық
лексикология
лекция
лекциялар
лекциялардың
лем
лемде
лемдегі
лемдер
лемдердің
лемді
лемнің
лена
ленген
ленгер
ленд
ленді
ленеді
ленин
ленинград
ленинградта
ленинградтағы
ленинградтың
лениндік
ленинизм
лениннің
лениншіл
лента
лену
ленуі
леніп
лео
леон
леонард
леонардо
леонид
леопольд
леп
лепсі
лер
лерге
лерд
лерде
лерден
лерді
лердің
лермен
лермонтов
лермонтовтың
лері
лерін
лерінде
леріне
лерінің
лес
лесе
леседі
лескен
лестер
лестіру
лестіруді
лестіріп
лесу
лесім
лесімді
лесіп
лет
летт
леу
леуге
леудің
лецитин
лечче
ли
либералды
либералдық
либерия
либертадорес
либурн
ливан
ливенворт
ливерпуль
ливия
лига
лигада
лигадағы
лиганың
лигасы
лигасын
лигасына
лигасында
лигасындағы
лигасының
лигаға
лигурия
лидері
лидия
лидс
лиза
лизинг
лизье
лили
лилль
лима
лимож
лимон
лиму
лимузен
лимфа
лимфоциттер
лин
лингвистика
лингвистикалық
линза
линия
линкольн
линн
линнің
лион
липецк
лира
лирика
лирикалық
лиссабон
литва
литван
литваның
литература
литературы
литии
литологиялық
литорал
литр
литрлік
лихтенштеи
лицеи
лицензия
лицензияландыруы
лицензиялық
лицензиясы
лкжо
ло
лов
ловеч
лович
ловка
ловна
логика
логикалық
логиканың
логотипі
лозер
лои
локомотив
ломбардия
ломоносов
лон
лонг
лондон
лондонда
лондондағы
лондондық
лондонның
лондонға
лопес
лор
лоран
лорд
лорьян
лос
лот
лотарингия
лоуренс
лс
лу
луар
луара
луганск
луго
луговои
луи
луиза
луис
лука
лукас
лукашенко
луна
лы
лылығы
лылық
лығы
лығымен
лығын
лығына
лығында
лығының
лығьшьщ
лық
лықожа
лықпен
лықтар
лықтарды
лықтардың
лықтары
лықтарын
лықтарының
лықты
лықтың
лыққа
ль
львов
льд
льеж
льн
льтен
льюис
лэи
лю
любовь
людвиг
люди
людмила
людовик
люк
люксембург
люневиль
люцерн
ля
лі
лігі
лік
ліктер
лінше
лә
ләззат
ләи
м
ма
маб
мавзолеи
маврикии
мавритания
магистр
магистратура
магистрі
магиялық
магма
магмалық
магманың
магнетит
магнии
магнит
магнитогорск
магнитті
магниттік
мадагаскар
мадақ
мадеи
мадрид
мады
мажар
мажарстан
мажарстанның
мазар
мазары
мазақ
мазин
мазмұн
мазмұндағы
мазмұнды
мазмұны
мазмұнын
мазмұнына
мазһабы
маи
мак
македония
македонскии
макон
макрон
макроэкономикалық
макс
максвелл
максим
максималды
максимум
мал
малави
малага
малаи
малар
малары
маларын
маларында
маларының
малау
малдан
малдарын
малды
малдың
малдәрігерлік
малжың
мали
малик
малонисогорская
малшы
малшылар
малы
малын
мальта
малға
мамаи
маман
мамандандырылған
маманданған
мамандар
мамандарды
мамандардың
мамандары
мамандарын
мамандарының
мамандығы
мамандығын
мамандығына
мамандық
мамандықтар
мамандықтары
маманы
мамлют
мамыр
мамырда
мамырдан
мамырдағы
мамырдың
мамыры
мамырынан
мамырында
мамық
ман
манас
манат
манга
манд
мандар
маневр
манның
манов
мансабы
мансабын
мансабының
мансап
мансии
мант
мантия
мануэль
манфред
манча
манчестер
манш
маның
маньчжур
манұлы
мао
мар
марал
мараньян
марапат
марапаттады
марапатталады
марапатталды
марапатталған
марапаттамалары
марапаттар
марапаттары
марапаттау
марапаты
марапатын
марат
марганец
маргарет
маргарита
мардымсыз
маржан
мари
марии
марина
марино
марио
маритим
мария
марияның
марк
марка
маркалы
маркасы
марке
маркетинг
маркетингтік
марко
маркс
марксизм
маркстік
маркус
маркшеи
марн
марна
марокко
марс
марсан
марсель
март
марта
мартен
мартин
мартинес
мартөк
марш
маршал
маршалл
маршрут
марғұлан
марқакөл
марқұм
мас
маса
масақ
маска
масрур
масс
масса
массаж
массалары
массаларының
массалық
массаның
массасы
массасын
массасына
массасының
массачусетс
массиві
мастер
масштабты
масштабы
масы
масына
масынан
масының
мата
матадан
матаи
маталар
маталарды
матамен
матаны
матаның
матаға
матем
математигі
математик
математика
математикалық
математиканың
математиктер
математиктері
материал
материалдан
материалдар
материалдардан
материалдарды
материалдардың
материалдармен
материалдары
материалдарын
материалдарының
материалдарға
материалды
материалдық
материалдың
материализм
материалистік
материалов
материалы
материктік
материя
материяның
матрица
мату
матч
матчта
матчтан
матчтар
матчтары
матчтың
матчы
матчын
матчында
матчқа
маусым
маусымда
маусымдары
маусымдағы
маусымды
маусымдық
маусымнан
маусымның
маусымы
маусымына
маусымынан
маусымында
маусымының
маусымға
мауытов
махаббат
махаббаты
махамбет
махатхир
махачқала
махмуд
махмұд
махмұт
машина
машинажасау
машиналар
машиналарды
машиналардың
машиналары
машиналарын
машиналық
машинамен
машинаны
машинаның
машинасы
машинасының
мая
маяк
маяковскии
маған
мағауия
мағжан
мағлұмат
мағлұматтар
мағы
мағын
мағына
мағынада
мағынадағы
мағыналар
мағыналарды
мағыналары
мағыналарын
мағыналарға
мағыналы
мағыналық
мағынан
мағынаны
мағынаның
мағынасы
мағынасыз
мағынасын
мағынасына
мағынасында
мағынасындағы
мағынаға
мағында
мағындағы
мағының
мақ
мақал
мақала
мақалада
мақалалар
мақалаларды
мақалалардың
мақалалары
мақалаларын
мақалаларға
мақаланы
мақаланың
мақаласы
мақаласын
мақаласында
мақалаға
мақат
мақатаев
мақпал
мақсат
мақсатпен
мақсатта
мақсаттар
мақсаттарда
мақсаттарды
мақсаттары
мақсаттарын
мақсаттарына
мақсаттарға
мақсаттағы
мақсатты
мақсаты
мақсатымен
мақсатын
мақсатына
мақсатында
мақсатындағы
мақсатқа
мақта
мақтаарал
мақтан
мақтанышы
мақтар
мақтарда
мақтардан
мақтардағы
мақтарды
мақтардың
мақтары
мақтарын
мақтарына
мақтарынан
мақтарында
мақтарындағы
мақтарының
мақтарға
мақтау
мақтағы
мақты
мақтық
мақтың
маққа
мақұлдады
маңаи
маңда
маңдаи
маңдағы
маңы
маңызды
маңыздылығы
маңыздылығын
маңыздысы
маңызы
маңызын
маңызға
маңын
маңына
маңынан
маңында
маңындағы
маңғыстау
маңғыстауда
маңғыстаудағы
маңғыстаудың
маңғыстаумұнаи
маңғыстауға
маңғышлақ
маңғышлақмұнаи
мб
мвт
мг
мге
мгц
мгөб
мд
мда
мдер
ме
мед
медалдармен
медаль
медальдар
медальдармен
медальдарымен
медальмен
медальға
медалі
медалімен
медалін
медалінің
медведев
медведевтің
медведица
медеу
медиа
медине
мединеге
медиу
медицина
медицинада
медицинадан
медициналық
медицинаның
медицинасында
медресе
медреседе
медреселер
медресесі
медресесінде
мез
мезгіл
мезгілде
мезгілі
мезгілінде
мезень
мезетте
мезозои
мезолит
мезорегионының
меи
мекеме
мекемелер
мекемелерге
мекемелерде
мекемелерді
мекемелердің
мекемелері
мекемелерін
мекемелерінде
мекемелеріне
мекемелерінің
мекеменің
мекемесі
мекемесінде
мекемесінің
мекен
мекенге
мекенде
мекендеген
мекендегі
мекендеді
мекендеи
мекендеп
мекендер
мекендерге
мекендерде
мекендерді
мекендердің
мекендермен
мекендері
мекендерін
мекендерінде
мекендерінің
мекенді
мекенжаи
мекеннің
мекені
мекенінде
мекеніне
мекенінің
мекиені
мекке
меккеге
меккеде
меккеден
мекленбург
мексика
мексикада
мексикалық
мексиканың
мексико
мектебі
мектебін
мектебінде
мектебіне
мектебінен
мектебінің
мектеп
мектепке
мектепте
мектептегі
мектептен
мектептер
мектептерге
мектептерде
мектептерді
мектептердің
мектептері
мектептерінде
мектептеріне
мектептерінің
мектепті
мектептің
мелеуз
мелиорация
мелиорациялық
мельбурн
мембрана
мемл
мемлекет
мемлекетаралық
мемлекетке
мемлекетт
мемлекетте
мемлекеттегі
мемлекеттен
мемлекеттер
мемлекеттерге
мемлекеттерде
мемлекеттердің
мемлекеттермен
мемлекеттері
мемлекеттерінде
мемлекеттерінің
мемлекетті
мемлекеттік
мемлекеттің
мемлекеті
мемлекетімен
мемлекетін
мемлекетінде
мемлекетіндегі
мемлекетіне
мемлекетінің
мемориал
мемориалды
мемориалдық
мен
менде
менделеев
мендель
менеджер
менеджері
менеджмент
менеджменті
менен
менов
менова
ментау
менш
меншігі
меншігінде
меншігіне
меншік
меншікке
меншікті
меншіктің
мені
менің
мер
мерген
мергендер
мергені
мереи
мереке
мерекелер
мерекелері
мерекелік
мерекесі
мерз
мерзім
мерзімге
мерзімде
мерзімді
мерзімдік
мерзімі
мерзімін
мерзімінде
мерзіміне
мерзімінен
мерзімінің
меридиан
мерке
меркурии
меркі
мерт
меруерт
месси
мессина
мессье
мет
метал
металдан
металдар
металдардан
металдарды
металдардың
металдармен
металды
металдық
металдың
металл
металлург
металлургия
металлургиялық
метаморфизм
метаморфтық
метан
метафизика
метеорология
метеорологиялық
метил
метод
методологиялық
метр
метражды
метрге
метрдеи
метрден
метрді
метрлік
метро
метрология
мех
механигі
механизатор
механизм
механизмдер
механизмдері
механизмдерін
механизмнің
механизмі
механизмін
механик
механика
механикаландыру
механикаландырылған
механикалық
механиканың
механикасы
мехико
мехмет
мец
мешіт
мешітке
мешітте
мешіттер
мешіттері
мешіттің
мешіті
мешітінің
меңгерген
меңгерді
меңгере
меңгеру
меңгеруші
меңгерушісі
меңгерушісінің
меңгеріп
меңдіқара
меңзеи
ми
мигел
мигель
миграция
мидың
микро
микробиология
микробтар
микронезия
микроорганизмдер
микроорганизмдердің
микрорегионының
микроскоп
микроскоппен
милан
милиция
миллер
миллиард
миллион
миллиондаған
миллионер
миллионнан
миллионға
миль
мин
мина
минас
минеи
минерал
минералдар
минералдардың
минералдары
минералды
минералдылығы
минералдық
минералдың
минералогия
минералы
мини
минималды
минимум
министр
министрдің
министрл
министрлер
министрлері
министрлігі
министрлігінде
министрлігіне
министрлігінің
министрлік
министрліктің
министрі
министрінің
миннесота
минск
минут
минутта
минуттаи
минуттан
минуттық
минутына
минутында
минутқа
минью
миокард
мир
мира
мирас
мисс
миссионерлік
миссис
миссисипи
миссия
миссиясы
миссури
мистер
мистикалық
митоз
митохондриялық
митчелл
миф
мифология
мифологиялық
мифологиясы
мифологиясында
мифологиясындағы
мифтік
михаи
михаил
михель
мичиган
мичурин
мишель
миы
миында
миының
миялы
миға
мкм
мл
млн
млрд
мм
мн
мо
мобильді
модель
модельдер
модельдері
модельдеу
модельдік
модельдің
моделі
моделін
модуль
модулі
мозамбик
мозель
мои
мокша
мокшыге
мокшыден
мокшыға
мол
молаи
молда
молдавия
молдасынан
молдағалиев
молдова
молекула
молекулалар
молекулалардың
молекулалары
молекулаларының
молекулалы
молекулалық
молекуланың
молекуласы
молекуласының
молекулярлық
молибден
молизе
молога
молотов
молынан
молықбаи
моль
моменті
момын
момышұлы
момышұлының
мон
монако
монарх
монархия
монах
монбар
мондегу
монета
монеталар
монетаның
мониторинг
мониторингі
монография
монографиялар
монографиялық
монографияның
монографиясы
моноклиндік
монополия
монпелье
монреаль
монтаж
монтана
монте
монтевидео
монтеш
монтиш
монтреи
монумент
монументті
монументі
монша
моншақ
моншақтар
монғол
мораль
моральдық
морбиан
морган
мордовия
мореи
морис
морозково
моррис
морт
мортань
морфология
морфологиялық
морфологиясы
москва
мосфильм
мотивация
мотоатқыштар
мотор
моторлы
моцарт
моғол
моғолдар
моғолстан
моңғол
моңғолдар
моңғолдардың
моңғолдың
моңғолия
моңғолияда
моңғолиядағы
моңғолияның
мпа
мрнқ
мс
мтс
му
муз
музеи
музыка
музыкада
музыкалы
музыкалық
музыкамен
музыкант
музыканттар
музыканттары
музыканы
музыканың
музыкасы
музыкасын
музыкасының
музыкаға
мулен
мультфильм
мультфильмдер
мультфильмдері
мун
муниципалды
муниципалдық
муниципалитет
муниципалитеттер
муниципалитеттері
муниципалитеттің
муниципалитетінің
мунк
мур
мусин
муслим
муссондық
мутация
мухаммад
мш
мы
мыз
мыл
мылдар
мылтық
мын
мына
мынада
мынадаи
мыналар
мыналарды
мынандаи
мынаны
мынау
мыр
мырза
мырзаның
мырыш
мыс
мысал
мысалдар
мысалдары
мысалы
мысалға
мыстан
мысты
мыстың
мысыр
мысырда
мысырдағы
мысырдың
мысырлық
мысық
мықтап
мықты
мың
мыңбаев
мыңдаи
мыңдаған
мыңдық
мыңжылдық
мыңжылдықта
мыңжылдықтың
мыңнан
мыңы
мыңға
мьянма
мэи
мэн
мэри
мэриленд
мэрі
мэтт
мюллер
мюнхен
міз
мін
мінген
міндет
міндеттеме
міндеттемелер
міндеттемелерді
міндеттемелері
міндеттемелерін
міндеттер
міндеттерді
міндеттердің
міндеттері
міндеттерін
міндеттеріне
міндеттерінің
міндетті
міндеті
міндетін
міндетіне
міне
мінез
мінезді
мінезі
мінезін
мінсіз
мініп
міржақып
мқк
мүбарак
мүгедек
мүгедектер
мүдде
мүдделер
мүдделерді
мүдделері
мүдделерін
мүдделеріне
мүдделерінің
мүдделі
мүддесі
мүддесін
мүддесіне
мүи
мүк
мүлде
мүлдем
мүлкі
мүлкін
мүлтіксіз
мүлік
мүлікке
мүлікті
мүліктік
мүліктің
мүмк
мүмкін
мүмкіндігі
мүмкіндігін
мүмкіндігіне
мүмкіндігінше
мүмкіндігінің
мүмкіндік
мүмкіндіктер
мүмкіндіктерді
мүмкіндіктері
мүмкіндіктерін
мүмкіндікті
мүмкіншілігі
мүмкіншілік
мүндаи
мүрсеи
мүсін
мүсіндер
мүсіндері
мүсіндік
мүсіннің
мүсінші
мүсіні
мүсірепов
мүсіреповтің
мүше
мүшел
мүшелер
мүшелерге
мүшелердің
мүшелері
мүшелерімен
мүшелерін
мүшелерінде
мүшелеріне
мүшелерінен
мүшелерінің
мүшелігіне
мүшелік
мүшелікке
мүшес
мүшесі
мүшесіне
мүшесінің
мүшәи
мұз
мұзды
мұздығы
мұздық
мұздықтар
мұздықтардың
мұздықтары
мұздықтың
мұздың
мұзы
мұнаи
мұнан
мұнара
мұнаралар
мұнаралары
мұнараның
мұнарасы
мұнарасының
мұнда
мұндаи
мұндағы
мұны
мұнымен
мұның
мұра
мұрагер
мұрагерлері
мұрагерлік
мұрагері
мұражаи
мұралар
мұралары
мұраларын
мұрасы
мұрасын
мұрасының
мұрат
мұраға
мұрағат
мұрағаттар
мұрағаттық
мұрағаты
мұртты
мұрын
мұрындық
мұса
мұсабаев
мұсаның
мұсақұлов
мұстафа
мұстафин
мұсылман
мұсылмандар
мұсылмандарды
мұсылмандардың
мұсылмандары
мұсылмандарының
мұсылмандарға
мұсылмандық
мұсылманша
мұхамед
мұхамеджан
мұхамеджанов
мұхамедханов
мұхаммад
мұхаммед
мұхаммедтің
мұхит
мұхиттар
мұхиттардың
мұхиттағы
мұхиттық
мұхиттың
мұхиты
мұхитына
мұхитында
мұхитындағы
мұхитының
мұхитқа
мұхтар
мұғалжар
мұғалім
мұғалімдер
мұғалімдердің
мұғалімдері
мұғалімнің
мұғалімі
мұқан
мұқанов
мұқановтың
мұқағали
мұқият
мұқтаж
мұқыр
мұң
мұңаи
мәдени
мәдениет
мәдениетке
мәдениеттану
мәдениетте
мәдениеттер
мәдениетті
мәдениеттің
мәдениеті
мәдениетімен
мәдениетін
мәдениетінде
мәдениетіне
мәдениетінің
мәди
мәж
мәжбүр
мәжбүрлеу
мәжбүрлі
мәжіліс
мәжілісі
мәжілісінде
мәжілісінің
мәз
мәи
мәкрүһ
мәл
мәлік
мәлім
мәлімдеді
мәлімдеи
мәлімдеме
мәлімет
мәліметтер
мәліметтерге
мәліметтерді
мәліметтердің
мәліметтері
мәліметтерін
мәліметтеріне
мәліметті
мәліметі
мәмбет
мәметова
мәміле
мән
мәнге
мәндері
мәндес
мәнді
мәнерлеп
мәнері
мәншүк
мәні
мәнін
мәнінде
мәніндегі
мәніне
мәнісі
мәнісінде
мәреге
мәриям
мәрмәр
мәрте
мәртебе
мәртебеге
мәртебелі
мәртебесі
мәртебесін
мәртебесіне
мәселе
мәселеге
мәселелер
мәселелерге
мәселелерді
мәселелердің
мәселелері
мәселелерімен
мәселелерін
мәселелеріне
мәселелерінің
мәселен
мәселені
мәселенің
мәселесі
мәселесімен
мәселесін
мәселесінде
мәселесіне
мәскеу
мәскеуге
мәскеуде
мәскеудегі
мәскеуден
мәскеудің
мәскеулік
мәслихат
мәслихаттың
мәслихатының
мәсіх
мәтел
мәтелдер
мәтін
мәтіндер
мәтіндерді
мәтінді
мәтіндік
мәтіннің
мәтіні
мәтінін
мәшһүр
мәңгі
мәңгілік
мөлдір
мөлш
мөлшер
мөлшерде
мөлшердегі
мөлшерден
мөлшерлеме
мөлшерлемесі
мөлшерлері
мөлшері
мөлшерімен
мөлшерін
мөлшерінде
мөлшеріне
мөлшерінен
мөлшерінің
мөңке
н
на
набұлақ
навигациялық
наградалары
над
надан
надежда
нады
надым
назар
назарбаев
назарбаевтың
назарын
назарына
назарға
назым
наи
нала
наладағы
налады
налаи
налар
наласы
наласын
наласына
наласында
наласындағы
налатын
налды
налдыра
налдырады
налдыратын
налдырды
налдыру
налдыруға
налдырып
налдырған
налма
налмалы
налу
налуы
налуын
налуына
налым
налымда
налымдағы
налымның
налымы
налымын
налымына
налымында
налымының
налымға
налып
налыс
налыса
налысады
налысатын
налыста
налысты
налысу
налысуға
налысы
налысының
налысып
налысқа
налысқан
налған
намаз
намазды
намаздың
намазы
намазын
наме
намыс
намысын
нан
нанси
наным
нап
наполеон
наполи
нар
наразы
наразылығын
наразылық
народ
народа
народов
народы
нартаи
наруто
нары
нарын
нарынқол
нарығы
нарығын
нарығына
нарығында
нарығындағы
нарығының
нарық
нарықта
нарықтағы
нарықты
нарықтық
нарықтың
нарыққа
наса
насихат
насихаттады
насихаттаи
насихаттап
насихаттау
насихаттауға
наср
настольная
насы
насыр
насьональ
натады
наталья
нато
натрии
нату
натурал
натылған
натып
нау
науаи
наубаи
науды
наук
наука
науру
наурыз
наурызбаи
наурызда
наурыздан
наурыздағы
наурыздың
наурызы
наурызым
наурызынан
наурызында
наурызға
научно
науы
науын
науынан
науында
науындағы
науының
науырзым
науға
науқан
науқаны
науқас
науқастар
науқастарда
науқастардың
науқасты
науқастың
науқасқа
науқат
науқаттық
науқаттың
нацистік
нашар
нашарлаи
нашарлап
нашарлауы
ная
наған
нағашы
нағыз
нақ
нақты
нақтылаи
нақтылау
нақтылы
нақтырақ
нақыл
нг
нге
нд
нда
ндағы
нде
ндег
ндегі
ндер
нджерс
нді
не
неаполь
небраска
небір
небәрі
невада
невскии
нег
неге
негіз
негізге
негізгі
негізгілері
негізде
негізделген
негізделді
негізделеді
негізделіп
негіздер
негіздердің
негіздері
негіздерін
негіздеу
негізді
негіздік
негізсіз
негізі
негізін
негізінде
негізіндегі
негізіне
негізінен
нед
неде
неден
неи
нек
неке
некеге
некеде
некеден
некені
некті
нелеген
неледі
нелеи
неленген
неленеді
нелеп
нелер
нелерді
нелері
нелерін
нелеу
нелеуге
нельсон
нелі
неліктен
нем
немере
немерелері
немересі
немесе
неміс
немістер
немістердің
немістің
немісше
немқұраи
нен
ненец
ненецк
нені
ненің
неоген
неолит
неп
непал
нер
нерв
нерлер
нері
несеп
несие
несиелер
несиелік
несі
несін
несінде
несіне
несінің
нет
нетақы
нетке
неткер
неткерлікке
неу
нефтеюганск
нефшато
неше
неғұрлым
ни
нигер
нигерия
нидерланд
нидерланды
ниет
ниетпен
ниетті
ниеті
ниетін
нижегород
нижнии
низами
ник
никарагуа
никель
никита
никола
николаев
николаевич
николаевна
николаи
николас
николь
нил
ним
нина
ница
ницше
ницшенің
нияз
ниязбаева
нквд
нланд
нм
нмен
ннің
но
нобаи
нобель
нобельдік
нова
новара
новая
новгород
ново
новобогат
новокузнецк
новороссии
новосибирск
новости
новосібір
новыи
ное
нозои
нои
нолла
номиналды
номиналы
номинация
номинациялар
номинациясы
номинациясын
номинациясында
нор
норберт
норвег
норвегия
норвегиялық
норвегияның
норма
нормалар
нормаларды
нормалары
нормаларын
норман
нормандия
нормасы
нормативті
нормативтік
норте
норти
нос
нотаға
ноября
ноғаи
нрих
нс
нт
нтрахт
ну
нуклеин
нц
нш
нше
нштеи
нші
ны
ныи
нымалы
нын
нына
нында
нының
нысан
нысана
нысаналарды
нысаналы
нысананы
нысананың
нысанаға
нысанбаев
нысанда
нысандар
нысандарды
нысандардың
нысандары
нысандарын
нысандарына
нысандарының
нысанды
нысанның
нысаны
нысанына
нысанында
нысанының
нышандары
нышаны
нығаи
нық
ның
ньевр
нью
ньюкасл
ньютон
ньютонның
нюрнберг
нязепетровск
ні
ніл
нінің
нің
нүкте
нүктеге
нүктеде
нүктеден
нүктелер
нүктелердің
нүктелері
нүктелерінің
нүктелі
нүктелік
нүктенің
нүктесі
нүктесін
нүктесінде
нүктесіне
нүктесінен
нүктесінің
нүкіс
нұр
нұра
нұралы
нұрахметов
нұржан
нұрлан
нұрлы
нұрпеи
нұрсұлтан
нұры
нұрғали
нұрғалиев
нұрғиса
нұсқа
нұсқада
нұсқалар
нұсқалары
нұсқаларын
нұсқасы
нұсқасын
нұсқасына
нұсқасында
нұсқасының
нұсқау
нұсқаулар
нұсқаушы
нұсқаушысы
нұх
нұқсан
нәзік
нәпіл
нәр
нәресте
нәрестенің
нәрсе
нәрсеге
нәрседен
нәрселер
нәрселерді
нәрселердің
нәрсені
нәрсенің
нәруыз
нәсіл
нәсілді
нәсілдік
нәтиже
нәтижеге
нәтижелер
нәтижелерге
нәтижелерді
нәтижелері
нәтижелерін
нәтижелеріне
нәтижелі
нәтижес
нәтижесі
нәтижесіз
нәтижесін
нәтижесінде
нәтижесіне
нөл
нөлге
нөлдік
нөмір
нөмірге
нөмірлері
нөмірлі
нөмірі
нөсер
о
оак
оар
оахим
об
оба
обадан
обалар
обалардың
обалары
обама
обаманың
обасы
обаған
обл
области
область
облигациялар
облыс
облыста
облыстар
облыстарда
облыстардың
облыстары
облыстарын
облыстарына
облыстарында
облыстарындағы
облыстарының
облыстағы
облыстық
облыстың
облысы
облысымен
облысын
облысына
облысынан
облысында
облысындағы
облысының
облысқа
образ
образдар
образования
образы
образын
общеи
община
объект
объективті
объективтік
объектов
объекті
объектіге
объектілер
объектілерді
объектілердің
объектілері
объектілерін
объектілерінің
объектіні
объектінің
объектісі
объектісінің
обь
обьвасюган
обьвах
обьке
обюссон
ова
овернь
огаи
огпу
од
ода
одан
одағаи
одағы
одағын
одағына
одағында
одағының
одақ
одақтар
одақтас
одақтастар
одақтасы
одақтық
одақтың
одаққа
одесса
оз
озат
озаты
озды
озеф
озон
озып
озық
озған
ои
ок
ока
окато
океания
оклахома
округ
округке
округте
округтегі
округтер
округтерге
округтері
округтік
округтің
округы
округі
округінде
округіндегі
округіне
округінен
округінің
оксерр
оксидтер
оксиді
оксфорд
октвиль
октябрь
октября
оку
окулық
ол
олаи
олар
оларда
олардан
олардағы
оларды
олардын
олардың
олармен
оларға
олбани
олд
олег
олжа
олжабаи
олжас
оливеи
оливер
олимп
олимпиада
олимпиадада
олимпиадалық
олимпиаданың
олимпиадасында
олимпиадасының
олимпиадаға
олимпиакос
олимпик
олимпия
олимпиялық
олорон
ольга
ом
оман
омар
омаров
омарханұлы
омарұлы
омбы
омбыда
омер
омыртқа
омыртқалы
омыртқалылар
омыртқасыз
омыртқасыздар
омь
он
она
онан
онвиль
онда
ондаи
ондаған
ондағы
ондық
онега
онегин
онжылдықта
онкология
онкүндігінде
онлаи
онна
оннан
ономастика
онсыз
онтарио
онша
оншақты
оны
онымен
онын
оныншы
оның
оп
опасыздық
опат
опера
опералық
операсы
операсының
оперативті
оперативтік
оператор
оператордың
операторлар
операторы
операция
операциялар
операцияларды
операциялардың
операциялары
операцияларын
операцияларының
операциялық
операцияны
операцияның
операциясы
операциясын
оппозиция
оппозициялық
оппозицияның
оптика
оптикалық
ор
ораз
ораза
ораи
орал
оралады
оралда
оралды
оралдың
оралу
оралуы
оралуға
оралып
оралған
оралғаннан
орама
орамал
орамжапырақ
орамжапырақтар
орамы
орап
орасан
орақ
орбита
орбиталық
орбитаға
орган
органдар
органдардың
органдары
органдарымен
органдарын
органдарына
органдарында
органдарының
органдарға
организм
организмге
организмде
организмдегі
организмдер
организмдерге
организмдердің
организмді
организмнің
организмінде
организміне
органик
органикалық
органның
органы
органының
орда
ордабасы
ордада
орданың
ордасы
ордасын
ордасына
ордасында
ордасының
ордаға
орден
ордендері
ордендерімен
ордендерінің
орденді
орденмен
ордені
орденімен
орденінің
орджоникидзе
ордовик
оре
орегон
оренбург
оренсе
оризонти
орион
орк
оркестр
оркестрге
оркестрдің
оркестрлік
оркестрі
оркестрінің
оркте
орктегі
орлов
орман
орманда
ормандар
ормандарда
ормандарды
ормандардың
ормандары
ормандарында
орманды
орманның
орманы
орн
орнады
орнаи
орналасады
орналасатын
орналаскан
орналасса
орналасты
орналастырады
орналастырды
орналастыру
орналастыруға
орналастырылады
орналастырылды
орналастырылған
орналастырып
орналасу
орналасуы
орналасуын
орналасуына
орналасып
орналасқан
орналасқандықтан
орнатады
орнатты
орнату
орнатуға
орнатылады
орнатылатын
орнатылды
орнатылып
орнатылған
орнатып
орнатқан
орнаған
орнағаннан
орны
орнын
орнына
орнынан
орнында
орнындағы
орнының
орнығып
орнықты
орныққан
орск
орт
орта
ортаазиялық
ортада
ортадан
ортадағы
орталау
орталығы
орталығымен
орталығын
орталығына
орталығынан
орталығында
орталығындағы
орталығының
орталық
орталықта
орталықтан
орталықтандырылған
орталықтар
орталықтары
орталықтарына
орталықтарында
орталықтарының
орталықтың
орталыққа
ортамен
ортан
ортаны
ортаның
ортасы
ортасын
ортасына
ортасынан
ортасында
ортасындағы
ортасының
орташа
ортаға
ортағасыр
ортағасырлық
ортақ
ортаңғы
орфографиялық
орхон
оры
орын
орынбаи
орынбасарлары
орынбасары
орынбор
орынборда
орынбордағы
орынборға
орында
орындады
орындаи
орындалады
орындалатын
орындалды
орындалмаи
орындалу
орындалуы
орындалуын
орындалуына
орындалып
орындалған
орындап
орындар
орындарда
орындарды
орындардың
орындары
орындарымен
орындарын
орындарына
орындарынан
орындарында
орындарындағы
орындарының
орындарға
орындау
орындауда
орындауды
орындаушы
орындаушылар
орындаушылары
орындаушылық
орындаушысы
орындауы
орындауында
орындауындағы
орындауға
орындаған
орындағы
орынды
орындық
орындықтар
орыннан
орынның
орынсыз
орыны
орынға
орыс
орыстар
орыстардың
орыстың
орысша
ос
осака
осакаров
осал
осетин
осетия
оскар
осло
осман
османлы
османлылар
основы
оспан
оспанов
остин
островскии
осы
осыдан
осылаи
осылар
осылардың
осымен
осынау
осында
осындаи
осындағы
осыны
осының
осыған
ось
осі
осіне
от
ота
отан
отандық
отаны
отанын
отанына
отанға
отар
отарлау
отарлық
отаршыл
отаршылдық
отары
отау
отбасы
отбасылар
отбасылық
отбасымен
отбасын
отбасына
отбасынан
отбасында
отбасындағы
отбасының
отбасысында
отечественнои
отряд
отрядтары
отряды
отрядына
отрядының
отставкаға
оттегі
оттегімен
оттегінің
оттек
оттекпен
оттекті
оттектің
отто
отты
оттың
оты
отыз
отын
отынды
отынның
отыр
отыра
отырады
отырар
отыратын
отырды
отырмыз
отырмын
отырса
отыру
отыруы
отыруға
отырып
отырысы
отырысында
отырықшы
отырықшылық
отырықшылыққа
отырған
отырғанда
отырғаны
отырғанын
отырғызады
отырғызу
отырғызылған
отырғызып
отқа
оуэн
оф
офицер
офицерлер
офицері
официальныи
офк
офф
охан
оханнес
очерк
очерки
очерктер
очерктері
ош
оша
ошағы
ошақ
ошақтары
ошақты
ою
оған
оғаш
оғыз
оғыздар
оғыздардың
оқ
оқжетпес
оқи
оқиды
оқитын
оқиға
оқиғадан
оқиғалар
оқиғаларды
оқиғалардың
оқиғалары
оқиғаларға
оқиғалы
оқиғаны
оқиғаның
оқиғасы
оқиғаға
оқо
оқтын
оқу
оқудан
оқуды
оқудың
оқулығы
оқулық
оқулықтар
оқушы
оқушылар
оқушыларды
оқушылардың
оқушылары
оқушыларына
оқушыларының
оқушыларға
оқушының
оқушысы
оқуы
оқуын
оқуға
оқшау
оқшауланған
оқшаулау
оқыды
оқылады
оқылатын
оқылған
оқымысты
оқып
оқырман
оқырмандар
оқырмандарға
оқырманға
оқытатын
оқыту
оқытуды
оқытудың
оқытушы
оқытушылар
оқытушылары
оқытушылық
оқытушысы
оқытуға
оқытылады
оқытып
оқыған
оң
оңаи
оңаша
оңды
оңт
оңтаи
оңтүст
оңтүстігі
оңтүстігін
оңтүстігінде
оңтүстігіндегі
оңтүстігіне
оңтүстігінен
оңтүстік
оңтүстікке
оңтүстікте
оңтүстіктегі
оңтүстіктен
оңшыл
оңға
п
па
пабло
павел
павия
павлов
павлович
павловск
павлодар
павлодарда
падова
пазарджик
паи
пак
палар
паларды
палардың
палары
паларымен
паларын
паларына
паларының
палата
палаталы
палатасы
палатасынан
палатасының
палау
палеоген
палеозои
палеолит
палермо
палестина
палмеи
палуан
палық
пальма
пальмасы
памир
пан
пана
панама
панфилов
паның
папа
папасы
папуа
пар
пара
парагваи
паразит
паразиттік
параиба
параллель
параметр
параметрлер
параметрлері
параметрлерін
парасат
парасатты
парафин
парақшасы
пари
париж
парижге
парижде
париждегі
париждің
парк
паркер
паркі
парламент
парламентке
парламенттік
парламенттің
парламенті
парламентіне
парламентінің
парма
парсонс
парсы
парсылар
партизан
партия
партиядан
партиялар
партияларды
партиялардың
партиялары
партиялық
партияны
партияның
партиясы
партиясын
партиясына
партиясынан
партиясының
партияға
парыз
парызы
пас
паскаль
пассивті
пасы
пасынан
пасының
пат
патент
патогенезі
патология
патологиялық
патриархалдық
патрик
патриоттық
патты
патша
патшаи
патшалар
патшалары
патшалығы
патшалығын
патшалығына
патшалығының
патшалық
патшаның
патшасы
патшасының
патшаға
паты
патында
патының
паулиста
паулу
пауль
пахтакор
паш
паша
пақ
паң
пе
пегас
пед
педагог
педагогика
педагогикалық
педагогтар
педагогтары
педагогты
педиатрия
педогогикалық
педро
педру
пеи
пекин
пен
пенальти
пенальтилер
пенде
пенза
пензен
пенс
пенсильвания
пеньяроль
пер
первомаи
первыи
перевод
переи
перзенті
периге
период
периодты
периодтық
периоды
перифериялық
пермь
пернамбуку
перне
пернетақта
перник
перовск
перовскии
перпендикуляр
персеи
перси
перу
перш
періште
періштелер
петер
петербург
петербургке
петербургте
петербургтегі
петр
петров
петрович
петроград
петрография
петропавл
печора
печорск
пеш
пи
пианист
пиауи
пинега
пиньял
пионер
пионері
пирамида
пиренеи
пирит
питер
пифагор
пияз
плазма
плазмалық
планета
планеталар
планеталардың
планеталық
планетаның
планетарлық
планк
пластикалық
пластинка
пластмасса
платина
платон
платонның
платформа
платформалар
платформалық
платформасы
платформасының
плевен
плеи
пловдив
пм
пневматикалық
пневмония
по
победа
повестер
повестері
повесть
повесі
повесін
под
подполковник
позиция
позициялық
позициясы
позициясын
пои
пол
поле
полеводству
полигоны
полиграфистері
полиграфия
полиграфиялық
полимер
полимерлер
полиметалл
полина
политехникалық
полицеи
полиция
полициясы
полк
полковнигі
полковник
полкі
полкінің
полтава
поль
польша
польшада
польшадағы
польшаның
польшаға
полюс
полюсті
поляк
поляктар
поляр
полярлық
померания
понте
понтуаз
поп
попов
популяция
порошенко
порт
портал
порталдар
порталегре
порталы
портрет
портреті
порттары
портты
порту
португал
португалия
португалиядағы
португалиялық
португалияның
порты
после
пособие
пост
посттан
посты
постына
постынан
постқа
потанин
потенциал
потенциалды
потенциалдық
потенциалы
поттер
почта
пошта
пошталық
поштасы
поэзия
поэзиялық
поэзияның
поэзиясы
поэзиясына
поэзиясында
поэзиясының
поэма
поэмалар
поэмалары
поэмасы
поэмасын
поэтика
поэтикалық
правда
право
православ
православие
православиелік
прага
праи
практика
практикада
практикалық
практикасы
председателі
президент
президента
президенти
президентке
президенттер
президенттері
президенттігіне
президенттік
президенттікке
президенттің
президенті
президентіне
президентінің
президиума
президиумы
президиумының
премиясы
премиясының
премьер
премьерасы
препарат
препараттар
препараттарды
пресервед
пресс
прету
при
приборлар
призма
приморье
принц
принцип
принциптер
принциптері
принциптерін
принципі
принципін
принципіне
присвоении
про
проблема
проблемалар
проблемаларды
проблемалары
проблемаларын
проблемалық
проблемасы
проблемы
провен
проверено
провинция
провинциялар
провинциялары
провинциялық
провинцияның
провинциясы
провинциясында
провинциясындағы
провинциясының
программа
программалар
программалау
программалық
программаны
программаның
программасы
прогресс
прогрессивті
прогресшіл
продюсер
продюсерлік
продюсері
проект
проза
прозалық
прокуратура
прокуратурасының
прокурор
прокурордың
прокуроры
прокурорының
пролетариат
прометеи
пропорционал
проректор
проректоры
просвещение
протеин
протерозои
протестант
протестанттар
протестанттық
протокол
протон
прототипі
проф
профессор
профессорлар
профессорлары
профессорлық
профессоры
профилактикалық
профиль
профилі
процеске
процесс
процессор
процесстер
процессі
процестер
процестерге
процестерді
процестердің
процестері
процестерін
процестеріне
процестерінің
процесті
процестің
процесі
процесін
процесінде
процесіне
процесінің
пруссия
прюм
пс
псв
психикалық
психолог
психология
психологияда
психологиялық
психологияның
психологиясы
псков
пт
птолемеи
публицист
публицистикалық
пугачев
пулемет
пульмонология
пункт
пункттері
пункті
пур
пути
путин
путиннің
путь
пушкин
пушкиннің
пуэрто
пфальц
пциг
пышақ
пышақпен
пышақтар
пышма
пьемонт
пьер
пьеса
пьесалар
пьесалары
пьесаларын
пьесасы
пьесасын
пюи
пікір
пікірге
пікірді
пікірдің
пікірлер
пікірлерді
пікірлері
пікірлерін
пікірсаи
пікірталас
пікірі
пікірін
пікіріне
пікірінше
піл
пінде
пір
піседі
пісетін
піскен
пісіп
пісіреді
пісіру
пісіруге
пісірілген
пісіріп
пішен
пішімі
пішін
пішінге
пішінде
пішіндер
пішіндері
пішіндес
пішінді
пішіні
пішінін
пішініне
пүаж
пұт
пұтқа
пәк
пәкістан
пәкістанның
пән
пәндер
пәндері
пәндерінің
пәндік
пәні
пәнінен
пәнінің
пәрменді
пәтер
пәтері
р
ра
рабат
рада
радиация
радиациялық
радии
радикалды
радио
радиоактивті
радиоактивтік
радиобаи
радиолокациялық
радиосы
радиосында
радиосының
радиотехника
радиотехникалық
радиусы
радлов
развитие
развития
разград
разряд
разрядты
разы
раи
рак
ракета
ракеталар
ракеталық
ракетаның
ракетка
ральф
рам
рамазан
рамдар
рамдары
рамхана
рамы
ран
рас
рассел
рассказы
растады
растаи
растау
расында
рат
раткер
раткерлер
раткерлері
раткерлерінің
раткері
ратты
ратқа
рауан
рауль
раунд
раундта
раундтың
раушан
раушангүлділер
рафаэль
рахат
рахимбекова
рахимов
рахман
рахмет
рахымжанов
рационал
рационалды
раш
рашид
рашиди
рағы
рақ
рақты
раң
рг
рге
рген
рд
рде
ре
реактивті
реактивтік
реакция
реакциялар
реакцияларды
реакциялардың
реакциялары
реакциялық
реакцияның
реакциясы
реакциясын
реакцияға
реал
реализм
реалистік
реаль
рев
революция
революциялық
революцияның
революциясы
революциясына
революциясынан
революциясының
революцияшыл
революцияға
регби
регионына
регионында
ред
редактор
редактордың
редакторлары
редакторы
редакторының
редакциеи
редакция
редакциялық
редакциясы
редакциясын
редакциясында
редакциясының
реджо
реестріндегі
реестрінің
реж
режим
режимде
режимі
режимін
режимінде
режиссе
режиссер
режиссердің
режиссерлер
режиссерлері
режиссерлік
режиссері
режімі
резерв
резервтік
резеңке
резиденциясы
резина
резонанс
реи
рек
рекорд
рекордтар
рекордтық
рекордын
рекреациялық
ректер
ректор
ректоры
ректің
рельеф
рем
рен
ренген
ренді
рене
ренеді
ренессанс
ренн
рентген
рентгендік
рену
ренуге
реншікті
реніп
реп
репертуарынан
репертуарында
репортаж
репрессия
рес
ресе
ресеи
ресми
респ
республик
республика
республикада
республикадағы
республикалар
республикалардың
республикалары
республикаларының
республикалық
республикамызда
республикамыздың
республиканың
республикасы
республикасымен
республикасын
республикасына
республикасында
республикасындағы
республикасының
республикаға
республики
ресурс
ресурстар
ресурстарды
ресурстардың
ресурстары
ресурстарын
ресурстарының
ресурстарға
ресурсы
рет
рете
ретеді
рететін
ретке
реткен
ретпен
ретсіз
ретте
реттегіш
реттеи
реттелген
реттеледі
реттелетін
реттен
реттеп
реттеу
реттеуге
реттеуді
реттеудің
реттеуші
ретті
реттік
рету
ретуге
реті
ретілген
ретімен
ретін
ретінде
ретіндегі
ретіп
реуік
референдум
рефери
рефлекс
рефлекстер
реформа
реформалар
реформаларды
реформалау
реформасы
рецензия
рецепторлар
рецессивті
рең
реңді
реңі
ри
риа
рибатежу
рибеи
ривер
рига
рид
риддер
риза
рика
рико
рим
римге
римде
римдегі
римдік
римдіктер
римнің
римскии
рио
риоха
рис
ритм
риу
рихард
ричард
рия
рияд
рк
ркфср
рл
рлер
рлері
рмк
рн
рнеше
рнқ
ро
роберт
роберто
робин
робот
роботтар
род
роджер
родригес
рождество
роза
рои
рок
роланд
роль
рольдері
ролі
ролін
рома
роман
романда
романдар
романдары
романдарын
романның
романтизм
романтикалық
романы
романын
романында
романының
романья
ромб
ромбылық
ромео
рон
роналду
рональд
рондония
росс
россии
россия
ростов
рот
рота
ротасы
роуз
рсджп
рсфср
рт
ртрк
ртұтас
ру
руан
руанда
рубин
рубль
руда
рудныи
рудольф
рудың
рузвельт
рулар
рулардың
рулары
руларының
рулық
румын
румыния
румынияның
руна
рус
русе
руслан
руссильон
русская
русскии
русско
русского
руссо
русь
рут
рух
рухани
руханият
рухты
рухтың
рухы
рухын
рухына
руш
руы
руынан
руының
руға
рф
ры
рыбинск
рылды
рылып
рылған
рынок
рысқалиева
рысқұлов
рыцарь
рығы
рығымен
рығын
рығына
рығының
рық
рықтар
рықтары
рықты
рықтың
рықша
рэи
рэп
рэпер
рязань
рі
рік
рүстем
рұқсат
рәміздері
рәсім
рәсімдер
рәсімі
рәсімін
рәсімінде
рәсіміне
рөл
рөлге
рөлде
рөлдер
рөлдерде
рөлдерді
рөлдердің
рөлдері
рөлдерін
рөлді
рөлі
рөлімен
рөлін
рөлінде
рөліне
с
са
саадет
саар
саба
сабан
сабағы
сабағын
сабағында
сабағының
сабақ
сабақтар
сабақтары
сабақтарын
сабақтас
сабақты
сабақтың
сабаққа
сабы
сабын
сабыр
сабырлы
саванна
саверн
савои
садақ
садақа
саддам
садыр
садырова
садық
саз
сазан
сазгер
сазгерлер
сазгерлері
саздан
саздар
сазды
сазы
саи
саид
сакмара
саксония
сал
сала
салааралық
салада
саладағы
салады
салалар
салаларда
салалардың
салалары
салаларымен
салаларын
салаларына
салаларында
салаларындағы
салаларының
салаларға
салалы
салалық
саламанка
саланы
саланың
саласы
саласын
саласына
саласынан
саласында
саласындағы
саласының
салат
салатын
салауат
салауатты
салаға
салдар
салдары
салдарын
салдарынан
салды
салдырған
сален
салерно
салехард
салжұқ
салих
салиха
салм
салма
салмаи
салмағы
салмағын
салмағына
салмағының
салмақ
салмақта
салмақтағы
салмақты
салса
салт
салтанат
салтанатты
салтанаты
салты
салтын
салтына
салу
салуда
салуды
салудың
салумен
салушы
салушылардың
салуы
салуға
салым
салына
салынады
салынатын
салынды
салыну
салынуы
салынуына
салынып
салынған
салып
салысты
салыстыра
салыстырмалы
салыстыру
салыстыруға
салыстырып
салыстырғанда
салыстырғандағы
салысымен
салығы
салығын
салық
салықтар
салықтарды
салықтардың
салықты
салықтық
салықтың
сальвадор
салған
салғанда
салқын
салқындату
сам
самаи
самал
самар
самара
самарқан
самарқанд
самбо
самур
самураи
самырсын
самұрық
сан
сана
санада
санады
санаи
саналады
саналатын
саналды
саналмаи
саналы
саналып
саналған
сананы
сананың
санап
санасы
санасын
санасына
санасында
санат
санатории
санаттар
санаттары
санаттағы
санатты
санаты
санатына
санатында
санатқа
санау
санаулы
санауға
санаға
санаған
санағы
санағының
санақ
санда
сандар
сандарды
сандардың
сандары
сандарының
санды
сандық
сандықтау
санжар
санитариялық
санитарлық
санкт
санның
санскрит
сансыз
сант
санта
сантарен
сантиметр
сантиметрге
санто
сантос
санту
сантьяго
саны
санымен
санын
санына
санынан
санында
санының
санға
сап
сапа
сапалы
сапалық
сапар
сапарда
сапармен
сапары
сапарында
сапарға
сапасы
сапасын
сапасына
сапасының
сапақ
сапты
сапына
сапында
сапындағы
сар
сара
сарагоса
сараи
сараланады
саралап
саралау
саран
сараптама
сараптамалық
сараптау
сарапшы
сарапшылар
сарапшысы
сарапқа
саратов
сараң
сарбаз
сарбаздар
сарбаздары
сардар
сардиния
сарла
сармат
сарт
сары
сарыарқа
сарыарқаның
сарыағаш
сарыбаи
сарыбұлақ
сарыкөл
сарымсақ
сарын
сарыны
сарысу
сарытау
сарышаян
сарышұнақ
сарыүи
сарыөзек
сарғаи
сарғалдақтар
сарғылт
сарғыш
сарқан
сарқырама
сарқырамасы
сасық
сатады
сататын
сатира
сатиралық
сатпаев
саттаров
сатты
саттық
сату
сатудан
сатурн
сатушы
сатуға
саты
сатыда
сатыдан
сатыдағы
сатылады
сатылары
сатылатын
сатылды
сатылы
сатылымға
сатылып
сатылған
сатып
сатысы
сатысына
сатысында
сатыға
сатқан
сау
сауал
сауалнама
сауат
сауатты
сауаттылық
сауатын
сауд
сауда
саудагер
саудагерлер
саудада
саудамен
сауданы
сауданың
саудасы
саудаға
саумалкөл
саундтрек
сауран
саусағы
саусақ
саусақпен
саусақтары
саусақты
саутгемптон
сауын
сауыр
сауыт
сауытты
сауыты
сауық
сауықтыру
сафа
саха
сахаба
сахабалар
сахалин
сахара
сахиб
сахих
сахна
сахнада
сахнадағы
сахналық
сахнасына
сахнасында
сахнаға
саябағы
саябағында
саябақ
саябақтар
саябақтың
саяды
саяжаи
саян
саясат
саясаткер
саясаткерлер
саясаткерлері
саясаткері
саясатта
саясаттану
саясаттанушы
саясаттағы
саясатты
саясаттың
саясаты
саясатын
саясатына
саясатында
саясатының
саясатқа
саяси
саят
саятшылық
саяхат
саяхатшы
саяхатшылар
саяхатшылары
саяхатшысы
саяхаты
саяқ
сағ
саған
сағасы
сағасына
сағасынан
сағасында
сағат
сағатта
сағаттан
сағаттар
сағаттық
сағаттың
сағаты
сағатына
сағатқа
сағақты
сағыз
сағындықов
сағыныш
сақ
сақа
сақал
сақина
сақиналар
сақиналы
сақинасы
сақтады
сақтаи
сақталады
сақталатын
сақталды
сақталмаған
сақталу
сақталуда
сақталуы
сақталуын
сақталуына
сақталып
сақталған
сақтандыру
сақтану
сақтап
сақтар
сақтардың
сақтау
сақтауда
сақтауды
сақтаудың
сақтаулы
сақтаушы
сақтауға
сақтаған
сақтық
саң
саңылау
саңылаулары
саңырау
саңырауқұлақ
саңырауқұлақтар
саңырауқұлақтардың
сб
сбол
сборник
свердлов
свердловск
светлана
свифт
свияга
се
сеара
себастьян
себебі
себебін
себебінен
себеді
себеп
себепкер
себептен
себептер
себептерге
себептерден
себептермен
себептері
себептерін
себептерінің
себепті
себепші
себет
себу
севастополь
севилья
сегіз
сегізінші
седан
сез
сезген
сезгіш
сезу
сезіледі
сезім
сезімге
сезімдер
сезімді
сезімдік
сезімнің
сезімтал
сезімталдығы
сезімі
сезімін
сезіміне
сезіне
сезінеді
сезіну
сезініп
сезіп
сеи
сек
секретары
секреция
секс
сексен
сексеуіл
сексуалды
сектор
секторы
секторының
секунд
секундта
секундына
секілді
секіру
секіріп
сел
селекция
селекциялық
селеу
село
селолық
селосы
селосында
селтик
семантикалық
сембаев
семе
семеи
семенов
семенович
семинар
семинарлар
семит
семсер
семіз
сен
сена
сенат
сенатов
сенатор
сенаттың
сенаты
сенатының
сенбаев
сенбаи
сенбеи
сенбі
сенген
сендер
сендерге
сендердің
сенді
сенегал
сенеді
сенемін
сенов
сенсорлық
сент
сентября
сену
сенушілердің
сені
сенім
сенімге
сенімдер
сенімдері
сенімді
сенімділігі
сенімділік
сеніммен
сенімнің
сенімсіз
сенімсіздік
сенімі
сенімін
сеніміне
сеніп
сенің
сенғалиев
септігін
септік
сер
серб
сербия
сербияның
сервер
сервис
сергеев
сергеевич
сергеи
сергек
сержант
сериал
сериалдың
сериалында
сериалындағы
серия
сериялы
сериялық
сериясы
сериясын
сериясына
сериясында
сериясындағы
сериясының
серке
серпімді
серпімділік
серпін
серпінді
серра
серрания
серт
сертан
сертификаттау
серхио
сері
серігі
серік
серікбаи
серіктері
серіктерінің
серіктес
серіктестері
серіктестігі
серіктестік
серіктесі
серіппе
сессиясы
сессиясында
сетубал
сеул
сеуіп
си
сигнал
сигналдар
сигналдарды
сигналды
сигналдың
сигналы
сиднеи
силва
силикат
силикаттар
силистра
силла
силур
сим
символ
символдар
символдық
символизм
символикалық
символы
симметрия
симметриялы
симон
симптомдары
симфония
симфониялық
син
сина
сингапур
сингл
синглдар
синглы
сингонияда
синдром
синдромы
синонимі
синтаксис
синтаксистік
синтез
синтездеу
синтезі
синтетикалық
синхронды
сипат
сипатта
сипаттады
сипаттаи
сипатталады
сипатталатын
сипатталды
сипатталған
сипаттама
сипаттамалар
сипаттамалары
сипаттамаларын
сипаттамасы
сипаттамасын
сипаттап
сипаттары
сипаттарын
сипаттау
сипаттауға
сипаттаған
сипаттағы
сипатты
сипаты
сипатымен
сипатын
сипатына
сипатында
сипатқа
сирегірек
сирек
сирия
сирияда
сириядағы
сириялық
сирияның
система
системы
сити
ситиге
сицилия
сиыр
сиырдың
сиыршы
сиыры
сия
сиякты
сияқты
сиқырлы
сиқыршы
ск
ска
скаи
скандинавия
ская
ске
скии
скиф
скифтер
ского
ское
скои
скотт
скрипка
скуратов
славян
славяндар
слесарь
сливен
слова
словак
словакия
словари
словарь
словения
см
смаи
смағұлов
смикалық
смирнов
смит
смоленск
смолян
сн
снаряд
снарядтар
со
соавт
собор
соборы
собрание
сов
совет
совета
советская
советскии
советских
советского
советскои
советтік
советі
советінің
современная
совхоз
сода
содан
созақ
созыла
созылады
созылатын
созылды
созылмалы
созылу
созылуы
созылып
созылыңқы
созылған
созып
сои
соим
сок
соколов
сократ
сократтың
сол
солаи
солар
соларды
солардың
соларға
солақаи
солдан
солдат
солисті
солисі
соло
соломон
солт
солтүстігі
солтүстігін
солтүстігінде
солтүстігіндегі
солтүстігіне
солтүстігінен
солтүстік
солтүстікке
солтүстікте
солтүстіктегі
солтүстіктен
солшыл
соль
солға
солғын
сом
сома
сомали
сомасы
сомасын
сомдады
сомдаи
сомдап
сомдаған
сомға
сон
сона
сонан
сонау
сонда
сондаи
сондағы
сондықтан
сонша
соншалық
соншалықты
соны
сонымен
соның
сопақ
сопақша
сопы
сопылық
сор
сораң
сория
сорос
сорпа
сорпаға
сорт
сортаң
сортаңды
сорттары
сорттарын
сорты
сору
соры
сорып
сорғы
сорғыш
сосна
составители
сосын
сосьва
сосьваға
сот
сотта
сотталған
соттар
соттардың
соттық
соттың
соты
сотында
сотының
сотқа
соус
софия
соц
социал
социализм
социалист
социалистического
социалисттік
социалистік
социология
социологиялық
соч
союз
союза
соя
соға
соғады
соған
соғатын
соғды
соғу
соғуы
соғылды
соғылып
соғылған
соғып
соғыс
соғыста
соғыстан
соғыстар
соғыстары
соғыстағы
соғысты
соғыстың
соғысы
соғысын
соғысына
соғысынан
соғысында
соғысындағы
соғысының
соғысып
соғысқа
соғысқан
соғұрлым
соқ
соқпаи
соқпалы
соқты
соқтырады
соқтырды
соқыр
соққан
соққы
соққылар
соққыны
соққысы
соң
соңды
соңы
соңына
соңынан
соңында
соңындағы
соңғы
соңғысы
спарта
спартак
спасск
спб
спектакль
спектакльдер
спектаклі
спектр
спектрлік
спектроскопия
спектрі
спенсер
спецификалық
спикер
спин
спираль
спиральді
спирт
спирті
список
спора
спорт
спортинг
спортпен
спорттық
спорттың
спортшы
спортшылар
спортшылары
спортшысы
спорты
спортынан
спортының
спортқа
справочник
спутник
спутниктік
среднеи
сс
сср
ссср
ст
ставрополь
стадион
стадионда
стадиондар
стадиондары
стадионның
стадионы
стадионында
стажер
стакан
сталин
сталинград
сталиндік
сталиннің
стамбул
стамбұл
стан
стандарт
стандарттар
стандарттары
стандарттарға
стандарттау
стандартты
стандарты
стандартқа
станислав
станиславскии
станок
станса
стансасы
стансасында
стансасының
станция
станциялар
станциялары
станцияның
станциясы
станциясына
станциясынан
станциясында
станциясының
стара
статикалық
статистика
статистикалар
статистикалық
статистикасы
статус
статусы
статусын
статьи
статья
стационарлы
стақан
ства
ство
стеи
степан
степанович
степногорск
стер
стерлинг
стерлитамак
стері
стефан
стив
стивен
стиль
стильде
стильдік
стилі
стилін
стилінде
стиліндегі
стиліне
стилінің
стихи
сток
стокгольм
стоматология
стоун
стр
страны
страсбур
стратегия
стратегиялық
стратегиясы
стратегиясын
стратиграфиялық
стрель
студент
студенттер
студенттерге
студенттерді
студенттердің
студенттері
студенттеріне
студенттік
студенті
студия
студиялық
студиясы
студиясын
студиясында
студиясының
стэнли
стэнфорд
стюарт
стюарттың
сті
стің
су
суаи
суан
суарес
суармалау
суармалы
суару
суаруға
суасты
субальпілік
субрегионының
субстанция
субтропикалық
субтропиктік
субъект
субъективті
субъективтік
субъектілер
субъектілердің
субъектілері
субъектілерінің
субъектінің
субъектісі
субэкваторлық
суворов
суда
судан
судағы
суды
судың
судья
судьясы
сужикова
суи
сукцинат
сул
сулак
суландыру
сулар
суларда
суларды
сулардың
сулары
суларымен
суларын
суларында
суларының
сулеи
сулы
сульфатты
сульфаты
суматра
сумен
сун
суонси
супер
суперкубогы
суперкубогының
суперкубок
сур
сура
сурет
суретке
суреткер
суретте
суреттеген
суреттеи
суреттелген
суреттеледі
суреттеме
суреттеп
суреттер
суреттерді
суреттердің
суреттері
суреттерін
суреттеу
суретті
суреттің
суретші
суретшілер
суретшілердің
суретшілері
суретшілерінің
суретшінің
суретшісі
суреті
суретін
сусыз
сусымалы
сусын
сусындар
сутегі
сутек
сутекті
сутектік
сутектің
сухона
сушаруашылығы
сушаруашылық
суы
суымен
суын
суына
суынан
суында
суының
суыр
суырып
суық
суыққа
суға
суғару
суғаруға
суқои
суқұюшы
сфера
сфералық
схема
схемасы
сценарии
сценарист
сш
сша
съезд
съезде
съездерінің
съезі
съезінде
съезіне
съезінің
сы
сыбаи
сыбызғы
сыбір
сыз
сызба
сызбасы
сызда
сыздық
сызу
сызылған
сызып
сызығы
сызығының
сызық
сызықпен
сызықтар
сызықтардың
сызықтары
сызықты
сызықтық
сызықтың
сыи
сыктывкар
сылва
сым
сымбатты
сымды
сымсыз
сын
сына
сынады
сынаи
сынама
сынап
сынау
сынауға
сынақ
сынақтан
сынақтар
сында
сындарлы
сындағы
сынды
сындырып
сыни
сыну
сыншы
сыншыл
сыншылар
сыншылардың
сыншылары
сыншысы
сыны
сыныбына
сынып
сыныпта
сыныптан
сыныптар
сыныпты
сыныптық
сыныпқа
сынық
сынықтары
сының
сынға
сынған
сыпаи
сыпатаи
сыпыра
сыпыртқы
сыр
сыра
сырата
сырдария
сырдарияның
сырдың
сырлы
сырмақ
сырнаи
сырт
сыртта
сырттаи
сырттан
сырты
сыртын
сыртына
сыртынан
сыртында
сыртындағы
сыртқа
сыртқы
сыры
сырым
сырымбет
сырын
сырға
сырғанау
сырқат
сысы
сысын
сысына
сысында
сысының
сығанақ
сығылу
сығылған
сықақ
сың
сыңар
сыңары
сьерра
сьюдад
сэи
сэм
сэр
сэс
сюжет
сюжеттік
сюжеті
сюр
ся
сі
сібір
сібірге
сібірде
сібірдегі
сібірдің
сіз
сізге
сіздер
сізді
сіздің
сік
сілекеи
сілемдері
сілемі
сілеті
сілеусін
сілкіну
сілкінісі
сілтеи
сілтеме
сілтемелер
сілтеу
сілттемелер
сілті
сілтілі
сілтілік
сім
сін
сінде
сіндер
сіндердің
сініп
сінің
сіргелі
сірке
сірне
сірә
сің
сіңген
сіңеді
сіңіп
сіңірген
сіңірді
сіңіре
сіңіреді
сіңіру
сіңіріп
сіңісіп
сқо
сүгір
сүзбе
сүзгі
сүзу
сүзіп
сүи
сүлеи
сүмбіле
сүннет
сүр
сүрген
сүргін
сүргінге
сүрді
сүре
сүреді
сүрелері
сүресі
сүретін
сүру
сүруге
сүруі
сүруін
сүруіне
сүріп
сүт
сүтке
сүттен
сүтті
сүттің
сүті
сүтін
сүтінен
сүтінің
сүтқоректі
сүтқоректілер
сүтқоректілердің
сүтқоректілері
сүю
сүңгуір
сұи
сұлбасы
сұлтан
сұлтандар
сұлтандардың
сұлтандары
сұлтанды
сұлтандығы
сұлтанның
сұлтанов
сұлтаны
сұлтанға
сұлу
сұлулығы
сұлулық
сұлы
сұлыбас
сұмдық
сұр
сұрады
сұраи
сұраныс
сұраныстың
сұранысқа
сұрап
сұрапыл
сұрау
сұраған
сұрағанда
сұрақ
сұрақтар
сұрақтарға
сұраққа
сұрыптау
сұрғылт
сұхбат
сұхбатында
сұңқар
сәби
сәбидің
сәбит
сәбіз
сәдуақасов
сәжде
сәи
сәкен
сәл
сәлем
сәлемі
сәлім
сән
сәнді
сәндік
сәт
сәтбаев
сәтбаевтың
сәтсіз
сәтсіздікке
сәтте
сәттен
сәтті
сәттілік
сәті
сәтінде
сәуле
сәулелену
сәулелер
сәулелерді
сәулелердің
сәулелері
сәулелерінің
сәулелі
сәулелік
сәуленің
сәулесі
сәулесін
сәулесінің
сәулет
сәулетті
сәулеттік
сәулетші
сәулетшілер
сәулетшілері
сәулетшісі
сәулеті
сәуір
сәуірде
сәуірдегі
сәуірден
сәуірдің
сәуірінде
сәуірінен
сөз
сөзбе
сөзбен
сөзге
сөзде
сөзден
сөздер
сөздерге
сөздерде
сөздерден
сөздерді
сөздердің
сөздермен
сөздері
сөздерімен
сөздерін
сөздерінде
сөздеріне
сөздерінен
сөздерінің
сөзді
сөздігі
сөздігін
сөздігінде
сөздігінің
сөздік
сөздікпен
сөздікте
сөздіктер
сөздіктің
сөздің
сөзжасам
сөзсіз
сөзі
сөзімен
сөзін
сөзінде
сөзіне
сөзінен
сөзінің
сөи
сөл
сөнген
сөндіру
т
та
таба
табады
табамыз
табан
табанды
табаны
табанына
табанының
табатын
табаға
табақ
табаққа
табиғат
табиғатпен
табиғатта
табиғаттан
табиғаттағы
табиғатты
табиғаттың
табиғаты
табиғатын
табиғатына
табиғатының
табиғатқа
табиғи
табиғиға
табу
табуда
табуды
табуы
табуға
табы
табылады
табылатын
табылды
табылмаи
табылуы
табылып
табылған
табын
табыну
табының
табынған
табыс
табыстар
табыстары
табыстарға
табысты
табыстың
табысы
табысының
табысқа
тавда
тагил
тагор
тадан
тады
таз
таза
тазалаи
тазалап
тазалау
тазалығы
тазалығын
тазалық
тазартады
тазарту
тазартуға
тазартылған
тазартып
тазы
таи
таиланд
таити
так
также
тактикалық
тал
талабы
талабын
талабына
талады
талаи
талама
талан
таланады
таланатын
таланбас
талант
талантты
таланты
талантын
таланып
талап
талапкер
талаптар
талаптарды
талаптардың
талаптары
талаптарын
талаптарына
талаптарға
талапты
талапқа
талас
таласты
талау
талдаи
талданатын
талдап
талдау
талдауды
талдаудың
талдауы
талдауға
талды
талдысаи
талдықорған
талиб
талпыныс
талшығы
талшық
талшықтар
талшықтары
талшықтарынан
талшықтарының
талшықты
талық
талғамаи
талғар
талғат
талқ
талқан
талқандады
талқандалды
талқандап
талқандау
талқылады
талқыланды
талқылау
талқылауы
талқылауға
талқыға
там
тама
тамамдаған
таман
тамара
тамаша
тамағы
тамақ
тамақтандыру
тамақтану
тамақты
тамақтың
тамаққа
тамбов
тамды
тамега
тамшы
тамыз
тамызда
тамыздан
тамыздағы
тамыздың
тамызына
тамызынан
тамызында
тамызға
тамыр
тамырдың
тамырлар
тамырлардың
тамырлары
тамырларын
тамырларының
тамырлы
тамыры
тамырын
тамырынан
тамырында
тамырының
тан
тана
танау
танзания
тани
таниды
танк
танкіге
тану
танудың
тануға
таныды
таныла
танылады
танылды
танылып
танылған
таным
танымал
танымалдылыққа
танымалы
танымдық
танымның
танып
таныс
танысады
танысты
таныстырады
таныстырды
таныстыру
таныстырылды
танысу
танысуға
танысып
танысқан
таныта
танытады
танытатын
танытты
таныту
танытып
танытқан
таныған
тап
таппаи
тапсырады
тапсырды
тапсырма
тапсырмалар
тапсырмаларды
тапсырмаларын
тапсырманы
тапсырмасы
тапсырмасымен
тапсырмасын
тапсыру
тапсырылады
тапсырылды
тапсырылған
тапсырып
тапсырыс
тапсырысы
тапсырған
тапты
таптық
таптың
тапшы
тапшылығы
тапшылығын
тапшылығына
тапшылық
тапқан
тапқыр
тар
тара
тарады
тараз
таразы
тараи
тарала
таралады
таралатын
таралды
таралу
таралуы
таралуын
таралуына
таралымы
таралып
таралған
тарамдалған
таран
тарантино
тарап
тараптар
тараптардың
тарапынан
таратады
тарататын
таратты
тарату
таратуды
таратудың
таратушы
таратуға
таратылады
таратылатын
таратылды
таратылып
таратылған
таратып
таратқан
таратқыш
тарау
тараудан
тарауы
тарауында
тараған
тарағаны
тарақ
тарақты
тарбағатаи
тарды
тарифтік
тарих
тарихи
тарихта
тарихтан
тарихтағы
тарихты
тарихтың
тарихшы
тарихшылар
тарихшылардың
тарихшылары
тарихшысы
тарихы
тарихымен
тарихын
тарихына
тарихынан
тарихында
тарихындағы
тарихының
тарихқа
тарлан
тарлықтаи
тармағы
тармағын
тармағына
тармағынан
тармағының
тармақ
тармақталған
тармақтан
тармақтар
тармақтары
тармақтарының
тармақты
тармаққа
тарта
тартады
тартатын
тартты
тарту
тартуды
тартуы
тартуға
тартылады
тартылатын
тартылды
тартылуы
тартылып
тартылыс
тартылған
тартымды
тартып
тартыс
тартқан
тартқыш
тару
таруға
тархан
тары
тарылады
тарылды
тарылуы
тарылып
тарылған
тарып
тарыс
тарғын
тас
тасбақа
тасиды
таситын
тасмола
таспа
таспен
тастады
тастаи
тасталады
тасталды
тасталған
тастамаи
тастан
тастап
тастар
тастардан
тастарды
тастардың
тастармен
тастары
тастарға
тастау
тастауға
тастаған
тастақты
тасты
тастың
тасу
тасушы
тасуға
тасы
тасымал
тасымалдаи
тасымалданатын
тасымалдау
тасымалдаушы
тасымалдауға
тасымалы
тасын
тасып
тасыған
тасқа
тасқала
тасқын
тасқыны
тат
татар
татарлар
татарлардың
татарлары
татарларының
татарстан
татреңтәрізділер
тату
татын
татьяна
тау
тауап
тауар
тауаралық
тауарды
тауардың
тауарих
тауарлар
тауарларды
тауарлардың
тауарлары
тауарларын
тауарларға
тауарлы
тауарлық
тауарға
тауда
таудан
таудағы
таудың
таужыныстар
таужыныстардың
таулар
тауларда
таулардың
таулары
тауларына
тауларынан
тауларында
тауларындағы
тауларының
таулы
таулық
таун
тауншип
таушаи
таушық
тауы
тауына
тауынан
тауында
тауындағы
тауының
тауып
тауыс
тауық
тауға
таш
ташкент
ташкентке
ташкентте
ташкенттегі
ташкенттің
таяз
таяу
таяқ
таяқша
таға
тағады
тағаи
тағала
тағаланың
тағам
тағамдар
тағамдарды
тағамдардың
тағамдары
тағамдарын
тағамдарға
тағамды
тағамдық
тағамның
тағамы
тағамға
тағатын
тағдыр
тағдыры
тағдырын
тағдырына
тағзым
тағы
тағыда
тағылады
тағылатын
тағылып
тағылған
тағына
тағып
тақ
тақия
тақпақ
тақта
тақтаи
тақталар
тақтан
тақтасы
тақтасының
тақтатас
тақты
тақуа
тақыр
тақырыбы
тақырыбын
тақырыбына
тақырыбында
тақырыбындағы
тақырып
тақырыпта
тақырыптар
тақырыптарды
тақырыптары
тақырыптарға
тақырыптағы
тақырыпты
тақырыптық
тақырыпқа
таққа
таққан
таң
таңба
таңбалар
таңбалары
таңбалы
таңбасы
таңда
таңдады
таңдаи
таңдалады
таңдалды
таңдалып
таңдалған
таңдамалы
таңдап
таңдау
таңдаулы
таңдауы
таңдауға
таңдаған
таңдағы
таңертең
таңы
таңғажаи
таңғы
таңқаларлық
таңқураи
тбаи
тбилиси
тв
тверь
творчестволық
те
театр
театрда
театрдың
театрлар
театрлары
театрларында
театрларының
театрлық
театры
театрын
театрына
театрында
театрының
театрға
тебеді
тебу
тег
тегене
тегеран
тегжеи
тегі
тегін
тегінде
тегіне
тегінің
тегіс
тегістелген
тегістеу
тед
тедке
теді
тежегіш
тежеи
тежелу
тежеу
тежу
тез
тезірек
теи
тек
теке
текелі
тексереді
тексеру
тексеруге
тексеруден
тексерілген
тексерілмеген
тексеріп
текст
текстологиялық
тектес
тектоникалық
текті
тектік
текше
тел
теле
телеарна
телеарналар
телеарнасы
телеарнасында
телеарнасының
телевидение
телевизия
телевизиялық
телевизиясы
телеграф
теледидар
теледидарда
теледидарлық
теледидары
тележурналист
тележүргізуші
телекоммуникация
телекоммуникациялық
телерадио
телесериал
телесериалдары
телесериалында
телескоп
телефон
телефоны
телехикая
телехикаясы
телехикаясында
телецкое
тель
тельман
телімі
теліміндегі
тем
темекі
темников
темп
темпель
температура
температурада
температуралы
температуралық
температураны
температураның
температурасы
температурасын
температурасына
температурасында
температурасының
температураға
темір
темірбек
темірге
темірден
темірді
темірдің
теміржол
теміржолы
темірлан
темірлі
теміртау
темірқазық
тен
тенант
тенанты
теннис
теннисшы
тентек
теодор
теология
теологиялық
теорема
теоремасы
теоретигі
теория
теориялар
теориялық
теорияны
теорияның
теориясы
теориясын
теориясына
теориясында
теориясының
тепе
тепкен
тепкіш
тепті
тер
терапия
тербелмелі
тербеліс
тербелістер
тербелісі
тергеу
тергеуші
тергеушісі
тереза
терезе
терезелер
терезесі
терек
теректі
терендігі
терең
тереңд
тереңде
тереңдеи
тереңдетіп
тереңдігі
тереңдігін
тереңдігіне
тереңдік
тереңдікке
тереңдікте
тереңкөл
тереңірек
тереңөзек
терме
термин
терминал
терминалы
терминдер
терминдерді
терминдердің
терминдері
терминдерінің
терминді
терминнің
терминология
терминологиялық
термині
терминін
терминінің
термиялық
термиңдерінің
термодинамика
термодинамикалық
термоядролық
терригендік
территориального
территория
территориялық
территориясы
территориясын
территориясында
территориясының
теру
теруэль
тері
теріге
теріде
теріден
терілі
терімен
теріні
терінің
теріп
теріс
терісаққан
теріске
теріскеи
теріскен
терісі
терісін
терісінен
терісінің
тест
тесті
тестілеу
тесігі
тесік
тесіктер
тесіктері
тесіп
тетігі
тетік
тетіктері
тетін
теуіп
теуір
тех
техас
техаста
техник
техника
техникада
техникалық
техникамен
техниканы
техниканың
техникасы
техникасын
техникасының
техникумы
техникумын
техникумында
техникумының
техногендік
технолог
технология
технологиялар
технологияларды
технологиялардың
технологиялары
технологияларын
технологиялық
технологияны
технологияның
технологиясы
технологиясын
технологиясының
технологы
тең
теңбіл
теңге
теңгеге
теңгелер
теңгені
теңгенің
теңдесі
теңдеу
теңдеудің
теңдеулер
теңдеулерді
теңдеулері
теңдеуі
теңдеуін
теңдігі
теңдігін
теңдік
теңдікті
теңестіру
теңеу
теңсіздік
теңіз
теңізге
теңізде
теңіздегі
теңізден
теңіздер
теңіздерде
теңіздердің
теңіздері
теңіздік
теңіздің
теңізі
теңізімен
теңізін
теңізінде
теңізіндегі
теңізіне
теңізінен
теңізінің
ти
тибет
тиген
тигізбеи
тигізген
тигізді
тигізеді
тигізетін
тигізіп
тиді
тиеді
тиек
тиесілі
тиетін
тиеу
тим
тимеи
тимирязев
тимор
тимур
тинг
тингі
тингінде
тип
типке
типологиялық
типтегі
типтері
типтес
типті
типтік
типі
типін
типіне
тирмизи
тироль
титан
титрлеу
титул
тиым
тиын
тиянақты
тиімді
тиімділігі
тиімділігін
тиімділік
тиімсіз
тиін
тиіп
тиіс
тиісті
тиісінше
ткен
ткені
ткіш
тматов
тматовтың
тмд
то
тобы
тобыл
тобылдан
тобылға
тобылғы
тобымен
тобын
тобына
тобынан
тобында
тобындағы
тобының
тобықты
того
тогы
тогын
тозаң
тозаңданады
тои
ток
токантинс
токио
токиода
токсикалық
токты
токтың
толассыз
толедо
толковыи
толмаи
толмаған
толстои
толтырады
толтыру
толтыруға
толтырылған
толтырып
толу
толуына
толы
толып
толысады
толығады
толығымен
толығырақ
толық
толықтаи
толықтыра
толықтырады
толықтырды
толықтыру
толықтырулар
толықтырылды
толықтырылып
толықтырылған
толықтырып
толыққанды
только
толған
толғанда
толғау
толғаулары
толғауы
толқын
толқындар
толқындарды
толқындардың
толқындары
толқындарының
толқынды
толқындық
толқынның
толқыны
толқынының
том
томас
томат
томаға
томдық
томе
томирис
томнан
томск
томы
томына
томында
томының
томь
томқазақ
тон
тонап
тонау
тони
тонна
тоннадан
тоннаға
топ
топан
топографиялық
топонимика
топономикалық
топпен
топта
топталып
топталған
топтама
топтамасы
топтамасын
топтан
топтанып
топтар
топтарды
топтардың
топтармен
топтары
топтарын
топтарына
топтарының
топтарға
топтастыру
топтастырылған
топтасып
топтасқан
топтағы
топты
топтық
топтың
топырағы
топырағында
топырағының
топырақ
топырақпен
топырақта
топырақтан
топырақтану
топырақтар
топырақтағы
топырақты
топырақтың
топыраққа
топқа
тор
торабы
торабына
торабынан
торабының
тораи
торап
тораптары
тораңғы
тордың
тории
торлар
торлы
торонто
торпақ
торпедо
торре
торрес
торы
торға
торғаи
торғауытов
тоскана
тостаған
тостағанша
тостағаншасы
тосын
тосып
тосқауыл
тот
тоталитарлық
тоттенхэм
тотығу
тотығы
тотықсыздану
тотықтырғыш
тоғаи
тоған
тоғыз
тоғызыншы
тоғысбаев
тоғысқан
тоқ
тоқа
тоқаев
тоқаи
тоқиды
тоқсан
тоқтады
тоқтаи
тоқталады
тоқталып
тоқтамыс
тоқтап
тоқтата
тоқтатады
тоқтатты
тоқтату
тоқтатуға
тоқтатылады
тоқтатылды
тоқтатылған
тоқтатып
тоқтатқан
тоқтау
тоқтаусыз
тоқтаған
тоқты
тоқу
тоқылады
тоқылған
тоқыма
тоқымашылық
тоқып
тоқырау
тоң
тоңазытқыш
тпаи
тпаған
тпесе
тр
трагедия
трагедиялық
трагедиясы
траз
трактат
трактор
тракторшы
трамваи
трамп
трамптың
транзиттік
транскрипция
транспорт
транспорттық
транспорты
трансфер
трапеция
траян
тревизо
треи
трек
трентино
тренто
тресі
тресінде
тресінің
третьяков
три
триас
трик
тринидад
трои
троицк
трон
трондар
тропикалық
тропиктік
труда
труппасы
тс
тса
тсақ
тсе
тта
ттар
ттары
тте
ттер
тты
ттым
ттың
тті
ту
туа
туады
туатын
туберкулез
тува
туге
туда
туды
тудырады
тудыратын
тудырды
тудырмаи
тудыру
тудыруы
тудырып
тудырған
тудың
туді
туи
тула
тулуза
тулы
туль
тума
тумасы
тумен
тунгус
тундра
тунис
тур
тура
туралы
туралған
турап
турасында
турбина
тургау
турда
туризм
туризмнің
туризмі
турин
туристер
туристік
турнир
турнирге
турнирде
турнирден
турнирдің
турнирларда
турнирлер
турнирлерде
турнирлердің
турнирлері
турнирі
турнирінде
турниріне
турнирінің
турскии
туры
турында
туса
туу
тууы
тууына
туы
туылды
туылып
туылған
туын
туына
туындады
туындаи
туындап
туындауы
туындаған
туынды
туындылар
туындыларды
туындылары
туындыларын
туындыларында
туындыларының
туындының
туындысы
туынша
туып
туыс
туыстар
туыстары
туыстарына
туыстарының
туыстас
туыстық
туыстың
туысы
туысына
туысының
туысқа
туысқан
туғ
туға
туған
туғанда
туғандар
туғаннан
туғанына
туғызады
туғызатын
туғызды
туғызу
туғызып
туғызған
ты
тыва
тыи
тыл
тыла
тылады
тылатын
тылды
тылмаи
тылсым
тылу
тылуы
тылып
тылған
тылғандаи
тым
тымды
тымсыз
тын
тында
тындаи
тындар
тындағы
тындығы
тындығын
тындықтан
тыны
тынымсыз
тынын
тынына
тыныс
тынысы
тыныш
тынышбаев
тыныштық
тынық
тының
тып
тыпты
тырговище
тырна
тырнақ
тырнақтары
тырново
тырысады
тырысатын
тырысты
тырысу
тырысып
тырысқан
тыс
тыскер
тыста
тыстары
тыстың
тысы
тысында
тысының
тысқа
тысқары
тышқан
тығыз
тығызд
тығыздығы
тығыздығының
тығыздық
тығылып
тығып
тық
тықыр
тың
тыңаи
тыңдаи
тыңдап
тыңдау
тыңдаушы
тыңдаушысы
тыңға
тьи
тьюринг
тюбинген
тюль
тюмень
тюрингия
тянь
ті
тігеді
тігу
тігілген
тігіледі
тігілетін
тігін
тігінен
тігіп
тігіс
тізбегі
тізбегін
тізбегінің
тізбек
тізбектегі
тізбектері
тізбекті
тізбектің
тізбесі
тізгінін
тізе
тізіліміндегі
тізілімінің
тізім
тізімге
тізімде
тізімдер
тізімдері
тізімі
тізімін
тізімінде
тізіміне
тік
тікбұрышты
тіке
тікелеи
тікенді
тікенекті
тіккен
тіктеу
тікұшақ
тіл
тілге
тілген
тілде
тілдегі
тілден
тілдер
тілдерге
тілдерде
тілдердегі
тілдерден
тілдерді
тілдердің
тілдері
тілдерін
тілдерінде
тілдеріндегі
тілдеріне
тілдерінен
тілдерінің
тілдес
тілді
тілдік
тілдің
тілегі
тіледі
тілеи
тілек
тілендиев
тілеп
тілеу
тілешев
тілмен
тілуі
тілші
тілшісі
тілі
тілімделген
тілімденген
тілімен
тілімізде
тіліміздегі
тілін
тілінде
тіліндегі
тіліне
тілінен
тілінің
тіліп
тін
тінде
тіндеи
тіндер
тіндердің
тінді
тіндігі
тіндіктен
тіндісі
тіні
тінін
тінің
тіп
тіптен
тіпті
тірегі
тіреді
тірек
тіреледі
тіреп
тіреу
тіркеи
тіркелген
тіркелді
тіркеледі
тіркелу
тіркес
тіркестер
тіркестері
тіркесі
тіркесіп
тіркеу
тіркеуге
тіркеуден
тірлік
тіршілігі
тіршілігін
тіршілігіне
тіршілігінің
тіршілік
тіршілікке
тіршілікті
тіршіліктің
тірі
тірідеи
тірісінде
тіс
тістер
тістері
тісті
тістің
тісі
тің
тқа
тқан
тқанда
тқандаи
тқаны
тқанын
тқыш
тқыштар
түбегеи
түбегі
түбегін
түбегінде
түбегіндегі
түбегіне
түбегінің
түбек
түбектері
түбектің
түбі
түбін
түбінде
түбіндегі
түбіне
түбінен
түбінің
түбір
түбірі
түгел
түгелдеи
түгелімен
түгі
түз
түзе
түзеді
түзеи
түзеп
түзету
түзетуге
түзетулер
түзетін
түзеу
түзу
түзуге
түзудің
түзуші
түзілген
түзіледі
түзілетін
түзілу
түзілуі
түзілуін
түзілуіне
түзілімдер
түзіліп
түзіп
түи
түк
түкпір
түктер
түктері
түкті
түлегі
түлеи
түлектер
түлектері
түлкі
түлкібас
түлік
түлікпен
түліктің
түмен
түн
түнгі
түнде
түндік
түннің
түні
түп
түпкі
түпкілікті
түпнұсқа
түпнұсқасы
түпнұсқасындағы
түпқараған
түр
түратын
түрақты
түрге
түрген
түргеш
түрде
түрдегі
түрден
түрді
түрдің
түрк
түркия
түркияда
түркиядағы
түркияның
түркияға
түрксіб
түркі
түркілер
түркілердің
түркілік
түркімен
түркіменстан
түркістан
түркістанда
түркістандағы
түркістанды
түркістанның
түркістанға
түрл
түрлендіру
түрлер
түрлерге
түрлерді
түрлердің
түрлері
түрлерімен
түрлерін
түрлерінде
түрлеріне
түрлерінен
түрлерінің
түрлі
түрліше
түрме
түрмеге
түрмеде
түрмеден
түрмесіне
түрткі
түрі
түрік
түрікмен
түрікмендер
түрікменстан
түрікменстанның
түріктер
түріктердің
түріктері
түрікше
түрімен
түрін
түрінде
түріндегі
түріне
түрінен
түрінің
түрған
түс
түсе
түседі
түсетін
түске
түскен
түскенде
түскеннен
түскі
түспеген
түспеи
түспен
түссе
түссіз
түст
түсте
түстен
түстер
түстері
түстес
түсті
түстік
түстің
түсу
түсуге
түсуде
түсуді
түсуі
түсуін
түсуіне
түсі
түсік
түсім
түсімі
түсін
түсінбеи
түсінген
түсінді
түсіндірген
түсіндірді
түсіндіре
түсіндіреді
түсіндіретін
түсіндірме
түсіндірмелі
түсіндіру
түсіндіруге
түсіндіріледі
түсіндіріп
түсіне
түсінеді
түсінетін
түсіну
түсінуге
түсінігі
түсінігін
түсінік
түсініксіз
түсініктеме
түсініктемелер
түсініктер
түсініктері
түсінікті
түсініп
түсінің
түсіп
түсірген
түсірді
түсіре
түсіреді
түсіретін
түсіру
түсіруге
түсірілген
түсірілді
түсіріледі
түсірілім
түсірілімі
түсіріліп
түсіріп
түтігі
түтік
түтікті
түтікше
түтін
тұжырым
тұжырымдады
тұжырымдаи
тұжырымдама
тұжырымдамасы
тұжырымдамасын
тұжырымдар
тұжырымдары
тұжырымды
тұжырымы
тұжырымға
тұз
тұздалған
тұздар
тұздардың
тұздары
тұздарының
тұздау
тұзды
тұздылығы
тұздық
тұздың
тұзы
тұзын
тұи
тұлпар
тұлға
тұлғалар
тұлғаларды
тұлғалардың
тұлғалары
тұлғаларға
тұлғалы
тұлғалық
тұлғаны
тұлғаның
тұлғасы
тұлғасын
тұлғасына
тұлғасының
тұлғаға
тұман
тұмандық
тұмар
тұмау
тұмсығы
тұмсығының
тұмсық
тұмсықты
тұнба
тұндыру
тұр
тұра
тұрады
тұран
тұрар
тұрарлық
тұратын
тұрағы
тұрақ
тұрақсыз
тұрақсыздық
тұрақтандыру
тұрақтап
тұрақтары
тұрақты
тұрақтылығы
тұрақтылығын
тұрақтылық
тұрақтылықты
тұрақтысы
тұрды
тұрмаи
тұрман
тұрмыс
тұрмыста
тұрмыстық
тұрмысы
тұрмысын
тұрмысқа
тұрпаи
тұрса
тұрсын
тұрсынов
тұрсынұлы
тұру
тұруы
тұруына
тұруға
тұрып
тұрған
тұрғанда
тұрғандаи
тұрғаны
тұрғанын
тұрғыда
тұрғыдан
тұрғызды
тұрғызу
тұрғызылды
тұрғызылған
тұрғызып
тұрғызған
тұрғылықты
тұрғын
тұрғындар
тұрғындарды
тұрғындардың
тұрғындары
тұрғындарын
тұрғындарына
тұрғындарының
тұрғындарға
тұрғынның
тұрғыны
тұрғысынан
тұрқы
тұс
тұсау
тұсаукесері
тұспа
тұста
тұстары
тұстағы
тұсы
тұсына
тұсынан
тұсында
тұсындағы
тұт
тұтады
тұтас
тұтастаи
тұтастығы
тұтастығын
тұтастық
тұтасып
тұтты
тұту
тұтынатын
тұтыну
тұтынушы
тұтынушылар
тұтынушылардың
тұтынушыларға
тұтынушыға
тұтып
тұтқан
тұтқиылдан
тұтқын
тұтқында
тұтқындалды
тұтқындалып
тұтқындар
тұтқындарды
тұтқыннан
тұтқынға
тұтқыр
тұтқырлығы
тұщы
тұщықұдық
тұяғы
тұяқ
тұяқты
тұғыр
тұғыры
тұғырыл
тұқым
тұқымдары
тұқымдарын
тұқымдарының
тұқымдас
тұқымдастар
тұқымдастары
тұқымдасы
тұқымдасына
тұқымдасының
тұқымдасқа
тұқымды
тұқымдық
тұқымның
тұқымы
тұқымын
тұқымына
тұқымынан
тұқымының
тұңғыш
тәж
тәжі
тәжібаев
тәжік
тәжікстан
тәжікстанның
тәжіктер
тәжірибе
тәжірибеге
тәжірибеде
тәжірибеден
тәжірибелер
тәжірибелері
тәжірибелі
тәжірибелік
тәжірибені
тәжірибенің
тәжірибесі
тәжірибесін
тәжірибесінде
тәжірибесіне
тәжірибесінің
тәи
тәлім
тәмамдады
тәмамдаи
тәмамдаған
тән
тәнті
тәрбие
тәрбиелеген
тәрбиелеи
тәрбиеленген
тәрбиелеп
тәрбиелеу
тәрбиелеуге
тәрбиелік
тәрбиенің
тәрбиесі
тәрбиесіне
тәрбиеші
тәркілеу
тәрт
тәртібі
тәртібімен
тәртібін
тәртібінде
тәртібіне
тәртібінің
тәртіп
тәртіпке
тәртіппен
тәртіпте
тәртіпті
тәртіптік
тәртіптің
тәріздес
тәрізді
тәрізділер
тәсіл
тәсілдер
тәсілдерді
тәсілдермен
тәсілдері
тәсілдерін
тәсілдеріне
тәсілдерінің
тәсілді
тәсілмен
тәсілі
тәсілімен
тәсілін
тәсіліне
тәсілінің
тәтті
тәттімбет
тәу
тәуекел
тәуелді
тәуелділігі
тәуелділігін
тәуелділік
тәуелс
тәуелсіз
тәуелсіздігі
тәуелсіздігін
тәуелсіздігіне
тәуелсіздігінің
тәуелсіздік
тәуелсіздікке
тәуелсіздіктің
тәуке
тәулігіне
тәулік
тәулікке
тәуліктік
тәуір
тәшенов
тәңір
тәңірберген
тәңірі
төбе
төбеге
төбелер
төбелері
төбелі
төбенің
төбесі
төбесін
төбесінде
төбесіне
төбесінен
төбет
төбешік
төгілген
төгіп
төзімді
төзімділігі
төзімділігін
төзімділік
төл
төле
төлебаев
төлеген
төледі
төлеи
төлем
төлемдер
төлемдерді
төленген
төленеді
төленетін
төлеп
төлеу
төлеубаев
төлеуге
төлеуден
төм
төмен
төменге
төменгі
төменде
төмендеген
төмендегі
төмендегідеи
төмендеді
төмендеи
төмендеп
төмендетеді
төмендету
төмендетуге
төмендетіп
төмендеу
төмендеуі
төмендеуіне
төменнен
төменірек
төнген
төніп
төраи
төралқасы
төралқасының
төраға
төрағалары
төрағалық
төрағасы
төрағасының
төре
төрелер
төрелік
төреші
төрешілер
төрешісі
төркіні
төркінін
төрт
төртбұрыш
төртбұрышты
төртеуі
төрттен
төрттік
төртінші
төс
төсбелгісі
төсек
төселген
төсеніш
төте
төтенше
төтеп
төңкеріс
төңкеріске
төңкерісі
төңкерісіне
төңкерісінен
төңірегі
төңірегінде
төңірегіндегі
төңірегіне
у
уа
уаз
уаи
уан
уанаттар
уахи
уағыз
уағыздаи
уақ
уақтылы
уақыт
уақытта
уақыттан
уақыттарда
уақыттағы
уақытты
уақыттық
уақыттың
уақытша
уақыты
уақытылы
уақытымен
уақытын
уақытына
уақытынан
уақытында
уақытының
уақытқа
уве
уганда
уголь
угор
угра
удине
удмуртия
уезд
уездері
уездік
уезер
уезі
уезінде
уезіндегі
уезіне
уезінің
уефа
уж
уи
уики
уикипедия
уикипедияда
уикипедиядағы
уикипедияны
уикипедияның
уикипедияға
уилл
уилсон
уильям
уильямс
уимблдон
ук
указ
украин
украина
украинада
украинадан
украинадағы
украиналық
украинаның
украинаға
украиндар
украиндық
ул
улану
уланудың
уланған
улағыш
улы
ульрих
ультракүлгін
ультранегізді
ульянов
умбрия
умра
умәи
ун
унжа
универсиада
университет
университета
университетке
университетте
университеттер
университеттердің
университеттері
университеттерінде
университеттерінің
университетті
университеттік
университеттің
университеті
университетін
университетінде
университетіндегі
университетіне
университетінің
унитарлы
уолтер
уондерерс
уоррен
упа
управления
урал
уран
уранның
уругваи
уса
усаға
успен
усть
уфа
уч
учаске
учаскелік
учаскесі
учаскесінің
училище
училищеде
училищені
училищесі
училищесін
училищесінде
училищесіне
училищесінің
уш
уы
уыз
уылдырығын
уылдырық
уытты
уэи
уэльва
уэльс
уі
уә
уәде
уәжіп
уәзір
уәкілетті
уәлаяты
уәлаятының
уәли
уәлиханов
уәлихановтың
ф
фа
фабрика
фабрикасы
фабрикасының
фаза
фазалы
фазалық
фазаның
фазасы
фаи
факт
фактор
факторлар
факторларды
факторлардың
факторлары
факторларының
факторларға
факторы
фактілер
фактілерді
факультет
факультетте
факультеттер
факультеттері
факультеттің
факультеті
факультетін
факультетінде
факультетіне
факультетінің
фан
фантастика
фантастикалық
фараби
фарабидің
фарадеи
фарер
фарм
фармацевтика
фармацевтикалық
фарс
фару
фарфор
фатима
фауна
фаунасы
фашист
фашистік
фе
февраля
федералды
федералдық
федеративті
федеративтік
федерации
федерация
федерациясы
федерациясының
федор
федоров
федорович
феи
феликс
фель
фельдшер
фельдшерлік
фенербахче
феникс
феодал
феодалдар
феодалдардың
феодалдық
фердинанд
ферма
фермент
ферменттер
ферменттердің
фермер
фернандес
фернандо
ферреи
ферғана
фестиваль
фестивалі
фестивалінде
фестиваліне
фестивалінің
фи
фигуралар
фиджи
физ
физигі
физик
физика
физикада
физикалық
физиканың
физикасы
физико
физиктер
физиктері
физиология
физиологиялық
физиологиясы
физическои
филармония
филармониясы
филармониясының
филиал
филиалдары
филиалы
филиалының
филип
филипп
филиппин
филиппиндер
филол
филолог
филология
филологиясы
филологтары
филос
философ
философия
философияда
философиялық
философияны
философияның
философиясы
философиясын
философиясында
философиясының
философияға
философтар
философтары
философы
фильм
фильмге
фильмде
фильмдегі
фильмдер
фильмдерге
фильмдерде
фильмдерді
фильмдердің
фильмдері
фильмдерінде
фильмдерінің
фильмді
фильмнің
фильмография
фильмографиясы
фильмі
фильмін
фильмінде
фильміндегі
фильміне
фильмінің
фин
финал
финалда
финалдары
финалдық
финалист
финалисты
финалисті
финалисі
финалы
финалына
финалында
финалға
финистер
финляндия
финляндияның
финн
фиорентина
фирма
фирмалар
фирмалардың
фирманың
фирмасы
фирмасының
фифа
фишер
фиқһ
фк
фламенго
флеи
флои
флора
флорасы
флоренция
флорида
флот
флоты
флотының
флур
фолиант
фольклор
фольклорлық
фольклоры
фольклорының
фон
фонда
фонетика
фонетикалық
форд
форма
формада
формалар
формалары
формаларын
формаларының
формалды
формалы
формальды
формасы
формасын
формасына
формасында
формасының
формат
форматы
формаға
формула
формуласы
форт
фортепиано
форум
форумы
фосфат
фосфор
фосфорит
фосфорлы
фото
фотосинтез
фотосурет
фотосуреттер
фр
фразеологиялық
фраи
франк
франклин
франко
франкония
франкфурт
франс
франсиско
франсуа
франц
франциск
франциско
франция
францияда
франциядан
франциядағы
франциялық
франциямен
францияның
францияға
француз
француздар
француздардың
француздық
французша
франчаи
франческо
фрегезия
фред
фредерик
фреи
фридрих
фристаи
фриули
фриц
фрунзе
фрэнк
фрэнсис
фтор
фужер
фуллин
фуллиннің
функционалды
функционалдық
функция
функциялар
функцияларды
функциялардың
функциялары
функцияларын
функциялық
функцияны
функцияның
функциясы
функциясын
функциясының
фунт
фурманов
фут
футбол
футболдан
футболмен
футболшы
футболшылар
футболшылардың
футболшылары
футболшылық
футболшының
футболшысы
футболы
футболының
х
ха
хабар
хабардар
хабарды
хабардың
хабарлады
хабарлаи
хабарлама
хабарламалар
хабарландыру
хабарлар
хабарларды
хабарлары
хабарларын
хабарлау
хабарлауынша
хабарсыз
хабаршы
хабаршысы
хабары
хабарын
хаббл
хадис
хадисте
хадистер
хадиша
хазар
хазірет
хазіреті
хаи
хакас
хакасия
хаким
хакім
хал
халел
халиф
халифа
халифат
халифаты
халифатының
халық
халықар
халықаралық
халықпен
халықтан
халықтар
халықтарда
халықтарды
халықтардың
халықтармен
халықтары
халықтарын
халықтарына
халықтарында
халықтарының
халықтарға
халықты
халықтық
халықтың
халыққа
халқы
халқымен
халқымыз
халқымыздың
халқын
халқына
халқында
халқының
хамза
хамит
хаммарше
хан
хана
ханафи
хандар
хандардың
хандары
хандарының
ханды
хандығы
хандығымен
хандығын
хандығына
хандығының
хандық
ханзада
ханзадасы
ханифа
ханмен
ханнан
ханның
ханов
ханс
ханты
ханшаи
ханы
ханым
ханымы
ханының
хань
ханға
хара
харам
харрис
харьков
хасан
хасен
хасково
хат
хатта
хаттама
хаттар
хаттары
хатты
хатшы
хатшылары
хатшының
хатшысы
хатшысының
хаты
хатымен
хатын
хатында
хатқа
хафиз
хақ
хақында
хдп
хе
хеи
хельмут
хельсинки
хемингуэи
херберт
херман
херона
херсон
хет
хи
хикая
хикаясы
хикаят
хикмет
хилл
хим
химигі
химик
химиктері
химия
химиядан
химиялық
химияның
химиясы
хинди
хип
хирург
хирургия
хирургиялық
хит
хиуа
хиуаға
хк
хкк
хлор
хлориді
хлорлы
хмельницкии
хо
хоббиі
хозяи
хои
хок
хоккеи
холдинг
холл
холмс
хоп
хопер
хоперге
хор
хорасан
хорват
хорватия
хорезм
хорезмшах
хореография
хореографиялық
хорст
хорхе
хосе
хотспур
хош
храм
храмдар
храмы
хрестоматия
христиан
христиандар
христиандық
хром
хроматография
хромосома
хромосомалар
хромосомалардың
хромосомалық
хромосоманың
хромтау
хронологиялық
хронологиясы
ху
хуан
хун
хуниорс
хунсрюк
хусеи
хх
ххі
хьюстон
хэи
хэм
хі
хіх
хіі
хііі
хұсаи
хәрри
ц
цаи
цар
цария
царияда
цариялық
царияның
цезарь
цеи
целиноград
целль
целлюлоза
цемент
центавр
центнерден
центр
центрі
цефеи
цех
цехы
цехында
цехының
цзы
цивиль
цикл
циклді
циклдік
циклы
циклі
циклінің
цилиндр
цилиндрлі
цилиндрлік
цильма
цин
цинь
цирк
цитология
цитоплазма
цитоплазмасында
цифрлық
цна
цои
црвена
цска
цюрих
ч
чад
чаи
чан
чапаев
чарли
чарльз
чартында
часть
че
чебоксар
чек
чел
человек
человека
челси
челябинск
челябі
чемпион
чемпионат
чемпионатта
чемпионаттар
чемпионаттары
чемпионаттарына
чемпионаттарында
чемпионаттарының
чемпионатты
чемпионаттың
чемпионаты
чемпионатын
чемпионатына
чемпионатынан
чемпионатында
чемпионатындағы
чемпионатының
чемпионатқа
чемпиондар
чемпиондары
чемпиондық
чемпионы
чен
чепца
черкасск
чернигов
черногория
чероки
черчилль
чех
чехия
чехов
чеховтың
чехословакия
чжан
чжи
чикаго
чили
чишмин
чкалов
чон
чосон
что
чуваш
чувашия
чулым
чулымнан
чулымға
чумыш
чусовая
ш
ша
шабақ
шабдалы
шаблон
шабу
шабуыл
шабуылдар
шабуылдаушы
шабуылды
шабуылшы
шабуылшысы
шабуылы
шабуылын
шабуылына
шабуылынан
шабуылға
шабындық
шабындыққа
шабыс
шабыт
шаи
шал
шала
шалаөткізгіш
шалбар
шалдығады
шалдыққан
шалон
шалу
шалудан
шалуды
шалуларды
шалып
шальке
шалғаи
шалғын
шалғындар
шалғынды
шалғындық
шалқар
шалқасынан
шам
шама
шамада
шамадан
шамалар
шамалардың
шамалас
шамалы
шамамен
шаманың
шамасы
шамасын
шамасына
шамасында
шамасындағы
шамасының
шамдар
шан
шана
шанағы
шанақ
шанин
шанхаи
шаншып
шань
шаньда
шаньның
шап
шапан
шапағат
шапшаң
шапырашты
шапқан
шапқыншылығы
шапқыншылығына
шапқыншылығынан
шапқыншылық
шар
шара
шаралар
шараларды
шаралардың
шаралары
шараларын
шараларына
шараларының
шараларға
шаран
шарап
шарасы
шараға
шарбақты
шарда
шардара
шардың
шариғат
шарлотта
шарль
шароль
шарт
шартсыз
шартта
шарттар
шарттарды
шарттардың
шарттары
шарттарын
шарттарына
шарттарының
шарттарға
шартты
шарттың
шарты
шартын
шартына
шартының
шартқа
шаруа
шаруалар
шаруаларды
шаруалардың
шаруалары
шаруаларының
шаруаларға
шаруасымен
шаруашылығы
шаруашылығымен
шаруашылығын
шаруашылығына
шаруашылығында
шаруашылығындағы
шаруашылығының
шаруашылық
шаруашылықта
шаруашылықтар
шаруашылықтардың
шаруашылықтары
шаруашылықтарының
шаруашылықты
шаруашылықтың
шаруашылыққа
шарушылығы
шаршы
шары
шарын
шарында
шарындағы
шарының
шарықтау
шасси
шат
шато
шаттық
шатыр
шатырша
шатыршагүлділер
шатыры
шатқал
шатқалы
шатқалында
шауып
шах
шахмат
шахта
шахте
шахтер
шахтинск
шаш
шашады
шашақ
шашақты
шашты
шашу
шашы
шашын
шашынның
шашып
шашыранды
шашырап
шашыраңқы
шаю
шаян
шаянтәрізділер
шаға
шағала
шаған
шағатаи
шағы
шағыл
шағылған
шағым
шағын
шағынауданында
шағында
шақ
шақпақ
шақта
шақты
шақшақ
шақырады
шақыратын
шақырды
шақырту
шақыру
шақыруымен
шақыруға
шақырылады
шақырылды
шақырылымының
шақырылып
шақырылған
шақырым
шақырымдаи
шақырымдық
шақырымға
шақырып
шақырған
шаққан
шаққанда
шаққандағы
шаң
шаңды
шаңырақ
шаңғы
шаңғысы
шаһ
шаһзада
швабия
шваи
швед
швеи
швеция
швецияда
швециядағы
швецияның
ше
шебер
шеберлер
шеберлері
шеберлерінің
шеберлігі
шеберлігін
шеберлігіне
шеберлік
шеберлікпен
шеберхана
шеберханасы
шеберханасында
шебері
шебі
шебін
шебінде
шебіне
шевченко
шеге
шегеді
шеген
шегу
шегі
шегін
шегінде
шегіндегі
шегінді
шегіне
шегінен
шегінуге
шегініп
шегіп
шежіре
шежіресі
шежіресінде
шеи
шек
шекара
шекарада
шекаралары
шекараларын
шекаралас
шекаралық
шекараны
шекарасы
шекарасын
шекарасына
шекарасынан
шекарасында
шекарасындағы
шекарасының
шеккен
шекпен
шексна
шекспир
шекспирдің
шексіз
шектеи
шектелген
шектелді
шектеледі
шектелмеи
шектеліп
шектен
шектес
шектеседі
шектесетін
шектесіп
шектеу
шектеуге
шектеулер
шектеулі
шектеусіз
шекті
шелек
шемонаиха
шеміршек
шеміршекті
шен
шенеуніктер
шені
шенінде
шеп
шепель
шер
шербур
шердино
шереметьево
шерлок
шеру
шерубаи
шет
шетел
шетелге
шетелде
шетелдегі
шетелдерде
шетелдік
шетен
шетке
шеткі
шетпе
шеттен
шеттері
шеттетілді
шеті
шетін
шетінде
шетіндегі
шетіне
шетінен
шеффилд
шеш
шеше
шешеді
шешек
шешен
шешендер
шешендері
шешендік
шешенстан
шешесі
шешетін
шешкен
шешті
шешу
шешуге
шешуде
шешуді
шешудің
шешуші
шешілді
шешіледі
шешім
шешімге
шешімдер
шешімдерді
шешімдері
шешімдерін
шешімді
шешімі
шешімімен
шешімін
шешіміне
шешіп
шеңбер
шеңбердің
шеңбері
шеңберінде
шеңберіндегі
шеңберінен
ши
шие
шиеленіскен
шиеленісті
шиелі
шииттер
шикі
шикізат
шикізаттар
шикізатты
шикізаттың
шикізаты
шикізатын
шина
шипажаи
шипалы
ширатылған
ширақ
ширегінде
ширек
широков
шк
шкала
шкаласы
школа
шлезвиг
шлеи
шлем
шлемның
шмидт
шои
шоколад
шолақ
шолпан
шолу
шомбал
шон
шонас
шопан
шор
шора
шорт
шортан
шортанбаи
шортанды
шот
шотланд
шотландия
шотландияда
шотландиядағы
шотландияның
шотландияға
шотландық
шоттар
шоу
шошқа
шоғыр
шоғырландыру
шоғырлану
шоғырлануы
шоғырланып
шоғырланған
шоғырлары
шоғыры
шоғырының
шоқ
шоқаи
шоқан
шоқжұлдыз
шоқжұлдыздар
шоқжұлдызы
шоқжұлдызында
шоқжұлдызындағы
шоқпар
шоқтығы
шоқы
шоқылар
шоқылардан
шоқылы
шоқысы
шоң
шри
штаб
штабы
штабының
штадт
штаи
штат
штаттан
штаттар
штаттардың
штаттары
штаттарында
штаттарының
штаттық
штаттың
штаты
штатында
штатындағы
штатының
штеи
штендаль
штефан
штирия
штутгарт
шу
шуақ
шудың
шульц
шумақ
шумақтан
шумақтың
шумен
шумер
шы
шыбын
шыдаи
шыдамаи
шыдамды
шыл
шылар
шылары
шылдар
шылдары
шылы
шылық
шылықтар
шылықтарды
шылықты
шым
шымкент
шымкентте
шымтезек
шымшық
шымыр
шын
шынаи
шындығы
шындығын
шындығында
шындық
шындықты
шындықтың
шындыққа
шынжыр
шыншыл
шыны
шыныдаи
шыныдан
шынымен
шынында
шынықтыру
шыраи
шырақ
шырмауық
шырша
шыршалы
шыршық
шырын
шырынды
шырыны
шырынын
шырыш
шырышты
шырқау
шысы
шытырман
шығ
шыға
шығады
шығаи
шығанағы
шығанағына
шығанағының
шығанақ
шығанақтары
шығар
шығара
шығарады
шығаратын
шығарды
шығарм
шығарма
шығармада
шығармаи
шығармалар
шығармаларда
шығармаларды
шығармалардың
шығармалары
шығармаларымен
шығармаларын
шығармаларына
шығармаларынан
шығармаларында
шығармаларындағы
шығармаларының
шығарманы
шығарманың
шығармасы
шығармасын
шығармасында
шығармасының
шығармашылығы
шығармашылығын
шығармашылығына
шығармашылығында
шығармашылығының
шығармашылық
шығармашылықпен
шығару
шығаруда
шығаруды
шығарудың
шығарумен
шығарушы
шығарушылар
шығаруы
шығаруға
шығарыла
шығарылады
шығарылатын
шығарылды
шығарылуы
шығарылым
шығарылымы
шығарылып
шығарылған
шығарып
шығарған
шығарғанда
шығатын
шығу
шығуды
шығуы
шығуын
шығуына
шығуға
шығымы
шығын
шығындар
шығындарды
шығындардың
шығындары
шығындарын
шығынды
шығынның
шығыны
шығынын
шығынға
шығып
шығыс
шығыста
шығыстан
шығыстану
шығыстанушы
шығыстағы
шығыстық
шығыстың
шығысы
шығысын
шығысына
шығысынан
шығысында
шығысындағы
шығысқа
шығыңқы
шық
шықпады
шықпаи
шықпаған
шықса
шықты
шыққан
шыққанда
шыққаннан
шыққанша
шыққаны
шыққанын
шыққанға
шың
шыңдары
шыңжаң
шыңжаңдағы
шыңы
шыңына
шыңғырлау
шыңғыс
шыңғыстау
шыңғысхан
шыңғысханның
ші
шідерті
шіл
шілде
шілдеде
шілдедегі
шілдеден
шілденің
шілдесінде
шілдесінен
шілер
шілері
шілік
шілікті
шіркеи
шіркеу
шіркеудің
шіркеулер
шіркеуі
шіркеуінде
шіркеуінің
шіріген
шқо
шүи
шүкір
шұбар
шұбартау
шұбат
шұбырынды
шұжық
шұраи
шұға
шұғыл
шұғыла
шұғылданады
шұғылданатын
шұғылданды
шұғылданып
шұғылданған
шұңқыр
шұңқырлар
шәи
шәкен
шәкірт
шәкірттері
шәкірттерінің
шәкірті
шәкәрім
шәмші
шәріпов
шәуілдір
шөбересі
шөбі
шөгінді
шөгінділер
шөгінділерден
шөгінділердің
шөгінділері
шөгінділерінде
шөгінділерінен
шөгінділерінің
шөл
шөлге
шөлдер
шөлді
шөлдің
шөлеи
шөлі
шөмекеи
шөп
шөппен
шөптер
шөптесін
шөптесіндер
шөпті
шөптің
щ
щучинск
ъ
ы
ыбы
ыбыраи
ыдыраи
ыдырап
ыдырау
ыдырауы
ыдырауына
ыдыраған
ыдырағаннан
ыдырыс
ыдыс
ыдыста
ыдыстар
ыдыстардың
ыдыстың
ыдысқа
ыз
ыза
ыздан
ызды
ыздық
ызы
ызын
ызға
ыл
ыла
ылады
ылатын
ылды
ылдық
ылма
ылмаи
ылмалы
ылмасы
ылмасында
ылов
ылу
ылуы
ылуына
ылым
ылымда
ылымдар
ылымдарда
ылымдарды
ылымдары
ылымдық
ылымы
ылымына
ылымында
ылымға
ылып
ылысу
ылысы
ылысына
ылысынан
ылық
ылғал
ылғалды
ылғалдылығы
ылғалдылығында
ылғалдылық
ылғалдың
ылғалы
ылған
ылғаннан
ылғи
ым
ымбек
ымдаи
ымдар
ымдарда
ымдардан
ымдарды
ымдардың
ымдармен
ымдары
ымдарын
ымдарына
ымдарында
ымдарының
ымдарға
ымдастырады
ымдастыратын
ымдастырды
ымдастыру
ымдастыруда
ымдастыруды
ымдастырудың
ымдастырушы
ымдастырушылар
ымдастырушылардың
ымдастырушылық
ымдастырушысы
ымдастыруымен
ымдастыруға
ымдастырылады
ымдастырылатын
ымдастырылды
ымдастырылуы
ымдастырылып
ымдастырылған
ымдастырып
ымдастырған
ымдасқан
ымдау
ымдауынша
ымды
ымдылығы
ымдылық
ымдық
ымен
ымның
ымша
ымы
ымын
ымына
ымының
ымырт
ымға
ын
ына
ынан
ында
ындады
ындаи
ындалады
ындалатын
ындалды
ындалу
ындалуы
ындалып
ындалған
ындамаи
ындап
ындар
ындарда
ындарды
ындардың
ындары
ындарын
ындарына
ындарында
ындарындағы
ындарының
ындарға
ындау
ындауда
ындауды
ындаудың
ындауы
ындауға
ындаған
ындағы
ынды
ындығы
ындық
ыннан
ынның
ынов
ынта
ынталандыру
ынталы
ынты
ынтымақ
ынтымақтастығы
ынтымақтастық
ынтымақтастықты
ынша
ыншы
ыншылар
ыншылардың
ыншылары
ыншыларының
ыншыны
ыншының
ыншысы
ыншыға
ыншық
ыншықтар
ыны
ынын
ынына
ынында
ынының
ының
ынға
ынғы
ынқұм
ып
ыппен
ыппұл
ыптады
ыптаи
ыптап
ыптау
ыпты
ыптылар
ыптылардың
ыр
ыра
ырады
ыратын
ырбас
ырбастау
ырбеков
ырды
ырдың
ырлар
ырлы
ырма
ырмасы
ырмашылығы
ырмашылығын
ырмашылық
ырмашылықтар
ырмашылықтары
ырниса
ыртау
ыру
ыруға
ыры
ырылады
ырылды
ырылып
ырылған
ырым
ырымды
ырымдылық
ырымы
ырып
ырыс
ырысу
ырықша
ырғаи
ырған
ырғағы
ырғақ
ырғақты
ырғы
ырғыз
ырғын
ыс
ысмаи
ыста
ыстамбұл
ыстан
ыстанбұл
ыстар
ысты
ыстық
ыстықкөл
ыстыққа
ыстың
ысы
ысына
ысында
ысының
ысып
ысқа
ысқан
ысқақ
ысқақов
ыту
ытылған
ытып
ытқы
ышов
ыған
ығы
ығыстыру
ығыстырып
ығысу
ығысуы
ық
ықпал
ықпалды
ықпалы
ықпалымен
ықпалын
ықпалына
ықпалынан
ықпалында
ықпалының
ықтаи
ықталған
ықтан
ықтап
ықтар
ықтардың
ықтимал
ықтималдығы
ықты
ықтық
ықтықтың
ықтың
ықшам
ықылас
ыққа
ың
ыңды
ыңыз
ыңғаи
ь
ьшов
э
эверо
эвертон
эволюция
эволюциялық
эволюциясы
эвора
эгеи
эд
эдвард
эдгар
эдди
эдельвеи
эдинбург
эдит
эдмунд
эдуард
эем
эи
эквадор
экватор
экваторлық
экз
экзогендік
экипаж
эко
экожүи
экология
экологиялық
экологиясы
экон
экономика
экономикада
экономикадағы
экономикалық
экономиканы
экономиканың
экономикасы
экономикасын
экономикасына
экономикасында
экономикасының
экономикаға
экономики
экономист
экономистер
экономистері
экономисі
экран
экранда
экранға
экс
экскурсия
экспед
экспедиция
экспедициялар
экспедициялық
экспедициясы
экспедициясында
экспедициясының
эксперимент
эксперименталды
эксперименттік
экспорт
экспорттық
экспорты
экспортқа
экспресс
эл
электр
электрик
электрлендіру
электрлі
электрлік
электрмагниттік
электрмен
электро
электрод
электролиз
электролит
электромагниттік
электрон
электрондар
электрондардың
электронды
электрондық
электроника
электронның
электротехника
электрохимиялық
элемент
элементар
элементтер
элементтерден
элементтерді
элементтердің
элементтермен
элементтері
элементтерін
элементтеріне
элементтерінің
элементті
элементтің
элементі
элизабет
элита
эллипс
эллипстік
эль
эльзас
эмаль
эмблемасы
эмили
эмилия
эмиль
эмиссиялық
эмма
эммануэль
эмми
эмоционалды
эмоциялық
эмпирикалық
эн
энгельс
энд
эндемик
энди
эндогендік
эндоплазмалық
эндрю
энергетика
энергетикалық
энергетикасы
энергия
энергияны
энергияның
энергиясы
энергиясын
энергиясына
энергиясының
энергияға
энн
энрике
энтони
энцеклопедиясы
энцикл
энциклопедии
энциклопедическии
энциклопедия
энциклопедиялық
энциклопедиясы
энциклопедиясына
энциклопедиясының
энциоклопедия
энцклопедия
энцклопедиясы
эпидемиология
эпидемиологиялық
эпизод
эпизодтық
эпикалық
эпителии
эпос
эпостық
эпосы
эр
эрвин
эридан
эрик
эритроциттер
эритроциттердің
эрих
эрнест
эрнесто
эрнст
эро
эрозия
эрозиялық
эрозиясы
эспириту
эссе
эссонна
эстетика
эстетикалық
эстон
эстония
эстрада
эстрадалық
этан
этика
этикалық
этикасы
этил
этилен
этимология
этимологиялық
этимологиясы
этиологиясы
этн
этникалық
этнограф
этнография
этнографиялық
этнология
этномәдени
этнос
этностық
этностың
это
этьен
эфиопия
эфир
эфирге
эфирде
эффект
эффектісі
эш
эштремадура
ю
юань
юбилеи
ювентус
юг
юган
югославия
юи
юлии
юлия
юн
юнаи
юнг
юнеско
юнион
юниорлар
юпитер
юра
юрген
юрии
юсуф
я
ява
яга
ягун
ядро
ядролары
ядролы
ядролық
ядроның
ядросы
ядросының
язык
языка
языке
языков
языкознания
яки
якоб
яков
яковлевич
якут
ямаи
ямало
ямбол
ян
января
янг
яндекс
яр
ярослав
ярославль
ясауи
ях
яха
яғни
яңауыл
яһуди
яһудилер
і
із
ізбасарлары
ізбасары
ізге
ізгі
ізгілік
іздеген
іздеи
ізденіс
ізденістер
іздеп
іздері
іздестіру
іздеу
іздеуге
ізді
ізі
ізімен
ізін
ізіне
ік
ікті
іл
ілген
ілгері
іле
іледі
ілесе
ілеспе
ілесіп
ілияс
ілиясова
ілтемелер
ілу
ілік
іліккен
ілікті
ілім
ілімді
ілімнің
ілімі
ілімін
ілімінде
іліміне
ілімінің
ілінген
ілініп
іліп
ім
імбет
імделген
імделу
імделуі
імделіп
імділік
імен
ін
інбаи
інге
інгі
інде
індегі
індемесі
індер
індері
індет
інді
індік
іне
інен
інжу
інжіл
іннен
інше
інші
іні
інін
інірек
інісі
інің
іп
іпкер
іпкерді
іпкердің
іпкерлер
іпкерлерді
іпкерлердің
іпкерлері
іпкерлерінің
іпкері
ір
ірге
іргелес
іргелі
іргесі
іргесін
іргесінде
іргетасы
іргетасын
ірлі
ірлік
іршіктері
іршікті
ірі
іріктеліп
іріктеп
іріктеу
іріктеуден
іріктеуі
іріктеуінде
ірілері
ірілеу
ірілі
ірімді
ірімшік
ірінде
ірінен
ірісі
ірің
іріңді
іс
іске
іскен
іскер
іскерлік
ісов
ісова
іспеншілік
іспеттес
іспетті
істе
істеген
істеді
істеи
істелген
істемеи
істен
істеп
істер
істерге
істерді
істері
істерін
істеріне
істеу
істеуге
істеуде
істеуді
істеуі
істеуін
істеуіне
істі
істің
ісі
ісігі
ісік
ісікке
ісіктің
ісімен
ісін
ісінде
ісіндегі
ісіне
ісінен
ісіну
ісінуі
ісініп
ісінің
ісіп
іт
іткасымов
ітов
ітова
іттер
ітті
іттің
іті
іх
іш
ішеді
ішек
ішекке
ішекте
ішекті
ішектің
ішетін
ішке
ішкен
ішкі
іштеи
іштен
іштің
ішу
ішуге
іші
ішік
ішілік
ішімдік
ішін
ішінара
ішінде
ішіндегі
ішіне
ішінен
ішіп
іі
ііб
іім
ііхк
ііі
ғ
ға
ғабдуллин
ғабит
ғажаи
ғажап
ғазиз
ғаи
ғалам
ғаламат
ғаламдық
ғаламның
ғаламтор
ғаламшар
ғалия
ғалым
ғалымдар
ғалымдардың
ғалымдары
ғалымдарының
ғалымдарға
ғалымның
ғалымы
ғамбар
ғамбардан
ғамбарды
ғамбардың
ғамбарлар
ғамбарлық
ғамбарымыз
ғамбарымыздың
ғамбарға
ған
ғана
ғанда
ғани
ғанин
ғаннан
ғаны
ғарыш
ғарышкер
ғарышкерлер
ғарышта
ғарыштық
ғарышқа
ғасыр
ғасырда
ғасырдан
ғасырдағы
ғасырдың
ғасырлар
ғасырларда
ғасырлардан
ғасырлардағы
ғасырлардың
ғасырларға
ғасырлық
ғасыры
ғасырында
ғасырға
ғашық
ғашықтық
ғағы
ғақ
ғақтаи
ғе
ғзи
ғибадат
ғибадатхана
ғибадатханалар
ғибадатханасы
ғимарат
ғимаратта
ғимараттар
ғимараттарды
ғимараттардың
ғимараттары
ғимараттарының
ғимаратты
ғимараттың
ғимараты
ғимаратында
ғимаратының
ғимаратқа
ғои
ғы
ғыл
ғылми
ғылы
ғылым
ғылымда
ғылымдар
ғылымдардың
ғылымдары
ғылымдарының
ғылымдағы
ғылымды
ғылыми
ғылымның
ғылымтану
ғылымы
ғылымын
ғылымына
ғылымында
ғылымының
ғылымға
ғын
ғыр
ғырлар
ғыров
ғыш
ғғ
ғұбаи
ғұлама
ғұләм
ғұмыр
ғұмырын
ғұн
ғұндар
ғұндардың
ғұрпы
ғұрпын
ғұрып
ғұрыптар
ғұрыптары
ғұрыптық
ғөф
қ
қа
қаб
қаба
қабан
қабанбаи
қабарда
қабат
қабатта
қабаттан
қабаттар
қабаттардың
қабаттары
қабаттарын
қабаттарынан
қабаттарында
қабаттарының
қабаттағы
қабатты
қабаттың
қабаты
қабатымен
қабатын
қабатына
қабатынан
қабатында
қабатындағы
қабатының
қабатқа
қабақ
қабыл
қабылан
қабылдады
қабылдаи
қабылдамады
қабылдамаи
қабылданады
қабылданатын
қабылданды
қабылдануы
қабылданып
қабылданған
қабылдап
қабылдау
қабылдауды
қабылдаудың
қабылдаушы
қабылдауы
қабылдауға
қабылдаған
қабылдағыш
қабыну
қабынуы
қабынуға
қабыршақ
қабыршақты
қабырға
қабырғалар
қабырғалардың
қабырғалары
қабырғаларын
қабырғаларына
қабырғаларында
қабырғаларының
қабырғалы
қабырғаның
қабырғасы
қабырғасын
қабырғасына
қабырғасында
қабырғасындағы
қабырғасының
қабырғаға
қабығы
қабығын
қабығынан
қабығында
қабығының
қабық
қабықпен
қабықты
қабықтың
қабықша
қабықшасы
қабілет
қабілетсіз
қабілеттері
қабілеттерін
қабілетті
қабілеттілігі
қабілеттілігін
қабілеті
қабілетін
қабілетіне
қабілетінің
қабір
қабірі
қадам
қадамдар
қадамы
қадағалаи
қадағалап
қадағалау
қады
қадыр
қадырғали
қадір
қадірлі
қажет
қажетсіз
қажетті
қажеттігі
қажеттігін
қажеттілігі
қажеттілігін
қажеттілігіне
қажеттілік
қажеттіліктерін
қажеті
қажетін
қажетіне
қажы
қажылық
қажылыққа
қажымұқан
қажырлы
қаз
қаза
қазалы
қазан
қазанда
қазандағы
қазандық
қазаннан
қазанның
қазанынан
қазанында
қазанға
қазанғап
қазақ
қазақмемлекетбаспасы
қазақмыс
қазақои
қазақпарат
қазақстан
қазақстанда
қазақстандағы
қазақстанды
қазақстандық
қазақстандықтар
қазақстанмен
қазақстанмұнаи
қазақстаннан
қазақстанның
қазақстанға
қазақта
қазақтан
қазақтар
қазақтарда
қазақтардан
қазақтарды
қазақтардың
қазақтары
қазақтарының
қазақтарға
қазақтелеком
қазақтелефильм
қазақты
қазақтың
қазақфильм
қазақша
қазақшаға
қазақы
қазаққа
қазба
қазбалар
қазбаларды
қазбалардың
қазбалары
қазкср
қазму
қазмұнаи
қазпи
қазпти
қазсср
қазу
қазы
қазыбек
қазылар
қазылып
қазылған
қазына
қазыналық
қазынасы
қазынашылық
қазып
қазығұрт
қазір
қазірге
қазіргі
қазірде
қазірдің
қазған
қазұпу
қазұту
қазұу
қаи
қал
қала
қалааралық
қалада
қаладан
қаладағы
қалады
қалаи
қалалар
қалаларда
қалалардағы
қалаларды
қалалардың
қалалары
қалаларын
қалаларына
қалаларынан
қалаларында
қалаларындағы
қалаларының
қалаларға
қалалық
қалам
қаламгер
қалампыр
қаламынан
қаламқас
қаланды
қаланы
қаланып
қаланың
қаланған
қалап
қалар
қаласы
қаласымен
қаласын
қаласына
қаласынан
қаласында
қаласындағы
қаласының
қалатын
қалау
қалаушы
қалаушылар
қалаушылардың
қалаушысы
қалауы
қалауымен
қалашығы
қалашығында
қалашық
қалаға
қалаған
қалақаи
қалба
қалдан
қалдаяқов
қалды
қалдым
қалдырады
қалдырды
қалдырмаи
қалдыру
қалдыруға
қалдырылды
қалдырылған
қалдырып
қалдырған
қалдығы
қалдық
қалдықтар
қалдықтарды
қалдықтардың
қалдықтары
қалдықтарымен
қалдықтарын
қалдықтарынан
қалдықтарының
қалжың
қалибек
қалиев
қалмады
қалмаи
қалмаған
қалмақ
қалмақтар
қалмақтардың
қалпақ
қалпы
қалпын
қалпына
қалпында
қалса
қалта
қалталы
қалтқысыз
қалу
қалуы
қалуына
қалуға
қалындығы
қалып
қалыпта
қалыптан
қалыптаса
қалыптасады
қалыптасатын
қалыптасты
қалыптастырады
қалыптастыратын
қалыптастырды
қалыптастыру
қалыптастыруда
қалыптастырудың
қалыптастыруға
қалыптастырып
қалыптастырған
қалыптасу
қалыптасуы
қалыптасуын
қалыптасуына
қалыптасуында
қалыптасуының
қалыптасып
қалыптасқан
қалыпты
қалыпқа
қалыс
қалың
қалыңд
қалыңдығы
қалыңдық
қалыңдықтың
қалғаи
қалған
қалғанда
қалғандары
қалғаны
қалғанын
қалқаланған
қалқаман
қалқан
қалқанша
қалқаны
қалқып
қам
қамаи
қамал
қамалды
қамалдың
қамалы
қамар
қамауда
қамауға
қамбар
қамсыздандыру
қамтамасыз
қамти
қамтиды
қамтитын
қамту
қамтуы
қамтыды
қамтылады
қамтылған
қамтып
қамтыған
қамшы
қамшыгер
қамын
қамыр
қамырды
қамыс
қамысты
қамқор
қамқорлық
қамқоршысы
қан
қана
қанаи
қанат
қанаттары
қанаттарының
қанатты
қанаттылар
қанаттың
қанаты
қанатын
қанатында
қанатының
қанағат
қанағаттандыратын
қанағаттандыру
қанағаттандыруға
қанда
қандаи
қандас
қандауыр
қандағы
қанды
қандыағаш
қанжар
қанжығалы
қанмен
қанның
қант
қантты
қанша
қаншалықты
қаншама
қаны
қанын
қаныш
қанығу
қанық
қанықпаған
қаныққан
қанға
қап
қапал
қаптаи
қапталады
қапталған
қаптап
қаптау
қаптаған
қапшағаи
қар
қара
қараағаш
қарабаи
қарабалық
қарабас
қарабидаи
қарабура
қарабұлақ
қарагөз
қарады
қаражал
қаражат
қаражаттар
қаражатты
қаражаттың
қаражаты
қаражатын
қараи
қаракереи
қаракесек
қаракөз
қаракөл
қаралады
қаралды
қаралу
қаралы
қаралымында
қаралып
қаралған
қарама
қарамаи
қарамастан
қарамағына
қарамағында
қарамағындағы
қараныз
қараның
қараоба
қараои
қарап
қарапаи
қарар
қараса
қарасаи
қарасақ
қарасор
қарасты
қарастыра
қарастырады
қарастыраи
қарастыратын
қарастырды
қарастыру
қарастыруға
қарастырылады
қарастырылатын
қарастырылды
қарастырылып
қарастырылған
қарастырып
қарастырған
қарасу
қарасуларға
қарата
қаратаев
қаратаи
қаратал
қаратау
қаратауда
қаратаудың
қаратон
қараторғаи
қаратып
қаратөбе
қарау
қарауыл
қарауына
қарауға
қарахан
қараш
қараша
қарашада
қарашадан
қарашадағы
қарашаи
қарашаның
қарашасынан
қарашасында
қарашығанақ
қарағаи
қараған
қарағанда
қарағандағы
қарағанды
қарағандыда
қарағандының
қарақалпақ
қарақалпақстан
қарақалпақтар
қарақат
қарақия
қарақол
қарақшы
қарақытаи
қарақұдық
қарақұи
қарақұм
қарақұмық
қарақұрт
қараңыз
қараңғы
қараңғылық
қараөзек
қарбыз
қардың
қаржы
қаржылаи
қаржыландыру
қаржыландыруға
қаржылық
қаржыны
қаржының
қаржысы
қария
қарлы
қарлығаш
қарлұқ
қарлұқтар
қармақшы
қарму
қарсақ
қарсақбаи
қарсаңында
қарсы
қарсылас
қарсыластар
қарсыластардың
қарсыластары
қарсыластарын
қарсыласты
қарсыластың
қарсыласу
қарсыласы
қарсыласын
қарсыласының
қарсылығы
қарсылығын
қарсылығына
қарсылық
қарсымын
қарт
қартаи
қартаю
қарттар
қару
қаруды
қарудың
қаруланған
қарулар
қарулы
қаруы
қаруын
қаршыға
қары
қарыз
қарыздар
қарызға
қарым
қарымта
қарын
қарындасы
қарға
қарғалы
қарғыс
қарқара
қарқаралы
қарқынды
қарқындылығы
қарқынмен
қарқыны
қарқынын
қас
қасақана
қасиет
қасиетке
қасиеттер
қасиеттерге
қасиеттерді
қасиеттердің
қасиеттері
қасиеттерімен
қасиеттерін
қасиеттеріне
қасиеттерінің
қасиетті
қасиеті
қасиетімен
қасиетін
қасиетіне
қасиетінің
қаскелең
қаста
қастан
қастандық
қастар
қастарда
қастары
қастарға
қастеев
қасты
қастың
қасы
қасым
қасымов
қасымұлы
қасына
қасынан
қасында
қасындағы
қасып
қасық
қасірет
қасіреті
қасқа
қасқан
қасқыр
қасқырдың
қасқырлар
қат
қатады
қатаи
қатал
қатар
қатарда
қатардан
қатардағы
қатардың
қатарлар
қатарлас
қатарлы
қатарлылар
қатары
қатарын
қатарына
қатарынан
қатарында
қатарындағы
қатарының
қатарға
қатаң
қате
қателер
қателерді
қателігі
қателік
қателіктер
қатер
қатерлі
қатпаи
қатпар
қатпарлар
қатпарлы
қатты
қаттылығы
қату
қатыгез
қатын
қатынаи
қатынас
қатынасады
қатынаста
қатынастар
қатынастарда
қатынастарды
қатынастардың
қатынастары
қатынастарын
қатынастарының
қатынастарға
қатынасты
қатынастың
қатынасы
қатынасымен
қатынасын
қатынасына
қатынасында
қатынасының
қатынасқа
қатынау
қатып
қатыса
қатысады
қатысатын
қатыспады
қатыспаи
қатыспаған
қатысты
қатысу
қатысудан
қатысушы
қатысушылар
қатысушыларды
қатысушылардың
қатысушылары
қатысушыларының
қатысушыларға
қатысушының
қатысушысы
қатысуы
қатысуымен
қатысуын
қатысуына
қатысуынсыз
қатысуға
қатысы
қатысында
қатысып
қатысқан
қатысқаны
қатық
қатқан
қатқыл
қау
қауашақ
қауда
қаудың
қаулы
қаулысы
қаулысымен
қаулысына
қаупі
қаупін
қауы
қауым
қауымдар
қауымдастығы
қауымдастығының
қауымдастық
қауымдастықтар
қауымдастықтың
қауымдық
қауымның
қауымы
қауымына
қауымының
қауымға
қауын
қауына
қауында
қауының
қауырсын
қауырсындары
қауырсынды
қауырсыны
қауіп
қауіпсіз
қауіпсіздігі
қауіпсіздігін
қауіпсіздігіне
қауіпсіздік
қауіпсіздікті
қауіпті
қауға
қашады
қашалған
қашан
қашанда
қашап
қашау
қашаған
қашты
қашу
қашуға
қашып
қашық
қашықтан
қашықтығы
қашықтық
қашықтықта
қашықтықтан
қашықтықтағы
қашықтықты
қашықтыққа
қашқан
қашқари
қағаз
қағаздар
қағаздарды
қағаздардың
қағаздары
қағаздарын
қағазды
қағаздың
қағазға
қаған
қағанаты
қағанатының
қағандығы
қағандығының
қағанның
қағаны
қағида
қағидалар
қағидалары
қағидаларын
қағидаларына
қағидасы
қағидаты
қағу
қағып
қақ
қақпа
қақпан
қақпасы
қақпасын
қақпасына
қақпашы
қақпашысы
қақпаға
қақпағы
қақпақ
қақтығыс
қақтығыстар
қақтығысты
қақтығысы
қақтығысқа
қақырық
қаңлы
қаңлылар
қаңтар
қаңтарда
қаңтардан
қаңтардағы
қаңтардың
қаңтарына
қаңтарынан
қаңтарында
қаңтарға
қаңқа
қаңқасы
қаһарлы
қаһарман
қаһармандық
қаһарманы
қилы
қима
қиманың
қимасы
қимасының
қимақ
қимақтар
қимыл
қимылдар
қимылдары
қимылдарын
қимылды
қимылдың
қимылы
қимылын
қирап
қиратты
қиратып
қираған
қисаи
қисса
қиссасы
қисық
қиылысады
қиылысу
қиылысында
қиылған
қиын
қиындаи
қиындығы
қиындық
қиындықтар
қиындықтарға
қиынға
қиып
қиыр
қиыршық
қиыршықтасты
қию
қиял
қиямет
қиян
қиянат
қияр
қияқ
қиғаш
қк
қкп
қм
қмдб
қмкәб
қобда
қобыз
қобызшы
қобыланды
қожа
қожаи
қожалығы
қожалықтары
қоздыратын
қоздыру
қоздырғыш
қоздырғышы
қозу
қозы
қозғаи
қозғала
қозғалады
қозғалатын
қозғалмаи
қозғалмалы
қозғалтқыш
қозғалтқыштар
қозғалтқыштардың
қозғалтқыштары
қозғалтқышты
қозғалтқыштың
қозғалтқышы
қозғалу
қозғалуы
қозғалып
қозғалыс
қозғалыста
қозғалыстар
қозғалыстардың
қозғалыстары
қозғалыстағы
қозғалысты
қозғалыстың
қозғалысы
қозғалысын
қозғалысына
қозғалысының
қозғалысқа
қозғалған
қозған
қозғау
қозғаушы
қои
қол
қола
қоладан
қолаи
қолбасшы
қолбасшылар
қолбасшылары
қолбасшылық
қолбасшысы
қолбасшысының
қолда
қолдады
қолдаи
қолдан
қолдана
қолданады
қолданатын
қолданбаи
қолданбалы
қолданды
қолдану
қолдануда
қолданудан
қолдануды
қолданудың
қолданушы
қолданушылар
қолдануы
қолдануға
қолданыла
қолданылады
қолданылатын
қолданылды
қолданылмаи
қолданылу
қолданылуда
қолданылуы
қолданылуына
қолданылып
қолданылған
қолданып
қолданыс
қолданыста
қолданыстан
қолданыстағы
қолданысы
қолданысқа
қолданған
қолданғанда
қолдап
қолдары
қолдарын
қолдарына
қолдау
қолдауды
қолдаушы
қолдауы
қолдауымен
қолдауына
қолдауға
қолдаған
қолдағы
қолды
қолдың
қолжазба
қолжазбалар
қолжазбалары
қолжазбаларында
қолжазбасы
қолжетімді
қолма
қолмен
қолтаңба
қолтық
қолы
қолымен
қолын
қолына
қолынан
қолында
қолындағы
қолының
қолға
қолғап
қолқа
қолөнер
қолөнершілер
қолөнері
қомақты
қон
қонаев
қонақ
қонақжаи
қонақтар
қонақтардың
қонақтарға
қонаққа
қонақүи
қонды
қондырылған
қондырғы
қондырғылар
қондырғылары
қондырғысы
қонтаи
қону
қонып
қоныс
қоныстана
қоныстанады
қоныстанды
қоныстандыру
қоныстану
қоныстануы
қоныстанып
қоныстанған
қоныстар
қоныстары
қоныстың
қонысы
қонған
қопа
қор
қора
қорабы
қорап
қорапша
қордаи
қорды
қордың
қорегі
қорегін
қорек
қоректендіреді
қоректендіру
қоректенеді
қоректенетін
қоректену
қоректенуі
қоректеніп
қоректі
қоректік
қоржын
қорлар
қорларды
қорлардың
қорлары
қорларын
қорларына
қорларының
қорлық
қоршаи
қоршалған
қоршап
қоршау
қоршауға
қоршаған
қоры
қорым
қорымдар
қорымы
қорын
қорына
қорынан
қорында
қорының
қорыта
қорытпалар
қорыту
қорытынды
қорытындылар
қорытындылары
қорытындысы
қорытындысында
қорытындыға
қорытып
қорығы
қорығында
қорық
қорықтар
қорықтары
қорықтың
қорықша
қорыққан
қорға
қорғады
қорғаи
қорғалады
қорғалатын
қорғалжын
қорғалған
қорған
қорғандар
қорғанның
қорғану
қорғаны
қорғаныс
қорғаныста
қорғанысы
қорғанысын
қорғаныш
қорғап
қорғасын
қорғасынның
қорғау
қорғауда
қорғауды
қорғаудың
қорғаушы
қорғаушылар
қорғаушысы
қорғауға
қорғаған
қорқу
қорқыныш
қорқынышты
қорқып
қорқыт
қос
қоса
қосады
қосаи
қосалқы
қосарланған
қосарлы
қосатын
қосаяқ
қосағаш
қоскөл
қосмекенділер
қосмекенділердің
қоспа
қоспаи
қоспалар
қоспаларды
қоспалары
қоспаның
қоспасы
қоспасын
қоспасынан
қоспағанда
қостанаи
қосты
қосу
қосуға
қосшағыл
қосыла
қосылады
қосылатын
қосылды
қосылмаи
қосылса
қосылу
қосылуы
қосылуына
қосылуынан
қосылуының
қосылуға
қосылып
қосылыс
қосылыстар
қосылыстарды
қосылыстардың
қосылыстары
қосылыстарға
қосылған
қосылғаннан
қосымша
қосымшалар
қосымшасы
қосынды
қосындысы
қосындысына
қосып
қосқан
қосқанда
қосқаны
қош
қоштасу
қошқар
қошқыл
қою
қоюды
қоюшы
қоюы
қоюға
қоя
қояды
қоян
қоянды
қоятын
қоға
қоғалы
қоғам
қоғамда
қоғамдар
қоғамдары
қоғамдастық
қоғамдағы
қоғамды
қоғамдық
қоғамның
қоғамы
қоғамын
қоғамына
қоғамында
қоғамындағы
қоғамының
қоғамға
қоқан
қоқыс
қоңыз
қоңыздар
қоңыр
қоңырат
қоңырау
қоңыржаи
қоңырқаи
қр
қу
қуалаи
қуалау
қуалаушылық
қуана
қуандық
қуандықов
қуаныш
қуанышбаев
қуанышты
қуат
қуатты
қуаттылығы
қуаты
қуатымен
қуатын
қуатының
қуаң
қуаңшылық
қудалау
қулық
қураи
қуу
қуылды
қуып
қуырады
қуыршақ
қуырылған
қуырып
қуыс
қуыстар
қуыстары
қуысты
қуысы
қуысын
қуысына
қуысында
қуысындағы
қуысының
қуық
қуған
қуғын
қуғынға
қхр
қы
қыдыр
қыз
қызанақ
қызарып
қызба
қызбен
қыздар
қыздардың
қыздары
қыздарға
қызды
қыздыру
қыздырылған
қыздырып
қыздырғанда
қыздың
қызмет
қызметке
қызметкер
қызметкердің
қызметкерлер
қызметкерлерге
қызметкерлерді
қызметкерлердің
қызметкерлері
қызметкерлерін
қызметкерлеріне
қызметкерлерінің
қызметкері
қызметпен
қызметте
қызметтегі
қызметтен
қызметтер
қызметтерге
қызметтерде
қызметтерді
қызметтердің
қызметтері
қызметтерін
қызметтерінде
қызметтеріне
қызметтерінің
қызметті
қызметтік
қызметтің
қызметші
қызметшілер
қызметшісі
қызметі
қызметімен
қызметін
қызметінде
қызметіндегі
қызметіне
қызметінен
қызметінің
қызу
қызуы
қызы
қызыл
қызылағаш
қызылжар
қызылорда
қызылордада
қызылсу
қызылтас
қызылтау
қызылту
қызылша
қызылшасы
қызылқоға
қызылқұи
қызылқұм
қызын
қызына
қызының
қызып
қызыр
қызыға
қызығушылығы
қызығушылығын
қызығушылық
қызығы
қызығып
қызық
қызықты
қызықтырды
қызға
қызғалдақ
қызған
қызғылт
қыл
қылады
қылды
қылмыс
қылмыскер
қылмыстар
қылмысты
қылмыстық
қылмыстың
қылмысқа
қылу
қылшық
қылып
қылыш
қылығы
қылық
қылған
қылқан
қылқанды
қымбат
қымыз
қын
қына
қындады
қындаи
қындалады
[...]
