!
"
#
##a
##aa
##ab
##ac
##ad
##ae
##af
##ag
##ah
##ai
##aj
##ak
##al
##am
##an
##ao
##ap
##aq
##ar
##as
##at
##au
##av
##aw
##ax
##ay
##az
##b
##ba
##bb
##bc
##bd
##be
##bf
##bg
##bh
##bi
##bj
##bk
##bl
##bm
##bn
##bo
##bp
##bq
##br
##bs
##bt
##bu
##bv
##bw
##bx
##by
##bz
##c
##ca
##cb
##cc
##cd
##ce
##cf
##cg
##ch
##ci
##cj
##ck
##cl
##cm
##cn
##co
##cp
##cq
##cr
##cs
##ct
##cu
##cv
##cw
##cx
##cy
##cz
##d
##da
##db
##dc
##dd
##de
##df
##dg
##dh
##di
##dj
##dk
##dl
##dm
##dn
##do
##dp
##dq
##dr
##ds
##dt
##du
##dv
##dw
##dx
##dy
##dz
##e
##ea
##eb
##ec
##ed
##ee
##ef
##eg
##eh
##ei
##ej
##ek
##el
##em
##en
##eo
##ep
##eq
##er
##es
##et
##eu
##ev
##ew
##ex
##ey
##ez
##f
##fa
##fb
##fc
##fd
##fe
##ff
##fg
##fh
##fi
##fj
##fk
##fl
##fm
##fn
##fo
##fp
##fq
##fr
##fs
##ft
##fu
##fv
##fw
##fx
##fy
##fz
##g
##ga
##gb
##gc
##gd
##ge
##gf
##gg
##gh
##gi
##gj
##gk
##gl
##gm
##gn
##go
##gp
##gq
##gr
##gs
##gt
##gu
##gv
##gw
##gx
##gy
##gz
##h
##ha
##hb
##hc
##hd
##he
##hf
##hg
##hh
##hi
##hj
##hk
##hl
##hm
##hn
##ho
##hp
##hq
##hr
##hs
##ht
##hu
##hv
##hw
##hx
##hy
##hz
##i
##ia
##ib
##ic
##id
##ie
##if
##ig
##ih
##ii
##ij
##ik
##il
##im
##in
##io
##ip
##iq
##ir
##is
##it
##iu
##iv
##iw
##ix
##iy
##iz
##j
##ja
##jb
##jc
##jd
##je
##jf
##jg
##jh
##ji
##jj
##jk
##jl
##jm
##jn
##jo
##jp
##jq
##jr
##js
##jt
##ju
##jv
##jw
##jx
##jy
##jz
##k
##ka
##kb
##kc
##kd
##ke
##kf
##kg
##kh
##ki
##kj
##kk
##kl
##km
##kn
##ko
##kp
##kq
##kr
##ks
##kt
##ku
##kv
##kw
##kx
##ky
##kz
##l
##la
##lb
##lc
##ld
##le
##lf
##lg
##lh
##li
##lj
##lk
##ll
##lm
##ln
##lo
##lp
##lq
##lr
##ls
##lt
##lu
##lv
##lw
##lx
##ly
##lz
##m
##ma
##mb
##mc
##md
##me
##mf
##mg
##mh
##mi
##mj
##mk
##ml
##mm
##mn
##mo
##mp
##mq
##mr
##ms
##mt
##mu
##mv
##mw
##mx
##my
##mz
##n
##na
##nb
##nc
##nd
##ne
##nf
##ng
##nh
##ni
##nj
##nk
##nl
##nm
##nn
##no
##np
##nq
##nr
##ns
##nt
##nu
##nv
##nw
##nx
##ny
##nz
##o
##oa
##ob
##oc
##od
##oe
##of
##og
##oh
##oi
##oj
##ok
##ol
##om
##on
##oo
##op
##oq
##or
##os
##ot
##ou
##ov
##ow
##ox
##oy
##oz
##p
##pa
##pb
##pc
##pd
##pe
##pf
##pg
##ph
##pi
##pj
##pk
##pl
##pm
##pn
##po
##pp
##pq
##pr
##ps
##pt
##pu
##pv
##pw
##px
##py
##pz
##q
##qa
##qb
##qc
##qd
##qe
##qf
##qg
##qh
##qi
##qj
##qk
##ql
##qm
##qn
##qo
##qp
##qq
##qr
##qs
##qt
##qu
##qv
##qw
##qx
##qy
##qz
##r
##ra
##rb
##rc
##rd
##re
##rf
##rg
##rh
##ri
##rj
##rk
##rl
##rm
##rn
##ro
##rp
##rq
##rr
##rs
##rt
##ru
##rv
##rw
##rx
##ry
##rz
##s
##sa
##sb
##sc
##sd
##se
##sf
##sg
##sh
##si
##sj
##sk
##sl
##sm
##sn
##so
##sp
##sq
##sr
##ss
##st
##su
##sv
##sw
##sx
##sy
##sz
##t
##ta
##tb
##tc
##td
##te
##tf
##tg
##th
##ti
##tj
##tk
##tl
##tm
##tn
##to
##tp
##tq
##tr
##ts
##tt
##tu
##tv
##tw
##tx
##ty
##tz
##u
##ua
##ub
##uc
##ud
##ue
##uf
##ug
##uh
##ui
##uj
##uk
##ul
##um
##un
##uo
##up
##uq
##ur
##us
##ut
##uu
##uv
##uw
##ux
##uy
##uz
##v
##va
##vb
##vc
##vd
##ve
##vf
##vg
##vh
##vi
##vj
##vk
##vl
##vm
##vn
##vo
##vp
##vq
##vr
##vs
##vt
##vu
##vv
##vw
##vx
##vy
##vz
##w
##wa
##wb
##wc
##wd
##we
##wf
##wg
##wh
##wi
##wj
##wk
##wl
##wm
##wn
##wo
##wp
##wq
##wr
##ws
##wt
##wu
##wv
##ww
##wx
##wy
##wz
##x
##xa
##xb
##xc
##xd
##xe
##xf
##xg
##xh
##xi
##xj
##xk
##xl
##xm
##xn
##xo
##xp
##xq
##xr
##xs
##xt
##xu
##xv
##xw
##xx
##xy
##xz
##y
##ya
##yb
##yc
##yd
##ye
##yf
##yg
##yh
##yi
##yj
##yk
##yl
##ym
##yn
##yo
##yp
##yq
##yr
##ys
##yt
##yu
##yv
##yw
##yx
##yy
##yz
##z
##za
##zb
##zc
##zd
##ze
##zf
##zg
##zh
##zi
##zj
##zk
##zl
##zm
##zn
##zo
##zp
##zq
##zr
##zs
##zt
##zu
##zv
##zw
##zx
##zy
##zz
$
%
&
'
(
)
*
+
,
-
.
/
0
00
000
00001
001
002
003
004
00473
005
006
007
0070
00789
008
009
01
010
01063
011
012
013
014
015
016
017
01738
018
019
02
020
021
022
023
024
02459
025
026
0268
027
028
0283
029
03
030
031
032
033
035
036
038
038532
039
04
040
041
042
044
045
047
048
049
05
050
051
052
055
057
06
060
066
07
070
079
08
080
08532
09
092
095
096
0a
0b
0c
0d
0e
0f
0g
0h
0i
0j
0k
0l
0m
0n
0o
0p
0q
0r
0s
0t
0u
0v
0w
0x
0y
0z
1
10
100
1000
10000
1002
1007
101
1010
1012
1016
1017
102
1020
1024
1028
103
1030
1038
104
1040
105
1050
106
107
108
1080
109
1097
11
110
1100
111
1111
112
1120
1126
113
1130
114
115
1150
116
1162
117
118
119
12
120
1200
1206
121
1218
1219
122
1220
123
124
1240
125
1250
126
1260
127
128
1280
129
13
130
1300
131
132
133
134
135
1350
1352
136
1360
1368
137
1370
138
1380
139
1390
14
140
1400
141
142
1420
1428
143
144
1440
1449
145
1450
1453
146
1465
1468
1469
147
148
1480
1488
149
1490
1492
15
150
1500
1501
1502
151
1510
1511
1512
15120
1513
1515
1516
1517
1519
152
1520
1521
1523
1524
1526
153
1530
1532
1533
1538
154
1540
1546
155
1550
1555
1556
156
1560
157
1570
158
1580
1582
1588
159
1590
1596
1598
16
160
1600
1603
1605
161
1610
1616
1618
162
1620
1623
1627
1628
163
1630
1632
1635
164
1640
1642
1643
1644
1648
165
1650
1654
166
1660
1667
1668
167
1670
168
1680
169
1690
17
170
1700
1707
171
1710
1711
1712
1713
1714
1715
1716
1717
1718
172
1720
1723
1724
1725
1726
1727
1728
1729
173
1730
1731
1732
1733
1734
1735
1736
1738
174
1740
1741
1742
1743
1744
1745
1747
1748
1749
175
1750
1752
1754
1755
1756
1757
1758
1759
176
1760
1762
1763
1764
1765
1766
1767
1768
1769
177
1770
1771
1772
1773
1774
1775
1776
1777
1778
1779
178
1780
1781
1782
1783
1784
1785
1786
1787
1788
1789
179
1790
1791
1792
1793
1794
1795
1796
1797
1798
1799
18
180
1800
1801
1802
1803
1804
1805
1806
1807
1808
1809
181
1810
1811
1812
1813
1814
1815
1816
1817
1818
1819
182
1820
1821
1822
1823
1824
1825
1826
1827
1828
1829
183
1830
1831
1832
1833
1834
1835
1836
1837
1838
1839
184
1840
1841
1842
1843
1844
1845
1846
1847
1848
1849
185
1850
1851
1852
1853
1854
1855
1856
1857
1858
1859
186
1860
1861
1862
1863
1864
1865
1866
1867
1868
1869
187
1870
1871
1872
1873
1874
1875
1876
1877
1878
1879
188
1880
1881
1882
1883
1884
1885
1886
1887
1888
1889
189
1890
1891
1892
1893
1894
1895
1896
1897
1898
1899
19
190
1900
1901
1902
1903
1904
1905
1906
1907
1908
1909
191
1910
1911
1912
1913
1914
1915
1916
1917
1918
1919
192
1920
1921
1922
1923
1924
1925
1926
1927
1928
1929
193
1930
1931
1932
1933
1934
1935
1936
1937
1938
1939
194
1940
1941
1942
1943
1944
1945
1946
1947
1948
1949
195
1950
1951
1952
1953
1954
1955
1956
1957
1958
1959
196
1960
1961
1962
1963
1964
1965
1966
1967
1968
1969
197
1970
1971
1972
1973
1974
1975
1976
1977
1978
1979
198
1980
1981
1982
1983
1984
1985
1986
1987
1988
1989
199
1990
1991
1992
1993
1994
1995
1996
1997
1998
1999
1a
1b
1c
1d
1e
1f
1g
1h
1i
1j
1k
1l
1m
1n
1o
1p
1q
1r
1s
1t
1u
1v
1w
1x
1y
1z
2
20
200
2000
2001
2002
2003
2004
2005
2006
2007
2008
2009
201
2010
2011
2012
2013
2014
2015
2016
2017
2018
2019
202
2020
2021
2022
203
2030
204
205
206
207
2078
208
209
21
210
2100
211
212
213
214
215
216
217
218
219
22
220
2200
221
222
223
2231
224
225
226
227
228
229
23
230
2300
231
232
233
234
235
236
237
238
239
24
240
2400
241
242
243
244
245
2459
246
247
248
249
25
250
2500
251
252
253
254
255
256
257
258
259
26
260
2600
261
2616
262
263
264
265
266
267
268
269
27
270
271
272
273
274
275
276
277
278
279
28
280
2800
281
282
283
284
285
286
287
288
289
29
290
291
292
293
294
2949
295
296
297
298
299
2a
2b
2c
2d
2e
2f
2g
2h
2i
2j
2k
2l
2m
2n
2o
2p
2q
2r
2s
2t
2u
2v
2w
2x
2y
2z
3
30
300
3000
301
302
303
304
305
306
307
308
309
31
310
311
312
313
314
315
316
317
318
319
32
320
321
322
323
324
325
326
327
328
329
33
330
331
332
333
334
335
336
337
338
339
34
340
341
342
343
344
345
346
347
348
349
35
350
3500
351
352
353
354
355
356
357
358
359
36
360
3600
361
362
363
364
365
366
367
368
369
37
370
371
372
373
374
375
376
377
378
379
38
380
381
382
383
384
385
386
387
388
389
39
390
391
392
393
394
395
396
397
398
399
3a
3b
3c
3d
3e
3f
3g
3h
3i
3j
3k
3l
3m
3n
3o
3p
3q
3r
3s
3t
3u
3v
3w
3x
3y
3z
4
40
400
4000
401
402
403
404
405
406
407
408
409
41
410
411
412
413
414
415
416
417
418
419
42
420
421
422
423
424
425
426
427
428
429
43
430
431
432
433
434
435
436
437
438
439
44
440
441
442
443
444
445
446
447
448
449
45
450
4500
451
452
453
454
455
456
457
458
459
46
460
461
462
463
464
465
466
467
468
469
47
470
471
472
473
474
475
476
477
478
479
48
480
481
482
483
484
485
486
487
488
489
49
490
491
492
493
494
495
496
497
498
499
4a
4b
4c
4d
4e
4f
4g
4h
4i
4j
4k
4l
4m
4n
4o
4p
4q
4r
4s
4t
4u
4v
4w
4x
4y
4z
5
50
500
5000
501
502
503
504
505
506
507
508
509
51
510
511
512
513
514
515
516
517
518
519
52
520
521
522
523
524
525
526
527
528
529
53
530
531
532
533
534
535
536
537
538
539
54
540
541
542
543
544
545
546
547
548
549
55
550
551
552
553
554
555
556
557
558
559
56
560
561
562
563
564
565
566
567
568
569
57
570
571
572
573
574
575
576
577
578
579
58
580
581
582
583
584
585
586
587
588
589
59
590
591
592
593
594
595
596
597
598
599
5a
5b
5c
5d
5e
5f
5g
5h
5i
5j
5k
5l
5m
5n
5o
5p
5q
5r
5s
5t
5u
5v
5w
5x
5y
5z
6
60
600
6000
601
602
603
604
605
606
607
608
609
61
610
611
612
613
614
615
616
617
618
619
62
620
621
622
623
624
625
626
627
628
629
63
630
631
632
633
634
635
636
637
638
639
64
640
641
642
643
644
645
646
647
648
649
65
650
651
652
653
654
655
656
657
658
659
66
660
661
662
663
664
665
666
667
668
669
67
670
671
672
6727
673
674
675
676
677
678
679
68
680
681
682
683
684
685
686
687
688
689
69
690
691
692
693
694
695
696
697
698
699
6a
6b
6c
6d
6e
6f
6g
6h
6i
6j
6k
6l
6m
6n
6o
6p
6q
6r
6s
6t
6u
6v
6w
6x
6y
6z
7
70
700
7000
701
702
7026
703
704
705
706
707
708
709
71
710
711
712
713
714
715
7157
716
717
718
719
72
720
721
722
723
724
725
7254
726
727
728
729
73
730
731
732
733
734
735
736
737
738
739
74
740
741
742
743
744
745
746
747
7472
748
749
75
750
751
752
753
754
755
756
757
758
759
76
760
761
762
763
764
765
766
7667
767
768
769
77
770
771
772
773
774
775
776
777
778
779
78
780
781
783
784
785
786
787
788
789
79
790
791
792
793
794
795
796
797
798
799
7a
7b
7c
7d
7e
7f
7g
7h
7i
7j
7k
7l
7m
7n
7o
7p
7q
7r
7s
7t
7u
7v
7w
7x
7y
7z
8
80
800
8000
801
802
803
804
805
806
807
808
809
81
810
811
812
813
814
815
816
817
818
8188
819
82
820
821
822
823
824
825
826
828
8284
83
830
832
833
834
835
836
837
838
839
84
840
841
842
843
844
845
846
847
848
849
85
850
851
852
853
854
855
856
858
859
86
860
861
862
863
864
866
868
869
87
870
871
872
873
875
876
877
879
88
880
881
883
885
886
887
888
889
89
890
891
892
893
894
895
896
897
89800
89840
899
8a
8b
8c
8d
8e
8f
8g
8h
8i
8j
8k
8l
8m
8n
8o
8p
8q
8r
8s
8t
8u
8v
8w
8x
8y
8z
9
90
900
901
902
903
904
905
906
907
908
909
91
910
911
912
913
914
915
916
917
918
919
92
920
921
922
923
924
925
927
928
929
93
930
931
932
933
934
935
936
937
938
939
94
940
941
942
943
944
945
946
947
948
95
950
951
953
954
955
956
957
959
96
960
961
962
963
965
966
967
968
97
970
971
972
973
974
975
976
9765
978
979
98
980
981
983
985
986
987
988
989
99
990
991
992
993
994
995
996
9963
9965
997
998
999
9a
9b
9c
9d
9e
9f
9g
9h
9i
9j
9k
9l
9m
9n
9o
9p
9q
9r
9s
9t
9u
9v
9w
9x
9y
9z
:
;
<
=
>
?
@
[
[CLS]
[MASK]
[PAD]
[SEP]
[UNK]
\
]
^
_
`
a
a0
a1
a2
a3
a4
a5
a6
a7
a8
a9
aa
ab
abc
about
abs
ac
acacia
academic
academy
access
accessed
act
action
ad
adam
adebiportal
ae
af
affairs
africa
african
after
ag
again
against
age
agency
agılsınsa
ah
ai
aids
air
airbus
aircraft
airlines
aj
ak
al
alan
album
alexander
ali
all
alpha
also
alto
am
amateur
amazon
america
american
among
amtern
amtliche
amtsfreien
an
analysis
ancient
and
andre
andrew
android
angel
angeles
anhalt
anna
anne
announces
annual
anthony
antlia
antonio
ao
aout
ap
app
apple
april
aq
ar
arak
archive
archived
archives
are
area
arena
arp
art
article
articles
artist
arts
as
asia
asian
asp
aspx
association
assunta
astana
aston
astronomical
at
atlas
au
aubin
audi
august
aujourd
australia
australian
auto
aux
av
avant
aw
award
awards
ax
ay
az
azirbayjansa
b
b0
b1
b2
b3
b4
b5
b6
b7
b8
b9
ba
baby
back
bad
baden
bafta
baker
baku
band
bang
bank
bar
barbara
bas
base
based
basic
battista
battle
bayerisches
bb
bbc
bc
bd
be
beach
been
before
begin
bei
being
bell
benth
berlin
best
beta
between
bevolkerung
bevolkerungsentwicklung
bevolkerungsfortschreibung
bevolkerungsstandes
bevolkerungszahlen
bf
bg
bgmaps
bh
bi
biagio
bibcode
biden
big
bilim
bill
billboard
biography
bir
birdlife
bj
bk
bl
black
block
blog
blue
bm
bn
bo
board
boeing
bois
book
bookchamber
books
boston
box
boxing
boxrec
boy
boys
bp
bq
br
brandenburg
bridge
brief
britanica
britannica
british
brown
bs
bt
bts
bu
bugatti
bureau
business
but
bv
bw
bx
by
bz
c
c0
c1
c2
c3
c4
c5
c6
c7
c8
c9
ca
cadillac
california
call
camaro
cambridge
campo
can
canada
canes
capital
car
card
caribbean
carlos
case
cassini
castle
cat
category
cb
cbs
cc
cd
cdot
ce
cell
census
center
central
centre
century
cf
cg
ch
champions
championship
championships
change
channel
chapelle
chapter
charles
chart
charts
chemistry
chevrolet
chicago
children
china
chinese
choice
chris
christian
chrome
ci
cia
cite
cities
city
civil
cj
ck
cl
class
club
cm
cn
cnn
co
coca
code
cola
collection
college
columbia
com
comarca
comics
commission
committee
common
commons
communale
commune
communes
communications
community
company
complete
comptes
computer
comune
con
conference
congress
conservation
conserves
const
consulte
content
contest
control
core
corona
coronavirus
corporation
cos
council
countries
country
county
court
covid
cp
cq
cr
crater
creative
cruz
cs
ct
ctrl
cu
culture
cup
current
cv
cw
cx
cy
cz
d
d0
d1
d2
d3
d4
d5
d6
d7
d8
d9
da
dae
daily
dan
dance
daniel
dans
dark
das
data
database
date
datei
datenverarbeitung
david
day
days
db
dc
dd
de
dead
death
december
defined
del
dell
della
delta
den
departementales
department
depuis
der
des
design
details
development
dez
dezember
df
dg
dh
di
dic
dictionary
die
different
digital
disease
disney
displaystyle
division
dj
dk
dl
dm
dn
do
doc
docs
doi
don
donald
donnees
dorado
dos
double
doubles
down
downloaded
dp
dps
dq
dr
dragon
drama
drcg
dream
ds
dt
du
dv
dvd
dw
dx
dy
dz
e
e0
e1
e2
e3
e4
e5
e6
e7
e8
e9
ea
early
earth
east
eb
ec
ecole
economic
economy
ed
edition
edu
education
edward
ee
ef
eg
eh
ehess
ei
ej
ek
el
election
elizabeth
elle
em
emaps
empire
en
encyclopedia
encyclopædia
end
energy
engineering
england
english
entertainment
entry
eo
ep
eq
er
erfullenden
eric
es
eso
est
et
etudes
eu
europe
european
eurovision
ev
evolution
ew
ex
excel
exo
explorer
expo
express
extragalactic
ey
ez
f
f0
f1
f2
f3
f4
f5
f6
f7
f8
f9
fa
facebook
factbook
factfinder
facts
fair
fall
family
fashion
fb
fc
fd
fe
february
federation
ferrari
festival
fevrier
ff
fg
fh
fi
fichier
field
fifa
file
files
film
final
financial
fips
fire
first
five
fj
fk
fl
flight
fm
fn
fo
football
footballdatabase
footballfacts
for
forbes
force
ford
foreign
former
fornax
fortschreibung
fortune
forum
foundation
fox
fp
fq
fr
frac
france
francis
francisco
frank
free
freedom
french
friedrich
from
fs
ft
fu
full
fund
fur
futbol
future
fv
fvg
fw
fx
fy
fz
g
g0
g1
g2
g3
g4
g5
g6
g7
g8
g9
ga
galaxy
game
games
gamma
gb
gc
gcl
gd
ge
gemeinde
gemeinden
general
george
gerais
germain
german
get
gf
gg
gh
gi
giacomo
giorgio
giovanni
girl
girls
git
gj
gk
gl
global
gm
gn
go
god
gold
golden
good
google
gov
government
gp
gq
gr
grand
grande
great
green
group
grp
gs
gt
gu
guardian
guide
gv
gw
gx
gy
gz
h
h0
h1
h2
h3
h4
h5
h6
h7
h8
h9
ha
hall
handbook
harvard
has
hautes
have
hb
hc
hcg
hcl
hd
he
head
health
heart
henry
her
heritage
hessischen
hf
hg
hh
hi
hier
high
hill
his
historical
historique
history
hiv
hj
hk
hl
hm
hn
ho
hollywood
holstein
home
homo
horologium
hot
house
how
hp
hq
hr
hs
ht
htm
html
http
https
hu
hubble
hui
human
hv
hw
hx
hy
hyperloop
hz
i
i0
i1
i2
i3
i4
i5
i6
i7
i8
i9
ia
ib
ibf
ibm
ibn
ic
id
idaho
ie
if
ig
ih
ii
iii
ij
ik
il
im
image
imdb
in
inc
includes
independent
index
india
indian
indiana
industry
info
infobox
inform
information
infty
insee
instagram
institute
int
intel
intelligence
international
internet
interview
into
introduction
invalid
io
ios
ip
ipac
ipad
iphone
iq
ir
iran
iras
is
isbn
islam
islamic
island
islands
ismn
iso
israel
issn
it
item
itf
its
itunes
iu
iucn
iv
iw
ix
iy
iz
j
j0
j1
j2
j3
j4
j5
j6
j7
j8
j9
ja
jack
jackson
james
jan
jane
january
janvier
japan
java
jb
jc
jd
je
jean
jesus
jf
jg
jh
ji
jj
jk
jl
jm
jn
jo
joao
joe
john
johnson
jonathan
jones
jordan
jose
joseph
jour
journal
jp
jpg
jq
jr
js
jt
ju
juan
juillet
julien
july
june
junior
jusqu
jusque
just
justification
jv
jw
jx
jy
jz
k
k0
k1
k2
k3
k4
k5
k6
k7
k8
k9
ka
kara
kaspi
kaz
kazakh
kazakhstan
kb
kbs
kc
kcpg
kd
ke
key
kf
kg
kh
ki
kids
kim
king
kingdom
kitap
kj
kk
kl
km
kn
know
knowledge
ko
koleksiyonu
kommunikationstechnologie
korea
korean
kp
kq
kr
kreis
kreisen
ks
kt
ku
kug
kv
kw
kx
ky
kz
l
l0
l1
l2
l3
l4
l5
l6
l7
l8
l9
la
lady
lake
lamborghini
land
landesamt
landesbetrieb
landkreis
landkreisen
lang
language
languages
las
last
latin
laurent
law
lb
lbn
lc
ld
ldh
le
leader
league
lee
left
legales
lego
lenta
les
let
lewis
lf
lg
lh
li
libero
library
life
light
like
lim
limited
lincoln
line
link
linux
list
literature
little
live
lj
lk
ll
lm
lmc
ln
lo
lockheed
logos
london
long
look
lorenzo
los
louis
love
lp
lq
lr
ls
lt
ltd
lu
luis
lv
lw
lx
ly
lz
m
m0
m1
m2
m3
m4
m5
m6
m7
m8
m9
ma
mac
macbook
machine
made
madonna
madrid
magazine
mai
mail
main
major
make
malaysia
man
management
manchester
map
mapquest
march
maria
marie
mark
market
mars
martin
martire
marvel
mary
mas
mass
massaget
master
match
matches
mathbb
mathbf
mathrm
mathsf
maurice
max
may
mb
mc
mcg
md
me
media
medical
medicine
member
memory
men
mer
mesnil
messier
method
mf
mg
mh
mi
michael
microsoft
middle
miguel
mike
military
million
min
minas
mind
mini
ministry
mis
mit
mj
mk
ml
mm
mn
mo
mobile
mode
model
modern
mojo
mon
monetary
money
monte
moore
more
most
motor
motors
movie
mp
mq
mr
ms
mt
mtv
mu
muell
muhammad
multiple
municipale
museum
music
muslim
mv
mw
mx
my
mysql
mz
n
n0
n1
n2
n3
n4
n5
n6
n7
n8
n9
na
nach
nacl
name
named
naoh
narod
nasa
nation
national
nations
natural
nature
nb
nc
nd
ne
near
need
net
netflix
network
new
news
next
nf
ng
ngc
nh
ni
niedersachsen
night
nj
nk
nl
nm
nn
no
nobel
nobeliat
nobelprize
noc
nokia
nombres
non
nord
north
nossa
not
note
notice
notre
nous
nova
november
novembre
now
np
npm
nq
nr
ns
nsf
nt
nu
number
nur
nv
nw
nx
ny
nz
o
o0
o1
o2
o3
o4
o5
o6
o7
o8
o9
oa
ob
oc
ocl
october
od
oe
of
off
office
official
officiel
og
oh
oi
oil
oj
ok
ol
old
olympic
olympics
om
omega
on
one
online
only
oo
op
open
operatorname
oq
or
oracle
order
org
organization
original
os
ot
other
ou
our
out
ov
over
ow
ox
oxford
oy
oz
ozbekse
p
p0
p1
p2
p3
p4
p5
p6
p7
p8
p9
pa
pacific
page
pages
pakistan
par
para
paris
park
part
partial
partir
party
pas
paul
paulo
paypal
pb
pc
pd
pdf
pe
peace
pedro
pence
people
per
person
peter
pf
pfalz
pg
pgc
ph
phd
phi
philosophical
philosophy
phone
photo
php
physics
physiology
pi
pictures
piemonte
pierre
pietro
pj
pk
pl
place
play
player
players
playstation
plus
pm
pmc
pmid
pn
png
po
point
policy
political
politics
pop
population
populations
porsche
port
portal
portrait
post
pour
power
pp
pq
pr
premier
present
president
presidential
presidents
press
prince
princeton
prize
pro
production
profil
profile
program
programme
project
protocollo
provided
provincia
ps
pt
pu
public
publications
publies
publishers
publishing
puis
pv
pw
px
py
pz
q
q0
q1
q2
q3
q4
q5
q6
q7
q8
q9
qa
qb
qc
qd
qe
qf
qg
qh
qi
qj
qk
ql
qm
qn
qo
qp
qq
qr
qs
qt
qu
quartal
quartale
quartalsende
que
queen
qur
quran
qv
qw
qx
qy
qz
qırgızsa
r
r0
r1
r2
r3
r4
r5
r6
r7
r8
r9
ra
radio
range
ranking
rankings
ransfermarkt
ray
rb
rc
rd
re
read
real
reality
rec
recensement
record
records
red
ref
reference
references
refs
region
regione
release
religion
religious
report
reports
republic
research
resources
resultats
results
retenus
retrieved
return
reuters
review
reviews
revolution
rf
rg
rh
rheinland
rho
ri
richard
right
rightarrow
rights
ring
rio
rise
river
rj
rk
rl
rm
rn
ro
road
robert
rocco
rock
roland
rolling
roman
rotten
round
rover
royal
rp
rq
rr
rs
rsssf
rt
ru
run
ruparpiemonte
rus
russia
russian
rv
rw
rx
ry
rz
s
s0
s1
s2
s3
s4
s5
s6
s7
s8
s9
sa
sab
sachsen
saint
sainte
samsung
san
sankt
sans
sant
santa
santi
santo
santos
sao
says
sb
sba
sbab
sbb
sbbc
sbc
sbcd
sbn
sc
schleswig
school
science
sciences
scotland
scott
sculptor
sd
se
sea
search
seas
season
second
secret
security
see
segreteria
seine
selon
senhora
september
septembre
series
serra
server
service
services
set
sexe
sextans
sf
sg
sh
sherlock
show
shtml
si
sigma
silva
simbad
simon
sin
sindaco
singapore
single
sir
site
six
sj
sk
sky
sl
sm
smith
sn
so
soccer
soccerway
social
sociales
society
software
some
son
song
songs
sony
source
sous
south
soviet
sp
space
spacex
special
species
speed
spieler
sport
sports
spring
springer
sq
sqrt
sr
ss
st
stadium
stadten
stand
standard
stanford
star
stars
start
stat
state
states
station
statistical
statistics
statistik
statistikamt
statistisches
stephen
stichtag
still
stone
store
story
street
structure
studies
studio
studios
study
style
su
sul
sum
summary
summer
sun
super
support
sur
survey
sv
sw
sx
sy
system
systems
sz
t
t0
t1
t2
t3
t4
t5
t6
t7
t8
t9
ta
table
tag
take
tatarsa
taylor
tb
tc
td
te
team
teams
teatr
technologies
technology
telegraph
television
tengrinews
test
texas
text
tf
tg
th
than
that
the
theatre
their
theory
there
they
third
this
thomas
thomson
threatened
three
through
thuringer
ti
time
times
tin
title
tj
tk
tl
tm
tn
to
today
todd
tom
tomatoes
top
total
touch
tour
town
township
toyota
tp
tq
tr
trafigura
transfermarkt
translatedate
travel
true
trump
ts
tt
tu
tucana
turikmense
turikse
turkey
turkish
turkvizyon
tv
tw
twitter
two
tx
ty
type
tz
u
u0
u1
u2
u3
u4
u5
u6
u7
u8
u9
ua
uav
ub
uber
uc
ud
ue
uefa
uf
ug
ugc
ugca
uh
ui
uj
uk
ukraine
ul
um
un
und
under
une
unesco
union
unit
united
universal
universe
university
uo
up
update
uq
ur
url
urp
us
usa
usb
use
ut
utc
uu
uv
uw
ux
uy
uygırsa
uz
v
v0
v1
v2
v3
v4
v5
v6
v7
v8
v9
va
val
valley
van
var
variety
varphi
vb
vc
vcc
vd
ve
vec
venatici
verlag
version
verwaltungsgemeinschaften
vf
vg
vh
vi
victoria
video
viertes
view
vii
viii
vila
villa
village
villages
ville
vincent
virgin
visual
vizier
vj
vk
vl
vm
vn
vo
vol
volume
von
vous
vp
vq
vr
vs
vt
vu
vv
vw
vx
vy
vz
w
w0
w1
w2
w3
w4
w5
w6
w7
w8
w9
wa
wall
walter
war
warner
wars
was
washington
watch
water
way
wb
wba
wbc
wbo
wc
wd
we
web
website
week
weekly
west
western
wf
wg
wh
what
when
where
which
white
who
why
wi
wiki
wikipedia
wiley
will
william
wilson
win
windows
winners
wins
with
wj
wk
wl
wm
wn
wo
woman
women
word
work
works
world
worldfootball
wp
wq
wr
ws
wt
wta
wu
wurttembergs
wv
ww
www
wx
wy
wz
x
x0
x1
x2
x3
x4
x5
x6
x7
x8
x9
xa
xb
xbox
xc
xd
xe
xf
xg
xh
xi
xii
xiii
xinjiang
xiv
xix
xj
xk
xl
xm
xn
xo
xp
xq
xr
xs
xt
xu
xv
xvi
xvii
xviii
xw
xx
xxi
xy
xz
y
y0
y1
y2
y3
y4
y5
y6
y7
y8
y9
ya
yahoo
yb
yc
yd
ye
year
years
yf
yg
yh
yi
yj
yk
yl
ym
yn
yo
york
you
young
your
youtube
yp
yq
yr
ys
yt
yu
yv
yw
yx
yy
yz
z
z0
z1
z2
z3
z4
z5
z6
z7
z8
z9
za
zakon
zb
zc
zd
ze
zf
zg
zh
zi
zingiber
zj
zk
zl
zm
zn
zo
zp
zq
zr
zs
zt
zu
zum
zv
zw
zwg
zx
zy
zz
{
|
}
~
£
¥
§
©
«
¬
®
¯
°
±
²
³
¶
·
º
»
¼
½
×
ß
æ
ð
÷
ø
þ
đ
ħ
ı
ł
ŋ
œ
ƒ
ɐ
ɑ
ɒ
ɔ
ə
ɛ
ɡ
ɨ
ɪ
ɹ
ɾ
ʁ
ʃ
ʊ
ʌ
ʒ
ʰ
ʲ
ʻ
ʾ
ʿ
˃
ˈ
ˌ
ː
˚
α
β
γ
δ
ε
ζ
η
θ
ι
κ
λ
μ
ν
ξ
ο
π
ρ
ς
σ
τ
υ
φ
χ
ψ
ω
ϕ
ϵ
а
аа
аақ
абаи
абаидан
абаиды
абаидың
абаитану
абаиға
абақ
абақтыға
аббас
абд
абдолла
абдрахманов
абдрахманова
абдул
абдулин
абдулла
абдуллаһ
абзал
абруццо
абс
абсолют
абсолютт
абсолютті
абсолюттік
абу
абхаз
абхазия
абыз
абыл
абылаи
абылаидың
абыралы
абырои
абыроилы
ав
аваллон
авангард
аванесов
авар
август
августа
аве
авеиру
авеллино
авен
авиация
авиациялық
авиацияның
авила
авр
авранш
аврора
австралия
австралияда
австралиялық
австралияның
австрия
австриялық
австрияның
авт
авто
автобус
автокөлік
автомат
автоматтандыру
автоматтандырылған
автоматты
автоматтық
автомобиль
автомобильдер
автомобильді
автомобильдің
автономды
автономдік
автономия
автономиялы
автономиялық
автономиясы
автономиясын
автономиясының
автор
автордың
авторитарлық
авторлар
авторлардың
авторлары
авторларының
авторлық
авторы
агент
агенттігі
агенттігінің
агенттік
агенттіктері
агенттіктің
агенті
агломерациясы
агломерациясында
аграрлы
аграрлық
агрегат
агрегаттар
агрегаттары
агрегаттық
агрессивті
агресте
агроклиматтық
агроном
агрономы
агротехникалық
агроөнеркәсіп
агроөнеркәсіптік
ад
ада
адаи
адал
адалдық
адам
адамгершілік
адамгершілікке
адамда
адамдар
адамдарда
адамдардан
адамдарды
адамдардың
адамдармен
адамдары
адамдарын
адамдарына
адамдарының
адамдарға
адамды
адамдық
адамзат
адамзатты
адамзаттық
адамзаттың
адамзатқа
адами
адаммен
адамнан
адамның
адамс
адамы
адамын
адамының
адамға
адасқан
адвокат
адидже
административно
адмирал
адольф
адрес
адресі
адыгея
ажал
ажар
ажыраиды
ажырамас
ажырап
ажырасып
ажырасқан
ажырата
ажыратады
ажырату
ажыратуға
ажыратылады
ажыратып
аз
аза
азаиды
азаитады
азаиту
азаитуға
азаитып
азаиып
азаиған
азамат
азаматтар
азаматтарды
азаматтардың
азаматтары
азаматтарына
азаматтарының
азаматтарға
азаматтығы
азаматтығын
азаматтық
азаматтың
азаматы
азан
азап
азапты
азат
азаттық
азаюы
азаюына
азая
азаяды
аздап
аздаған
азды
аздығы
азербаижан
азиз
азии
азия
азияда
азиядан
азиядағы
азиялық
азияны
азияның
азияға
азов
азот
азотты
азоттың
азу
азырақ
азығы
азығын
азық
азықтық
аи
аибын
аив
аигүл
аида
аидабол
аидаи
аидаитын
аидан
аидап
аидар
аидарлы
аидау
аидауда
аидахо
аидаһар
аиды
аидын
аидыны
аидынының
аидың
аижан
аила
аилар
аилары
аиларында
аиласы
аилығында
аилық
аиман
аиманов
аимауытов
аимағы
аимағын
аимағына
аимағынан
аимағында
аимағындағы
аимағының
аимақ
аимақта
аимақтан
аимақтар
аимақтарда
аимақтардан
аимақтардағы
аимақтарды
аимақтардың
аимақтары
аимақтарын
аимақтарына
аимақтарынан
аимақтарында
аимақтарындағы
аимақтарының
аимақтарға
аимақтағы
аимақты
аимақтық
аимақтың
аимаққа
аин
аина
аинабұлақ
аинала
аиналадағы
аиналады
аиналаиын
аиналар
аиналасы
аиналасын
аиналасына
аиналасында
аиналасындағы
аиналатын
аиналды
аиналдыра
аиналдырады
аиналдыратын
аиналдырды
аиналдыру
аиналдыруға
аиналдырып
аиналдырған
аиналма
аиналмалы
аиналу
аиналуы
аиналуына
аиналым
аиналымда
аиналымы
аиналымын
аиналымына
аиналымында
аиналымының
аиналымға
аиналып
аиналыс
аиналыса
аиналысады
аиналысатын
аиналыста
аиналысты
аиналысу
аиналысуға
аиналысы
аиналысының
аиналысып
аиналысқа
аиналысқан
аиналған
аинасы
аинымалы
аиова
аиран
аирес
аирылды
аирылып
аирылған
аирығы
аирық
аирықша
аисұлу
аит
аита
аитады
аиталық
аитамыз
аитар
аитарлықтаи
аитатын
аитбаи
аитматов
аитматовтың
аитпаи
аитса
аитсақ
аитты
аиттым
аиту
аитуды
аитулы
аитуы
аитуынша
аитуға
аитыла
аитылады
аитылатын
аитылды
аитылу
аитылуы
аитылып
аитылған
аитылғандаи
аитып
аитыпты
аитыс
аитыскер
аитыста
аитыстары
аитыстың
аитысы
аитысында
аитысқа
аитысқан
аитқан
аитқанда
аитқандаи
аитқаны
аитқанын
аифель
аиша
аишықты
аиы
аиыл
аиылдық
аиына
аиынан
аиында
аиындағы
аиының
аиып
аиыппен
аиыппұл
аиыптады
аиыптап
аиыптау
аиыпты
аиыр
аиыра
аиырады
аиырбас
аиырбастау
аиырма
аиырмасы
аиырмашылығы
аиырмашылығын
аиырмашылық
аиырмашылықтар
аиырмашылықтары
аиыртау
аиыру
аиыруға
аиырылады
аиырылды
аиырылып
аиырылған
аиырым
аиырымы
аиырып
аиырысу
аиырықша
аиға
аиғағы
аиғақ
аиғақтаиды
аиғыр
аиқап
аиқас
аиқын
аиқындады
аиқындаи
аиқындаиды
аиқындаитын
аиқындала
аиқындалады
аиқындалды
аиқындалып
аиқындалған
аиқындап
аиқындау
аиқындауға
ак
акад
академигі
академии
академик
академика
академия
академиялық
академияны
академияның
академиясы
академиясын
академиясына
академиясында
академиясының
акбар
аквитания
акино
аккад
аккумулятор
акср
акт
актер
актердің
актерлер
актерлердің
актерлік
актері
актив
активтер
активтерді
активті
актриса
актрисасы
актілер
актісі
акуила
акула
акулалар
акустикалық
акушерлік
акционерлік
акция
акциялар
акцияларды
акциялардың
акциялары
акцияларын
акцияларының
ал
ала
алабы
алабын
алабына
алабында
алабындағы
алабының
алабұға
алагоас
алады
алаи
алаида
алаиық
алакөл
аламан
аламыз
аламын
алан
алания
алансон
алап
алаптары
алаптың
алар
аласа
аласапыран
аласыз
алатау
алатауларында
алатауы
алатауында
алатауындағы
алатауының
алатын
алатындаи
алатынын
алатырь
алау
алауыздық
алаш
алаша
алашорда
алашорданың
алаштың
алақан
алаң
алаңда
алаңдар
алаңдары
алаңнан
алаңның
алаңы
алаңын
алаңына
алаңында
алаңындағы
алаңының
алаңға
алаңқаиы
албан
албания
алгарве
алгебра
алгебралық
алгоритм
алда
алдамшы
алдап
алдар
алдау
алдағы
алды
алдым
алдымен
алдын
алдына
алдынан
алдында
алдындағы
алдынғы
алдыңғы
алегри
алеи
алекс
александр
александра
александрия
александров
александрович
александровна
алексеев
алексеевич
алексеевка
алексеи
алентежу
алес
алессандрия
алжир
али
аликанте
алкогольді
алла
алладан
алланы
алланың
аллаға
аллаһ
аллаһтан
аллаһтың
аллаһу
аллаһқа
аллен
аллергиялық
аллювиилі
алма
алмады
алмаз
алмаи
алмаиды
алмаимыз
алмаимын
алмаисың
алмаитын
алмалы
алмас
алмаса
алмасады
алмастырды
алмастыру
алмастырылды
алмастырып
алмасу
алмасуды
алмасудың
алмасуы
алмасуын
алмасуына
алмасуының
алмасуға
алмасып
алматы
алматыда
алматыдан
алматыдағы
алматыкітап
алматылық
алматының
алматыға
алмау
алмауы
алмаған
алмақ
алмұрт
алпамыс
алпыс
алса
алсақ
алта
алтаи
алтаида
алтаидан
алтаидағы
алтаидың
алтаиға
алту
алты
алтын
алтынбеков
алтынды
алтынемел
алтынмен
алтыннан
алтынның
алтынсарин
алтынсариннің
алтыншы
алтынға
алу
алуан
алуда
алудан
алуды
алудың
алумен
алушы
алушылар
алушылардың
алушының
алушыға
алуы
алуын
алуына
алуға
алфавит
алшақ
алшын
алым
алымы
алынады
алынатын
алынбаған
алынды
алынса
алынуы
алынып
алынған
алып
алыпты
алыс
алыста
алыстан
алыстағы
алысып
алысқа
аль
альб
альберт
альбом
альбомның
альбомы
альбомын
альгои
алье
альпі
альпілік
альт
альта
альткирш
альто
альфа
альфред
альянс
алюминии
аляска
алға
алғабас
алған
алғанда
алғаннан
алғаны
алғанын
алғанға
алғаш
алғашкы
алғашында
алғашқы
алғашқыда
алғашқылардың
алғашқысы
алғы
алғыр
алғыс
алғысы
алқа
алқабы
алқабын
алқабында
алқабындағы
алқабының
алқап
алқапта
алқаптар
алқаптарда
алқаптары
алқаптарын
алқаптарында
алқапты
алқасы
алқасының
алқызыл
ам
амазонас
амал
амалдар
амалдары
амалы
амалын
аман
аманат
амангелді
аманжол
аманжолов
аманкелді
амбулатория
америка
америкада
америкадан
америкадағы
америкалық
америкалықтар
американ
американдық
американдықтар
американы
американың
америкасы
америкаға
амин
аммиак
аммонии
аморфты
амплитудасы
амстердам
амур
амштеттен
ан
ана
анадан
анадолы
аналар
аналардың
аналары
анализ
аналитикалық
аналығы
аналығының
аналық
аналықтары
ананың
анар
анастасия
анасы
анасымен
анасын
анасына
анасынан
анасының
анатолии
анатомия
анатомиялық
анатомиясы
анау
анаэробты
анаға
анағұрлым
англ
англия
англияда
англиядағы
англиялық
англиямен
англияның
англияға
ангола
анд
анда
андалусия
андели
андерсон
анджелес
анджелесте
андорра
андре
андреа
андреас
андреев
андреевич
андреи
андромеда
андронов
анемия
анимация
анимациялық
аниме
анкара
анна
анотомия
анри
ансамбль
ансамблі
ансамблінің
ант
антарктида
антенна
анти
антибиотиктер
антиген
антидене
антиденелер
антик
антика
антикалық
антон
антонии
антонимдері
антонио
антониу
антонов
антропогендік
антропология
антропологиялық
антуан
анхальт
анық
анықтады
анықтаи
анықтаиды
анықтаитын
анықталады
анықталатын
анықталды
анықталмаған
анықталуы
анықталып
анықталған
анықтама
анықтамаламық
анықтамалар
анықтамалығы
анықтамалық
анықтамасы
анықтамаңызды
анықтап
анықтау
анықтауда
анықтауды
анықтаудың
анықтауға
анықтаған
ао
аоста
ап
апа
апалы
апарады
апаратын
апарып
апасы
апат
апаттар
апатты
апаты
апатынан
апатқа
апельсин
апертура
апматы
аполлон
апостол
аппарат
аппараттар
аппараттары
аппаратты
аппараттық
аппараттың
аппараты
аппаратын
аппаратында
аппаратының
аппақ
апреля
апта
аптада
аптадан
апталық
аптаның
аптасына
аптаға
апулия
ар
ара
араб
арабия
арабиясы
арабиясының
арабтар
арабтардың
арабтың
арабша
арагон
арада
арадағы
араи
арал
аралап
аралар
аралары
араларында
аралас
араласа
араласады
араласты
араластыра
араластырады
араластыру
араластырып
араласу
араласуы
араласуымен
араласып
араласқан
аралбаи
аралда
аралдар
аралдарда
аралдарды
аралдардың
аралдары
аралдарын
аралдарына
аралдарында
аралдарының
аралды
аралдың
аралтөбе
аралы
аралын
аралына
аралынан
аралында
аралындағы
аралының
аралығы
аралығын
аралығына
аралығында
аралығындағы
аралық
аралықта
аралықтарында
аралықтарындағы
аралықтағы
аралықты
аралға
арам
арамшөп
арасан
арасы
арасын
арасына
арасынан
арасында
арасындағы
араға
арақ
арақатынасы
арақатынасын
арақашықтығы
арақашықтық
арба
арбау
аргау
аргентина
аргентиналық
аргентинаның
ардагер
ардагерлер
ардагерлері
ардагері
ардақты
арена
аренада
аржантан
арзан
аризона
аристов
аристотель
аристотельдің
арифметика
арифметикалық
арка
аркадии
арктикалық
аркуль
аркылы
арлан
арм
арман
армандаған
арманы
армения
арменияның
армии
армия
армияның
армиясы
армиясының
армор
армстронг
армян
армяндар
арн
арна
арнады
арнаиы
арналады
арналар
арналары
арналды
арналып
арналық
арналған
арнаның
арнап
арнасы
арнасын
арнасына
арнасынан
арнасында
арнасының
арнау
арнаулы
арнаға
арнаған
арнольд
ароматты
арпа
аррас
арре
аррондиссеман
арсенал
арслан
арт
арта
артады
артезиан
артем
артерия
артериялық
артиллерия
артиллериялық
артистері
артисі
артта
артты
арттыра
арттырады
арттыратын
арттырды
арттыру
арттыруға
арттырып
артур
артуы
артуына
арты
артына
артынан
артында
артынша
артып
артық
артықшылығы
артықшылық
артықшылықтары
артқа
артқан
артқы
ару
аруана
аруна
аруы
арх
архаикалық
архангел
архангель
архангельск
археи
археол
археолог
археология
археологиялық
археологтар
архив
архивировано
архимед
архит
архитектор
архитекторы
архитектура
архитектуралық
архитектурасы
арша
аршалы
ары
арыз
арылу
арын
арынды
арыс
арыстан
арыстанның
арық
арғы
арғын
арқа
арқалық
арқан
арқар
арқарлы
арқасы
арқасында
арқау
арқауы
арқылы
ас
аса
асады
асан
асанов
асар
асатын
асау
асбест
асдп
аскорбин
аскр
аспа
аспабы
аспады
аспаздық
аспаи
аспаиды
аспаитын
аспалы
аспан
аспанда
аспандағы
аспанды
аспаннан
аспанның
аспанға
аспап
аспаптар
аспаптарда
аспаптарды
аспаптардың
аспаптары
аспаптарын
аспаптарының
аспапты
аспаптық
аспаптың
аспауы
аспаған
аспектілері
аспирант
аспирантура
аспирантурасын
аспирантурасында
аспиранты
асса
ассамблея
ассамблеясы
ассамблеясының
ассирия
ассистент
ассистенті
ассоциация
ассоциациясы
ассоциациясының
асср
аст
астам
астамы
астамын
астана
астанада
астанадағы
астаналық
астананы
астананың
астанасы
астанасын
астанаға
астар
астарлы
астасып
асти
астон
астралылар
астрахан
астрахань
астрель
астроном
астрономдар
астрономия
астрономиялық
астрономы
астрофизика
асты
астына
астынан
астында
астындағы
астыртын
астық
астықты
астыңғы
асу
асуы
асхана
асханалық
асы
асыл
асылбек
асылдандыру
асып
асыра
асырады
асырап
асыратын
асырды
асыру
асыруда
асыруды
асырудың
асырушы
асыруға
асырылады
асырылатын
асырылды
асырылуда
асырылуы
асырылып
асырылған
асырып
асырған
асығыс
асық
асықты
асқа
асқабақ
асқазан
асқазанның
асқан
асқанадам
асқар
асқақ
асқорыту
асқын
асқынып
асқынған
ат
ата
атадан
атады
атаи
атаиды
атаимыз
атаитын
атала
аталады
аталары
аталатын
аталды
аталмыш
аталу
аталуы
аталып
аталығы
аталығының
аталық
аталықтары
аталған
атам
атаман
атамекен
атамұра
атан
атанады
атанды
атанып
атаның
атанған
атап
атасу
атасы
атасынан
атасының
ататын
атау
атауды
атаудың
атаулар
атауларды
атаулардың
атаулары
атауларын
атауларының
атаулы
атаулының
атаумен
атауы
атауымен
атауын
атауына
атауынан
атауының
атауға
атаға
атаған
атағы
атағымен
атағын
атағына
атағының
атақ
атақтары
атақты
атаққа
атбасар
атлант
атланта
атлантикалық
атлас
атласы
атлет
атлетик
атлетика
атлетикадан
атлетико
атмосфера
атмосферада
атмосферадағы
атмосфералық
атмосфераның
атмосфераға
атом
атомдар
атомдардың
атомдары
атомдарының
атомдық
атомның
атомы
атомының
атпен
атс
атсалысты
аттан
аттанады
аттанды
аттандырды
аттанып
аттанған
аттар
аттары
аттарын
аттас
аттестациялық
атты
аттың
ату
атуға
атф
аты
атылды
атылған
атым
атымен
атын
атына
атынан
атынд
атында
атындағы
атының
атып
атырау
атыс
атысты
атығаи
атқа
атқан
атқара
атқарады
атқаратын
атқарды
атқару
атқаруда
атқарушы
атқаруы
атқаруға
атқарылады
атқарылатын
атқарып
атқарған
атқылап
атқылау
атқылауы
атқыштар
ау
ауа
ауада
ауадан
ауадағы
ауамен
ауаны
ауаның
ауасы
ауаға
аубакиров
ауд
аудан
ауданда
аудандар
аудандарда
аудандардан
аудандардағы
аудандарды
аудандардың
аудандары
аудандарымен
аудандарын
аудандарына
аудандарынан
аудандарында
аудандарындағы
аудандарының
аудандарға
аудандастыру
аудандағы
ауданды
аудандық
ауданнан
ауданның
ауданы
ауданымен
ауданын
ауданына
ауданынан
ауданында
ауданындағы
ауданының
ауданға
аудара
аударады
аударарлық
аударатын
аударды
аударма
аудармалары
аудармасы
аудармашы
аудару
аударушылар
аударуы
аударуға
аударылады
аударылды
аударылып
аударылған
аударып
аударған
аударғанда
аударғандар
аудио
аудит
аудитория
аудиторлық
аузы
аузын
аузына
аузынан
аузында
аузындағы
аула
аулаиды
аулаитын
ауланады
аулап
аулау
аулаумен
аулауға
аулақ
аулы
аулында
аулының
аум
аумағы
аумағын
аумағына
аумағынан
аумағында
аумағындағы
аумағының
аумақ
аумақта
аумақтар
аумақтарда
аумақтарды
аумақтардың
аумақтары
аумақтарынан
аумақтағы
аумақты
аумақтық
аумақтың
аумаққа
аун
аургазин
ауру
аурудан
ауруды
аурудың
аурулар
аурулардан
ауруларды
аурулардың
аурулармен
аурулары
ауруларын
ауруларына
ауруларының
ауруларға
аурумен
аурухана
ауруханада
аурухананың
ауруханасы
ауруханасында
ауруханасының
ауруханаға
ауруы
ауруымен
ауруын
ауруына
ауруынан
ауруының
ауруға
аустралия
аустралияда
аустралиялық
аустралияның
аустрия
аустриядағы
аустриялық
ауыз
ауыздан
ауызды
ауыздың
ауызекі
ауызша
ауызға
ауыл
ауылда
ауылдан
ауылдар
ауылдарда
ауылдарды
ауылдардың
ауылдары
ауылдарын
ауылдарында
ауылдағы
ауылды
ауылдық
ауылдың
ауылшаруашылығы
ауылшаруашылық
ауылы
ауылын
ауылына
ауылынан
ауылында
ауылындағы
ауылындағысу
ауылының
ауылға
ауып
ауыр
ауырады
ауыратын
ауырлық
ауырсыну
ауыру
ауыруы
ауырып
ауырған
ауырғанда
ауысады
ауыспалы
ауысты
ауыстырады
ауыстырды
ауыстыру
ауыстыруы
ауыстыруға
ауыстырылады
ауыстырылды
ауыстырып
ауысу
ауысуы
ауысым
ауысып
ауысқан
ауытқиды
ауытқу
ауытқулар
ауытқуы
ауытқып
ауық
ауған
ауғанстан
ауғанстанда
ауғанстанның
ауқат
ауқатты
ауқымда
ауқымды
ауқымы
ауқымын
ауқымында
афина
афины
афк
африка
африкада
африкадан
африкадағы
африкалық
африканың
африкаға
ахмад
ахмади
ахмадия
ахмед
ахмет
ахметжан
ахметов
ахметова
ахметұлы
ахуал
ахун
ачинск
аш
аша
ашады
ашаршылық
ашатын
ашина
ашты
аштық
аштықтан
ашу
ашуды
ашуы
ашуға
ашхабад
ашыла
ашылады
ашылатын
ашылды
ашылу
ашылуы
ашылуына
ашылып
ашылған
ашылғаннан
ашып
ашыту
ашытқы
ашыған
ашық
ашқан
ашқаны
ащы
ащысаи
ащысу
аэродинамикалық
аэс
аю
аюлы
аягөз
аяз
аякс
аямаи
аян
аясы
аясын
аясына
аясында
аясындағы
аят
аяттан
аяттар
аяттары
аяулы
аяусыз
аяған
аяғы
аяғымен
аяғын
аяғына
аяғынан
аяғында
аяғындағы
аяғының
аяқ
аяқпен
аяқтады
аяқтаиды
аяқталады
аяқталатын
аяқталды
аяқталмаған
аяқталуы
аяқталуына
аяқталып
аяқталған
аяқталғаннан
аяқтап
аяқтары
аяқтарын
аяқтарының
аяқтау
аяқтаған
аяқтағаннан
аяқты
аяқтың
аяққа
аға
ағады
ағаиын
ағаиынды
ағалары
ағарту
ағартушы
ағартушылық
ағасы
ағасының
ағатын
ағаш
ағаштан
ағаштар
ағаштарды
ағаштардың
ағаштары
ағаштарының
ағашты
ағаштың
ағашы
ағашының
ағашқа
ағза
ағзада
ағзадағы
ағзалар
ағзалардың
ағзаларға
ағзалық
ағзаның
ағзасына
ағзаға
ағу
ағызып
ағыл
ағылш
ағылшын
ағылшындар
ағылшындардың
ағылшындық
ағылшынның
ағылшынша
ағым
ағымдар
ағымдағы
ағымның
ағымы
ағымына
ағымының
ағын
ағынды
ағынның
ағынсыз
ағыны
ағынымен
ағынын
ағынының
ағып
ағыс
ағысы
ағысын
ағысына
ағысында
ағысындағы
ағысының
ақ
ақаба
ақан
ақау
ақбас
ақбастау
ақбұлақ
ақжаиық
ақжал
ақжар
ақжол
ақиқат
ақиқатты
ақиқатқа
ақкөл
ақмешіт
ақмола
ақп
ақпан
ақпанда
ақпандағы
ақпанның
ақпанынан
ақпанында
ақпарат
ақпаратпен
ақпараттандыру
ақпараттар
ақпараттарды
ақпаратты
ақпараттық
ақпараттың
ақпараты
ақпаратқа
ақсаи
ақсақ
ақсақал
ақсақалдар
ақсу
ақсуат
ақсүиек
ақсүиектер
ақсүиектердің
ақсүиектері
ақсүиектерінің
ақтабан
ақталды
ақталған
ақтан
ақтар
ақтас
ақтасты
ақтау
ақтоғаи
ақтоқты
ақтық
ақтөбе
ақтөбеде
ақуыз
ақуыздар
ақш
ақша
ақшалаи
ақшалар
ақшалардың
ақшамен
ақшаны
ақшаның
ақшасы
ақшасын
ақшатау
ақшаға
ақши
ақшоқы
ақшыл
ақы
ақыл
ақылды
ақылы
ақылға
ақымақ
ақын
ақындар
ақындардың
ақындармен
ақындары
ақындарының
ақынды
ақындық
ақынның
ақыны
ақынға
ақыр
ақыры
ақырын
ақырына
ақырында
ақырғы
ақысы
ақысыз
ақысын
ақышев
аққаиың
аққан
аққу
аққулы
аққұдық
аққұм
аң
аңдар
аңдарды
аңдардың
аңды
аңның
аңсаған
аңшы
аңшылар
аңшылық
аңыз
аңызда
аңыздар
аңыздарда
аңыздары
аңызы
аңызға
аңырақаи
аңға
аңғар
аңғарлар
аңғарлары
аңғарларында
аңғартады
аңғаруға
аңғары
аңғарылады
аңғарына
аңғарында
аңғарындағы
аңғарының
аұп
б
ба
баб
баба
бабалар
бабалары
бабаларымыз
бабаның
бабасы
бабы
бабына
бабында
бабыр
бавария
бад
бадам
баден
баж
база
базалық
базальт
базар
базарбаев
базары
базасы
базасын
базасына
базасында
базасындағы
базасының
базель
базиликата
базистік
баи
баиден
баидың
баиер
баижанов
баижұманұлы
баизақ
баизақов
баикал
баилаиды
баиланады
баиланыс
баиланысады
баиланыссыз
баиланыста
баиланыстар
баиланыстарды
баиланыстардың
баиланыстары
баиланыстарын
баиланыстарының
баиланысты
баиланыстыра
баиланыстырады
баиланыстыратын
баиланыстыру
баиланыстырылады
баиланыстырып
баиланыстың
баиланысу
баиланысы
баиланысын
баиланысының
баиланысып
баиланысқа
баиланысқан
баиланған
баилап
баилар
баилардың
баилау
баилығы
баилығын
баилық
баилықтары
баилықтарын
баилықтың
баио
баионна
баирақ
баирон
баисалды
баисеиітов
баисеиітова
баит
баитақ
баитұрсынов
баитұрсынұлы
баишонас
баишу
баиырғы
баиыту
баия
баиғанин
баиқады
баиқаиды
баиқаимыз
баиқалады
баиқалатын
баиқалды
баиқалмаиды
баиқалып
баиқалған
баиқап
баиқатады
баиқау
баиқауда
баиқаудың
баиқаулар
баиқауы
баиқауына
баиқауында
баиқауының
баиқауға
баиқаған
баиқоңыр
баиұлы
бакалавр
бакалавриат
бакалавры
бакалин
бактериологиялық
бактерия
бактериялар
бактерияларды
бактериялардың
бактериялары
бактериялық
баку
бакуде
бал
бала
балабақша
балалар
балаларда
балаларды
балалардың
балалармен
балалары
балаларын
балаларына
балаларының
балаларға
балалы
балалық
балам
балама
баламалы
баламасы
балансы
баланы
баланың
балапан
балапандар
балапандарды
балапандары
балапандарын
баласағұн
баласы
баласын
баласына
баласының
балауса
балауыз
балаға
балаң
балды
балдырлар
балдырлардың
балдырған
балет
балетмеистер
балка
балкан
балл
баллада
баллистикалық
балпық
балта
балтачев
балтық
балуан
балшық
балшықпен
балшықтан
балшықты
балығы
балық
балықтар
балықтарды
балықтардың
балықтармен
балықтары
балықты
балықтың
балықшы
балықшылар
балыққа
балға
балғын
балқан
балқар
балқаш
балқитын
балқу
балқыту
балқытып
балқыған
бамбук
банан
бангладеш
бангладештің
банк
банкноттар
банктер
банктердің
банктік
банктің
банкі
банкілер
банкінің
бап
бапкер
бапкерлік
бапкерлікпен
бапкері
баптың
бар
бара
барабан
барады
барар
баратын
барақ
барбара
барды
баренц
бари
барии
барит
барланған
барлау
барлаушы
барлаушылар
барлаушысы
барлығы
барлығын
барлығына
барлығында
барлығының
барлық
бармақ
барнаул
барнауыл
барокко
барон
барри
барса
барселона
барселуш
бартольд
бару
баруға
барша
баршаға
баршылық
бары
барымта
барын
барынша
барып
барыс
барысы
барысын
барысында
барысындағы
барған
барғанда
барқыт
бас
баса
басады
басатын
баск
баска
баскетбол
баспа
баспагер
баспагерлері
баспадан
баспалдақ
баспана
баспасы
баспасынан
баспасында
баспасының
баспасөз
баспасөзде
баспахана
баспаханасы
баспаға
бассеин
бассеині
бассеинінің
баста
бастады
бастаиды
бастаитын
басталады
басталар
басталатын
басталды
басталу
басталуы
басталуына
басталып
басталған
басталғанда
басталғаннан
басталғанға
бастама
бастамасы
бастамасымен
бастан
бастап
бастапқы
бастапқыда
бастары
бастарын
бастарына
бастаса
бастау
бастаушы
бастауы
бастауымен
бастауын
бастауына
бастауынан
бастауында
бастауыш
бастауға
бастаған
бастағанда
бастағанын
бастия
басты
бастырып
бастысы
бастығы
бастығының
бастық
бастың
басу
басуға
басшы
басшылар
басшылары
басшыларын
басшыларына
басшыларының
басшылығы
басшылығымен
басшылығына
басшылығының
басшылық
басшылықты
басшылыққа
басшысы
басшысының
басы
басыбаилы
басылады
басылды
басылым
басылымда
басылымдар
басылымдарда
басылымдардың
басылымдары
басылымдарында
басылымның
басылымы
басылымының
басылып
басылған
басым
басымдылық
басымдық
басымен
басымырақ
басын
басына
басынан
басында
басындағы
басының
басып
басқа
басқада
басқадаи
басқалар
басқалардан
басқаларды
басқалардың
басқалармен
басқалары
басқаларға
басқан
басқаны
басқара
басқарады
басқаратын
басқарды
басқарма
басқармалары
басқарманың
басқармасы
басқармасына
басқармасында
басқармасының
басқару
басқаруда
басқаруды
басқарудың
басқарушы
басқарушысы
басқаруы
басқаруымен
басқаруға
басқарылады
басқарылатын
басқарып
басқарған
басқасы
басқаша
басқаға
басқыншыларына
басқыншылық
бат
бата
батальон
батальоны
батарея
батасын
батпақ
батпақты
бату
батыл
батылдық
батып
батыр
батырды
батырдың
батырлар
батырлардың
батырлары
батырларының
батырлық
батыры
батырып
батырға
батыс
батыста
батыстан
батыстағы
батыстық
батыстың
батысы
батысын
батысына
батысынан
батысында
батысындағы
батысқа
батқан
бау
баулу
баураиы
баураиында
баураиындағы
баурап
бауыр
бауырда
бауырдың
бауыржан
бауырлары
бауырлас
бауыры
бауырымен
бауырына
бах
бахреин
башқұрт
башқұртстан
башқұртстанның
башқұрттар
баязит
баялыш
баян
баянауыл
баяндаиды
баяндаитын
баяндалады
баяндалған
баяндама
баяндамалар
баяндап
баяндау
баяндауыш
баяндаған
баянды
баяу
баяғы
баға
бағалады
бағалаи
бағалаиды
бағаланады
бағаланды
бағаланып
бағаланған
бағалап
бағалар
бағалау
бағалауға
бағалаған
бағалы
бағамен
бағамы
баған
бағана
бағаналар
бағаналы
бағанасы
бағаны
бағаның
бағасы
бағасын
бағасына
бағасының
бағаға
бағдаламасының
бағдар
бағдарлама
бағдарламада
бағдарламалар
бағдарламаларды
бағдарламалардың
бағдарламалары
бағдарламаларын
бағдарламаларының
бағдарламаларға
бағдарламалау
бағдарламалық
бағдарламаны
бағдарламаның
бағдарламасы
бағдарламасын
бағдарламасына
бағдарламасында
бағдарламасының
бағдарламаға
бағдарланған
бағдарлау
бағдары
бағдат
бағу
бағы
бағынады
бағынатын
бағында
бағынды
бағындырды
бағындыру
бағындырып
бағынышты
бағыныңқы
бағынған
бағып
бағыт
бағытта
бағытталады
бағытталды
бағытталып
бағытталған
бағыттап
бағыттар
бағыттарда
бағыттарды
бағыттардың
бағыттары
бағыттарын
бағыттарының
бағыттау
бағыттаушы
бағыттағы
бағытты
бағыттың
бағыты
бағытымен
бағытын
бағытына
бағытында
бағытындағы
бағытының
бағытқа
бақ
бақа
бақан
бақанас
бақи
бақсы
бақтары
бақташы
бақтияр
бақты
бақтыбаи
бақша
бақшасараи
бақшасы
бақылаиды
бақылаитын
бақыланатын
бақылап
бақылау
бақылауда
бақылауды
бақылаудың
бақылаулар
бақылаушы
бақылауы
бақылауына
бақылауында
бақылауға
бақыт
бақытжан
бақытсыз
бақытты
бақыты
бақытқа
баққан
баңладештің
баңлаша
баһадүр
баә
бб
бе
бегім
бедел
беделге
беделді
беделі
беделін
бедер
бедердің
бедерленген
бедерлі
бедері
бедерін
бедеріне
бедерінің
бежа
без
безгек
бездер
бездердің
бездері
бездерінің
безді
бездің
безендіру
безендірілген
безье
безі
безінің
беи
беибарыс
беибіт
беибітшілік
беибітшілікті
беижің
беимәлім
беине
беинелеген
беинеледі
беинелеиді
беинелеитін
беинеленген
беинеленеді
беинелеп
беинелер
беинелерді
беинелері
беинелерін
беинелеу
беинелеуге
беинелі
беинені
беиненің
беинесі
беинесін
беинесінде
беинесіне
беинесінің
беинеу
беиорганикалық
беира
беиресми
беисбол
беисенбі
беисенбіде
беисенғалиев
беитаныс
беитарап
беиім
беиімбет
беиімделген
беиімделу
беиімделуі
беиімделіп
беиімділігі
беиімділік
беиіт
беиіті
бек
бекболат
бекболатұлы
бекер
бекет
бекеті
бекзат
бектібаев
бекінген
бекініп
бекініс
бекіністер
бекіністі
бекінісі
бекінісін
бекіре
бекітеді
бекітетін
бекіткен
бекітті
бекіту
бекітуге
бекітілген
бекітілді
бекітіледі
бекітілетін
бекітіліп
бекітіп
бел
беларусь
белая
белаяға
белбеу
белг
белгород
белград
белгі
белгілеген
белгіледі
белгілеиді
белгілеитін
белгіленген
белгіленді
белгіленеді
белгіленетін
белгіленуі
белгіленіп
белгілеп
белгілер
белгілерге
белгілерді
белгілердің
белгілермен
белгілері
белгілерімен
белгілерін
белгілеріне
белгілерінің
белгілеу
белгілеуге
белгілі
белгісі
белгісіз
белгісімен
белгісін
белгісіне
белгісінің
белдем
белдемде
белдемі
белдемінде
белдеу
белдеуде
белдеудің
белдеулер
белдеулерде
белдеулерінде
белдеуі
белдеуінде
белді
белдік
белебеев
белев
белесті
белең
белинскии
белл
белок
белоктар
белорет
белорус
белоруссия
белсенді
белсенділігі
белсенділігін
белсенділігінің
белсенділік
белсене
белу
белыи
бельгия
бельгиялық
бельгияның
белі
белімінің
бен
бенгал
бенджамин
бенедикт
бензин
бензол
бенфика
бер
берг
бергамо
берген
бергенде
бергені
бергі
берд
берді
бере
беред
береді
березники
березовка
береке
берел
беремін
берер
беретін
беретінін
бержерак
бериллии
беринг
берке
беркли
берлин
берлинде
берлиндегі
бермеген
бермеді
бермеи
бермеиді
бермеитін
бермек
бермеу
берн
бернд
берне
бернхард
бернштам
берсе
берсін
бертін
беру
беруге
беруде
беруден
беруді
берудің
берумен
беруші
берушілер
берушінің
беруі
беруін
беруіне
бері
берік
беріктігі
беріктігін
беріктік
берілген
берілді
беріле
беріледі
берілетін
берілмеген
берілмеиді
берілсе
берілу
берілуі
берілуін
беріліп
беріліс
беріп
беріпті
беріс
беріш
беріңіз
бес
бесжылдық
бескөл
бестен
бесік
бесінші
бесқарағаи
бет
бета
беташар
бетбұрыс
бетеге
бетегелі
бетке
беткеи
беткеилерде
беткеилері
беткеилерінде
беткеилік
беткеиі
беткеиінде
беткеиіндегі
беткеиінен
беткі
бетон
бетоннан
бетпақдала
бетпе
бетте
беттен
беттер
беттері
беттерін
беттерінде
беттерінен
беттерінің
бетті
беттік
беттің
бетюн
беті
бетімен
бетін
бетінде
бетіндегі
бетіне
бетінен
бетінше
бетінің
бешикташ
беғазы
би
библиографиялық
библиотека
бибі
биге
бидаи
бидаидың
бидаиық
биден
биді
бидің
бие
биекенов
бижбуляк
бизнес
бизнесмен
бизнесті
бизнестің
бизнесі
бикеш
бил
билеген
биледі
билеиді
билеп
билер
билердің
билері
билеу
билеуші
билеушілер
билеушілері
билеушілерінің
билеушісі
билл
билли
билігі
билігін
билігінде
билігіне
билігінің
билік
билікке
биліктен
билікті
биліктің
бин
бинт
биография
биографиясы
биол
биолог
биология
биологиялық
биологиясы
биоморфология
биосфера
биотехнология
биохимия
биохимиялық
бир
биржа
биржалық
биржасы
бирма
бируни
бит
битбург
бич
биші
бия
биязы
биі
биік
биікке
биікт
биіктеу
биіктігі
биіктігін
биіктігіне
биіктік
биіктікке
биіктікте
биіктіктегі
биіктіктен
бк
благовар
благовещен
благоевград
блкжо
блог
блогы
блок
блюз
бо
боак
боб
боз
бозащы
бозбала
бозторғаи
бозғылт
бои
боида
боидақ
боижеткен
боилаи
боилап
боиларында
боилы
боилық
боиы
боиымен
боиын
боиына
боиынан
боиында
боиындағы
боиынша
боиының
боиғы
бокс
боксит
бокстан
боксшы
боксшысы
бол
бола
болады
боламыз
боламын
болар
боларлық
болат
болаттан
болатты
болаттың
болатын
болатындаи
болатындығы
болатындығын
болатындықтан
болатыны
болатынын
болатынына
болашағы
болашағын
болашақ
болашақта
болашақтағы
болашақты
болашаққа
болг
болгар
болгария
болгариядағы
болды
болдым
болдырмау
болжаиды
болжам
болжамдар
болжамды
болжамдық
болжамы
болжап
болжау
болжауға
боливия
болма
болмады
болмаи
болмаиды
болмаитын
болмаитынын
болмас
болмаса
болмасын
болмау
болмауы
болмауына
болмашы
болмаған
болмағанда
болмағандықтан
болмағаны
болмақ
болмыс
болмысты
болмыстың
болмысы
болмысын
болонья
болса
болсам
болсақ
болсаң
болсын
болу
болуда
болудан
болуды
болудың
болумен
болуы
болуымен
болуын
болуына
болуынан
болуында
болуының
болуға
болымсыз
болып
болыпты
болыс
болыстар
болыстары
болыстық
болыстың
болысы
болысында
болысының
больцано
большая
большевик
большевиктер
большевиктік
большои
болған
болғанда
болғандаи
болғандар
болғандығы
болғандығын
болғандықтан
болғанмен
болғаннан
болғанша
болғаны
болғанымен
болғанын
болғанына
болғанға
болғысы
бомба
бомбалаушы
бон
бондюг
боп
бор
боралдаи
боран
борат
бордо
борис
борисович
бородулиха
борпылдақ
борсық
боруссия
борыш
борышын
бос
босап
босатады
босатты
босату
босатуға
босатылады
босатылды
босатылып
босатылған
босатып
босаға
босаған
босния
бостандығы
бостандығын
бостандығынан
бостандық
бостандыққа
бостон
босқа
босқындар
бота
ботаника
ботаникалық
ботақара
ботқа
боялады
боялған
бояу
бояулар
бояулармен
бояулы
бояумен
бояуы
бояуға
бояғыш
бояғыштар
брага
браганса
бразилия
бразилияда
бразилиядағы
бразилиялық
бразилияның
браиан
бранденбург
бранку
браун
браунау
брест
бретань
брешия
брив
бригада
бригадасы
бригадасының
бригадир
бригадирі
брие
британ
британдық
британия
бриуд
бродскии
брокгауз
бром
брондау
бронх
брук
брунеи
бруно
брусиловскии
брусиловскиидің
брюс
брюссель
брянск
бу
буа
будан
будандастыру
будапешт
будда
буддалық
будданың
буддизм
буды
будың
буздяк
буи
булаев
булану
буле
булонь
бур
бура
бурабаи
бураев
бургас
бургенланд
бургомистрі
бургундия
буржуазия
буржуазиялық
бурят
бутан
бухгалтер
бухгалтерлік
буш
буы
буылтық
буын
буындар
буындардың
буындары
буынды
буынның
буыны
буынға
буэнос
буға
был
былаи
былаиша
былғары
былғарыдан
бэкон
бэтмен
бюджет
бюджетке
бюджеттен
бюджетті
бюджеттік
бюджеттің
бюджеті
бюро
бюросы
бюросының
біз
бізбен
бізге
бізде
біздегі
бізден
бізді
біздің
біл
білге
білген
білгір
білдек
білді
білдірген
білдірді
білдіре
білдіреді
білдіретін
білдірмеиді
білдірсе
білдіру
білдіруге
білдіруі
білдіріп
біле
біледі
білезік
білеміз
білесің
білетін
білмеген
білмеи
білмеиді
білмеитін
білу
білуге
білудің
білуі
білік
білікті
біліктілігі
біліктілігін
біліктілік
біліктің
білім
білімге
білімдер
білімдерді
білімдерін
білімді
білімнің
білімі
білімін
білімінде
білімінің
білінеді
біліп
бір
біраз
біразы
бірак
бірауыздан
бірақ
бірақта
бірге
бірде
бірдеи
бірден
бірегеи
бірен
бірер
біресе
біреу
біреуге
біреуді
біреудің
біреулер
біреулері
біреуі
біреуін
біреуінде
біреуіне
біреуінің
біржан
біржақты
біржола
біржолата
біржылдық
біркелкі
бірлесе
бірлескен
бірлестігі
бірлестігінде
бірлестігіндегі
бірлестігіне
бірлестігінің
бірлестік
бірлестіктер
бірлестіктердің
бірлестіктері
бірлестіктің
бірлесіп
бірлігі
бірлігін
бірлігіне
бірлігінің
бірлік
бірлікке
бірлікте
бірліктер
бірліктердің
бірліктері
бірліктерінің
бірлікті
бірліктің
бірнеше
бірсыпыра
бірталаи
бірте
біртектес
біртекті
біртіндеп
біртұтас
біршама
бірыңғаи
бірі
біріге
бірігеді
бірігу
бірігуі
бірігуінен
бірігіп
біріккен
бірікті
біріктірген
біріктірді
біріктіре
біріктіреді
біріктіретін
біріктіру
біріктіруге
біріктірілген
біріктірілді
біріктіріледі
біріктіріліп
біріктіріп
бірімен
бірімжанов
бірін
бірінде
біріне
бірінен
бірінші
біріншіден
біріншілігі
біріншілігінде
біріншілігіне
біріншілігінің
біріншілік
біріншісі
бірінің
бірқалыпты
бірқатар
бірқатары
біте
бітеді
бітеу
біткен
біткеннен
бітті
бітім
бітімге
бітімі
бітіп
бітірген
бітіргеннен
бітірді
бітіреді
бітіріп
бішкек
бғм
бқо
бүгін
бүгінге
бүгінгі
бүгінде
бүгіп
бүирек
бүиректің
бүиір
бүиірлік
бүиірі
бүиірінде
бүиірінен
бүк
бүкіл
бүкілодақтық
бүкілресеилік
бүкіләлемдік
бүл
бүлдірген
бүлік
бүлінген
бүркеншік
бүркеніш
бүркіп
бүркіт
бүркітті
бүркіттің
бүтін
бүтіндеи
бұ
бұдан
бұдыр
бұдырлы
бұзады
бұзатын
бұзау
бұзды
бұзу
бұзушылық
бұзуға
бұзылады
бұзылды
бұзылу
бұзылуы
бұзылуына
бұзылуынан
бұзылып
бұзылыстар
бұзылған
бұзып
бұзған
бұзғаны
бұира
бұирығы
бұирығымен
бұирық
бұиым
бұиымдар
бұиымдарды
бұиымдардың
бұиымдары
бұиымдарын
бұиымдарының
бұиымдарға
бұиымды
бұиымның
бұиырады
бұиырды
бұиырғын
бұл
бұлаи
бұлаиша
бұлан
бұланды
бұланты
бұлар
бұларда
бұлардан
бұларды
бұлардың
бұларға
бұлағы
бұлақ
бұлақтар
бұлақтардан
бұлбұл
бұлжытпаи
бұлт
бұлттар
бұлшық
бұлшықет
бұлшықеттер
бұлшықеттері
бұлғар
бұлғын
бұнда
бұндаи
бұны
бұның
бұрды
бұру
бұршақ
бұрылу
бұрылып
бұрын
бұрыннан
бұрынғы
бұрынғыдаи
бұрынғыдан
бұрып
бұрыс
бұрыш
бұрышпен
бұрыштар
бұрыштары
бұрышты
бұрыштық
бұрыштың
бұрышы
бұрышын
бұрышына
бұрышында
бұрышының
бұрышқа
бұрыңғы
бұрғы
бұрғылау
бұрғышы
бұрғышының
бұта
бұталар
бұталардың
бұталы
бұтағы
бұтағынан
бұтақ
бұтақталған
бұтақтары
бұтақты
бұхар
бұхара
бұхари
бұғаз
бұғазы
бұған
бұғы
бұқа
бұқар
бұқара
бұқаралық
бұқараның
бұқтырма
бұұ
бәибіше
бәибішесі
бәиге
бәигеге
бәидібек
бәитерек
бәкір
бәлкім
бәрі
бәрібір
бәрін
бәрінде
бәріне
бәрінен
бәрінің
бәсеке
бәсекеге
бәсекелес
бәсекелестік
бәсекелестікті
бөбекжаи
бөгде
бөген
бөгенбаи
бөгені
бөгет
бөгеттер
бөдене
бөкеи
бөкеихан
бөкеиханов
бөкен
бөкетов
бөктерінде
бөл
бөлген
бөлгіш
бөлді
бөле
бөледі
бөлек
бөленген
бөленді
бөлетін
бөлме
бөлмеге
бөлмеде
бөлмеден
бөлмелер
бөлмелердің
бөлмелері
бөлмелі
бөлменің
бөлмесі
бөлтірік
бөлу
бөлуге
бөлуді
бөлудің
бөлшегі
бөлшек
бөлшектеп
бөлшектер
бөлшектерге
бөлшектерден
бөлшектерді
бөлшектердің
бөлшектері
бөлшектерін
бөлшектерінің
бөлшектің
бөлігі
бөлігімен
бөлігін
бөлігінде
бөлігіндегі
бөлігіне
бөлігінен
бөлігінің
бөлік
бөлікке
бөлікте
бөліктен
бөліктер
бөліктерге
бөліктерден
бөліктердің
бөліктері
бөліктерін
бөліктерінде
бөліктеріне
бөліктерінен
бөліктерінің
бөлікті
бөліктің
бөлім
бөлімге
бөлімде
бөлімдер
бөлімдерден
бөлімдердің
бөлімдері
бөлімдерін
бөлімдерінде
бөлімдеріне
бөлімдерінің
бөлімді
бөлімнен
бөлімнің
бөлімше
бөлімшелер
бөлімшелердің
бөлімшелері
бөлімшелерінің
бөлімшенің
бөлімшесі
бөлімшесін
бөлімшесінде
бөлімшесінің
бөлімі
бөлімін
бөлімінде
бөліміне
бөлімінен
бөлімінің
бөлінбеген
бөлінбеиді
бөлінбеитін
бөлінген
бөлінді
бөліне
бөлінеді
бөлінетін
бөліну
бөлінуі
бөлінуін
бөлінуіне
бөлінуінің
бөлініп
бөлініс
бөлінісі
бөліп
бөлісті
бөлісу
бөрлі
бөртпе
бөрі
бөрік
бөрілі
бөтен
в
ва
вавилон
вага
вагнер
вагон
вадим
ваз
ваидхофен
ваинштрассе
вакуум
вакуумдық
вакцина
валенсия
валентин
валентина
валентті
валенттік
валерии
вали
валле
валь
валье
вальтер
валюта
валюталық
валютаның
валютасы
ван
ванадии
ванкувер
ванн
варезе
варна
варшава
василии
васильев
васильевич
васильевна
васко
васюган
васюганнан
васюганға
ватикан
вах
вахқа
вашингтон
вв
веб
вебер
вега
вегетативті
вегетативтік
ведомости
ведомстволық
веимар
века
вексель
вектор
векторлық
векторы
веле
велико
великои
велосипед
вена
венада
венгр
венгрия
венера
венесуэла
венето
венеция
вера
верде
верден
верди
вернер
верныи
верона
вероника
версаль
вертикаль
верховного
вест
вестервальд
вестник
вестфалия
ветеринария
ветеринарлық
ветлуга
взвод
виана
видео
видин
византия
византиялық
визеу
визуалды
виктор
виктория
викторович
вила
вилен
вилла
вилли
виль
вильгельм
вильнев
вильнюс
виноградов
винсент
винчи
вир
виргиния
вирджиния
виртуалды
вирус
вирусология
вирустар
вирустардың
вирусты
вирустық
вирустың
вирусы
вис
висенте
виска
висла
висмут
виталии
витамин
витаминдер
витамині
витебск
витория
вице
виченца
виши
вконтакте
владимир
владимирович
владимировна
владислав
во
вогез
вож
вои
воина
воины
вокал
вокалды
вокалдық
волга
волгоград
волеибол
вологда
володар
волошин
вольтер
вольф
вольфганг
вольфрам
вон
вопросы
ворона
воронеж
воронов
ворошилов
восток
востока
восточныи
воткин
воуга
враца
время
все
вт
вулкандық
вып
вычегда
вьенна
вьетнам
вюртемберг
вятка
вячеслав
г
га
габбро
габриэль
габрово
гаваи
гагарин
газ
газбен
газдар
газдарды
газдардың
газды
газдық
газдың
газет
газета
газетте
газеттер
газеттерде
газеттері
газеттерінде
газеттерінің
газеттің
газеті
газетін
газетінде
газетіне
газетінің
газы
газын
газының
газға
гаи
гаиана
гаити
галактика
галактикалар
галактикалардың
галактикалық
галактиканың
галатасараи
галерея
галереясы
галилеи
галина
галисия
галлен
гамбург
гамильтон
гамлет
гамма
гана
ганг
ганди
гар
гарвард
гармоникалық
гаронна
гарри
гастрольдік
гаусс
гауһар
гафурии
гаярд
гб
гвадалахара
гвардия
гвардиялық
гватемала
гвинея
гг
гдр
ге
гегель
геи
гектар
гектардан
гектарынан
гектарға
гелии
гемоглобин
геморрагиялық
ген
гендер
гендердің
гендерлік
гендік
генерал
генералы
генератор
генераторы
генетик
генетика
генетикалық
генетикасы
гензерндорф
геннадии
генри
генрих
генуя
геоақпараттық
геогр
географ
географии
географическии
география
географиялық
географияның
географиясы
географы
геодезия
геодезиялық
геол
геолог
геология
геологиялық
геологиясы
геологтар
геологы
геометрия
геометриялық
геоморфологиялық
георг
георгиевич
георгии
геосаяси
геофизика
геофизикалық
геохимиялық
геракл
герберт
гере
гереи
гереидің
геркулес
герман
германдық
германии
германия
германияда
германиядан
германиядағы
германиялық
германиямен
германияны
германияның
германияға
геродот
герои
героя
герхард
герцеговина
герцин
герцог
герцогы
гершель
гессен
гете
гз
ги
гигиена
гигиеналық
гигиенасы
гидра
гидравликалық
гидрогеология
гидрогеологиялық
гидродинамикалық
гидрологиялық
гидростатикалық
гидротехникалық
гииом
гильманов
гималаи
гимараинш
гимназия
гимнастика
гипотеза
гипс
гиссен
гитара
гитлер
глава
глазго
глинка
глобус
глубокое
глюкоза
гмюнд
го
гоголь
гогольдің
год
года
годы
гоиас
гол
голдар
голдардың
голды
голдың
голланд
голландия
голландиялық
голливуд
голощекин
голы
голын
гольджи
гольф
гольштеин
гомер
гондурас
гонконг
горбачев
гордон
горизонт
горизонталь
гормондар
горна
горно
город
города
горькии
горькиидің
горьков
государства
государственныи
готикалық
гояс
гр
гравитациялық
градус
градусқа
грамм
грамматика
грамматикалық
грамматикасы
грамоталарымен
грамотасы
грамотасымен
гран
гранада
гранд
гранди
гранит
граниттен
гранитті
грант
граубюнден
граф
график
графика
графикалық
графикасы
графикасына
графиктік
графит
графы
грац
греис
грек
грекия
грекияда
грекияның
гректер
гректердің
гректің
грекше
гренландия
григориан
григории
григорьевич
грин
грозныи
грос
гросу
грузин
грузия
грузияның
грунт
грэмми
гу
гуарда
губ
губернатор
губернаторы
губернаторының
губерниялық
губерниясы
губерниясында
губерниясының
гуманизм
гуманистік
гуманитарлық
гумилев
гурьев
густав
гфр
гц
гэмпшир
гюнтер
гі
гүл
гүлдеген
гүлдеиді
гүлден
гүлденген
гүлдену
гүлдеп
гүлдер
гүлдері
гүлдерінің
гүлдеу
гүлді
гүлдің
гүлстан
гүлшоғыры
гүлшоғырына
гүлі
гүлінің
гөрі
д
да
дабыл
давид
давлекан
даи
даиын
даиындады
даиындаиды
даиындаитын
даиындалады
даиындалатын
даиындалды
даиындалу
даиындалып
даиындалған
даиындап
даиындау
даиындауда
даиындаудың
даиындауға
даиындаған
даиындығы
даиындығын
даиындық
даиырбеков
дакс
дала
далабаева
далада
даладағы
далалы
далалық
даланы
даланың
даласы
даласын
даласына
даласында
даласындағы
даласының
далаға
даллас
дамаск
дами
дамиды
дамитын
даму
дамуда
дамуды
дамудың
дамушы
дамуы
дамуымен
дамуын
дамуына
дамуында
дамуындағы
дамуының
дамуға
дамыды
дамымаған
дамып
дамыта
дамытады
дамытты
дамыту
дамытуда
дамытудағы
дамытуды
дамытудың
дамытуға
дамытып
дамытқан
дамыған
дан
дана
даналық
данасы
даниэль
дания
даниялық
данияның
данияр
данлоп
данных
данышпан
дар
дара
даралық
дарвин
дарии
дария
дариға
дармштадт
дархан
дарын
дарынды
дарға
дарқанбаев
дас
дастан
дастанда
дастандар
дастандары
дастанның
дастаны
дастанын
дастанында
дастанының
дастарқан
дастарқанға
дат
дата
датқа
дау
даулы
даун
даусы
даусыз
дауы
дауыл
дауыс
дауыспен
дауыссыз
дауыссыздар
дауыстап
дауысты
дауыстылар
дауысы
дауысын
дауысқа
даяр
даярлаиды
даярлаитын
даярланады
даярлау
даярлауға
даярлық
дағдарыс
дағдарысты
дағдарыстың
дағдарысы
дағдарысқа
дағды
дағдыларын
дағдылы
дағы
дағыстан
дақ
дақтар
дақтары
дақты
дақыл
дақылдар
дақылдарды
дақылдардың
дақылдары
дақылдарын
дақылдарының
даңғыл
даңғылы
даңғылынан
даңқ
даңқты
даңқы
даңқын
даңққа
двина
двинск
дворян
дд
де
дебют
дебюттік
дебюті
дебютін
дева
девон
девонның
деген
дегенге
дегенде
дегендеи
дегенді
дегенмен
дегеннен
дегеннің
дегені
дегеніміз
дегі
деді
деи
деиді
деиміз
деитін
деиін
деиінгі
декабря
декан
деканның
деканы
декарт
декларация
декларациясы
дел
делдалдық
делегат
делегаты
деления
дели
дель
дельфин
дельфиндер
делювиилі
делінген
делінеді
делінетін
делінсе
дем
дема
демалу
демалыс
демалысқа
демек
демеушілік
демография
демографиялық
демокр
демократ
демократия
демократиялық
демократияның
демократтар
ден
дене
денеге
денеде
денедегі
денеден
денелер
денелердің
денелері
денелерінің
денелі
денені
дененің
денесі
денесімен
денесін
денесінде
денесіндегі
денесіне
денесінен
денесінің
денешынықтыру
дени
денис
денисов
денсаулығы
денсаулығын
денсаулығына
денсаулығының
денсаулық
денсаулықты
денсаулыққа
денудациялық
день
дені
деп
департамент
департаменттер
департаменттерінің
департаменттің
департаменті
департаментінде
департаментінің
депп
депрессия
депті
депутат
депутаттар
депутаттары
депутаттарының
депутаты
дер
дербент
дербес
дерегі
дерек
дереккөз
дереккөздер
дереккөзі
дереккөзінен
деректер
деректерге
деректерде
деректерді
деректердің
деректермен
деректері
деректерін
деректерінде
деректеріне
деректі
дереу
дерлік
дернәсіл
дернәсілдері
дернәсілі
дерт
дерттің
десант
десе
деседі
десек
десең
детеи
детектив
деу
деуге
деформация
дешті
деңгеи
деңгеиге
деңгеиде
деңгеидегі
деңгеиден
деңгеилері
деңгеилі
деңгеиі
деңгеиімен
деңгеиін
деңгеиінде
деңгеиіндегі
деңгеиіне
деңгеиінен
деңгеиінің
дж
джаз
джастин
джеи
джеимс
джеин
джеисон
джек
джексон
дженнифер
джерси
джессика
джефферсон
джим
джимми
джин
джо
джованни
джозеф
джон
джонатан
джонни
джонс
джонсон
джордан
джордж
джорджия
джош
джузеппе
джулия
джульетта
дзюдо
ди
диагноз
диагностика
диагностикалық
диагностикасы
диаграмма
диаграммасы
диалект
диалектика
диалектикалық
диалектілері
диалектісі
диалог
диам
диаметрі
диана
диапазоны
диаспорасы
диваев
дивизион
дивизионда
дивизионы
дивизионында
дивизия
дивизиясы
дивизиясының
дидактикалық
дидар
диего
диета
дижон
дизаин
дизаинер
дизаины
дизель
диктор
дин
дина
динамикалық
динамикасы
динамикасын
динамо
динан
динара
диннің
динозавр
динозаврлар
диплом
дипломанты
дипломат
дипломатия
дипломатиялық
дипломмен
дипломымен
дипломын
директор
директордың
директорлар
директоры
директорының
дирижер
дирижері
диск
дискретті
дисплеи
дисс
диссертация
диссертациялық
диссертациясын
диссертациясының
дитер
диуани
дифференциалды
дифференциалдық
диффузия
диффузиялық
диірмен
диқан
для
дм
дмитриевич
дмитрии
днепр
днепропетровск
днк
днқ
до
добрич
добы
докт
доктор
докторантура
докторлық
докторы
документов
документі
дол
долана
долган
долл
доллар
доллардан
долларды
доллары
долларын
долларына
долларға
доломит
дом
домалақ
домбыра
домбырашы
доминантты
доминикан
домна
дон
дональд
донецк
доп
допты
дордонь
дортмунд
дору
дос
доси
досмұхамедов
досмұхамедұлы
доссор
достар
достары
достарының
достастық
достоевскии
достығы
достық
досы
доуру
доцент
доценті
доға
доғал
доңғалақ
доңғалақты
др
драма
драмалық
драмасы
драмасында
драматург
драматургия
дрезден
дружба
ду
дуадақ
дуалмен
дубаи
дуглас
дулат
дулати
дулатов
дулыға
дума
думан
дунаи
дус
душ
душанбе
душар
дуэт
ды
дыбыс
дыбыстан
дыбыстар
дыбыстарды
дыбыстардың
дыбыстары
дыбыстарының
дыбысты
дыбыстық
дыбыстың
дыбысы
дыбысқа
дымқыл
дық
дың
дье
дьеп
дэвид
дэвис
дэн
дэниел
дю
дюим
дюк
дюнкерк
дюссельдорф
ді
дін
дінге
діндар
діндер
діндердің
дінді
діни
діннің
дінтану
діні
дінін
дінінде
дініндегі
дініне
дінінің
діріл
дің
діңгек
дүисенбіде
дүкен
дүкендер
дүкені
дүлеи
дүнген
дүние
дүниеге
дүниеде
дүниедегі
дүниеден
дүниежүз
дүниежүзі
дүниежүзілік
дүниежүзіндегі
дүниежүзіне
дүниелер
дүниелік
дүниені
дүниенің
дүниесі
дүниесін
дүниесіне
дүниесінің
дүниетаным
дүниетанымдық
дүниетанымы
дүр
дүркін
дұрыс
дұрыстығын
дұшпан
дұға
дәиекті
дәл
дәлдігі
дәлдігін
дәлдікпен
дәлел
дәлелдеген
дәлелдеді
дәлелдеи
дәлелдеиді
дәлелдеитін
дәлелденген
дәлелденді
дәлелдеп
дәлелдер
дәлелдеу
дәлелдеуге
дәлелді
дәлелі
дәлме
дәліз
дәлірек
дәм
дәмдеуіштер
дәмді
дәмі
дәмін
дән
дәнді
дәндібаи
дәнекер
дәні
дәреже
дәрежеге
дәрежеде
дәрежедегі
дәрежелері
дәрежелі
дәрежесі
дәрежесімен
дәрежесін
дәрежесінде
дәрежесіне
дәрежесінің
дәрет
дәрмек
дәрмектер
дәрменсіз
дәрумендер
дәрумені
дәрі
дәрігер
дәрігерге
дәрігердің
дәрігерлер
дәрігерлердің
дәрігерлік
дәрігері
дәрілер
дәрілерді
дәрілік
дәріні
дәріс
дәрістер
дәрісі
дәріхана
дәстүр
дәстүрге
дәстүрді
дәстүрдің
дәстүрлер
дәстүрлерді
дәстүрлері
дәстүрлерін
дәстүрлі
дәстүрлік
дәстүрі
дәстүрін
дәстүрінде
дәстүріне
дәстүрінің
дәу
дәулет
дәулеткереи
дәулетті
дәурен
дәуір
дәуірге
дәуірде
дәуірдегі
дәуірден
дәуірдің
дәуірлерде
дәуірі
дәуірімізге
дәуірін
дәуірінде
дәуіріндегі
дәуіріне
дәуірінен
дәуірінің
дәуіт
дөп
дөрекі
дөң
дөңгелек
дөңгелекті
дөңгеленген
дөңес
е
ева
евгении
евклид
евразия
евре
евреи
евреилер
евреилердің
европалық
ега
еган
егде
егеді
егемен
егеменді
егемендігі
егемендік
егер
егерде
егеубаева
егжеи
египет
египетте
его
егор
егу
егіз
егіздер
егілген
егіледі
егілетін
егін
егіндібұлақ
егіндікөл
егінші
егіншілер
егіншілік
егіншілікке
егіншілікпен
егіншіліктің
егіп
егіс
егістік
егістікке
ед
еден
еденге
еді
едіге
едік
еділ
еділге
еділдің
едім
едің
едәуір
ее
ежелгі
ежелден
ез
еи
ек
екатерина
екатеринбург
екатте
екен
екендігі
екендігін
екендігіне
екенсің
екені
екенін
екеніне
екеу
екеуі
екеуін
екеуінде
екеуіне
екеуінің
екпе
екпін
екпінді
екі
екібастұз
екіге
екіден
екіжақты
екілік
екінші
екіншіден
екіншілік
екіншісі
екіншісін
екіншісінде
екіншісіне
екіншісінің
ел
еламан
елбасы
елбасының
елга
елге
елд
елде
елдегі
елден
елдер
елдерге
елдерде
елдердегі
елдерден
елдерді
елдердің
елдермен
елдері
елдерімен
елдерін
елдерінде
елдеріндегі
елдеріне
елдерінен
елдерінің
елді
елдік
елдің
елек
елена
елес
елестету
елеулі
елеусіз
елизавета
елорда
елордасы
елтаи
елтаңбасы
елу
елші
елшілігі
елшілігінің
елшілік
елшісі
ель
ельп
елі
елік
еліктеу
елім
еліміз
елімізде
еліміздегі
еліміздің
елін
елінде
еліндегі
еліне
елінен
елінің
ем
ембі
ембімұнаи
емдеген
емдеиді
емдеитін
емделу
емдеу
емдеуге
емдеуде
емдеудің
емдік
емен
емес
емеспін
еместігі
еместігін
емле
емтихан
емхана
емші
емі
емін
ен
енбеиді
енг
енген
енгізген
енгізді
енгізеді
енгізу
енгізуге
енгізуді
енгізілген
енгізілді
енгізіледі
енгізілетін
енгізілуі
енгізіліп
енгізіп
ендеше
енді
ендігі
ендік
ендіктерде
ендіру
ене
енеді
енетін
енжар
енисеи
енсіз
ену
енуі
енуіне
еншілес
ені
еніп
ео
епиналь
епископ
ер
ералиев
ералы
ербол
ергежеилі
ерген
ерден
ердің
ереван
ереже
ережеге
ережелер
ережелерге
ережелерді
ережелері
ережелерін
ережелеріне
ережені
ережесі
ережесін
ереиментау
ерекше
ерекшел
ерекшеленген
ерекшеленді
ерекшеленеді
ерекшеленетін
ерекшеленіп
ерекшелігі
ерекшелігімен
ерекшелігін
ерекшелігіне
ерекшелік
ерекшеліктер
ерекшеліктерді
ерекшеліктері
ерекшеліктерімен
ерекшеліктерін
ерекшеліктеріне
ерекшеліктерінің
ерен
ересек
ересектер
ереуіл
ержан
ержанов
ержүрек
ериді
еритін
ерк
ерке
еркебаи
еркегі
еркек
еркектер
еркі
еркімен
еркін
еркіндігі
еркіндігін
еркіндік
ерлан
ерлер
ерлерге
ерлердің
ерлері
ерлі
ерлігі
ерлігімен
ерлігін
ерлік
ерлікпен
ерліктері
ермак
ермек
ермеков
ерназар
ернеуі
ерстен
ерте
ертегі
ертегілер
ертегілері
ертегісі
ертеде
ертедегі
ертеден
ертерек
ертеректе
ертеректегі
ертең
ертіп
ертіс
ертіске
ертістен
ертістің
еру
еруі
ері
еріген
ерік
еріксіз
ерікті
ерімеиді
ерімеитін
ерін
ерінді
еріп
еріткіш
ерітілген
ерітінді
ерітіндіге
ерітіндіде
ерітіндідегі
ерітінділер
ерітінділердің
ерітінділері
ерітіндінің
ерітіндісі
ерітіндісімен
ерітіндісін
ерітіп
ерғалиев
ес
есбол
есе
есебі
есебімен
есебін
есебінде
есебіне
есебінен
есеге
есек
еселі
есен
есенов
есеп
есепке
есеппен
есепте
есептеген
есептегенде
есептеді
есептеиді
есептеитін
есептелген
есептелді
есептеледі
есептелетін
есептелінеді
есептеліп
есептеп
есептер
есептерді
есептеу
есептеуге
есептеудің
есептеулер
есептеуіш
есепті
есептік
есептің
есепші
есесіне
есет
еске
ескелді
ескендір
ескене
ескерген
ескере
ескеретін
ескерсек
ескертеді
ескертк
ескерткіш
ескерткіштер
ескерткіштерді
ескерткіштердің
ескерткіштері
ескерткіштерін
ескерткіштерінде
ескерткіштерінің
ескерткішті
ескерткіштің
ескерткіші
ескерту
ескеру
ескерілген
ескеріледі
ескеріліп
ескеріп
ескі
ескірген
ескіше
ест
есте
естелік
естеліктер
естеліктері
естен
есту
естіген
естіледі
естіп
есі
есігі
есігін
есік
есікті
есіктің
есіл
есілге
есім
есімдер
есімдері
есімді
есімнің
есімі
есімімен
есімін
есін
есінде
есіне
есінен
есірткі
ет
ете
етегі
етегінде
етегіндегі
етегіне
етегінен
етед
етеді
етек
етене
ететін
ететінін
етке
еткен
еткенде
еткені
етпеи
етпеиді
етпеитін
етсе
еттен
еттер
еттердің
еттері
еттерінің
етті
еттің
ету
етуге
етуде
етуді
етудің
етумен
етуші
етуі
етуімен
етуін
етуіне
етуінің
еті
етік
етілген
етілді
етіледі
етілетін
етілмеген
етілмеиді
етілуі
етіліп
етін
етінен
етінің
етіп
етістік
етістіктер
етістіктің
еуразия
еуразиялық
еуразияның
еуро
еуропа
еуропада
еуропадан
еуропадағы
еуропалық
еуропалықтар
еуропаны
еуропаның
еуропаға
еуроға
еш
ешбір
ешкі
ешкім
ешкімге
ешкімді
ешкімнің
ешкінің
ештеңе
ешқаисысы
ешқандаи
ешқашан
еқыұ
ең
еңб
еңбег
еңбегі
еңбегімен
еңбегін
еңбегінде
еңбегіне
еңбегінің
еңбек
еңбекақы
еңбекке
еңбекпен
еңбекте
еңбектегі
еңбектер
еңбектерде
еңбектердің
еңбектері
еңбектерімен
еңбектерін
еңбектерінде
еңбектеріне
еңбектерінен
еңбектерінің
еңбекті
еңбектің
еңбекші
еңбекшілер
еңбекшілердің
еңбекшіқазақ
еңлік
еңіс
еңістігі
ж
жа
жабады
жабаиы
жабағылы
жабдыктары
жабдығы
жабдық
жабдықталады
жабдықталған
жабдықтар
жабдықтарды
жабдықтардың
жабдықтармен
жабдықтары
жабдықтарын
жабдықтау
жабу
жабуға
жабылады
жабылатын
жабылды
жабылып
жабылған
жабын
жабыны
жабысып
жабысқақ
жабық
жад
жадтың
жады
жадында
жаз
жаза
жазады
жазалау
жазалаушы
жазаны
жазасы
жазасын
жазасына
жазатын
жазаға
жазба
жазбалар
жазбаларда
жазбаларды
жазбалары
жазбаларында
жазбасы
жазбаша
жазда
жазды
жаздық
жаздың
жазу
жазуда
жазуды
жазудың
жазулар
жазулары
жазумен
жазушы
жазушылар
жазушылардың
жазушылары
жазушыларының
жазушының
жазушысы
жазуы
жазуымен
жазуын
жазуына
жазуының
жазуға
жазы
жазылады
жазылатын
жазылды
жазылу
жазылуы
жазылып
жазылған
жазында
жазып
жазығы
жазығында
жазығының
жазық
жазықсыз
жазықта
жазықтар
жазықты
жазықтығы
жазықтығына
жазықтық
жазықтықта
жазықтықтағы
жазыққа
жазған
жазғы
жаи
жаиды
жаилап
жаилар
жаилау
жаилауы
жаилауға
жаилаған
жаилы
жаипақ
жаисаң
жаит
жаиы
жаиылады
жаиылма
жаиылмалық
жаиылмасы
жаиылмасында
жаиылым
жаиылымдар
жаиылымдарды
жаиылымдық
жаиылымы
жаиылымына
жаиылымға
жаиылып
жаиылған
жаиын
жаиында
жаиындағы
жаиып
жаиық
жаиықтың
жаиған
жак
жал
жала
жалаиыр
жалау
жалағаш
жалақы
жалақысы
жалаң
жалаңаш
жалаңтөс
жалбыз
жалдамалы
жалдау
жалпақ
жалпақтау
жалпы
жалпылама
жалпылық
жалпыхалықтық
жалпыға
жалпықазақ
жалпыұлттық
жалтыр
жалы
жалын
жалынды
жалға
жалған
жалғанады
жалғанған
жалғаса
жалғасады
жалғасатын
жалғасты
жалғастыра
жалғастырады
жалғастыратын
жалғастырды
жалғастыру
жалғастыруда
жалғастырушы
жалғастыруға
жалғастырып
жалғастырған
жалғасуда
жалғасы
жалғасын
жалғасып
жалғасқан
жалғау
жалғыз
жалғыздық
жалқы
жамал
жаман
жамандық
жамағат
жамбас
жамбыл
жамбылдың
жамылғы
жамылғысы
жамылғысында
жамылғысының
жан
жана
жанады
жанама
жанар
жанармаи
жанартау
жанартаудың
жанартаулар
жанартаулық
жанартаутекті
жанартауы
жанасу
жанат
жанатын
жанбаи
жангелдин
жангелді
жандар
жандардың
жандосов
жанды
жандыбаев
жанеиро
жанжал
жанкент
жанкүиерлер
жанкүиерлері
жанна
жанның
жанр
жанрда
жанрдағы
жанрдың
жанрлар
жанрлары
жанрлық
жанры
жанрын
жанрына
жанрында
жанрындағы
жанрының
жансыз
жансүгіров
жантану
жантөрин
жану
жануар
жануардың
жануарлар
жануарларда
жануарлардан
жануарларды
жануарлардың
жануарлары
жануарларының
жануарларға
жаны
жаным
жанын
жанына
жанынан
жанында
жанындағы
жанып
жанға
жанған
жанғыш
жанқожа
жап
жапа
жапалақ
жапон
жапондық
жапония
жапонияда
жапониядағы
жапонияның
жапонияға
жапонша
жаппаи
жапсарлас
жапсары
жапсырма
жапырағы
жапырағын
жапырағының
жапырақ
жапырақтар
жапырақтары
жапырақтарымен
жапырақтарын
жапырақтарының
жапырақты
жапырақтың
жапырақшалары
жапқан
жапқыш
жар
жара
жараиды
жаралады
жараланып
жараланған
жаралу
жаралы
жаралған
жарамды
жарамсыз
жараны
жарасы
жарасымды
жаратты
жарату
жаратушы
жаратылыс
жаратылыстану
жаратылысы
жаратылған
жаратқан
жарақ
жарақат
жарақаттанған
жарақтар
жарақты
жарды
жария
жариялады
жариялаиды
жариялана
жарияланады
жарияланбаған
жарияланды
жарияланым
жарияланымдар
жарияланымның
жарияланып
жарияланған
жариялап
жариялау
жариялауға
жариялаған
жаркент
жарлы
жарлығы
жарлығымен
жарлығына
жарлық
жарлыққа
жарма
жарнама
жарнамалық
жарнаманың
жартас
жартастар
жартасты
жарты
жартылаи
жартысы
жартысын
жартысына
жартысынан
жартысында
жартысындағы
жару
жаршысы
жары
жарылымдар
жарылып
жарылыс
жарылыстан
жарылған
жарылғыш
жарым
жарып
жарыс
жарыса
жарыста
жарыстан
жарыстар
жарыстарда
жарыстардың
жарыстары
жарыстарында
жарыстарға
жарысты
жарыстың
жарысы
жарысында
жарысқа
жарығы
жарық
жарықтандыру
жарықтар
жарықты
жарықтық
жарықтың
жарықшақты
жарыққа
жарған
жарғақ
жарғақты
жарғы
жарғылық
жарғысы
жарғыш
жарқабақты
жарқаиың
жарқын
жарқырап
жарқырауы
жарқыраған
жас
жасады
жасаи
жасаиды
жасаитын
жасалады
жасалатын
жасалды
жасалса
жасалу
жасалуы
жасалуына
жасалынады
жасалынды
жасалынып
жасалынған
жасалып
жасалған
жасамаиды
жасампаз
жасампаздық
жасанды
жасап
жасар
жасаса
жасасты
жасасу
жасасып
жасау
жасауда
жасаудан
жасауды
жасаудың
жасаумен
жасаушы
жасаушылар
жасаушылардың
жасауы
жасауына
жасауға
жасаған
жасағанда
жасағаны
жасағы
жасағын
жасақ
жасақталды
жасақталған
жасақтама
жасақтары
жасақтау
жаста
жастаи
жастаиынан
жастан
жастар
жастарды
жастардың
жастары
жастарының
жастарға
жастағы
жасты
жастық
жастың
жасуша
жасушада
жасушадан
жасушадағы
жасушалар
жасушалардан
жасушаларды
жасушалардың
жасушалары
жасушаларында
жасушаларының
жасушаларға
жасушалы
жасушалық
жасушаның
жасушасы
жасушасының
жасушаға
жасы
жасыбаи
жасыл
жасылдау
жасын
жасына
жасынан
жасында
жасындағы
жасыру
жасырын
жасырынып
жасырып
жасқа
жасөспірім
жасөспірімдер
жасөспірімдерге
жасөспірімдердің
жат
жатады
жататын
жататындар
жататынын
жатаған
жатақхана
жаткан
жатпаиды
жатпаитын
жатса
жаттап
жатты
жаттығу
жаттығулар
жаттықтырды
жаттықтырушы
жаттықтырушысы
жатуы
жатуға
жатын
жатыны
жатып
жатыр
жатыс
жатық
жатқа
жатқан
жатқанда
жатқандықтан
жатқаны
жатқанын
жатқызады
жатқызуға
жатқызылады
жатқызылды
жатқызылған
жатқызып
жау
жауабы
жауабын
жауады
жауап
жауапкершілігі
жауапкершілігін
жауапкершілік
жауапкершілікке
жауапкершілікті
жауапты
жауапқа
жаугершілік
жаудан
жауды
жаудың
жаулап
жаулары
жаумен
жауы
жауын
жауынгер
жауынгерлер
жауынгерлердің
жауынгерлері
жауынгерлік
жауынгері
жауып
жауырын
жауға
жауған
жая
жаяу
жаға
жағады
жағажаи
жағалаи
жағаларында
жағалау
жағалауда
жағалаудағы
жағалаулары
жағалауларын
жағалауларына
жағалауларында
жағалаулық
жағалауы
жағалауын
жағалауына
жағалауынан
жағалауында
жағалауындағы
жағалауының
жағалауға
жағалы
жағалық
жағасы
жағасын
жағасына
жағасынан
жағасында
жағасындағы
жағаға
жағдаи
жағдаида
жағдаидан
жағдаидағы
жағдаиды
жағдаидың
жағдаилар
жағдаиларда
жағдаиларды
жағдаилардың
жағдаилары
жағдаиларын
жағдаиларына
жағдаиларында
жағдаиларының
жағдаиларға
жағдаиы
жағдаиымен
жағдаиын
жағдаиына
жағдаиында
жағдаиындағы
жағдаиының
жағдаиға
жағу
жағы
жағылады
жағылған
жағымды
жағымен
жағымсыз
жағын
жағына
жағынан
жағында
жағындағы
жағының
жағып
жақ
жақия
жақсартады
жақсарту
жақсартуға
жақсартып
жақсы
жақсылап
жақсылық
жақсылыққа
жақсырақ
жақсысы
жақта
жақтады
жақтан
жақтап
жақтары
жақтарын
жақтарында
жақтарының
жақтастары
жақтаушылар
жақтағы
жақты
жақтың
жақын
жақында
жақындаи
жақындаиды
жақындап
жақындау
жақындаған
жақындағанда
жақындығы
жақынырақ
жақып
жаққа
жаңа
жаңаарқа
жаңаауыл
жаңадан
жаңадария
жаңажол
жаңалығы
жаңалық
жаңалықтар
жаңалықтарды
жаңалықтары
жаңартты
жаңарту
жаңартылған
жаңаталап
жаңатас
жаңатұрмыс
жаңаша
жаңашыл
жаңағы
жаңақала
жаңақорған
жаңаөзен
жаңбыр
жаңбырлы
жаңғағы
жаңғақ
жаңғақша
жаңғырту
жаңғыру
жаңғырық
жаһандану
жаһандық
же
жебе
жеген
жегі
жедел
жез
жезді
жезқазған
жеиде
жеиді
жеитін
жек
жеке
жекелеген
жекелеи
жекеленген
жекеменшік
жекеше
жекешелендіру
жекке
жекпе
жексенбі
жексенбіде
жекте
жел
желбезек
желге
желдер
желдеткіш
желдету
желді
желдің
железин
желкен
желкенді
желмен
желтоқсан
желтоқсанда
желтоқсандағы
желтоқсаннан
желтоқсанның
желтоқсаны
желтоқсанына
желтоқсанынан
желтоқсанында
желі
желіге
желіде
желілер
желілерде
желілердің
желілері
желілерін
желілерінде
желілерінің
желілік
желім
желіні
желінің
желісі
желісімен
желісін
желісінде
желісіндегі
желісіне
желісінің
жем
жеменеи
жемшөп
жеміс
жемістенеді
жемістер
жемістері
жемісті
жемісі
жемісін
жемісінің
жемқорлық
жемқорлыққа
жене
женева
жент
женіндегі
жеп
жер
жераис
жерасты
жерг
жерге
жергілікті
жерде
жердегі
жерден
жерді
жердің
жеребе
жерленген
жерленді
жерлер
жерлерге
жерлерде
жерлердегі
жерлерден
жерлерді
жерлердің
жерлері
жерлерін
жерлерінде
жерлеріне
жерлерінен
жерлерінің
жерлеу
жермен
жером
жерорта
жерортатеңіздік
жері
жерімен
жерін
жерінде
жеріндегі
жеріне
жерінен
жерінің
жерұиық
жесір
жет
жете
жетегі
жетеді
жетек
жетекш
жетекші
жетекшілері
жетекшілерінің
жетекшілігімен
жетекшілік
жетекшісі
жетер
жетерлік
жететін
жетк
жеткен
жеткенде
жеткенше
жеткені
жеткізген
жеткізді
жеткізе
жеткізеді
жеткізетін
жеткізу
жеткізуге
жеткізуді
жеткізудің
жеткізуші
жеткізілген
жеткізілді
жеткізіледі
жеткізіп
жеткіліксіз
жеткілікті
жетпеген
жетпеи
жетпеиді
жетпеитін
жетпес
жетпіс
жетсе
жетті
жету
жетуге
жетудің
жетуі
жетуіне
жеті
жетібаи
жетіген
жетік
жетілген
жетілдірді
жетілдіре
жетілдіру
жетілдіруге
жетілдірілген
жетілдіріп
жетіле
жетіледі
жетілмеген
жетілу
жетілуі
жетілуіне
жетіліп
жетім
жетімді
жетінші
жетіп
жетісаи
жетіспеушілігі
жетіспеуі
жетістігі
жетістік
жетістікке
жетістіктер
жетістіктерге
жетістіктері
жетістіктерін
жетістіктеріне
жетістіктерінің
жетісу
жетісуда
жетісудағы
жетісуды
жетісудың
жетісуға
жетіқарақшы
жеу
жеуге
жең
жеңген
жеңді
жеңе
жеңеді
жеңу
жеңуге
жеңіл
жеңілген
жеңілдетеді
жеңілдету
жеңілді
жеңілдік
жеңілдіктер
жеңіліп
жеңіліс
жеңіліске
жеңілісі
жеңімпаз
жеңімпаздары
жеңімпазы
жеңіп
жеңіс
жеңіске
жеңістер
жеңісті
жеңістің
жеңісі
жеңісімен
жж
жи
животных
жиде
жидебаи
жидек
жидектер
жиделі
жиегі
жиегінде
жиегіне
жиек
жиектері
жиекті
жиен
жиені
жизни
жизнь
жинады
жинаи
жинаиды
жинаитын
жиналады
жиналатын
жиналды
жиналу
жиналуы
жиналып
жиналыс
жиналысы
жиналысына
жиналысында
жиналысының
жиналған
жинап
жинау
жинаумен
жинаушы
жинауыш
жинауға
жинаған
жинағы
жинағын
жинағына
жинағында
жинағының
жинақ
жинақта
жинақталады
жинақталып
жинақталған
жинақтап
жинақтар
жинақтарда
жинақтары
жинақтарына
жинақтарында
жинақтарының
жинақтарға
жинақтау
жинақтаушы
жинақтаған
жинақты
жинақтың
жинақы
жинаққа
жирен
жиренше
жиронда
житс
жиын
жиында
жиындар
жиынның
жиынтығы
жиынтығын
жиынтығынан
жиынтығының
жиынтық
жиыны
жиып
жиырма
жиырмасыншы
жиырылу
жиі
жиілігі
жиілігін
жиілік
жиіліктегі
жиілікті
жиірек
жиған
жиһаз
жоба
жобаланған
жобалар
жобаларды
жобалардың
жобалары
жобаларын
жобаларының
жобаларға
жобалау
жобалық
жобаны
жобаның
жобасы
жобасын
жобасына
жобасында
жобасының
жобаға
жозе
жоиды
жоиылады
жоиылды
жоиылу
жоиылуы
жоиылуына
жоиылып
жоиылған
жоиып
жоиған
жоиғыш
жоиқын
жок
жол
жоламан
жолаушы
жолаушылар
жолаушыларды
жолағы
жолақ
жолақтар
жолақтары
жолақты
жолбарыс
жолда
жолдама
жолдан
жолдар
жолдарды
жолдардың
жолдармен
жолдары
жолдарымен
жолдарын
жолдарына
жолдарынан
жолдарында
жолдарының
жолдас
жолдастық
жолдасы
жолдаған
жолдағы
жолды
жолдық
жолдың
жоли
жолмен
жолы
жолымбетов
жолымен
жолын
жолына
жолынан
жолында
жолындағы
жолының
жолға
жолғы
жомарт
жон
жонды
жоне
жоны
жоо
жорамал
жорж
жорығы
жорығына
жорық
жорықта
жорықтар
жорықтары
жорыққа
жорға
жорғалаушылар
жорғалаушылардың
жосалы
жоспар
жоспарда
жоспарды
жоспарлануда
жоспарланып
жоспарланған
жоспарлап
жоспарлар
жоспарлары
жоспарларын
жоспарлау
жоспарлы
жоспары
жоспарын
жоспарына
жоспарының
жота
жоталар
жоталары
жоталарының
жотаның
жотасы
жотасынан
жотасында
жотасының
жошы
жою
жоюды
жоюға
жояды
жоятын
жоғ
жоғалады
жоғалтады
жоғалтты
жоғалту
жоғалтып
жоғалтқан
жоғалуы
жоғалып
жоғалған
жоғары
жоғарыда
жоғарыдан
жоғарыдағы
жоғарылаиды
жоғарылату
жоғарылауы
жоғарылаған
жоғарырақ
жоғарыға
жоғарғы
жоғы
жоғын
жоқ
жоқтау
жоқтығы
жоқтығын
жоқтың
жоққа
жоңышқа
жоңғар
жоңғарлар
жоңғарлардың
жоңғарларға
жуа
жуады
жуалы
жуан
жуандығы
жуантөбе
жуатын
жуков
журнал
журналда
журналдар
журналдарда
журналдарында
журналдың
журналист
журналистер
журналистика
журналистиканың
журналистік
журналисі
журналы
журналын
журналына
журналында
журналының
жусан
жусанды
жуу
жуып
жуығы
жуығын
жуық
жуғыш
жшс
жыл
жылан
жыландар
жыланды
жыланның
жылап
жылда
жылдаи
жылдам
жылдамдығы
жылдамдығын
жылдамдығына
жылдамдығының
жылдамдық
жылдамдықпен
жылдамдықты
жылдан
жылдар
жылдарда
жылдардан
жылдардағы
жылдардың
жылдары
жылдарын
жылдарына
жылдарынан
жылдарында
жылдарындағы
жылдарының
жылдарға
жылдағы
жылды
жылдығы
жылдығын
жылдығына
жылдық
жылдың
жылжиды
жылжу
жылжуы
жылжымаитын
жылжымалы
жылжып
жылжыту
жылмен
жылтыр
жылу
жылуды
жылудың
жылулық
жылумен
жылуы
жылы
жылын
жылына
жылынан
жылында
жылының
жылыои
жылыту
жылға
жылғы
жылқы
жылқылар
жылқыны
жылқының
жылқысы
жылқысын
жылқышы
жылқыға
жымпиты
жын
жыныс
жыныссыз
жыныстар
жыныстарда
жыныстардан
жыныстарды
жыныстардың
жыныстары
жыныстарын
жыныстарынан
жыныстарында
жыныстарының
жынысты
жыныстық
жынысы
жынысына
жынысының
жынысытар
жынысытардың
жыр
жыра
жыралармен
жыралы
жырасы
жырау
жыраудың
жыраулар
жыраулық
жырда
жырды
жырдың
жырлады
жырлаиды
жырлап
жырлар
жырлары
жырларын
жырларында
жырларының
жырлаған
жырту
жыртылған
жыртып
жыртқыш
жыртқыштар
жыршы
жыры
жырын
жырында
жырының
жырға
жыңғыл
жыңғылды
жэне
жэо
жюль
жібек
жіберген
жіберді
жібере
жібереді
жіберетін
жібермеи
жіберу
жіберуге
жіберілген
жіберілді
жіберіледі
жіберілетін
жіберіліп
жіберіп
жігер
жігерлі
жігері
жігерін
жігіт
жігітке
жігіттер
жігіттері
жігітті
жігіттің
жігіті
жік
жіктеледі
жіктелу
жіктелуі
жіктеу
жілік
жіне
жіп
жіппен
жіптен
жіпті
жіптің
жіпшелері
жіті
жітіқара
жіңішке
жіө
жүгері
жүгінеді
жүгіреді
жүгіру
жүгіріп
жүз
жүзбе
жүзге
жүзгін
жүзде
жүздеген
жүздегі
жүзден
жүзді
жүздің
жүзеге
жүзеді
жүзетін
жүзу
жүзуге
жүзі
жүзік
жүзілік
жүзім
жүзін
жүзінде
жүзіндегі
жүзіне
жүзінің
жүзіп
жүие
жүиеге
жүиеде
жүиедегі
жүиеден
жүиелер
жүиелерге
жүиелерде
жүиелерді
жүиелердің
жүиелері
жүиелерін
жүиелерінде
жүиелеріне
жүиелерінің
жүиелеу
жүиелі
жүиелік
жүиемен
жүиені
жүиенің
жүиес
жүиесі
жүиесімен
жүиесін
жүиесінде
жүиесіндегі
жүиесіне
жүиесінен
жүиесінің
жүике
жүикелер
жүикелік
жүикесі
жүирік
жүк
жүктелген
жүктелді
жүктеледі
жүктеме
жүктерді
жүктеу
жүкті
жүктілік
жүктің
жүлде
жүлдеге
жүлдегер
жүлдегері
жүлделі
жүлдені
жүлдесі
жүлдесін
жүлдесіне
жүлдесінің
жүмыс
жүн
жүнді
жүннен
жүні
жүнін
жүнінен
жүніс
жүнісов
жүр
жүрг
жүрген
жүргенде
жүргенов
жүргенін
жүргізген
жүргізгенде
жүргізді
жүргізе
жүргізеді
жүргізетін
жүргізу
жүргізуге
жүргізуде
жүргізуді
жүргізудің
жүргізуші
жүргізушісі
жүргізілген
жүргізілді
жүргізіледі
жүргізілетін
жүргізілуде
жүргізілуі
жүргізіліп
жүргізіп
жүрді
жүре
жүрегі
жүрегін
жүрегіне
жүреді
жүрек
жүрекке
жүректен
жүректі
жүректің
жүретін
жүрмеиді
жүрсе
жүру
жүруге
жүруі
жүруіне
жүріп
жүріс
жүрісі
жүсіп
жүсіпбек
жұбаилар
жұбаиы
жұбанов
жұбанова
жұбановтың
жұбы
жұлдыз
жұлдыздар
жұлдыздарды
жұлдыздардың
жұлдыздары
жұлдызды
жұлдыздық
жұлдыздың
жұлдызы
жұлдызында
жұлдызға
жұлын
жұлынның
жұлып
жұма
жұмабаев
жұмабаи
жұмада
жұмашева
жұмағалиев
жұмақ
жұмбақ
жұмды
жұмсады
жұмсаиды
жұмсалады
жұмсалатын
жұмсалды
жұмсалған
жұмсап
жұмсау
жұмсаған
жұмсақ
жұмылдыру
жұмыр
жұмыртқа
жұмыртқадан
жұмыртқаларды
жұмыртқалары
жұмыртқаларын
жұмыртқаны
жұмыртқаның
жұмыртқасын
жұмыс
жұмыскер
жұмыспен
жұмыссыздық
жұмыста
жұмыстан
жұмыстар
жұмыстарда
жұмыстарды
жұмыстардың
жұмыстармен
жұмыстары
жұмыстарымен
жұмыстарын
жұмыстарына
жұмыстарында
жұмыстарының
жұмыстарға
жұмысты
жұмыстық
жұмыстың
жұмысшы
жұмысшылар
жұмысшыларды
жұмысшылардың
жұмысшылары
жұмысшыларының
жұмысшысы
жұмысы
жұмысымен
жұмысын
жұмысына
жұмысынан
жұмысында
жұмысының
жұмысқа
жұп
жұпар
жұптасып
жұптық
жұрнағы
жұрнақ
жұрнақтары
жұрт
жұртты
жұрттың
жұртшылық
жұртшылықтың
жұртшылыққа
жұрты
жұртын
жұртына
жұртының
жұртқа
жұт
жұту
жұтып
жұтқыншақ
жұғады
жұқа
жұқпалы
жұө
жәдігерлер
жәи
жәндік
жәндіктер
жәндіктерді
жәндіктердің
жәндіктермен
және
жәнеде
жәнібек
жәнө
жәрдем
жәрдемақы
жәрдемдеседі
жәрдемдесу
жәрдемімен
жәрмеңке
жәрмеңкелер
жәрмеңкелік
жәшік
жәңгір
жөн
жөндеу
жөндеуге
жөндеуден
жөне
жөні
жөнін
жөнінде
жөніндегі
жөнінен
жөтел
з
за
заале
завод
загора
загреб
заисан
заиыбы
заиыптылар
заиыптылардың
заиырлы
закон
зал
залал
залалсыздандыру
залда
залдары
залы
залына
залында
залының
зальцбург
зальцведель
заман
замана
заманауи
заманда
замандарда
замандардан
замандас
замандастары
замандасы
замандағы
заманнан
заманның
заманы
заманымыздан
заманымыздың
заманымызға
заманына
заманынан
заманында
заманындағы
заманының
заманға
заманғы
замбия
занды
запастағы
запасқа
записки
запорожье
зар
заратуштра
зардабын
зардап
зардаптарын
заря
заряд
зарядталған
зарядты
зарядтың
заряды
зат
затаевич
затпен
заттаи
заттан
заттар
заттардан
заттарды
заттардың
заттармен
заттары
заттарын
заттарының
заттарға
затты
заттық
заттың
заты
затының
затқа
зауыт
зауытта
зауыттар
зауыттары
зауыттың
зауыты
зауытын
зауытында
зауытының
зақым
зақымдаиды
зақымдаитын
зақымдалған
зақымдану
зақымдануы
зақымданған
заң
заңгер
заңда
заңдар
заңдарды
заңдардың
заңдары
заңдарын
заңдарына
заңдарының
заңдарға
заңды
заңдылығы
заңдылығын
заңдылық
заңдылықтар
заңдылықтарды
заңдылықтары
заңдылықтарын
заңдылықтарына
заңдылықты
заңдық
заңи
заңмен
заңнама
заңнамада
заңнамалық
заңнамасына
заңның
заңсыз
заңы
заңымен
заңын
заңына
заңының
заңға
звания
звезда
звеношысы
зг
зд
зе
зевс
зевстің
зеинеп
зеинетақы
зеинетке
зеинеткер
зеинеткерлік
зеинеткерлікке
зеиін
зекет
зеландия
зеландияда
зеландияның
земство
зенит
зениттік
зер
зергерлік
зерде
зерделеу
зерек
зеренді
зерт
зертеу
зерттеген
зерттегенде
зерттеді
зерттеи
зерттеиді
зерттеитін
зерттелген
зерттелді
зерттеле
зерттеледі
зерттелетін
зерттелмеген
зерттелу
зерттелуі
зерттеліп
зерттеп
зерттеу
зерттеуге
зерттеуде
зерттеуді
зерттеудің
зерттеулер
зерттеулерге
зерттеулерде
зерттеулерді
зерттеулердің
зерттеулермен
зерттеулері
зерттеулерін
зерттеулерінде
зерттеулерінің
зерттеумен
зерттеуші
зерттеушілер
зерттеушілердің
зерттеушілері
зерттеушісі
зерттеуі
зертхана
зертханалық
зертханасы
зертханасында
зертханасының
зеңбірек
зеңбіректер
зз
зират
зираты
зиратына
зиратында
зиялы
зиялылары
зиялыларының
зиян
зиянды
зиянкестері
зияны
зиянын
зиярат
зияткер
зияткерлік
знамя
золотая
золотица
золотои
золотурн
зомбылық
зона
зонасы
зонасында
зонд
зоология
зоологиялық
зоологиясы
зоотехник
зоотехникалық
зор
зорлық
зу
зубцов
зылиха
зымыран
зырян
зырянское
зығыр
зікір
зұлым
зұлымдық
зәид
зәитүн
зәр
зәулім
и
иа
иаков
иасауи
ибн
ибрагим
ибрагимов
ибраһим
иван
иванов
иванович
ивановна
иваново
иваньков
ивелин
ивр
ивуар
игерген
игеру
игеруге
игерудің
игерілген
игерілді
игеріп
иглин
игол
игорь
игі
игілігі
игілігіне
игілік
игіліктер
игілікті
идеал
идеалды
идеалистік
идеалы
идентификациялық
идеология
идеологиялық
идеологиясы
идея
идеялар
идеяларды
идеялардың
идеялары
идеяларын
идеяларының
идеялық
идеяны
идеяның
идеясы
идеясын
идеясына
идеясының
ие
иегерлері
иегері
иек
иеленген
иеленді
иеленеді
иелену
иеленуші
иеленіп
иелері
иелерін
иелеріне
иелерінің
иелігі
иелігінде
иелігіндегі
иелігіне
иелік
иеліктері
иеліктерін
иемденген
иемденді
иемдену
иемденіп
иемен
иен
иерархиялық
иерусалим
иесі
иесін
иесіне
иесінің
иж
из
известия
изд
издание
издательство
изен
изотопы
израиль
израильдің
ии
ик
икемді
ил
иленген
илеу
или
иллиноис
иль
ильин
ильич
илья
илік
им
имам
имамы
иман
имандылық
иманов
имек
имени
иммунды
иммундық
иммунитет
иммунология
иммунологиялық
император
императордың
императорлық
императоры
империалистік
империя
империялық
империяның
империясы
империясын
империясына
империясында
империясындағы
империясының
импорт
импульс
импульстік
ин
инвестиция
инвестициялар
инвестицияларды
инвестициялық
инвесторлар
индекс
индекстері
индексі
индер
индиана
индонезия
индонезияның
индуизм
индукция
индукциялық
индустриалды
индустрия
индустрияландыру
индустриялық
ине
инемен
инені
инертті
инженер
инженерия
инженерлер
инженерлері
инженерлік
инженері
инкубациялық
инн
инне
инновация
инновациялық
инсбрук
инспектор
инспекторы
инспекциясының
институт
институтта
институттар
институттардың
институттары
институттарының
институтты
институттың
институты
институтын
институтына
институтында
институтының
институтқа
интегралдық
интеграция
интеграциялық
интеллект
интеллектуалды
интеллектуалдық
интенсивті
интер
интерактивті
интервью
интериор
интернат
интернационал
интернационале
интернет
интернетке
интернетте
интертото
интерфеис
инфекция
инфекциялық
инфекцияның
инфляция
инфобокс
информатика
информации
информация
инфрақызыл
инфрақұрылым
иня
иняи
иоанн
иоахим
иоганн
иод
иозеф
иоль
ион
иондар
иондардың
иондары
иондарының
ионды
иондық
ионна
ионы
иордания
иорк
иоркте
иорктегі
иосиф
иохан
иоханнес
ип
ипотекалық
ирак
ирактағы
ирактың
иран
иранда
ирандағы
ирандық
иранның
иранға
ирек
ириклинск
ирина
иркутск
ирланд
ирландия
ирландияның
ирландық
ис
иса
исаак
исабеков
исады
исаев
исатаи
искусство
ислам
исламда
исламды
исламдық
ислами
исламның
исламға
исландия
исмаил
исп
испан
испандық
испандықтар
испания
испанияда
испаниядағы
испаниялық
испанияның
испанияға
исследование
исследования
иссуар
ист
исток
истории
история
источник
ит
итал
италия
италияда
италиядағы
италиялық
италияндық
италияның
италияға
итальян
итальяндық
итке
итмұрын
иттер
итті
иттің
иті
их
ишан
иық
июля
июня
иілген
иілгіш
иіліп
иін
иінді
иіп
иіру
иіс
иісті
иісі
иә
к
ка
кабардин
кабашев
кабель
кабинет
кабинеті
кабинетінің
каваду
кавказ
кавказда
кавказдағы
кавказдың
кавказға
кадастрларын
кадет
кадмии
кадр
кадрлар
кадрларды
кадрлық
кажет
кажетті
каз
казак
казакстанға
казактар
казактары
казахов
казахскии
казахского
казахскои
казахском
казахстан
казахстана
казахстане
казахстанская
казерта
казсср
казталов
казталовка
казіргі
каи
каинозои
каир
каита
как
какао
калабрия
кале
калибрлі
калии
калинин
калифорния
калифорнияда
калуга
калужа
кальвадос
кальции
кальцит
калған
кама
камал
камбоджа
камбре
каменка
камера
камералы
камералық
камерасы
камерун
кампания
кампань
кампо
кампу
кампус
камтамасыз
камчатка
кан
канада
канадада
канадалық
канаданың
канал
каналдар
каналдың
каналы
каналының
канд
кандидат
кандидата
кандидаттары
кандидаттық
кандидаты
канеда
канзас
канин
канн
кант
канталь
кантон
кантоны
кантонында
канттың
канцлері
капитал
капиталды
капиталдың
капитализм
капиталистік
капиталы
капиталын
капиталының
капиталға
капитан
капитаны
капуста
кар
кара
караи
караиыдель
карамель
каратэ
карбон
карбонатты
кардинал
кариб
каркассонн
карл
карло
карлос
карлсруэ
кармаскалин
каролина
каротаж
каротин
карст
карсы
карта
картада
карталар
карталарда
карталары
картаны
картаның
картасы
картасын
картасында
картаға
картер
картина
картинтия
картографиялық
картоп
карьерасын
карьерасында
карьерасының
кас
каспии
каспиидің
кассалық
кассель
кастилия
кат
катализ
катализатор
каталог
каталогтарда
каталогтағы
каталогтың
каталогы
каталогында
каталогқа
каталония
катар
категория
категориялар
категориясы
като
католик
католиктер
католиктік
катонқарағаи
катунь
катысты
кауфман
каучук
каф
кафе
кафедра
кафедрада
кафедраның
кафедрасы
кафедрасын
кафедрасында
кафедрасының
каштелу
кв
квадрат
квадраттық
квант
кванттық
кварц
кварцит
кварцты
квт
кг
кдж
ке
кебек
кевин
кеген
кедеи
кедеилер
кедеилік
кеден
кедендік
кедергі
кедергілер
кедергісі
кедір
кез
кезбе
кезге
кезде
кездегі
кездеисоқ
кезден
кездерде
кездері
кездерінде
кездесе
кездеседі
кездесетін
кездесетіні
кездескен
кездескендіктен
кездеспеиді
кездессе
кездесті
кездестіреді
кездестіреміз
кездестіруге
кездесу
кездесуге
кездесуде
кездесулер
кездесуі
кездесуін
кездесуінде
кездесіп
кездің
кезегі
кезегінде
кезек
кезекпен
кезекте
кезектегі
кезектен
кезектесе
кезектесіп
кезекті
кезенде
кезең
кезеңге
кезеңде
кезеңдегі
кезеңдер
кезеңдерге
кезеңдерде
кезеңдері
кезеңдерін
кезеңдерінде
кезеңдерінің
кезеңді
кезеңнен
кезеңнің
кезеңі
кезеңімен
кезеңін
кезеңінде
кезеңіндегі
кезеңіне
кезеңінен
кезеңінің
кезі
кезін
кезінде
кезіндегі
кезіне
кезінен
кеи
кеиб
кеибір
кеибіреулер
кеибіреулері
кеибіреуі
кеибірі
кеиде
кеипінде
кеит
кеиін
кеиінге
кеиінгі
кеиіннен
кеиінірек
кеиіпкер
кеиіпкерді
кеиіпкердің
кеиіпкерлер
кеиіпкерлердің
кеиіпкерлері
кеиіпкерлерінің
кеиіпкері
кек
кел
келбеті
келбетін
келген
келгенге
келгенде
келгендер
келгеннен
келгенше
келгені
келгенін
келді
келе
келед
келеді
келелі
келер
келес
келесі
келесідеи
келетін
келетіні
келетінін
келешегі
келешек
келешекте
келеңсіз
келли
келмеген
келмеді
келмеи
келмеиді
келмеитін
келмесе
келсе
келсек
келт
келте
келтірген
келтірді
келтіре
келтіреді
келтіретін
келтіру
келтіруге
келтіруді
келтірілген
келтірілді
келтіріледі
келтірілмеген
келтіріліп
келтіріп
келу
келуге
келушілер
келуі
келуімен
келуін
келуіне
кельн
кельт
келі
келіге
келін
келіннің
келіншек
келіні
келіп
келіпті
келісе
келіседі
келіссөз
келіссөздер
келісті
келісу
келісілген
келісім
келісімге
келісімдер
келісімді
келісімнің
келісімшарт
келісімшартқа
келісімі
келісімімен
келісімін
келісіміне
келісіп
кем
кембридж
кембрии
кембрииге
кеме
кемеге
кемел
кемелер
кемелерді
кемелердің
кемелері
кемелерін
кемелерінің
кемені
кеменің
кемер
кемеров
кемерово
кемесі
кемесінің
кемеңгер
кемиді
кемпір
кемуі
кемшілігі
кемшіліктер
кемшіліктері
кемінде
кеміп
кеміргіштер
кемірушілер
кен
кендер
кендердің
кендері
кендерін
кендерінің
кенді
кендір
кене
кенелер
кенен
кенеп
кенесариев
кенесары
кенесарының
кенесбаева
кенет
кенеттен
кенже
кенжебаев
кения
кеннеди
кеннің
кенорын
кенорындар
кенорындары
кенорындарын
кент
кентас
кентастары
кентасты
кентасы
кентау
кенттік
кентукки
кенті
кентінде
кентіндегі
кентінен
кентінің
кеншілер
кені
кенін
кенінің
кеніш
кеніші
кенішінде
кеп
кепкен
кептіреді
кептіру
кептірілген
кептіріп
кепіл
кепілдік
кепілі
кер
керамика
керамикалық
кербұлақ
кереге
керегі
кереи
кереидің
керек
керекті
керектігі
керектігін
керемет
кермек
кернеи
кернеу
кернеудің
кернеуі
керуен
кері
керік
керіп
керісінше
кесе
кеседі
кесек
кесене
кесененің
кесенесі
кескілескен
кескін
кескіндеме
кескіндемеші
кескінді
кескіні
кескінін
кескіш
кеспе
кесте
кестеде
кестелер
кестенің
кестесі
кестесін
кесті
кесу
кесуге
кесілген
кесілді
кесіледі
кесімді
кесінді
кесіп
кесіртке
кесірткелер
кесірінен
кет
кете
кетеді
кетеиік
кетер
кететін
кетке
кеткен
кеткенде
кеткеннен
кеткені
кеткенін
кетпеи
кетпеиді
кетпен
кетпес
кетпеуі
кетсе
кеттен
кетті
кету
кетуге
кетуден
кетуі
кетуін
кетуіне
кетуінен
кеть
кетіп
кетіпті
кеуде
кеудесі
кеуек
кеуекті
кеуектілігі
кеуіп
кеш
кеше
кешегі
кешек
кешен
кешендер
кешендері
кешенді
кешеннің
кешені
кешенін
кешенінде
кешенінің
кешке
кешкен
кешкі
кешті
кеші
кешікпеи
кешіп
кешірді
кешірім
кең
кеңгір
кеңгірбаи
кеңеиген
кеңеиді
кеңеие
кеңеиеді
кеңеите
кеңеитті
кеңеиту
кеңеитуге
кеңеитілген
кеңеитіп
кеңеиіп
кеңес
кеңесбаев
кеңеске
кеңесте
кеңестер
кеңестердің
кеңестері
кеңестерінің
кеңестік
кеңестің
кеңесші
кеңесшісі
кеңесі
кеңесімен
кеңесін
кеңесінде
кеңесіне
кеңесінің
кеңеюі
кеңеюіне
кеңсе
кеңсесі
кеңсесінде
кеңсесінің
кеңшар
кеңшарда
кеңшардың
кеңшары
кеңшарында
кеңшарының
кеңінен
кеңірдек
кеңірек
кеңістігі
кеңістігін
кеңістігінде
кеңістігінің
кеңістік
кеңістікке
кеңістікте
кеңістіктегі
кеңістікті
кеңістіктік
кеңістіктің
ки
кибернетика
киген
кигізіп
кие
киев
киевте
киеді
киелі
киетін
кикя
килограмм
километр
километрге
ким
кинг
кинель
кинематография
кинетикалық
кино
киноактер
киноактері
кинода
кинодағы
киноның
кинорежиссер
киностудиясы
киностудиясында
киностудиясының
киносы
кинотеатр
кинофестивалінде
киноға
киото
кипр
кир
кирилл
киров
кит
китаб
китаи
китая
киттер
кишинев
кию
киіз
киізден
киік
киім
киімге
киімдер
киімдерді
киімдері
киімдерін
киімді
киімнің
киімі
киімін
киіп
кк
ккал
кке
кл
кламси
клапан
клара
кларк
класс
классик
классика
классикалық
классиктерінің
классификатор
классификация
классицизм
класты
кластық
класы
класына
класының
класқа
клаус
клаусура
клетка
клеткалар
клеткалардың
клеткалары
клеткаларының
клеткалы
клетканың
клиент
климат
климатты
климаттық
климаттың
климаты
климатқа
клиника
клиникалық
клинтон
клод
клуб
клубпен
клубта
клубтан
клубтар
клубтарда
клубтардың
клубтары
клубтарында
клубтарының
клубты
клубтық
клубтың
клубы
клубымен
клубын
клубына
клубынан
клубында
клубының
клубқа
клязьма
км
кн
книга
князь
князі
ко
кобальт
ковшарь
код
кодекс
кодексі
кодексінің
кодтау
коды
козенца
коимбра
кокос
кокп
кокс
кол
кола
колданылады
колледж
колледжде
колледжі
колледжін
колледжінде
колледжіне
колледжінің
коллинз
колорадо
колумб
колумбия
колхоз
колхозы
колхозында
колхозының
ком
команда
командада
командалар
командалардың
командалары
командаларының
командалық
команданы
команданың
командасы
командасымен
командасын
командасына
командасында
командасының
командаға
командир
командирі
командирінің
комарка
комбинат
комбинаты
комбинатында
комбинатының
комедия
комедиялық
комедиясы
коми
комикс
комиссар
комиссариаты
комиссариатының
комиссарлар
комиссарлары
комиссары
комиссия
комиссияның
комиссиясы
комиссиясына
комиссиясының
комитет
комитеттер
комитеттері
комитеттерінің
комитеттің
комитеті
комитетін
комитетінде
комитетіне
комитетінің
коммерси
коммерциялық
коммуна
коммуналары
коммуналдық
коммунаның
коммунасы
коммунизм
коммуникативтік
коммуникация
коммуникациялар
коммуникациялық
коммунист
коммунистер
коммунистік
комо
комп
компания
компаниялар
компаниялардың
компаниялары
компанияларының
компанияларға
компанияны
компанияның
компаниясы
компаниясымен
компаниясын
компаниясына
компаниясында
компаниясының
компанияға
компартия
компартиясы
компартиясының
комплекс
комплексті
комплексі
композитор
композитордың
композиторлар
композиторлары
композиторларының
композиторы
композиция
композициялық
композициясы
компонент
компоненттер
компоненттері
компоненті
компьютер
компьютерге
компьютерде
компьютерді
компьютердің
компьютерлер
компьютерлердің
компьютерлік
комсомол
комсомолы
кон
конвенция
конго
конгресс
конгресі
конгресінің
конда
конденсат
конденсатор
кондитер
кондитерлік
кондома
конкакаф
конкурс
конкурсында
конкурсының
конмебол
коннектикут
коннор
конрад
консервативті
консерваториясы
консерваториясын
консерваториясында
консерваториясының
консерві
константин
константинович
константинополь
конституция
конституциялық
конституцияның
конституциясы
конституциясына
конституциясының
конституцияға
конструктор
конструкторлық
конструкциясы
континенттік
контрреволюциялық
конус
конустық
конфедерация
конфедерациялар
конфедерациясы
конференции
конференция
конференцияда
конференциялар
конференциясы
конференциясында
конференциясының
конфуции
концентрациясы
концентрациясын
концентрациясының
концепциясы
концерт
концерттер
концерттік
концерті
коньки
кооператив
кооперативтік
кооперативі
координаталар
координаттар
координаттары
копенгаген
кор
кордова
кореи
кореилер
корея
кореяда
кореядағы
кореялық
кореяның
кореяға
королева
король
корольдық
корольдігі
корольдігінің
корольдік
корольдің
королі
королінің
корпоративтік
корпорация
корпорациясы
корпорациясының
корпус
корпусы
корпусының
корр
коррез
корректор
корреспондент
корсика
корте
коса
космос
космостық
косово
коста
кострома
костюм
косьва
кот
котельнич
котто
кофе
коэффициент
коэффициенті
кп
кпсс
кр
красная
красноводск
краснодар
краснои
краснояр
красноярск
красныи
крахмал
кредит
кредиттік
крез
кремль
кремнии
кремниилі
кремс
крест
креститель
крик
крис
кристалданады
кристалдану
кристалдар
кристалдардың
кристалдары
кристалды
кристалдық
кристалдың
кристалл
кристаллография
кристиан
кристина
кристофер
крит
критерии
кросс
крупская
крус
крылов
кс
кср
ксрнің
ксро
ксроның
кт
ктер
ктерд
ктест
ктк
кто
ку
куандықов
куб
куба
кубань
кубен
кубень
кубогы
кубогын
кубогына
кубогында
кубогының
кубогінің
кубок
кубокты
кубоктың
кубтық
кувеит
кугарчин
куибышев
кук
культура
культуры
кун
кунео
купер
кур
курган
курс
курск
курста
курстар
курстарын
курсты
курсы
курсын
курсына
курсында
курсының
курт
кутанс
кутулук
куэнка
куә
куәлігі
куәлік
куәсі
кхдр
кы
кызмет
кызыл
кын
кырджали
кьети
кэтрин
кюри
кюстендил
кібісе
кілегеи
кілегеилі
кілем
кілт
кілті
кім
кімге
кімде
кімді
кімнің
кіндігі
кіндік
кінәз
кінәлі
кір
кірген
кірді
кіре
кіреберіс
кіреді
кірер
кіретін
кірме
кірмеиді
кірмеитін
кірмесі
кірпікшелі
кірпіш
кірпішпен
кірпіштен
кіру
кіруге
кіруі
кіруіне
кіріктіретін
кіріп
кіріс
кіріседі
кіріспе
кірісті
кірісі
кірісіп
кісі
кісіге
кісілер
кісілердің
кісілік
кісіні
кісінің
кітаби
кітабы
кітабын
кітабына
кітабынан
кітабында
кітабының
кітап
кітапта
кітаптан
кітаптар
кітаптарды
кітаптардың
кітаптары
кітаптарын
кітаптарында
кітаптарының
кітапты
кітаптың
кітапхана
кітапханада
кітапханалар
кітапханалық
кітапхананың
кітапханасы
кітапханасында
кітапханасының
кітапша
кітапқа
кішкене
кішкентаи
кіші
кішігірім
кішілеу
кішілі
кішірек
кішісі
күдік
күз
күзге
күзгі
күзде
күздік
күздің
күзен
күзет
күзету
күзетші
күзінде
күи
күиге
күиген
күиде
күидегі
күиден
күиді
күидіру
күидірілген
күидің
күие
күиеу
күиеуге
күиеуі
күиеуінің
күизеліске
күилер
күилердің
күилері
күилерін
күиреуік
күиші
күиі
күиік
күиін
күиінде
күиіндегі
күиіне
күиінің
күиіп
күиіс
күкірт
күкіртті
күл
күлгін
күлдіргі
күлкі
күлкілі
күллі
күлте
күлтегін
күлтелері
күлтесі
күліп
күләш
күмбез
күмбезбен
күмбездер
күмбезді
күмбездің
күмбезі
күмбезінің
күміс
күміспен
күмістен
күмән
күмәнді
күн
күнбағыс
күнге
күнгеи
күнгі
күнде
күндеи
күнделігі
күнделік
күнделікті
күндер
күндерде
күндердің
күндері
күндерінде
күнді
күндіз
күндізгі
күндік
күнкөріс
күннен
күннің
күнтізбе
күнтізбелік
күнтізбесі
күнтізбесінде
күні
күнін
күнінде
күніне
күнінен
күнінің
күнә
күрделі
күре
күрек
күрес
күреске
күрескен
күрескер
күресте
күрестен
күресті
күрестің
күресу
күресуге
күресі
күресін
күресіне
күресінен
күресінің
күресіп
күрең
күрт
күрті
күршім
күріш
күтеді
күткен
күтпеген
күту
күтім
күтіп
күш
күшеиген
күшеиді
күшеие
күшеиеді
күшеите
күшеитеді
күшеиткіш
күшеитті
күшеиту
күшеитуге
күшеитілген
күшеитіп
күшеиіп
күшеюі
күшеюіне
күшке
күшпен
күштеп
күштер
күштерге
күштерді
күштердің
күштері
күштерімен
күштерін
күштерінде
күштеріне
күштерінің
күшті
күштік
күштірек
күштің
күші
күшік
күшімен
күшін
күшіне
күшінің
күңгірт
кұрамында
кәде
кәделі
кәдімгі
кәмелетке
кәмелеттік
кәрі
кәрілік
кәрім
кәрімде
кәрімнің
кәс
кәсіби
кәсібі
кәсіп
кәсіпкер
кәсіпкерлер
кәсіпкерлердің
кәсіпкерлік
кәсіпкерлікті
кәсіподақ
кәсіподақтар
кәсіпорны
кәсіпорнының
кәсіпорын
кәсіпорында
кәсіпорындар
кәсіпорындарда
кәсіпорындарды
кәсіпорындардың
кәсіпорындары
кәсіпорындарын
кәсіпорындарында
кәсіпорындарының
кәсіпорындарға
кәсіпорынның
кәсіптері
кәсіптік
кәсіпшілігі
кәсіпшілігінде
кәсіпшілігінің
кәсіпшілік
кәсіпқои
көб
көбеиген
көбеиді
көбеие
көбеиеді
көбеитеді
көбеиту
көбеитуге
көбеитіндісі
көбеитіп
көбеиіп
көбелегі
көбелек
көбелектер
көбею
көбеюі
көбеюіне
көбі
көбік
көбін
көбінде
көбіне
көбінесе
көбінің
көбірек
көбісі
көгалдандыру
көгалдағы
көгершін
көгілдір
көде
көже
көз
көзбен
көзге
көздеген
көздеді
көздеиді
көздеитін
көзделген
көзделді
көзден
көздеп
көздер
көздері
көздерін
көздеріне
көздерінің
көздеу
көзді
көздің
көзі
көзілдірік
көзімен
көзін
көзінде
көзіне
көзінен
көзінің
көзқарас
көзқарастар
көзқарастары
көзқарастарын
көзқарасты
көзқарастың
көзқарасы
көзқарасын
көзқарасына
көзқарасының
көилек
көк
көкбаи
көкбауыр
көкеикесті
көкек
көкжиек
көкке
көкнәр
көкпар
көкпек
көкпекті
көксу
көктал
көктем
көктемгі
көктемде
көктемнің
көктемі
көктемінде
көктен
көктеп
көктерек
көктөбе
көкше
көкшетау
көкшіл
көкірек
көкөніс
көкөністер
көкөністерді
көл
көлбеу
көлге
көлде
көлденең
көлденеңінен
көлдер
көлдерде
көлдердің
көлдері
көлдерінде
көлдерінің
көлді
көлдің
көлем
көлемде
көлемдегі
көлемдері
көлемді
көлемдік
көлемі
көлемімен
көлемін
көлемінде
көлеміндегі
көлеміне
көлемінен
көлемінің
көлеңке
көлеңкелі
көлі
көлігі
көлігінің
көлік
көліктер
көлікті
көліктік
көліктің
көлін
көлінде
көліне
көлінен
көлінің
көмегі
көмегімен
көмегін
көмегіне
көмеи
көмек
көмекке
көмектесе
көмектеседі
көмектесетін
көмектескен
көмектесті
көмектесу
көмектесуіңізді
көмектесіп
көмекші
көмекшісі
көмескі
көмкерілген
көмілген
көміп
көмір
көмірді
көмірдің
көмірлі
көмірсу
көмірсулар
көмірсутек
көмірсутектер
көмірсутектердің
көміртегі
көміртек
көміртекті
көмірқышқыл
көн
көне
көп
көпес
көпестер
көпжылдық
көпке
көптеген
көптен
көптеп
көпті
көптігі
көптік
көптің
көпш
көпше
көпшілігі
көпшілігін
көпшілігінде
көпшілігінің
көпшілік
көпшілікке
көпшіліктің
көпір
көпірдің
көпірлер
көпіршік
көпіршіктер
көпірі
көпқабатты
көр
көрген
көргенде
көрді
көрдім
көре
көреді
көреміз
көрермен
көрерменге
көрермендер
көрермендерге
көрермендердің
көретін
көркем
көркемдік
көркемсурет
көркемөнер
көркемөнерпаздар
көрме
көрмеге
көрмеген
көрмеде
көрмеи
көрмелер
көрмелерге
көрменің
көрмесі
көрмесінде
көрмесіне
көрмесінің
көрнекті
көрнекі
көрпе
көрпеш
көрсе
көрсет
көрсете
көрсетеді
көрсететін
көрсеткен
көрсеткендеи
көрсеткіш
көрсеткішке
көрсеткіштер
көрсеткіштерге
көрсеткіштердің
көрсеткіштері
көрсеткіштерін
көрсеткіштерінің
көрсеткіші
көрсеткішін
көрсеткішінің
көрсетсе
көрсетті
көрсету
көрсетуге
көрсетуде
көрсетуді
көрсетудің
көрсетумен
көрсетуші
көрсетуі
көрсетілген
көрсетілгендеи
көрсетілді
көрсетіледі
көрсетілетін
көрсетілуі
көрсетілімі
көрсетіліп
көрсетіп
көру
көруге
көруі
көрші
көршілес
көрік
көрікті
көрінбеи
көрінбеиді
көрінбеитін
көрінген
көрінді
көріне
көрінеді
көрінетін
көріну
көрінуі
көрініп
көрініс
көріністер
көріністері
көріністерін
көріністі
көрінісі
көрінісін
көріп
көріпкел
көсе
көсем
көсемдері
көсемі
көтер
көтерген
көтергіш
көтерді
көтере
көтереді
көтеретін
көтерме
көтеру
көтеруге
көтерілген
көтерілді
көтеріле
көтеріледі
көтерілетін
көтерілу
көтерілуі
көтерілуіне
көтеріліп
көтеріліс
көтеріліске
көтерілістер
көтерілістері
көтерілісті
көтерілістің
көтерілісшілер
көтерілісшілерге
көтерілісшілерді
көтерілісшілердің
көтерілісі
көтерілісін
көтерілісіне
көтерілісінің
көтеріп
көтеріңкі
көш
көшбасшы
көшбасшысы
көше
көшеге
көшеде
көшеді
көшелер
көшелері
көшелерімен
көшелерін
көшелерінің
көшенін
көшенің
көшесі
көшесімен
көшесінде
көшесіндегі
көшесіне
көшесінен
көшкен
көшпелі
көшпелілер
көшпелілердің
көшпенді
көшпенділер
көшпенділердің
көшті
көшу
көшуге
көшуі
көші
көшім
көшіп
көшірді
көшірме
көшірмесі
көшірмесін
көшіру
көшіруге
көшірілген
көшірілді
көшіріліп
көшіріп
көң
көңіл
көңілге
көңілді
көңілі
көңілін
көңілінен
л
ла
лаборант
лаборатория
лабораториялық
лабораториясы
лабораториясында
лабораториясының
лава
лавр
лаврентии
лагерь
лагері
лазер
лазерлік
лаи
лаилы
лаиық
лаиықты
лак
лама
лан
лангедок
лангон
ланд
ланди
ландшафт
ланка
лао
лаос
лар
ларда
лардағы
лардың
лары
лас
ластану
ластануы
ластанған
лат
латвия
латын
латынның
латынша
латыш
лауазым
лауазымды
лауазымы
лауазымын
лауазымына
лауазымға
лауреат
лауреаттары
лауреаты
лафоинш
лацио
лақап
лақтыру
лақтырып
лаңкестік
лген
лд
лдер
ле
лебедев
лев
леви
лед
леди
лез
лезде
леибниц
леикоциттер
леипциг
леирия
леитенант
леитенанты
лек
лекко
лексика
лексикалық
лекция
лекциялар
лекциялардың
лена
ленгер
ленин
ленинград
ленинградта
ленинградтағы
ленинградтың
лениндік
ленинизм
лениннің
лениншіл
лента
лео
леон
леонард
леонардо
леонид
леопольд
леп
лепсі
лер
лерд
лермонтов
лермонтовтың
лет
летт
лечче
ли
либералды
либералдық
либертадорес
либурн
ливан
ливенворт
ливерпуль
ливия
лига
лигада
лигадағы
лиганың
лигасы
лигасын
лигасына
лигасында
лигасындағы
лигасының
лигаға
лигурия
лидия
лиза
лизинг
лизье
лили
лилль
лима
лимож
лимон
лиму
лимузен
лимфа
лимфоциттер
лингвистика
лингвистикалық
линза
линия
линкольн
лион
липецк
лира
лирика
лирикалық
лирикасы
лиссабон
лит
литва
литван
литература
литературы
литии
литологиялық
литорал
литр
лицеи
лицензия
лицензиясы
лкжо
лл
ло
ловеч
логика
логикалық
логиканың
лозер
локомотив
ломбардия
ломоносов
лонг
лондон
лондонда
лондондағы
лондондық
лондонның
лондонға
лопес
лоран
лорд
лос
лот
лотарингия
лоуренс
лу
луар
луара
луганск
луговои
луи
луиза
луис
лука
лукас
лукашенко
лун
луна
лы
лық
львов
льюис
лэик
лю
любви
любовь
людвиг
люди
людмила
людовик
люк
люксембург
люневиль
люцерн
ля
лік
ләззат
м
ма
маб
магистр
магистратура
магистрі
магиялық
магма
магмалық
магманың
магнетит
магнии
магнит
магнитогорск
магнитті
магниттік
мадагаскар
мадақ
мадеира
мадрид
маж
мажар
мажарстан
мазар
мазары
мазақ
мазмұн
мазмұндағы
мазмұнды
мазмұны
мазмұнын
мазмұнына
мазһабы
маи
маида
маидан
маиданда
маидандағы
маиданнан
маиданның
маиданы
маиданына
маиданында
маиданының
маиданға
маиды
маидың
маиер
маик
маикл
маилар
маилары
маилин
маилиннің
маилы
маимыл
маимылдар
маин
маиор
маиоры
маира
маиы
маиын
маиының
маия
маиға
маиқы
мак
македония
макинск
макон
макрон
макроэкономикалық
макс
максвелл
максим
максималды
максимум
мал
малага
малаи
малаизия
малаизияның
малаисары
малдан
малдарын
малды
малдың
малдәрігерлік
мали
малик
мало
малонисогорская
малшы
малшылар
малы
малын
малының
мальта
малға
мамаи
маман
мамандандырылған
маманданған
мамандар
мамандарды
мамандардың
мамандары
мамандарын
мамандарының
мамандығы
мамандығын
мамандығына
мамандық
мамандықтар
мамандықтары
маманы
мамлют
мамыр
мамырда
мамырдан
мамырдағы
мамырдың
мамырынан
мамырында
мамық
ман
манас
манга
манд
маневр
мансабы
мансабын
мансабының
мансап
мансии
мансииск
мансфельд
мант
мантия
мануэль
манфред
манча
манчестер
манш
маньчжур
мао
мар
марал
маралды
мараньян
марапат
марапаттады
марапатталады
марапатталды
марапатталған
марапаттары
марапаттау
марапаты
марат
марганец
маргарет
маргарита
мардымсыз
маржан
мари
марии
марина
марино
марио
маритим
мария
марк
маркалы
маркасы
марке
маркетинг
маркетингтік
марко
маркс
марксизм
маркстік
маркус
марманд
марн
марна
марокко
марс
марсан
марсель
март
марта
мартен
мартин
мартөк
марш
маршал
маршалл
маршрут
марғұлан
марқакөл
марқұм
мас
масақ
маска
масс
масса
массаж
массалары
массаларының
массалық
массаның
массасы
массасын
массасына
массасының
массачусетс
массиві
мастер
масштабты
масштабы
мат
мата
матадан
матаи
маталар
матамен
матаны
матаның
матаға
матем
математигі
математик
математика
математикада
математикалық
математиканы
математиканың
материал
материалдан
материалдар
материалдардан
материалдарды
материалдардың
материалдармен
материалдары
материалдарын
материалдарының
материалдарға
материалды
материалдық
материалдың
материализм
материалистік
материалов
материалы
материктік
материя
материялық
материяның
маттиас
мату
матч
матчта
матчтар
матчтары
матчтың
матчы
матчын
матчында
маусым
маусымда
маусымдағы
маусымды
маусымдық
маусымнан
маусымның
маусымы
маусымына
маусымынан
маусымында
маусымының
маусымға
махаббат
махаббаты
махамбет
махатхир
махмуд
махмұд
махмұт
машина
машинажасау
машиналар
машиналарды
машиналардың
машиналары
машиналарын
машиналық
машинамен
машинаны
машинаның
машинасы
машинасының
машинисі
мая
маяк
маяковскии
маған
мағауия
мағжан
мағлұмат
мағлұматтар
мағына
мағынада
мағынадағы
мағыналар
мағыналарды
мағыналары
мағыналарын
мағыналарында
мағыналарға
мағыналы
мағыналық
мағынаны
мағынаның
мағынасы
мағынасын
мағынасына
мағынасында
мағынасындағы
мағынаға
мақал
мақала
мақалада
мақалалар
мақалалардың
мақалалары
мақалаларын
мақаланы
мақаланың
мақаласы
мақаласын
мақаласында
мақалаға
мақат
мақатаев
мақпал
мақсат
мақсатпен
мақсатта
мақсаттар
мақсаттарда
мақсаттарды
мақсаттары
мақсаттарын
мақсаттарына
мақсаттарға
мақсаттағы
мақсатты
мақсаты
мақсатымен
мақсатын
мақсатына
мақсатында
мақсатындағы
мақсатқа
мақсұт
мақта
мақтаарал
мақтан
мақтанышы
мақтау
мақұлдады
маңаиында
маңаиындағы
маңда
маңдаи
маңдағы
маңы
маңызды
маңыздылығы
маңыздылығын
маңыздысы
маңызы
маңызын
маңызға
маңын
маңына
маңынан
маңында
маңындағы
маңғыстау
маңғыстауда
маңғыстаудағы
маңғыстаудың
маңғыстаумұнаигаз
маңғышлақ
мб
мвт
мг
мгц
мгөб
мд
мдер
ме
мед
медалдармен
медалдарымен
медаль
медальдар
медальдармен
медальдарымен
медальмен
медальға
медалі
медалімен
медалін
медалінің
медведев
медведица
медеу
медиа
медиафаилдар
медине
медиу
медицина
медицинада
медициналық
медицинаның
медицинасында
медресе
медреседе
медреселер
медресесі
медресесінде
мез
мезгіл
мезгілде
мезгілі
мезгілінде
мезень
мезетте
мезозои
мезорегионының
меилі
меилінше
меирам
меирамхана
меирамы
меиуезер
меиілінше
меиірімді
меиірімділік
мекеме
мекемелер
мекемелерге
мекемелерде
мекемелерді
мекемелердің
мекемелері
мекемелерін
мекемелерінде
мекемелеріне
мекемелерінің
мекеменің
мекемесі
мекемесінде
мекемесінің
мекен
мекенге
мекенде
мекендеген
мекендеді
мекендеиді
мекендеитін
мекендеп
мекендер
мекендерге
мекендерде
мекендерді
мекендердің
мекендермен
мекендері
мекендерінде
мекендерінің
мекенді
мекеннің
мекені
мекенінде
мекеніне
мекенінен
мекенінің
мекиені
мекке
меккеге
меккеде
мекленбург
мексика
мексикада
мексикалық
мексиканың
мексико
мектебі
мектебін
мектебінде
мектебіне
мектебінен
мектебінің
мектеп
мектепке
мектепте
мектептегі
мектептен
мектептер
мектептерге
мектептерде
мектептерді
мектептердің
мектептері
мектептерінде
мектептеріне
мектептерінің
мектепті
мектептің
мелен
мелеуз
мелиорация
мелиорациялық
мельбурн
мельк
мельников
мембрана
мемл
мемлекет
мемлекетаралық
мемлекетке
мемлекетт
мемлекетте
мемлекеттегі
мемлекеттен
мемлекеттер
мемлекеттерге
мемлекеттерде
мемлекеттердің
мемлекеттермен
мемлекеттері
мемлекеттерінде
мемлекеттерінің
мемлекетті
мемлекеттік
мемлекеттің
мемлекеті
мемлекетін
мемлекетінде
мемлекетіндегі
мемлекетіне
мемлекетінің
мемориал
мемориалды
мемориалдық
мен
менделеев
мендель
менеджер
менеджері
менеджмент
менеджменті
менен
менш
меншігі
меншігінде
меншігіне
меншік
меншікке
меншікті
меншіктің
мені
менің
мер
мерген
мергендер
мергені
мереи
мереитои
мереитоилық
мереитоиы
мереитоиына
мереке
мерекелер
мерекелік
мерекесі
мерз
мерзім
мерзімге
мерзімде
мерзімді
мерзімдік
мерзімі
мерзімін
мерзімінде
мерзіміне
мерзімінен
мерзімінің
меридиан
мерке
меркі
мерт
меруерт
мессина
мессье
мет
метал
металдан
металдар
металдардан
металдарды
металдардың
металдармен
металды
металдық
металдың
металл
металлург
металлургия
металлургиялық
метаморфизм
метаморфтық
метан
метафизика
метеорологиялық
метод
методологиялық
метр
метражды
метрге
метрдеи
метрден
метрді
метрлік
метро
метрология
мех
механигі
механизатор
механизм
механизмдер
механизмдері
механизмдерін
механизмнің
механизмі
механизмін
механик
механика
механикаландыру
механикаландырылған
механикалық
механиканың
механикасы
мехико
мехмет
мец
мешіт
мешітке
мешітте
мешіттер
мешіттің
мешіті
мешітінің
меңгерген
меңгерді
меңгеру
меңгеруге
меңгеруші
меңгерушісі
меңгерушісінің
меңгеріп
меңдіқара
меңзеиді
ми
мигел
мигель
миграция
мидың
микро
микробиология
микробтар
микроорганизмдер
микроорганизмдердің
микрорегионының
микроскоп
микроскоппен
милан
милиция
миллер
миллиард
миллион
миллиондаған
миллионнан
миллионға
миль
мин
мина
минас
минерал
минералдар
минералдардан
минералдардың
минералдары
минералды
минералдылығы
минералдық
минералдың
минералогия
минералы
мини
минималды
министр
министрдің
министрлер
министрлігі
министрлігінде
министрлігіне
министрлігінің
министрлік
министрліктің
министрі
министрінің
миннесота
минск
минут
минутта
минуттаи
минуттан
минуттық
минутына
минутында
минутқа
минью
миокард
мир
мира
мирас
мисс
миссис
миссисипи
миссиясы
миссури
мистельбах
мистер
мистикалық
митоз
миф
мифологиялық
мифологиясында
мифологиясындағы
мифтік
михаил
михаилов
михаилович
михаиловка
михаиловна
михель
мичиган
мичурин
мишель
миы
миында
миының
миякин
миялы
миға
мкб
мкм
мл
млн
млрд
мм
мн
мо
мобильді
модель
модельдер
модельдері
модельдеу
модельдік
модельдің
моделі
моделін
модуль
модулі
мозамбик
мозель
мои
моины
моинына
моиын
моиындады
моиындаиды
моиындалған
моиындап
моиындау
моиындауға
моиындаған
моиынты
моиыны
моиынға
моиынқұм
мокша
мокшыге
мокшыден
мокшыға
мол
мола
молда
молдавия
молдасынан
молдағалиев
молдова
молекула
молекулалар
молекулалардың
молекулалары
молекулаларының
молекулалы
молекулалық
молекуланың
молекуласы
молекуласының
молекулярлық
молибден
молизе
молога
молынан
моль
мольер
моменті
момын
момынбаев
момышұлы
мон
монако
монарх
монархия
монах
монбар
мондегу
монета
монеталар
монетаның
мониторинг
мониторингі
монлюсон
монография
монографиялар
монографиялық
монографияның
монографиясы
моноклиндік
монополия
монополиялық
монпелье
монреаль
монтаж
монтана
монте
монтеш
монтиш
монтреи
монумент
монументті
монша
моншақ
моншақтар
монғол
мораль
моральдық
морбиан
морган
мордовия
морис
морозково
моррис
морт
мортань
морфология
морфологиялық
морфологиясы
москва
мотоатқыштар
мотор
моторлы
моцарт
моя
моғол
моғолдар
моғолстан
моңғол
моңғолдар
моңғолдардың
моңғолдың
моңғолия
моңғолияда
моңғолиядағы
моңғолияның
мпа
мтс
му
муз
музеи
музеиі
музеиінде
музеиінің
музыка
музыкада
музыкалы
музыкалық
музыкамен
музыкант
музыканттар
музыканы
музыканың
музыкасы
музыкасын
музыкасының
музыкаға
мулен
мультфильм
муниципалды
муниципалдық
муниципалитет
муниципалитеттері
муниципалитеттің
муниципалитетінің
мур
мусин
муслим
муссондық
мутация
мухаммад
мухаммед
мы
мылтық
мына
мынада
мынадаи
мыналар
мыналарды
мынандаи
мынаны
мынау
мырза
мырзаның
мырыш
мыс
мысал
мысалдар
мысалдары
мысалы
мысалға
мыстан
мысты
мыстың
мысыр
мысырда
мысырдың
мысырлық
мысық
мықтап
мықты
мың
мыңбаев
мыңдаи
мыңдаған
мыңдық
мыңжылдық
мыңжылдықта
мыңжылдықтар
мыңжылдықтың
мыңнан
мыңы
мыңға
мьянма
мэи
мэн
мэри
мэриленд
мэрі
мэтт
мэттью
мюллер
мюнстер
мюнхен
мінген
міндет
міндеттеме
міндеттемелер
міндеттемелерді
міндеттемелері
міндеттемелерін
міндеттер
міндеттерді
міндеттердің
міндеттері
міндеттерін
міндеттеріне
міндеттерінің
міндетті
міндеті
міндетін
міндетіне
міне
мінез
мінезді
мінезі
мінезін
мінсіз
мініп
міржақып
мқк
мүгедек
мүгедектер
мүдде
мүдделер
мүдделерді
мүдделері
мүдделерін
мүдделеріне
мүдделерінің
мүдделі
мүддесі
мүддесін
мүддесіне
мүиіз
мүиізді
мүиізі
мүиісіне
мүиісінен
мүк
мүлде
мүлдем
мүлкі
мүлкін
мүлтіксіз
мүлік
мүлікке
мүлікті
мүліктік
мүліктің
мүмк
мүмкін
мүмкіндігі
мүмкіндігін
мүмкіндігіне
мүмкіндігінен
мүмкіндігінше
мүмкіндігінің
мүмкіндік
мүмкіндіктер
мүмкіндіктерді
мүмкіндіктері
мүмкіндіктерін
мүмкіндіктеріне
мүмкіндікті
мүмкіншілігі
мүмкіншілік
мүндаи
мүрсеиіт
мүсін
мүсіндер
мүсіндері
мүсіндік
мүсіннің
мүсінші
мүсіні
мүсірепов
мүсіреповтің
мүше
мүшел
мүшелер
мүшелерге
мүшелердің
мүшелері
мүшелерімен
мүшелерін
мүшелерінде
мүшелеріне
мүшелерінен
мүшелерінің
мүшелігіне
мүшелік
мүшелікке
мүшес
мүшесі
мүшесін
мүшесіне
мүшесінің
мұз
мұзды
мұздығы
мұздық
мұздықтар
мұздықтардың
мұздықтың
мұздың
мұзы
мұнаи
мұнаигаз
мұнаиды
мұнаидың
мұнаилы
мұнаимен
мұнаишы
мұнаиы
мұнаиға
мұнан
мұнара
мұнаралар
мұнаралы
мұнараның
мұнарасы
мұнда
мұндаи
мұндаида
мұндағы
мұны
мұнымен
мұның
мұра
мұрагер
мұрагерлері
мұрагерлік
мұрагері
мұражаи
мұражаида
мұражаидың
мұражаилар
мұражаиы
мұражаиында
мұражаиының
мұражаиға
мұралар
мұралары
мұраларын
мұраны
мұрасы
мұрасын
мұрасының
мұрат
мұраты
мұраға
мұрағат
мұрағатталған
мұрағаттар
мұрағаттық
мұрағаты
мұрағатында
мұртты
мұрын
мұрындық
мұса
мұсабаев
мұсаның
мұсақұлов
мұстафа
мұстафин
мұсылман
мұсылмандар
мұсылмандардың
мұсылмандары
мұсылмандарының
мұсылмандарға
мұсылмандық
мұсылманша
мұхамед
мұхамеджан
мұхамеджанов
мұхамедханов
мұхаммад
мұхаммед
мұхаммедтің
мұхит
мұхиттар
мұхиттардың
мұхиттағы
мұхиттық
мұхиттың
мұхиты
мұхитына
мұхитында
мұхитындағы
мұхитының
мұхитқа
мұхтар
мұғалжар
мұғалім
мұғалімдер
мұғалімдердің
мұғалімдері
мұғалімдік
мұғалімнің
мұғалімі
мұқан
мұқанов
мұқановтың
мұқағали
мұқият
мұқтаж
мұқыр
мұң
мұңы
мәдени
мәдениет
мәдениетке
мәдениеттану
мәдениетте
мәдениеттер
мәдениетті
мәдениеттің
мәдениеті
мәдениетімен
мәдениетін
мәдениетінде
мәдениетіне
мәдениетінен
мәдениетінің
мәди
мәжбүр
мәжбүрлеу
мәжіліс
мәжілісі
мәжілісінде
мәжілісінің
мәз
мәиітті
мәкрүһ
мәл
мәлік
мәлім
мәлімдеді
мәлімдеиді
мәлімдеме
мәлімет
мәліметтер
мәліметтерге
мәліметтерді
мәліметтердің
мәліметтері
мәліметтерін
мәліметтеріне
мәліметті
мәліметі
мәмбет
мәміле
мән
мәнге
мәндері
мәндерін
мәндерінің
мәндес
мәнді
мәнерлеп
мәншүк
мәні
мәнін
мәнінде
мәніндегі
мәніне
мәнісі
мәнісінде
мәриям
мәрмәр
мәрте
мәртебе
мәртебеге
мәртебелі
мәртебесі
мәртебесін
мәртебесіне
мәселе
мәселеге
мәселелер
мәселелерге
мәселелерді
мәселелердің
мәселелері
мәселелерімен
мәселелерін
мәселелеріне
мәселелерінің
мәселен
мәселені
мәселенің
мәселесі
мәселесімен
мәселесін
мәселесінде
мәселесіне
мәскеу
мәскеуге
мәскеуде
мәскеудегі
мәскеуден
мәскеудің
мәскеулік
мәслихат
мәслихаттың
мәслихатының
мәсіх
мәтел
мәтелдер
мәтін
мәтіндер
мәтіндерді
мәтінді
мәтіндік
мәтіннің
мәтіні
мәтінін
мәшһүр
мәңгі
мәңгілік
мәңгілікке
мөлдір
мөлш
мөлшер
мөлшерге
мөлшерде
мөлшердегі
мөлшерден
мөлшерлеме
мөлшерлемесі
мөлшерлері
мөлшерлі
мөлшері
мөлшерімен
мөлшерін
мөлшерінде
мөлшеріне
мөлшерінен
мөлшерінің
мөңке
н
на
навигациялық
над
надан
надежда
надым
назар
назарбаев
назарбаева
назарбаевтың
назарын
назарына
назарға
назым
наиза
наизағаи
наиман
наимандар
намаз
намазды
намаздың
намазы
намазын
наме
намыс
намысын
нан
нанси
наным
нанымды
наполеон
нар
наразы
наразылығын
наразылық
народа
народов
нарын
нарынқол
нарығы
нарығын
нарығына
нарығында
нарығындағы
нарығының
нарық
нарықта
нарықтағы
нарықты
нарықтық
нарықтың
нарыққа
наса
населения
насихат
насихаттады
насихаттап
насихаттау
насихаттауға
наср
настольная
насыр
насьональ
наталья
нато
натрии
натриилі
натурал
науаи
наук
наука
науки
науру
наурыз
наурызбаи
наурызда
наурыздан
наурыздағы
наурыздың
наурызы
наурызым
наурызынан
наурызында
наурызға
научно
науқан
науқаны
науқас
науқастар
науқастарда
науқастардың
науқасты
науқастың
науқасқа
нацистік
нашар
нашарлаиды
нашарлап
нашарлауы
нағашы
нағыз
нақ
нақты
нақтылау
нақтылы
нақыл
нг
нд
нда
ндағы
нде
ндег
ндегі
не
неаполь
небраска
небір
небәрі
невада
невскии
нег
неге
негіз
негізге
негізгі
негізгілері
негізгісі
негізде
негізделген
негізделді
негізделеді
негізделіп
негіздер
негіздері
негіздерін
негіздеу
негізді
негіздік
негізсіз
негізі
негізін
негізінде
негізіндегі
негізіне
негізінен
нед
неден
неива
неитрон
неитрондар
неке
некеге
некеде
некеден
некені
нельсон
неліктен
нем
немере
немерелері
немересі
немесе
неміс
немістер
немістердің
немістің
немісше
нен
ненец
ненецк
нені
неоген
неолит
непал
нерв
несеп
несие
несиеге
несиелер
несиелік
несі
нет
нефтеюганск
нефшато
неше
неғұрлым
ни
нигер
нигерия
нид
нидер
нидерланд
нидерланды
ниет
ниетпен
ниеті
ниетін
нижегород
нижнии
низами
ник
никель
никита
никола
николаев
николаевич
николаевка
николаевна
николаи
николас
николь
нил
ним
нина
ница
ницше
ницшенің
нияз
ниязбаева
нквд
нм
нн
но
нобель
нобельдік
нова
новара
новая
новгород
ново
новобогат
новое
новокузнецк
новосибирск
новости
новосібір
новые
новыи
ноинкирхен
ноиштадт
номиналды
номиналы
номинация
номинациясы
номинациясын
номинациясында
нор
норберт
норв
норвег
норвегия
норвегиялық
норвегияның
норма
нормалар
нормаларды
нормалардың
нормалары
нормаларын
норман
нормандия
нормасы
нормативті
нормативтік
норте
норти
нос
нотаға
ноября
ноғаи
ноғаилар
ноғаилы
нс
ну
нуклеин
нш
нше
нші
ны
нысан
нысана
нысаналарды
нысаналы
нысананы
нысананың
нысанаға
нысанбаев
нысанда
нысандар
нысандарды
нысандардың
нысандары
нысандарын
нысандарына
нысандарының
нысанды
нысанның
нысаны
нысанына
нысанында
нысанының
нышандары
нышаны
нығаиту
нығаитуға
нығаитып
нық
ның
ньевр
нью
ньюкасл
ньютон
ньютонның
нязепетровск
ні
ніл
нің
нүкте
нүктеге
нүктеде
нүктеден
нүктелер
нүктелердің
нүктелері
нүктелерінің
нүктелі
нүктелік
нүктенің
нүктесі
нүктесін
нүктесінде
нүктесіне
нүктесінен
нүктесінің
нұр
нұра
нұралы
нұрахметов
нұржан
нұрлан
нұрлы
нұрпеиісов
нұрсұлтан
нұры
нұрғали
нұрғалиев
нұрғиса
нұсқа
нұсқабаиұлы
нұсқада
нұсқалар
нұсқалары
нұсқаларын
нұсқаларының
нұсқасы
нұсқасын
нұсқасына
нұсқасында
нұсқасының
нұсқау
нұсқаулар
нұсқаушы
нұсқаушысы
нұх
нұқсан
нәзік
нәпіл
нәр
нәресте
нәрестенің
нәрсе
нәрсеге
нәрседен
нәрселер
нәрселерді
нәрселердің
нәрсені
нәрсенің
нәруыз
нәсіл
нәсілді
нәсілдік
нәсілдің
нәсіліне
нәтиже
нәтижеге
нәтижелер
нәтижелерге
нәтижелерді
нәтижелері
нәтижелерін
нәтижелеріне
нәтижелі
нәтижес
нәтижесі
нәтижесіз
нәтижесін
нәтижесінде
нәтижесіне
нөл
нөлге
нөлдік
нөмір
нөмірге
нөмірлі
нөмірі
нөсер
о
оак
оар
об
оба
обадан
обалар
обалардың
обалары
обама
обаның
обасы
обаған
обл
области
область
облигациялар
облыс
облыста
облыстар
облыстарда
облыстардың
облыстары
облыстарын
облыстарында
облыстарындағы
облыстарының
облыстағы
облыстық
облыстың
облысы
облысымен
облысын
облысына
облысынан
облысында
облысындағы
облысының
облысқа
образ
образдар
образования
образы
образын
общеи
общероссиискии
общества
объект
объективті
объективтік
объектов
объекті
объектіге
объектілер
объектілерді
объектілердің
объектілері
объектілерін
объектілеріне
объектілерінің
объектіні
объектінің
объектісі
объектісінің
обь
обьвасюган
обьвах
обьке
обюссон
овернь
огаио
огпу
од
ода
одан
одағы
одағын
одағына
одағында
одағының
одақ
одақтар
одақтас
одақтастар
одақтық
одақтың
одаққа
одер
одесса
озат
озаты
озды
озон
озып
озық
озған
ои
оиашар
оида
оидан
оидағыдаи
оиды
оидың
оилады
оилаиды
оилаимын
оилаитын
оиланып
оилап
оилар
оилары
оиларын
оиластырылған
оилау
оилаудың
оилауға
оилаған
оилы
оимен
оинады
оинаи
оинаиды
оинаитын
оиналады
оиналатын
оинап
оинату
оинау
оинауды
оинауға
оинаған
оипат
оипатты
оипаты
оипатында
оипатының
оипаң
оират
оисырата
оиша
оишыл
оишылдар
оишылдары
оишылы
оиы
оиыл
оиылып
оиылған
оиын
оиына
оиында
оиындар
оиындарда
оиындарды
оиындардың
оиындары
оиындарын
оиындарына
оиындарында
оиындарындағы
оиындарының
оиындарға
оиынды
оиыннан
оиынның
оиынша
оиыншы
оиыншылар
оиыншылардың
оиыншылары
оиыншыны
оиыншының
оиыншысы
оиыншыға
оиыншық
оиыншықтар
оиыны
оиынын
оиынына
оиынында
оиынының
оиының
оиынға
оиып
оиыс
оиыстар
оиысы
оиысында
оиысының
оиығы
оиық
оиықтар
оиықты
оиға
ок
ока
окато
океания
оклахома
округ
округке
округте
округтегі
округтер
округтерге
округтік
округтің
округы
округі
округінде
округіндегі
округіне
округінен
округінің
оксерр
оксиді
оксфорд
октвиль
октябрь
октября
оку
окулық
ол
олаи
олар
оларда
олардан
олардағы
оларды
олардын
олардың
олармен
оларға
олбани
олег
олжа
олжабаи
олжас
оливеира
оливер
олимп
олимпиада
олимпиадада
олимпиадалық
олимпиаданың
олимпиадасының
олимпиадаға
олимпик
олимпия
олимпиялық
олорон
ольга
ом
оман
омар
омаров
омарханұлы
омарұлы
омбы
омбыда
омер
омыртқа
омыртқалы
омыртқалылар
омыртқасыз
омыртқасыздар
омь
он
онан
онда
ондаи
ондаған
ондағы
ондық
онега
онегин
онжылдығының
онжылдықта
онкология
онкүндігінде
онлаин
оннан
онсыз
онтарио
онша
оншақты
оны
онымен
онын
оныншы
оның
оо
оп
опасыздық
опат
опера
опералық
операсы
операсында
операсының
оперативті
оперативтік
оператор
оператордың
операторлар
операторы
операция
операциялар
операцияларды
операциялардың
операциялары
операцияларын
операцияларының
операциялық
операцияны
операцияның
операциясы
операциясын
описание
оппозиция
оппозициялық
оптика
оптикалық
опыт
ор
ораз
ораза
ораи
ораида
орал
оралады
оралда
оралды
оралдың
оралу
оралуы
оралуға
оралып
оралған
оралғаннан
орама
орамал
орамжапырақ
орамы
орап
орасан
орақ
орбита
орбиталық
орбитаға
орган
органдар
органдардың
органдары
органдарын
органдарына
органдарында
органдарының
органдарға
организм
организмге
организмде
организмдегі
организмдер
организмдерге
организмдердің
организмді
организмнің
организмінде
организміне
организмінің
органик
органикалық
органның
органы
органының
орда
ордабасы
ордада
орданың
ордасы
ордасын
ордасына
ордасында
ордасындағы
ордасының
ордаға
орден
ордендері
ордендерімен
орденді
орденмен
ордені
орденімен
орденінің
орджоникидзе
ордовик
орегон
орел
оренбург
оренсе
оризонти
орион
орияк
оркестр
оркестрге
оркестрдің
оркестрлік
оркестрі
оркестрінің
орлов
орман
орманда
ормандар
ормандарда
ормандарды
ормандардың
ормандары
ормандарында
орманды
орманның
орманы
ормонд
орн
орнады
орналасады
орналасатын
орналаскан
орналасса
орналасты
орналастырады
орналастырды
орналастыру
орналастыруға
орналастырылады
орналастырылды
орналастырылған
орналастырып
орналасу
орналасуы
орналасуын
орналасуына
орналасып
орналасқан
орналасқандықтан
орнатады
орнатты
орнату
орнатуға
орнатылады
орнатылатын
орнатылды
орнатылып
орнатылған
орнатып
орнатқан
орнаған
орнағаннан
орны
орнымен
орнын
орнына
орнынан
орнында
орнындағы
орнының
орнығып
орнықты
орныққан
орск
орт
орта
ортаазиялық
ортада
ортадан
ортадағы
орталау
орталығы
орталығымен
орталығын
орталығына
орталығынан
орталығында
орталығындағы
орталығының
орталық
орталықта
орталықтан
орталықтандырылған
орталықтар
орталықтары
орталықтарына
орталықтарында
орталықтарының
орталықтың
орталыққа
ортамен
ортан
ортаны
ортаның
ортасы
ортасын
ортасына
ортасынан
ортасында
ортасындағы
ортасының
орташа
ортаға
ортағасырлық
ортақ
ортаққорда
ортаңғы
орфографиялық
орхон
орын
орынбаи
орынбасарлары
орынбасары
орынбор
орынборда
орынбордағы
орынборға
орында
орындады
орындаи
орындаиды
орындаитын
орындалады
орындалатын
орындалды
орындалу
орындалуы
орындалуын
орындалуына
орындалып
орындалған
орындап
орындар
орындарда
орындарды
орындардың
орындары
орындарымен
орындарын
орындарына
орындарынан
орындарында
орындарындағы
орындарының
орындарға
орындау
орындауда
орындауды
орындаушы
орындаушылар
орындаушылық
орындаушысы
орындауы
орындауында
орындауындағы
орындауға
орындаған
орындағы
орынды
орындық
орыннан
орынның
орынсыз
орыны
орынға
орыс
орыстар
орыстардың
орыстың
орысша
ос
осака
осакаров
осал
осетия
оскар
осло
осман
османлы
основы
особенности
оспан
оспанов
островскии
островскиидің
осы
осыдан
осылаи
осылаиша
осылар
осылардың
осымен
осынау
осында
осындаи
осындағы
осыны
осының
осыған
ось
осі
осіне
от
ота
отан
отандық
отаны
отанына
отанға
отар
отарлау
отарлық
отаршыл
отаршылдық
отары
отау
отбасы
отбасылар
отбасылық
отбасымен
отбасын
отбасына
отбасынан
отбасында
отбасындағы
отбасының
отбасысында
отечественнои
отряд
отрядтары
отряды
отрядына
отрядының
отрядқа
отставкаға
оттан
оттегі
оттегімен
оттегінің
оттек
оттекпен
оттекті
оттектің
отто
отты
оттың
оты
отыз
отын
отынды
отынның
отыр
отыра
отырады
отырар
отыратын
отырды
отырмыз
отырса
отыру
отыруы
отыруға
отырып
отырысында
отырықшы
отырықшылық
отырықшылыққа
отырған
отырғанда
отырғаны
отырғанын
отырғызады
отырғызу
отырғызылған
отырғызып
отқа
оф
офицер
офицерлер
офицері
официальныи
офк
офф
очерк
очерки
очерктер
очерктері
ош
оша
ошағы
ошақ
ошақтары
ошақты
оэште
ою
оған
оғаш
оғыз
оғыздар
оғыздардың
оқ
оқжетпес
оқи
оқиды
оқитын
оқиға
оқиғадан
оқиғалар
оқиғаларды
оқиғалардың
оқиғалары
оқиғаларын
оқиғаларға
оқиғалы
оқиғаны
оқиғаның
оқиғасы
оқиғаға
оқо
оқтын
оқтың
оқу
оқудан
оқуды
оқудың
оқулығы
оқулық
оқулықтар
оқулықтардың
оқушы
оқушылар
оқушыларды
оқушылардың
оқушылары
оқушыларына
оқушыларының
оқушыларға
оқушының
оқушысы
оқуы
оқуын
оқуға
оқшау
оқшауланған
оқшаулау
оқы
оқыды
оқылады
оқылатын
оқылған
оқымысты
оқып
оқырман
оқырмандар
оқырмандарға
оқырманға
оқыс
оқытатын
оқыту
оқытуды
оқытудың
оқытушы
оқытушылар
оқытушылары
оқытушылық
оқытушысы
оқытуға
оқытылады
оқытып
оқыған
оққа
оң
оңаи
оңаша
оңды
оңт
оңтаиландыру
оңтаилы
оңтүстігі
оңтүстігін
оңтүстігінде
оңтүстігіндегі
оңтүстігіне
оңтүстігінен
оңтүстік
оңтүстікке
оңтүстікте
оңтүстіктегі
оңтүстіктен
оңшыл
оңға
п
па
пабло
павел
павия
павлов
павлович
павловск
павлодар
павлодарда
падова
пазарджик
паи
паида
паидалана
паидаланады
паидаланатын
паидаланды
паидалану
паидалануда
паидалануды
паидаланудың
паидаланумен
паидаланушы
паидаланушылар
паидаланушылардың
паидаланушының
паидалануы
паидалануына
паидалануға
паидаланылады
паидаланылатын
паидаланылды
паидаланылуы
паидаланылып
паидаланылған
паидаланып
паидаланған
паидаланғанда
паидаланғаны
паидалы
паиданы
паиданың
паидасы
паидасыз
паидасын
паидасына
паидаға
паиыз
паиыздан
паиызды
паиыздық
паиызы
паиызын
паиызға
паиым
паиымдау
паиымдауынша
паиғамбар
паиғамбардан
паиғамбардың
паиғамбарлар
паиғамбарлық
паиғамбарымыз
паиғамбарымыздың
паиғамбарға
пак
палата
палаталы
палатасы
палатасынан
палатасының
палау
палеоген
палеозои
палеозоидың
палеозоилық
палеолит
палермо
палестина
палуан
пальма
пальмасы
памир
памяти
пан
пана
панама
панфилов
папа
папасы
папуа
пар
пара
парагваи
паразит
паразиттік
параиба
параллель
параметрлер
параметрлері
параметрлерін
парасат
парасатты
парафин
парақшасы
пари
париж
парижге
парижде
париждегі
парк
паркер
паркі
парламент
парламентке
парламенттік
парламенттің
парламенті
парламентіне
парламентінің
парма
парсонс
парсы
парсылар
парсыша
партизан
партия
партиялар
партияларды
партиялардың
партиялары
партиялық
партияны
партияның
партиясы
партиясын
партиясына
партиясынан
партиясының
партияға
парыз
парызы
пас
паскаль
пассивті
патент
патология
патологиялық
патриархалдық
патрик
патриоттық
патша
патшаиым
патшаиымның
патшаиымы
патшалар
патшалары
патшалығы
патшалығын
патшалығына
патшалығының
патшалық
патшаның
патшасы
патшасының
патшаға
паулиста
паулу
пауль
паш
паша
пе
пегас
пед
педагог
педагогика
педагогикалық
педагогты
педиатрия
педогогикалық
педро
педру
пеизаж
пекин
пельтен
пен
пенальти
пенальтилер
пенде
пенза
пензен
пенс
пенсильвания
пер
первомаи
первыи
перде
перепись
перзенті
периге
период
периодты
периодтық
периоды
перифериялық
пермь
пернамбуку
перне
пернетақта
перник
перовск
перпендикуляр
персеи
перси
перу
перш
періште
періштелер
петер
петербург
петербургке
петербургте
петербургтегі
петр
петров
петрович
петровна
петроград
петрография
петропавл
печора
печорск
пеш
пешке
пи
пианист
пиауи
пинега
пиньял
пионер
пионері
пирамида
пиренеи
пирит
питер
пифагор
пияз
пиязды
плазма
плазмалық
планета
планеталар
планеталардың
планеталық
планетаның
планетарлық
планк
пластикалық
пластинка
пластмасса
плата
платина
платон
платонның
платформа
платформалар
платформалық
платформасы
платформасының
плацдармды
плевен
плеи
пловдив
пм
пневматикалық
пневмония
по
победа
повестер
повестері
повесть
повесі
повесін
под
подполковник
позиция
позициясы
позициясын
поиыз
покровка
пол
поле
полеводству
полигоны
полиграфистері
полиграфия
полиграфиялық
полимер
полимерлер
полиметалл
политехникалық
полиция
полициясы
полк
полковнигі
полковник
полкі
полкінің
полтава
поль
польша
польшада
польшаның
польшаға
полюс
полюсті
поляк
поляктар
поляна
поляр
полярлық
померания
понте
понтуаз
поп
попов
популяция
порошенко
порт
портал
порталегре
порталы
портрет
портреті
порттары
порту
португал
португалия
португалиядағы
португалиялық
португалияның
порты
поршеньді
поселкесі
после
пособие
пост
посттан
посты
постына
постынан
постықа
постқа
потанин
потенца
потенциал
потенциалды
потенциалдық
потенциалы
поттер
почта
пошта
пошталық
поштасы
поэзия
поэзиялық
поэзияның
поэзиясы
поэзиясына
поэзиясында
поэзиясындағы
поэзиясының
поэма
поэмалар
поэмалары
поэмасы
поэмасын
поэтика
поэтикалық
пп
правда
право
православ
православие
православиелік
прага
прад
практика
практикада
практикалық
практикасы
практикасында
председателі
президент
президента
президенти
президентке
президенттік
президенттікке
президенттің
президенті
президентіне
президентінің
президиума
президиумы
президиумының
премиясы
премиясының
премьер
премьера
премьерасы
препарат
препараттар
препараттарды
пресервед
пресс
прету
при
приборлар
призма
приморье
принц
принцип
принциптер
принциптері
принциптерін
принциптеріне
принципті
принципі
принципін
принципіне
присвоении
про
проблема
проблемалар
проблемаларды
проблемалары
проблемаларын
проблемалық
проблемасы
проблемы
провен
проверено
провинция
провинцияның
провинциясы
провинциясында
провинциясындағы
провинциясының
программа
программалар
программалау
программалық
программаны
программаның
программасы
прогресс
прогрессивті
прогресшіл
продюсер
продюсерлік
продюсері
проект
проза
прозалық
прокуратура
прокуратурасының
прокурор
прокурордың
прокуроры
прокурорының
пролетариат
пропорционал
проректор
проректоры
просвещение
простор
протеин
протерозои
протестант
протестанттар
протестанттық
против
протон
протондар
проф
професор
профессор
профессорлар
профессоры
профилактикалық
профиль
профилі
процеске
процесс
процессор
процессордың
процессі
процестер
процестерге
процестерді
процестердің
процестері
процестерін
процестеріне
процестерінің
процесті
процестің
процесі
процесін
процесінде
процесіне
процесінің
пруссия
прюм
психикалық
психолог
психология
психологияда
психологиялық
психологияның
психологиясы
пт
публицист
публицистикалық
пугачев
пулемет
пульмонология
пункт
пункттері
пункті
пур
пути
путин
путь
пушкин
пушкиннің
пуэрто
пфальц
пышақ
пышақпен
пышақтар
пышма
пьемонт
пьер
пьерр
пьеса
пьесалар
пьесалары
пьесаларын
пьесасы
пьесасын
пьесасында
пюи
пікір
пікірге
пікірде
пікірді
пікірдің
пікірлер
пікірлерді
пікірлері
пікірлерін
пікірталас
пікірі
пікірін
пікіріне
пікірінше
піл
пір
піседі
пісетін
піскен
пісіп
пісіреді
пісіру
пісіруге
пісірілген
пісіріледі
пісіріп
пішен
пішімі
пішін
пішінге
пішінде
пішіндер
пішіндері
пішіндес
пішінді
пішіні
пішінін
пішініне
пішінінің
пүаж
пұт
пұтқа
пәк
пәкістан
пәкістанның
пәле
пән
пәндер
пәндері
пәндерінің
пәндік
пәні
пәнінен
пәнінің
пәрменді
пәтер
пәтері
р
ра
рабат
радиация
радиациялық
радии
радикалды
радио
радиоактивті
радиоактивтік
радиобаиланыс
радиология
радиолокациялық
радиосы
радиосында
радиосының
радиотехника
радиотехникалық
радиохабар
радиусы
радлов
развитие
развития
разград
разряд
разрядты
разы
раи
раиан
раинер
раит
раихан
раиы
раиымбек
раиын
раиына
раиының
рак
ракета
ракеталар
ракеталық
ракетаның
ракетка
ральф
рамазан
ран
раритет
рас
рассел
рассказы
рассоха
растады
растаиды
растаитын
растау
расында
рауан
рауль
раунд
раундта
раушан
рафаэль
рахат
рахимбекова
рахимов
рахман
рахмет
рационал
рационалды
рашид
рақ
рг
рге
рген
рд
ре
реактивті
реактивтік
реакция
реакциялар
реакцияларды
реакциялардың
реакциялары
реакциялық
реакцияның
реакциясы
реакциясын
реакцияға
реал
реализм
реалистік
реаль
рев
революция
революциялық
революцияның
революциясы
революциясына
революциясынан
революциясының
революцияшыл
революцияға
регби
регионына
регионында
ред
редактор
редактордың
редакторлық
редакторы
редакторының
редакциеи
редакция
редакциялық
редакциясы
редакциясын
редакциясында
редакциясының
реджо
реестрі
реестріндегі
реж
режим
режимде
режимі
режимін
режимінде
режиссер
режиссердің
режиссерлер
режиссерлік
режиссері
режімі
резерв
резервтік
резеңке
резиденциясы
резина
резонанс
реи
реин
реинланд
реитинг
реитингі
реитингінде
рек
рекорд
рекордтар
рекордтық
рекордын
рекреациялық
ректор
ректоры
релиз
рене
ренессанс
ренн
рентген
рентгендік
репертуарынан
репертуарында
репортаж
ресеи
ресеиге
ресеиде
ресеидегі
ресеиден
ресеиді
ресеидің
ресеилік
ресеимен
ресми
респ
республик
республика
республикада
республикадағы
республикалар
республикалардың
республикалары
республикаларының
республикалық
республикамызда
республикамыздың
республиканың
республикасы
республикасымен
республикасын
республикасына
республикасында
республикасындағы
республикасының
республикаға
республики
ресурс
ресурстар
ресурстарды
ресурстардың
ресурстары
ресурстарын
ресурстарының
ресурстарға
ресурсы
рет
ретке
ретпен
ретсіз
ретте
реттеиді
реттеитін
реттелген
реттеледі
реттелетін
реттен
реттеп
реттеу
реттеуге
реттеуді
реттеудің
реттеуші
ретті
реттік
реті
ретімен
ретін
ретінде
ретіндегі
референдум
рефлекс
рефлекстер
реформа
реформалар
реформаларды
реформалау
реформасы
рецессивті
речка
рең
реңді
реңі
риа
рибатежу
рибеиран
ривер
рига
рид
риддер
риза
рика
рим
римге
римде
римдегі
римдік
римдіктер
римнің
римскии
рио
риоха
ритм
риу
рихард
ричард
рк
ркфср
рл
рмк
рн
рнеше
рнқ
ро
роберт
роберто
робин
робот
роботтар
род
роджер
родригес
роза
рок
роланд
роль
ролі
ролін
рома
роман
романда
романдар
романдары
романның
романтизм
романтикалық
романы
романын
романында
романының
романья
ромб
ромбылық
ромео
рональд
рорбах
росс
россии
россииская
россиискои
россия
ростов
рот
рота
ротасы
роуз
рр
рсджп
рсфср
ртрк
ртұтас
ру
руан
рубль
руда
рудныи
рудольф
рудың
рузвельт
рулар
рулардың
рулары
руларының
рулық
рум
румын
румыния
румынияның
руна
рус
русе
руслан
руссильон
русская
русскии
русско
русского
руссо
русь
рух
рухани
рухты
рухтың
рухы
рухын
рухына
руы
руынан
руының
рф
ры
рыбинск
рынок
рысқалиева
рысқұлов
рыцарь
рэи
рэп
рязань
рі
рүстем
рұқсат
рұқсатсыз
рәсім
рәсімі
рәсімін
рәсіміне
рөл
рөлге
рөлде
рөлдер
рөлдерде
рөлдерді
рөлдердің
рөлдері
рөлдерін
рөлді
рөлі
рөлімен
рөлін
рөлінде
рөліне
с
са
саадет
саар
саарбург
саба
сабан
сабағы
сабағын
сабағынан
сабағында
сабағының
сабақ
сабақтар
сабақтары
сабақтарын
сабақтас
сабақты
сабақтың
сабаққа
сабы
сабын
сабыр
сабырлы
саванна
саверн
садақ
садақа
саддам
садыр
садырова
садық
саз
сазан
сазгер
саздан
саздар
саздақты
сазды
сазы
саи
саид
саилады
саилаиды
саиланады
саиланатын
саиланды
саиланып
саиланған
саилау
саилауда
саилауды
саилаудың
саилаушылар
саилаушылардың
саилауы
саилауында
саилауға
саилаған
саилы
саиман
саимандар
саирам
саиран
саит
саите
саиты
саитында
саитындағы
саитының
саиын
саиынғы
саиып
сакмара
саксония
сал
сала
салааралық
салада
саладағы
салады
салалар
салаларда
салалардың
салалары
салаларымен
салаларын
салаларына
салаларында
салаларындағы
салаларының
салаларға
салалы
салалық
саламанка
саланы
саланың
саласы
саласын
саласына
саласынан
саласында
саласындағы
саласының
салат
салатын
салауат
салауатты
салаға
салдар
салдары
салдарын
салдарынан
салды
салдырған
сален
салерно
салехард
салжұқ
салих
салм
салма
салмағы
салмағын
салмағына
салмағының
салмақ
салмақта
салмақтағы
салмақты
салса
салт
салтанат
салтанатты
салтанаты
салты
салтын
салтына
салу
салуда
салуды
салудың
салумен
салушы
салушылардың
салуы
салуға
салым
салына
салынады
салынатын
салынды
салындыдағы
салыну
салынуы
салынуына
салынып
салынған
салып
салысты
салыстыра
салыстырмалы
салыстыру
салыстыруға
салыстырып
салыстырғанда
салысымен
салығы
салығын
салық
салықтар
салықтарды
салықтардың
салықты
салықтық
салықтың
сальвадор
салған
салғанда
салқын
салқындату
сам
самаи
самал
самар
самара
самарқан
самарқанд
самбо
самур
самырсын
самұрық
сан
сана
санада
санады
санаиды
санаитын
саналады
саналатын
саналды
саналы
саналып
саналған
сананы
сананың
санап
санасы
санасын
санасына
санасында
санасының
санат
санатории
санаттағы
санатты
санатына
санау
санаулы
санауға
санаға
санаған
санағы
санағының
санақ
санда
сандар
сандарды
сандардың
сандары
сандарының
санды
сандық
сандықтау
санжар
санитариялық
санитарлық
санкт
санның
санскрит
сансыз
сант
санта
сантана
сантарен
сантиметр
сантиметрге
санто
сантос
санту
сантьяго
саны
санымен
санын
санына
санынан
санында
санының
санға
сап
сапа
сапалы
сапалық
сапар
сапарда
сапармен
сапары
сапарында
сапарға
сапасы
сапасын
сапасына
сапасының
сапақ
сапты
сапына
сапында
сапындағы
сара
сарагоса
сараи
сараида
сараидың
сараилар
сараишық
сараиы
сараиына
сараиында
сараиының
сараланады
саралап
саралау
саран
сараптама
сараптамалық
сараптау
сарапшы
сарапшылар
сарапшысы
сарапқа
саратов
сараң
сарбаз
сарбаздар
сарбаздары
сардар
сардиния
сарла
сармат
саррбур
сарт
сары
сарыарқа
сарыарқаның
сарыағаш
сарыбаев
сарыбаи
сарыбұлақ
сарыкөл
сарымсақ
сарын
сарыны
сарысу
сарытау
сарышаян
сарышұнақ
сарыөзек
сарыөзен
сарғылт
сарғыш
сарқан
сарқырама
сасық
сатады
сататын
сатира
сатиралық
сатпаев
саттаров
сатты
саттық
сату
сатудан
сатурн
сатушы
сатуға
саты
сатыда
сатыдан
сатыдағы
сатылады
сатылары
сатыларында
сатылатын
сатылды
сатылы
сатылымға
сатылып
сатылған
сатып
сатысы
сатысына
сатысында
сатыға
сатқан
сау
сауал
сауалнама
сауат
сауатты
сауаттылық
сауатын
сауд
сауда
саудагер
саудагерлер
саудада
саудамен
сауданы
сауданың
саудасы
саудаға
саумалкөл
сауран
саусағы
саусақ
саусақпен
саусақтары
саусақтарының
саусақты
сауын
сауыр
сауыт
сауытты
сауыты
сауық
сауықтыру
саха
сахабалар
сахалин
сахара
сахиб
сахих
сахна
сахнада
сахналық
сахнасына
сахнасында
сахнаға
саша
саябағы
саябағында
саябақ
саябақтар
саябақтың
саяды
саяз
саян
саясат
саясаткер
саясаткерлер
саясаткері
саясатта
саясаттану
саясаттанушы
саясаттағы
саясатты
саясаттың
саясаты
саясатын
саясатына
саясатында
саясатының
саясатқа
саяси
саят
саятшылық
саяхат
саяхатшы
саяхатшылар
саяхатшысы
саяхаты
саяқ
сағ
саған
сағасы
сағасына
сағасынан
сағасында
сағат
сағатта
сағаттан
сағаттар
сағаттық
сағаттың
сағаты
сағатына
сағатқа
сағақты
сағыз
сағындықов
сағыныш
сақ
сақа
сақал
сақина
сақиналар
сақиналы
сақинасы
сақтады
сақтаи
сақтаиды
сақтаитын
сақталады
сақталатын
сақталды
сақталмаған
сақталу
сақталуда
сақталуы
сақталуын
сақталуына
сақталып
сақталған
сақтандыру
сақтандырудың
сақтану
сақтап
сақтар
сақтардың
сақтау
сақтауда
сақтауды
сақтаудың
сақтаулы
сақтаушы
сақтауға
сақтаған
сақтық
саңылау
саңылаулары
саңылауы
саңырау
саңырауқұлақ
саңырауқұлақтар
саңырауқұлақтардың
сб
сборник
свердлов
свердловск
светлана
свифт
свияга
связи
се
сеара
себастьян
себебі
себебін
себебінен
себеді
себеп
себепкер
себептен
себептер
себептерге
себептерден
себептермен
себептері
себептерін
себептерінің
себепті
себепші
себет
себу
севастополь
севилья
сегіз
сегізінші
сез
сезген
сезгіш
сезеді
сезу
сезіледі
сезім
сезімге
сезімдер
сезімді
сезімдік
сезіммен
сезімнің
сезімтал
сезімталдығы
сезімі
сезімін
сезіміне
сезімінің
сезіне
сезінеді
сезіну
сезініп
сезіп
сеисенбіде
сеисмикалық
сеифуллин
сеифуллиннің
сеиіт
сеиіткасымов
сеиітов
сек
секретары
секреция
секс
сексен
сексеуіл
сектор
секторы
секторының
секунд
секундта
секундына
секілді
секіру
секіріп
сел
селекция
селекциялық
селен
селеста
селеу
село
селолық
селосы
селосында
семантикалық
семеи
семеиге
семеиде
семеидегі
семеидің
семен
семенов
семенович
семинар
семинарлар
семит
семсер
семіз
сен
сена
сенат
сенатов
сенатор
сенаттың
сенатының
сенбі
сенбіде
сенген
сендер
сендерге
сендердің
сенді
сенегал
сенеді
сенемін
сенен
сенсорлық
сент
сентября
сену
сені
сенім
сенімге
сенімдері
сенімді
сенімділігі
сенімділік
сеніммен
сенімнің
сенімсіздік
сенімі
сенімін
сеніміне
сеніп
сенің
септігін
септік
сер
серб
сербия
сербияның
сервер
сервис
сергеев
сергеевич
сергеи
сергек
сержант
сериал
сериалдың
сериалында
сериалындағы
серия
сериялы
сериялық
сериясы
сериясын
сериясында
сериясындағы
сериясының
серке
серпімді
серпімділік
серпін
серпінді
серра
серрания
серт
сертан
сертификаттау
серхио
сері
серігі
серік
серіктері
серіктерінің
серіктес
серіктестері
серіктестігі
серіктестік
серіктесі
серіппе
сессиясы
сессиясында
сетубал
сеул
сеуіп
си
сигнал
сигналдар
сигналдарды
сигналдарын
сигналды
сигналдың
сигналы
сиднеи
сиезінде
силва
силикаттар
силистра
силур
сим
символ
символдар
символдық
символизм
символикалық
символы
симметрия
симметриялы
симметриялық
симон
симфония
симфониялық
син
сина
сингапур
сингл
синглы
сингонияда
синдром
синдромы
синоним
синонимдері
синонимі
синтаксис
синтаксистік
синтез
синтездеу
синтезі
синтетикалық
синхронды
сипап
сипат
сипатта
сипаттады
сипаттаиды
сипаттаитын
сипатталады
сипатталатын
сипатталды
сипатталған
сипаттама
сипаттамалар
сипаттамалары
сипаттамаларын
сипаттамасы
сипаттамасын
сипаттап
сипаттары
сипаттарын
сипаттау
сипаттауға
сипаттаған
сипаттағы
сипатты
сипаты
сипатымен
сипатын
сипатына
сипатында
сипатқа
сирегірек
сирек
сирия
сирияның
система
системы
сити
сицилия
сиыр
сиырдың
сиыршы
сиыры
сия
сиякты
сияқты
сиқырлы
сиқыршы
ск
скандинавия
ске
скиф
скифтер
скотт
скрипка
скуратов
славян
славяндар
слесарь
сливен
словак
словакия
словарь
словения
слово
см
смартфон
смағұлов
смирнов
смит
смоленск
смолян
сн
снаряд
снарядтар
со
соавт
собор
соборы
сов
совет
совета
советская
советскии
советских
советского
советскои
советтік
советі
советінің
совхоз
совхозында
сода
содан
созақ
созыла
созылады
созылатын
созылды
созылмалы
созылу
созылуы
созылып
созылыңқы
созылған
созып
соим
соиылған
соиып
сок
соколов
сократ
сократтың
сол
солаи
солар
соларды
солардың
соларға
солақаи
солдат
солдаттар
солисті
солисі
соло
соломон
солт
солтүстик
солтүстігі
солтүстігін
солтүстігінде
солтүстігіндегі
солтүстігіне
солтүстігінен
солтүстік
солтүстікке
солтүстікте
солтүстіктегі
солтүстіктен
солшыл
соль
солға
солғын
сом
сома
сомали
соманы
сомасы
сомасын
сомдады
сомдаиды
сомдап
сомдаған
сомға
сон
сона
сонан
сонау
сонда
сондаи
сондағы
сондықтан
сонша
соншалық
соншалықты
соны
сонымен
соның
сопақ
сопақша
сопы
сопылық
сор
сораң
сория
сорос
сорпа
сорпаға
сорт
сортаң
сортаңды
сорттары
сорттарын
сортты
сорты
сору
соры
сорып
сорғы
сорғыш
сосна
сост
составители
сосын
сосьва
сосьваға
сот
сотта
сотталған
соттар
соттардың
соттық
соттың
соты
сотында
сотының
сотқа
соус
софия
соц
социал
социализм
социалист
социалистических
социалистического
социалисттік
социалистік
социология
социологиялық
соч
союз
союза
соя
соға
соғады
соған
соғатын
соғды
соғу
соғуы
соғылып
соғылған
соғып
соғыс
соғыста
соғыстан
соғыстар
соғыстары
соғыстағы
соғысты
соғыстың
соғысы
соғысын
соғысына
соғысынан
соғысында
соғысындағы
соғысының
соғысып
соғысқа
соғысқан
соғұрлым
соқпалы
соқты
соқтырады
соқтырды
соқыр
соққан
соққы
соққыны
соң
соңды
соңы
соңына
соңынан
соңында
соңындағы
соңғы
соңғысы
спарта
спартак
спасск
спб
спектакль
спектакльдер
спектаклі
спектр
спектрлік
спектроскопия
спектрі
спенсер
спецификалық
спин
спираль
спиральді
спирт
спиртті
спирті
список
спора
спорт
спортинг
спортпен
спорттық
спорттың
спортшы
спортшылар
спортшысы
спорты
спортының
спортқа
справочник
спутник
спутниктік
среднеи
сс
сср
ссср
ст
ставрополь
ставропольск
стадион
стадионда
стадионның
стадионы
стадионында
стажер
стакан
стал
сталин
сталинград
сталиндік
сталиннің
стамбул
стамбұл
стан
стандарт
стандарттар
стандарттары
стандарттарға
стандарттау
стандартты
стандарты
станислав
станиславскии
станок
станса
стансасы
стансасында
стансасының
станция
станциялар
станциялары
станцияның
станциясы
станциясынан
станциясында
станциясының
стара
старшина
статикалық
статистика
статистикалар
статистикалық
статистикасы
статусы
статусын
статья
стақан
степан
степанович
степногорск
степнои
стер
стерлинг
стерлитамак
стефан
стив
стивен
стилистикалық
стиль
стильде
стильдік
стилі
стилін
стилінде
стиліндегі
стиліне
стилінің
стихи
стокгольм
стол
стоматология
стоун
стр
страны
страсбур
стратегия
стратегиялық
стратегиясы
стратегиясын
стратиграфиялық
стрель
студент
студенттер
студенттерге
студенттерді
студенттердің
студенттері
студенттеріне
студенттік
студенті
студия
студиялық
студиясы
студиясын
студиясында
студиясының
стэнли
стэнфорд
стюарт
су
суан
суармалау
суармалы
суару
суаруға
суасты
субальпілік
субрегионының
субстанция
субтропикалық
субтропиктік
субъект
субъективті
субъективтік
субъектілер
субъектілердің
субъектілері
субъектілерінің
субъектінің
субъектісі
субэкваторлық
суворов
суда
судан
судағы
суды
судың
судья
судьясы
сужикова
сул
сулак
суландыру
суландыруға
сулар
суларда
суларды
сулардың
сулары
суларымен
суларын
суларында
суларының
сулы
сульфатты
сульфаты
суматра
сумен
сун
супер
суперкубогы
суперкубогының
суперкубок
сур
сура
сурет
суретке
суреткер
суретте
суреттеген
суреттеді
суреттеиді
суреттеитін
суреттелген
суреттеледі
суреттеп
суреттер
суреттерді
суреттердің
суреттері
суреттерін
суреттеу
суретті
суреттің
суретші
суретшілер
суретшілердің
суретшілері
суретшілерінің
суретшінің
суретшісі
суреті
суретін
сусыз
сусымалы
сусын
сусындар
сутегі
сутек
сутекті
сутектің
сухона
сушаруашылығы
сушаруашылық
суы
суымен
суын
суына
суынан
суында
суының
суыр
суырып
суыту
суық
суыққа
суға
суғару
суғаруға
суқоимасы
суқоимасына
суқоимасынан
суқоимасының
суқұюшы
сфалерит
сфера
сфералық
схема
схемасы
сценарии
сценарииші
сценарист
сш
сша
съезд
съезде
съездерінің
съезі
съезінде
съезіне
съезінің
сы
сыбаилас
сыбызғы
сызба
сызбасы
сыздық
сызу
сызылған
сызып
сызығы
сызығының
сызық
сызықпен
сызықтар
сызықтардың
сызықтары
сызықты
сызықтық
сызықтың
сыи
сыиақы
сыил
сыилады
сыилаиды
сыилап
сыилау
сыилаған
сыилы
сыилығы
сыилығымен
сыилығын
сыилығына
сыилығының
сыилығьшьщ
сыилық
сыилықтар
сыилықтарының
сыилықты
сыилықтың
сыилыққа
сыиы
сыиымдылығы
сыиымдылық
сыиға
сыктывкар
сылва
сым
сымбатты
сымсыз
сын
сына
сынады
сынаиды
сынама
сынап
сынау
сынауға
сынақ
сынақтан
сынақтар
сында
сындарлы
сынды
сындырып
сыни
сыну
сыншы
сыншыл
сыншылар
сыншылардың
сыншысы
сыны
сыныбына
сынып
сыныпта
сыныптан
сыныптар
сыныпты
сыныптық
сыныпқа
сынығы
сынық
сынықтары
сының
сынға
сынған
сыпаиы
сыпатаи
сыпыра
сыпыртқы
сыр
сыра
сырдария
сырдарияның
сырдың
сырлы
сырмақ
сырнаи
сырт
сыртта
сырттаи
сырттан
сырты
сыртын
сыртына
сыртынан
сыртында
сыртындағы
сыртқа
сыртқы
сыры
сырым
сырымбет
сырын
сырға
сырғанау
сырқат
сығанақ
сығылу
сығылған
сықақ
сыңар
сыңары
сьерра
сьюдад
сэм
сэр
сэс
сюжет
сюжеттік
сюжеті
сюр
сі
сібір
сібірге
сібірде
сібірдегі
сібірдің
сіз
сізге
сізді
сіздің
сілекеи
сілемдері
сілемі
сілеті
сілеусін
сілкіну
сілкінісі
сілтеме
сілтемелер
сілті
сілтілі
сілтілік
сім
сінде
сірке
сірне
сірә
сің
сіңген
сіңеді
сіңіп
сіңірген
сіңірді
сіңіре
сіңіреді
сіңіру
сіңіріп
сіңісіп
сқо
сүгір
сүзбе
сүзгі
сүзіп
сүиген
сүигіш
сүиегі
сүиегін
сүиегінен
сүиегінің
сүиеді
сүиек
сүиектен
сүиектер
сүиектердің
сүиектері
сүиектерінің
сүиекті
сүиектің
сүиемелдеуімен
сүиенген
сүиенді
сүиене
сүиенеді
сүиенетін
сүиенсек
сүиеніп
сүиетін
сүикімді
сүисініп
сүиікті
сүиінбаи
сүиіндік
сүиіп
сүиір
сүиіспеншілік
сүлеимен
сүлеименов
сүлеименова
сүмбіле
сүннет
сүр
сүрген
сүргін
сүргінге
сүрді
сүре
сүреді
сүресі
сүретін
сүру
сүруге
сүруі
сүруін
сүруіне
сүріп
сүт
сүтке
сүттен
сүтті
сүттің
сүті
сүтін
сүтінен
сүтінің
сүтқоректі
сүтқоректілер
сүтқоректілердің
сүю
сүңгуір
сұиытылған
сұиық
сұиықтар
сұиықтық
сұиықтықтың
сұиықтың
сұлбасы
сұлтан
сұлтандар
сұлтандардың
сұлтанды
сұлтандығы
сұлтанмахмұт
сұлтанның
сұлтаны
сұлтанға
сұлу
сұлулығы
сұлулық
сұлы
сұлыбас
сұмдық
сұр
сұрады
сұраиды
сұраимыз
сұраныс
сұраныстың
сұранысқа
сұрап
сұрапыл
сұрау
сұраған
сұрағанда
сұрақ
сұрақтар
сұрақтарға
сұраққа
сұрыпталу
сұрыптау
сұрғылт
сұхбат
сұхбатында
сұңқар
сәби
сәбидің
сәбит
сәбіз
сәдуақасов
сәжде
сәикес
сәикестендіру
сәикестігі
сәикестігін
сәикестік
сәикестікті
сәикесінше
сәкен
сәл
сәлем
сәлемі
сәлім
сән
сәнді
сәндік
сәрсенбіде
сәт
сәтбаев
сәтбаевтың
сәтсіз
сәтсіздікке
сәтте
сәттен
сәтті
сәті
сәтінде
сәуле
сәулелену
сәулелер
сәулелерді
сәулелердің
сәулелері
сәулелерінің
сәулелі
сәулелік
сәуленің
сәулесі
сәулесін
сәулесінің
сәулет
сәулетті
сәулеттік
сәулетші
сәулетшілер
сәулетшісі
сәуір
сәуірде
сәуірдегі
сәуірден
сәуірдің
сәуірінде
сәуірінен
сөз
сөзбе
сөзбен
сөзге
сөзде
сөзден
сөздер
сөздерге
сөздерде
сөздерден
сөздерді
сөздердің
сөздермен
сөздері
сөздерімен
сөздерін
сөздерінде
сөздеріне
сөздерінен
сөздерінің
сөзді
сөздігі
сөздігін
сөздігінде
сөздік
сөздікпен
сөздікте
сөздіктер
сөздіктің
сөздің
сөзжасам
сөзсіз
сөзі
сөзімен
сөзін
сөзінде
сөзіне
сөзінен
сөзінің
сөилеген
сөиледі
сөилеи
сөилеиді
сөилеитін
сөилем
сөилемде
сөилемдегі
сөилемдер
сөилемдердің
сөилемді
сөилемнің
сөилеп
сөилесу
сөилеу
сөилеуге
сөилеудің
сөитіп
сөл
сөлі
сөнген
сөндіру
т
та
таба
табады
табамыз
табан
табанды
табаны
табанына
табанының
табатын
табаға
табақ
табаққа
табиғат
табиғатпен
табиғатта
табиғаттан
табиғаттағы
табиғатты
табиғаттың
табиғаты
табиғатын
табиғатына
табиғатының
табиғатқа
табиғи
табу
табуда
табуды
табуы
табуға
табы
табылады
табылатын
табылды
табылмады
табылмаиды
табылуы
табылып
табылған
табын
табыну
табынушылық
табының
табынған
табыс
табыстар
табыстары
табыстарға
табысты
табыстың
табысы
табысын
табысының
табысқа
тавда
тагил
таз
таза
тазалаиды
тазалап
тазалау
тазалығы
тазалығын
тазалық
тазартады
тазарту
тазартуға
тазартылған
тазартып
тазы
таи
таивань
таига
таиланд
таилақ
таилер
таиманұлы
таимда
таимс
таимыр
таипа
таипалар
таипаларды
таипалардың
таипалары
таипаларымен
таипаларын
таипаларына
таипаларының
таипалық
таипаның
таипасы
таипасынан
таипасының
таипақ
таисоиған
таисон
таиыз
таиынша
так
тактикалық
тал
талабы
талабын
талабына
талаи
талан
талант
талантты
таланты
талантын
талап
талапкер
талаптар
талаптарды
талаптардың
талаптары
талаптарын
талаптарына
талаптарға
талапты
талапқа
талас
талданатын
талдап
талдау
талдауда
талдауды
талдаудың
талдауға
талды
талдысаи
талдықорған
талпыныс
талшығы
талшық
талшықтар
талшықтары
талшықтарынан
талшықтарының
талшықты
талғар
талғат
талқан
талқандады
талқандалды
талқандап
талқандау
талқыланды
талқылау
талқылауға
там
тама
тамамдаған
таман
тамара
тамаша
тамағы
тамақ
тамақтандыру
тамақтану
тамақты
тамақтың
тамаққа
тамбов
тамды
тамега
тамшы
тамыз
тамызда
тамыздан
тамыздағы
тамыздың
тамызына
тамызынан
тамызында
тамызға
тамыр
тамырдың
тамырлар
тамырлардың
тамырлары
тамырларын
тамырларына
тамырларының
тамырлы
тамыры
тамырын
тамырынан
тамырында
тамырының
тан
тана
танау
танзания
тани
таниды
танк
танкіге
танмыдық
тану
танудың
тануға
таныды
таныла
танылады
танылды
танылып
танылған
таным
танымал
танымалдылыққа
танымалы
танымдық
танымның
танып
таныс
танысады
танысты
таныстырады
таныстырды
таныстыру
таныстырылды
танысу
танысып
танысқан
таныта
танытады
танытатын
танытты
таныту
танытып
танытқан
таныған
тап
тапанша
таппаи
тапса
тапсырады
тапсырды
тапсырма
тапсырмалар
тапсырмаларды
тапсырмаларын
тапсырманы
тапсырмасы
тапсырмасымен
тапсырмасын
тапсыру
тапсырылады
тапсырылды
тапсырылған
тапсырып
тапсырыс
тапсырысы
тапсырған
таптар
тапты
таптық
таптың
тапшы
тапшылығы
тапшылығын
тапшылық
тапқан
тапқыр
тапқырлық
тар
тарады
тараз
таразы
тараи
тараиды
тараитын
тарала
таралады
таралатын
таралды
таралу
таралуы
таралуын
таралуына
таралуының
таралым
таралымы
таралып
таралған
тарамдалған
тарантино
тарап
тараптар
тараптардың
тарапынан
таратады
тарататын
таратты
тарату
таратуды
таратудың
таратушы
таратуға
таратылады
таратылды
таратылып
таратылған
таратып
таратқан
таратқыш
тарау
тарауда
тараудан
тарауы
тарауында
тараған
тарағаны
тарақ
тарақты
тарбағатаи
тарифтік
тарих
тарихи
тарихта
тарихтан
тарихтағы
тарихты
тарихтың
тарихшы
тарихшылар
тарихшылардың
тарихшылары
тарихшысы
тарихы
тарихымен
тарихын
тарихына
тарихынан
тарихында
тарихындағы
тарихының
тарихқа
тарка
тарлан
тармағы
тармағын
тармағына
тармағынан
тармағының
тармақ
тармақталған
тармақтан
тармақтар
тармақтары
тармақтарының
тармақты
тармаққа
тарта
тартады
тартатын
тартты
тарту
тартуды
тартуы
тартуға
тартылады
тартылатын
тартылды
тартылуы
тартылып
тартылыс
тартылған
тартымды
тартып
тартыс
тартқан
тартқыш
тархан
тары
тарылуы
тарылып
тарғын
тас
тасбақа
тасиды
таситын
таскөмір
тасмола
таспа
таспен
тастады
тастаи
тастаиды
тастаитын
тасталады
тасталды
тасталған
тастан
тастап
тастар
тастардан
тастарды
тастардың
тастармен
тастары
тастарға
тастау
тастауға
тастаған
тастақты
тасты
тастың
тасу
тасушы
тасуға
тасы
тасымал
тасымалдаиды
тасымалдаитын
тасымалданады
тасымалданатын
тасымалдау
тасымалдаушы
тасымалдауға
тасымалы
тасып
тасыған
тасқа
тасқала
тасқын
тасқыны
тат
татар
татарлар
татарлардың
татарлары
татарстан
тату
татьяна
тау
тауар
тауаралық
тауарды
тауардың
тауарих
тауарлар
тауарларды
тауарлардың
тауарлары
тауарларын
тауарларға
тауарлы
тауарлық
тауарға
тауда
таудан
таудағы
тауды
таудың
таужыныстар
таужыныстардың
таулар
тауларда
таулардың
таулары
тауларына
тауларынан
тауларында
тауларындағы
тауларының
тауларға
таулы
таулық
тауншип
таутеке
таушық
тауы
тауына
тауынан
тауында
тауындағы
тауының
тауып
тауыс
тауық
тауға
таш
ташкент
ташкентке
ташкентте
ташкенттегі
ташкенттің
таяз
таяу
таяқ
таяқша
таға
тағады
тағаиындады
тағаиындаиды
тағаиындаитын
тағаиындалады
тағаиындалды
тағаиындалып
тағаиындалған
тағаиындау
тағаиындаған
тағала
тағаланың
тағалаға
тағам
тағамдар
тағамдарды
тағамдардың
тағамдары
тағамдарын
тағамдарға
тағамды
тағамдық
тағамның
тағамы
тағамға
тағатын
тағдыр
тағдырдың
тағдыры
тағдырын
тағдырына
тағзым
тағы
тағыда
тағылады
тағылатын
тағылымы
тағылып
тағылған
тағына
тағып
тақ
тақия
тақта
тақтаи
тақталар
тақтан
тақтасы
тақтатас
тақты
тақуа
тақыр
тақырыбы
тақырыбын
тақырыбына
тақырыбында
тақырыбындағы
тақырып
тақырыпта
тақырыптар
тақырыптарды
тақырыптары
тақырыптарға
тақырыптағы
тақырыпты
тақырыптық
тақырыпқа
таққа
таққан
таң
таңба
таңбалар
таңбалары
таңбалы
таңбасы
таңда
таңдады
таңдаи
таңдаиды
таңдалды
таңдалып
таңдалған
таңдамалы
таңдап
таңдау
таңдаулы
таңдауы
таңдауға
таңдаған
таңдағы
таңертең
таңы
таңғажаиып
таңғы
таңқаларлық
таңқураи
тбилиси
тв
тверь
творчестволық
те
театр
театрда
театрдың
театрлар
театрлары
театрларында
театрларының
театрлық
театры
театрын
театрына
театрында
театрының
театрға
тебеді
тег
тегене
тегеран
тегжеилі
тегі
тегін
тегінде
тегіне
тегінен
тегінің
тегіс
тегістелген
тегістеу
тед
тежегіш
тежеиді
тежелу
тежеу
тежу
тез
тезек
тезірек
теи
теилор
тек
теке
текелі
текес
тексереді
тексеру
тексеруге
тексеруден
тексерілген
тексерілді
тексеріп
текст
текстологиялық
тектес
тектоникалық
текті
тектік
текше
тел
теле
телеарна
телеарнасы
телеарнасында
телеарнасының
телевидение
телевизия
телевизиялық
телевизиясы
телеграф
теледидар
теледидарда
теледидарлық
теледидары
тележурналист
тележүргізуші
телекоммуникация
телекоммуникациялық
телерадио
телесериал
телесериалында
телескоп
телефон
телефоны
телехикая
телехикаясы
телехикаясында
телецкое
тельман
телімі
теліміндегі
тем
темекі
темников
темп
темпель
температура
температурада
температуралы
температуралық
температураны
температураның
температурасы
температурасын
температурасына
температурасында
температурасының
температураға
темір
темірбек
темірге
темірден
темірді
темірдің
теміржол
теміржолшы
темірлан
темірлі
теміртау
темірқазық
тен
теннис
теннисшы
тентек
теодор
теология
теологиялық
теорема
теоремасы
теоретигі
теория
теориялар
теориялық
теорияны
теорияның
теориясы
теориясын
теориясына
теориясында
теориясының
теорияға
тепе
тепкен
тепкіш
тепті
тер
терапия
тербелмелі
тербеліс
тербелістер
тербелісі
тергеу
тергеуші
тергеушісі
терезе
терезелер
терезесі
терек
теректі
терендігі
терең
тереңге
тереңд
тереңде
тереңдеи
тереңдетіп
тереңдігі
тереңдігін
тереңдік
тереңдікке
тереңдікте
тереңкөл
тереңірек
тереңөзек
терме
термин
терминал
терминдер
терминдерді
терминдердің
терминдері
терминдерінің
терминді
терминнің
терминология
терминологиялық
термині
терминін
терминінің
термиялық
термињдерініњ
термиңдерінің
термодинамикалық
термоядролық
тернер
терригендік
территориального
территория
территориялық
территориясы
территориясын
территориясында
территориясының
терса
теру
теруэль
тері
теріге
теріде
теріден
терілі
терімен
теріні
терінің
теріп
теріс
терісаққан
теріске
теріскеи
теріскен
терісі
терісін
терісіне
терісінен
терісінің
тест
тестілеу
тесігі
тесік
тесіктер
тесіктері
тесіп
тетігі
тетік
тетіктер
тетіктердің
тетіктері
тетіктерін
теуіп
тех
техас
техн
техник
техника
техникада
техникалық
техникамен
техниканы
техниканың
техникасы
техникасын
техникасында
техникасының
техникумы
техникумын
техникумында
техникумының
техногендік
технол
технолог
технологии
технология
технологиялар
технологияларды
технологиялардың
технологиялары
технологияларын
технологиялық
технологияны
технологияның
технологиясы
технологиясын
технологиясының
технологы
тең
теңбіл
теңге
теңгеге
теңгелер
теңгені
теңгенің
теңдесі
теңдеу
теңдеудің
теңдеулер
теңдеулерді
теңдеуі
теңдеуін
теңдігі
теңдігін
теңдік
теңдікті
теңеу
теңсіздік
теңіз
теңізге
теңізде
теңіздегі
теңізден
теңіздер
теңіздерде
теңіздердің
теңіздері
теңіздік
теңіздің
теңізі
теңізімен
теңізінде
теңізіндегі
теңізіне
теңізінен
теңізінің
ти
тибет
тиген
тигізген
тигізді
тигізеді
тигізетін
тигізіп
тиді
тиеді
тиек
тиесілі
тиетін
тиеу
тим
тимирязев
тимор
тимур
тип
типке
типологиялық
типтегі
типтер
типтері
типтес
типті
типтік
типі
типін
типіне
типінің
тирмизи
тироль
титан
титрлеу
тиым
тиын
тиянақты
тиімді
тиімділігі
тиімділігін
тиімділік
тиімсіз
тиін
тиіп
тиіс
тиісті
тиісінше
тмд
то
тобы
тобыл
тобылдан
тобылғы
тобымен
тобын
тобына
тобынан
тобында
тобындағы
тобының
тобықты
тогы
тогын
тозақ
тозаң
тозаңданады
тои
тоибаева
тоитарыс
тоиы
тоиына
тоиға
ток
токантинс
токио
токсикалық
токты
токтың
толады
толассыз
толедо
толковыи
толмаған
толстов
толстои
толстоидың
толтырады
толтыру
толтыруға
толтырылған
толтырып
толу
толуы
толуына
толы
толып
толысады
толығады
толығымен
толығырақ
толық
толықтаи
толықтыра
толықтырады
толықтырды
толықтыру
толықтырулар
толықтырылды
толықтырылып
толықтырылған
толықтырып
толыққанды
только
толған
толғанда
толғау
толғаулары
толғауы
толқын
толқындар
толқындарды
толқындардың
толқындары
толқындарының
толқынды
толқындық
толқынның
толқыны
толқынының
том
томас
томат
томаға
томдық
томнан
томск
томы
томына
томында
томының
томь
тон
тонап
тонау
тони
тонна
тоннадан
тоннаға
топ
топан
топографиялық
топонимика
топономикалық
топпен
топта
топталып
топталған
топтама
топтамасы
топтамасын
топтан
топтанып
топтар
топтарды
топтардың
топтармен
топтары
топтарын
топтарына
топтарының
топтарға
топтастыру
топтастырылған
топтасып
топтасқан
топтағы
топты
топтық
топтың
топырағы
топырағында
топырағының
топырақ
топырақпен
топырақта
топырақтан
топырақтану
топырақтар
топырақтағы
топырақты
топырақтың
топыраққа
топқа
тор
торабы
торабына
торабынан
торабының
тораиғыров
торап
тораптары
тораңғы
тордың
торлы
торонто
торпақ
торпедо
торре
торы
торға
торғаи
торғаитәрізділер
торғауытов
тоскана
тостаған
тостағанша
тостағаншасы
тосын
тосып
тосқауыл
тот
тоталитарлық
тоттенхэм
тотығу
тотығы
тотықсыздану
тотықтырғыш
тоғаи
тоғаилы
тоған
тоғыз
тоғызыншы
тоғысбаев
тоғысқан
тоқ
тоқа
тоқаев
тоқал
тоқаш
тоқиды
тоқсан
тоқтады
тоқтаиды
тоқталады
тоқталып
тоқтамыс
тоқтап
тоқтата
тоқтатады
тоқтатты
тоқтату
тоқтатуға
тоқтатылады
тоқтатылды
тоқтатылған
тоқтатып
тоқтатқан
тоқтау
тоқтаусыз
тоқтаған
тоқты
тоқу
тоқылады
тоқылған
тоқыма
тоқып
тоқырау
тоң
трагедия
трагедиялық
трагедиясы
траз
трактат
трактор
тракторшы
трамп
трамптың
транспорт
транспорттық
трансфер
трапеция
тревизо
трек
трентино
тренто
тресі
тресінде
тресінің
три
триас
тригонометриялық
трик
тринидад
трир
троицк
тропикалық
тропиктік
труда
труппасы
тт
ту
туа
туады
туатын
туберкулез
тува
туды
тудырады
тудыратын
тудырды
тудыру
тудырушы
тудыруы
тудырып
тудырған
туимазин
тула
тулуза
туль
тума
тумасы
тун
тунгус
тундра
тунис
тур
тура
туралы
туралған
турап
турасында
турбина
тургау
турда
туризм
туризмнің
турин
турист
туристер
туристік
турнир
турнирге
турнирде
турнирден
турнирдің
турнирлерде
турнирлердің
турнирі
турнирінде
турниріне
турнирінің
турскии
туры
турында
туса
туу
тууы
тууына
туы
туылды
туылып
туылған
туын
туындады
туындаиды
туындаитын
туындап
туындауы
туындаған
туынды
туындылар
туындыларды
туындылардың
туындылары
туындыларын
туындыларында
туындыларының
туындының
туындысы
туып
туыс
туыстар
туыстары
туыстарына
туыстарының
туыстас
туыстық
туыстың
туысы
туысына
туысының
туысқа
туысқан
туғ
туған
туғанда
туғандар
туғаннан
туғанына
туғызады
туғызатын
туғызды
туғызу
туғызып
туғызған
ты
тыиым
тыл
тылсым
тым
тын
тында
тынымсыз
тыныс
тынысы
тыныш
тынышбаев
тыныштық
тынық
тының
тырговище
тырна
тырнақ
тырнақтары
тырново
тырысады
тырысатын
тырысты
тырысу
тырысып
тырысқан
тыс
тысқары
тышқан
тығыз
тығызд
тығыздығы
тығыздығының
тығыздық
тығылып
тығып
тық
тықыр
тың
тыңаитқыш
тыңаитқыштар
тыңаиған
тыңдап
тыңдау
тыңдаушы
тыңдаушысы
тьионвиль
тьюринг
тюбинген
тюль
тюмень
тюрингия
тянь
ті
тігеді
тігу
тігілген
тігіледі
тігілетін
тігін
тігінен
тігіп
тігіс
тізбегі
тізбегін
тізбегіндегі
тізбегінен
тізбегінің
тізбек
тізбектегі
тізбектері
тізбекті
тізбектің
тізбесі
тізгінін
тізе
тізілімі
тізіліміндегі
тізілімінің
тізім
тізімге
тізімде
тізімдері
тізімі
тізімін
тізімінде
тізіміне
тік
тікбұрышты
тіке
тікелеи
тікенді
тікенекті
тіккен
тіктеу
тікұшақ
тіл
тілге
тілде
тілдегі
тілден
тілдер
тілдерге
тілдерде
тілдерден
тілдерді
тілдердің
тілдері
тілдерін
тілдерінде
тілдеріндегі
тілдеріне
тілдерінен
тілдерінің
тілдес
тілді
тілдік
тілдің
тілегі
тілегін
тілеиді
тілек
тілендиев
тілеп
тілеу
тілешев
тілмен
тілші
тілшісі
тілі
тілімделген
тілімденген
тілімен
тілімізде
тіліміздегі
тілін
тілінде
тіліндегі
тіліне
тілінен
тілінің
тіліп
тін
тінде
тіндердің
тінің
тіптен
тіпті
тірегі
тіреді
тірек
тіреледі
тіреп
тіреу
тіркелген
тіркелді
тіркеледі
тіркелу
тіркес
тіркестер
тіркестері
тіркесі
тіркесіп
тіркеу
тіркеуге
тіркеуден
тірлік
тіршілігі
тіршілігін
тіршілігінде
тіршілігіне
тіршілігінің
тіршілік
тіршілікке
тіршілікті
тіршіліктің
тірі
тірідеи
тірісінде
тіс
тістер
тістердің
тістері
тісті
тістің
тісі
тің
түбегеилі
түбегі
түбегін
түбегінде
түбегіндегі
түбегіне
түбегінің
түбек
түбектің
түбі
түбін
түбінде
түбіндегі
түбіне
түбінен
түбінің
түбір
түбірі
түгел
түгелдеи
түгелімен
түгі
түз
түзе
түзеді
түзеиді
түзету
түзетулер
түзетін
түзеу
түзу
түзуге
түзудің
түзуші
түзілген
түзіледі
түзілетін
түзілу
түзілуі
түзілуін
түзілуіне
түзілімдер
түзілімдері
түзіліп
түзіп
түие
түиеге
түиені
түиенің
түиме
түинек
түисік
түиін
түиіндер
түиіндері
түиінді
түиіні
түиіп
түиірлі
түиіршіктер
түиіршіктері
түиіршікті
түиіскен
түк
түкпір
түктері
түкті
түлегі
түлектері
түлкі
түлкібас
түлік
түлікпен
түліктің
түмен
түн
түнгі
түнде
түндік
түннің
түні
түп
түпкі
түпкілікті
түпнұсқа
түпнұсқасы
түпнұсқасындағы
түпқараған
түр
түратын
түрақты
түрге
түрген
түргеш
түрде
түрдегі
түрден
түрді
түрдің
түрк
түркия
түркияда
түркиядағы
түркияның
түркияға
түрксіб
түркі
түркілер
түркілердің
түркілік
түркімен
түркіменстан
түркістан
түркістанда
түркістандағы
түркістанды
түркістанның
түркістанға
түрл
түрлендіретін
түрлендіру
түрлер
түрлерге
түрлерді
түрлердің
түрлері
түрлерімен
түрлерін
түрлерінде
түрлеріне
түрлерінен
түрлерінің
түрлі
түрлілігі
түрліше
түрме
түрмеге
түрмеде
түрмеден
түрмесіне
түрткі
түрі
түрік
түрікмен
түрікмендер
түрікменстан
түрікменстанның
түріктер
түріктердің
түріктері
түрікше
түрімен
түрін
түрінде
түріндегі
түріне
түрінен
түрінің
түрған
түс
түсе
түседі
түсер
түсетін
түске
түскен
түскенде
түскеннен
түскі
түспеген
түспеи
түспеиді
түспеитін
түспен
түссе
түссіз
түст
түсте
түстен
түстер
түстері
түстес
түсті
түстік
түстің
түсу
түсуге
түсуде
түсуді
түсуі
түсуін
түсуіне
түсі
түсік
түсім
түсімдер
түсімі
түсін
түсінген
түсінді
түсіндірген
түсіндірді
түсіндіре
түсіндіреді
түсіндіретін
түсіндірме
түсіндірмелі
түсіндіру
түсіндіруге
түсіндіріледі
түсіндіріп
түсіне
түсінеді
түсінетін
түсіну
түсінуге
түсінігі
түсінігін
түсінік
түсініксіз
түсініктеме
түсініктер
түсініктері
түсінікті
түсініп
түсінің
түсіп
түсірген
түсірді
түсіре
түсіреді
түсіретін
түсіру
түсіруге
түсірілген
түсірілді
түсіріледі
түсірілім
түсіріліп
түсіріп
түтігі
түтік
түтікті
түтіктің
түтікше
түтін
тұжырым
тұжырымдады
тұжырымдаиды
тұжырымдама
тұжырымдамасы
тұжырымдамасын
тұжырымдар
тұжырымдары
тұжырымдаған
тұжырымды
тұжырымы
тұжырымға
тұз
тұздалған
тұздар
тұздардың
тұздары
тұздарының
тұзды
тұздылығы
тұздық
тұздың
тұзы
тұзын
тұиық
тұиықталған
тұлпар
тұлға
тұлғалар
тұлғаларды
тұлғалардың
тұлғалары
тұлғаларының
тұлғаларға
тұлғалы
тұлғалық
тұлғаны
тұлғаның
тұлғасы
тұлғасын
тұлғасына
тұлғасының
тұлғаға
тұман
тұмандық
тұмар
тұмау
тұмсығы
тұмсығының
тұмсық
тұмсықты
тұнба
тұнық
тұр
тұра
тұрады
тұран
тұрар
тұрарлық
тұратын
тұратынын
тұрағы
тұрақ
тұрақсыз
тұрақсыздық
тұрақтандыру
тұрақтап
тұрақты
тұрақтылығы
тұрақтылығын
тұрақтылық
тұрақтылықты
тұрақтысы
тұрды
тұрман
тұрмыс
тұрмыста
тұрмыстық
тұрмысы
тұрмысын
тұрмысына
тұрмысында
тұрмысқа
тұрса
тұрсын
тұру
тұруы
тұруына
тұруға
тұрып
тұрған
тұрғанда
тұрғандаи
тұрғаны
тұрғанын
тұрғыда
тұрғыдан
тұрғызды
тұрғызу
тұрғызылды
тұрғызылып
тұрғызылған
тұрғызып
тұрғызған
тұрғылықты
тұрғын
тұрғындар
тұрғындарды
тұрғындардың
тұрғындары
тұрғындарын
тұрғындарына
тұрғындарының
тұрғындарға
тұрғынның
тұрғыны
тұрғысынан
тұрғысында
тұрқы
тұс
тұсау
тұсаукесері
тұспа
тұста
тұстары
тұстағы
тұсы
тұсына
тұсынан
тұсында
тұсындағы
тұт
тұтады
тұтас
тұтастаи
тұтастығы
тұтастығын
тұтастық
тұтасып
тұтатын
тұтты
тұту
тұтынатын
тұтыну
тұтынушы
тұтынушылар
тұтынушылардың
тұтынушыларға
тұтынушыға
тұтып
тұтқан
тұтқиылдан
тұтқын
тұтқында
тұтқындалып
тұтқындап
тұтқындар
тұтқындарды
тұтқынға
тұтқыр
тұтқырлығы
тұщы
тұщықұдық
тұяғы
тұяқ
тұяқты
тұғыр
тұғыры
тұқым
тұқымдары
тұқымдарын
тұқымдарының
тұқымдас
тұқымдастар
тұқымдастары
тұқымдасы
тұқымдасына
тұқымдасының
тұқымдасқа
тұқымды
тұқымдық
тұқымның
тұқымы
тұқымын
тұқымына
тұқымынан
тұқымының
тұңғыш
тәж
тәжі
тәжібаев
тәжік
тәжікстан
тәжірибе
тәжірибеге
тәжірибеде
тәжірибеден
тәжірибелер
тәжірибелері
тәжірибелі
тәжірибелік
тәжірибені
тәжірибенің
тәжірибесі
тәжірибесін
тәжірибесінде
тәжірибесіне
тәжірибесінің
тәлім
тәмамдады
тәмамдаиды
тәмамдаған
тән
тәнті
тәрбие
тәрбиелеген
тәрбиеленген
тәрбиелеп
тәрбиелеу
тәрбиелеуге
тәрбиелік
тәрбиенің
тәрбиесі
тәрбиесіне
тәрбиесінің
тәрбиеші
тәркілеу
тәрт
тәртібі
тәртібімен
тәртібін
тәртібінде
тәртібіне
тәртібінің
тәртіп
тәртіпке
тәртіппен
тәртіпте
тәртіпті
тәртіптік
тәртіптің
тәрізденіп
тәріздес
тәрізді
тәрізділер
тәсіл
тәсілдер
тәсілдерді
тәсілдердің
тәсілдермен
тәсілдері
тәсілдерін
тәсілдеріне
тәсілдерінің
тәсілді
тәсілмен
тәсілі
тәсілімен
тәсілін
тәсіліне
тәсілінің
тәтті
тәттімбет
тәу
тәуекел
тәуелді
тәуелділігі
тәуелділігін
тәуелділік
тәуелс
тәуелсіз
тәуелсіздігі
тәуелсіздігін
тәуелсіздігіне
тәуелсіздігінің
тәуелсіздік
тәуелсіздікке
тәуелсіздіктің
тәуке
тәулігіне
тәулік
тәулікке
тәуліктік
тәуір
тәңір
тәңірі
төбе
төбеге
төбелер
төбелері
төбелі
төбенің
төбесі
төбесін
төбесінде
төбесіне
төбесінен
төбет
төбешік
төгілген
төгіп
төзімді
төзімділігі
төзімділігін
төзімділік
төл
төле
төлебаев
төлеген
төледі
төлеиді
төлеитін
төлем
төлемдер
төлемдерді
төленген
төленеді
төленетін
төлеп
төлеу
төлеубаев
төлеуге
төлеуден
төм
төмен
төменге
төменгі
төменде
төмендеген
төмендегі
төмендегідеи
төмендеді
төмендеиді
төмендеп
төмендетеді
төмендету
төмендетуге
төмендетіп
төмендеу
төмендеуі
төмендеуіне
төменнен
төменірек
төнген
төніп
төраиымы
төралқасының
төраға
төрағалары
төрағалық
төрағасы
төрағасының
төре
төрелік
төренің
төреші
төрешілер
төрешісі
төркіні
төркінін
төрт
төртбұрыш
төртбұрышты
төртеу
төртеуі
төрткүл
төрттен
төрттік
төртінші
төс
төсбелгісі
төсек
төселген
төсеніш
төте
төтенше
төтеп
төңкеріс
төңкеріске
төңкерісі
төңкерісіне
төңкерісінен
төңірегі
төңірегінде
төңірегіндегі
төңірегіне
у
уа
уаз
уаит
уаиым
уағыз
уақ
уақтылы
уақыт
уақытта
уақыттан
уақыттарда
уақыттағы
уақытты
уақыттық
уақыттың
уақытша
уақыты
уақытылы
уақытын
уақытына
уақытынан
уақытында
уақытының
уақытқа
уве
уганда
уголь
угор
угра
удине
удмуртия
уез
уезд
уездік
уезі
уезінде
уезіндегі
уезіне
уезінің
уефа
уж
уи
уикипедия
уикипедияның
уикипедияға
уилл
уилсон
уильям
уильямс
уимблдон
ук
указ
укр
украин
украина
украинада
украинадағы
украиналық
украинаның
украиндар
украиндық
украины
ул
улану
уланған
улағыш
улы
ульрих
ультракүлгін
ультранегізді
ульянов
умбрия
ун
унжа
универсиада
университет
университета
университетке
университетте
университеттер
университеттердің
университеттерінде
университеттерінің
университетті
университеттік
университеттің
университеті
университетін
университетінде
университетіндегі
университетіне
университетінің
уолтер
уоррен
упа
управление
управления
урал
уран
уранның
урду
уругваи
уса
усаға
условиях
успен
усть
уу
уфа
уч
учаске
учаскелік
учаскесі
учаскесінің
училище
училищеде
училищені
училищесі
училищесін
училищесінде
училищесіне
училищесінің
уш
ушін
уы
уыз
уылдырығын
уылдырық
уытты
уэин
уэльва
уэльс
уә
уәде
уәжіп
уәзір
уәкілетті
уәлаяты
уәли
уәлиханов
уәлихановтың
ф
фабрика
фабрикасы
фабрикасының
фаза
фазалы
фазалық
фазаның
фазасы
фаил
фаилдар
фаилдарды
фаилды
фаилдың
факт
фактор
факторлар
факторларды
факторлардың
факторлармен
факторлары
факторларының
факторларға
факторы
фактілер
фактілерді
факультет
факультетте
факультеті
факультетін
факультетінде
факультетіне
факультетінің
фан
фантастика
фантастикалық
фараби
фарабидің
фарер
фармацевтика
фармацевтикалық
фарс
фару
фарфор
фатима
фауна
фаунасы
фауст
фашист
фашистік
февраля
федералды
федералдық
федеративтік
федерации
федерация
федерациясы
федерациясының
федор
федоров
федорович
федоровка
феклабрук
феликс
фельдшер
фельдшерлік
феникс
феодал
феодалдар
феодалдық
фердинанд
ферма
фермент
ферменттер
ферменттердің
фермер
фернандес
фернандо
ферғана
фестиваль
фестивалі
фестивалінде
фестиваліне
фестивалінің
фи
фигура
фигуралар
фиджи
физ
физигі
физик
физика
физикада
физикалық
физиканың
физикасы
физико
физиология
физиологиялық
физиологиясы
физическои
филармония
филармониясы
филармониясының
филиал
филиалдары
филиалы
филиалының
филип
филипп
филиппин
филол
филолог
филология
филологиясы
филос
философ
философия
философияда
философиялық
философияны
философияның
философиясы
философиясын
философиясында
философиясының
философияға
философтар
философы
фильм
фильмге
фильмде
фильмдегі
фильмдер
фильмдерге
фильмдерде
фильмдерді
фильмдердің
фильмдері
фильмдерінде
фильмдерінің
фильмді
фильмнің
фильмі
фильмін
фильмінде
фильміндегі
фильміне
фильмінің
фин
финал
финалда
финалдық
финалист
финалисты
финалисті
финалисі
финалы
финалына
финалында
финалға
финистер
финляндия
финляндияның
финн
фирма
фирмалар
фирмалардың
фирманың
фирмасы
фирмасының
фифа
фишер
фиқһ
фк
флоид
флора
флорасы
флоренция
флорида
флот
флоты
флотының
флур
фолиант
фольклор
фольклорлық
фольклоры
фольклорының
фон
фонд
фонетика
фонетикалық
фонтенбло
форд
форма
формада
формалар
формалардың
формалары
формаларын
формаларының
формалды
формалы
формальды
формасы
формасын
формасына
формасында
формасының
форматы
формаға
формула
формуласы
форт
фортепиано
форум
форумы
фосфат
фосфор
фосфорит
фосфорлы
фото
фотограф
фотосинтез
фотосурет
фотосуреттер
фр
фразеологиялық
фраибург
фран
франк
франклин
франко
франкония
франкфурт
франс
франсиско
франсуа
франц
франциск
франциско
франция
францияда
франциядан
франциядағы
франциялық
франциямен
францияның
францияға
француз
француздар
француздық
француздың
французша
франческо
фрегезия
фредерик
фреид
фридрих
фризия
фриули
фрозиноне
фрунзе
фрэнк
фрэнсис
фтор
фужер
функционалды
функционалдық
функция
функциялар
функцияларды
функциялардың
функциялары
функцияларын
функциялық
функцияны
функцияның
функциясы
функциясын
функциясының
фунт
фурманов
фут
футбол
футболдан
футболмен
футболшы
футболшылар
футболшылары
футболшылық
футболшының
футболшысы
футболының
фф
х
ха
хабар
хабардар
хабарды
хабардың
хабарлады
хабарлаиды
хабарлама
хабарламалар
хабарлар
хабарларды
хабарлары
хабарларын
хабарлау
хабаршысы
хабары
хабарын
хаббл
хадис
хадисте
хадистер
хадиша
хазар
хазірет
хазіреті
хаидар
хаидарова
хаинрих
хаинц
хаиуанаттар
хакас
хакасия
хаким
хакім
хал
халел
халил
халиф
халифа
халифат
халифаты
халифатының
халық
халықар
халықаралық
халықпен
халықтан
халықтар
халықтарда
халықтарды
халықтардың
халықтармен
халықтары
халықтарын
халықтарына
халықтарында
халықтарының
халықтарға
халықты
халықтық
халықтың
халыққа
халькопирит
халқы
халқымен
халқымыз
халқымыздың
халқын
халқына
халқында
халқының
хамза
хамиди
хамит
хан
хандар
хандардың
хандары
хандарының
ханды
хандығы
хандығын
хандығына
хандығының
хандық
ханзада
ханзадасы
ханифа
ханмен
ханнан
ханның
ханс
ханты
ханшаиым
ханшаиымы
ханы
ханым
ханымы
ханының
хань
ханға
хара
харам
харрис
харьков
хас
хасан
хасен
хасково
хат
хаттама
хаттар
хаттары
хатшы
хатшысы
хатшысының
хаты
хатымен
хатын
хатында
хатқа
хафиз
хақ
хақында
хдп
хе
хельмут
хельсинки
хен
херберт
херман
херона
хет
хи
хикая
хикаясы
хикаят
хикмет
хилл
хим
химигі
химик
химия
химиялық
химияның
химиясы
хинди
хип
хирург
хирургия
хирургиялық
хит
хиуа
хиуаға
хкк
хлор
хлориді
хлорлы
хо
хоббиі
хок
хоккеи
хоккеиден
хоккеиші
холдинг
холл
холмс
хоп
хопер
хоперге
хор
хорасан
хорват
хорватия
хорезм
хорезми
хореография
хореографиялық
хорн
хорст
хосе
хош
храм
храмы
хрестоматия
христиан
христиандар
христиандық
хром
хроматография
хромосома
хромосомалар
хромосомалардың
хромосомалық
хромосоманың
хромтау
хроника
хронологиялық
хуан
хунсрюк
хусеин
хх
ххі
хьюстон
хі
хіх
хіі
хііі
хәрри
ц
цветль
цезарь
цеилон
целинныи
целиноград
целль
целлюлоза
цемент
центавр
центнерден
центр
центрі
цех
цехы
цехында
цехының
цзы
цивиль
цикл
циклді
циклдік
циклы
циклі
цилиндр
цилиндрлі
цилиндрлік
цильма
цин
цинь
цирк
цитология
цитоплазма
цитоплазмасында
цифрлық
цна
цска
цц
цюрих
ч
чад
чаиковскии
чаиковскиидің
чан
чапаев
чарли
чарльз
чартында
часть
чебоксар
чек
человек
человека
челси
челябинск
челябі
чемпион
чемпионат
чемпионатта
чемпионаттары
чемпионаттарына
чемпионаттарында
чемпионаттарының
чемпионаттың
чемпионаты
чемпионатын
чемпионатына
чемпионатынан
чемпионатында
чемпионатындағы
чемпионатының
чемпиондар
чемпиондары
чемпиондық
чемпионы
чепца
черемшан
череповец
черкасск
черная
чернигов
черногория
черныи
чероки
черчилль
чех
чехия
чехов
чеховтың
чехословакия
чжан
чжи
чикаго
чили
чишмин
чкалов
чон
что
чуваш
чулым
чулымнан
чулымға
чумыш
чусовая
чч
ш
ша
шабдалы
шабу
шабуыл
шабуылдар
шабуылдаушы
шабуылды
шабуылшы
шабуылшысы
шабуылы
шабуылын
шабуылына
шабуылынан
шабуылға
шабындық
шабындыққа
шабыт
шаи
шаибалы
шаибани
шаитан
шаиып
шаиыр
шаиқас
шаиқаста
шаиқастан
шаиқастар
шаиқастарда
шаиқастарға
шаиқасты
шаиқастың
шаиқасы
шаиқасына
шаиқасында
шаиқасқа
шал
шала
шалаөткізгіш
шалбар
шалдығады
шалдыққан
шалон
шалу
шалудан
шалуды
шалуларды
шалып
шалыс
шальке
шалғаи
шалғын
шалғындар
шалғынды
шалғындық
шалқар
шалқасынан
шам
шама
шамада
шамадан
шамалар
шамаларды
шамалардың
шамалас
шамалы
шамамен
шаманың
шамасы
шамасын
шамасына
шамасында
шамасындағы
шамасының
шамаға
шан
шанағы
шанақ
шанин
шанхаи
шаншып
шань
шаньда
шаньның
шап
шапан
шапағат
шапель
шапшаң
шапырашты
шапқан
шапқыншылығы
шапқыншылығына
шапқыншылығынан
шапқыншылық
шар
шара
шаралар
шараларды
шаралардың
шаралары
шараларын
шараларына
шараларының
шараларға
шаран
шарап
шарасы
шарбақты
шарда
шардара
шардың
шариғат
шарлотта
шарль
шароль
шарт
шартсыз
шартта
шарттар
шарттарды
шарттардың
шарттары
шарттарын
шарттарына
шарттарының
шарттарға
шартты
шарттың
шарты
шартын
шартына
шартының
шартқа
шаруа
шаруалар
шаруаларды
шаруалардың
шаруалары
шаруаларының
шаруаларға
шаруасымен
шаруашылығы
шаруашылығымен
шаруашылығын
шаруашылығына
шаруашылығында
шаруашылығындағы
шаруашылығының
шаруашылық
шаруашылықта
шаруашылықтар
шаруашылықтардың
шаруашылықтары
шаруашылықтарында
шаруашылықтарының
шаруашылықты
шаруашылықтың
шаруашылыққа
шарушылығы
шаршы
шары
шарын
шарында
шарындағы
шарының
шарықтау
шат
шато
шаттық
шатыр
шатырша
шатыры
шатқал
шатқалды
шатқалы
шатқалында
шауып
шах
шахмат
шахта
шахтер
шаш
шашады
шашақ
шашақты
шашты
шаштың
шашу
шашы
шашын
шашынның
шашып
шашыранды
шашырау
шашыраңқы
шаю
шаян
шаянтәрізділер
шағала
шағалалы
шаған
шағатаи
шағы
шағыл
шағылған
шағым
шағын
шағынауданында
шағында
шақ
шақпақ
шақта
шақты
шақшақ
шақырады
шақыратын
шақырды
шақырту
шақыру
шақыруымен
шақырылады
шақырылды
шақырылымының
шақырылып
шақырылған
шақырым
шақырымдаи
шақырымды
шақырымдық
шақырымға
шақырып
шақырған
шаққан
шаққанда
шаққандағы
шаң
шаңды
шаңырақ
шаңғы
шаһ
шаһзада
швабия
швед
швеицар
швеицария
швеицарияда
швеицариялық
швеицарияның
швеция
швецияда
швецияның
ше
шебер
шеберлер
шеберлері
шеберлерінің
шеберлігі
шеберлігімен
шеберлігін
шеберлігіне
шеберлік
шеберлікпен
шеберлікті
шеберхана
шеберханасы
шеберханасында
шебері
шебі
шебін
шебінде
шебіне
шебінің
шевченко
шеге
шегеді
шеген
шегу
шегі
шегін
шегінде
шегіндегі
шегінді
шегіне
шегінен
шегінуге
шегініп
шегіп
шегіртке
шежіре
шежіресі
шежіресін
шежіресінде
шеих
шеиін
шек
шекара
шекарада
шекаралары
шекаралас
шекаралық
шекараны
шекарасы
шекарасын
шекарасына
шекарасынан
шекарасында
шекарасындағы
шекарасының
шеккен
шекпен
шексна
шекспир
шекспирдің
шексіз
шектеитін
шектелген
шектелді
шектеледі
шектелмеи
шектеліп
шектен
шектес
шектеседі
шектесетін
шектесіп
шектеу
шектеуге
шектеулер
шектеулі
шектеусіз
шекті
шектік
шелек
шемонаиха
шеміршек
шеміршекті
шен
шенеуніктер
шені
шенінде
шеп
шепель
шер
шербур
шердино
шереметьево
шерлок
шеру
шет
шетел
шетелге
шетелде
шетелдегі
шетелдерде
шетелдік
шетке
шеткі
шетпе
шеттен
шеттері
шеттетілді
шеті
шетін
шетінде
шетіндегі
шетіне
шетінен
шеш
шеше
шешеді
шешек
шешен
шешендер
шешендік
шешесі
шешетін
шешкен
шешті
шешу
шешуге
шешуде
шешуді
шешудің
шешуші
шешілді
шешіледі
шешім
шешімге
шешімдер
шешімдерді
шешімдері
шешімдерін
шешімді
шешімі
шешімімен
шешімін
шешіміне
шешіп
шеңбер
шеңбердің
шеңбері
шеңберінде
шеңберіндегі
шеңберінен
ши
шие
шиеленіскен
шиеленісті
шиелі
шииттер
шикі
шикізат
шикізаттар
шикізатты
шикізаттың
шикізаты
шикізатын
шилі
шина
шипалы
шипалық
ширақ
ширегінде
ширек
широков
шк
шкала
шкаласы
школа
шлезвиг
шлем
шлемның
шмидт
шоиын
шоколад
шолақ
шолаққорған
шолпан
шолу
шомбал
шон
шопан
шор
шора
шортан
шортанбаи
шортанды
шот
шотланд
шотландия
шотландияда
шотландиядағы
шотландияның
шотландияға
шотландық
шоттар
шоу
шошақ
шошқа
шоғы
шоғыр
шоғырландыру
шоғырлану
шоғырлануы
шоғырланып
шоғырланған
шоғырлары
шоғыры
шоғырының
шоқ
шоқаи
шоқан
шоқжұлдызы
шоқжұлдызында
шоқжұлдызындағы
шоқпар
шоқтығы
шоқы
шоқылар
шоқылардан
шоқылы
шоқысы
шоң
шри
шт
штаб
штабы
штабының
штат
штаттан
штаттар
штаттары
штаттарында
штаттарының
штаттық
штаттың
штаты
штатында
штатындағы
штатының
штендаль
штефан
штирия
штутгарт
шу
шудың
шумақ
шумақтан
шумақтың
шумен
шумер
шш
шы
шыбын
шыдаи
шыдамды
шым
шымкент
шымкентте
шымтезек
шымшық
шымыр
шын
шынаиы
шындығы
шындығын
шындығында
шындық
шындықты
шындықтың
шындыққа
шынжыр
шыншыл
шыны
шыныдаи
шыныдан
шынымен
шынында
шынықтыру
шырақ
шырмауық
шырша
шыршалы
шыршық
шырын
шырынды
шырыны
шырынын
шырыш
шырышты
шырқау
шытырман
шығ
шыға
шығады
шығанағы
шығанағына
шығанағының
шығанақ
шығар
шығара
шығарады
шығаратын
шығарды
шығарм
шығарма
шығармада
шығармаиды
шығармалар
шығармаларда
шығармаларды
шығармалардың
шығармалары
шығармаларымен
шығармаларын
шығармаларына
шығармаларынан
шығармаларында
шығармаларындағы
шығармаларының
шығарманы
шығарманың
шығармасы
шығармасын
шығармасында
шығармасының
шығармашылығы
шығармашылығын
шығармашылығына
шығармашылығында
шығармашылығының
шығармашылық
шығармашылықпен
шығармаға
шығару
шығаруда
шығаруды
шығарудың
шығарумен
шығарушы
шығарушылар
шығаруы
шығаруға
шығарыла
шығарылады
шығарылатын
шығарылды
шығарылуы
шығарылым
шығарылымы
шығарылып
шығарылған
шығарып
шығарған
шығарғанда
шығатын
шығу
шығуды
шығуы
шығуын
шығуына
шығуға
шығымы
шығын
шығындар
шығындарды
шығындардың
шығындары
шығындарын
шығынды
шығынның
шығыны
шығынын
шығынының
шығынға
шығып
шығыс
шығыста
шығыстан
шығыстану
шығыстанушы
шығыстар
шығыстағы
шығыстық
шығыстың
шығысы
шығысын
шығысына
шығысынан
шығысында
шығысындағы
шығысқа
шығыңқы
шық
шықпады
шықпаи
шықпаиды
шықпаған
шықса
шықты
шыққан
шыққанда
шыққаннан
шыққанша
шыққаны
шыққанын
шыққанға
шың
шыңдары
шыңжаң
шыңжаңдағы
шыңы
шыңына
шыңғырлау
шыңғыс
шыңғыстау
шыңғысхан
шыңғысханның
ші
шідерті
шілде
шілдеде
шілдедегі
шілдеден
шілденің
шілдесінде
шілдесінен
шілік
шілікті
шіркеу
шіркеуге
шіркеудің
шіркеулер
шіркеуі
шіркеуінің
шіріген
шқо
шүигін
шүкір
шүлбі
шұбар
шұбартау
шұбырынды
шұжық
шұраилы
шұға
шұғыл
шұғыла
шұғылданады
шұғылданатын
шұғылданды
шұғылданып
шұғылданған
шұңқыр
шұңқырлар
шәкен
шәкірт
шәкірттері
шәкірттерінің
шәкірті
шәкәрім
шәмші
шәріпов
шәуешек
шәуілдір
шөбересі
шөбі
шөгінді
шөгінділер
шөгінділерден
шөгінділердің
шөгінділері
шөгінділерінде
шөгінділерінен
шөгінділерінің
шөккен
шөл
шөлге
шөлдер
шөлді
шөлдің
шөлеит
шөлеитті
шөлі
шөмекеи
шөп
шөппен
шөптер
шөптесін
шөптесіндер
шөпті
шөптің
щ
щучинск
щщ
ъ
ы
ыбыраи
ыдыраиды
ыдырап
ыдырау
ыдырауы
ыдырауына
ыдыраған
ыдырағаннан
ыдырыс
ыдыс
ыдыста
ыдыстар
ыдыстардың
ыдыстың
ыдысқа
ыза
ылғал
ылғалды
ылғалдылығы
ылғалдылық
ылғалдың
ылғалы
ылғи
ым
ымырт
ын
ына
ында
ынта
ынталандыру
ынталы
ынтымақ
ынтымақтастық
ынтымақтастықты
ыншы
ының
ырым
ырыс
ырғағы
ырғақ
ырғақты
ырғыз
ысмаиылов
ыстамбұл
ысты
ыстық
ыстықкөл
ыстыққа
ысқақ
ысқақов
ыы
ығыстыру
ығыстырып
ығысу
ығысуы
ықпал
ықпалды
ықпалы
ықпалымен
ықпалын
ықпалына
ықпалынан
ықпалында
ықпалының
ықтимал
ықтималдығы
ықшам
ықылас
ыңғаилы
ь
э
эверо
эволюция
эволюциялық
эволюциясы
эвора
эгеи
эд
эдвард
эдгар
эдди
эдельвеис
эдинбург
эдуард
эем
эилер
эинштеин
эир
эквадор
экватор
экваторлық
экз
экзогендік
экипаж
эко
экология
экологиялық
экологиясы
экон
экономика
экономикада
экономикадағы
экономикалық
экономиканы
экономиканың
экономикасы
экономикасын
экономикасына
экономикасында
экономикасының
экономикаға
экономики
экономист
экономисі
экран
экранда
экранға
экс
экскурсия
экспед
экспедиция
экспедициялар
экспедициялық
экспедициясы
экспедициясында
экспедициясының
эксперимент
эксперименталды
эксперименттік
экспорт
экспорттық
экспортқа
экспресс
эл
электр
электрик
электрлендіру
электрлі
электрлік
электрмагниттік
электрмен
электро
электрод
электродтар
электролиз
электролит
электромагниттік
электрон
электрондар
электрондардың
электронды
электрондық
электроника
электронның
электрохимиялық
элемент
элементар
элементтер
элементтерге
элементтерден
элементтерді
элементтердің
элементтермен
элементтері
элементтерін
элементтеріне
элементтерінің
элементті
элементтің
элементі
элизабет
элита
эллипс
эллипстік
эль
эльзас
эмаль
эми
эмили
эмилия
эмиль
эмиссиялық
эмма
эмми
эмоционалды
эмоциялық
эмпирикалық
эмпорда
эн
энгельс
энд
эндемик
энди
эндогендік
эндоплазмалық
эндрю
энеолит
энергетика
энергетикалық
энергетикасы
энергия
энергияны
энергияның
энергиясы
энергиясын
энергиясына
энергиясының
энергияға
энн
энтони
энцеклопедиясы
энцикл
энциклопедическии
энциклопедия
энциклопедиялық
энциклопедиясы
энциклопедиясына
энциклопедиясының
энциоклопедия
энцклопедия
энцклопедиясы
эпидемиология
эпидемиологиялық
эпизод
эпизодтық
эпикалық
эпителии
эпос
эпостық
эпосы
эр
эрвин
эридан
эрик
эритроциттер
эритроциттердің
эрих
эрнест
эрнст
эро
эрозия
эрозиялық
эрозиясы
эспириту
эссе
эссонна
эстетика
эстетикалық
эстон
эстония
эстрада
эстрадалық
этан
этика
этикалық
этикасы
этил
этимологиялық
этн
этникалық
этно
этнограф
этнография
этнографиялық
этнология
этномәдени
этнос
этностық
этностың
это
эфиопия
эфир
эфирге
эфирде
эффект
эффектісі
эштремадура
ээ
ю
юань
ювентус
юг
юган
югославия
юлии
юлия
юн
юнаитед
юнг
юнеско
юниорлар
юпитер
юра
юрген
юрии
юсуф
юю
я
ява
яга
ягун
ядро
ядролардың
ядролары
ядроларының
ядролы
ядролық
ядроның
ядросы
ядросының
язык
языка
языке
языков
языкознания
яки
якоб
яков
яковлевич
якут
ямаика
ямало
ямбол
ян
января
янг
яндекс
яр
ярослав
ярославль
ярусы
ясауи
яун
ях
яха
яя
яғни
яңауыл
яһуди
є
і
із
ізбасарлары
ізбасары
ізгі
ізгілік
іздеген
іздеиді
ізденіс
ізденістер
іздеп
іздері
іздестіру
іздеу
іздеуге
ізі
ізімен
ізін
ізіне
ілгері
іле
ілесе
ілеспе
ілесіп
ілияс
ілиясова
іліккен
ілім
ілімді
ілімнің
ілімі
ілімін
ілімінде
іліміне
ілімінің
ілінген
ілініп
іліп
ін
інде
індет
іне
інжу
інжіл
інші
іні
інісі
інің
ірге
іргелес
іргелі
іргесі
іргесін
іргесінде
іргетасы
іргетасын
ірі
іріктеліп
іріктеп
іріктеу
іріктеуден
іріктеуінде
ірілері
ірілеу
ірілі
ірімшік
ірісі
ірің
іріңді
іс
іске
іскер
іскерлік
іспеттес
іспетті
істе
істеген
істеді
істеи
істеиді
істеитін
істелген
істен
істеп
істер
істерге
істерді
істері
істерін
істеріне
істеу
істеуге
істеуде
істеуді
істеуі
істеуін
істеуіне
істі
істің
ісі
ісігі
ісік
ісікке
ісіктің
ісімен
ісін
ісінде
ісіне
ісінеді
ісіну
ісінуі
ісініп
ісінің
іх
іш
ішеді
ішек
ішекке
ішекті
ішектің
ішетін
ішке
ішкен
ішкі
іштегі
іштеи
іштен
іштің
ішу
ішуге
іші
ішік
ішілік
ішімдік
ішін
ішінара
ішінде
ішіндегі
ішіне
ішінен
ішіп
іі
ііб
іім
ііхк
ііі
ј
љ
њ
ћ
џ
ѣ
ґ
ғ
ға
ғабдуллин
ғабит
ғажаиып
ғажап
ғаиып
ғалам
ғаламат
ғаламдық
ғаламның
ғаламтор
ғаламшар
ғаламшардың
ғалия
ғалым
ғалымдар
ғалымдардың
ғалымдары
ғалымдарының
ғалымдарға
ғалымның
ғалымы
ған
ғана
ғани
ғарыш
ғарышкер
ғарышкерлер
ғарышта
ғарыштық
ғарышқа
ғасыр
ғасырда
ғасырдан
ғасырдағы
ғасырдың
ғасырлар
ғасырларда
ғасырлардан
ғасырлардағы
ғасырлардың
ғасырларға
ғасырлық
ғасыры
ғасырында
ғасырға
ғашық
ғашықтық
ғе
ғзи
ғибадат
ғибадатхана
ғибадатханалар
ғибадатханасы
ғимарат
ғимаратта
ғимараттар
ғимараттарды
ғимараттардың
ғимараттары
ғимараттарының
ғимаратты
ғимараттың
ғимараты
ғимаратында
ғимаратының
ғимаратқа
ғои
ғы
ғыл
ғылми
ғылым
ғылымда
ғылымдар
ғылымдардың
ғылымдары
ғылымдарының
ғылымдағы
ғылымды
ғылыми
ғылымның
ғылымтану
ғылымы
ғылымын
ғылымына
ғылымында
ғылымының
ғылымға
ғғ
ғұлама
ғұләм
ғұмыр
ғұмырын
ғұн
ғұндар
ғұндардың
ғұрпы
ғұрпын
ғұрып
ғұрыптар
ғұрыптары
ғұрыптық
ғөф
җ
ҙ
қ
қа
қаб
қаба
қабан
қабанбаи
қабарда
қабат
қабатта
қабаттан
қабаттар
қабаттарда
қабаттардан
қабаттардың
қабаттары
қабаттарын
қабаттарынан
қабаттарында
қабаттарының
қабаттағы
қабатты
қабаттың
қабаты
қабатымен
қабатын
қабатына
қабатынан
қабатында
қабатындағы
қабатының
қабатқа
қабақ
қабыл
қабылан
қабылдады
қабылдаи
қабылдаиды
қабылдаитын
қабылдамады
қабылданады
қабылданатын
қабылданды
қабылданып
қабылданған
қабылдап
қабылдау
қабылдауды
қабылдаудың
қабылдаушы
қабылдауы
қабылдауға
қабылдаған
қабылдағыш
қабыну
қабынуы
қабынуға
қабыршақ
қабыршақты
қабырға
қабырғалар
қабырғалардың
қабырғалары
қабырғаларын
қабырғаларына
қабырғаларында
қабырғаларының
қабырғалы
қабырғаның
қабырғасы
қабырғасын
қабырғасына
қабырғасында
қабырғасының
қабырғаға
қабығы
қабығын
қабығынан
қабығында
қабығының
қабық
қабықпен
қабықтары
қабықты
қабықтың
қабықша
қабықшасы
қабілет
қабілетсіз
қабілеттері
қабілеттерін
қабілетті
қабілеттілігі
қабілеттілігін
қабілеті
қабілетімен
қабілетін
қабілетіне
қабілетінен
қабілетінің
қабір
қабірлер
қабірі
қадам
қадамы
қадағалаиды
қадағалап
қадағалау
қадыр
қадырғали
қадір
қадірлі
қажет
қажетсіз
қажетті
қажеттігі
қажеттігін
қажеттілігі
қажеттілігін
қажеттілігіне
қажеттілік
қажеттіліктерді
қажеттіліктерін
қажеті
қажетін
қажетіне
қажы
қажылық
қажылыққа
қажымұқан
қажырлы
қаз
қаза
қазалы
қазан
қазанда
қазандағы
қазандық
қазаннан
қазанның
қазанынан
қазанында
қазанға
қазанғап
қазаға
қазақ
қазақмемлекетбаспасы
қазақмыс
қазақоил
қазақпарат
қазақстан
қазақстанда
қазақстандағы
қазақстанды
қазақстандық
қазақстандықтар
қазақстанмен
қазақстанмұнаи
қазақстаннан
қазақстанның
қазақстанға
қазақта
қазақтан
қазақтар
қазақтарда
қазақтардан
қазақтарды
қазақтардың
қазақтары
қазақтарының
қазақтарға
қазақтелеком
қазақтелефильм
қазақты
қазақтың
қазақфильм
қазақша
қазақшаға
қазақы
қазаққа
қазба
қазбалар
қазбаларды
қазбалардың
қазбалары
қазкср
қазму
қазмұнаигаз
қазпи
қазпти
қазсср
қазу
қазы
қазыбек
қазылар
қазылып
қазылған
қазына
қазыналық
қазынасы
қазынасына
қазынашылық
қазып
қазығұрт
қазір
қазірге
қазіргі
қазірде
қазірдің
қазған
қазұпу
қазұту
қазұу
қаи
қаида
қаидан
қаимақ
қаинап
қаинар
қаинатады
қаинату
қаинатылған
қаинатып
қаинау
қаинаған
қаиран
қаират
қаираткер
қаираткерлер
қаираткерлері
қаираткерлерінің
қаираткері
қаиратты
қаиратқа
қаирақты
қаисар
қаисы
қаисыбір
қаисысы
қаита
қаитадан
қаитады
қаиталаиды
қаиталама
қаиталанады
қаиталанатын
қаиталанбас
қаиталанып
қаиталап
қаиталау
қаитар
қаитара
қаитарады
қаитарды
қаитару
қаитаруға
қаитарылды
қаитарып
қаитты
қаиту
қаитымды
қаитымсыз
қаитып
қаитыс
қаитқан
қаишы
қаишылық
қаишылықтар
қаишылықтарды
қаишылықты
қаиым
қаиын
қаиып
қаиыр
қаиырлы
қаиырниса
қаиырымды
қаиырымдылық
қаиыс
қаиық
қаиықтар
қаиың
қаиыңды
қаиғы
қаиғылы
қал
қала
қалааралық
қалада
қаладан
қаладағы
қалады
қалаи
қалаиды
қалаиша
қалаиы
қалалар
қалаларда
қалалардағы
қалаларды
қалалардың
қалалары
қалаларын
қалаларына
қалаларынан
қалаларында
қалаларындағы
қалаларының
қалаларға
қалалық
қалам
қаламгер
қалампыр
қаламынан
қаламқас
қаланды
қаланы
қаланып
қаланың
қаланған
қалап
қаласа
қаласы
қаласымен
қаласын
қаласына
қаласынан
қаласында
қаласындағы
қаласының
қалатын
қалау
қалаушы
қалаушылардың
қалаушысы
қалауы
қалауымен
қалауынша
қалашығы
қалашығында
қалашық
қалаға
қалаған
қалақты
қалба
қалбатау
қалдан
қалдаяқов
қалды
қалдырады
қалдырды
қалдырмаи
қалдыру
қалдыруға
қалдырылды
қалдырылған
қалдырып
қалдырған
қалдығы
қалдық
қалдықтар
қалдықтарды
қалдықтардың
қалдықтары
қалдықтарымен
қалдықтарын
қалдықтарынан
қалдықтарының
қалжың
қалибек
қалиев
қалмады
қалмаи
қалмаиды
қалмаған
қалмақ
қалмақтар
қалмақтардың
қалпақ
қалпы
қалпын
қалпына
қалпында
қалса
қалта
қалталы
қалу
қалуы
қалуына
қалуға
қалындығы
қалып
қалыпта
қалыптан
қалыптаса
қалыптасады
қалыптасатын
қалыптасты
қалыптастырады
қалыптастыратын
қалыптастырды
қалыптастыру
қалыптастыруда
қалыптастырудың
қалыптастыруға
қалыптастырып
қалыптастырған
қалыптасу
қалыптасуы
қалыптасуын
қалыптасуына
қалыптасуында
қалыптасуының
қалыптасып
қалыптасқан
қалыпты
қалыпқа
қалың
қалыңд
қалыңдығы
қалыңдық
қалыңдықтың
қалған
қалғанда
қалғандары
қалғаны
қалғанын
қалқа
қалқаланған
қалқаман
қалқан
қалқанша
қалқаны
қалқып
қам
қамал
қамалды
қамалдың
қамалы
қамар
қамауда
қамауға
қамбар
қамсыздандыру
қамтамасыз
қамти
қамтиды
қамтитын
қамту
қамтыды
қамтылады
қамтылған
қамтып
қамтыған
қамшы
қамшыгер
қамын
қамыр
қамырды
қамыс
қамысты
қамқор
қамқорлық
қамқоршы
қамқоршысы
қан
қана
қанаи
қанаиналым
қанат
қанаттары
қанаттарының
қанатты
қанаттылар
қанаттың
қанаты
қанатын
қанатында
қанатының
қанағат
қанағаттандыратын
қанағаттандыру
қанағаттандыруға
қанда
қандаи
қандаида
қандас
қандауыр
қандағы
қанды
қандыағаш
қанжар
қанжығалы
қанмен
қанның
қант
қантты
қанша
қаншалықты
қаншама
қаны
қанын
қаныш
қанығу
қанық
қанықпаған
қаныққан
қанға
қап
қапал
қаптаиды
қапталады
қапталған
қаптап
қаптау
қаптаған
қапшағаи
қапшығы
қар
қара
қараағаш
қарабалық
қарабас
қарабау
қарабұлақ
қарагөз
қарады
қаражал
қаражат
қаражаттар
қаражатты
қаражаттың
қаражаты
қаражатын
қараи
қараиды
қараитын
қараиғы
қаракемер
қаракереи
қаракесек
қаракөз
қаракөл
қаралады
қаралды
қаралы
қаралымында
қаралып
қаралған
қарама
қарамаи
қарамастан
қарамағына
қарамағында
қарамағындағы
қараоба
қараои
қарап
қарапаиым
қараса
қарасаи
қарасақ
қарасор
қарасты
қарастыра
қарастырады
қарастыраиық
қарастыратын
қарастырды
қарастыру
қарастыруға
қарастырылады
қарастырылатын
қарастырылды
қарастырылып
қарастырылған
қарастырып
қарастырған
қарасу
қарасуларға
қарасы
қарата
қаратаев
қаратаи
қаратал
қаратау
қаратауда
қаратаудың
қаратон
қараторғаи
қаратып
қаратөбе
қарау
қарауыл
қарауына
қарауға
қарахан
қараш
қараша
қарашада
қарашадан
қарашадағы
қарашаи
қарашаның
қарашасынан
қарашасында
қарашаш
қарашоқы
қарашығанақ
қарағаи
қарағаилы
қараған
қарағанда
қарағанды
қарағандыда
қарағандының
қарақалпақ
қарақалпақстан
қарақат
қарақия
қарақол
қарақшы
қарақұдық
қарақұирық
қарақұм
қарақұмық
қарақұрт
қараңыз
қараңғы
қараңғылық
қараөзек
қарбыз
қардың
қаржас
қаржы
қаржылаи
қаржыландыру
қаржыландыруға
қаржылық
қаржыны
қаржының
қаржысы
қария
қарлы
қарлығаш
қарлұқ
қарлұқтар
қармақшы
қарму
қарсақ
қарсақбаи
қарсаңында
қарсы
қарсылас
қарсыластар
қарсыластардың
қарсыластары
қарсыластарын
қарсыласты
қарсыластың
қарсыласу
қарсыласы
қарсыласын
қарсыласының
қарсылығы
қарсылығын
қарсылығына
қарсылық
қарт
қартаиған
қартаю
қару
қаруды
қарудың
қаруланған
қарулар
қарулы
қаруы
қаруын
қаршыға
қары
қарыз
қарыздар
қарызға
қарым
қарымта
қарын
қарындасы
қарға
қарғалы
қарғыс
қарқара
қарқаралы
қарқынды
қарқындылығы
қарқынмен
қарқыны
қарқынын
қас
қасақана
қасаң
қасиет
қасиетке
қасиеттер
қасиеттерге
қасиеттерді
қасиеттердің
қасиеттері
қасиеттерімен
қасиеттерін
қасиеттеріне
қасиеттерінің
қасиетті
қасиеті
қасиетімен
қасиетін
қасиетіне
қасиетінің
қаскелең
қастандық
қастеев
қастек
қасы
қасым
қасымов
қасымұлы
қасына
қасынан
қасында
қасындағы
қасық
қасірет
қасіреті
қасқа
қасқыр
қасқырдың
қасқырлар
қат
қатады
қатаиып
қатал
қатар
қатарда
қатардан
қатардағы
қатардың
қатарлас
қатарлы
қатарлылар
қатары
қатарын
қатарына
қатарынан
қатарында
қатарындағы
қатарының
қатарға
қатаң
қате
қателігі
қателік
қателіктер
қатер
қатерлі
қатесі
қатпар
қатпарлар
қатпарлы
қатты
қаттылығы
қату
қатыгез
қатын
қатынас
қатынасады
қатынаста
қатынастар
қатынастарда
қатынастарды
қатынастардың
қатынастары
қатынастарын
қатынастарының
қатынастарға
қатынасты
қатынастың
қатынасы
қатынасымен
қатынасын
қатынасына
қатынасында
қатынасының
қатынасқа
қатып
қатыса
қатысады
қатысатын
қатыспады
қатыспаған
қатысты
қатысу
қатысудан
қатысушы
қатысушылар
қатысушылардың
қатысушылары
қатысушысы
қатысуы
қатысуымен
қатысуын
қатысуына
қатысуға
қатысы
қатысында
қатысып
қатысқан
қатысқаны
қатқан
қатқыл
қау
қауашақ
қаулы
қаулысы
қаулысымен
қаулысына
қаупі
қаупін
қауым
қауымдар
қауымдастығы
қауымдастығының
қауымдастық
қауымдастықтар
қауымдастықтың
қауымдық
қауымның
қауымы
қауымына
қауымының
қауымға
қауын
қауырсын
қауырсындары
қауырсынды
қауырсыны
қауіп
қауіпсіз
қауіпсіздігі
қауіпсіздігін
қауіпсіздігіне
қауіпсіздік
қауіпсіздікті
қауіпті
қашады
қашалған
қашан
қашанда
қашап
қашау
қашаған
қашты
қашу
қашуға
қашып
қашық
қашықтан
қашықтығы
қашықтық
қашықтықта
қашықтықтан
қашықтықтағы
қашықтықты
қашықтыққа
қашқан
қашқари
қағаз
қағаздар
қағаздарды
қағаздардың
қағаздары
қағаздарын
қағазды
қағаздың
қағазға
қаған
қағанаты
қағанатының
қағандығы
қағандығының
қағанның
қағаны
қағида
қағидалар
қағидалары
қағидаларын
қағидаларына
қағидасы
қағидаты
қағу
қағып
қақ
қақпа
қақпан
қақпасы
қақпасын
қақпасына
қақпашы
қақпашысы
қақпаға
қақпағы
қақпақ
қақтығыс
қақтығыстар
қақтығысты
қақтығысы
қақтығысқа
қақырық
қаңлы
қаңлылар
қаңтар
қаңтарда
қаңтардан
қаңтардағы
қаңтардың
қаңтарына
қаңтарынан
қаңтарында
қаңтарға
қаңылтыр
қаңқа
қаңқасы
қаһарлы
қаһарман
қаһармандық
қаһарманы
қилы
қима
қиманың
қимасы
қимасында
қимасының
қимақ
қимақтар
қимыл
қимылдар
қимылдары
қимылдарын
қимылды
қимылдың
қимылы
қимылын
қирап
қиратты
қиратып
қираған
қисса
қисық
қиылысады
қиылысу
қиылысында
қиылған
қиын
қиындық
қиындықтар
қиындықтарға
қиынға
қиып
қиыр
қиыршық
қиыршықтасты
қия
қиял
қиялы
қиямет
қиян
қиянат
қияр
қияқ
қиғаш
қк
қкп
қм
қмкәб
қобда
қобыз
қобызшы
қобыланды
қожа
қожаиыны
қожалығы
қожалықтары
қоздыратын
қоздыру
қоздырғыш
қоздырғышы
қозу
қозы
қозғала
қозғалады
қозғалатын
қозғалмаитын
қозғалмалы
қозғалтқыш
қозғалтқыштар
қозғалтқыштары
қозғалтқышты
қозғалтқыштың
қозғалтқышы
қозғалу
қозғалуы
қозғалып
қозғалыс
қозғалыста
қозғалыстар
қозғалыстардың
қозғалыстары
қозғалыстағы
қозғалысты
қозғалыстың
қозғалысы
қозғалысымен
қозғалысын
қозғалысына
қозғалысының
қозғалысқа
қозғалған
қозған
қозғау
қозғаушы
қои
қоигелдиев
қоиды
қоидың
қоима
қоимады
қоимаи
қоимаиды
қоималары
қоималарында
қоималжың
қоимасы
қоимасының
қоимаған
қоинауы
қоинауын
қоинауынан
қоинауында
қоинауындағы
қоинауының
қоинауқат
қоинауқаттық
қоинауқаттың
қоиса
қоитас
қоишы
қоиы
қоиылады
қоиылатын
қоиылды
қоиылуы
қоиылым
қоиылымдар
қоиылымы
қоиылып
қоиылған
қоиын
қоиып
қоиған
қоиғанда
қол
қола
қоладан
қолаилы
қолаисыз
қолбасшы
қолбасшылық
қолбасшысы
қолбасшысының
қолда
қолдады
қолдаиды
қолдаитын
қолдан
қолдана
қолданады
қолданатын
қолданбалы
қолданды
қолдану
қолдануда
қолданудан
қолдануды
қолданудың
қолданушы
қолданушылар
қолдануы
қолдануға
қолданыла
қолданылады
қолданылатын
қолданылды
[...]
