!
"
#
##0
##1
##10
##11
##12
##13
##14
##15
##16
##17
##18
##19
##2
##20
##21
##22
##23
##24
##25
##26
##27
##28
##29
##3
##30
##31
##32
##33
##34
##35
##36
##37
##38
##39
##4
##40
##41
##42
##43
##44
##45
##46
##47
##48
##49
##5
##50
##51
##52
##53
##54
##55
##56
##57
##58
##59
##6
##60
##61
##62
##63
##64
##65
##66
##67
##68
##69
##7
##70
##71
##72
##73
##74
##75
##76
##77
##78
##79
##8
##80
##81
##82
##83
##84
##85
##86
##87
##88
##89
##9
##90
##91
##92
##93
##94
##95
##96
##97
##98
##99
$
%
&
'
(
)
*
+
,
-
.
/
0
00
000
001
002
003
004
006
007
01
010
0103
011
012
013
014
016
017
018
019
02
02002834
024
025
03
030
031
032
033
035
036
0376
04
040
041
0425
045
049
05
050
051
052
055
057
0575
059
06
060
064
068
07
071
072
074
075
076
078
08
080
081
083
085
087
09
091
092
095
097
1
10
100
1000
101
102
103
104
105
106
1066
107
108
1080
109
11
110
1100
111
112
113
114
115
116
117
118
119
12
120
1200
1204
121
122
123
124
125
126
127
128
129
13
130
1300
13087
131
132
133
134
135
136
137
138
139
14
140
1400
1405
141
142
1420
143
144
1440
145
1450
1452
1453
1457
1458
146
1460
147
1470
148
1483
149
1490
1492
1494
1497
1498
1499
15
150
1500
1503
1506
1508
1509
151
1510
1511
1512
1513
1516
1517
152
1520
1521
1522
1523
1525
1527
1528
153
1531
1533
1534
1536
154
1540
1542
1545
155
1550
1557
1559
156
1560
1561
156224
1565
1566
1569
157
1570
1571
1573
1575
1576
1577
158
1580
1582
1585
1588
1589
159
1591
1598
16
160
1600
1603
1609
161
1610
1616
1619
162
1620
163
1630
164
1644
1645
165
1650
166
1660
1669
167
1670
1671
168
1683
1684
1685
1687
1689
169
1690
1693
1694
1699
17
170
1700
1706
1707
171
1710
1714
1715
1716
1717
1718
172
1720
1722
1723
1725
1728
1729
173
1730
1732
1733
1734
1735
1736
1737
1738
1739
174
1740
1741
1742
1743
1744
1745
1746
1747
1748
1749
175
1750
1751
1752
1753
1754
1755
1756
1757
1758
1759
176
1760
1761
1762
1763
1764
1765
1766
1767
1768
1769
177
1770
1771
1772
1773
1774
1775
1776
1777
1778
1779
178
1780
1781
1782
1783
1784
1785
1786
1787
1788
1789
179
1790
1791
1792
1793
1794
1795
1796
1797
1798
1799
18
180
1800
1801
1802
1803
1804
1805
1806
1807
1808
1809
181
1810
1811
1812
1813
1814
1815
1816
1817
1818
1819
182
1820
1821
1822
1823
1824
1825
1826
1827
1828
1829
183
1830
1831
1832
1833
1834
1835
1836
1837
1838
1839
184
1840
1841
1842
1843
1844
1845
1846
1847
1848
1849
185
1850
1851
1852
1853
1854
1855
1856
1857
1858
1859
186
1860
1861
1862
1863
1864
1865
1866
1867
1868
1869
187
1870
1871
1872
1873
1874
1875
1876
1877
1878
1879
188
1880
1881
1882
1883
1884
1885
1886
1887
1888
1889
189
1890
1891
1892
1893
1894
1895
1896
1897
1898
1899
19
190
1900
1901
1902
1903
1904
1905
1906
1907
1908
1909
191
1910
1911
1912
1913
1914
1915
1916
1917
1918
1919
192
1920
1921
1922
1923
1924
1925
1926
1927
1928
1929
193
1930
1931
1932
1933
1934
1935
1936
1937
1938
1939
194
1940
1941
1942
1943
1944
1945
1946
1947
1948
1949
195
1950
1951
1952
1953
1954
1955
1956
1957
1958
1959
196
1960
1961
1962
1963
1964
1965
1966
1967
1968
1969
197
1970
1971
1972
1973
1974
1975
1976
1977
1978
1979
198
1980
1981
1982
1983
1984
1985
1986
1987
1988
1989
199
1990
1991
1992
1993
1994
1995
1996
1997
1998
1999
2
20
200
2000
2001
2002
2003
2004
2005
2006
2007
2008
2009
201
2010
2011
2012
2013
20130418232939
2014
20147
2015
2016
2017
2018
20180118184818
20180206033008
20180806123507
2019
202
2020
2021
2022
203
204
205
206
207
208
209
21
210
2100
211
212
213
214
215
216
217
218
219
22
220
221
222
223
224
225
2257
226
227
228
229
23
230
231
232
233
234
235
236
237
238
239
24
240
241
242
243
244
245
246
247
248
249
25
250
2500
251
252
2521169
253
254
255
256
2560698
257
258
259
26
260
261
262
263
264
265
266
267
268
269
27
270
271
272
273
274
275
276
277
278
279
28
280
281
282
283
284
285
286
287
2876
288
289
29
290
291
292
293
294
295
296
297
298
299
3
30
300
3000
301
302
303
304
305
306
307
308
309
31
310
311
312
313
314
315
316
3166
317
318
319
32
320
321
322
323
324
325
326
327
328
329
33
330
331
332
333
334
335
336
337
338
339
34
340
341
342
343
344
345
346
347
348
349
35
350
351
352
353
354
355
356
357
358
359
36
360
361
362
363
364
365
366
367
368
369
37
370
371
372
373
374
375
376
377
378
379
38
380
381
382
383
384
385
386
387
388
389
39
390
391
392
393
394
395
396
397
398
399
4
40
400
4000
4003
401
402
403
404
405
406
407
408
409
41
410
411
412
413
414
415
416
417
418
419
42
420
421
422
423
4233
424
425
426
427
428
429
43
430
431
432
433
434
435
436
437
438
439
44
440
441
442
443
444
445
446
447
448
449
45
450
451
452
453
454
455
456
457
458
459
46
460
461
462
463
464
465
466
467
468
469
47
470
471
472
473
474
475
476
477
478
479
48
480
481
482
483
484
485
486
487
488
489
49
490
491
492
493
494
495
496
497
498
499
5
50
500
5000
501
502
503
504
505
506
507
508
509
51
510
511
512
513
514
515
516
517
518
519
52
520
521
522
523
524
525
526
527
528
529
53
530
531
532
533
534
535
536
537
538
539
54
540
541
542
543
544
545
546
547
548
549
55
550
551
552
553
554
555
556
557
558
559
56
560
561
562
56284482
563
564
565
566
567
568
569
57
570
571
572
573
574
575
576
577
578
579
58
580
581
582
583
584
585
586
587
588
589
59
590
591
592
593
594
595
596
597
598
599
6
60
600
601
602
603
604
605
606
607
608
609
61
610
611
612
613
614
615
616
617
618
619
62
620
621
622
623
624
625
626
627
628
629
63
630
631
632
633
634
635
636
637
638
639
64
640
641
642
643
644
645
646
647
648
649
65
650
651
652
653
654
655
656
657
658
659
66
660
661
662
663
664
665
666
667
668
669
67
670
671
672
673
674
675
676
677
678
679
68
680
681
682
683
684
685
686
687
688
689
69
690
691
692
693
694
695
696
697
698
699
7
70
700
7000
701
702
703
704
705
706
707
708
709
71
710
711
712
713
714
715
716
717
718
719
72
720
721
722
723
724
725
726
727
728
729
73
730
731
732
733
734
735
736
737
738
739
74
740
741
742
743
744
745
746
747
748
749
75
750
751
752
753
754
755
756
757
758
759
76
760
761
762
763
764
765
766
767
768
769
76962527
77
770
771
772
773
774
775
776
777
778
779
78
780
781
782
783
785
786
787
788
789
79
790
791
792
793
794
795
796
797
798
799
8
80
800
8000
801
802
803
804
805
806
807
808
809
81
810
811
812
813
814
815
816
817
818
819
82
820
821
822
823
824
825
826
827
828
829
83
830
831
832
833
834
835
836
837
838
839
84
840
841
843
844
845
846
847
849
85
850
851
852
853
854
855
856
857
858
859
86
860
862
863
864
865
866
867
868
869
87
870
871
872
873
875
876
877
878
879
88
880
881
882
883
884
885
886
887
888
889
89
890
891
892
894
895
896
897
898
899
9
90
900
902
903
904
905
906
907
908
909
91
910
911
913
914
915
916
917
918
919
92
920
921
922
923
924
925
927
928
929
93
930
931
932
933
935
936
937
938
939
94
940
941
942
944
946
947
948
949
95
950
951
952
954
955
956
957
958
959
96
960
961
962
963
964
965
966
967
969
97
970
971
972
973
974
975
976
977
978
979
98
980
982
983
984
985
986
987
988
989
99
990
991
992
993
994
995
996
997
999
:
;
<
=
>
?
@
[
\
]
^
_
`
a
aa
aarau
aaron
aat
ab
aba
abado
abajo
abandon
abandona
abandonada
abandonai
abandonar
abano
abasia
abasso
abastanza
abate
abatudi
abatudo
abba
abbaye
abbe
abbi
abbia
abbiamo
abbie
abc
abd
abe
abeba
abel
abergement
abi
abia
abiando
abie
abijamento
abilita
abina
abita
abitada
abitante
abitanti
abitar
abitasion
abitato
abitava
abitazion
abiti
abito
abiłita
abo
abolizione
abonamento
abondansa
abondanti
abondanza
abondanzia
about
abołision
abrac
abraham
abramo
abre
abril
abruso
abside
abu
abudo
abuja
abuo
abuso
ac
aca
acade
academia
academy
acca
accademia
accenna
accennando
access
accessdate
accesso
accidente
accio
accordo
accosta
account
accra
accresciuta
ace
acesion
aceso
aceta
acetar
ache
achile
achille
aci
aciaio
acidente
acio
acnp
aco
aconpagna
acorda
acordi
acordo
acorsse
acorto
acorze
acqua
acquaviva
acque
acquista
acquisto
acredita
acro
acs
act
action
actor
actors
actv
acu
acua
acue
acuisto
acuitania
acusa
acuto
acuxa
acuxativo
acuza
ad
ada
adam
adamo
adams
adasio
adata
adatamento
adato
adda
addi
addio
addis
addosso
ade
aden
ades
adese
adesine
adeso
adessadesso
adesso
adevene
adevignudo
adexe
adezion
adi
adibi
adige
adio
adiritura
adisionałi
admin
administration
administrativ
ado
adolf
adolfo
adoncha
adonqua
adora
adorabile
adorano
adoro
adosion
adosso
adota
adotada
adour
adria
adrian
adriano
adriatico
adrien
adulta
adulti
adulto
adventures
ae
aea
aec
aer
aerea
aerei
aereo
aero
aeroporto
aesse
afacia
afani
afano
afar
afari
afasa
afato
aferma
afermasion
afeto
affairs
affanni
affari
affatto
affettazione
affetto
affoltern
affronto
afghanistan
afi
afianca
afida
afito
afluente
afluenti
afregada
afreschi
afresco
africa
african
africana
africane
africani
africano
afrikaans
afronta
afrontar
after
ag
aga
again
against
agaricus
agata
agatha
agcom
age
agency
agente
agetivi
agetivo
aghe
aghi
agio
agiuta
agiuto
agli
agn
agne
agnelli
agnese
agno
ago
agordin
agostin
agostini
agostino
agosto
agra
agresion
agri
agricola
agricolo
agricoltori
agricoltura
agricoła
agricultura
agriculture
agrixento
agro
agrumi
agua
aguilar
aguilera
agusti
agustin
ah
ahi
ai
aia
aid
aida
aidar
aids
aiello
aigle
aignan
aigues
ain
air
aira
aire
aires
airlines
ais
aise
aisne
aiuta
aiuto
aix
ajensia
ajenti
ajetivo
ajo
ajornamento
ajuto
ak
al
ala
alabama
alain
alameda
alan
alaska
alba
albacete
alban
albanese
albanexe
albania
albano
albany
albari
albaro
albarraci
albe
albergar
albergo
alberi
albero
albert
alberto
albino
albis
alboreto
albori
alboro
album
albums
albun
alc
alca
alcala
alcatel
alchuna
alchuno
alcide
alco
alcol
alcolea
alcun
alcuna
alcune
alcuni
alcuno
aldc
aldea
aldeanueva
aldehuela
aldi
aldir
aldo
ale
alegra
alegramente
alegre
alegrec
alegreza
alegrezza
alegri
alegria
alegro
alema
alenc
aler
alesandro
alessandra
alessandria
alessandro
alessio
alevamento
alex
alexander
alexandre
alfa
alfabeti
alfabetico
alfabeto
alfieri
alfin
alfonso
alfred
alfredo
algeri
algeria
alghe
algun
alguna
algune
alguni
alguno
ali
alias
alicante
alice
alicia
aliegra
aliegri
aliegro
alien
alife
alighieri
align
alimentare
alize
all
alla
allan
alle
allegra
allegramente
allegrezza
allegri
allegria
allegro
allen
allenatore
alli
alliance
allier
allmovie
allmusic
allo
allora
allude
ally
alma
almanacco
almanco
almen
almeno
almente
almeri
almonacid
alnus
alo
aloco
alora
alpago
alpe
alpes
alpha
alpi
alpin
alpina
alpine
alpini
alpon
alquanto
alsa
alsazia
alt
alta
altamente
altana
altanet
altar
altare
altari
altavilla
alte
alter
altera
alterna
alternativa
alternative
altesa
altezza
alti
altimetrica
altin
altipian
altipiani
altitu
altitudine
alto
altoparlante
altopian
altopiani
altopiano
altr
altra
altramentre
altre
altretanto
altri
altrimenti
altro
altrosi
altrotanto
altrui
altura
aluvixe
alvaro
alveołare
alvergna
alvise
alvisopoli
alza
alzar
alzeria
am
ama
amabile
amala
amalfi
amance
amand
amans
amante
amanti
amantinente
amar
amara
amare
amaro
amato
amava
amazon
ambiente
ambito
ambizion
ambrogio
ame
amedeo
amelia
amen
amendola
ameno
america
american
americana
americane
americani
americano
ametesto
ami
amia
amic
amica
amici
amicis
amicisia
amicizia
amico
amiga
amighe
amighi
amigo
aministra
aministradiva
aministrador
aministrasion
aministrativa
aministrativamente
aministrative
aministrativi
aministrativo
amira
amisi
amision
amman
amo
amoled
amoni
amor
amora
amorato
amore
amori
amorosa
amorose
amorosi
amoroso
amour
ampadu
ampezzo
amsterdam
amstetten
amtsbezirk
amy
an
ana
anacardium
anacreontica
anacreontiche
anagrafe
analisi
anar
anare
anastasia
anato
anatomia
anałixi
anbasador
anbedo
anbie
anbienta
anbientałe
anbientałi
anbiente
anbienti
anbision
anbito
anburgo
anc
anca
anch
anche
anchora
anchuo
anci
ancient
ancillo
anco
ancona
ancor
ancora
ancu
ancuo
ancura
and
anda
andada
andadi
andado
andae
andai
andalusia
andamento
andando
andar
andara
andarave
andare
andaremo
andarghe
andaro
andasse
andata
andate
andava
andałusia
ande
andelfingen
andemo
andera
andere
anderemo
andero
anders
andersen
anderson
andeu
andeva
andiamo
ando
andon
andora
andorra
andove
andra
andre
andrea
andreas
andreotti
andrew
andrews
andria
android
andronico
andy
ane
anello
anelo
anema
anemal
anemałi
aneme
anemo
anesion
aneło
anfiteatro
angel
angela
angeles
angeli
angelica
angelini
angelo
angels
angiola
angle
angles
anglo
angola
angolo
angossa
angołi
angoło
ani
anidride
anima
animai
animal
animali
animasion
animałe
animałi
animaƚe
anime
animi
animo
anita
aniversa
aniversario
anjo
anjou
ann
anna
annali
anne
anni
anno
annual
ano
anonimo
another
anpia
anpiesa
anpio
anpli
anpo
ans
ansa
anselmi
ansi
ansovini
ant
anta
antananarivo
antartego
antartide
ante
antena
antenati
antenore
anteprima
anterior
anteriore
anthony
anti
antica
anticamente
antiche
antichi
antichita
antico
antiga
antigamente
antighe
antighi
antighita
antigo
antigua
antioco
antisipa
antisipo
antiłe
anto
antoine
antologia
anton
antonella
antonello
antoni
antonin
antonino
antonio
antoniogenna
antra
antro
anualmente
anuałe
anunc
anuncia
anunsa
anunsia
anuła
any
anz
anzi
anzola
anzoleta
anzoleto
anzoletta
anzoletto
anzoli
anzolo
ao
aonde
aosta
ap
apa
apar
aparato
apare
aparensa
aparente
aparenza
apari
apariquiado
aparir
aparise
aparision
apartamento
apartegnente
apartegnenti
apartenente
apartheid
apartien
ape
apelado
apellido
apellidos
apena
apenxeło
aperto
apertura
apetito
api
apice
aplegasion
aplica
aplicasion
apo
apollo
apolo
apologhi
apologo
aponto
aposta
aposto
apostoli
apostolo
apostołi
apostoło
app
apparecchio
appartamento
appena
appendice
apple
appleton
appresso
appunto
apre
apremont
aprendimento
apresa
apreso
apresso
april
aprile
apriłe
aprosimante
aprova
aprovada
aprovasion
aprovo
apunto
aq
aqua
aque
aquila
aquileia
aquileja
aquista
aquitania
aquiła
aquiłeja
ar
ara
araba
arabi
arabia
arabo
aradiofo
arago
aragona
aragonesa
aragonese
aramu
aranda
aranti
arbe
arbitro
arbon
arbore
arbori
arc
arca
arcade
arcangelo
arce
arche
archeologici
archeoło
archeołozia
archetti
archi
architeti
architeto
architetto
architettura
architetura
archiv
archive
archivedate
archives
archiveurl
archivi
archivia
archiviazione
archivio
arcipelago
arcive
arcivescovo
arco
arcos
arcuanti
ard
arde
ardennes
ardente
ardidamentre
ardido
ardir
ardito
ardo
ardor
are
area
arealstatistik
arecorde
arecordo
aree
arena
arenas
arent
arente
arenti
ares
areso
aresta
aresto
arezo
argentina
argento
argomenti
argomento
argonne
argovia
ari
aria
arian
ariana
ariano
arido
arie
ariosto
aristocrasia
ariston
aristotele
ariva
arivar
arivo
arizona
arkansas
arl
arlecchino
arlechin
arlesheim
arleva
arlevada
arma
armada
armade
armadi
armado
armadura
armae
armagnac
armai
armanc
armando
armar
armata
armate
arme
armena
armeni
armenia
armi
armisti
armo
armonia
armor
arms
armstrong
army
arn
arnaldo
arne
arno
arnold
arnoldo
arnoult
aro
arpa
arr
arrecordo
arrente
arriba
arrigo
arringa
arriva
arrivano
arrivo
arrondissement
arroux
arrows
arroyo
ars
arsena
arsenal
arsenale
arsipe
arsipełago
art
arta
arte
artegołasion
artegołato
artexan
arthur
arti
article
articoli
articolo
articołi
articoło
artificial
artifisałe
artist
artista
artistega
artistego
artisti
artistica
artistico
artists
artois
arts
arturo
artus
aruba
arxento
arzentina
arzento
as
asa
asai
asalto
asaver
asburgo
ascend
ascoli
ascolta
ascoltar
ascolte
ascolti
ascolto
ascołi
ascun
ase
asean
asedia
asedio
asegna
asenblea
asenblee
aseni
asenja
aseno
asensa
asento
aseo
aseta
asetar
asi
asia
asiago
asieme
asino
asion
asistensa
asistente
asmara
asnie
aso
asocia
asociasion
asosiasion
asołuta
asołuto
asp
asparagus
aspeta
aspetar
aspetava
aspeti
aspeto
aspetta
aspettar
aspette
aspetto
aspra
aspx
assa
assae
assai
assalto
assassin
asschun
asse
assedio
assegnato
assicuro
assisi
asso
association
associazione
asta
astana
aste
astero
asteroide
asteroidi
asti
astrata
astri
astro
astrologo
astrona
astrono
astronomi
astronomia
astronomo
astrozeołozia
astrołozia
astu
asturian
asturie
asume
asumesto
asunto
at
ataca
atacante
atachi
ataco
atalanta
atanto
atene
atension
atenta
atentai
atentato
atenti
atento
atenzion
atera
atesta
ati
atira
ativa
ativamente
ativi
ativista
ativita
ativo
atla
atlanta
atlante
atlantego
atlantic
atlantico
atlantique
atlantiques
atlas
atleta
atmosfe
atmosfera
ato
atomi
atomo
ator
atora
atore
atori
atorno
atrasion
atraversa
atraverso
atribui
atribuio
atribusion
attersee
attesa
atti
attilio
attivita
atto
attore
attori
attorno
atual
atuale
atualmente
atuałe
atuałi
au
aube
aubigny
aubin
aude
audi
audio
audiolibri
audiovisivi
audision
audit
audret
auge
augurio
august
augusta
auguste
augustin
augusto
augustus
aulnay
aumenta
aumentar
aumento
aumont
aurantium
aure
aurea
aurelio
auriac
aurora
auschwitz
austin
austra
australe
australia
australian
austrałia
austri
austria
austriaca
austriaci
austriaco
austro
auszuggv
aut
authie
author
authority
authorlink
auto
autobiografia
autobus
autodeterminasion
autogoernai
autogoerno
autogol
automa
automo
automobilistego
automobiłi
autonoma
autonome
autonomi
autonomia
autonomo
autor
autore
autori
autorita
autostrada
autostrade
autuno
auvergne
aux
av
ava
avana
avansa
avant
avanti
avanza
avanzo
avara
avari
avaria
avarizia
avaro
avati
ave
avea
avegnesta
avegnesto
avegnimenti
avegnimento
avegniminti
avegnir
avegnu
avellino
avemaria
avemio
avemo
avena
avendo
avene
avento
aventura
aventure
avenue
aver
avera
average
averave
avere
averemo
averghe
averi
averia
averla
averlo
averme
avero
aversa
aversari
aversario
averse
averta
averte
averto
averze
avesa
avese
avesnes
avesse
avessi
avesto
avete
aveu
aveva
avevano
aveyron
avełin
avi
avia
aviasion
avien
avigliana
avignir
avignon
avignudo
avisa
aviso
avit
aviv
avo
avocato
avon
avorio
avra
avre
avrebbe
avrei
avri
avril
avrił
avriłe
avu
avudo
avuo
avuto
avventura
avventure
avvertenza
avviso
avvocato
award
awards
away
ax
axia
axienda
axiende
axol
axura
axuro
ay
ayun
az
azeglio
azerbaijan
azia
aziago
azienda
aziende
azio
azion
azione
azo
azonta
azoto
azudega
azuro
azzo
azzurro
ał
ała
ałaska
ałe
ałeansa
ałenador
ałenator
ałesandria
ałeutin
ałevamento
ałi
ałimenta
ałimentar
ałimentari
ałimentasion
ałora
ałuvion
b
ba
baba
babilonia
baby
bac
bacala
bacan
bacco
bach
bacheta
bacino
bacio
back
baco
bad
bada
badajoz
badar
bade
baden
badia
badoglio
baffa
baffo
bagdad
baggio
baglioni
bagna
bagnada
bagneux
bagni
bagno
bagnoli
bagnolo
bagnoło
bagola
bahamas
bahia
bahrein
bai
baia
bailey
bailleul
bailly
bailo
bain
bains
baiona
baja
bajo
baker
baku
bal
bala
balanso
balar
balbi
balcani
balcon
balconi
baldassare
baldini
baldo
baldwin
bale
baleares
bali
ball
balla
ballar
ballarin
ballo
balme
balo
balon
balordo
balsamo
baltego
bamako
bambin
bambina
bambini
bambino
ban
banc
banca
banche
bancheti
banco
band
banda
bande
bandi
bandiera
bandiere
bando
bang
bangkok
bangladesh
bangui
banjul
bank
bano
bantu
bao
baptiste
bar
bara
barack
baranja
barb
barba
barbara
barbarani
barbari
barbarigo
barbaro
barbarossa
barberino
barbier
barbieri
barc
barca
barcarioi
barcariol
barcariola
barcarol
barcarole
barcelona
barcełona
barche
barchesa
barco
bard
bardassa
bardasse
bare
bareta
bari
bariano
bariera
bariere
barleta
barnaba
baro
baroco
baron
barona
barone
baroni
baronia
barony
barre
barrios
barrois
barry
barsełona
barthe
bartolome
bartolomeo
bartolommeo
barufa
barufe
baruffa
baruffe
bas
basa
basan
basar
basca
baschi
basco
base
baseball
baseggio
basi
basic
basilica
basin
basinger
basista
basket
baso
bass
bassa
bassan
bassano
basse
bassi
bassigny
basso
basta
bastansa
bastante
bastardo
basten
bastia
bastian
bastiana
bastide
bastien
bastion
basto
baston
bastona
bastone
bastoni
bat
bata
batagia
bataglia
bataia
bataille
bataja
bataje
batalia
bataria
bataya
bate
batelante
batelo
batendo
bater
bateri
bateria
baterista
bati
batista
batman
batocio
batson
battaglia
batte
battello
battiato
battista
battisti
battle
batu
batua
bau
baudo
baume
bautta
bava
bavellera
baviera
baxa
baxada
baxe
baxełega
baxi
baxilea
baxiłicata
bay
bayern
baza
bazada
bazarelo
baze
bazi
bazoches
bała
bałacanestro
bałanso
bałeari
bałi
bało
bałon
bbc
bd
be
bea
beach
beat
beata
beati
beatles
beato
beatrice
beauce
beaufort
beaulieu
beaumont
beaune
beauregard
beautiful
beauvoir
bec
beca
beccaria
becchifottui
becco
beck
beco
bedeckung
bee
beethoven
before
begin
behind
bei
being
beirut
bel
bela
belche
bele
belec
beleid
beleza
belezza
belezze
belfort
belga
belgrado
beli
believe
belin
bell
bella
bellarmino
belle
bellec
bellegarde
belleville
bellevue
bellezza
bellezze
belli
bellini
bellissima
bello
belmont
belmonte
belo
belt
belta
belumat
belun
belve
belvedere
belzo
bembo
ben
benche
bene
benedeta
benedeti
benedeto
benedetta
benedetto
benedi
benedir
benedito
benedizion
beneficensa
benefico
beneto
benetto
benetton
benevento
beni
benin
benissimo
benito
benjamin
benoi
benon
bensi
benvenuti
benz
bep
bepi
bepo
beppe
beppo
ber
berberi
bere
bereghi
berego
berg
bergamasco
bergamo
bergantin
bergen
bergman
bering
berlin
berlina
berlino
berlusconi
berna
bernard
bernardin
bernardino
bernardo
bernexe
bernhard
bernoni
berry
berta
bertagna
berte
berto
bertrand
besogna
besogno
besse
bessi
bessin
besso
best
bestia
bestiame
bestie
bet
beta
beti
betina
bett
betta
bettia
bettina
bettino
betty
between
beva
bevanda
beve
bever
bevere
beverly
bevi
bevo
bevu
bey
beyond
bezirk
bezirke
bezzi
bezzo
beła
bełe
bełesa
beło
bełun
bfi
bfs
bg
bi
bia
biagio
bianca
bianche
bianchi
bianchini
bianco
bianconeri
biasio
biava
bibia
bibliografia
biblioteca
bicicleta
biden
bie
bieber
bien
biena
bieła
biełoru
big
bilancio
bilbao
bile
bili
bill
billboard
billy
bilora
bin
bina
bing
bio
biografia
biografico
biografie
biography
bioko
bionda
bionde
biondi
biondina
biondo
bioło
biołoxia
biołozia
bira
birba
birbante
birbanti
bis
bisa
biscoti
bisenzio
bisestiłi
bisi
bisiac
bismarck
biso
bisogna
bisognava
bisognera
bisogni
bisogno
bisognosi
bison
bissa
bissau
bit
bitcoin
biti
bito
bivio
bixantin
bixesti
bixesto
bixogna
bixogno
bizantin
bizantina
bizantini
bizesti
bizkaia
bizzarre
biłabiałe
biłe
biłi
biłogora
bjelovar
bl
bla
black
blackmore
blair
blaise
blanc
blanche
blanco
blanor
ble
blega
bleghe
bleghi
blego
blica
blico
bliomberis
blo
blob
bloca
blochi
bloco
blog
blogspot
blood
blu
bludenz
blue
blues
bluetooth
bmatrix
bmw
bo
board
boat
bob
bobby
boca
bocage
bocalon
bocca
boccaccio
bocchini
boccon
bocconi
bocelli
bocha
boche
bochin
bocia
bocolo
bocon
boconi
bodennutzung
body
boe
boedo
boeing
boeri
boerio
bogart
bogia
bogie
boi
boinc
bois
boisset
boissie
boissy
bojo
bol
boldi
boldo
boli
bolivia
bologna
bolognese
bolognini
bolxan
bolzan
bolzano
bomba
bombarda
bombardar
bombarde
bombe
bomo
bon
bona
bonagrazia
bonaparte
bonba
bonbarda
bonbardamenti
bonbardamento
bonbe
boncourt
bond
bondi
bone
bongiorno
bongusto
bonham
boni
bonifacio
bonnet
bonneval
bonneville
bonnie
bono
bonora
bons
bonta
bontade
bonucci
bonus
bony
boogie
book
books
boom
boot
bor
bora
borbon
borde
bordeaux
bordello
bordelo
bordes
bordi
bordo
bordoni
borghi
borgo
borgogna
boria
boris
bormida
born
borsa
bort
bortolo
bortoło
bosc
bosch
boscheti
boscheto
boschi
boscho
bosco
bose
bosnia
boss
bossi
boston
bot
bota
botanic
botanico
bote
botega
boteghe
boteghin
boti
botiro
boto
boton
botoni
botswana
botta
botte
bottega
botteghe
bouches
boudry
boue
boulay
boulevard
boulogne
bouquet
bourg
bourgogne
boutonne
bovini
bowie
box
boxer
boy
boys
boła
bołe
bołi
bołivia
bołogna
br
bra
brabante
brac
braccia
braccio
brad
bradley
braga
bragadin
braghe
braghesse
brainstorming
brama
bramar
bramo
branca
brand
brandan
brando
brani
brano
brao
brasa
brasi
brasil
brasile
braso
brassi
brassica
brasso
braun
braunau
braura
braus
braux
brava
brave
bravi
bravo
bravura
braxil
braxiłe
bray
braye
braziłe
brazo
brazza
brazzaville
brazzi
brazzo
bre
break
brega
bregenz
brema
bremgarten
brenchaina
brendani
brenta
bresa
brescia
bresia
bresse
bretagna
bretagne
bretteville
breuil
breve
breveta
breveto
brevi
bri
bria
brian
briansa
brianza
brice
bridge
brie
brienne
briga
brigada
brigae
briganti
brigh
brighella
brigida
brigliadoro
brilanti
brillante
brindesi
brindisi
brindixi
brio
brion
bristol
brita
britain
britanego
britanica
britanico
britannica
british
britney
bro
broadcasting
broadway
brod
brodo
broglio
brontola
brontolon
bronxo
bronzo
brooklyn
brooks
bros
brothers
brown
browser
broye
bru
bruce
bruck
brugg
brun
bruna
brunate
brunei
bruni
bruno
brunor
brusa
brusada
brusar
brusca
brusegan
brusor
bruta
brute
bruti
bruto
brutta
brutte
brutto
bruxa
bruxelles
bruye
bruza
bs
bu
buc
buch
bucintoro
budapest
budget
budista
bue
buele
buenos
buffon
bufon
bug
buganze
build
buio
buis
bujumbura
bul
bulgaria
bull
bulo
bundesla
buo
buon
buona
buonarroti
buone
buoni
buono
buran
buratti
burchiello
bureau
bureba
burgenland
burgess
burgos
burkina
burla
burlar
burle
buro
burton
burundi
bus
busa
bush
busi
busia
busie
business
busio
buso
bussie
bussola
bussolin
bussy
busto
but
buta
butada
butando
butar
butava
bute
buti
butiro
buto
butta
buttar
buxi
buxie
buxo
buzara
buzarada
buzarai
buzarar
buzare
buzaron
buzarona
buzarone
by
bylocation
bz
c
ca
caballeros
caban
cabarde
cabaret
cabeza
cabezas
cabo
cabrera
cabriel
cac
cacao
caccia
cacia
caciatori
cada
cadaun
cadauna
cade
cadena
cadene
cadensa
cador
cadore
caduta
cae
caena
caene
cafe
caff
caffe
cagar
cage
cagliari
cagna
cai
cairo
caitan
cajari
cal
cala
calabria
calabro
calafato
calais
calamita
calar
calatrava
calche
calchedun
calcheduni
calcio
calco
calcola
calcoli
calcolo
calcosa
calcuta
calda
caldara
calde
caldi
caldo
cale
calendario
calenzano
cali
california
caligo
call
calle
callparserfunction
calma
calmo
calo
calogero
calonne
calor
calore
calsi
calsiasi
caltaniseta
calto
calvados
calvi
calza
calzada
calze
cam
camara
camare
camariera
cambia
cambiamento
cambiar
cambio
cambrai
cambre
cambridge
came
cameo
camera
camere
cameriera
cameron
cameros
camerun
camillo
camin
camina
caminando
caminar
camini
camino
camisa
camixa
camp
campagna
campagne
campana
campanar
campane
campania
campanil
campanile
campbell
campestre
campestri
campi
campiello
campielo
campillo
campion
campionato
campione
campioni
campo
campos
can
cana
canada
canadese
canadexe
canadeze
canadezi
canadian
canagia
canal
canalazzo
canale
canali
canare
canaregio
canarie
canaro
canavese
canałe
canałi
canbi
canbia
canbiamenti
canbiamento
canbiaminti
canbiar
canbio
cancaro
cancello
canche
cancian
canciano
cancro
candela
candele
candia
candida
candidai
candidatura
candido
cane
canet
caneva
cangrande
cani
cannes
cano
canochial
canon
canone
canoni
canonica
canova
canpagna
canpagne
canpana
canpane
canpania
canpanie
canpanil
canpaniłe
canpanja
canpi
canpion
canpiona
canpionado
canpionati
canpionato
canpioni
canpo
canpobaso
canso
canson
cansone
cansoni
cant
canta
cantabria
cantada
cantal
cantando
cantante
cantanti
cantar
cantare
cantaudor
cantautore
cantava
cante
canterbury
canti
cantina
canto
canton
cantone
cantoni
cantor
canyon
canzian
canzio
canzon
canzone
canzoneta
canzonete
canzonetta
canzonette
canzoni
canzoniere
canzonieri
canzonissima
cao
caologo
caołogo
cap
capa
capac
capace
capaci
capana
capani
capase
capasita
capasitiva
cape
capel
capela
capelle
capello
capelo
capetanio
capeła
capeło
capi
capio
capir
capire
capise
capisse
capisso
capita
capital
capitale
capitali
capitan
capitani
capitano
capitar
capitałe
capite
capitoli
capitolo
capitoło
capo
capoluogo
capon
caponi
capołogo
capołuogo
cappel
cappella
cappello
capra
capraia
capri
capricci
capriccio
capricio
caprin
captain
capua
car
cara
carabinieri
caracas
carai
caraibi
carara
caratare
caratari
caratariza
caratere
carateri
carateristega
carateristeghe
carateristica
carateristiche
caraterixa
caraterixada
carateriza
caraterizada
carattere
caratteri
caravana
carbo
carbon
carboni
carbonio
card
carden
cardi
cardiff
cardinal
cardinale
cardinałe
care
carean
carega
careghe
carestia
carey
carezza
carezze
carga
cargo
cari
carica
cariche
carico
carie
cariera
carinsia
carissimo
carita
carl
carla
carles
carletto
carlin
carlo
carlos
carlota
carlotta
carmagnola
carmen
carmine
carne
carneval
carnevale
carni
carnioła
carnovale
caro
carogna
carol
carolina
carosello
carpasi
carpi
carra
carrara
carrie
carriera
carro
carso
carta
cartacea
carte
cartelo
carter
cartełi
cartełin
cartography
carton
cartoni
cartoon
cas
casa
casal
casale
casaletto
casanova
casas
casca
cascada
cascade
cascar
cascate
casciano
casco
case
caselle
caserta
caseta
casi
casin
casini
casino
casion
caso
cason
caspita
cassa
cassandro
cassano
casse
casson
cast
casta
castagna
castagnaro
castagne
castaldo
castan
caste
casteja
castejo
castel
castelani
castelfiorentino
castelfranco
casteli
castell
castellani
castellano
castellar
castelletto
castelli
castello
castelmassa
castelnau
castelnovo
castelnuovo
castelo
castełi
casteło
castigar
castiglia
castiglione
castigo
castillejo
castillo
castillon
castra
castrillo
castro
cat
cata
catada
catae
catai
catala
catalan
catalans
catalog
catalogna
catalogo
catalunya
catando
catania
catanxaro
catanzaro
catar
catare
catarina
catarse
catava
catałan
catałogna
cate
catechismo
catedra
catedral
catedrałe
categoria
categorie
category
catemo
catena
caterina
catełan
catełogna
catherine
catholic
catina
cativa
cative
cativi
cativo
cato
catolega
catoleghi
caton
catołega
catołica
catt
catte
cattina
cattiva
cattive
cattivi
cattivo
cattolica
catullo
catura
cau
caumont
causa
cause
caux
cauxa
cauza
cauzzi
cav
cava
cavai
caval
cavala
cavalarie
cavalcar
cavalcata
cavalcha
cavalchava
cavali
cavalier
cavaliere
cavalieri
cavalli
cavallier
cavallo
cavalo
cavando
cavar
cavare
cavarghe
cavarse
cavałi
cavałier
cavałin
cavało
cave
cavea
cavedal
cavedali
cavedałe
cavei
cavel
caveli
caveve
cavi
cavita
cavo
cavologo
cavour
cavołogo
cavre
caxa
caxe
caxerta
caxi
caxo
caxon
caza
cazada
cazaux
caze
cazi
cazo
cazza
cazzador
cazzar
cazzi
cazzo
cała
całabria
całe
całenda
całendario
całifornia
cało
całor
cbs
cc
cctv
cd
cdot
ce
cea
cec
ceca
ceccaroni
cecco
cecilia
cecina
ceco
cecoslova
ced
cede
cedsci
cedu
cee
cei
cel
celebra
celebrar
celebre
celebri
celentano
celenza
celeste
celesti
cella
celle
celles
celule
cen
cena
cene
cener
cenere
cenni
cenno
censi
censii
censimento
censura
census
cent
cente
centenario
center
cento
central
centrale
centralino
centrałe
centre
centri
centro
centrosinistra
century
ceo
cera
cerca
cercando
cercar
cerchando
cerche
cerchio
cerco
ceres
cerimonia
cerimonie
ceriotto
cernay
cerrato
cerreto
cerro
certa
certaldo
certamente
certe
certi
certo
cervel
cervello
cervelo
cervera
cervi
cervo
ces
cesa
cesar
cesare
cesarea
cesena
cesso
cestari
ceste
cesto
ceto
cetra
ceuta
cexa
cexe
ceza
ceze
ceła
cełeste
ceło
cf
cfr
cgd
ch
cha
chaan
chac
chalais
chambe
chambon
chamera
chamin
champ
champagne
champigny
champions
champs
chan
chane
chang
change
chani
channel
chapelle
chaplin
chapter
charente
charles
charlie
charlot
charlotte
charmes
charne
chart
charts
chasion
chastelle
chastello
chastelo
chat
chaumont
chausse
chaux
chavalarie
chavalcha
chavalchar
chavalchava
chavali
chavalier
chavalieri
chavalo
chavannes
chavo
chaxa
chaxion
che
chea
checa
checca
checchina
checo
chef
chei
chel
chela
chele
cheli
chelo
chen
cher
cherzo
ches
chess
chet
chevalier
chevannes
chevrolet
cheł
cheła
chełe
chełi
cheło
chgemeinden
chi
chia
chiacole
chialo
chiama
chiamada
chiamar
chiamata
chiamato
chiamava
chiame
chiamo
chianti
chiapa
chiapar
chiapo
chiappa
chiar
chiara
chiaramente
chiare
chiaretta
chiari
chiaro
chiassetti
chiasso
chiava
chiavada
chiavae
chiavar
chiave
chicago
chie
chiede
chies
chiesa
chiese
chieti
chieto
chievo
child
children
chile
chili
chilo
chilometri
chimega
chimeghe
chimica
chimico
china
chinchis
chine
chinese
chio
chiodo
chiozzotte
chipilo
chirico
chirurxia
chitara
chitare
chitarista
chitaristi
chiude
chiusa
chive
chiło
chiłometri
cho
choice
chola
chome
chomo
chon
chontra
chonvien
choroc
chorpo
chorte
chorus
chossa
chosse
chris
christian
christie
christina
christmas
christo
christoph
christophe
christopher
chrome
chrysler
chuck
chului
church
churchill
chusi
chussi
chustui
chy
ci
cia
ciacolar
ciacole
ciad
ciafuxa
ciama
ciamada
ciamade
ciamadi
ciamae
ciamai
ciamar
ciamava
ciame
ciamo
ciampi
cianpo
cianta
ciao
ciapa
ciapada
ciapando
ciapar
ciapare
ciapava
ciapo
ciara
ciaramente
ciare
ciari
ciarimento
ciarlatano
ciaro
ciascun
ciascuna
ciave
ciavi
ciavitu
ciavo
cibo
ciceron
cicerone
ciclo
ciclone
cico
cicogna
cid
cie
ciel
cieli
cielo
ciera
ciesa
cieza
ciga
cigante
cigar
cil
cile
cilento
cima
cime
cimento
cimitero
cina
cinbro
cine
cinema
cinematografo
cinese
cinexe
cineze
cinezi
cinezo
cinquanta
cinque
cinquecento
cio
cioca
ciocołato
cioe
ciopa
ciopar
ciopo
cioxa
cipriano
cipro
cir
circa
circle
circo
circoli
circolo
circonda
circoscrision
circostanza
circus
cirgues
ciro
cismon
cit
cita
citade
citadin
citadina
citadine
citadini
citasion
cities
citrullus
citrus
citta
cittadella
cittadine
cittadini
cittae
city
ciudad
ciurma
civica
civico
civil
civile
civili
civilta
civitella
ciłe
ck
cklabruck
cl
cla
clair
claire
clama
clan
clapton
clar
clara
clare
clark
clarke
claro
clase
clasega
clasego
clasi
clasica
clasico
clasifega
clasifegasion
clasifeghe
clasifica
clasificasion
clasifiche
class
classe
classic
classica
classici
classico
classifica
claude
claudex
claudia
claudio
claus
cle
clega
clemente
clementina
cleo
cleopatra
clermont
clero
cleveland
cli
clic
client
clienti
cliff
clima
climate
climi
clinton
clive
cln
cloud
club
cm
cn
cnega
cneghe
cnego
cnn
co
coa
coalision
coast
coałision
coca
cocal
cocciante
cochi
coco
cocola
coda
codaxe
code
codexe
codice
coe
coeło
cofa
cogion
cogiona
cogionari
cogioni
cogitore
cogna
cognome
cognoser
cognossa
cognosse
cognosseva
cognosso
cognossu
cognossudo
cognosu
cognugasion
cogo
coi
coinside
coinvolto
col
cola
cold
cole
colega
colegio
colera
coletti
coli
colin
colina
coline
coll
colla
collado
colle
collection
college
collegio
collera
collezione
colli
collins
collo
colmo
colo
colomba
colombe
colombi
colombia
colombier
colombo
colona
colone
colonel
coloni
colonia
colonie
colonizasion
colonna
color
colorado
colore
colori
coloro
colpa
colpe
colpi
colpio
colpir
colpise
colpo
colspan
coltiva
coltivar
coltivasion
colto
coltura
colu
colui
columbia
com
coma
comanda
comandada
comandai
comandamento
comandante
comandar
comande
comandi
comando
comare
combacia
combatar
combate
combater
combe
combinazion
come
comedia
comedie
comedy
comemorasion
comenc
comencini
coment
comento
comenza
comerc
comerci
comercial
comerciale
comerciali
comerciałe
comerciałi
comercio
comersiałe
comersiałi
comersio
comerso
comes
cometa
comete
comica
comici
comico
comincia
coming
comisario
comision
comita
comitato
commedia
commedie
comminges
commissario
commission
commissione
commons
commonwealth
communes
communications
community
como
comoda
comodo
comore
compact
compagna
compagni
compagnia
compagno
company
compare
compari
comparir
comparsa
compassion
compati
compatime
compatissa
compatisso
compatto
compenso
compie
compilation
compito
compleanno
complesso
completa
completamente
complete
completo
complimenti
complimento
componimenti
componimento
composizion
composta
composto
compra
comprar
comprende
compreso
compton
computer
comte
comu
comun
comuna
comunal
comunale
comunamente
comunałe
comunałi
comuncue
comune
comunega
comunegasion
comunemente
comuni
comunica
comunicasion
comunicato
comunida
comunion
comunismo
comunista
comunisti
comunita
comunque
con
conakry
conan
conba
conbatar
conbate
conbater
conbateva
conbatimento
conbatu
conbazante
conbiado
conbina
conbinasion
conc
conca
concede
concentra
concepcio
concepcion
concert
concerti
concerto
concesion
conceso
conceti
conceto
concetto
conci
concilio
conciłio
conclave
conclude
concludesto
conclusion
concluzion
conco
concorda
concordia
concorensa
concorente
concorenti
concorso
concuista
concuistada
condado
condana
condanai
condat
conde
condision
condition
condivide
condizion
condota
condoto
condotta
condur
conduse
condusion
condutor
condutora
condutore
condutori
conduxe
conduxesto
conduze
conduzesto
conegliano
conejan
conesion
confarensa
confederai
confederasion
conference
conferensa
conferenza
conferi
conferma
confesion
confessar
confession
confesso
confessor
confetti
confi
confidenza
configurasion
confin
confina
confinanti
confinava
confine
confini
conflans
confliti
conflito
confluensa
confo
confonde
conforma
conformasion
conforme
conforta
conforto
confronti
confronto
confusion
confuso
congedo
congo
congreso
congress
congresso
coni
conia
coniugasion
coniugi
conmanda
conmandamento
conmando
conmenc
conmenza
connecticut
connolly
cono
conosare
conosce
conoscere
conosciuto
conosco
conose
conosensa
conosense
conosesta
conoseste
conosesti
conosesto
conoseva
conosi
conosse
conosso
conossu
conossua
conossuda
conosu
conosua
conosudo
conosui
conosuo
conpagna
conpagne
conpagni
conpagnia
conpagnie
conpagno
conpagnoni
conpania
conpanja
conpanji
conpanjo
conpare
conpari
conparise
conparsa
conpartimento
conpati
conpetensa
conpetense
conpetision
conpi
conpito
conpleme
conplemento
conplesi
conpleso
conpleta
conpletamente
conpleto
conplido
conpone
conponente
conponenti
conponesta
conponesto
conporta
conportamenti
conportamento
conposta
conposti
conposto
conpoxidor
conpoxision
conpozidor
conpozision
conpra
conprende
conprendente
conprendesta
conprendeva
conprexa
conprexo
conputer
conquista
conquistar
conrad
consa
consacra
consacrasion
conscienza
conse
consecutive
conseggio
consegia
consegio
consegna
consegue
conseguensa
conseguente
conseguenza
conseio
consejeri
conseji
consejo
conselve
consensi
consenso
consente
consenti
consentra
consentramento
conserti
conserto
conserva
conservar
conservasion
conservatore
conservatori
conservatorio
conservatorismo
conseto
consevensa
consevense
consevente
consi
considara
considarada
considera
considerada
considerae
considerai
considerando
considerar
considerasion
considerava
considere
consigli
consiglio
consilio
consiste
conso
consola
consolar
consolazion
console
consolo
consonante
consonanti
consorsio
consorte
consołida
constantinopoli
constantinopolis
constitucio
constitution
consueto
consulta
consultasion
consultato
consulto
consuma
consumar
consumo
cont
conta
contadin
contadina
contadini
contado
contando
contar
contare
contarghe
contarini
contati
contato
contava
conte
contea
contee
contegnente
contegno
contegnu
contegnui
contegnuo
contempla
contemplar
contenjente
contenju
contenpo
contenpora
contenporanea
contenporaneamente
content
contenta
contentar
contente
contenti
contento
contenuti
contero
contesa
contessa
contessina
contest
contesti
contesto
context
conti
contien
contiene
continental
continentałe
continentałi
continente
continenti
continnuamente
continua
continuamente
continuando
continuar
continue
continui
continuita
continuitat
continuo
conto
contorno
contra
contrada
contrade
contrae
contrari
contraria
contrario
contrasion
contrasta
contrastar
contrasti
contrasto
contrati
contrato
contratto
contribui
contribuio
contribuise
contribusion
contributi
contributo
contributors
contro
control
controla
controlar
controlava
controlo
controła
controłada
controłar
controło
convegno
convene
convenienza
convension
convensionałe
convention
convento
conversazion
conversion
converte
converti
convertio
convien
conviene
convigniva
convinto
convoca
convulsion
conza
conzateste
cook
cooparasion
cooper
cooperasion
coordenamento
coordina
coordinae
cop
copa
copai
copando
copar
copare
cope
copenaghen
copi
copia
copie
coppa
coppi
coppola
copyleft
copyright
cor
cora
coraggio
coragio
corajo
corando
corbie
corboła
corbucci
corcelles
cord
corda
corde
cordoba
cordon
core
corea
corean
corendo
corente
corenti
corer
coresin
coresponde
corespondensa
coreta
coretamente
coreto
coreva
corfu
cori
coria
corinto
corisponde
corispondensa
corispondente
corispondenti
corna
cornaro
corneja
corner
cornet
corni
corno
cornovagia
cornovaia
cornovaya
coro
coroc
corona
coronavirus
corone
corpi
corpo
corporation
corps
corpus
corrado
corre
correa
correr
correttori
corriere
corrige
corsa
corsari
corse
corsi
corsia
corsica
corso
corsse
corsso
cort
corte
cortes
cortesan
cortesane
cortese
cortesementre
cortesi
cortesia
corti
cortina
corto
corun
corusion
cos
cosa
cosby
coscienza
cose
cosenza
cosi
cosiensa
cosita
cosmo
cospeto
cospetto
coss
cossa
cosse
cossi
costa
costansa
costante
costantemente
costanti
costantin
costantino
costantinopoli
costantinopołi
costanza
costanzo
coste
costi
costiera
costituente
costitui
costituia
costituio
costituir
costituise
costituisse
costituiva
costitusion
costitusionałe
costituzione
costo
costori
costreti
costreto
costrui
costruia
costruie
costruio
costruir
costruire
costruise
costrusio
costrusion
costruto
costrutori
costu
costuma
costume
costumi
cosworth
cota
cotal
coti
coto
cotole
coton
cotura
coucy
coudray
council
countries
country
counts
county
coupe
cour
courcelles
cours
court
couture
cov
cove
coventry
cover
coverta
coverte
coverti
covertina
coverto
coverze
covid
cox
coxensa
coxi
coł
coła
cołabora
cołaborar
cołaborasion
cołe
cołega
cołegamento
cołeghi
cołejo
cołesion
cołi
cołiga
cołina
cołine
coło
cołoca
cołona
cołonbia
cołonbian
cołonbo
cołone
cołoni
cołonia
cołoniałe
cołonie
cołor
cołorasion
cołore
cołori
coƚo
coƚor
cp
cpu
cr
cra
craig
craxi
crazy
cre
crea
creada
creando
creanza
crear
creasion
creative
creativecommons
creator
creatura
creature
creda
crede
credea
credelo
credendo
credenza
creder
crederave
credere
credesse
credesto
credeu
credeva
credi
credistu
credita
credito
credo
creek
crema
cremasco
cremona
cremonese
crepa
crepar
cresare
cresce
crese
cresente
cresesto
cresimento
cresita
crespin
cresse
cresta
creste
cresu
creta
crete
creuse
crezo
cri
cria
criar
criava
crida
cridar
cridava
crime
crimea
criminal
crimini
crise
crisi
crist
cristałi
cristian
cristiana
cristiane
cristianesimo
cristianeximo
cristiani
cristiano
cristina
cristo
cristofolo
cristoforo
critega
criteri
criterio
critica
critiche
critici
critico
critics
crixi
crize
crizi
crnigoj
cro
croa
croasia
croata
croati
croato
croazia
croce
crociata
crociati
croda
croix
croma
cronaca
cronache
cronpa
cros
crosby
crose
cross
crosse
crosta
croton
croxe
crozada
croze
croła
croło
crudel
crudele
crudelmentre
crudelta
cruise
cruz
cry
cs
cstn
ct
cu
cua
cuadra
cuadri
cuadro
cual
cualche
cualchedun
cualco
cualcosa
cuali
cualita
cuande
cuando
cuanti
cuantita
cuanto
cuaranta
cuarta
cuartier
cuartieri
cuartiero
cuarto
cuasi
cuatro
cuaxi
cuazi
cuała
cuałe
cuałi
cuałita
cuało
cuba
cuban
cubana
cubase
cubia
cubo
cuca
cucagna
cucchetti
cuciari
cuciaro
cucina
cucumis
cucurbita
cue
cuei
cuel
cuela
cuenca
cuerto
cuerze
cuesta
cueste
cuesti
cuestion
cuesto
cuevas
cueła
cuełe
cuełi
cueło
cugna
cugnada
cui
cuidi
cuido
cuindi
cuinta
cuinto
cuisance
cul
culate
culi
culo
cult
cultivar
cultivasion
culto
cultura
cultural
culturale
culturałe
culturałi
culture
culu
cului
cum
cumano
cun
cuna
cune
cuneo
cunta
cuogo
cuor
cuore
cuori
cuota
cuote
cuotidian
cup
cupa
cupido
cura
curar
curatore
cure
curiosa
curiosi
curiosita
curioso
curitiba
curta
curte
curti
curtis
curto
curva
curve
cusi
cusin
cusina
cusita
cussi
cussita
custi
custia
custion
custode
custodi
custodia
custom
custui
cutugno
cuxina
cuxinare
cuxo
cuzina
cuła
cułi
cuło
cv
cy
cyr
cystat
cz
d
da
dada
dades
dado
dadri
dae
daga
daghe
dagli
dago
dahomey
dai
daily
dakar
dakota
dal
dala
dale
dali
dalida
dall
dalla
dallas
dalle
dallo
dalmancio
dalmasia
dalmata
dalmazia
dalo
dama
damasco
dame
damela
dames
damiano
damina
damisela
damisele
damisella
dampierre
dan
dana
danari
dance
dando
dandoghe
dandolo
dane
danemarca
danexe
dani
daniel
daniela
daniele
danilo
danimarca
danmarks
danni
danno
danny
dano
dans
dansa
dansrepertoriumnederlandsegemeenten
dante
danubio
dao
dapartuto
dapo
dapuo
dar
dara
darave
dard
dare
darente
darfur
darghe
dari
daria
dario
dark
darme
daro
darse
darte
darve
darwin
das
dasa
daseno
daspo
daspuo
dasse
dasseno
dat
data
dataarchivio
database
date
dati
dativo
dato
datorno
datos
dauersiedlungsraum
dava
davanti
davao
dave
davero
david
davide
davies
davis
davos
davvero
daxe
day
days
daze
dazesto
dazi
dał
dała
db
dc
dd
ddl
ddr
de
dea
dead
deal
dean
death
deba
debia
debiti
debito
debole
deboto
debotto
debuta
debuto
dec
decadensa
december
decide
decidesto
decima
decimo
decision
deciso
decixion
decixo
decizion
decizionałe
declara
declarada
declarasion
declin
declinasion
declino
decodificata
decora
decorasion
decoro
decreta
decreti
decreto
dedega
dedica
dedicada
dedicarse
dedicata
dedicate
dedicato
dedico
dee
deed
deejay
deenta
deep
deepin
defarenti
defati
default
defe
defende
defender
defeza
defi
defina
defini
definia
definie
definii
definio
definir
definise
definision
definitiva
definitivamente
definitivo
dega
deghe
deghi
degli
degna
degne
degni
degno
dego
degree
deh
dei
del
dela
delaware
dele
delhi
deli
delia
delibera
delicato
delirio
delito
delitto
delizia
delizie
delizioso
dell
della
delle
delli
dello
delo
dels
delta
dem
deme
demo
democra
democrasia
democratega
democratego
democratica
democratico
democrazia
demogra
demografico
demographic
demography
demonio
demora
demorado
demoramento
demorar
demorava
demostra
den
dena
denari
denaro
dene
denis
dennis
deno
denomena
denomenada
denomenai
denomenar
denomenasion
denomina
denominasion
denota
densita
dent
dentałe
dente
denti
dentro
denver
deo
departementi
departemento
department
depeche
depende
depento
depenzime
depo
deposito
deposto
depresion
deputa
deputai
deputati
deputato
der
derby
dere
deri
deriti
derito
deriva
derivada
derivai
derivante
derivanti
derivar
derivasion
derla
derrick
des
desarmado
desbarca
descarga
descargar
descoerto
descorso
descoverta
descoverto
descri
descrision
descrita
descrito
descrive
descrivesto
descrizion
descrizione
descuerta
descuerto
descuerze
dese
desenbre
desenio
desertico
deserto
deservido
desfa
desfada
desfamento
desfar
desfere
desfruta
desgrazia
desid
deside
desidera
desiderio
desidero
desidesto
design
desiroso
desizion
desktop
deslial
desmentega
desmentegar
desmissia
desmonta
deso
desonor
desoto
desovra
despartir
despera
desperai
desperata
despeto
despetto
despiase
despo
dess
desse
desso
dessus
destaca
destatis
destende
desti
destin
destina
destinada
destinai
destinasion
destingue
destino
destira
destra
destribusion
destriga
destro
destruto
desviłupa
desviłupo
det
deta
detailed
detajo
dete
detective
determena
determenada
determina
determinada
detien
deto
detroit
detta
dette
detti
detto
deu
deus
deutsch
deutsche
deutschland
deutschlandsberg
deux
deva
devant
devasta
deve
devea
devegnendo
devegner
devegnesta
devegnesto
development
devemo
devenjesta
devenjesto
deventa
deventada
deventando
deventar
deventara
deventava
devento
deverave
deverse
devertir
devese
devesse
deveva
devi
devien
devil
devo
devotamente
devoto
devozion
dexe
dexerto
dexinensa
dexinense
deza
dezastro
deze
dezi
dezun
deł
deła
dełe
dełega
dełi
dełimita
deło
df
dhs
di
dia
diacri
dialeti
dialeto
dialettale
dialetti
dialetto
dialoghi
dialogo
diamante
diamanti
diametro
diana
diane
diario
diavol
diavoli
diavolo
diaz
diałeti
diałeto
dic
dica
dice
dicembre
dicenbre
dicesi
dichiara
dichiarasion
dichiarazione
dici
diciembre
dick
dico
dicomano
dicono
dictionary
diddley
didier
die
dieci
diede
diedo
diego
dielsdorf
dies
diese
diesse
dieta
dietikon
dietro
dieu
diexe
dieze
difare
difarensa
difarense
difarensia
difarente
difarentemente
difarenti
difati
dife
difende
diferensa
diferente
diferenti
difesa
difeti
difeto
difexa
difeza
difficile
difficolta
difi
dificile
dificolta
difisiłe
difo
difondesta
difondeste
difondesti
difondesto
difuxion
difuzion
diga
digando
dige
dighe
digital
dignita
digo
dijon
dil
dileta
dileto
diletta
diletto
dili
diluvio
dimanda
dimandando
dimandar
dimandava
dime
dimensio
dimension
dimete
diminutivo
dimision
dimmi
dimora
dimostra
dimostrasion
din
dina
dinadan
dinanzi
dinari
dinas
dinasti
dinastia
dinastie
dine
dino
dintorn
dintorni
dio
diocesi
diocexi
diogene
diois
diol
dion
dip
dipartimento
dipende
dipendendo
dipendente
dipendenti
dipinti
dipinto
diploma
dir
dira
dirama
dirave
dire
directory
diremo
diresion
direta
diretamente
direte
direti
direto
diretor
diretore
direttore
dirghe
diri
diria
dirigente
diriti
dirito
diritto
dirixesto
dirizesto
dirla
dirlo
dirme
diro
dirte
dirve
dis
disc
dischi
disco
discogra
discografega
discografego
discografia
discography
discogs
discordia
discore
discorsi
discorso
discovery
discreta
discreto
discrezion
discusion
disdoto
dise
disea
diseghe
disegni
disegno
disela
diseme
disemo
disenbre
disendenti
disendo
disendoghe
disesse
diseu
diseva
disgrazia
disgrazie
disi
disiona
disionario
disionałe
disiplina
disipline
disna
disnar
disney
diso
dispera
dispeto
display
displaystyle
dispone
disponi
disponibile
disponibiłe
disposizion
disposto
dispoxidivi
dispoxidivo
dispoxision
dispoxitivi
dispozidivi
dispozision
disprezzo
dispuni
disputa
disse
dissi
dist
dista
distansa
distante
distanti
distanza
distingue
distinsion
distinti
distinto
distret
distreti
distreto
distretto
distribui
distribusion
district
distrusion
distruto
distu
dit
dita
ditador
ditator
ditatore
ditatura
dite
diti
ditirambi
ditirambo
dito
ditto
diva
dive
divegnendo
divegnesta
divegnesto
divegnu
diventa
diventando
diventar
diventare
diversa
diversamente
diverse
diversi
diverso
diverte
divertimento
divertir
divertirse
divi
dividare
divide
dividesta
divideste
dividesti
dividesto
divien
divieto
divin
divina
divinita
divisa
divisi
division
diviso
divixa
divixe
divixi
divixion
divixo
divizion
divo
divorsia
divorsio
dixe
dixea
dixegno
dixendo
dixeno
dixeva
dixitałe
dize
dizesta
dizesto
dizionario
dizitałe
dj
djamena
django
djvu
dk
dl
dling
dna
do
doa
doc
docs
doctor
documenta
documentario
documentasion
documentation
documenti
documento
documents
dodese
dodexe
dodici
dodoma
doe
dog
dogado
dogal
dogana
doge
dogia
dogma
doha
doi
dol
dolc
dolce
dolcemente
dolcetti
dolcezza
dolci
dolente
dolfin
dollari
dollor
dolo
dolomiti
dolor
dolore
dolori
dolorosa
dolse
dolsi
doma
doman
domanda
domandando
domandar
domandare
domandarghe
domandasse
domandava
domande
domando
domani
dome
domena
domenega
domenego
domenica
domenico
domestica
domi
domina
dominante
dominasion
domine
domingo
domini
dominica
dominicana
dominio
domino
dominum
dommartin
domo
dompierre
don
dona
donado
donald
donar
donasion
donatello
donato
donau
donca
donde
done
doneta
donete
doni
donna
donne
dono
donqua
dopa
dopara
doparada
doparae
doparai
doparando
doparar
doparare
doparasion
doparava
dopera
doperada
doperadi
doperar
dopia
dopie
dopio
dopo
dopoguera
doppiatori
doppie
doppio
doppo
dopra
dor
dora
dordogna
dordogne
dore
doria
dorilla
dorma
dorme
dormi
dormir
dormire
dormiva
dormo
dorotea
dorsałe
dorsoduro
dos
dose
dosso
doststeiermark
dota
dotada
dotai
dote
doti
doto
dotor
dotore
dotori
dotrina
dotrine
dott
dottor
dottore
dottrina
dou
double
doubs
doug
douglas
dov
dova
dovara
dovari
dovaria
dove
dovea
dovendo
dover
dovere
doveri
dovesse
dovesto
doveva
dovevi
dovu
dovua
dovudo
dovuo
down
download
doxe
doxi
doze
dołari
doło
dołomiti
dr
dra
draghi
drago
dragon
dragoni
drake
drama
dramaturgo
dramma
drapi
drappi
drau
dre
dream
drec
drento
dresda
dreta
dretamentre
dreti
dreto
dretto
dretura
drezza
drezze
dri
driedo
drio
drioman
drita
driti
drito
drive
driver
dro
droga
droghe
ds
dss
du
dua
dual
dubbio
dubi
dubio
dubitar
dubite
dubito
dublin
duc
duca
ducal
ducati
ducato
ducha
due
duen
duero
duke
dun
duncan
dunque
duo
duol
duomo
dur
dura
durada
duramente
duramentre
duran
durando
durango
durante
durar
durara
durata
durava
dure
duri
durium
duro
dus
duse
dusento
dux
duxento
duło
dvd
dwds
dwight
dx
dy
dybala
dylan
dz
e
ea
eano
early
earth
east
eastern
easy
easyquery
eau
eaux
eb
eba
ebbe
ebert
ebra
ebraego
ebraico
ebre
ebrea
ebrei
ebreo
ebro
ebuehi
ec
ecc
eccellenza
ecco
ecesion
ecezion
echallens
echo
eciamdio
eclexiastica
eclezia
eco
ecolo
econo
economega
economeghe
economego
economi
economia
economic
economie
economista
ecrise
ecuador
ecuipajo
ed
eddie
eddy
eden
edgar
edge
edifega
edifici
edificio
edifisi
edifisio
edifiso
edision
edison
edission
edite
edition
edito
editor
editore
editori
editorial
editoriale
editoriałe
editrice
edixion
edizion
edizione
edizioni
edmondo
edmund
edoardo
eds
edu
eduard
eduardo
educasion
education
educazion
educazione
edward
edwards
edwin
ee
efeso
efeti
efetiva
efetivamente
efeto
efetua
effetto
ega
egeo
egidio
egisiani
egito
egitto
egli
ego
egregio
egual
eh
ei
eietiva
eight
einaudi
einstein
eis
eisenhower
eisenstadt
eius
ek
el
ela
elba
ele
electric
electronics
elefante
elegante
elementi
elemento
elena
elenco
elenetta
eleon
eleonora
elesion
elesioni
eleti
eleto
eletronega
eletronica
eletti
eletto
elettra
elettrotecnica
elezioni
eli
elia
elio
elisa
elisabeta
elisabetta
elizabeth
ell
ella
elle
ellen
elli
ellis
ello
elly
elmi
elmo
elo
elogio
eloquenza
els
elsa
elton
elvis
em
ema
emana
emanuele
eme
emendamento
emergency
emi
emigra
emigrasion
emil
emilia
emilio
emisfero
emision
emitente
emiłia
emma
emmental
emmy
emo
empio
empire
empoli
en
ena
enbre
enbrion
enc
enciclopedia
enciclopedie
enclave
encyclopedia
encyclopædia
end
endo
ene
enea
energia
enero
enerxia
enerzia
enevre
eng
engels
engl
england
english
enigma
ennio
eno
enorme
enrico
ensa
ensi
ensiclopedia
ente
enterprises
entertainment
enti
entil
entita
ento
entra
entrada
entrai
entrambi
entranbe
entranbi
entrando
entrar
entrare
entrate
entrałe
entre
entremont
entri
entro
enza
enzo
eo
eora
eoro
eoropa
eoropea
eoropee
eoropei
eoropeo
eos
ep
eparchia
epi
epidemia
epigrami
epiphone
episcopale
episcopato
episodi
episodio
epistola
epixo
epixodi
epixodio
epizodi
epizodio
epoca
epodo
epopea
epub
epur
equasion
equatore
equatorial
equivoco
er
era
eraclea
erada
erano
erasmo
erba
erbe
erca
ercar
ercole
ere
erede
eredi
eredita
eremita
eri
eric
erie
erik
eritrea
ernest
ernesto
ernst
ero
erodoto
eroe
eroi
eroica
eroina
eror
erori
eros
error
erta
erte
erti
erto
erusion
erzego
erzegovina
es
esa
esadore
esame
esamina
esar
esare
esarghe
esari
esca
escaut
esce
esclama
esclave
esclusivamente
escobar
ese
esecuzione
esempi
esempio
esendo
esenpio
eser
esercito
esercizio
esere
esgueva
esi
esiste
esistenza
eso
esopo
esordio
espace
espais
espan
espansion
espanya
espariensa
espe
esperanto
esperiensa
esperiense
esperienza
esperimenti
esperti
esperto
espinosa
esplora
esplorador
esplorasion
esploratore
esploratori
esplozion
esponente
esponenti
esportasion
esposito
esposizion
esposto
espozision
espresion
espression
espressione
espresso
esprime
espulso
essa
essar
esse
essendo
essenza
esser
essere
esserghe
essi
esso
essonne
est
esta
estadi
estado
estados
estasi
estate
estatuto
este
esteban
estende
estendesto
estension
estera
esteri
esterna
esterne
esterni
esterno
estero
esteso
estexa
estexo
estimates
estinguesta
estinguesto
estiva
estivo
esto
estonia
estor
estrae
estraesto
estrasion
estrato
estre
estrema
estremadura
estremamente
estreme
estremi
estremita
estremo
estro
estu
estuario
eswatini
et
eta
etari
etc
ete
eterna
eternamente
eterne
eternita
eterno
ethnologue
eti
etiam
eticheta
etimoƚozia
etio
etiopia
etnia
etnici
etnie
eto
etruschi
ettore
eu
eufemia
euga
euganei
euge
eugene
eugenio
eulalie
eure
eurila
euro
europa
europe
europea
european
europee
europei
europeo
eurovision
eus
euskal
euskara
eustadio
eva
evangelista
evans
evc
eve
eventi
evento
eventualmente
eventuałi
ever
everest
everything
evidente
evita
evitando
evitar
eviva
evo
evolucio
evolusion
evołusion
evviva
ex
exe
execusion
executivo
exempio
exenpi
exenpio
exercito
exersito
exibirse
exibise
exibision
existe
existensa
exordi
exordio
explorer
express
extra
extrapolation
exynos
eye
eyes
ez
eze
ezecusion
ezecutivo
ezenpi
ezenpio
ezibi
ezibirse
ezibise
ezibision
ezio
eziste
ezistensa
ezito
ezordi
ezordio
eł
eła
ełabora
ełe
ełebre
ełegante
ełeme
ełementare
ełementi
ełemento
ełeminti
ełenco
ełesion
ełeto
ełetora
ełetorałe
ełetorałi
ełetori
ełetrega
ełetrica
ełetro
ełetromagne
ełetronega
ełeva
ełevada
ełezesta
ełezesti
ełezesto
ełi
ełimina
eło
ełora
f
fa
fabbri
fabbrica
fabio
fabr
fabrica
fabriche
fabrizio
fac
facchin
faccia
faccio
face
facebook
facenda
facendo
facesse
faceva
facia
faciada
facile
facilita
facilmente
facolta
faconde
factbook
facto
factor
facts
factsheet
fadiga
fadighe
fage
faghe
fago
fai
fair
fait
fala
falcon
falcone
falde
fale
fali
fall
falla
fallingrain
fallo
falo
falsa
false
falsi
falso
fam
fama
famagosta
fame
fameggia
famegia
famegie
famegio
fameia
fameja
fameje
famiglia
famiglie
family
famo
famosa
famose
famosi
famoso
famoxa
famoxe
famoxi
famoxo
famoza
famozi
famozo
fan
fanciulla
fando
fanfani
fango
fanno
fano
fans
fantasia
fantasma
fantastica
fantastiche
fantastico
fantasy
fante
fanteria
fanti
fantolin
fao
far
fara
farae
faraon
faraoni
farave
farc
fare
faremo
faressi
farghe
farghene
fari
faria
farina
farla
farle
farli
farlo
farme
farne
faro
farrow
farse
farsi
farsora
farte
farve
fasa
fasada
fasan
fase
fasea
fasendo
faseva
fasi
fasilmente
fasion
fasismo
fasista
fasisti
fasiłe
fasiłita
faso
fassa
fasse
fassi
fasso
fast
fastidio
fastu
fat
fata
fatal
fatalita
fate
father
fati
fatica
fato
fator
fatori
fatta
fatte
fatti
fatto
fattura
fatura
fauna
fausto
fava
faverolles
favola
favor
favore
favori
favorio
favorir
favorise
fax
faxe
faxea
faxendo
faxesto
faxeva
faxi
fay
faye
faz
faza
faze
fazea
fazendo
fazesta
fazesto
fazeva
fazo
fazza
fazzo
fazzoleto
fazzoletto
fałi
fałimento
fało
fc
fdl
fe
fea
feat
feature
febbraio
febbre
febo
febraro
febrero
february
fece
fecha
fechaacceso
fechaarchivo
fede
fedel
fedeli
fedelta
federa
federai
federal
federale
federasion
federazione
federałe
federałi
federico
fedełi
fega
fegasion
feghe
feghi
fego
fegura
fegure
fel
feldkirch
feldkirchen
felice
felici
felicioli
felicita
felipe
felix
fellini
felonosamentre
feltre
feltrin
felze
female
feme
femena
femene
femenin
feminil
feminile
feminiłe
feminiƚe
femminile
femo
fen
fender
fene
fenestra
fenestre
feni
fenia
fenice
fenici
fenio
fenir
fenise
feno
fenomani
fenomeni
fenomeno
fer
feral
ferara
ferarexe
ferdinand
ferdinando
ferguson
feri
ferido
ferii
ferio
ferir
ferma
fermada
fermamente
fermar
fermarse
ferme
fermentasion
fermeve
fermi
fermo
ferna
fernando
fero
ferovia
feroviaria
feroviario
ferovie
ferrara
ferrari
ferre
ferrero
ferrie
ferro
ferruccio
ferte
fertile
fese
fesse
festa
feste
festeja
festin
festival
festivalbar
festivita
feta
fete
feu
feudałe
feudo
feva
feve
fevrer
fexe
feze
ffolo
fi
fia
fiaba
fiabe
fiada
fiade
fiadha
fiama
fiame
fianchi
fianco
fiandre
fiao
fiasco
fiat
fiata
fiate
fibra
fibre
fica
ficarolo
fico
fiction
fida
fidar
fide
fidel
fido
fiducia
fidusa
fie
fiel
field
fiera
fiere
fieri
fiero
fiesole
fiesso
fifa
figa
fighi
figli
figlia
figline
figlio
figlioli
figliuolo
figo
figura
figurar
figurarse
figure
figureve
fijolly
fil
fila
filadelfia
filar
filastroca
filava
file
files
fili
filide
filipine
filippetto
filippi
filippo
film
filmografia
films
filo
filosofi
filosofia
filosofo
fimi
fin
fina
final
finale
finalmente
finansa
finanse
finansia
finansiari
finansiaria
finansiarie
finansiario
finałe
finałi
finche
find
fine
finestra
finestre
finezza
finezze
fini
finia
finindo
finio
finir
finira
finire
finisce
finise
finisse
finiste
finke
finla
finlandese
finlandia
finlay
finmente
fino
finora
finta
fio
fioca
fioi
fiol
fiola
fioli
fiolo
fior
fiordilino
fiore
fiorella
fiorentin
fiorentina
fiorentino
fiorenza
fioreti
fioreto
fiori
fiorina
fioro
fiozzo
fioła
fiołi
fioło
fire
firefox
firense
firenze
firenzuola
firi
firir
firiva
firma
firmada
firmamento
firmar
firmin
first
fis
fisa
fiscałe
fischer
fise
fisi
fisica
fisico
fiso
fisonomia
fissa
fissi
fisso
fit
fiume
fiumi
fiuri
five
fixega
fiziołozi
fiła
fiłe
fiłipine
fiłipo
fiło
fiłoxofia
fiłoxofo
fiłozofia
fjen
fl
fla
flacco
flachgau
flame
flaminio
flash
flavia
flavio
fle
fleury
flight
flixster
flo
flora
florence
flores
florian
florida
flota
floyd
flu
flume
fluso
fluviałe
fly
flying
fm
fo
foa
foce
focus
foesse
foghi
fogia
fogie
fogio
foglio
fogo
fogolar
foie
foja
foje
fol
fola
foli
folk
folo
fonda
fondada
fondador
fondadori
fondamenta
fondamental
fondamentale
fondamentali
fondamentałe
fondamentałi
fondamente
fondamenti
fondamento
fondar
fondasion
fondator
fondatore
fondatori
fondazion
fondazione
fonde
fondi
fondita
fondo
fonds
fone
fonema
fonemi
fonghi
foni
fonit
fono
font
fontaine
fontaines
fontana
fontane
fonte
fontego
fontenay
fonti
food
foot
football
for
fora
foral
forbes
forc
forca
force
ford
fore
foreign
forest
foresta
foreste
foresti
forestier
forestiera
forestieri
foresto
forever
forez
forges
forli
forma
formada
formae
formagio
formai
formajo
formalmente
formando
formar
formare
formarse
formasion
format
formato
formava
formałe
forme
formento
formenton
formica
formosa
formula
formuła
fornaciari
forner
forni
fornidori
fornio
fornir
fornise
forno
foro
forsa
forse
forsi
forssi
fort
forte
fortemente
fortesa
forteza
forti
fortificasion
fortore
fortran
fortuna
fortunata
fortunato
fortune
forum
forza
forze
fos
fosa
foscari
foscarini
foscolo
fose
fossa
fosse
fossi
fosso
foto
fotoca
fotocamara
fotogra
fotografia
fotografie
fotta
fotte
fottemo
fotter
fottu
found
foundation
four
fox
foxa
foy
foła
fr
fra
frac
fracasso
frade
fradei
fradel
fradeli
fradelli
fradello
fradelo
fradeo
fradełi
fradeło
fragaria
franc
franca
francamente
francavilla
france
francesca
francesco
francese
francesi
francexe
francexi
franche
franchi
francia
francis
francisco
franco
francoforte
frank
franklin
fransa
franse
fransesco
fransese
fransexe
fransexi
franseza
franseze
fransezi
fransezo
franz
franza
franzese
frar
frari
frasca
frascon
frase
frasi
frasion
frata
fratazzo
frate
fratelli
fratello
fratenpo
fraternita
frati
fratta
frauenfeld
fraxe
fraxi
fraze
frazion
fre
frecuensa
frecuense
frecuenta
frecuente
frecuentemente
frecuenti
fred
freda
freddo
frederic
frederick
fredi
fredo
free
freedom
freetown
frega
fregadiva
fregole
freistadt
fren
french
frequensa
frequenta
frequente
frequenti
fresca
fresche
freschi
fresco
freska
fresne
fresnes
fresno
fresnoy
fretta
freve
frezza
fri
friburgo
frica
friday
friedrich
friend
friends
fritole
fritz
friul
friularo
friuli
friułi
from
front
frontal
fronte
frontend
frontera
frontiera
frontiere
frosinone
frotole
froxinon
fru
frua
fruta
fruti
frutigen
fruto
frutti
frutto
fu
fucecchio
fuente
fuentes
fuentiduen
fuga
fui
full
fulmine
fulvio
fuma
fumeti
fumeto
fumo
fun
function
funebre
funghi
funsion
funsiona
funsionamento
funsionari
funsionałita
funzion
fuo
fuoco
fuogo
fuor
fuora
fuori
fuossi
fur
furba
furbazzo
furbo
fureghin
furia
furie
furioso
furious
furla
furlan
furlana
furono
furor
fursi
furto
fuse
fusion
fuso
fusse
fussi
fuste
fusti
fusto
futura
future
futuri
futuro
fuxion
fuxo
fuzion
fær
g
ga
gabbia
gabetto
gabia
gabineto
gabon
gaborone
gabriel
gabriele
gabriella
gae
gaeta
gaetano
gaia
gaiba
gain
gaio
gal
gala
galan
galante
galanti
galantomeni
galantomo
galantuomo
galaxy
gale
galee
galeoto
galepin
gali
galia
galiac
galicia
galie
galilei
galileo
galina
galine
gallagher
gallegos
galleria
gallina
gallo
galo
galvan
galzignan
gama
gamba
gambassi
gambe
gambia
game
games
ganba
ganbe
ganbo
gandhi
gange
gapia
gara
garanghelo
garansia
garanti
garantir
garantise
garba
garbo
garc
garci
gard
garda
garde
garden
gardena
gardens
gardia
gare
garia
garibaldi
garies
garona
garonne
garry
gary
garzanti
garzon
garzone
garzoni
gas
gasp
gaspare
gaspari
gasparina
gasparo
gasperi
gassman
gastaldi
gastaldo
gaster
gastu
gat
gata
gate
gates
gati
gato
gatti
gatto
gaules
gaulle
gavara
gavari
gavaria
gave
gavea
gavemo
gavendo
gaver
gavere
gaveri
gavese
gavesse
gavessi
gavesta
gavesto
gaveu
gaveva
gay
gaza
gazeta
gazetteer
gazzetta
gała
gałari
gałasie
gałeria
gałerie
gałi
gałisian
gało
gałurexe
gb
ge
gear
gebietsstand
gegia
gelo
gelose
gelosia
geloso
geme
gemeente
gemeinde
gemeinden
gemeindestrukturreform
gemeindeverzeichnis
gemeła
gemme
gen
genaro
gene
genera
general
generale
generali
generalitat
generalmente
generasion
generation
generałe
genere
generi
genero
generosa
generoso
genesis
genest
genevie
geni
geniale
genie
genio
genitivo
genitori
gennaio
gennaro
geno
genoa
genocidio
genova
genovese
genovesi
gensel
gente
gentil
gentile
gentilezza
gentili
geo
geodesy
geoffrey
geogra
geographic
geographies
geological
geonames
georg
george
georgen
georges
georgia
ger
gera
gerais
geremia
geri
germ
germa
germain
german
germania
germany
gernika
gerry
gers
gerusalemme
gervais
ges
gesamtspektrum
gesti
gestion
gesu
gesuiti
get
geta
getta
gexu
gfdl
gg
ggio
gh
gha
ghana
ghe
ghea
ghel
gheldria
ghelo
ghemo
ghen
ghene
ghera
gheto
gheva
ghi
ghil
ghin
ghitara
ghitare
ghitarista
gho
ghost
ghz
gi
gia
giac
giacche
giace
giacinto
giacometto
giacomina
giacomo
giambattista
gian
giancarlo
gianfranco
gianluca
gianna
gianni
giapo
giapon
giaponexe
giappone
giara
giardin
giardini
giardino
giaso
giazza
giazzo
gibiltera
gibson
gibuti
gica
gico
gie
giera
gieri
giersera
giffoni
gigi
giglio
gilbert
gilda
gilera
gilles
gina
ginevra
gino
gio
giochi
gioco
giocondo
giografi
giografia
gioia
giometria
giordano
giorgi
giorgia
giorgio
giornale
giornali
giornata
giornałe
giornałista
giorni
giorno
giostra
giotto
giova
giovan
giovane
giovanelli
giovani
giovanna
giovanni
giove
gioventu
giovine
giovio
gipuzkoa
gira
girar
giri
girl
girls
giro
girolami
girolamo
giron
gironde
giroud
gita
giu
giubilo
giuda
giudica
giudicar
giudice
giudici
giudizio
giugno
giulia
giuliano
giulieta
giulietta
giulio
giunio
giunon
giunta
giunti
giuoco
giura
giuramento
giurco
giuro
gius
giusepe
giuseppe
giusta
giustar
giusti
giustina
giustinian
giustisia
giustizia
giusto
give
gl
gla
glan
glance
glarona
glasgow
glenn
gli
gliederungen
glise
glises
glo
global
globaldatalab
globałe
globe
globo
gloria
glorie
gloriosa
glosbe
gmbh
gmu
gmunden
gn
gna
gnan
gnanca
gnancora
gnao
gne
gnea
gnen
gnente
gner
gnese
gnessun
gni
gnian
gnissun
gno
gnochi
gnoco
gnoła
gnoło
gnu
gnua
go
gob
goba
gobbo
gobi
gobierno
gobo
god
goda
gode
godenzo
goder
godere
godesto
godi
godo
goe
goera
goerna
goernar
goernare
goernatore
goerni
goerno
goes
goffredo
gogh
going
gol
gola
gold
golden
goldoni
goldoniani
golfo
golo
goma
gondola
gondole
gondoleta
gondolier
gondoliere
gondolieri
gone
gonza
gonzaga
good
goodbye
goodreads
google
gora
gorbac
gordon
gore
gori
gorisia
gorizia
goro
got
goti
gotica
gotico
goto
gottardi
gottfried
gottlieb
gouy
gov
governa
governador
governal
governar
governator
governi
government
governo
gozzi
goła
gołe
goło
gp
gps
gr
gra
grac
grace
gracia
gradenigo
gradi
grado
gradualmente
grafe
grafi
grafia
grafo
graham
grama
gramazzi
gramazzo
grami
grammy
gramo
gran
grana
granada
granata
grand
granda
grande
grandes
grandesa
grandezza
grandi
grandisima
grandisimi
grandissima
grandissimi
grandissimo
grando
granges
grani
granmentre
grant
granzo
grao
grapa
grappa
grasi
grasia
grasie
graso
graspa
graspi
grassa
grasse
grassi
grassie
grasso
grata
gratia
gratis
grato
grave
gravemente
gravi
gravita
gravo
gray
graz
grazia
graziadio
grazie
graziosa
graziose
grazioso
gre
great
greater
greatest
greca
greci
grecia
greco
green
greenpeace
greenwich
greg
grega
greghi
grego
gregorian
gregorio
grenadine
grenoble
gresa
gresia
greta
greve
gri
grida
gridando
griego
grieskirchen
griexi
grillo
grilo
grimani
gringola
gritti
grixo
grixoni
gro
groenlandia
gropi
gropo
gros
grosa
grose
groseto
grosi
groso
grossa
grosse
grossi
grosso
grota
grote
group
groß
gru
grue
grumo
grupi
grupo
gruppo
gruye
gs
gsfc
gsm
gsma
gt
gu
gua
guadagna
guadagnar
guadagno
guadalajara
guai
guanti
guarda
guardando
guardar
guardare
guardava
guarde
guardi
guardia
guardian
guardie
guardo
guaren
guari
guarir
guasta
guasto
guatemala
guatemała
guałiva
gue
guera
guercio
guere
guerieri
guerilieri
guerra
guerre
guest
guevara
guez
guglielmo
gui
guida
guidada
guidae
guidai
guidar
guide
guidi
guido
guillaume
guinea
guisa
guitar
guitarist
gulielmo
gun
gur
gus
gusta
gustav
gustavo
gusti
gusto
gut
gutenberg
guy
guyana
gvauszugq
gy
h
ha
habbia
habia
habie
had
haesse
hai
haida
haile
haiti
hal
half
hall
hallein
halloween
ham
hamilton
hampshire
han
hand
handbook
handset
hanno
hanoi
hans
happy
haps
harald
harare
harbor
hard
hardware
hardy
hari
haro
harold
harper
harris
harrison
harry
hart
hartberg
harvard
harvey
has
hathaway
hauptbereichen
hausa
haut
haute
hauterive
hautes
hauteville
hauts
have
havea
havemo
haver
havera
haverave
havere
havero
havesse
haveva
hawaii
hawking
hay
haye
hbo
hd
hdi
hdr
he
head
health
heart
heat
heaven
heavy
heinrich
heinz
hel
helen
hell
hellas
help
helsinki
hem
henares
henderson
hendrix
henri
henry
her
herbert
here
heritage
herman
hermann
herna
hernandez
hero
herrera
herria
hers
heustadio
hey
hi
hic
hierusalem
high
higuain
higuera
hilaire
hill
hills
himalaya
hinojosa
hinwil
hippolyte
his
histoire
historia
historical
history
hit
hitler
hits
hl
hlkreis
hms
ho
hoc
hochdorf
hodder
hoepli
hoggio
hoi
hollabrunn
holland
hollywood
hom
home
homeni
homini
homo
honduras
hong
honor
honore
hood
hook
hope
hopkins
hora
horcajo
horgen
horizons
horn
horror
hospital
host
hostello
hostelo
hot
hotel
hour
house
household
households
houses
housing
houston
hovedstaden
how
howard
href
htc
htm
html
http
https
hu
huawei
hubert
hudson
hue
huelva
huerta
huesca
hugh
hugo
hulk
human
humboldt
humor
humphrey
hundred
hunter
hussein
hutch
hutu
hyundai
hz
i
ia
ial
ialmente
ian
iava
iałe
iałi
ibe
ibge
ibi
ibn
ibrahimovic
ic
ica
icdo
ice
iclopedia
ico
ictus
id
ida
idaho
idas
ide
idea
ideal
ideałe
ideałi
idee
identałe
identi
identifega
identifica
identificativo
identifier
identita
ideoloxia
idescat
idesto
idi
idioma
ido
idolatra
idolatri
idolle
idolo
idro
idrogra
ie
iea
iec
iel
ielo
iene
iera
ieri
iesu
iesum
if
igi
iglesias
ignazio
ignora
ignorante
ignoranti
ignoranza
ignoto
ih
iho
ii
iib
iic
iii
iiii
ika
il
ilario
iliade
ille
illinois
illustrata
illustre
illustrissima
ilumina
im
ima
imagina
imagine
imagini
imajine
imajini
imbriagon
imbruglia
imdb
ime
imensa
imenso
imigrai
imigrasion
imitasion
immagine
immagini
impara
imparar
impazzo
impegna
impegno
imperador
imperator
imperatore
imperial
imperio
impero
impianta
impianto
impiega
impiego
impizza
importa
importansa
important
importante
importanti
importanza
impossibile
impostura
impresa
imprese
impressi
impresta
improviso
improvviso
impruneta
impussibile
imst
imunita
in
ina
inamora
inamorada
inamorao
inamorar
inanzi
inanzo
inaugura
inaugurada
inaugurasion
inaxonta
inazonta
inbarcasio
inbarcasion
inc
inca
incago
incalza
incanta
incanto
incarga
incarghi
incargo
incarico
incasa
incendio
incerta
inchiesta
inchina
incidente
incisa
incixion
incixo
inclina
inclinasion
include
includesta
includeste
includesti
includesto
inco
incoi
incomoda
incomodo
incontenente
incontra
incontrar
incontri
incontro
incorona
incoronasion
incorpora
incredi
incroza
incuinamento
incursion
inda
indando
indega
indegar
indegno
independensa
independent
independente
index
indi
india
indian
indiana
indianapolis
indiani
indiano
indica
indicar
indicare
indicasion
indicativ
indicativo
indicator
indicators
indice
indicies
indie
indietro
indipendensa
indipendente
indipendentemente
indipendenti
indipendentiza
indipendenza
indiscreto
indispensa
indivi
individua
individuałe
individui
individuo
indizio
indo
indoeuropee
indole
indone
indonesia
indonexia
indora
indosa
indoso
indosso
indove
indovina
indre
indri
indriedo
indrio
indu
indubite
indumento
industria
industrial
industriale
industriałe
industriałi
industrie
ine
inedite
inediti
inedito
inen
infame
infansia
infantes
infarto
infati
infatti
infelice
inferior
inferiore
inferiori
infermieri
inferno
infesion
infiama
infin
infina
infine
infini
infinita
infinito
infinity
influensa
influense
influente
influenti
influenza
info
informa
informadega
informasion
information
informazioni
infra
infraestructures
infrastrutura
infrastruture
ingagia
ingana
inganno
ingano
ingaxiai
ingegneri
ingegneria
ingegno
ingeniose
ingenuo
inghiltera
inghilterra
ingiostro
ingiusto
ingle
inglese
inglesi
inglexe
inglexi
inglexo
ingleza
ingleze
inglezi
inglezo
ingloba
ingmar
ingrata
ingrato
ingreso
ingresso
ingrexe
ingropa
ini
inicio
inimigo
inimisi
inisi
inisia
inisialmente
inisiativa
inisiative
inisiałe
inisio
inissio
inizio
inn
innamora
innamorato
innanzi
innel
innkreis
inno
innocente
innocenti
innsbruck
ino
inocente
inocenza
inoltre
inovasion
inpara
inparar
inpato
inpe
inpedir
inpegna
inpegno
inpenja
inperador
inperadori
inperator
inperatore
inperc
inpercio
inperia
inperiałe
inperiałi
inpero
inpianti
inpianto
inpiega
inpiego
inpisa
inploxiva
inpone
inponente
inponesto
inporta
inportansa
inportante
inportanti
inportasion
inpostasion
inposto
inprenditor
inpresa
inpresta
inprexa
inprexe
inpreza
inprezona
inprima
inprometo
inpusi
input
inque
inquo
inrabia
inrdb
insari
inse
insedia
insediamenti
insediamento
insee
insegna
insegnamento
insegnante
insegnar
insegne
insegno
insembre
insenbre
inseri
inseti
insi
inside
insidente
insidesto
insidie
insie
insieme
insigne
insima
insin
insir
insogna
insolente
insolenza
insoma
insonio
insta
institut
institute
instituto
insuresion
insuression
int
intaca
intant
intanto
intaresa
intarese
intaresi
intarnasionałe
intarpreta
intarpretada
intarpretasion
intarvało
intarvista
inte
integra
integrante
integrasion
intel
inteleto
intelletto
intelligence
intelligenza
intenda
intende
intender
intendere
intendeva
intendevi
intendi
intendo
intension
intensita
intenso
intenti
intento
intenzion
inter
intera
interactive
interamente
interasion
interesa
interesante
interese
interesi
interessa
interessante
interesse
interessi
interim
interior
interlaken
interlocutori
intermedia
intermedio
intermezzo
intermuxo
interna
internacional
internasional
internasionale
internasionali
internasionałe
internasionałi
international
internazionale
interne
internet
interni
interno
intero
interogativa
interpol
interpolation
interpreta
interpretando
interpretasion
interprete
interpreti
interusion
interventi
intervento
interview
intervista
intesa
intese
inteso
intestin
intexo
inteła
intełe
intełijente
intie
intiera
intieramente
intiere
intieri
intierior
intiero
intitola
intitolata
intitolato
intitoła
intitołada
into
intonasion
intopo
intorno
intoro
intra
intrada
intrami
intranbi
intrans
intraprendesto
intrar
intrepido
intriga
intrighi
intrigo
intro
introdoto
introduction
introdusion
introduzesto
introduzion
introduzione
inuit
inuktitut
inutile
inutili
inutilmente
inv
invade
invadesto
invasion
invaso
invaxion
invazion
inve
invec
invece
invenessian
invension
inventa
inventor
invenzion
inver
invernałe
invernałi
inverni
inverno
inverso
inversso
invese
invesse
investigasion
investimenti
investir
invettiva
inveze
invia
invida
invidia
invita
invito
inyxception
inzegneri
inzegno
io
ion
ioni
ionio
ios
iowa
ip
ipa
ipad
ipalmente
ipałe
ipałi
iphone
ipi
ipio
ipo
ipocrisia
ipod
ipotesi
ipotexi
ippolito
ips
ipsum
ir
ira
irado
irama
iran
iraq
irca
ircondario
ire
ireland
irene
irish
irlanda
irlandexe
irlandeze
iro
iron
ironia
irpina
irpino
irvv
irwin
is
isaac
isabella
isaia
isbn
ischia
iscrision
iscriti
iscrito
iscrive
ise
isi
isidoro
isla
islam
islamego
islamica
islamico
island
islanda
islands
isle
iso
isola
isole
isota
isoła
ispira
ispirasion
israel
israele
israełe
issn
issue
ist
ista
istanbul
istante
istanza
istat
iste
istesa
istese
isteso
istessa
istesso
istinto
istitui
istituia
istituio
istituise
istitusion
istitusionałe
istituti
istituto
isto
istorego
istoria
istorie
istria
istriana
istrusion
istruzion
it
ita
italia
italian
italiana
italiane
italiani
italiano
italo
italy
itałia
itałian
itałiana
itałiane
itałiani
itałiano
itało
itaƚian
ite
item
itemid
iteos
iti
itinerario
ito
its
itu
itunes
iulio
iure
ius
iv
iva
ivan
ivi
ivrea
ix
ixernia
ixola
ixolla
ixolle
ixoła
ixołe
izoła
izołe
iłe
iłustra
j
ja
jack
jackie
jackson
jacob
jacomo
jacopo
jacques
jadraque
jae
jaguar
jaime
jake
jakob
jakosky
jalo
jam
james
jamestown
jan
jane
janeiro
janet
january
japan
japon
japonexe
japoneza
japoneze
japonezi
jar
jara
jardin
jardini
jaso
jason
java
javier
jay
jazz
je
jean
jeff
jefferson
jeffrey
jenerasion
jennifer
jera
jeremy
jerry
jersey
jeruolemo
jeruzałeme
jesse
jessica
jessie
jesti
jestion
jesu
jesus
jet
jeune
jexu
jezu
ji
jiloca
jim
jimi
jimmy
jine
jini
jo
joa
joachim
joan
joana
joani
joaquin
jobs
joe
johan
johann
johannes
johansson
john
johnny
johnsen
johnson
joint
jon
jonathan
jones
jong
jonio
jordan
jorge
jorno
joronen
jose
josef
joseph
josh
joshua
joule
journal
joux
jouy
jovi
jp
jpg
jr
jsp
ju
juan
judy
jugosla
jugoslavia
jules
julia
julie
julien
julio
julius
july
june
jungle
junio
junior
juniperus
jura
just
justa
justice
justin
justina
justisia
justo
juta
jutar
juti
jutland
juto
juve
juventus
juvigny
juzepe
k
ka
kabul
kai
kaiser
kamba
kampala
kan
kanji
kansas
kar
karl
karlovac
karlsruhe
katia
katy
kaunda
kazakistan
ke
keaton
keira
keith
kellogg
kelly
kelsey
ken
kennedy
kenneth
kent
kentucky
kenya
kenyatta
kernel
kessie
kevin
kew
key
kg
khan
khartoum
khartum
khz
ki
kid
kidman
kids
kieffer
kien
kigali
kikuyu
kill
killer
kim
kin
kind
kinder
king
kingdom
kings
kinshasa
kirchberg
kirchdorf
kiribati
kirk
kiss
kistan
kitzbu
kiyine
klagenfurt
klassifikationen
klaus
klein
klimabuendnis
km
knaw
knight
knightley
knopfler
know
ko
kommunen
kong
konrad
kopisch
koprivnica
korean
korneuburg
kos
kosovitz
kosovo
kraft
krapina
krems
kreuzlingen
krieger
krisevci
ku
kubrick
kufstein
kulm
kurt
kuwait
l
la
labarthe
labastide
labem
labia
labiodentałe
labs
lac
lacapelle
lach
lachapelle
lache
ladi
ladin
ladina
ladri
ladro
lady
laenderregionen
laga
lagar
lagarde
lagenaria
laghe
laghi
lagna
lagnava
lagno
lago
lagos
lagreme
lagrime
laguna
lagunari
lagune
lai
lake
lakers
lama
lambert
lamberti
lamborghini
lambro
lamenta
lamenti
lamento
lamo
lamothe
lampi
lampo
lan
lana
lanatus
lanc
lance
lancia
lanciloto
land
lande
landeck
landes
lane
lang
langenscheidt
language
languages
langue
lanka
lansa
lansada
lanso
lanterna
lanza
lanze
lao
laora
laorar
laorare
laorasion
laorava
laori
laoro
lapurdi
lar
lara
lardo
larga
larghe
larghesa
largo
lari
lario
larroque
larry
larus
las
lasa
lasagna
lasar
lascia
lascio
lase
lasio
laso
lassa
lassada
lassando
lassar
lassarme
lassava
lasse
lasseme
lassemo
lassero
lassi
lasso
lassu
last
lastra
lat
late
latera
laterałe
laterałi
laterza
lati
latin
latina
latine
latini
latino
latitu
lato
latte
lauda
laufen
laufenburg
laura
lauragais
laurea
laurel
laurent
laurenti
lauriers
lauro
lausanne
lava
laval
lavar
lavaux
lavor
lavora
lavoradori
lavorar
lavorare
lavoratori
lavori
lavoro
lavri
law
lawrence
laws
lay
lazaro
lazio
lazzaro
lazzo
lbara
lbare
lbari
lbaro
lber
lbun
lcd
ld
le
lea
lead
leader
league
leali
leandro
lebern
lec
lecce
lece
lech
lecito
leco
led
lee
left
lega
legal
legato
legałe
legałi
lege
legend
legenda
legge
leggenda
leggende
leggere
leggi
legi
legn
legna
legnago
legname
legne
legni
legno
lego
lei
leibnitz
leitha
leje
lejenda
leji
lejislativi
lejislativo
lel
lelio
lemy
lena
lengoa
lengoe
lengua
lenguaji
lenguajo
lengue
lengui
lenguistega
lenin
lennon
lens
lenti
lento
lenzburg
leo
leoben
leon
leonard
leonardo
leone
leonhard
leoni
leopoldo
lepanto
lera
leri
lerigio
les
lesbin
lese
lesion
leslie
lesotho
lesso
lesto
let
letara
letaralmente
letare
letera
leteralmente
leterario
leterati
leterato
leteratura
letere
leti
letizia
leto
letori
lettera
letteratura
lettere
letto
lettore
letura
leu
leuk
leva
levante
levar
leve
levels
leventina
levi
levo
lewis
lex
lexe
lexi
ley
lez
leza
leze
lezer
lezion
lezo
lezzerini
lg
li
lia
liae
liai
lial
liam
liansa
liarca
lib
libara
libarasion
libarałe
libare
libari
libaro
libarta
liber
libera
liberal
liberale
liberamente
liberasion
liberazione
liberałe
liberi
liberia
liberliber
libero
liberta
liberty
libia
libraria
librario
library
libre
libreria
libreville
libri
libro
lica
licensa
license
licenses
licenza
licenzia
liceo
lico
lidia
lido
lie
liebe
liechtenstein
lienz
liestal
lieto
lieu
lieva
liezen
life
liga
ligabue
ligada
ligae
ligai
ligar
light
lignacio
ligne
lignie
ligny
ligo
liguori
ligure
liguria
lii
liii
like
lila
lilienfeld
lille
lilongwe
lima
limita
limitada
limitasion
limite
limiti
limon
lin
lina
linburgo
lincoln
linda
line
linea
linee
lines
linfa
lingu
lingua
linguaggio
lingue
linguistica
link
linked
linnaeus
linneo
lino
linux
linz
lio
lioghi
liogo
lion
lionel
lionello
lioni
lionis
lipa
lipidi
liquido
lira
lire
lirico
lis
lisa
lisandro
lisbona
lisi
liss
lissandro
list
lista
liste
listems
liston
lite
litfiba
lito
litro
little
litua
lituania
liu
liv
live
livel
livello
livelo
liverpool
lives
livełi
liveło
living
livio
livorno
livre
livro
lix
lizion
lkermarkt
ll
lla
llano
llanos
llar
llc
lle
llego
lleida
llengua
ller
lli
llie
llo
llobregat
llor
lloyd
llui
lly
lo
lobamba
loc
locai
local
locale
locali
localita
localitats
locanda
locarno
location
locałe
locałi
locałita
loch
loco
locomotiva
locusion
lod
loda
lodar
lode
lodi
lodigiano
lodo
lodoli
lodovica
lodovico
loga
loges
loggia
loghi
logo
loi
loing
loir
loira
loire
loiret
loldo
lombarda
lombardi
lombardia
lombardo
lome
lomellina
lon
lonbardia
lonbardo
lonci
londa
london
londra
londres
lonely
long
longa
longe
longhe
longhena
longhesa
longhi
longo
longobardi
longres
longuamentre
longueville
lons
lontan
lontana
lontananza
lontane
lontani
lontano
lonzi
lonzitu
look
loop
lopez
lor
lora
lord
lore
loredan
loredana
lorena
lorenso
lorenz
lorenzin
lorenzo
loreto
lori
loro
los
lost
lot
lota
lote
loto
lotta
lotteria
lotto
lotus
lou
louis
louise
louisiana
loup
louvre
love
lovo
loy
loze
lp
ls
lt
lta
ltd
lte
ltego
ltema
lteme
ltemi
ltemo
lten
ltima
ltimi
ltimo
lto
lu
lua
luanda
luc
luca
lucania
lucano
lucas
luce
luci
lucia
luciano
lucien
lucieta
lucietta
lucindo
lucio
lucky
lucy
lud
ludovico
ludro
ludwig
luffy
luftwaffe
lug
luga
lugano
lugio
luglio
lugo
lugr
lugrezia
lui
luigi
luis
luisa
luizi
lujo
lule
lulio
lume
lumi
lun
luna
lunar
lunardo
lunare
lunari
lunario
lune
lunezia
lunga
lungau
lungo
luni
luo
luoghi
luogi
luogo
lupo
lur
lusaka
luse
lusenburgo
lusia
luso
lussia
lusso
lussuria
lustra
lustri
lustrissima
lustrissimo
lustro
lusuria
lutero
luther
luxe
luxerna
luy
luze
lułio
lv
lvare
lvaro
lvi
lvii
lviii
lx
lxi
lxii
lxiii
lxiv
lxix
lxv
lxvi
lxvii
lxviii
lxx
lxxi
lxxii
lxxiii
lxxiv
lxxv
lxxvi
ly
lys
m
ma
maasai
mac
maca
macaco
macari
macchi
macchia
macchina
macdonald
mace
macedonia
macerata
machado
machete
machina
machinari
machine
machometo
machu
macia
macos
mad
madagascar
madalena
madama
madame
madałena
maddaloni
made
madeleine
madera
madison
mado
madona
madone
madonna
madre
madrid
madrigal
madrigale
madrigali
maduro
mae
maenpaa
maesta
maestra
maestri
maestro
maffeo
maffio
mafia
mafio
maga
magagna
maganza
magari
magazen
magazine
magellano
maggio
maggior
maggiore
maggiori
maghreb
magi
magia
magic
magica
magico
magio
magior
magioransa
magiore
magiori
magistrati
magistrato
magliano
magna
magnar
magnare
magnari
magnava
magne
magnera
magnere
magni
magnifica
magnifico
magnitu
magnitudo
magno
magnus
magny
mago
magra
magro
magyar
mah
mai
mail
mailly
main
maine
maio
mais
maison
maisons
maistra
maistri
maistro
maitin
maizie
maja
maji
majo
major
majoransa
majore
majori
majoria
majorparte
make
making
mal
mala
malabo
malamente
malamentre
malani
malatia
malatie
malattia
malawi
malaysia
malcolm
male
maledeta
maledeti
maledeto
maledetta
maledetti
maledetto
maleh
malga
malgari
malghe
malgrado
mali
malignazo
malinconia
malinconico
malinconie
malipiero
malizia
malo
malora
malta
malvasi
malvasia
malvasio
malvasitade
mama
mame
mami
mamma
mamoudzou
man
mana
management
manager
manc
manca
mancansa
mancante
mancanza
mancar
mancava
mance
mancha
manche
manchester
mancini
manciu
manco
manda
mandada
mandado
mandai
mandama
mandar
mandarin
mandato
mandava
mande
mandela
mandero
mando
mandona
mane
manega
maneghe
manego
manfredi
manga
mangi
mango
manhattan
mani
maniago
manie
maniera
maniere
manifesta
manifestasion
manifesto
manila
manin
manina
manini
manize
manja
manje
manjiera
mann
manneville
mano
manoscriti
manoscrito
manoscritto
mans
mantegna
mantegnendo
mantegner
mantegnere
mantegnesto
mantegnimento
mantegnir
mantegnu
mantel
mantene
mantien
manto
mantoa
mantova
manuale
manuel
manutension
many
manzano
manzar
manzi
manzo
manzoni
mao
maometo
maometto
maor
map
mapa
mape
mappa
maps
maputo
mar
mara
maradona
marais
maran
marangon
marano
maratona
maraveggio
maravegia
maravegie
maravegiosamentre
maraveia
maraveya
marc
marca
marcador
marcai
marcante
marcanti
marcantonio
marce
marceau
marcel
marcello
march
marche
marchesa
marchese
marchesi
marcheza
marchi
marchio
marchioro
marcho
marcia
marciana
marcilly
marco
marcolina
marconi
mard
mare
marea
marenda
mareuil
marg
margaret
margarethen
margarita
marghera
margherita
marguerite
mari
maria
mariah
mariana
mariano
marida
maridada
maridae
maridai
maridar
maridarme
maridarse
maridarve
maridauro
maride
marido
marie
mariegola
mariela
marieta
marietta
marigny
marii
marilyn
marin
marina
marinai
marinare
marinari
marine
mariner
marines
marinetta
marini
marino
mario
maritima
maritime
maritimo
marito
marittima
mark
markt
marlon
marly
marmi
marmo
marmota
marmote
marmottina
marna
marne
maro
maroco
marolles
maron
maroni
maroon
marradi
mars
marsac
marsh
marshall
marsi
marsiałe
marsilio
marso
marta
marte
martel
martello
martelo
marti
martial
martignon
martigny
martin
martina
martini
martino
martire
martiri
martirio
marvin
marx
marxismo
marxista
mary
maryland
marza
marzano
marzapan
marzo
mas
masa
masacro
mascara
mascare
maschera
maschere
maschil
maschile
maschio
maschiłe
mase
maseru
masi
masicio
masima
masime
masimo
masini
maso
mason
masoneria
mass
massa
massachusetts
massari
masse
massera
massere
massima
massime
massimiliano
massimo
master
mastrocinque
mat
mata
mate
mateju
matema
mateo
mater
matera
materia
material
materiale
materiali
materiałe
materiałi
materie
materna
materno
matese
mathbb
mathrm
mati
matin
matina
matio
mato
matrimoni
matrimonio
matrona
matt
matta
matteo
matteotti
mattersburg
matthew
matthews
matti
mattia
mattina
matto
mattoli
mau
maule
maur
maura
maurice
mauritania
mauritius
maurizio
mauro
max
maxima
maxo
maxor
maxori
may
maya
mayenne
mayer
mayniera
mayo
mayor
mayorsforpeace
maze
mazerolles
mazior
mazo
mazor
mazori
mazza
mazzini
mazzo
mazzocchi
mazzola
mała
małamoco
małatia
małatie
małe
mb
mbabane
mbeki
mc
mccain
mccartney
mcce
mclaren
md
me
mea
mec
meca
mecanega
mecaneghe
mecanica
mecanismi
mecanismo
mecenate
meco
meda
medaglia
medaja
mede
medego
medemo
medesima
medesimo
medexina
medezina
medi
media
mediante
mediaset
mediateca
medica
medical
medici
medicina
medicine
medico
mediesima
mediesimi
mediesimo
medieval
medievałe
medin
medina
medio
medioevo
medisina
meditera
mediteraneo
medo
medoro
meet
mega
meggio
meghe
meghi
megio
megior
meglia
meglio
mego
mei
meilen
meine
meio
meior
mejo
mejor
mejora
mejorar
mejori
mel
mela
melara
melbourne
mele
meli
meliagans
melito
melk
mella
mello
melo
melody
melon
meloni
member
membercity
membercountries
members
membres
membri
membro
memmo
memo
memoria
memorial
memorie
men
mena
menada
menado
menando
menar
menare
menasse
menato
menava
menbrana
menbri
menbro
mendicanti
mendrixio
mene
meneg
meneghela
meneghetto
meneghina
menego
mengon
mengoni
meni
meno
menor
menoransa
menori
mensiona
ment
mente
menti
mento
mentre
menu
meoła
mer
mera
merati
merca
mercante
mercanti
mercato
merce
mercedes
merchadanti
merchadantie
merci
mercore
mercosur
mercu
mercurio
mercury
merda
meri
merica
merican
mericana
mericane
mericani
meridian
meridional
meridionale
meridionałe
meridionałi
merindad
merita
meriti
merito
merle
merli
merlin
merlo
mero
merriam
merry
merse
meru
mery
meryl
mes
mesa
mesaji
mesajo
meschin
mese
mesegan
mesegana
meser
mesi
mesia
mesina
mesnil
meso
messa
messaggero
messe
messer
messi
messico
messier
messina
messo
mestier
mestieri
mestiero
mesto
mestre
mestro
mesura
met
meta
metabrainz
metal
metamorfosi
metar
metare
metarghe
metarse
metałi
metało
mete
metendo
meteno
meteo
meter
metera
metere
meterghe
meterse
metesse
metesta
metesti
metesto
meteva
meti
metindo
meto
metodi
metodo
metri
metro
metropolitana
metropułitana
metta
mette
metter
mettere
metti
metto
metu
metz
meurthe
meuse
mexa
mexe
mexi
mexo
mexura
meyo
mez
meza
meze
mezi
mezimurje
mezo
mezodi
mezura
mezure
mezz
mezza
mezzi
mezzo
meło
mełodia
mg
mhz
mi
mia
miami
mica
michael
michail
michel
michelangelo
michele
michelle
michie
michiel
michigan
mick
mickey
mico
micro
microsoft
middle
midi
midlands
midnight
mie
miegio
miei
miel
miera
miga
miglior
migliore
migliori
migliorini
migrasion
miguel
mii
mike
mil
mila
milan
milanese
milano
mile
milenio
miles
milia
miliardi
milion
milione
milioni
militar
militare
militari
military
mill
milla
mille
millennio
miller
million
milly
milon
milord
milton
min
mina
minacia
minas
minchion
minchiona
minchioni
mind
mine
minecraft
minerałi
minerva
minervois
mines
ming
minga
minh
minhap
mini
miniera
miniere
minima
minimo
miniserie
minister
ministero
ministri
ministro
ministry
miniussi
minnesota
mino
minor
minoransa
minoranse
minore
minori
minuetto
minuti
minuto
mio
mior
mira
mirabel
miracoli
miracolo
mirage
miranda
miro
mis
miser
misera
miserabile
miseri
miseria
misericordia
miserie
misero
misi
misia
misier
mision
misionari
miss
misser
missia
missier
mission
mississippi
missouri
mista
mistelbach
mister
misteri
mistero
mistier
misto
mistro
misura
mit
mita
mite
mitglieder
miti
mito
mitołoxia
mix
mixura
miła
miłan
miłe
miłenio
miłi
miłiardi
miłiari
miłion
miłioni
miłita
miłitar
miłitare
miłitari
mm
mn
mo
moa
mobi
mobile
mobili
mobiłe
mobiłi
mocenigo
moda
modalita
modałe
modałita
mode
model
modeli
modello
modelo
models
modena
modern
moderna
moderne
moderni
moderno
modesta
modestia
modesto
modeła
modełi
modeło
modi
modifega
modifeghe
modifica
modo
modolo
modor
modori
moe
mof
mogadiscio
moglie
moi
moier
moise
moje
mojer
mojere
mojo
mola
molar
mole
molesta
moli
molie
molin
molina
molinaro
molini
molise
molo
molta
molte
molti
moltitudine
molto
molton
mom
mombasa
momenti
momento
momi
momola
momolo
mon
mona
monaco
monarca
monarchi
monarchia
monastero
monastie
monastier
moncayo
monchy
mondadori
monde
mondi
mondial
mondiale
mondiali
mondiałe
mondiałi
mondini
mondo
mondovi
mone
monea
moneda
monede
monestier
moneta
money
monfalcon
monferrato
monforte
mongołia
monica
monicelli
monitor
monkey
mono
monovibrante
monroe
monrovia
mons
monsa
monse
monsieur
monsignor
monster
monsu
mont
monta
montado
montagna
montagnana
montagne
montagnes
montagnia
montagnie
montagnoza
montagnoze
montagnozo
montagny
montaigu
montaione
montalcini
montaldo
montalto
montan
montana
montano
montar
montaut
montbe
montceaux
monte
montebaldine
montebełuna
montecarlo
montecatini
montecio
montecorvino
monteforte
montejo
montel
monteleone
montelupo
montemayor
montenegro
montes
montespertoli
montesquieu
montevideo
monteło
montfaucon
montfort
montgaillard
montgomery
monthey
monti
montigny
monto
montre
montreuil
montreux
montrond
monts
monumenti
monumento
monza
moon
moore
mor
mora
moral
morale
moraleja
morales
morandi
morata
morałe
morbihan
morbin
morbinose
morbinosi
morbo
more
morea
moresto
moretti
morfema
morfemi
morgan
morges
mori
morin
morir
morira
morire
moristo
moritz
mork
morning
moro
moroni
morosa
morose
morosi
morosin
morosini
moroso
moroto
morris
morrison
morse
morsega
mort
morta
mortagne
mortal
mortali
morte
morter
morti
morto
morton
morvan
mos
mosa
mosca
mosche
moschea
moscheta
moschetta
mosconi
moscovia
mose
moselle
moslavina
moso
mossa
mossato
mosso
most
mostarda
mosto
mostra
mostrado
mostrando
mostrar
mostrare
mostrarghe
mostrava
mostre
mostri
mostro
mota
mother
moti
motion
motivasion
motivi
motivo
moto
motor
motore
motori
motorola
motors
motta
motte
motto
moudon
moulin
moulins
mountain
mouse
moutier
moutiers
move
mover
moverse
movie
movies
movimenti
movimento
mozambico
mozanbico
mozart
mozilla
moła
mołe
mołixe
moło
mp
mpx
mr
ms
mt
mtcr
mtv
mu
mua
muar
mucio
muda
mugabe
muge
mugello
muger
muggie
muggier
mugier
mugiwara
muier
mujer
mul
mula
mulo
multa
multi
multinasionałe
mumenti
mumento
mun
mundial
mundo
munega
muneghe
munic
municipalities
municipio
municipios
municipis
munisipałita
munisipi
munisipio
munti
muo
muodo
muor
muora
muore
muoro
mur
mura
muraja
muran
murania
murat
murau
murcia
mure
muri
muriel
murir
muro
murray
murtal
mus
musa
musatti
muse
musei
museo
museto
museum
musi
music
musica
musical
musicale
musicali
musicbrainz
musicista
musina
muso
mussa
mussati
musso
mussolini
mustazzo
musulmana
musulmani
musuro
muta
muti
muto
muxega
muxegałe
muxei
muxeo
muxica
muxicałe
muxicałi
muxicista
muxicisti
muyer
muzegałe
muzegałi
muzei
muzeo
muzicałe
muzicista
mx
my
mymovies
myspace
n
na
nac
nach
nacht
nacio
nacional
naco
nacque
nad
nada
nadal
nadałe
nadaƚe
nadivi
nadivo
nadura
nadurałi
nago
nairobi
nale
nalin
naltra
naltri
naltro
nam
nama
name
names
nami
namibia
nan
nana
nancy
nando
nane
nani
nanni
nannini
nano
nanteuil
nantra
nantri
nantro
napa
napoleon
napoleone
napoli
napolitano
napołeo
napołeon
napołi
napułi
nar
nara
naransa
naranson
narasion
narativa
narc
narciso
nardo
nare
narentana
nari
naro
nas
nasa
nasar
nasce
nascer
nascita
nascosto
nase
nasesta
naseste
nasesti
nasesto
nasi
nasie
nasimento
nasion
nasional
nasionale
nasionali
nasionalsociałista
nasionałe
nasionałi
nasionałista
nasionałisti
nasionałita
nasita
naso
nassa
nasse
nasser
nassu
nassuo
nastri
nastro
nasu
nasuo
nat
nata
natal
natale
natalie
nate
nati
nation
national
nationale
nations
nativa
native
nativi
nativita
nativo
nato
natomia
natura
natural
naturale
naturali
naturalmente
naturałe
naturałi
nature
nau
naura
nauru
nava
navada
naval
navara
navaro
navarra
navas
navałe
navałi
nave
navega
navegadore
navegar
navegasion
navesela
navezeła
navi
navigasion
navigatio
naviglio
navradho
navrado
navy
naxałe
naxion
naxo
nay
naz
nazaire
nazareth
nazion
nazional
nazionale
nazioni
nazista
nazisti
nba
nbc
nbia
nbio
nbito
nbołi
nboło
nbre
nc
nca
ncaro
nchen
nchez
nchwilen
ncia
ncipe
nco
ncora
ncue
nd
nda
ndai
ndando
ndar
ndara
ndare
ndarse
ndava
ndaze
ndało
nde
ndega
ndena
ndene
nder
ndexe
ndez
ndeze
ndia
ndico
ndio
ndita
ndo
ndoe
ndoghe
ndoghene
ndola
ndose
ndove
ndoła
ndołe
ndołi
ndoło
ne
nea
nearest
nebraska
nec
necesario
necesita
necessaria
necessario
necessita
nederlandezo
nee
need
neerlandese
nega
negar
negativa
negative
negativo
neghe
neghi
negli
nego
negosi
negozi
negoziar
negozio
negra
negre
negri
negro
negroponte
negros
negun
nei
neil
nek
nel
nela
nele
nell
nella
nelle
nello
nelson
nema
neme
nemi
nemici
nemico
nemiga
nemighi
nemigo
nemo
nena
nene
neo
nepal
nera
nere
neri
nero
neron
nervi
nervoso
nes
nesesa
nesesario
nesesita
neskin
nesle
nessun
nessuna
nessuno
nestle
nesun
nesuna
net
neta
netamente
netare
nete
neti
neto
netta
netun
network
netzwerk
neu
neucha
neuf
neuilly
neumarkt
neunkirchen
neusiedl
neustadt
neustift
neuve
neuville
neuvy
neva
nevada
neve
nevega
never
nevo
nevodo
nevvero
new
newman
news
newsletter
newton
next
nexus
nez
nezza
neła
nełe
nf
ng
nga
ngo
ngoa
ngoe
ngolo
ngołi
ngoło
ngua
ngue
ngułi
ni
nia
nialtri
niamey
nica
nicaragua
niccolo
nice
nicea
niche
nichelino
nicholas
nicholson
nick
nico
nicol
nicola
nicolas
nicole
nicoletto
nicolo
nicoloti
nicolotti
nicoxia
nicoło
nido
nidvaldo
nie
nied
niente
nievo
niger
nigeria
night
nightingale
nigra
nigun
niguna
nihil
nikolai
nil
nilo
nilotici
nimo
nin
nina
nine
nineta
nini
nino
nintendo
nio
niora
niova
niove
niovo
nipote
niro
nis
nisa
nisi
niso
nissun
nissuna
nissuno
nisun
nisuna
nisuni
nit
niuna
niuno
nixon
niza
nize
nizer
nizeria
nizza
njanca
njente
njien
nl
nme
no
noa
noaltri
nob
nobel
nobil
nobile
nobili
nobilta
nobis
nobiłe
nobiłi
noble
nocera
nodaro
nodo
noe
noel
noela
noemi
nofa
nogara
nogent
nogia
noi
noia
nokia
nol
nola
noli
nolo
nom
noma
nomadi
nombre
nome
nomen
nomena
nomenanc
nomenclator
nomenclatura
nomenclature
nomi
nomina
nominar
nomination
nominativo
nomine
nomo
non
nona
nonche
nondemen
none
noni
nonn
nono
nonostante
nonperquanto
nor
nord
nordest
nordoriental
nordosidental
nordovest
norgales
norinberga
norma
normal
normale
normalmente
norman
normandia
normałe
normałi
norme
noro
norris
norte
north
northern
norvegia
norveja
norveza
nos
nose
nostalgia
nostra
nostre
nostri
nostro
nostrum
not
nota
notar
notasion
note
notepad
notes
notevolmente
notevołe
notevołi
noti
notisia
notisie
notizia
notizie
noto
notorieta
notre
notte
notti
noturna
nouakchott
nova
novakovich
novamente
novanta
novara
novarese
nove
novel
novela
novele
novella
novelle
novelli
novello
novelo
november
novembre
novenbre
noventa
novesento
novi
noviembre
novita
novizza
novizzi
novizzo
novo
novocasteło
now
noxe
noyelles
noyers
nozze
np
npeghi
npi
npio
npito
npo
npre
ns
nsa
nsame
nsar
nse
nserndorf
nsf
nsi
nsia
nsio
nsipe
nso
nssdc
nster
nt
nta
nte
ntega
ntego
ntel
ntela
nteła
ntełe
nteƚa
nti
nto
ntoa
ntola
ntolo
ntre
ntro
nu
nua
nualtre
nualtri
nubia
nuclear
nucleare
nucleari
nuclearsuppliersgroup
nucleo
nuda
nudi
nudo
nueva
nuevo
nui
nulla
numare
numari
numaro
numaroxe
numaroxi
numaroze
numarozi
number
numbering
numbers
nume
numeri
numeric
numero
numerosi
numeroxe
numeroxi
numi
nunavut
nunc
nuo
nuova
nuovamente
nuove
nuovi
nuovo
nutella
nuvola
nuvole
nuy
nxoło
ny
nyerere
nyon
nz
o
oasi
oasis
ob
obama
oberhasli
oberland
oberpullendorf
oberwart
obietivi
obietivo
obispo
oblast
obliga
obligato
obligo
obp
obra
observer
oc
oca
ocasion
ocaxion
ocazion
occasion
occasione
occhi
occhiada
occhio
occhj
occidentale
occorre
ocean
oceano
oche
ochi
ochiada
ochiae
ochio
oci
ociada
ocidental
ocidentale
ocidentałe
ocidente
ocio
ociobeło
ocitan
oclc
ocluxiva
ocore
octa
october
octubre
ocupa
ocupada
ocupai
ocupando
ocupar
ocupasion
ocupava
od
oda
ode
oderso
odi
odiava
odierna
odierno
odio
odo
odor
odore
odori
oe
of
ofensiva
oferta
oferte
oferto
off
offenerhaushalt
offerta
office
official
officiel
officinalis
ofic
oficial
ofisial
ofisialmente
ofisiałe
ofisiałi
ofixial
ofre
og
oge
ogeti
ogeto
oggetto
oggi
oggio
ogi
ogia
ogie
ogio
oglio
ogn
ogna
ogni
ogno
ognun
ognuna
ognuno
ographique
oh
ohe
ohime
ohio
oi
oia
oibo
oic
oica
oime
oimei
oio
ois
oise
oit
ojeda
ojeti
ojeto
oji
ojo
ok
okereke
oklahoma
ol
ola
olanda
olandese
olandexe
olandexi
olcider
olcise
olciso
old
oldando
olde
oldi
oldid
oldido
oldir
oldoini
ole
olea
oleracea
oli
olimpico
olio
oliva
oliver
olivier
olivo
olmo
olmos
olo
olona
olta
olte
olten
oltra
oltre
oltredrava
oltremare
oltro
olympia
om
omajo
oman
omani
omar
ombra
ombre
ombrela
omeni
omer
omero
ometo
omi
omnes
omnia
omnibus
omo
omonema
omonemo
omonima
omonimo
oms
on
ona
onard
onbria
once
onco
oncor
oncora
ond
onda
onde
one
oneplus
onesta
oneste
onesti
onesto
ongari
ongaria
ongaro
ongia
oni
onji
online
only
ono
onor
onora
onorata
onorato
onore
onorevole
onori
onta
ontario
onti
onto
onu
onuesc
onze
op
opara
oparasion
opare
opcw
open
openelement
openmlol
openstreetmap
opera
operadivo
operai
operaio
operar
operasion
operativi
operativo
operazion
opere
opinion
oportunita
oposision
oposto
opoxision
opozision
oppo
oppur
opt
option
opu
opur
opure
opus
or
ora
oracolo
oramai
orange
orari
orario
orasion
orator
oratorio
orazio
orazion
orałe
orba
orbe
orbi
orbita
orbiter
orbo
orchestra
orco
orden
ordena
ordenado
ordenamento
ordene
ordenemo
ordeni
order
ordina
ordinamento
ordinaria
ordinario
ordinata
ordine
ordini
ordo
ordonqua
ore
oregon
oreste
oreta
org
orga
organi
organisa
organisatie
organismi
organismo
organixa
organixasion
organiza
organizada
organizasion
organization
organo
orge
ori
oria
oriago
oribile
orienta
oriental
orientale
orientales
orientali
orientamento
orientał
orientałe
orientałi
oriente
origin
original
originale
originali
originaria
originario
origine
origini
orio
oristan
orixane
orixene
orixina
orixinałe
orixine
orizena
orizenariamente
orizenałe
orizene
orizinałe
orlandino
orlando
orle
orleans
orlo
ormai
ormes
ormoni
ormoy
orne
orni
orno
oro
orologio
oron
oror
ors
orsetta
orsi
orso
orsola
orsolina
orsu
orto
ortodosa
ortografia
ortolani
orzo
os
osa
oscar
oscura
ose
osea
oseano
osei
osel
oseleti
oselin
osello
oselo
oserva
oservasion
osi
osidental
osidentale
osidentał
osidentałe
osidentałi
osidente
osijek
osita
oslo
oso
osoła
ospea
ospeal
ospedal
ospedałe
ospita
ospite
ospiti
ossa
osse
osserva
osservando
osservar
osservazion
osservo
ossi
ossia
osso
ost
osta
ostante
ostari
ostaria
oste
ostel
osteria
ostiłita
osto
ostra
ostrega
osvaldo
oswald
ot
otanta
otava
otavo
otegnendo
otegner
otegnere
otegnesto
otegnu
otegnuo
otenjendo
otenjer
otenjesto
otenju
othe
other
otien
otimo
oto
otobre
otoman
otomana
otomani
oton
otosento
otranto
ott
ottava
ottave
ottavio
otto
ottobre
ottone
ou
ouagadougou
ouche
ouen
our
ource
ourense
oust
out
output
ova
ove
ovene
over
overijssel
overo
overosi
ovest
ovi
oviamente
oviedo
ovo
ovre
ovvero
owen
own
oxe
oxei
oxełi
oxford
oye
oz
ozio
oła
ołanda
ołandexe
ołandeze
ołi
ołinpi
oło
ołoca
p
pa
pablo
paca
pace
pacific
pacifico
paco
padana
padoa
padoan
padoana
padova
padovan
padovana
padovani
padre
padri
padron
padrona
padrone
pae
paes
paese
paesi
paexe
paexi
paezajo
paeze
paezi
pag
paga
pagamento
pagani
pagar
pagare
page
pages
pagg
paghera
paghero
pagia
pagina
pagine
pagny
pago
pagoło
pai
paise
paixe
paixi
paja
pajello
pajina
pajine
pakistan
pal
pala
palac
palacios
palais
palamides
palas
palaso
palasport
palau
palazi
palazo
palazzi
palazzo
palazzuolo
palco
pale
palencia
palermo
palestina
palio
palla
palladio
palma
palmas
palme
palmer
palo
palpiti
paltan
palu
pam
pan
pana
panama
panariello
panda
pandemia
pandolo
pane
paneto
pani
panini
panni
pano
panorama
pansa
pant
pantalon
pantalone
panto
panza
paola
paolina
paolo
paon
papa
papafava
papaga
papałe
papi
papua
par
para
parada
parade
paradise
paradiso
paradixo
paradizo
paragon
paraguay
paralitico
parametro
parana
parar
pararia
parałeło
parc
parche
parchi
parco
parcorso
parcossa
pardoux
pare
parea
parecchie
parece
pareci
parecia
pareciar
parecio
parede
parenta
parentado
parente
parentesi
parentexi
parenti
parer
parera
parere
parete
pareti
pareva
parfin
pargny
pari
paride
parigi
pariodo
paris
parita
parixe
parize
park
parke
parker
parla
parlada
parlade
parlado
parlae
parlamentar
parlamentare
parlamentari
parlamento
parlando
parlano
parlante
parlanti
parlar
parlare
parlarghe
parlava
parle
parlemo
parlero
parli
parlo
parlophon
parma
parmeso
parmete
parmi
parnaso
paro
parochia
parochiałe
paroco
parola
parole
parolle
paron
parona
parone
paroni
paroła
parołe
pars
parse
parsialmente
parsiałe
parso
parsona
parsonaji
parsonajo
parsonałe
parsone
part
parta
partanto
parte
partec
partecipa
partecipasion
partegnente
partegołar
partegołare
partegołari
partegołarmente
partendo
partensa
partenza
partesi
partesipa
partesipando
partesipanti
partesipar
partesipasion
partezani
partezełe
parti
partia
participants
particolar
particolare
particolari
particolarmente
particoła
particołar
particołare
particołari
particołarmente
particułare
partido
partie
partien
partii
partindo
partio
partir
partire
partita
partito
partiva
partner
partners
parto
partono
party
pas
pasa
pasada
pasado
pasagio
pasai
pasajeri
pasaji
pasajo
pasando
pasar
pasava
pascoli
pascua
pase
pasejeri
pasi
pasie
pasiente
pasini
pasion
pasiona
pasivo
paso
pasq
pasqua
pasqual
pasquale
pasqualigo
pasqualin
pasqualino
pass
passa
passada
passado
passai
passando
passar
passare
passato
passava
passe
passera
passi
passin
passion
passione
passo
passy
past
pasta
pasto
paston
pastor
pastori
pasubio
pat
pata
patate
patente
pater
paterna
paterno
pati
patir
patisse
pato
patria
patriarca
patrick
patrimo
patrimoni
patrimonio
patrio
patriota
patrioti
patriotico
patrisi
patrizi
patrizio
patro
patron
patrona
patrone
patroni
patrono
patti
patto
patuzzi
pau
paul
pauli
paulo
paura
pausa
pausini
pauza
pava
pavan
pavarotti
pavia
pavimento
pavion
pax
paxe
pay
pays
paz
paze
pazenzia
pazienza
pazzi
pazzia
pazzo
pała
paładio
pałasi
pałasina
pałaso
pałatałe
pałe
pałermo
pałestina
pałi
pało
pału
pc
pci
pd
pdf
pe
peace
peada
pearl
pec
peca
pecai
pecca
peccai
peche
pechin
pecior
pedon
pedoni
pedraza
pedro
pedrosa
pega
peggio
peghe
peghi
pegno
pego
pegola
pei
pel
pelago
pele
peli
pell
pelle
pellegrin
pellegrini
pellegrino
pelo
pen
pena
penar
penałe
pende
pendensa
pene
penede
penelo
penetra
peni
penin
penini
penisola
penitenza
penixoła
penn
penna
penne
pennsylvania
pensa
pensando
pensar
pensare
pensarghe
pensava
pense
pensi
pensie
pensier
pensieri
pensiero
pension
penso
penssa
penssava
pentato
pentimento
pentio
pento
penzo
people
pepe
pepo
peppino
per
pera
peraltro
perc
perch
perche
percio
percival
percorso
percossa
percusion
perda
perdar
perde
perdendo
perder
perdere
perdesto
perdi
perdita
perdo
perdon
perdona
perdonanza
perdone
perdoni
perdono
perdu
perdudo
perduto
pere
pereira
peretz
perfeta
perfeti
perfeto
perfetto
perfido
performance
perg
peri
pericoli
pericolo
perife
periferia
perina
perio
periodi
periodo
perla
perle
permanente
permanenti
perme
permeso
permesso
permete
permetesto
permette
pero
perpignan
perque
perry
pers
persa
perse
persecusion
persentuałe
persi
persia
persian
persiana
persiani
perso
persona
personaggi
personaggio
personagi
personaji
personajo
personal
personale
personaxi
personaxo
personazi
personałe
personałi
personałita
persone
persuaso
pertanto
pertoire
peru
perugia
peruxa
perzo
pes
pesa
pesante
pesaro
pesca
pescadori
pescante
pescar
pescara
pescatoria
pescatorie
pesce
peschiera
pesci
pese
pesi
pesie
peso
pesse
pessi
pesta
peste
pesto
peta
pete
petegola
peter
peti
petit
petite
peto
petrarca
petrojo
petrolio
petronio
petrołio
petrucci
pettegolezzi
petto
peugeot
pevare
pexa
pexaro
pexo
pez
peze
pezi
pezo
pezzali
pezze
pezzi
pezzo
pełe
pełegrini
pełi
peło
pfa
pg
ph
phil
philadelphia
philip
philipp
philippe
philippine
philippines
phillips
phoenix
phone
php
pi
pia
piac
piace
piacensa
piacer
piacere
piaceri
piaga
piaggio
pian
piana
piane
pianefegasion
pianeta
pianeti
piange
piangendo
piangere
piani
pianin
pianista
piano
pianoforte
pianse
pianta
piante
pianti
pianto
pianura
pianure
pianze
pianzer
pianzi
pianzo
piar
piasa
piasal
piase
piaser
piasere
piassa
piasse
piasso
piata
piataforma
piataforme
piati
piato
piatti
piatto
piave
piaxe
piaza
piaze
piazza
pic
pica
piccio
piccola
piccole
piccoli
piccolo
picenin
picenina
picenine
picenini
pich
picinin
picinina
picinini
piciola
pick
pico
picola
picole
picoli
picolo
picoła
picołe
picołi
picoło
picture
pictures
pida
pido
pie
piece
piedi
piega
piegore
piemonte
piemontexe
pien
piena
pienamente
piene
pieni
pieno
pier
piera
pieraccioni
piere
pierini
pierino
piero
pierre
pierrefitte
pierrepont
piese
pieta
pietade
pietoso
pietra
pietro
pietroburgo
pieve
piexe
pigmei
pignata
pignate
pii
pil
piloa
pilot
pilota
pin
pina
pinar
pinares
pinay
pine
pini
pinilla
pink
pino
pins
pinus
pinyin
pinzgau
pio
pioggia
piombo
pionbo
piova
piovan
piove
pipa
piper
pipi
pippi
pippo
pira
piramide
pirata
pirati
pirenei
piro
piron
pis
pisa
pisani
pissar
pista
pistoja
pisuerga
pita
pitagora
pital
pitaro
pite
pito
pitochi
pitor
pitore
pitori
pitost
pitosto
pittor
pittore
pittura
pitura
piture
piu
piume
piutosto
piuttosto
piuxor
pixa
pixel
piza
pizza
piłota
pl
pla
plac
placa
place
places
plache
placido
plaga
plage
plain
plaine
plan
planc
plancer
planceva
planet
planetary
planning
plant
planti
planto
plants
plase
plasma
plata
platino
platinum
platon
plaxe
plaxer
play
player
playoff
plaza
ple
plebe
plebiscito
plega
plen
plena
plessis
plet
plinio
plon
plu
plugs
plui
plur
plural
plurale
plurałe
pluraƚe
plus
plusior
plutarco
pluto
pluton
pluxor
png
po
poareta
poareti
poareto
pobla
poblacio
poc
poca
poche
pochetin
pocheto
pochettin
pochetto
pochi
pocho
poco
podara
podarea
podari
podaria
pode
podea
podemo
podendo
poder
podera
poderave
podere
poderi
poderia
podero
poderse
podese
podesse
podessi
podesta
podesto
podeu
podeva
podhe
podheva
podu
poe
poema
poemetto
poemi
poesi
poesia
poesie
poeta
poeti
poetica
poetici
poetico
poexia
poga
poggio
poh
pohjanpalo
poi
poiche
poidego
point
poitou
poix
poker
pol
pola
polaco
polame
pole
polenta
polesine
poli
police
policy
polifemo
polis
polisario
politega
politego
politica
political
politischen
polito
polizia
polli
polmon
polmonari
polmoni
polo
polonia
polpa
poltron
poltrona
polvere
polxeła
pome
pomerania
pomi
pomo
pompa
pompadour
pompe
pompeo
pon
pone
ponente
ponesta
ponesto
pongau
pons
pont
ponta
pontada
pontade
pontassieve
ponte
pontedera
pontefice
pontefiso
pontevedra
ponti
ponto
ponze
pooh
pop
pope
popola
popolar
popolare
popolari
popolasion
popolasioni
popoli
popolo
popoła
popołada
popołar
popołare
popołari
popołarita
popołarmente
popołasion
popołaxion
popołi
popoło
population
por
pora
porae
porave
porca
porchi
porco
pordenon
pore
poremo
pori
poria
poro
porrentruy
porsche
porsion
port
porta
portada
portado
portae
portai
portal
portale
portando
portano
portante
portar
portara
portare
portasse
portata
portato
portava
portałe
portałi
porte
portego
portenti
portento
porter
porti
portier
portman
porto
portogallo
portogalo
portogało
portoghe
portoghexe
portoghexi
portogheze
portoghezi
portogruaro
porton
portugal
pos
posa
pose
posedimenti
posedu
posente
posesivo
poseso
posesore
posi
posibilita
posibiłe
posibiłita
posision
posizion
poso
possa
posse
possente
possi
possibile
possio
posso
possono
post
posta
postal
postalveołare
postałe
poste
posteriore
posteriori
posti
posto
postumo
pota
pote
potensa
potense
potente
potenti
potenza
poter
potere
poteri
poterie
potesse
potest
potesta
potete
poteva
potrebbe
potsdam
potta
potte
potter
potuto
pouilly
pour
povara
povareta
povareto
povari
povaro
pover
povera
poverazza
poverazzo
povere
povereta
povereto
poveretta
poveretto
poveri
povero
poverta
power
poxa
poxavina
poxision
poxisiona
poy
poza
pozision
pozisiona
pozo
pozuelo
pozzo
pozzobon
poła
połaca
połachi
połaco
połe
połenta
połesine
połexine
połi
połisia
połitega
połiteghe
połiteghi
połitego
połitica
połitico
poło
połonia
pp
ppen
pr
pra
prada
prades
prado
praga
prai
praia
pranzo
prat
prata
pratega
prategamente
pratica
praticamente
praticar
pratiche
pratico
prato
prats
pre
prealpi
prec
precedensa
precedente
precedenti
precipita
precipitasion
precipizio
precisamente
preciso
precixa
precixo
preda
predica
prefazione
preferi
preferise
prefeto
prefetto
prefetura
prefiso
prega
pregando
pregar
pregava
pregevole
preghiera
preghiere
pregi
pregio
prego
preistoria
preme
premi
premia
premier
premio
premium
premura
prencipe
prende
prender
prendere
prendi
prendo
prensi
prensipalmente
prensipałe
prensipałi
prepara
preparar
preparasion
prepoxision
presa
presbiterio
prese
presedensa
presedente
presedentemente
presedenti
presencia
presensa
present
presenta
presente
presenti
presento
presenza
presi
presia
preside
presidensa
presidensiałe
presidensiałi
president
presidente
presidenti
presiedesto
presio
presion
presley
preso
preson
press
pressa
pressia
presso
presta
prestamentre
prestasion
presti
prestito
presto
prete
pretende
pretesa
pretese
pretesto
preti
pretoria
pretty
prevałe
prevałensa
prevałentemente
prevede
prevedea
prevedesta
prevedeste
prevedesto
prevedeva
prevension
prevista
previsto
prexa
prexe
prexensa
prexense
prexenta
prexente
prexenti
prexidente
prexo
prexon
prezensa
prezenta
prezente
prezenti
prezidente
preziosa
preziose
preziosi
prezioso
prezon
prezonieri
prezzo
pri
pria
priceza
pride
priega
priego
priest
prim
prima
primaria
primarie
primario
primato
primavera
prime
primi
primier
primiero
primierotto
primo
primogenito
primum
princ
prince
princeton
principal
principale
principali
principalmente
principato
principe
principessa
principi
principia
principio
prindese
prinsi
prinsipa
prinsipai
prinsipal
prinsipale
prinsipali
prinsipalmente
prinsipato
prinsipałe
prinsipałi
prinsipe
prinsipesa
prinsipi
prinsipio
prior
prison
priuli
priva
privada
privae
privai
privat
privata
private
privati
privato
prive
privilegio
privo
prix
pro
proa
proba
probabilmente
probabiłita
problema
problemi
proc
procedimento
procesi
procesion
proceso
processi
processo
proclama
proclamada
proclamasion
procura
procurador
procuratie
procurator
procuratore
procuro
prodec
prodece
prodi
prodo
prodomini
prodomo
prodota
prodoti
prodoto
produ
production
productions
produr
produre
produse
produsio
produsion
produtiva
produtor
produtora
produtore
produtori
produxe
produxesta
produxesto
produze
produzesta
produzesti
produzesto
proemio
prof
profesion
profesionałe
profesionista
profesionisti
profesor
profession
professor
professori
profeta
profilo
profito
profiło
profonda
profondamente
profonde
profondita
profondo
profumi
profumo
progeta
progeti
progeto
progetti
progetto
progno
program
programa
programasion
programi
programma
progresiva
progresivamente
progresivo
progreso
progresso
proibi
proibision
proietti
project
projeta
projetasion
projeti
projeto
prologo
promessa
promesse
promessi
promesso
promete
prometo
prometto
promo
promosion
promosionałe
promoso
promovesto
promulga
pron
prono
pronome
pronomi
pronostici
pronostico
pronta
pronte
pronti
pronto
pronuncia
pronunsa
pronunsia
pronunzia
propaganda
propi
propia
propiamente
propie
propieta
propietari
propio
propone
proponesto
proponimento
proporsion
proporsionałe
proposito
proposta
proposte
proposto
propri
propria
propriamente
proprie
proprieta
proprio
prosa
prose
proseco
prosedimento
proseso
prosimita
prosperita
prospetiva
prossimo
prost
protagonista
protagonisti
prote
proteine
protesion
protesta
protestante
protestanti
proteste
protesto
proteta
proteto
protetor
protetorato
protezion
proto
protocoło
protogerm
protoie
prova
provar
provare
prove
provegnenti
provence
proveniensa
provenienti
provensa
proverbi
proverbio
provi
providenza
provien
provin
provinc
province
provincia
provincias
provinciałe
provincie
provinsa
provinse
provinsia
provinsie
provinzia
provinzie
provizo
provo
provoca
provocando
provv
pru
prudente
prudenti
prudenza
prunus
pruovo
prusia
prusiana
ps
psa
pseudo
pseudonimo
psi
pt
pu
pub
pubblica
pubblicato
pubblico
publega
publegada
publegasion
publego
public
publica
publicacio
publicada
publicasion
publicaties
publicationfile
publications
publiche
publici
publico
publisher
publishing
publisita
puccini
puchi
puebla
puente
puerto
puglia
pugni
pugno
pui
puigdemont
puina
puisaye
puja
puli
pulitega
puliteghe
pulitego
pulito
pulp
punision
punk
punta
punti
punto
puo
puocho
puoco
puoi
puol
puote
pupa
pupi
pupo
pur
pura
purche
pure
puro
purpio
purple
purtropo
pusa
pusi
pusibiłita
pussibile
puta
putana
pute
putei
putel
putela
putele
puteli
putelo
puteła
putełi
puteło
puti
putin
putina
putini
puto
putta
puttana
puttane
puttazze
putte
puttello
putti
putto
puy
puza
pułi
pułitega
pułiteghe
pułitego
px
py
pyre
pyrus
q
qaida
qaktuell
qe
qi
qing
qu
qua
quad
quadra
quadrato
quadri
quadro
quae
quai
qual
quala
qualch
qualche
qualchedun
qualcheduno
qualcomm
qualcosa
qualcossa
qualcun
qualcuno
quale
quali
qualita
qualsiasi
qualunque
quam
quan
quand
quando
quant
quanta
quante
quanti
quantita
quanto
quantunque
quarant
quaranta
quaresima
quark
quarta
quarte
quarti
quartier
quartiere
quartieri
quarto
quasi
quatordexe
quatr
quatre
quatro
quattro
quaxi
quałita
que
quea
quebec
quechua
quedin
queen
quegli
quei
quel
quela
quele
queli
quell
quella
quelle
quelli
quello
quelly
quelo
quentin
queo
quercy
querini
quert
quesnoy
quest
questa
queste
questi
question
questo
questu
queła
quełe
quełi
queło
qui
quia
quiaramentre
quid
quido
quie
quieta
quiete
quieteve
quieti
quieto
quigi
quincy
quindese
quindexe
quindi
quinta
quintana
quintanilla
quinto
quito
quiz
quo
quod
quota
quotidian
quotidiano
r
ra
raab
raba
rabat
rabbia
rabbiosa
rabi
rabia
rabiosa
rabioso
rabo
rac
raccolta
raccolte
raccomando
racconto
racing
racolta
racolte
raconti
raconto
racuante
racuanti
racuanto
rada
rade
radiasion
radicale
radici
radicio
radio
radiofo
radiosboro
raf
rafael
raffaele
raffaella
raffaello
rafigura
raga
ragazza
ragazze
ragazzi
ragazzo
ragi
ragio
ragion
ragiona
ragione
ragni
ragno
ragrupa
ragusa
raguxa
raguxeo
rai
raid
raim
raimondo
rain
raina
rainbow
raise
raiuno
raixa
raixe
raiza
raize
raji
rajo
ralph
ram
rama
ramazzotti
rame
rami
ramo
ran
rana
rance
rancura
rancurar
rand
randall
random
rane
range
rango
ranieri
rap
rapida
rapidamente
rapido
raporti
raporto
rapper
rapporto
rappresenta
rapresenta
rapresentanti
rapresentasion
raprexenta
raprexentada
raprexentansa
raprexentanti
raprexentar
raprexentasion
raprezenta
raprezentansa
raprezentante
raprezentanti
raprezentasion
raquanti
rar
rara
raramente
rard
rare
rari
raro
raron
ras
rasa
rase
rasiałi
rasion
rasmus
raso
rason
raspberry
rat
rate
rati
rault
raum
rava
rave
ravena
ravenna
raxion
raxo
raxon
raxonxe
ray
raymond
raze
razo
razon
razonze
razonzer
razonzesto
razza
razze
rba
rbia
rbio
rbita
rbo
rc
rca
rchego
rcia
rcio
rco
rcore
rd
rda
rdar
rdena
rdene
rdeni
rdia
rding
rdo
rdoba
re
rea
reagan
real
reale
reali
reality
realta
reasion
reati
reałe
reałi
reałixa
reałixasion
reałiza
reałizasion
rebalta
rebełi
rebic
rebollar
rec
recava
rece
recente
recenti
recesion
receve
recever
rechia
rechie
rechiesta
recia
reciama
reciapa
recie
recita
recitar
reclama
reco
recoaro
reconose
reconosesta
reconoseste
reconosesti
reconosesto
reconosimento
reconosu
reconpensa
record
recorda
recordar
recordings
recordo
records
recostrusion
rectifier
recupera
recuperar
red
redasion
redazione
rede
redentor
redi
redita
redmi
redusion
redutto
ree
reed
ref
refa
refarensa
refarimento
reference
referendum
referimento
reforma
reforme
refuda
refudar
rega
regala
regali
regalo
regata
regatanti
regate
regazza
regazzo
regała
reggae
reggello
reggio
reghe
reghi
regi
regia
regime
regimento
regina
regio
region
regional
regionale
regionalen
regionales
regione
regioni
regista
registi
registra
registrasion
registrazioni
registro
regna
regname
regnante
regni
regniame
regno
rego
regola
regolamento
regolazioni
regole
regoła
regołador
regołamento
regołar
regołare
regołari
regołarmente
regołe
regoƚar
regracia
reguarda
reguardar
reguardava
rei
reich
reims
reina
reine
reiner
reino
reitano
reja
rejista
rejistra
rejistrar
rejistrasion
rejo
rejon
rejonal
rejonale
rejonałe
rejonałi
rejone
rejoni
rel
relasion
relation
relativita
release
religion
religione
religioni
religiosa
religioso
relogio
remake
rembrandt
remediar
remedio
remengo
remi
remita
remix
remo
remy
ren
rena
renania
renato
renault
renda
rende
rendendo
render
rendere
rendesta
rendesto
rendeva
rendo
rene
renga
renier
renjo
rennes
reno
renova
rens
rente
rento
rentro
renzi
renzo
reo
rep
reparto
reperti
repertorio
replica
report
reporta
reporter
represion
reprodusion
repu
repubblica
republega
republegan
republic
republica
republican
republicana
republicani
republiche
reputazion
requirements
rerum
res
resa
resałe
rese
research
resente
resentemente
resenti
reserca
reserva
reserve
reseve
resevu
residensa
resiste
resistensa
resistenza
resister
resita
reso
resorse
resources
resołusion
respeta
respetivamente
respeto
respetto
respira
respirar
respiro
responde
responder
respondo
responsa
responsabiłita
respose
resposta
respoxe
resta
restada
restae
restai
restando
restante
restar
restara
restaura
restaurasion
restauro
restava
reste
restera
resti
resto
resuresion
ret
reta
retardo
rete
reti
retira
retirada
retiro
reto
retorna
retornar
retrieved
retroflesa
return
retz
reunion
reunise
reuters
reutte
revarda
revardo
reve
reverbero
reverso
reveła
review
revisiondatestamp
revista
revo
revolta
revolution
revołusion
revołusiona
rex
rexa
rexidensa
rexime
rexistensa
rexistiva
rexo
rexulta
rey
reyer
rez
reza
rezalto
rezi
rezidensa
rezime
rezimi
rezina
rezista
rezistensa
rezistra
rezistrasion
rezulta
rezultadi
rezultado
rezultai
rełasa
rełasion
rełasiona
rełativa
rełativamente
rełative
rełativi
rełativo
rełigion
rełijon
rełijoza
rełijoze
rełijozo
rełogio
rełojo
reƚativo
rfi
rgani
rgano
rghe
rghene
rheinfelden
rhin
rho
rhode
rhodes
rhodesia
rhythm
ri
ria
riaa
rialto
riba
ribalta
ribeli
ribera
ribes
ric
rica
ricardo
ricatamenti
ricava
riccardo
ricchi
ricci
ricco
rice
ricerca
ricerche
riceta
riceve
ricevu
rich
richa
richamentre
richard
riche
richesa
richeza
richezza
richi
richiede
richiesta
richo
richter
riciama
riciapa
rick
ricky
rico
riconose
riconosimento
ricorda
ricordar
ricordemo
ricordi
ricordo
ricostrui
ricostrusion
ricourt
rida
riddle
ride
ridendo
ridente
rider
ridere
rideva
ridi
ridicolo
rido
ridota
ridoti
ridoto
ridotto
ridur
rie
ried
rieleto
rientra
riese
riesse
rieti
rieux
rifarimento
rifarise
riferi
riferimenti
riferimento
riferirse
riferise
rifiuta
riflesion
riflesso
riflete
riforma
riforme
riformista
rift
rifugio
rig
riga
righe
righeira
right
rights
rignac
rignano
rigny
rigo
rigor
rigord
riguarda
riguardanti
riguardi
riguardo
rii
rileto
rilievo
rilly
rima
rimane
rimarca
rimarco
rime
rimedio
rimini
rin
rinaldo
rinasimento
ring
ringrazia
ringrazio
rinova
rio
riofri
rioja
riosa
ripete
ripeto
ripoli
riporta
riposo
ripreze
riprodusion
ris
risa
risada
risale
risałe
rischio
rise
riserca
riserche
riserva
riserve
riseve
risevesto
risevu
risi
risle
riso
risolto
risorgimento
risorsa
risorse
risołusion
risparmio
rispe
rispeta
rispetar
rispetivamente
rispeto
rispetto
risponde
rispondo
risposta
risposte
risposto
risso
ristoro
risulta
risultai
risultati
risultato
rita
ritardo
ritegneste
ritegnu
riti
ritien
ritira
ritirarse
ritiro
ritmo
rito
ritorna
ritorno
ritrato
ritratti
ritratto
ritrova
ritter
riuni
riunion
riusi
riusio
riva
rivada
rivae
rivai
rival
rivando
rivar
rivara
rivarda
rivare
rivava
rivałe
rivałita
rive
river
rivera
riverenza
riveła
rivie
riviera
rivista
rivo
rivolta
rivolusion
rivoluzione
rivołusion
rivołusionario
rixo
rixolusion
rixulta
rixultato
riyad
rizo
rizzi
rizzo
rizzoli
riłievi
rlo
rm
rma
rmani
rmano
rmaro
rme
rmena
rmene
rmeno
rmine
rmo
rmuła
rn
rna
rni
rno
ro
roa
roach
road
rob
roba
robar
robba
robe
robert
roberta
roberto
roberts
robin
robinson
robledo
robot
robusti
robusto
roc
roca
rocca
rocchetta
rocco
roce
rocha
roche
rochefort
roches
rochette
rocia
rock
rockol
rocky
roco
rod
roda
rodano
rode
rodi
rodolfo
rodonda
rodondada
rodri
rodrigo
rodriguez
roe
roger
rogerebert
rogers
rogna
rohr
rohrbach
roi
roine
rois
roland
rolando
role
roll
rolling
rolo
rom
roma
romagna
romagnir
romagnoło
romain
roman
romana
romance
romane
romani
romania
romano
romans
romanxo
romanze
romanzi
romanzo
romase
romaxe
rome
romeo
romero
romolo
rompe
romper
ron
ronald
ronaldo
ronco
ronpesto
room
roosevelt
roque
roquefort
rorschach
ros
rosa
rosada
rosario
rose
rosega
roses
rosi
rosie
rosina
rosita
rosmarin
roso
rosoneri
ross
rossa
rosse
rossi
rossini
rosso
rossor
rosti
rosto
rostock
rota
rotasion
rote
roth
roti
roto
rotonda
rotta
rotte
rotterdam
rotto
rotura
rouffiac
rouge
roussillon
routledge
rouvray
rouvres
rouvroy
rover
rovere
roveredo
roversa
roverso
rovigo
rovina
rovine
roxa
roy
royal
royans
roye
roza
roze
rołi
roło
rpo
rs
rsa
rse
rsega
rsego
rsio
rsito
rso
rss
rstenfeld
rstetten
rt
rta
rtaro
rte
rtego
rtf
rti
rtire
rtiri
rtl
rto
rttemberg
ru
rua
ruanda
rubin
rubini
rubio
ruda
rudolf
rue
ruff
ruffian
ruffiana
ruffiani
rufina
rugby
ruggeri
ruggero
rum
rumatera
rumen
rumor
rumore
run
running
ruolo
ruota
ruoło
rupt
rural
rurałe
rurałi
rusa
rusceli
ruse
rush
rusi
rusia
ruso
russa
russell
russia
russo
rusteghi
rustico
ruzante
rve
rxene
ry
ryan
rz
rzar
rzene
rzeni
rzzuschlag
s
sa
saanen
saba
sabani
sabatini
sabato
sabia
sabina
sabine
sabino
sabo
sac
saca
sacco
sacerdote
sacerdoti
saco
sacra
sacramenti
sacramento
sacre
sacri
sacrifizio
sacro
sae
saete
saga
saggi
saggio
sagoma
sagra
sagredo
sagremor
sahara
saharawi
sahel
sai
sailly
sains
saint
sainte
saints
sal
sala
salaam
salamanca
salario
salata
salce
salda
saldi
saldo
sale
salem
salemme
salernitana
salerno
sales
salesiana
salgari
sali
salinas
salle
salles
salo
salon
salsa
salt
salta
saltando
saltar
salti
salto
saluda
saludar
salude
saludo
saluta
salute
salva
salvadego
salvador
salvar
salvatierra
salvatore
salve
salvi
salvia
salvo
salzburg
sam
samarco
same
samesa
samese
sami
samoa
sampdoria
samson
samsung
samuel
samuele
san
sana
sanca
sancho
sanco
sancta
sancti
sandra
sandro
sane
sangue
sani
sanita
sankt
sannio
sannita
sano
sanremo
sansion
sansoni
sansovino
sansuga
sant
santa
santana
sante
santerre
santi
santiago
santiba
santiebeati
santissimo
santita
santo
santolo
santos
santuario
sanudo
sao
saon
saor
sape
saper
sapere
sapete
sapeva
sapi
sapia
sapiate
sapie
sapiens
sapiente
sapienti
sapienza
sapore
sappia
sappie
sapudo
sar
sara
sarada
sarae
saragosa
sarah
sarai
saraini
sarajevo
saranno
sarave
sarda
sardegna
sardo
sare
sarea
sarebbe
saremo
sarfatti
sarghe
sari
saria
sarine
sarno
saro
sars
sarse
sarthe
sartori
sas
sasari
sasi
sasina
saso
sasonia
sass
sassi
sassin
sassina
sasso
sassonia
sassuolo
sastu
sate
satełite
satira
satire
satirico
sativa
satriani
saturday
saturnin
saturno
sau
sauber
saudi
saudia
sault
saulx
sauris
sauveterre
sauveur
savana
savane
save
savea
savemo
savendo
saver
savera
saverave
savere
saverio
savero
savesse
savessi
savesto
saveu
saveva
savi
savia
saviezza
savignac
savigny
savii
savinjska
savio
savj
savoia
savoja
savona
savu
say
sayago
sazio
sała
sałara
sałe
sałerno
sałi
sałisburghexe
sało
sałon
sałute
sbalia
sbalza
sbandona
sbara
sbarca
sbasa
sbasar
sbasi
sbassa
sbate
sboco
sbora
sborar
sborio
sboro
sbrega
sbrego
sbrissa
sbusa
sc
sca
scachi
scachiera
scaco
scaduto
scagno
scala
scalda
scaldar
scale
scalini
scaltro
scambio
scamozzi
scampa
scampar
scampo
scan
scanbi
scanbio
scandi
scandicci
scanner
scanpa
scanpar
scapa
scapar
scar
scara
scarlett
scarpa
scarpe
scarperia
scarpia
scarsa
scarse
scarsela
scarsele
scarsella
scarsi
scarso
scartamento
scati
scatola
scava
scavi
scała
scałada
scałe
scelta
scelte
scelto
scena
scene
sch
scha
sche
scheda
schede
schei
scheibbs
schema
schemi
schena
schengen
scheo
scherma
schermada
schermo
scherzar
scherzi
scherzo
schi
schiamazzo
schiava
schiavi
schiavo
schiavoni
schiera
schieta
schieto
schietto
schina
schio
schiopo
schivar
schizza
schmidt
schneider
scho
scholia
school
schott
schu
schudieri
schumacher
schwaz
sci
scia
sciavi
scie
science
sciences
scientific
scienza
scienze
scio
sciopa
scipione
sco
scoa
scola
scolaro
scole
scolo
scolpi
scolta
scoltar
scomenza
scometo
scominsi
scominsia
scominsiar
scominsio
scominzia
scomisia
sconde
sconder
sconderse
scondo
scondon
sconfita
sconfito
sconfize
sconfizesta
sconfizesto
sconosciuto
sconosesta
sconosesto
sconta
sconte
sconti
sconto
scontra
scontri
scontro
scoperta
scoperto
scopi
scopo
scorda
score
scorpions
scorsa
scorso
scorta
scosexe
scosezi
scosia
scota
scotch
scotland
scott
scotti
scoverta
scoverto
scovi
scovo
scozia
scoła
scołari
scołe
scoło
screen
scri
script
scripts
scrisse
scrita
scrite
scriti
scrito
scritor
scritora
scritore
scritori
scritta
scritte
scritti
scritto
scrittore
scrittori
scrittura
scritura
scriture
scriva
scrivar
scrivare
scrive
scrivendo
scriver
scrivere
scrivesta
scriveste
scrivesti
scrivesto
scriveva
scrivia
scrivo
scroa
scrovegni
scrupolo
scua
scuadra
scuadre
scuaxi
scuazi
scuderia
scudeti
scudeto
scudho
scudi
scudier
scudieri
scudo
scultor
scultura
sculture
scumi
scuminsia
scuminsio
scumisia
scumisio
scuola
scuole
scura
scure
scuri
scuro
scursa
scursamento
scurta
scusa
scuse
sd
sdegni
sdegno
se
sea
seagal
sean
seap
search
season
seattle
sebastia
sebastian
sebastiano
seben
sebenego
sec
seca
secada
secar
secco
secesion
seche
sechi
sechondo
seco
secoli
secolo
second
seconda
secondaria
secondi
secondo
secont
secorsso
secołi
secoło
secret
secreta
secreti
secreto
section
secuensa
security
sed
seda
sede
sedere
sedese
sedexe
sedi
sedia
sedie
see
seeland
sega
seghe
seghi
segna
segnal
segnali
segnar
segnała
segnałe
segnałi
segni
segnior
segno
segnor
segnoria
sego
segonda
segondo
segovia
segreta
segretario
segreteria
segreti
segreto
segue
seguendo
seguente
seguenti
segui
seguia
seguio
seguir
seguita
seguitar
seguito
segunda
segura
seguramente
seguramentre
seguresa
seguri
seguro
sei
seille
seine
seita
sel
sela
self
sella
selle
selo
selta
selva
selvatico
selve
sem
sema
sembra
seme
semena
semenza
semi
seminario
semio
semisarada
semiverta
semo
semper
sempio
semplice
semplicemente
semplici
sempre
sen
sena
senado
senador
senato
senator
senatore
senatori
senc
sendo
sene
senegal
senejador
senejadura
senestra
senio
senja
senna
senno
seno
senplegamente
senplice
senplicemente
senplise
senplisemente
senpre
sens
sensa
sensasion
sense
sensi
senso
sensore
sent
senta
sentada
sentai
sentar
sentarse
sente
sentenari
sentensa
sentenza
senti
sentia
sentieri
sentimenti
sentimento
sentimetri
sentimo
sentindo
sentio
sentir
sentira
sentire
sentiremo
sentirse
sentiva
sento
sentra
sentrafricana
sentral
sentrale
sentrałe
sentrałi
sentrałin
sentri
sentro
senz
senza
seo
seon
seondo
sepa
separa
separada
separae
separai
separasion
sepełi
sepolcro
sepolto
sepoltura
september
septiembre
sequel
ser
sera
serada
serar
serata
serave
serba
serbi
serbia
serbo
serca
sercando
sercar
sercava
sercio
sere
sereałi
seremo
seren
serena
sereni
serenisima
serenissima
serenissimo
sergio
seri
seria
seriamente
serie
series
serimo
serimonia
serino
serio
serni
sernin
sero
serpente
serpenti
serra
serravalle
serre
serres
sert
serta
serte
serti
sertifega
serto
serv
serva
serve
servente
serventi
server
serveło
servi
servia
service
services
servida
servido
servidor
servio
servir
servire
servirla
serviro
servisi
servisio
servitor
servitore
servitori
servitu
serviva
servizi
servizio
servo
ses
sesanta
sesion
seso
sess
sessa
sessanta
sesso
sesta
sesti
sestie
sestier
sestin
sesto
sesuałe
set
seta
setanta
sete
setemana
setemane
setembre
setenbre
setentrional
setentrionałe
setentrionałi
setesento
seti
setima
setimana
setimanałe
setimane
setimo
seto
setor
setore
setori
sette
settembre
settima
settimana
settimo
seu
seul
seulles
seven
sevente
seventi
severino
severo
sevija
sevita
sevito
sex
sexy
seychelles
sezion
sezione
seła
sełebra
sełebrasion
sełebre
sełesion
sełułare
sfadiga
sfera
sfesa
sfida
sfoga
sfogar
sfogo
sfondo
sforsi
sforso
sfortuna
sforza
sforzi
sforzo
sfruta
sfrutamento
sfrutar
sg
sgen
sgionfa
sgrinfe
sgu
sguardo
sguazzo
shadow
shaka
shakespeare
shakira
shanghai
share
sharon
shaw
shdi
she
sheeran
shop
shore
short
show
shtml
shuttle
si
sia
siam
siamo
siando
siano
siar
sibe
siben
siberia
sibi
sic
sica
siccome
siche
sici
sicilia
siciliana
siciłia
siclo
sico
sicome
sicomo
sicura
sicuramente
sicuresa
sicuri
sicuro
sicut
side
sidi
sidney
sido
sie
siede
siego
sielta
sielto
siena
sieno
siensa
siense
siensiai
siensiato
sienti
sientifega
sientifego
sientifico
sier
siera
sierra
sierre
siestu
siete
sieu
sieve
sieło
sifre
sig
siga
sigla
sign
signa
signature
signi
signifega
signifegai
significa
significato
signior
signioria
signor
signora
signore
signori
signoria
signy
sigo
sigourney
sii
sil
sile
silent
silenzio
silly
silv
silva
silvano
silver
silvestra
silvestri
silvestro
silvia
silvio
sima
simbolo
simboło
sime
simel
simenta
simi
simile
simili
simitero
simiłar
simiłare
simiłari
simiłe
simiłi
simmons
simo
simon
simone
simonelli
simply
simtek
simul
sin
sina
sinatra
sinbo
sinbolo
sinbołi
sinboło
sincera
sincerita
sincero
sincuanta
sincue
sincuesento
sindaco
sine
sinema
sinematogra
sinematografega
sing
singapore
singer
singh
single
singles
singolar
singolare
singoli
singolo
singołar
singołare
singołi
singoło
singoƚare
sinistra
sino
sinonimo
sinque
sint
sintagma
sinte
sio
sion
sior
siora
siore
siori
sioria
sioła
sipa
sipia
sipro
sir
siracuxa
sirca
sirconda
sircołasion
sircuito
sire
siri
siria
sirmia
siro
sirocho
siroco
sis
sisak
sisma
sissach
siste
sistema
sistemada
sistemi
sister
sisto
sit
sita
sitade
sitadeła
sitadin
sitadina
sitadinansa
sitadine
sitadini
sitcom
site
sites
siti
sitioweb
sito
situa
situada
situasion
siuri
sive
sivile
sivilta
siviłe
siviłi
six
size
siłe
siłi
ska
skardy
skretwedt
sky
sl
slansa
slarga
slargar
slava
slave
slavery
slavi
slavo
slavonia
slonga
slontana
slova
slovachia
slovaco
slove
sloven
sloveni
slovenia
sloveno
slow
sluse
sm
small
smania
smanie
smara
smaridi
smarido
smart
smartphone
smer
smeraldina
smile
smisia
smissioto
smith
smorfie
snapdragon
snia
snow
snyder
so
soa
soap
soave
sobre
soc
soceta
soci
social
sociale
sociali
socialismo
socialista
sociałe
sociałi
sociałismo
sociałista
sociałisti
societa
society
socio
soco
socorso
socrate
soda
sodalitium
sodisfa
sodisfar
sodo
soe
soeo
sofa
soferto
soffrir
sofi
sofia
sofita
sofito
sofre
sofrir
software
sogeti
sogeto
soggetto
sogna
sogni
sogno
soi
soiusa
sojeti
sojeto
sol
sola
solac
solamente
solamentre
solana
solar
solazzo
solche
sold
solda
soldadi
soldai
soldati
soldato
soldi
soldo
sole
soler
soleta
soleto
soletto
soleva
soli
solita
solitamente
solitaria
solitario
soliti
solito
sollo
solo
sologne
soltanto
solusion
solve
soma
somalia
some
somegia
somegie
someja
somejansa
somejante
someje
something
somma
somme
sommo
somo
son
sona
sonada
sonando
sonar
sonare
sonava
sonda
sondrio
sone
soneti
soneto
sonetti
sonetto
song
songio
songs
soni
sonno
sono
sonora
sonore
sonori
sonorita
sonoro
sons
sony
soo
sopa
sophie
sopra
soprano
sopranomina
sopresion
sopreso
sor
sora
sorabito
soranome
soranomena
soranomina
soranzo
sorasta
soratuto
sorbeti
sorbio
sorda
sordi
sordo
sore
sorela
sorele
sorella
sorelle
soreła
sorge
soria
soriso
sorisole
sormonta
sorpasa
sorprendente
sorpresa
sorpreso
sorrisi
sort
sorta
sorte
sorti
sortive
sorze
sorzi
sos
sosiałe
sosieta
sospension
sospeto
sospetto
sospira
sospirar
sospiri
sospiro
sostansa
sostanse
sostansialmente
sostantivo
sostanza
sostegni
sostegno
sostegnu
sostien
sostitui
sostituio
sostituir
sostituise
sostitusion
sot
sotil
sotillo
soto
sotofameja
sotogrupi
sotomarin
sototi
sotto
sottoriva
soul
sound
source
sous
south
southern
sovie
soviet
sovra
sovran
sovrana
sovrani
sovranita
sovrano
soy
soła
sołare
sołe
sołeta
sołi
sołista
sołitamente
sołito
soło
sołudo
sołusion
sp
spa
spaca
space
spada
spade
spadha
spadhe
spagna
spagno
spagnol
spagnola
spagnoli
spagnolo
spagnoła
spagnołe
spagnołi
spagnoło
spal
spala
spalanca
spale
spalle
spandau
spande
spanja
spanjoła
spanjoło
spanto
spara
sparagna
sparagnar
sparagno
spari
spario
sparir
sparpagna
sparsi
sparso
sparta
sparti
spartision
spasemi
spasemo
spasi
spasiałe
spasiałi
spasio
spassi
spassio
spasso
spaventa
spavento
spazio
spała
spałatin
spałe
spd
spe
speaker
spears
spec
specchio
spece
spechio
speci
specia
special
speciale
speciali
specialmente
speciałe
speciałi
specie
species
specificato
specifico
specio
speculative
spedision
spencer
spende
spender
spendo
spenta
spente
spento
spenze
spera
speranc
sperando
speransa
speranza
speranze
sperar
sperava
sperimentałe
spero
spes
spesa
spesalmente
spese
spesi
spesialmente
spesiałe
spesiałi
spesie
spesifega
spesifegada
speso
spesor
spess
spesse
spesso
speta
spetacolo
spetacołi
spetacoło
spetadori
spetando
spetar
spetatori
spetava
spetro
spettacolo
spexa
spexe
speze
spezia
spezialmente
spezie
sphagnum
spi
spia
spiagia
spiaja
spianta
spiantai
spica
spice
spiega
spiegar
spiegasion
spiegazione
spielberg
spiere
spiga
spin
spina
spine
spini
spinto
spira
spirit
spiriti
spirito
spiritosa
spiritoso
spiritual
spirituale
spironi
spita
spittal
splendor
spo
sponda
sponde
sponsor
sponta
spontar
spor
sporca
sporche
sporco
sport
sporta
sportiva
sportive
sportivo
sporze
sposa
sposada
sposalizio
sposar
spose
sposi
sposo
sposta
spostamento
spot
spoxa
spoza
spring
springsteen
spropositi
spua
spuar
spunta
sputnik
spuzza
squadra
squadre
square
squasi
squaxi
squero
sr
sri
srl
srv
ss
ssa
ssar
ssare
sse
ssi
ssimo
ssing
sso
ssweb
st
sta
staat
stabia
stabile
stabili
stabilio
stabiłi
stabiłimento
stabiłio
stabiłir
stabiłise
stabiłita
staca
stada
stade
stadho
stadi
stadio
stadium
stado
stadunitense
stae
staedte
staedtetag
staff
staga
stagando
stage
stagion
stagione
stagioni
stagno
stago
stai
stajon
stala
stalin
staltra
staltre
staltri
staltro
stamatina
stamattina
stame
stampa
stampati
stampe
stamperia
stampo
stan
stanca
stand
standard
stando
stanley
stanno
stano
stanpa
stanpo
stansa
stanse
stante
stanza
stanze
stao
staol
star
stara
starave
stare
staremo
starghe
stari
staro
stars
starsky
stasera
stasion
stasse
stassera
stat
stata
statałe
statałi
state
states
stati
station
statista
statistega
statisteghe
statistica
statistiche
statistics
statistik
statistiken
statistiques
statistisches
stato
stats
statua
statudo
statue
statunite
statunitense
statunitensi
statura
status
statuti
statuto
stava
stavolta
staxo
staxon
stazion
stazon
ste
stefan
stefania
stefano
stega
steghe
steghi
stego
steiermark
steinbach
stela
stele
stella
stelle
stema
steme
stemma
stemo
sten
stende
steno
stenta
stenti
stento
step
stephen
steri
sterline
sterreich
stes
stesa
stese
stesi
steso
stessa
stesse
stessi
stesso
stete
steva
steve
steven
stevens
stewart
steyr
steła
stełe
sti
stia
stica
stie
stienta
stil
stile
still
stiller
stilo
stima
stimada
stimana
stimane
stimar
stimava
stime
stimo
sting
stio
stiria
stizza
stiłe
stiłi
sto
stocolma
stolidi
stolido
stomego
stone
stones
stop
store
storega
storegamente
storeghe
storeghi
storego
storia
storica
storicamente
storiche
storici
storicizzato
storico
storie
stories
storiografia
storno
storta
storte
storto
story
stoughton
stołi
stoło
stra
straca
stracca
stracco
straco
strada
stradałe
strade
strage
stragno
straje
stramba
strana
strani
stranie
straniera
stranieri
stranio
strano
straordinaria
straordinario
strapazza
strapazzar
strapazzo
strasburgo
strate
strati
strato
stratocaster
strazza
strazze
strazzo
stre
streaming
street
strega
strenze
strepito
streta
stretamente
strete
streti
streto
stretta
stretto
stri
stria
strica
striga
strisa
striscia
strisia
stro
strofe
stropa
struca
strume
strumentałe
strumenti
strumento
strussia
strussie
strutura
struture
stu
stua
stuart
studente
studenti
studi
studia
studiando
studiar
studiare
studies
studio
studios
studiosi
studioxi
studiozi
study
stufa
stufen
stuffa
stufo
stupido
stupinigi
stupisso
stupor
stupori
stuzzega
stuzzicato
style
su
sua
sub
subi
subio
subise
subitamente
subitamentre
subito
subject
sublime
subsp
suc
suca
sucaro
succede
successo
suce
sucede
sucesi
sucesion
sucesiva
sucesivamente
sucesive
sucesivi
sucesivo
suceso
sucesor
sucesso
suche
sud
suda
sudafrica
sudafricana
sudan
sudest
sudivide
sudividesta
sudivixion
sudivizion
sudoriental
sudorientałe
sudosidental
sudovest
sue
suez
suff
sufisi
sufiso
sufrajo
sufrir
suga
sugar
suggizion
sugo
sui
suicida
suite
suito
sul
sula
sule
sull
sulla
sulle
sullo
sully
sulpice
sultan
sum
suma
sumatra
summa
summary
summer
summit
sumus
sun
suna
sunny
sunt
suo
suoi
suol
suomi
suona
suoni
suono
suor
suore
suori
supanija
supara
suparior
supe
super
supera
superar
superba
superbia
superbo
supercopa
superfic
superfice
superficie
superfise
superfisie
superior
superiore
superiori
supia
suplica
suporta
suporto
support
supra
suprema
supremo
sur
suriname
sursee
survey
sus
susa
susan
susiste
suso
sussuri
sussuro
susta
suta
suto
suxo
suzanne
suzo
suła
sułe
sv
sve
sved
svedese
svedexe
svedeze
svegia
sveia
svelta
svelto
svesia
sveti
svezia
svg
svi
svilupa
svilupo
sviluppo
svisara
svisaro
svisera
svisero
svito
svizzera
sviłupa
sviłupo
svo
svoboda
svoda
svola
svolar
svolge
svolo
svolta
svolto
swahili
swaziland
sweet
swing
sy
sydney
sylvester
sylvestre
symphorien
system
t
ta
tab
tabacco
tabaco
tabaro
tabarro
tabeła
table
tables
tablet
tac
taca
tacada
tacai
tacando
tacar
tacca
taco
tag
tagia
tagiar
tagio
tagliapietra
tai
taia
taipei
taiwan
taja
tajamento
tajan
tajar
tajo
tajun
take
tal
tale
talent
talenti
talento
tales
tali
talia
talian
taliana
taliani
talk
talmente
talpa
talvolta
tam
tamburo
tamen
tamentre
tan
tana
tanaka
tang
tanganica
tant
tanta
tante
tanti
tantin
tanto
tanzania
taolin
tapa
tape
tar
tara
tarantino
taranto
tarda
tardi
tardo
tare
taren
targa
targhe
tari
tarlo
tarn
taro
tarragona
tarse
tartana
tartari
tartaro
tas
tasa
tasca
tase
taser
tasi
taso
tasonomia
tasso
tasti
tastiera
tastiere
tastierista
tasto
tata
tati
tavarnelle
tavola
tavolino
taylor
tałe
tałento
tałi
tałian
tałiana
tałiani
tałjan
tbilisi
te
tea
teach
team
teatrałe
teatrałi
teatri
teatro
teau
teauneuf
teaux
tebe
technology
tecia
tecneghe
tecnica
tecniche
tecnico
tecnologia
tecnoloxie
tecnoło
tecnołozia
ted
tede
tedesca
tedeschi
tedesco
teenage
tega
teghe
teghi
tegna
tegnar
tegne
tegnendo
tegner
tegnesto
tegneva
tegni
tegnir
tegniva
tegno
tegnu
tegnuo
tego
tehran
tei
tel
tela
tele
telefoni
telefono
telegatto
telegraph
teleme
telet
televisio
television
televisione
tell
tema
teme
temerario
temi
temo
tempesta
tempi
tempio
temple
tempo
tempus
ten
tenay
tenco
tenda
tende
tendensa
tendense
tender
tene
tenebre
tenente
tener
tenera
tenere
tenerezza
tenerife
tenero
tenin
tenju
tennessee
tenois
tenor
tenore
tenp
tenpera
tenperadura
tenperadure
tenperatura
tenperature
tenpesta
tenpi
tenpio
tenpo
tenporaneamente
tension
tenta
tentar
tentativi
tentativo
tento
tenue
teo
teodo
teodoro
teorema
teoria
teorie
teplice
ter
tera
teraferma
teramo
teramoto
terapia
tere
teremoto
teren
tereni
tereno
teresa
terestre
terestri
teri
teribile
terito
teritori
teritoriałe
teritoriałi
teritorio
terme
termena
termene
termina
terminada
terminar
termine
termini
terni
terno
tero
teror
terori
teroristego
teroristi
terra
terranova
terre
territoriale
territorio
terror
terry
tersa
tersi
terso
teruel
terza
terzo
tes
tese
tesi
tesiłi
tesori
tesoro
tessmann
tessudi
test
testa
testamento
teste
testi
testimoni
testimonia
testimonial
testimoniansa
testimonianse
testimonio
testo
tesu
tesuti
tete
teti
teto
tette
tewahedo
texas
texi
texoro
text
teze
tezi
tezoro
teła
tełe
tełecomunicasion
tełefilm
tełefo
tełefonego
tełefonia
tełefono
tełesco
tełevixion
tełevixiva
tełevixive
tełevixivi
tełevixivo
tełevizion
tełeviziva
tełevizive
tełevizivi
tełevizivo
tft
tg
tgcom
th
thal
than
that
thaya
the
theater
theatre
thecommonwealth
their
thelle
theo
theodor
theodore
theory
therava
there
they
thie
thiene
thierstein
thil
thing
things
this
tho
thomas
thompson
thomson
thousand
three
thriller
through
thu
thun
thunberg
ti
tiberio
tibet
tibi
tica
tiche
tici
ticino
tico
tie
tien
tiene
tienne
tiepolo
tifosi
tifoxi
tignir
tigniva
tignudo
tigny
tigre
tigri
til
till
tille
tillon
tilly
tim
tima
time
times
timo
timon
timor
tin
tina
tinais
tine
tinelo
tinpano
tinpi
tintoretto
tio
tiol
tiole
tiolto
tior
tiorlo
tip
tipegamente
tipi
tipica
tipici
tipico
tipo
tipografia
tira
tirada
tiran
tirana
tirando
tirano
tirar
tirava
tire
tiren
tireno
tirete
tiri
tiro
tirol
tiroło
tis
tisian
tisin
tissot
tit
tita
titanic
title
tito
titoli
titolo
titołi
titoło
titta
tiziano
tiłe
tiłi
tn
to
toa
tobago
toc
toca
tocar
tocca
toccar
tocco
toche
tocheto
tochi
toco
tod
todaro
today
todd
tode
todero
todesca
todesch
todesche
todeschi
todesco
todi
todo
toe
tof
toffolo
toga
toggenburg
tognazzi
tognon
tognoto
togo
toi
tokyo
tol
tola
tole
toledo
toli
tolo
tolse
tolsse
tolta
tolte
tolti
tolto
tom
toma
tomaso
tomatoes
tomba
tombola
tombolon
tome
tomi
tommaso
tomo
ton
tona
tonałita
tonba
tonbe
tonda
tondi
tondo
tone
tonełae
tonga
toni
tonight
tonin
tonina
tonino
tono
tony
too
top
topic
topo
topogra
topolino
tor
tora
torcy
tordina
tordinoti
tore
torente
torenti
tori
torin
torinese
torino
torismo
tormenta
tormentar
tormenti
tormento
tormes
torna
tornada
tornado
tornai
tornando
tornar
tornara
tornare
tornasse
tornatore
tornava
torne
tornei
tornemo
torneo
tornera
tornero
torni
torniamento
torno
toro
toronto
torralba
torre
torrecilla
torres
torricella
torse
torta
torte
torti
torto
tortora
tortura
tosa
tosc
tosca
toscan
toscana
toscani
toscano
tose
tosi
toso
tosse
tossego
tosto
tot
total
totale
totalmente
totałe
totałita
totl
toto
touch
tour
touraine
touring
tourism
tourne
tours
tourville
touteleurope
town
toxa
toxo
toy
toyota
toza
tozi
tozo
tozzi
toła
tołe
tołesto
tołi
toło
tr
tra
trabuto
trace
tracia
track
tracy
trad
trade
tradimenti
tradimento
trading
tradir
tradision
tradisional
tradisionali
tradisionalmente
tradisionałe
tradisionałi
tradisionałisti
traditor
tradixional
tradizion
tradizione
tradoto
tradotte
tradusion
traduzion
traduzione
traersa
traerso
traesto
trafego
trafico
tragedia
tragheto
train
tram
trama
tramite
tramontana
tramonti
tramonto
trani
tranquilo
trans
transatla
transeto
transfermarkt
transpadana
tranx
trapani
trar
trasa
trascrision
trascrito
trase
trasferi
trasferimento
trasferio
trasferirse
trasferise
trasforma
trasformasion
trasion
trasl
trasmesa
trasmeso
trasmetesta
trasmision
trasporta
trasportar
trasporti
trasporto
trasse
trastulo
trata
tratado
tratai
tratamento
tratar
tratati
tratative
tratato
tratava
trate
trati
trato
trator
tratta
trattar
trattato
tratti
tratto
trau
travers
traversa
traversada
traversar
traverso
travi
travolta
traxmision
traze
trazmision
tre
treaty
treccani
tredexe
tree
trega
treghe
trego
trema
tremar
tremenda
tremendo
tremo
tren
treni
treno
trent
trenta
trentin
trentina
trentino
trento
tres
tresenta
tresento
treviglio
trevisan
treviso
trevixan
trevixo
trevizo
trexento
tri
tria
triangoło
tribu
tribuna
tribunal
tribunale
tribunałe
tribunałi
tributo
tridentina
trie
trieste
triestin
triestina
triestino
trinidad
trinita
trinite
trio
trionfa
trionfo
triplo
tripoli
tripołi
trissino
trista
tristan
triste
tristezza
tristi
tristo
triticum
trivixan
tro
troi
troia
trois
troja
tromba
trombe
tron
tronca
troncheto
tronco
trono
tronto
tropegałe
tropical
tropicale
tropo
troppa
troppo
troso
trota
troto
trova
trovada
trovado
trovando
trovandose
trovano
trovar
trovara
trovare
trovarlo
trovarme
trovarse
trovaso
trovasse
trovava
trove
trovemo
trovera
trovere
trovero
trovi
trovo
tru
true
truff
truman
trump
truova
trupe
trust
ts
tsunami
tt
tten
ttigau
tto
tu
tua
tube
tubi
tubo
tucson
tue
tui
tullio
tulln
tulo
tun
tunisia
tunixi
tunixia
tunizia
tuo
tuoi
tuor
turba
turca
turchi
turchia
turco
turgovia
turi
turin
turismo
turisti
turistica
turistico
turixmo
turkana
turkmenistan
turner
turno
tut
tuta
tutavia
tute
tuteła
tuti
tutiquanti
tuto
tutocio
tutor
tutora
tutsi
tutt
tutta
tuttavia
tutte
tutti
tuttitalia
tutto
tułi
tuło
tv
twitter
two
txt
ty
type
tyrrell
tz
u
ua
uab
ubaldo
ubi
ucm
ucra
ucraina
ucraino
ud
uda
udienza
udine
udinese
udo
ue
uefa
uela
uem
ufficiale
ufficio
ufic
uficial
uficiale
uficialmente
uficiałe
uficiałi
uficio
ufisalmente
ufisałe
ufisałeayto
ufisałecomune
ufisałeecb
ufisałegov
ufisałi
ufisi
ufisial
ufisialmente
ufisiałe
ufisiałi
ufiso
ufizio
uganda
ugnoło
ugo
ugual
uguali
uh
ui
uk
ulan
ulrich
ultema
ultemi
ultemo
ultima
ultime
ultimi
ultimo
ultra
um
uman
umana
umane
umani
umanita
umano
umbertian
umberto
umbria
umgebung
umidita
umido
umilissimo
umilta
umor
umts
umwelt
un
una
unco
uncora
uncuo
und
unde
under
undexe
undez
undp
une
unego
unesco
unga
ungareze
ungaria
ungheria
uni
unia
unica
unici
unico
unicode
unida
unie
unifica
unii
unio
union
unione
unir
unirse
unise
unisse
unit
unita
unite
united
uniti
unito
units
univarsita
universal
universale
universałe
universe
universidad
universidade
universita
universitari
universitario
university
universo
unix
unlimited
uno
uns
uom
uomini
uomo
up
uploads
upon
upu
ur
ura
uradni
uragan
uranio
urban
urbana
urbane
urbani
urbanisation
urbano
urbin
urfahr
uri
url
urlarchivo
uro
urp
urss
urta
uruguai
uruguay
us
usa
usada
usando
usanza
usanze
usar
usare
usava
usb
uscita
use
usgs
usi
usida
uso
usque
uss
usso
usto
ustria
usura
ut
uta
utah
utc
utente
utenti
uti
utile
utilita
utilixa
utiłixa
utiłixo
utiłiza
utrecht
utro
utuno
uva
uvułare
uxa
uxando
uxanza
uxar
uxi
uxo
uxuari
uxuario
uza
uzbekistan
uze
uzo
v
va
vaast
vaca
vacansa
vacante
vacanza
vacanze
vacca
vache
vada
vadagna
vadagnar
vadagno
vado
vaga
vagabondo
vaghe
vaglia
vago
vai
vajo
val
vala
valdagno
valdarno
valdavia
vale
valence
valencia
valente
valenti
valentin
valentine
valentino
valer
valeria
valerio
valeto
valeva
valido
vall
valladolid
valle
valley
vallo
vallon
valls
valmarana
valo
valois
valor
valore
valori
vals
valsugana
valtri
value
valverde
valvoe
van
vancouver
vandia
vane
vanessa
vangelo
vani
vanita
vannes
vanno
vano
vansa
vanta
vantagio
vantajo
vantar
vanti
vanto
vanuatu
vanxeło
vanzeło
vanzina
vao
vapor
vapore
vapori
var
vara
varaxdin
varda
vardando
vardano
vardar
vardare
vardava
varde
vardo
vare
varennes
varese
varexe
vari
varia
variansa
varianse
variante
varianti
variar
variasion
varie
varieta
variety
vario
varo
varotari
varsa
varsavia
varse
varsion
vas
vasca
vasco
vasi
vasin
vaso
vasta
vasto
vate
vategan
vatican
vaticano
vaucluse
vaud
vaudois
vaux
vavasor
vałe
vałensia
vałexe
vałi
vałor
vałore
vałori
vałuta
vałutasion
vc
ve
vea
vec
vecchi
vecchia
vecchie
vecchio
vecchj
vece
vecellio
veceti
vechi
vechia
vechie
vechio
veci
vecia
vecie
vecio
veda
vedando
vedar
vedara
vedare
vedaremo
vede
vedea
vedemo
vedendo
veder
vedera
vedere
vederemo
vederla
vederme
vederte
vedesse
vedessi
vedesta
vedesto
vedeu
vedeva
vedi
vedo
vedoa
vedova
veduta
veduto
veere
vega
vegando
vegas
vegia
vegna
vegnara
vegne
vegnea
vegnendo
vegner
vegnera
vegnere
vegnese
vegnesta
vegnesti
vegnesto
vegneva
vegni
vegnia
vegnimo
vegnir
vegnira
vegnire
vegniro
vegnisse
vegniva
vegno
vegnu
vegnua
vegnuda
vegnudi
vegnudo
vegnui
vegnuo
vego
vei
veicołi
veit
vel
vela
velada
vele
velen
veli
velilla
velle
velo
velocita
ven
vena
venda
vende
vendegar
vendendo
vender
vendesti
vendesto
vendeta
vendetta
vendicato
vendita
vendite
venditti
vendo
vendramin
vendu
venduo
vene
venera
venerdi
venere
venesia
venesian
venesiana
venesiane
venesiani
venessia
venesueła
veneta
venete
veneteghi
veneti
venetia
venetiana
veneto
venexia
venexian
venexiana
venexiani
venezia
venezian
veneziana
veneziane
veneziani
veneziano
venezuela
venga
vengono
veni
venice
venier
venieresca
veniero
veniesia
veniexia
venir
venire
venite
veniva
venjara
venjesto
venjiva
venju
venne
veno
venosta
vent
venti
ventiquattro
vento
ventre
ventura
venture
venudo
venuta
venuto
vequio
ver
vera
veramente
verasiamente
verasiamentre
verband
verbano
verbałe
verbi
verbo
verc
vercellese
vercors
verde
verdi
verdo
verdon
verdone
verdun
verdura
verdure
vere
verghe
vergine
vergogna
vergognado
vergogno
vergoncia
verheyen
veri
verifega
verifica
verita
veritade
veritae
verite
verlag
vermegio
vermeio
vermi
vermont
verna
vernacola
vernacolo
vernet
verneuil
vernon
vero
verona
veronese
veronesi
veronexe
veronexi
veroneze
veronica
verra
verrie
vers
versa
versailles
versante
versanti
verse
versi
versio
version
versione
verso
versso
vert
verta
vertau
verte
verti
verto
vertu
vertura
verxe
very
verze
verzesta
verzesto
ves
vescovi
vescovo
vesin
vespa
vespaio
vest
vesta
veste
vesti
vestia
vestiario
vestidi
vestii
vestio
vestir
vestiti
vestito
vesto
vesuvio
vet
vete
vetere
vetura
veture
vevey
vexena
vexin
vez
vezo
vezu
vezudho
vezudo
vezzi
vezzo
veła
vełare
veło
vełocita
vełose
vełosita
vga
vhs
vi
via
viaggi
viaggio
viagio
viaja
viajo
viale
viamala
viana
vianello
viazo
vibo
vibra
vibrante
vibrasion
vic
vicario
vicchio
vice
vicenda
vicende
vicensa
vicente
vicentini
vicentino
vicenza
vicenzo
vicepresidente
vicin
vicina
vicini
vicino
vico
vicoli
vicomte
vicq
victor
victoria
vida
vidal
vide
video
videoclip
vidi
vie
vieil
vieille
viejo
vien
viena
viene
vienna
vienne
vieta
vietnam
vietnamita
vieux
view
vigano
vigna
vigne
vignera
vignes
vigni
vignia
vignir
vignisse
vigniva
vignuda
vignudho
vignudi
vignudo
vigny
vigo
vigor
vigore
vii
viii
viking
vil
vila
vilagi
vilagio
vilaine
vilan
vilani
vilania
vilanova
vile
villa
villach
villafranca
village
villaggio
villaines
villalba
villamayor
villan
villana
villanova
villanueva
villar
villard
villarejo
villares
villars
villaverde
ville
villedieu
villefranche
villeneuve
villers
villette
villiers
villotte
villy
vilota
vilote
vin
vina
vinc
vince
vincent
vincenzo
vinci
vincitori
vingeanne
vini
vinifera
vino
vinovo
vinsare
vinse
vinsendo
vinser
vinsesto
vinsidor
vint
vinta
vinte
vinti
vintitre
vinto
vio
viola
violante
viole
violensa
vioła
viołasion
viołensa
viołento
viołin
vip
vir
virgilio
virgin
virginia
viro
virtu
virtual
virtuoso
virus
vis
visa
viscere
visconti
visdecazzo
visentin
visentina
viseto
visi
visin
visina
visine
visini
vision
visir
visita
visitar
visite
viso
visp
vissere
vissin
vist
vista
viste
visti
visto
visu
vit
vita
vitae
vital
vitali
vitamina
vite
viterbo
viti
vitima
vitime
vitis
vito
vitoria
vitorie
vitorio
vitry
vittore
vittoria
vittorio
vitturi
viu
viva
vivaldi
vivar
vivare
vive
vivea
viveno
vivente
viventi
viver
vivere
vivesto
viveva
vivi
viviers
vivo
vixentin
vixi
vixion
vixita
vixuałixasion
vizentin
vizi
vizin
vizio
vizion
vizita
vizo
viła
viłafranca
viłajo
viłanova
viłe
vladimir
vladimiro
vlc
vo
voaltri
vobis
voca
vocabolario
vocal
vocale
vocali
vocałe
vocałi
voce
voci
voda
vodi
vodo
voe
voga
vogado
vogar
voggia
voggio
vogia
vogie
vogio
vogiu
voglia
voglio
voi
voia
voiando
voice
voio
voitsberg
voivodato
voja
vojo
vol
vola
volante
volar
volare
volcan
vole
volea
volemo
volendo
volentiera
volentieri
voler
volere
volerme
volesse
volessi
volesto
volete
voleu
voleva
volevi
volgar
volgare
volgo
voli
volle
volo
volont
volonta
volontade
volontadhe
volontiera
volpe
volse
volsse
volta
voltaire
voltar
volte
volti
volto
volturno
volu
volume
volumi
voluto
volze
von
vora
vorae
vorarlberg
vorave
vore
voressi
vori
voria
vorla
vorlo
voro
vorra
vorrave
vorrebbe
vorrei
vorri
vorria
vos
vose
vosges
vosie
vosse
vostra
vostre
vostri
vostro
vosu
vota
votanti
votar
votasion
voti
voto
vous
vov
vovi
vovo
vox
voxe
voyager
voyo
voze
voła
vołe
vołea
vołer
vołesta
vołesto
vołeva
vołi
voło
vołonta
vołontari
vołume
vołumi
vr
vre
vres
vs
vu
vualtre
vualtri
vudo
vui
vukovar
vul
vulcan
vulcani
vulgaris
vully
vuo
vuogia
vuogio
vuoi
vuol
vuole
vuota
vuoto
vussustrissima
vustu
vuto
vuy
vułi
vv
vy
w
wa
waar
waidhofen
waiver
walde
waldenburg
walk
walker
walking
wall
wallace
walt
walter
wang
wangen
want
war
warner
warren
wars
was
washington
wasseramt
wassets
watch
water
watergate
waters
watson
watt
wave
way
wayne
wc
we
wear
weaver
web
webcam
weber
website
webster
week
weekly
wehrmacht
weimar
weiz
wels
were
werner
west
wester
western
westminster
weston
what
when
where
which
whisky
white
whitney
who
why
wi
wide
wien
wiener
wiki
wikilink
wikimedia
wikipedia
wikiquote
wikisiona
wikisource
wikispecies
wil
wild
wilhelm
will
william
williams
willis
willisau
wilson
wind
windhoek
windows
winehouse
winnie
winona
winston
winter
wireless
wisconsin
wish
with
without
wmo
wo
woe
wolf
wolfgang
woman
women
won
wonder
wood
woodstock
woody
wordreference
work
works
world
worldbank
worldplugs
wp
wrapper
wright
wu
wuhan
www
wyoming
x
xa
xaca
xagabria
xane
xasimenti
xało
xcix
xe
xega
xeghi
xego
xela
xele
xeli
xelo
xema
xemeła
xena
xenare
xenaro
xene
xenera
xeneral
xeneralmente
xenerasion
xenerałe
xenere
xeneri
xenevra
xeni
xeno
xenoa
xente
xer
xera
xerma
xermania
xero
xestu
xełanda
xi
xia
xiaomi
xica
xico
xii
xiii
ximo
xine
xio
xira
xiri
xiro
xiron
xirona
xironda
xiv
xix
xl
xli
xlii
xliii
xliv
xlix
xlovenia
xls
xlsx
xlv
xlvi
xlvii
xlviii
xo
xoga
xogador
xogadori
xogo
xole
xona
xone
xonta
xontando
xorna
xovane
xovani
xoła
xołe
xoło
xp
xu
xuga
xugador
xugadore
xugadori
xughi
xugo
xunta
xurigo
xv
xvi
xvii
xviii
xvilupa
xvilupo
xvisara
xviłupo
xx
xxi
xxii
xxiii
xxiv
xxix
xxv
xxvi
xxvii
xxviii
xxx
xxxi
xxxii
xxxiii
xxxiv
xxxix
xxxv
xxxvi
xxxvii
xxxviii
y
ya
yahoo
yamaha
yamoussoukro
yaounde
ybbs
ye
year
years
yeltes
yemen
yera
yi
yo
yonne
york
you
young
your
yourself
youtube
yrlanda
ysota
yu
yvelines
yverdon
z
za
zac
zacaria
zagorje
zahlenfakten
zaia
zalo
zama
zamaria
zamora
zampa
zampano
zampe
zan
zanbia
zanca
zanchi
zane
zanetta
zanetti
zanetto
zani
zanichelli
zanze
zanzibar
zapardiel
zappa
zar
zara
zaratina
zardin
zardini
zare
zarlatan
zaro
zarza
zaschadun
zaschaduno
zaschun
zaschuna
zaschuno
zate
zavaria
zała
zało
ze
zeca
zecchini
zecchino
zechin
zechini
zega
zeghe
zeghi
zego
zelanda
zelenza
zelenze
zell
zelo
zelosia
zeloso
zema
zemo
zen
zena
zenaralmente
zenarałe
zenaro
zenda
zene
zeneral
zenerale
zeneralmente
zenerasion
zenerałe
zenerałi
zeni
zeno
zenochi
zenochio
zenochion
zenoci
zenosi
zenovexi
zensamin
zent
zente
zentil
zentildona
zentilomo
zento
zentrafricana
zentro
zeogra
zeografia
zeorza
zeppelin
zer
zera
zerca
zercha
zerma
zerman
zermana
zermania
zero
zerto
zesti
zestion
zestionada
zełanda
zi
zia
zie
zielo
ziers
ziga
zigante
zilio
zilli
zima
zinbabue
zinbabwe
zinevra
zink
zinque
zio
zioba
zioe
zioga
ziogar
ziogo
ziogra
zior
zira
zirada
zirando
zirar
ziri
ziro
zita
zitade
zito
zitto
zo
zoe
zofingen
zoga
zogador
zogadori
zogar
zoggia
zoggie
zoghi
zogia
zogie
zogo
zola
zon
zona
zone
zonta
zontar
zonte
zonti
zonto
zonze
zorda
zorita
zornada
zornade
zornae
zornalista
zornate
zornałista
zorni
zorno
zorzetto
zorzi
zoso
zostra
zoto
zovane
zovani
zove
zovene
zoveni
zoventu
zoła
zołe
zs
zu
zuan
zuane
zuberoa
zuca
zucaro
zucca
zucchero
zuche
zuckermann
zucon
zudega
zudi
zueca
zuga
zugador
zughi
zugno
zugo
zulian
zulu
zunjo
zura
zuramento
zuri
zurigo
zurisdision
zuro
zurzach
zusti
zustisia
zusto
zviłupa
zviłupo
zwettl
zy
{
|
}
~
¡
¢
£
§
©
ª
«
­
®
¯
°
²
³
´
µ
·
¹
º
»
½
¿
×
ß
æ
ð
÷
ø
øer
đ
đo
ı
ł
ła
łado
łaga
łaghi
łago
łaguna
łagunar
łagunari
łansa
łanso
łaor
łaora
łaorar
łaorasion
łaori
łaoro
łarga
łargo
łari
łasa
łasando
łasar
łate
łatin
łatina
łaurea
łavora
łavori
łavoro
łe
łebre
łega
łegałe
łeghe
łeghi
łegno
łego
łeje
łendinara
łengua
łenguajo
łengue
łengui
łenjo
łeon
łes
łesion
łetara
łetare
łetera
łeteratura
łeto
łetonia
łetori
łeva
łeveło
łexe
łexi
łeze
łi
łia
łibara
łibaro
łibarta
łibri
łibro
łica
łico
łidi
łido
łiga
łigai
łigure
łiguria
łimita
łimitada
łimite
łinea
łinee
łio
łista
łite
łiti
łito
łitoraneo
łivel
łiveło
łixi
łize
ło
łocai
łocal
łocałe
łocałi
łocałita
łoga
łoghi
łogo
łoira
łonbardia
łonbardo
łondra
łonga
łonghe
łonghesa
łonghi
łongo
łongobardi
łontan
łora
łore
łori
łoro
łota
łoxana
łu
łuca
ługa
łujo
łuna
łuri
łusia
łuxe
łuxerna
łuze
łuła
łułe
ŋ
œ
ƒ
ƚ
ƚa
ƚe
ƚi
ƚo
ǁ
ǂ
ǃ
ǌo
ɐ
ɑ
ɒ
ɓ
ɔ
ɖ
ɗ
ɘ
ə
ɛ
ɜ
ɟ
ɠ
ɡ
ɢ
ɤ
ɧ
ɨ
ɪ
ɬ
ɭ
ɯ
ɰ
ɲ
ɳ
ɴ
ɵ
ɸ
ɹ
ɺ
ɽ
ɾ
ʀ
ʁ
ʂ
ʃ
ʈ
ʊ
ʌ
ʍ
ʎ
ʒ
ʔ
ʘ
ʛ
ʟ
ʡ
ʤ
ʦ
ʧ
ʰ
ʲ
ʷ
ʻ
ʼ
ʾ
ʿ
ˈ
ˌ
ː
˔
˙
̀
́
̂
̃
̄
̆
̇
̈
̉
̊
̋
̌
̑
̓
̔
̛
̝
̞
̠
̣
̥
̦
̧
̨
̩
̪
̯
̱
̸
͂
ͅ
͡
α
αστικοποιησης
β
βαθμο
γ
για
δ
δη
ε
η
θ
ι
κ
και
κυπρο
λ
μ
μα
ν
ξ
ο
π
ρ
ς
σ
στην
τ
ταξινομηση
το
τον
του
τω
υ
φ
χ
ω
ϕ
а
в
г
е
и
к
л
н
о
п
с
у
ъ
ь
я
і
ְ
ִ
ַ
ָ
ֹ
ּ
ׁ
א
י
ר
ש
ا
ة
ح
ز
ل
م
ن
ي
َ
ُ
ِ
ّ
ْ
ٔ
ٕ
ި
ް
क
त
न
प
म
र
ल
श
स
ा
ि
ी
ु
े
ो
्
ং
গ
ব
ভ
র
ল
া
ি
ু
ழ
ி
ு
்
്
්
ා
ี
้
་
ོ
ᵝ
​
‌
‎
‏
‑
‒
–
—
―
‖
‘
’
‚
‛
“
”
„
†
•
…
‰
′
″
⁂
⁄
⁡
₂
€
™
→
↔
↷
⇒
∀
∂
∈
∑
−
∗
∘
√
∞
∫
≈
≤
≥
⊂
⋅
③
④
⑦
─
│
└
├
█
♀
♂
♭
♯
⟨
⟩
⟶
⺀
⺄
⺆
⺈
⺊
⺌
⺕
⺝
⺸
⺼
⿰
⿱
⿲
⿳
⿴
⿵
⿶
⿷
⿸
⿹
⿺
⿻
〢
の
は
ん
゙
゚
ィ
イ
ウ
カ
キ
ク
ケ
コ
サ
シ
ス
ソ
タ
チ
ッ
テ
ト
ナ
ニ
ネ
ハ
ヒ
フ
ヘ
ホ
マ
モ
ユ
ョ
ラ
リ
ル
ロ
ン
・
ー
㇁
㇂
㇄
㇇
㇈
㇉
㇓
㐁
㐄
㐅
㐌
㐫
㐬
㐭
㐮
㐱
㑒
㒵
㒸
㒼
㓁
㓞
㔾
㕛
㕣
㖾
㘝
㚅
㚇
㚔
㚘
㝉
㝡
㝴
㝵
㞋
㞢
㞷
㠩
㠭
㠯
㡀
㡭
㡿
㢲
㢴
㣇
㣺
㥯
㪅
㫄
㫐
㫒
㫺
㬅
㬎
㬥
㬰
㲋
㳄
㷠
㸒
㸚
㸦
㼌
㼲
㽞
㿟
䀠
䂞
䍃
䏍
䒑
䖍
䖒
䖝
䖵
䙴
䚻
䜌
䝿
䡛
䧹
䪞
一
丁
丂
七
丄
丅
丆
万
丈
三
上
下
丌
不
与
丏
丐
丑
专
且
丕
世
丘
丙
业
东
丞
丢
丣
两
严
並
丨
丩
个
丫
丬
中
丮
丰
丱
串
丵
丶
丷
丸
丹
为
主
丽
丿
乀
乂
乃
久
乆
乇
么
义
之
乌
乍
乎
乏
乐
乑
乔
乖
乗
乘
乙
乚
乛
乜
九
乞
也
习
乡
乳
乾
亀
亅
了
亇
予
争
事
二
亍
于
亏
亐
云
互
亓
五
井
亘
亚
亜
亞
亟
亠
亡
亢
交
亥
亦
产
亨
亩
享
京
亭
亮
亯
亰
亲
亳
亶
亷
人
亻
亼
亾
仁
今
介
仌
从
仐
仑
仒
仓
仕
他
付
仝
代
令
以
任
企
伊
伏
伐
休
会
伯
但
位
何
佘
余
作
佥
使
來
侈
侌
侖
侯
侵
便
保
俞
信
修
倉
倍
候
倠
備
僉
僕
儿
兀
允
兂
元
兄
充
兆
兇
先
光
兊
克
兌
免
兑
兒
兓
兔
党
兜
兟
入
全
兩
兪
八
公
六
兮
兰
共
关
兵
其
具
典
兹
兼
冀
冂
冃
冄
内
冈
冉
冊
冋
册
再
冎
冏
冐
冒
冓
冖
冗
冘
军
农
冝
冡
冥
冫
冬
冷
几
凡
凢
凵
凶
凷
凸
凹
出
函
凾
刀
刁
刂
刃
刄
刅
分
切
刍
刑
刕
刖
列
刘
则
初
別
利
别
到
制
刺
則
削
剌
前
剡
剽
劉
力
功
加
劦
助
劫
劳
劵
勃
勇
勉
勒
動
務
勞
勤
勹
勺
勻
勾
勿
匀
匂
包
匆
匈
匊
匋
匍
匕
化
北
匚
匝
匡
匪
匱
匸
匹
区
医
匽
匿
區
十
卂
千
卄
卅
卆
升
午
卉
半
卌
华
卑
卒
卓
单
卖
南
卜
卝
卞
占
卡
卢
卣
卤
卦
卩
卪
卬
卯
印
危
即
却
卵
卷
卸
卻
厂
厃
厄
历
厈
厉
厌
厓
厘
厚
原
厤
厥
厨
厭
厲
厶
厷
厸
去
厼
厽
叀
参
參
叅
又
叉
及
友
双
反
叐
发
叒
叔
叕
取
受
叚
叜
叟
口
古
句
另
叩
只
召
可
台
叱
史
右
叵
号
司
叹
吂
各
吅
合
吉
吊
吋
同
名
后
吏
向
吕
君
吝
吞
否
含
启
吳
吴
吹
吾
呂
呆
呈
告
员
呙
周
命
咅
和
咎
咠
咢
咨
咸
咼
哀
品
哉
員
哥
哲
唐
商
啇
問
啚
啬
啻
善
喜
喬
單
喿
嗇
噩
嚴
囊
囗
囘
囙
囚
四
回
囟
因
囧
囬
困
囱
囷
固
国
圂
圅
國
圍
圓
土
圡
圣
圥
在
圭
地
圶
圼
坐
坒
坚
坴
垂
垔
垚
埀
埋
城
埶
執
基
堂
堅
堆
堇
堯
塞
墨
壘
士
壬
壯
声
壳
壴
壹
壺
壽
夂
处
夅
夆
备
夊
夋
夌
复
夏
夒
夕
外
夗
夘
多
夜
夢
大
夨
天
太
夫
夬
夭
央
失
夲
头
夷
夸
夹
夻
夾
奂
奄
奇
奈
奉
奎
奏
奐
契
奓
奔
奚
奞
奠
奢
奥
奭
女
奴
奻
好
如
妄
妙
妟
妥
妻
妾
姑
委
姜
威
娄
婁
婴
嬰
嬴
子
孑
孔
孕
孖
字
存
孚
孛
孝
孟
季
孤
学
孫
孱
學
宀
宁
宂
它
宅
宇
守
安
宋
完
宏
宓
宗
官
定
宛
宜
宝
客
宣
室
宮
宰
害
家
容
宾
宿
寄
寅
密
富
寒
察
寧
審
寫
寬
寮
寸
对
寺
寻
寽
対
寿
封
尃
射
将
將
專
尉
尊
尋
尌
對
小
少
尒
尓
尔
尖
尗
尚
尞
尢
尣
尤
尧
尨
尭
就
尸
尹
尺
尻
尼
尽
尾
尿
局
居
屈
屋
屎
屏
屑
展
屖
屚
属
屠
屡
屬
屮
屯
屰
山
屵
屾
岁
岂
岑
岡
岩
岳
岸
峯
島
崇
崑
崔
崖
崙
崩
嵬
嶲
巂
巛
川
州
巟
巠
巢
巤
工
左
巧
巨
巩
巫
差
己
已
巳
巴
巷
巸
巽
巾
巿
帀
市
布
希
帚
帛
帝
带
師
席
帶
常
干
平
年
幵
并
幷
幸
幺
幻
幼
幽
幾
广
広
庄
床
底
店
庚
府
度
庫
庭
庶
康
庸
廉
廌
廛
廣
廩
廴
延
廷
建
廾
廿
开
弁
弃
弄
弇
弋
式
弓
弔
引
弗
弘
弜
弟
弥
弦
弱
張
強
强
彊
彌
彎
彐
彑
当
彔
录
彖
彗
彡
形
彥
彦
彧
彭
彳
役
彼
往
待
律
徒
得
徙
從
復
微
徵
心
忄
必
忌
忍
志
忝
忠
忩
快
念
忽
忿
思
怠
急
怱
恆
恒
恩
恭
息
悉
患
悤
悲
悶
惠
惡
惢
愁
愈
意
愛
感
慈
慧
慮
憂
憲
應
戀
戈
戉
戊
戋
戌
戍
戎
成
我
戒
戔
或
戚
戠
戢
截
戲
戶
户
戹
戼
戾
房
所
扁
扇
手
扌
才
打
托
执
承
折
拉
拜
拿
掌
推
提
摩
支
攴
攵
收
攸
改
放
政
敄
敏
敕
敖
敗
敝
敞
敢
散
敦
敫
敬
数
敷
數
斂
文
斉
斊
斗
斤
斥
斩
斬
斯
新
方
於
施
斿
旁
旋
族
无
旡
既
旣
日
旦
旧
旨
早
旬
旱
旲
时
旾
昆
昇
昌
昍
明
昏
易
昔
昗
昜
星
春
昬
是
昱
昴
昷
時
晃
晋
晏
普
景
晶
智
暑
暴
曇
曩
曰
曲
曳
更
曷
書
曹
曼
曾
替
最
朁
會
月
有
朋
服
朔
朕
朗
望
朝
木
朩
未
末
本
札
朮
术
朱
朵
朶
朿
杀
杏
杜
束
条
来
東
杲
杳
松
析
林
枚
果
枝
枲
枼
某
柔
查
柬
柰
柴
栗
株
桀
桑
桼
梁
條
梟
梨
棘
棠
棥
森
楚
業
楽
榮
樂
樊
欠
次
欣
欮
欲
欶
欽
款
歆
歇
歛
止
正
此
步
武
歨
歪
歮
歯
歰
歲
歴
歷
歸
歹
歺
死
殳
段
殷
殸
殹
殺
殻
殿
毋
毌
母
每
毒
比
毕
毚
毛
毳
氏
氐
民
气
気
氣
水
氵
氶
氷
永
氺
氾
求
汝
汞
江
沃
沓
沙
沝
治
泉
法
波
泣
泥
泰
洛
洪
活
派
流
浦
浪
浮
海
淡
淮
清
渚
渠
湯
滿
漸
火
灬
灭
灰
灵
灷
炅
炎
炏
炗
炙
炭
為
烈
烏
烝
焉
無
焦
焱
然
煞
熊
熏
燕
營
燮
爪
爫
爭
爯
爰
爱
爲
爵
父
爻
爽
爾
爿
片
牙
牚
牛
牜
牟
牢
牧
牪
牽
犀
犬
犭
犮
狂
狄
狊
独
狺
猋
猒
猪
献
獻
玄
率
玉
王
玟
玨
珎
班
琴
瑟
瑩
瓜
瓦
甘
甚
生
産
用
甫
甬
田
由
甲
申
电
甶
男
甸
甹
画
甾
畀
界
畏
畐
留
畜
畟
畢
畧
畨
番
畫
異
畱
當
畺
畾
疊
疋
疌
疑
疒
疾
癶
癸
癹
登
發
白
百
皀
皃
的
皆
皇
皋
皐
皕
皮
皷
皿
盃
盆
盇
盈
益
盍
盎
监
盒
盖
盛
盡
監
盤
盧
目
直
相
盾
省
眇
眉
看
県
眔
眞
真
眷
眼
眾
着
睘
睪
睿
瞏
瞢
瞿
矍
矛
矞
矢
矣
知
矦
短
石
破
碎
磊
磨
示
礻
礼
社
祟
票
祭
禀
禁
禸
禹
禺
离
禽
禾
禿
秀
秃
秉
秋
科
秝
秦
移
稟
穀
穌
穴
究
穹
空
穿
突
窄
窒
立
竒
竜
竝
竟
章
童
竹
笑
笠
筆
等
答
箕
算
箴
節
篤
篭
米
粉
粛
粟
粤
粦
粲
糞
糸
糹
系
約
納
素
索
紫
累
細
絜
絫
絲
維
綿
縣
繇
纍
纟
缶
网
罒
罔
罕
罗
罙
罡
罢
罪
署
罷
羅
羊
羌
羍
美
羔
羕
羗
羞
羡
羣
群
義
羲
羸
羽
翁
翏
習
翕
翟
翠
翼
老
耂
考
者
耆
而
耎
耑
耒
耳
耴
耶
耷
聂
聊
聖
聚
聶
聿
肀
肃
肅
肉
肖
肙
肥
肩
肯
育
肴
胃
背
胡
胥
能
脊
脩
膚
臣
臤
臧
自
臬
臭
臯
臱
至
致
臺
臼
臽
臾
臿
舀
舂
舄
與
興
舉
舌
舍
舛
舜
舞
舟
般
艮
良
色
艸
艹
艾
芒
芔
芬
芮
花
芳
芺
芻
苔
苗
苟
若
苦
英
茶
茸
荅
草
荒
荣
荼
莆
莧
莫
莽
菆
菊
菐
華
萬
落
葉
著
葛
董
葵
蒙
蒦
蒲
蒼
蓋
蓬
蓺
蔑
蔡
蕉
蕭
薄
薛
薦
薰
藍
藏
藥
蘭
虍
虎
虐
虒
虔
處
虖
虗
虘
虚
虛
虜
虞
虫
虽
蚤
蚩
蜀
蜜
蟲
蠡
血
行
衍
衛
衣
衤
表
衮
衰
袁
袞
褭
褱
襄
襾
西
覀
要
覃
覇
見
規
覓
覧
親
覽
见
角
解
言
訁
訇
計
詹
語
誩
調
諸
讠
谷
豆
豈
豊
豐
豕
豖
豙
象
豦
豩
豪
豸
貇
貝
貞
貟
負
貢
貧
貪
貫
責
貳
貴
買
費
賁
資
賈
賏
賓
賔
賛
賞
賢
賣
質
賴
贊
贝
贡
责
贯
贲
贵
赖
赞
赤
赦
走
越
足
路
蹇
身
躬
車
軍
軎
軟
輦
车
辛
辜
辟
辥
辰
辱
農
辵
辶
边
达
过
近
连
迷
追
退
送
逆
逐
通
速
造
逢
連
逮
進
遀
遂
過
道
達
遣
適
遷
遺
邊
邑
邕
那
邦
邪
郎
部
郭
都
鄉
酉
酋
配
酓
釆
采
里
重
野
量
金
釒
錢
钅
長
镸
长
門
閃
閉
開
閏
閑
閒
間
閔
閵
閻
闌
门
间
闷
阑
阜
阝
阿
降
限
陳
隆
隊
隋
隡
隨
隱
隶
隹
隺
隻
隼
隽
难
雀
雁
集
雈
雋
雍
雐
雔
雙
雚
雜
雝
離
難
雨
雩
雪
雲
零
雷
需
霍
霜
霝
霞
霸
靈
靑
青
非
靡
面
靣
革
韋
韦
韭
韯
韱
音
頁
頃
項
須
頗
頡
頻
顛
页
風
风
飛
飞
食
飠
養
饣
首
香
馬
馮
駦
马
骨
高
髟
鬥
鬯
鬲
鬼
魚
魯
鮮
鱼
鲁
鳥
鳳
鸟
鹵
鹿
麃
麗
麥
麦
麻
黃
黄
黍
黎
黑
黒
黨
黹
黽
黾
鼎
鼓
鼠
鼻
齊
齋
齐
齒
齿
龍
龙
龜
龟
龠
龰
龱
龴
龵
龶
龷
龸
龹
者
艹
ﺍ
﻿
（
）
，
？
𠀁
𠀃
𠀆
𠀉
𠀎
𠀐
𠁁
𠁣
𠂆
𠂇
𠂈
𠂉
𠂊
𠂋
𠂎
𠂒
𠂔
𠂛
𠂡
𠂢
𠂤
𠂬
𠂭
𠂹
𠃊
𠃋
𠃌
𠃍
𠃎
𠃑
𠃓
𠃔
𠃜
𠄌
𠄎
𠄠
𠄢
𠆢
𠆥
𠇍
𠈌
𠌵
𠓜
𠔉
𠔥
𠔼
𠔽
𠔿
𠕀
𠕁
𠕋
𠘧
𠘨
𠙻
𠙼
𠚏
𠚒
𠚤
𠚪
𠣏
𠤎
𠤕
𠥓
𠦄
𠦑
𠦝
𠧒
𠧗
𠧪
𠩺
𠪚
𠫓
𠫔
𠫤
𠬛
𠬝
𠬞
𠬢
𠬤
𠬶
𠮛
𠮦
𠮷
𠯑
𠱠
𠳮
𠷎
𡈼
𡉀
𡉵
𡌥
𡍮
𡏳
𡕒
𡕩
𡕰
𡖅
𡗗
𡗜
𡘆
𡘤
𡧱
𡨄
𡩧
𡬠
𡭽
𡰣
𡰥
𡰪
𡰯
𡰱
𡷈
𡸁
𡿨
𡿩
𡿪
𡿺
𢀖
𢀛
𢀩
𢁙
𢆉
𢆰
𢆶
𢇁
𢇇
𢉖
𢌬
𢌿
𢏚
𢑑
𢑚
𢖻
𢙣
𢛳
𢦏
𢦒
𢧵
𢼄
𢾕
𣁋
𣄼
𣅀
𣅽
𣍘
𣎳
𣎵
𣏋
𣏼
𣗥
𣥂
𣥖
𣦵
𣦼
𣧄
𣪊
𣪠
𣬉
𣳾
𣶒
𤇾
𤊽
𤐫
𤓰
𤔔
𤕨
𤣩
𤰇
𤰔
𤰞
𤴓
𤴔
𤽄
𥁑
𥁕
𥃦
𥃩
𥃭
𥇡
𥑟
𥘅
𥘈
𥝢
𥫗
𥱡
𦈢
𦉪
𦉬
𦉼
𦍌
𦍒
𦎧
𦐇
𦓔
𦔮
𦘒
𦙃
𦚏
𦣝
𦣞
𦣻
𦥑
𦥔
𦥯
𦨉
𦭝
𦰩
𧆞
𧈧
𧘇
𧰨
𧴪
𧴮
𧵩
𧾷
𨸏
𨾴
𩙿
𩠐
𩫏
𩵋
𪉷
𪜀
𪟽
𪠲
𪩲
𫇦
𫔭
𫜸
𫝀
𫠣
𫠩
𫢉
𫥞
𫩏
𫩠
𫪡
𫲽
𫶧
𬀷
𬐘
𬗌
𬙙
𬛸
𬜯
𬟩
𬯁
𬴘
𬺻
𬼉
𬼖
𭀰
𭁈
𭁨
𭅰
𭑈
𭕄
𭗼
𭤨
𭥫
𭻾
𮅕
𮊿
𮍌
𮍏
𮓗
𮥼
𮧮
廾
𰀁
𰀄
𰀈
𰀉
𰀕
𰀠
𰀡
𰀢
𰀪
𰁜
𰃮
𰆊
𰆘
𰋙
𰕎
𰢴
𰧭
𰯲
03--
04--
05--
2011030316--
2011030317--
2011092823--
2011092900--
201702--
201702142--
a--
aa--
aar--
ab--
aba--
abba--
abbando--
abd--
abe--
abi--
abitu--
abo--
abu--
ac--
aca--
accid--
ace--
acho--
aci--
aco--
acomp--
acqua--
acro--
acu--
ad--
ada--
ade--
adi--
ado--
adołes--
adu--
advan--
ae--
aero--
af--
afe--
affe--
affett--
afi--
afro--
ag--
aga--
age--
agi--
agn--
ago--
agri--
agro--
agu--
ah--
ai--
aigui--
air--
aja--
aje--
ajo--
ak--
al--
ala--
alba--
albu--
alc--
ale--
alek--
alga--
alge--
ali--
all--
alle--
almo--
alo--
alt--
alta--
alti--
alto--
altre--
alzi--
am--
ama--
amaz--
ambi--
ame--
ami--
ammini--
amo--
an--
ana--
anbasi--
anc--
and--
anda--
ande--
ane--
anger--
angio--
angli--
ango--
angu--
angui--
ani--
anni--
annun--
ano--
ans--
ant--
ante--
anti--
anu--
anun--
any--
anz--
ao--
ap--
apa--
apar--
ape--
aperta--
api--
apla--
apo--
app--
apre--
apro--
aq--
aqui--
ar--
ara--
arangia--
arbit--
arc--
arcip--
ard--
are--
areop--
arga--
arge--
argen--
argu--
ari--
arl--
arma--
armo--
arn--
aro--
arr--
ars--
arte--
arti--
arxe--
arzi--
as--
asa--
ase--
asen--
asi--
asia--
aso--
asp--
aspra--
assis--
at--
atend--
ato--
atten--
au--
aube--
aul--
aut--
auto--
aux--
auxi--
av--
ava--
ave--
aveni--
avenje--
avent--
aver--
avi--
avo--
avoga--
avverti--
ax--
axia--
ay--
az--
azo--
ał--
ała--
ałe--
ałer--
ałi--
b--
ba--
bac--
baf--
bai--
bal--
balda--
bale--
bamb--
ban--
bar--
bara--
bari--
baro--
bas--
base--
baso--
bat--
bate--
bau--
baumg--
bay--
baz--
baze--
bazo--
be--
bea--
beau--
bec--
bef--
bei--
bel--
beli--
belle--
belli--
ben--
bene--
beni--
ber--
bere--
berg--
bersa--
bet--
bett--
beu--
bexo--
bey--
bi--
bia--
bib--
biblio--
bibliote--
bicchi--
bie--
bien--
big--
bin--
bio--
biolo--
bir--
bis--
biso--
bit--
bix--
bixo--
biz--
bl--
bla--
black--
ble--
bli--
blo--
blu--
bo--
bob--
bocc--
boe--
boi--
bois--
bol--
bomp--
bon--
bona--
bonfa--
boni--
bono--
bor--
bos--
bot--
bou--
boui--
bour--
box--
boy--
boz--
br--
bra--
braxi--
brazi--
bre--
breu--
bri--
brita--
briła--
bro--
broad--
bru--
brun--
bu--
buc--
bue--
buf--
bug--
bul--
bun--
bunde--
bur--
bus--
but--
buz--
by--
c--
ca--
cabre--
cac--
cada--
cae--
cagno--
cai--
cal--
cala--
calca--
calcia--
cale--
cali--
cam--
camil--
camp--
campo--
can--
cana--
cane--
cani--
canna--
canpo--
cao--
cap--
capa--
capi--
capo--
car--
cara--
care--
cari--
caro--
carto--
cas--
casa--
casal--
cast--
castel--
castil--
cat--
cata--
cate--
cato--
cau--
cav--
cava--
caval--
cave--
cay--
caz--
cc--
ccc--
cccl--
cccx--
cd--
ce--
cec--
ced--
cel--
cen--
cer--
ces--
cey--
cełe--
ch--
cha--
chamb--
chan--
char--
chau--
chauf--
che--
chi--
chia--
chie--
chio--
chiro--
chiło--
cho--
chon--
chu--
ci--
cia--
cie--
cin--
cine--
cing--
cio--
cir--
circo--
ciste--
cit--
ciu--
civita--
ck--
cl--
cla--
clan--
cle--
cli--
cm--
cn--
co--
coa--
cocc--
coe--
cogni--
cogno--
coi--
coin--
coinc--
col--
cola--
colle--
colon--
com--
come--
comis--
como--
compl--
con--
conc--
condan--
confe--
confi--
cono--
conpi--
conpl--
conpre--
conpro--
conte--
contra--
contro--
conveni--
cop--
cor--
cora--
cord--
core--
cori--
coro--
corra--
corte--
cos--
cosi--
cou--
coulo--
coun--
cour--
cov--
coz--
cr--
cra--
cre--
cri--
cro--
croci--
cros--
cru--
ct--
cu--
cua--
cucc--
cue--
cui--
cul--
cum--
cun--
cup--
cur--
cusi--
cuz--
cy--
d--
da--
dai--
dal--
damm--
damp--
dan--
dar--
das--
data--
dau--
daugh--
dc--
dcc--
dccc--
dccl--
de--
deb--
dec--
decem--
deh--
dei--
del--
deli--
dem--
deme--
demo--
den--
deo--
depo--
der--
des--
dese--
desolv--
det--
dete--
devi--
devo--
dexi--
dez--
dha--
di--
dia--
diałe--
dic--
die--
dif--
dife--
differ--
difi--
diji--
dil--
din--
dina--
dio--
dip--
diri--
dis--
disc--
discip--
disi--
dist--
distri--
dive--
diz--
dj--
dl--
do--
doc--
dog--
dol--
dom--
dome--
domo--
domp--
don--
dor--
dos--
dou--
dr--
dra--
dre--
dri--
dro--
dru--
du--
duc--
due--
dul--
dun--
duo--
dur--
dx--
dy--
e--
ea--
ear--
eb--
eber--
ec--
ecc--
ecele--
eclesia--
eco--
ecua--
ecui--
ed--
edu--
ee--
ef--
efer--
effe--
egg--
egi--
eh--
ei--
el--
ela--
ele--
elect--
eletro--
eli--
elo--
em--
emanu--
eme--
emer--
emerz--
emi--
emo--
en--
enc--
end--
ene--
ener--
eng--
enti--
entu--
eo--
ep--
epi--
episco--
equi--
er--
era--
ere--
eri--
ero--
erudi--
es--
esa--
esca--
escl--
esclu--
esclud--
escu--
ese--
esemp--
eser--
esi--
eso--
espe--
espl--
est--
esta--
este--
estin--
et--
ete--
eti--
etio--
etru--
eu--
euro--
eus--
eva--
evang--
evanz--
eve--
evide--
evolu--
ex--
exe--
exerc--
exi--
expe--
extra--
ey--
ez--
eze--
ezenp--
ezers--
ełe--
f--
fa--
fac--
faga--
fai--
fal--
fam--
fan--
fanciu--
fantasi--
far--
fasci--
fati--
fau--
faz--
fe--
fede--
fel--
femm--
fen--
fer--
ferma--
feu--
fi--
fia--
fie--
fiera--
figiu--
fil--
fila--
fili--
filo--
fin--
fina--
fini--
finla--
fio--
fire--
fis--
fit--
fitz--
fiu--
fiłi--
fiło--
fl--
fla--
fle--
flo--
flu--
fo--
fol--
font--
fonte--
fonz--
for--
fora--
formi--
forni--
fos--
foto--
fou--
foui--
four--
fr--
fra--
framm--
fran--
fre--
fred--
fres--
fri--
fron--
fru--
fu--
ful--
fun--
fuo--
fur--
g--
ga--
gab--
gae--
gagli--
gail--
gal--
gala--
gar--
garo--
gas--
gat--
gau--
gaz--
gałe--
ge--
gen--
geni--
geo--
ger--
ges--
gg--
gha--
ghe--
ghi--
gi--
gia--
gian--
gie--
giga--
gil--
gines--
gio--
giu--
giuris--
gius--
gl--
gla--
gli--
glo--
glu--
gna--
gno--
go--
gob--
god--
godi--
goe--
gol--
gold--
gon--
gonf--
gor--
got--
gou--
gour--
gra--
gramm--
gran--
grand--
gre--
gri--
grif--
gro--
groenła--
gros--
groß--
gru--
gu--
gua--
guada--
gue--
guer--
gui--
gun--
gur--
gus--
guy--
guz--
gy--
h--
ha--
hab--
hai--
ham--
han--
har--
has--
hau--
haus--
hawa--
hay--
he--
hel--
hen--
her--
herre--
hey--
hi--
high--
his--
hl--
ho--
hoc--
hof--
hohe--
hol--
hom--
hor--
hou--
hu--
huis--
hur--
hy--
i--
ia--
ibe--
ibri--
ic--
id--
ide--
idi--
ido--
idrau--
idro--
ie--
if--
igna--
il--
ilus--
im--
ima--
imbal--
imbro--
ime--
imi--
imita--
imor--
impe--
imper--
in--
ina--
inc--
inca--
incante--
inchi--
incho--
inco--
incre--
incua--
incui--
inda--
inde--
indi--
indifer--
indisc--
indo--
indu--
ine--
infan--
infe--
infiore--
influ--
inga--
ingan--
inge--
ingiu--
ingo--
ingre--
ingru--
ini--
inn--
inner--
ino--
inpe--
inpi--
inse--
insi--
int--
intar--
inte--
inter--
into--
intra--
intro--
inv--
inve--
investi--
inxe--
inze--
io--
ip--
ipa--
ipo--
ir--
ira--
ire--
iro--
is--
isi--
iso--
ist--
isto--
it--
ita--
iti--
iu--
iud--
iv--
ivi--
ix--
iz--
iza--
iłe--
iłu--
j--
ja--
jam--
jan--
jar--
je--
jen--
ji--
jo--
joa--
jon--
jou--
jour--
ju--
jud--
juil--
k--
ka--
kai--
kal--
kala--
kan--
kar--
kath--
ke--
ken--
ker--
ki--
kir--
kirch--
ko--
kra--
kris--
kru--
ku--
kwa--
ky--
l--
la--
labora--
labu--
lac--
laf--
lai--
lamb--
lamp--
lan--
land--
lanpa--
lar--
las--
lat--
latino--
lau--
laur--
lava--
lay--
laz--
ld--
le--
lea--
lec--
lef--
legisl--
leh--
lei--
lejisl--
len--
leng--
leo--
les--
let--
leu--
ley--
lez--
lg--
li--
lia--
lial--
lib--
lie--
liga--
limo--
limp--
lin--
lis--
litt--
litur--
liv--
liz--
lla--
lle--
llo--
lo--
loc--
loco--
loi--
lold--
lomb--
lon--
long--
longe--
longitu--
lor--
los--
lou--
loy--
ls--
lt--
lte--
lu--
luc--
lud--
luga--
lun--
lur--
luz--
lv--
lxx--
ly--
m--
ma--
mac--
mad--
made--
mae--
maf--
mag--
magi--
mah--
mai--
main--
mal--
mala--
male--
mami--
man--
mane--
mani--
mano--
manu--
map--
mar--
mara--
mare--
mari--
maro--
mas--
mase--
mast--
mat--
mau--
max--
may--
maz--
mazi--
mb--
mc--
me--
mec--
meca--
mede--
medi--
mega--
mei--
mel--
memo--
men--
mene--
mer--
meri--
mes--
met--
meta--
mey--
meza--
mezo--
mi--
mia--
micro--
mie--
migli--
mik--
mil--
min--
mine--
mini--
mir--
mira--
mis--
mit--
mix--
miłi--
mm--
mo--
mode--
moi--
mol--
mold--
mole--
molti--
mom--
mon--
mona--
mone--
mono--
mont--
monte--
monumen--
mor--
morfoło--
mori--
mos--
moto--
mou--
moui--
mour--
mous--
mout--
move--
moz--
mołe--
mp--
mu--
muda--
muf--
mul--
multi--
mun--
munisi--
muo--
mur--
mus--
musul--
muta--
muz--
muzi--
my--
n--
na--
nad--
nan--
nar--
nas--
nat--
nau--
nava--
naval--
navi--
navr--
naxi--
naz--
nc--
nd--
ndi--
ne--
nec--
nen--
neo--
ner--
nes--
net--
neu--
neuf--
new--
ng--
ngu--
ni--
nia--
nie--
nieder--
nin--
nis--
nji--
njo--
no--
noa--
noi--
non--
nor--
nord--
nos--
note--
noti--
nou--
nove--
novi--
np--
nple--
ns--
nt--
nte--
nti--
nu--
nume--
nutri--
ny--
nz--
o--
ob--
obbe--
ober--
oc--
oca--
occiden--
oci--
oclu--
ocu--
ode--
odi--
odo--
oe--
of--
off--
ofi--
og--
oh--
oi--
ois--
ok--
ol--
ola--
olcid--
ole--
oli--
olo--
oly--
om--
omi--
omo--
on--
oni--
op--
open--
opor--
oposi--
opus--
or--
ora--
ore--
org--
orga--
ori--
oro--
ors--
orti--
orto--
os--
osa--
osi--
ost--
osta--
ostro--
ot--
ote--
otegne--
oto--
ott--
otto--
ou--
our--
out--
over--
ovi--
oxe--
oxi--
oz--
oła--
ołi--
p--
pa--
pag--
paga--
pai--
pal--
pala--
pale--
palo--
pam--
pan--
pano--
papa--
par--
para--
pare--
pari--
paro--
parroc--
pas--
pasa--
pasi--
passa--
pat--
pati--
pau--
pave--
pax--
pay--
pała--
pc--
pe--
pec--
pei--
pel--
pen--
pente--
per--
perc--
perfe--
peri--
perpe--
peru--
pes--
pete--
peti--
petro--
petrol--
pett--
pey--
pez--
ph--
phy--
pi--
pia--
pic--
pie--
piedi--
pier--
pig--
pil--
pin--
pine--
pio--
pir--
pira--
pis--
pit--
piu--
piz--
pizo--
piła--
pl--
pla--
play--
ple--
plou--
plu--
po--
poe--
pof--
pofar--
poi--
pol--
pola--
poli--
pomm--
pomp--
pon--
pont--
pop--
popu--
por--
pos--
pose--
posi--
pote--
pou--
poui--
poxi--
poz--
pozi--
połe--
połi--
pra--
pract--
pre--
prefer--
preli--
prenc--
pres--
pri--
princ--
prinz--
pro--
proc--
prof--
promo--
propuls--
proto--
prove--
prołe--
pru--
ps--
psi--
pu--
pub--
puble--
publi--
pui--
pul--
puo--
pur--
puy--
py--
q--
qu--
qua--
qual--
que--
quey--
qui--
quo--
r--
ra--
rab--
rac--
racco--
rade--
radio--
raf--
rafegur--
rai--
rail--
ralle--
ram--
ran--
rap--
ras--
rat--
rati--
rau--
raz--
rc--
rd--
re--
rea--
rec--
rece--
reco--
recup--
red--
ree--
ref--
refa--
rega--
regg--
regi--
rei--
rel--
reli--
remi--
ren--
rena--
reno--
reo--
rep--
reprod--
repu--
requi--
res--
resu--
ret--
reti--
reu--
reve--
rex--
rey--
rez--
rezi--
reła--
rełi--
rhe--
ri--
ria--
ric--
rica--
riche--
rico--
ricup--
ridi--
rie--
riffle--
rifle--
rifor--
rifu--
rig--
rimp--
rin--
rinas--
rinasi--
rinun--
rio--
ris--
rispon--
rit--
ritro--
rius--
rive--
riz--
rm--
rme--
rn--
ro--
rob--
roc--
roca--
rocca--
rock--
rod--
roe--
rom--
roma--
ron--
ros--
roso--
rou--
roui--
rouss--
row--
roz--
rs--
rt--
rte--
ru--
rub--
rue--
rupes--
rusc--
russi--
ruz--
rxa--
ry--
rz--
s--
sa--
sab--
sac--
sacer--
sache--
sae--
sagre--
sai--
sal--
salva--
sam--
san--
sar--
sara--
sas--
saso--
satełi--
sau--
saul--
sauva--
savia--
sba--
sber--
sbir--
sbra--
sbri--
sbu--
sc--
sca--
scal--
scali--
scan--
scar--
scałi--
scele--
sch--
schi--
schu--
schwe--
sci--
sco--
scoa--
scola--
scomp--
scon--
sconf--
sconp--
sconz--
scor--
scri--
scru--
scu--
sd--
sde--
se--
sec--
secue--
sed--
sede--
sedi--
see--
seg--
sei--
sel--
sem--
semi--
sen--
seno--
senplif--
sepol--
sept--
seque--
ser--
sera--
serra--
ses--
set--
sete--
sette--
seu--
sey--
sełe--
sfo--
sfondra--
sg--
sgan--
sgu--
sh--
sha--
she--
shi--
sho--
show--
si--
sia--
sic--
sie--
sig--
sigis--
sil--
silv--
simb--
sime--
simp--
sin--
sina--
sinda--
sio--
sir--
sis--
sisi--
sit--
sl--
slee--
sm--
smart--
smer--
sna--
so--
soc--
social--
sof--
sogg--
soi--
sol--
soli--
some--
son--
sopp--
sopra--
sor--
sora--
sos--
sot--
soto--
sou--
sound--
sour--
sovra--
sołi--
sp--
spa--
spar--
spe--
sper--
spett--
spi--
splend--
spo--
spro--
spuz--
squa--
squi--
sr--
ss--
sse--
st--
sta--
stan--
star--
ste--
stein--
ster--
sti--
sto--
stra--
stre--
stro--
stru--
stu--
su--
sub--
suc--
succes--
sud--
suda--
sue--
sui--
sul--
sum--
sun--
suo--
supar--
super--
supl--
suple--
supp--
sur--
sus--
sv--
sve--
svi--
sviz--
svolx--
swa--
swe--
swi--
swit--
swo--
sy--
t--
ta--
tab--
tac--
tag--
tai--
tal--
tam--
tan--
tar--
tara--
tas--
tau--
taver--
te--
tea--
teau--
tech--
tecn--
tecnolo--
tei--
tel--
tele--
teme--
temp--
tempera--
ten--
tenje--
teo--
teoło--
ter--
tera--
teri--
tes--
teu--
tełe--
th--
thai--
the--
thi--
tho--
thu--
thurs--
ti--
tie--
tim--
tin--
tip--
tipo--
tir--
tira--
tiro--
tis--
tit--
tn--
to--
toc--
tof--
togli--
tol--
tom--
ton--
top--
topo--
toponoma--
tor--
torre--
tot--
tou--
tour--
tova--
tr--
tra--
tram--
tran--
trans--
tranz--
trapp--
tras--
trasm--
traspa--
trava--
trax--
traxe--
traz--
tre--
tref--
tremb--
tres--
trevi--
tri--
tria--
trium--
tro--
tron--
trou--
tru--
ts--
tt--
tu--
tun--
tur--
turi--
tv--
twe--
twi--
ty--
tz--
u--
ubi--
ucc--
ud--
ue--
uffi--
ufi--
ufisałe--
uga--
uk--
ul--
ulte--
um--
un--
unga--
uni--
unter--
up--
ur--
url--
us--
usa--
uss--
ut--
uti--
uz--
v--
va--
vaga--
vai--
val--
valde--
vale--
vall--
valle--
van--
var--
vas--
vau--
vaud--
vała--
ve--
ved--
vegeta--
vei--
vel--
ven--
venje--
vent--
ver--
vera--
verc--
vergo--
ves--
vest--
vesti--
vesu--
vet--
vey--
vez--
vi--
via--
vic--
vice--
vico--
video--
vie--
vigi--
vigli--
vigno--
vil--
vila--
villa--
ville--
vin--
vinti--
vio--
viołe--
vip--
vir--
vis--
vit--
vixi--
viz--
vo--
voca--
voi--
vol--
volu--
von--
vor--
vou--
vr--
vre--
vu--
vui--
vul--
vuo--
w--
wa--
wal--
wald--
wan--
war--
was--
we--
web--
weih--
wein--
wel--
west--
wi--
wiki--
wil--
win--
wink--
witt--
wo--
wolfs--
wri--
wu--
x--
xa--
xcv--
xe--
xi--
xl--
xo--
xu--
y--
ya--
ye--
yi--
yo--
yu--
z--
za--
zac--
zaf--
zaga--
zan--
zani--
zar--
ze--
zen--
zeni--
zer--
zi--
zimb--
zio--
zo--
zoga--
zon--
zove--
zu--
zuz--
ð--
đ--
ła--
łe--
łi--
łiber--
ło--
łu--
ƚi--
ə--
ɛ--
ɡ--
ʃ--
ʒ--
α--
γ--
δ--
ε--
κ--
λ--
μ--
ν--
ο--
π--
ρ--
σ--
τ--
φ--
--0
--00
--1
--2
--26
--3
--4
--5
--6
--7
--8
--9
--a
--ac
--acci
--ach
--aco
--ad
--ada
--ade
--adi
--ado
--ae
--ago
--ah
--ai
--ain
--aio
--ais
--aja
--ajo
--al
--ale
--ali
--almente
--am
--ame
--amente
--amento
--amentre
--ami
--amo
--amp
--an
--ana
--and
--ando
--ane
--ang
--ange
--anges
--ani
--ano
--anon
--ans
--ansa
--ant
--ante
--anti
--anto
--anza
--ao
--ar
--ara
--ard
--ardi
--are
--ari
--aria
--arie
--ario
--aro
--arse
--arum
--ary
--as
--asco
--asion
--assi
--asure
--at
--ata
--ate
--ati
--ation
--ato
--au
--aux
--ava
--ave
--ay
--aye
--az
--azza
--azzi
--azzo
--ał
--ałe
--ałi
--ałita
--ało
--b
--ba
--bahn
--barda
--bardo
--bb
--bba
--bbe
--be
--bel
--ben
--bero
--bert
--bes
--besi
--beuf
--bi
--bido
--bie
--bil
--bile
--bili
--bilita
--bio
--bita
--biłe
--biłi
--biłita
--ble
--bm
--bo
--boa
--bola
--bolo
--bon
--bra
--bro
--bs
--bt
--bu
--burg
--burgo
--bus
--by
--c
--ca
--cal
--camente
--can
--car
--caro
--carpo
--całi
--cca
--cce
--cche
--cchi
--cchia
--cchio
--cci
--ccia
--ccio
--cco
--ce
--ceae
--celli
--cenza
--cer
--ceri
--ces
--cey
--ch
--cha
--che
--chi
--chia
--chin
--chini
--cho
--cht
--ci
--cia
--cin
--cina
--cini
--cino
--cio
--cion
--ck
--cki
--cle
--co
--col
--coli
--colo
--con
--court
--cq
--cra
--cs
--ct
--cta
--ction
--cto
--ctus
--cu
--cus
--cutiva
--cutivi
--cutivo
--cy
--d
--da
--dad
--dan
--danti
--dar
--das
--de
--dega
--dego
--den
--densa
--deo
--der
--des
--desto
--dha
--dhe
--dhi
--dho
--di
--dia
--dian
--die
--dilla
--dillo
--din
--dina
--dine
--dini
--dino
--dio
--dir
--diva
--dive
--divi
--divo
--dn
--do
--don
--dona
--done
--dor
--dora
--dore
--dores
--dorf
--dori
--doro
--dos
--dosi
--doso
--doła
--dr
--dra
--dria
--dro
--ds
--dt
--du
--dum
--dun
--dura
--dure
--duto
--dy
--e
--ea
--eae
--eau
--eaux
--ec
--eca
--ech
--ed
--eda
--ede
--edo
--ee
--eg
--ega
--egg
--eghe
--eghi
--egi
--ego
--ei
--eja
--ejo
--ek
--el
--ela
--eld
--ele
--eli
--ella
--elli
--ello
--elo
--em
--emo
--en
--ena
--enay
--enc
--ence
--ene
--enheim
--eni
--enio
--enne
--ennes
--ens
--ense
--ent
--enta
--ente
--enti
--enze
--eo
--ep
--er
--era
--ere
--erg
--eri
--eria
--ering
--erio
--ern
--erne
--ero
--ers
--ersdorf
--ert
--es
--esa
--esco
--ese
--esi
--esion
--ess
--est
--et
--eta
--ete
--eti
--eto
--ets
--ett
--etta
--ette
--etti
--etto
--eu
--euil
--euse
--eux
--ev
--eva
--evałi
--evi
--ex
--exa
--exe
--exi
--ey
--ez
--eza
--eze
--ezi
--ezo
--ezza
--ezzo
--ełi
--eło
--f
--fa
--fe
--fect
--fega
--feghe
--fego
--fei
--feld
--feo
--feto
--fett
--ff
--ffa
--ffe
--ffo
--ffy
--fi
--fia
--fic
--fica
--ficar
--ficasion
--ficato
--fice
--fiche
--fici
--ficio
--fico
--field
--fisi
--fiso
--fo
--fono
--fort
--foło
--fs
--ft
--ful
--g
--ga
--gada
--gado
--gai
--gal
--gan
--gana
--gano
--gante
--gar
--gari
--garo
--gasion
--gat
--gau
--gałe
--gc
--ge
--gel
--gen
--ger
--ges
--gey
--gg
--gge
--ggi
--ggia
--ggio
--gh
--ghe
--ghi
--gi
--gia
--gian
--giani
--giar
--giatura
--gica
--gie
--gine
--gini
--gio
--gion
--gis
--gli
--glia
--gliano
--glie
--glio
--glione
--gn
--gna
--gnac
--gnano
--gnar
--gnara
--gnat
--gne
--gnes
--gneste
--gnesti
--gnesto
--gneva
--gney
--gni
--gnies
--gnir
--gnita
--gno
--gnol
--gnole
--gnoli
--gnolo
--gnon
--gnu
--gny
--go
--gon
--goni
--gono
--gos
--gra
--gram
--grin
--gro
--ground
--gs
--gt
--gton
--gu
--gue
--guer
--gues
--gui
--guir
--gura
--gy
--h
--ha
--hac
--hai
--ham
--han
--har
--haus
--he
--heim
--hem
--hen
--her
--hes
--het
--heta
--heto
--hey
--hi
--hia
--hias
--hie
--hieu
--him
--hin
--hini
--hino
--hio
--hip
--hl
--hls
--hn
--ho
--hof
--holz
--hon
--hop
--hou
--hr
--hs
--ht
--hun
--hy
--i
--ia
--iac
--iade
--iae
--ial
--ian
--iana
--iani
--iano
--iar
--iare
--ias
--iba
--ic
--ica
--ich
--iche
--ici
--icia
--icio
--ico
--ics
--id
--ida
--ide
--idi
--ids
--ie
--ien
--ier
--iere
--ieri
--iero
--iers
--ies
--ieta
--ieu
--ieux
--ig
--iga
--ige
--iglion
--ignac
--igne
--igny
--igo
--ii
--ija
--ikon
--il
--ila
--ile
--iler
--iles
--ili
--ilia
--illa
--illac
--illas
--ille
--illes
--illo
--illy
--ilo
--ils
--im
--imo
--in
--ina
--ine
--ines
--ing
--ini
--ino
--ins
--inson
--io
--ion
--ione
--ions
--ioto
--ir
--ira
--ire
--iro
--is
--isa
--ise
--ish
--isi
--isio
--ision
--ism
--ismo
--isse
--ist
--ista
--isti
--isy
--it
--ita
--itade
--ite
--iti
--ito
--ity
--iu
--ium
--ius
--iva
--ive
--ivi
--ivo
--ix
--ixa
--ixe
--ixi
--ixion
--iz
--iza
--izasion
--ize
--izi
--izzo
--iła
--iłi
--j
--ja
--jac
--jada
--jai
--jas
--je
--jer
--jere
--jeria
--ji
--jia
--jir
--jo
--jon
--jos
--k
--ka
--ke
--kel
--ker
--kes
--kh
--ki
--kirchen
--ko
--kon
--ks
--ku
--ky
--l
--la
--lacqua
--lada
--lag
--lan
--land
--lar
--lare
--las
--lat
--lay
--lba
--lca
--ld
--lda
--lde
--ldi
--ldo
--ldre
--le
--lejo
--lem
--leme
--len
--ler
--lery
--les
--let
--leta
--letti
--ley
--lf
--lfi
--lfo
--lhac
--li
--lia
--lica
--lice
--lici
--lida
--lie
--lier
--lieu
--lii
--lik
--lin
--lina
--lini
--lino
--lio
--lis
--lita
--liti
--liza
--ll
--lla
--llac
--llana
--llas
--lle
--lles
--lli
--llina
--llo
--llon
--llos
--lls
--lly
--lm
--lme
--lmente
--lo
--logi
--logia
--logy
--lon
--lona
--los
--lot
--low
--lph
--lpi
--ls
--lsa
--lsheim
--lsi
--lso
--lt
--lta
--lte
--lti
--lto
--ltra
--ltre
--ltri
--ltro
--ltz
--lu
--lum
--lus
--luta
--luto
--luxo
--luzion
--lve
--ly
--lz
--lzi
--m
--ma
--maa
--mada
--mai
--man
--mar
--mare
--mba
--mbach
--mbe
--mbert
--mbi
--mbo
--mbre
--me
--med
--melo
--men
--ment
--menta
--mental
--mentałe
--mentałi
--mente
--menti
--mento
--mentre
--meo
--mer
--mes
--metrajo
--mi
--mia
--miche
--mie
--mila
--min
--minti
--mio
--mir
--mire
--mm
--mma
--mme
--mmi
--mo
--mocha
--mon
--mont
--mose
--mp
--mpa
--mpe
--mper
--mpi
--mpo
--mps
--ms
--mu
--munt
--mus
--mut
--my
--n
--na
--nac
--nada
--nai
--nais
--nal
--nans
--nansa
--nar
--nari
--nas
--nau
--nay
--nałe
--nałi
--nba
--nbach
--nbe
--nbi
--nbo
--nburg
--nc
--nca
--nce
--nces
--ncey
--nch
--ncha
--nche
--nches
--nchi
--ncho
--nci
--ncia
--ncie
--ncio
--nco
--ncourt
--ncy
--nd
--nda
--ndam
--nde
--ndente
--ndenti
--nder
--ndi
--ndo
--ndola
--ndolo
--ndome
--ndorf
--ndose
--ndosi
--ndote
--ndra
--ndri
--ndro
--nds
--ndu
--ne
--nea
--nedo
--nee
--nega
--negg
--nego
--nei
--nem
--nen
--nente
--neo
--ner
--nera
--nero
--nes
--nese
--nesi
--nesto
--net
--nex
--nexe
--ney
--ng
--nga
--nge
--ngen
--nger
--ngers
--nges
--nghe
--nghen
--ngo
--ngs
--ngy
--nheim
--ni
--nia
--nic
--nica
--nici
--nico
--nie
--nieri
--nigo
--nil
--nima
--nimi
--nin
--ning
--nio
--nir
--nis
--nise
--nita
--nja
--nje
--nji
--njo
--nju
--nk
--nkirchen
--nn
--nna
--nne
--nnes
--nni
--nnie
--nno
--no
--nois
--non
--nor
--nos
--nosimenti
--nou
--noux
--nova
--nove
--novo
--noy
--nquista
--ns
--nsa
--nsac
--nse
--nsi
--nsia
--nsion
--nsis
--nsiva
--nsivo
--nso
--nsor
--nsori
--nstein
--nt
--nta
--ntal
--ntana
--ntar
--ntari
--ntałi
--nte
--ntera
--ntes
--nti
--ntia
--ntie
--ntiera
--ntin
--ntina
--ntini
--ntino
--ntis
--nto
--nton
--ntra
--nts
--ntual
--ntuałe
--ntz
--nu
--nuel
--num
--nus
--nuto
--nx
--nxe
--ny
--nya
--nz
--nza
--nzac
--nzano
--nze
--nzi
--nzia
--nziale
--nzie
--nzio
--nzo
--o
--oa
--oba
--oe
--oi
--ois
--ok
--ol
--ola
--ole
--oli
--olles
--olo
--ologia
--ologico
--olto
--om
--oma
--on
--ona
--ondi
--one
--oni
--onne
--ono
--ons
--ont
--onte
--oo
--open
--or
--ora
--ord
--ore
--orf
--ori
--oro
--os
--osa
--ose
--osi
--oso
--ot
--ota
--ote
--oti
--oto
--otti
--ou
--ourt
--ous
--out
--oux
--ov
--oxa
--oxo
--oy
--oza
--ozo
--oła
--oło
--p
--pa
--pan
--pe
--petti
--ph
--phy
--pi
--pia
--pie
--pigny
--pin
--pio
--pir
--piti
--pli
--plic
--po
--poli
--pp
--ppa
--ppe
--ppi
--ppo
--ps
--pt
--pu
--pula
--py
--q
--qua
--que
--ques
--r
--ra
--rac
--rado
--rae
--rage
--rai
--ral
--rale
--rali
--ran
--rano
--rar
--ras
--rat
--rato
--rave
--ray
--raz
--razion
--rałe
--rałi
--rba
--rbe
--rbi
--rbo
--rc
--rca
--rce
--rche
--rchen
--rchi
--rchia
--rd
--rda
--rde
--rdes
--rdi
--rdini
--rdo
--rds
--re
--rea
--reau
--redo
--rei
--rella
--remo
--ren
--renza
--reo
--rer
--rera
--res
--resi
--ressi
--ret
--retto
--rexe
--rey
--rf
--rg
--rga
--rge
--rghe
--rgo
--rgues
--ri
--ria
--riamente
--rias
--riałe
--riałi
--rici
--rico
--rie
--rier
--ries
--rik
--rin
--rina
--rine
--rini
--rino
--rio
--riol
--rir
--rire
--ris
--rismo
--rite
--rito
--ritz
--rix
--riz
--rk
--rks
--rl
--rla
--rle
--rli
--rlo
--rm
--rma
--rme
--rmente
--rmi
--rmo
--rn
--rna
--rne
--rni
--rno
--rny
--ro
--roff
--rol
--rola
--ron
--roni
--ros
--rosa
--rot
--rota
--roux
--row
--roy
--roło
--rp
--rr
--rra
--rre
--rri
--rro
--rry
--rs
--rsa
--rsałe
--rsdorf
--rse
--rshire
--rsi
--rso
--rt
--rta
--rte
--rth
--rti
--rto
--ru
--ruela
--rum
--rus
--ruta
--rva
--rve
--rvo
--rxe
--ry
--rz
--rza
--rze
--rzi
--rzio
--rzo
--s
--sa
--sada
--sado
--samente
--san
--sar
--sat
--sava
--sburg
--sc
--sca
--sce
--schi
--sco
--scono
--sdorf
--se
--sea
--seca
--see
--sei
--semo
--sen
--sento
--seo
--ses
--sete
--seva
--sey
--sełi
--sh
--sheim
--ship
--shire
--si
--sia
--sian
--sida
--side
--sie
--sima
--simi
--simo
--sin
--sio
--sion
--sk
--ski
--skirchen
--slatura
--sle
--sles
--sm
--sma
--sme
--smes
--smi
--smo
--sne
--so
--son
--sor
--sp
--ss
--ssa
--ssan
--sse
--ssi
--ssia
--ssie
--ssima
--ssime
--ssimi
--ssimo
--ssina
--ssion
--sso
--sson
--ssu
--ssy
--st
--sta
--stag
--ste
--stega
--steghe
--stego
--stein
--ster
--stero
--sti
--stic
--stica
--stiche
--stico
--sto
--ston
--stone
--stu
--su
--swil
--sy
--t
--ta
--tada
--tade
--tae
--tal
--tamente
--tan
--tando
--tani
--tano
--tao
--tar
--tari
--taria
--tario
--tat
--tava
--tazioni
--te
--teca
--ted
--tee
--tega
--teghi
--tego
--telo
--temi
--ten
--ter
--tera
--tes
--tet
--teło
--th
--tha
--thy
--ti
--tia
--tic
--tica
--tici
--tico
--tics
--tie
--ties
--tili
--tin
--tina
--tini
--tino
--tio
--tion
--tions
--tipo
--tir
--tis
--tisi
--tismo
--tissimo
--tiva
--tive
--tivi
--tivo
--to
--ton
--tor
--tora
--tore
--tori
--torio
--tory
--tos
--tot
--tou
--tov
--town
--tr
--tra
--tre
--tri
--trice
--tro
--try
--ts
--tsch
--tt
--tta
--tte
--ttes
--tti
--ttiere
--ttimo
--ttina
--tto
--tu
--tuałi
--tudine
--tum
--tur
--tura
--ture
--tus
--ty
--tz
--tza
--tzen
--u
--ua
--ual
--uałe
--uałi
--uban
--ube
--ubina
--uc
--uca
--ucci
--uce
--ud
--uda
--ude
--udi
--ue
--ueil
--uer
--ues
--uet
--uf
--uga
--uge
--ui
--uil
--uille
--uin
--uir
--uis
--uise
--uita
--ul
--ula
--ule
--uli
--ulles
--ulo
--ult
--um
--uma
--ume
--ument
--umont
--un
--una
--une
--uno
--uo
--uola
--up
--upa
--upe
--upo
--upt
--ur
--ura
--ure
--ures
--uri
--urno
--uro
--urs
--urt
--us
--use
--uso
--usse
--ut
--uta
--ute
--uth
--uto
--utor
--uve
--ux
--uxe
--uy
--uz
--uze
--uzi
--uzzo
--uło
--v
--va
--vac
--val
--vamente
--vano
--var
--vare
--vaux
--vało
--ve
--vegio
--vel
--vele
--ver
--verde
--ves
--vi
--via
--vic
--vie
--vieja
--viglia
--ville
--vimo
--vin
--vo
--vole
--voli
--volo
--vołe
--vra
--vre
--vrir
--vro
--vry
--vu
--vy
--w
--wa
--wald
--wan
--way
--we
--well
--wers
--wick
--wiki
--wil
--wl
--wn
--wo
--wood
--wski
--www
--x
--xa
--xada
--xan
--xani
--xar
--xare
--xasion
--xe
--xemo
--xen
--xent
--xento
--xeła
--xi
--xia
--xie
--ximo
--xina
--xini
--xio
--xion
--xita
--xmo
--xo
--xon
--xv
--xx
--xy
--y
--ya
--ye
--yer
--yes
--yn
--yo
--yrac
--yres
--ys
--z
--za
--zac
--zada
--zai
--zal
--zan
--zando
--zano
--zar
--zas
--zasion
--zava
--zay
--ze
--zel
--zento
--zesta
--zesto
--zeto
--zetti
--zeva
--zey
--zi
--zia
--zian
--zie
--zin
--zini
--zio
--zion
--zione
--zioni
--ziosa
--zj
--zmo
--zo
--zolo
--zon
--zu
--zy
--zza
--zzano
--zzar
--zzazione
--zze
--zzeta
--zzi
--zzo
--zzoli
--ß
--đa
--ł
--ła
--łada
--łan
--łar
--łara
--łare
--łaro
--łasion
--łe
--łea
--łeme
--łesto
--łi
--łin
--łina
--łini
--łio
--łisio
--łismo
--łista
--łisti
--łita
--łiza
--ło
--łogia
--łoxia
--łoxie
--łozi
--łozia
--łu
--ŋ
--ƚa
--ƚe
--ƚi
--ƚo
--ɪ
--α
--η
--ι
--ν
--ς
--υ
--и
--ии
