!
"
#
##0
##1
##10
##11
##12
##13
##14
##15
##16
##17
##18
##19
##2
##20
##21
##22
##23
##24
##25
##26
##27
##28
##29
##3
##30
##31
##32
##33
##34
##35
##36
##37
##38
##39
##4
##40
##41
##42
##43
##44
##45
##46
##47
##48
##49
##5
##50
##51
##52
##53
##54
##55
##56
##57
##58
##59
##6
##60
##61
##62
##63
##64
##65
##66
##67
##68
##69
##7
##70
##71
##72
##73
##74
##75
##76
##77
##78
##79
##8
##80
##81
##82
##83
##84
##85
##86
##87
##88
##89
##9
##90
##91
##92
##93
##94
##95
##96
##97
##98
##99
$
%
&
'
(
)
*
+
,
-
.
/
0
00
000
001
01
02
03
03006807997
03061241415
04
05
051
056
06
07
08
09
1
10
100
1000
100003923895505
100005474436249
100005507200958
100013386369393
101
1012
101325
1018
102
1021
103
1031
1048
105
1051
1054
1055
106
107
1075
108
109
1094
11
110
1100
1101
111
1118
112
1124
113
1135
1136
1138
114
1145
116
1160
1162
117
1170
118
1180
1186
1187
1188
119
1192
1195
1196
12
120
1200
121
1210
1215
122
1221
1224
1225
1226
1227
1229
123
124
1240
1242
125
1251
1258
1259
126
1260
1261
127
1279
128
1288
129
1294
1299
13
130
1300
1307
131
1315
132
1320
1328
133
1332
1336
134
1341
1342
1346
135
1351
136
1374
138
1381
1382
1384
1387
1389
139
1393
1399
14
140
1400
1405
1406
141
1412
142
1421
1422
143
1438
144
1451
1453
1461
1469
148
1489
149
1492
15
150
1500
1501
1517
152
1520
1526
153
1530
154
155
1550
156
1566
1567
157
1570
158
1580
1582
159
1595
16
160
1600
1603
1617
1618
162
1622
1627
164
1640
1648
165
166
167
168
1687
1689
169
1690
1691
1695
17
170
1700
1702
1703
1704
1707
171
1713
1719
172
1723
1727
173
1730
1732
1733
174
1744
1746
1748
1749
1750
1751
1752
1754
1757
1759
176
1760
1761
1762
177
1772
1774
1776
178
1783
1789
179
1798
1799
18
180
1800
1801
1802
1803
1806
1807
1808
1809
181
1810
1811
1817
1818
1819
182
1823
1825
1829
183
1833
1837
1838
1839
184
1840
1843
1845
1848
1849
185
1850
1851
1852
1853
1854
1856
1857
1858
1860
1861
1862
1864
1866
1867
1868
1869
1871
1872
1874
1875
1876
1878
1879
1880
1881
1882
1884
1886
1887
1888
1889
1890
1892
1894
1895
1896
1897
1898
1899
19
190
1900
1901
1902
1903
1904
1905
1906
1907
1908
1909
191
1910
1911
1912
1913
1914
1915
1916
1917
1918
1919
192
1920
1921
1922
1923
1924
1925
1926
1927
1928
1929
193
1930
1931
1932
1933
1934
1935
1936
1937
1938
1939
194
1940
1941
1942
1943
1944
1945
1946
1947
1948
1949
195
1950
1951
1952
1953
1954
1955
1956
1957
1958
1959
1960
1961
1962
1963
1964
1965
1966
1967
1968
1969
197
1970
1971
1972
1973
1974
1975
1976
1977
1978
1979
1980
1981
1982
1983
1984
1985
1986
1987
1988
1989
199
1990
1991
1992
1993
1994
1995
1996
1997
1998
1999
2
20
200
2000
2001
2002
2003
2004
2005
2006
2007
2008
2009
201
2010
2011
2012
2013
2014
2015
2016
2017
2018
2019
202
2020
2021
2022
2023
203
204
206
209
21
210
212
213
214
216
218
22
220
221
222
225
226
227
23
230
231
232
234
235
236
237
238
239
24
240
241
243
245
246
247
248
25
250
2500
25000
251
252
253
254
256
257
25791
26
260
261
264
265
269
27
270
271
273
274
275
276
278
279
28
281
286
29
291
292
293
295
297
3
30
300
3000
301
308
31
310
313
3166
316846592
318
32
320
3200
322
325
33
330
331
334
336
34
340
344
35
350
352
354
355
3558179483314004
359
36
360
364
365
368
37
370
371
372
375
38
384
39
393
397
398
4
40
400
4000
407
41
411
416
417
418
42
420
422
423
425
427
428
429
43
430
432
434
44
440
442
45
450
453
459
46
460
47
48
480
481
484
486
487
488
49
490
492
495
5
50
500
51
510
512
518
52
520
521
524
53
54
545
549
55
555
56
563
566
569
57
570
571
575
577
58
580
582
583
584
585
586
58987294928
59
592
599
6
60
600
602176487
61
610
619
62
620
621
622
623
624
625
626
627
628
629
63
630
632
634
639
64
642
644
65
656
659
66
660
661
67
677745
68
680
683
685
69
695
7
70
700
705
708
71
711
715
717
72
720
724
728
73
730
735
74
743
744
745
75
750
756
76
77
775
78
785
785411784
786
788
79
796
8
80
800
80665
809
81
813
819
82
822
828
83
8316846592
833
834
84
840
842
845
847
85
850
852
854
86
861
862
865
869
87
870
873
88
880
889
89
892
9
90
902
908
909
91
912
92
929
93
932
934
94
940
944
946
95
96
965
967
97
974
978
98
980
983
989
99
991
997
:
;
<
=
>
?
@
\
^
_
`
a
aa
aaj
abandon
abbas
abbr
abd
abdul
about
above
abs
absolute
abu
ac
acceleration
accept
accepted
access
accessdate
accessed
accession
according
account
acre
act
action
active
actor
actress
actual
ad
add
addcat
addclass
added
addition
additional
addnamed
addnewline
adds
adil
admin
ae
af
afghanistan
africa
african
after
against
age
aged
agency
agha
ahmad
ahmed
ai
air
al
ali
alias
aliases
aliaseslist
align
all
allah
allow
allowed
allows
alpha
already
also
alt
altnames
alttype
always
am
amazon
ambassador
ambox
america
american
amirbai
among
amount
amp
an
anchor
and
anne
annum
another
anthropocentrism
anthropology
any
anything
apostrophe
app
appear
appears
apply
appropriate
april
ar
arab
arabic
archaeology
archana
architecture
archive
archived
archivedate
archiveurl
are
area
areas
arg
argkeys
args
argsi
argsk
argtables
argument
arguments
ark
armenia
armenian
arms
around
array
art
article
articles
articleshow
artist
artists
arts
arxiv
as
ascii
ashraf
asia
asian
asin
ask
asp
aspx
assemble
assembly
assign
assigned
associated
assume
at
atal
atm
atmosphere
attack
attempt
attr
attribute
au
audio
aug
august
augustus
aur
australia
author
authority
authorlink
authorlist
authors
auto
autocad
autoconfirmed
automatically
autoreview
available
avoid
award
awards
away
ayesha
az
azerbaijan
aziz
azizkingrani
b
ba
back
background
backtranslate
bad
badr
bahawal
bahawalpur
bahri
ban
banner
banners
bannertemplate
bar
bare
barquq
barrel
barrels
base
based
basestyle
basic
battle
baybars
baz
bbc
bbl
bc
bd
be
because
been
before
begin
beginning
begins
being
below
best
beta
better
between
beyond
bhabha
bibcode
bible
bibliography
big
bihari
billion
bin
bina
binary
bio
biocentrism
biographies
biography
biorxiv
birth
black
blank
blankname
blasts
blog
blogs
blogspot
blood
blue
blurb
blurbobj
bnf
board
body
bodyclass
bodystyle
bold
boli
bollywood
book
books
boolean
border
bot
both
bots
bottom
box
boxargs
boxtable
brackets
branch
break
britannica
british
broken
brother
browser
btu
build
builder
building
bushel
bushra
but
butt
button
buzdar
by
byte
c
ca
cad
caesar
cairo
cal
calendar
california
call
called
calling
calls
calorie
calories
cambridge
came
can
canada
candidate
cannot
cap
capital
caption
capture
captures
carta
cas
case
cases
cat
categories
categorize
category
categoryhandler
catnocountry
cats
cause
cb
cc
cdata
cell
celsius
cent
center
centimeter
centimetre
central
century
cfg
cgi
ch
change
changes
chapter
chapterurl
char
character
characters
charge
check
checked
checking
checks
checktype
chemical
chief
child
chile
china
chinese
ching
choose
church
ci
cid
cinema
circassian
citation
citationclass
cite
citeref
citeseerx
city
civilization
cl
claim
claimqualifs
claims
clans
class
classes
cleanup
clear
cm
cmbox
cms
co
coat
code
codes
coins
coke
collaboration
collapsible
collection
college
colon
color
colspan
column
columns
colwidth
com
combination
come
comma
commas
comment
committee
common
commons
communication
community
companion
company
compare
comparedisplay
comparelink
compareurl
complete
compresssparsearray
computer
computing
concat
concatenate
concatenation
concubine
condition
conference
config
configtables
configuration
confirmed
conflictincities
congo
congress
conj
conjunction
considered
constituency
contact
contain
containing
contains
contemporary
contempt
content
contentmodel
contribution
contributor
contributorlist
contributors
control
conversion
convert
converted
coord
coordinate
coordinates
coordinatespec
copy
corporate
corporation
correct
corresponding
could
council
count
counter
counting
country
court
create
created
createlink
creation
cropped
cs
css
csstext
ctx
cu
cube
cubic
cuft
cuin
cultural
culture
cup
current
currentdate
currently
currenttitle
custom
customary
cuyd
cy
cyprus
d
da
dab
daily
dailypakistan
dailytimes
darul
dash
data
datacode
datatype
datavalue
date
datemod
dateobject
dates
daughter
david
dawn
day
days
db
dd
de
dead
death
debug
dec
december
decimal
decimetre
declared
default
defaultkey
defaultlang
defaultlink
defaultns
defaults
defence
define
defined
definition
degree
degrees
del
delete
delhi
democracy
democratic
demospace
density
deoband
department
depend
depending
deprecated
deputy
dera
des
description
descriptions
detail
details
detect
detected
detects
determine
determines
development
df
di
dictionary
did
dies
diff
difference
different
digit
digital
digits
din
direction
directly
director
directory
discuss
disp
display
displayed
displayformat
displays
dispute
disputes
dissertation
distance
distancefromleft
district
div
division
dl
dm
dmlclimet
dms
dmy
dn
do
doc
docname
docpage
docpagebase
docs
docspace
doctitle
documentation
does
doesn
dog
doi
domain
domains
domestic
don
done
donne
dot
double
doubled
down
dq
dr
draft
drama
dry
du
due
dunya
dunyanews
duplicate
duration
during
dv
dy
dynasty
e
each
earlier
early
earth
east
eastern
ec
ece
ecology
ecp
ed
edirne
edit
edited
editing
edition
editlink
editor
editorlink
editorlist
editors
editrequest
edits
eds
edu
education
egypt
ei
eight
either
election
electrical
electronvolt
element
else
elseif
em
email
embargo
embargoed
emir
emission
emit
empire
empty
en
encode
encoded
encyclopaedia
encyclopedia
end
endash
ending
energy
engineering
england
english
entertainment
entities
entity
entityid
entry
enumerated
env
envfuncs
environment
eoka
episode
equal
equals
equivalent
era
erg
err
error
errors
es
esc
escape
est
established
et
etal
etc
ethnic
eu
europa
europe
ev
even
evenodd
event
evolution
example
examples
except
exceptions
exhaust
exist
existing
exists
expected
expecttype
experiment
expiry
explanation
explanationblurb
express
expression
ext
extended
extendedconfirmed
extension
extensiontag
external
extra
extract
extraneous
f
face
facebook
fahmida
fail
faiz
fall
falls
false
family
famous
fargs
fatima
fbid
fe
feature
features
feb
february
feet
female
feminism
feminist
fetch
field
fields
fieldsi
fifth
file
filename
files
fill
film
filter
find
first
firstn
fix
fixed
fl
flag
flex
float
floor
flow
fmt
focus
folk
folklore
followed
following
font
foo
foot
for
force
foreign
form
format
formatdate
formaterror
formats
formatsnak
formatspattern
formatstatement
formatstatements
formatted
formatting
former
forms
forum
forward
foster
found
foundation
four
fourth
fr
fragment
frame
free
freedom
french
friday
from
ft
fuel
full
fullurl
fully
fun
func
function
functions
future
g
ga
gaddi
gal
galaxylollywood
gallon
gallons
gap
gas
gave
gazette
gb
ge
gender
general
generate
generated
generates
generic
genre
geo
get
getargnums
getargs
getclaims
getcontentlanguage
getcurrentframe
getcurrenttitle
getdata
getdate
getentity
getenvironment
getexpandedmessage
getexports
getid
getmainid
getopt
getparameters
getparammappings
getparent
gets
getstringstatementvalue
gettitle
ggf
ghazals
gif
give
given
gives
gj
gl
global
gmail
gmatch
gmol
gn
go
god
good
google
got
gov
government
governor
gr
gram
grams
granted
great
greater
greece
greek
green
gregorian
grid
group
groups
grow
gsub
guide
gw
h
ha
had
hajji
handle
handler
handlers
has
hasan
hassan
hasvalue
have
hdl
he
header
heading
heart
hebrew
hectare
height
help
helper
hemisphere
her
here
heritage
hi
hidden
hide
high
him
hindi
hindki
hindko
hindku
hindu
hinduism
hindustantimes
hipinpakistan
his
historical
history
historylink
hl
hlist
hm
hms
hold
holding
holds
holy
home
horizontal
horsepower
hostname
hour
hours
house
how
hp
htm
html
http
https
huma
human
humanities
hundredweight
hussain
hyderabad
hyphen
hyphens
i
ia
ian
ibn
icon
id
ideas
ident
identifier
identifiers
ids
idx
idxformat
ietf
if
ignore
ignoreblank
ignored
ii
iii
image
imageemptycell
imagefilename
imageleft
imageright
images
imax
imbox
imdb
imp
imperial
impgal
implement
implements
implosive
important
imported
impoz
imran
in
inactive
inc
inch
inches
include
included
includes
including
inconnu
incorrect
indef
indent
independent
index
india
indian
indianexpress
indiatimes
indicate
indicator
individual
indus
infant
info
infobox
information
initial
initials
inline
input
insensitive
insert
inside
instance
instead
instep
institutions
integer
internal
international
internetarchivebot
interview
interviewer
interviewerlist
interviewers
into
intro
introduction
introfragment
inv
invalid
invisible
invoke
ipairs
iran
iraq
irish
is
isbn
isbns
iscomplex
islam
islamic
island
islands
ismn
isn
isnegative
isnotempty
iso
isoname
israel
issmall
issn
issue
issues
istemporary
isxn
iszero
it
italic
italics
italy
itbay
item
items
its
itself
iv
izz
j
ja
jaghdali
jagjit
jalal
james
jan
jang
january
jaschok
jatki
jdz
jewish
jfm
jiah
jobs
john
join
journal
journey
jpg
jstor
jul
julian
july
jun
june
just
k
ka
karachi
kashmir
kaur
kazakhstan
kcal
keep
kenning
kern
kesselman
kev
key
keypos
keys
keyword
keywords
kg
kgf
khakhi
khan
khetrani
ki
kilocalorie
kilogram
kilograms
kilojoule
kilometer
kilometers
kilometre
kilometres
kilotonne
kilowatt
kingdom
kipchak
kj
kl
km
kmol
kn
know
knowledge
known
kohati
korea
kpa
kt
kw
kwh
l
la
label
labelformat
lahore
lakha
land
lang
langcode
langlist
language
languages
large
last
lastheader
lastn
lat
later
latest
latin
latitude
law
lay
lb
lbf
lbfft
lbmol
lccn
lcwt
le
leader
leading
leap
least
left
legislature
lehnda
len
length
les
less
letter
letters
level
levels
lg
lgpunjab
li
library
libraryutil
libya
lien
lieutenant
life
lifestyle
light
like
lim
limit
limited
line
linear
lines
linguistic
link
linkback
linkbox
linked
linkn
links
linktype
list
listed
listnum
listnums
lists
listtype
liter
literary
literature
litre
little
live
living
load
loaddata
local
location
locmap
lodhi
log
lohar
lon
london
long
longitude
look
looking
loop
lord
lost
love
lover
lower
lowercase
lp
lt
ltf
lua
m
ma
machine
mackeson
madan
made
mag
magazine
magic
magna
mahanta
mail
main
maincat
mainsnak
maint
maintenance
majority
make
makebannertext
makecategorylink
makeinvokefunc
makes
makestartboxdata
makestartboxlinksdata
maketoolbar
makeurllink
makewikilink
making
male
malik
malini
mamluk
man
management
mansur
many
map
mappings
maps
mar
march
margin
maria
mark
marker
marks
marksize
markup
martin
martyrs
mashooq
mask
maskn
mass
master
match
matches
matching
math
max
maxdepth
maxdiff
maxnodes
may
mbox
mcal
md
mdy
me
mean
means
measurement
media
mediawiki
medium
member
members
memon
mendel
mercury
merge
message
messagebox
messagename
messages
meta
metaargs
metadata
metatable
meter
metre
metres
metric
mg
mi
mianwali
michael
middle
might
mile
miles
military
millennium
millilitre
million
min
mindiff
mini
minister
ministry
minority
mintageworld
minute
minutes
mirror
miss
missing
mj
ml
mm
mmol
mn
moa
mod
mode
model
modern
modified
modulation
module
modules
mohammad
mol
molar
mole
moles
moment
mon
month
months
more
mosque
most
mother
move
movement
movie
movies
mp
mpa
mph
mr
ms
msg
mshared
mt
mtabletools
mtx
mu
mubasherkaleem
muhammad
multan
multani
multiple
multiplier
mumbai
municipal
municipality
museum
music
muslim
muslims
must
muzaffar
mw
my
mylanguage
n
na
naibaat
naila
name
named
namedata
namelist
names
namespace
namespaces
nasir
nation
national
nationalism
nations
native
natural
nautical
navbar
navbox
nawabs
nawaiwaqt
nazir
nd
ndargs
ne
necessary
need
needed
needs
negative
neither
nepal
net
network
never
new
news
newsgroup
newspaper
next
nicaragua
nicosia
nigar
nil
nile
ninth
nizam
nl
nm
nmi
no
nobel
nobelprize
nocat
node
noexpiry
nominee
non
none
nopp
nor
normal
north
northern
not
note
notes
nothing
notice
nov
novalue
november
now
nowiki
nowrap
nrb
ns
nscategory
nsf
ntc
nts
num
number
numbered
numbers
numeral
numeric
numerical
nums
numval
nytimes
o
obj
object
objects
obscure
ocinsoutput
oclc
october
of
off
office
offices
official
offset
ofi
often
ogimet
oil
ok
ol
old
oldid
olditems
omargs
ombox
on
once
one
onepage
online
only
open
opening
operation
option
optional
options
or
order
ordered
ordinal
org
orig
origargs
origin
original
originally
origink
os
osti
other
others
otherwise
ou
ounce
our
out
output
outputs
ouvrage
over
override
own
oxford
oz
p
pa
padding
padlock
page
pagename
pageobject
pages
pagetype
pagetypes
pair
pairs
pak
pakistan
pakistani
paper
par
para
parallel
param
parame
parameter
parameterfuncs
parameters
params
parent
pargs
parliament
parms
parse
part
partial
parts
party
pas
pashto
pass
passed
passes
past
path
pattern
patterns
patternspattern
pc
pcall
pd
pdf
peace
pending
people
per
performance
performed
period
periodical
persian
person
personal
peter
pg
photo
php
physical
physics
pid
pint
pipe
pj
pk
pkt
pl
place
placeholder
plain
plainlinks
play
please
plural
plus
pm
pmc
pmid
pn
png
poems
poet
poetry
poets
point
police
policy
political
politics
pollution
portal
portion
portrait
pos
position
positional
positive
possible
post
posts
postscript
pound
pounds
pour
power
pp
practice
pre
preceded
preceding
precision
predecessor
preferred
prefix
prefixed
prefixedtext
prefixes
preload
premier
preprint
preprocesssinglearg
present
presentation
president
press
pressure
presume
prevent
preview
previous
previously
pride
prime
prince
print
printtitle
prior
priority
prizes
process
processing
produces
profile
program
project
projectdata
projects
prop
proper
properties
property
prophet
props
protected
protection
protectionblurb
protectioncategories
protectiondate
protectionlevel
protectionlevels
protectionlog
protectionobj
protocol
provided
provides
province
ps
psf
psi
pt
pti
ptr
ptv
pub
publication
publications
publishdate
published
publisher
publishers
punctuation
punjab
punjabi
purge
put
px
q
qa
qalawun
qid
qt
qtr
qualif
qualifier
qualifiers
qualifs
quart
quarter
queen
query
quote
quoted
quotes
r
radio
radius
rajkumari
ramzan
random
range
rank
rasool
rate
rather
ratio
raw
rd
re
read
real
really
reason
reasons
recognized
recommended
red
rediff
redir
redirect
redirects
redundant
ref
reference
references
reformat
reformatted
reformatting
refs
region
regional
registration
reign
rekhta
relative
release
relevant
religious
remove
removeblanks
removed
removes
render
rendered
rendering
renderstartbox
rendertrackingcategories
rep
replace
replaced
replacement
report
reports
republic
request
requested
requests
requesttype
require
required
requires
res
research
resource
result
results
ret
retrieved
return
returned
returns
retval
review
rfc
rft
riaz
rifat
right
rights
river
role
roman
rome
root
round
routledge
row
rowargs
rowcellstyle
rowclass
rowstyle
royal
royalark
roznama
rukn
rule
rules
run
running
s
sa
safe
saint
salah
salih
same
samra
sanam
sandbox
sandboxlinks
sandboxpreload
sandboxtitle
saraiki
save
say
sayf
says
sbn
sbox
sc
scale
scheme
school
science
scope
screen
scribunto
script
scwt
se
sea
search
season
sec
second
seconds
secretary
sect
section
see
select
selected
self
semi
senate
sense
sentence
sep
separate
separated
separator
sepc
september
sequence
seraiki
serial
series
serve
services
serving
set
setmetatable
sets
setting
settings
settlement
seventh
several
sha
shackle
shah
shahzia
shaikh
shaykh
sheet
sheets
short
should
show
shown
si
sign
signal
signature
signs
sikander
sikh
silver
similar
simple
sin
since
sindh
sindhi
singer
single
sir
siraiki
site
sitelink
sites
six
sixth
size
skew
skip
skr
sl
small
smith
snak
snaks
snaktype
so
social
society
solar
solid
some
something
son
song
sort
sortable
sorted
sortkey
sorttype
source
sources
south
southeastern
southern
southpunjab
sp
space
spaced
spaces
spacing
span
speaker
spec
special
specific
specified
specifies
specify
speech
speed
speedy
spell
split
splitstr
spring
springer
sq
sqft
sqin
sqkm
sqmi
sqry
square
squared
sraiki
ssrn
st
stage
standard
stanford
star
start
startbox
state
statement
statements
states
station
status
steam
step
stf
still
stone
stopval
stories
story
str
strait
strange
string
strings
stringtable
strip
stripmarker
stripmarkers
stripped
striptonil
structure
struggle
students
studies
studio
study
style
styles
styling
su
sub
subdivision
subdivs
subject
subjectns
subjectspace
sublimity
subpage
subpages
subscription
substitute
substituteparameters
subtable
subtables
succeeded
success
successor
such
suffix
suffrage
sufi
suggested
suggestions
sujag
sultan
summary
summer
sun
sunjjan
supl
supplied
support
supported
supreme
sur
sure
surname
survey
svg
sym
symbol
sysop
system
t
table
tablei
tables
tabletools
tag
tags
tail
take
taken
takes
talk
talkpage
talkpagetitle
talktitle
tara
target
tatar
tbl
tcoins
td
te
team
technical
technology
television
temp
temperature
template
templatecategory
templateeditor
templateerrorcategory
templates
templatestyles
templatetitle
temple
temporary
term
terminal
test
testcases
testcaseslink
testcaseslinkdisplay
testcaseslinks
testcasespreload
testcasesrunlink
testcasesrunlinkdisplay
testcasestitle
tested
testing
tests
text
textoptions
th
than
that
the
thehindu
their
them
then
thenews
theory
there
therm
thermal
thermochemical
these
thesis
they
things
thinking
third
this
thm
thomas
those
though
thousand
threads
three
through
thumb
tidyval
time
times
timesofindia
timestamp
title
titlecell
titlecolspan
titlelink
titleobj
titles
titlestyle
tj
tld
tmbox
tmon
tmp
tnt
to
today
todays
todo
ton
tonne
tonumber
tools
tooltip
top
topic
torque
tostring
tp
tr
tracking
tradition
trailing
trans
transchapter
transcluded
transcript
translate
translated
translation
translations
translator
translatorlist
translators
tre
treat
tribune
trim
true
tu
tuecke
turk
turkey
turn
tv
tw
two
txt
type
types
typically
u
ua
ui
uk
ul
un
undefined
under
une
unicode
union
unique
unit
united
units
universe
university
unknown
unless
unprotected
unregistered
unset
until
up
updated
upload
upper
uppercase
ur
urdu
urdupoint
uri
url
urlpattern
urls
us
usa
usage
usbu
usdrygal
use
usecollapsibletextfields
used
useful
usename
user
users
uses
usesymbol
usgal
using
usman
usoz
ustring
usually
utc
utilities
utype
v
vajpayee
val
valeur
valid
validate
validation
vals
value
valuefunc
values
van
vanc
vancouver
vandalism
variable
variables
various
vauthors
ve
veditors
ver
verse
verses
version
versions
vi
via
vice
victoria
video
videos
view
vii
viii
violence
virgin
visible
visualeditor
vol
volume
vstr
w
want
wantmixture
war
warning
warnings
was
wasaib
waseb
watch
water
waterfalls
watt
way
wd
we
web
website
week
weekly
weeks
weight
well
were
western
what
when
where
whether
which
while
white
whitelist
whitespace
who
whole
why
width
wiki
wikibase
wikidata
wikilink
wikilinked
wikilinks
wikimedia
wikipedia
wikis
wikisource
wikitext
wilderness
will
william
winners
winter
with
within
without
wl
woman
women
won
word
wordpress
work
workentity
working
works
world
worldwaterfalldatabase
would
wp
wrap
wrapped
wrapper
wrappers
writers
writing
written
wrong
www
x
xlate
xxxxors
y
yakub
yard
yd
year
years
yes
yesno
yet
yj
ym
ymd
york
you
your
youtube
yr
yu
yy
yyy
yyyy
z
za
zahir
zbl
zero
zohrabai
{
|
}
~
¢
¤
§
«
­
°
±
²
³
´
¶
·
»
×
æ
÷
ø
ı
ɏ
ə
ɛ
ɪ
ɪa
ʊ
ʌ
ʘ
ʻ
ʼ
ʿ
ˈ
ˌ
ː
̀
́
̂
̃
̄
̆
̇
̈
̊
̌
̓
̞
̣
̧
̨
̱
̲
͟
α
β
ι
μ
ξ
эдирне
ְ
ִ
ֵ
ֶ
ַ
ָ
ֹ
ּ
ֿ
ׁ
ׂ
א
ב
ג
ד
ה
י
כ
ל
ם
מ
ע
פ
צ
ק
ר
ש
ת
؁
؂
،
؍
؎
؏
ؐ
ؑ
ؒ
ؓ
ؔ
ؕ
؛
؟
ء
ءصفحہ
ءن
ءوچ
ءچ
ءچو
ءچوں
ءکوں
ءی
ءے
ا
اء
اءچ
اا
اب
ابا
ابابیل
اباد
ابادی
اباضی
اباضیہ
ابال
ابان
ابتدا
ابتداء
ابتداي
ابجد
ابد
ابدال
ابدالی
ابدی
ابرار
ابراھیم
ابراہم
ابراہیم
ابراہیمی
ابرق
ابرھہ
ابطال
ابلاغ
ابلیس
ابن
ابو
ابواب
ابوالحسن
ابوالصلاح
ابوالعباس
ابوالفضل
ابوالقاسم
ابوالمظفر
ابوالہول
ابوبکر
ابوجعفر
ابوجندل
ابوجہل
ابوحنیفہ
ابوداو
ابوذر
ابوسفیان
ابوسہل
ابوطالب
ابوطلحہ
ابوعبداللہ
ابوعبیدہ
ابوعفک
ابوقتادہ
ابومسلم
ابوناي
ابڑا
ابھایا
ابھردا
ابھردے
ابھرن
ابھری
ابھریے
ابھرے
ابھرݨ
ابھی
ابھیچڑی
ابھے
ابہام
ابی
ابیات
ابیاہ
ابیض
ابے
ات
اتا
اتار
اتالیق
اتبار
اتباع
اتحاد
اتحادی
اتر
اترا
اترپردیش
اتفاق
اتفاقی
اتلا
اتلی
اتلیاں
اتلے
اتم
اتنا
اتناں
اتنی
اتنیاں
اتنے
اتها
اتهاں
اتو
اتوار
اتوں
اتھ
اتھا
اتھارٹی
اتھاو
اتھاي
اتھاں
اتھاہوں
اتھاہیں
اتھو
اتھوں
اتھي
اتھے
اتہاس
اتی
اتیں
اتے
اثاثہ
اثاثیاں
اثار
اثبات
اثر
اثرات
اثنا
اثناء
اثیر
اج
اجارہ
اجازت
اجالا
اجاي
اجاگر
اجاں
اجایا
اجتماع
اجتماعی
اجتماعیت
اجتہاد
اجداد
اجر
اجرا
اجراء
اجرام
اجرت
اجرک
اجرکاں
اجزا
اجزاء
اجسام
اجل
اجلاس
اجلاساں
اجمل
اجمیر
اجمیری
اجناس
اجنبی
اجنڑ
اجوکا
اجوکی
اجوکیت
اجوکے
اجڑ
اجڑی
اجڑے
اجکل
اجھو
اجیہا
اجے
اجݨ
اح
احادیث
احاطہ
احباب
احتجاج
احتجاجی
احترام
احتراما
احتساب
احتشام
احتیاط
احد
احزاب
احساس
احساسات
احسان
احسانات
احسن
احقر
احمد
احمدانی
احمداݨی
احمدخاں
احمدپور
احمدپورشرقیہ
احمدیہ
احمر
احمق
احوال
احکام
احکامات
احیاء
اخ
اخبار
اخبارات
اخباراں
اخباری
اخباریں
اختتام
اختر
اختصار
اختلاف
اختلافات
اختلافی
اختیار
اختیارات
اخذ
اخذکردہ
اخر
اخراج
اخراجات
اخرم
اخروٹ
اخری
اخزیاہ
اخطب
اخلاص
اخلاط
اخلاق
اخلاقی
اخلاقیات
اخوت
اخیر
اخیري
اخیری
اد
ادا
ادارت
ادارہ
اداریاں
اداریں
اداریہ
ادارے
اداس
اداسی
اداي
اداکار
اداکاراي
اداکارہ
اداکاری
اداکرݨ
ادب
ادباء
ادبی
ادبیات
ادراک
ادراکی
ادرک
ادریس
ادریسی
ادغام
ادل
ادنی
ادو
ادوار
ادویات
ادویت
ادھ
ادھا
ادھار
ادھارے
ادھر
ادھو
ادھورا
ادھوری
ادھورے
ادھی
ادھے
ادہم
ادی
ادیان
ادیب
ادیباں
ادیبیں
ادے
اذان
اذیت
ار
ارا
ارادہ
ارادے
اراضی
ارام
ارامی
اراي
اراکین
اراں
ارب
ارباب
ارباز
ارباں
اربعہ
اربن
ارتریا
ارتقا
ارتقاء
ارتقاي
ارتکاب
ارتھ
ارجمند
ارجن
ارجنٹاي
ارد
ارداس
ارداساں
اردن
اردو
اردگرد
ارسطو
ارسلان
ارشاد
ارشد
ارشمیدس
ارض
ارضیات
ارغون
ارفع
ارفعیت
ارم
ارمان
ارمانی
اروار
ارچنا
ارکان
اری
اریا
ارے
از
ازاد
ازادی
ازالہ
ازاں
ازبک
ازبکستان
ازدواجی
ازدی
ازرق
ازسر
ازسرنو
ازل
ازلاں
ازلی
ازم
ازمنہ
ازواج
ازیں
اس
اسا
اساتذہ
اساری
اساس
اساسی
اساطیر
اساطیری
اسامہ
اسان
اسانی
اساڈ
اساڈا
اساڈی
اساڈیاں
اساڈے
اساک
اساکوں
اساں
اساݙا
اساݙی
اساݙیاں
اساݙے
اسباب
است
استاد
استادا
استاداں
استاذ
استانی
استحصال
استحصالی
استحکام
استدلال
استری
استشراق
استعارا
استعارات
استعارہ
استعاریاں
استعارے
استعفی
استعمار
استعماری
استعماریت
استعمال
استغفار
استفادہ
استفہام
استقامت
استقبال
استقبالیہ
استنبول
استوا
استوار
استواي
استھان
اسجد
اسحاق
اسحق
اسد
اسدی
اسرار
اسراي
اسسٹنٹ
اسقف
اسلاف
اسلام
اسلامک
اسلامی
اسلامیات
اسلامیہ
اسلحہ
اسلحے
اسلم
اسلو
اسلوب
اسلوں
اسلی
اسم
اسماء
اسماعيل
اسماعیل
اسماعیلی
اسماعیلیاں
اسماعیلیہ
اسمان
اسماناں
اسمانی
اسمانیں
اسماي
اسمبلی
اسمبلیاں
اسمعیل
اسمیں
اسناد
اسوان
اسود
اسور
اسوں
اسٹار
اسٹاي
اسٹاپ
اسٹبلشمنٹ
اسٹوری
اسٹوڈیو
اسٹیبلشمنٹ
اسٹیج
اسٹیشن
اسٹیٹ
اسپین
اسپیکر
اسکالر
اسکرپٹ
اسکرین
اسکندریہ
اسکول
اسکولاں
اسکیچ
اسکے
اسںاں
اسی
اسیر
اسیران
اسیں
اسے
اش
اشارا
اشارہ
اشاریاں
اشاریہ
اشارے
اشاعت
اشاعتاں
اشاعتی
اشباع
اشبیلیہ
اشتر
اشتراک
اشتراکی
اشتعال
اشتقاق
اشتہار
اشتہارات
اشتیاق
اشخاص
اشراف
اشرافیہ
اشرف
اشرفیاں
اشعار
اشعر
اشعری
اشفاق
اشلوک
اشو
اشولا
اشولال
اشوک
اشک
اشیا
اشیاء
اصابہ
اصحاب
اصرار
اصطلاح
اصطلاحا
اصطلاحات
اصطلاحواں
اصطلاحی
اصغر
اصف
اصفہان
اصفہانی
اصل
اصلا
اصلاح
اصلاحات
اصلاحی
اصلو
اصلوں
اصلی
اصلیت
اصناف
اصوات
اصول
اصولاں
اصولیں
اصیبعہ
اضافت
اضافہ
اضافی
اضافے
اضعافی
اضلاع
اط
اطاعت
اطالوی
اطالیہ
اطباء
اطراف
اطلاع
اطلاعات
اطلاق
اطمینان
اطوار
اطہر
اظہار
اظہر
اع
اعتبار
اعتدال
اعتراض
اعتراف
اعتزاز
اعتقاد
اعتقادات
اعتماد
اعجاز
اعداد
اعراب
اعزاز
اعزازات
اعزازی
اعصاب
اعضاء
اعظم
اعظمی
اعل
اعلام
اعلان
اعلی
اعمال
اعوام
اعوان
اعواݨ
اعواݨکاری
اعواݨی
اعیان
اغ
اغاز
اغراض
اغلب
اغلبی
اغوا
اف
افادیت
افتتاح
افتخار
افراتفری
افراد
افرادی
افروز
افریقا
افریقہ
افریقی
افزاي
افسانوی
افسانہ
افسانیاں
افسانیں
افسانے
افسر
افسران
افسراں
افسوس
افشاں
افضل
افعال
افغان
افغانستان
افغانی
افغانیں
افق
افلاس
افلاطون
افلاک
افواج
افواہ
افکار
اق
اقارب
اقامت
اقبال
اقبالیات
اقتباس
اقتباسات
اقتدار
اقتصادی
اقدار
اقدام
اقدامات
اقدس
اقرار
اقراری
اقرب
اقسام
اقلیت
اقلیتاں
اقلیتی
اقلیدس
اقلیم
اقوال
اقوام
ال
الا
الاء
الاخبار
الادب
الارض
الارے
الازہر
الاسد
الاسلام
الاسلامیہ
الاشاعت
الاشرف
الاشعار
الاصابہ
الاصول
الاعتقاد
الاعلام
الاعلان
الاعلی
الاعیان
الاغذیہ
الاقوامی
الامام
الامثال
الامراء
الامین
الانبیاء
الانصاری
الانوݨ
الانڑاں
الاو
الاول
الاولیاء
الاون
الاونڑ
الاوں
الاوے
الاوݨ
الاوݨی
الاي
الاٹ
الاٹمنٹ
الاپ
الاں
الایا
الب
البانیا
البتہ
البدایہ
البرٹ
البصری
البغدادی
البلاغہ
البلد
البم
البماں
البناء
البواب
البیان
البیرونی
الت
التاریخ
التجا
التحریر
التحریم
التحصیل
التراث
التفسیر
الثالث
الثانی
الجامع
الجبر
الجزاي
الجماعت
الجندل
الجواہر
الجوزی
الح
الحاج
الحافظ
الحاق
الحال
الحاکم
الحج
الحجہ
الحدیث
الحدید
الحرام
الحروف
الحساب
الحسن
الحسنى
الحسین
الحسینی
الحضرمی
الحفاظ
الحق
الحقیقت
الحكم
الحمد
الحمدللہ
الحنبلی
الحنفی
الحکم
الحکومت
الحیدری
الخضر
الخط
الخطاب
الخطب
الخلاف
الخلافہ
الخلفاء
الخلیفہ
الخیر
الد
الداي
الدرداء
الدمشقی
الدنیا
الدولہ
الدين
الدین
الدیں
الذ
الذنوب
الذي
الذکر
الذہب
الذہبی
الر
الرازی
الراضی
الراعی
الراي
الرحم
الرحمان
الرحمن
الرحيم
الرحیم
الرد
الرزاق
الرسالہ
الرسل
الرسول
الرشید
الرقاع
الزام
الزامات
الزاویہ
الزبتھ
الزرقالی
الزرکلی
الزمان
الزماں
الزہر
الزہراوی
الس
الستار
الستی
السفاح
السلام
السلطنت
السلمی
السنن
السنہ
السنۃ
السیرۃ
الش
الشاشات
الشافعی
الشام
الشان
الشعراء
الشمس
الشہداء
الشیخ
الشیوخ
الص
الصادق
الصاوی
الصباح
الصحابہ
الصرف
الصغیر
الصل
الصوت
الصوفیہ
الطارق
الطاف
الطاي
الطب
الطبری
الطبعۃ
الطبقات
الظاہر
الع
العابدین
العارفین
العاص
العالم
العباد
العباس
العباسی
العراقی
العرب
العربی
العزت
العزیز
العقل
العلاء
العلم
العلماء
العلوم
العلوی
العماد
العمل
العمود
العی
العین
الغابہ
الغرض
الف
الفا
الفارسی
الفاظ
الفانسو
الفت
الفتوحات
الفرج
الفرید
الفضل
الفطرت
الفقه
الفقہ
الفلاح
الفلسفہ
الفلک
الفواي
الفوطی
الفیل
الق
القاب
القابات
القادر
القاسم
القاضی
القانون
القاي
القاہر
القدر
القدس
القرا
القربی
القرشی
القضاۃ
القعدہ
القلانسی
القلوب
القمر
القمری
القوامی
الل
اللسان
اللطیف
الله
اللہ
الم
الماری
الماس
المال
المالک
المالکی
المبارک
المتعدی
المتوفی
المتوکل
المثل
المجالس
المجسطی
المجید
المختار
المختارة
المختصر
المختوم
المخلوقات
المدخل
المدینہ
المذاہب
المذہب
المرتبت
المرتضی
المرجان
المرجب
المساي
المستضی
المستظہر
المستعین
المستنجد
المستنصر
المستکفی
المسلمین
المشاي
المصابیح
المصطفی
المطلب
المظفر
المعارف
المعتز
المعتصم
المعتضد
المعروف
المغازی
المقتدر
المقتدی
المقتفی
المقدس
المقدمة
الملوک
الملوکی
الملک
المناجیح
المناظر
المناک
المنتصر
المنذر
المنصور
المو
المواعظ
الموت
الموسیقی
الموفق
المومنین
المکتفی
المہدی
المیہ
الن
الناس
الناصر
النبات
النبلاء
النبوۃ
النبویہ
النبویۃ
النبی
النجوم
النساء
النسل
النظر
النفس
النفیس
الو
الوا
الواثق
الواحد
الوایا
الوجود
الوداع
الوصية
الوطنی
الوعظ
الوفاء
الوقت
الول
الوہاب
الویندا
الویندے
الي
اليوم
الٹ
الٹا
الٹی
الکامل
الکاہل
الکبری
الکبیر
الکتاب
الکتب
الکرام
الکریم
الکلام
الکندی
الگ
الڳ
الھ
الہ
الہادی
الہاشمی
الہام
الہامی
الہند
الہی
الہیات
الہیثم
الی
الیاس
الیاں
الیندا
الینداں
الیندن
الیندی
الیندے
الیکشن
الیکٹران
الیکٹرانک
الیکٹریکل
الیگزینڈر
الیں
الیہ
الے
ام
امارات
امارت
امام
اماماں
امامت
امامیہ
امان
امانت
اماں
امب
امباں
امبرین
امت
امتحان
امتزاج
امتیاز
امتیازی
امجد
امدا
امداد
امدادی
امدی
امدے
امر
امرا
امراء
امراض
امراو
امرت
امرتسر
امرود
امروز
امروہوی
امریکا
امریکن
امریکہ
امریکی
املا
امن
اموات
اموال
امور
اموی
امویاں
امویہ
امڑی
امکان
امکانات
امی
امیتابھ
امید
امیداں
امیدوار
امیدواراں
امیر
امیراں
امیرتابش
امیری
امین
امیہ
ان
انا
اناج
انار
اناطولیہ
اناں
انب
انبار
انبالے
انبوہ
انبیا
انبیاء
انبیاي
انبیٹھہ
انت
انتالیہ
انتخاب
انتخابات
انتخابی
انتر
انتشار
انتظار
انتظام
انتظامات
انتظامی
انتظامیہ
انتقال
انتقام
انتقامی
انتھروپولوجی
انتھونی
انتھک
انتہا
انتہاي
انج
انجام
انجم
انجمن
انجمناں
انجن
انجو
انجھ
انجیل
انجینرنگ
انجیني
انجے
انحراف
انحصار
اند
اندا
انداز
اندازا
اندازاں
اندازہ
اندازی
اندازے
اندر
اندراج
اندرداخل
اندرلی
اندرلے
اندرو
اندرون
اندرونی
اندروں
اندری
اندلس
اندن
اندھا
اندھار
اندھارا
اندھاری
اندھاریاں
اندھارے
اندھی
اندھیرے
اندھے
اندی
اندیشہ
اندیشے
اندے
انرجی
انس
انسان
انساناں
انسانی
انسانیت
انسانیں
انساي
انساں
انسب
انسٹی
انسٹیٹیوٹ
انسپکٹر
انشاء
انشاءاللہ
انشاي
انشایي
انشورنس
انصار
انصاری
انصاف
انصافی
انطاکیہ
انعام
انعامات
انعامی
انعقاد
انفارمیشن
انفرادی
انفرادیت
انفراسٹرکچر
انقلاب
انقلابات
انقلابی
انقلابیاں
انمول
انهیں
انوار
انواع
انور
انونڑ
انوٹھا
انوپما
انوکھا
انوکھی
انوکھے
انوں
انوی
انویں
انویہہ
انٹ
انٹارکٹیکا
انٹر
انٹرمیڈیٹ
انٹرنیشنل
انٹرنیٹ
انٹرویو
انٹرویوز
انٹری
انڄ
انچ
انچارج
انڈر
انڈس
انڈسٹری
انڈمان
انڈو
انڈورا
انڈونیشیا
انڈونیشیاي
انڈیا
انڈین
انڈے
انڑ
انکار
انکاری
انکساری
انکشاف
انکوں
انگ
انگارا
انگارے
انگریز
انگریزاں
انگریزوں
انگریزی
انگریزیں
انگل
انگلستان
انگلستانی
انگلش
انگلی
انگلیاں
انگلینڈ
انگلیں
انگور
انگوٹھا
انگیا
انگیز
انڳل
انڳلیں
انھاي
انھاں
انھیں
انھیںحروف
انھیںدی
انھیںدے
انھیںلوظیں
انھیںکوں
انہا
انہان
انہاندا
انہاندی
انہاندے
انہاي
انہاں
انہوں
انہں
انہی
انہیں
انی
انیس
انیویں
انیں
انیہویں
اه
او
اوا
اواخر
اواز
اوازاں
اوازیں
اواي
اوبراي
اوتار
اوترا
اوتری
اوتھے
اوتے
اودھ
اور
اوراق
اوراں
اورنگ
اورنگزیب
اوریجن
اورینٹل
اوز
اوزار
اوزان
اوس
اوسط
اوسن
اوسی
اوسے
اوشا
اوصاف
اوطاس
اوطاق
اوقات
اوقاف
اوقیانوس
اول
اولا
اولاد
اولاداں
اولڑے
اولکھ
اولی
اولیا
اولیاء
اولیاي
اولیت
اولین
اولیہ
اولے
اون
اوند
اوندا
اوندو
اوندی
اوندیاں
اوندیں
اوندے
اونوں
اونویں
اونٹ
اونچاي
اونڑ
اونکو
اونکوں
اونہاں
اونہہ
اونہی
اوور
اووی
اوویں
اوي
اوٹ
اوٹھی
اوپر
اوپرا
اوپری
اوپرے
اوپن
اوچ
اوچشریف
اوڈ
اوڈوں
اوڈھر
اوڈے
اوڑک
اوکاڑہ
اوکسفرڈ
اوکهے
اوکوں
اوکھ
اوکھا
اوکھاں
اوکھی
اوکھیں
اوکھے
اوں
اوھا
اوھو
اوھے
اوہ
اوہا
اوہدا
اوہدی
اوہدے
اوہم
اوہناں
اوہنوں
اوہنے
اوہو
اوہے
اویس
اویسی
اویل
اویندے
اویڑا
اویں
اوے
اوݙوں
اوݙے
اوݨ
اي
ايس
اين
ايہ
اٹ
اٹا
اٹل
اٹلی
اٹوٹ
اٹک
اٹکل
اٹھ
اٹھا
اٹھاراں
اٹھارویں
اٹھارہ
اٹھاویہہ
اٹھاي
اٹھاں
اٹھایا
اٹھدا
اٹھو
اٹھواں
اٹھویں
اٹھی
اٹھیں
اٹھے
اٹھݨ
اٹیر
اٹے
اٻھے
اپ
اپت
اپر
اپریل
اپن
اپنا
اپناوݨ
اپناي
اپناں
اپناہے
اپنایا
اپنٹراں
اپنٹری
اپنٹریاں
اپنٹریں
اپنڑا
اپنڑاں
اپنڑی
اپنڑیاں
اپنڑیں
اپنڑے
اپنی
اپنیاں
اپنے
اپڑ
اپڑا
اپڑاں
اپڑی
اپڑیاں
اپڑیں
اپڑے
اپیل
اپݨا
اپݨاں
اپݨایا
اپݨی
اپݨیاں
اپݨیں
اپݨے
اپݨےا
اپݨےگھر
اڄ
اڄاں
اڄوکا
اڄوکی
اڄوکے
اڄکل
اڄݨ
اچ
اچا
اچار
اچانک
اچاچیت
اچل
اچنبھے
اچو
اچوں
اچوی
اچھا
اچھل
اچھی
اچھے
اچی
اچیاں
اچے
اچݨ
اڈ
اڈا
اڈاری
اڈدے
اڈو
اڈھاي
اڈی
اڈے
اڑ
اڑا
اڑانگے
اڑدو
اڑی
اڑیسہ
اک
اکا
اکابر
اکابرین
اکادمی
اکاو
اکاي
اکبر
اکبرخاں
اکبری
اکتفا
اکتوبر
اکثر
اکثریت
اکثریتی
اکرام
اکرس
اکرم
اکساوݨ
اکسایا
اکمل
اکنامکس
اکهیاں
اکهیں
اکو
اکوع
اکوں
اکوی
اکویہویں
اکٹھ
اکٹھا
اکٹھے
اکھ
اکھا
اکھان
اکھانڑ
اکھاں
اکھاݨ
اکھاݨاں
اکھاݨیں
اکھدے
اکھر
اکھراں
اکھریں
اکھنڑ
اکھو
اکھویسوں
اکھویندن
اکھویندے
اکھڑ
اکھی
اکھیا
اکھیاں
اکھیج
اکھیس
اکھیسی
اکھیندا
اکھیندن
اکھیندی
اکھیندے
اکھیي
اکھیں
اکھے
اکھݨ
اکیڈمی
اکیڈیمی
اکیں
اکیہویں
اگ
اگاں
اگتے
اگر
اگرچہ
اگست
اگلا
اگلی
اگلے
اگنی
اگو
اگوان
اگوانڑاں
اگواڑ
اگواݨ
اگونہاں
اگونہی
اگوں
اگوہاں
اگي
اگیں
اگے
اڳ
اڳاں
اڳلا
اڳلی
اڳلے
اڳو
اڳواݨ
اڳواݨاں
اڳواݨی
اڳواݨیں
اڳونہاں
اڳونہی
اڳوں
اڳی
اڳے
اں
اھدا
اھدن
اھدی
اھدے
اھل
اھم
اہ
اہانت
اہتمام
اہدا
اہداں
اہدن
اہدوں
اہدی
اہدے
اہر
اہل
اہلبیت
اہلسنت
اہلکار
اہلکاراں
اہلیت
اہلیہ
اہم
اہمی
اہمیت
اہیں
ای
ایا
ایاز
ایام
ایاں
ایاݨے
ایبٹ
ایبک
ایتلا
ایتلی
ایتلے
ایتھاں
ایتھنز
ایتھوپیا
ایتھوں
ایتھے
ایجاد
ایجادات
ایجرٹن
ایجنسی
ایجنسیاں
ایجنسیس
ایجنٹ
ایجنڈا
ایجنڈے
ایجوکیشن
ایجوکیشنل
ایجھا
ایجھاں
ایجھي
ایجھی
ایجھیاں
ایجھیي
ایجھیں
ایجھے
ایجیي
ایدھی
ایر
ایرا
ایران
ایرانی
ایرانیاں
ایریا
ایریاں
ایرے
ایس
ایسا
ایسوسی
ایسٹ
ایسی
ایسے
ایشن
ایشو
ایشوز
ایشیا
ایشیاء
ایشیاي
ایشین
ایضا
ایف
ایل
ایلبم
ایلن
ایلچی
ایلیاء
ایلیٹ
ایلے
ایم
ایماء
ایمان
ایماندار
ایمانداری
ایمانی
ایمرجنسی
ایمرسن
ایمپاي
ایمیزون
این
اینا
اینجلس
اینجھا
اینجھاں
اینجھی
اینجھیاں
اینجھیں
اینجھے
ایند
ایندا
ایندی
ایندیاں
ایندے
اینو
اینویں
اینوے
اینٹی
اینڈ
اینڈراي
اینڈریو
اینکوں
اینگلز
اینگلو
اینھ
اینہاں
اینہہ
اینہی
اینے
ایو
ایوارڈ
ایوارڈز
ایوان
ایواناں
ایوب
ایوبی
ایورسٹ
ایویں
ایي
ایٹ
ایٹم
ایٹمی
ایپ
ایپلی
ایپک
ایچ
ایچر
ایچیسن
ایڈ
ایڈا
ایڈریس
ایڈمن
ایڈمنسٹریشن
ایڈو
ایڈوانس
ایڈواي
ایڈورڈ
ایڈورڈز
ایڈووکیٹ
ایڈوکیٹ
ایڈوں
ایڈی
ایڈیشن
ایڈیشنل
ایڈیٹر
ایڈے
ایک
ایکس
ایکسپریس
ایکشن
ایکو
ایکوں
ایکٹ
ایکٹو
ایکڑ
ایگریکلچر
ایگزیکٹو
ایں
ایھ
ایھا
ایھو
ایھے
ایہ
ایہا
ایہناں
ایہو
ایہواے
ایہوں
ایہہ
ایہیں
ایہے
ایݙا
ایݙو
ایݙوں
ایݙی
ایݙے
اے
اےجو
اےلوک
اےمیݙےرب
اےواقعہ
اݙ
اݙا
اݙاری
اݙو
اݙوں
اݙی
اݙے
اݙݨ
اݨ
اݨی
ب
با
باء
باب
بابا
باباي
بابت
بابر
بابری
بابل
بابو
بابے
بات
باتشاہ
باتشاہی
باتیں
باتے
باجگزار
باجھ
باجھوں
باخبر
باد
بادام
بادشاہ
بادشاہاں
بادشاہت
بادشاہواں
بادشاہی
بادل
بادکار
بادکاراں
بادکاری
بادکاریں
بادگاری
بادگاریں
بادی
بادیات
بادیاتی
بادیاں
باذوق
بار
بارا
بارات
بارامانیاس
باران
بارانی
باراں
باربرا
بارخان
بارش
بارشاں
بارود
بارڈر
بارگاہ
بارھاں
بارہ
بارہاں
بارہویں
باری
باریاں
باریک
باریکیاں
باریں
بارے
باز
بازار
بازاراں
بازاریں
بازنطین
بازنطینی
بازو
بازی
بازیافت
بازیاں
بازیں
باس
باسط
باسعادت
باسفورس
باش
باشا
باشاہ
باشعور
باشندگان
باشندیاں
باشندے
باضابطہ
باطل
باطن
باطنی
باطنیہ
باعث
باعزت
باعی
باغ
باغات
باغاں
باغی
باغیاں
باغیں
باقاعدگی
باقاعدہ
باقاي
باقر
باقی
باقیات
باقیاں
بال
بالا
بالادستی
بالاي
بالاں
بالترتیب
بالخصوص
بالعموم
بالغ
باللہ
بالم
بالنڑ
بالو
بالوں
بالٹک
بالڑی
بالڑیاں
بالکل
بالی
بالیں
بامر
بامراللہ
بان
باندر
باندیاں
بانس
بانسری
بانو
بانڈ
بانگ
بانگاں
بانھ
بانہاں
بانہہ
بانہیں
بانی
بانیاں
باو
باواجداد
باوجود
باي
باپ
باڈر
باڈی
باڑ
باڑی
باک
باکمال
باکو
باکڑ
باکھ
باگ
باں
باھر
باہتمام
باہر
باہرو
باہروں
باہری
باہمت
باہمن
باہمی
باہندے
باہو
باہواں
باہونڑ
باہیں
بایزید
ببر
ببلو
بت
بتاریخ
بتاں
بتداء
بتدریج
بترا
بترہ
بتری
بتول
بتی
بج
بجا
بجاي
بجاے
بجلی
بجٹ
بجھ
بجھارت
بجھدا
بجیا
بحال
بحالی
بحث
بحثاں
بحثیت
بحر
بحران
بحراں
بحرحال
بحری
بحرین
بحریہ
بحق
بحوالہ
بحور
بحیثیت
بحیرا
بحیرہ
بخار
بخارا
بخارات
بخاری
بخت
بختا
بختاور
بختاں
بختو
بختی
بختیار
بختیں
بخش
بخشا
بخشش
بخشن
بخشی
بخشیا
بخشیے
بخشے
بخشݨ
بخوبی
بخود
بد
بدام
بدامنی
بدبخت
بدبختی
بدترین
بدحالی
بددلی
بدر
بدرا
بدرالدین
بدراں
بدرو
بدری
بدستور
بدعت
بدقسمتی
بدل
بدلا
بدلاں
بدلدا
بدلدی
بدلدے
بدلنڑ
بدلہ
بدلی
بدلیا
بدلیے
بدلے
بدلݨ
بدلݨے
بدمست
بدمعاش
بدن
بدنام
بدوز
بدوش
بدولت
بدوی
بدکار
بدگمانی
بدھ
بدھا
بدھل
بدھنڑ
بدھڑن
بدھی
بدھیا
بدھیاں
بدھیندے
بدھے
بدھݨ
بدی
بدیانتی
بدیسی
بدیع
بدین
بذات
بذریعہ
بر
برا
برابر
برابری
برات
برادر
برادران
برادری
برادریاں
برازیل
براستہ
براعظم
براعظماں
برانچ
برانڈ
براو
براي
براڈ
براہ
براہوي
برباد
بربادی
برتر
برتری
برتن
برتناں
برج
برحال
برحق
برخلاف
برخوردار
برخیا
برخیاہ
برد
بردار
برداش
برداشت
بردہ
بردی
برس
برسات
برسر
برسی
برش
برصغیر
برطانوی
برطانیہ
برطرف
برعکس
برف
برق
برقرار
برقعہ
برقناطیسی
برقی
برقیہ
برلن
برما
برمانی
برملا
برن
برنگیاں
برنگے
برو
بروج
بروز
بروزن
بروس
بروقت
برولی
برولیاں
بروناي
بروہی
برٹش
برٹن
برپا
برڈ
برکات
برکت
برکلے
برگ
برہان
برہم
برہمن
برہوں
برہیچو
بری
بریری
بریریاں
بریلوی
بریلی
بریک
بریں
برے
بزار
بزاراں
بزاری
بزبان
بزدار
بزدل
بزدلی
بزرگ
بزرگان
بزرگاں
بزرگی
بزرگیں
بزم
بزمی
بزنجو
بزنس
بس
بساز
بساں
بستر
بسترا
بسترے
بستہ
بستی
بستے
بسر
بسم
بسمل
بسنتی
بسکٹ
بسی
بشار
بشارت
بشر
بشری
بشریات
بشمول
بشکریہ
بشیر
بصرہ
بصری
بصیرت
بطلیموس
بطن
بطور
بطوطہ
بظاہر
بع
بعثت
بعد
بعض
بعضیاں
بعضے
بعل
بعنوان
بعید
بغاوت
بغاوتاں
بغداد
بغدادی
بغض
بغل
بغلا
بغلے
بغور
بغیر
بق
بقا
بقاء
بقال
بقاي
بقایا
بقراط
بقول
بقید
بقیہ
بكر
بكسل
بل
بلا
بلاد
بلاشبہ
بلاغت
بلال
بلاول
بلاي
بلاک
بلاگ
بلاں
بلب
بلبل
بلتستان
بلتی
بلجي
بلحاظ
بلخ
بلخصوص
بلد
بلدا
بلدی
بلدیاتی
بلدے
بلغاریہ
بلقان
بلقیس
بلند
بلندی
بلندیاں
بلو
بلوغت
بلونے
بلوچ
بلوچا
بلوچاں
بلوچستان
بلوچوں
بلوچکی
بلوچی
بلوچیں
بلڈ
بلڈنگ
بلڈیکس
بلکل
بلکہ
بلگرامی
بلھے
بلہا
بلی
بلیغ
بلیندا
بلیندی
بلیندے
بلیو
بلیک
بلے
بم
بمبا
بمباری
بمبي
بمطابق
بمع
بمعنی
بمقام
بن
بنا
بناء
بنارس
بنارسی
بنام
بنانے
بناون
بناونڑ
بناوٹ
بناوݨ
بناي
بناں
بنایا
بنت
بنجابی
بنجر
بند
بندا
بنداں
بندر
بندرگاہ
بندرگاہواں
بندش
بندوبست
بندوخ
بندوخاں
بندوق
بندوقاں
بندگی
بندہ
بندی
بندیا
بندیاں
بندیں
بندے
بنری
بنسی
بنفس
بنن
بنو
بنوں
بنچ
بنڈل
بنڈہ
بنڑ
بنڑا
بنڑاو
بنڑاون
بنڑاونڑ
بنڑاوے
بنڑاي
بنڑاں
بنڑایا
بنڑاے
بنڑدا
بنڑدن
بنڑدی
بنڑدے
بنڑسن
بنڑسی
بنڑن
بنڑنا
بنڑنڑ
بنڑوا
بنڑواي
بنڑي
بنڑڑ
بنڑڳیاں
بنڑی
بنڑیا
بنڑیاں
بنڑیساں
بنڑیندا
بنڑیندن
بنڑیندے
بنڑیے
بنڑے
بنک
بنگال
بنگالی
بنگالیاں
بنگش
بنگلہ
بنگلے
بنھ
بنھاں
بنھیں
بنہاں
بنی
بنیاد
بنیاداں
بنیادی
بنیادیں
بنیامین
بنیاں
بنے
بنݨ
به
بهانویں
بهل
بهلدا
بهوندی
بهوي
بو
بوا
بواط
بواي
بوتا
بوتل
بوتلاں
بوتھ
بوتھی
بوجھ
بود
بودلہ
بور
بوراکا
بورڈ
بورڈنگ
بورژوا
بوری
بورے
بوس
بوستان
بوسہ
بوسے
بوصیری
بوطیقا
بوقت
بول
بولا
بولان
بولتا
بولن
بولنڑ
بولنے
بولو
بولی
بولیا
بولیاں
بولیندا
بولیندے
بولے
بولݨ
بوي
بوٹ
بوٹا
بوٹی
بوٹے
بوچھال
بوچھنڑ
بوچھݨ
بوڈو
بوڑی
بوھڑ
بوہا
بوہڑ
بوہیاں
بوہے
بویہ
بي
بيروت
بٹ
بٹا
بٹيرا
بٹھی
بٹیر
بٹݨ
بپاشی
بپسی
بچ
بچا
بچاو
بچاون
بچاونڑ
بچاوݨ
بچاي
بچایا
بچت
بچدا
بچدی
بچدے
بچسوں
بچن
بچو
بچوں
بچپن
بچڑا
بچڑے
بچکار
بچہ
بچی
بچیا
بچیاں
بچیندی
بچیں
بچے
بچݨ
بڈ
بڈھا
بڈھڑا
بڈھڑی
بڈھڑے
بڑ
بڑا
بڑھ
بڑی
بڑے
بک
بکاو
بکثرت
بکر
بکرا
بکرمی
بکری
بکریاں
بکریوں
بکس
بکواس
بکٹی
بکھ
بکھا
بکھدا
بکھدے
بکھر
بکھڑا
بکھے
بکے
بگ
بگا
بگانہ
بگو
بگٹی
بگڑ
بگڑو
بگی
بھ
بھا
بھاء
بھابھا
بھابھہ
بھابھی
بھاجڑ
بھاجی
بھار
بھارا
بھارت
بھارتی
بھاردواج
بھاری
بھارے
بھاسن
بھاشا
بھال
بھالا
بھالو
بھالی
بھالیا
بھالے
بھالݨ
بھان
بھانبڑ
بھانبھڑ
بھاند
بھاندا
بھاندن
بھاندی
بھاندے
بھانویں
بھانپ
بھانڑ
بھانڑاں
بھانڑے
بھانگا
بھانگے
بھانے
بھاو
بھاول
بھاولپور
بھاویں
بھاوے
بھاوݨ
بھاي
بھاٹیہ
بھاڄڑ
بھاڄی
بھاڑ
بھاکل
بھاگ
بھاگی
بھاڳ
بھاڳی
بھاں
بھاہ
بھاہیں
بھایا
بھاݨ
بھاݨاں
بھاݨی
بھاݨے
بھت
بھتریجا
بھتریجے
بھتی
بھج
بھجا
بھجدا
بھجدی
بھجدے
بھجن
بھجوا
بھجوایا
بھجیندے
بھجے
بھر
بھرا
بھرانواں
بھرانویں
بھراواں
بھراوو
بھراویں
بھراي
بھراں
بھرتی
بھرتے
بھرجاي
بھردا
بھردی
بھردے
بھرم
بھرمار
بھرن
بھرنے
بھرو
بھرواسہ
بھرواں
بھروسا
بھروسہ
بھروں
بھرویں
بھري
بھرپور
بھرپی
بھری
بھریا
بھریاں
بھریج
بھریل
بھریندی
بھریندے
بھریے
بھرے
بھرݨ
بھشتی
بھل
بھلا
بھلاي
بھلایا
بھلدا
بھلدے
بھلوال
بھلکہ
بھلی
بھلیا
بھلے
بھن
بھنا
بھنبھور
بھنن
بھنوا
بھنوالی
بھنوالیاں
بھنواي
بھنور
بھنورے
بھنڈ
بھنڈی
بھنگ
بھنگی
بھنی
بھنیں
بھنے
بھنݨ
بھو
بھوت
بھورا
بھورل
بھوری
بھورے
بھوسلے
بھوشن
بھول
بھولا
بھولوں
بھولی
بھولے
بھوم
بھومی
بھون
بھوندی
بھونک
بھونکݨ
بھونگ
بھوي
بھوٹان
بھوپا
بھوپال
بھوگ
بھوڳ
بھوں
بھوہڑ
بھویں
بھي
بھٹ
بھٹاي
بھٹو
بھٹوصیب
بھٹہ
بھٹی
بھٹیاں
بھٹے
بھپلا
بھڄ
بھڄدا
بھڄدي
بھڄدے
بھڄوا
بھڄواي
بھڄویندا
بھڄے
بھڄݨ
بھچر
بھچراں
بھڑ
بھڑاند
بھڑدے
بھک
بھکاری
بھکر
بھکھر
بھگ
بھگت
بھگتی
بھگوان
بھڳ
بھڳت
بھی
بھیت
بھیج
بھیجا
بھیجنڑ
بھیجو
بھیجی
بھیجے
بھید
بھیرا
بھیراواں
بھیرومل
بھیرویں
بھیرہ
بھیریوں
بھیل
بھیم
بھین
بھینڑ
بھینڑیں
بھیي
بھیڄ
بھیڄا
بھیڄی
بھیڄیا
بھیڄے
بھیڄݨ
بھیڈ
بھیڈاں
بھیڑ
بھیڑا
بھیڑی
بھیڑے
بھیک
بھیݙ
بھیݙاں
بھیݙیں
بھیݨ
بھیݨاں
بھیݨیں
بھے
بھݨ
بہ
بہا
بہاء
بہاءالدین
بہاءاللہ
بہاالدین
بہادر
بہادری
بہار
بہاراں
بہاری
بہاریں
بہانہ
بہانے
بہاو
بہاول
بہاولنگر
بہاولپور
بہاولپوری
بہاي
بہاں
بہبود
بہت
بہتر
بہتری
بہترین
بہر
بہرام
بہرحال
بہشت
بہشتی
بہلوان
بہلول
بہم
بہمنٹر
بہن
بہندن
بہندی
بہندے
بہنڑ
بہو
بہون
بہوں
بہہ
بہے
بی
بیا
بیاء
بیابان
بیادری
بیاری
بیاس
بیاض
بیان
بیانات
بیانی
بیانیہ
بیانیے
بیاں
بیاہ
بیبرس
بیت
بیتی
بیتیاں
بیج
بیجاپور
بیدار
بیداری
بیدل
بیدی
بیر
بیراج
بیرام
بیرسٹر
بیرنگیریا
بیروت
بیرولی
بیرولیاں
بیرون
بیرونی
بیری
بیریا
بیریں
بیزار
بیس
بیسٹ
بیش
بیشتر
بیشک
بیعت
بیقرار
بیل
بیلا
بیلاروس
بیلجي
بیلہ
بیلی
بیلیا
بیلیاں
بیلے
بیمار
بیماراں
بیماری
بیماریاں
بین
بینا
بیناي
بینزاي
بینزین
بینظیر
بینڈ
بینک
بینی
بیورو
بیوروکریسی
بیوقوف
بیوہ
بیوی
بیویاں
بیٹ
بیٹا
بیٹری
بیٹن
بیٹھ
بیٹھا
بیٹھاں
بیٹھن
بیٹھوں
بیٹھک
بیٹھی
بیٹھیں
بیٹھے
بیٹی
بیٹیاں
بیٹے
بیچلر
بیڈ
بیڑا
بیڑی
بیڑیاں
بیک
بیکار
بیکانیر
بیکن
بیگ
بیگانہ
بیگانے
بیگم
بیھ
بیہ
بیہقی
بے
بےشمار
بےشک
بےوس
بےکار
بݙ
بݨ
بݨا
بݨانوݨ
بݨاو
بݨاون
بݨاوٹ
بݨاوے
بݨاوݨ
بݨاوݨا
بݨاوݨاں
بݨاوݨے
بݨاي
بݨاں
بݨایا
بݨایاں
بݨت
بݨدا
بݨدن
بݨدی
بݨدیاں
بݨدے
بݨسن
بݨسی
بݨن
بݨوا
بݨواي
بݨوایا
بݨي
بݨی
بݨیا
بݨیاد
بݨیادی
بݨیاں
بݨیدے
بݨیساں
بݨین
بݨیندا
بݨیندن
بݨیندي
بݨیندی
بݨیندیں
بݨیندے
بݨیے
بݨے
بݨݨ
ة
ت
تء
تا
تاب
تابش
تابع
تابعداری
تابعی
تابی
تات
تاتاری
تاتاریاں
تاثر
تاثرات
تاثراتی
تاثیر
تاج
تاجدار
تاجر
تاجراں
تاجک
تاجکستان
تاحال
تاخیر
تار
تارا
تاراں
تارم
تاريخ
تارڑ
تارہ
تاری
تاریاں
تاریخ
تاریخاں
تاریخی
تاریغ
تاریں
تارے
تازگی
تازہ
تازی
تازے
تاش
تاشقند
تال
تالا
تالاب
تالپور
تالیف
تالیفات
تالیہ
تالے
تام
تامل
تان
تانجو
تاندلیانوالا
تانڑی
تانڑیں
تانگ
تانگھ
تانگھاں
تانگھی
تانگھے
تانیث
تاو
تاویل
تاي
تاڑ
تاڑی
تاڑیاں
تاک
تاکڑی
تاکہ
تاکی
تاکیاں
تاکید
تاں
تاہ
تاہم
تاہیں
تاݙے
تاݨ
تاݨی
تاݨیں
تاݨے
تب
تبادلہ
تبار
تبارک
تباہ
تباہی
تبت
تبتی
تبدیل
تبدیلی
تبدیلیاں
تبریز
تبریزی
تبسم
تبصرہ
تبصرے
تبلغ
تبلیغ
تبلیغی
تبوک
تت
تتا
تتر
تتلی
تتلیں
تتڑی
تتی
تتیاں
تتے
تجارت
تجارتی
تجاوز
تجاویز
تجدید
تجربات
تجرباتی
تجربہ
تجربیاں
تجربیں
تجربے
تجرید
تجریدی
تجریدیت
تجزي
تجزیاتی
تجزیہ
تجس
تجسس
تجل
تجلی
تجنیس
تجویز
تجھ
تجھے
تحاد
تحاشا
تحاشہ
تحاي
تحت
تحریر
تحریراں
تحریری
تحریریں
تحریک
تحریکاں
تحریکی
تحسین
تحصل
تحصیل
تحصیلاں
تحف
تحفظ
تحفہ
تحفۃ
تحفے
تحقیر
تحقیق
تحقیقات
تحقیقاتی
تحقیقاں
تحقیقی
تحلیل
تحمل
تحویل
تخت
تختا
تختہ
تختی
تختیاں
تخریب
تخصیص
تخلص
تخلیق
تخلیقات
تخلیقاں
تخلیقی
تخمینہ
تخیل
تخیلاتی
تدارک
تدبر
تدبیر
تدریجی
تدریس
تدریسی
تدفین
تدوین
تذکرہ
تذکرۃ
تذکریاں
تذکرے
تذکیر
تر
ترا
تراجم
تراش
تراشی
ترامے
ترانہ
ترانے
تراویں
تراي
تراکیب
تراں
تراے
تراݨ
تربت
تربی
تربیت
تربیتی
ترتیب
ترتیبی
ترجمان
ترجمانی
ترجمہ
ترجمیاں
ترجمے
ترجیح
ترجیحات
ترخیم
تردا
تردی
تردید
تردے
ترس
ترسا
ترسلا
ترسیل
ترسے
ترش
ترشنا
ترغیب
ترقی
ترقیاتی
ترلا
ترلے
ترمذی
ترمیم
ترمیمی
ترنم
ترنڈا
ترنڈہ
ترنگ
ترو
تروٹ
تروپ
تروڑ
تروڑی
تروڑیا
تروڑے
تروڑݨ
ترویج
تري
ترٹ
ترٹا
ترٹدا
ترٹدے
ترٹی
ترٹے
ترپ
ترک
ترکاں
ترکستان
ترکمانستان
ترکڑی
ترکہ
ترکی
ترکیب
ترکیباں
ترکے
ترہاي
تری
تریجھا
تریجھی
تریجھے
تریخ
تریخی
تریمت
تریمتاں
تریمتیاں
تریمتیں
تریمیت
ترین
تریوی
تریي
تریڑ
تریں
تریھ
تریہ
تریہاں
تریہہ
تریہی
تریہے
تریے
تریݨ
ترے
ترݨ
تزي
تزک
تزیید
تس
تسا
تساڈا
تساڈی
تساڈے
تساکوں
تساں
تساݙا
تسبح
تسبی
تسبیح
تسخیر
تسخیرہونڑ
تسل
تسلسل
تسلط
تسلی
تسلیم
تسمیہ
تسڑی
تسکین
تسی
تسیں
تسے
تش
تشبیہ
تشبیہات
تشبیہاں
تشبیہہ
تشخص
تشخیص
تشدد
تشریح
تشریحات
تشریحاتی
تشریحاں
تشریف
تشنگی
تشنہ
تشویش
تشکیل
تشہیر
تشی
تشیع
تص
تصادم
تصانیف
تصاویر
تصحیح
تصدیق
تصرف
تصغیر
تصنیف
تصنیفات
تصنیفاں
تصو
تصور
تصورات
تصوراتی
تصوف
تصویر
تصویراں
تصویری
تصویریں
تصیح
تضاد
تضادات
تعارف
تعارفی
تعاقب
تعال
تعالی
تعاون
تعبیر
تعجب
تعداد
تعدیلہ
تعریف
تعریفاں
تعزیت
تعزیتی
تعصب
تعصبات
تعطل
تعظیم
تعظیمی
تعل
تعلق
تعلقات
تعلقہ
تعلم
تعلیق
تعلیم
تعلیمات
تعلیمی
تعمیر
تعمیرات
تعمیراتی
تعمیری
تعمیل
تعویذ
تعویز
تعین
تعینات
تعیناتی
تغاری
تغری
تغلق
تغیر
تـــے
تــے
تـے
تفاخر
تفاوت
تفتیش
تفرقہ
تفرقے
تفریح
تفریحی
تفریق
تفسیر
تفصیل
تفصیلات
تفصیلی
تفویض
تفکر
تفہیم
تفہیمی
تقابلی
تقاریب
تقاریر
تقاضا
تقاضہ
تقاضیاں
تقاضیں
تقاضے
تقدس
تقدیر
تقدیس
تقرر
تقرری
تقریب
تقریبا
تقریبات
تقریبن
تقریر
تقریراں
تقسیم
تقطیع
تقلید
تقوی
تقویت
تقویم
تقی
تل
تلا
تلازمے
تلاش
تلاشی
تلافی
تلامذہ
تلاوت
تلاوڑے
تلاي
تلخ
تلخی
تلخیاں
تلخیص
تلسی
تلف
تلفظ
تلقین
تلمبہ
تلمیح
تلمیحات
تلنگانہ
تلو
تلوار
تلواراں
تلواں
تلور
تلولے
تلونگ
تلوک
تلوکر
تلوں
تلویں
تلک
تلہ
تلی
تلیاں
تلے
تم
تما
تماخوں
تماشا
تماشاي
تماشہ
تماشے
تمام
تمباکو
تمبو
تمثال
تمثیل
تمد
تمدن
تمدنی
تمغاي
تمغہ
تمغے
تمل
تمن
تمنا
تمندار
تمہارے
تمہید
تمہیں
تمیز
تمیزی
تمیمی
تن
تنا
تنازع
تناسب
تناسخ
تناظر
تناو
تناوبگر
تناں
تنبیہ
تنخواہ
تنخواہواں
تند
تندیر
تنسيق
تنظیم
تنظیماں
تنظیمی
تنظیمیں
تنقید
تنقیدی
تنواراں
تنور
تنوع
تنویر
تنوین
تنڑں
تنکیری
تنگ
تنگھیندیں
تنگی
تنھیں
تنہا
تنہاي
تنی
تنیاں
تنے
تهي
تهی
تهیندے
تهیوے
تو
توا
تواتر
تواریخ
توازن
توانا
تواناي
تواڈی
تواڈے
تواکوں
توباں
توبہ
توتا
توثیق
توج
توجو
توجہ
توجیہہ
توحید
تور
تورات
توری
توریت
توسط
توسیع
توشہ
توضیح
توفیق
توقع
توقیر
توقیع
تول
تولہ
تولی
تولݨ
تون
تونسوی
تونسہ
تونسے
تونڑی
تونڑیں
تونگ
تونے
توي
توپ
توپاں
توڈی
توڑ
توڑی
توڑیں
توڑے
توکل
توگھ
توں
توھاڈا
توھاڈی
توھاڈے
توھاکوں
توہمات
توہین
تویں
توے
توݙا
توݨی
توݨیں
توݨے
تي
تٸیں
تپ
تپدی
تپش
تڈ
تڈا
تڈاں
تڑ
تڑا
تڑپ
تڑپا
تڑپدے
تڑی
تک
تکبر
تکبیر
تکرار
تکریم
تکلف
تکلفی
تکلیف
تکلیفاں
تکمیل
تکنیک
تکنیکی
تکڑا
تکڑی
تکڑے
تکھا
تکھی
تکھیں
تکھے
تکی
تکیہ
تکݨ
تگ
تھ
تھا
تھاج
تھارا
تھال
تھالی
تھالیاں
تھام
تھامس
تھان
تھانوی
تھانڑیں
تھانڑے
تھانہ
تھانے
تھاو
تھاي
تھاپ
تھاڈا
تھاڈی
تھاڈے
تھاڑ
تھاکوں
تھاں
تھاہوں
تھاہیں
تھاݨہ
تھاݨے
تھر
تھرا
تھراپی
تھرپارکر
تھری
تھسلنیکیوں
تھل
تھلا
تھلاں
تھلوچی
تھلوی
تھلڑا
تھلی
تھلے
تھم
تھمب
تھن
تھندے
تھو
تھور
تھورا
تھوراي
تھوری
تھولا
تھولی
تھولے
تھوم
تھوڈ
تھوڑ
تھوڑا
تھوڑی
تھوڑے
تھوک
تھوں
تھوݙ
تھوݙیں
تھي
تھٻا
تھپ
تھپڑ
تھپی
تھپے
تھپݨ
تھپݨی
تھک
تھکدا
تھکدے
تھکی
تھکیا
تھکیڑا
تھکیڑے
تھکے
تھگڑی
تھڳڑی
تھہیم
تھی
تھیا
تھیاء
تھیاں
تھیس
تھیساں
تھیسز
تھیسم
تھیسن
تھیسو
تھیسوں
تھیسی
تھیسیں
تھیسے
تھیلا
تھیلی
تھیم
تھین
تھیندا
تھینداں
تھیندن
تھیندو
تھیندي
تھیندی
تھیندیاں
تھیندین
تھیندے
تھیو
تھیواں
تھیوری
تھیوسے
تھیون
تھیونا
تھیونڑ
تھیونڑا
تھیونڑاں
تھیونڑوالی
تھیونڑے
تھیوو
تھیووں
تھیووے
تھیوڑ
تھیوں
تھیوی
تھیویں
تھیوے
تھیوݨ
تھیوݨا
تھیوݨاں
تھیوݨی
تھیوݨے
تھیي
تھیٹر
تھیں
تھیے
تھے
تھݨ
تہ
تہاس
تہاي
تہاڈ
تہاڈا
تہاڈی
تہاڈیاں
تہاڈے
تہاکوں
تہاں
تہاݙا
تہاݙی
تہاݙیاں
تہاݙے
تہج
تہجد
تہجی
تہدیدی
تہذیب
تہذیباں
تہذیبوں
تہذیبی
تہران
تہزیب
تہزیبی
تہمت
تہمینہ
تہوار
تہواراں
تہوں
تہہ
تی
تیا
تیار
تیاری
تیاریاں
تیاں
تیتر
تیتھوں
تیر
تیرا
تیراں
تیرھاں
تیرھویں
تیرہ
تیرہاں
تیرہویں
تیری
تیریاں
تیرے
تیز
تیزاب
تیزابساز
تیزی
تیس
تیغ
تیل
تیلگو
تیلی
تیمور
تیموری
تیمی
تین
تیند
تینوں
تیونس
تیي
تیڈ
تیڈا
تیڈو
تیڈی
تیڈیاں
تیڈیں
تیڈے
تیڋی
تیڋے
تیڑے
تیک
تیکر
تیکو
تیکوں
تیکھے
تیں
تیݙ
تیݙا
تیݙو
تیݙڑا
تیݙی
تیݙیاں
تیݙیں
تیݙے
تے
تےا
تےانہاں
تےاپݨی
تےایں
تےثمود
تےحضرت
تےد
تےر
تےروایت
تےس
تےسراي
تےم
تےملتان
تےنہ
تےٻ
تےٻي
تݙ
تݙانہہ
تݙاں
تݙی
تݨ
ث
ثابت
ثار
ثاقب
ثالث
ثانوی
ثانی
ثانیہ
ثبوت
ثخذ
ثر
ثروت
ثریا
ثعلبہ
ثعلبی
ثقافت
ثقافتاں
ثقافتی
ثقفی
ثقلین
ثقہ
ثقیف
ثلث
ثم
ثمر
ثمرات
ثمینہ
ثنا
ثناء
ثناي
ثواب
ج
جا
جاء
جاب
جابجا
جابر
جات
جاتا
جاتی
جاتے
جادو
جادوي
جادوگر
جار
جارج
جارحانہ
جارحیت
جاری
جاسوس
جاسوسی
جاع
جال
جالا
جالب
جالبی
جالندھر
جالندھری
جالیاں
جالینوس
جالیں
جالے
جام
جامد
جامشورو
جامع
جامعات
جامعہ
جامنی
جامپور
جامپوری
جامی
جان
جانا
جانان
جاناں
جانب
جانباز
جانبدار
جانبداری
جانتے
جاندا
جاندار
جانداریں
جاندی
جاندے
جانشین
جانشیناں
جانشینی
جانشیں
جانن
جانو
جانور
جانوراں
جانوریں
جانچ
جانڑ
جانڑدا
جانڑداں
جانڑدن
جانڑدے
جانڑوں
جانڑے
جانکاری
جانگلی
جانی
جانیاں
جانے
جاه
جاو
جاواں
جاون
جاوید
جاویدا
جاوے
جاي
جاپان
جاپانی
جاپے
جاڑ
جاڑا
جاک
جاگ
جاگا
جاگدا
جاگدی
جاگدیاں
جاگدیں
جاگدے
جاگر
جاگی
جاگیا
جاگیر
جاگیراں
جاگیردار
جاگیردارانہ
جاگیرداراں
جاگیرداری
جاگیرداریں
جاگے
جاڳ
جاڳا
جاڳدا
جاڳدی
جاڳدے
جاڳے
جاں
جاہ
جاہد
جاہل
جاہلیت
جاہواں
جاہی
جاہیں
جایا
جایاں
جاݨ
جاݨدا
جاݨدے
جاݨیں
جاݨے
جاݨݨ
جب
جبار
جبر
جبرا
جبرالٹر
جبراي
جبری
جبریل
جبل
جبلت
جبکہ
جبھ
جبیر
جبین
جبیں
جت
جتامے
جتلا
جتلی
جتلے
جتنا
جتناں
جتنی
جتنیاں
جتنے
جتهاں
جتوي
جتڑ
جتھ
جتھا
جتھاں
جتھوں
جتھے
جتی
جتیا
جتیاں
جثے
جج
ججمان
ججہ
جحان
جحش
جد
جدا
جدال
جداول
جداي
جداں
جدت
جدل
جدلیاتی
جدنڑ
جدو
جدوجہد
جدول
جدوں
جدہ
جدی
جدید
جدیدیت
جذب
جذبات
جذباتی
جذباتیت
جذبہ
جذبیاں
جذبیں
جذبے
جر
جرا
جرات
جراح
جراحی
جراي
جرت
جرجان
جرم
جرمانہ
جرمن
جرمنی
جرنل
جرنلسٹ
جرنیل
جرنیلاں
جروار
جرھم
جری
جریدہ
جریدے
جریر
جز
جزا
جزاي
جزبات
جزل
جزلہ
جزم
جزو
جزوی
جزي
جزیرہ
جزیرے
جس
جسارت
جسامت
جستجو
جسم
جسمانی
جسٹ
جسٹس
جسکانی
جسیم
جسے
جشن
جعفر
جعفرا
جعفری
جعلی
جغدالی
جغرافیاي
جغرافیہ
جغرافیے
جفا
جل
جلا
جلاد
جلال
جلالپور
جلاوطن
جلاوطنی
جلاي
جلتی
جلد
جلداں
جلدی
جلدیں
جلسہ
جلسیاں
جلسے
جلم
جلن
جلو
جلوس
جلوں
جلوہ
جلوے
جلڑ
جلی
جلیانوالہ
جلیبی
جلیبیاں
جلیل
جلے
جم
جما
جمات
جمادی
جماعت
جماعتاں
جماعتی
جماعتیں
جمال
جمالی
جمالیات
جمالیاتی
جمالیہ
جمدا
جمدے
جمسی
جمشید
جمشیدناشاد
جمع
جمعدار
جمعرات
جمعہ
جمعیت
جمعے
جمل
جملي
جملہ
جملیاں
جملیں
جملے
جمن
جمنا
جمنڑ
جمورا
جموں
جمي
جمہور
جمہوری
جمہوریت
جمہوریہ
جمی
جمیا
جمیعت
جمیل
جمیلہ
جمے
جن
جناب
جنات
جناح
جنازہ
جنازے
جناں
جنبش
جنت
جنتی
جنتے
جنج
جنجال
جنجوں
جند
جندب
جندرا
جندرے
جندل
جندو
جندڑی
جنرل
جنس
جنسی
جنسیت
جنم
جنوب
جنوبا
جنوبی
جنوری
جنون
جنونی
جنوں
جنڈ
جنڑ
جنڑے
جنکشن
جنگ
جنگاں
جنگجو
جنگل
جنگلات
جنگلاں
جنگلی
جنگلیں
جنگی
جنھاں
جنھیں
جنہاں
جنہں
جنہیں
جنید
جنے
جهمر
جو
جوا
جواب
جوابی
جواد
جوار
جواری
جواز
جوان
جواناں
جوانہاں
جوانی
جوانیاں
جوانیں
جواو
جواي
جواں
جواہر
جواے
جوبلی
جوبن
جوت
جود
جور
جوزف
جوزی
جوس
جوسراي
جوش
جول
جولاي
جومیں
جون
جونہی
جوي
جوڑ
جوڑا
جوڑاں
جوڑن
جوڑوں
جوڑي
جوڑی
جوڑیا
جوڑیاں
جوڑیے
جوڑے
جوڑݨ
جوکلام
جوگ
جوگا
جوگی
جوگے
جوڳ
جوڳا
جوڳی
جوں
جوہر
جوہری
جوہی
جویری
جویریہ
جویں
جي
جٹ
جٹا
جٹکی
جڈ
جڈا
جڈانہہ
جڈاں
جڈن
جڈنڑ
جڈݨ
جڋاں
جڑ
جڑا
جڑاں
جڑت
جڑدے
جڑواں
جڑویں
جڑي
جڑی
جڑیا
جڑیاں
جڑیندے
جڑیے
جڑے
جکل
جکڑ
جکھڑ
جگ
جگا
جگارا
جگارے
جگاو
جگاي
جگت
جگجیت
جگدیش
جگر
جگراتے
جگری
جگن
جگنو
جگہ
جڳ
جڳارے
جڳاوݨ
جھ
جھا
جھات
جھاتی
جھاتیاں
جھار
جھاراں
جھارت
جھال
جھالر
جھامرہ
جھامرے
جھانجھر
جھانولا
جھاي
جھاڑ
جھاڑو
جھاڑیاں
جھاگ
جھاڳ
جھاہ
جھت
جھتاں
جھر
جھل
جھلا
جھلار
جھلن
جھلنڑ
جھلک
جھلکیاں
جھلی
جھلیندے
جھلے
جھلݨ
جھم
جھمر
جھمراں
جھمکا
جھنڈ
جھنڈا
جھنڈیاں
جھنڈیر
جھنڈے
جھنڑک
جھنڑکاں
جھنگ
جھنگوچی
جھنگوی
جھنگی
جھورا
جھورے
جھول
جھولا
جھولی
جھولیاں
جھولے
جھوم
جھومر
جھومری
جھونپڑی
جھوٹ
جھوٹا
جھوٹی
جھوٹے
جھوٹݨ
جھوک
جھوکاں
جھوکیں
جھي
جھٹ
جھٹکے
جھٹے
جھپ
جھڑ
جھڑپ
جھڑپاں
جھڑی
جھڑیاں
جھک
جھکا
جھکاي
جھکی
جھکے
جھگڑا
جھگڑے
جھڳڑا
جھڳڑے
جھی
جھیاں
جھیل
جھیلاں
جھیي
جھیڑا
جھیڑے
جھیں
جھے
جھݨ
جہ
جہاد
جہادی
جہاز
جہازاں
جہالت
جہان
جہانگیر
جہانگیری
جہانیاں
جہانیں
جہاڑیاں
جہاڑے
جہاں
جہت
جہتاں
جہد
جہرا
جہری
جہرے
جہل
جہلم
جہلیں
جہناں
جہنم
جہڑا
جہڑھی
جہڑی
جہڑیاں
جہڑے
جہی
جہیاں
جہیڑی
جہیڑے
جہیں
جہے
جی
جیا
جیالا
جیالے
جیاں
جیب
جیت
جیتا
جیتلا
جیتلے
جیتن
جیتھاں
جیتی
جیتے
جیتݨ
جیجھاں
جید
جیرا
جیرها
جیرھا
جیرھلے
جیرھی
جیرھیاں
جیرھے
جیرہا
جیرہی
جیری
جیریا
جیرے
جیسا
جیساں
جیسل
جیسلمیر
جیسوں
جیسی
جیسے
جیل
جیلانی
جیلاں
جیلھے
جیلے
جیم
جیمز
جین
جینجھا
جیندا
جیندي
جیندی
جیندیاں
جیندیں
جیندے
جینویں
جینکوں
جینیفر
جینے
جیو
جیواں
جیون
جیونڑ
جیونہ
جیوو
جیوکس
جیوں
جیوی
جیویں
جیوے
جیوݨ
جیوݨا
جیي
جیٹھ
جیپ
جیڈا
جیڈی
جیڈیاں
جیڈے
جیڑا
جیڑھا
جیڑھلے
جیڑھی
جیڑھیاں
جیڑھے
جیڑی
جیڑے
جیک
جیکب
جیکر
جیکوں
جیں
جیھڑی
جیھڑے
جیہا
جیہاڑے
جیہاں
جیہرا
جیہرلے
جیہری
جیہرے
جیہناں
جیہنے
جیہڑا
جیہڑلے
جیہڑھا
جیہڑھے
جیہڑی
جیہڑیاں
جیہڑے
جیہی
جیہیں
جیہے
جیے
جیݙا
جیݙی
جیݙے
جے
جݙ
جݙاں
جݙوں
جݙݨ
جݨ
ح
حا
حاتم
حاجت
حاجرہ
حاجی
حادثات
حادثہ
حادثے
حارث
حارثہ
حاشر
حاشیہ
حاشیۃ
حاصل
حاضر
حاضرہ
حاضری
حاضرین
حافظ
حافظہ
حال
حالات
حالانکہ
حالت
حالتاں
حالتیں
حالی
حالیں
حالیہ
حالیے
حامد
حامل
حاملہ
حامی
حامیاں
حاوی
حاي
حاکم
حاکماں
حاکمیت
حاکمیں
حاں
حب
حباب
حبت
حبشہ
حبشی
حبیب
حبیبہ
حت
حتمی
حتی
حثیت
حج
حجاب
حجاج
حجاز
حجازی
حجان
حجانہ
حجاݨہ
حجت
حجر
حجرہ
حجرے
حجش
حجم
حجۃ
حد
حداں
حدود
حديث
حدیبیہ
حدیث
حدیثاں
حدیقہ
حدیں
حذف
حذیفہ
حر
حرارت
حراست
حرام
حران
حرب
حرج
حرص
حرف
حرفاں
حرفی
حرفیں
حرم
حرمت
حرمتی
حرمین
حروف
حرکات
حرکت
حرکتاں
حریت
حریف
حریفاں
حزاب
حزب
حس
حساب
حساس
حسام
حسان
حسب
حسبی
حسد
حسرت
حسرتیں
حسن
حسنہ
حسنی
حسنین
حسي
حسی
حسیب
حسین
حسینہ
حسینی
حسینیت
حسیں
حشاشین
حشر
حشرات
حص
حصار
حصول
حصہ
حصیاں
حصیں
حصے
حضر
حضرات
حضرت
حضرمی
حضور
حضوری
حظہ
حفاظت
حفاظتی
حفص
حفصہ
حفظ
حفیظ
حق
حقارت
حقاي
حقدار
حقق
حقوق
حقہ
حقی
حقیر
حقیقت
حقیقتا
حقیقتاں
حقیقی
حقے
حل
حلاج
حلال
حلالی
حلب
حلبی
حلف
حلق
حلقہ
حلقی
حلقیاں
حلقیں
حلقے
حلواي
حلوہ
حلوے
حلیف
حلیمہ
حلیہ
حماد
حمام
حماي
حمایت
حمایتی
حمد
حمراء
حمزہ
حمص
حمل
حملہ
حملیاں
حملے
حمود
حمید
حمیر
حمیرا
حنا
حنبل
حنبلی
حنفی
حنفیہ
حنہ
حنیف
حنیفہ
حنین
حو
حوا
حوادث
حواری
حواس
حواشی
حوال
حوالدار
حوالہ
حوالیاں
حوالیں
حوالے
حوالےنال
حور
حوراں
حوصلہ
حوصلے
حول
حون
حویل
حویلا
حویلہ
حویلی
حویلیاں
حي
حکام
حکایات
حکایت
حکایتاں
حکم
حکماء
حکمت
حکمران
حکمراناں
حکمرانی
حکمرانیں
حکمراں
حکومت
حکومتاں
حکومتی
حکیم
حہ
حی
حیا
حیاء
حیات
حیاتی
حیاتیات
حیاتیاتی
حیاتیاں
حیان
حیاي
حیث
حیثی
حیثیت
حید
حیدر
حیدرا
حیدرانی
حیدراݨی
حیدری
حیران
حیرانگی
حیرانی
حیرت
حیل
حیلہ
حیلے
حیوان
حیوانات
حے
خ
خا
خاب
خاباں
خابیں
خاتمہ
خاتمے
خاتون
خادم
خار
خارج
خارجہ
خارجی
خارش
خاص
خاصا
خاصہ
خاصی
خاصیت
خاصیتاں
خاصے
خاطر
خاقان
خال
خالد
خالص
خالصتا
خالق
خالہ
خالی
خام
خاموش
خاموشی
خامی
خامیاں
خان
خاناں
خاندان
خانداناں
خاندانی
خاندانیں
خانزادہ
خانقاہ
خانقاہی
خانم
خانوادہ
خانوادے
خانپور
خانگاہ
خانہ
خانی
خانیاں
خانیوال
خانے
خاور
خاوند
خاي
خاک
خاکوانی
خاکہ
خاکی
خاکیاں
خاکے
خاں
خبار
خبر
خبراں
خبردار
خبری
خبریں
خبرے
خت
ختم
ختیار
خجی
خجیاں
خد
خدا
خدابخش
خداداد
خدارا
خداوند
خداوندی
خداي
خدایا
خدشات
خدشہ
خدمات
خدمت
خدمتاں
خدمتگار
خدوخال
خدیجہ
خذ
خذات
خذمت
خر
خراب
خرابی
خرابیاں
خراج
خراسان
خراسانی
خرافات
خرت
خرطوم
خرقانی
خرقہ
خرم
خروج
خروش
خرچ
خرچہ
خرچی
خرچے
خرکار
خرگوش
خرہ
خری
خرید
خریدار
خریداری
خریدن
خریدے
خزاعہ
خزانہ
خزانے
خزاي
خزاں
خزرج
خزیاہ
خزیمہ
خزینۃ
خس
خساریں
خسارے
خستہ
خسرو
خش
خشبو
خشک
خشکی
خشیاں
خصاي
خصوصا
خصوصی
خصوصیات
خصوصیت
خضر
خط
خطا
خطاب
خطابت
خطاط
خطاطاں
خطاطی
خطاں
خطبات
خطبہ
خطبے
خطر
خطرات
خطرناک
خطرہ
خطرے
خطوط
خطہ
خطی
خطیب
خطیر
خطیں
خطے
خفا
خفی
خفیف
خفیہ
خلا
خلاصہ
خلاف
خلافت
خلاي
خلجی
خلدون
خلش
خلعت
خلف
خلفا
خلفاء
خلفاي
خلق
خلقت
خلوص
خلکان
خلیات
خلیج
خلیجی
خلیفہ
خلیفے
خلیل
خم
خمار
خمیر
خمیس
خمیسہ
خن
خنجر
خندق
خندہ
خنگاہ
خو
خواب
خواباں
خوابوں
خوابیں
خواتین
خواجگان
خواجہ
خواجے
خوار
خوارج
خوارزم
خواری
خواص
خوامخواہ
خوان
خواناں
خواندگی
خوانی
خواں
خواہ
خواہش
خواہشات
خواہشاں
خواہی
خوب
خوبصورت
خوبصورتی
خوبی
خوبیاں
خود
خوداری
خودبخود
خودداری
خودمختار
خودمختاری
خودکشی
خودی
خور
خوراک
خورد
خوردہ
خورشید
خوزستان
خوش
خوشاب
خوشامد
خوشبو
خوشتر
خوشحال
خوشحالی
خوشخبری
خوشخطی
خوشدل
خوشنویس
خوشنویسی
خوشگوار
خوشہ
خوشی
خوشیاں
خوف
خوفزدہ
خوفناک
خول
خون
خونخوار
خونی
خوگر
خویش
خویلد
خٹک
خٹکی
خچر
خی
خیاب
خیابان
خیال
خیالات
خیالاں
خیالی
خیالیں
خیام
خیانت
خیبر
خیبرپختونخوا
خیبرپختونخواہ
خیر
خیرات
خیرالدین
خیراں
خیرباد
خیرپور
خیری
خیریت
خیز
خیزی
خیل
خیلانوالہ
خیلوی
خیمہ
خیمے
خینس
خے
د
دء
دا
داء
داا
داب
داتا
داجل
داحصہ
داخل
داخلہ
داخلی
داخلے
داد
دادن
دادو
دادے
دار
دارا
دارالحکومت
دارالحکومتی
دارالخلافہ
دارالسلطنت
دارالعلوم
دارانہ
داراں
دارلحکومت
دارو
دارومدار
دارہ
داری
داریاں
داریت
داریں
داس
داستان
داستاناں
داستاں
داسی
داشت
داعش
داعظم
داعی
داعیاں
داغ
دال
دام
داماد
دامان
دامانی
دامن
دامیں
دامیہ
دان
داناي
داناں
دانش
دانشمندی
دانشور
دانشوراں
دانشوریں
دانڑاں
دانڑیں
دانڑے
دانگ
دانگی
دانہ
دانہہ
دانی
دانیال
دانیں
دانیہ
دانے
داو
داود
داوی
داي
داڄل
داڑھی
داکلام
داکم
داں
داہ
داہر
داہک
داݨی
داݨیں
داݨے
دب
دبا
دباو
دبستان
دبستاناں
دبي
دبی
دبیات
دبیر
دبیریہ
دت
دتا
دتہ
دتی
دجال
دجلہ
دحلان
دخل
در
درا
درابن
دراز
درازے
دراصل
درانی
درانیاں
دراوڑ
دراوڑی
دراڑاں
دراک
دراہی
دربار
درباراں
درباری
دربان
دربدر
دربھ
درتے
درج
درجات
درجن
درجناں
درجہ
درجے
درحقیقت
درخت
درختاں
درختوں
درختیں
درخشاں
درخواست
درد
درداء
درداں
دردناک
دردی
دردیلی
دردیں
درزی
درس
درسال
درست
درستی
درسگاہ
درسی
درش
درشن
درمان
درمیان
درمیانی
درمیانے
درمیاں
درندہ
درندے
دروازہ
دروازیاں
دروازے
درود
دروک
دروہ
دروہی
درویش
درویشاں
درپیش
درک
درکار
درکھان
درکھاݨ
درکیں
درکݨ
درگ
درگاہ
درگاہیں
درگڑی
درگھ
درگھی
درگھے
درہ
درہم
دری
دریا
دریافت
دریافتاں
دریاو
دریاواں
دریاویں
دریاي
دریاں
دریاے
دریشک
دریغ
دریں
دریہ
دریہہ
درے
دس
دساتیر
دساویں
دسبردار
دست
دستار
دستاویز
دستاویزات
دستاویزاں
دستاویزی
دستبردار
دستخط
دسترس
دستور
دستوری
دستک
دستکار
دستکاری
دستکاریاں
دستہ
دستی
دستیاب
دستیاں
دستے
دسمبر
دشت
دشمن
دشمناں
دشمنی
دشمنیں
دشمݨ
دشوار
دعا
دعاء
دعاواں
دعاي
دعاگو
دعثور
دعو
دعوت
دعوی
دعویدار
دعوے
دغا
دفاتر
دفاع
دفاعی
دفتر
دفتراں
دفتری
دفع
دفعہ
دفن
دفنایا
دق
دقت
دل
دلا
دلاسے
دلاو
دلاور
دلاي
دلاں
دلبر
دلدار
دلدل
دلربا
دلشاد
دلناز
دلنور
دلو
دلوں
دلچسپ
دلچسپی
دلچسپیاں
دلڑی
دلکش
دلی
دلیر
دلیری
دلیل
دلیلاں
دلیپ
دلیں
دلے
دم
دماغ
دماغی
دمان
دمانی
دمشق
دمودر
دمی
دمیاں
دن
دناوت
دنگ
دنگل
دنیا
دنیاوی
دنیاي
دنیاں
دو
دوا
دوات
دوام
دواي
دواں
دوبارہ
دوداي
دودھ
دور
دوران
دورانی
دوراں
دوروں
دورہ
دوری
دورے
دوزخ
دوست
دوستا
دوستانہ
دوستاں
دوستو
دوستوں
دوستی
دوستیں
دوسرا
دوسری
دوسرے
دوش
دوغلی
دول
دولت
دولتمند
دولی
دوم
دومتہ
دونوں
دوي
دوچار
دوڑ
دوڑے
دوکان
دوکھا
دوکھے
دوں
دوھڑہ
دوہرا
دوہڑے
دویت
دى
دي
دڑو
دڑکا
دڑکے
دڑی
دکان
دکاناں
دکن
دکنی
دکھ
دکھایا
دگ
دگا
دڳ
دھ
دھا
دھات
دھار
دھارا
دھاروں
دھاری
دھاریاں
دھارے
دھاندا
دھاوا
دھاوݨ
دھاي
دھاڑ
دھاڑاں
دھاڑل
دھاڑیں
دھاڑے
دھاک
دھاگہ
دھاگے
دھاڳا
دھاڳے
دھاں
دھج
دھدی
دھر
دھرتا
دھرتی
دھرم
دھرو
دھرک
دھریجہ
دھریجے
دھشت
دھل
دھم
دھما
دھمال
دھمالاں
دھماکے
دھمدی
دھمکی
دھمی
دھن
دھند
دھندہ
دھنی
دھو
دھوا
دھواي
دھواں
دھوبی
دھوتا
دھوتی
دھوتے
دھورا
دھوم
دھون
دھوون
دھووے
دھووݨ
دھوي
دھوٻی
دھوپ
دھوڑ
دھوڑا
دھوڑکوٹ
دھوڑے
دھوکا
دھوکہ
دھوکے
دھوں
دھپ
دھپاں
دھڑ
دھڑا
دھڑک
دھڑکدا
دھڑکن
دھڑی
دھڑے
دھک
دھکا
دھکے
دھی
دھیا
دھیان
دھیاں
دھیرج
دھیریں
دھیمیں
دھیمے
دھیں
دھے
دھݨ
دھݨوال
دہ
دہانہ
دہاي
دہر
دہراي
دہشت
دہلوی
دہلی
دہن
دہی
دی
دیا
دیار
دیال
دیانت
دیانتی
دیاں
دیب
دیباچہ
دیباچے
دیت
دیتا
دیتی
دیتے
دید
دیدار
دیداں
دیدہ
دیر
دیراوڑ
دیروی
دیرہ
دیرینہ
دیرے
دیس
دیساں
دیسی
دیش
دیشی
دیلمی
دین
دینا
دینار
دیندا
دیندے
دینہہ
دینی
دینے
دیو
دیوار
دیواراں
دیواری
دیواریں
دیوان
دیوانگی
دیوانہ
دیوانی
دیوانے
دیوبند
دیوبندی
دیوتا
دیوتاو
دیوتاواں
دیوناگری
دیوچ
دیوی
دیویاں
دیویں
دیوے
دیپ
دیپا
دیپال
دیپک
دیکھ
دیکھا
دیکھو
دیکھیں
دیکھے
دیگ
دیگاں
دیگر
دیگری
دیگرے
دیں
دیہات
دیہاتاں
دیہاتی
دیہاں
دیہہ
دیہی
دیے
دے
دےا
دےبعد
دےت
دےحوالےنال
دےحکم
دےر
دےمطابق
دےنال
دےناں
دےو
دےوچ
دےپ
دےک
دےکھوہ
دےہ
دےہک
ذ
ذا
ذات
ذاتاں
ذاتی
ذاد
ذال
ذالیاں
ذالیں
ذان
ذاي
ذاکر
ذاکرین
ذبح
ذخاي
ذخیرہ
ذخیرے
ذر
ذرا
ذرات
ذراي
ذرباي
ذرہ
ذری
ذریعہ
ذریعے
ذرے
ذل
ذلت
ذلقی
ذلیل
ذم
ذمہ
ذمے
ذن
ذندہ
ذو
ذوالحجہ
ذوالفقار
ذوق
ذولفقار
ذوی
ذکر
ذکریا
ذکی
ذہانت
ذہبی
ذہن
ذہناں
ذہنی
ذہنیں
ذہین
ذی
ذیادہ
ذیشان
ذیقعد
ذیل
ذیلی
ر
را
راء
رابرٹ
رابطہ
رابطے
رابعہ
رات
راتاں
راتوں
راتی
راتیں
راج
راجا
راجاواں
راجستھان
راجن
راجنپور
راجپوت
راجپوتاں
راجکمار
راجکماری
راجھستان
راجہ
راجیہ
راجݨ
راحت
راد
رادھا
رادھی
رادھے
راز
رازاں
رازق
رازقاں
رازی
راس
راسب
راست
راستہ
راستے
راسخ
راسی
راشد
راشدہ
راشدین
راضی
راغب
رافع
راقب
راقم
رالظ
رام
راما
راماي
رامن
رامی
رامے
ران
رانا
رانجھا
رانجھن
رانجھو
رانجھے
رانجھݨ
راند
راندو
رانو
رانوت
رانڑاں
رانڑی
رانڑیں
رانی
رانیاں
راو
راوا
راوت
راول
راولپنڈی
راوی
راوے
راي
راٹھ
راڄ
راڄن
راڑ
راڑا
راڑی
راڑے
راکٹ
راکھ
راکھا
راکھی
راکھے
راکین
راگ
راگا
راڳ
راں
راھندا
راھندے
راھوے
راہ
راہب
راہساں
راہسن
راہسو
راہسوں
راہسی
راہسے
راہن
راہندا
راہنداں
راہندن
راہندی
راہندیں
راہندے
راہنما
راہنماي
راہنڑ
راہواں
راہون
راہونڑ
راہوں
راہویں
راہوے
راہوݨ
راہی
راہیں
راہے
راہݨ
رایٹرز
راے
راݨا
راݨاں
راݨی
راݨیاں
راݨے
رب
ربا
رباب
ربابی
رباح
رباعی
رباعیات
ربان
ربانی
ربت
ربط
ربع
ربڑ
ربہ
ربی
ربیع
ربیعہ
رة
رت
رتا
رتاں
رتبہ
رتن
رتول
رتھ
رتھر
رتھوڈوکس
رتی
رتیاں
رتیں
رتے
رثے
رج
رجال
رجاي
رجب
رجحان
رجحانات
رجز
رجسٹر
رجسٹرڈ
رجسٹریشن
رجعت
رجوع
رجہ
رح
رحجانات
رحلت
رحم
رحمان
رحمانی
رحمت
رحمتاں
رحمتہ
رحمن
رحمۃ
رحمۃاللہ
رحمی
رحیم
رحیمیارخان
رخ
رخرو
رخسار
رخسانہ
رخصت
رخم
رخی
رخین
رد
ردا
ردار
رداس
رداں
ردعمل
ردو
ردگرد
ردھم
ردہ
ردی
ردیاں
ردیف
ردیں
ردے
رذوق
رز
رزاق
رزق
رزلٹ
رزمیہ
رزو
رس
رسا
رسالت
رسالہ
رسالۃ
رسالیاں
رسالے
رساون
رساي
رساں
رست
رستم
رستہ
رستیاں
رستیں
رستے
رسد
رسدا
رسدي
رسدی
رسدے
رسم
رسماں
رسمی
رسمیں
رسن
رسوا
رسواي
رسوخ
رسوز
رسول
رسولاں
رسولپوری
رسوم
رسومات
رسہ
رسی
رسیا
رسیاں
رسید
رسیدہ
رسیں
رسے
رسݨ
رش
رشاد
رشتہ
رشتیاں
رشتیں
رشتے
رشد
رشدی
رشوت
رشک
رشی
رشید
رض
رضا
رضامندی
رضو
رضوان
رضوانہ
رضوانی
رضوی
رضویہ
رضي
رضی
رضیہ
رعاي
رعایا
رعب
رعنا
رعو
رعیت
رغام
رغبت
رف
رفاہ
رفت
رفتار
رفتاری
رفتہ
رفع
رفعت
رفیع
رفیق
رقاصہ
رقاع
رقبہ
رقبے
رقص
رقم
رقیب
رقیباں
رقیبیں
رقیہ
رل
رلا
رلاتے
رلاندا
رلاون
رلاوݨ
رلاي
رلاٹ
رلایا
رلدا
رلدن
رلدی
رلدیاں
رلدے
رلواں
رلی
رلیا
رلیاں
رلیندے
رلینڈ
رلے
رم
رما
رمان
رمز
رمزاں
رمضان
رمضو
رمل
رملہ
رمنٹ
رموز
رمہ
رمی
رمین
رمینیا
رمینیاي
رمے
رن
رنا
رناں
رنبہ
رنج
رنجشاں
رنجکی
رنجیت
رند
رنگ
رنگا
رنگاں
رنگت
رنگلی
رنگلے
رنگولی
رنگی
رنگیا
رنگیاں
رنگیل
رنگیلا
رنگیلڑی
رنگین
رنگینی
رنگیں
رنگیے
رنگے
رنڳ
رنڳیں
رنیاں
رنے
ره
رو
روا
روابط
رواج
رواجاں
رواحہ
رواداری
روار
روانگی
روانہ
روانی
رواي
رواں
روایات
روایت
روایتاں
روایتی
روبینہ
روتھ
روجھان
روجھاݨ
روح
روحانی
روحانیت
روحل
روحیں
روز
روزانہ
روزمرہ
روزنامہ
روزگار
روزگاری
روزہ
روزی
روزے
روس
روسی
روسیاں
روسیں
روسے
روش
روشن
روشناس
روشنی
روضتہ
روضہ
روضے
روغن
رول
رولا
رولز
رولے
روم
روما
رومال
رومان
رومانس
رومانوی
رومانویت
رومانی
رومانیت
رومانیہ
رومن
رومہ
رومی
رومیاں
رومیوں
رون
روند
روندا
رونداں
روندن
روندي
روندی
روندیاں
روندیں
روندے
رونق
رونما
رونماي
رونواں
روو
رووانواں
روواں
روون
روونڑ
روونڑاں
رووے
رووݨ
رووݨا
روي
روٹی
روٹیاں
روپ
روپلو
روپوش
روپي
روپیاں
روپیہ
روپے
روڈ
روک
روکا
روکنڑے
روکو
روکھڑی
روکیا
روکیے
روکے
روکݨ
روگ
روڳ
روڳی
روں
روھی
روہ
روہڑی
روہی
روہیلا
روہیلی
روہیلیاں
روہیلے
روی
رویاں
رویہ
رویے
روݨ
ري
رٹ
رٹا
رٹس
رٹسٹ
رٹھے
رٹیکل
رٹے
رٹݨ
رپ
رپورتاژ
رپورٹ
رپورٹاں
رپورٹر
رڄ
رچ
رچرڈ
رچنا
رچناوی
رچھ
رچی
رچیا
رچیاں
رچے
رڈ
رڈر
رڈرا
رڑ
رڑھ
رک
رکا
رکار
رکان
رکاوٹ
رکاوٹاں
رکاي
رکاٹ
رکدا
رکدی
رکدے
رکشہ
رکشے
رکعت
رکن
رکنی
رکنیت
رکوع
رکھ
رکھا
رکھاي
رکھاں
رکھاھے
رکھتی
رکھتے
رکھد
رکھدا
رکھداي
رکھداں
رکھدن
رکھدی
رکھدیں
رکھدے
رکھساں
رکھسن
رکھسوں
رکھسی
رکھن
رکھنا
رکھناں
رکھنڑ
رکھنڑاں
رکھنے
رکھو
رکھوالے
رکھوں
رکھي
رکھڑاں
رکھی
رکھیا
رکھیاي
رکھیاں
رکھیج
رکھیس
رکھیسوں
رکھیسی
رکھیم
رکھین
رکھیند
رکھیندا
رکھینداں
رکھیندن
رکھیندی
رکھیندیاں
رکھیندیں
رکھیندے
رکھیي
رکھیڄ
رکھیں
رکھیے
رکھے
رکھݨ
رکھݨا
رکھݨی
رکھݨے
رکی
رکیا
رکیالوجی
رکیالوجیکل
رکیک
رکے
رکݨ
رگ
رگاں
رگناي
رگھے
رڳ
رڳاں
رھ
رھا
رھاوݨ
رھندن
رھي
رھی
رھیا
رھیاں
رھیي
رھے
رہ
رہا
رہان
رہاون
رہاي
رہایا
رہبر
رہتا
رہس
رہساں
رہسن
رہسو
رہسوں
رہسی
رہسے
رہن
رہنا
رہندا
رہنداں
رہندن
رہندو
رہندی
رہندیاں
رہندے
رہنما
رہنماواں
رہنماي
رہنڑ
رہو
رہواں
رہون
رہونڑ
رہوو
رہوں
رہوی
رہویں
رہوے
رہوݨ
رہي
رہٹ
رہی
رہیا
رہیاں
رہین
رہیندے
رہیي
رہیں
رہیے
رہے
رہݨ
رہݨا
رۃ
ری
ریا
ریاست
ریاستاں
ریاستہاي
ریاستی
ریاستیں
ریاض
ریاضت
ریاضی
ریاضیاتی
ریاواں
ریاي
ریاں
ریت
ریتاں
ریتلی
ریتلے
ریتی
ریتیں
ریج
ریجن
ریجنل
ریحان
ریخ
رید
ریذیڈنٹ
ریز
ریزی
ریس
ریسرچ
ریسکیو
ریش
ریشم
ریشماں
ریشمی
ریشی
ریفرنس
ریل
ریلویز
ریلوے
ریلی
ریلیز
ریم
ریمت
ریمتاں
ریمتیں
رین
ریندا
ریندے
ریوس
ریونیو
ریوڑ
ریي
ریٹ
ریٹاي
ریپبلک
ریڈ
ریڈنگ
ریڈی
ریڈیاي
ریڈیو
ریڑھ
ریڑھی
ریڑھے
ریکا
ریکارڈ
ریکارڈنگ
ریکٹ
ریکٹر
ریکٹری
ریکٹوریٹ
ریکھا
ریگزار
ریگستان
ریں
ریھا
ریھہ
ریہ
ریہا
ریہاں
ریہم
ریہن
ریہوں
ریہہ
ریہی
ریہے
رے
رݙ
رݨ
ز
زا
زات
زاتی
زاد
زادا
زادانہ
زادہ
زادی
زادے
زار
زارا
زاراں
زاری
زاریاں
زارے
زال
زاویہ
زاویے
زاي
زاں
زاھد
زاہد
زاہدہ
زاہر
زبا
زبان
زباناں
زبانوں
زبانی
زبانیں
زبانیںک
زباں
زبر
زبردست
زبردستی
زبور
زبکستان
زبیدہ
زبیر
زحمت
زخم
زخماں
زخمی
زخمیں
زد
زدار
زدن
زدگی
زدہ
زر
زرا
زراعت
زرخیز
زرخیزی
زرد
زرداری
زردی
زردے
زرعی
زرقانی
زري
زرگ
زرگاں
زرہ
زری
زریا
زریعے
زریندے
زرینہ
زریں
زرے
زرݨ
زق
زل
زلزلہ
زلزلے
زلف
زلفاں
زلفیں
زلیخا
زلیل
زم
زما
زمان
زمانہ
زمانی
زمانیاں
زمانیں
زمانے
زماي
زماں
زمرد
زمرہ
زمرے
زمعہ
زمن
زمنی
زمہ
زمی
زمین
زمیناں
زمیندار
زمیندارہ
زمینی
زمینیں
زمیں
زن
زنا
زنان
زنانہ
زنانی
زنانیاں
زنانیت
زنانے
زناور
زناوراں
زناوریں
زنجان
زنجیر
زنجیراں
زند
زندگانی
زندگی
زندگیاں
زندڳی
زندہ
زندیق
زنگ
زنگی
زنی
زوار
زوال
زوجہ
زور
زوراں
زوردار
زوری
زوریں
زورے
زون
زي
زيادہ
زپ
زک
زکام
زکر
زکریا
زکو
زکیہ
زھر
زھن
زہ
زہد
زہر
زہرا
زہرانی
زہرہ
زہری
زہریلے
زہن
زہیر
زی
زیاد
زیادتی
زیادتیاں
زیادہ
زیادۃ
زیادی
زیارت
زیان
زیاں
زیب
زیبا
زیتون
زید
زیدی
زیر
زیراہتمام
زیرو
زیرک
زیریں
زیشن
زین
زینب
زینت
زیور
زیڈ
زے
س
سا
سابق
سابقہ
سابقے
سات
ساتویں
ساتھ
ساتھوں
ساتھی
ساتھیاں
ساتھے
ساجد
ساجدہ
ساجن
ساجھے
ساحر
ساحل
ساحلاں
ساحلی
ساخ
ساخت
ساختہ
ساختیات
ساد
سادات
سادگی
سادھ
سادھو
سادہ
سادی
سادے
سار
سارا
ساراں
سارایکی
سارنگ
سارنگی
ساري
سارہ
ساری
ساریا
ساریاں
ساریں
سارے
سارݨ
ساز
سازاں
سازش
سازشاں
سازشی
سازشیں
سازگار
سازی
سازیں
ساسانی
ساغر
سافر
سافٹ
ساقی
سال
سالا
سالار
سالاری
سالانہ
سالاں
سالم
سالن
سالک
سالگرہ
سالھ
سالھیں
سالہ
سالہیں
سالی
سالیں
سام
سامان
سامانی
سامرا
سامراء
سامراج
سامراجی
سامری
سامع
سامعین
سامن
سامنا
سامنڑیں
سامنڑے
سامنے
سامڑیں
سامھڑیں
سامھیں
سامھݨاں
سامھݨے
سامہ
سامہیں
سامہݨے
سامی
سامݨا
سامݨھیں
سامݨیں
سامݨے
سان
سانبھ
سانبھن
سانبھی
سانبھیاں
سانبھیي
سانبھݨ
سانجها
سانجھ
سانجھا
سانجھاں
سانجھی
سانجھیاں
سانجھے
سانحہ
سانحے
ساندل
سانس
سانوری
سانول
سانولا
سانولی
سانون
سانونڑ
سانوں
سانویں
سانوݨ
سانچہ
سانچیں
سانچے
سانگ
سانگا
سانگوں
سانگھڑ
سانگھڑی
سانگھے
سانگے
سانڳے
سانی
سانیال
ساه
ساو
ساوا
ساول
ساون
ساونڑ
ساوڑی
ساوی
ساویاں
ساویں
ساوے
ساوݨ
ساوݨی
ساي
ساڈ
ساڈا
ساڈو
ساڈھے
ساڈی
ساڈیاں
ساڈیں
ساڈے
ساڋی
ساڋے
ساڑ
ساڑا
ساڑیا
ساڑے
ساک
ساکن
ساکو
ساکوں
ساکھ
ساکی
ساگ
ساگر
ساگی
ساڳ
ساڳی
ساں
ساہ
ساہتیہ
ساہمنے
ساہن
ساہواں
ساہویں
ساہی
ساہیوال
ساہیں
سایا
سایہ
ساݙ
ساݙا
ساݙو
ساݙی
ساݙیاں
ساݙیں
ساݙے
سب
سبا
سباق
سبالا
سباي
سبب
سبجیکٹ
سبحان
سبز
سبزل
سبزواری
سبزی
سبزیاں
سبطین
سبق
سبقت
سبکتگین
سبھ
سبھا
سبھاي
سبھو
سبھی
سبھے
سبھݨاں
سبی
سبیل
ست
ستا
ستاد
ستاداں
ستار
ستارا
ستاراں
ستارھاں
ستارھویں
ستارہ
ستارہاں
ستارہویں
ستاریاں
ستاریں
ستارے
ستان
ستانہ
ستانی
ستانیاں
ستاوی
ستاویہہ
ستاوے
ستاي
ستاں
ستر
ستراں
ستری
ستریے
سترے
سترݨ
ستعمال
ستلج
ستم
ستمبر
ستمگر
ستواں
ستون
ستویں
ستھا
ستھرا
ستھری
ستھرے
ستہ
ستی
ستیانوی
ستیاں
ستیں
ستے
سج
سجا
سجاد
سجادحیدررحمانی
سجادہ
سجاول
سجاي
سجاک
سجاکی
سجایا
سجدا
سجدہ
سجدے
سجن
سجنا
سجناں
سجنڑ
سجنڑاں
سجنڑو
سجو
سجڑیں
سجھ
سجی
سجیندی
سجے
سجݨ
سحر
سخاوت
سخت
سختا
سختی
سخن
سخی
سخیرانی
سد
سدا
سدراں
سدرلینڈ
سدرہ
سدس
سدن
سدوزي
سدھ
سدھا
سدھر
سدھراں
سدھی
سدھیاں
سدھے
سدی
سدیاں
سدید
سدیں
سدے
سر
سرا
سراءیکی
سراج
سرار
سراسر
سراغ
سرانجام
سراندی
سراي
سراٸیکی
سراپا
سراں
سراہا
سرایي
سربراہ
سربراہان
سربراہی
سرت
سرتے
سرجانی
سرحد
سرحداں
سرحدی
سرحدیں
سرخ
سرخرو
سرخی
سرد
سردا
سردار
سرداران
سرداراں
سردارنی
سرداری
سرداریں
سردی
سردیاں
سرزمین
سرزنش
سرسبز
سرسری
سرسوتی
سرسوں
سرسید
سرشار
سرفراز
سرفہرست
سرما
سرماي
سرمایا
سرمایہ
سرمد
سرمست
سرمی
سرمے
سرو
سروج
سرور
سروس
سروسز
سرولی
سروپ
سروں
سروے
سري
سرٹیفیکیٹ
سرپرست
سرپرستی
سرچشمہ
سرکار
سرکاری
سرکردگی
سرکردہ
سرکس
سرکش
سرکشی
سرکل
سرکوبی
سرگانی
سرگرم
سرگرمی
سرگرمیاں
سرگرمیں
سرگودھا
سرڳودھا
سرہ
سرہند
سرہندی
سری
سریانی
سریاں
سریر
سریش
سرینہہ
سریہ
سرے
سرݨ
سزا
سزاواں
سزاي
سس
سست
سستا
سستی
سستے
سسلی
سسٹم
سسڑی
سسی
سسیاں
سطح
سطحی
سطراں
سطریں
سطی
سعادت
سعد
سعداللہ
سعدی
سعدیہ
سعود
سعودی
سعودیہ
سعی
سعید
سعیداختر
سعیدثروت
سعیدہ
سعیدی
سغراند
سفاح
سفارتی
سفارش
سفاک
سفاکی
سفر
سفرنامہ
سفرنامے
سفری
سفریں
سفوان
سفیان
سفید
سفیدی
سفیر
سفیراں
سفیل
سقراط
سقوط
سل
سلا
سلاد
سلاست
سلاسل
سلاطین
سلام
سلامت
سلامتی
سلامی
سلامیہ
سلاوی
سلاي
سلجوقی
سلجوقیاں
سلجوقیہ
سلح
سلسل
سلسلہ
سلسلیاں
سلسلے
سلطان
سلطانہ
سلطانی
سلطنت
سلطنتاں
سلم
سلمان
سلمہ
سلمی
سلوار
سلور
سلوک
سليمان
سلک
سلھ
سلھاڑ
سلھاں
سلھیں
سلہاڑ
سلہاں
سلیس
سلیقہ
سلیقے
سلیم
سلیمان
سلیمانی
سلیمانیہ
سلیمی
سلیٹی
سم
سما
سماء
سماج
سماجی
سماجیات
سماع
سماعت
سماعی
سماعیل
سمان
سماناں
سمانی
سماي
سماں
سمبندھ
سمبھال
سمت
سمتاں
سمتی
سمجهاں
سمجھ
سمجھا
سمجھاو
سمجھاون
سمجھاوے
سمجھاوݨ
سمجھاي
سمجھاں
سمجھایا
سمجھدا
سمجھدار
سمجھداں
سمجھدن
سمجھدوں
سمجھدی
سمجھدے
سمجھسن
سمجھسی
سمجھن
سمجھنڑ
سمجھو
سمجھوتہ
سمجھوں
سمجھی
سمجھیا
سمجھیاں
سمجھین
سمجھیندا
سمجھیندن
سمجھیندی
سمجھیندے
سمجھیں
سمجھے
سمجھݨ
سمجھݨا
سمجھݨاں
سمجے
سمدی
سمدے
سمر
سمراج
سمرقند
سمرقندی
سمرنوف
سمرون
سمعان
سمل
سمن
سمند
سمندر
سمندراں
سمندری
سمندریں
سمنڑ
سمورا
سموری
سمورے
سموں
سمکھیا
سمگلنگ
سمں
سمھ
سمہ
سمی
سمیا
سمیت
سمیجو
سمیرا
سمیع
سمینار
سمینوی
سمیٹ
سمے
سمݨ
سن
سنا
سناتن
سنارے
سنان
سناي
سنبھال
سنبھالا
سنبھالی
سنبھالے
سنبھالݨ
سنبھل
سنت
سنتالی
سنج
سنجان
سنجانڑ
سنجاݨ
سنجر
سنجرانی
سنجوک
سنجھ
سنجیدگی
سنجیدہ
سنجے
سند
سنداری
سنداں
سندر
سندور
سندھ
سندھو
سندھڑ
سندھڑی
سندھڑے
سندھی
سندھیاں
سندھیاݨی
سندھیں
سندی
سندیس
سنز
سنس
سنسکرت
سنسکرتی
سنن
سنو
سنوار
سنوارݨ
سنواں
سنور
سنویں
سنٹر
سنٹرل
سنڄ
سنڄانڑن
سنڄاݨ
سنڈیمن
سنڈیمین
سنڑ
سنڑا
سنڑاي
سنڑدا
سنڑدے
سنڑن
سنڑنڑ
سنڑو
سنڑی
سنڑیا
سنڑیاں
سنڑیندے
سنڑے
سنگ
سنگار
سنگاپور
سنگت
سنگتاں
سنگتاݨی
سنگتی
سنگتیاں
سنگتیں
سنگدي
سنگر
سنگری
سنگلز
سنگم
سنگوڑ
سنگھ
سنگھار
سنگھت
سنگھتی
سنگھوڑ
سنگھڑ
سنگی
سنگیت
سنگین
سنڳ
سنڳت
سنڳتی
سنڳدے
سنہ
سنہرا
سنہری
سنہٹپ
سنہڑا
سنہیا
سنی
سنیما
سنین
سنیہا
سنیہڑا
سنیہڑہ
سنیہے
سنے
سو
سوا
سوات
سواد
سوادی
سوار
سواراں
سواری
سواریاں
سوال
سوالات
سوالاں
سوالی
سوالیں
سوالیہ
سوامی
سوانح
سوانحی
سواي
سواگت
سواں
سوایا
سوب
سوبھ
سوت
سوتر
سوتی
سوجھ
سوجھل
سوجھلا
سوجھلے
سوجھوان
سوجھواݨ
سوجھواݨاں
سود
سودا
سوداي
سوداگر
سوداگراں
سودگی
سودھا
سودھی
سودھے
سودھݨ
سودہ
سودی
سودے
سور
سوراخ
سورت
سورج
سورس
سورما
سورمیاں
سورن
سورٹھ
سورک
سورہ
سورۃ
سوری
سوریا
سوریہ
سوز
سوسال
سوساي
سوشل
سوشلزم
سوشلسٹ
سوغات
سول
سولاں
سولر
سولنگى
سولنگی
سولو
سولھاں
سولہ
سولہاں
سولہویں
سولی
سوم
سومرو
سومرہ
سومری
سومل
سوموار
سون
سونا
سونترا
سونف
سونپ
سونپا
سونہاں
سونہہ
سونہی
سونہیں
سونہے
سونیا
سونے
سوویت
سوي
سوٹ
سوٹا
سوٹی
سوٹے
سوچ
سوچا
سوچاں
سوچن
سوچنڑ
سوچو
سوچوں
سوچي
سوچی
سوچیا
سوچیم
سوچیندا
سوچینداں
سوچیندے
سوچیں
سوچے
سوچݨ
سوڈان
سوڈانی
سوڑ
سوڑا
سوک
سوکڑ
سوکڑی
سوکھ
سوکھا
سوکھڑی
سوکھی
سوکھیں
سوکھے
سوگ
سوڳ
سوں
سوھنا
سوھنڑاں
سوھنڑی
سوھنڑیں
سوھنڑے
سوھنی
سوھنے
سوھݨے
سوہرے
سوہن
سوہنا
سوہناں
سوہنڑا
سوہنڑاں
سوہنڑپ
سوہنڑی
سوہنڑیاں
سوہنڑیں
سوہنڑے
سوہنی
سوہنے
سوہݨا
سوہݨاں
سوہݨپ
سوہݨی
سوہݨیاں
سوہݨیں
سوہݨے
سویر
سویرا
سویرے
سویق
سویل
سویلین
سویلے
سویڈش
سویڈن
سویں
سي
سيد
سٹ
سٹا
سٹار
سٹارٹ
سٹاف
سٹال
سٹاي
سٹاک
سٹاں
سٹریا
سٹریلیا
سٹریٹ
سٹن
سٹنڑ
سٹو
سٹور
سٹوری
سٹوڈنٹ
سٹوڈنٹس
سٹوڈیو
سٹڈی
سٹڈیز
سٹک
سٹھ
سٹہ
سٹی
سٹیا
سٹیج
سٹیسی
سٹیشن
سٹیندی
سٹیندے
سٹینڈرڈ
سٹیٹ
سٹیٹر
سٹیٹس
سٹیڈیم
سٹیے
سٹے
سٹݨ
سپ
سپارے
سپاہ
سپاہی
سپاہیاں
سپت
سپر
سپرد
سپرنٹنڈنٹ
سپرے
سپوت
سپورٹ
سپورٹر
سپہ
سپیشل
سپین
سپیکر
سپیکٹرومیٹری
سڄا
سڄاک
سڄی
سڄے
سڄݨ
سڄݨاں
سچ
سچا
سچار
سچاي
سچل
سچو
سچی
سچیاں
سچیندا
سچیندے
سچے
سڈ
سڈا
سڈنی
سڈوا
سڈویجنڑ
سڈیا
سڈیندن
سڈیندے
سڑ
سڑدا
سڑدی
سڑدیاں
سڑدے
سڑک
سڑکاں
سڑکی
سڑکیں
سڑی
سڑے
سک
سکا
سکار
سکالر
سکالرز
سکتا
سکتی
سکتے
سکدا
سکدن
سکدي
سکدی
سکدیں
سکدے
سکر
سکرات
سکرپٹ
سکرین
سکسینہ
سکن
سکندر
سکندریہ
سکو
سکوت
سکول
سکولاں
سکولوں
سکولیں
سکون
سکونت
سکوں
سکھ
سکھا
سکھانی
سکھاوݨ
سکھاي
سکھاں
سکھایا
سکھاݨی
سکھدا
سکھدے
سکھر
سکھلاي
سکھنڑ
سکھوں
سکھڑاں
سکھڑیں
سکھی
سکھیا
سکھیاں
سکھیں
سکھے
سکھݨ
سکھݨا
سکھݨاں
سکھݨی
سکھݨے
سکہ
سکی
سکیاں
سکیسر
سکیم
سکیمپ
سکینہ
سکے
سکݨ
سگ
سگا
سگالی
سگدا
سگداں
سگدن
سگدو
سگدوں
سگدی
سگدیاں
سگدین
سگدیں
سگدے
سگریٹ
سگسی
سگن
سگنل
سگو
سگوں
سگی
سگیا
سگیندا
سگیندے
سگیے
سگے
سڳ
سڳا
سڳاں
سڳد
سڳدا
سڳداں
سڳدن
سڳدوں
سڳدي
سڳدی
سڳدیاں
سڳدیں
سڳدے
سڳسی
سڳن
سڳو
سڳوں
سڳي
سڳی
سڳیا
سڳیم
سڳین
سڳیندے
سڳیے
سڳے
سڳݨ
سہ
سہا
سہارا
سہارنپور
سہارنپوری
سہارے
سہانی
سہاپ
سہاگ
سہاگن
سہاڳ
سہرا
سہراب
سہرانی
سہروردی
سہروردیہ
سہریہ
سہرے
سہل
سہم
سہمت
سہن
سہندا
سہندی
سہندے
سہو
سہولت
سہولتاں
سہولیات
سہگل
سہہ
سہی
سہیل
سہیلی
سہیلیاں
سہݨ
سہݨپ
سی
سیا
سیاح
سیاحت
سیاحتی
سیادت
سیارا
سیارہ
سیاریاں
سیارے
سیاست
سیاستدان
سیاستداناں
سیاستدانیں
سیاسی
سیاسیات
سیاق
سیال
سیالا
سیالکوٹ
سیالے
سیان
سیانڑاں
سیانڑیں
سیانڑے
سیانے
سیاں
سیاہ
سیاہی
سیاݨا
سیاݨاں
سیاݨی
سیاݨے
سیب
سیت
سیتا
سیتھی
سیتی
سیتے
سیج
سیجھ
سیخ
سید
سیداں
سیدن
سیدنا
سیدھ
سیدھا
سیدھے
سیدہ
سیر
سیراب
سیرانی
سیرت
سیرو
سیرۃ
سیریز
سیریل
سیرین
سیزر
سیزن
سیس
سیستان
سیشن
سیف
سیفل
سیفی
سیل
سیلاب
سیم
سیمی
سیمینار
سین
سینا
سیند
سیندا
سیندھ
سینس
سینما
سیني
سینٹ
سینٹر
سینٹرل
سینٹی
سینکڑاں
سینکڑے
سینگھی
سینگھیاں
سینگی
سینگیاں
سینہ
سینیٹ
سینیٹر
سینیٹرز
سینے
سیوا
سیوستان
سیوطی
سیوڑہ
سیوں
سیویں
سیوݨ
سیي
سیٹ
سیٹاں
سیٹلاي
سیٹھ
سیپ
سیڈ
سیڑھ
سیڑھی
سیک
سیکر
سیکرٹری
سیکرٹریٹ
سیکریٹری
سیکس
سیکسن
سیکشن
سیکنڈ
سیکنڈری
سیکورٹی
سیکولر
سیکٹر
سیکٹری
سیکڑاں
سیکھ
سیکھیے
سیں
سیہ
سیہون
سیہڑ
سیݨ
سے
سݙ
سݙا
سݙاوݨ
سݙواي
سݙویجے
سݙویندا
سݙویندی
سݙویندے
سݙی
سݙیا
سݙیجے
سݙین
سݙیندا
سݙیندن
سݙیندی
سݙیندیاں
سݙیندے
سݙے
سݙݨ
سݨ
سݨا
سݨاواں
سݨاوݨ
سݨاي
سݨایا
سݨدا
سݨدی
سݨدے
سݨن
سݨو
سݨہپ
سݨی
سݨیا
سݨیندے
سݨے
سݨݨ
ش
شا
شاء
شاباش
شابر
شابش
شاخ
شاخاں
شاد
شاداب
شادابی
شادن
شادو
شادی
شادیاں
شاذیہ
شار
شارحین
شارٹ
شارک
شارہ
شازش
شازشاں
شازم
شازیہ
شاستر
شاستری
شاطر
شاعر
شاعرات
شاعرانہ
شاعراں
شاعرہ
شاعری
شاعریں
شافعی
شال
شالا
شالہ
شام
شاماں
شامت
شامل
شامی
شان
شاناں
شانتی
شاند
شاندار
شانداں
شانہ
شانی
شاه
شاي
شاپ
شاپر
شاک
شاکا
شاکاہاری
شاکر
شاگرد
شاگردان
شاگرداں
شاگردسانجھ
شاگردی
شاگردیں
شاں
شاھد
شاھر
شاھی
شاھین
شاہ
شاہان
شاہاں
شاہجہان
شاہجہاں
شاہد
شاہدہ
شاہر
شاہراں
شاہراہ
شاہزیب
شاہنواز
شاہواں
شاہکار
شاہی
شاہین
شایان
شایت
شاید
شب
شباب
شبان
شبد
شبدیں
شبلی
شبنم
شبو
شبہ
شبیر
شبیرے
شت
شتر
شتمل
شتی
شتیر
شجاع
شجاعبادی
شجاعت
شجر
شجراء
شجره
شجرہ
شجری
شجرے
شخص
شخصی
شخصیات
شخصیت
شخصیتاں
شد
شداد
شدت
شده
شدہ
شدی
شدید
شر
شراب
شرابی
شرارت
شراف
شرافت
شراي
شراکت
شربت
شرح
شرر
شرط
شرطاں
شرعی
شرف
شرق
شرقی
شرقیہ
شرم
شرما
شرمسار
شرمساری
شرمندگی
شرمندہ
شرمو
شرمی
شرنا
شرناء
شروتی
شروع
شروعات
شرک
شرکاء
شرکت
شرکہ
شری
شریر
شریعت
شریف
شریک
ششم
شطرنج
شعار
شعاع
شعب
شعبان
شعبہ
شعبیاں
شعبے
شعر
شعرا
شعراء
شعراي
شعراں
شعرو
شعری
شعریت
شعریں
شعلہ
شعلے
شعور
شعوری
شعیب
شغف
شغل
شــ
شفا
شفاء
شفاءاللہ
شفقت
شفوی
شفٹ
شفیع
شفیق
شق
شل
شلوار
شمار
شمارندگی
شمارندی
شمارندے
شمارہ
شماری
شماریات
شماریاتی
شمارے
شمال
شمالا
شمالی
شمر
شمس
شمسی
شمشیر
شمع
شمل
شملہ
شملے
شمن
شمور
شمولیت
شمی
شمیم
شمݨ
شن
شنا
شناخت
شناختی
شناس
شناسی
شناي
شنکر
شو
شوال
شواہد
شوب
شوبز
شوخ
شودا
شودی
شودیاں
شودے
شور
شورش
شورکوٹ
شوری
شوز
شوشہ
شوق
شوقین
شوقیہ
شول
شون
شوي
شوکت
شوگر
شوں
شوہ
شوہر
شي
شيخ
شپ
شک
شکار
شکارپور
شکاری
شکاگو
شکایت
شکایتاں
شکتی
شکر
شکریہ
شکست
شکستہ
شکل
شکلاں
شکلیں
شکن
شکنی
شکوہ
شکوے
شکی
شکیل
شگ
شگرد
شگفتہ
شھار
شھر
شھھر
شھید
شہ
شہاب
شہادت
شہاݨی
شہباز
شہبازتبسم
شہد
شہدا
شہداء
شہداد
شہداي
شہدہ
شہر
شہراں
شہرت
شہردا
شہروں
شہرہ
شہری
شہریاں
شہریت
شہریں
شہزاد
شہزادعرفان
شہزادہ
شہزادی
شہزادیاں
شہزادے
شہسوار
شہناي
شہنشاہ
شہکار
شہہ
شہید
شہیداں
شہیں
شی
شیاری
شیبانی
شیبہ
شیت
شیث
شیخ
شیخو
شیخوپورہ
شید
شیدی
شیدݨ
شیر
شیراز
شیرازی
شیرانی
شیرمحمد
شیروانی
شیرپنجاب
شیریں
شیش
شیشہ
شیشیاں
شیشے
شیطان
شیطانی
شیعان
شیعاں
شیعہ
شیعیت
شیل
شیلا
شیما
شینھ
شینہ
شینہہ
شیو
شیوا
شیوخ
شیي
شیکل
شیکھر
شیں
شے
ص
صا
صاب
صابر
صابری
صاحب
صاحبان
صاحباں
صاحبزادہ
صاحبزادی
صاحبزادیاں
صاحبزادے
صاحبہ
صادر
صادق
صارف
صارفین
صاف
صافی
صال
صالح
صاي
صبا
صباح
صباحیں
صبح
صبر
صبری
صبہ
صبیح
صبیحہ
صحابہ
صحابی
صحاح
صحارا
صحافت
صحافتی
صحافی
صحافیاں
صحافیں
صحبت
صحت
صحرا
صحراي
صحن
صحیح
صحیفہ
صحیفے
صد
صدا
صدارت
صدارتی
صداقت
صداي
صدر
صدرمقام
صدق
صدقانی
صدقہ
صدقے
صدمات
صدمہ
صدمے
صدي
صدی
صدیاں
صدیق
صدیقہ
صدیقی
صدیوں
صدیں
صر
صراحت
صراحی
صراط
صرف
صطلاح
صغری
صغیر
صـابـر
صف
صفا
صفات
صفاتی
صفاي
صفاں
صفت
صفتاں
صفتی
صفتیں
صفحات
صفحہ
صفحیاں
صفحیں
صفحے
صفدر
صفر
صفوان
صفورہ
صفوی
صفہ
صفی
صفین
صفیہ
صقلیہ
صل
صلات
صلاح
صلاحیت
صلاحیتاں
صلح
صلوات
صلہ
صلی
صلیب
صلیبی
صلیبیاں
صلے
صناي
صندل
صندوق
صنعت
صنعتاں
صنعتی
صنف
صنفاں
صنفی
صنم
صو
صوابی
صوباي
صوبھ
صوبہ
صوبیاں
صوبیدار
صوبیں
صوبے
صوت
صوتاں
صوتی
صوتیہ
صورت
صورتاں
صورتحال
صورتیں
صوفی
صوفیا
صوفیاء
صوفیانہ
صوفیاي
صوفیاں
صول
صولاں
صوم
صومالی
صومالیہ
صي
صہ
صہباء
صیاد
صیب
صیح
صیحب
صیغہ
صیغے
صیہب
صے
ض
ضا
ضابطہ
ضابطیاں
ضابطے
ضامن
ضاي
ضبط
ضخیم
ضد
ضدی
ضرب
ضرر
ضروت
ضرور
ضرورت
ضرورتاں
ضرورتیں
ضروری
ضروریات
ضظغ
ضعفی
ضعیف
ضلع
ضلعی
ضلعیاں
ضلعیں
ضلعے
ضم
ضمانت
ضماي
ضمرہ
ضمن
ضمنی
ضمیر
ضمیراں
ضمیری
ضمیریں
ضو
ضوابط
ضیا
ضیاء
ضیاالحق
ضیاع
ضیافت
ضیاي
ط
طا
طابق
طارق
طاری
طاس
طاق
طاقت
طاقتاں
طاقتور
طالب
طالبات
طالبان
طالبعلم
طالوت
طاي
طاھر
طاہر
طاہرالقادری
طاہرہ
طب
طبابت
طباعت
طبری
طبع
طبعی
طبعیات
طبعیت
طبق
طبقات
طبقاتی
طبقہ
طبقے
طبلہ
طبلے
طبی
طبیب
طبیعت
طبیعی
طبیعیات
طحاوی
طر
طرابلس
طرانح
طرانویں
طراں
طربیہ
طرح
طرحاں
طرحی
طرز
طرزاں
طرف
طرفوں
طرہ
طریق
طریقت
طریقہ
طریقیاں
طریقے
طعن
طعنے
طغرل
طف
طفیل
طلاق
طلاي
طلب
طلبا
طلباء
طلبہ
طلبی
طلحہ
طلعت
طلوع
طمع
طنز
طنزا
طنزیہ
طواف
طوالت
طواي
طوب
طور
طورتے
طوری
طوس
طوسی
طوطا
طوطی
طوطے
طوفان
طوق
طول
طویل
طي
طہارت
طیار
طیب
طیبہ
طے
طݨاب
طݨابی
ظ
ظالم
ظالمانہ
ظالماں
ظامی
ظاہر
ظاہری
ظرف
ظرفی
ظریفی
ظفر
ظفرو
ظلم
ظلمات
ظلمت
ظلہل
ظہار
ظہر
ظہور
ظہیر
ع
عا
عابد
عابدہ
عات
عاجز
عاجزی
عاد
عادات
عادت
عادتاں
عادل
عادی
عاربہ
عارض
عارضی
عارف
عارفانہ
عاشر
عاشق
عاشقاں
عاشقی
عاص
عاصم
عاصی
عاطف
عافیت
عاقب
عاقل
عاقی
عالم
عالماں
عالمگیر
عالمہ
عالمی
عالی
عالیشان
عالیہ
عام
عامر
عامل
عاملہ
عامہ
عاواں
عاي
عباد
عبادات
عبادت
عبادہ
عبارت
عباس
عباسی
عباسیاں
عباسیہ
عبد
عبدالباسط
عبدالجبار
عبدالحق
عبدالحلیم
عبدالحمید
عبدالحي
عبدالحکیم
عبدالخالق
عبدالرحم
عبدالرحمان
عبدالرحمن
عبدالرزاق
عبدالرشید
عبدالستار
عبدالسلام
عبدالشکور
عبدالطیف
عبدالعزیز
عبدالغفار
عبدالقادر
عبدالل
عبداللطیف
عبداللہ
عبدالمالک
عبدالمجید
عبدالمطلب
عبدالملک
عبدالواحد
عبدالوہاب
عبدالکریم
عبدالہادی
عبدل
عبدللہ
عبدمناف
عبدی
عبر
عبرانی
عبرانیوں
عبرت
عبور
عبوری
عبہ
عبید
عبیدالرحمن
عبیداللہ
عبیدہ
عتبہ
عتیق
عثمان
عثمانی
عثمانیاں
عثمانیہ
عجاي
عجب
عجز
عجم
عجمی
عجیب
عد
عدالت
عدالتاں
عدالتی
عداوت
عدد
عددی
عدل
عدلیہ
عدم
عدن
عدنان
عدی
عدیل
عدیم
عذاب
عذاباں
عذابیں
عذرا
عر
عراء
عراق
عراقی
عرب
عرباں
عربوں
عربی
عربیں
عرس
عرش
عرشم
عرشی
عرصہ
عرصے
عرض
عرضی
عرف
عرفان
عرفی
عرق
عروج
عروض
عروضی
عروہ
عریض
عز
عزالدین
عزت
عزتاں
عزتی
عزتیں
عزراي
عزم
عزیز
عزیزاں
عزیزی
عزیزیہ
عسقلانی
عسکری
عسکریہ
عشاء
عشرت
عشرہ
عشری
عشریہ
عشرے
عشق
عشقیہ
عصبیت
عصر
عصری
عصمت
عضب
عطا
عطاء
عطاءاللہ
عطاش
عطر
عطف
عطیہ
عظام
عظم
عظمت
عظمی
عظیم
عظیمی
عظیمیہ
عف
عفان
عفک
عق
عقاي
عقبہ
عقد
عقل
عقلی
عقلیت
عقیدت
عقیدہ
عقیدے
عقیل
عل
علا
علاء
علاج
علاقاي
علاقاں
علاقوں
علاقہ
علاقیاں
علاقیں
علاقے
علالت
علام
علامات
علامت
علامتاں
علامتی
علامتیں
علامہ
علامی
علاو
علاوہ
علاي
علت
علحیدہ
علل
علم
علما
علماء
علماي
علماں
علمبردار
علمدار
علمی
علو
علوم
علوی
على
عليك
علی
علیحدگی
علیحدہ
علیخان
علیل
علیکم
علیہ
علیہا
علیہم
عم
عماد
عمار
عمارات
عمارت
عمارتاں
عمامہ
عمان
عماي
عمدہ
عمر
عمران
عمرانی
عمرانیات
عمراں
عمراہ
عمرو
عمرہ
عمری
عمرے
عمل
عملا
عملاں
عملداری
عملدرا
عملی
عملیاں
عملیت
عملے
عموم
عموما
عمومی
عمیر
عمیرہ
عمیق
عن
عناصر
عنان
عنایت
عنبر
عنصر
عنقریب
عنوان
عنہ
عنہا
عنہم
عوام
عوامل
عوامی
عورت
عورتاں
عورتوں
عورتیں
عوض
عوف
عون
عڄیب
عکاس
عکاسی
عکرمہ
عکس
عہد
عہدہ
عہدی
عہدیاں
عہدیدار
عہدے
عی
عیادت
عیاشی
عیال
عیاں
عیب
عیباں
عید
عیدالفطر
عیداں
عیس
عیساي
عیسن
عیسوی
عیسی
عیش
عیل
عیلی
عیلیاں
عین
عینک
عینہ
عینی
عیون
غ
غا
غابہ
غاخانی
غار
غاراں
غارت
غاز
غازہ
غازی
غازیخان
غازیخاں
غاشاں
غاصب
غاصباں
غافل
غالب
غالبا
غاي
غایت
غبار
غت
غتہ
غتیاں
غدار
غداری
غذا
غذاي
غر
غرافیہ
غربت
غربی
غرض
غرضی
غرق
غرناطہ
غروب
غرور
غریب
غریباں
غریبی
غریبیں
غز
غزالہ
غزالی
غزل
غزلاں
غزلیات
غزلیں
غزلیہ
غزنوی
غزنی
غزوات
غزوه
غزوہ
غستان
غسل
غصب
غصہ
غصے
غضب
غضنفر
غطفان
غف
غفار
غفاری
غفلت
غفور
غل
غلاب
غلاف
غلام
غلاماں
غلامی
غلامیں
غلبہ
غلبے
غلط
غلطی
غلطیاں
غلہ
غلیظ
غلیفی
غم
غماں
غمخوار
غمگین
غمی
غمیاں
غنہ
غنی
غنیمت
غنے
غوث
غوثیہ
غور
غورث
غوری
غوش
غول
غوی
غیاث
غیبت
غیبی
غیر
غیرا
غیراں
غیرت
غیرتمند
غیرتی
غیریں
غیرے
غیور
ـ
ـر
ــ
ـــ
ــــ
ـــــ
ــــــ
ــــــــ
ـی
ـیں
ف
فا
فات
فاتح
فاتحین
فار
فارابی
فارس
فارسی
فارغ
فارغہ
فارم
فارمولا
فارمیسی
فارورڈ
فاروق
فاروقی
فاس
فاش
فاشسٹ
فاصلہ
فاصلے
فاضل
فاضلپور
فاضلکا
فاطمہ
فاطمی
فاطمیاں
فاطمین
فاطمیہ
فاعل
فاعلا
فاعلاتن
فاعلن
فاعلی
فاق
فاقہ
فاقی
فاقے
فالج
فام
فاماگوستا
فانوس
فانی
فاو
فاونڈیشن
فاي
فاٹا
فایدہ
فت
فتاب
فتاوی
فتح
فتنہ
فتنے
فتوحات
فتور
فتوی
فتوے
فتیاݨہ
فجر
فجریں
فحش
فخر
فخرالدین
فخری
فدا
فداحسین
فداي
فدیہ
فر
فرات
فرار
فراز
فراست
فراغت
فراق
فرام
فراموش
فرانز
فرانس
فرانسس
فرانسسکو
فرانسیسی
فراي
فراڈ
فراہم
فراہمی
فرحان
فرحت
فرخ
فرد
فردا
فردوس
فردوسی
فرزند
فرزندان
فرسا
فرسودہ
فرسٹ
فرش
فرشتہ
فرشتیاں
فرشتے
فرشی
فرصت
فرض
فرضی
فرعون
فرغانہ
فرق
فرقت
فرقہ
فرقیاں
فرقے
فرما
فرمان
فرمانبرداری
فرمانروا
فرماو
فرماوے
فرماوݨ
فرماي
فرماں
فرمایا
فرمیسن
فرمیسو
فرمین
فرمیندن
فرمیندے
فرناس
فرنٹ
فرنگ
فرنگی
فرنگیاں
فرنیچر
فرو
فروخت
فروری
فروش
فروغ
فروٹ
فرھاد
فرہنگ
فری
فریاد
فریب
فریحہ
فرید
فریدا
فریدالدین
فریدی
فریدیات
فریدݨ
فریضہ
فریضے
فریق
فریقین
فریم
فرین
فرینی
فریڈرک
فریں
فزکس
فس
فساد
فسادات
فسانہ
فسانے
فشانی
فشاں
فصاحت
فصل
فصلاں
فصلیں
فصوص
فصول
فصیح
فصیل
فصیلاں
فضا
فضاء
فضاي
فضل
فضلی
فضول
فضیلت
فطرت
فطرتی
فطری
فطین
فعال
فعل
فعلن
فعولن
فق
فقدان
فقر
فقرہ
فقرے
فقط
فقه
فقہ
فقہا
فقہی
فقیر
فقیرا
فقیراں
فقیری
فقیریں
فقیہ
فقیہہ
فل
فلاح
فلاحی
فلاسفر
فلان
فلانے
فلاں
فلحال
فلسطین
فلسطینی
فلسطینیاں
فلسفہ
فلسفی
فلسفیانہ
فلسفیاں
فلسفے
فلم
فلماي
فلماں
فلمو
فلموگرافی
فلمی
فلمیں
فلپاي
فلڈ
فلک
فلکی
فلکیات
فلیٹ
فلیپ
فن
فنا
فنانس
فناہ
فنون
فنڈ
فنڈز
فنکار
فنکارانہ
فنکاراں
فنکارہ
فنکاری
فنکاریں
فنی
فواد
فواي
فوت
فوتگی
فوج
فوجاں
فوجداری
فوجی
فوجیاں
فوجیں
فور
فورا
فورس
فورم
فورٹ
فورڈ
فوری
فون
فوٹو
فوڈ
فوک
فوکس
في
فٹ
فٹبال
فکر
فکری
فکرے
فکشن
فہ
فہد
فہرست
فہری
فہم
فہمی
فہمیاں
فہمیدہ
فہیم
فی
فیاض
فیثاغورث
فیدہ
فیدے
فیروز
فیروزہ
فیز
فیس
فیسبک
فیسر
فیسٹیول
فیشل
فیشن
فیصد
فیصل
فیصلا
فیصلہ
فیصلیاں
فیصلے
فیض
فیضان
فیضی
فیل
فیلو
فیلڈ
فیملی
فیمینزم
فین
فینن
فینٹیسی
فینگ
فیي
فیچر
فیڈریشن
فیکلٹی
فیکٹری
فیہ
فے
ق
قا
قاب
قابض
قابل
قابلیت
قابو
قابوس
قابیل
قاتل
قاجار
قادر
قادربخش
قادری
قادریہ
قادیانی
قاري
قاری
قازقستان
قاسم
قاسمی
قاسی
قاصد
قاصدا
قاصر
قاضی
قاعدہ
قاعدیاں
قاعدے
قاف
قافلہ
قافلیاں
قافلے
قافیہ
قافیے
قال
قالب
قالین
قام
قامت
قاموس
قانون
قانونا
قانونی
قاي
قاہر
قاہرہ
قبا
قبال
قباي
قبر
قبراں
قبرستان
قبرص
قبرصی
قبرصیاں
قبریں
قبض
قبضہ
قبضے
قبطیہ
قبل
قبلاي
قبلہ
قبو
قبول
قبولیت
قبیلہ
قبیلیاں
قبیلیں
قبیلے
قتادہ
قتال
قتل
قتلام
قتیبہ
قحافہ
قحط
قحطان
قد
قدامت
قدامہ
قدر
قدراں
قدرت
قدرتی
قدرو
قدری
قدریں
قدرے
قدس
قدسیہ
قدم
قدماں
قدمی
قدمیں
قدیر
قدیم
قدیمہ
قدیمی
قرا
قرات
قرار
قرارداد
قرارداداں
قراقرم
قرامطہ
قرامطی
قران
قراۃ
قرب
قربان
قربانی
قربانیاں
قربت
قرشی
قرض
قرضہ
قرضے
قرطاجنہ
قرطبہ
قرقرۃالکدر
قرون
قرویین
قرۃ
قریب
قریبا
قریبی
قریش
قریشی
قریظہ
قریہ
قزح
قزوین
قزوینی
قسط
قسطاں
قسطنطنیہ
قسم
قسماں
قسمت
قسمتی
قسمی
قسمیں
قسمے
قشیری
قص
قصاب
قصاي
قصاں
قصبہ
قصبے
قصد
قصر
قصص
قصور
قصولی
قصولیاں
قصہ
قصی
قصیاں
قصیدہ
قصیدے
قصیں
قصے
قضا
قضاء
قطار
قطاراں
قطاری
قطاریں
قطب
قطبین
قطر
قطرہ
قطری
قطرے
قطع
قطعا
قطعات
قطعہ
قطعی
قطعے
قف
قفس
قفقاز
ققنس
قل
قلاباز
قلات
قلب
قلبی
قلت
قلزم
قلعہ
قلعی
قلعیاں
قلعے
قلغ
قلم
قلمی
قلندر
قلندربابا
قلندری
قلی
قلیل
قلیچ
قم
قمبر
قمر
قمری
قمیض
قن
قناعت
قند
قندھار
قندھاری
قنوج
قنون
قو
قواعد
قوال
قوالی
قوالیاں
قوانین
قوت
قوتاں
قوتیں
قورماں
قوس
قوسین
قول
قوم
قوماں
قومتی
قومی
قومیت
قومیتی
قومیتیں
قومیں
قوی
قہ
قہر
قہقہہ
قیادت
قیاس
قیاسی
قیام
قیامت
قید
قیداں
قیدی
قیدیاں
قیروان
قیس
قیصر
قیصرانی
قیصراݨی
قیمت
قیمتاں
قیمتی
قینقاع
قینچی
قیوم
قے
ك
كاكوری
كان
كتاب
كر
كوں
كيتا
كہ
ل
لا
لاء
لاامکان
لاب
لابنگ
لات
لاتا
لاتعداد
لاتھا
لاتھن
لاتھي
لاتھی
لاتھیاں
لاتھے
لاتی
لاتے
لاثانی
لاج
لاجواب
لاحق
لاحقہ
لاحقے
لادوا
لارا
لارنس
لارڈ
لاری
لاریاں
لاریب
لارے
لازم
لازما
لازمی
لازوال
لاس
لاش
لاشاری
لاشاں
لاشعور
لاشیں
لاطینی
لاغر
لافانی
لاقات
لال
لالا
لالو
لالٹین
لالٹیناں
لالچ
لالچی
لالہ
لالی
لالیاں
لالیکا
لالے
لالݨ
لام
لامحدود
لامر
لامہ
لان
لانواں
لانونڑ
لانویں
لانوݨ
لانچ
لانگ
لانگھا
لانگھے
لانہہ
لاو
لاوا
لاوارث
لاواں
لاون
لاونڑ
لاوو
لاویں
لاوے
لاوݨ
لاوݨا
لاوݨی
لاي
لاٹ
لاٹاں
لاپ
لاپھڑک
لاڄ
لاچا
لاچار
لاچی
لاڑ
لاڑکانہ
لاک
لاکھ
لاکھا
لاکے
لاگ
لاگت
لاگو
لاگی
لاڳ
لاڳو
لاں
لاھور
لاہ
لاہرے
لاہندی
لاہندے
لاہوتی
لاہور
لاہوری
لاہی
لاہیں
لایا
لایاں
لاݙ
لاݨا
لاݨے
لب
لبابہ
لباس
لباں
لبر
لبرل
لبریز
لبل
لبنان
لبنانی
لبنی
لبھ
لبھا
لبھدا
لبھدی
لبھدے
لبھن
لبھی
لبھیا
لبھے
لبھݨ
لبیک
لبیں
لت
لتا
لتان
لتانی
لتاڑ
لتاں
لتھا
لتھووینیا
لتھی
لتھیاں
لتھے
لتی
لج
لجالینوس
لجپال
لجھا
لجی
لحاظ
لحظہ
لحظے
لحیان
لخ
لخاں
لخت
لخی
لد
لدا
لداخ
لدار
لداں
لدن
لدھا
لدھی
لدھیانہ
لدھے
لدی
لدیاں
لدین
لدیں
لدے
لذت
لر
لز
لس
لسان
لسانی
لسانیات
لسانیاتی
لسانیت
لساں
لسوں
لسٹ
لسی
لش
لشاری
لشکر
لشکراں
لطافت
لطان
لطف
لطیف
لطیفہ
لطیفے
لعل
لعنت
لعنتاں
لعنتی
لغات
لغار
لغاری
لغام
لغت
لغوی
لف
لفافہ
لفافے
لفت
لفظ
لفظالی
لفظاں
لفظی
لفظیات
لفظیں
لفنگا
لفٹ
لقب
لقط
لقمان
للا
للعالمین
للو
للکارا
للہ
للی
لم
لما
لماں
لمبا
لمباي
لمباݨ
لمبر
لمبی
لمبیاں
لمبے
لمحات
لمحہ
لمحیاں
لمحے
لمس
لموچڑی
لمی
لمیٹڈ
لمیں
لمے
لن
لند
لندن
لنور
لنڈ
لنڈا
لنڈی
لنک
لنکا
لنگ
لنگانی
لنگاہ
لنگر
لنگڑا
لنگڑی
لنگھ
لنگھا
لنگھاي
لنگھدا
لنگھدن
لنگھدی
لنگھدے
لنگھی
لنگھیا
لنگھے
له
لهي
لو
لوا
لواحقین
لوازمات
لواي
لواں
لوایا
لوبھ
لوبھی
لوث
لوح
لودگی
لودھراں
لودھی
لودہ
لورالاي
لوری
لوریاں
لوزینیان
لوسی
لوط
لوظ
لوظاں
لوظی
لوظیں
لوقا
لولی
لولیاں
لومبڑ
لومبڑی
لونڈی
لونگ
لونے
لوي
لوٹ
لوٹا
لوٹے
لوڈ
لوڑ
لوڑاں
لوڑھ
لوڑھی
لوڑھیاں
لوڑھے
لوک
لوکاي
لوکاں
لوکل
لوکو
لوکی
لوکیں
لوگ
لوگاں
لوگو
لوگوں
لوگیں
لوڳ
لوں
لوھے
لوہا
لوہار
لوہے
لوی
لویج
لویندا
لوݙی
لوݨ
لوݨی
لى
لي
ليلےباک
لٹ
لٹا
لٹرنیٹر
لٹریری
لٹریچر
لٹک
لٹکا
لٹھ
لٹھے
لٹی
لٹیا
لٹیج
لٹیرا
لٹیرے
لٹیے
لٹݨ
لپور
لپیٹ
لڄ
لچ
لچک
لچھݨ
لڈ
لڈا
لڈی
لڑ
لڑا
لڑاي
لڑدا
لڑدن
لڑدی
لڑدیں
لڑدے
لڑسوں
لڑن
لڑو
لڑکا
لڑکی
لڑکیاں
لڑکے
لڑھ
لڑھدا
لڑی
لڑیاں
لڑے
لڑݨ
لک
لکا
لکار
لکانواں
لکاوݨ
لکاي
لکاں
لکدے
لکس
لکشمی
لکڑ
لکڑی
لکڑیوں
لکھ
لکھا
لکھاري
لکھاری
لکھاریاں
لکھاریں
لکھاي
لکھاں
لکھت
لکھتاں
لکھتیں
لکھد
لکھدا
لکھداں
لکھدن
لکھدي
لکھدیں
لکھدے
لکھساں
لکھسن
لکھسوں
لکھسی
لکھن
لکھنا
لکھنو
لکھنوی
لکھنڑ
لکھنے
لکھو
لکھوا
لکھواي
لکھوایا
لکھوں
لکھویرا
لکھي
لکھی
لکھیا
لکھیاں
لکھیج
لکھیجݨ
لکھیل
لکھیم
لکھین
لکھیندا
لکھیندن
لکھیندے
لکھیي
لکھیں
لکھیے
لکھے
لکھݨ
لکھݨا
لکھݨاں
لکی
لکیا
لکیر
لکیراں
لکیریں
لکیں
لکے
لکݨ
لگ
لگا
لگاو
لگاي
لگاں
لگد
لگدا
لگداي
لگدن
لگدی
لگدیاں
لگدے
لگسن
لگسی
لگن
لگنڑ
لگڑاں
لگی
لگیا
لگیاں
لگے
لگݨ
لڳ
لڳا
لڳاپا
لڳدا
لڳدن
لڳدی
لڳدیاں
لڳدین
لڳدیں
لڳدے
لڳساں
لڳسن
لڳسی
لڳن
لڳی
لڳیا
لڳیاں
لڳے
لڳݨ
لھ
لھا
لھاں
لھنڑیں
لھیں
لھے
لھݨاں
لہ
لہا
لہاون
لہاوے
لہاوݨ
لہاي
لہایا
لہجہ
لہجیاں
لہجے
لہذا
لہر
لہراں
لہسن
لہسی
لہندا
لہندن
لہندی
لہندے
لہنڑ
لہو
لہور
لہوردی
لہوردے
لہوری
لہوی
لہوݨ
لہہ
لہی
لہیسی
لہیندے
لہیں
لہے
لہݨ
لی
لیا
لیاقت
لیاں
لیب
لیبر
لیبل
لیبیا
لیت
لیتا
لیجسلیٹو
لیخا
لیر
لیرا
لیراں
لیس
لیساں
لیسوں
لیسی
لیف
لیفٹیننٹ
لیفٹینٹ
لیفکوسیا
لیل
لیلا
لیلی
لیلے
لیماسول
لیموں
لین
لینا
لیندا
لینداي
لینداں
لیندن
لیندی
لیندیاں
لیندے
لینن
لینچو
لینڈ
لینڈس
لینگوي
لینگویج
لینگویجز
لیو
لیول
لیوں
لیوی
لیویز
لیي
لیٹ
لیٹر
لیٹرز
لیٹے
لیپ
لیپا
لیپے
لیڈر
لیڈرا
لیڈراں
لیڈرشپ
لیڈریں
لیک
لیکا
لیکس
لیکن
لیکچر
لیکچرار
لیکچرر
لیکچرز
لیکھ
لیکھا
لیکھے
لیکے
لیگ
لیں
لیہ
لیہہ
لیے
لیݙر
لے
لݙ
لݙا
لݙو
لݨ
م
ما
ماء
ماءڑی
مابعد
مابولی
مابین
ماتا
ماتحت
ماتم
ماتمی
ماثر
ماجد
ماجدہ
ماجھا
ماجہ
ماحول
ماحولیات
ماحولیاتی
ماخذ
ماخوذ
مادر
مادری
مادي
مادہ
مادی
مادیت
مادے
مار
مارا
ماراں
مارشل
مارن
مارنڑ
مارو
مارواڑی
ماروں
ماروی
ماري
مارچ
مارک
مارکا
مارکس
مارکسزم
مارکسی
مارکسیت
مارکہ
مارکیٹ
مارکے
مارگریٹ
مارھی
ماری
ماریا
ماریاں
ماریس
مارین
ماریي
ماریں
ماریہ
ماریے
مارے
مارݨ
ماس
ماسویہ
ماسٹر
ماسٹرز
ماسٹرعبدالعزیزبھٹہ
ماسکو
ماسہ
ماسی
ماش
ماشاءاللہ
ماشاں
ماشٹر
ماشکی
ماضی
مافوق
مافی
مافیا
مال
مالا
مالاي
مالدار
مالدیپ
مالش
مالنی
مالوی
مالک
مالکی
مالھ
مالھا
مالی
مالیات
مالیاتی
مالیت
مام
ماما
ماماں
مامور
مامون
ماموں
مامی
مامے
مان
ماندا
ماندہ
ماندی
ماندے
مانس
مانع
مانند
مانواں
مانوس
مانڑ
مانڑیں
مانک
مانگ
مانگابے
مانگویں
مانگھی
مانہ
مانہہ
مانی
مانے
ماو
ماواں
ماوراء
ماوے
ماي
ماٻولی
ماچھکہ
ماچھی
ماڈرن
ماڈل
ماڈلنگ
ماڈیول
ماڑ
ماڑی
ماڑیاں
ماکلی
ماکوں
ماکھی
ماں
ماھی
ماہ
ماہانہ
ماہتاب
ماہر
ماہراں
ماہرین
ماہنامہ
ماہنڑو
ماہی
ماہیا
ماہین
ماہیوال
ماہیے
ماہݨو
ماہݨی
مایا
مایوس
مایوسی
مایہ
ماݨ
ماݨاں
ماݨوں
ماݨہ
ماݨے
مب
مباحث
مباحثہ
مباحثے
مبادیات
مبارخ
مبارخاں
مبارز
مبارک
مبارکاں
مبارکباد
مبارکہ
مبالغہ
مبتلا
مبرا
مبشر
مبلغ
مبنی
مبہم
مبین
مبینہ
مت
متا
متاث
متاثر
متاثرہ
متاثرین
متاع
متام
متاں
متبادل
متبرک
متحد
متحدہ
متحرک
متر
مترا
مترادف
مترادفات
متراي
متراں
مترجم
مترجمین
متروک
متصل
متضاد
متعارف
متعدد
متعدی
متعصب
متعلق
متعلقات
متعلقہ
متعین
متفرق
متفق
متفقہ
متقی
متلاشی
متمکن
متن
متنازعہ
متنوع
متواتر
متوازن
متوازی
متوالے
متوجہ
متوسط
متوفی
متوقع
متولی
متون
متوں
متکلم
متھ
متھا
متھاج
متھاجیں
متھالوجی
متھرا
متھڑے
متھے
متی
متیاز
متیاݨہ
مثال
مثالاں
مثالی
مثالیں
مثبت
مثل
مثلا
مثلث
مثنوی
مجاز
مجازسازی
مجازی
مجال
مجاھد
مجاہد
مجاہدہ
مجاہدین
مجب
مجبور
مجبورا
مجبوری
مجبوریاں
مجتبی
مجد
مجدد
مجددی
مجذوب
مجرد
مجرم
مجرمانہ
مجروح
مجسم
مجسمہ
مجسمے
مجسٹریٹ
مجلس
مجلساں
مجلسی
مجلہ
مجمع
مجمعے
مجموعہ
مجموعی
مجموعیاں
مجموعے
مجنون
مجنوں
مجوزہ
مجھ
مجھے
مجہول
مجید
محاذ
محاسن
محاصرہ
محاصرے
محافظ
محافل
محال
محاورات
محاورہ
محاوریاں
محاوریں
محاورے
محب
محبت
محبتاں
محبتی
محبتیں
محبوب
محبوبہ
محتاج
محتاط
محترم
محترمہ
محد
محدث
محدثین
محدود
محذوف
محر
محراب
محرر
محرم
محروم
محرومی
محرومیاں
محرومیں
محرک
محرکات
محس
محسن
محسناں
محسو
محسوس
محسوسات
محشر
محصور
محصول
محض
محضر
محظوظ
محفل
محفلاں
محفوظ
محقق
محققین
محقیقین
محل
محلات
محلہ
محلیاں
محلیں
محلے
محمد
محمدخان
محمدظہیراحمد
محمدظہیراحمدمہاروی
محمدی
محمدیہ
محمل
محمود
محمڈن
محنت
محنتاں
محنتی
محو
محور
محکم
محکمہ
محکمیاں
محکمے
محکوم
محی
محیط
مخاطب
مخالف
مخالفت
مخالفین
مختار
مختاری
مختص
مختصر
مختصرا
مختفی
مختلف
مختیار
مخدوم
مخرج
مخزومی
مخصوص
مخطوطات
مخطوطہ
مخطوطے
مخفف
مخفی
مخلص
مخلصانہ
مخلوط
مخلوطی
مخلوق
مخلوقات
مخمور
مخواہ
مخول
مخیر
مد
مدا
مداح
مداخلت
مدار
مدارج
مدارس
مداری
مدافعت
مدام
مدامیں
مدان
مداں
مدت
مدتیں
مدثر
مدحت
مدد
مددگار
مدراس
مدرسہ
مدرسیاں
مدرسے
مدعا
مدعو
مدغم
مدفن
مدفون
مدلل
مدمقابل
مدن
مدنظر
مدنی
مدو
مدون
مدھم
مدہوش
مدی
مدیر
مدیرہ
مدینہ
مدینۃ
مدینے
مدے
مذاق
مذاکرات
مذاہب
مذمت
مذموم
مذکر
مذکور
مذکورہ
مذہب
مذہبی
مر
مرا
مراثی
مراج
مراحل
مراد
مراداں
مراعات
مراقبہ
مرانہ
مرانی
مراٹھی
مراکز
مراکش
مراں
مربع
مربعے
مربوط
مرت
مرتب
مرتبہ
مرتبین
مرتبے
مرتض
مرتضی
مرتفع
مرتکب
مرثیہ
مرثیے
مرجع
مرحلا
مرحلہ
مرحلے
مرحوم
مرد
مردا
مردان
مردانہ
مرداں
مردم
مردن
مردہ
مردی
مردیاں
مردیں
مردے
مرزا
مرسل
مرسوں
مرسی
مرشد
مرض
مرضی
مرقد
مرقس
مرقع
مرلی
مرلے
مرمت
مرمر
مرن
مرنڑ
مرو
مروا
مروان
مروت
مروج
مروجہ
مروٹ
مروڑ
مروڑا
مروں
مروی
مري
مريم
مرچ
مرچاں
مرک
مرکب
مرکبات
مرکز
مرکزی
مرکزیت
مرکوز
مرگ
مرگي
مرھاں
مرہ
مرہم
مرہون
مرہٹہ
مرہٹیاں
مری
مریت
مریج
مریخ
مرید
مریداں
مریدین
مریسن
مریسوں
مریسی
مریض
مریضاں
مریلا
مریم
مرین
مریندا
مریندن
مریندی
مریندیاں
مریندیں
مریندے
مریں
مرے
مرݨ
مز
مزا
مزاج
مزاجی
مزاح
مزاحمت
مزاحمتی
مزاحیہ
مزاخ
مزار
مزارات
مزاراں
مزارعین
مزاری
مزاریں
مزاور
مزاکرات
مزدور
مزدوراں
مزدوری
مزدوریں
مزراعین
مزمت
مزمل
مزہ
مزہب
مزہبی
مزید
مزیدار
مزین
مزے
مس
مسات
مساجد
مسافر
مسافراں
مسافریں
مسالے
مساوات
مساوی
مساي
مساگ
مست
مستانہ
مستانی
مستحق
مستحکم
مستدرک
مسترد
مستری
مستشرق
مستشرقین
مستطیل
مستظہر
مستعار
مستعربہ
مستعلی
مستعمل
مستفید
مستقبل
مستقل
مستقیم
مستند
مستنصر
مستور
مستونگ
مستوي
مستی
مسجد
مسخ
مسدس
مسرت
مسرور
مسروری
مسعود
مسل
مسلح
مسلسل
مسلط
مسلم
مسلمان
مسلمانان
مسلماناں
مسلمانو
مسلمانوں
مسلمانیں
مسلماں
مسلمہ
مسلمین
مسلوب
مسلي
مسلک
مسلہ
مسلے
مسمار
مسماری
مسن
مسند
مسودہ
مسي
مسٹر
مسک
مسکار
مسکان
مسکراہٹ
مسکن
مسکویہ
مسکین
مسی
مسیت
مسیتاں
مسیتوں
مسیتیں
مسیح
مسیحا
مسیحی
مسیحیاں
مسیحیت
مسیں
مسݨ
مش
مشابہت
مشارکین
مشاعراں
مشاعرہ
مشاعریاں
مشاعریں
مشاعرے
مشاغل
مشاورت
مشاورتی
مشاي
مشاہدات
مشاہدہ
مشاہدے
مشاہیر
مشبہ
مشتاق
مشترک
مشترکہ
مشتری
مشتق
مشتمل
مشرا
مشرف
مشرق
مشرقی
مشروط
مشرک
مشرکین
مشعل
مشغول
مشق
مشقت
مشقی
مشمولہ
مشن
مشنری
مشورہ
مشوری
مشوریاں
مشورے
مشوم
مشک
مشکل
مشکلات
مشکلاں
مشکور
مشکوک
مشکوۃ
مشکی
مشہد
مشہدی
مشہور
مشہوری
مشیر
مشیراں
مشین
مشیناں
مشینی
مصادر
مصاي
مصحف
مصداق
مصدر
مصدری
مصر
مصرال
مصرع
مصرعہ
مصرعیاں
مصرعے
مصروف
مصروفیات
مصروفیت
مصری
مصطف
مصطفی
مصطفے
مصطلق
مصغ
مصغر
مصلح
مصلحت
مصن
مصنع
مصنف
مصنفاں
مصنفہ
مصنفین
مصنوعی
مصور
مصورہ
مصوری
مصیبت
مصیبتاں
مضافات
مضافاتی
مضامین
مضبوط
مضبوطی
مضر
مضمون
مضموناں
مضمونیں
مطابق
مطابقت
مطالب
مطالبات
مطالبہ
مطالبے
مطالعہ
مطالعے
مطبع
مطبوعات
مطبوعہ
مطلب
مطلع
مطلق
مطلوب
مطلوبہ
مطمي
مطہرات
مطیع
مظالم
مظاہر
مظاہرہ
مظاہرے
مظفر
مظفرخان
مظفرگڑھ
مظفرڳڑھ
مظلوم
مظلومیت
مظلومیں
مظہر
مظیر
مع
معاذ
معاذاللہ
معارف
معاش
معاشرت
معاشرتی
معاشرہ
معاشریاں
معاشرے
معاشی
معاشیات
معاصر
معاف
معافی
معالج
معاملات
معاملہ
معاملیاں
معاملے
معانی
معاوضہ
معاون
معاونت
معاویہ
معاي
معاہداتی
معاہدہ
معاہدے
معبد
معبود
معتبر
معتدل
معترف
معتزلہ
معتقد
معتمد
معجزات
معجزہ
معجزے
معجم
معجمہ
معدن
معدنیات
معدولہ
معدوم
معدہ
معذرت
معذور
معذوری
معراج
معرض
معرفة
معرفت
معرفہ
معرفۃ
معروض
معروضی
معروف
معرکہ
معرکے
معری
معز
معزالدین
معزرت
معزز
معززین
معزول
معشوق
معصوم
معطل
معطوفہ
معطیات
معظم
معظمہ
معقول
معلق
معلم
معلوم
معلومات
معلوماتی
معمار
معمول
معمولات
معمولی
معناں
معنوی
معنویت
معنی
معنیاں
معنیں
معنے
معوذ
معوز
معہ
معیار
معیارات
معیاری
معیشت
معیلی
معین
مغازی
مغالطہ
مغالطے
مغرب
مغربی
مغرف
مغرور
مغز
مغفرت
مغفور
مغل
مغلاں
مغلوب
مغلیں
مغلیہ
مغموم
مغیرہ
مفاد
مفادات
مفاعیلن
مفت
مفتا
مفتوحہ
مفتی
مفرد
مفروضہ
مفسر
مفسرین
مفصل
مفعول
مفعولی
مفلس
مفلوج
مفکر
مفکرین
مفہوم
مفید
مقابل
مقابلہ
مقابلیاں
مقابلے
مقاصد
مقالات
مقالہ
مقالۃ
مقالے
مقام
مقامات
مقامی
مقامیاں
مقامیت
مقامیں
مقبرہ
مقبریاں
مقبرے
مقبوضہ
مقبول
مقبولیت
مقتدر
مقتدرہ
مقتدی
مقتل
مقتول
مقداد
مقدار
مقداری
مقدر
مقدس
مقدسات
مقدسہ
مقدسی
مقدم
مقدمات
مقدمہ
مقدمے
مقدونیہ
مقرر
مقررہ
مقررین
مقروض
مقصد
مقصدیت
مقصود
مقصورہ
مقلہ
مقناطیساں
مقناطیسی
مقننہ
مقولہ
مقیم
مل
ملا
ملاء
ملاح
ملاحدہ
ملاحظہ
ملازم
ملازماں
ملازمت
ملازمتاں
ملازمین
ملاقات
ملاقاتاں
ملال
ملالہ
ملامت
ملامتی
ملاون
ملاوٹ
ملاوڑی
ملاوݨ
ملاي
ملاپ
ملاں
ملایا
ملت
ملتا
ملتان
ملتانوں
ملتانی
ملتانیکر
ملتاں
ملتوی
ملتی
ملجم
ملحق
ملحقہ
ملخ
ملد
ملدا
ملدن
ملدي
ملدی
ملدیاں
ملدیں
ملدے
ملز
ملزم
ملسن
ملسی
ملسے
ملعون
ملغانی
ملغاݨی
ملفوظات
ملفوظی
ملقب
ملن
ملنا
ملنساری
ملنڑ
ملنگ
ملنگی
ملو
ملوث
ملوم
ملوک
ملوکیت
ملوہیا
ملي
ملٹری
ملٹی
ملک
ملکان
ملکانڑی
ملکانڑیں
ملکانی
ملکاں
ملکاݨی
ملکھ
ملکہ
ملکی
ملکیت
ملکیں
ملھݨ
ملہ
ملہار
ملہاراں
ملہیر
ملی
ملیا
ملیالم
ملیامیٹ
ملیاں
ملیح
ملیر
ملیشیا
ملین
ملیندا
ملیندن
ملیندی
ملیندے
ملیي
ملیں
ملیہ
ملیے
ملے
ملݨ
مم
مماثلت
ممالک
ممالیہ
ممبر
ممبران
ممبي
ممتا
ممتاز
ممدو
ممدودہ
مملوک
مملکت
ممنوع
ممکن
ممکنہ
من
منا
منابع
منات
منادر
منادی
منارہ
منارے
منازل
مناسب
مناسبت
مناسک
مناظر
مناف
منافع
منافق
منافقاں
منافقت
مناقب
مناو
مناواں
مناون
مناونڑ
مناوے
مناوݨ
مناي
مناں
مناہج
منایا
منایاں
منبر
منبع
منت
منتاں
منتخب
منتر
منتشر
منتظر
منتظم
منتق
منتقل
منتقلی
منتیں
منجمد
منجھ
منجھی
منجھیں
منجھے
منجی
منحصر
منحوس
مند
مندا
منداں
مندر
مندراں
مندرجات
مندرجہ
مندری
مندریاں
مندریں
مندریے
مندهاݨی
مندھاݨی
مندھرا
مندھرے
مندھݨاں
مندی
مندے
منرو
منزل
منزلاں
منزلہ
منسلک
منسوب
منسوخ
منسٹر
منش
منشا
منشو
منشور
منشی
منصب
منصف
منصفانہ
منصوبہ
منصوبیاں
منصوبے
منصور
منصورہ
منطق
منطقی
منظر
منظم
منظور
منظوری
منظوم
منع
منعقد
منعقدہ
منفرد
منفی
منقبت
منقسم
منقش
منقطع
منقوط
منن
منه
منو
منوا
منواوݨ
منواي
منوایا
منوت
منوتی
منوتیاں
منور
منورہ
منوں
منٹ
منٹو
منٹگمری
منٹھار
منچن
منڈا
منڈاری
منڈھ
منڈھلا
منڈھلی
منڈھلیاں
منڈھلے
منڈھوں
منڈھی
منڈی
منڈے
منڑ
منکر
منکیرہ
منگ
منگا
منگاں
منگتے
منگدا
منگداں
منگدن
منگدی
منگدے
منگر
منگساں
منگسوں
منگل
منگلا
منگن
منگنڑ
منگو
منگواي
منگول
منگولاں
منگی
منگیا
منگیاں
منگیجے
منگیشکر
منگیے
منگے
منگݨ
منگݨی
منھ
منہ
منہاج
منہدم
منہہ
منی
منیا
منیاں
منیبہ
منیج
منیجر
منیجو
منیدا
منیداں
منیدے
منیر
منیزہ
منیساں
منیسن
منیسو
منیسی
منین
منیندا
منینداں
منیندن
منیندی
منیندے
منیے
منے
منݨ
مو
موا
مواد
موازنہ
مواصلات
موافق
مواقع
موالی
موباي
موت
موتھا
موتہ
موتی
موتیاں
موثر
موج
موجاں
موجب
موجد
موجو
موجود
موجودات
موجودگی
موجودہ
موجی
موحدین
مودودی
مودی
موذی
مور
موراں
مورت
مورتی
مورخ
مورخہ
مورخین
موروثی
مورچے
موری
موریں
موزوں
موس
موسم
موسماں
موسمی
موسمیں
موسوعہ
موسوم
موسی
موسیقار
موسیقاراں
موسیقی
موسیقیت
موشن
موصل
موصوف
موصول
موصولہ
موضع
موضوع
موضوعات
موضوعاتی
موضوعاں
موضوعی
موقع
موقعہ
موقعیاں
موقعے
موقف
موقوف
مول
مولا
مولانا
مولاي
مولتان
مولف
مولود
مولوی
مولویاں
مولکا
مولھا
مولھی
مولی
موم
مومل
مومن
مومنین
مون
مونث
مونجه
مونجهه
مونجھ
مونجھا
مونجھاں
مونجھی
مونجھیاں
مونجھیں
مونجھے
مونس
مونڈھا
مونڈھی
مونڈھیاں
مونڈھیں
مونڈھے
مونھ
مونہاں
مونہوں
مونہہ
موومنٹ
مووی
موي
موٹا
موٹر
موٹرساي
موٹروے
موٹی
موٹے
موچی
موڈ
موڑ
موڑیں
موکل
موکلا
موں
موہ
موہا
موہانڑاں
موہاݨہ
موہاݨے
موہر
موہری
موہن
موہنجو
موہنجوداڑو
موہنجودڑو
موہنہ
موہݨی
مویا
مویاں
موید
مویشی
مویشیاں
موے
مي
مٸیں
مٹ
مٹا
مٹاون
مٹاوݨ
مٹهڑا
مٹورے
مٹک
مٹھ
مٹھا
مٹھاج
مٹھاس
مٹھاي
مٹھل
مٹھن
مٹھڑا
مٹھڑی
مٹھڑے
مٹھی
مٹھیاں
مٹھے
مٹھݨ
مٹی
مٹیاں
مٹݨ
مچ
مچا
مچاي
مچایا
مچل
مچھ
مچھاں
مچھر
مچھلی
مچھی
مچھیاں
مچھیرے
مچی
مڈل
مڈی
مڑ
مڑل
مڑکا
مڑی
مڑیچا
مڑیچے
مژدم
مک
مکا
مکاتب
مکار
مکاری
مکالماتی
مکالمہ
مکالمیاں
مکالمے
مکالی
مکان
مکانات
مکانڑ
مکانی
مکاو
مکاون
مکاوو
مکاوݨ
مکاي
مکاں
مکب
مکبر
مکتب
مکتبہ
مکتبۃ
مکتوب
مکتوبات
مکتوبی
مکتوم
مکدا
مکدن
مکدی
مکدیاں
مکدے
مکر
مکران
مکرمہ
مکس
مکسن
مکسی
مکعب
مکمل
مکن
مکو
مکول
مکوڑے
مکي
مکڑا
مکھ
مکھرجی
مکھن
مکھنڑ
مکھڑا
مکھی
مکھیاں
مکھݨ
مکہ
مکی
مکیندا
مکیندے
مکینیکل
مکیہ
مکے
مکݨ
مگر
مگروں
مگسی
مگن
مگی
مڳر
مڳسی
مڳی
مھ
مھان
مھاناں
مہ
مہا
مہابھارت
مہاتما
مہاجر
مہاجرین
مہار
مہاراج
مہاراجا
مہاراجہ
مہاراشٹر
مہاراں
مہارت
مہاروی
مہان
مہاندرا
مہاندریاں
مہاندرے
مہانگ
مہانگا
مہانگے
مہاڑ
مہاݨا
مہاݨے
مہتا
مہتاب
مہجور
مہدی
مہذب
مہر
مہران
مہراں
مہربان
مہرباناں
مہربانی
مہرعبدالحق
مہرو
مہروی
مہرے
مہلت
مہلک
مہم
مہمان
مہماناں
مہمانیں
مہملہ
مہناز
مہنتا
مہندر
مہندی
مہندیاں
مہنگاي
مہنگے
مہک
مہکار
مہیا
مہیسر
مہین
مہینوال
مہینہ
مہینیاں
مہینے
مہیوال
مہے
مۃ
می
میان
میانجی
میانداد
میانمار
میانوالی
میانی
میاو
میاں
میت
میتلا
میتھوں
میثاق
میجر
میخاي
میخی
مید
میدان
میداناں
میدانی
میداں
میدے
میر
میرا
میراث
میراثی
میرانی
میراں
میراݨی
میرحسان
میرداد
میرس
میرو
میرٹ
میرٹھ
میرپور
میرپوری
میری
میریاں
میرے
میرݨ
میز
میزان
میزاں
میزبان
میزبانی
میزش
میس
میسا
میساوریا
میسج
میسر
میسور
میشا
میـں
میل
میلا
میلاد
میلان
میلاں
میلسی
میلہ
میلیاں
میلیں
میلے
میم
میمن
میموریل
میمونہ
مین
مینا
مینار
میندی
میندیاں
مینر
مینوں
مینڈا
مینڈھی
مینڈی
مینگل
مینگھ
مینھ
مینہ
مینہہ
مینی
مینیجر
میواتی
میوزک
میوزیم
میوزیکل
میولر
میونسپل
میونسپلٹی
میوہ
میوے
میي
میٹ
میٹاسٹیبل
میٹر
میٹرو
میٹرک
میٹنگ
میٹنگز
میچ
میڈ
میڈا
میڈل
میڈو
میڈي
میڈی
میڈیا
میڈیاں
میڈیم
میڈیکل
میڈیں
میڈے
میڋے
میڑک
میڑھ
میک
میکانیات
میکس
میکسیکو
میکن
میکو
میکون
میکوں
میگزین
میگنا
میگھواڑیں
میں
میہ
میݙ
میݙا
میݙو
میݙی
میݙیاں
میݙے
میݙےنال
مے
مݙ
مݙی
مݨ
مݨکے
مݨی
مݨے
ن
نا
ناء
ناا
ناانصافی
نااہل
نااہلی
نابر
نابینا
نات
ناتاں
ناتمام
ناتھ
ناتی
ناتے
ناجاي
ناحق
ناخن
ناد
نادار
نادان
نادر
نادرا
نادرہ
نادیہ
نار
نارا
ناراض
ناراضگی
ناراي
نارمل
نارنگ
ناروا
نارووال
ناروے
ناری
ناز
نازاں
نازش
نازل
نازو
نازک
نازیں
ناساں
ناسیں
ناسے
ناشاد
ناشتہ
ناشتے
ناشر
ناص
ناصر
ناصرالدین
ناصرف
ناطق
ناطے
ناظر
ناظرین
ناظم
نافذ
نافرمان
نافرمانی
ناقابل
ناقدین
ناقص
نال
نالا
نالج
نالوجی
نالوں
نالہ
نالی
نالیاں
نالے
نام
نامات
نامراد
نامزد
نامزدگی
نامزدگیاں
نامعلوم
ناممکن
نامنظور
نامو
نامور
ناموس
نامکمل
نامہ
نامی
نامیاتی
نامے
نان
نانا
نانواں
نانوں
نانویں
نانک
نانکے
نانگ
نانگیں
نانہہ
نانی
نانے
ناو
ناواری
ناواں
ناول
ناولاں
ناولٹ
ناوڑی
ناویں
ناي
ناٹک
ناپ
ناپاک
ناپسندیدہ
ناپید
ناچ
ناچیز
ناچے
ناڈو
ناڑ
ناڑی
ناک
ناکارہ
ناکافی
ناکام
ناکامی
ناکہ
ناگ
ناگوار
ناگپور
ناگپوری
ناں
ناھا
ناھوں
ناھیا
ناہ
ناہمواری
ناہی
ناہیا
ناہید
ناہیں
نایاب
نب
نباتات
نبض
نبوت
نبوی
نبھ
نبھا
نبھاوݨ
نبھاي
نبھایا
نبھدی
نبھیندے
نبہ
نبہاء
نبی
نبیاں
نبیذ
نت
نتا
نتار
نتارا
نتارے
نتاي
نتاں
نتر
نتری
نتکانی
نتکاݨی
نتھ
نتھلی
نتھوانی
نتیجتا
نتیجہ
نتیجے
نتے
نث
نثار
نثر
نثری
نثوی
نج
نجابت
نجات
نجار
نجان
نجانڑ
نجانڑاے
نجاں
نجاݨ
نجد
نجف
نجم
نجمہ
نجو
نجوم
نجھ
نجھا
نجھیں
نجی
نجیاں
نجیب
نجے
نحضرت
نحو
نحوست
نحوی
نخبہ
نختے
نخرے
نخلستان
ند
ندا
نداي
نداں
ندر
ندرا
ندراں
ندروں
ندری
ندریاں
ندریں
ندرے
ندن
ندو
ندوی
ندي
ندگی
ندھ
ندھا
ندھرا
ندھی
ندہ
ندی
ندیاں
ندیم
ندین
ندیں
ندے
نذر
نذرانہ
نذروٹو
نذیر
نذیراں
نر
نرا
نراض
نرالا
نرز
نرم
نرما
نرمی
نروار
نروان
نرودا
نرویا
نرہانڑ
نری
نز
نزار
نزاری
نزاریاں
نزاریہ
نزاکت
نزاکتاں
نزد
نزدیک
نزدیکی
نزول
نزہت
نزیر
نس
نساء
نسار
نسان
نساي
نساں
نسب
نسبت
نسبتا
نسبتی
نسبی
نستعلیق
نسخ
نسخہ
نسخیاں
نسخے
نسدان
نسداناں
نسر
نسردے
نسرین
نسرݨ
نسز
نسق
نسل
نسلا
نسلاں
نسلی
نسلیاتی
نسلیں
نسو
نسوا
نسوانی
نسوانیت
نسواں
نسومر
نسوں
نسوی
نسٹاي
نسی
نسیم
نسے
نشاب
نشابر
نشاط
نشان
نشانات
نشاندہی
نشانہ
نشانی
نشانیاں
نشاں
نشاۃ
نشتر
نشر
نشریات
نشریاتی
نشست
نشستاں
نشہ
نشی
نشیب
نشیلے
نشین
نشینی
نشیں
نشے
نص
نصاب
نصابی
نصب
نصر
نصراللہ
نصرت
نصف
نصیب
نصیباں
نصیبو
نصیبی
نصیبیں
نصیحت
نصیر
نصیرالدین
نضیر
نطعی
نظارا
نظارہ
نظاریں
نظارے
نظام
نظاماں
نظامت
نظامی
نظامیہ
نظر
نظرا
نظرانداز
نظراں
نظردا
نظردن
نظردي
نظردی
نظردے
نظرسی
نظرن
نظري
نظری
نظریا
نظریات
نظریاتی
نظریي
نظریں
نظریہ
نظریے
نظرے
نظم
نظماں
نظمی
نظمیں
نظیر
نعت
نعتاں
نعتیہ
نعرہ
نعرے
نعمان
نعمانی
نعمت
نعمتاں
نعیم
نعیمہ
نعیمی
نغارہ
نغارے
نغمہ
نغمیاں
نغمے
نفاذ
نفرت
نفرتاں
نفس
نفسی
نفسیات
نفسیاتی
نفع
نفعے
نفوس
نفی
نفیس
نفیسہ
نقاب
نقاد
نقاداں
نقارہ
نقاش
نقاشی
نقالی
نقد
نقش
نقشبندی
نقشبندیہ
نقشہ
نقشے
نقص
نقصان
نقصانات
نقطہ
نقطہي
نقطے
نقل
نقلی
نقوش
نقوی
نقی
نقیب
نل
نلا
نلکے
نلی
نم
نما
نماز
نمازاں
نمازی
نماشاں
نمانی
نماي
نمایاں
نماݨاں
نماݨی
نماݨے
نمبر
نمبراں
نمبردار
نمرود
نمرہ
نمط
نمل
نمود
نمودار
نمونہ
نمونیاں
نمونے
نمک
نمھی
نمہی
نمہیں
نمی
نن
ننانواں
ننانویں
نند
نندر
نندراں
نندروں
ننواں
ننویں
ننکانہ
ننگ
ننگا
ننگر
ننگی
ننگیاں
ننگے
ننھا
ننھے
نه
نو
نوا
نواب
نواباں
نوابزادہ
نوابی
نواح
نواحی
نوادرات
نوار
نواز
نوازا
نوازشریف
نوازی
نوازیا
نواسہ
نوال
نوان
نواي
نواں
نواݨی
نوب
نوبت
نوبل
نوجوان
نوجواناں
نوجوانی
نوجوانیں
نوح
نوحہ
نوحے
نور
نورا
نوراحمدفریدی
نورالدین
نورالہد
نورالہدی
نوراں
نورجنہ
نورجہاں
نورزي
نورمحمد
نورنامہ
نورنامے
نورنگا
نوروز
نورپور
نورپوری
نوری
نورے
نوزاي
نوش
نوشت
نوشہرہ
نوشی
نوع
نوعیت
نوفل
نول
نومبر
نومسلم
نون
نوناری
نونڑ
نونہہ
نوٹ
نوٹاں
نوٹس
نوڑا
نوک
نوکدار
نوکر
نوکری
نوکریاں
نوکریں
نوکھ
نوں
نوھی
نوہٹو
نوہی
نوہے
نوی
نویاں
نوید
نویس
نویسی
نویل
نوین
نویکلا
نویکلی
نویکلے
نویں
نویہ
نوے
نوݨ
نوݨا
نى
ني
نيول
نٸ
نٸیں
نٹ
نٹر
نٹی
نپ
نڄ
نڄاݨ
نڄے
نچ
نچدا
نچدی
نچدے
نچلے
نچوڑ
نچے
نچݨ
نڈ
نڈا
نڈر
نڈھ
نڈھا
نڈھال
نڈھاں
نڈھلا
نڈھلے
نڈی
نڈیشن
نڈے
نڑ
نڑاں
نڑدا
نڑدے
نڑی
نڑیا
نڑیں
نڑے
نژاد
نک
نکا
نکات
نکاح
نکار
نکال
نکالی
نکتہ
نکتے
نکر
نکراں
نکل
نکلا
نکلدا
نکلدن
نکلدی
نکلدیاں
نکلدے
نکلسن
نکلسوں
نکلن
نکلنڑ
نکلو
نکلی
نکلیا
نکلیي
نکلیں
نکلیے
نکلے
نکلݨ
نکمی
نکمے
نکهڑ
نکو
نکوبار
نکور
نکوسیا
نکوں
نکڑ
نکڑا
نکڑی
نکڑیاں
نکڑے
نکھ
نکھار
نکھتا
نکھتی
نکھتیاں
نکھتے
نکھوں
نکھڑ
نکھڑدا
نکھڑن
نکھڑی
نکھڑیا
نکھڑیے
نکھڑے
نکھڑݨ
نکھیڑ
نکھیڑا
نکھیڑے
نکھیں
نکہ
نکہت
نکی
نکیاں
نکے
نگ
نگا
نگار
نگاراں
نگاروں
نگارہ
نگاری
نگاں
نگاہ
نگاہیں
نگر
نگران
نگرانی
نگری
نگل
نگن
نگوں
نگھ
نگہبان
نگی
نگیاں
نگیں
نگے
نگݨ
نڳ
نڳال
نڳل
نڳیاں
نھ
نھا
نھاں
نھر
نھي
نھی
نھیں
نہ
نہا
نہاد
نہار
نہال
نہاي
نہاں
نہایت
نہج
نہر
نہراں
نہرو
نہری
نہریں
نہم
نہمی
نہن
نہو
نہوں
نہویں
نہوے
نہڑ
نہہ
نہی
نہیلا
نہیں
نہے
نی
نیءں
نیا
نیابت
نیاد
نیادی
نیاز
نیازی
نیاں
نیب
نیت
نیتاں
نیتی
نیجیں
نیدرلینڈ
نیدرلینڈز
نیر
نیرو
نیرہ
نیز
نیزا
نیزہ
نیزے
نیسے
نیشا
نیشاپور
نیشن
نیشنل
نیشنلزم
نیل
نیلا
نیلام
نیلم
نیلی
نیلیاں
نیلے
نیم
نیمیسس
نین
نینا
نیناں
نیند
نیندر
نیندے
نینوا
نینگر
نینگراں
نینگریں
نینہہ
نیو
نیواں
نیوز
نیوزی
نیوٹن
نیویارک
نیویں
نیوے
نیي
نیٹ
نیپ
نیپال
نیپالی
نیچ
نیچا
نیچرل
نیچے
نیڑ
نیڑے
نیک
نیکوسیا
نیکی
نیں
نیہا
نے
نݙ
نݙھ
نݨ
ه
ها
هاي
هاں
هدے
هر
هل
هم
هن
هنڑ
هوسیں
هووے
هي
هک
هکو
هی
هے
و
وء
وا
واء
واب
وابستگی
وابستہ
وات
واتا
واثق
واج
واجب
واجد
واجے
واحد
واخلاق
وادب
وادي
وادھ
وادھا
وادھو
وادھوں
وادھی
وادھے
وادی
وادیاں
وادیي
وار
وارا
وارانہ
واراں
وارث
وارثی
وارثیں
واردات
وارننگ
واروں
وارڈ
وارکار
وارگی
وارہ
واری
واریاں
واریت
وارے
وارݨ
واز
وازاں
وازہ
وازیں
واس
واستے
واسطہ
واسطے
واسو
واسی
واسیاں
واسیں
واشنگٹن
واصف
واصل
واصی
واضح
واضع
واعظ
وافر
واقع
واقعات
واقعاتی
واقعہ
واقعی
واقعیاں
واقعے
واقف
واقفیت
وال
والا
والاں
والجماعت
والد
والدہ
والدین
والسلام
واللہ
والنہایہ
والو
والوں
والوی
والي
والہ
والہہ
والی
والیا
والیاں
والیم
والیں
والے
وان
وانا
وانج
وانجھ
واند
وانڑ
وانگ
وانگو
وانگوں
وانگیں
وانگے
وانڳ
وانڳوں
وانڳے
واو
واول
واویلا
واي
واٹ
واٹر
واٹس
واٹواں
واپس
واپسی
واپڈا
واچھڑ
واڈیا
واڑ
واڑی
واڑیاں
واک
واگ
واگاں
واگھا
واڳ
واڳاں
واں
واہ
واہر
واہلہ
واہن
واہند
واہندا
واہندی
واہندے
واہگہ
واہی
واہݨ
وایا
واݨ
وب
وبا
وباء
وبھ
وبیان
وت
وتا
وتحمل
وتر
وترے
وتھ
وتہ
وتے
وثقافت
وثوق
وج
وجا
وجاݨ
وجب
وجد
وجدا
وجدان
وجدے
وجود
وجودی
وجودیت
وجوہ
وجوہات
وجھ
وجھا
وجھی
وجھے
وجہ
وجہہ
وجی
وجیندے
وجے
وح
وحدانیت
وحدت
وحدۃ
وحدیث
وحشت
وحشی
وحی
وحید
وخ
وخت
ود
ودا
وداع
وداں
ودن
ودوں
ودي
ودھ
ودھا
ودھار
ودھارا
ودھارے
ودھاو
ودھاون
ودھاوݨ
ودھاي
ودھایا
ودھدا
ودھدی
ودھدے
ودھن
ودھی
ودھیا
ودھیندے
ودھیک
ودھے
ودھݨ
ودی
ودیاں
ودیں
ودے
ور
ورا
وراثت
وراثتی
ورانہ
وراں
ورت
ورتا
ورتاء
ورتارا
ورتارے
ورتاوا
ورتاوے
ورتایا
ورتن
ورتي
ورتی
ورتیا
ورتیاں
ورتیجݨ
ورتین
ورتیندا
ورتیندن
ورتیندی
ورتیندے
ورتیي
ورتیے
ورتے
ورتݨ
ورثاء
ورثہ
ورثے
ورج
ورد
وردی
ورزی
ورسٹی
ورق
ورقہ
ورقے
ورلڈ
ورما
ورنہ
ورواج
وروں
ورڈ
ورڈزورتھ
ورک
ورکر
ورکرز
ورکریں
ورکس
ورکشاپ
ورکنگ
ورگے
ورھیاں
ورھیں
ورھے
ورہیاں
ورہیں
وری
وریا
وریاں
وریں
وریہیں
ورے
وز
وزارت
وزارتاں
وزبر
وزراء
وزن
وزنی
وزی
وزیر
وزیراعظم
وزیراعل
وزیراعلی
وزیرستان
وزیٹنگ
وس
وسا
وساخ
وساخی
وسار
وساری
وساطت
وساندر
وساوے
وساي
وساکھ
وساکھی
وساں
وسایا
وسبہ
وسبے
وستی
وستیاں
وستیں
وستے
وسدا
وسدن
وسدی
وسدیاں
وسدے
وسر
وسط
وسطی
وسطے
وسعت
وسل
وسلم
وسم
وسما
وسمی
وسن
وسنڑ
وسنیک
وسنیکاں
وسو
وسواس
وسوں
وسي
وسی
وسیا
وسیاں
وسیب
وسیبی
وسیر
وسیساں
وسیع
وسیلہ
وسیلی
وسیلے
وسیم
وسیندڑ
وسیندے
وسیں
وسے
وسݨ
وش
وشنو
وصال
وصبے
وصف
وصل
وصول
وصولی
وصی
وصیت
وضاحت
وضع
وضعی
وضو
وط
وطن
وطناں
وطنی
وطنیاں
وطنیں
وطیرہ
وظاي
وظیفہ
وظیفے
وع
وعدہ
وعدے
وعظ
وغارت
وغریب
وغیرہ
وف
وفا
وفات
وفادار
وفاداری
وفاق
وفاقی
وفاي
وفد
وفیات
وقار
وقاص
وقت
وقتا
وقتاں
وقتی
وقف
وقفہ
وقفے
وقوع
وقوف
ول
ولا
ولادت
ولاوے
ولاي
ولاں
ولایت
ولد
ولدا
ولدی
ولدیت
ولدے
ولزلی
ولسن
ولسی
ولن
ولنڑ
ولوڑ
ولوں
ولھ
ولھر
ولھیٹ
ولہیٹ
ولی
ولیا
ولیاں
ولید
ولیم
ولیندے
ولیں
ولیے
ولے
ولݨ
وم
وما
ومن
ون
ونا
وناں
ونت
ونج
ونجا
ونجاي
ونجاں
ونجایا
ونجن
ونجنا
ونجناں
ونجنڑ
ونجنڑا
ونجنڑاں
ونجنڑیں
ونجنڑے
ونجو
ونجوں
ونجڑ
ونجڑاں
ونجڑیں
ونجڑے
ونجھ
ونجھا
ونجھلی
ونجی
ونجیج
ونجیں
ونجے
ونجݨ
ونجݨا
ونجݨاں
وند
وندا
وندی
وندیاں
وندے
ونشی
ونود
ونویں
ونٹر
ونڃیجے
ونڄ
ونڄا
ونڄاں
ونڄن
ونڄو
ونڄوں
ونڄیں
ونڄے
ونڄݨ
ونڄݨا
ونڈ
ونڈا
ونڈارے
ونڈاوݨ
ونڈاي
ونڈایا
ونڈنڑ
ونڈو
ونڈی
ونڈیا
ونڈیاں
ونڈیج
ونڈیندا
ونڈیندن
ونڈیندے
ونڈے
ونڈݨ
ونڑ
ونڑاں
ونڑن
ونڑی
ونک
ونکو
ونکوں
ونکی
ونکیاں
ونگ
ونگار
ونگاں
ونگیں
ونہار
ونہاری
ونہاي
ونہاں
ونہہ
ونی
ونیڄے
ونیں
ونے
ونݙ
ونݙین
وو
وومن
وونت
ووي
ووٹ
ووٹاں
ووٹر
ووٹراں
ووٹیں
ووڈ
ووی
وویار
ووے
وى
وي
ويں
وٹ
وٹا
وٹار
وٹارے
وٹامن
وٹاندرا
وٹاندرے
وٹاي
وٹو
وٹوں
وٹينده
وٹھ
وٹھا
وٹھے
وٹہ
وٹی
وٹیج
وٹیندا
وٹیندے
وٹے
وپ
وپار
وپاری
وپرا
وپرے
وڄ
وڄاوݨ
وڄکار
وڄیا
وڄے
وڄݨ
وچ
وچار
وچاریں
وچالے
وچلی
وچو
وچوں
وچکار
وچھا
وچھاي
وچھوڑا
وچھوڑے
وچینا
وچیندا
وچیندے
وڈ
وڈا
وڈاي
وڈکیں
وڈکے
وڈھ
وڈی
وڈیاں
وڈیرہ
وڈیرے
وڈیو
وڈیں
وڈے
وڑ
وڑا
وڑدا
وڑدے
وڑھا
وڑھے
وڑی
وڑیا
وڑیاں
وڑے
وژن
وک
وکا
وکالت
وکاو
وکاں
وکتی
وکدا
وکدن
وکدے
وکشنری
وکهرا
وکوں
وکٹوریہ
وکڑے
وکھ
وکھا
وکھرا
وکھرپ
وکھری
وکھریاں
وکھریپا
وکھرے
وکھو
وکھی
وکھے
وکی
وکیا
وکیاں
وکیل
وکیمیڈیا
وکیپیڈیا
وکیپیڈین
وکیڑ
وکے
وکݨ
وگ
وگاڑ
وگدا
وگدے
وگرنہ
وڳ
وڳاڑ
وں
وھ
وھی
وھے
وہ
وہا
وہاج
وہانڑی
وہاوݨ
وہاي
وہاڑی
وہاں
وہاݨی
وہب
وہم
وہن
وہناں
وہند
وہندا
وہندن
وہندی
وہندے
وہنے
وہو
وہوا
وہوک
وہڑ
وہڑے
وہی
وہیرے
وہیندا
وہیندے
وہیں
وہے
وہݨ
وۃ
وی
ویا
ویاروں
ویاس
ویاں
ویاہ
ویب
ویتر
ویجوي
وید
ویدانت
ویدک
ویدی
ویر
ویران
ویرانی
ویرانے
ویروا
ویری
ویزہ
ویس
ویساں
ویسن
ویسو
ویسوں
ویسٹ
ویسی
ویسیں
ویسے
ویل
ویلا
ویلاں
ویلز
ویلزلی
ویلفیي
ویلکم
ویلھ
ویلھا
ویلھے
ویلہ
ویلہا
ویلہے
ویلی
ویلیاں
ویلے
ویلݨ
وین
وینا
ویند
ویندا
وینداي
وینداں
ویندن
ویندوں
ویندي
ویندڑ
ویندی
ویندیاں
ویندین
ویندیں
ویندے
وینس
وینسی
وینڑ
وینی
ویو
ویورا
ویورے
ویي
ویٹ
ویٹرنری
ویٹیکن
ویچ
ویچا
ویچم
ویچن
ویچنڑ
ویچے
ویچݨ
ویڈیو
ویڈیوز
ویڑھ
ویڑھا
ویڑھی
ویڑھے
ویژن
ویک
ویکاݨے
ویکھ
ویکھن
ویکی
ویکیپیڈیا
ویکے
ویگن
ویں
ویہ
ویہار
ویہاي
ویہاں
ویہاݨی
ویہدے
ویہلا
ویہلے
ویہویں
ویہڑ
ویہڑا
ویہڑے
ویہہ
ویہی
ویݨ
ویݨی
وے
وݙ
وݙا
وݙاي
وݙو
وݙي
وݙپ
وݙکیاں
وݙکیں
وݙکے
وݙی
وݙیاي
وݙیاں
وݙیریاں
وݙیرے
وݙے
وݨ
وݨا
وݨاں
وݨت
وݨی
وݨیاں
وݨیں
ى
ي
يا
يت
يتا
يد
ير
يرا
يف
يك
يل
يم
ين
ينصح
يه
يں
ً
ٌ
ٍ
َ
ُ
ِ
ّ
ْ
ٓ
ٔ
ٕ
ٖ
ٗ
٘
ٙ
٠
٠٠
٠٠٠
٠١
١
١٠
١٠٠
١٠٠٩
١٠١٠
١٠١٦
١٠٢٣
١٠٢٤
١٠٢٥
١٠٢٦
١١
١٢
١٣
١٤
١٥
١٦
١٧
١٨
١٨٠٢
١٨٠٥
١٨٠٧
١٨١٠
١٨١٦
١٨١٧
١٩
١٩١٦
١٩١٩
١٩٢٠
١٩٢٤
١٩٢٥
١٩٢٨
١٩٣٠
١٩٣١
١٩٣٥
١٩٤٠
١٩٤٤
١٩٤٦
١٩٤٧
١٩٤٨
١٩٤٩
١٩٥١
١٩٥٢
١٩٥٣
١٩٥٤
١٩٥٥
١٩٥٦
١٩٥٧
١٩٥٨
١٩٦٠
١٩٦١
١٩٦٢
١٩٦٤
١٩٦٥
١٩٦٨
١٩٦٩
١٩٧٠
١٩٧١
١٩٧٢
١٩٧٣
١٩٧٥
١٩٧٦
١٩٧٧
١٩٧٨
١٩٧٩
١٩٨٠
١٩٨١
١٩٨٢
١٩٨٣
١٩٨٤
١٩٨٥
١٩٨٦
١٩٨٧
١٩٨٨
١٩٨٩
١٩٩
١٩٩٠
١٩٩١
١٩٩٢
١٩٩٣
١٩٩٤
١٩٩٥
١٩٩٦
١٩٩٧
١٩٩٨
١٩٩٩
٢
٢٠
٢٠٠٠
٢٠٠١
٢٠٠٢
٢٠٠٣
٢٠٠٤
٢٠٠٥
٢٠٠٦
٢٠٠٧
٢٠٠٨
٢٠٠٩
٢٠١٠
٢٠١١
٢٠١٢
٢٠١٣
٢٠١٤
٢٠١٥
٢٠١٦
٢٠١٧
٢٠١٨
٢٠١٩
٢٠٢٠
٢٠٢١
٢٠٢٢
٢١
٢٢
٢٣
٢٤
٢٥
٢٦
٢٧
٢٨
٢٩
٣
٣٠
٣١
٣٢
٣٣
٣٥
٣٦
٣٩
٤
٤٠
٤٨
٥
٥٠
٥٠٠
٦
٦٠
٧
٧٠
٧٣
٨
٨٠
٩
٩٠
٪
٫
٭
ٰ
ٶ
ٸی
ٹ
ٹا
ٹارگٹ
ٹاس
ٹال
ٹالا
ٹالھی
ٹالھیاں
ٹالھیں
ٹالی
ٹامیوالی
ٹانواں
ٹانڈا
ٹانک
ٹانگے
ٹاو
ٹاور
ٹاون
ٹاوݨ
ٹاي
ٹاٹ
ٹاپ
ٹاکی
ٹاں
ٹاہلی
ٹب
ٹبر
ٹبی
ٹبے
ٹدے
ٹر
ٹرا
ٹرانس
ٹرانسپورٹ
ٹراي
ٹراں
ٹردا
ٹردی
ٹردیں
ٹردے
ٹرز
ٹرسٹ
ٹرسی
ٹرن
ٹرنڑ
ٹرنگ
ٹرک
ٹری
ٹریا
ٹریبیون
ٹریفک
ٹرین
ٹریندن
ٹریندے
ٹریننگ
ٹرینڈ
ٹریٹمنٹ
ٹریڈ
ٹریک
ٹریکٹر
ٹرے
ٹرݨ
ٹزرلینڈ
ٹس
ٹل
ٹلا
ٹلی
ٹلیاں
ٹلے
ٹم
ٹماٹر
ٹن
ٹنڈو
ٹنڈݨ
ٹنگ
ٹنگیا
ٹنگیاں
ٹنگے
ٹو
ٹواݨہ
ٹوبھا
ٹوبھیاں
ٹوبھیں
ٹوبھے
ٹوبہ
ٹور
ٹورا
ٹوراں
ٹورن
ٹورنٹو
ٹوری
ٹوریا
ٹورے
ٹورݨ
ٹولا
ٹولھے
ٹولہ
ٹولی
ٹولیاں
ٹولے
ٹوي
ٹوٹ
ٹوٹا
ٹوٹے
ٹوٻا
ٹوپا
ٹوپی
ٹوپے
ٹوک
ٹوکا
ٹوکرا
ٹوکری
ٹوکریاں
ٹوکرے
ٹوکیو
ٹوکیڈ
ٹوݨے
ٹي
ٹٹ
ٹٹارے
ٹٻر
ٹٻہ
ٹٻی
ٹٻیاں
ٹٻے
ٹپ
ٹپدی
ٹپدے
ٹپہ
ٹپے
ٹڑی
ٹک
ٹکا
ٹکاݨا
ٹکاݨہ
ٹکاݨے
ٹکر
ٹکرا
ٹکراو
ٹکراوݨ
ٹکراں
ٹکری
ٹکریا
ٹکرے
ٹکور
ٹکٹ
ٹکڑا
ٹکڑیاں
ٹکڑے
ٹکی
ٹکے
ٹکݨ
ٹھ
ٹھا
ٹھار
ٹھارہ
ٹھالی
ٹھان
ٹھاندی
ٹھاي
ٹھاٹھ
ٹھاٹھاں
ٹھاکر
ٹھاں
ٹھاہ
ٹھاݨ
ٹھاݨی
ٹھدے
ٹھر
ٹھل
ٹھلا
ٹھم
ٹھن
ٹھنڈا
ٹھنڈی
ٹھنڈے
ٹھو
ٹھوس
ٹھوک
ٹھویں
ٹھٹھہ
ٹھٹہ
ٹھپ
ٹھپہ
ٹھپے
ٹھڈا
ٹھڈڑی
ٹھڈھا
ٹھڈی
ٹھڈیاں
ٹھڈے
ٹھڑی
ٹھڑے
ٹھک
ٹھکا
ٹھکارے
ٹھکرا
ٹھگ
ٹھہا
ٹھہاي
ٹھہایا
ٹھہر
ٹھی
ٹھیاں
ٹھیلی
ٹھیلیاں
ٹھیلے
ٹھیٹھ
ٹھیڑ
ٹھیک
ٹھیکدار
ٹھیکری
ٹھیکہ
ٹھیکیدار
ٹھیکے
ٹھیں
ٹھے
ٹھݨ
ٹہ
ٹی
ٹیا
ٹیاں
ٹیبل
ٹیج
ٹیرا
ٹیسٹ
ٹیشن
ٹیشݨ
ٹیلنٹ
ٹیلی
ٹیلیفون
ٹیلے
ٹیم
ٹیماں
ٹیمپل
ٹین
ٹیندا
ٹیندے
ٹینک
ٹیوب
ٹیوشن
ٹیوٹ
ٹیي
ٹیٹ
ٹیٹی
ٹیپ
ٹیپو
ٹیچر
ٹیڈی
ٹیک
ٹیکس
ٹیکساس
ٹیکسلا
ٹیکسٹ
ٹیکسٹاي
ٹیکنالوجسٹ
ٹیکنالوجی
ٹیکنالوجیز
ٹیکنکل
ٹیکنیک
ٹیکنیکل
ٹیگور
ٹیں
ٹیے
ٹے
ٹݨ
ٻ
ٻا
ٻاجھ
ٻاجھری
ٻاجھوں
ٻار
ٻارھاں
ٻارہ
ٻارہاں
ٻارہویں
ٻاری
ٻارے
ٻال
ٻالاں
ٻالٹی
ٻالڑی
ٻالڑیاں
ٻالی
ٻالیں
ٻالݨ
ٻان
ٻانہہ
ٻانہیں
ٻاوی
ٻاویہہ
ٻاٻا
ٻاکݨ
ٻاگھڑ
ٻاہ
ٻاہر
ٻاہرلے
ٻاہرو
ٻاہروں
ٻاہرے
ٻاہمݨ
ٻاہو
ٻاہیں
ٻاݨ
ٻجھ
ٻد
ٻدھ
ٻدھا
ٻدھی
ٻدھیا
ٻدھیج
ٻدھیندا
ٻدھیندے
ٻدھے
ٻدھݨ
ٻدھݨے
ٻر
ٻرہوپلے
ٻس
ٻل
ٻلا
ٻلدا
ٻلدی
ٻلدے
ٻلونگڑا
ٻلپݨ
ٻلھا
ٻلھݨ
ٻلہا
ٻلہانگ
ٻلہݨ
ٻلی
ٻلیاں
ٻلیندن
ٻلیندی
ٻلیندے
ٻن
ٻنھاں
ٻنہاں
ٻنہیں
ٻنے
ٻو
ٻوتھی
ٻوجھ
ٻور
ٻوری
ٻوریاں
ٻوسݨ
ٻول
ٻولا
ٻولي
ٻولی
ٻولیا
ٻولیاں
ٻولیندا
ٻولیندن
ٻولیندی
ٻولیندے
ٻولیں
ٻولے
ٻولݨ
ٻوي
ٻوٹ
ٻوٹا
ٻوٹی
ٻوٹیاں
ٻوٹے
ٻوڑ
ٻوڑے
ٻوھے
ٻوہا
ٻوہاری
ٻوہاریاں
ٻوہڑ
ٻوہے
ٻوݙ
ٻي
ٻٹ
ٻٹا
ٻچ
ٻچڑا
ٻچڑے
ٻچہ
ٻچے
ٻڈھا
ٻڈھری
ٻڈھڑا
ٻڈھڑی
ٻڈھے
ٻڑ
ٻڑکݨ
ٻک
ٻکاٹ
ٻکرا
ٻکری
ٻکریاں
ٻگھ
ٻھ
ٻھر
ٻھل
ٻہ
ٻہر
ٻہروں
ٻہندا
ٻہندے
ٻہو
ٻہوں
ٻہوݨ
ٻہھ
ٻہہ
ٻہے
ٻہݨ
ٻی
ٻیا
ٻیاں
ٻیر
ٻیری
ٻیریں
ٻیل
ٻیلا
ٻیلہ
ٻیلی
ٻیلیاں
ٻیلے
ٻیٹ
ٻیٹھا
ٻیٹھاں
ٻیٹھن
ٻیٹھو
ٻیٹھوں
ٻیٹھک
ٻیٹھی
ٻیٹھیں
ٻیٹھے
ٻیڑا
ٻیڑی
ٻیڑیاں
ٻیڑیں
ٻیڑے
ٻیہہ
ٻے
ٻݨ
پ
پا
پاء
پابند
پابندی
پابندیاں
پات
پاتا
پاتال
پاتم
پاتن
پاتی
پاتیاں
پاتے
پاداش
پادری
پار
پارا
پارت
پارتاں
پارتھیا
پارس
پارسا
پارساي
پارسک
پارسی
پارلیمان
پارلیمانی
پارلیمنٹ
پارمینڈیس
پارو
پاروں
پارٹ
پارٹی
پارٹیاں
پارٹیشن
پارٹیں
پارک
پارکر
پارہ
پاریاں
پارے
پازیب
پاس
پاسا
پاسبان
پاسداری
پاسو
پاسوں
پاسپورٹ
پاسہ
پاسی
پاسیوں
پاسے
پاشا
پاشی
پافوس
پال
پالا
پالتو
پالٹی
پالٹیاں
پالک
پالی
پالیا
پالیسی
پالیسیاں
پالیٹکس
پالے
پالݨ
پامال
پامیر
پان
پاند
پاندھی
پاندھیاں
پانواں
پانونڑ
پانویں
پانوݨ
پانچ
پانڈو
پانڈے
پانڑ
پانڑی
پانڑیاں
پانڑیں
پانی
پاو
پاواں
پاور
پاولی
پاون
پاونڑ
پاوے
پاوݨ
پاي
پاٹ
پاپ
پاپاي
پاڑ
پاڑا
پاڑاں
پاڑچھا
پاڑیا
پاڑے
پاک
پاکستان
پاکستانی
پاکستانیاں
پاکپتن
پاکپتݨ
پاکیزگی
پاکیزہ
پاکے
پاگل
پاڳل
پاں
پاہ
پایا
پایہ
پاے
پاݨ
پاݨـی
پاݨی
پاݨیاں
پاݨیں
پبلشر
پبلشرز
پبلک
پبلی
پبلیشرز
پبلیکیشن
پبلیکیشنز
پت
پتا
پتافی
پتر
پترا
پتراں
پتری
پتریں
پترے
پتل
پتلا
پتلی
پتلیاں
پتلے
پتن
پتنگ
پتھ
پتھاری
پتھر
پتھراں
پتھریں
پتہ
پتی
پتیاں
پتے
پتݨ
پج
پجا
پجارو
پجاری
پجن
پجی
پجیا
پجیم
پجے
پختون
پختونخوا
پختونخواہ
پختونستان
پختونیں
پختگی
پختہ
پدا
پدرانہ
پدم
پدما
پدھ
پدھر
پدی
پدے
پذیر
پذیراي
پر
پرا
پراجیکٹ
پرارا
پرامن
پران
پرانا
پرانڑاں
پرانڑی
پرانڑیاں
پرانڑیں
پرانڑے
پرانی
پرانیاں
پرانے
پراي
پراٹھا
پراپیگنڈہ
پراکرات
پراکرت
پراں
پرایا
پراے
پراݨا
پراݨاں
پراݨی
پراݨیاں
پراݨیں
پراݨے
پربھ
پرت
پرتاب
پرتاں
پرتگال
پرتگالی
پرتگیزی
پرتھوی
پرجوش
پرد
پردھان
پردہ
پردیاں
پردیس
پردیسی
پردیسیاں
پردیش
پردے
پرذوق
پرزے
پرس
پرساد
پرست
پرستاں
پرستش
پرستی
پرستیں
پرسن
پرسوز
پرفارم
پرفارمنس
پرفیسر
پرفیوم
پرل
پرلا
پرلی
پرلے
پرم
پرنام
پرنایا
پرند
پرندیاں
پرندے
پرنس
پرنسپل
پرنٹ
پرنٹرز
پرنٹنگ
پرنیجݨ
پرنیوا
پرنیوے
پرنے
پرو
پروا
پرواز
پروان
پروانہ
پرواہ
پرواہی
پروبھرا
پروبھری
پروبھرے
پروتھی
پروجیکٹ
پرور
پروردگار
پرورش
پروفاي
پروفیسر
پروفیشنل
پروموٹ
پروٹین
پروپیگنڈہ
پروڈکشن
پروڈیوسر
پروگرام
پروگراماں
پروگرامیں
پروں
پرویز
پروین
پروݙکشن
پروݨ
پرپ
پرچار
پرچارک
پرچم
پرچول
پرچہ
پرچی
پرچے
پرکاش
پرکھ
پرکھرا
پرکھن
پرکھنڑ
پرکھیا
پرکھݨ
پرگرام
پرہ
پرہلاد
پری
پریاں
پریت
پریتی
پریس
پریشان
پریشانی
پریشانیاں
پریشر
پریشن
پریم
پریٹو
پریں
پرے
پرݙاݙا
پزیر
پزیراي
پس
پسالی
پست
پستول
پستی
پسلیاں
پسماندگی
پسماندہ
پسن
پسند
پسندانہ
پسنداں
پسندی
پسندیدہ
پسی
پسینہ
پش
پشاور
پشاوری
پشاک
پشت
پشتو
پشتون
پشتی
پشن
پشور
پشیہ
پطرس
پل
پلا
پلازہ
پلاسٹک
پلان
پلاننگ
پلانٹ
پلانڑی
پلاو
پلاوے
پلاوݨ
پلاي
پلاٹ
پلاک
پلایا
پلاݨ
پلدے
پلس
پلنگ
پلو
پلوتا
پلوتے
پلٹ
پلک
پلکاں
پلکیں
پلہ
پلی
پلیا
پلیاں
پلیت
پلیتا
پلیجو
پلید
پلیز
پلیندا
پلیندی
پلیٹ
پلے
پمدا
پمدی
پمدے
پمفلٹ
پمپ
پن
پنا
پناں
پناہ
پنج
پنجاب
پنجابی
پنجابیاں
پنجابیں
پنجالی
پنجاپ
پنجاپی
پنجاپیاں
پنجاں
پنجاہ
پنجتن
پنجرے
پنجم
پنجند
پنجواں
پنجوی
پنجویں
پنجگانہ
پنجھ
پنجھاہ
پنجیہہ
پنجے
پندا
پندراں
پندرھاں
پندرھویں
پندرہ
پندرہویں
پندھ
پندھراں
پندھری
پندھیڑو
پندھیڑے
پندے
پنسل
پنل
پنن
پنوار
پنوں
پنڄ
پنڄویں
پنچ
پنچاي
پنڈ
پنڈال
پنڈت
پنڈی
پنڑ
پنڑا
پنڑاں
پنڑی
پنڑیں
پنڑے
پنکج
پنگھوڑے
پنی
پنیاں
پنے
پنݨ
پهل
پهلے
پهٹ
پو
پوا
پوادھ
پوادھو
پوادھی
پواندی
پواو
پواي
پوتا
پوتر
پوترا
پوتراں
پوتری
پوتریاں
پوتریں
پوترے
پوتھی
پوتھیاں
پوتی
پوجا
پودا
پودیاں
پودے
پور
پورا
پورب
پوربی
پورن
پورٹ
پورٹریٹ
پورھیا
پورھیت
پورھیے
پورہ
پورہیا
پورہیت
پورہیے
پوری
پوریاں
پورے
پوزیشن
پوساں
پوسن
پوسوں
پوسٹ
پوسٹاں
پوسٹر
پوسٹل
پوسٹنگ
پوسی
پوسے
پوش
پوشاک
پوشاکاں
پوشی
پوشیدہ
پول
پولا
پولس
پولنگ
پولو
پولی
پولیس
پولینڈ
پولیٹکل
پولیٹیکل
پون
پونبل
پونجی
پوندا
پونداي
پونداں
پوندن
پوندوں
پوندی
پوندیاں
پوندین
پوندے
پونم
پونو
پونواں
پونگے
پونے
پوو
پوواں
پوون
پوونڑ
پووں
پووی
پوویں
پووے
پووݨ
پوي
پوٹھوہار
پوٹھوہاری
پوپ
پوپا
پوپل
پوچ
پوچا
پوچھا
پوچھڑ
پوڈر
پوڑھی
پوڑھیاں
پوڑی
پوڑیاں
پوکھوں
پوں
پوہ
پویندے
پوے
پوݨے
پي
پٸے
پٹ
پٹاي
پٹاک
پٹرول
پٹواری
پٹواریاں
پٹڑی
پٹکا
پٹکی
پٹکے
پٹھ
پٹھا
پٹھان
پٹھانڑ
پٹھانے
پٹھاݨ
پٹھاݨاں
پٹھاݨے
پٹھی
پٹھے
پٹہ
پٹی
پٹیالہ
پٹیاں
پٹیج
پٹیل
پٹیلا
پٹیندا
پٹے
پٹݨ
پپل
پپلاں
پپلی
پپلیاں
پپلیں
پڄ
پڄاوݨ
پڄی
پڄݨ
پچ
پچا
پچادھ
پچادھی
پچاس
پچهیں
پچھ
پچھا
پچھان
پچھانواں
پچھانویں
پچھاواں
پچھاویں
پچھاں
پچھاݨ
پچھدا
پچھدن
پچھدی
پچھدیں
پچھدے
پچھس
پچھسی
پچھلا
پچھلی
پچھلے
پچھنڑ
پچھو
پچھوال
پچھوکڑ
پچھوں
پچھی
پچھیا
پچھیں
پچھے
پچھݨ
پچہیں
پچیسی
پڈ
پڑ
پڑا
پڑاو
پڑاں
پڑسانگ
پڑوپی
پڑچول
پڑچھیاں
پڑھ
پڑھا
پڑھاون
پڑھاوݨ
پڑھاي
پڑھاکو
پڑھایا
پڑھت
پڑھدا
پڑھداں
پڑھدن
پڑھدوں
پڑھدی
پڑھدیں
پڑھدے
پڑھم
پڑھن
پڑھنا
پڑھنڑ
پڑھو
پڑھوں
پڑھي
پڑھی
پڑھیا
پڑھیاں
پڑھیم
پڑھین
پڑھیندا
پڑھیندڑ
پڑھیندے
پڑھیي
پڑھیں
پڑھیے
پڑھے
پڑھݨ
پڑھݨا
پڑی
پڑیاں
پڑیں
پڑے
پک
پکا
پکار
پکارا
پکاردے
پکاون
پکاوݨ
پکاي
پکایا
پکرے
پکو
پکوان
پکوڑے
پکوں
پکڑ
پکڑا
پکڑنڑ
پکڑی
پکڑیا
پکڑیج
پکڑیندے
پکڑے
پکڑݨ
پکھ
پکھا
پکھاں
پکھو
پکھڑو
پکھی
پکھیاں
پکھیرو
پکھیں
پکھے
پکھݨو
پکی
پکیاں
پکے
پکݨ
پگ
پگڑی
پگھر
پگھرو
پڳ
پھ
پھاسی
پھالیہ
پھانسی
پھاٹک
پھاپھل
پھاڑ
پھاہ
پھاہی
پھر
پھرا
پھراں
پھرتی
پھردا
پھرداں
پھردی
پھردے
پھرن
پھرول
پھرولوں
پھرکی
پھریندے
پھرے
پھرݨ
پھس
پھل
پھلاں
پھلور
پھلی
پھلیاں
پھلیں
پھنے
پھوت
پھوتی
پھول
پھولا
پھولاں
پھولوں
پھولے
پھونک
پھوڑی
پھوک
پھوکے
پھوکݨی
پھوگ
پھوڳ
پھي
پھٹ
پھٹا
پھٹدا
پھٹدے
پھٹک
پھٹی
پھٹے
پھٹݨ
پھپھوڑ
پھپھڑ
پھڑ
پھڑکدے
پھڑکݨ
پھکا
پھڳݨ
پھی
پھیر
پھیرا
پھیری
پھیریاں
پھیریں
پھیرے
پھیل
پھیلا
پھیلاء
پھیلاو
پھیلاوݨ
پھیلاي
پھیلی
پھیلے
پھیلݨ
پھینک
پھینگ
پھینگاں
پہ
پہاج
پہارو
پہاڑ
پہاڑا
پہاڑاں
پہاڑپور
پہاڑی
پہاڑیاں
پہاڑیں
پہاکے
پہر
پہرہ
پہرے
پہل
پہلا
پہلاں
پہلو
پہلوان
پہلواں
پہلوو
پہلوں
پہلوی
پہلی
پہلے
پہناوا
پہناوے
پہنتے
پہنچ
پہنچا
پہنچاوݨ
پہنچاي
پہنچایا
پہنچدا
پہنچدے
پہنچن
پہنچو
پہنچی
پہنچے
پہنچݨ
پہوڑ
پہچان
پہچاݨ
پہیلی
پی
پیا
پیاء
پیار
پیارا
پیارو
پیاری
پیارے
پیاز
پیاس
پیاسا
پیاسی
پیاسے
پیالہ
پیالی
پیالے
پیام
پیامی
پیاں
پیت
پیتا
پیتاں
پیتم
پیتھی
پیتی
پیتے
پیج
پید
پیدا
پیداوار
پیداواری
پیداي
پیدل
پیدیوس
پیر
پیرا
پیراساي
پیراي
پیراں
پیرزادگان
پیرزادہ
پیرس
پیرمحل
پیرو
پیروالا
پیروالہ
پیروج
پیروکار
پیروکاراں
پیروں
پیروی
پیری
پیریڈ
پیریں
پیرے
پیرݨ
پیس
پیساں
پیسو
پیسوں
پیسہ
پیسی
پیسیاں
پیسیں
پیسے
پیش
پیشاب
پیشانی
پیشتر
پیشن
پیشوا
پیشکش
پیشہ
پیشی
پیشیں
پیشے
پیغام
پیغامات
پیغمبر
پیغمبراں
پیل
پیلا
پیلاں
پیلس
پیلو
پیلوں
پیلھا
پیلھوں
پیلھی
پیلھے
پیلہوں
پیلی
پیلیاں
پیلے
پیما
پیمان
پیمانہ
پیمانے
پیماي
پیمبر
پین
پینا
پینتریہہ
پیندا
پیندن
پیندی
پیندیاں
پیندیں
پیندے
پینٹ
پینٹنگ
پینڈا
پینڈے
پینگاں
پینگھ
پینگھا
پینگھاں
پیو
پیوء
پیواں
پیوداناں
پیور
پیوسے
پیون
پیونا
پیوند
پیونڑ
پیوو
پیوں
پیوے
پیوݨ
پیي
پیٹ
پیٹا
پیٹرن
پیٹھ
پیٹی
پیٹے
پیپر
پیپرز
پیپسی
پیپل
پیپلز
پیپلزپارٹی
پیچ
پیچش
پیچھا
پیچھے
پیچیدہ
پیڈیا
پیڑ
پیڑاں
پیڑھی
پیڑھیاں
پیڑے
پیک
پیکر
پیکے
پیں
پیھ
پیہل
پے
پݨ
پݨا
پݨاں
پݨدا
پݨی
پݨیال
پݨیاں
پݨیں
پݨے
ڀ
ڃ
ڃم
ڃمیے
ڄ
ڄا
ڄاء
ڄاتا
ڄال
ڄالا
ڄالھ
ڄالی
ڄالیں
ڄام
ڄان
ڄاوݨ
ڄاي
ڄاپدی
ڄاپدے
ڄاک
ڄاں
ڄاہ
ڄایا
ڄایاں
ڄاݨ
ڄاݨا
ڄاݨاں
ڄاݨدا
ڄاݨداں
ڄاݨدن
ڄاݨدی
ڄاݨدے
ڄاݨن
ڄاݨکاری
ڄاݨی
ڄاݨیا
ڄاݨے
ڄاݨݨ
ڄبھ
ڄتھاں
ڄدا
ڄدی
ڄدے
ڄــم
ڄل
ڄلم
ڄلو
ڄلوں
ڄم
ڄما
ڄماوݨ
ڄماي
ڄمدا
ڄمدے
ڄموں
ڄمی
ڄمیا
ڄمے
ڄمݨ
ڄمݨاں
ڄن
ڄنڈ
ڄنگھ
ڄنہاں
ڄو
ڄوانترہ
ڄواہاں
ڄوکے
ڄي
ڄٹ
ڄٹکی
ڄٹیاں
ڄڈاں
ڄڑ
ڄڑھ
ڄڑھاں
ڄڑی
ڄڑیے
ڄکل
ڄڳ
ڄھ
ڄہا
ڄہاڑے
ڄہڑا
ڄہڑھا
ڄہڑھی
ڄہڑھے
ڄہڑے
ڄہیں
ڄی
ڄیا
ڄیندا
ڄیندی
ڄیندے
ڄینویں
ڄیویں
ڄیٹھ
ڄیڑھا
ڄیڑھی
ڄیڑھیاں
ڄیڑھے
ڄیکر
ڄیکوں
ڄیں
ڄیہڑا
ڄیہڑے
ڄے
ڄݙاں
ڄݙݨ
ڄݨ
ڄݨاں
ڄݨی
ڄݨے
څ
چ
چا
چاء
چابی
چابیاں
چاتا
چاتی
چاتے
چادر
چادراں
چار
چارا
چاراں
چارج
چارلس
چاروں
چارٹر
چارپاي
چارکن
چارہ
چارہے
چاریں
چارے
چاشنی
چاقو
چال
چالاک
چالاکی
چالاں
چالو
چالھی
چالہی
چالیہ
چالیہہ
چالے
چان
چاند
چاندنڑی
چاندنی
چاندڑیاں
چاندی
چاندݨی
چانسلر
چانن
چانواں
چانوݨیں
چانڈیو
چانڈیہ
چانکیہ
چانݨ
چاو
چاواں
چاول
چاولہ
چاون
چاونڑ
چاویں
چاوے
چاوݨ
چاوݨا
چاوݨی
چاي
چاٹ
چاٹا
چاٹاں
چاٻیاں
چاپ
چاپلوسی
چاچا
چاچڑ
چاچڑاں
چاچی
چاچے
چاڑ
چاڑھ
چاڑھا
چاڑھی
چاک
چاکر
چاکری
چاکی
چاکے
چاں
چاھندے
چاھے
چاہ
چاہا
چاہت
چاہساں
چاہن
چاہندا
چاہنداں
چاہندن
چاہندی
چاہندیں
چاہندے
چاہو
چاہواں
چاہوے
چاہوݨ
چاہي
چاہی
چاہیدا
چاہیدن
چاہیدی
چاہیدیاں
چاہیدے
چاہیے
چاہے
چایا
چبل
چت
چترال
چترالی
چج
چخ
چدا
چدھار
چدھاروں
چدھرڑ
چدھڑ
چر
چرا
چراغ
چراوݨ
چراي
چراگاہ
چربہ
چرخہ
چرخی
چرند
چرواہے
چرچ
چرچا
چرچے
چرک
چرکھے
چرکے
چرݨ
چس
چساں
چستی
چسولی
چشت
چشتی
چشتیاں
چشتیہ
چشم
چشمہ
چشمی
چشمے
چغتاي
چفیروں
چقندر
چل
چلا
چلاونڑ
چلاوے
چلاوݨ
چلاي
چلاک
چلاکی
چلایا
چلتے
چلدا
چلدی
چلدے
چلسی
چلن
چلو
چلکار
چلھ
چلھا
چلھے
چلہار
چلہے
چلی
چلیا
چلیاں
چلیندا
چلیندن
چلیندے
چلیے
چلے
چلݨ
چم
چماں
چمداں
چمدوں
چمدے
چمن
چمنی
چمچ
چمچہ
چمچے
چمڑے
چمک
چمکا
چمکار
چمکدا
چمکدی
چمکدے
چمکی
چمکݨ
چمے
چن
چنا
چناب
چنال
چنانچہ
چنانہہ
چناں
چنبیلی
چنبے
چنتا
چنتے
چند
چندا
چندر
چندرا
چندری
چندرے
چندہ
چندی
چندے
چنری
چننا
چنوں
چنڈ
چنڑ
چنگ
چنگا
چنگاي
چنگاں
چنگوانی
چنگی
چنگیاں
چنگیر
چنگیز
چنگے
چنڳ
چنڳا
چنڳاں
چنڳی
چنڳے
چنہ
چنی
چنیوٹ
چنے
چنݨ
چو
چوا
چواي
چوبارہ
چوبارے
چوتھا
چوتھاي
چوتھی
چوتھے
چودھار
چودھاروں
چودھری
چور
چوراں
چوراہی
چوری
چوریاں
چوریں
چوغطہ
چول
چولا
چولاݨی
چولستان
چولستانی
چولی
چولے
چون
چونا
چونڈھی
چونڑ
چونڑویں
چونکہ
چونے
چوٹ
چوٹی
چوٹیاں
چوپ
چوپڑیاں
چوپھیر
چوپݨ
چوچک
چوڈاں
چوڈویں
چوڑ
چوڑا
چوڑاي
چوڑنڑ
چوڑی
چوڑیاں
چوڑے
چوک
چوکھا
چوکھٹ
چوکھی
چوکھے
چوکی
چوکیاں
چوکیدار
چوکے
چوگ
چوڳ
چوں
چوھدری
چوہا
چوہان
چوہاناں
چوہدری
چوہے
چوی
چویہہ
چوݙاں
چوݙھویں
چوݙہ
چوݙہاں
چوݙہویں
چوݙی
چوݨ
چوݨاں
چوݨویں
چوݨی
چي
چيز
چٹ
چٹا
چٹان
چٹاناں
چٹڑے
چٹھی
چٹھیاں
چٹی
چٹیاں
چٹے
چٹݨی
چپ
چپاٹھی
چپس
چپل
چپو
چپڑاسی
چپکے
چپے
چچ
چچا
چچڑ
چڈھی
چڑ
چڑھ
چڑھا
چڑھاي
چڑھایا
چڑھدا
چڑھدی
چڑھدے
چڑھی
چڑھیا
چڑھیاں
چڑھیے
چڑھے
چڑھݨ
چڑی
چڑیا
چڑیاں
چک
چکا
چکار
چکاری
چکاں
چکر
چکل
چکن
چکوال
چکوالی
چکور
چکوری
چکي
چکڑالہ
چکی
چکیا
چکیاں
چکیي
چکیں
چکیے
چکے
چھ
چھا
چھاتی
چھال
چھالے
چھان
چھانواں
چھانورا
چھانڑ
چھاو
چھاواں
چھاي
چھاپ
چھاپا
چھاپن
چھاپہ
چھاپی
چھاپیا
چھاپیاں
چھاپیي
چھاپے
چھاپݨ
چھاچھڑ
چھاڑ
چھاں
چھاݨ
چھاݨی
چھبالی
چھت
چھتاں
چھتر
چھتری
چھتی
چھج
چھدا
چھدن
چھدو
چھدی
چھدیں
چھدے
چھل
چھلا
چھلڑے
چھلے
چھم
چھن
چھنڈ
چھنڈک
چھنڑ
چھنکݨے
چھو
چھوار
چھول
چھولیاں
چھولے
چھوٹ
چھوٹا
چھوٹی
چھوٹیاں
چھوٹے
چھوڑ
چھوڑا
چھوڑاں
چھوڑن
چھوڑنا
چھوڑو
چھوڑوں
چھوڑي
چھوڑی
چھوڑیا
چھوڑیم
چھوڑین
چھوڑیندا
چھوڑیندن
چھوڑیندے
چھوڑیي
چھوڑیں
چھوڑیے
چھوڑے
چھوڑݨ
چھوکرا
چھوکری
چھوکرے
چھوکڑ
چھوں
چھوہ
چھوہر
چھوہریں
چھي
چھٹ
چھٹا
چھٹسی
چھٹہ
چھٹی
چھٹے
چھپ
چھپا
چھپاي
چھپدا
چھپدیاں
چھپدے
چھپر
چھپری
چھپن
چھپوا
چھپي
چھپی
چھپیا
چھپیاں
چھپیل
چھپے
چھپݨ
چھڄ
چھڈ
چھڈیا
چھڑ
چھڑا
چھڑوا
چھڑی
چھڑیندے
چھڑے
چھک
چھکا
چھکی
چھکیج
چھکے
چھکݨ
چھی
چھیا
چھیاي
چھیاں
چھینہ
چھیو
چھیواں
چھیویں
چھیڑ
چھیڑو
چھیڑی
چھیڑے
چھیکویں
چھیکڑ
چھیکڑی
چھیں
چھیے
چھے
چھݙ
چھݨ
چہ
چہار
چہارم
چہرا
چہرہ
چہرے
چہنداں
چہندن
چہندے
چہکار
چہیدا
چہیدے
چی
چیاں
چیبھالی
چیت
چیتا
چیتر
چیتی
چیتے
چیخ
چیدہ
چیر
چیرا
چیرمین
چیز
چیزاں
چیزیں
چیف
چیل
چیلنج
چیلہ
چیلے
چیمہ
چین
چیندا
چینداں
چیندن
چیندی
چیندے
چینل
چینلاں
چینلز
چینڑاں
چینی
چیي
چیچنیا
چیچک
چیچہ
چیڑا
چیڑی
چیڑیاں
چیڑیں
چیک
چیکاں
چیکل
چیں
چے
چݨ
چݨا
چݨیا
چݨے
چݨݨ
ڈ
ڈا
ڈات
ڈاج
ڈار
ڈال
ڈالا
ڈالر
ڈالی
ڈالے
ڈان
ڈاند
ڈانس
ڈانگ
ڈاو
ڈاي
ڈاٹ
ڈاڈا
ڈاڈھا
ڈاڈھی
ڈاڈھے
ڈاڈے
ڈاڑھی
ڈاک
ڈاکدار
ڈاکو
ڈاکٹر
ڈاکٹریٹ
ڈاکہ
ڈاں
ڈاھا
ڈاہ
ڈاہر
ڈب
ڈبل
ڈبلیو
ڈبہ
ڈبی
ڈبے
ڈت
ڈتا
ڈتس
ڈتم
ڈتن
ڈتونے
ڈتہ
ڈتی
ڈتیاں
ڈتے
ڈدھ
ڈر
ڈرا
ڈراما
ڈراماي
ڈرامہ
ڈرامیاں
ڈرامے
ڈراي
ڈردا
ڈردن
ڈردی
ڈردے
ڈرنگ
ڈرو
ڈري
ڈریا
ڈریندن
ڈریے
ڈرے
ڈس
ڈسا
ڈساو
ڈساوے
ڈساي
ڈساں
ڈسایا
ڈسدا
ڈسدن
ڈسدي
ڈسدی
ڈسدے
ڈسن
ڈسنڑ
ڈسو
ڈسوں
ڈسي
ڈسٹرکٹ
ڈسپنسریاں
ڈسکس
ڈسکورس
ڈسکوگرافی
ڈسی
ڈسیا
ڈسیندا
ڈسیندن
ڈسیندی
ڈسیندے
ڈسے
ڈش
ڈل
ڈلی
ڈن
ڈند
ڈنمارک
ڈنڈا
ڈنگ
ڈنگر
ڈنگی
ڈهیر
ڈو
ڈوجھا
ڈوجھی
ڈوجھیاں
ڈوجھیں
ڈوجھے
ڈور
ڈورا
ڈوری
ڈول
ڈولی
ڈوم
ڈومیساي
ڈونہاں
ڈونہیں
ڈوي
ڈوچار
ڈوڑا
ڈوگر
ڈوں
ڈوھڑہ
ڈوھڑے
ڈوھیں
ڈوہ
ڈوہاي
ڈوہاں
ڈوہڑا
ڈوہڑہ
ڈوہڑے
ڈوہیں
ڈویلپمنٹ
ڈویژن
ڈيسٹراي
ڈٹ
ڈٹھا
ڈٹھم
ڈٹھی
ڈٹھیاں
ڈٹھے
ڈٹے
ڈپٹی
ڈڈا
ڈڈھ
ڈڈھپ
ڈک
ڈکار
ڈکشن
ڈکشنری
ڈکشنریاں
ڈکھ
ڈکھا
ڈکھارے
ڈکھالی
ڈکھاو
ڈکھاوے
ڈکھاي
ڈکھاں
ڈکھایا
ڈکھڑاں
ڈکھڑے
ڈکھیندا
ڈکھیندے
ڈکھیں
ڈکیتی
ڈگری
ڈگریاں
ڈھ
ڈھا
ڈھاسوں
ڈھال
ڈھالہ
ڈھالݨ
ڈھاندی
ڈھاندے
ڈھانچہ
ڈھانچے
ڈھانڈلہ
ڈھانڈھا
ڈھاوے
ڈھاي
ڈھاڈھی
ڈھاک
ڈھاکہ
ڈھاہ
ڈھل
ڈھلا
ڈھلدا
ڈھلدی
ڈھلدے
ڈھلی
ڈھلے
ڈھم
ڈھمکݨیں
ڈھنگ
ڈھو
ڈھور
ڈھول
ڈھولا
ڈھولن
ڈھولنڑ
ڈھولک
ڈھولے
ڈھولݨ
ڈھولݨاں
ڈھوک
ڈھي
ڈھپ
ڈھڈ
ڈھڈھ
ڈھڈیال
ڈھڑا
ڈھڑی
ڈھڑیاں
ڈھڑے
ڈھک
ڈھکی
ڈھکے
ڈھگ
ڈھڳ
ڈھڳی
ڈھہ
ڈھہا
ڈھہہ
ڈھہݨ
ڈھی
ڈھیر
ڈھیری
ڈھینگری
ڈھے
ڈہاڑی
ڈہاکے
ڈہدا
ڈہدی
ڈہدیں
ڈہدے
ڈی
ڈیاں
ڈیجیٹل
ڈیدھا
ڈیدھے
ڈیرا
ڈیروی
ڈیرہ
ڈیری
ڈیرے
ڈیزاي
ڈیس
ڈیساں
ڈیسن
ڈیسو
ڈیسوں
ڈیسک
ڈیسی
ڈیسے
ڈیل
ڈیلر
ڈیلٹا
ڈیلی
ڈیم
ڈیمانڈ
ڈیمو
ڈیموکریٹک
ڈیموگرافی
ڈین
ڈیند
ڈیندا
ڈینداں
ڈیندن
ڈیندو
ڈیندوں
ڈیندی
ڈیندیاں
ڈیندیں
ڈیندے
ڈینش
ڈینونڑ
ڈینڑ
ڈینھ
ڈینھہ
ڈینہ
ڈینہاں
ڈینہوار
ڈینہواراں
ڈینہہ
ڈینہیں
ڈیو
ڈیوا
ڈیواي
ڈیواں
ڈیوایا
ڈیوس
ڈیون
ڈیوناں
ڈیونڑ
ڈیونڑیں
ڈیونڑے
ڈیونی
ڈیوو
ڈیووں
ڈیووے
ڈیوٹی
ڈیوڈ
ڈیوں
ڈیویجے
ڈیویلپمنٹ
ڈیویندے
ڈیویں
ڈیوے
ڈیوݨ
ڈیوݨی
ڈیي
ڈیٹا
ڈیٹابیس
ڈیٹھا
ڈیٹھی
ڈیٹھے
ڈیپارٹمنٹ
ڈیڈر
ڈیڈھ
ڈیکهو
ڈیکهوں
ڈیکھ
ڈیکھا
ڈیکھاي
ڈیکھاں
ڈیکھدا
ڈیکھدے
ڈیکھسو
ڈیکھن
ڈیکھنڑ
ڈیکھو
ڈیکھوں
ڈیکھیں
ڈیکھے
ڈیکھݨ
ڈیں
ڈیھداں
ڈیہاڑے
ڈیہاں
ڈیہدا
ڈیہدن
ڈیہدے
ڈیہنہ
ڈے
ڊ
ڊا
ڊاند
ڊوا
ڊوں
ڊہ
ڊی
ڊیپال
ڊے
ڋوہیں
ڋیندے
ڋینہہ
ڋیکھ
ڏ
ڑ
ڑا
ڑاند
ڑاں
ڑت
ڑدا
ڑدو
ڑدی
ڑدے
ڑن
ڑو
ڑون
ڑي
ڑپاي
ڑک
ڑکا
ڑکاں
ڑکی
ڑکݨ
ڑھ
ڑھدی
ڑھدے
ڑھیسن
ڑہ
ڑی
ڑیا
ڑیاں
ڑیندا
ڑیندے
ڑیں
ڑے
ڑݨ
ژ
ک
کا
کابل
کابینہ
کات
کاتب
کاتی
کاتیاں
کاج
کاخہاي
کادمی
کار
کارا
کاراں
کاربن
کاربین
کارخانے
کاردار
کاررواي
کارزار
کارل
کارلو
کارن
کارنامہ
کارنامیاں
کارنامے
کاروان
کارواي
کارواں
کاروبار
کاروباری
کارونجھر
کارٹون
کارپوریشن
کارپوریٹ
کارڈ
کارکردگی
کارکن
کارکنان
کارکناں
کارکنیں
کارہ
کارہاي
کاری
کاریاں
کاریگر
کاریگراں
کاریں
کارے
کارݨ
کاز
کازیور
کاسبو
کاسٹ
کاسٹر
کاسہ
کاسے
کاش
کاشت
کاشتکار
کاشتکاراں
کاشتکاری
کاشف
کاشمیری
کاشی
کاظم
کاظمی
کاغذ
کاغذی
کاف
کافر
کافراں
کافی
کافیاں
کافیں
کال
کالا
کالاباغ
کالاں
کالج
کالجاں
کالجز
کالر
کالم
کالموں
کالو
کالوناي
کالوني
کالونی
کالونیاں
کالڑی
کالکڑچھی
کالی
کالیاں
کالیگولا
کالے
کام
کامران
کامرس
کامریڈ
کامل
کاملہ
کامی
کامیاب
کامیابی
کامیابیاں
کامیڈی
کان
کانا
کاناں
کانجو
کاندھی
کانسن
کانسٹیبل
کانفرس
کانفرنس
کانفرنساں
کانواں
کانویں
کانٹیو
کانٹے
کانپور
کانڈھا
کانڑ
کانڑاں
کانڑیں
کانگ
کانگا
کانگریس
کانگریسی
کانگے
کانہہ
کانی
کانے
کاو
کاواں
کاوش
کاوشاں
کاوڑ
کاوݨ
کاي
کاٸنی
کاٹ
کاٹن
کاٹھ
کاٹھی
کاپی
کاپیاں
کاچھو
کاک
کاکا
کاکے
کاگا
کاں
کاہل
کاہیں
کایا
کایي
کاݨ
کاݨا
کاݨاں
کاݨی
کاݨے
کب
کباب
کبار
کبر
کبری
کبوتر
کبوتری
کبڈی
کبھی
کبیر
کت
کتا
کتاب
کتاباں
کتابت
کتابوں
کتابچہ
کتابچے
کتابی
کتابیات
کتابیں
کتب
کتبہ
کتبیاں
کتبے
کتلا
کتلی
کتلے
کتنا
کتناں
کتنی
کتنیاں
کتنے
کتواں
کتوں
کتي
کتھ
کتھا
کتھاو
کتھاي
کتھاں
کتھاہیں
کتھو
کتھوں
کتھي
کتھے
کتی
کتیاں
کتیر
کتیراں
کتیں
کتیے
کتے
کتݨے
کثافت
کثرت
کثیر
کج
کجا
کجل
کجلا
کجلے
کجه
کجهه
کجھ
کد
کدا
کداي
کدن
کدو
کدورت
کدہ
کدی
کدیاں
کدیں
کدے
کر
کرا
کراس
کرافٹ
کرام
کرامات
کرامت
کرانوݨ
کرانہ
کرانہیں
کراو
کراون
کراونڑ
کراوے
کراوݨ
کراي
کراچی
کراڑ
کراڑا
کراڑاں
کراڑو
کراں
کراھیں
کراہ
کراہیں
کراہے
کرایا
کرایہ
کرب
کربل
کربلا
کربلاي
کرت
کرتا
کرتوت
کرتی
کرتے
کرخت
کرختا
کرد
کردا
کردار
کرداراں
کرداریں
کردند
کرده
کردہ
کردی
کردے
کررڑ
کرز
کرزن
کرساں
کرسٹوفر
کرسچن
کرسگدے
کرسڳدے
کرسی
کرسیاں
کرشمہ
کرشن
کرشنا
کرلاندی
کرلاندے
کرلاٹ
کرم
کرمان
کرمانی
کرماں
کرن
کرنا
کرناٹک
کرناٹکی
کرناں
کرنتھیوں
کرنسی
کرنل
کرنٹ
کرنڑ
کرنڑا
کرنڑاں
کرنڑی
کرنڑیں
کرنڑے
کرنی
کرنے
کرو
کروا
کرواوݨ
کرواي
کروایا
کرودھ
کرور
کرونا
کرونیکل
کروڑ
کروڑاں
کروڑروپے
کروں
کروہ
کروی
کرویساں
کرویندا
کرویندن
کرویندی
کرویندے
کري
کرپشن
کرپٹ
کرڈتا
کرڈتی
کرڈتے
کرڑی
کرڑیں
کرکٹ
کرکٹر
کرکیں
کرکے
کرگي
کرگھدا
کرگھدس
کرگھدی
کرہ
کری
کریاں
کریج
کریجو
کریجے
کریر
کریس
کریساں
کریسن
کریسو
کریسوں
کریسی
کریسیں
کریسے
کریم
کرین
کریناں
کریند
کریندا
کرینداں
کریندن
کریندو
کریندوں
کریندي
کریندی
کریندیاں
کریندین
کریندیں
کریندے
کرینہہ
کریي
کریٹ
کریٹک
کریڄے
کریڈٹ
کریں
کریہہ
کریے
کرے
کرݙتا
کرݙتی
کرݙتے
کرݙیندے
کرݙے
کرݨ
کرݨا
کرݨاں
کرݨی
کرݨے
کزل
کس
کسان
کساناں
کساي
کسب
کسدے
کسر
کسری
کسفورڈ
کسوٹی
کسی
کسیجن
کسے
کش
کشالے
کشاں
کشتی
کشتیاں
کشتیوں
کشش
کشف
کشفی
کشمور
کشمکش
کشمیر
کشمیری
کشمیریاں
کشن
کشور
کشکول
کشی
کشید
کشیدگی
کشے
کعب
کعبہ
کعبے
کـراں
کــر
کفار
کفالت
کفایت
کفر
کفن
کفنی
کل
کلا
کلاب
کلاتمک
کلار
کلاس
کلاساں
کلاسرا
کلاسرہ
کلاسیک
کلاسیکل
کلاسیکی
کلاشنکوف
کلام
کلامی
کلانچوی
کلاو
کلاي
کلاچی
کلاں
کلب
کلبی
کلتھوں
کلثوم
کلدے
کلر
کلرک
کلمات
کلماں
کلمہ
کلمے
کلو
کلورکوٹ
کلومیٹر
کلونیل
کلپ
کلپنا
کلچر
کلچرل
کلک
کلکتہ
کلھ
کلھا
کلھڑ
کلھڑی
کلھی
کلھیپے
کلھے
کلہا
کلہوڑا
کلہوڑو
کلہوڑیاں
کلہپ
کلہی
کلہیپا
کلہیپے
کلہیں
کلہے
کلی
کلیات
کلیار
کلیاں
کلیجا
کلیجہ
کلیدی
کلیسا
کلیسیا
کلیم
کلینڈر
کلینک
کلیہ
کلے
کلݨ
کم
کما
کمار
کمارے
کمال
کمالات
کمالیہ
کمان
کمانڈر
کماو
کماوݨ
کماي
کماں
کمایا
کمبل
کمبهار
کمبوہ
کمبھار
کمتر
کمتری
کمر
کمرشل
کمرہ
کمریاں
کمرے
کمزور
کمزوری
کمسن
کمشنر
کملا
کملی
کملے
کمنٹ
کمنٹس
کمنگراں
کمپلیکس
کمپنی
کمپنیاں
کمپوز
کمپوزر
کمپوزنگ
کمپوزیشن
کمپي
کمپین
کمپیوٹر
کمپیوٹراں
کمپیوٹنگ
کمپیي
کمک
کمھار
کمی
کمیشن
کمیل
کمین
کمینہ
کمیونسٹ
کمیونٹی
کمیونیکیشن
کمیٹی
کمیں
کن
کنا
کنارا
کنارہ
کناری
کناریاں
کناریں
کنارے
کنال
کنالی
کنانہ
کناي
کناں
کنایہ
کنبدا
کنبدے
کنبھار
کنبہ
کنتے
کنجیاں
کند
کندن
کندھ
کندھاں
کندھلی
کندھی
کندھیاں
کندہ
کندی
کندیاں
کنز
کنسرٹ
کنسٹرکشن
کنعان
کنفیوشس
کنو
کنوار
کنوارہ
کنواری
کنوارے
کنول
کنون
کنونشن
کنوں
کنویں
کنٹرول
کنٹھ
کنڄری
کنڈ
کنڈا
کنڈو
کنڈھ
کنڈی
کنڈیاں
کنڈیتا
کنڈیکٹر
کنڈے
کنڑ
کنڑوں
کنڑک
کنڑکاں
کنکشن
کنگ
کنگال
کنگرانی
کنگن
کنگھی
کنھاں
کنھیں
کنہاں
کنہوں
کنی
کنیت
کنیز
کنین
کنیڈا
کنیں
کنے
کنݙ
کنݙے
که
کهل
کهمبا
کهڑ
کهڑن
کهڑے
کهیا
کو
کوا
کوارٹر
کوال
کواي
کواکب
کوتاہی
کوتاہیاں
کوتاہیں
کوثر
کوجھا
کوجھی
کوجھے
کور
کوراي
کورس
کورونا
کورٹ
کوریا
کوریجہ
کوس
کوسٹاریکا
کوش
کوشاں
کوشت
کوشد
کوشس
کوشش
کوششاں
کوفہ
کوفی
کوفے
کول
کولا
کولمبس
کولمبیا
کولو
کولوں
کولھ
کولھو
کولھوں
کولہوں
کولے
کومل
کومنینوس
کون
کونج
کونجاں
کونجیں
کونسل
کونسلاں
کونسلر
کونڑ
کونی
کونین
کونے
کوي
کوٸی
کوٹ
کوٹا
کوٹلہ
کوٹلی
کوٹھا
کوٹھڑا
کوٹھی
کوٹھیاں
کوٹھے
کوٹہ
کوپر
کوپن
کوچ
کوچک
کوچہ
کوڈ
کوڈی
کوڑ
کوڑا
کوڑھ
کوڑی
کوڑیاں
کوڑیج
کوڑے
کوک
کوکب
کوکڑی
کوں
کوڻ
کوہ
کوہاٹ
کوہاٹی
کوہترا
کوہستان
کوہستانی
کوی
کویت
کویتا
کویلی
کویلیاں
کویلے
کوݙی
کوݨ
کي
کٹ
کٹا
کٹاي
کٹر
کٹورہ
کٹورے
کٹوی
کٹویں
کٹپال
کٹھ
کٹھا
کٹھاں
کٹھہ
کٹھی
کٹھیاں
کٹھے
کٹی
کٹیاں
کٹیج
کٹیندا
کٹیندے
کٹے
کپ
کپاس
کپاہ
کپتان
کپنڑ
کپور
کپڑا
کپڑیاں
کپڑیں
کپڑے
کپی
کپیندے
کپے
کڃھ
کڄ
کڄھ
کچ
کچا
کچاری
کچالو
کچاوا
کچاوے
کچاہری
کچرا
کچل
کچلݨ
کچن
کچنال
کچوچ
کچکول
کچھ
کچھی
کچھݨ
کچہ
کچہری
کچی
کچیاں
کچے
کڈ
کڈا
کڈانہہ
کڈانہیں
کڈاں
کڈاھیں
کڈاہیں
کڈن
کڈنڑ
کڈهدی
کڈھ
کڈھا
کڈھاي
کڈھاں
کڈھدے
کڈھن
کڈھنڑ
کڈھو
کڈھي
کڈھی
کڈھیا
کڈھین
کڈھیندا
کڈھیندے
کڈھیں
کڈھے
کڈھݨ
کڈی
کڑ
کڑا
کڑاي
کڑاک
کڑاں
کڑبانگ
کڑچھی
کڑکدی
کڑی
کڑیاں
کڑیں
کڑیے
کڑے
کک
ککر
ککراں
ککری
ککڑ
ککڑا
ککڑیں
ککھ
ککھاں
ککھیں
کھ
کھا
کھاتہ
کھاتے
کھاج
کھاد
کھادا
کھادھا
کھادی
کھادے
کھار
کھارا
کھاری
کھاریاں
کھارے
کھاسی
کھالہ
کھالی
کھالے
کھان
کھانا
کھانج
کھاندا
کھاندن
کھاندی
کھاندیاں
کھاندے
کھانونڑ
کھانویں
کھانوݨ
کھانڈ
کھانے
کھاو
کھاون
کھاونڑ
کھاوے
کھاوݨ
کھاي
کھاٹی
کھاڑا
کھاکھی
کھاں
کھایا
کھاݨ
کھاݨا
کھاݨاں
کھاݨیاں
کھاݨیں
کھاݨے
کھبے
کھت
کھتاں
کھتر
کھتران
کھتی
کھتے
کھجور
کھجوراں
کھجی
کھجیاں
کھجیں
کھد
کھدا
کھداي
کھدن
کھدی
کھدے
کھر
کھرا
کھراج
کھراݨہ
کھرب
کھرل
کھرلاں
کھرپ
کھری
کھریاں
کھرے
کھس
کھساں
کھسن
کھسو
کھسوں
کھسہ
کھسی
کھسیج
کھسݨ
کھل
کھلا
کھلاي
کھلاڑی
کھلدا
کھلدن
کھلدی
کھلدیں
کھلدے
کھلسن
کھلسی
کھلم
کھلنڑ
کھلو
کھلونا
کھلي
کھلی
کھلیا
کھلیندے
کھلے
کھلݨ
کھمب
کھمبھور
کھمبیاں
کھمدا
کھمنڑ
کھمݨ
کھن
کھنا
کھنب
کھندے
کھنڈ
کھنڈا
کھنڈر
کھنڈوا
کھنڈی
کھنڈیاں
کھنڈے
کھنڑ
کھنگ
کھنگورا
کھو
کھوا
کھوار
کھواو
کھواي
کھوایا
کھوتا
کھوتی
کھوتے
کھوج
کھوسہ
کھول
کھولا
کھولن
کھولنڑ
کھولو
کھولی
کھولیا
کھولے
کھولݨ
کھوي
کھوٹ
کھوٹا
کھوٹی
کھوٹے
کھوڑ
کھوڑا
کھوکھر
کھوکھلی
کھوں
کھوہ
کھوہیں
کھویندا
کھویندے
کھي
کھٹ
کھٹا
کھٹاں
کھٹڑا
کھٹڑے
کھٹی
کھٹیا
کھٹݨ
کھٻی
کھٻے
کھپ
کھپا
کھچی
کھڈی
کھڑ
کھڑا
کھڑاي
کھڑاں
کھڑدا
کھڑدن
کھڑدے
کھڑن
کھڑو
کھڑوں
کھڑي
کھڑک
کھڑکار
کھڑکاي
کھڑکایا
کھڑکی
کھڑکیاں
کھڑی
کھڑیاں
کھڑین
کھڑیندوں
کھڑیں
کھڑے
کھڑݨ
کھکھ
کھی
کھیا
کھیاویندے
کھیاں
کھیت
کھیتاں
کھیتران
کھیترانی
کھیتراݨ
کھیتراݨی
کھیتی
کھیر
کھیرنی
کھیس
کھیسے
کھیل
کھیم
کھین
کھیندن
کھیندی
کھیندے
کھینڈو
کھیوس
کھیي
کھیپ
کھیڈ
کھیڈاں
کھیڈدا
کھیڈدوں
کھیڈدے
کھیڈن
کھیڈیا
کھیڈے
کھیڈݨ
کھیڑا
کھیڑی
کھیڑے
کھیکھڑے
کھیں
کھیے
کھیݙ
کھیݙا
کھیݙاں
کھیݙدا
کھیݙدن
کھیݙدی
کھیݙدے
کھیݙسن
کھیݙسی
کھیݙن
کھیݙی
کھیݙیا
کھیݙے
کھیݙݨ
کھے
کھےا
کھݙ
کھݙاری
کھݙکار
کھݙکاراں
کھݙے
کھݨ
کھݨا
کھݨاں
کہ
کہا
کہار
کہانٹری
کہانڑی
کہانی
کہانیاں
کہاوت
کہاوتاں
کہاڑا
کہاڑی
کہاں
کہاݨی
کہاݨیاں
کہاݨیں
کہتا
کہتر
کہتے
کہرام
کہروڑ
کہلاتا
کہلاتے
کہنہ
کہون
کہونی
کہوں
کہي
کہڑا
کہڑی
کہڑے
کہکشاں
کہں
کہہ
کہی
کہیاں
کہیری
کہین
کہیں
کہیںوی
کہے
کی
کیا
کیاتھیسی
کیانی
کیاں
کیبل
کیت
کیتا
کیتاي
کیتاڳي
کیتاڳیا
کیتاں
کیتس
کیتلا
کیتلی
کیتلے
کیتم
کیتن
کیتو
کیتوس
کیتوسے
کیتونے
کیتي
کیتھاي
کیتھاں
کیتھولک
کیتھیڈرل
کیتی
کیتیاں
کیتین
کیتیں
کیتے
کیجھا
کیجھاں
کیجھي
کیجھی
کیجھیں
کیجھے
کیدو
کیر
کیرا
کیرالی
کیري
کیرھا
کیرھی
کیرھے
کیری
کیرینیہ
کیریي
کیس
کیسر
کیسٹ
کیسے
کیش
کیشنز
کیشننز
کیشو
کیشے
کیف
کیفی
کیفیات
کیفیت
کیفے
کیل
کیلنڈر
کیلي
کیلی
کیلیفورنیا
کیلے
کیمبرج
کیمرا
کیمرہ
کیمرے
کیمسٹری
کیموفلاج
کیمونسٹ
کیمپ
کیمپس
کیمیا
کیمیاء
کیمیاي
کین
کینا
کینات
کینال
کیناں
کینجھا
کینجھر
کینجھی
کینجھے
کیندا
کیندی
کیندیاں
کیندیں
کیندے
کینسر
کینوس
کینوں
کینویں
کینوے
کینکوں
کینھی
کینہ
کینہاں
کینی
کینیا
کینیڈا
کیو
کیون
کیونجو
کیونکہ
کیوں
کیویں
کیوے
کیي
کیٹ
کیپ
کیپٹن
کیچ
کیڈ
کیڈا
کیڈی
کیڈے
کیڑا
کیڑھا
کیڑھی
کیڑھیاں
کیڑھے
کیڑی
کیڑے
کیک
کیکر
کیکوں
کیں
کیہ
کیہاں
کیہل
کیہڑا
کیہڑی
کیہڑے
کیہہ
کیہی
کیے
کیݙا
کیݙے
کے
کےا
کݙان
کݙانہہ
کݙاي
کݙاں
کݙاھیں
کݙاہیں
کݙوں
کݙھ
کݙھی
کݙھیا
کݙہ
کݙہي
کݙہیں
کݙی
کݙیں
کݙݨ
کݨ
کݨک
کݨیاں
ڪ
گ
گا
گابے
گاج
گاجاں
گاجر
گاجراں
گار
گارا
گارڈ
گارے
گال
گالھ
گالھا
گالھوں
گالھي
گالھڑ
گالھی
گالھیں
گالھے
گالہ
گالہوں
گالہہ
گالہیں
گالی
گالیاں
گاما
گامزن
گانا
گاندا
گاندھی
گاندی
گاندے
گانمن
گانموں
گانمݨ
گانڈھا
گانگا
گانے
گاو
گاون
گاونڑ
گاوݨ
گاي
گاٹے
گاڈ
گاڈی
گاڈے
گاں
گاہ
گاہل
گاہواں
گاہی
گایا
گاݙی
گاݙیں
گبول
گبھرو
گت
گتی
گتے
گج
گجر
گجرات
گجراتی
گجرے
گد
گدا
گداز
گداي
گدڑ
گدھا
گدی
گدے
گذار
گذارن
گذاری
گذر
گذردا
گذردے
گذری
گذریل
گذریے
گذرے
گذرݨ
گذشتہ
گر
گرا
گراف
گرافر
گرافک
گرافی
گرام
گرامر
گرامی
گرانٹ
گرانہہ
گراو
گراي
گراں
گراہم
گرج
گرجا
گرد
گردان
گرداں
گردش
گردن
گردناں
گردی
گردیز
گردیزی
گردے
گرفت
گرفتار
گرفتاری
گرل
گرلز
گرم
گرما
گرمان
گرمانی
گرماݨی
گرمی
گرمیاں
گرمیں
گرنتھ
گرو
گرواں
گروپ
گروپاں
گروپس
گروہ
گروہاں
گروی
گرڈ
گرہ
گرہن
گری
گریبان
گریجوایشن
گریجوایٹ
گریجویشن
گریجویٹ
گریجویٹس
گریرسن
گریز
گریس
گریسن
گرین
گرینڈ
گریي
گریٹ
گریٹر
گریڈ
گریڑے
گرے
گز
گزار
گزارا
گزاراں
گزارش
گزارن
گزاروں
گزارہ
گزاری
گزاریا
گزارے
گزارݨ
گزر
گزرا
گزران
گزردا
گزردی
گزردے
گزرن
گزرگاہ
گزری
گزریا
گزریل
گزرین
گزریندا
گزریندے
گزریے
گزرے
گزرݨ
گزشتہ
گزیزی
گزین
گزیٹر
گزیں
گس
گستاخ
گستاخی
گستان
گسٹس
گشت
گشکوری
گفتار
گفتگو
گفٹ
گل
گلا
گلاب
گلابی
گلاس
گلانواں
گلاں
گلدستہ
گلزار
گلستان
گلشن
گلو
گلوبل
گلوکار
گلوکاراں
گلوکارہ
گلوکاری
گلوکاریں
گلوں
گلڈ
گلکرسٹ
گلکڑی
گلگت
گلہ
گلی
گلیانڑیں
گلیاں
گلیمر
گلیں
گلے
گم
گمان
گمانی
گماݨی
گمراہ
گمراہی
گمشدہ
گمنام
گن
گنا
گنان
گناں
گناہ
گناہاں
گناہواں
گناہیں
گنبد
گنتری
گنتی
گنج
گنجا
گنجان
گنجاي
گنجو
گنجی
گنجیال
گند
گندا
گندم
گندمی
گندھوا
گندھک
گندی
گندیاں
گندے
گنوری
گنویری
گنڈاسہ
گنڈھ
گنڈھڑی
گنڈھیا
گنڈھیں
گنڑ
گنگ
گنگا
گنگوفسکی
گنگے
گنہگار
گنی
گنے
گهر
گهن
گو
گوا
گوادر
گوارا
گوارہ
گوالیار
گواہ
گواہی
گوتم
گوجر
گوجرانوالا
گوجرانوالہ
گودا
گودام
گودڑی
گودیں
گودے
گور
گورا
گورستان
گورمانی
گورنر
گورنری
گورنمنٹ
گورنمٹ
گورچانی
گورچاݨی
گورڈن
گورکھ
گورکھپور
گوری
گوریاں
گوریلا
گورے
گوش
گوشت
گوشہ
گوشے
گول
گولا
گولن
گولنڑ
گولو
گولوں
گولڈ
گولڈن
گولڑہ
گولکنڈہ
گولہ
گولی
گولیاں
گولیندا
گولیندے
گولے
گومل
گون
گونج
گوندل
گونگا
گونگی
گونگیاں
گونگے
گوي
گوٹھ
گوپانگ
گوپی
گوپے
گوڈے
گوڑھا
گوڑھی
گوڑے
گوگل
گوگی
گوگیرہ
گوں
گوہ
گوہر
گویا
گویڑ
گوݙیں
گي
گيا
گٹھ
گپ
گپت
گچ
گچھا
گچی
گڈ
گڈا
گڈاں
گڈواں
گڈوں
گڈی
گڈیاں
گڑ
گڑبڑ
گڑدھال
گڑھ
گڑھی
گھ
گھا
گھات
گھار
گھارا
گھاس
گھانڑ
گھاٹ
گھاٹا
گھاٹی
گھاٹیاں
گھاٹے
گھاٻوٹ
گھاگھرا
گھاہ
گھاݨ
گھاݨی
گھب
گھبرا
گھبراندے
گھبراي
گھبرو
گھت
گھتاون
گھتدے
گھتی
گھتیا
گھتیے
گھتے
گھد
گھدا
گھدس
گھدن
گھدی
گھدیاں
گھدے
گھر
گھرا
گھرانہ
گھرانے
گھراں
گھراݨے
گھرو
گھروڳی
گھروڳے
گھروں
گھری
گھریلو
گھریں
گھس
گھل
گھلو
گھلی
گھلیجہ
گھلے
گھم
گھمبیر
گھمدا
گھمدی
گھمدے
گھمر
گھمسان
گھمی
گھمیندا
گھن
گھنا
گھناوݨ
گھناي
گھناں
گھنایا
گھنجیڑا
گھند
گھندا
گھنداں
گھندن
گھندوں
گھندی
گھندیاں
گھندیں
گھندے
گھنساں
گھنسن
گھنسو
گھنسوں
گھنسی
گھنسیں
گھنن
گھننڑ
گھنو
گھنوں
گھنٹہ
گھنٹیاں
گھنٹے
گھنڈ
گھنڑ
گھنڑاں
گھنڑے
گھنگرو
گھنگھرو
گھنیجے
گھنیں
گھنے
گھنݨ
گھنݨا
گھنݨاں
گھنݨتوں
گھنݨی
گھو
گھور
گھوش
گھول
گھولی
گھولے
گھوٹ
گھوٹکی
گھوٹیہ
گھوڑ
گھوڑا
گھوڑی
گھوڑیاں
گھوڑیں
گھوڑے
گھوگھو
گھي
گھٹ
گھٹا
گھٹاوݨ
گھٹاي
گھٹی
گھٹیا
گھپ
گھچی
گھڑ
گھڑا
گھڑت
گھڑتو
گھڑولی
گھڑی
گھڑیاں
گھڑے
گھگھر
گھی
گھیبی
گھیر
گھیرا
گھیرولی
گھیرے
گھیل
گھینو
گھیو
گھیگ
گھݨ
گہرا
گہراي
گہری
گہرے
گہنور
گہوارہ
گہی
گی
گیا
گیارہ
گیان
گیاي
گیاں
گیت
گیتا
گیتاں
گیتیں
گیدڑ
گیدھا
گیدھی
گیدھے
گیر
گیری
گیرے
گیس
گیسٹ
گیلانی
گیلری
گیم
گین
گیو
گیوسے
گیوم
گیوں
گیي
گیٹ
گیٹوراي
گیڑ
گیکي
گیے
گے
گݙ
گݙی
گݙیاں
گݨ
ڱ
ڳ
ڳا
ڳاء
ڳادھی
ڳال
ڳالھ
ڳالھا
ڳالھوں
ڳالھی
ڳالھیاں
ڳالھیں
ڳالھے
ڳالہوں
ڳالہہ
ڳالہیاں
ڳالہیں
ڳالی
ڳان
ڳانا
ڳاناں
ڳاندا
ڳاندھی
ڳاندے
ڳانوݨ
ڳانڈھا
ڳانڈھے
ڳانی
ڳانے
ڳاوا
ڳاوے
ڳاوݨ
ڳاي
ڳاں
ڳاہ
ڳاہـݨـے
ڳاہلڑ
ڳاہی
ڳاہݨے
ڳایا
ڳاݙی
ڳاݨا
ڳاݨاں
ڳاݨیاں
ڳاݨے
ڳبھرو
ڳدا
ڳدی
ڳدے
ڳل
ڳلا
ڳلاں
ڳلی
ڳلیاں
ڳلیں
ڳلے
ڳم
ڳن
ڳنا
ڳنڈھ
ڳنڈھوکڑی
ڳنڈھی
ڳنڈھیا
ڳنڈھیری
ڳنڈھیں
ڳنڈھݨ
ڳنے
ڳو
ڳوبھی
ڳوتھاں
ڳوجھی
ڳول
ڳولو
ڳولوں
ڳولین
ڳولیندے
ڳولیے
ڳولے
ڳولݨ
ڳوي
ڳوٹا
ڳوٹھ
ڳوٹیاں
ڳوڑھا
ڳوڑھی
ڳوڑھے
ڳوں
ڳوہ
ڳوہا
ڳوہے
ڳویڑ
ڳوݙا
ڳي
ڳيا
ڳٹ
ڳٹا
ڳٹکاں
ڳٹھ
ڳچی
ڳڑ
ڳڑا
ڳڑھ
ڳڑھی
ڳڑی
ڳڑے
ڳھبرو
ڳھن
ڳھٹ
ڳہݨے
ڳی
ڳیا
ڳیاء
ڳیاـ
ڳیاں
ڳیت
ڳیرا
ڳیرے
ڳیم
ڳین
ڳیوسے
ڳیوں
ڳیي
ڳیٹے
ڳیے
ڳیݨ
ڳے
ڳݨ
ڳݨت
ڳݨتری
ڳݨتڑی
ڳݨدے
ڳݨی
ڳݨیا
ڳݨیے
ڳݨے
ں
ڻ
ھ
ھا
ھار
ھاری
ھاسے
ھال
ھالی
ھامی
ھانویں
ھانی
ھاو
ھاوس
ھاوی
ھاوے
ھاي
ھاں
ھب
ھبکار
ھت
ھتھ
ھتھوں
ھج
ھجر
ھجری
ھد
ھدا
ھداں
ھدایت
ھدن
ھدی
ھدے
ھر
ھرا
ھران
ھراواں
ھرتی
ھردا
ھردیاں
ھردے
ھرم
ھرک
ھرکݨ
ھری
ھرݨ
ھزار
ھزاراں
ھس
ھسہ
ھسی
ھشام
ھل
ھلا
ھلاي
ھلاں
ھلدا
ھلدی
ھلدیاں
ھلدے
ھلی
ھلیا
ھلیاں
ھلیں
ھلے
ھلݨ
ھم
ھمبن
ھمبھ
ھمت
ھمر
ھمراں
ھمزہ
ھمیش
ھن
ھنا
ھناں
ھنج
ھنجوں
ھند
ھندی
ھندے
ھنسیں
ھنو
ھنڈ
ھنڈیاں
ھنڑ
ھنگ
ھنی
ھنے
ھنݨ
ھو
ھوا
ھوت
ھوتا
ھور
ھوراں
ھوریں
ھوسن
ھوسی
ھوسے
ھوش
ھول
ھولا
ھولیں
ھولے
ھوم
ھوندا
ھوندن
ھوندي
ھوندی
ھوندیاں
ھوندے
ھونریں
ھونون
ھوو
ھووس
ھوون
ھوونڑ
ھووی
ھوویں
ھووے
ھووݨ
ھوي
ھوٹل
ھوڑ
ھوڑی
ھوڑے
ھوک
ھوں
ھوہ
ھویا
ھویں
ھوے
ھي
ھٹ
ھٹا
ھٹنی
ھٹہ
ھٹی
ھٹیاں
ھٹے
ھٹݨ
ھٻ
ھپ
ھپیا
ھڄ
ھڈ
ھڈھ
ھڑ
ھڑا
ھڑاند
ھڑک
ھڑی
ھک
ھکا
ھکو
ھکی
ھکے
ھکݨ
ھگ
ھگا
ھگانڑی
ھڳ
ھڳے
ھی
ھیا
ھیاں
ھیر
ھیریں
ھیسی
ھیسے
ھیل
ھین
ھیندا
ھیندی
ھیندے
ھیو
ھیوے
ھیوݨ
ھیي
ھیڑ
ھیک
ھیں
ھے
ھݙ
ھݙاری
ھݨ
ھݨکاں
ہ
ہا
ہاءوں
ہاب
ہابیل
ہاتاں
ہاتھ
ہاتھوں
ہاتھی
ہاتھیں
ہاتے
ہاجرہ
ہادی
ہار
ہارا
ہارمونیم
ہارورڈ
ہارون
ہارونی
ہارٹ
ہارڈ
ہاری
ہاریاں
ہاریں
ہارے
ہارݨ
ہاسن
ہاسٹل
ہاسی
ہاسے
ہاشم
ہاشمی
ہاـ
ہال
ہالی
ہالیں
ہامی
ہامیں
ہان
ہاندرا
ہاندریں
ہاندرے
ہانس
ہانویں
ہانگ
ہانی
ہانیں
ہانے
ہاو
ہاوس
ہاوں
ہاوی
ہاویں
ہاوے
ہاوݨ
ہاي
ہاڈا
ہاڈی
ہاڑ
ہاڑا
ہاڑے
ہاکوں
ہاکڑا
ہاکڑہ
ہاکڑے
ہاکھڑی
ہاکی
ہاکے
ہاگن
ہاڳ
ہاں
ہاہا
ہای
ہاے
ہاݙا
ہاݙی
ہاݙے
ہاݨے
ہبیرہ
ہت
ہتهیار
ہتک
ہتھ
ہتھاں
ہتھلیاں
ہتھو
ہتھوڑا
ہتھوں
ہتھڑیکے
ہتھکڑی
ہتھیار
ہتھیاراں
ہتھیجی
ہتھیلی
ہتھیکا
ہتھیکے
ہتھیں
ہج
ہجر
ہجرت
ہجری
ہجو
ہجوم
ہجے
ہد
ہدا
ہداي
ہداں
ہدایات
ہدایت
ہدایتکار
ہدف
ہدن
ہدو
ہدی
ہدیاں
ہدیں
ہدے
ہذا
ہذب
ہر
ہرا
ہرات
ہراسانی
ہراساں
ہران
ہراں
ہرایا
ہربرٹ
ہرج
ہرحال
ہردا
ہردی
ہرسال
ہرشي
ہرشے
ہرمل
ہرن
ہرنولی
ہروردی
ہروں
ہروی
ہرٹٻر
ہرکارے
ہرکوي
ہرکہیں
ہرگز
ہرگوبند
ہرہک
ہری
ہریالی
ہریانوی
ہریانہ
ہریاں
ہریاݨہ
ہریرہ
ہریں
ہرے
ہرݨ
ہرݨی
ہزار
ہزاراں
ہزارروپے
ہزاروں
ہزارہ
ہزاری
ہزاریں
ہزارے
ہس
ہستہ
ہستی
ہستیاں
ہستیں
ہسدا
ہسدی
ہسدے
ہسن
ہسٹری
ہسپانوی
ہسپانیہ
ہسپتال
ہسپتالاں
ہسی
ہسے
ہشام
ہـن
ہـے
ہفت
ہفتم
ہفتہ
ہفتیاں
ہفتے
ہل
ہلا
ہلال
ہلاک
ہلاکت
ہلاکو
ہلدا
ہلکا
ہلکی
ہلکے
ہلے
ہم
ہما
ہمارا
ہماری
ہمارے
ہمالیاي
ہمالیہ
ہماچل
ہمایوں
ہمت
ہمدان
ہمدانی
ہمدرد
ہمدردانہ
ہمدردی
ہمراز
ہمراہ
ہمزمان
ہمزہ
ہمساي
ہمسایہ
ہمسفر
ہمشہ
ہمعصر
ہموار
ہمہ
ہمی
ہمیش
ہمیشاں
ہمیشہ
ہمیں
ہن
ہنالے
ہناي
ہناں
ہنبھاہ
ہنج
ہنجو
ہنجواں
ہنجوں
ہنجھ
ہنجھوں
ہند
ہندا
ہندستان
ہندسہ
ہندسیات
ہندسے
ہندو
ہندواں
ہندوستان
ہندوستانی
ہندوستانیاں
ہندومت
ہندکو
ہندکی
ہندہ
ہندی
ہندیاں
ہندے
ہنر
ہنری
ہنس
ہنسا
ہنساں
ہنٹر
ہنڄوں
ہنڈا
ہنڈاي
ہنڈھا
ہنڑ
ہنڑاں
ہنڑے
ہنگ
ہنگامہ
ہنگامی
ہنگامے
ہنگری
ہنگورجو
ہنگی
ہنی
ہنیں
ہنے
ہو
ہوا
ہوازن
ہوانگ
ہواواں
ہواي
ہواڑاں
ہواں
ہوت
ہوتا
ہوتی
ہوتے
ہودہ
ہور
ہوراں
ہوری
ہوریں
ہوز
ہوس
ہوساں
ہوسن
ہوسو
ہوسوں
ہوسٹل
ہوسگدے
ہوسی
ہوسیں
ہوسے
ہوش
ہوشیار
ہوشیاری
ہولا
ہولي
ہولڈر
ہولی
ہولیں
ہولے
ہوم
ہون
ہونا
ہوند
ہوندا
ہونداي
ہوندن
ہوندي
ہوندی
ہوندیاں
ہوندین
ہوندیں
ہوندے
ہونواں
ہونون
ہونویں
ہونٹ
ہونٹاں
ہونٹھاں
ہونڈا
ہونڑ
ہونڑیں
ہونکوں
ہونہار
ہونی
ہونے
ہوو
ہوواں
ہوون
ہوونا
ہووناں
ہوونڑ
ہوونڑی
ہوونی
ہووو
ہووي
ہووں
ہووی
ہوویں
ہووے
ہووݨ
ہووݨا
ہووݨاں
ہووݨی
ہوي
ہوٹل
ہوٹلاں
ہوٹھ
ہوٹھاں
ہوٹھیں
ہوٹے
ہوڑا
ہوک
ہوکا
ہوکوں
ہوکے
ہوگا
ہوگي
ہوگیا
ہوں
ہوی
ہویا
ہویاں
ہویں
ہوے
ہوݨ
ہوݨیں
ہي
ہٸی
ہٹ
ہٹا
ہٹاوݨ
ہٹلر
ہٹک
ہٹکیے
ہٹی
ہٹیاں
ہٹے
ہٹݨ
ہٻڑاس
ہپ
ہڈالی
ہڈسن
ہڈھاویں
ہڈی
ہڈیاں
ہڑ
ہڑا
ہڑبھچ
ہڑتال
ہڑند
ہڑپاي
ہڑپہ
ہڑی
ہڑیلے
ہڑے
ہک
ہکا
ہکل
ہکلاں
ہکلݨ
ہکو
ہکواری
ہکڑو
ہکڑے
ہکی
ہکے
ہہ
ہی
ہیا
ہیبت
ہیت
ہیر
ہیرا
ہیراقلاطیس
ہیراں
ہیرو
ہیروز
ہیروي
ہیروی
ہیرے
ہیسے
ہیل
ہیلتھ
ہیلک
ہیلی
ہین
ہیندا
ہیندی
ہیندے
ہینڑے
ہینی
ہینے
ہیوسٹن
ہیون
ہیوی
ہیویں
ہیوے
ہیي
ہیٹ
ہیٹھ
ہیٹھاں
ہیٹھوں
ہیڈ
ہیڈکوارٹر
ہیک
ہیکٹر
ہیگل
ہیں
ہیہ
ہیی
ہیے
ہیݨا
ہیݨے
ہے
ہےتاں
ہےجو
ہےجیرھا
ہےجینکوں
ہےجیہڑا
ہےـ
ہݙ
ہݙی
ہݙیاں
ہݨ
ہݨپ
ہݨیں
ہݨے
ۃ
ی
یا
یاب
یات
یاترا
یاتری
یاد
یاداشت
یاداں
یادداشت
یادری
یادواشت
یادگار
یادیں
یار
یارا
یاران
یارانے
یاراں
یارخان
یارسول
یارو
یاروں
یارک
یارھاں
یارھواں
یارہاں
یارہویں
یاری
یاریاں
یاریں
یازر
یازمانی
یاسر
یاسمین
یاسین
یاعلی
یافتہ
یاقوت
یانبی
یانگ
یانی
یاوت
یاول
یاي
یاں
یب
یبا
یت
یتا
یتاں
یتی
یتیاں
یتیم
یتے
یثرب
یج
یجان
یجانی
یجھا
یجھی
یجھے
یحی
یحیی
یخ
یخی
ید
یدا
یداد
یدار
یدہ
یدی
یدے
یر
یرا
یراں
یرغمال
یرلی
یرلے
یرمین
یروشلم
یری
یرے
یز
یزد
یزدانی
یزمان
یزید
یزیدی
یزیدیت
یس
یساں
یسن
یسنس
یسوع
یسوں
یسی
یسین
یسے
یش
یشیا
یعقوب
یعقوبی
یعنی
یقین
یقینا
یقینی
یل
یلا
یلاگ
یلاں
یلزم
یلغار
یلی
یلیاں
یلیکٹ
یلے
یم
یمان
یمت
یمتاں
یمن
یمنی
ین
ینا
ینات
یناں
یند
یندا
ینداي
ینداں
یندن
یندہ
یندی
یندیاں
یندین
یندیں
یندے
ینس
ینسی
ینویں
ینک
ینکوں
ینگ
ینھ
ینہ
ینہہ
ینی
ینیں
ینے
یو
یوا
یوال
یوان
یوتھ
یوحنا
یور
یورال
یوراگوي
یورپ
یورپی
یوریشیا
یوس
یوسف
یوسفی
یوسے
یوم
یون
یونان
یونانی
یونانیاں
یوناي
یونس
یونٹ
یونگ
یونہی
یونی
یونیسکو
یونین
یونیورس
یونیورسٹی
یونیورسٹیاں
یونیورسٹیز
یوٹ
یوٹیوب
یوپی
یوڈ
یوکراي
یوکرین
یوگیکارتا
یوں
یویٹ
یویں
یوے
یوݨ
یي
یٹ
یٹڈ
یٹھیں
یٹھے
یٹی
یپھ
یڈ
یڈا
یڈنٹیٹی
یڈی
یڈے
یڑ
یڑا
یڑھ
یک
یکا
یکالوجی
یکاٹ
یکاں
یکتا
یکجا
یکجہتی
یکدم
یکرو
یکروفکشن
یکسانیت
یکساں
یکستان
یکستانی
یکسر
یکل
یکلو
یکلوپیڈیا
یکم
یکو
یکوں
یکھ
یکھن
یکہ
یکی
یکیان
یکیاں
یکیت
یکیو
یکیں
یکے
یکݨ
یگ
یگر
یگی
یں
یھ
یہ
یہا
یہاں
یہو
یہود
یہوداہ
یہودی
یہودیاں
یہودیت
یہہ
یہی
یہیں
یہے
یی
یے
یݙا
یݙے
یݨ
ۍ
ې
ے
ےبہاء
ےتے
ےـ
ےڳي
ےڳیا
ےے
۔
ۖ
ۚ
۝
۞
ۡ
ۭ
۰
۰۱
۰۳
۱
۱۰
۱۰۱
۱۱
۱۱۸
۱۲
۱۳
۱۳۱
۱۴
۱۴۴
۱۵
۱۶
۱۶۵
۱۷
۱۸
۱۸۵۷
۱۸۷۹
۱۸۸۰
۱۸۸۲
۱۸۸۴
۱۹
۱۹۴۴
۱۹۷۱
۱۹۷۶
۱۹۷۹
۱۹۸۲
۱۹۸۵
۱۹۸۶
۱۹۸۷
۱۹۸۹
۱۹۹۱
۱۹۹۲
۱۹۹۵
۱۹۹۶
۱۹۹۷
۱۹۹۸
۲
۲۰
۲۰۰
۲۰۰۱
۲۰۰۲
۲۰۰۳
۲۰۰۴
۲۰۰۶
۲۰۰۷
۲۰۰۹
۲۰۱۰
۲۰۱۲
۲۰۱۴
۲۰۱۶
۲۰۱۹
۲۱
۲۲
۲۳
۲۴
۲۵
۲۶۸
۲۷
۲۸
۲۹
۳
۳۰
۳۱
۳۲
۳۳
۳۷
۳۸
۳۹
۴
۴۰
۴۰۰
۴۱
۴۲
۴۳
۴۴
۴۵
۴۹
۵
۵۰
۵۰۰
۵۱
۵۲
۵۳
۵۴
۵۵
۵۶
۶
۶۰
۶۰۰
۶۱
۶۲
۶۴
۶۷
۷
۷۰
۷۱
۷۲
۷۳
۷۴
۷۵
۷۷
۷۸
۷۹
۸
۸۰
۸۰۰
۸۱
۸۲
۸۳
۸۶
۸۷
۹
۹۰
۹۱
۾
ܐ
ܝ
ܠ
ܢ
ܫ
ܳ
ܵ
ݙ
ݙا
ݙات
ݙاتری
ݙاج
ݙار
ݙاری
ݙاند
ݙانداں
ݙانوݨ
ݙانگ
ݙاوڑا
ݙاوݨ
ݙاي
ݙاڄ
ݙاچی
ݙاچیاں
ݙاڈھا
ݙاڈھی
ݙاڈھیاں
ݙاڈھے
ݙاڑھی
ݙاک
ݙاکو
ݙاکٹر
ݙاکے
ݙاں
ݙاہ
ݙاہا
ݙاہر
ݙاہو
ݙاہویں
ݙاہڈھا
ݙاہڑ
ݙاہیں
ݙاݙا
ݙاݙھی
ݙاݙھے
ݙاݙی
ݙاݙے
ݙبھاری
ݙت
ݙتا
ݙتس
ݙتم
ݙتن
ݙتوسے
ݙتونے
ݙتوي
ݙتي
ݙتہ
ݙتی
ݙتیاں
ݙتیں
ݙتے
ݙدا
ݙدھ
ݙدی
ݙدے
ݙر
ݙرا
ݙرامہ
ݙرامے
ݙراور
ݙراوے
ݙراوݨ
ݙردا
ݙردے
ݙرو
ݙرݨ
ݙس
ݙسا
ݙسانواں
ݙساوݨ
ݙساي
ݙساں
ݙسایا
ݙسدا
ݙسدن
ݙسدی
ݙسدے
ݙسو
ݙسکیاں
ݙسی
ݙسیا
ݙسین
ݙسیندا
ݙسیندن
ݙسیندی
ݙسیندے
ݙسے
ݙسݨ
ݙل
ݙمبھرے
ݙنا
ݙناں
ݙند
ݙنداں
ݙندیں
ݙنڈا
ݙنڈی
ݙنڈے
ݙنگ
ݙنے
ݙو
ݙوجھا
ݙوجھی
ݙوجھیاں
ݙوجھیں
ݙوجھے
ݙوجہے
ݙور
ݙورا
ݙول
ݙولا
ݙولی
ݙون
ݙونگھا
ݙونگھی
ݙونگھے
ݙونہاي
ݙونہاں
ݙونہیں
ݙونیں
ݙوي
ݙوپہر
ݙوپہراں
ݙوڑا
ݙوڑی
ݙوڑے
ݙوکھ
ݙوکے
ݙوں
ݙوھڑا
ݙوھڑے
ݙوھیں
ݙوہ
ݙوہاي
ݙوہاں
ݙوہڑا
ݙوہڑہ
ݙوہڑیاں
ݙوہڑے
ݙوہیں
ݙویجے
ݙویندے
ݙي
ݙٹ
ݙٹهن
ݙٹھا
ݙٹھم
ݙٹھی
ݙٹھیاں
ݙٹھے
ݙڈھ
ݙڈھپ
ݙک
ݙکھ
ݙکھا
ݙکھالی
ݙکھاوݨ
ݙکھاي
ݙکھاں
ݙکھایا
ݙکھلا
ݙکھلاي
ݙکھڑے
ݙکھیجے
ݙکھیندے
ݙکھیں
ݙکھݨ
ݙکی
ݙکے
ݙھا
ݙھاکے
ݙھل
ݙھول
ݙھیر
ݙھݨ
ݙہ
ݙہاکا
ݙہاکیاں
ݙہاکیں
ݙہاکے
ݙہدا
ݙہداں
ݙہدن
ݙہدی
ݙہدیں
ݙہدے
ݙہویں
ݙہی
ݙی
ݙیا
ݙیاں
ݙیتا
ݙیتی
ݙیتے
ݙیدھے
ݙیرہ
ݙیرے
ݙیس
ݙیساں
ݙیسن
ݙیسو
ݙیسوں
ݙیسی
ݙیسیں
ݙیسے
ݙیـݨ
ݙیلھے
ݙین
ݙینبھوں
ݙیندا
ݙینداں
ݙیندن
ݙیندی
ݙیندیاں
ݙیندیں
ݙیندے
ݙینھ
ݙینھاں
ݙینھوار
ݙینہ
ݙینہاں
ݙینہوار
ݙینہوں
ݙینہہ
ݙیو
ݙیوا
ݙیوالہ
ݙیواوݨ
ݙیواي
ݙیواں
ݙیوایا
ݙیون
ݙیونڑ
ݙیوو
ݙیووں
ݙیوٹی
ݙیوں
ݙیوی
ݙیویجے
ݙیویندے
ݙیویں
ݙیوے
ݙیوݨ
ݙیوݨا
ݙیوݨاں
ݙیوݨی
ݙیوݨے
ݙیٹی
ݙیپارٹمنٹ
ݙیڈھ
ݙیکھ
ݙیکھاں
ݙیکھدن
ݙیکھدے
ݙیکھن
ݙیکھندے
ݙیکھنس
ݙیکھنے
ݙیکھو
ݙیکھوں
ݙیکھیجے
ݙیکھیں
ݙیکھے
ݙیکھݨ
ݙیکھݨا
ݙیکھݨاں
ݙیکھݨے
ݙیہاڑا
ݙیہاڑی
ݙیہاڑیاں
ݙیہاڑے
ݙیہاں
ݙیہدا
ݙیہداں
ݙیہدن
ݙیہدی
ݙیہدے
ݙیہنہ
ݙیݙر
ݙیݙھی
ݙیݨ
ݙیݨیں
ݙے
ݙݨ
ݨ
ݨا
ݨاو
ݨاواں
ݨاوݨ
ݨاي
ݨاں
ݨایا
ݨت
ݨدا
ݨدیں
ݨدے
ݨس
ݨن
ݨو
ݨوں
ݨک
ݨکݨ
ݨھ
ݨھپ
ݨہپ
ݨی
ݨیا
ݨیاد
ݨیاں
ݨین
ݨیں
ݨیے
ݨے
ݨݨ
߬
ं
अब
आ
इक
उ
क
ख
ग
च
ज
ट
ठ
ड
ण
त
थ
द
ध
न
प
फ
ब
भ
म
य
र
ल
व
श
ष
स
सर
ह
़
ा
ि
ी
ु
ू
ृ
े
ै
ो
ौ
्
०
१
॰
ক
ত
দ
ন
ব
ম
য
র
ল
শ
স
হ
়
া
ি
ু
ে
্
ਅ
ਖ
ਜ
ਤ
ਨ
ਪ
ਮ
ਰ
ਸ
ਹ
ਾ
ਿ
ੀ
ੂ
ੇ
ੈ
ੋ
੍
ੰ
ੱ
ં
ા
ழ
ி
்
จ
ต
ั
ิ
ึ
န
မ
ာ
ီ
ြ
ី
េ
​
‌
‍
‎
‏
‑
–
—
‘
’
“
”
•
…
‪
‬
′
″
⁦
⁩
⃣
↑
→
↔
↷
−
⋅
①
②
③
④
⑤
⑦
⑴
⑵
⑶
⑷
▪
◇
○
◌
●
☃
☆
☉
☔
♃
♡
♤
♥
⚀
⛅
❣
❤
⺀
⺄
⺆
⺈
⺊
⺌
⺕
⺝
⺸
⺼
⿰
⿱
⿲
⿳
⿴
⿵
⿶
⿷
⿸
⿹
⿺
⿻
〢
コ
ユ
㇁
㇂
㇄
㇇
㇈
㇉
㇓
㐁
㐄
㐅
㐌
㐫
㐬
㐭
㐮
㐱
㑒
㒵
㒸
㒼
㓁
㓞
㔾
㕛
㕣
㖾
㘝
㚅
㚇
㚔
㚘
㝉
㝡
㝴
㝵
㞋
㞢
㞷
㠩
㠭
㠯
㡀
㡭
㡿
㢲
㢴
㣇
㣺
㥯
㪅
㫄
㫐
㫒
㫺
㬅
㬎
㬥
㬰
㲋
㳄
㷠
㸒
㸚
㸦
㼌
㼲
㽞
㿟
䀠
䂞
䍃
䏍
䒑
䖍
䖒
䖝
䖵
䙴
䚻
䜌
䝿
䡛
䧹
䪞
一
丁
丂
七
丄
丅
丆
万
丈
三
上
下
丌
不
与
丏
丐
丑
专
且
丕
世
丘
丙
业
东
丞
丢
丣
两
严
並
丨
丩
个
丫
丬
中
丮
丰
丱
串
丵
丶
丷
丸
丹
为
主
丽
丿
乀
乂
乃
久
乆
乇
么
义
之
乌
乍
乎
乏
乐
乑
乔
乖
乗
乘
乙
乚
乛
乜
九
乞
也
习
乡
乳
乾
亀
亅
了
亇
予
争
事
二
亍
于
亏
亐
云
互
亓
五
井
亘
亚
亜
亞
亟
亠
亡
亢
交
亥
亦
产
亨
亩
享
京
亭
亮
亯
亰
亲
亳
亶
亷
人
亻
亼
亾
仁
今
介
仌
从
仐
仑
仒
仓
仕
他
付
仝
代
令
以
任
企
伊
伏
伐
休
会
伯
但
位
何
佘
余
作
佥
使
來
侈
侌
侖
侯
侵
便
保
俞
信
修
倉
倍
候
倠
備
僉
僕
儿
兀
允
兂
元
兄
充
兆
兇
先
光
兊
克
兌
免
兑
兒
兓
兔
党
兜
兟
入
內
全
兩
兪
八
公
六
兮
兰
共
关
兵
其
具
典
兹
兼
冀
冂
冃
冄
内
冈
冉
冊
冋
册
再
冎
冏
冐
冒
冓
冖
冗
冘
军
农
冝
冡
冥
冫
冬
冷
几
凡
凢
凵
凶
凷
凸
凹
出
函
凾
刀
刁
刂
刃
刄
刅
分
切
刍
刑
刕
刖
列
刘
则
初
別
利
别
到
制
刺
則
削
剌
前
剡
剽
劉
力
功
加
劦
助
劫
劳
劵
勃
勇
勉
勒
動
務
勞
勤
勹
勺
勻
勾
勿
匀
匂
包
匆
匈
匊
匋
匍
匕
化
北
匚
匝
匡
匪
匱
匸
匹
区
医
匽
匿
區
十
卂
千
卄
卅
卆
升
午
卉
半
卌
华
卑
卒
卓
单
卖
南
卜
卝
卞
占
卡
卢
卣
卤
卦
卩
卪
卬
卯
印
危
即
却
卵
卷
卸
卻
厂
厃
厄
历
厈
厉
厌
厓
厘
厚
原
厤
厥
厨
厭
厲
厶
厷
厸
去
厼
厽
叀
参
參
叅
又
叉
及
友
双
反
叐
发
叒
叔
叕
取
受
叚
叜
叟
口
古
句
另
叩
只
召
可
台
叱
史
右
叵
号
司
叹
吂
各
吅
合
吉
吊
吋
同
名
后
吏
向
吕
君
吝
吞
否
含
启
吳
吴
吹
吾
呂
呆
呈
告
员
呙
周
命
咅
和
咎
咠
咢
咨
咸
咼
哀
品
哉
員
哥
哲
唐
商
啇
問
啚
啬
啻
善
喜
喬
單
喿
嗇
噩
嚴
囊
囗
囘
囙
囚
四
回
囟
因
囧
囬
困
囱
囷
固
国
圂
圅
國
圍
圓
土
圡
圣
圥
在
圭
地
圶
圼
坐
坒
坚
坡
坴
垂
垔
垚
埀
埃
埋
埶
執
基
堂
堅
堆
堇
堯
塞
墨
壘
士
壬
壯
声
壳
壴
壹
壺
壽
夂
处
夅
夆
备
夊
夋
夌
复
夏
夒
夕
外
夗
夘
多
夜
夢
大
夨
天
太
夫
夬
夭
央
失
夲
头
夷
夸
夹
夻
夾
奂
奄
奇
奈
奉
奎
奏
奐
契
奓
奔
奚
奞
奠
奢
奥
奭
女
奴
奻
好
如
妄
妙
妟
妥
妻
妾
姑
委
姜
威
娄
婁
婴
嬰
嬴
子
孑
孔
孕
孖
字
存
孚
孛
孝
孟
季
孤
学
孫
孱
學
宀
宁
宂
它
宅
宇
守
安
宋
完
宏
宓
宗
官
定
宛
宜
宝
客
宣
室
宮
宰
害
家
容
宾
宿
寄
寅
密
富
寒
察
寧
審
寫
寬
寮
寸
对
寺
寻
寽
対
寿
封
尃
射
将
將
專
尉
尊
尋
尌
對
小
少
尒
尓
尔
尖
尗
尚
尞
尢
尣
尤
尧
尨
尭
就
尸
尹
尺
尻
尼
尽
尾
尿
局
居
屈
屋
屎
屏
屑
展
屖
屚
属
屠
屡
屬
屮
屯
屰
山
屵
屾
岁
岂
岑
岡
岩
岳
岸
峡
峯
島
崇
崑
崔
崖
崙
崩
嵬
嶲
巂
巛
川
州
巟
巠
巢
巤
工
左
巧
巨
巩
巫
差
己
已
巳
巴
巷
巸
巽
巾
巿
帀
市
布
希
帚
帛
帝
带
師
席
帶
常
干
平
年
幵
并
幷
幸
幺
幻
幼
幽
幾
广
広
庄
床
底
店
庚
府
度
庫
庭
庶
康
庸
廉
廌
廛
廣
廩
廴
延
廷
建
廾
廿
开
弁
弃
弄
弇
弋
式
弓
弔
引
弗
弘
弜
弟
弥
弦
弱
張
強
强
彊
彌
彎
彐
彑
当
彔
录
彖
彗
彡
形
彥
彦
彧
彭
彳
役
彼
往
待
律
徒
得
徙
從
復
微
徵
心
忄
必
忌
忍
志
忝
忠
忩
快
念
忽
忿
思
怠
急
怱
恆
恒
恩
恭
息
悉
患
悤
悲
悶
惠
惡
惢
愁
愈
意
愛
感
慈
慧
慮
憂
憲
應
戀
戈
戉
戊
戋
戌
戍
戎
成
我
戒
戔
或
戚
戠
戢
截
戲
戶
户
戹
戼
戾
房
所
扁
扇
手
扌
才
打
托
执
承
折
拉
拜
拿
掌
推
提
摩
支
攴
攵
收
攸
改
放
政
敄
敏
敕
敖
敗
敝
敞
敢
散
敦
敫
敬
数
敷
數
斂
文
斉
斊
斗
斤
斥
斩
斬
斯
新
方
於
施
斿
旁
旋
族
无
旡
既
旣
日
旦
旧
旨
早
旬
旱
旲
时
旾
昆
昇
昌
昍
明
昏
易
昔
昗
昜
星
春
昬
是
昱
昴
昷
時
晃
晋
晏
普
景
晶
智
暑
暴
曇
曩
曰
曲
曳
更
曷
書
曹
曼
曾
替
最
朁
會
月
有
朋
服
朔
朕
朗
望
朝
木
朩
未
末
本
札
朮
术
朱
朵
朶
朿
杀
杏
杜
束
条
来
東
杲
杳
松
析
林
枚
果
枝
枲
枼
某
柔
查
柬
柰
柴
栗
桀
桑
桼
梁
條
梟
梨
棘
棠
棥
森
楚
業
楽
榮
樂
樊
欠
次
欣
欮
欲
欶
欽
款
歆
歇
歛
止
正
此
步
武
歨
歪
歮
歯
歰
歲
歴
歷
歸
歹
歺
死
殳
段
殷
殸
殹
殺
殻
殿
毋
毌
母
每
毒
比
毕
毚
毛
毳
氏
氐
民
气
氣
水
氵
氶
氷
永
氺
氾
求
汝
汞
江
沃
沓
沙
沝
泉
法
波
泣
泥
泰
洛
洪
活
派
流
浦
浪
浮
海
淡
淮
清
渚
渠
湯
滿
漸
火
灬
灭
灰
灵
灷
炅
炎
炏
炗
炙
炭
為
烈
烏
烝
焉
無
焦
焱
然
煞
熊
熏
燕
營
燮
爪
爫
爭
爯
爰
爱
爲
爵
父
爻
爽
爾
爿
片
牙
牚
牛
牜
牟
牢
牧
牪
牽
犀
犬
犭
犮
狂
狄
狊
独
狺
猋
猒
猪
献
獻
玄
率
玉
王
玟
玨
珎
班
琴
瑟
瑩
瓜
瓦
甘
甚
生
産
用
甫
甬
田
由
甲
申
电
甶
男
甸
甹
画
甾
畀
界
畏
畐
留
畜
畟
畢
畧
畨
番
畫
異
畱
當
畺
畾
疊
疋
疌
疑
疒
疾
癶
癸
癹
登
發
白
百
皀
皃
的
皆
皇
皋
皐
皕
皮
皷
皿
盃
盆
盇
盈
益
盍
盎
监
盒
盖
盛
盡
監
盤
盧
目
直
相
盾
省
眇
眉
看
眔
眞
真
眷
眼
眾
着
睘
睪
睿
瞏
瞢
瞿
矍
矛
矞
矢
矣
知
矦
短
石
破
碎
磊
磨
示
礻
礼
祟
票
祭
禀
禁
禸
禹
禺
离
禽
禾
禿
秀
秃
秉
秋
科
秝
秦
移
稟
穀
穌
穴
究
穹
空
穿
突
窄
窒
立
竒
竜
竝
竟
章
童
竹
笑
笠
筆
等
答
箕
算
箴
節
篤
篭
米
粉
粛
粟
粤
粦
粲
糞
糸
糹
系
約
納
素
索
紫
累
細
絜
絫
絲
維
綿
縣
繇
纍
纟
缶
网
罒
罔
罕
罗
罙
罡
罢
罪
署
罷
羅
羊
羌
羍
美
羔
羕
羗
羞
羡
羣
群
義
羲
羸
羽
翁
翏
習
翕
翟
翠
翼
老
耂
考
者
耆
而
耎
耑
耒
耳
耴
耶
耷
聂
聊
聖
聚
聶
聿
肀
肃
肅
肉
肖
肙
肥
肩
肯
育
肴
胃
背
胡
胥
能
脊
脩
膚
臣
臤
臧
自
臬
臭
臯
臱
至
致
臺
臼
臽
臾
臿
舀
舂
舄
與
興
舉
舌
舍
舛
舜
舞
舟
般
艮
良
色
艸
艹
艾
芒
芔
芬
芮
花
芳
芺
芻
苔
苗
苟
若
苦
英
茶
茸
荅
草
荒
荣
荼
莆
莧
莫
莽
菆
菊
菐
華
萬
落
葉
著
葛
董
葵
蒙
蒦
蒼
蓋
蓬
蓺
蔑
蔡
蕉
蕭
薄
薛
薦
薰
藍
藏
藥
蘭
虍
虎
虐
虒
虔
處
虖
虗
虘
虚
虛
虜
虞
虫
虽
蚤
蚩
蜀
蜜
蟲
蠡
血
行
衍
衛
衣
衤
表
衮
衰
袁
袞
褭
褱
襄
襾
西
覀
要
覃
見
規
覓
覧
親
覽
见
角
解
言
訁
訇
計
詹
誩
諸
讠
谷
豆
豈
豊
豐
豕
豖
豙
象
豦
豩
豪
豸
貇
貝
貞
貟
負
貢
貧
貪
貫
責
貳
貴
買
費
賁
資
賈
賏
賓
賔
賛
賞
賢
賣
質
賴
贊
贝
贡
责
贯
贲
贵
赖
赞
赤
赦
走
越
足
路
蹇
身
躬
車
軍
軎
軟
輦
车
辛
辜
辟
辥
辰
辱
農
辵
辶
边
达
过
近
连
迪
迷
追
退
送
逆
逐
通
速
造
逢
連
逮
進
遀
遂
過
道
達
遣
適
遷
遺
邊
邑
邕
那
邦
邪
郎
部
郭
都
鄉
酉
酋
配
酓
釆
采
里
重
野
量
金
釒
錢
钅
長
镸
长
門
閃
閉
開
閏
閑
閒
間
閔
閵
閻
闌
门
间
闷
阑
阜
阝
阿
降
陳
隆
隊
隋
隡
隨
隱
隶
隹
隺
隻
隼
隽
难
雀
雁
集
雈
雋
雍
雐
雔
雙
雚
雜
雝
離
難
雨
雩
雪
雲
零
雷
需
霍
霜
霝
霞
霸
靈
靑
青
非
靡
面
靣
革
韋
韦
韭
韯
韱
音
頁
頃
項
須
頗
頡
頻
顛
页
風
风
飛
飞
食
飠
養
饣
首
香
馬
馮
駦
马
骨
高
髟
鬥
鬯
鬲
鬼
魚
魯
鮮
鱼
鲁
鳥
鳳
鸟
鹵
鹿
麃
麗
麥
麦
麻
黃
黄
黍
黎
黑
黒
黨
黹
黽
黾
鼎
鼓
鼠
鼻
齊
齋
齐
齒
齿
龍
龙
龜
龟
龠
龰
龱
龴
龵
龶
龷
龸
龹



者
艹
ﭖ
ﭗ
ﭘ
ﭙ
ﭦ
ﭧ
ﭨ
ﭩ
ﭺ
ﭻ
ﭼ
ﭽ
ﮈ
ﮉ
ﮌ
ﮍ
ﮎ
ﮏ
ﮐ
ﮑ
ﮒ
ﮓ
ﮔ
ﮕ
ﮞ
ﮟ
ﮦ
ﮧ
ﮨ
ﮩ
ﮪ
ﮫ
ﮬ
ﮭ
ﮮ
ﮯ
ﮰ
ﮱ
ﯼ
ﯽ
ﯾ
ﯿ
﴾
﴿
ﷲ
ﷺ
️
ﺀ
ﺁ
ﺅ
ﺆ
ﺉ
ﺊ
ﺋ
ﺌ
ﺍ
ﺎ
ﺏ
ﺐ
ﺑ
ﺒ
ﺕ
ﺖ
ﺗ
ﺘ
ﺙ
ﺛ
ﺜ
ﺝ
ﺞ
ﺟ
ﺠ
ﺡ
ﺢ
ﺣ
ﺤ
ﺥ
ﺧ
ﺨ
ﺩ
ﺪ
ﺫ
ﺬ
ﺭ
ﺮ
ﺯ
ﺰ
ﺱ
ﺲ
ﺳ
ﺴ
ﺵ
ﺶ
ﺷ
ﺸ
ﺹ
ﺺ
ﺻ
ﺼ
ﺽ
ﺿ
ﻀ
ﻁ
ﻂ
ﻃ
ﻄ
ﻆ
ﻇ
ﻈ
ﻊ
ﻋ
ﻌ
ﻍ
ﻏ
ﻐ
ﻑ
ﻒ
ﻓ
ﻔ
ﻕ
ﻖ
ﻗ
ﻘ
ﻝ
ﻞ
ﻟ
ﻠ
ﻡ
ﻢ
ﻣ
ﻤ
ﻥ
ﻦ
ﻧ
ﻨ
ﻪ
ﻫ
ﻬ
ﻭ
ﻮ
ﻻ
ﻼ
﻿
！
？
�
𐌰
𐌹
🇪
🇬
🇰
🇱
🇲
🇵
🇸
🇾
🌱
🌴
🌷
🌸
🌹
🌺
🌼
🌿
🍀
🍁
🍃
💔
💚
💯
🔥
🔸
😂
😆
😭
🜨
𠀁
𠀃
𠀆
𠀉
𠀎
𠀐
𠁁
𠁣
𠂆
𠂇
𠂈
𠂉
𠂊
𠂋
𠂎
𠂒
𠂔
𠂛
𠂡
𠂢
𠂤
𠂬
𠂭
𠂹
𠃊
𠃋
𠃌
𠃍
𠃎
𠃑
𠃓
𠃔
𠃜
𠄌
𠄎
𠄠
𠄢
𠆢
𠆥
𠇍
𠈌
𠌵
𠓜
𠔉
𠔥
𠔼
𠔽
𠔿
𠕀
𠕁
𠕋
𠘧
𠘨
𠙻
𠙼
𠚏
𠚒
𠚤
𠚪
𠣏
𠤎
𠤕
𠥓
𠦄
𠦑
𠦝
𠧒
𠧗
𠧪
𠩺
𠪚
𠫓
𠫔
𠫤
𠬛
𠬝
𠬞
𠬢
𠬤
𠬶
𠮛
𠮦
𠮷
𠯑
𠱠
𠳮
𠷎
𡈼
𡉀
𡉵
𡌥
𡍮
𡏳
𡕒
𡕩
𡕰
𡖅
𡗗
𡗜
𡘆
𡘤
𡧱
𡨄
𡩧
𡬠
𡭽
𡰣
𡰥
𡰪
𡰯
𡰱
𡷈
𡸁
𡿨
𡿩
𡿪
𡿺
𢀖
𢀛
𢀩
𢁙
𢆉
𢆰
𢆶
𢇁
𢇇
𢉖
𢌬
𢌿
𢏚
𢑑
𢑚
𢖻
𢙣
𢛳
𢦏
𢦒
𢧵
𢼄
𢾕
𣁋
𣄼
𣅀
𣅽
𣍘
𣎳
𣎵
𣏋
𣏼
𣗥
𣥂
𣥖
𣦵
𣦼
𣧄
𣪊
𣪠
𣬉
𣳾
𣶒
𤇾
𤊽
𤐫
𤓰
𤔔
𤕨
𤣩
𤰇
𤰔
𤰞
𤴓
𤴔
𤽄
𥁑
𥁕
𥃦
𥃩
𥃭
𥇡
𥑟
𥘅
𥘈
𥝢
𥫗
𥱡
𦈢
𦉪
𦉬
𦉼
𦍌
𦍒
𦎧
𦐇
𦓔
𦔮
𦘒
𦙃
𦚏
𦣝
𦣞
𦣻
𦥑
𦥔
𦥯
𦨉
𦭝
𦰩
𧆞
𧈧
𧘇
𧰨
𧴪
𧴮
𧵩
𧾷
𨸏
𨾴
𩙿
𩠐
𩫏
𩵋
𪉷
𪜀
𪟽
𪠲
𪩲
𫇦
𫔭
𫜸
𫝀
𫠣
𫠩
𫢉
𫥞
𫩏
𫩠
𫪡
𫲽
𫶧
𬀷
𬐘
𬗌
𬙙
𬛸
𬜯
𬟩
𬯁
𬴘
𬺻
𬼉
𬼖
𭀰
𭁈
𭁨
𭅰
𭑈
𭕄
𭗼
𭤨
𭥫
𭻾
𮅕
𮊿
𮍌
𮍏
𮓗
𮥼
𮧮
廾
𰀁
𰀄
𰀈
𰀉
𰀕
𰀠
𰀡
𰀢
𰀪
𰁜
𰃮
𰆊
𰆘
𰋙
𰕎
𰢴
𰧭
𰯲
00--
000--
01--
02--
03--
07--
08--
10--
11--
13--
14--
15--
16--
17--
18--
2018--
21--
22--
24--
26--
28--
29--
30--
31--
33--
34--
40--
41--
418--
43--
44--
47--
49--
50--
51--
52--
53--
54--
60--
68--
72--
86--
88--
91--
92--
97--
a--
aa--
ab--
above--
ac--
ad--
add--
af--
aga--
agri--
ah--
ai--
ak--
al--
all--
am--
amb--
an--
anc--
ann--
anno--
any--
app--
appli--
ar--
arg--
args--
arp--
as--
astr--
at--
att--
au--
auto--
awan--
az--
b--
ba--
banner--
bar--
be--
below--
ber--
bha--
bhar--
bhut--
bi--
bis--
bl--
bo--
br--
bre--
brit--
bro--
bu--
budd--
bul--
bure--
c--
ca--
calcu--
car--
cat--
celeb--
celebr--
cfg--
ch--
cha--
check--
chr--
christ--
ci--
citiz--
cl--
cle--
co--
col--
com--
comp--
con--
cons--
const--
cont--
cor--
cr--
cri--
criti--
cu--
cur--
d--
da--
data--
date--
day--
de--
dec--
deci--
default--
di--
disam--
disc--
display--
distri--
do--
doc--
dr--
dre--
du--
e--
ec--
ed--
edit--
eeddi--
ef--
effect--
effective--
effici--
el--
ele--
elec--
em--
en--
enab--
es--
escape--
et--
ev--
eval--
every--
ex--
exclu--
exclude--
exp--
expa--
expli--
f--
fa--
far--
fas--
fe--
fest--
fetch--
fi--
fin--
fl--
flav--
fo--
format--
fr--
ft--
fun--
g--
ga--
ge--
gene--
ger--
get--
gha--
gi--
giga--
gl--
glo--
go--
gr--
gra--
group--
gu--
h--
ha--
han--
har--
harv--
has--
hay--
he--
hi--
ho--
hon--
html--
hun--
hus--
i--
id--
illustr--
image--
imp--
in--
indi--
inf--
inhab--
inst--
inte--
inter--
is--
iso--
it--
j--
ja--
jaf--
jav--
je--
jin--
k--
ka--
kan--
kar--
ke--
kes--
kh--
kha--
ki--
kil--
kilo--
kish--
ku--
l--
la--
last--
laun--
lay--
le--
lea--
lefk--
li--
link--
list--
live--
lo--
lu--
lua--
m--
ma--
mag--
make--
mal--
map--
mark--
max--
me--
medi--
mega--
mem--
mi--
micr--
micro--
mil--
milli--
mirror--
ml--
mm--
mo--
mon--
mor--
mpg--
mt--
mu--
mult--
muz--
my--
n--
na--
nat--
nay--
nd--
ne--
neu--
new--
ni--
nig--
nil--
no--
ns--
nucl--
num--
o--
occ--
ol--
omit--
open--
opini--
or--
orient--
orig--
over--
p--
pa--
pak--
param--
pe--
per--
pesha--
ph--
pi--
pictu--
pl--
po--
pol--
popul--
por--
post--
pr--
pre--
pri--
print--
pro--
profes--
pur--
q--
qa--
qu--
qur--
r--
ra--
rail--
raw--
re--
rec--
reco--
ref--
reg--
render--
rep--
ret--
revi--
ri--
ro--
row--
ru--
rus--
s--
sa--
sae--
saf--
sandbox--
sar--
sc--
sci--
se--
sec--
ser--
set--
sh--
sha--
shi--
show--
shr--
si--
sl--
sla--
small--
so--
some--
sp--
spir--
sq--
st--
ste--
su--
sub--
supp--
sw--
swe--
syn--
t--
ta--
tan--
te--
terr--
text--
th--
the--
ti--
time--
title--
to--
tou--
tr--
tracking--
trans--
tri--
trun--
tu--
tw--
type--
u--
ul--
un--
up--
urdu--
us--
use--
user--
uses--
utili--
v--
var--
ve--
vi--
vice--
viewedit--
vil--
vo--
w--
wa--
wal--
want--
we--
weat--
web--
wiki--
wis--
work--
wr--
x--
y--
ya--
ym--
z--
za--
æ--
ʊ--
ء--
ا--
اا--
اب--
ابا--
ابن--
ابو--
ابوال--
ات--
اتا--
اتے--
اثر--
اج--
اح--
احمد--
اخ--
اد--
ادا--
ار--
ارا--
ارب--
ارت--
ارد--
از--
ازم--
اس--
اسا--
است--
استعا--
اسد--
اسٹ--
اش--
اص--
اصط--
اط--
اع--
اغ--
اف--
اق--
اك--
ال--
الا--
الب--
الت--
الج--
الح--
الد--
الر--
الز--
الس--
الش--
الشي--
الص--
الض--
الط--
الظ--
الع--
الغ--
الف--
الق--
الك--
الل--
الم--
المع--
الن--
اله--
الو--
الہ--
الی--
ام--
امر--
امیر--
ان--
انا--
انت--
انج--
اند--
انس--
انور--
انٹ--
انڑ--
انگ--
انھیں--
انی--
او--
اوا--
اور--
اوس--
اول--
اون--
اوٹ--
اوچ--
اوہ--
اٹ--
اٹک--
اٹھ--
اپ--
اپݨ--
اپݨے--
اڄ--
اچ--
اڈ--
اڈی--
اڑ--
اژ--
اک--
اکا--
اکبر--
اکثر--
اکھ--
اکھو--
اگ--
اگو--
اڳ--
اڳو--
اہ--
اہر--
ای--
ایا--
ایر--
ایل--
ایم--
این--
ایو--
ایڈمن--
ایک--
ایکس--
ایں--
ایہ--
ایہا--
ایہو--
ایہے--
اے--
اݙ--
اݙا--
اݙی--
اݨ--
ب--
با--
باب--
باد--
بار--
بارے--
باز--
باس--
باش--
باغ--
بال--
بان--
باو--
باک--
بت--
بج--
بجھ--
بحر--
بد--
بدن--
بدھ--
بر--
برا--
برف--
برو--
برگ--
بری--
بس--
بشکی--
بشیر--
بص--
بط--
بطور--
بع--
بعد--
بغ--
بـ--
بق--
بل--
بلا--
بلو--
بم--
بن--
بنا--
بند--
بنو--
بنڑ--
بنڑا--
بنی--
به--
بو--
بوا--
بوس--
بي--
بٹ--
بچ--
بچا--
بڈ--
بڑ--
بک--
بکھ--
بگ--
بھ--
بھا--
بھاو--
بھت--
بھج--
بھر--
بھل--
بھلا--
بھمب--
بھن--
بھو--
بھوگ--
بھٹ--
بھڄ--
بھڑ--
بھک--
بھگ--
بھڳ--
بھی--
بھے--
بہ--
بہا--
بی--
بیا--
بیس--
بین--
بیک--
بیگ--
بے--
بݙ--
بݨ--
بݨا--
ت--
تا--
تاب--
تاج--
تار--
تاں--
تب--
تت--
تجز--
تخم--
تر--
ترا--
ترو--
ترک--
تری--
تس--
تش--
تص--
تعز--
تـ--
تــ--
تق--
تقري--
تل--
تلا--
تم--
تن--
تند--
تنظ--
تنگ--
ته--
تهی--
تو--
توا--
توج--
تول--
توں--
تي--
تپ--
تڈ--
تڑ--
تڑپ--
تک--
تکی--
تگ--
تھ--
تھا--
تھر--
تھن--
تھو--
تھک--
تہ--
تی--
تیر--
تیک--
تیݙے--
تے--
تےا--
تےد--
تےر--
تےس--
تےم--
تݙ--
تݨ--
ث--
ثار--
ثر--
ثم--
ج--
جا--
جان--
جب--
جت--
جج--
جر--
جرم--
جز--
جس--
جل--
جلا--
جم--
جما--
جن--
جند--
جنڑ--
جنگ--
جه--
جو--
جوا--
جوت--
جود--
جوس--
جوش--
جي--
جڈ--
جڑ--
جڑی--
جکڑ--
جگ--
جگا--
جڳ--
جھ--
جھا--
جھر--
جھل--
جھم--
جھک--
جھی--
جہ--
جی--
جیا--
جین--
جیه--
جیو--
جیڑ--
جیکر--
جے--
ح--
حا--
حب--
حت--
حج--
حد--
حر--
حس--
حص--
حض--
حق--
حل--
حو--
حي--
حی--
خ--
خا--
خاطر--
خالد--
خان--
خاک--
خبر--
خت--
خد--
خدا--
خر--
خزا--
خس--
خش--
خط--
خـ--
خــ--
خلا--
خم--
خن--
خو--
خود--
خور--
خوش--
خون--
خی--
خیر--
د--
دا--
داا--
داب--
داد--
دار--
دارا--
دارال--
دارالا--
داس--
داغ--
دام--
دان--
دانش--
دب--
در--
درد--
درک--
دری--
دریا--
دس--
دست--
دعا--
دفن--
دل--
دم--
دن--
دنیا--
ده--
دهم--
دو--
دوا--
دور--
دوکان--
دکان--
دکھ--
دگ--
دھ--
دھا--
دھاڑ--
دھر--
دھن--
دھو--
دھی--
دہ--
دہر--
دی--
دین--
دیو--
دے--
دےا--
دےو--
دےپ--
دےک--
دےہ--
ذ--
ذا--
ذر--
ذم--
ذو--
ذوال--
ذکر--
ذی--
ر--
را--
راج--
راز--
رام--
ران--
راڄ--
راہ--
رب--
رت--
رث--
رج--
رح--
رخ--
رد--
ردو--
رز--
رس--
رسا--
رسی--
رضا--
رف--
رق--
رل--
رلا--
رم--
رن--
رنج--
رنگ--
ره--
رو--
روا--
روز--
رول--
رون--
روو--
روک--
روہ--
روی--
ري--
رٹ--
رپ--
رڄ--
رچ--
رڈ--
رڑ--
رک--
رکه--
رکی--
رگ--
رڳ--
رھ--
رھا--
رہ--
رہی--
ری--
ریا--
رید--
ریس--
رین--
رے--
رݨ--
ز--
زا--
زر--
زل--
زم--
زن--
زور--
زک--
زی--
زیر--
س--
سا--
سار--
سارا--
سارے--
سام--
سان--
سانگے--
ساڈے--
ساہ--
ساݙے--
سب--
سبا--
سبھ--
ست--
ستر--
ستی--
سج--
سد--
سر--
سرا--
سرو--
سرہ--
سری--
سس--
سط--
سـ--
ســ--
ســـ--
سف--
سفر--
سل--
سلا--
سم--
سما--
سمج--
سمی--
سن--
سنا--
سنج--
سنو--
سنڄ--
سنڑ--
سنڑو--
سنگ--
سنی--
سو--
سول--
سوم--
سون--
سوگ--
سي--
سٹ--
سٹی--
سپ--
سڈ--
سڑ--
سڑی--
سک--
سکھ--
سکی--
سگ--
سگی--
سڳ--
سہ--
سہا--
سہریا--
سی--
سید--
سیر--
سیل--
سین--
سیپ--
سیک--
سے--
سݙ--
سݙی--
سݨ--
سݨا--
سݨو--
سݨی--
ش--
شا--
شار--
شاعر--
شان--
شاکر--
شاہ--
شب--
شحص--
شر--
شرم--
شری--
شق--
شل--
شن--
شو--
شک--
شگ--
شھ--
شہ--
شہر--
شی--
شیر--
ص--
صا--
صحی--
صد--
صدا--
صدر--
صر--
صف--
صل--
صن--
صو--
صہ--
صی--
ض--
ضا--
ضم--
ط--
طا--
طب--
طر--
طرف--
طلس--
طنب--
ظ--
ظاہر--
ظفر--
ظہیر--
ع--
عا--
عبد--
عبدالـ--
عبید--
عد--
عر--
عز--
عزیز--
عض--
عطا--
عظ--
عق--
عقل--
عل--
عم--
عمر--
عن--
عی--
غ--
غا--
غت--
غر--
غص--
غل--
غم--
غور--
غیر--
ـ--
ـر--
ــ--
ــــــــ--
ــــــــــــــــ--
ـی--
ف--
فا--
فت--
فخر--
فر--
فرش--
فس--
فق--
فل--
فن--
فون--
فوٹو--
فکر--
فی--
ق--
قا--
قادر--
قد--
قر--
قص--
قض--
قع--
قل--
قلم--
قن--
قو--
قوم--
قہ--
قید--
ك--
ل--
لا--
لام--
لان--
لاک--
لاہ--
لب--
لبھ--
لت--
لج--
لد--
لر--
لز--
لس--
لش--
لـ--
لف--
للم--
لم--
لن--
له--
لو--
لوا--
لوٹ--
لوی--
لي--
لٹ--
لٹی--
لڄ--
لچ--
لڈ--
لڑ--
لک--
لکھو--
لکی--
لگ--
لگے--
لڳ--
لھ--
لھی--
لہ--
لہا--
لہر--
لہی--
لی--
لیبار--
لیو--
لیک--
لے--
م--
ما--
مار--
مام--
مان--
ماو--
ماہ--
مب--
مت--
متا--
متھ--
مث--
مجت--
مجم--
مح--
محا--
محت--
محمد--
مخ--
مد--
مذ--
مر--
مرا--
مرع--
مرغ--
مرہ--
مرید--
مز--
مس--
مست--
مسک--
مش--
مص--
مض--
مطال--
مظ--
مظہر--
مع--
معت--
معط--
مغ--
مغالط--
مـ--
مــ--
مفا--
مق--
مك--
مل--
ملا--
ملو--
ملک--
ملی--
مم--
من--
منا--
منت--
مند--
منظر--
منو--
منگ--
منہ--
مو--
مور--
مول--
مون--
مي--
مٹ--
مٹا--
مٹی--
مچ--
مچی--
مڑ--
مک--
مکا--
مکی--
مگر--
مھ--
مہ--
مہا--
مہر--
می--
میت--
مید--
میر--
میم--
مین--
میٹ--
میڈے--
میک--
میں--
میہ--
میݙے--
مݨ--
ن--
نا--
نار--
ناز--
نام--
ناپ--
ناگ--
ناہ--
نب--
نبھ--
نبھا--
نت--
نثر--
نج--
ند--
نر--
نز--
نس--
نص--
نط--
نظر--
نغم--
نـ--
نــ--
نف--
نفل--
نق--
نل--
نم--
نما--
نن--
نو--
نواز--
نور--
نٹ--
نپ--
نڄ--
نچ--
نڈ--
نڈی--
نڑ--
نک--
نکھ--
نگ--
نڳ--
نھ--
نہ--
نہا--
نی--
نیا--
نیو--
نیپ--
نیک--
نے--
نݙ--
ه--
ها--
هر--
هم--
هن--
و--
وا--
وات--
واج--
وار--
واس--
وال--
والے--
وان--
وب--
وت--
وتا--
وج--
وجا--
وح--
وخ--
ود--
ودھ--
ور--
وری--
وز--
وزیر--
وس--
وسا--
وسی--
وش--
وع--
وف--
ول--
ولا--
ولی--
وم--
ون--
وند--
ونڄ--
ونڈ--
ونݙ--
وو--
وي--
وٹ--
وٹا--
وٹو--
وٹی--
وپ--
وڄ--
وچ--
وڈ--
وڈی--
وڋ--
وڑ--
وک--
وکا--
وگ--
وڳ--
وں--
وھ--
وہ--
وہا--
وہی--
وی--
ویلھے--
ویچ--
ویک--
ویہ--
وے--
وݙ--
وݙا--
وݨ--
ي--
٠--
١٠--
١٤--
١٥--
١٧--
١٨--
١٩--
٣--
٤--
٥--
٦--
٧--
٨--
٩--
ٹ--
ٹا--
ٹال--
ٹب--
ٹر--
ٹری--
ٹل--
ٹم--
ٹن--
ٹنگ--
ٹو--
ٹوٹ--
ٹٹ--
ٹپ--
ٹک--
ٹکا--
ٹھ--
ٹھا--
ٹھر--
ٹھم--
ٹھن--
ٹھو--
ٹھڈ--
ٹھک--
ٹھی--
ٹہ--
ٹی--
ٹیلی--
ٻ--
ٻا--
ٻار--
ٻال--
ٻان--
ٻاہ--
ٻدھ--
ٻر--
ٻس--
ٻل--
ٻلی--
ٻن--
ٻو--
ٻٹ--
ٻچ--
ٻڑ--
ٻک--
ٻگھ--
ٻھ--
ٻہ--
ٻی--
ٻݙ--
ٻݨ--
ٽ--
پ--
پا--
پال--
پان--
پاو--
پاک--
پبل--
پت--
پتر--
پج--
پر--
پرا--
پرت--
پرس--
پرم--
پرنی--
پرو--
پری--
پس--
پش--
پل--
پلا--
پلو--
پلٹ--
پلی--
پن--
پنج--
پنه--
پنچ--
پنڈ--
په--
پهن--
پو--
پوا--
پور--
پون--
پوو--
پوچ--
پوہ--
پي--
پٹ--
پٹی--
پڄ--
پچ--
پچا--
پچھ--
پڑ--
پڑھ--
پک--
پکا--
پکڑ--
پکی--
پگ--
پڳ--
پھ--
پھر--
پھل--
پھٹ--
پھڑ--
پھی--
پہ--
پہلے--
پی--
پیا--
پیر--
پیرا--
پیرو--
پیش--
پین--
پیٹ--
پیک--
ٿ--
ڀ--
ڃ--
ڄ--
ڄا--
ڄل--
ڄم--
ڄما--
ڄن--
ڄو--
ڄٹ--
ڄھ--
ڄی--
ڄݨ--
چ--
چا--
چار--
چان--
چبو--
چت--
چر--
چرا--
چس--
چل--
چم--
چن--
چند--
چنڈ--
چنگ--
چه--
چها--
چو--
چوا--
چور--
چون--
چوٹ--
چوک--
چوی--
چوݨ--
چٹ--
چپ--
چچ--
چڑ--
چک--
چکر--
چھ--
چھا--
چھل--
چھم--
چھن--
چھو--
چھٹ--
چھپ--
چھڑ--
چھک--
چھی--
چھݨ--
چہ--
چی--
چیر--
چݨ--
ڈ--
ڈا--
ڈان--
ڈاکٹر--
ڈاہ--
ڈب--
ڈت--
ڈر--
ڈرا--
ڈس--
ڈل--
ڈن--
ڈو--
ڈوه--
ڈوہ--
ڈٹ--
ڈک--
ڈکھ--
ڈھ--
ڈھا--
ڈھو--
ڈھک--
ڈھہ--
ڈھی--
ڈھیر--
ڈی--
ڈیــن--
ڈیمو--
ڈین--
ڈیو--
ڈیہن--
ڊ--
ڋ--
ڏ--
ڑ--
ڑا--
ڑن--
ڑھ--
ڑی--
ژ--
ک--
کا--
کات--
کار--
کال--
کام--
کان--
کاو--
کاک--
کب--
کبیر--
کت--
کتا--
کج--
کر--
کرا--
کرغز--
کرن--
کرو--
کرہ--
کری--
کس--
کش--
کـ--
کــ--
کـی--
کل--
کلا--
کلو--
کلھ--
کلہو--
کلی--
کم--
کما--
کمر--
کمی--
کن--
کند--
کنفی--
کنوں--
کنڑ--
که--
کو--
کور--
کوم--
کون--
کوٹ--
کوک--
کوں--
کوہ--
کوی--
کي--
کٹ--
کٹا--
کٹی--
کپ--
کپی--
کڄ--
کچ--
کچا--
کچھ--
کڈ--
کڈھ--
کڑ--
کڑی--
کک--
کھ--
کھا--
کھر--
کھلو--
کھن--
کھو--
کھٹ--
کھڑ--
کھی--
کھݙ--
کہ--
کی--
کیا--
کیت--
کیتا--
کیتے--
کیر--
کیس--
کیل--
کین--
کیو--
کیٹ--
کے--
کےا--
کݙھ--
ڪ--
گ--
گا--
گار--
گاہ--
گت--
گج--
گد--
گذر--
گر--
گرج--
گرد--
گرو--
گری--
گز--
گس--
گل--
گلی--
گم--
گماش--
گن--
گند--
گنڈھ--
گنگ--
گه--
گو--
گوا--
گور--
گوش--
گون--
گپ--
گڈ--
گڑ--
گھ--
گھا--
گھر--
گھم--
گھن--
گھو--
گھٹ--
گھڑ--
گھی--
گی--
گیا--
گݙ--
گݨ--
ڳ--
ڳا--
ڳان--
ڳاہ--
ڳل--
ڳم--
ڳن--
ڳو--
ڳول--
ڳٹ--
ڳی--
ڳے--
ڳݨ--
ں--
ھ--
ھا--
ھب--
ھت--
ھد--
ھر--
ھری--
ھس--
ھل--
ھلا--
ھلی--
ھم--
ھن--
ھند--
ھنڈ--
ھنڑ--
ھو--
ھٹ--
ھٻ--
ھپ--
ھڄ--
ھڈ--
ھڑ--
ھڑی--
ھک--
ھگ--
ھڳ--
ھی--
ھے--
ھݙ--
ھݨ--
ہ--
ہا--
ہار--
ہان--
ہت--
ہتھ--
ہج--
ہد--
ہر--
ہرا--
ہس--
ہل--
ہم--
ہن--
ہنج--
ہند--
ہنڑ--
ہو--
ہوا--
ہوس--
ہووے--
ہٹ--
ہٹا--
ہڑ--
ہک--
ہکو--
ہی--
ہیر--
ہین--
ہیڈ--
ہے--
ہݙ--
ہݨ--
ی--
یا--
یاد--
یار--
یب--
یت--
یر--
یرا--
یز--
یس--
یـ--
یل--
یم--
ین--
یو--
یور--
یٹ--
یڈ--
یڑ--
یک--
یگ--
یں--
یہ--
یی--
ے--
ےتے--
۰--
۱۳--
۱۸--
۱۹--
۲--
۲۰--
۳--
۴--
۵--
۶--
۷--
۸--
۹--
ݙ--
ݙا--
ݙت--
ݙر--
ݙرا--
ݙس--
ݙسی--
ݙل--
ݙند--
ݙنگ--
ݙو--
ݙوہ--
ݙٹ--
ݙک--
ݙکھ--
ݙھ--
ݙہ--
ݙی--
ݙین--
ݙے--
ݨ--
ݨو--
ݨک--
ݨی--
आ--
इ--
ए--
क--
ग--
ज--
त--
न--
प--
म--
र--
ल--
स--
--0
--00
--000
--1
--14
--17
--18
--2
--3
--37
--39
--4
--44
--48
--5
--6
--62
--66
--7
--8
--85
--9
--a
--abad
--able
--ad
--ado
--age
--ah
--ai
--al
--ald
--all
--ally
--am
--an
--ana
--ance
--ant
--ap
--ar
--arg
--argname
--args
--ary
--as
--at
--ate
--ated
--ates
--ation
--ations
--atm
--ator
--att
--auer
--ay
--b
--be
--bi
--ble
--blurb
--box
--bs
--c
--ca
--cat
--ce
--cell
--ces
--cfg
--ch
--ck
--class
--createurl
--ct
--cy
--d
--da
--dal
--data
--date
--day
--de
--der
--di
--display
--div
--ds
--dy
--e
--ection
--ed
--editurl
--ef
--ei
--el
--em
--en
--ence
--ens
--ent
--ents
--ep
--er
--ere
--ers
--ert
--erted
--ery
--es
--ess
--et
--ever
--ew
--ey
--f
--fi
--format
--g
--ge
--gh
--ght
--gi
--graphy
--gs
--h
--ha
--han
--heses
--hi
--hm
--hood
--hri
--ht
--i
--ia
--ial
--ic
--ical
--ice
--ick
--id
--ida
--ide
--ied
--ies
--ification
--ify
--ik
--il
--ils
--im
--in
--ina
--ine
--ing
--ings
--inus
--io
--ion
--ions
--iq
--ir
--ire
--is
--ise
--ish
--ism
--isplay
--ist
--it
--ite
--ities
--ition
--itre
--ity
--ium
--ive
--ix
--ization
--ize
--ized
--izing
--j
--ji
--join
--k
--ke
--ker
--key
--ks
--ku
--l
--la
--label
--lah
--ld
--le
--leader
--li
--lies
--ling
--link
--links
--list
--ll
--lo
--low
--ls
--ly
--m
--ma
--me
--ment
--mitted
--mo
--mt
--n
--na
--name
--names
--nce
--nd
--ndex
--nds
--ne
--ned
--ner
--nes
--ng
--ni
--nia
--ning
--no
--none
--ns
--nt
--nts
--num
--o
--obj
--object
--oe
--ology
--om
--omy
--on
--ond
--ong
--only
--ons
--oo
--or
--ors
--ort
--ory
--os
--ot
--ous
--oy
--p
--page
--parameter
--pe
--ping
--plex
--postfix
--prot
--pt
--q
--qbaj
--qt
--qualif
--qualifs
--que
--r
--ra
--ran
--rd
--rds
--re
--ren
--rg
--ri
--ria
--ring
--rl
--ro
--row
--rs
--rt
--ry
--s
--saction
--se
--sed
--ses
--sh
--shi
--ship
--si
--sia
--sial
--sis
--sm
--ss
--st
--stan
--ster
--sty
--style
--sus
--t
--ta
--table
--tal
--tan
--te
--ted
--ter
--text
--th
--ti
--tial
--tic
--tics
--ting
--tion
--tions
--title
--tive
--tly
--to
--toorrss
--tor
--tr
--try
--ts
--ty
--tya
--tyle
--type
--typeerror
--u
--ual
--ue
--um
--ur
--ure
--url
--us
--ution
--v
--val
--vals
--value
--ve
--vi
--w
--waj
--web
--wiki
--wn
--x
--y
--ya
--yn
--z
--ze
--zi
--zia
--ו
--ء
--ءچ
--ءں
--ا
--اء
--اب
--ابن
--ابی
--اة
--ات
--اتی
--اتے
--اج
--اخل
--اد
--ار
--ارت
--ارڈ
--ارہ
--اری
--از
--ازم
--اس
--اسب
--اص
--اض
--اط
--اف
--افی
--اقر
--ال
--الا
--اللہ
--الی
--ام
--امہ
--ان
--انو
--انڑی
--انہ
--انی
--انے
--او
--اوں
--اوی
--اوے
--اوݨ
--اي
--اٹ
--اپ
--اچ
--اڑ
--اک
--اکی
--اں
--اڻي
--اہ
--اہی
--اہے
--اۃ
--ای
--ایا
--ایں
--ایہ
--اے
--اݨ
--اݨاں
--اݨہ
--اݨی
--اݨے
--ب
--با
--باد
--بة
--بت
--بخش
--بر
--بس
--بعد
--بل
--بلوچ
--بن
--بو
--بھ
--بھٹہ
--بہ
--بۃ
--بی
--بے
--ة
--ت
--تا
--تاج
--تاں
--تب
--تخت
--تر
--تل
--تن
--ته
--تو
--توں
--تي
--تک
--تھ
--تھي
--تھی
--تہ
--تی
--تیب
--تیں
--تے
--ث
--ثا
--ثر
--ثنی
--ثی
--ج
--جا
--جاہ
--جتوي
--جر
--جن
--جنڑ
--جها
--جهی
--جو
--جھ
--جہ
--جی
--جے
--جݨ
--ح
--حت
--حد
--حر
--حضرت
--حق
--حل
--حم
--حہ
--خ
--خان
--خاں
--خر
--خی
--د
--دا
--دات
--دار
--داری
--دان
--داں
--دة
--دت
--در
--دل
--دن
--ده
--دو
--دور
--دوں
--دویہ
--دي
--دڑ
--دگی
--دھ
--دھی
--دہ
--دۃ
--دی
--دیاں
--دین
--دیں
--دے
--دݨ
--ذ
--ذب
--ذہ
--ر
--را
--راں
--رایا
--رب
--رة
--رت
--رد
--رز
--رس
--رش
--رق
--رم
--رن
--رو
--روں
--ري
--رٹ
--رڈ
--رہ
--ری
--ریب
--ریں
--رے
--رݨ
--ز
--زا
--زت
--زخ
--زم
--زن
--زو
--زي
--زہ
--زی
--زے
--س
--سا
--ساب
--سال
--سان
--ساي
--ساں
--سب
--ست
--سخ
--سر
--سراي
--سز
--سس
--سط
--سف
--سم
--سن
--سو
--سوں
--سي
--سٹ
--سٹر
--سک
--سہ
--سی
--سید
--سین
--سیں
--سے
--ش
--شا
--شاہ
--شت
--شد
--شر
--شل
--شم
--شن
--شنز
--شو
--شپ
--شی
--شیا
--شیم
--ص
--صد
--صر
--صل
--صی
--ض
--ضاء
--ضات
--ضر
--ضي
--ضہ
--ضے
--ط
--طر
--طس
--طلق
--طو
--طہ
--طی
--طیع
--ظ
--ظر
--ع
--عام
--عانی
--عة
--عت
--عث
--عظ
--عہ
--عی
--عے
--غ
--غانی
--غرب
--غلام
--غہ
--غی
--غے
--ـ
--ـا
--ـدی
--ــ
--ــے
--ـن
--ـي
--ـں
--ف
--فا
--فر
--فش
--فع
--فن
--فٹ
--فک
--فہ
--فی
--ق
--قاد
--قار
--قباي
--قت
--قر
--قط
--قن
--قہ
--قی
--قیع
--قیہ
--ك
--ل
--لا
--لاي
--لبیہ
--لت
--لر
--لز
--لس
--لشعراء
--لف
--لفیا
--لق
--لك
--لل
--للہ
--لم
--لن
--له
--لو
--لوجی
--لوک
--لڈ
--لہ
--لہب
--لی
--لے
--م
--ما
--مال
--مت
--محمد
--مد
--مذ
--مر
--معین
--مل
--ملک
--من
--مند
--منٹ
--مٹ
--مپ
--مہ
--می
--میا
--میں
--مے
--ن
--نا
--نال
--ناک
--ناں
--نبی
--نة
--نت
--نتی
--نج
--نجر
--ند
--ندا
--ندن
--ندوں
--ندي
--ندڑ
--ندی
--ندے
--نر
--نز
--نس
--نسی
--نل
--نه
--نو
--نواں
--نون
--نونج
--نوے
--نوݨ
--ني
--نٹ
--نڈ
--نڑ
--نڑا
--نڑی
--نک
--نگ
--نگر
--نہ
--نی
--نیا
--نیں
--نیہ
--نے
--ه
--ها
--هر
--هه
--هو
--هہ
--هی
--هیاں
--هیں
--هے
--و
--وا
--وار
--وال
--واں
--وب
--وة
--وت
--وجی
--وح
--ود
--ور
--ورس
--وری
--ورے
--وز
--وس
--وسے
--وش
--وض
--وعہ
--وف
--وق
--ول
--ولا
--وم
--ومی
--ون
--وند
--ونس
--ونڑ
--ونڑے
--ونے
--وو
--وى
--وي
--وٹ
--وپ
--وچ
--وچڑ
--وچی
--وڈ
--وڑ
--وڑاں
--وڑہ
--وک
--وکڑ
--وگ
--وں
--وہ
--وی
--ویں
--وے
--وݨ
--وݨے
--ى
--ي
--يا
--ياں
--ية
--يت
--يع
--يق
--يم
--ين
--يہ
--يۃ
--٠
--١
--٢
--٣
--٣٨
--٤
--٤٢
--٤٣
--٥
--٥٧
--٦
--٦٣
--٦٦
--٧
--٨
--٨٥
--٩
--٩٤
--ٸ
--ٸں
--ٸی
--ٸیں
--ٸے
--ٹ
--ٹا
--ٹر
--ٹری
--ٹس
--ٹل
--ٹن
--ٹو
--ٹک
--ٹھ
--ٹی
--ٹے
--ٻ
--ٻی
--ٻے
--ٽا
--پ
--پا
--پت
--پر
--پن
--پور
--پوری
--پي
--پی
--پیگنڈے
--پے
--ڄ
--ڄے
--ڄݨ
--چ
--چا
--چر
--چل
--چن
--چڑ
--چھ
--چہ
--چی
--چے
--ڈ
--ڈا
--ڈتا
--ڈر
--ڈز
--ڈو
--ڈھ
--ڈہ
--ڈی
--ڈیا
--ڈے
--ڈݨ
--ڋ
--ڋا
--ڋی
--ڋے
--ڍا
--ڑ
--ڑا
--ڑاں
--ڑن
--ڑه
--ڑو
--ڑوں
--ڑي
--ڑپ
--ڑھ
--ڑھیں
--ڑھے
--ڑہ
--ڑی
--ڑیں
--ڑے
--ڑݨ
--ژن
--ڙ
--ڙا
--ک
--کا
--کار
--کاي
--کت
--کر
--کرتے
--کرݨ
--کس
--کش
--کل
--کلي
--کم
--کن
--کو
--کوٹ
--کوں
--کي
--کٹ
--کڑ
--کھ
--کہ
--کی
--کیا
--کیتی
--کیتے
--کے
--کݨ
--ڪ
--گ
--گا
--گان
--گاں
--گر
--گل
--گو
--گي
--گھ
--گھے
--گہ
--گی
--گیا
--گیج
--گیں
--گے
--گݨ
--ڳ
--ڳي
--ں
--ڻ
--ڻا
--ڻي
--ھ
--ھا
--ھاں
--ھر
--ھل
--ھم
--ھن
--ھو
--ھي
--ھٹ
--ھڑ
--ھڑے
--ھہ
--ھی
--ھیں
--ھے
--ھݨ
--ہ
--ہا
--ہاي
--ہاں
--ہت
--ہر
--ہل
--ہم
--ہن
--ہو
--ہوں
--ہي
--ہٹ
--ہڑ
--ہک
--ہہ
--ہی
--ہیں
--ہے
--ہݨ
--ۃ
--ی
--یا
--یات
--یار
--یان
--یاں
--یاہ
--یت
--یج
--یجن
--یجو
--یجے
--یجݨ
--یح
--ید
--یدگی
--یر
--یز
--یس
--یش
--یشن
--یص
--یض
--یع
--یف
--یق
--یقی
--یل
--یم
--یما
--ین
--یه
--یو
--یوں
--یي
--یٹ
--یٹری
--یچ
--یک
--یں
--یہ
--یۃ
--ییں
--یے
--ے
--۰
--۰۰
--۰۲
--۱
--۲
--۳
--۴
--۵
--۶
--۷
--۸
--۹
--ݙ
--ݙا
--ݙو
--ݙھ
--ݙی
--ݙے
--ݨ
--ݨا
--ݨاں
--ݨہ
--ݨی
--ݨیں
--ݨے
--म
