!
"
#
##0
##1
##10
##11
##12
##13
##14
##15
##16
##17
##18
##19
##2
##20
##21
##22
##23
##24
##25
##26
##27
##28
##29
##3
##30
##31
##32
##33
##34
##35
##36
##37
##38
##39
##4
##40
##41
##42
##43
##44
##45
##46
##47
##48
##49
##5
##50
##51
##52
##53
##54
##55
##56
##57
##58
##59
##6
##60
##61
##62
##63
##64
##65
##66
##67
##68
##69
##7
##70
##71
##72
##73
##74
##75
##76
##77
##78
##79
##8
##80
##81
##82
##83
##84
##85
##86
##87
##88
##89
##9
##90
##91
##92
##93
##94
##95
##96
##97
##98
##99
$
%
&
'
(
)
*
+
,
-
.
/
0
00
000
0001
0002
001
002
00232
003
004
005
00536
006
00643
007
008
009
01
010
011
013
014
015
016
018
01883
019
02
022
026
03
033
038
039
04
043
05
06
07
0793756
08
09
1
10
100
1000
10000
100000
1006
1007
101
1016
102
103
1038
104
105
106
107
108
109
11
110
1100
1103
111
1118
112
1126
113
114
115
116
117
118
119
12
120
1200
121
122
123
1236
124
125
126
127
1279
128
129
13
130
1300
131
132
133
134
135
136
137
138
1380
139
14
140
1400
1404
141
142
143
144
145
146
147
148
1488
149
1492
15
150
1500
1504
151
152
153
154
1547
155
1551
1552
1555
156
1565
157
158
159
1596
16
160
1600
1603
1606
1609
161
1610
1611
162
163
1630
1632
1636
164
1640
1642
1648
165
1650
1654
166
1660
1667
167
1670
168
169
17
170
1700
1707
1708
171
1710
1719
172
1720
1721
1722
1723
1727
1728
173
1730
1735
1737
174
1740
1741
1744
1745
1747
1748
175
1750
1753
1755
1758
176
1760
1762
1763
1764
1767
1768
1769
177
1770
1772
1773
1774
1775
1776
1777
1778
1779
178
1780
1781
1782
1783
1784
1785
1787
1788
1789
179
1790
1791
1792
1793
1794
1795
1796
1797
1798
1799
18
180
1800
1801
1802
1803
1804
1805
1806
1807
1808
1809
181
1810
1811
1812
1813
1814
1815
1816
1817
1818
1819
182
1820
1821
1822
1823
1824
1825
1826
1827
1828
1829
183
1830
1831
1832
1833
1834
1835
1836
1837
1838
1839
184
1840
1841
1842
1843
1844
1845
1846
1847
1848
1849
185
1850
1851
1852
1853
1854
1855
1856
1857
1858
1859
186
1860
1861
1862
1863
1864
1865
1866
1867
1868
1869
187
1870
1871
1872
1873
1874
1875
1876
1877
1878
1879
188
1880
1881
1882
1883
1884
1885
1886
1887
1888
1889
189
1890
1891
1892
1893
1894
1895
1896
1897
1898
1899
19
190
1900
1901
1902
1903
1904
1905
1906
1907
1908
1909
191
1910
1911
1912
1913
1914
1915
1916
1917
1918
1919
192
1920
1921
1922
1923
1924
1925
1926
1927
1928
1929
193
1930
1931
1932
1933
1934
1935
1936
1937
1938
1939
194
1940
1941
1942
1943
1944
1945
1946
1947
1948
1949
195
1950
1951
1952
1953
1954
1955
1956
1957
1958
1959
196
1960
1961
1962
1963
1964
1965
1966
1967
1968
1969
197
1970
1971
1972
1973
1974
1975
1976
1977
1978
1979
198
1980
1981
1982
1983
1984
1985
1986
1987
1988
1989
199
1990
1991
1992
1993
1994
1995
1996
1997
1998
1999
2
20
200
2000
20000
2001
2002
2003
2004
2005
2006
2007
2008
2009
201
2010
2011
2012
2013
2014
2015
2016
2017
2018
2019
202
2020
2021
2022
203
2030
204
205
206
207
208
209
21
210
211
212
213
214
215
216
217
218
219
22
220
221
222
223
2231
224
225
226
227
228
229
23
230
231
232
233
234
235
236
237
238
239
24
240
241
242
243
244
245
246
247
248
249
25
250
2500
25000
251
252
253
254
255
256
257
258
259
26
260
261
262
263
264
265
266
267
268
269
27
270
271
272
273
274
275
276
277
278
279
28
280
281
282
283
284
285
286
287
288
289
29
290
291
292
293
294
295
296
297
298
299
3
30
300
3000
301
302
303
304
305
306
307
308
309
31
310
311
312
313
314
315
316
317
318
319
32
320
321
322
323
324
325
326
327
328
329
33
330
331
332
333
334
335
336
337
338
339
34
340
341
342
3422008322
343
344
345
346
347
348
349
35
350
351
352
353
354
355
356
357
358
359
36
360
361
362
363
364
365
366
367
368
369
37
370
371
372
373
374
375
376
377
378
379
38
380
381
382
383
384
385
386
387
388
389
39
390
391
392
393
394
395
396
397
398
399
4
40
400
4000
401
402
403
404
405
406
407
408
409
41
410
411
412
413
414
415
416
417
418
419
42
420
421
422
423
424
425
426
427
428
429
43
430
431
432
433
434
435
436
437
438
439
44
440
441
442
443
444
445
446
447
448
449
45
450
451
452
453
454
455
456
457
458
459
46
460
461
462
463
464
465
467
468
469
47
470
471
472
475
476
478
479
48
480
482
483
484
485
486
487
488
489
49
490
491
492
493
495
496
497
498
499
5
50
500
5000
50000
501
502
503
504
505
506
508
509
51
510
511
512
515
516
517
518
519
52
520
521
523
524
525
526
527
528
529
53
530
531
532
533
534
535
536
538
539
54
540
542
543
544
545
546
548
55
550
551
552
553
554
555
557
558
56
560
562
564
565
567
568
569
57
570
571
572
573
574
575
576
58
581
582
584
585
587
588
59
590
591
592
599
6
60
600
6000
603
604
606
608
609
61
610
612
616
617
618
619
62
621
623
624
627
63
630
631
632
633
635
636
639
64
640
642
645
648
649
65
650
651
655
656
657
66
660
662
664
667
67
670
672
673
675
676
679
68
680
681
684
685
688
69
691
696
699
7
70
700
7000
703
704
705
71
711
713
7133
72
720
729
73
735
736
737
74
75
750
752
7525
756
76
760
7670
768
7695
77
770
78
784
79
7975
8
80
800
81
814
82
8243
83
84
840
85
850
85270
86
87
87317
87691
88
88167
89
9
90
900
91
911
92
922
9221
93
93264
94
944
949
95
950
9524
9533
95382
955
957
96
960
9614
965
966
97
978
98
98229
985
99
992
9965
:
;
<
=
>
?
@
[
\
]
^
_
`
a
aa
ab
abbr
abc
about
abstract
ac
academia
academic
academy
accessed
accipiter
action
ad
adam
adams
addison
adobe
adsl
africa
after
ag
agabazar
age
agency
agrostis
air
ais
al
alan
albert
alexander
alfred
algebra
all
alla
allen
allmovie
alnus
alpha
als
also
alt
altertumswissenschaft
alyga
am
ame
america
american
among
amore
amsterdam
an
analysis
anatomy
ancient
and
andersson
andrew
animal
animation
ankara
ann
anna
anne
aoc
apache
apple
applications
applied
approach
april
ar
arc
arccos
architecture
archive
archives
arcsin
arctg
are
army
array
art
arthur
article
articles
arts
arxiv
as
ascii
asia
asp
aspx
association
astronomical
astronomy
at
atlantic
atlas
atomic
au
audi
audio
auf
aufl
auflage
august
aus
australia
australian
aut
author
aux
avant
avena
award
awards
ax
az
b
ba
back
bad
balance
ball
band
bank
banners
based
basic
battle
bb
bbc
bc
bd
be
beatles
beckerath
begin
bei
bell
benjamin
ber
berkeley
berlin
bersillon
best
beta
between
beyond
bezirk
bf
bi
bidens
big
billboard
biography
biology
bird
birds
bis
bitter
blachot
black
blackwell
blanc
blog
blood
blue
bmatrix
bo
board
body
boiss
book
books
booksources
border
boston
botanical
bowie
box
br
brian
brief
brill
britain
britannica
british
bromus
brookesia
broughton
brown
bruce
bu
building
bulletin
bureau
business
but
bx
by
c
ca
calculator
calculus
california
calvados
cambridge
campbell
camus
can
canada
canadian
cap
carl
case
cases
casuistry
cat
catalogue
catholic
cc
cd
cdot
cdots
ce
census
centaurea
center
central
centre
century
cf
ch
change
channel
chapter
charles
che
cheilopogon
chemical
chemistry
cher
cherokee
chicago
china
chinese
choose
christian
christopher
chronicle
chuvash
ci
cia
cinema
cite
city
civilization
cl
classical
classification
club
cms
co
code
collapse
collection
college
collins
columbia
com
commission
committee
common
community
companion
company
comparative
complete
comprehensive
computer
congress
conseil
conservation
contemporary
content
convolvulus
corporation
corps
cos
council
country
course
court
cr
crc
critical
crocodylus
cross
cs
css
ctg
cultural
culture
current
cv
cx
d
da
daily
daniel
dans
dark
darwin
das
data
database
david
day
days
db
dc
de
dead
death
dec
decay
december
definition
del
dell
della
delta
dem
den
department
der
des
description
design
det
deutsch
deutsche
deutschen
deutscher
deux
development
di
dictionary
dictionnaire
die
digital
directed
directory
discovery
disney
displaystyle
division
dj
djvu
dll
dmoz
do
doc
documents
doi
don
donald
dots
double
dover
down
dq
dr
dreams
dt
du
dunal
dvd
dx
dynamics
e
early
earth
east
eastern
ec
economic
ed
edinburgh
edited
edition
editions
editor
eds
edu
education
edward
ef
egypt
egyptian
ein
eine
einfu
einstein
el
electronic
element
elementary
elements
elizabeth
elsevier
empire
en
enc
encyclopaedia
encyclopedia
encyclopædia
end
energy
engineering
england
english
entertainment
entry
eol
er
eric
es
essays
est
et
etc
ethics
ethnic
ethnologue
eu
euler
europa
europe
european
evaluation
evans
evidence
evolution
ex
excel
f
fa
facebook
factbook
facts
fall
family
faq
fe
feat
february
felis
femme
festival
ff
fi
field
figures
file
files
film
filter
filterimage
firefox
first
flash
fleming
flight
flora
fm
font
for
forbes
foreign
forum
foundation
foundations
four
fr
frac
franc
france
francis
francisco
frank
frankfurt
franklin
franz
free
freebsd
french
friedrich
from
ftp
fu
full
function
functions
fundamental
fusion
future
g
ga
gallery
game
gamma
garden
gas
ge
general
genus
geo
geographic
geometry
georg
george
georgia
german
germany
geschichte
gif
glasgow
global
glossary
gnu
go
god
gold
golden
good
google
gov
government
gr
grammar
grammatik
grand
grande
grant
graphs
gray
great
greatest
greatness
greek
green
greenwood
grin
group
groups
gruyter
gu
guardian
guide
gyptischen
gyptologische
h
ha
hall
hand
handbook
handbuch
hans
harold
harper
harry
harvard
has
have
haven
he
health
heart
heidelberg
help
henri
henry
her
heracleum
here
heritage
hermann
hero
high
hill
hindi
his
histoire
historia
historical
history
hl
hms
ho
home
homo
hopkins
horse
hot
house
how
howard
hrsg
hrung
htm
html
http
https
hu
hudson
human
i
ian
iana
iau
ibm
icarus
ice
id
if
ii
iii
il
illustrated
im
image
images
imdb
in
inc
includes
including
independent
index
india
indian
indiana
indo
info
information
infty
institut
institute
instrumental
int
inte
interactive
international
internet
interview
into
introduction
inula
io
ip
ipod
irish
is
isbn
island
iso
israel
issn
issue
it
italia
italian
its
iupac
iv
ix
iz
j
ja
jack
jackson
jacques
james
jan
jane
january
japan
japanese
java
javascript
je
jean
jim
jo
joan
johannes
john
johns
johnson
jones
joomla
joseph
joshua
journal
journey
jpg
jpl
jr
jsp
ju
july
june
juniperus
k
ka
kansas
karl
ke
kenneth
kg
khan
ki
king
kingdom
kino
kladr
km
knapp
ko
kp
ku
kunst
kunstverlag
l
la
laboratory
lady
land
lang
language
languages
large
last
late
latin
law
lawrence
laws
ldots
le
learning
leben
lecture
lectures
led
lee
left
legacy
leiden
leipzig
lenta
les
less
letters
lewis
lexikon
li
lib
libr
library
life
light
like
lim
limited
limits
line
linear
linguistic
linguistics
link
links
linnaeus
linux
list
literary
literature
lito
little
live
livejournal
living
ll
ller
ln
lo
location
log
london
long
look
lord
los
louis
love
lp
lt
ltd
lu
lyga
m
ma
mac
machine
macmillan
magazine
magic
magistrates
mai
mail
main
major
make
making
mammal
mammals
man
management
manin
many
map
maps
mar
march
maria
marie
mario
mark
martin
mary
mass
materials
math
mathbb
mathbf
mathematical
mathematics
mathnet
mathrm
mathworld
matrix
matter
max
may
mbox
mc
mcgraw
me
mechanics
media
mediawiki
medical
medicine
medieval
melilotus
men
mennonite
menu
meta
method
methods
mg
mi
michael
michel
microsoft
middle
mil
military
miller
mind
minor
mit
mn
mo
mod
model
models
modern
molecular
moon
moore
more
morris
morrissey
morton
moscow
most
motion
movie
mozilla
mp
mr
mu
mull
murray
museum
music
my
mysql
n
na
nach
name
names
narod
nasa
nation
national
nations
native
natural
nature
nc
nchen
nchner
nd
ne
neq
net
netscape
network
neue
new
news
newton
next
ng
nh
ni
nicholas
night
nigsnamen
nj
no
nobel
nomenclature
non
nord
north
northern
not
notes
nova
november
now
nrcs
nu
nubase
nuclear
nuclphysa
number
numbers
ny
o
objects
observations
ochoa
oclc
october
of
office
official
og
oh
ois
old
omega
on
one
online
op
open
openoffice
opera
operatorname
or
oral
orchestra
order
org
organization
origin
original
origins
os
other
ou
our
out
over
overview
oxford
p
pa
pacific
page
pages
paper
papers
par
paris
park
part
partial
particle
party
pas
past
path
paul
pays
pdf
pe
peace
penguin
pennsylvania
people
peoples
per
period
persian
perspective
peter
pg
phi
philip
philosophical
philosophy
photo
photos
php
phylogeny
phys
physical
physics
physik
pi
pictures
pierre
pl
place
planck
planet
planetary
planets
plant
plants
plus
pm
pmatrix
pmid
png
po
poa
podvignaroda
point
political
politics
polygonum
popular
population
portal
portrait
post
pour
power
pp
pr
practice
pre
prentice
present
press
prince
princeton
principles
print
prize
pro
probability
problem
problems
proceedings
profile
program
project
properties
psychology
pt
pu
pub
public
publication
publications
published
publishers
publishing
pulmonaria
pure
q
qquad
quad
quantum
que
queen
quercus
r
ra
radiation
radio
ral
rambler
random
ray
rd
re
read
reading
real
record
records
red
ref
reference
references
region
regnum
related
relativity
religion
rembrandt
renaissance
report
republic
res
research
resource
resources
results
retrieved
rev
review
revised
revolution
rgen
rho
ri
ria
rich
richard
right
rightarrow
ring
rio
rise
river
rk
rn
ro
robert
rock
roma
roman
rome
rose
roshev
ross
routledge
royal
rs
rss
rsssf
rt
rterbuch
ru
rus
rusactors
ruskino
russia
russian
s
sa
saint
salix
samuel
san
sarah
sc
school
schuster
sci
science
sciences
scientific
scotland
scott
se
sea
search
sec
second
section
see
seine
september
series
server
service
services
set
sh
shakespeare
sherff
ship
short
show
shtml
si
simon
simple
sin
sir
site
size
skype
sm
small
smith
so
soc
social
society
solanum
solar
solaris
solid
some
son
song
sons
soul
sound
source
sources
sous
south
southern
soviet
sp
space
special
species
spermophilus
spiritual
sprache
springer
sqrt
sr
ss
st
sta
standard
stanford
star
state
states
statistical
statistics
stephen
steve
steven
stone
stories
story
street
string
structure
stub
studien
studies
studio
study
stuttgart
style
su
subsp
suggestion
sum
summer
sun
super
sur
surface
survey
susan
symbols
system
systems
t
ta
table
tables
tablesl
taxonomy
taylor
te
teatr
technical
technology
ten
terms
test
texas
text
texte
texts
tg
th
thames
than
that
the
theatre
their
theory
there
thermodynamics
they
thibault
third
this
thomas
thompson
thought
three
through
ti
tilia
time
times
title
to
today
tom
tool
top
toronto
tour
tra
tradition
trans
translated
translation
tre
tree
trel
triangle
ts
tt
tu
turkish
tutorial
tv
twitter
two
typ
type
u
ua
uf
uk
ulmus
un
una
und
under
une
unesco
unicode
union
united
units
univ
universal
universe
university
unix
up
ur
url
urtica
us
usa
usda
use
user
using
ussr
utc
utf
v
va
value
van
var
varphi
vdots
ve
vec
vector
verlag
version
vi
via
victoria
video
vie
view
vii
viii
ville
vo
vol
vols
volume
vom
von
vs
vulpes
w
wa
wales
walker
wall
walt
walter
wapstra
war
warszawa
was
washington
watch
water
waterloo
way
wayback
we
web
webcitation
webelements
website
weekly
well
wesley
west
western
what
when
which
white
who
whois
why
wien
wiesbaden
wiki
wikia
wikibooks
wikileaks
wikimedia
wikipedia
wild
wiley
wilhelm
will
willd
william
williams
wilson
windows
wine
with
wo
wolfgang
wolfram
women
word
work
works
world
wrapper
writing
wu
www
x
xe
xhtml
xi
xii
xiii
xiv
xix
xml
xv
xvi
xvii
xviii
xx
xxi
xxii
xxx
y
ya
yale
yandex
year
years
york
you
young
your
youtube
yu
z
zakupki
zeitschrift
zeppelin
zh
zip
zu
zum
zur
{
|
}
~

§
©
«
¬
­
®
¯
°
±
²
³
´
·
»
½
¿
×
ß
æ
ı
ŋ
ə
ʐ
ʰ
ʲ
ʹ
ʻ
ˈ
ˌ
ː
˙
̀
́
̂
̃
̄
̆
̇
̈
̉
̊
̋
̌
̓
̔
̚
̛
̣
̥
̦
̧
̨
̮
̯
̱
̸
͂
ͅ
͡
α
β
γ
δ
ε
η
θ
ι
λ
μ
ν
ο
π
ρ
ς
ςς
σ
τ
υ
φ
χ
ψ
ω
ϕ
а
абаев
абдрашитов
абдулино
абдулла
абляскино
абрам
абрамов
абрамович
абрикосов
абруков
абрыскино
абсолютл
абстрактл
абу
абхаз
абхази
ав
ава
авал
авалл
авалла
авалтанах
авалхи
аван
авангард
авар
аварсем
авах
авахл
авг
август
августа
авдеев
аверьянов
авеста
авиаполк
авиаци
авиации
авиацин
авив
авл
авланн
авна
авнашкал
авр
авра
авраам
аврак
аврака
аврелии
аври
аврора
австрали
австралире
австри
австрире
австро
авт
автан
авто
автобус
автоматчик
автоматчиксен
автомобиль
автомобиля
автономи
автономии
автономин
автономия
автономл
автономла
автор
автора
авторе
автореф
автореферат
автореферач
авторов
авторсем
авторсен
авторы
агаков
агакова
агафонов
агеев
агеева
агент
агентстви
агентство
агенч
агивер
агни
агриппа
агриппина
агроном
ад
ада
адам
адамович
адвокат
аджи
административл
административла
административно
администратор
администратора
администраци
администрации
администрацилл
администрацин
администрация
адмирал
адольф
адрес
адреса
адресе
адриан
адриатика
адъютант
адыг
адыгеи
азамат
азаров
азбука
азерб
азербаи
ази
азии
азин
азине
азипе
азире
азирен
азири
азия
азов
азот
аи
аиф
ак
ака
акад
академи
академии
академик
академика
академин
академине
академинче
академическии
академия
акан
акансем
акансен
акатуи
аквариум
аквитани
аки
акивер
аким
акимов
акимова
акимович
акк
акка
аккад
акн
акна
акнашкал
акса
аксар
аксе
аксем
аксене
аксу
аксубаево
аксубаевскии
аксубаевского
аксумла
акт
акташ
акте
актер
активл
актини
актрис
актриса
актриси
актрисы
актуальные
акты
акустика
акушер
акции
акч
акшар
ал
ала
алан
аланн
алапу
албани
алга
алгебр
алгебра
алгебры
алгоритм
але
алевтина
алеи
алекс
алекса
александр
александра
александри
александров
александрова
александрович
александровка
александровна
алексеев
алексеева
алексеевич
алексеевка
алексеевна
алексеевски
алексеенко
алексеи
алексея
алексин
ален
алетеи
алжир
али
алиев
аликовская
аликовскому
алина
алиса
алкоголь
алл
алла
аллеи
алли
аллине
аллинче
алма
алмаз
алмантаи
алманч
алмас
алматы
алпатов
алран
алт
алтаи
алти
алфавит
алфавита
алфавитне
алфавич
алфе
аль
альберт
альбина
альбом
альбома
альбрехт
алькеевского
альманах
альп
альпина
альфа
альфред
алюмини
аляск
аляска
ам
ама
амазонка
амак
амал
аманн
америк
америка
американ
американсем
американскии
америки
ами
амня
амореи
амр
амстердам
амундсен
амур
амфибии
амфора
ан
ана
анализ
анализа
аналитик
аналитика
аналитическая
аналог
ананьев
ананьева
анастасия
анат
анатарах
анаткас
анаткасси
анатоли
анатолии
анатольевич
анатольевна
анатомии
анатомия
анатомія
анатоміі
анатри
анать
анах
ангара
ангел
англ
англи
англии
англин
англире
ангола
андельфинген
андерсен
анджелес
андре
андреев
андреева
андреевич
андреевка
андреевна
андреи
андрея
андрианов
андриян
андрющенко
андріи
ани
аникин
аниме
анисимов
анисимович
анискин
анк
анкинович
анл
анла
анн
анна
анне
анненков
анни
аннотированныи
анны
анохин
анри
анс
анса
ансамбл
ансамбль
ансат
ант
антал
антанта
антарктид
антарктида
антарктика
антарн
антеи
анти
антика
антиох
антиохи
антипин
антипов
античная
античнои
античности
античность
антологии
антология
антон
антонии
антонин
антонина
антонио
антонов
антонова
антонович
антропологи
антропологии
антропология
антуан
антуанетта
ануи
анфиса
анхи
анч
анчах
аня
ао
аос
ап
апа
апастовскии
апат
апата
апатлану
апать
апах
апач
апаш
апла
аплах
апн
аполлон
апостол
апп
аппа
аппак
аппаково
аппарат
аппарач
апр
апрель
апреля
апса
апт
аптека
апу
апш
апшра
ар
ара
араб
арав
арави
арагон
аракан
арал
арам
арама
арамеи
аран
арап
арапсем
арапу
аратн
арать
арга
аргентин
аргентина
аргументы
ардатов
ардон
ареал
ареслен
ари
аристарх
аристотель
арифметик
арифметика
арк
арка
аркадии
аркадьевич
аркадьевна
аркан
арканать
арканн
арканса
аркансан
аркану
арката
аркатать
аркатма
аркатн
аркатса
арки
арктик
арктика
арл
арлан
арланова
арм
арма
армавир
армалли
арман
армен
армени
армии
армия
арн
арне
арни
арнольд
арнольдов
арпа
арпу
арса
арсан
арсем
арсен
арсене
арсении
арсентьевич
арсеньев
арт
арта
артамонов
артан
арте
артемьев
артемьева
артемьевич
арти
артиллери
артиллерии
артист
артиста
артистка
артистки
артистсем
артисты
артисч
артур
ару
арх
архангел
архангельск
археолог
археологи
археологии
археологические
археология
археологсем
архив
архива
архиве
архивировано
архивлан
архивлен
архивная
архиври
архивы
архиепископ
архимед
архипелаг
архипов
архипова
архипович
архитектор
архитекторы
архитектура
архитектури
архитектуры
арча
арья
ас
аса
асаил
асаилу
асам
асамат
асамл
асанне
асап
асатте
асбассеи
асеев
асем
асл
асла
асламас
аслан
аслати
аслашш
асли
аспарух
аспект
аспекты
аспирантур
асра
асран
ассамблеи
асси
ассири
ассистент
ассистенч
ассоциации
ассоциация
асср
аст
астахов
астероид
астрель
астроном
астрономи
астул
астула
астулне
астулра
астулран
астулта
асфальт
ася
ат
ата
атак
аталан
аталана
аталанать
аталанма
аталанн
аталанса
аталантарас
аталантарма
аталантарн
аталантарса
аталану
атаман
атикасси
атлант
атлантида
атлантика
атлас
атмосфер
атмосфера
атнер
атом
атомиздат
атомл
атомсен
атра
атракасси
атри
атсем
атсенче
атте
аттил
аттила
ать
ау
аудио
аул
ауновская
афанасии
афанасьев
афанасьева
афанасьевич
афган
афганистан
афганистанра
афин
афина
афиша
африк
африка
африкан
африке
африки
аффикс
ах
ахаль
ахах
ахматова
ахмед
ахмедов
ахмет
ахметов
ахметово
ахп
ахпу
ахрат
ахун
ач
ача
ачал
ачалл
ачана
ачаран
ачаранах
ачасем
ачасен
ачасене
ачи
ачине
ачисем
ачисен
ачисене
аш
ашк
ашкеров
ашмарин
ашмаринские
ашхабад
ашш
ашше
аэродром
аэропорт
аэропорч
аэс
аяк
аякра
аякри
аяларах
аялти
б
ба
баба
бабаев
бабак
бабаян
бабкин
бабушка
бабушкин
бавари
бавлинского
багдашкино
баден
баженов
баз
база
базе
базель
бази
базин
базинче
базинчен
базовые
базу
базы
баи
бак
баканов
баксан
баку
бал
балакирев
баланда
баландин
балатон
балашов
балерина
балет
балета
балетмеи
балеч
балкан
балкар
баллада
балти
балтии
балтика
балхаш
бангладеш
бандитскии
банк
банка
банкир
баннеров
бань
бар
барабанов
баранов
баранова
баргузин
барда
бардымского
баренц
бари
баринов
барнаул
барокко
барон
барс
барселона
барсуков
барыш
бас
басилов
баск
баскаков
баскетбол
басов
бассеи
баста
баталов
батальон
батареи
батареин
батарея
батист
батор
батыревская
бах
бахтин
башгу
башкирии
башкиров
башкирская
башкирскои
башкортостан
башкортостана
башня
баян
ббк
бе
бег
беда
бедныи
без
безопасности
безруков
безумныи
беи
бек
бел
белару
беларус
беларуси
беларусь
белая
белгород
белград
беликов
белинскии
белла
белов
белова
белого
белое
белои
белок
белору
белорус
белоруси
белоруссем
белоруссии
белоусов
белые
белыи
белых
бельги
бельгин
белявскии
беляев
беляков
бен
бенедикт
бенуа
берг
бергман
бердь
бере
берег
берега
берегах
берегу
березин
березина
беринг
берия
беркли
берлин
берлина
берн
бернар
бернард
беседа
беседы
беспалов
беспокои
бессмертныи
бессонов
бета
бетон
бетховен
би
библеи
библи
библиогр
библиографическии
библиография
библиоссылке
библиотек
библиотека
библиотеке
библиотеки
бизнес
бизнесмен
бии
билет
билл
билли
биляр
бином
биобиблиографическии
биографи
биографии
биографическая
биографическии
биография
биол
биолог
биологи
биологии
биологилле
биологическии
биология
биосфера
бирж
биржа
биржи
бирюков
бит
битва
бить
бичурин
бия
бияпа
бкин
бла
благодаря
блан
бланш
блеи
близ
блинов
блог
блок
блока
блокада
блюз
бниц
бо
боб
бобина
бобков
бобров
бог
богатство
богатыи
богатыре
богатырь
богдан
богданов
богданович
богема
богов
боголюбов
богомолов
бодров
боевик
боевои
боевые
бои
болг
болгар
болгари
болгарии
болгарин
болгария
болгаро
болгарскии
болгарских
болгарского
болгарскои
болгары
более
болезни
болезнь
боливи
болит
болотов
болтовского
боль
больнои
больных
большаков
большая
больше
большевик
большевиксем
большевиксен
большевиксене
большие
большим
большинстве
большинство
большого
большое
большои
бомб
бомба
бомблакан
бон
бонгард
бондарев
бондаренко
бондарчук
бондарь
бор
бордо
бори
борис
бориса
борисенко
борискин
борисов
борисова
борисович
борисовна
боркин
боровков
бородин
бортинженер
борьба
борьбе
борьбы
босни
боспор
бостон
бот
ботаник
ботаника
ботаническии
боуи
бочарников
бочаров
бочкаре
брагин
бразили
браи
брак
бран
бранденбург
брат
брата
братислава
брать
братья
браузер
браун
брежнев
бреи
брест
бретань
бретонь
бригад
бригада
бригади
бригадин
бригадир
брик
британ
британи
британие
британин
британипе
британире
брод
бродскии
брокгауза
брокгаузпа
бронз
бронза
бронь
бруно
брэ
брюс
брюссель
брянск
бсэ
бу
бугера
будапешт
будда
буддизм
буде
будем
будет
будут
будущего
будущее
будущем
буи
буинского
букв
буквар
букварь
буквы
букер
булат
булатов
булгаков
булгар
булгаризм
булгаро
булгары
булдаков
бульвар
бур
буран
бурбон
бург
бургунди
буржуази
буркина
бурмистров
буров
бурцев
бурят
буряти
бус
бутаиха
бутан
бухара
бухгалтер
буш
бушуева
буэнос
бы
бывшая
бывшего
бывшии
бык
быков
быковскии
был
была
были
было
быстро
быстров
быстром
быт
бытия
бытовые
быть
бычков
бышев
бэи
бэкон
бюджет
бюллетень
бюро
бюров
в
ва
вавилов
вавилова
вавилон
ваг
вагнер
вагон
вагриус
вадим
ваза
вазов
ваи
вак
вакал
вакан
вакансем
вакансен
вакарч
вакун
вал
вала
валаса
валдаи
вале
валеев
валем
валентин
валентина
валентинович
валериан
валерии
валерия
валерьевич
валерьевна
вали
валиев
валла
валли
валь
вальс
вальтер
валюта
валя
вам
вами
ван
вана
ване
ванин
ванл
ванла
вансем
вантер
ванч
вань
ваня
вап
вапа
вапл
вапла
вапли
вар
вара
варан
варас
варать
варвара
вари
вариант
варианч
варл
варма
варман
варн
варна
варни
варпа
варри
варрине
варринче
варринчен
варринчи
варса
варсем
вартан
варшав
варшава
варя
варяг
вас
васан
васи
василевскии
василенко
василии
василиса
василия
василь
васильев
васильева
васильевич
васильевича
васильевка
васильевна
васильченко
васин
васл
васнецов
васса
васси
васюган
васюганран
вася
ват
вата
ватерлоо
ватикан
ватк
ваткал
ватл
ватне
ватсон
ватт
ваттисем
ваттисен
вать
вах
вач
ваш
ваша
ваше
вашего
вашем
вашингтон
вашка
вашкино
вашл
вашла
вашра
вашран
вашсем
вашсемпе
вашсен
вашсене
вая
вв
вва
введение
введенскии
введите
вверх
ввести
вви
ввине
ввипе
ввисем
ввисемпе
ввисене
вдова
вдовенко
вдоль
вдруг
ве
веб
вебер
ведерников
ведомости
ведут
ведущии
ведь
везер
веи
век
века
веках
веке
веков
вектор
векторла
вел
велан
велана
веле
велен
великая
великие
великии
великих
великого
великои
великорусского
величаи
величества
величин
величко
велл
велосипед
велтух
велтуха
вен
вена
венг
венгр
венгри
венгрин
венгрсем
венера
венесуэл
венесуэла
венеци
вениамин
вениаминович
вепс
вер
вера
вербицкии
верди
вере
верен
вермахт
вернадскии
вероника
вероятностеи
верре
версаль
верси
версии
версине
версипе
версия
вертикалл
вертоле
верхнее
верхние
верхнии
верховного
веры
весе
веселов
весем
весен
весна
веспасиан
вест
вестготсен
вести
вестн
вестник
вестфали
весь
вет
ветер
ветеран
ветеранов
ветеринари
ветлуга
ветров
вече
вечер
вечера
вечернии
вечером
вечно
вечныи
веществ
вещества
вещество
вещи
вещь
взаимодеи
взвод
взвоч
взгляд
взрыв
взять
ви
виа
вивьен
вид
вида
виде
видел
видео
видеоканал
видеохостинг
видеть
видов
виды
византи
византии
визит
вика
вики
викиампарта
викивулав
викик
викимедиа
википеди
википедие
википедии
википедин
википедине
википединче
википедире
википедия
викис
викицитатникре
виктор
виктора
виктори
виктория
викторов
викторович
викторовна
вил
виле
вилет
вилн
вилне
вилни
вилнисем
вилнисен
вилсе
вилсен
вилт
вильгельм
вильнюс
вильям
вильямс
вин
винберг
вине
винник
вино
виноградов
виноградова
винокуров
винсент
винтертур
винче
винчи
виолетта
вир
виртуалл
виртуальныи
вирус
вирьял
вис
висанти
виска
виски
вит
виталии
витальевич
витальевна
вите
витебск
витлев
витн
витти
вице
вицин
вич
вичк
вишневая
вишневскии
вища
виҫе
виҫҫе
вк
вка
включая
вком
вконтакте
вкп
вкус
вл
вла
влади
владивосток
владимир
владимира
владимиров
владимирова
владимирович
владимировна
владислав
влас
власенко
власов
власова
власти
власть
влияние
влксм
влюбле
вместе
вместо
вна
вне
внесении
вниз
внимание
вновь
внутри
во
вод
вода
воде
водител
водитель
водка
водного
водныи
водных
водород
воду
воды
воеводин
воен
воениздат
военная
военно
военного
военное
военнои
военные
военныи
военных
вож
воз
возвр
возвращение
воздух
воздушных
возможно
возможности
возможность
возникновение
возникновения
возраст
возраста
возрождение
возрождения
возяков
вои
воинов
вокал
вокзал
вокруг
волга
волгателеком
волге
волги
волгин
волго
волгоград
волеи
волжская
волжские
волжских
волжскои
волк
волки
волков
волкова
волны
вологда
володин
володя
волости
волосы
волошин
волхов
вольта
вольфа
вольфганг
вольфрам
воля
вон
вообще
вооруже
вопр
вопрос
вопросов
вопросу
вопросы
вор
воробье
воробьев
ворон
воронеж
воронин
воронков
воронов
воронцов
воронцова
воропаев
воропаева
ворот
ворота
ворошилов
восемь
воскресенье
воспитани
воспоминании
воспоминания
воспоминаниях
восстание
восток
востока
востоке
востоковедение
восточная
восточного
восточнои
восточные
восточныи
восточных
востриков
вот
впервые
впере
вперед
впереди
вр
враг
врач
време
времен
времена
временем
времени
время
врубель
вс
всадник
все
всеволод
всеволодович
всегда
всего
всеи
вселенная
вселеннои
всем
всеми
всемирная
всемирнои
всему
всеобщая
всерос
всероссии
всесоюзная
всех
вские
вслух
встреча
встречи
вступ
вступил
всю
вся
вт
вторая
второго
второе
второи
ву
вузов
вул
вула
вулав
вулакан
вулама
вулан
вуланать
вуласа
вулать
вулкан
вульф
вун
вуник
вуникк
вунн
вунп
вунт
вуншар
вуппер
вут
вутлан
вучах
вцик
вчера
вы
выберите
выбор
выборов
выбрать
выгодскии
вызов
вызывать
выи
выл
выль
выля
выляв
вылякан
выляма
вылямалли
вылян
выляса
вылять
вып
выпуск
выр
выра
выражает
выражение
выражения
вырн
вырна
вырнаҫна
вырнаҫтарна
вырсарни
вырсарникун
вырт
вырта
выртакан
выртать
выртн
высоцкии
выставка
выставки
выстрел
выступление
высш
высшая
высшего
высшеи
высших
выход
вычегд
выше
вышла
вьетнам
вэи
вюртемберг
вязовка
вязьма
вялыи
вятка
вячеслав
г
га
габдулла
габриэль
гаваи
гавриил
гаврил
гаврила
гаврилов
гаврилова
гаврилович
гавриш
гагарин
гагарина
газ
газа
газета
газете
газеты
газпром
гаи
галактик
галактика
галереи
галереинче
галерея
галилеи
галин
галина
галицкии
галич
галкин
галкина
галл
галли
галя
гамбич
гамбург
гамильтон
гамлет
гамма
ган
гана
ганза
ганнибал
ганс
гарик
гарин
гаркуша
гарнизон
гарри
гаспаров
гаубица
гаусс
гафаров
гвардеи
гварди
гвардии
гвардия
гвинеи
гг
где
гдр
ге
геи
гектар
гектарсемче
ген
гена
генеалогические
генеалогия
генезис
генерал
генерала
генералам
генералл
генералов
генетика
гении
геннадии
геннадия
геннадьевич
геноцид
генри
генрих
генуи
генуя
гео
географ
географи
географии
географилле
географические
географическии
географических
географического
география
геоинформаци
геокар
геолог
геологи
геология
геометри
геометрии
геометрилле
геометрире
геометрия
георг
георги
георгиевич
георгиевна
георгии
георгия
геральдика
герасим
герасименко
герасимов
герасимова
герасимович
герб
герберт
гербне
гердт
герман
германи
германие
германии
германик
германин
германипе
германире
германири
германия
геродот
героев
герои
героя
герцеговина
герцен
герцог
гессен
гетман
ги
гибель
гидрологи
гидрологическая
гидрометеоиздат
гидротехнических
гидроузел
гильберт
гималаи
гимн
гимнази
гимназии
гин
гинзбург
гипе
гипотез
гипотеза
гиппократ
гитара
гитис
гитлер
гиттл
гл
глав
глава
главе
главная
главного
главное
главнои
главном
главныи
главным
главы
глагол
глагола
гладков
глаз
глаза
глазами
глазах
глазков
глазов
глазунов
гларус
глеб
глебов
глинка
глобус
глухов
гнездо
гнеи
го
гоби
говори
говорит
говорить
говоров
говорухин
говорят
гог
гоген
гоголь
гоголя
год
года
годах
годов
году
годунов
годы
гои
гол
голиков
голланд
голланди
голль
голова
головаче
головин
головкин
голову
головченко
голод
голос
голоса
голосов
голосования
голубев
голубков
голубовскии
голубои
голубь
гольбеи
гомель
гомер
гонконг
гончаренко
гончаров
гончарова
гор
гора
горах
горбач
горбаче
горбунов
гордеев
гордиенко
гордон
горе
горелик
горелов
гори
горизонт
горин
горничная
горныи
горобец
горов
город
города
городам
городах
городе
городище
городов
городок
городских
городского
городскои
городу
горохов
горскии
горчаков
горшков
горы
горькии
горького
горюнов
горячев
гос
господин
гост
гостехиздат
гость
гостья
гостях
государств
государства
государственная
государственного
государственное
государственнои
государственные
государственныи
государственными
государственных
государство
готлиб
готсем
гр
граве
гравитаци
гравитацилле
гравюра
градус
граждан
граждане
гражданин
гражданл
гражданла
граждансен
гражданская
гражданское
гражданскои
грам
грамм
грамматик
грамматика
грамматике
грамматики
грамота
грамоти
гран
гранд
грани
границ
граница
границы
грант
граубюнден
граф
графа
график
графика
графики
графиня
графл
граче
греи
грек
греков
грексем
грексен
гренланди
грех
греци
греции
грецин
грецире
грецири
греч
гречко
гриб
грибов
грибоедов
грибы
григории
григорович
григорьев
григорьева
григорьевич
григорьевна
гриме
грин
гриценко
гриша
гришин
гришко
грищенко
гродно
грозныи
гром
громко
громов
громова
гроссмеи
грошев
груз
грузи
грузин
грузинсем
грузире
групп
группа
группи
группине
группы
грязи
грязнов
грязнушка
грязныи
грязь
гс
гт
гтрк
гу
губ
губа
губанов
губарев
губернатор
губернии
губерния
губерниях
губин
гулаг
гуляев
гуманит
гуманитар
гуманитари
гуманитарные
гуманитарныи
гуманитарных
гумиле
гумилев
гун
гуннов
гур
гуревич
гурии
гуров
гурьев
гурьянов
гусаров
гусев
гусеи
густав
гущин
гыдан
гэс
гюго
д
да
даваи
давать
давид
давиденко
давидович
давлекан
давно
давыдов
давыдова
давыдович
дагестан
даже
даи
дак
дал
дале
далее
далеко
далекого
дали
даль
дальнего
дальнеи
дальнии
дальше
дама
дан
даная
данелия
дани
даниил
данила
данилин
данилов
данилова
данилович
даниэль
данном
данные
данныи
данным
данных
данте
дао
дар
дарата
даревскии
дарья
дат
дата
дати
датисем
даттисем
даты
дать
даш
даша
два
двадцать
дважды
две
двенадцать
дверь
двигатель
двигаться
движение
движении
движения
двина
двое
двои
двор
двора
дворец
дворов
дворян
двудольные
двумя
двух
де
дебют
девочка
девушка
девушки
девять
деггер
деггера
дегтяре
дед
дедушка
дедушкин
деи
дек
декабре
декабрь
декабря
декан
декарт
декоративных
декреч
дел
дела
делам
делать
деле
деление
деления
делла
дело
дель
дементьев
дементьева
деметрии
демидов
демократи
демократилл
демоскоп
демченко
демьяненко
демьянович
ден
денег
дени
деникин
денис
денисенко
денисов
денисова
денисович
дено
день
деньги
департамент
департаментсем
департаменч
департаменче
депутат
депутатов
депутач
дер
дербент
дерева
деревень
деревне
деревни
деревню
деревня
дерево
деревья
деревянко
деревянная
десант
десна
десять
дет
детеи
детектив
дети
детская
детскии
детства
детство
деятели
деятель
деятельности
деятельность
дж
джаз
джан
джана
джансем
джеи
джек
джексон
джерси
джигарханян
джим
джимми
джин
джо
джоан
джобс
джованни
джозеф
джои
джон
джонатан
джонс
джонсон
джордж
джузеппе
джульетта
дза
дзюба
ди
диагностика
диак
диакон
диал
диалект
диалектика
диалекч
диалог
диаметр
диана
диапазон
диаспора
диаспори
диван
дивизи
дивизии
дивизин
дивизион
диденко
дидро
диего
дизаи
дизель
дик
дикая
дикии
диктатор
диктор
димитриев
димитриевич
дин
дина
динамик
динамика
динамики
динамо
династи
династии
династин
династине
династия
диоген
диплом
дипломат
дипломати
дипломач
дипломне
директор
директора
дириже
дирижер
дис
диск
дискретл
дисс
диссертаци
диссертации
диссертацине
диссертация
дисциплин
дисциплина
дите
дифференциалл
длинная
для
дмитриев
дмитриева
дмитриевич
дмитриевна
дмитрии
дмитрия
дне
дневник
дневники
днеи
днем
днепр
днепропетровск
днестр
дни
днк
дня
до
добавить
добро
добровольскии
добронравов
добрыи
довженко
довлатов
довольно
договор
дожди
дождь
дождя
дои
док
докл
доклад
докладов
доклады
доктор
доктора
документ
документа
документальныи
документах
документл
документов
документсем
документсене
документсенче
документы
докуменч
докучаев
долг
долгая
долгии
долго
долгов
должен
должно
должность
должны
долина
долл
доллар
доля
дом
дома
домашнего
доме
домен
домино
домициан
домиции
домов
домои
дон
дона
донец
донецк
донскои
дону
доп
дополнение
дополнения
дополненное
дор
дора
доров
дорова
дорович
доровка
доровна
дорог
дорога
дороге
дороги
дорогои
дорогу
дорофеев
доска
достаточно
достоевскии
достои
достопримечательности
доступ
доступа
досье
доценко
доцент
доценч
дочери
дочь
др
драм
драма
драматург
драматургии
драми
древнего
древнеи
древние
древнии
древних
древностеи
древности
древняя
древо
дреи
дрожжановского
дроздов
дроздовская
дрофа
друг
друга
другая
другие
другим
другими
других
другого
другое
другои
другом
дружба
дружбы
дружинин
друз
друзья
ду
дуб
дубинин
дубна
дубровин
дубровскии
дуглас
дудин
дуков
дума
думи
думин
думка
думы
дунаев
дунаи
дуров
дух
духа
духовная
духовное
духовнои
душ
душа
души
дуэль
дуэт
дыбо
дым
дьявол
дьяков
дьяконов
дьяконова
дьяченко
дьячков
дэ
дэвид
дю
дюи
дюма
дядя
дятлов
е
ев
ева
евгении
евгения
евгеньевич
евгеньевна
евдокимов
евдокимова
евдокимович
евдокия
еве
евич
евклид
евклидла
евна
еврази
евразии
евразия
евреи
евро
европ
европа
европара
европе
европеи
европи
европы
евсеев
евстафии
евстафьевич
евстигнеев
евтушенко
евфрат
ега
еган
егарт
егип
египет
египетра
египетри
египта
его
егор
егоркино
егорлык
егоров
егорова
егорович
егоровна
еделево
единая
единение
единица
единицы
единыи
ее
ежегодник
ежов
еи
ек
екатерина
екатеринбург
екатерины
екен
еккунт
екурав
екуравпа
ел
елаур
елга
еле
елен
елена
елены
елец
ели
елизавета
елизаров
елик
елисеев
елл
елле
елховка
елч
ель
ельцин
ем
емельян
емельянов
емельянович
емен
еми
ему
емье
емьере
емьи
емьин
емьине
емьинче
емьинчи
ен
ене
енисеи
енисея
енл
енне
еннелле
еннче
енпе
енре
енри
енсем
ентеш
енти
енхир
енциклопедія
енч
енче
енчен
енчи
еншик
енькка
еп
епархии
епархин
епе
епископ
епле
еплерех
ер
ерагин
ере
ереван
ерекен
ерем
еремеев
еремин
ерепкино
ерепьел
ерк
еркелен
ермак
ермаков
ермакова
ермолаев
ермолаевич
ерн
ерофеев
ерохин
ерсе
ерт
ертсе
ерту
ершов
ес
есем
есемпе
есен
есенин
если
естествознания
есть
ет
етке
еткер
еткерл
еткерле
ефим
ефименко
ефимов
ефимова
ефимович
ефреи
ефрем
ефремов
ефремова
ефремович
ефрон
ефрона
ех
ехрем
еш
еще
ж
жа
жак
жан
жанеи
жанна
жанр
жанра
жариков
жарков
жаров
жданов
же
желание
железная
железныи
жен
жена
женева
женитьба
жених
женская
женщин
женщина
женщины
жены
женя
жерар
жеребцов
жертва
жж
жзл
жи
живе
живет
живого
живои
живописец
живописи
живопись
животные
животных
живут
живые
жидков
жидкости
жизни
жизнь
жил
жила
жили
жилин
жилина
жителеи
жители
житие
житомир
жить
жозеф
жорж
жук
жуков
жукова
жуковскии
журавле
журавлев
журба
журнал
журнала
журнале
журналист
журналистика
журналистики
журналистсен
журналисч
журналра
журналсем
журналсенче
журналта
журналу
жэтф
жюль
жюри
з
за
заведении
заведующии
завещание
зависит
завод
завода
заволжье
заволжья
завоч
завтра
загадка
загадки
заговор
заголовок
задач
задача
задачи
заж
заи
закон
закона
законы
зал
зале
залив
заломнов
зам
заметки
замечательных
замок
замуж
заниматься
зао
зап
запад
запада
западная
западного
западнои
западныи
запас
записи
записки
запись
заповедник
запорожье
заре
заречныи
зарождение
зарубежных
заря
заслуженныи
застава
затем
захар
захаров
захарова
захарович
захарченко
зачем
защита
защиту
защиты
заяц
звание
званипе
звания
зве
звезда
звезды
звенигород
звено
звук
звука
звуки
зд
здание
здании
здания
здесь
здоровье
здоровью
здоровья
здравствуи
зды
зе
зевс
зееберг
зеи
зеланди
зеле
земель
земле
земли
землю
земля
земляки
земноводные
земского
зенштеи
зер
зеркало
зерна
зефиров
зефтиген
зи
зима
зимин
зимняя
зина
зинаида
зиновии
зиссах
зла
зман
знает
знак
знаки
знамени
знаменитые
знамя
знание
знании
знания
знатоки
знать
знач
значение
значения
значит
знаю
зов
зовка
зои
золотая
золотица
золотница
золотницкии
золото
золотов
золотова
золотое
золотои
золотурн
золотухин
золотые
золушка
зон
зона
зоол
зоологи
зоопарк
зорге
зори
зорин
зоя
зрения
зубков
зубченко
зуево
зы
и
иа
ибн
ибрагим
ибряи
ив
ива
иван
ивана
ивано
иванов
иванова
иванович
ивановича
ивановка
ивановна
иваново
ивлев
ивр
иврит
иглаи
иглин
игль
игнат
игнатии
игнатьев
игнатьева
игнатьевич
игол
игоревич
игорь
игоря
игра
играет
играть
игры
игыи
ид
иде
идеал
идеалла
идеи
идел
идеологи
идет
идея
идиот
идиш
идти
идут
ие
иелтен
иерусалим
иет
ижевск
ижма
из
изабелла
избранное
избранные
изв
известия
известно
известныи
известных
изд
издавать
издание
издании
издания
издат
издатель
издательскии
издательства
издательстви
издательствин
издательствинче
издательство
изделии
изделия
измаи
изменение
изменении
изменения
изменить
измерения
изображение
изображении
изображения
изобразительное
изомер
изоркин
изотоп
израиль
изучение
изучении
изучению
изучения
изученность
ии
иисус
ик
ике
икк
икке
иккен
иккенне
икона
икс
ил
иле
илеи
илек
илекен
илем
илемл
илемле
илемлетн
илепер
илер
илес
илесси
илесш
илет
илеҫҫе
или
илл
илларионов
илларионович
илле
иллинои
иллюстрации
иллюстрированная
иллюстрированныи
илме
илмелле
илмелли
илмен
илмес
илн
илне
илни
илнипе
илнисем
илпе
илпек
илсе
илсем
илсен
илт
илте
илтерет
илу
илч
илыч
иль
ильдеряково
ильи
ильин
ильина
ильинична
ильич
ильича
ильминскии
ильмукова
илья
илюткино
илюхин
им
име
имеет
имеется
имели
имен
имена
именем
имени
именкасси
именно
именуется
иметь
имеющии
ими
имп
император
императора
императоре
императорского
императорскои
императрица
импери
империи
империн
империне
империнче
империя
импрессионизм
импульс
имя
ин
инв
инга
ингрид
ингуш
инд
индеи
индекс
индексы
инди
индии
индин
индире
индири
индоевропа
индоевропеи
индокитаи
индонези
индрик
индустри
ине
инелле
инерциалл
инженер
инженера
инженери
инке
инкек
инкубатор
инн
инна
иннокентии
иностраннои
иностранных
инспектор
институт
института
институте
институтне
институтра
институч
институче
инструктор
инструмент
инструменч
интеграл
интегралл
интелвак
интеллект
интеллигенции
интервью
интерес
интерлакен
интернат
интернационал
интернет
интернета
интернете
интернетра
интернетри
интерпретации
интерфакс
интерфеи
инфекци
информатика
информаци
информацие
информации
информацине
информационно
информационное
информационные
информационныи
информаципе
информацию
информация
инфра
инче
инчен
инчи
иня
ио
иоаким
иоанн
иоанна
иоганн
иоль
ион
иона
иордан
иосиф
иосифа
иосифович
ип
ипе
ипполит
ир
ираида
ирак
иран
ирана
иранра
иргиз
ире
ирен
ирех
ирина
иркут
иркутск
иркутска
иркутскои
ирланд
ирланди
ирод
ирт
ирте
иртекен
иртере
иртерн
иртет
иртеш
иртмест
иртн
иртне
иртни
иртнине
иртр
иртсе
иртсен
ирттер
ирттере
ирттерекен
ирттерет
ирттерме
ирттерн
ирттерне
иртыш
ирхи
ирхине
ирышран
ис
исаак
исады
исаев
исаи
исакл
исе
исем
исемпе
исен
исене
исенче
исенчен
исеть
иск
искать
искра
искусств
искусства
искусстве
искусство
ислам
ислама
исланди
исмуков
исп
испан
испани
испании
испанире
испанири
исповедь
использование
использования
использовать
использоваться
используется
используются
испр
исправленное
исса
иссл
исслед
исследование
исследовании
исследования
исследователи
исследователь
исследовательскии
ист
истина
истины
исток
истоки
истоков
истори
историе
истории
историк
историко
историксем
историлл
историлле
историн
историне
историнче
историографии
историография
историпе
историре
историри
историческая
исторические
историческии
исторических
исторического
историческое
историческои
историческом
историю
история
источник
источниках
источники
источников
истр
истра
истребитель
исхаков
исчезнувших
исчисления
ит
итал
итали
италие
италин
италире
италири
италия
итальян
ите
итеи
ител
итере
итерет
итерме
итерн
итес
итет
ити
итиччен
итле
итлеме
итм
итме
итмен
итменл
итн
итнине
итоги
итр
итсе
итсен
иудеи
иудея
их
ич
ичч
иччен
иш
ишев
ишек
ишим
ишимпаи
ишл
ишлеи
ишсе
июль
июля
июнь
июня
июпак
ия
к
ка
кабарда
кабелл
кабель
каберне
кабинет
кабинеч
кав
кава
кавал
кавалер
кавалери
кавалеры
кавар
кавказ
кавказа
кавказе
кавказра
кавказри
каган
кадастра
кадр
кадров
кадры
каждого
каждои
каждыи
каз
казак
казаки
казаков
казан
казани
казанка
казанов
казанова
казанская
казанскии
казанского
казанскои
казань
казах
казахсем
казахстан
казахстана
казахстанра
казахстанри
каи
как
какаи
какая
какие
каким
какое
какои
кал
кала
калабри
калав
калавсем
калавсен
калакан
калаканниш
калама
каламалла
каламалли
калан
калана
калани
каланине
каланинчен
каланипе
калар
калас
каласа
каласан
калать
калашников
кале
календар
календарь
кали
калигула
калина
калинин
калининград
калиновка
калифорни
каллех
калм
кало
калпак
калта
калтаси
калуга
кальк
кальци
кам
кама
камбоджа
каменка
каменныи
каменская
камень
камео
камера
камикадзе
камиловна
камит
камич
камское
камчатк
камчатка
камышла
кан
кана
канад
канада
канал
канала
канаш
канаше
канашл
канашлу
канашне
канашри
канд
кандидат
кандидата
кандидач
каникулы
канин
канл
канма
канмалли
канн
канон
канс
кант
канта
кантон
кантона
кантоне
кантонне
кантонсем
кану
канцлер
канюков
канюкова
кап
капа
капаш
капашл
капитал
капитализм
капитан
капитана
капица
капк
капкан
капла
каплам
каплан
капланч
капсен
кар
кара
караван
караи
карамзин
каран
карап
карапа
карапаш
карапне
карапсем
карапсене
карас
караульная
карач
карачаево
карачаи
кардинал
карел
карели
карелия
карен
каренина
кариб
карл
карла
карлик
карло
кармал
карман
кармана
карманне
кармаскал
кармаскали
кармен
карнавал
каролина
карп
карпат
карпов
карпова
карпович
карт
карта
карте
карти
картин
картина
картине
картинки
картины
картиш
картла
картография
картофель
карточка
карточки
картт
картти
карты
карфаген
карч
карьера
карьерине
карягин
карягина
кас
касак
касакан
касаксем
касимов
касма
касн
каспи
каспии
касса
касси
кастили
кат
каталог
каталога
каталоге
каталогов
катастрофа
категори
категории
категоринче
категория
катек
катер
катерина
катехизис
кати
католик
католиксем
католици
катунь
кать
катя
кафе
кафедра
кафедри
кафедрин
кафедрине
кафедринче
кафедры
ках
каховскии
кач
качаел
качака
качеево
качестве
качч
качча
каччи
каш
каша
кашгари
кашира
кашк
кашни
кашнин
каюра
кая
каякан
каялла
каярах
каярахпа
каяс
каят
каять
каяш
кб
кв
квадрат
квант
квантла
квантовая
квантовои
квартал
квартира
квас
квинт
квт
кг
кгб
ке
кеи
кекен
кел
келли
кельт
кем
кембридж
кемерово
кемеровскои
кен
кент
кеосаян
кепе
кер
керамика
керекен
керенскии
керет
керме
кермен
кермене
керменне
керн
керне
керни
керсе
керу
керч
керче
керчь
кет
кетрен
кеть
кеху
кзыл
ки
кибернетика
кив
киве
кивелн
кивьял
киги
киев
киеври
кии
кикле
кил
киле
килекен
килет
кили
килме
килмен
килмест
килн
килне
килни
килнине
килограмм
километр
километрта
килсе
килсен
килт
килте
килтер
килти
килч
киль
ким
кимми
киммисем
киммисен
кин
кина
кинг
кинель
кинематограф
кинематографи
кино
киноакте
киноальманах
кинопа
кинора
кинорежиссе
киносборник
киностудии
киностудире
киностудия
кинотеатр
кинотеатре
кинофестивал
кинофестиваль
кинофильм
кинциг
кипек
кипеч
кипр
кир
кира
киргизи
киревс
кирек
киремет
киреметь
кирибати
кирилл
кирилла
кириллиц
кириллица
кириллов
кириллова
кириллович
кирл
кирле
киров
кирп
кирпе
кирпична
кирпичное
кис
кисан
киселе
кислород
кит
китае
китаи
китая
китл
кихот
киш
кишине
киі
кк
кка
кке
кки
ккинче
ккинчи
ккисем
кл
кла
клава
клавдии
клавдия
кладбище
клаи
клан
кланма
кланн
клара
кларк
клас
класа
класл
класра
класс
класса
классем
классенче
классик
классика
классики
классификаци
классификации
классификация
классицизм
классическая
классических
классическои
классов
классовых
клаус
клах
кле
клев
клевл
клеи
клем
клеме
клементьев
клен
кленет
кленн
клеопатра
клесе
клет
клетк
клетка
клиент
клим
климат
климач
климент
климов
клин
клиника
клип
клод
клоун
клуб
клуба
клубе
ключ
ключи
клязьма
км
кмк
кн
кне
кни
книг
книга
книгах
книге
книги
книгу
книжка
книжки
книжное
книжныи
кнопку
кнунянц
княжна
князев
князь
князя
ко
кобальт
кобра
ков
кова
ковале
ковальчук
ковров
ковскии
когда
кого
код
кода
кодекс
коды
кое
кожа
кожевников
козлов
козлова
козловскии
кои
кокель
коктеи
кол
кола
колва
колесников
колесо
колец
количество
коллегии
колледж
коллектив
коллекции
коллекция
колмогоров
коломна
колони
колонии
колонна
колос
колумб
колумби
колхоз
колхоза
колхозник
колхозра
колчак
колчурино
кольца
кольцо
кольцов
коля
ком
кома
команд
команда
команди
командир
командира
командирне
команду
командующии
комаров
комарова
комбаи
комбинат
комбинация
комбинач
комеди
комедии
комедия
комендант
комет
комета
коми
комиссар
комиссаров
комисси
комиссии
комиссин
комиссия
комитет
комитета
комитетне
комитеч
комм
коммент
комментарии
комментарисем
коммерсантъ
коммерци
коммун
коммуна
коммунар
коммуни
коммунизм
коммунист
коммунистсен
коммунисч
коммуны
компани
компание
компании
компанин
компанине
компанисем
компания
компас
комплекс
комплексл
композитор
композитора
композиторсем
композици
композиции
компонент
компонента
компонентов
компоненты
компоненч
компьютер
компьютера
комсомол
комсомолец
комсомольская
комсомольски
комсорг
кому
кон
конан
конвеи
конвенция
конвои
конго
конгрес
конгресс
конда
кондитер
кондома
кондратьев
кондратьева
кондратьевич
конев
конец
конечно
конимсемпе
конкурс
конкурса
коновалов
конольфинген
кононов
конрад
конспект
констант
константи
константин
константина
константинов
константинович
константиновна
константинополь
константт
константти
конституци
конституции
конституцине
конституционное
конституционному
конституция
конструктор
конструкци
конструкции
консул
консулсем
консультант
контакты
контеи
контексте
контент
континент
континентл
континенч
контр
контракт
контроль
конур
конус
конф
конференци
конференции
конференцинче
конференция
конфесси
конфессиональная
конца
конце
концепции
концепцине
концепция
концерн
концерт
концерч
кончаловскии
конь
коньяк
кооператив
координат
координатсем
координатсен
координач
коп
копеи
копенгаген
копи
копия
кор
кора
корабли
корабль
коралл
кореи
коренев
корень
корея
корн
корнеевич
корнеи
корнелии
корни
корнилов
корол
короле
королева
королевство
королевы
короли
королл
король
короля
коротаева
короткометражка
короткометражныи
корпус
корпусне
корр
корреспондент
корреспонденч
корсаков
корсика
кос
коса
космонавт
космонавтика
космонавч
космос
космоса
космосл
косово
коста
косте
кости
кострома
костюм
костюма
костюмер
костя
косьва
кот
котлеев
котовскии
которая
которого
которое
которои
котором
которую
которые
которыи
которым
которых
кофе
коч
кошка
кошки
кошкин
кошкинскии
коэффициенч
кп
кпа
кпе
кпсс
кр
кра
кравченко
крае
краеведени
краеведческии
краи
кран
красавица
красиво
красивыи
красная
красноармеец
красноармеи
краснов
краснова
красного
краснодар
красное
краснои
красномаи
красноярск
красноярского
красные
красныи
красота
красоты
кратер
краткая
краткии
крах
крачковская
краю
края
кре
кредит
креи
крем
кремл
кремле
кремль
кремля
кремни
крен
крепости
крепость
крестьян
крестьяне
крестьянин
крестьянская
крех
крешш
кри
кривои
кризис
кризиса
крик
криминал
крис
кристалл
кристиан
кристина
кристофер
крит
критик
критика
критическии
крови
кровь
крокодил
кролик
кроме
кронштадт
круг
круглыи
кругосвет
кружок
крузо
крупнеи
крупныи
крупных
крутои
крылов
крылова
крылья
крым
крыма
крымра
крю
крюков
крючков
кс
кса
ксе
ксем
ксемпе
ксен
ксене
ксения
ксенофонтов
ксенче
ксенчен
кто
ку
куб
куба
кубань
кубен
кубена
кубла
кубок
куда
куданова
кудрявцев
кузнецов
кузнецова
кузьма
кузьмин
кузьмина
кузьмич
куи
куинджи
кук
кука
кукам
кукамаи
кукарча
кукк
кукка
куккук
кукшату
кул
кула
кулак
куланаи
куликов
куллен
кулленхи
куль
культ
культовая
культур
культура
культуре
культури
культурин
культурине
культурипе
культурная
культурно
культурного
культурное
культурные
культурныи
культурология
культуру
культуры
кум
кума
кун
куна
кунах
кунашкал
куне
кунл
кунне
кунпа
кунран
кунс
кунсем
кунсенче
кунсерен
кунт
кунта
кунтан
кунтах
кунти
кунччен
кунчченех
куп
купала
купаласа
купрат
куприенко
купрієнко
купса
кур
кура
курав
куравле
кураев
кураи
курак
куракан
куракансем
куракансене
куракьел
курас
курасси
куратп
курать
кураҫҫе
курган
кури
курил
курма
курмалли
курман
курн
курна
курнав
курни
курнине
курорт
курорч
курс
курса
курсан
курск
курсне
курт
курчатов
курш
куршанак
курьер
куславка
куславкка
куснар
куст
куста
кустантин
кут
кутузов
кутулук
кухня
кучер
куш
кушак
кушаке
кушар
кушк
кушки
кушлав
кушнаренко
куюрка
куҫарна
кхи
кхр
кш
кызыл
кэтрин
кюри
л
ла
лаба
лабиринт
лаборатори
лаборатории
лаборатория
лав
лава
лаве
лавка
лавкасем
лавкка
лавкки
лавла
лавне
лавра
лаврентии
лаврентьевич
лавров
лавсем
лавсене
лагер
лагере
лагерь
лад
ладога
ладомир
лазарев
лазарева
лазарь
лазер
лаи
лак
лакан
лакасси
лам
лама
ламалли
лампа
лан
лана
ланакан
ланать
лангедок
ланд
ландау
лани
ланине
ланипе
ланк
ланка
ланма
ланн
ланни
ланса
лансан
лану
ланч
лань
лаос
лап
лапа
лапам
лапк
лапсар
лапт
лапта
лаптак
лапу
лапч
лар
лара
ларав
ларакан
ларас
ларасси
ларать
лари
ларионов
лариса
ларма
лармалли
ларман
ларн
ларна
ларни
ларнине
ларри
ларса
ларсан
ларт
ларта
лартакан
лартать
лартма
лартмалла
лартмалли
лартн
лартна
лартни
лартса
лару
ларч
лас
ласа
ласан
ласково
ласковыи
ласси
лат
латви
латин
латиниц
латиница
латинла
латинскии
латн
латтин
латук
латынь
латыш
лать
лаура
лауреат
лауреач
лауреаче
лах
лач
лачака
лаш
лаша
лашасем
лаши
лаштарн
лашул
лая
ле
лебедев
лебедева
лебедь
лев
левашов
левин
левина
левитан
левл
левне
левс
легенда
легенды
легион
легко
леди
леи
лек
лекарственные
леке
лекен
лекенсем
лекенсен
лекет
лекн
лексен
лексик
лексика
лексики
лексикон
лекции
лекция
лелле
лем
леме
лемелле
лемелли
лемен
лемест
лемур
лен
лена
ленд
лене
ленет
лени
лениздат
ленин
ленина
ленингр
ленинград
ленинграда
ленинградра
ленинградри
ленинградская
ленинградского
ленинградскои
ленине
лениногорск
ленме
ленн
ленне
ленсен
ленскии
лента
лентул
ленты
лену
ленфильм
ленче
лео
леон
леонард
леонардо
леонид
леонидович
леонидовна
леонов
леонтии
леонтьев
леонтьевич
лепид
лепс
лер
лере
лерет
лерех
лерме
лермонтов
лерн
лерне
лерни
лерсе
лес
леса
лесе
лесен
лесная
леснои
лесов
лесси
лесу
лет
лета
летать
летие
летию
летия
летке
летки
леткин
леткине
летнии
летняя
лето
летом
летопись
летчик
лех
лечение
леш
лешсем
лешьен
ли
либо
либретто
ливан
ливанов
ливи
ливии
лига
лиги
лидер
лидия
лиза
лии
лик
лилия
лиман
лимон
лин
лина
лингв
лингве
лингвистик
лингвистика
лингвистическии
лине
линеи
лини
линии
линилл
линилле
линия
линкольн
лион
липе
липецк
лира
лирик
лирика
лис
лисем
лисене
лисина
лист
листе
листы
листья
лисч
лит
литва
литератур
литература
литературе
литератури
литературин
литературине
литературинче
литературная
литературного
литературное
литературнои
литературные
литературныи
литературовед
литературоведческих
литературы
литр
лифшиц
лихтенштеи
лиц
лица
лицах
лицеи
лицо
лицом
личная
личности
личность
личные
лишь
лия
лк
лка
лкан
лке
лки
лкин
лку
лкуҫе
лл
лла
ллакан
ллан
ллать
лле
ллев
ллеве
ллевл
ллевпе
ллевч
ллекен
ллен
ллехи
лли
ллине
ллинчен
ллисем
лм
лма
лмак
лман
лмач
лме
лмек
лмекне
лмел
лмен
лмест
лми
лн
лна
лне
лнелле
лни
лнине
лнипе
ло
лов
лова
лович
ловка
ловна
лово
ловскии
логарифм
логик
логика
логинов
логос
логотип
лодка
лодки
ложь
лои
лок
локе
локомотив
ломбарди
ломоносов
лон
лонг
лондон
лондона
лондонра
лондонри
лопатин
лор
лорд
лоренц
лос
лосев
лоуренс
лох
лошадеи
лошади
лошадь
лп
лпа
лпе
лпу
лпулу
лс
лса
лсан
лсе
лсем
лсен
лсене
лт
лта
лтав
лтавл
лтавпа
лтавсем
лтавсене
лтан
лтат
лте
лтен
лтер
лтере
лтерекен
лтерет
лтерме
лтерн
лтерне
лтерни
лтернипе
лтеру
лти
лу
луара
луга
лугано
луганск
луза
луи
луиза
луис
лук
лука
лукашенко
луки
лукин
лукич
луков
лукьянов
лукьянович
лун
луна
луначарскии
луне
луны
лутра
луции
луч
лучше
лучшие
лучшии
лх
лха
лхав
лхава
лхавне
лханн
лхар
лхара
лхари
лхарсем
лхарсемпе
лхарсен
лхарсене
лхах
лхе
лхелл
лхем
лхен
лхене
лхепе
лхере
лхерен
лхери
лхесем
лхесемпе
лхесен
лхесене
лхесенче
лхесенчен
лхи
лхилл
лхин
лхине
лхинче
лхинчен
лхинчи
лхипе
лхисем
лхисемпе
лхисен
лхисене
лхисенче
лхисенчен
лч
лча
лчан
лчанла
лчансем
лчансемпе
лчансен
лчечек
лы
лые
лысенков
ль
льва
львов
львович
львів
льевич
льман
льмансем
льн
льюис
лю
люба
любви
любимая
любимов
любимыи
любит
любителеи
любить
любичев
любкер
люблю
любов
любовь
любовью
любои
люда
людвиг
людеи
люди
людина
людини
людмила
людовик
людям
люк
люксембург
люмьер
люся
лютерансем
люцерн
ля
лямин
м
ма
маас
мавзолеи
магадан
магазин
магазине
магистр
магистрал
магистраль
магнетизм
магни
магнит
магнитла
магницкии
мадагаскар
мадам
мадрид
мадуров
мажор
маи
мак
мака
макар
макаров
макарова
макарович
макед
македон
македони
македонскии
маки
макиавелли
макимов
макс
максвелл
максим
максима
максимилиан
максимов
максимова
максимович
максимум
мал
мала
малаи
малалал
малалла
малалли
маларах
малашл
малашне
малашнехи
малая
маленькая
маленькии
мали
малка
малла
малли
мало
малов
малое
малонисогорская
малс
малта
малтан
малтанах
малтанхи
малти
малые
малыи
малыш
малышев
мальбек
мальта
мальцев
мальчик
мам
мама
мамаи
мамак
мами
мамыково
ман
мана
мани
манн
манни
манса
манси
мансуров
манш
маныч
мао
мар
мара
марат
марафон
маргарет
маргарита
марго
мари
марии
марина
марино
марио
марисем
мария
марк
марка
марки
маркиз
маркки
марко
марков
маркова
маркович
марковои
маркс
марксизм
марл
марна
марокко
марри
марс
марсель
март
марта
мартин
мартина
мартинсон
мартисем
мартынов
мартынова
мартынович
марфа
марш
маршал
маршала
маршалл
маршрут
маршрута
маршруч
марьино
марья
мас
масар
маска
маскарад
масло
маслов
масс
масса
масси
массив
маст
мастер
мастера
мастерская
мастерскои
масть
масштаб
мат
матак
матаки
матвеев
матвеева
матвеевич
матвеи
матем
математик
математика
математике
математики
математическая
математические
математическии
математических
математического
математическое
математическои
матери
материал
материала
материалам
материале
материалл
материалов
материалсем
материалсен
материалсене
материалы
материальная
материк
материя
матре
матриц
матрица
матрос
матросов
маттур
матч
мать
мах
маха
махачкала
махе
махл
махмуд
махне
махно
махпа
махра
махран
махсар
махсарсем
махсарта
махсартан
махсарти
махсем
махсемпе
махсен
махсене
махсенче
махсенчен
мачта
маша
машин
машина
машини
машиностроение
машины
машшын
мая
маяк
маяковскии
мвд
мвт
мг
мгу
ме
мег
мегафон
мед
медал
медале
медали
медаль
медальне
медальпе
медальсем
медальсене
медведев
медведева
медведица
медведь
медвежья
медиа
медицин
медицина
медицини
медицинская
медичи
медленно
медовыи
медсестра
медянка
межвузовскии
межд
между
междунар
международная
международного
международное
международнои
международные
международныи
межэтнические
мезень
меи
мексик
мексика
мел
меле
мелекес
мелеу
мелкии
мелл
мелле
мелли
мелодии
мелодия
мелодрама
мелпе
мельес
мельник
мельников
мельникова
мельхиор
мемориал
мемуары
мен
менделеев
мендельсон
мене
менеджер
менеджера
менеджмент
менее
менича
менко
менча
менчи
мень
меньше
меньшиков
меньшинств
меню
меня
мер
мера
мере
меречен
меридиан
мерло
мерчен
меры
мес
месем
меслет
меслете
меслетпе
меслетсем
меслетсемпе
меслеч
меслече
мест
места
месте
местного
место
месть
месяц
месяцев
мет
метал
металл
металла
металлов
металлурги
метафизика
метод
методика
методики
методические
методическое
методология
методы
метр
метра
метрик
метрика
метро
метрополитен
метртан
мефодии
мефодия
мефодьев
механиз
механизм
механик
механика
механики
мехико
меч
меча
мечет
мечта
мечты
меш
мешок
ми
миасс
миг
микеланджело
миклухо
микола
микрораи
микротопонимсем
микулаи
мил
милан
милици
милиции
милиционер
миллер
милли
миллиард
миллион
миллиона
милыи
миль
мильон
мин
мина
мине
минерал
мини
минимум
минист
министерства
министерстви
министерствин
министерство
министр
министра
министров
министрсен
миноме
минск
минус
минусл
минут
мир
мира
мираж
мире
мирза
мирл
мирныи
мировая
мирового
мировои
мирон
миронов
миронова
миронович
мисима
мисс
миссионер
миссис
миссисипи
миссия
миссури
мистер
митридат
митрополит
митрофан
митрофанович
митта
миттов
митя
миф
мифологии
мифологическии
мифология
мифы
мих
миха
михаи
михаил
михаила
михалков
михеев
михеевич
мич
мичиган
мичман
мичурин
миша
мишель
мишер
мишки
мишши
мишшин
мияки
мк
мкасси
мкин
мл
мла
младшии
млан
мле
млекопитающие
млет
млетн
млн
млрд
мм
мма
мми
ммин
ммисем
мн
мне
многие
многих
много
множеств
множество
мнои
мо
мов
мови
мович
мог
могила
могиле
могу
могут
мода
модел
модели
модель
модерн
модул
модулеи
модули
модуль
модуля
моды
мое
моего
моеи
можаи
может
можете
можно
мозель
мои
моисеев
моисеевич
моисеи
мокшино
мол
молдави
молдова
молекул
молекула
молекулярная
молога
молодая
молоде
молодои
молодость
молодые
молодых
молоко
молома
моль
мольер
момент
мон
мона
монако
монарх
монархи
монастырь
монастыря
монах
монг
монгол
монголи
монголо
монголсем
монголсен
монет
монеты
монович
монографи
монографическое
монография
мономах
монтаж
монтаже
монте
мор
мораль
моргаушскии
мордва
мордвасем
мордовскии
мордухаи
море
морис
морисси
мороз
морозов
морозова
морские
морского
морскои
морфем
морфема
морфологи
морфологии
морфология
моря
моряк
моск
москва
москве
москву
москвы
московская
московские
московскии
московского
московскои
мост
мосты
мосфильм
мосфильма
мотив
мотоперев
мотор
моторлан
мотострелок
мотострелоксен
мотоцикл
моцарт
мошков
моя
мп
мпа
мпе
мпех
мпи
мпу
мр
мра
мрамор
мран
мрах
мре
мрен
мри
мс
мса
мсалл
мсан
мсах
мсе
мсем
мсемпе
мсен
мсене
мсенче
мсенчен
мси
мстислав
мтс
му
муж
мужские
мужскои
мужчин
мужчина
мужчины
муз
муза
музее
музеи
музея
музык
музыка
музыкальная
музыкальныи
музыкант
музыканты
музыке
музыки
мул
мулкач
мулла
мультипликаци
мультфильм
муниципалитет
муниципалитета
муниципалл
муниципального
муниципальных
мунча
мур
муравье
муратов
муркаш
мурман
мурманск
мус
муса
мускав
мускава
мускавпа
мускавра
мускавран
мускаври
мускат
мусульман
мутная
мухаммад
мухаммед
мухин
мухтав
мухтавл
мучар
мучи
мушкете
мфти
мха
мцнмо
мшеш
мы
мыр
мысли
мысль
мышкина
мышления
мьянма
мэи
мэн
мэр
мэри
мэрии
мюзикл
мюллер
мюнхен
мягкии
мясников
мясо
н
на
набережная
набор
нав
навсегда
навч
награда
наградами
награднои
наградном
наградные
награды
награжде
награждении
над
надежда
надежды
надо
надым
надя
нажмите
назад
назаров
назарова
назарович
название
названием
названии
названия
назначения
называется
назым
наи
наиболее
наименовании
наказание
накан
накансем
накансен
накансене
накануне
налук
нальчик
нам
нама
нами
нан
нана
нанг
наполеон
наполеона
напр
например
нар
нара
нарва
наре
нарк
нарка
нарл
нарлан
нарлать
нарне
народ
народа
народная
народного
народное
народнои
народности
народные
народныи
народных
народов
народу
народы
нарсем
нарсен
нарсене
нарспи
нас
наса
насекомых
населе
население
населения
населенные
населенных
насем
наследие
наследия
насси
наст
настоящее
настоящем
настоящии
настроение
настрои
настя
нат
натали
наталия
наталья
наташа
натри
натуралл
нать
наук
наука
наукам
науке
науки
наукисен
наукова
наум
наумов
наумова
наумович
науч
научн
научная
научно
научного
научное
научнои
научные
научныи
научных
наушои
нах
находится
нац
наци
нации
нацил
нацилле
нацин
национальная
национально
национального
национальнои
национальностеи
национальности
национальность
национальные
национальныи
национальных
нацисен
начал
начала
начале
начали
начало
начальник
начальствующему
начар
начинается
наш
наша
наше
нашего
нашеи
нашем
наши
наших
ная
наҫҫе
нберг
нг
нгарка
ндр
не
неаполь
неба
небе
небеса
небо
нева
неверныи
невеста
невскии
невшатель
него
негус
недели
неделя
недоступная
недра
нее
нежныи
независимая
неи
неизвестныи
некасси
неке
некен
некене
некепе
некере
некесем
некесен
некесене
некесенче
неки
некин
некине
некинче
некисем
некисен
некисене
неккар
некоторые
некоторых
некрасов
некрасова
некролог
нел
нелинеи
нелле
нелли
нельзя
нельсон
нем
неман
немецкии
немецкого
немного
немцев
немцы
нен
нене
ненец
ненз
нену
необходимо
неожиданно
неолит
неон
неопр
непал
неповоротливыи
непристои
нептун
нер
нерв
нере
нерл
нерлен
нерль
нерне
нерон
нерпе
нерпу
нерте
нерута
нерҫе
нерҫи
нес
несе
нескольких
несколько
несмотря
нестер
нестеров
нестерова
нестор
нет
нетн
нетсе
неуклюжии
нефертити
нефтеюганск
нефть
нефтьпе
нех
нечаев
ни
нибудь
нигер
нидда
нидерл
нидерланд
нидерландсем
нидерландсен
ние
ниепле
ниже
нижегородскои
нижнее
нижние
нижнии
нижняя
нии
ник
ника
никам
никама
никанорович
нике
ники
никита
никитин
никитина
никитич
никитович
никифор
никифоров
никифорова
никифорович
ников
никогда
никола
николаев
николаева
николаевич
николаевка
николаевна
николаенко
николаи
николая
никольскии
николюкина
никонов
никонович
никонорович
никто
никулин
нил
нильс
ним
ниме
ними
нимле
нин
нина
нине
нинчен
нипе
нисем
нисене
них
ница
ницше
ничего
нк
нка
нквд
нкрав
нкун
нл
нла
нлав
нлава
нлавпа
нлавсем
нлавсене
нлавсенчен
нлан
нланд
нланма
нланмалла
нланса
нлантарма
нлантарн
нлантарни
нлантарса
нласа
нле
нм
нма
нмал
нмалла
нмалли
нман
нманл
нманни
нмар
нмас
нмасть
нме
нмелле
нми
нн
нна
нная
нне
нни
ннин
ннине
ннипе
ннипех
ннисем
ннисене
нного
ннои
нные
нныи
нных
но
нобель
нов
нова
новая
новгород
новеи
новелла
новиков
новикова
новицкого
нович
новна
ново
нового
новое
новои
новом
новороссии
новосибирск
новостеи
новости
новочебоксарск
новую
новые
новыи
новым
новых
ногаи
ногами
ноги
ногинск
ного
ное
нои
нок
ноль
ном
номенклатура
номер
номерл
номером
номинацире
нон
нонна
нор
норв
норвег
норвеги
норм
норма
норман
норманди
нормативно
нос
носик
носить
ность
ночи
ночнои
ночь
ночью
нояб
ноябрь
ноября
нп
нпа
нпе
нпо
нпур
нра
нран
нрах
нрех
нри
нс
нса
нсан
нсе
нсем
нсемпе
нсен
нсене
нсенче
нсенчен
нська
нськоі
нт
нта
нтал
нтан
нтанпа
нтар
нтара
нтаракан
нтарать
нтарма
нтарн
нтарни
нтарса
нтах
нтв
нте
нтер
нтере
нтереи
нтерет
нтерм
нтерме
нтерн
нтерсе
нтеру
нти
нтр
нтц
ну
нуар
нугуш
нужна
нужно
нук
нуклид
нуклич
нуклонсар
нуклонсарла
нул
нулл
нуль
нульпе
нум
нумаи
нумаях
нур
нура
нуриман
нурлат
нус
нусем
нусен
нусене
нухаи
нухрат
нхи
нхир
нц
нч
нча
нче
нчел
нчен
нчене
нченпе
нчере
нчерен
нчери
нчех
нчи
нчин
нчине
нчинче
нчипе
нчипех
нчисем
нш
нше
нштеи
нъял
ны
ные
ныи
ным
ныне
ных
нь
нью
ньютон
ньял
нюра
ня
няня
о
оао
об
обзор
обком
обл
обла
облака
области
областнои
область
облаҫе
ободзинскии
обозрение
оборона
обороны
обработки
образ
образование
образовании
образования
образовательныи
образом
обратите
обратно
обращение
обращения
обряд
обряды
обсерватории
обуви
обучения
общ
общая
общего
общедоступныи
общее
общеи
общения
обществ
общества
обществе
общественная
общественно
общественного
общественное
общественные
общественныи
общественным
общественных
общество
общие
общии
общин
община
общини
общины
объединение
объект
объекта
объектов
объектсем
объектсен
объектсене
объекч
обыкновенная
обыкновенныи
обычаи
обычно
обь
обьсалехард
ов
овидии
ович
овраг
овчинников
ога
огаи
огиз
оглы
огне
огни
огня
огоне
огонь
огуз
огюст
од
одеваться
одежда
одежды
одесс
одесса
один
одна
однажды
однако
одним
одно
одного
однои
одном
одну
одри
ожегов
оз
озвучил
озе
озера
озеро
озеф
ои
оияи
ок
ока
окато
океан
океана
океане
океанри
оки
оккупацилен
окна
окно
около
округ
округа
округне
округов
оксана
оксич
оксфорд
окт
октавиан
октмо
октябре
октябрь
октябрьски
октябрьскии
октября
ол
ола
оле
олег
олега
олеся
оливье
олимп
олимпиада
олимпии
олма
оль
ольга
ольги
оля
ом
оман
омега
омон
омск
омь
он
она
онам
онах
оне
онега
онегин
они
оникс
онлаи
онн
онне
онныи
оно
онов
онсем
онсене
онта
онтарио
онти
ону
оны
оон
ооо
оп
опер
опера
оперативл
оператор
операторсем
операци
операции
операцине
операцинче
операцисем
операцисене
операция
оперетта
опери
оперы
опечаткои
описание
описания
опись
определение
определения
определено
определитель
оптик
оптика
опубликован
опубликования
опубликовано
опыт
опыта
опять
ор
орбит
орбита
орган
органе
организ
организатор
организаци
организации
организацин
организацисем
организация
организм
организма
организмсен
органик
органика
органов
орда
орден
ордена
ордене
орденне
орденом
орды
оре
оренбург
оренбургскои
орест
орехово
оригинал
оринов
орк
оркестр
оркестром
оркра
оркри
орлеан
орлов
орлова
орловка
оруди
орудин
оружие
оружия
орфографи
орфографии
орхидеи
орша
освобождение
осеннии
осень
осенью
осети
осетин
осиновка
осип
осипов
осипович
оскар
осман
основа
основание
основании
основания
основе
основнои
основном
основные
основных
основы
особенно
особенности
особо
остаться
остин
осторожно
остров
острова
островскии
от
отв
ответ
ответственныи
отд
отдел
отдела
отделени
отделение
отделенин
отделения
отдельно
отдельные
отдельных
отдыха
отель
отец
отечества
отечественная
отечественного
отечественнои
отечественные
открои
открытие
открытии
открытия
открытое
открыть
откуда
отличие
отличник
относительности
отношение
отношении
отношения
отношениях
отображает
отображать
отображения
отпишитесь
отпуск
отра
отражение
отряд
отряда
отряч
отс
отставк
отто
отца
отче
отчество
отчет
офис
офицер
офицерскому
офицеры
официалл
официалла
официальная
официального
официальном
официальныи
официальных
официант
офорт
ох
охота
охотник
охотников
охоты
оценка
очаги
очень
очерк
очерки
очерксем
ош
ошибка
ошибки
ошибкои
ошкар
ою
п
па
паблишер
пав
павел
павл
павла
павлов
павлова
павлович
павловка
павловна
павлово
павлодар
падеж
падение
паз
паи
пак
пакет
пакистан
пакша
пал
пала
палан
паланла
палартн
палартнисене
палата
палестин
палестина
палл
палла
паллах
паллашать
паллашма
паллашн
палли
паллин
паллине
паллинчен
паллипе
паллисем
паллисемпе
паллисен
паллисене
палтиел
пальма
пальник
пальто
пама
памалла
паман
памасть
памир
памяти
памятник
памятника
памятники
памятников
памятные
память
пан
пана
панама
панели
панель
пани
панин
панине
панипе
панорама
пантелеи
пантеон
панулми
панфилов
пап
папа
паппи
папуа
пар
пара
парабель
парагваи
парад
паракан
параллелл
параметр
параметров
параметры
парамонов
параппан
парас
парасси
парать
параҫҫе
парень
париж
парижа
парижра
парижран
парижри
парис
парисре
парисри
парк
парка
парламент
парламенч
парма
парн
парне
парнелев
парнелен
парнене
парни
парнин
парнине
парнипе
парнэ
пароль
паром
парса
парсан
парти
партизан
партии
партин
партине
партисем
партия
партма
партн
партне
парторг
партса
пару
парфе
пархатарл
пархи
пархоменко
пас
пасар
пасарл
пасарла
паскаль
пасна
паспорт
паспортра
паспортри
паспорч
пассажир
пассажирка
пастернак
пат
пата
пате
патент
патирек
патне
патнелле
патра
патракл
патриарх
патрик
патриции
патт
патта
патша
патшал
патшала
патшалах
патшан
патшана
патши
патшин
патшине
патшисем
пауль
пах
паха
пахал
пахала
пахча
пахчи
пач
пачах
паша
паюта
пая
паян
паянкун
паянкуна
паянкунхи
паянхи
пб
пво
пвс
пг
пе
певец
певица
пед
педагог
педагогика
педагогики
педагогического
педро
пеи
пек
пекех
пекин
пекки
пекрех
пел
пелагея
пелепее
пелепеи
пеме
пен
пене
пенза
пензенская
пензенскои
пер
первая
первого
первое
первои
первом
первомаи
первые
первыи
первым
первых
пере
перев
перевод
перевода
переводе
переводчик
переводчика
переводы
перед
передач
передача
передачи
передняя
переи
перекет
перен
переписи
переписка
перепись
перераб
перестрои
переулок
переход
перечень
перечне
пери
период
периода
периодик
пермского
пермскому
пермь
перне
пернет
перни
пернии
пернин
пернине
пернинчи
перс
персе
персеи
перси
персик
персонаж
персоналии
перспективы
перссем
перу
песен
песков
песни
песнь
песню
песня
песок
песчаная
песчанка
пет
петер
петербург
петербурга
петербурге
петербургра
петербургри
петербургского
петербургское
петр
петра
петренко
петро
петров
петрова
петрович
петровка
петровна
петровская
петровски
петровскии
петроград
петрозаводск
петропавловск
петь
петя
пеу
пех
пехил
пехота
печати
печатныи
печор
печора
печь
пи
пианино
пианист
пива
пиво
пижма
пик
пикассо
пике
пикенет
пикенн
пикшик
пил
пиле
пилеш
пилл
пилот
пим
пин
пине
пинл
пинн
пинрен
пиньинь
пионер
пир
пирамида
пират
пирваи
пире
пиренеи
пирки
пирогов
писателе
писателеи
писатели
писатель
писателя
писать
писем
письма
письменности
письменность
письмо
пит
пите
питер
питех
питл
питне
питт
пифагор
пич
пичет
пичете
пичетле
пичетлеме
пичетлен
пичетлене
пичетленет
пичетленн
пичетленсе
пичетлесе
пичетлет
пичетрен
пичке
пичкере
пичч
пичче
пишпу
пк
пка
пке
пл
пла
плагины
пламя
план
плана
плане
планет
планета
планеты
планк
планне
пласа
пластик
плата
платина
плато
платон
платона
платонов
платонович
платье
пле
плебеи
племен
племена
племя
плен
пленн
пленсе
плете
плетекен
плетет
плетме
плетн
плетне
плетсе
плету
плинии
плотников
плохо
площади
площадь
плутарх
плюс
плюсл
пне
пно
по
побег
победа
победу
победы
повар
пове
поведение
поверхности
поверхностных
повести
повесть
поводу
поволжье
поволжья
поворот
погов
погода
погодин
под
подарок
подбассеи
подборка
подвиг
подводные
подгот
подготовка
подобно
подольск
подполковник
подр
подражание
подробная
подруга
подход
пое
поезд
поезда
поездка
поел
пожар
позволяет
позвоночные
позвоночных
позже
позиции
познания
пои
поиск
поиска
поисках
поиски
пока
показателеи
показывает
покои
поколение
поколения
покровка
покровскии
покрываться
покрытосеменные
пол
пола
поле
полевая
полевои
полеи
полета
полигон
полигр
поликарпович
полина
полином
полит
политехника
политиздат
политик
политика
политике
политики
политикин
политикине
политическая
политические
политическии
политических
политическои
политрук
полицеи
полици
полиции
полк
полка
полковник
полковника
полная
полное
полностью
полныи
поло
половина
половине
половины
положение
положения
полосы
полоцк
полтава
полуи
получил
получить
полхар
поль
пользователеи
пользователь
пользователя
польш
польша
полюс
поля
поляк
поляков
поляксем
поляксен
поляна
поляр
помещик
помню
помощи
помощник
помощь
помощью
помпеи
понимание
пономаре
понтекорво
понтон
понуд
понятие
понятии
понятия
понять
поп
попало
попов
попова
популярная
популярные
популярныи
попытка
пор
породы
порт
портал
портале
порталта
портр
портрет
портреты
портреч
португал
португали
поручик
порфирии
порфирьевич
порч
порче
порядка
порядке
порядок
пос
посад
посвяще
посвященнои
посвященныи
посе
поселение
поселении
поселения
поселка
поселок
посетитель
поскольку
посл
после
последнее
последнеи
последние
последнии
последних
последняя
последствия
пособие
пособии
посол
поспелов
пост
поставить
постановка
постановление
постановщик
постепенно
постоянно
постоянного
постран
построи
постчен
посуда
посібник
потапов
поте
потенциал
потерять
потом
потому
поттер
похви
похвистнево
похле
поход
похождения
поцелуи
поче
почему
почт
почта
почти
почтовые
поэзи
поэзии
поэзия
поэм
поэма
поэми
поэмине
поэмы
поэт
поэта
поэтика
поэтому
поэты
поэч
появились
пп
ппи
ппипех
пписем
пписене
пр
пра
прав
права
правда
прави
правил
правила
правилам
правило
правители
правительств
правительства
правительстви
правительствин
правительствине
правительство
правлени
правлении
право
правовои
правовые
православи
православие
православная
православнои
православныи
праву
прага
праздник
праздники
праи
практ
практик
практика
практики
практически
практическои
пралл
пралук
прана
праски
прасковья
пре
пред
предания
предисл
предисловие
предки
предков
предложени
предложение
предложении
предложения
предмет
предприяти
предприятии
предприятисем
председател
председателе
председатель
представление
представления
прежде
президент
президента
президентне
президенч
президенче
президиум
президиума
прекрасная
прел
преми
премии
премин
премине
премия
премьер
премьера
премьери
прен
преподавания
преподаватель
преподобныи
пресмыкающиеся
пресс
пресса
преступление
префектура
префектури
префикс
при
приангарья
прибор
приведены
приводится
приводить
приволжскии
приволжского
прие
приз
призрак
прии
приказ
прикладная
прикладнои
приключени
приключения
прил
приложение
приложения
прим
применение
применения
пример
примере
примерно
примеры
примеч
примечание
примечания
прине
принц
принцесса
принцип
принципы
принять
припять
природа
природе
природных
природы
присвоении
присвоено
присем
приток
притчи
приуралье
приуралья
приходить
прихут
причины
пришел
про
проблем
проблема
проблеме
проблемы
проваи
прованс
проверено
проверка
провести
провинци
провинции
провинцин
провинцине
провинцинче
провинцинчи
провинцисем
проводить
программ
программа
программе
программи
программине
программипе
программы
прогресс
продавец
продавщица
продолжение
продукт
продукч
продюсер
продюсерсем
проезд
проект
проекта
проекте
проектне
проекту
проекч
проз
проза
прозаик
прозы
прои
произведении
произведения
производить
производства
производство
произношение
происходит
происхождение
происхождении
происхождения
происшествие
проконсул
прокопии
прокопьев
прокопьева
прокопьевич
прокофьев
прокофьевич
прокурор
пролетариат
пром
прометеи
промы
промышленно
промышленности
промышленность
пропаганда
просвещение
просвещения
просмотр
проспект
проспекч
прост
просто
простои
простоквашино
пространства
пространстве
пространство
против
протоиереи
протока
протокол
протон
прототип
проф
професси
профессии
профессилл
профессине
профессионал
профессор
профессора
профессоре
профилактика
профиль
прохор
прохоров
прохорова
прохорович
процент
процес
процесс
процесса
процессе
процессов
процессы
прочитаи
прошкин
прошлого
прошлое
прошлом
прощаи
прусси
прямо
прямои
пс
пса
псевдоним
псем
психика
психолог
психологи
психологии
психология
псков
псоу
псэ
пт
птиц
птица
птицы
птолемеи
птушко
пу
публ
публии
публикаци
публикации
публикация
публицист
публицистика
публицисч
пугаче
пугачев
пугачева
пуговкин
пуи
пукан
пукане
пукрав
пул
пула
пулаи
пулакан
пулас
пуласл
пуласси
пулат
пулать
пулаясл
пулаҫҫе
пуле
пулеме
пулин
пулла
пулма
пулмалла
пулман
пулмасан
пулмасть
пулн
пулна
пулни
пулнине
пулнипе
пулса
пулсан
пулт
пултара
пултараи
пултаракан
пултарат
пултарать
пултараҫҫе
пултарн
пултарна
пултарни
пултарнине
пултару
пултарул
пултарула
пултарулл
пултарулла
пултатарть
пултран
пулх
пулч
пуль
пульниц
пульници
пуля
пункт
пунктов
пункты
пункч
пуп
пупле
пуплев
пуплер
пур
пура
пурин
пуринчен
пурл
пурла
пурн
пурна
пурнакан
пурнать
пурне
пурп
пурри
пуррине
пуррипе
пурт
пурте
пус
пуса
пусарн
пусм
пусма
пусми
пусн
пусса
пустыни
пусть
пут
путарн
путеводитель
путене
путешествие
путешествии
путешествия
пути
путин
путина
путн
путь
пух
пуха
пухакан
пухать
пухма
пухмач
пухн
пухса
пухтел
пуху
пуххи
пуххине
пуш
пушар
пушк
пушка
пушкин
пушкина
пушмак
пушхир
пуэрто
пуян
пуянл
пуҫ
пуҫла
пуҫлама
пуҫлана
пуҫланна
пуҫласа
пуҫне
пфальц
пх
пхк
пху
пхули
пциг
пч
пчак
пче
пчев
пчеве
пчевлену
пчевсем
пчевҫе
пчекен
пчеме
пчен
пчени
пченипе
пчес
пчесе
пчет
пш
пшада
пшанк
пыжиков
пыи
пыл
пылак
пылакс
пылч
пыль
пыма
пымак
пымалли
пын
пына
пыни
пынине
пынипе
пыр
пыра
пыракан
пыракансем
пырас
пырать
пырса
пырсан
пыс
пыса
пытанса
пытарн
пьемонт
пьер
пьес
пьеса
пьесе
пьеси
пьесипе
пьесы
пяти
пятиязычныи
пятыи
пять
р
ра
рабинович
рабовладельческои
работ
работа
работает
работал
работать
работают
работе
работник
работу
работы
рабочая
рабочи
рабочии
рабочисен
рабочих
рав
равенна
равус
ради
радиаци
радио
радиоактивл
радиов
радиокала
радиопа
радиостанции
радиохастар
радист
радисч
радиус
радищев
радон
радости
радость
радуга
раз
разбитых
разбои
разве
разведка
разведки
разведчик
развитие
развитии
развития
разг
разговор
раздел
разделе
раздельнолепестные
разин
различного
различных
размер
размещение
размышления
разнообразие
разные
разных
разработчиков
разум
разъезд
разъезче
раи
раиса
рак
рака
ракалл
ракан
ракет
ракета
ракети
ракетки
рал
ралла
рам
рама
раман
ран
рана
ранать
ранг
рангри
ранее
раннего
ранняя
ранпа
ранса
рансем
рансен
рансене
рантара
рантарать
рантарн
ранхи
ранч
раньше
рар
рара
рарах
рас
раса
распространение
распутин
рассвет
расселение
расселения
расси
рассказ
рассказы
рассоха
растении
растения
растет
расче
расчет
расширение
расширении
расширения
рат
рата
ратакан
ратать
ратл
ратма
ратн
ратне
ратса
рать
рафаэль
рах
раха
рахакан
рахать
рахимов
рахма
рахман
рахн
рахса
рахут
рационалл
рач
рача
рачеи
рачкав
раш
рашид
раштав
раштавра
раҫҫе
раҫҫеи
рб
рбк
рв
рваш
рвун
рггу
ре
реактор
реакци
реакции
реализм
реальность
реальныи
ребе
ребенка
ребенок
ребята
рев
ревизор
ревл
революци
революции
революцилл
революцин
революцине
революционер
революциччен
революцичченхи
революция
рег
регент
регион
региона
региональная
региональнои
регионе
регионне
регистр
регистра
регистрацилен
ред
редактор
редактора
редакторе
редакци
редакциеи
редакции
редакцилен
редакция
редкие
редкол
редколлегия
реест
реестр
реестры
реж
режим
режима
режиссе
режиссер
резеда
резерв
резиденции
резина
резонанс
результат
результате
результаты
реи
рек
река
реквием
реке
рекел
рекен
рекенсем
рекенсен
реки
рекл
реклама
рекомендации
реконструкции
реконструкция
ректор
рел
религии
религия
релл
релле
рельеф
рельс
рем
рембрандт
реме
ремелли
ремм
ремонт
рен
рене
ренекен
ренекенсем
ренет
рени
ренме
ренмелли
ренн
ренне
ренпе
ренпур
ренсе
рент
рентген
ренте
рентев
рентекен
рентекенсен
рентес
рентет
рентме
рентмелли
рентн
рентни
рентсе
ренту
рену
репертуар
репин
репортаж
репорте
репрессилен
рептилии
рер
рерих
рес
ресе
ресем
респ
республик
республика
республике
республики
республикин
республикине
республикинче
республикинчи
республикипе
ресторан
ресурс
ресурсов
ресурсы
рет
рете
ретн
ретне
ретри
ретро
реутов
референдум
реформ
реформа
реформи
рех
рецензия
реч
рече
речи
речка
речки
речь
реш
реше
решекен
решение
решении
решения
решетке
решме
решн
решни
решу
реҫҫе
ржев
ри
риа
ривер
риг
рига
рид
рии
рик
рим
рима
риман
риме
римлянсем
римма
римра
римре
римри
римсем
римские
римскии
рин
рине
ринпе
ринче
ринчен
ринчи
рио
рипе
рис
рисем
рислинг
рисунок
рита
ритм
ритуал
рихард
ричард
риччен
рк
рка
ркаи
ркалав
ркас
рке
ркев
ркел
ркеле
ркелев
ркелекен
ркелеме
ркелен
ркелене
ркеленет
ркеленн
ркеленсе
ркелену
ркелес
ркелесе
ркелесси
ркелет
ркелл
ркелу
ркен
ркене
ркепе
ркере
ркесем
ркесене
рки
ркин
ркине
ркипе
ркисем
ркисене
ркка
ркке
ркп
рку
ркунне
рл
рла
рлама
рлан
рлана
рланать
рлани
рланн
рланса
рласа
рлат
рлатн
рлать
рлахи
рлач
рлачра
рле
рлев
рлекен
рлел
рлеме
рлемелли
рлемес
рлен
рлене
рлени
рленн
рленч
рлес
рлесе
рлесси
рлет
рлетме
рлетн
рлету
рлех
рлехи
рлеш
рлеше
рлешет
рлешинчен
рлешн
рлешнинчен
рлешсе
рлештер
рлештерекен
рлештерет
рлештерме
рлештерн
рлештерсе
рлешу
рли
рлисем
рлисен
рм
рма
рмав
рмаи
рмалл
рмалла
рмалли
рман
рмана
рманкас
рманкасси
рманл
рмансем
рмансенче
рманта
рманти
рмар
рмах
рмашн
рмаях
рме
рмел
рмене
рмере
рми
рн
рна
рнар
рнас
рнатт
рная
рне
рнелл
рнерен
рнеҫ
рни
рнин
рнине
рнинчи
рного
рное
рнр
рныи
ро
робер
роберт
робинзон
ров
ровно
роговая
род
рода
роджер
родился
родина
родину
родины
родион
родионов
родионова
родная
родник
родного
роднои
родные
родов
родос
рожанскии
рождение
рождения
рождественски
рождественскии
рождеством
роза
розы
рои
рок
рокоссовскии
рокфеллер
рол
ролан
роланд
роле
роли
ролл
роль
рольне
рольсене
рольсенче
рольте
ром
рома
роман
романа
романе
романне
романов
романова
романович
романс
романтизм
романтик
романья
ромашкин
ромеи
ромм
рон
рона
рональд
рос
росс
россиеи
россии
россини
россию
россия
росспэн
рост
роста
ростислав
ростов
ростоцкии
рот
рота
роти
ротин
ротор
ротшильд
роу
роща
рп
рпа
рпе
рпи
рпу
рр
рре
ррем
рреме
рремеш
ррехинче
рри
ррин
ррине
рринче
рринчен
рринчи
ррипе
ррис
ррисем
ррисемпе
ррисен
ррисене
рричен
рриччен
рс
рса
рсалатл
рсан
рсдрп
рсе
рсем
рсемпе
рсен
рсене
рсенче
рсенчен
рсенчи
рсфср
рт
рта
ртав
ртакан
ртакран
ртам
ртан
ртанн
ртарах
ртас
ртасси
ртат
ртаттар
ртать
ртаҫҫе
ртвые
рте
ртекен
ртен
ртенпе
ртес
ртесси
ртет
ртех
рти
рткаи
ртл
ртла
ртма
ртмалла
ртмалли
ртман
ртме
ртмелле
ртмелли
ртмен
ртмес
ртн
ртна
ртне
ртнех
ртни
ртнипе
ртр
ртран
ртрах
ртре
ртса
ртсе
ртсем
ртсен
ртстан
ртстанри
ртт
ртта
рттан
рттанл
рту
ртура
ртыи
ру
рубеже
рубен
рубин
рубинштеи
рубле
рублеи
рубцова
руда
рудольф
руж
ружье
рузвельт
рук
рука
руки
руководитель
руководство
рукопись
руку
рулми
румын
румыни
румянцев
румянцева
рунет
руниверс
рур
рус
русалка
руси
руслан
русск
русская
русские
русскии
русским
русскими
русских
русско
русского
русское
русскои
русском
русскому
руссо
руст
русь
руф
ручеи
ручка
руш
рушл
рушла
рушс
рф
рфгм
рх
рхавсем
рхама
рхан
рхи
рч
рча
рче
рчен
рчет
рчи
рчисем
рчисен
рчун
рчуне
рчунсем
рчунсемпе
рчунсен
рчунсене
рччен
рш
рша
рше
рши
ршш
ршше
ршшипе
ршшипех
ршыв
ршыва
ршыве
ршывне
ршывра
ршыври
ршывсем
ршывсен
ршывсенче
ръел
ръял
ры
рыба
рыбаков
рыбинск
рыбкин
рыбников
рыбы
рыжии
рыжов
рынок
рыц
рыцарь
рь
рьел
рьял
рэи
рябицев
ряд
рядовои
рядовому
рядом
рязанов
рязань
рҫа
рҫи
с
са
сабун
сав
сава
савва
саввич
саввович
савелии
савельев
савельева
савельевич
савин
савн
савни
савои
савр
савра
савруши
савут
савутра
савуч
савченко
сага
сад
сада
садаи
садне
садовых
садыкова
саи
саид
сак
сакк
сакки
саккун
саккуна
саккуне
саккунл
саккунне
саккунпа
сакмара
саксон
саксони
сала
салават
салам
салампи
саланн
саланса
салат
салатн
салатса
салдакаево
салехард
сали
салине
салинче
салмин
сало
салон
салпада
салтак
салтака
салтаксем
салтаксен
салтаксене
салтакьел
салтыков
салым
сальвадор
салют
сам
самаи
самана
саманара
саманинче
самант
саманта
самантра
самантран
саманч
самар
самара
самари
самарканд
самарская
самарские
самарскии
самарского
самарскои
самарском
самарта
самарти
самая
самаях
сами
самого
самое
самои
самоле
самолет
самом
самоуправления
самсон
самсонов
самуил
самураи
самые
самыи
самых
сан
сана
санкт
сант
санта
сантиметр
сантьяго
сап
сапа
сапаланав
сапе
сапи
сапл
саплык
сапоги
сапсан
сар
сара
сараи
саракан
саралн
саранск
сарас
саратов
саратовская
саратовские
саратовскои
саратуштра
сардини
сарлак
сарлака
сарма
сарн
саров
сарпи
сарри
сарса
сарт
сартр
сас
саса
сасарт
саспалли
саспаллипе
саспаллисем
сасс
сасса
сасси
сатира
сатирик
сатка
сатн
сатур
сатурн
сауд
сафин
сафронович
сах
саха
сахал
сахалин
сахалрах
сахалтан
сахалтарах
сахар
сахара
сахаров
сач
саша
сб
сборник
сборнике
св
свадьба
сванети
сведении
сведения
свердлов
свердловск
свет
света
свете
светлана
светлая
свидание
свобода
свободно
свободы
свод
свое
своего
своеи
своем
своему
свои
своим
своими
своих
свою
своя
связи
связь
святого
святои
святослав
святых
священник
сделать
се
сеанс
себастьян
себе
себя
севастополе
севастополь
север
севера
северная
северного
севернои
северныи
северо
северодвинск
сегодня
сед
седа
седов
сезар
сезон
сеи
секен
секенсен
секретар
секретарь
секс
секст
сектор
секции
сел
села
селе
селевк
селении
селения
селиванов
село
сельская
сельскии
сельских
сельского
сельское
сельскои
сельскохозяи
сем
семантика
семе
семеи
семен
семенов
семенова
семенович
семеновна
сементер
семех
семи
семинарии
семинаринче
семиотика
семит
семл
семпе
семс
семш
семше
семь
семье
семьи
семья
сен
сена
сенат
сенатор
сенгилеи
сене
сенегал
сенкер
сент
сента
сентябрь
сентября
сенче
сенчен
сенчи
сер
серафим
серафима
серб
серби
сервер
сервера
сервере
сервис
серге
сергеев
сергеева
сергеевич
сергеевна
сергеи
сергея
сергии
сердца
сердце
сере
серебряныи
середине
середины
сержант
сержантскому
сержанч
сери
сериал
сериала
серии
серилл
серия
серов
сессии
сестра
сестры
сет
сети
сеть
сех
сехет
сехетре
сече
си
сибири
сибирская
сибирскии
сибирь
сив
сивлек
сивухин
сигнал
сидеть
сиднеи
сидоров
сидорова
сидорович
сиен
сии
сиксе
сил
сила
силу
силы
сильно
сильныи
силэм
сим
симаков
симбирская
симбирско
симбирского
симбирскои
символ
символизм
символов
символпа
символы
симе
симон
симонов
симфони
симфония
син
синг
сингапур
сингл
синдром
сине
синельников
синер
синкер
синкерл
синоним
синонимсем
синтаксис
синтез
сипл
сиплев
сир
сира
сире
сири
сирире
сироткин
сирп
сирсе
сис
систем
система
систематика
системе
системи
системин
системине
системинче
системинчи
системипе
системисем
системисен
систему
системы
сити
ситуации
ситуация
сих
сихтерма
сицили
ск
ска
сказал
сказание
сказать
сказка
сказки
сказуем
скала
скалярла
скандинави
скасси
ская
сквер
сквозь
скворцов
скворцова
ске
скен
скер
скере
скерне
скерсем
скерсен
ски
ские
скии
ским
ских
ско
ского
ское
скои
сколько
ском
скоро
скорости
скорость
скот
скота
скотт
скрипка
скрипта
скрябин
скульптор
скульптура
скумин
скуратов
сл
сла
слабыи
слав
слава
славы
славян
славянсем
славянсен
славянские
славянских
славянскои
слаи
слакпу
слан
сларан
слах
сле
слев
слевҫи
след
следам
следователь
следствие
следует
следующие
следующии
слезы
слекен
слекенсенчен
слеме
слемен
слен
слене
сленекен
сленет
слени
сленн
сленсе
слесарь
слесе
слет
слишком
слов
слова
словак
словаки
словакин
словаксем
словар
словаре
словари
словарь
словаря
словах
словен
словени
словник
слово
слон
слуга
служба
службы
случае
случаи
см
сма
сме
смел
смена
смерти
смерть
смет
смете
сметне
сметре
сметрен
смех
смеч
сми
смирнов
смирнова
смит
смог
сможете
смоктуновскии
смоленск
смотреть
смулен
смысл
сн
сна
снаи
сначала
снг
сне
снег
снегире
снежная
сни
снип
снова
сносок
сны
со
соавт
соавторстве
собака
собаки
собачья
собир
собои
соболев
собор
собрание
собрании
собрания
событии
события
сов
совершенно
совесть
совет
совета
совете
советник
советов
советсен
советская
советски
советские
советскии
советских
советского
советское
советскои
советском
совеч
совиньон
совм
совместно
современная
современник
современников
современного
современное
современнои
современном
современностъ
современность
современные
современныи
современных
совсем
совхоз
согласно
содеи
содержание
содержащии
содержимого
содержимое
содержит
соединения
создавать
создание
создании
создания
создать
сознание
сознания
сои
соим
соискание
сок
сокол
соколов
соколова
сократ
сокровища
солдат
солдаты
солисч
солнечныи
солнца
солнце
солнцем
соло
соловеи
соловье
соловьев
соломин
соломон
соломонович
соль
сом
сомов
сон
соната
соня
сообщение
сообщении
сообщения
сообщества
сообщество
сооружении
сооружения
соотв
соответствии
соответствующего
сопрано
сопредельных
сорок
сорокин
сорт
сортран
сорум
сорч
сосед
соседи
соседка
сосновка
сост
состав
составе
составители
составитель
составу
состояние
состоянии
состояния
сосьва
сотрудник
сотрудники
софи
софии
софия
софья
сохранения
сохранился
сохранить
социал
социализм
социализмла
социалистических
социалл
социалла
социальная
социально
социального
социальнои
социальные
социологи
социологии
социология
соч
сочи
сочинение
сочинении
сочинения
союз
союза
союзе
союзмультфильм
союзне
союзри
сп
спа
спаржа
спартак
спасибо
спасскии
спб
спбгу
спе
спектак
спектакл
спектакле
спектакль
спектр
спец
специалист
специалисч
специально
специальныи
спиноза
спиридон
спиридонов
спиридонович
спирт
спирч
списка
списке
списки
список
списокра
спокои
спорт
спорта
спортсмен
спорч
способ
справ
справка
справочная
справочник
справочное
спустя
спутник
спутника
спутникл
ср
сра
сравнительно
сразу
сран
сре
сред
среда
среди
средневековои
средневековья
среднего
среднеи
среднем
средние
среднии
средняя
средств
средства
средство
среды
срен
срех
сри
срок
сс
сса
ссаи
ссе
ссем
ссемпе
ссен
ссене
сси
ссипе
сскп
сср
ссрп
ссрс
ссср
сссрта
ссылк
ссылка
ссылки
ссылку
ссылок
ст
ста
ставить
ставрополь
стадион
стаи
стал
стала
сталан
сталана
стали
сталин
сталина
сталинград
стало
сталь
стамбул
стан
стандарт
стандартл
стандарч
станислав
станиславскии
становится
становиться
становление
станок
станци
станции
станцин
станцине
станцинчен
станция
станьял
стар
старая
стареи
старик
старина
старица
старого
старое
старои
старуха
старшая
старшии
старшина
старшини
старые
старыи
стат
статеи
стати
статистик
статистика
статистики
статистическая
статистическии
статистических
статуи
статус
статуса
статусне
статусом
стать
статьи
статью
статья
статьяна
статьяра
статьясем
статьясен
статьясене
стб
ств
ства
стве
ственного
ственныи
ственных
ствие
ствии
ствия
ство
сте
стекло
стекольна
стекольныи
стена
степ
степан
степанов
степанова
степанович
степановка
степановна
степен
степенеи
степени
степень
степеньл
степи
степь
стер
стере
стерекен
стереотип
стереотипное
стерет
стерлитамак
стерлитамакскии
стерме
стерн
стерсе
стефан
стефанович
сти
стив
стивен
стил
стиле
стиль
стисем
стих
стиха
стихи
стихов
стихотворении
стихотворения
сто
стои
стоит
стокгольм
стол
столб
столетия
столица
столяров
сторона
сторону
стороны
стр
стран
страна
странах
стране
страниц
страница
странице
страници
страницу
страницы
странник
страны
страсбург
страсти
стратеги
стратегилл
стратегия
страха
страховани
стрелок
стрелоксен
строение
строи
строитель
строительства
строительство
строке
строки
стронци
структур
структура
структуры
студ
студент
студентов
студентсен
студентсене
студенч
студи
студии
студине
студинче
студире
студия
стульев
стюарт
су
суахили
субъект
субъекч
сувар
суваризм
сувары
суворов
суворова
суд
суда
судан
судьба
судьбы
судья
суздаль
суи
сук
сукк
сукмак
сул
сула
сулавеси
сулак
сулахаи
сулеи
сулланусен
султан
сум
сумл
сумм
сумма
сумми
сун
сунар
сунара
сунтал
сунч
сунчелеево
суп
сур
сура
суран
суранланн
суриков
суры
сут
сута
сутакан
сутма
сутн
сутса
суту
суффект
суха
сухал
сухан
сухои
сухона
сухоруков
суч
существительными
существует
существующих
сущность
суя
сфер
сфера
схема
схпк
сцена
сценари
сценарии
сценарист
сценаристсем
сценарисч
сцене
сцени
сцены
сципион
счастливыи
счастье
счастья
счах
счахсем
сче
счет
сша
съе
съезд
съезда
съезч
сыв
сывл
сывла
сызрань
сыктывкар
сылт
сыма
сын
сына
сыня
сып
сыпа
сыппис
сыр
сыры
сысна
сытина
сыхлав
сыхлакан
сыхлан
сыхланнин
сыхланса
сыхлас
сыхласа
сыче
сэм
сэнгер
сэр
сюда
сюжет
сюжеч
сюнь
сюр
ся
т
та
табак
табаков
табл
таблиц
таблица
таблицы
тав
тава
тавар
тавлашу
тавр
тавра
таврал
таврала
таврап
таврари
тавраш
таврашне
таганрог
таджик
таджикистан
таз
таи
таиланд
таисия
так
така
такан
такана
такас
такая
также
таки
такие
таким
такмак
такое
такои
такси
таксист
таксон
тактика
тал
талант
талантл
талвир
талиев
талкк
талла
таллин
талп
талыш
тальони
там
тамара
тамбов
тамран
тан
танаи
танах
танго
тани
танк
танка
танкино
танкист
танксене
танл
танлашать
танлашн
танлаштар
танлаштарма
танлаштарса
танлаштарсан
танлаштару
танлаштарул
танлаштарулл
танмарл
тант
таня
тап
тапа
таппи
таппинчен
тапранать
тапранса
тапса
тапх
тапха
тар
тара
таракан
таран
таранах
таранччен
тарас
тарасов
тарасович
тарать
тарах
тарин
тарк
тарка
тарковскии
тарма
тарн
тарни
таро
тарса
тарт
тарта
тартакан
тартас
тартать
тартма
тартмалли
тартман
тартн
тартна
тартни
тартнипе
тартса
тарту
тартусем
тару
таршш
таса
тасал
тасата
тасс
тат
тата
татар
татарская
татарские
татарскии
татарских
татарского
татарское
татарскои
татарстан
татарстана
татары
татах
татищев
татм
татса
татти
тать
татьяна
тафаев
тах
тахар
тахо
тахтал
тахтала
тацит
тач
таш
таше
ташкент
ташла
ташши
таянса
таяпа
таҫе
тбилиси
тв
тве
твен
тверь
твои
творчества
творчестве
творчество
те
теат
театр
театра
театральная
театре
театрне
театрпа
театрта
тебе
тебя
теветкел
тег
тега
тегов
тезаврус
тезисы
теи
тек
текен
текенни
текст
текста
текстне
текстов
текстсем
текстсене
тексты
тексч
текумсе
тел
тела
теле
телевидени
телевизор
телеграф
телеерту
телеи
телек
телеканал
телеканала
телекур
телекурав
телесериал
телеспектакль
телефильм
телефон
телеяр
тело
тель
тем
тема
теме
темелле
темен
темешк
теми
темипе
темиҫе
темле
темников
температур
температура
температури
темтеп
тему
тен
тенант
тенанта
тенанч
тенденции
тене
тени
тенин
тенине
тенинчен
тенипе
тенисем
тенисемпе
тенисене
тенк
тенке
теннесси
теннис
теннисисч
тенор
тень
теодор
теодорих
теорема
теореми
теоретик
теоретическая
теоретические
теоретическои
теори
теории
теорилл
теорилле
теорин
теорине
теорипе
теорию
теория
теп
тепе
теперь
тепло
тепре
тепри
теприне
теприсем
тер
тере
терек
терекен
терентьев
терентьева
терентьевич
терес
терет
тери
терл
терме
термен
термин
термина
терминов
терминологии
терминпа
терминсем
термины
термодинамик
термодинамика
термодинамики
терн
терне
терни
терра
территори
территориального
территориальное
территориальныи
территорие
территории
территорилл
территорин
территорине
территоринче
территоринчи
территорипе
территорире
территория
террор
терса
терсе
терсен
тес
тесе
тесен
тесл
тесле
тест
тесь
тет
тете
тетел
тетелте
тетте
тех
техас
техник
техника
техники
техникум
техникумне
техническая
технические
техническии
технолог
технологи
технологии
технологипе
технология
течение
течч
теш
теҫҫе
ти
тиберии
тибет
тив
тиве
тивекен
тивет
тивн
тигр
тиев
тик
тикеш
тикк
тикки
тил
тим
тиме
тимерлек
тимеш
тимл
тимофеев
тимофеева
тимофеевич
тимофеевна
тимофеи
тимошенко
тимошкино
тимуков
тимур
тимухха
тимушкел
тин
тинг
тине
тип
типа
типе
типов
типография
типология
типсе
типы
тир
тираж
тире
тирек
тиркев
тирпеи
тис
тискер
тит
титан
титов
титова
титович
титрах
титрсенче
титрта
титул
титула
титулне
тихии
тихо
тихомиров
тихон
тихонов
тихонова
тихонович
тициан
тишина
тишкер
тишкерекен
тишкерет
тишкерн
тишкерсе
тишкеру
тк
тка
ткань
тл
тла
тлав
тлан
тланать
тланн
тлев
тлен
тленн
тленсе
тм
тма
тмах
тме
тмен
тн
тне
тни
тнипе
тныи
то
тоба
тобои
тобол
тов
товар
товарищ
товарища
товарищество
товарныи
тогда
того
тодоровскии
тоже
тои
ток
тока
токарев
токио
толковыи
толстого
толстои
только
тольятти
том
тома
томас
томах
томл
томпсон
томск
тому
томь
тон
тонн
тонна
топ
топливо
топологи
топология
топоним
топонимии
топонимическии
топоров
тор
тора
торговои
торговыи
торн
торонто
торпеда
торф
тоска
тоскана
тот
точка
точки
точно
тпа
тпе
тр
тра
трава
трагеди
трагедии
трагедия
традиции
традиционная
традиционныи
традиция
трак
трактат
трактор
тралл
трамваи
тран
транспорт
транспорта
транспорч
трах
траштар
траштармалла
траян
тре
треи
трел
трен
тренер
тренч
третии
третье
третьего
третья
третьяков
третьяковская
трех
три
трибун
тридцать
триер
триумф
трифонов
трифонова
трое
трои
троица
троицкии
троллеи
трон
тронл
тропик
трофим
трофимов
трофимович
троцкии
трубина
трубы
труд
труда
трудно
трудов
трудовои
труды
тс
тса
тсе
тсем
тсен
тсене
тсенче
тся
тт
ттан
тте
тти
ту
туалет
туберкуле
туда
туи
тук
тукаи
тукан
тукташ
тул
тула
тулать
тулаш
тулашри
тулл
тулли
туллии
туллин
тулпас
тултар
тултарн
тултарнине
тултарсан
тулуз
тум
тума
тумалла
тумалли
туман
тумба
тумлам
тумлан
тумтир
тумтире
тун
туна
тунгуска
туни
тунине
тунис
туп
тупа
тупаи
тупас
тупать
тупма
тупмалли
тупн
тупна
туполев
тупс
тупса
туптан
тур
тура
тураев
турам
туран
турат
турач
тургау
тургенев
туре
тури
туризм
турин
туркаи
туркестан
туркк
туркмен
туркменистан
турнир
турнояс
турочак
турра
турри
турт
турта
туртать
туртса
турттаракан
турул
турхан
турци
турцин
турципе
турцире
турцири
тус
туса
тусан
тусем
тусемпе
тусен
тусене
тусл
туссем
тустарн
тут
тута
тутар
тутаркас
тутарла
тутарсем
тутарсемпе
тутарсен
тутарстан
тутарстанра
тутарстанри
тутарстанти
тути
тутл
тух
туха
тухакан
тухас
тухатм
тухать
тухма
тухмалла
тухмалли
тухман
тухманова
тухн
тухна
тухни
тухнине
тухнипе
тухнисем
тухр
тухса
тухсан
тухсат
тухт
туя
туянать
туянма
туянн
тчен
тченех
тчик
ты
тыг
тыл
тым
тымар
тын
тыр
тырпул
тыс
тысяч
тысячи
тыт
тыта
тытакан
тытать
тытк
тыткалар
тытма
тытмалли
тытн
тытна
тытни
тытса
ть
тюмень
тюринги
тюрки
тюрко
тюрколог
тюркские
тюркских
тюрнясево
тя
тяжело
тяжелыи
тянь
у
уаи
уао
уап
убии
убои
увидеть
увидите
уводь
угол
уголовного
уголь
удар
ударение
удачи
удел
удк
удмурт
удмурти
удэ
уезд
уезда
уездах
уезде
уес
уесне
уесре
уефа
уж
уже
уза
узб
узбек
узбекистан
узел
узень
уи
уильям
уильямс
ук
указ
указан
указана
указание
указания
указатель
указать
указе
указом
укие
укки
уккине
уккипе
укл
укр
украин
украина
украине
украинсем
украины
украі
укса
укҫа
ул
ула
улан
улат
улатим
улах
улаштарма
улиц
улица
улице
улицы
улк
улки
улкинче
улкинчен
улл
улла
уллахи
улма
улми
улне
улпа
улпу
улпут
улсем
улсен
улсене
улсенче
улсенчен
улсенчи
улсерен
улт
улта
ултав
ултал
ултан
ултанпа
ултах
улти
ултт
улус
улхаш
улхи
улчен
улччен
улш
улша
улшу
улы
уль
ульянов
ульянова
ульяновск
ульяновская
ульяновские
ульяновскои
ум
ума
умберто
уме
умение
умер
умл
умне
умолчанию
умри
умс
ун
уна
унакан
унат
унатл
унать
унач
унашкал
унежма
универсалл
университет
университета
университете
университетне
университетра
университеч
университече
унк
унки
унпа
унран
унс
унса
унта
унтан
унтарн
унтарса
унтах
унти
унчен
унченхи
унччен
унчченхи
унш
уп
упа
упакасси
упи
упр
упра
управ
управлени
управление
управлением
управлении
управленин
управления
управлять
упракан
упрама
упрамалли
упран
упрана
упранакан
упранать
упранн
упранса
упраса
ур
ура
уравнении
уравнения
ураи
урал
урала
уралать
уралл
уралн
урални
уралнисем
урало
уралса
уральскии
уральского
урам
урама
урамра
урамсем
урамсен
урамсене
уран
урана
урапа
урапи
урасем
ураскилт
уратн
уратса
уржум
ури
урисем
уркунне
урл
урла
урлан
урма
уровень
урожаи
урок
уроки
урпа
урпаш
урри
урринче
урсс
урт
урта
урташ
уртне
уртра
уртсем
уртсен
уртсене
уртт
уругваи
урукова
урутрав
урхах
урхи
урч
ус
уса
усал
усем
усене
усенче
усил
услам
условии
условия
условиях
успенскии
успехи
успешно
усра
усрав
усрама
усран
усср
уссури
уст
уста
устав
установить
установка
установке
установки
установлении
устинович
устои
устрои
усть
устье
усул
ут
ута
утар
утатса
утверждении
ути
утка
уткин
утл
утм
утомле
утрав
утрава
утраве
утравне
утравсем
утравсене
утро
утром
утса
утта
уфа
уфн
ух
ухалать
ухалн
ухат
ухатать
ухатн
ухатса
ухату
ухли
уходит
ухр
ухсаи
уч
учала
участие
участием
участии
участковыи
участок
учащихся
уче
учеб
учебник
учебники
учебно
учебное
учебныи
учебных
учен
учение
ученик
учения
ученои
ученые
ученыи
ученых
училищ
училища
училище
училищи
училищин
училищине
училищинче
учителеи
учитель
учительница
учительсен
учителя
учпедгиз
учреждение
учреждении
ушаков
ушакова
ушел
ушк
ушка
уэи
уэльс
уяв
уява
уявла
уявне
уяр
уҫа
уҫна
ф
фа
фабии
фабрика
фабрики
фадеев
фаз
фаза
фаи
фаина
факс
факт
фактор
факты
факультет
факультета
факультетне
факультеч
фамилии
фамилия
фан
фантастика
фарадеи
фараон
фараоне
фарида
фасмер
фасо
фауна
фауны
фауст
фашизм
фе
февр
феврал
февраль
февраля
федералл
федерального
федеральнои
федеральныи
федераци
федерации
федерацин
федерацинче
федерико
федор
федоров
федорова
федорович
федоровка
федоровна
федотов
федотова
федотович
феи
феликс
феллини
фельдмаршал
фельдшер
феникс
феномен
феодал
феодосии
феофан
фердинанд
ферм
ферма
ферми
фестивал
фестивале
фестиваль
фестивальне
фз
фи
фигаро
фигур
фигура
фиджи
физ
физик
физика
физике
физики
физикин
физико
физиологи
физическая
физические
физическии
физических
физическои
физкультура
физматлит
фикшн
фил
филатов
филиал
филимонов
филимонович
филип
филипп
филиппин
филиппов
филиппова
филиппович
филол
филолог
филологи
филологии
филологических
филология
филос
философ
философе
философи
философии
философия
философская
философские
философскии
философское
фильм
фильма
фильме
фильмов
фильмография
фильмра
фильмри
фильмсем
фильмы
фимов
фин
финал
финанс
финики
финлянди
финляндии
финляндире
финн
финно
фирма
фитиль
фиц
фишер
фк
флавии
флаг
флагман
флакк
флеи
флетчер
флинт
флора
флоренци
флорида
флот
флота
флотне
флоч
фо
фокин
фолк
фольк
фольклор
фольклорист
фома
фоменко
фомин
фомич
фон
фонареи
фонд
фонда
фондч
фонема
фонетик
фонетика
фонтан
фонч
форд
форм
форма
формалл
формат
формате
форматл
форме
форми
формине
формипе
формирование
формирования
формисем
форму
формул
формула
формули
формы
форсаи
форт
фортепиано
форум
фосфор
фот
фото
фотогалерея
фотограф
фотографи
фотографии
фотографисем
фотография
фотоу
фр
фрагмент
фрагменты
фраи
фраки
фран
франк
франклин
франко
франкони
франксем
франксен
франкфурт
франс
франсуа
франц
франци
францие
франции
францин
францине
франципе
францире
францири
франциск
франциско
франция
француз
французла
французсем
французсен
французская
французскии
французского
французскои
франческо
фрг
фредерик
фреи
френкель
фридрих
фриц
фрол
фролов
фролова
фролович
фронт
фронта
фронтне
фронтра
фронч
фрунзе
фрэнк
фрэнсис
фу
фукс
фульда
функци
функцие
функции
функцин
функцисем
функцисен
функцисене
функция
футбол
футболист
футболисч
фізіологіі
х
ха
хабаровск
хабиров
хавал
хавас
хавасл
хадыта
хазар
хаи
хак
хака
хакал
хакан
хаканл
хакаси
хакл
хакла
хаклав
хаклан
хал
хала
халал
халаллан
халалласа
халап
халапл
халапла
халапсем
халах
халдеи
хале
халиков
халиф
халиччен
халичченех
халл
халь
хальмер
хальхи
хам
хама
хамар
хамрр
хан
хана
ханл
ханс
ханства
хант
хань
хао
хаос
хап
хапа
хапав
хапалл
хапи
хапр
хапха
хапхи
хар
хара
характер
характера
характеристика
характеристики
харвест
харвута
харитонов
харитонова
харкамл
харп
харпа
харрис
харс
харута
харьков
харьковри
хасан
хасар
хасарсем
хасарсен
хастар
хастарл
хастарр
хат
хате
хатерлен
хатра
хать
хах
хач
хаяр
хаярл
хв
хваттер
хвет
хе
хевтелл
хеи
хельсинки
хен
хеп
херц
хетта
хех
хи
хиврел
хилл
хим
хими
химии
химик
химилле
химипе
химическая
химические
химическии
химических
химия
хин
хинди
хине
хир
хирбю
хире
хирл
хирлеп
хирлеппу
хирте
хирти
хирург
хирурги
хисеп
хисепе
хисепл
хисепле
хисеплен
хисепленекен
хисеплесе
хисепне
хисеппе
хисепре
хисепсем
хисепсен
хисепсене
хистенипе
хистет
хит
хитре
хк
хл
хла
хлан
хларах
хле
хлеб
хлеба
хлебников
хма
хмалла
хмас
хмель
хмельницкии
хн
хна
хне
хни
хо
ходасевич
ходить
хождение
хозяи
хозяин
хои
хокинг
хоккеи
хоккеисч
холдинг
холл
холм
холмс
хопе
хор
хора
хорв
хорват
хорвати
хорм
хорошии
хорошо
хосе
хоспит
хотите
хоть
хотя
хочу
хпа
хпе
хр
хра
храм
храма
храмне
храмов
хран
хранения
хранитель
храх
хре
хрен
хрестоматия
хресчен
хресченсем
хресченсен
хри
христа
христиан
христианл
христиансем
христиансен
христианского
христианство
христос
христоса
христофор
христофорович
хроника
хроники
хронологическо
хронология
хруще
хс
хса
хсан
хсем
хсемпе
хсен
хсене
хсенче
хсенчен
хсенчи
хтам
хти
ху
хуан
худож
художественная
художественного
художественнои
художественные
художественныи
художник
художника
художники
художников
хузангаево
хузангаи
хуи
хул
хула
хулан
хулана
хулапа
хулара
хуларан
хулари
хуласем
хуласемпе
хуласен
хуласене
хуласенче
хуласенчен
хулаш
хули
хулин
хулине
хулинче
хулинчен
хулинчи
хулинчишыв
хулипе
хулисем
хулисемпе
хулисен
хулисене
хулисенче
хулисенчен
хуличчен
хум
хума
хумалла
хумалли
хумл
хумсем
хун
хуна
хунав
хуни
хунк
хунну
хунсем
хунсен
хунсене
хуп
хупа
хупать
хупласа
хупн
хуппи
хупса
хур
хура
хурав
хуравне
хуракан
хуракасси
хурал
хуралту
хурама
хурамал
хуран
хурас
хурасан
хурать
хурах
хури
хуриччен
хурл
хурса
хурт
хурч
хурчка
хусан
хусана
хусанкаи
хусанта
хусантан
хусанти
хут
хута
хутаи
хутар
хутк
хутл
хутла
хутлав
хутлавл
хутне
хутор
хутра
хутран
хутсем
хутсенче
хутт
хутчен
хутш
хутша
хуть
хух
хуч
хуш
хуша
хушамат
хушаматл
хушаматне
хушаматпа
хушамач
хушать
хушма
хушн
хушнипе
хушса
хушу
хушши
хушшине
хушшинче
хушшинчи
хущ
хуҫала
хх
ххи
ххисем
хш
хы
хыв
хывакан
хывн
хыпар
хыпара
хыпарл
хыпарлать
хыпарпа
хыпарс
хыпарсем
хыпарсемпе
хыпарсене
хыпса
хыр
хыра
хыркасси
хырла
хысак
хысакл
хыт
хыта
хытарк
хытса
хыҫҫа
хэ
хэи
ц
ца
цар
царе
царевич
цареи
цари
царии
царин
царире
царири
царицыно
царская
царскии
царское
царства
царство
царь
царя
цв
цвет
цвета
цветаева
цветков
цветов
цветок
цветы
цев
цева
цезарь
цези
цеи
целина
цель
цемент
цена
центр
центра
центральная
центральнои
центральныи
центре
центрне
центрполиграф
цер
церкви
церковно
церковь
цех
цзин
цзинь
цзы
ци
цивилизации
цивилизация
цикл
цикла
циклон
цилиндр
цильма
цин
цинк
цинь
циолковскии
цирк
цирка
цирюльник
цитат
цитата
цитрус
цифр
цифра
цицерон
цк
цна
цов
цска
цунами
цы
цюрих
ч
ча
чаваш
чавса
чад
чаи
чак
чака
чакать
чакма
чакн
чакса
чал
чалл
чалла
чамлык
чан
чао
чап
чапа
чапаев
чапаева
чапл
чапла
чаплин
чар
чара
чарли
чарльз
чарма
чарн
чарса
чаршав
чарыш
час
часах
часов
часср
частеи
части
частиц
частица
частности
частныи
часто
часть
частью
частях
часы
чат
чаш
чаще
чгигн
чгпу
чгу
че
чебоксар
чебоксарах
чебоксарскии
чебоксарского
чебоксары
чего
чеи
чек
чекист
чекмакуш
чел
челепи
челны
человек
человека
человеке
человечества
челябинск
чем
чемпион
чемпионат
чемпионач
чему
чен
ченко
чепунов
чере
через
черек
черемшанского
черкес
черкки
черная
чернигов
чернов
чернова
черногори
чернушка
черныи
черт
черты
честь
четве
четыре
чех
чехи
чехов
чехова
чехословаки
чехсем
чечек
чечеке
чечекл
чечексем
чечен
чеченсем
чечня
чжан
чжоу
чи
чие
чиешне
чик
чикаго
чикан
чикансем
чике
чикинчен
чикиччен
чикки
чиккине
чиккинче
чиккинчен
чиккисем
чиккисене
чиккичен
чиккчен
чикм
чикме
чиксе
чили
чин
чингисхан
чиндыков
чиновник
чипер
чир
чире
чирк
чирке
чирков
чирку
чирл
чирлен
чирлесе
чисел
числа
числе
численности
численность
число
чистаи
чистовка
чита
читать
чичканов
чишма
чк
чкалов
чкаловски
чкеи
чл
член
члене
членов
чнии
чнк
чпг
чпу
чр
чрезвычаи
чрен
чсене
чтения
что
чтобы
чу
чув
чуваш
чувашами
чувашах
чувашеи
чуваши
чувашии
чувашия
чувашорум
чувашская
чувашские
чувашскии
чувашских
чувашско
чувашского
чувашское
чувашскои
чувашском
чувашскому
чувашскую
чувств
чувство
чугун
чудес
чудеса
чудо
чужая
чужои
чуи
чук
чукал
чуковскии
чукотка
чукун
чул
чулка
чулл
чулман
чулран
чулхула
чулхулара
чулхулари
чулым
чулымран
чумакова
чумыш
чун
чуна
чунл
чунне
чуп
чупать
чупса
чура
чурал
чурач
чуста
чутаи
чуть
чух
чухл
чухле
чухне
чухнех
чухнехи
чч
ччен
чченех
чченхи
чылаи
чылаях
чын
чыс
чыса
чысл
чысла
чыслав
чыслан
чысласа
чысне
чышма
ш
ша
шаблон
шаблона
шаблонов
шаблонра
шав
шавл
шаг
шаи
шак
шакан
шал
шала
шаламов
шалан
шалл
шалланн
шалне
шалпа
шалти
шалу
шаляпин
шамиль
шампань
шан
шанн
шанс
шанса
шанхаи
шанч
шань
шаньюи
шапа
шапи
шапиро
шапка
шапкино
шапошников
шар
шара
шаран
шардоне
шаркурнисем
шарлак
шарлотта
шарль
шартлама
шат
шатра
шать
шаффхаузен
шах
шахмат
шахназаров
шахт
шахте
шая
шв
шварц
швед
швеи
швеци
швиц
ше
шев
шевле
шевченко
шего
шее
шеи
шекспир
шекспира
шел
шелепи
шем
шенче
шепси
шер
шереметьево
шерлок
шестаков
шести
шесть
шет
шетм
шешкел
ши
шие
шии
шимкевич
шин
шина
шинель
широков
ших
шишкин
шк
шка
шкадов
шкап
шкасси
шки
шкин
шкине
шкипе
шкловскии
школ
школа
школе
школу
школы
школьная
школьников
школьныи
шкул
шкула
шкуле
шкулне
шкулсем
шкулсенче
шкулта
шкултан
шкулти
шл
шла
шлав
шлакан
шлан
шласа
шле
шли
шлюз
шм
шма
шман
шмана
шманран
шмен
шмест
шмидт
шн
шна
шнаи
шне
шнеуи
шни
шнипе
шолохов
шор
шоссе
шота
шотланд
шотланди
шоу
шофе
шп
шпа
шпе
шпион
шпу
шр
шра
шран
шре
шри
шрифч
шс
шса
шсе
шсем
шсемпе
шсен
шсене
шт
штаб
штабс
штаи
штара
штарать
штарма
штарн
штарни
штарса
штат
штатсем
штах
штач
штаче
штеи
штерет
шти
штиль
шторм
штурм
штурман
штурмлакан
шу
шуи
шук
шукшин
шукшина
шулл
шултра
шум
шумер
шуметь
шумом
шунтал
шуп
шупашкар
шупашкара
шупашкарта
шупашкартан
шупашкарти
шупка
шупу
шур
шура
шурик
шуркасси
шурл
шуррисем
шуррисен
шурут
шурча
шуса
шут
шута
шуте
шутл
шутла
шутлав
шутлавл
шутлама
шутлан
шутлана
шутланакан
шутланать
шутлани
шутланн
шутланна
шутласа
шутласан
шутлать
шутне
шутпа
шутра
шух
шуха
шуч
шуче
шчен
шш
шша
шши
шшин
шы
шыв
шыва
шываи
шывам
шыве
шывл
шывне
шывпа
шывра
шывран
шыври
шывсем
шывсенче
шывуправ
шывуправенчч
шыр
шырав
шырама
шырани
шыраса
шырать
щ
ще
щепкин
щербаков
щик
щит
щукин
щучья
ъ
ы
ыв
ыва
ыджыд
ыи
ыл
ылмаш
ылт
ылта
ылтт
ын
ына
ыне
ынл
ынн
ынна
ынни
ыннин
ыннине
ыннисем
ыннисемпе
ыннисен
ыннисене
ынпа
ынран
ынсем
ынсемпе
ынсен
ынсене
ынсенчен
ып
ыр
ыра
ырав
ыравл
ыравпа
ыракан
ырал
ыран
ырана
ыранне
ыранпа
ыранпе
ырас
ыратать
ырать
ыраш
ырл
ырла
ырлан
ырли
ырлисем
ырма
ырмалли
ырман
ырмапу
ырми
ырн
ырни
ырнине
ырнинчен
ырнипе
ырнисем
ырнисен
ырнисене
ырса
ырсатуху
ырсатухупа
ыру
ырул
ырулл
ырупа
ырура
ырусем
ырьят
ыт
ыта
ытарл
ытла
ытларах
ытлах
ытлашши
ытти
ыттисем
ыттисемпе
ыттисен
ыттисене
ыттисенчен
ых
ыхра
ыхрав
ыхса
ыххи
ыш
ыша
ышанакан
ыше
ышл
ышне
ышпа
ышра
ышран
ышри
ышсен
ышши
ышшисем
ышшисен
ь
э
эволюци
эволюции
эволюция
эгеи
эдвард
эдгар
эдинбург
эдисон
эдмунд
эдо
эдуард
эжен
эи
эк
эквадор
экватор
эквивалентл
экз
экзамен
экземпляр
экзюпери
экипаж
эко
экологи
экология
экономик
экономика
экономики
экономист
экономисч
экономическая
экономические
экономическии
экономического
экономическои
экран
экрана
экс
эксмо
экспедици
экспедиции
экспедиция
эксперимент
экспериментсенчен
эксперт
экспорт
экспресс
эл
элам
эле
элек
электрика
электричество
электро
электродинамика
электромагнит
электромагнитла
электрон
электроника
электронл
электронла
электронная
электроннои
электронныи
электротехника
элемент
элемента
элементарл
элементарная
элементарнои
элементов
элементсем
элементсен
элементы
элеменч
элизабет
элкел
элкер
элли
эллинизм
элмен
элмет
элтеш
элч
элчел
элчи
элчисем
элшел
эль
эльба
эльвира
эльдар
эльзас
эльзе
эльмень
эльшеи
эмбинскии
эмел
эмили
эмилии
эмиль
эмир
эмма
эммануил
эн
энгельс
эндрю
энергетика
энерги
энергии
энергия
энн
энтль
энтони
энтри
энцикл
энциклопеди
энциклопедии
энциклопединче
энциклопедире
энциклопедири
энциклопедическии
энциклопедия
эп
эпе
эпизод
эпир
эпос
эпоха
эпохи
эпоху
эппин
эр
эра
эраччен
эрех
эрехе
эрехсем
эрехт
эреш
эрешмен
эри
эрик
эрих
эрлихман
эрм
эрмен
эрмени
эрменсем
эрмитаж
эрмитажа
эрне
эрнере
эрнест
эрнст
эрч
эс
эсбе
эсер
эсир
эскадрильин
эскадрилья
эскадрон
эсперанто
эссе
эст
эстетика
эстон
эстони
эстонире
эстрада
эсхель
эта
этап
этапы
этем
этеме
этемл
этеп
этепл
эти
этика
этим
этимологи
этимологии
этимологическии
этимология
этих
эткер
этмен
этническая
этническои
этно
этногенез
этнограф
этнографи
этнографии
этнографические
этнографическии
этнографическое
этнография
этнолингвистическии
этноним
этнос
этноса
этнотерриториальных
это
этого
этои
этом
этот
эту
этюды
эфиопи
эфир
эфирл
эффективл
эффекч
эх
эхер
эхо
ю
юань
юбилеи
юбка
ювелир
юг
юга
юган
юго
югослави
югра
юдин
юдифь
южная
южнои
южныи
юи
юл
юла
юланут
юлать
юлашки
юлашкинчен
юлашкисем
юлиан
юлии
юлия
юлл
юлма
юлман
юлн
юлна
юлса
юлташ
юлташл
юлч
юм
юман
юманади
юманл
юмарт
юмах
юмахсем
юн
юна
юнашар
юнашарах
юнашарти
юнг
юнеско
юнии
юнко
юнл
юность
юнтапа
юп
юпа
юпан
юпи
юпитер
юппи
юппии
юппин
юппинчен
юпписем
юпписен
юптару
юр
юра
юраман
юрамасть
юрат
юрата
юратакан
юратать
юратн
юратса
юрату
юратупа
юрать
юри
юрибеи
юридици
юридицилле
юридическая
юридическии
юрии
юрилле
юрист
юристъ
юрисч
юрия
юрк
юркин
юркки
юрл
юрла
юрлакан
юрлама
юрлан
юрласа
юрлать
юрр
юрра
юрри
юррине
юррисем
юррисен
юррисене
юрьев
юрьевич
юрьевна
юс
юсав
юсан
юсаса
юстиниан
юстици
юстиции
ют
юх
юха
юхакан
юхан
юханшыв
юханшыва
юханшыван
юханшыве
юханшывес
юханшывне
юханшывран
юханшывс
юханшывсем
юханшывсемс
юханшывсен
юхать
юхма
юхн
юхса
юхтарса
юшк
юшкевича
я
яблоко
яв
ява
явап
явапл
явапла
явление
явления
является
являются
яворскии
яга
ягафова
ягун
ядерл
ядерла
ядерная
ядерного
ядро
яз
язык
языка
языкам
языках
языке
языки
языков
языковои
языкознание
языкознания
языком
языку
языческие
яи
як
яка
якаел
якку
якоб
яков
яковлев
яковлева
яковлевич
яковлевна
якуркел
якут
якути
якутск
якушкино
ял
яла
ялав
ялава
ялавлани
ялавне
ялан
яланах
яланл
яланхи
яланхилле
ялгир
яле
ялк
ялкир
ялне
ялпа
ялсем
ялсен
ялсене
ялсенче
ялсенчи
ялт
ялта
ялтан
ялти
ялху
ям
яма
ямаи
ямал
ямалла
яман
ямаш
ямпах
ямщиков
ян
яна
янаул
янах
янв
январ
январь
января
яндекс
яни
янис
янк
янка
янкас
янковскии
янрав
янт
янташ
яп
япа
япала
япалал
япалан
япалана
япаласем
япаласемпе
япаласен
япаласене
япали
япалисем
япалисене
япон
япони
японии
японин
японире
япония
яппун
япун
яр
яра
яракан
ярань
ярать
яреи
ярм
ярослав
ярославль
ярса
ярсан
яру
ясак
ясная
ят
ята
ятарл
ятарла
ятарласа
ятл
ятла
ятне
ятпа
ятран
ятс
ятсем
ятсемпе
ятсене
яуза
яун
ях
яха
яхт
яч
яче
яш
яшка
яшки
яшл
ящук
ђ
є
і
іван
іванович
ім
ін
љ
њ
ґ
ғ
қ
ң
ҫ
ҫа
ҫав
ҫава
ҫавна
ҫавнашкал
ҫавра
ҫак
ҫака
ҫакна
ҫамра
ҫапа
ҫапла
ҫар
ҫаре
ҫе
ҫен
ҫех
ҫеҫ
ҫи
ҫиелтен
ҫии
ҫиме
ҫине
ҫинче
ҫинчен
ҫинчи
ҫире
ҫите
ҫити
ҫитне
ҫла
ҫлана
ҫле
ҫлекен
ҫлеме
ҫлене
ҫлет
ҫне
ҫнелле
ҫпа
ҫран
ҫре
ҫри
ҫсе
ҫсем
ҫу
ҫук
ҫул
ҫула
ҫуле
ҫулла
ҫулсем
ҫулсен
ҫулсенче
ҫулсенчи
ҫулта
ҫултала
ҫултан
ҫултанпа
ҫулхи
ҫулччен
ҫулҫу
ҫума
ҫуме
ҫумне
ҫура
ҫурална
ҫурла
ҫурт
ҫурче
ҫурҫе
ҫута
ҫутҫантала
ҫухра
ҫчене
ҫыва
ҫын
ҫына
ҫынна
ҫынни
ҫыннисем
ҫынсем
ҫынсен
ҫынсене
ҫыравҫа
ҫыравҫи
ҫыран
ҫыране
ҫырна
ҫырса
ҫыха
ҫҫ
ү
һ
ӈ
ә
ө
ְ
ִ
ֵ
ֶ
ַ
ָ
ֹ
ּ
ׁ
א
ב
ד
ה
ו
ח
י
ל
ם
ן
נ
ע
ר
ש
ת
ا
ر
م
ي
َ
ُ
ِ
ّ
ْ
ٔ
ٕ
ܵ
ܼ
ं
क
ग
त
द
ध
न
म
य
र
ल
श
स
़
ा
ि
ी
ु
्
া
ি
ா
ி
்
ം
ക
യ
ല
ള
വ
ാ
ി
േ
്
་
ོ
‌
‎
‏
‐
‑
‒
–
—
―
‖
‘
’
‚
“
”
„
†
•
…
‰
′
″
‹
›
⁡
€
ℏ
№
←
↑
→
↔
↷
⇒
∀
∂
∅
∇
∈
∏
∑
−
∓
∗
∘
∞
∣
∫
∬
∼
≈
≡
≤
≥
⊗
⋅
⋮
⋯
⋱
③
④
⑦
─
│
┌
└
├
△
►
◊
⟨
⟩
⟶
⩽
⩾
⺀
⺄
⺆
⺈
⺊
⺌
⺕
⺝
⺸
⺼
⿰
⿱
⿲
⿳
⿴
⿵
⿶
⿷
⿸
⿹
⿺
⿻
、
『
』
〢
い
き
く
し
と
な
の
る
ん
゙
コ
シ
ス
ト
ユ
ル
ン
・
ー
㇁
㇂
㇄
㇇
㇈
㇉
㇓
㐁
㐄
㐅
㐌
㐫
㐬
㐭
㐮
㐱
㑒
㒵
㒸
㒼
㓁
㓞
㔾
㕛
㕣
㖾
㘝
㚅
㚇
㚔
㚘
㝉
㝡
㝴
㝵
㞋
㞢
㞷
㠩
㠭
㠯
㡀
㡭
㡿
㢲
㢴
㣇
㣺
㥯
㪅
㫄
㫐
㫒
㫺
㬅
㬎
㬥
㬰
㲋
㳄
㷠
㸒
㸚
㸦
㼌
㼲
㽞
㿟
䀠
䂞
䍃
䏍
䒑
䖍
䖒
䖝
䖵
䙴
䚻
䜌
䝿
䡛
䧹
䪞
一
丁
丂
七
丄
丅
丆
万
丈
三
上
下
丌
不
与
丏
丐
丑
专
且
丕
世
丘
丙
业
东
丞
丢
丣
两
严
並
丨
丩
个
丫
丬
中
丮
丰
丱
串
丵
丶
丷
丸
丹
为
主
丽
丿
乀
乂
乃
久
乆
乇
么
义
之
乌
乍
乎
乏
乐
乑
乔
乖
乗
乘
乙
乚
乛
乜
九
乞
也
习
乡
乳
乾
亀
亅
了
亇
予
争
事
二
亍
于
亏
亐
云
互
亓
五
井
亘
亚
亜
亞
亟
亠
亡
亢
交
亥
亦
产
亨
亩
享
京
亭
亮
亯
亰
亲
亳
亶
亷
人
亻
亼
亾
仁
今
介
仌
从
仐
仑
仒
仓
仕
他
付
仝
代
令
以
任
企
伊
伏
伐
休
会
伯
但
位
何
佘
余
作
佥
使
來
侈
侌
侖
侯
侵
便
保
俞
信
修
倉
倍
候
倠
備
傳
僉
僕
儿
兀
允
兂
元
兄
充
兆
兇
先
光
兊
克
兌
免
兑
兒
兓
兔
党
兜
兟
入
全
兩
兪
八
公
六
兮
兰
共
关
兵
其
具
典
兹
兼
冀
冂
冃
冄
内
冈
冉
冊
冋
册
再
冎
冏
冐
冒
冓
冖
冗
冘
军
农
冝
冡
冥
冫
冬
冷
几
凡
凢
凵
凶
凷
凸
凹
出
函
凾
刀
刁
刂
刃
刄
刅
分
切
刍
刑
刕
刖
列
刘
则
初
別
利
别
到
制
刺
則
削
剌
前
剡
剽
劉
力
功
加
劦
助
劫
劳
劵
勃
勇
勉
勒
動
務
勞
勤
勹
勺
勻
勾
勿
匀
匂
包
匆
匈
匊
匋
匍
匕
化
北
匚
匝
匡
匪
匱
匸
匹
区
医
匽
匿
區
十
卂
千
卄
卅
卆
升
午
卉
半
卌
华
卑
卒
卓
单
卖
南
卜
卝
卞
占
卡
卢
卣
卤
卦
卩
卪
卬
卯
印
危
即
却
卵
卷
卸
卻
厂
厃
厄
历
厈
厉
厌
厓
厘
厚
原
厤
厥
厨
厭
厲
厶
厷
厸
去
厼
厽
叀
参
參
叅
又
叉
及
友
双
反
叐
发
叒
叔
叕
取
受
叚
叜
叟
口
古
句
另
叩
只
召
可
台
叱
史
右
叵
号
司
叹
吂
各
吅
合
吉
吊
吋
同
名
后
吏
向
吕
君
吝
吞
否
含
启
吳
吴
吹
吾
呂
呆
呈
告
员
呙
周
命
咅
和
咎
咠
咢
咨
咸
咼
哀
品
哉
員
哥
哲
唐
商
啇
問
啚
啬
啻
善
喜
喬
單
喿
嗇
噩
嚴
囊
囗
囘
囙
囚
四
回
囟
因
囧
囬
困
囱
囷
固
国
圂
圅
國
圍
圓
土
圡
圣
圥
在
圭
地
圶
圼
坐
坒
坚
坴
垂
垔
垚
埀
埋
城
埶
執
基
堂
堅
堆
堇
堯
塞
墨
壘
士
壬
壯
声
壳
壴
壹
壺
壽
夂
处
夅
夆
备
夊
夋
夌
复
夏
夒
夕
外
夗
夘
多
夜
夢
大
夨
天
太
夫
夬
夭
央
失
夲
头
夷
夸
夹
夻
夾
奂
奄
奇
奈
奉
奎
奏
奐
契
奓
奔
奚
奞
奠
奢
奥
奭
女
奴
奻
好
如
妄
妙
妟
妥
妻
妾
姑
委
姜
威
娄
婁
婴
嬰
嬴
子
孑
孔
孕
孖
字
存
孚
孛
孝
孟
季
孤
学
孫
孱
學
宀
宁
宂
它
宅
宇
守
安
宋
完
宏
宓
宗
官
定
宛
宜
宝
客
宣
室
宮
宰
害
家
容
宾
宿
寄
寅
密
富
寒
察
寧
審
寫
寬
寮
寸
对
寺
寻
寽
対
寿
封
尃
射
将
將
專
尉
尊
尋
尌
對
小
少
尒
尓
尔
尖
尗
尚
尞
尢
尣
尤
尧
尨
尭
就
尸
尹
尺
尻
尼
尽
尾
尿
局
居
屈
屋
屎
屏
屑
展
屖
屚
属
屠
屡
屬
屮
屯
屰
山
屵
屾
岁
岂
岑
岡
岩
岳
岸
峯
島
崇
崑
崔
崖
崙
崩
嵬
嶲
巂
巛
川
州
巟
巠
巢
巤
工
左
巧
巨
巩
巫
差
己
已
巳
巴
巷
巸
巻
巽
巾
巿
帀
市
布
希
帚
帛
帝
带
師
席
帶
常
干
平
年
幵
并
幷
幸
幺
幻
幼
幽
幾
广
広
庄
床
底
店
庚
府
度
庫
庭
庶
康
庸
廉
廌
廛
廣
廩
廴
延
廷
建
廾
廿
开
弁
弃
弄
弇
弋
式
弓
弔
引
弗
弘
弜
弟
弥
弦
弱
張
強
强
彊
彌
彎
彐
彑
当
彔
录
彖
彗
彡
形
彥
彦
彧
彭
彳
役
彼
往
待
律
徒
得
徙
從
復
微
徵
心
忄
必
忌
忍
志
忝
忠
忩
快
念
忽
忿
思
怠
急
怱
恆
恒
恩
恭
息
悉
患
悤
悲
悶
惠
惡
惢
愁
愈
意
愛
感
慈
慧
慮
憂
憲
應
戀
戈
戉
戊
戋
戌
戍
戎
成
我
戒
戔
或
戚
戠
戢
截
戲
戶
户
戹
戼
戾
房
所
扁
扇
手
扌
才
打
托
执
承
折
拉
拜
拿
掌
推
提
摩
支
攴
攵
收
攸
改
放
政
敄
敏
敕
敖
敗
敝
敞
敢
散
敦
敫
敬
数
敷
數
斂
文
斉
斊
斗
斤
斥
斩
斬
斯
新
方
於
施
斿
旁
旋
族
无
旡
既
旣
日
旦
旧
旨
早
旬
旱
旲
时
旾
昆
昇
昌
昍
明
昏
易
昔
昗
昜
星
春
昬
是
昱
昴
昷
時
晃
晋
晏
普
景
晶
智
暑
暴
曇
曩
曰
曲
曳
更
曷
書
曹
曼
曾
替
最
朁
會
月
有
朋
服
朔
朕
朗
望
朝
木
朩
未
末
本
札
朮
术
朱
朵
朶
朿
杀
李
杏
杜
束
条
来
東
杲
杳
松
析
林
枚
果
枝
枲
枼
某
柔
查
柬
柰
柴
栗
桀
桑
桼
梁
條
梟
梨
棘
棠
棥
森
楚
業
楽
榮
樂
樊
欠
次
欣
欮
欲
欶
欽
款
歆
歇
歛
止
正
此
步
武
歨
歪
歮
歯
歰
歲
歴
歷
歸
歹
歺
死
殳
段
殷
殸
殹
殺
殻
殿
毋
毌
母
每
毒
比
毕
毚
毛
毳
氏
氐
民
气
氣
水
氵
氶
氷
永
氺
氾
求
汉
汝
汞
江
沃
沓
沙
沝
沢
河
泉
法
波
泣
泥
泰
洛
洪
活
派
流
浦
浪
浮
海
淡
淮
清
渚
渠
湯
滿
漢
漸
火
灬
灭
灰
灵
灷
炅
炎
炏
炗
炙
炭
為
烈
烏
烝
焉
無
焦
焱
然
煞
熊
熏
燕
營
燮
爪
爫
爭
爯
爰
爱
爲
爵
父
爻
爽
爾
爿
片
版
牙
牚
牛
牜
牟
牢
牧
物
牪
牽
犀
犬
犭
犮
狂
狄
狊
独
狺
猋
猒
猪
献
獻
玄
率
玉
王
玟
玨
珎
班
琴
瑟
瑩
瓜
瓦
甘
甚
生
産
用
甫
甬
田
由
甲
申
电
甶
男
甸
甹
画
甾
畀
界
畏
畐
留
畜
畟
畢
畧
畨
番
畫
異
畱
當
畺
畾
疊
疋
疌
疑
疒
疾
癶
癸
癹
登
發
白
百
皀
皃
的
皆
皇
皋
皐
皕
皮
皷
皿
盃
盆
盇
盈
益
盍
盎
监
盒
盖
盛
盡
監
盤
盧
目
直
相
盾
省
眇
眉
看
眔
眞
真
眷
眼
眾
着
睘
睪
睿
瞏
瞢
瞿
矍
矛
矞
矢
矣
知
矦
短
石
破
碎
磊
磨
示
礻
礼
社
祟
票
祭
禀
禁
禸
禹
禺
离
禽
禾
禿
秀
秃
秉
秋
科
秝
秦
移
稟
穀
穌
穴
究
穹
空
穿
突
窄
窒
立
竒
竜
竝
竟
章
童
竹
笑
笠
第
筆
等
答
箕
算
箴
節
篤
篭
米
粉
粛
粟
粤
粦
粲
糞
糸
糹
系
約
納
素
索
紫
累
細
絜
絫
絲
維
綿
縣
繇
纍
纟
缶
网
罒
罔
罕
罗
罙
罡
罢
罪
署
罷
羅
羊
羌
羍
美
羔
羕
羗
羞
羡
羣
群
義
羲
羸
羽
翁
翏
習
翕
翟
翠
翼
老
耂
考
者
耆
而
耎
耑
耒
耳
耴
耶
耷
聂
聊
聖
聚
聶
聿
肀
肃
肅
肉
肖
肙
肥
肩
肯
育
肴
胃
背
胡
胥
能
脊
脩
膚
臣
臤
臧
自
臬
臭
臯
臱
至
致
臺
臼
臽
臾
臿
舀
舂
舄
與
興
舉
舌
舍
舛
舜
舞
舟
般
艮
良
色
艸
艹
艾
芒
芔
芬
芮
花
芳
芺
芻
苔
苗
苟
若
苦
英
茶
茸
荅
草
荒
荣
荼
莆
莧
莫
莽
菆
菊
菐
華
萬
落
葉
著
葛
董
葵
蒙
蒦
蒼
蓋
蓬
蓺
蔑
蔡
蕉
蕭
薄
薛
薦
薰
藍
藏
藥
蘭
虍
虎
虐
虒
虔
處
虖
虗
虘
虚
虛
虜
虞
虫
虽
蚤
蚩
蜀
蜜
蟲
蠡
血
行
衍
衛
衣
衤
表
衮
衰
袁
袞
褭
褱
襄
襾
西
覀
要
覃
見
規
覓
覧
親
覽
见
角
解
言
訁
訇
計
詹
語
誩
諸
讠
语
谷
豆
豈
豊
豐
豕
豖
豙
象
豦
豩
豪
豸
貇
貝
貞
貟
負
貢
貧
貪
貫
責
貳
貴
買
費
賁
資
賈
賏
賓
賔
賛
賞
賢
賣
質
賴
贊
贝
贡
责
贯
贲
贵
赖
赞
赤
赦
走
越
足
路
蹇
身
躬
車
軍
軎
軟
輦
车
辛
辜
辞
辟
辥
辰
辱
農
辵
辶
边
达
过
近
连
迷
追
退
送
逆
逐
通
速
造
逢
連
逮
進
遀
遂
過
道
達
遣
適
遷
遺
邊
邑
邕
那
邦
邪
郎
部
郭
都
鄉
酉
酋
配
酓
釆
采
里
重
野
量
金
釒
錢
钅
長
镸
长
門
閃
閉
開
閏
閑
閒
間
閔
閵
閻
闌
门
间
闷
阑
阜
阝
阿
降
陳
隆
隊
隋
隡
隨
隱
隶
隹
隺
隻
隼
隽
难
雀
雁
集
雈
雋
雍
雐
雔
雙
雚
雜
雝
離
難
雨
雩
雪
雲
零
雷
需
霍
霜
霝
霞
霸
靈
靑
青
非
靡
面
靣
革
韋
韦
韭
韯
韱
音
頁
頃
項
須
頗
頡
頻
顛
页
風
风
飛
飞
食
飠
養
饣
首
香
馬
馮
駦
马
骨
高
髟
鬥
鬯
鬲
鬼
魚
魯
鮮
鱼
鲁
鳥
鳳
鸟
鹵
鹿
麃
麗
麥
麦
麻
黃
黄
黍
黎
黑
黒
黨
黹
黽
黾
鼎
鼓
鼠
鼻
齊
齋
齐
齒
齿
龍
龙
龜
龟
龠
龰
龱
龴
龵
龶
龷
龸
龹

者
艹
︠
︡
﻿
（
）
？
�
𐎠
𐎹
𐏁
𠀁
𠀃
𠀆
𠀉
𠀎
𠀐
𠁁
𠁣
𠂆
𠂇
𠂈
𠂉
𠂊
𠂋
𠂎
𠂒
𠂔
𠂛
𠂡
𠂢
𠂤
𠂬
𠂭
𠂹
𠃊
𠃋
𠃌
𠃍
𠃎
𠃑
𠃓
𠃔
𠃜
𠄌
𠄎
𠄠
𠄢
𠆢
𠆥
𠇍
𠈌
𠌵
𠓜
𠔉
𠔥
𠔼
𠔽
𠔿
𠕀
𠕁
𠕋
𠘧
𠘨
𠙻
𠙼
𠚏
𠚒
𠚤
𠚪
𠣏
𠤎
𠤕
𠥓
𠦄
𠦑
𠦝
𠧒
𠧗
𠧪
𠩺
𠪚
𠫓
𠫔
𠫤
𠬛
𠬝
𠬞
𠬢
𠬤
𠬶
𠮛
𠮦
𠮷
𠯑
𠱠
𠳮
𠷎
𡈼
𡉀
𡉵
𡌥
𡍮
𡏳
𡕒
𡕩
𡕰
𡖅
𡗗
𡗜
𡘆
𡘤
𡧱
𡨄
𡩧
𡬠
𡭽
𡰣
𡰥
𡰪
𡰯
𡰱
𡷈
𡸁
𡿨
𡿩
𡿪
𡿺
𢀖
𢀛
𢀩
𢁙
𢆉
𢆰
𢆶
𢇁
𢇇
𢉖
𢌬
𢌿
𢏚
𢑑
𢑚
𢖻
𢙣
𢛳
𢦏
𢦒
𢧵
𢼄
𢾕
𣁋
𣄼
𣅀
𣅽
𣍘
𣎳
𣎵
𣏋
𣏼
𣗥
𣥂
𣥖
𣦵
𣦼
𣧄
𣪊
𣪠
𣬉
𣳾
𣶒
𤇾
𤊽
𤐫
𤓰
𤔔
𤕨
𤣩
𤰇
𤰔
𤰞
𤴓
𤴔
𤽄
𥁑
𥁕
𥃦
𥃩
𥃭
𥇡
𥑟
𥘅
𥘈
𥝢
𥫗
𥱡
𦈢
𦉪
𦉬
𦉼
𦍌
𦍒
𦎧
𦐇
𦓔
𦔮
𦘒
𦙃
𦚏
𦣝
𦣞
𦣻
𦥑
𦥔
𦥯
𦨉
𦭝
𦰩
𧆞
𧈧
𧘇
𧰨
𧴪
𧴮
𧵩
𧾷
𨸏
𨾴
𩙿
𩠐
𩫏
𩵋
𪉷
𪜀
𪟽
𪠲
𪩲
𫇦
𫔭
𫜸
𫝀
𫠣
𫠩
𫢉
𫥞
𫩏
𫩠
𫪡
𫲽
𫶧
𬀷
𬐘
𬗌
𬙙
𬛸
𬜯
𬟩
𬯁
𬴘
𬺻
𬼉
𬼖
𭀰
𭁈
𭁨
𭅰
𭑈
𭕄
𭗼
𭤨
𭥫
𭻾
𮅕
𮊿
𮍌
𮍏
𮓗
𮥼
𮧮
廾
𰀁
𰀄
𰀈
𰀉
𰀕
𰀠
𰀡
𰀢
𰀪
𰁜
𰃮
𰆊
𰆘
𰋙
𰕎
𰢴
𰧭
𰯲
000--
001--
01--
02--
03--
04--
05--
06--
07--
08--
09--
450--
452--
453--
57--
61--
70--
71--
72--
73--
74--
75--
76--
77--
78--
79--
80--
81--
82--
83--
84--
85--
86--
87--
88--
89--
90--
91--
92--
93--
94--
95--
96--
97--
98--
99--
a--
ab--
ac--
ad--
admini--
aff--
ag--
aga--
air--
al--
all--
am--
an--
ang--
anim--
app--
ar--
arc--
archa--
as--
astro--
at--
au--
aus--
ax--
az--
azerbai--
b--
ba--
ban--
bar--
be--
ben--
bi--
bib--
biblio--
bio--
biogra--
bla--
bo--
bom--
bon--
bour--
br--
bra--
bras--
bre--
bri--
bro--
bu--
bulga--
by--
c--
ca--
car--
ce--
ch--
cha--
cham--
char--
chi--
chri--
ci--
cir--
cl--
clas--
cle--
co--
coll--
colo--
com--
communi--
con--
confe--
confu--
const--
contro--
cor--
cosmo--
count--
cr--
cre--
criti--
cu--
cur--
cy--
d--
da--
de--
di--
differ--
disc--
distri--
dive--
do--
docu--
dr--
dre--
du--
dyna--
e--
eag--
ec--
eco--
ed--
ef--
el--
ele--
elect--
em--
emp--
en--
eng--
ent--
environ--
equ--
equa--
er--
es--
et--
etymo--
eu--
evers--
ex--
expl--
f--
fa--
fal--
fan--
far--
fe--
fer--
fi--
fic--
fin--
flo--
flu--
fo--
for--
fos--
fou--
fr--
frei--
fri--
fu--
g--
ga--
gam--
gar--
gaz--
ge--
gene--
geo--
gi--
gil--
gio--
gla--
go--
gr--
gra--
gram--
gre--
grif--
gro--
gu--
h--
ha--
ham--
har--
hau--
haw--
he--
hein--
hel--
hell--
her--
hi--
hil--
hit--
ho--
hol--
hu--
hun--
hy--
i--
id--
il--
illust--
im--
in--
io--
ip--
ira--
ire--
is--
iso--
it--
iu--
iv--
j--
ja--
je--
jen--
jew--
jo--
ju--
k--
ka--
ke--
ki--
kla--
kle--
klu--
ko--
kra--
ku--
l--
la--
lam--
le--
lehr--
leon--
li--
lo--
lu--
ly--
m--
ma--
mac--
mada--
mag--
mal--
man--
mar--
mc--
me--
measure--
mel--
memo--
mer--
mess--
metro--
mi--
micr--
miss--
mo--
mon--
monu--
mor--
mos--
mou--
move--
mu--
my--
mytho--
n--
na--
navi--
nd--
ne--
neu--
news--
ni--
no--
nor--
nu--
nume--
o--
ob--
oh--
on--
op--
open--
or--
ori--
orien--
os--
p--
pa--
pal--
pan--
par--
pat--
pe--
per--
phi--
philo--
pho--
phy--
pi--
pic--
pl--
play--
po--
poli--
pols--
poly--
pr--
pre--
presi--
pro--
pu--
pur--
q--
qua--
r--
ra--
rap--
re--
reg--
rei--
rela--
relation--
ri--
ro--
rou--
ru--
s--
sa--
sal--
sate--
sc--
sch--
se--
selec--
sen--
ser--
sh--
she--
si--
sig--
simu--
sla--
slo--
so--
sol--
sp--
spe--
spea--
spi--
st--
ste--
ster--
stu--
su--
sub--
sum--
sw--
swe--
sy--
syn--
t--
ta--
tax--
te--
tele--
temp--
ter--
text--
th--
ti--
to--
topo--
tri--
tro--
tru--
tt--
tu--
u--
ul--
ult--
um--
un--
up--
ur--
v--
va--
vale--
var--
ve--
ver--
vi--
vic--
vio--
virg--
vla--
vo--
vor--
w--
wa--
wal--
war--
we--
wel--
whe--
whit--
wi--
wiki--
wil--
win--
wo--
wri--
x--
xx--
y--
ya--
yu--
z--
ze--
zeit--
zh--
zoo--
zu--
γ--
δ--
θ--
κ--
λ--
μ--
ν--
ο--
π--
ρ--
σ--
τ--
а--
аб--
аба--
аббревиа--
абду--
абсо--
абу--
ав--
ава--
авер--
авиа--
авл--
авра--
австр--
авто--
аг--
ага--
аги--
аглом--
агр--
агрега--
агу--
ад--
адел--
аз--
аза--
азбу--
ази--
аи--
ак--
ака--
аквар--
акк--
актив--
акту--
акци--
акционе--
ал--
ала--
але--
али--
алт--
аль--
ам--
ама--
амари--
аменхо--
ами--
амо--
амфи--
ан--
ана--
андер--
андр--
анже--
ани--
анк--
ано--
ант--
анти--
антро--
антропо--
ап--
апа--
апат--
апель--
аппа--
апт--
апу--
ар--
ара--
араб--
аргу--
арес--
ари--
арм--
армян--
арт--
ару--
арх--
архитек--
ас--
аса--
асап--
аспир--
ассо--
ассоциа--
аст--
астро--
ат--
ата--
ау--
ауди--
афо--
ах--
ахие--
ахтя--
ач--
аш--
аэр--
аэро--
аяк--
б--
ба--
баб--
баг--
бак--
бал--
балаба--
балы--
баль--
бам--
бан--
банни--
бар--
бары--
бас--
батырев--
бах--
башкирс--
бе--
бег--
бед--
без--
безопас--
безымян--
бек--
бел--
бело--
бель--
бен--
бер--
берд--
бере--
березов--
бесп--
бесс--
беше--
би--
биат--
биби--
био--
биох--
бир--
бл--
бла--
благо--
бли--
ближ--
блок--
бо--
бог--
бого--
богослов--
боже--
бол--
боль--
бон--
бор--
боров--
бос--
бот--
ботаниче--
бояр--
бр--
брат--
бре--
брет--
бри--
брилли--
бров--
брон--
бру--
бры--
бу--
буб--
буд--
будь--
буль--
бумаж--
бур--
бус--
бух--
буш--
бы--
быв--
бь--
бюр--
в--
ва--
важ--
вак--
вал--
ван--
вар--
вара--
вас--
ват--
вах--
вац--
ваш--
вв--
вве--
вви--
вдо--
ве--
ведом--
век--
вел--
велик--
великоб--
вен--
вене--
вер--
верни--
веров--
вертин--
верхо--
вет--
веч--
вз--
взаимо--
взд--
взят--
ви--
вид--
видео--
виз--
вики--
вил--
виль--
вин--
вир--
вирту--
вис--
вит--
вк--
вклю--
вл--
вла--
влади--
влаж--
вне--
вну--
во--
вод--
воен--
вож--
воз--
воинс--
вол--
волж--
воло--
володи--
волч--
волшеб--
волы--
воль--
вор--
вос--
воск--
восп--
восс--
восстанов--
восточ--
вось--
вот--
впа--
вр--
врон--
вс--
все--
вспо--
встре--
вся--
вт--
втор--
ву--
вун--
вхо--
вы--
выб--
выби--
выдающ--
вызы--
вып--
выпол--
высо--
выст--
выступ--
выши--
вь--
вьен--
вяз--
вят--
ві--
г--
га--
габ--
газ--
гале--
гали--
галу--
галь--
гам--
ган--
гар--
гарм--
гастр--
гаф--
гвоз--
ге--
геб--
гель--
ген--
гео--
гер--
ги--
гиб--
гибрал--
гидр--
гидро--
гиза--
гиль--
гиля--
гин--
гл--
глад--
глас--
глин--
глоб--
глобаль--
глу--
глубо--
глы--
гне--
гни--
го--
гол--
голов--
голь--
гор--
горо--
горь--
гос--
гр--
гра--
граб--
град--
гре--
греб--
гребен--
грен--
гри--
гро--
гроз--
гру--
гря--
гряз--
гу--
губ--
губерн--
гуд--
гуль--
гун--
гур--
гусь--
гутен--
д--
да--
давл--
дак--
дан--
дани--
дар--
дач--
две--
двига--
движ--
дву--
де--
дев--
девч--
девят--
дед--
дежур--
дек--
декаб--
декоратив--
дел--
демо--
демографиче--
демокра--
демон--
ден--
депар--
дер--
деревян--
держа--
деся--
дет--
деят--
дж--
джан--
джентль--
джи--
джо--
джор--
ди--
диа--
диас--
дивер--
дик--
дими--
диноз--
дирек--
дис--
диско--
дифференци--
длин--
дми--
днев--
до--
доб--
доба--
добры--
дог--
дож--
док--
доказатель--
дом--
дон--
дополни--
дор--
дореволюци--
дорож--
дости--
досто--
достоев--
др--
дра--
драгоцен--
драк--
дре--
древ--
древе--
древне--
древнерус--
дро--
друж--
ду--
дуб--
дуд--
духов--
дэ--
дю--
дяги--
е--
ев--
еванг--
евро--
ед--
еди--
един--
еже--
езд--
ек--
ел--
ели--
ель--
ем--
ен--
ене--
еп--
ер--
ере--
ерк--
ерме--
еры--
ес--
ет--
ех--
еш--
ж--
жа--
жад--
жан--
же--
желез--
железнодорож--
желт--
жен--
жест--
жесто--
жи--
живот--
жига--
жид--
жизне--
жизнен--
жол--
жолу--
жу--
жуж--
жул--
жур--
з--
за--
заболев--
забы--
заве--
заво--
завоева--
задор--
заимствов--
закр--
зал--
зам--
заме--
замес--
замечат--
заним--
зап--
запис--
зарубеж--
захват--
захор--
зац--
защит--
зве--
звон--
зву--
звягин--
зд--
зе--
зеб--
зелин--
земс--
зер--
зи--
зиг--
зло--
зна--
зо--
зол--
золот--
зон--
зот--
зри--
зу--
зуб--
и--
иа--
ив--
иван--
игр--
игу--
ид--
иде--
ие--
иж--
из--
изв--
изг--
изготов--
изд--
изло--
изоб--
изобретат--
изот--
ик--
ил--
иле--
или--
иллюс--
илт--
иль--
им--
име--
иммуни--
имп--
импер--
имуще--
ин--
инв--
индук--
ине--
ино--
интелли--
интен--
интер--
инфра--
инци--
ио--
ип--
ир--
ире--
ирт--
ис--
иск--
искан--
исклю--
исп--
испол--
исполни--
исполь--
испыт--
испыта--
ист--
исход--
исче--
исчез--
исчезнув--
ит--
ите--
иу--
их--
ич--
иш--
к--
ка--
кабар--
кад--
каж--
каз--
как--
кал--
калуж--
каль--
кам--
камен--
кан--
кап--
капит--
кар--
кара--
карто--
кас--
касат--
кат--
кач--
каш--
каҫ--
кв--
кварк--
ке--
кель--
кен--
кер--
ки--
киев--
кил--
кили--
кило--
ким--
кин--
кино--
кир--
кис--
кит--
киш--
кки--
кл--
кла--
клавиа--
клан--
кле--
клю--
км--
кн--
книж--
кня--
княже--
ко--
коб--
ков--
кож--
коже--
коз--
кози--
козь--
кокш--
кол--
колеба--
количес--
колок--
коломен--
колы--
коль--
ком--
комби--
коммерче--
кон--
конден--
консер--
консерватор--
контр--
конц--
коп--
кор--
корен--
коро--
корот--
коршу--
кос--
кот--
котля--
коч--
кочет--
коэф--
коэффициент--
кр--
кра--
крав--
краеведче--
красно--
кре--
креще--
кри--
кро--
кров--
круп--
кры--
крым--
кс--
ку--
куб--
кув--
кудр--
куз--
кузне--
кузь--
кук--
кул--
кулин--
кум--
кун--
куп--
кур--
кут--
куш--
куҫ--
кх--
кш--
кы--
кып--
кыргыз--
кь--
кэр--
л--
ла--
лав--
лак--
лам--
лан--
лани--
лап--
лас--
лат--
лау--
лах--
лаш--
ле--
лебе--
лев--
лег--
лез--
лезгин--
лек--
лекар--
лекци--
лен--
лени--
лео--
лес--
лет--
ли--
либ--
либе--
ливер--
лик--
лим--
лин--
лис--
лит--
лито--
литов--
лич--
лк--
лла--
ллев--
лли--
лмач--
ло--
лоба--
лобачевс--
лов--
логиче--
лод--
лож--
лок--
лос--
лох--
лп--
лпа--
лт--
лта--
лу--
луго--
луж--
лун--
луч--
лха--
лы--
лым--
ль--
лю--
люб--
люд--
ля--
лягу--
м--
ма--
маг--
маго--
мад--
маз--
мак--
мал--
малень--
малы--
маль--
мам--
мамон--
ман--
мани--
мануфак--
маньчж--
мар--
мари--
марц--
мас--
мат--
мая--
мг--
ме--
мег--
мед--
медлит--
меж--
мез--
мел--
мелод--
мель--
мем--
мен--
мер--
мероприят--
мес--
месопот--
место--
мет--
мета--
механичес--
меш--
ми--
миг--
микр--
микро--
микроб--
мил--
мин--
минув--
мир--
митр--
мих--
мк--
мла--
млад--
мле--
мми--
мн--
мне--
много--
мо--
моби--
моз--
мол--
молда--
молиб--
молоч--
мон--
монре--
мор--
морд--
мордовс--
моро--
москов--
мощ--
мпа--
мс--
му--
муж--
мул--
муль--
мун--
муниципал--
муниципаль--
мур--
мус--
муссо--
мух--
мы--
мэ--
мю--
мяг--
н--
на--
наблю--
нав--
нага--
нагор--
над--
надеж--
наз--
назы--
наи--
накат--
нали--
нам--
нан--
напи--
напол--
нар--
нас--
наслаж--
насле--
наслед--
наступ--
нат--
нау--
наход--
национа--
начар--
наше--
нг--
нд--
не--
неандер--
неб--
невероят--
невин--
невс--
нега--
недо--
неж--
нез--
неза--
неи--
нем--
немиров--
нен--
нео--
необ--
непо--
непосред--
нер--
нерав--
неров--
нес--
нет--
неу--
неул--
неф--
нефтя--
ни--
нигс--
ниж--
ниже--
низ--
ник--
ника--
николь--
нищ--
нк--
нка--
нлан--
нле--
нн--
но--
нов--
ново--
нож--
номин--
нор--
нос--
ноч--
нс--
нсь--
нт--
ну--
нуж--
нук--
нумиз--
нур--
ны--
нь--
ню--
нюр--
ня--
о--
об--
обеспе--
обнов--
обозна--
обор--
оборудо--
обслуж--
обстоятель--
обушков--
общ--
обще--
объ--
объе--
объя--
обыкновен--
обыч--
обязанно--
ов--
ога--
огне--
огр--
огур--
од--
одеж--
одно--
ожи--
оз--
озе--
озна--
ок--
ока--
окон--
окончат--
окрестно--
окси--
ол--
оле--
оли--
оль--
ом--
он--
оно--
онто--
оп--
опас--
опис--
опол--
оппо--
опред--
ор--
орни--
ору--
осен--
осл--
осн--
основ--
осо--
оста--
остав--
остго--
осуще--
от--
отд--
отече--
отказ--
откр--
отли--
относ--
отоб--
отобра--
отс--
отсут--
оф--
официа--
оформ--
ох--
охлобы--
оцен--
ош--
ошиб--
п--
па--
пав--
пак--
пал--
пала--
палео--
палла--
паль--
памят--
пан--
пар--
пара--
парик--
пас--
пат--
пау--
пах--
пахму--
пач--
пе--
пев--
пед--
пек--
пен--
пенси--
пер--
первон--
пере--
переи--
пет--
печ--
печат--
пи--
пик--
пил--
пин--
пир--
писа--
письмен--
пит--
пих--
пиц--
пище--
пка--
пл--
пла--
план--
плат--
плац--
пле--
пло--
плот--
площ--
плут--
пля--
пнев--
по--
побе--
пове--
погиб--
под--
подоб--
подразд--
пое--
пожа--
поз--
позд--
пози--
показы--
покл--
покр--
покров--
пол--
полик--
поло--
полу--
получ--
поль--
поми--
поне--
поним--
поп--
популяр--
пор--
пора--
пород--
порт--
пос--
посмо--
пост--
потреб--
похище--
похор--
поч--
появ--
пр--
пра--
празд--
пре--
превращ--
пред--
предна--
предста--
преж--
презе--
преимуще--
преобра--
преод--
препод--
преступ--
прже--
при--
приве--
привлекат--
приго--
приготов--
приоб--
прист--
прият--
про--
прогу--
прожи--
произ--
произве--
производ--
прокура--
пропа--
просвет--
протек--
проф--
проц--
проч--
прошед--
прощ--
пс--
псих--
психиа--
психо--
психот--
пт--
пу--
пул--
пур--
пус--
пут--
путешествен--
пуш--
пуян--
пуҫ--
пш--
пы--
пыта--
пыш--
пь--
пьян--
пя--
пят--
р--
ра--
раб--
рабо--
рав--
рад--
радио--
раз--
рак--
рам--
ран--
ранев--
рас--
распи--
располо--
распред--
рассмот--
рат--
рах--
рациона--
рв--
ре--
реаби--
реаль--
рев--
ревиз--
рег--
регуляр--
ред--
режис--
рез--
рези--
резуль--
резь--
рек--
рекон--
религиоз--
рем--
реме--
рен--
рес--
рет--
рец--
реч--
реш--
ри--
рим--
римля--
рис--
рк--
рка--
рке--
рки--
рла--
рлат--
рма--
рме--
рми--
рн--
рна--
рне--
рни--
ро--
роб--
род--
рож--
рожде--
роз--
розе--
рос--
рот--
рс--
рт--
рту--
ру--
руб--
руба--
руковод--
рум--
рус--
руч--
рф--
рх--
рхат--
рч--
ры--
рыб--
рыбо--
рыж--
рь--
рюм--
ря--
ряби--
рязанс--
с--
са--
саб--
сав--
сад--
садов--
сак--
сам--
само--
сан--
санди--
санит--
сап--
сапа--
сапож--
сар--
сас--
сах--
сб--
сбер--
св--
свадеб--
све--
свер--
сверк--
свет--
свид--
свидетель--
свир--
свияж--
своб--
свобод--
связ--
свят--
свяще--
сві--
се--
седь--
сек--
сел--
сель--
сем--
семи--
сен--
сент--
сер--
сереб--
серебр--
сет--
сех--
си--
сиби--
сибирс--
сив--
сик--
сил--
силь--
сим--
син--
синемато--
сис--
ск--
ска--
скан--
ске--
ски--
скиф--
склад--
ско--
скольз--
скри--
скры--
сл--
сла--
слав--
слад--
сле--
след--
слиз--
сло--
слож--
слу--
служ--
см--
сме--
сми--
смоль--
смор--
сн--
сна--
снеж--
сни--
со--
соб--
сов--
согл--
соглас--
содер--
сое--
созд--
сок--
сол--
солнеч--
соля--
сом--
сон--
сорев--
софр--
сп--
спа--
спе--
сперан--
спло--
сра--
сравни--
средне--
сс--
ст--
ста--
стаби--
станов--
стар--
старо--
стаци--
ств--
стве--
сте--
стеклян--
сти--
сто--
стр--
страш--
стрел--
стри--
стуч--
су--
суб--
сугму--
судеб--
сул--
сум--
суп--
супер--
сур--
суф--
сухо--
суще--
существ--
сфер--
схе--
схо--
сход--
сц--
сы--
сыв--
сыр--
сыт--
сых--
сь--
сью--
сэ--
сюр--
ся--
сям--
т--
та--
табас--
тав--
таинс--
так--
тал--
таль--
там--
тан--
тап--
тар--
тарков--
тат--
тау--
таш--
тв--
тверс--
творче--
те--
тек--
теле--
телерадио--
тем--
тен--
теоретиче--
теп--
тер--
термо--
тес--
тет--
техниче--
теш--
ти--
тив--
тил--
тим--
тин--
тип--
типо--
тир--
тиф--
тк--
тка--
тл--
тма--
тме--
то--
ток--
толков--
толс--
том--
тон--
топ--
топо--
тор--
торго--
торже--
тот--
точ--
тощ--
тр--
тра--
трав--
традици--
траек--
транс--
тре--
требо--
трен--
три--
триго--
тро--
трон--
тру--
труб--
трубе--
труп--
тря--
ту--
тук--
тум--
тун--
туп--
тур--
турист--
туристиче--
турт--
тус--
тух--
туя--
ты--
тыр--
ть--
тю--
тюл--
тюль--
тюм--
тюмен--
тюрк--
тюрь--
тют--
тя--
тяже--
у--
убе--
уби--
уга--
угл--
угор--
угр--
уда--
уди--
удоб--
удовлет--
удоволь--
уж--
уз--
уи--
ук--
укр--
ул--
улуч--
уль--
ум--
ума--
ун--
уна--
унив--
универса--
уникаль--
уол--
уор--
уп--
упа--
уплю--
употреб--
ур--
ура--
ураль--
ури--
уро--
урт--
ус--
услов--
успен--
уст--
установ--
устраи--
ут--
ута--
утверж--
утеш--
ути--
утрав--
утта--
уфимс--
ух--
уч--
участ--
участво--
учред--
учреж--
уяв--
уҫ--
ф--
фа--
фад--
фаз--
фаль--
фальси--
фан--
фанта--
фарма--
фашист--
фе--
федер--
федо--
федосе--
феокт--
фер--
фи--
физ--
физичес--
фил--
филад--
филат--
филь--
фильм--
фин--
фо--
фото--
фр--
фра--
френ--
фри--
фу--
фуку--
фундамен--
фізи--
х--
ха--
хав--
хавхала--
хавшак--
хал--
хам--
хан--
ханжон--
хар--
хат--
хв--
хво--
хе--
хен--
хетт--
хи--
хим--
химиче--
хин--
хир--
хит--
хищ--
хл--
хла--
хле--
хо--
ход--
холод--
хор--
хорео--
хр--
хре--
хри--
хромо--
хроно--
хс--
ху--
хул--
хум--
хун--
хуп--
хур--
хуска--
хут--
хуш--
хы--
хэ--
ц--
ца--
цар--
цв--
це--
цел--
цен--
ценз--
цер--
церем--
цз--
ци--
цивиль--
цильнин--
цин--
цита--
цы--
ч--
ча--
чака--
чар--
чара--
час--
че--
чек--
чел--
человече--
чен--
черв--
чере--
черн--
чесн--
чеч--
чж--
чи--
чир--
чирл--
числ--
чист--
чиче--
чл--
чу--
чуж--
чул--
чуман--
чун--
чуп--
чура--
чух--
ш--
ша--
шак--
шал--
шам--
шан--
шапо--
шар--
шат--
шах--
шв--
швед--
ше--
шев--
шел--
шем--
шер--
ши--
ших--
шк--
шка--
шл--
шле--
шли--
шм--
шма--
шман--
шн--
шо--
шор--
шп--
шпа--
шриф--
шт--
штат--
шти--
шу--
шуль--
шум--
шур--
шыв--
шыва--
шыр--
щ--
ще--
щелк--
ъ--
ы--
ыв--
ывхар--
ыл--
ылмаш--
ын--
ыр--
ыра--
ыру--
ыт--
ыта--
ых--
ыш--
ь--
э--
эвер--
эвр--
эд--
эди--
эк--
экз--
эко--
экс--
эксплу--
экспо--
эл--
эле--
электриче--
электро--
эль--
эм--
эмб--
эмиг--
эмо--
эн--
энерге--
энерго--
эп--
эр--
эри--
эс--
эст--
эти--
этниче--
этно--
этр--
эф--
эффек--
эх--
ю--
юби--
юж--
юл--
юла--
юлн--
юм--
юн--
юно--
юп--
юпа--
юпи--
юр--
юридиче--
юс--
ют--
юх--
я--
яб--
яв--
яг--
ядер--
ядрин--
яз--
языч--
языче--
як--
яка--
яку--
ял--
ялт--
ям--
ян--
янк--
янт--
яп--
япон--
яр--
яра--
ярм--
яру--
ясач--
ят--
ях--
яш--
і--
ҫ--
ҫа--
ҫар--
ҫе--
ҫи--
ҫла--
ҫу--
ҫуру--
ө--
--0
--00
--1
--2
--22
--3
--39
--4
--5
--50
--6
--61
--67
--7
--72
--8
--9
--99
--a
--ace
--aceae
--ae
--age
--ai
--ail
--ak
--al
--ale
--am
--an
--anic
--ano
--ans
--ant
--ap
--ar
--ard
--ary
--as
--ase
--at
--ata
--ate
--ation
--ations
--au
--ay
--b
--ble
--box
--bs
--burg
--c
--ca
--cal
--car
--ce
--ceae
--ced
--ces
--ch
--ck
--co
--con
--cs
--ct
--cted
--ction
--ctor
--cts
--cy
--d
--da
--dae
--de
--do
--dra
--ds
--dt
--duction
--dy
--e
--ea
--ean
--eau
--eb
--ec
--ect
--ed
--ei
--ek
--el
--ell
--em
--ems
--en
--ent
--eo
--ep
--er
--era
--ere
--ers
--ert
--erte
--ery
--es
--ess
--et
--eur
--eus
--ev
--ever
--ex
--ey
--ez
--f
--fe
--ff
--ft
--g
--ga
--ge
--gen
--ger
--gh
--ght
--gia
--gle
--go
--gram
--graph
--graphy
--ground
--gs
--h
--ha
--ham
--he
--hen
--hi
--hing
--hr
--hs
--ht
--i
--ia
--ial
--ic
--ica
--ical
--ich
--ics
--icus
--id
--idae
--ie
--ied
--iel
--ier
--ies
--ight
--ii
--il
--in
--ina
--ine
--ing
--ings
--ins
--io
--ion
--ions
--ir
--is
--ise
--ish
--ision
--ism
--ist
--ists
--it
--ite
--ity
--ium
--ius
--ive
--ix
--j
--k
--ka
--ke
--ki
--ko
--ky
--l
--la
--land
--lar
--ld
--le
--ler
--ley
--lf
--li
--lia
--lie
--lin
--lis
--lk
--ll
--lla
--lle
--lly
--lm
--lo
--ls
--lt
--lude
--lus
--ly
--m
--ma
--man
--mas
--me
--mes
--mic
--mo
--mond
--ms
--my
--n
--na
--nbul
--nce
--nces
--nd
--ne
--ner
--nes
--ng
--ni
--nia
--nic
--ning
--nio
--nis
--nk
--nn
--nna
--nne
--no
--ns
--nse
--nt
--nts
--nus
--ny
--nz
--o
--ock
--od
--ogy
--ok
--ol
--ola
--om
--omie
--on
--onal
--ons
--or
--ora
--ore
--orie
--orm
--os
--ot
--out
--ov
--ova
--ow
--ows
--p
--pa
--pe
--port
--ps
--q
--r
--ra
--raphy
--rc
--rd
--re
--ret
--rg
--ri
--ris
--rm
--rn
--ro
--rry
--rs
--rt
--ry
--s
--sa
--sch
--schen
--se
--sen
--ses
--sh
--si
--sia
--sion
--sions
--sis
--sk
--sm
--so
--son
--sov
--ss
--st
--ster
--stry
--t
--ta
--tal
--tary
--te
--ted
--ter
--tes
--th
--thy
--ti
--tial
--tic
--ting
--tion
--tions
--tive
--tn
--to
--ton
--tor
--tory
--tric
--ts
--tt
--tta
--tte
--tum
--tus
--ty
--tz
--u
--ual
--uck
--ue
--uld
--ult
--um
--ung
--ungen
--ur
--ure
--urg
--urs
--us
--ut
--ution
--v
--va
--ve
--vel
--vo
--w
--x
--y
--ys
--z
--za
--ze
--zz
--α
--η
--ι
--ν
--ο
--ος
--ς
--а
--аб
--ав
--ави
--авление
--авлении
--авления
--ад
--ада
--адзе
--ае
--аев
--ает
--ается
--аж
--аз
--аи
--ак
--акан
--аков
--аково
--ал
--ала
--али
--ализм
--алл
--алов
--алы
--аль
--альная
--альныи
--ам
--ама
--ами
--ан
--ана
--анд
--ание
--ании
--ания
--анка
--ано
--анов
--ант
--аны
--ань
--ао
--апи
--апии
--апия
--ар
--ард
--аре
--арев
--аров
--арь
--ас
--аса
--ась
--ат
--ата
--ати
--ативл
--атн
--атов
--атор
--атыи
--ать
--аться
--ау
--аф
--афи
--ах
--аха
--аци
--ации
--ацилен
--ация
--ач
--аче
--аш
--ашев
--аю
--ают
--аются
--ающии
--ающих
--ая
--аҫҫе
--б
--ба
--баев
--баи
--бан
--бах
--ббс
--бе
--бер
--берт
--бет
--би
--бик
--бин
--бирск
--бка
--бке
--бно
--бо
--бр
--бу
--була
--бут
--в
--ва
--вает
--ваи
--ван
--вание
--вания
--ват
--вать
--вают
--вая
--ве
--вед
--веде
--ведов
--веи
--вер
--вес
--вец
--вець
--ви
--вии
--вик
--вин
--вич
--вка
--вки
--вкин
--вл
--вли
--влять
--вна
--во
--вов
--вого
--вое
--вои
--вок
--вр
--вск
--вская
--вскии
--ву
--вы
--вые
--выи
--вых
--г
--га
--гали
--ган
--гар
--гари
--гат
--гать
--гауз
--гач
--ге
--ген
--гер
--ги
--гиз
--гин
--гина
--гия
--го
--гов
--гон
--гр
--град
--гу
--гус
--гут
--гута
--д
--да
--дам
--двы
--де
--дев
--деец
--дем
--десят
--джа
--джи
--дзе
--дзь
--ди
--див
--дии
--димые
--дин
--дия
--дка
--дки
--дко
--дно
--дныи
--до
--дов
--дорф
--дос
--дот
--др
--дра
--дро
--дс
--дсем
--дт
--ду
--дук
--дукци
--дукции
--дун
--дур
--ды
--дыш
--дь
--дья
--дя
--е
--еб
--ев
--ева
--евич
--евка
--ево
--евои
--евыи
--евых
--ед
--еда
--едение
--ее
--еев
--еева
--еж
--ез
--еи
--ек
--ека
--еки
--ел
--ела
--еле
--ели
--ель
--еля
--ем
--ема
--емпе
--емые
--емыи
--ен
--ена
--ене
--ени
--ение
--ении
--ению
--ения
--енка
--енко
--енн
--енно
--енныи
--ено
--енов
--ент
--енч
--ень
--еньга
--ео
--еорологи
--епи
--ер
--ера
--ерат
--ератор
--ери
--ерии
--ерин
--ерл
--еров
--ерова
--ерс
--ес
--есе
--еская
--еские
--ескии
--есса
--есси
--ест
--ества
--ество
--ести
--естные
--ет
--ета
--ети
--етик
--етика
--етики
--етка
--ето
--етов
--ется
--еты
--еть
--ех
--ец
--еч
--еш
--ея
--ж
--жа
--жать
--жды
--же
--жении
--жи
--жка
--жки
--жн
--жнои
--жу
--жь
--жья
--з
--за
--зан
--зано
--зас
--затор
--зать
--зации
--зация
--зв
--зд
--здат
--зе
--зи
--зии
--зин
--зит
--зка
--зм
--зма
--змы
--зо
--зу
--зы
--зь
--зя
--и
--иа
--иад
--иал
--иалл
--иан
--иана
--иач
--ив
--ивать
--ивл
--ивная
--ивныи
--иво
--ивыи
--ид
--ида
--идзе
--идсен
--иды
--ие
--иев
--ием
--из
--изаци
--изации
--изация
--изм
--изма
--ии
--ик
--ика
--икат
--ике
--ики
--ико
--иков
--икова
--ил
--ила
--илась
--или
--илии
--ились
--илл
--ило
--илов
--илось
--ился
--иль
--им
--има
--имов
--имость
--имые
--имыи
--имых
--ин
--ина
--инг
--ине
--ини
--инии
--инка
--ино
--инов
--инова
--инскии
--ину
--инче
--ины
--иня
--ио
--ион
--ип
--ипа
--ипе
--ипов
--ир
--ира
--ире
--ири
--иров
--ирование
--ирования
--ированные
--ировать
--ировка
--ис
--исем
--исен
--исене
--ист
--истическая
--истических
--истов
--истсем
--исч
--ись
--ит
--ита
--ите
--итет
--итор
--ится
--ить
--иться
--иф
--их
--иха
--ихин
--иц
--ица
--ици
--ицкая
--ицкии
--ицы
--ицын
--ич
--ичев
--иченко
--ическая
--ически
--ические
--ическии
--ических
--ического
--ическое
--ическои
--ична
--ично
--ичныи
--иш
--ишь
--ищев
--ию
--ия
--к
--ка
--каи
--кал
--ками
--кан
--кас
--касси
--ках
--каци
--кации
--кая
--ке
--кевич
--кеи
--кел
--кен
--кенсем
--кер
--кеш
--ки
--кие
--кии
--кин
--кино
--ких
--кк
--кка
--ккасси
--кке
--ккеи
--кл
--клад
--ко
--ков
--кова
--ково
--кого
--кои
--ком
--кс
--кт
--ку
--кур
--кции
--кша
--л
--ла
--лав
--лама
--лан
--лани
--лар
--ласа
--лать
--ле
--леги
--леи
--лен
--ление
--ления
--лет
--ли
--лив
--ливо
--лизм
--лии
--лин
--лине
--лись
--лич
--лка
--лл
--лла
--лле
--лли
--лн
--ло
--лов
--лог
--логи
--логии
--логия
--лось
--лса
--лся
--лу
--лы
--лыи
--лым
--ль
--льд
--льная
--льно
--льного
--льное
--льнои
--льные
--льныи
--льных
--льон
--лю
--ля
--ляет
--ляли
--ляр
--лять
--ляться
--м
--ма
--ман
--мат
--маш
--ме
--меи
--мен
--меннои
--мея
--ми
--мии
--мка
--мо
--мобил
--мов
--му
--мут
--мы
--мыш
--н
--на
--нак
--нах
--ная
--нг
--нга
--нд
--нда
--ндеев
--ндр
--не
--нев
--нее
--неи
--нец
--ни
--ние
--нии
--ник
--ника
--ники
--ников
--нин
--нине
--нипе
--нисем
--них
--ниц
--ница
--ницкии
--ницы
--нию
--ния
--нк
--нка
--нке
--нки
--нко
--нков
--нн
--нна
--нная
--нник
--нно
--нного
--нное
--нном
--нности
--нность
--нные
--нныи
--нным
--нных
--ння
--но
--нов
--нова
--новка
--ного
--ное
--нои
--ном
--ному
--ностеи
--ности
--ность
--нот
--нс
--нса
--нск
--нская
--нски
--нские
--нскии
--нского
--нскои
--нт
--нтеи
--нтии
--нтл
--нто
--ну
--нуть
--ную
--нца
--нцев
--нцы
--нч
--нче
--нчен
--нчи
--нчук
--ны
--ные
--ныи
--ным
--ными
--ных
--нь
--ньга
--ня
--няк
--нял
--няя
--о
--об
--ов
--ова
--ован
--ование
--ованию
--ования
--овать
--овая
--ове
--овед
--оведения
--овик
--овин
--ович
--овк
--овка
--овки
--овко
--овна
--ово
--ового
--овод
--овое
--овои
--овом
--овск
--овскии
--овы
--овые
--овыи
--овым
--овых
--овья
--ог
--оги
--огии
--огия
--ого
--огр
--ографи
--од
--ода
--одеи
--оди
--одка
--ое
--ожня
--оз
--оза
--ои
--оид
--ок
--око
--окс
--ол
--оле
--оли
--олнить
--олнять
--олог
--ологи
--ологии
--ологическии
--ология
--оля
--ом
--ома
--оми
--омо
--ому
--он
--она
--онал
--онализм
--онг
--оне
--они
--онии
--онка
--онная
--онного
--оннои
--онные
--онныи
--онь
--оп
--ополь
--ор
--ора
--орд
--ори
--орт
--ос
--осса
--ост
--ости
--ость
--ось
--от
--ота
--оти
--отик
--отин
--ото
--отов
--оту
--оты
--оть
--оу
--офон
--ох
--охин
--оч
--очка
--очкин
--очно
--очныи
--ош
--оша
--ою
--оя
--п
--па
--паи
--пе
--пех
--пи
--пис
--писи
--пкии
--по
--пов
--пс
--пт
--пу
--пы
--р
--ра
--рад
--ран
--рах
--рации
--рг
--рд
--ре
--рев
--реи
--рек
--рен
--рех
--ри
--рии
--рин
--рия
--рк
--рка
--рл
--рма
--рме
--рн
--рные
--рныи
--рных
--ро
--ров
--рова
--рование
--ровании
--рования
--ровать
--ровка
--рофы
--рса
--рск
--рскии
--рт
--рта
--ру
--руи
--рх
--рц
--рч
--ры
--рыв
--рь
--ря
--с
--са
--сал
--сан
--сар
--сбах
--се
--сем
--семпе
--сен
--сене
--сенче
--сенчен
--сенчи
--си
--сии
--сине
--сипе
--сить
--сия
--ск
--ска
--ская
--скер
--ски
--ские
--скии
--ским
--скин
--ских
--ско
--ского
--ское
--скои
--ском
--скому
--ску
--скую
--сл
--сла
--сли
--сло
--слу
--со
--сов
--сон
--сор
--сс
--сса
--сси
--ссине
--ст
--ста
--ств
--ства
--стве
--ство
--ству
--стеи
--сти
--стная
--стов
--стсем
--стсен
--сты
--стыи
--сть
--стях
--су
--сч
--сш
--сы
--сык
--сь
--ся
--т
--та
--таев
--таи
--тан
--тар
--тас
--тау
--тая
--тва
--тво
--те
--теи
--тели
--тель
--теля
--тен
--тер
--тет
--ти
--тивныи
--тие
--тиер
--тизм
--тии
--тик
--тика
--тики
--тин
--тисем
--тическии
--тия
--тка
--тки
--тко
--тл
--тла
--тма
--тн
--тна
--тная
--тно
--тного
--тное
--тнои
--тные
--тных
--то
--тов
--тович
--тон
--тор
--тп
--тр
--тса
--тсем
--тся
--тт
--ттар
--тто
--ту
--тур
--туры
--тч
--ты
--тые
--тыи
--тых
--ть
--ться
--тья
--тэ
--тюк
--тя
--у
--уа
--уаци
--уб
--уг
--уга
--уги
--уд
--уда
--ует
--уз
--уи
--ук
--ука
--уков
--укци
--укции
--укция
--ул
--ули
--улин
--улл
--улярл
--улятор
--ум
--ун
--уны
--унь
--уп
--ур
--ура
--ург
--уров
--ус
--уси
--уся
--ут
--уть
--ух
--уха
--ухин
--ухов
--уции
--уч
--уш
--уша
--ушин
--ушк
--ушкин
--ущии
--уэр
--ую
--уют
--ующие
--ующии
--ф
--фа
--фаи
--фест
--фи
--фии
--фикации
--фин
--фт
--фы
--фьев
--х
--ха
--хе
--хи
--хии
--хн
--хов
--хова
--ход
--ходит
--хон
--хт
--ху
--хы
--ц
--ца
--цать
--це
--цев
--ци
--цие
--цизм
--ции
--цилен
--цине
--цисем
--цию
--ция
--цк
--цкая
--цки
--цкии
--цкого
--цкое
--цкои
--цо
--цов
--цова
--цу
--ццо
--цы
--цын
--ч
--ча
--че
--чев
--чен
--чер
--ческая
--ческие
--ческии
--ческим
--ческих
--ческого
--ческое
--ческои
--ческом
--чет
--чи
--чии
--чик
--чиков
--чиха
--чка
--чки
--чная
--чно
--чнои
--чности
--чныи
--чо
--чок
--чу
--чук
--чч
--ччен
--ччо
--чь
--чье
--ш
--ша
--ше
--шев
--ши
--шин
--шир
--ших
--шк
--шка
--шко
--шл
--шло
--шн
--шнии
--шняя
--шов
--шок
--шу
--шш
--шь
--щ
--ща
--щая
--ще
--щев
--щения
--щенко
--щи
--щие
--щии
--щик
--щина
--щих
--щица
--ъ
--ъе
--ъю
--ъял
--ы
--ыв
--ывать
--ые
--ыи
--ык
--ыль
--ым
--ыми
--ын
--ынин
--ып
--ыр
--ыс
--ыт
--ыто
--ых
--ыч
--ыш
--ь
--ьбе
--ьва
--ьга
--ьд
--ье
--ьев
--ьел
--ьер
--ьи
--ька
--ьки
--ько
--ьм
--ьма
--ьми
--ьная
--ьно
--ьного
--ьное
--ьнои
--ьные
--ьныи
--ьным
--ьных
--ьон
--ьс
--ьск
--ьскии
--ьскои
--ься
--ьт
--ьтанч
--ьте
--ьф
--ьц
--ьцзян
--ьцы
--ью
--ья
--ьяк
--ьян
--ьянов
--ьянова
--э
--эи
--эм
--эн
--ю
--юг
--юи
--юк
--юка
--юр
--ют
--ютин
--ются
--юх
--юш
--ющие
--ющии
--ющих
--я
--ябр
--яд
--яев
--яет
--яется
--яж
--яи
--як
--якин
--ял
--яли
--яль
--ям
--ями
--ян
--янов
--яр
--яс
--ят
--ять
--яться
--ях
--яш
--ящая
--ящии
--яя
--ђе
--і
--ів
--іи
--іч
--ія
--ҫ
--ҫа
--ҫе
--ҫи
--ҫна
--ҫҫе
--ә
