!
"
#
##0
##1
##10
##11
##12
##13
##14
##15
##16
##17
##18
##19
##2
##20
##21
##22
##23
##24
##25
##26
##27
##28
##29
##3
##30
##31
##32
##33
##34
##35
##36
##37
##38
##39
##4
##40
##41
##42
##43
##44
##45
##46
##47
##48
##49
##5
##50
##51
##52
##53
##54
##55
##56
##57
##58
##59
##6
##60
##61
##62
##63
##64
##65
##66
##67
##68
##69
##7
##70
##71
##72
##73
##74
##75
##76
##77
##78
##79
##8
##80
##81
##82
##83
##84
##85
##86
##87
##88
##89
##9
##90
##91
##92
##93
##94
##95
##96
##97
##98
##99
$
%
&
'
(
)
*
+
,
-
.
/
0
00
000
001
002
00232
003
004
005
006
00643
007
008
009
01
010
011
013
014
015
016
017
018
019
02
022
026
029
03
04
043
05
06
07
08
09
1
10
100
1000
10000
100000
1002
1007
101
1016
102
103
104
1040
105
1054
106
107
108
109
1093
11
110
1100
111
1118
112
1120
113
1130
114
115
116
117
118
119
12
120
1200
121
122
123
1236
124
1240
125
126
127
1279
128
129
13
130
1300
131
132
133
134
135
136
137
1370
138
1380
139
14
140
1400
1404
141
142
143
1430
144
145
1453
146
147
1478
148
1480
1488
149
1490
1492
1494
15
150
1500
1504
1506
151
1519
152
1520
1526
153
1530
154
1543
1547
155
1550
1552
1554
1555
156
1560
1565
157
158
159
1590
1596
16
160
1600
1609
161
1610
1612
162
1626
163
1630
1632
1634
1636
1638
164
1640
1642
1643
1646
1648
165
1650
1654
1656
166
1660
1666
1667
1669
167
1670
168
1680
169
17
170
1700
1707
1708
171
1710
1714
1719
172
1720
1721
1722
1723
1724
1725
1727
1728
173
1730
1735
1736
1737
174
1740
1741
1744
1745
1746
1747
1748
1749
175
1750
1753
1755
1757
1758
176
1760
1762
1763
1764
1765
1766
1767
1768
1769
177
1770
1771
1772
1773
1774
1775
1776
1777
1778
1779
178
1780
1781
1782
1783
1784
1785
1787
1788
1789
179
1790
1791
1792
1793
1794
1795
1796
1797
1798
1799
18
180
1800
1801
1802
1803
1804
1805
1806
1807
1808
1809
181
1810
1811
1812
1813
1814
1815
1816
1817
1818
1819
182
1820
1821
1822
1823
1824
1825
1826
1827
1828
1829
183
1830
1831
1832
1833
1834
1835
1836
1837
1838
1839
184
1840
1841
1842
1843
1844
1845
1846
1847
1848
1849
185
1850
1851
1852
1853
1854
1855
1856
1857
1858
1859
186
1860
1861
1862
1863
1864
1865
1866
1867
1868
1869
187
1870
1871
1872
1873
1874
1875
1876
1877
1878
1879
188
1880
1881
1882
1883
1884
1885
1886
1887
1888
1889
189
1890
1891
1892
1893
1894
1895
1896
1897
1898
1899
19
190
1900
1901
1902
1903
1904
1905
1906
1907
1908
1909
191
1910
1911
1912
1913
1914
1915
1916
1917
1918
1919
192
1920
1921
1922
1923
1924
1925
1926
1927
1928
1929
193
1930
1931
1932
1933
1934
1935
1936
1937
1938
1939
194
1940
1941
1942
1943
1944
1945
1946
1947
1948
1949
195
1950
1951
1952
1953
1954
1955
1956
1957
1958
1959
196
1960
1961
1962
1963
1964
1965
1966
1967
1968
1969
197
1970
1971
1972
1973
1974
1975
1976
1977
1978
1979
198
1980
1981
1982
1983
1984
1985
1986
1987
1988
1989
199
1990
1991
1992
1993
1994
1995
1996
1997
1998
1999
2
20
200
2000
20000
2001
2002
2003
2004
2005
2006
2007
2008
2009
201
2010
2011
2012
2013
2014
2015
2016
2017
2018
2019
202
2020
2021
2022
203
2030
204
205
206
207
208
209
21
210
211
212
213
214
215
216
217
218
219
22
220
221
222
223
2231
224
225
226
227
228
229
23
230
231
232
233
234
235
236
237
238
239
24
240
241
242
243
244
245
246
247
248
249
25
250
2500
251
252
2520
2525
253
254
255
256
257
258
2580
259
26
260
261
262
263
264
265
266
267
268
269
27
270
271
272
273
274
275
276
277
278
279
28
280
281
282
283
284
285
286
287
288
289
29
290
291
292
293
294
295
296
297
298
299
3
30
300
3000
301
302
303
304
305
306
307
308
309
31
310
311
312
313
314
315
316
317
318
319
32
320
321
322
323
324
325
326
327
328
329
33
330
331
332
333
334
335
336
337
338
339
34
340
341
342
3422008322
343
344
345
346
347
348
349
35
350
351
352
353
354
355
356
357
358
359
36
360
361
362
363
364
365
366
367
368
369
37
370
371
372
373
374
375
376
377
378
379
38
380
381
382
383
384
385
386
387
388
389
39
390
391
392
393
394
395
396
397
398
399
4
40
400
4000
401
402
403
404
405
406
407
408
409
41
410
411
412
413
414
415
416
417
418
419
42
420
421
422
423
424
425
426
427
428
429
43
430
431
432
433
434
435
436
437
438
439
44
440
441
442
443
444
445
446
447
448
449
45
450
451
452
453
454
455
456
457
458
459
46
460
461
462
463
464
465
466
467
468
469
47
470
471
472
473
474
475
476
477
478
479
48
480
481
482
483
484
485
486
487
488
489
49
490
491
492
493
494
495
496
497
498
499
5
50
500
5000
501
502
503
504
505
506
507
508
509
51
510
511
512
513
514
515
516
517
518
519
52
520
521
523
524
525
526
527
528
529
53
530
531
532
533
534
535
536
538
539
54
540
541
542
543
544
545
546
547
548
55
550
551
552
553
554
555
556
557
558
559
56
560
562
563
564
565
567
568
569
57
570
571
572
573
574
575
576
577
578
579
58
580
581
582
583
584
585
586
587
588
589
59
590
591
592
593
594
596
597
599
6
60
600
6000
602
603
604
605
606
607
608
609
61
610
611
612
613
614
615
616
617
618
619
62
620
621
622
623
624
625
626
627
628
63
630
631
632
633
634
635
636
637
639
64
640
642
643
645
648
649
65
650
651
652
653
655
656
657
658
66
660
661
662
664
665
666
667
67
670
671
672
673
674
675
676
678
679
68
680
681
682
684
685
686
688
69
690
691
693
696
699
7
70
700
7000
701
703
704
705
707
708
709
71
711
712
713
714
719
72
720
723
724
725
726
727
728
73
730
731
732
736
737
74
740
743
747
75
750
751
752
753
754
755
756
76
760
761
762
766
7670
768
7695
77
770
776
78
780
783
784
785
788
789
79
795
797
7975
8
80
800
8000
802
808
81
814
815
816
818
82
822
83
830
832
835
84
840
843
844
845
848
85
850
85270
86
863
87
87317
88
880
88167
883
885
89
890
892
896
9
90
900
902
91
92
920
922
9221
93
94
942
944
949
95
950
9524
9533
955
956
957
96
960
963
966
97
970
975
976
978
98
985
99
992
995
9965
999
:
;
<
=
>
?
@
\
^
_
`
a
aa
aakhmedova
ab
abc
able
ablon
about
above
ac
academia
academic
academy
accessed
account
action
active
ad
adam
add
addclass
addnumbers
adsl
advanced
af
africa
african
after
ag
age
ah
ai
air
airlines
ak
ako
al
alan
alaska
albatros
albert
alemania
alexander
alfred
algebra
align
alignbars
all
alla
allen
alpha
already
als
also
alt
alternative
altertumswissenschaft
am
america
american
among
amore
amour
amsterdam
an
analysis
anatomy
ancient
and
andrew
angela
animal
animation
ankara
ann
anna
another
any
aoc
aou
apple
applications
applied
approach
april
ar
arabic
arc
architecture
archive
archives
arctg
are
arg
args
argument
arguments
arms
armstrong
army
around
array
art
arthur
article
articles
arts
as
ascii
asia
asp
aspx
association
asv
at
atlantic
atlas
atomic
attr
au
audi
audio
auf
aufl
auflage
august
aus
australia
aut
author
auto
aux
av
available
avant
avr
award
awards
ax
az
b
ba
baby
back
background
backgroundcolors
bad
baden
bafta
balance
ball
band
bank
bar
bardata
barra
based
basic
bass
battle
bay
bb
bbc
bc
bd
be
beach
beatles
beckerath
been
before
begin
bei
being
bell
bengal
benjamin
benz
ber
berkeley
berlin
best
beta
between
bf
bg
bi
big
billboard
biography
biology
bird
birds
bis
bk
bl
black
blanc
blank
blog
blue
bmatrix
bo
board
boeing
bombus
book
books
booksources
boolean
border
boston
bot
botanical
both
bottom
box
br
braille
bridge
brill
britain
britannica
british
bromus
brookesia
broughton
brown
bru
bs
bu
builder
building
bulgaria
bulletin
business
but
button
bv
bw
bx
by
c
ca
calculus
california
calvados
cambridge
can
canada
canvas
cap
caption
carl
case
cases
castle
casuistry
cat
catalogue
catedral
categori
categoria
categorie
categories
category
cathedral
catholic
catmore
cc
cd
cdot
cdots
ce
centaurea
center
central
centre
century
cf
ch
change
changes
channel
chapter
character
charles
che
check
chemical
chemistry
cherokee
chicago
child
chile
china
chinese
ching
choose
christian
christmas
christopher
chronicle
church
chuvash
chuvashia
ci
cinema
circle
citation
cite
citizendium
citoid
city
civilization
cl
claim
claims
class
classic
classical
classification
classischen
cle
click
club
cm
cn
co
coat
code
collection
college
collins
color
colors
columbia
column
com
come
commas
committee
common
commons
community
company
comparative
complete
comprehensive
computer
con
config
congress
conseil
conservation
contact
content
context
coptic
copy
corporation
corps
cos
council
country
course
court
cpa
cq
cr
crc
create
creative
crocodylus
cropped
cross
cs
css
csstext
ctg
cu
cultural
culture
current
cutugno
cv
cx
cy
cyberleninka
d
da
daily
dans
dark
darkgrey
das
data
database
dataset
datatype
datavalue
date
dateformat
datepart
david
day
days
db
dc
dd
de
dead
death
dec
december
deep
default
definition
dei
del
deletion
della
delta
dem
den
department
der
des
desc
description
design
det
detail
deutsch
deutsche
deutschen
deutscher
deux
development
di
dia
diagram
dictionary
did
die
diego
diff
different
digital
dir
directed
direction
directory
discovery
discussion
display
district
div
dj
djvu
dll
do
doc
documents
does
doi
don
donald
doors
dots
double
dover
down
dq
dr
dreams
ds
dt
du
during
dvd
dx
dynamics
dz
e
ea
each
early
earth
east
eastern
economic
ecuador
ed
edinburgh
edit
edited
editing
edition
editions
editor
editors
edits
eds
edu
education
edward
een
egypt
egyptian
ein
eine
einer
einfu
einstein
ej
el
elementary
elements
elizabeth
else
elseif
em
empire
en
encyclopedia
end
energy
engineering
england
english
entertainment
entity
entityid
entry
eo
ep
er
eric
error
errors
es
espan
est
estados
et
etc
ethics
ethnologue
eu
euclid
europa
europe
european
evans
eversmanni
evolution
ew
example
excel
express
f
fa
facebook
fall
false
family
faq
fe
feat
feature
features
february
feedback
felis
felix
female
femme
festival
fi
field
file
files
film
filter
find
fire
firefox
first
flag
flight
floor
flora
flowers
fm
fo
fontsize
for
forbes
force
forest
format
fort
forum
found
foundation
four
fr
fra
frac
frame
frameless
franc
france
francis
francisco
frank
frankfurt
franklin
franz
free
freebsd
french
friedrich
frog
from
fu
full
fullargs
function
functions
future
g
ga
gabriel
gala
gallery
game
gamma
garden
gas
ge
general
geographic
geometry
georg
george
georgia
german
germany
geschichte
get
getargs
gg
gif
girl
given
gje
gks
gl
global
glossary
gmbh
gnu
go
god
gody
gold
golden
good
google
got
gov
government
grammar
gran
grand
grande
grant
gray
great
greatest
greatness
greece
greek
green
gridcolor
group
groups
gruyter
gsub
gu
guide
gyptischen
gyptologische
h
ha
hall
hand
handbook
handbuch
hans
harper
harry
harvard
has
hash
have
haven
hdr
he
head
health
heart
heidelberg
height
hello
help
henry
her
heracleum
here
heritage
hero
heroes
het
hi
hiddencat
high
hill
hindi
his
histoire
historia
historical
history
hits
hl
hms
ho
holbein
home
homo
hopkins
horse
hot
hotel
house
how
hr
hrsg
hrung
htm
html
http
https
hu
hudson
huggle
hukuk
human
hy
i
ia
iana
ibm
ice
icon
id
ie
if
iglesia
ii
iii
il
illustrated
im
image
images
imagesize
imdb
img
imperial
in
inc
including
increment
index
india
indian
indiana
indo
info
infobox
infocards
information
infty
input
insert
inside
institut
institute
instructions
instrumental
int
inte
interactive
international
internet
into
introduction
inula
inversed
io
ip
ipairs
ipod
ir
ira
irish
is
isbn
island
islands
iso
israel
issn
issue
istmat
it
italia
italian
italiano
italy
item
its
iv
ivan
ix
j
ja
jack
jackson
jacques
james
jan
jane
january
japan
japanese
java
jazz
je
jean
ji
jim
jo
joan
joe
johannes
john
johns
johnson
johr
jones
joseph
journal
journey
jpeg
jpg
jr
jsp
ju
judith
jul
july
jun
june
just
justify
k
ka
kadavoor
kan
kansas
karl
kategori
kategorie
kategorija
ke
key
kg
ki
king
kingdom
kino
kirche
kk
klein
km
know
ko
kong
korean
kp
ku
kunst
kunstverlag
l
la
label
laboratory
lada
lady
lake
land
lang
language
languages
large
las
last
lat
late
law
laws
layer
lb
ldots
le
learn
learning
leben
lecture
lectures
led
lee
left
legend
leipzig
len
lenta
les
less
let
letter
letters
lexikon
li
lib
libr
library
life
light
lightgrey
like
lim
limited
limits
line
linear
linguistic
linguistics
link
links
linux
list
lists
literary
literature
little
live
livejournal
living
lmen
ln
lo
local
location
log
lon
london
long
longitude
look
lord
los
louis
love
lower
lp
lr
lt
ltd
lu
luc
lv
lynx
m
ma
mac
machine
madagascar
made
magazine
magistrates
mai
mail
main
mainsnak
major
make
making
maksudi
mal
male
mall
man
management
manin
manual
many
map
maps
mar
march
mari
maria
marie
mario
mark
marks
martin
mary
match
materials
math
mathbb
mathbf
mathematical
mathematics
mathnet
mathrm
mathworld
max
may
mbox
mc
mcgraw
me
mechanics
media
mediawiki
medical
medicine
memorial
men
mennonite
menu
mercedes
merkel
message
messages
met
meta
method
methods
metropolitan
mg
mhnt
mi
michael
michel
microsoft
middle
military
min
mind
mini
mit
mk
mm
mn
mo
mobile
mode
model
modern
module
moll
month
monument
moon
moore
moral
more
morning
morrissey
moscow
most
motion
mount
mountain
movement
movie
mozilla
mp
mr
ms
mt
mu
munich
muse
museum
music
mw
my
n
na
nach
nacional
name
names
narod
nasa
naselenie
nation
national
native
natural
nature
nc
nchen
nchner
nd
ne
near
need
neq
net
netscape
network
neue
new
news
newsletter
newton
next
ng
ngc
nh
ni
nicholas
night
nigsnamen
nil
nl
nn
no
nobel
nomenclature
non
none
nord
north
northern
not
note
notes
notify
notoc
nov
nova
november
now
nr
nrcs
nster
nt
nu
nuclear
num
number
numbers
ny
o
oclc
oct
october
od
of
office
official
og
oh
ois
ojkum
old
om
omega
on
one
online
only
op
open
opera
operatorname
options
or
oral
orchestra
order
org
orientation
orig
origin
original
os
otechestvennoy
other
ou
our
ouro
out
over
oxford
p
pa
pacific
page
pages
painting
pairs
palace
pan
panorama
panthera
paper
papers
papilio
par
parameter
parameters
params
parent
paris
park
parque
part
partial
particle
party
pas
past
patrick
pattern
paul
pays
pcode
pdf
pe
peace
penguin
people
peoples
per
period
perspective
peru
peter
pg
phabricator
phase
phi
philip
philosophy
photo
photos
php
phys
physical
physics
physik
pi
pictures
pierre
pl
place
placedatanumrecord
placename
plain
plant
plantilla
please
plotarea
plotdata
plus
pm
pmatrix
png
pngimage
po
point
policy
political
politics
por
port
portal
portrait
pos
position
possible
post
pour
power
pp
pr
practice
pre
precision
predefinic
preferences
prefix
present
preset
press
prince
princeton
principles
print
prize
pro
probability
problems
process
profile
program
project
projects
property
propertyid
provided
ps
psychology
pt
pu
public
publication
publications
published
publishers
publishing
pure
px
pxx
q
qquad
quad
qualifier
qualifiers
quantum
que
queen
questions
r
ra
radio
rai
ral
random
rank
ras
ray
rd
re
read
reading
real
realencyclopa
reason
recent
records
red
ref
reference
region
regnum
related
relativity
religion
rembrandt
remove
renaissance
replace
report
republic
request
require
res
research
resources
result
results
ret
retrieved
return
retval
rev
review
revised
revolution
rgb
rgen
rho
ri
ria
rib
richard
right
rightarrow
rights
ring
river
rk
rn
ro
road
robert
rock
rolling
roma
roman
rome
root
rose
routledge
row
royal
rs
rt
ru
rule
rules
rus
ruskino
russia
russian
s
sa
saint
samara
same
san
sandbox
santa
sarah
scalemajor
scaleminor
schloss
school
schuster
science
sciences
scientific
score
scotland
scott
se
sea
search
sec
second
section
see
self
sep
september
series
server
service
services
set
sfondo
sh
shift
ship
short
should
show
showing
shtml
si
side
sie
sign
simon
simple
sin
since
single
singles
sir
site
size
sk
sky
sl
small
smith
snak
snaks
snow
so
soc
social
society
solar
some
son
song
sons
sony
soul
sound
source
sources
sous
south
southern
soviet
sp
space
spanish
spb
special
species
specified
spermophilus
spirit
spiritual
sprache
spring
springer
sqrt
square
sr
src
ss
ssp
st
sta
stamp
stanbul
standard
stanford
star
start
state
statement
statements
states
station
statistical
statistics
status
stephen
stift
stone
stories
story
str
street
string
structure
stub
studien
studies
studio
study
stuttgart
style
su
sub
success
sum
summary
summer
sun
sunset
super
support
sur
surface
survey
sv
svg
system
systems
t
ta
tab
table
tables
tabli
tag
talk
target
taylor
te
team
teatr
technology
templat
template
templates
temple
ten
test
texas
text
textcolor
texte
texts
tg
th
thames
than
thanks
that
the
theatre
their
them
then
theory
there
thermodynamics
these
they
third
this
thomas
thought
three
through
thumb
ti
till
time
timeaxis
times
tirage
title
to
toc
today
together
tome
tonumber
tool
toolbar
tools
top
toppdoma
toronto
tostring
tour
tower
tr
tra
traduit
translate
translated
translatewiki
translation
translations
translators
tre
tree
triangle
trigram
trim
true
try
ts
tt
tu
tutorial
tv
twitter
two
typ
type
u
ua
uf
uk
ukraine
um
un
una
und
under
une
unicode
unidos
union
unit
united
units
univ
universal
universe
university
unix
unknown
up
uploads
upper
upright
ur
uri
url
urss
urtica
us
usa
usda
use
used
user
users
uses
using
ussr
ustring
utc
v
va
val
valley
value
van
var
varphi
vdots
ve
vec
vector
velikoy
verlag
version
vertical
very
vi
via
viatour
victor
victoria
vida
video
vie
view
viewer
vii
viii
viktor
ville
virgin
vista
visual
visualeditor
vita
vo
vol
volga
vols
volume
vom
von
voyny
vs
vulpes
w
wa
wales
walter
want
war
warner
warszawa
was
washington
watch
water
waterloo
way
wayback
we
web
webelements
website
weekly
well
welsh
welt
were
west
western
what
when
where
which
white
who
whois
why
width
wien
wiesbaden
wiki
wikibase
wikidata
wikileaks
wikimania
wikimedia
wikipedia
wikipedias
wikitext
wild
wiley
wilhelm
will
william
williams
wilson
wimbledon
windows
wine
winter
with
without
wmf
wo
wolfgang
wolfram
woman
women
words
work
working
works
world
would
writing
www
x
xi
xii
xiii
xiv
xix
xn
xv
xvi
xvii
xviii
xx
xxi
xxii
xxv
xxvi
xxx
y
ya
yale
yandex
year
years
yellow
york
you
young
your
youtube
yu
z
za
zealand
zeitschrift
zeppelin
zh
zoo
zu
zum
zur
{
|
}
~

§
©
«
­
®
°
±
²
³
´
·
»
½
¿
×
ß
æ
ı
ə
ʒ
ʹ
ʻ
ˈ
ː
̀
́
̂
̃
̄
̆
̇
̈
̉
̊
̋
̌
̓
̔
̚
̛
̣
̦
̧
̨
̮
̱
͂
α
β
γ
δ
ε
η
θ
ι
λ
μ
ν
ο
π
ρ
ς
ω
а
абакан
аббатл
абдулино
абдулла
абель
абляскино
абрам
абрамов
абрамович
абруков
абрыскино
абсолютл
абстрактл
абу
абхаз
абхази
ав
ава
авал
авалл
авалла
авалтанах
авалхи
аван
авангард
авар
авари
аварсем
аварсен
авах
авахл
авг
август
августа
авдеев
авеста
авиаполк
авиаци
авиации
авиацин
авив
авл
авланн
авна
авнашкал
авр
авра
авраам
аврак
аврака
аврашка
аврелии
аври
аврора
австрали
австралин
австралире
австралири
австри
австрире
австрия
австро
авт
автан
авто
автобус
автобуссем
автоматла
автоматчик
автоматчиксен
автомобил
автомобиль
автомобильсем
автономи
автономии
автономин
автономине
автономия
автономл
автономла
автор
автора
авторе
автореф
автореферат
автореферач
авторов
авторсем
авторсемпе
авторсен
авторы
агаков
агакова
агата
агафонов
агеев
агеева
агент
агентстви
агентство
агенч
агивер
агни
агриппа
агроном
ад
ада
адам
адвокат
административл
административла
административно
администратор
администраци
администрации
администрацилл
администрацилле
администрацин
администрация
адмирал
адольф
адрес
адресе
адриан
адриатика
адъютант
адыг
адыгеи
азамат
азаров
азбука
азербаи
ази
азие
азии
азин
азине
азипе
азире
азирен
азири
азия
азов
азот
аи
аист
аиф
ак
ака
акад
академи
академии
академик
академика
академин
академине
академинче
академическии
академия
акан
акансем
акансен
акатуи
аквариум
аквитани
аки
акивер
аким
акимов
акимова
акимович
акк
акка
аккад
аккушер
акн
акна
акнашкал
акса
аксаков
аксе
аксем
аксене
аксиом
аксу
аксубаево
аксубаевскии
аксубаевского
аксумла
акт
акташ
акте
актер
активл
актини
актрис
актриса
актриси
актрисисем
актрисы
актуальные
акустика
акушер
акции
акционер
акч
акшар
ал
ала
алан
аланн
алапу
албан
албани
алга
алгебр
алгебра
алгебры
алгоритм
але
алевтина
алеи
алекс
алекса
александр
александра
александри
александров
александрова
александрович
александровка
александровна
алексеев
алексеева
алексеевич
алексеевка
алексеевна
алексеевски
алексеи
алексея
алексин
ален
алетеи
алеут
алжир
али
алиев
аликовская
аликовскому
алина
алиса
алкоголь
алл
алла
аллеи
аллине
аллинче
алма
алмаз
алмантаи
алманч
алмас
алматы
алоиз
алпусни
алран
алт
алтаи
алтар
алтарь
алти
алфавит
алфавита
алфавитне
алфавитпа
алфавитсем
алфавич
аль
альберт
альбина
альбом
альбома
альбомсем
альбрехт
алькеевского
альманах
альп
альпина
альт
альфа
альфонс
альфред
алюмини
аляск
аляска
ам
ама
амазонка
амак
аманн
амариллис
аменхотеп
америк
америка
американ
американсем
американскии
америки
ами
амон
амореи
ампелографи
ампер
амр
амстердам
амундсен
амур
амфибии
амфора
ан
ана
анализ
анализа
аналитик
аналитика
аналог
ананьев
ананьева
анастасия
анат
анатарах
анаткас
анаткасси
анатоли
анатолии
анатольевич
анатольевна
анатоми
анатомии
анатомия
анатомія
анатоміі
анатри
анать
анах
ангара
ангел
ангела
англ
англи
англии
англин
англипе
англире
англири
ангола
андельфинген
андерсен
анджелес
андорра
андре
андреев
андреева
андреевич
андреевка
андреевна
андреи
андрея
андриян
ани
аниме
анисимов
анк
анкара
анкинович
анл
анла
анн
анна
анне
аннексилен
анненков
анни
аннотированныи
анны
анри
анс
анса
ансамбл
ансамбль
ансат
антал
антанта
антарктид
антарктида
антарктик
антарктика
антарн
антеи
антиген
антик
антика
антиох
антиохи
антипов
античная
античнои
античность
антологии
антология
антон
антонии
антонин
антонина
антонио
антонов
антонова
антонович
антоновна
антропологи
антропологии
антуан
антуанетта
ануи
анфиса
анхальт
анхи
анч
анчах
аня
ао
аос
ап
апа
апастовскии
апат
апата
апатлану
апать
апах
апач
апаш
апельсин
апла
аплатутарстанри
аплах
апн
аполлон
апостол
апп
аппа
аппак
аппарат
аппарач
аппенцелль
апр
апрель
апреля
апса
апт
аптека
апу
апш
апшра
ар
ара
араб
арав
арави
аравии
арагон
аракан
арал
арама
арамеи
аран
арап
арапсем
арапу
арарат
аратн
арать
арга
аргентин
аргентина
аргумент
аргументы
ардатов
ардон
ареал
ареслен
ари
аристарх
аристотель
арифметик
арифметика
ариэль
арк
арка
аркадии
аркадьевич
аркадьевна
аркан
арканать
арканн
арканса
аркансан
аркану
арката
аркатать
аркатма
аркатн
аркатса
арки
арктик
арктика
арл
арлан
арланова
арм
арма
армалли
арман
армен
армени
армии
армия
армстронг
арн
арне
арни
арнисем
арнольд
арнольдов
арпа
арпу
арса
арсан
арсем
арсен
арсене
арсении
арсентьевич
арсеньев
арт
арта
артамонов
артан
арте
артемьев
артемьева
артемьевич
арти
артиллери
артиллерии
артиллерист
артист
артиста
артистка
артистки
артистсем
артисты
артисч
артур
ару
арусем
арх
архангел
архангельск
археолог
археологи
археологии
археологические
археология
археологсем
архив
архива
архивировано
архивная
архивы
архиепископ
архимед
архипелаг
архипов
архипович
архитектор
архитекторсем
архитекторы
архитектур
архитектура
архитектури
арча
арчи
арья
ас
аса
асаил
асаилу
асам
асамат
асамл
асап
асбассеи
асем
асл
асла
асламас
аслан
аслати
аслашш
асли
аспарух
аспект
аспекты
аспекч
аспирантур
асра
ассамблеи
асси
ассири
ассистент
ассистенч
ассоциации
ассоциация
асср
аст
астана
астероид
астероидсен
астра
астрель
астроном
астрономи
астрономире
астрономические
астрофизика
астул
астула
астулне
астулра
астулран
астулта
асфальт
ат
ата
атак
аталан
аталана
аталанать
аталанма
аталанн
аталанни
аталанса
аталантарас
аталантарма
аталантарн
аталантарса
аталану
атаман
атикасси
атил
атлант
атлантида
атлантик
атлантика
атлас
атлетика
атмосфер
атмосфера
атнер
атолл
атом
атомиздат
атомл
атомла
атомсен
атра
атракасси
атри
атсем
атсенче
атте
аттил
аттила
ать
ау
аудио
аул
ауновская
аургазинского
афанасии
афанасьев
афанасьева
афанасьевич
афган
афганистан
афганистанра
афганистанри
афин
афина
афиша
африк
африка
африкан
африке
африки
аффикс
аффикссем
ах
ахаль
ахах
ахматова
ахмед
ахмет
ахметов
ахметово
ахп
ахпу
ахр
ахрат
ахун
ач
ача
ачал
ачалл
ачана
ачапа
ачаранах
ачасем
ачасен
ачасене
ачи
ачине
ачисем
ачисен
ачисене
аш
ашак
ашк
ашмарин
ашмаринские
ашш
ашше
аэродром
аэропорт
аэропорч
аэс
аяк
аякра
аякри
аяларах
аялта
аялти
б
ба
баба
бабушка
бавари
бавария
бавлинского
багдашкино
бад
баден
баз
база
базе
базель
бази
базин
базинче
баи
бак
баксан
бактри
баку
бал
баланда
балатон
балашов
балерина
балет
балета
балетмеи
балеч
балкан
балкар
балкари
балл
баллада
баллистика
балти
балтии
балтика
балхаш
бангладеш
бандитскии
банк
банка
банкир
банкнот
банксем
банскобистрица
бань
бар
баранов
баранова
барбара
барбаросса
барда
баренц
бари
барнаул
барокко
барон
барс
барселона
барыш
бас
басилов
баск
баскетбол
басов
бассеи
баста
баталов
батальон
батальона
батареи
батареин
батарея
батист
батор
батыревская
бах
бахреи
бахтин
башгу
башкортостан
башкортостана
башня
баян
ббк
бе
беда
без
безопасности
безруков
безумныи
беи
бек
бел
белару
беларус
беларуси
беларусь
белая
белгород
белград
белла
беллинсгаузен
белов
белова
белого
белое
белои
белок
белору
белорус
белоруси
белоруссем
белоруссии
белоусов
белые
белыи
бельги
беляев
бен
бенгали
бенедикт
бенин
бенуа
берг
бергман
бердь
бере
берег
берега
берегах
берегу
березин
березина
беринг
берия
беркли
берлин
берлина
берн
бернар
бернард
беседа
беседы
бессмертныи
бессон
бета
бетон
бетховен
би
библеи
библи
библиогр
библиографи
библиографическии
библиография
библиотек
библиотека
библиотеке
библиотеки
библире
библири
бизнес
бизнесмен
бии
билл
билли
биляр
бин
бинарл
биографи
биографии
биографическая
биографическии
биография
биолог
биологи
биологии
биологилле
биологическии
биология
биосфера
бирж
биржа
биржи
бирюков
бисмарк
бит
битва
битвы
битюг
бич
бичурин
бия
бияпа
бк
бл
блан
бланш
блеи
близ
блинов
блог
блок
блока
блокада
блюз
бля
бниц
бо
боб
бобина
бобров
бог
богатырь
богдан
богданов
богема
боголюбов
богомолов
богословскии
бодров
боевик
боевои
боевые
бои
бол
болгар
болгари
болгарии
болгария
болгарскии
болгары
более
болезни
боливар
боливи
болотов
болтовского
больных
большая
больше
большевик
большевиксем
большевиксен
большевиксене
большие
большого
большое
большои
бомб
бомба
бомблакан
бон
бонапарт
бонгард
бондарев
бондаренко
бондарчук
бор
бордо
бори
борис
бориса
борисов
борисова
борисович
борисовна
боркин
бородин
бортинженер
борьба
борьбе
борьбы
босни
боспор
бостон
босфор
ботаник
ботаника
ботаническии
ботсвана
боуи
бочаров
бразили
браи
брак
бранденбург
брат
брата
братислава
братья
браун
брежнев
бреи
бремен
бренч
брест
бретань
бретон
бретонь
бригад
бригада
бригади
бригадин
бригадир
британ
британи
британие
британин
британипе
британире
британири
бродскии
брокгауза
бронетанк
бронз
бронза
бронь
бруклин
бруно
брюс
брюссель
брянск
бсэ
бугера
будапешт
будда
буддизм
буде
будет
будут
будущего
будущее
буи
буинского
бук
буквар
букварь
буквы
букер
булат
булгаков
булгар
булгаризм
булгары
булдаков
бульвар
бунин
буран
бурбон
бург
бургунди
буржуази
буркина
бурят
буряти
бус
бутаиха
бутан
бухара
бухгалтер
бухти
буш
бушуева
буэнос
бы
бывшая
бывшего
бывшии
бык
быков
был
была
были
было
быт
бытие
бытия
бытовые
быть
бычков
бышев
бэи
бюджет
бюллетень
бюро
бюров
в
ва
вавилов
вавилон
ваг
ваганьково
вагнер
вадим
ваз
ваза
вазов
ваи
вак
вакал
вакан
вакансем
вакансен
вакарч
вакун
вал
валаса
валдаи
вале
валем
валентин
валентина
валентинович
валериан
валерии
валерия
валерьевич
валерьевна
вали
валла
валли
валуа
валь
вальс
вальтер
валют
валюта
валя
вам
ван
вана
ване
ванин
ванл
ванла
вансем
вантер
вань
ваня
вап
вапа
вапл
вапла
вапли
ваплисем
ваплисен
вар
вара
вараи
варан
варас
варать
варвара
вари
вариант
вариантне
вариантсем
варианч
варис
варл
варма
варман
варн
варна
варни
варпа
варри
варрине
варринче
варринчен
варринчи
варса
варсем
варсен
вартан
варшав
варшава
варя
вас
васан
васи
василевскии
василии
василиса
василия
васильев
васильева
васильевич
васильевка
васильевна
васин
васл
васнецов
васса
васси
васш
васюган
васюганран
вася
ват
вата
ватерлоо
ватикан
ватк
ваткал
ватл
ватне
ватсон
ватт
ваттисем
ваттисен
вать
вах
вач
ваш
ваша
ваше
вашингтон
вашка
вашкино
вашл
вашла
вашра
вашран
вашсем
вашсемпе
вашсен
вашсене
вая
ваҫҫе
вв
вва
введение
введенскии
вви
ввин
ввине
ввипе
ввисем
ввисемпе
ввисене
вдова
ве
веб
вебер
ведомости
ведут
ведущии
везер
веи
век
века
веках
веке
веков
вектор
векторла
вел
велан
велана
веле
велен
великая
великие
великии
великих
великобритания
великого
великое
великои
великорусского
величин
велл
велосипед
велтен
велтух
велтуха
вельяминов
вен
вена
венгр
венгри
венгрин
венгрла
венгрсем
венера
венесуэл
венесуэла
венето
венеци
вениамин
вениаминович
вепс
вер
вера
верди
вере
вермахт
вероника
вероятностеи
верре
версаль
верси
версии
версине
версипе
версисем
версия
вертикалл
вертоле
верхнее
верхние
верхнии
верхняя
верховного
веры
весе
весем
весна
веспасиан
вест
вестготсен
вести
вестн
вестник
вестфали
вестфалия
весь
вет
ветер
ветеран
ветеранов
ветеринари
ветлуга
вече
вечер
вечера
вечернии
вечныи
вешкаи
вещества
вещи
взаимодеи
взвод
взвоч
взгляд
взрыв
ви
виа
вивьен
вид
видео
видов
виды
византи
византии
визит
вии
вика
вики
викивулав
викимани
викимедиа
википеди
википедие
википедии
википедин
википедине
википединче
википедире
википедири
википедия
виктор
виктора
виктори
виктория
викторов
викторович
викторовна
вил
виле
вилет
виличчен
виллине
вилн
вилне
вилни
вилнисем
вилнисен
вилсе
вилсен
вилт
вильгельм
вильнюс
вильям
вин
вине
винни
винница
виноградов
виноградова
винсент
винтертур
винче
винчи
виолетта
вир
виртуалл
вирус
вирьял
вис
висанти
висем
виска
виски
висла
виссарион
вит
виталии
витальевич
витальевна
вите
витебск
витлев
витн
витти
вице
вицин
вич
вичк
вишневая
вишневскии
вища
виҫе
виҫҫе
вк
вка
вком
вкп
вл
вла
влади
владивосток
владимир
владимира
владимиров
владимирова
владимирович
владимировна
владислав
влас
власов
власова
власти
власть
влияние
влксм
влюбле
вместе
вне
внесении
внимание
внутренних
во
вов
вод
вода
водител
водитель
водород
воды
воеводин
воениздат
военная
военно
военного
военное
военнои
военные
военныи
военных
вож
возвращение
воздушных
возможно
вознесенскии
возникновение
возраст
возраста
возрождение
возрождения
возяков
вои
воинов
вокал
вокалист
вокалисч
вокзал
вокзала
вокруг
волга
волгателеком
волге
волго
волгоград
волеи
волжская
волжские
волжских
волжскои
волк
волки
волков
волкова
волны
вологда
володин
володина
володя
волхов
волынь
вольфа
вольфганг
вольфрам
воля
вооруже
вопрос
вопросам
вопросов
вопросу
вопросы
вор
воробье
воробьев
ворон
воронеж
воронин
воронков
воронов
воронцов
воронцова
воропаева
ворота
ворошилов
восемь
воскресенье
воспитани
воспитании
воспоминании
воспоминания
восстание
восток
востока
востоке
востоковедение
восточная
восточнои
восточныи
восточных
вот
вояджер
впервые
впере
вр
враг
врангель
врач
време
времен
времена
времени
время
вроцлав
врубель
вс
всадник
все
всеволод
всегда
всего
вселеннои
всем
всемирная
всемирнои
всему
всеобщая
всерос
всероссии
всех
встреча
встречи
вступ
вступил
вся
вт
вторая
второго
второе
второи
ву
вузов
вул
вула
вулав
вулакан
вулама
вуламалли
вулан
вуланать
вуласа
вулать
вулкан
вульф
вун
вуник
вуникк
вунн
вунп
вунт
вуншар
вуппер
вут
вутлан
вучах
вход
вчера
вы
выбор
выборов
вывеска
выгодскии
вызов
выи
выл
выль
выля
выляв
вылякан
выляма
вылямалли
вылян
выляни
выляса
вылять
вып
выпуск
выр
выра
вырн
вырна
вырнаҫна
вырнаҫтарна
вырсарни
вырсарникун
вырта
выртакан
выртать
выртн
высоцкии
выставка
выставки
выстрел
высш
высшая
высшеи
высших
вычегд
вьетнам
вьетнама
вэи
вюртемберг
вязьма
вятка
вячеслав
вячеславович
г
га
гаага
габриэль
гаваи
гаван
гавриил
гаврил
гаврила
гаврилов
гаврилова
гаврилович
гагарин
гагарина
газ
газа
газета
газете
газеты
газпром
газсем
гаи
гаити
галактик
галактика
галереи
галерея
галилеи
галилео
галин
галина
галич
галкин
галл
галли
галя
гамбич
гамбург
гамильтон
гамлет
гамма
ган
гана
ганза
ганнибал
ганновер
ганс
гарик
гарин
гарнизон
гаронна
гарри
гаспаров
гаубица
гаусс
гафаров
гафни
гб
гвардеи
гварди
гвардии
гвардия
гватемала
гвинеи
гвинея
гг
гданьск
где
гдр
ге
гевара
геи
гектар
гектарсемче
ген
гена
генеалоги
генеалогические
генеалогия
генезис
генерал
генерала
генералам
генералл
генералсем
генетик
генетика
гении
геннадии
геннадия
геннадьевич
геннадьевна
геноцид
генри
генрих
генуи
генуя
географ
географи
географии
географилле
географические
географических
география
геоинформаци
геолог
геологи
геология
геометри
геометрии
геометрилле
геометрире
геометрия
геополитика
георг
георги
георгиевич
георгиевна
георгии
георгия
гера
геральдика
герасим
герасимов
герасимова
герасимович
герб
герберт
гербне
гердт
герман
германи
германие
германии
германик
германин
германипе
германире
германири
германия
геродот
геродота
герои
героя
герцеговина
герцен
герцог
гессен
ги
гибель
гибралтар
гигант
гидрологи
гидрологическая
гидрометеоиздат
гидроузел
гии
гильберт
гималаи
гимн
гимнази
гимназии
гимназире
гин
гинзбург
гипе
гипотез
гипотеза
гиппократ
гитара
гитис
гитлер
гл
глав
глава
главная
главного
главное
главном
главныи
главы
глагол
гладков
глаза
глазами
глазов
гларус
глеб
глинка
глобус
гляциологи
гнеи
го
гоби
говард
говоров
говорят
гог
гоген
гоголь
гоголя
год
года
годах
годов
году
годунов
годы
гои
гол
голиков
голланд
голланди
голль
голова
головин
голод
голос
голоса
голосования
голубев
голубь
гольбеи
гольштеи
гомель
гомер
гондурас
гонконг
гончаров
гончарова
гор
гора
горах
горбаче
горбунов
гордеев
гордон
горе
горенштеи
гори
горизонт
горин
горныи
горов
город
города
городам
городе
городище
городов
городок
городских
городского
городское
городскои
горскии
горшков
горы
горькии
горького
гос
господин
гост
гость
гостья
гостях
государств
государства
государственная
государственного
государственное
государственнои
государственные
государственныи
государственных
государство
готсем
гр
граве
гравитаци
гравитацилле
гравюра
градус
граждан
граждане
гражданин
гражданл
гражданла
граждансен
грамм
грамматик
грамматика
грамматике
грамматики
грамота
грамоти
гран
гранд
грани
границ
граница
грант
граубюнден
граф
графа
график
графика
графики
графиня
графл
графсен
граче
греи
грек
греков
грексем
грексен
гренланди
греци
греции
грецин
грецире
грецири
греция
греч
грибов
грибоедов
грибы
григории
григорьев
григорьева
григорьевич
григорьевна
гриме
грин
гринвич
гриценко
гриша
гродно
грозныи
громов
грузи
грузин
грузинсем
грузире
групп
группа
группи
группине
групписем
группы
грэмми
гт
гтрк
гу
губанов
губернатор
губернии
губерния
губин
гудзон
гулаг
гуляев
гуманит
гуманитар
гуманитари
гуманитарные
гуманитарныи
гуманитарных
гумиле
гумилев
гун
гунар
гур
гуревич
гурии
гуров
гусаров
гусев
гусеи
густав
гущин
гыдан
гэс
гюго
д
да
даваи
давид
давидович
давлекан
давно
давыдов
давыдова
дагестан
даи
дак
дакар
дал
дале
далекого
дали
даль
дальнего
дама
дан
даная
данелия
дани
даниил
данила
данилов
данилова
данилович
даниэль
данные
данныи
данным
данных
данте
дао
дар
дарата
дарвин
даревскии
дарья
дата
дати
датисем
даттисем
даты
даш
даша
два
двадцать
две
двенадцать
дверь
двигател
движение
движении
движения
двина
двое
двои
двор
дворец
дворов
дворца
дворян
двух
де
дебют
девочка
девушка
девять
деггер
деггера
дегтяре
дед
дедушка
дедушкин
деи
дек
декабрь
декабря
декан
декарт
декоративных
декораци
декреч
дел
дела
делакруа
делам
деле
делегач
деление
делла
дело
дель
дельфин
дементьев
деметрии
демидов
демографи
демократи
демократилл
демон
ден
дени
деникин
денис
денисов
денисова
день
деньги
департамент
департаментсем
департаменч
департаменче
депов
депутат
депутач
дер
дербене
дербент
деревень
деревне
деревни
деревня
дерево
деревья
десант
десна
десять
дет
детал
детеи
детектив
дети
детская
детскии
детства
детство
деформаци
деятели
деятель
деятельности
деятельность
дж
джаз
джакомо
джан
джансем
джеи
джек
джексон
джерси
джибути
джигарханян
джим
джимми
джин
джо
джоан
джобс
джованни
джозеф
джои
джон
джонатан
джонс
джонсон
джордж
джузеппе
джулиан
джульетта
дза
дзержинскии
ди
диагностика
диак
диакон
диалект
диалектологи
диалектсем
диалекч
диалог
диаметр
диана
диапазон
диаспора
диаспори
дивизи
дивизии
дивизин
дивизион
дидро
диего
дизаи
дизель
дикии
диксон
диктатор
димитриев
димитриевич
димитров
дин
дина
динамик
динамика
динамики
динамо
династи
династии
династин
династине
династисем
диоген
диплом
дипломат
дипломати
дипломач
дипломне
директор
директора
директорсен
дириже
дис
диск
дискографи
дискретл
дисс
диссертаци
диссертации
диссертацине
дисциплин
дифференциалл
для
дмитриев
дмитриева
дмитриевич
дмитриевна
дмитрии
дмитрия
дне
дневник
дневники
днеи
днепр
днепропетровск
днестр
дни
днк
дня
до
добро
добровольскии
добронравов
добрыи
довженко
довлатов
дождь
дои
док
докл
доклад
докладов
доклады
доктор
доктора
документ
документалистика
документальныи
документах
документл
документов
документсем
документсенче
документы
докуменч
долгая
долгов
должен
должность
должны
долина
долл
доллар
дом
дома
домашнего
доме
домен
доминик
доминикан
домициан
домов
домои
дон
донбасс
донец
донецк
донскои
дону
доп
дополненное
дор
дора
доров
дорова
дорович
доровка
доровна
дорог
дорога
дороги
дорогои
достоевскии
досье
доцент
доценч
дочка
дочь
др
драи
драм
драма
драматург
драматурги
драматургии
драматургсем
драми
древнего
древнеи
древние
древнии
древних
древностеи
древности
древняя
древо
дрезден
дреи
дрожжановского
дроздов
дроздовская
дрофа
друг
друга
другая
другие
других
другои
дружба
дружбы
друз
друзья
ду
дублин
дубляж
дубна
дубровник
дубровскии
дуглас
дуи
дум
дума
думи
думин
думка
думы
дунаи
дуров
дух
духовная
духовнои
душ
душа
души
дуэль
дуэт
дыбо
дьявола
дьяконов
дэ
дэвид
дэвис
дю
дюи
дюльмен
дюма
дядя
е
ев
ева
евгении
евгения
евгеньевич
евгеньевна
евдокимов
евдокимова
евдокимович
евдокия
еве
евич
евклид
евклида
евклидла
еврази
евразии
евразин
евразири
евразия
евреи
евро
европ
европа
европара
европе
европеи
европи
европы
евстигнеев
евтушенко
евфрат
ега
еган
егип
египет
египетра
египетри
египта
его
егор
егоркино
егорлык
егоров
егорова
егорович
егоровна
единая
единение
единицы
единыи
ее
ежегодник
ездил
еи
ек
екатерина
екатеринбург
екатерины
екен
еккунт
екурав
екуравпа
ел
елаур
елга
елена
елены
елец
елизавета
елик
елл
елле
елч
ель
ельцин
ем
емельян
емельянов
емельянович
емен
еми
ему
емье
емьере
емьи
емьин
емьине
емьинче
емьинчи
ен
ене
енисеи
енисея
енл
енне
еннеле
еннелле
еннче
енпе
енре
енри
енсем
ентеш
ентешсем
енти
енхир
енциклопедія
енч
енче
енчен
енчи
еншик
енькка
еп
епархии
епархин
епе
епископ
епле
еплерех
ер
ерагин
ере
ереван
ерекен
ерем
еремеев
еремин
ерепкино
ерепьел
ерк
еркелен
ермаков
ермакова
ермеи
ермолаев
ерн
ерофеев
ерсе
ерт
ертсе
ерту
ершов
ес
есем
есен
есенин
есенина
если
естествознания
есть
ет
етке
еткер
еткерл
еткерле
ефим
ефимов
ефимова
ефимович
ефреи
ефремов
ефремова
ефремович
ефрон
ефрона
ех
ехрем
еш
еще
ж
жа
жак
жан
жанеи
жанна
жанр
жанра
жанрсем
жанрсемпе
жаров
жданов
же
желание
жена
женева
женитьба
жених
женщин
женщина
женщины
женя
жерар
жертва
жж
жзл
жи
живаго
живе
живого
живои
живописец
живописи
живопись
животные
животных
жизни
жизнь
жил
жили
жилина
жителеи
житие
житомир
жить
жозеф
жорж
жуан
жуков
жукова
жуковскии
журавле
журавлев
журнал
журнала
журнале
журналист
журналистика
журналистики
журналистсем
журналистсен
журналисч
журналра
журналсем
журналсенче
журналта
журналу
жэтф
жюль
жюри
з
за
заведении
заведующии
завещание
завод
завода
заволжье
заволжья
завоч
завтра
загадка
загадки
заговор
задач
задача
задачи
заж
заи
закон
закона
законы
зал
зале
залив
заломнов
зам
замби
заметки
замечательных
замок
замуж
зао
зап
запад
запада
западная
западного
западнои
западныи
записи
записки
запись
заповедник
запорожье
заре
заречныи
зарождение
зарубежных
зархи
заря
заслуженныи
застава
захар
захаров
захарова
захарович
захарченко
зацепин
защита
защиты
звание
звания
зве
звезда
звезды
звенигород
звено
зд
здание
здании
здесь
здоровье
здоровью
здоровья
здравствуи
зды
зе
зевс
зееберг
зеи
зеланди
зеле
земле
земли
земля
земляки
земноводные
зенштеи
зер
зеркало
зефтиген
зи
зима
зимбабве
зимин
зимнии
зина
зинаида
зиновии
зиссах
зла
зман
знак
знаков
знаменитые
знамя
знание
знании
знания
знатоки
значение
значении
значения
значит
зов
зовка
зои
золотая
золотица
золотница
золотницкии
золото
золотов
золотова
золотое
золотои
золотурн
золотые
золушка
зон
зона
зони
зоологи
зоопарк
зорге
зорин
зоя
зрения
зубков
зубов
зубченко
зуево
зы
и
иа
иаков
ибн
ибрагим
ибряи
ив
ива
иван
ивана
ивано
иванов
иванова
иванович
ивановича
ивановка
ивановна
иваново
ивлев
ивр
иврит
иглаи
иглин
игль
игнатии
игнатьев
игнатьева
игнатьевич
игол
игоревич
игорь
игоря
игра
игры
ид
иде
идеалла
идеи
идел
идель
идеологи
идея
идиот
идиш
ие
иелтен
иерусалим
иет
ижевск
ижма
из
изабелла
избранное
избранные
изв
известия
известныи
изд
издание
издании
издания
издат
издатель
издательскии
издательства
издательстви
издательствин
издательствинче
издательство
измаи
изменении
изменения
изображение
изображения
изобразительное
изомер
изоркин
изотоп
изотопсем
изотопсен
израил
израиль
изучение
изучении
изучению
изучения
изученность
ии
иисус
ик
ике
икк
икке
иккен
иккенне
икс
ил
иле
илев
илеи
илек
илекен
илем
илемл
илемле
илемлетн
илес
илесси
илесш
илет
илеҫҫе
или
илл
илларионов
илларионович
илле
иллинои
иллюстраци
иллюстрированная
иллюстрированныи
илме
илмелле
илмелли
илмен
илмес
илн
илне
илни
илнипе
илнисем
илпек
илсе
илсем
илсен
илт
илте
илтерет
илу
иль
ильдеряково
ильи
ильин
ильина
ильинична
ильич
ильича
ильминскии
илья
илюткино
илюхин
им
име
имен
имена
именем
имени
именкасси
именуется
ими
иммануил
имп
императ
император
императора
императоре
императорскои
императрица
импери
империи
империн
империне
империнче
империнчи
империсем
империя
импрессионизм
импульс
имя
ин
инв
инвестици
инга
ингрид
ингуш
инд
индеи
индекс
инди
индиана
индии
индин
индире
индири
индия
индоевропа
индоевропеи
индокитаи
индонези
индуизм
индустри
индустрии
ине
инелле
инерциалл
инженер
инженера
инженери
инкек
инкеке
инн
инна
иннокентии
иностраннои
иностранных
инсар
инспектор
институт
института
институте
институтне
институтра
институч
институче
инструктор
инструмент
инструментсем
инструменч
интеграл
интегралл
интегралла
интегралсем
интеллект
интеллигенции
интервал
интервики
интервью
интерес
интерлакен
интернат
интернет
интернета
интернете
интернетра
интерпретации
интерфакс
интерфеи
интерьер
инфекци
информатика
информаци
информацие
информации
информационныи
информация
инфра
инфраструктура
инче
инчен
инчи
иня
ио
иоаким
иоанн
иоанна
иоганн
ион
иона
иордан
иордани
иосиф
иосифа
иосифович
ип
ипе
ипполит
ир
ираида
ирак
ираклии
иран
ирана
иранра
иргиз
ире
ирен
ирех
ирина
ирис
иркут
иркутск
иркутска
иркутскои
ирланд
ирланди
ирландин
ирод
ирт
ирте
иртекен
иртере
иртерн
иртет
иртеш
иртмест
иртн
иртне
иртни
иртнине
иртр
иртсе
иртсен
ирттере
ирттерекен
ирттерет
ирттерме
ирттерн
ирттерне
иртыш
ирхи
ирхине
ирышран
ис
исаак
исады
исаев
исаи
исакл
исе
исем
исемпе
исен
исене
исенче
исенчен
исеть
исидор
искандер
искра
искусств
искусства
искусстве
искусство
ислам
ислама
исланди
исмуков
исп
испан
испани
испание
испании
испанин
испанире
испанирен
испанири
испания
исповедь
исполнении
использование
испр
исправленное
исслед
исследование
исследовании
исследования
исследователи
исследователь
исследовательскии
ист
истины
исток
истоки
истоков
истори
историе
истории
историк
историко
историксем
историлл
историлле
историн
историне
историнче
историнчи
историографии
историография
историпе
историре
историри
историческая
исторические
историческии
исторических
исторического
историческое
историческои
историческом
историю
история
источник
источники
источников
истр
истра
истребитель
исхаков
исчезнувших
исчисления
ит
итал
итали
италие
италии
италин
италире
италири
италия
итальян
ите
итеи
ител
итере
итерет
итерме
итерн
итес
итет
ити
итиччен
итм
итме
итмен
итменл
итн
итнине
итоги
итр
итсе
итсен
иуда
иудаизм
иудеи
иудея
их
ич
ичч
иччен
иш
ишев
ишек
ишим
ишимбаи
ишимпаи
ишл
ишлеи
ишсе
июль
июля
июнь
июня
ия
к
ка
кабарда
кабардино
кабелл
кабель
каберне
кабинеч
кав
кава
кавал
кавалер
кавалери
кавалеры
кавар
кавир
кавказ
кавказа
кавказра
кавказри
каган
кадр
каждыи
казак
казаки
казаков
казакова
казан
казани
казанка
казанов
казанова
казанская
казанскии
казанского
казанскои
казань
казах
казахсем
казахстан
казахстана
казахстанра
казахстанри
каи
каир
как
какаи
какая
кал
кала
калабри
калав
калавсем
калавсемпе
калавсен
калакан
калаканниш
калама
калан
калана
калани
каланине
каланипе
каланисем
калар
калас
каласа
каласан
калать
калашников
кале
календар
календарь
калигула
калинин
калининград
калиновка
калифорни
каллех
калм
калныньш
калта
калтаси
калуга
калужскии
калхы
кальвадос
кальк
калькутта
кальман
кальци
кам
кама
камбоджа
каменка
каменныи
каменская
камень
камео
камер
камера
камерун
камикадзе
камиловна
камиль
камит
камич
кампани
камсем
камское
камчатк
камчатка
камышла
кан
канад
канада
канал
канала
канализации
канар
канаш
канаше
канашл
канашлу
канашне
канашри
канд
кандидат
кандидата
кандидач
каникулы
канин
канма
канн
канон
кант
канта
кантон
кантона
кантоне
кантонне
кантонсем
кану
канцлер
канюков
канюкова
кап
капа
капаш
капашл
капитал
капитан
капитана
капица
капк
капла
каплам
каплан
капланч
капсем
капсен
кар
кара
карабах
караван
караганда
караи
карамзин
каран
карап
карапа
карапаш
карапне
карапсем
карапсен
карапсене
карас
караульная
карачаево
карачаи
кардинал
карел
карели
карелия
карен
каренина
кариб
карл
карла
карлик
карло
кармал
карман
кармана
карманне
кармаскал
кармаскали
кармен
карнавал
каролина
карп
карпат
карпов
карпова
карпович
карт
карта
карте
карти
картин
картина
картине
картины
картиш
картла
картография
карточка
картт
картти
карттисем
карты
карфаген
карч
карьера
карьери
карьерине
карягина
кас
касак
касакан
касаксем
касимов
касн
касни
каспи
касса
касси
кастили
кат
катаев
каталог
каталони
катар
катастроф
катастрофа
категори
категорие
категории
категорине
категорисем
категория
катек
катер
катерина
катехизис
кати
католиксем
католици
католицизм
катунь
кать
катэгорыя
катя
кафе
кафедр
кафедра
кафедри
кафедрин
кафедрине
кафедринче
кафедры
ках
каховскии
качаел
качака
качеево
качестве
качч
качча
каш
каша
кашира
кашк
кашни
кашнин
каюра
кая
каякан
каялла
каярах
каярахпа
каяс
каять
каяш
каҫа
кб
кв
квант
квантла
квантовая
квантовои
квартал
квартира
кварц
квас
квебек
квинт
квт
кг
кгб
ке
кеи
кекен
кел
келл
келли
кельт
кем
кембридж
кемерово
кен
кени
кеннеди
кент
кер
керала
керамика
керамики
керенскии
керет
керме
кермен
кермене
керменне
керн
керне
керни
керсе
керу
керч
керче
керчь
кет
кетрен
кеть
кеху
кзыл
ки
кибернетика
кив
киве
кивелн
киги
киев
киеври
кии
кикле
кил
киле
килекен
килет
кили
киличчен
килме
килмен
килн
килне
килни
килнисем
килограмм
километр
километрта
килсе
килсен
килт
килте
килтер
килти
килч
киль
ким
кимми
киммисем
киммисен
кин
кина
кинг
кинель
кинематограф
кинематографи
кинематографистсем
кинематографисч
кино
киноакте
киноальманах
кинокамитсем
кинокамич
кинокомпанисем
кинокомпанисен
кинопа
кинора
кинорежиссе
кинори
киносборник
киностуди
киностудии
киностудин
киностудире
киностудия
кинотеатр
кинотеатре
кинофестивал
кинофильм
кинофильма
кинофильмсем
кинциг
киото
кипек
кипеч
кипр
кир
кира
киргизи
киревс
кирек
киремет
киреметь
кирибати
кирилл
кириллиц
кириллица
кириллов
кириллова
кириллович
кирл
кирле
кирлех
киров
кирп
кирпе
кирпична
кирпичное
кисан
киселе
кит
китае
китаи
китая
китл
кито
кихот
киш
кишине
киі
кк
ккасси
кке
кки
ккинче
ккинчи
ккисем
кл
кла
клава
клавдии
клавдия
кладбище
клаи
клан
кланма
кланн
клара
кларк
клас
класа
класл
класра
класри
класс
класса
классем
классенче
классик
классика
классики
классификаци
классификации
классификация
классицизм
классическая
классических
классическои
классовых
клаус
клах
кле
клев
клевл
клеи
клеме
клементьев
клен
кленет
кленн
клеопатра
клесе
клет
клетк
клетка
клим
климат
климач
климент
климов
клин
клиника
клип
клод
клоун
клуб
клуба
ключ
ключи
клязьма
км
кме
кмк
кн
кне
кни
книг
книга
книгах
книге
книги
книгу
книжки
книжное
книжныи
князев
князь
князя
ко
кобальт
кобра
ков
ковале
ковальчук
ковров
ковскии
когда
код
кодекс
кодекса
кодпа
козлов
козлова
козловскии
кои
кокель
кол
кола
колва
колесников
коллегии
колледж
коллектив
коллекции
коллекция
колмановскии
колмогоров
коломна
колони
колонии
колонисем
колорадо
колос
колумб
колумби
колумбии
колхоз
колхоза
колхозник
колхозра
колчак
колчурино
кольца
кольцо
кольцов
коля
ком
кома
команд
команда
команди
командин
командир
командира
командирне
командор
командующии
комаров
комарова
комбинат
комбинач
комеди
комедии
комедия
комендант
комет
комета
коми
комиссар
комиссаров
комисси
комиссии
комиссин
комиссия
комитет
комитета
комитетне
комитеч
комм
коммент
комментарии
комментарисем
коммерсантъ
коммерци
коммерцилл
коммерцилле
коммун
коммуна
коммунар
коммуни
коммунизм
коммунисем
коммунист
коммунистсен
коммунисч
коммуны
комор
компани
компание
компании
компанин
компанине
компанисем
компанисен
компания
компас
комплекс
комплексл
комплексне
композитор
композитора
композиторсем
композици
композиции
компонент
компоненч
компьютер
компьютерпа
компьютерсем
комсомол
комсомолец
комсомольская
комсомольски
комсорг
кон
конан
конвеи
конвенции
конвенция
конвои
конго
конгрес
конгресс
конда
кондитер
кондома
кондратьев
кондратьева
кондратьевич
конев
конец
конимсемпе
конкурс
конкурса
коновалов
конольфинген
кононов
конрад
консерваторинче
конспект
констант
константин
константина
константинов
константинович
константиновна
константинополь
константт
конституци
конституции
конституцин
конституцине
конституционное
конституционному
конструктор
конструкци
конструкции
консул
консулсем
консультант
контакты
контеи
контексте
континент
континентл
континентсем
континентсемпе
континенч
контр
контракт
конур
конус
конф
конференци
конференции
конференцинче
конференция
конфесси
конфессиональная
конца
конце
концепции
концепцине
концепция
концерн
концерт
концертсем
концерч
кончаловскии
коньяк
кооператив
координатсем
координатсен
координач
коп
копенгаген
копия
кор
кора
корабли
корабль
коралл
кореи
корень
корея
кормухина
корн
корнеи
корнелии
корни
корнилов
корол
короле
королев
королева
королевы
короли
королл
король
короля
коротаева
короткометражка
короткометражныи
корпус
корпусне
корреспондент
корреспонденч
корсаков
корсика
кортес
коршунов
кос
коса
космологи
космонавт
космонавтика
космонавч
космос
космоса
космосл
космосран
косово
коста
косте
кострома
костюм
костюмер
костя
кот
котлеев
котовскии
которая
которого
которои
которые
которыи
которых
кофе
коч
кочетков
кошкин
кошкинскии
коэффициенч
кп
кпа
кпе
кпсс
кр
кра
кравченко
крае
краеведени
краеведческии
краи
краков
кран
красавица
красная
красноармеец
красноармеи
краснов
краснова
красного
краснодар
красное
краснои
красномаи
красноярск
красные
красныи
красоты
кратер
краткая
краткии
крах
краю
края
кре
кредит
креи
кремл
кремле
кремль
кремля
кремни
крен
крепость
крест
крех
крешш
кри
кризис
крик
криминал
крис
кристалл
кристиан
кристина
кристофер
крит
критик
критика
крови
кровь
крокодил
кроме
кронштадт
круг
кругосвет
кружилин
крузо
крупнеи
крутои
крылов
крылова
крылья
крым
крыма
крымра
крымри
крю
крюков
крючков
крючкова
кс
ксе
ксем
ксемпе
ксен
ксене
ксения
ксенофонтов
ксенче
ксенчен
ксыл
кто
ку
куб
куба
кубань
кубен
кубла
кубок
кувеи
кудрявцев
кузнецов
кузнецова
кузьма
кузьмин
кузьмина
кузьминична
кузьмич
куи
кук
кука
кукам
кукамаи
кукарча
кукк
куккук
кул
куланаи
кулешов
куликов
куллен
кулленхи
куль
культ
культовая
культур
культура
культуре
культури
культурин
культурине
культурипе
культурисем
культурная
культурно
культурного
культурное
культурныи
культурологи
культуру
культуры
кум
кума
кумена
кун
куна
кунах
кунашкал
куне
кунне
кунпа
кунран
кунс
кунсем
кунсерен
кунт
кунта
кунтан
кунтах
кунти
кунччен
кунчченех
куп
купала
купаласа
купер
купол
купрат
куприенко
купрієнко
купса
купташки
кур
кура
курав
куравле
кураев
кураева
кураи
курак
куракан
куракансем
куракьел
курас
курасси
куратп
курать
кураҫҫе
курган
кури
курил
курма
курмалла
курмалли
курман
курн
курна
курнав
курни
курнине
курорт
курорч
курочкин
курс
курса
курсан
курск
курсне
курт
курчатов
курш
курьер
куславка
куславкка
куснар
куст
куста
кустантин
кут
кутузов
кутулук
кутуньо
кухни
кухнь
кухня
кушак
кушаке
кушаксен
кушан
кушар
кушк
кушки
кушлав
кушнаренко
куюрка
куҫарна
куҫна
кхдр
кхи
кхр
кш
кызыл
кэтрин
кюри
л
ла
лаба
лабиринт
лаборатори
лаборатории
лав
лава
лаве
лавка
лавкасем
лавкка
лавкки
лавла
лавне
лавра
лаврентии
лавров
лавры
лавсем
лавсене
лагер
лагере
лагерь
ладога
лазарев
лазарь
лазер
лаи
лак
лакан
лакасси
лам
лама
ламалли
лан
лана
ланакан
ланать
лангедок
ланд
ландау
ландшафт
лани
ланине
ланипе
ланисем
ланк
ланка
ланма
ланн
ланни
ланса
лансан
лану
лао
лаос
лап
лапа
лапам
лапк
лаппи
лапсар
лапт
лапта
лаптак
лапу
лар
лара
ларав
ларакан
ларас
ларасси
ларать
лари
ларионов
лариса
ларма
лармалли
ларман
ларн
ларна
ларни
ларнине
ларнисем
ларри
ларса
ларсан
ларта
лартакан
лартать
лартма
лартмалла
лартмалли
лартн
лартна
лартни
лартса
лартсан
лару
лас
ласа
ласан
ласем
ласси
лат
латви
латин
латиниц
латиница
латинла
латинскии
латн
латни
латтин
латук
латыш
лать
лаура
лауреат
лауреач
лауреаче
лах
лацис
лачака
лаш
лаша
лашасем
лаши
лаштарн
лаштарса
лашул
лая
ле
лебедев
лебедева
лебедь
лев
левиафан
левин
левина
левитан
левл
левне
левс
легенда
легенды
легион
леди
леи
лек
леке
лекен
лекенсем
лекенсен
лекет
лекн
лексен
лексик
лексика
лексики
лексикологи
лекции
лекцисем
лекция
лелле
лем
леме
лемелле
лемелли
лемен
лемест
лемур
лен
лена
ленд
лене
ленет
лени
лениздат
ленин
ленина
ленинград
ленинграда
ленинградра
ленинградри
ленинградского
ленине
лениногорск
ленме
ленн
ленне
ленсе
ленсем
ленсен
ленскии
лента
лентул
лену
ленфильм
ленче
ленчи
лео
леон
леонард
леонардо
леонид
леонидович
леонидовна
леонов
леонтии
леонтьев
леонтьевич
лепе
лепи
лепид
лер
лере
лерет
лерех
лерме
лермонтов
лерн
лерне
лерни
лерсе
леру
лес
леса
лесе
лесен
лесная
леснои
лесси
лет
лета
летию
летия
летке
леткесем
летки
леткин
леткине
летнии
лето
летопись
летучая
летчик
лех
леш
лешсем
лешьен
ли
либо
либретто
ливан
ливанов
ливи
ливии
лига
лида
лидер
лидия
лиза
лии
лик
лили
лилия
лиман
лин
лина
лингве
лингвистик
лингвистика
лингвистическии
лине
линеи
лини
линии
линилл
линилле
линия
линкольн
линкор
линнеи
лион
липе
липецк
лира
лирик
лирика
лис
лисем
лисен
лисене
лисина
лист
листе
листы
лисч
лит
литва
литван
литератур
литература
литературе
литератури
литературин
литературине
литературинче
литературная
литературного
литературное
литературнои
литературные
литературныи
литературных
литературовед
литературы
литографи
литр
лифшиц
лихтенштеи
лиц
лица
лицеи
лицо
личности
личность
лия
лк
лка
лкан
лке
лки
лкин
лкипе
лку
лкуҫе
лл
лла
ллакан
ллан
ллать
лле
ллев
ллеве
ллевл
ллевпе
ллевч
ллекен
ллен
ллехи
лли
ллин
ллине
ллинчен
ллисем
лм
лма
лмак
лман
лмач
лмачсем
лме
лмек
лмекне
лмел
лмен
лмест
лми
лн
лна
лне
лнелле
лни
лнине
лнипе
лнисем
ло
лобачевскии
лов
лова
лович
ловка
ловна
лово
ловскии
логарифм
логик
логика
логинов
логос
логотип
ложь
лои
лок
локе
локомотив
ломбарди
ломоносов
лонг
лондон
лондона
лондонра
лондонри
лор
лорд
лоренц
лос
лосев
лотаринги
лоуренс
лох
лпа
лпе
лпу
лпулу
лс
лса
лсан
лсе
лсем
лсен
лсене
лт
лта
лтав
лтавл
лтавпа
лтавсем
лтавсене
лтан
лте
лтен
лтер
лтере
лтерекен
лтерет
лтерме
лтерн
лтерне
лтерни
лтернипе
лтерсе
лтеру
лти
лу
луар
луара
лувр
лугано
луганск
луза
луи
луиза
луизиана
луис
лука
луки
лукин
лукич
луков
лукьянов
лун
луна
луначарскии
луне
луны
лутра
луции
лучшая
лучше
лучшие
лучшии
лх
лха
лхав
лхава
лхавне
лхавсем
лханн
лхар
лхара
лхари
лхарсем
лхарсемпе
лхарсен
лхарсене
лхах
лхе
лхелл
лхем
лхен
лхене
лхепе
лхере
лхерен
лхери
лхесем
лхесемпе
лхесен
лхесене
лхесенче
лхесенчен
лхи
лхилл
лхин
лхине
лхинче
лхинчен
лхинчи
лхипе
лхисем
лхисемпе
лхисен
лхисене
лхисенче
лхисенчен
лч
лча
лчан
лчанла
лчансем
лчансемпе
лчансен
лчечек
лы
лые
лыи
ль
льва
львов
львович
львів
льман
льмансем
льн
льюис
лю
люба
любви
любек
любимая
любимов
любимыи
любить
любкер
люблю
любовь
любовью
людвиг
людеи
люди
людина
людини
людмила
людовик
люк
люксембург
люмьер
люси
люся
лютер
лютерансем
люцерн
ля
лямин
м
ма
маас
мавзолеи
магадан
магазин
магистр
магистрал
магистраль
магнетизм
магни
магнит
магнитла
магницкии
мадагаскар
мадагаскарти
мадам
мадрид
мадуров
мажор
мазур
маи
мак
мака
макар
макаров
макарова
макарович
македон
македони
македонскии
маки
макиавелли
макимов
макс
максвелл
максим
максима
максимилиан
максимов
максимова
максимович
мал
мала
малаи
малалал
малалла
малалли
маларах
малашл
малашне
малашнехи
малая
маленькая
маленькии
мали
малка
малла
малли
мало
малов
малое
малонисогорская
малс
малта
малтан
малтанах
малтанхи
малти
малые
малыи
малышев
мальбек
мальта
мальцев
мальчик
мам
мама
мамаи
мамак
мами
мамыково
ман
мана
мани
манис
манн
манни
манса
манси
мансуров
манхэттен
манш
маныч
маньчжур
мао
мар
мара
марат
марафон
маргарет
маргарита
марго
мари
марии
марина
марино
марио
марисем
мария
марк
марка
марки
маркиз
маркк
маркки
марко
марков
маркова
маркович
марковои
маркс
марксизм
марл
марна
марокко
марри
марс
марсель
март
марта
мартин
мартина
мартинсон
мартисем
мартынов
маруся
марфа
марш
маршал
маршала
маршалл
маршрут
маршрута
маршруч
марья
мас
масар
маска
маскарад
маслов
маслова
масс
масса
массачусетс
масси
массив
мастер
мастера
масть
мат
матак
матаки
матвеев
матвеева
матвеевич
матвеи
матем
математик
математика
математике
математики
математиксем
математическая
математические
математическии
математических
математического
математическое
математическои
матери
материал
материала
материалам
материале
материалл
материалов
материалсем
материалсен
материалсене
материалы
материальная
материк
матре
матриц
матрица
матрос
матросов
маттур
матч
мать
мах
маха
махачкала
махе
махл
махмуд
махне
махно
махпа
махран
махсар
махсарсем
махсем
махсемпе
махсен
махсене
махсенче
махсенчен
мачта
маччи
маша
машин
машина
машини
машиностроение
машшын
мая
маяк
маяковскии
маятник
мвд
мвт
мг
мгу
мгц
ме
мег
мегафон
мед
медал
медале
медали
медаль
медальне
медальпе
медальсем
медальсене
медведев
медведева
медведица
медиа
медик
медицин
медицина
медицини
медицинская
медичи
медсестра
межвузовскии
между
междунар
международная
международного
международное
международнои
международные
международныи
межэтнические
мезень
меи
мекленбург
мексик
мексика
мел
меле
мелекес
мелеу
мелл
мелле
мелли
мелодии
мелодия
мелодрама
мелпе
мельес
мельников
мемориал
мемуары
мен
менделеев
мендельсон
мене
менеджмент
менича
менко
менча
менчи
мень
меньшиков
меня
мер
меречен
мерида
мерло
мероприятисем
мерчен
мес
месем
меслет
меслете
меслетпе
меслетсем
меслетсемпе
меслеч
меслече
месопотами
мест
места
месте
местного
место
месть
месяц
мет
мета
метал
металл
металла
металлурги
металсем
метафизика
метеорологи
метод
методика
методики
методические
методы
метр
метра
метрик
метрика
метро
метрологи
метрополитен
метртан
мефодии
мефодьев
механиз
механизм
механик
механика
механики
мехико
меч
меча
мечет
мечта
мечты
меш
ми
миасс
миг
микеланджело
микки
микрораи
микротопонимсем
микулаи
микули
мил
милан
милици
милиции
милиционер
миллер
милли
миллиард
миллион
миллиона
миллионер
милыи
мильон
мин
мина
мине
минерал
минералсем
мини
минист
министерства
министерстви
министерствин
министерство
министр
министра
министров
министрсен
миноме
минск
минус
минусл
минут
минутра
миньон
мир
мира
мираж
мире
мирл
мировая
мирового
мировои
миронов
миронова
миронович
мисем
мисима
мисс
миссионер
миссис
миссисипи
миссия
миссури
мистер
митридат
митрополит
митрофан
митрофанович
митта
миттов
митя
миф
мифологи
мифологии
мифология
мифы
мих
миха
михаи
михаил
михаила
михалков
михеев
михлеев
мич
мичиган
мичман
мичурин
миша
мишель
мишер
мишки
мишши
мишшин
мияки
миякинскии
мк
мкасси
мкин
мл
мла
младшии
млан
млах
мле
млекопитающие
млет
млетн
млету
млн
млрд
мм
мма
мми
ммин
ммисем
мн
мне
много
множеств
мнои
мо
мов
мови
могила
могиле
могут
мода
модел
модели
модель
модельсем
модерн
модернизм
модул
модуль
моды
мое
моеи
можаи
может
можете
можно
мозамбик
мозель
мои
моисеев
моисеевич
моисеи
мокшино
мол
молдави
молдова
молекул
молекула
молекулярная
моллюск
молога
молодая
молоде
молодои
молодость
молодых
молома
молотов
моль
мольер
момент
мон
мона
монако
монарх
монархи
монархсем
монастырь
монастыря
монах
монг
монгол
монголи
монголсем
монголсен
монографи
монографисем
монографическое
монография
монреаль
монтаж
монтаже
монтан
монте
морави
мораль
моргаушскии
мордва
мордвасем
мордухаи
море
морис
морисси
мороз
морозов
морозова
морские
морского
морскои
морфем
морфема
морфологи
морфологии
морфология
моря
моряк
моск
москва
москве
москву
москвы
московская
московские
московскии
московского
московскои
моссовет
мост
мосты
мосфильм
мосфильма
мотив
мотивы
мотоперев
моторлан
мотострелок
мотоцикл
моцарт
мошкова
моя
мп
мпа
мпасем
мпе
мпех
мпи
мпу
мр
мра
мрамор
мран
мрах
мре
мрен
мри
мс
мса
мсалл
мсан
мсах
мсе
мсем
мсемпе
мсен
мсене
мсенче
мсенчен
мси
мстислав
мтс
му
муж
мужик
мужская
мужские
мужчина
мужчины
муз
музее
музеи
музея
музык
музыка
музыкальная
музыкальныи
музыкант
музыканты
музыки
музыку
мул
мулен
мулкач
мультипликаци
мультфильм
мультфильмсем
мультфильмы
муниципалитет
муниципалл
муниципального
муниципальных
мунча
мур
муравье
муратов
муркаш
мурман
мурманск
мус
муса
мускав
мускава
мускавпа
мускавра
мускавран
мускаври
мускат
мустафа
мухаммад
мухаммед
мухин
мухтав
мухтавл
мучар
мучи
мушкете
мфти
мха
мхат
мцнмо
мч
мшеш
мы
мыр
мысли
мысль
мышь
мьянма
мэи
мэн
мэр
мэри
мэрии
мюзик
мюзикл
мюллер
мюнстер
мюнхен
мюнхенри
н
на
набережная
нав
навигационные
навч
награда
наградами
награднои
наградном
наградные
награды
награжде
награждении
над
надежда
надежды
надо
надым
надя
назад
назаров
назарова
название
названии
названия
назым
наи
наиболее
накан
накансем
накансен
накансене
накануне
налук
нальчик
нам
нама
нами
намиби
нан
нана
нани
наполеон
наполеона
например
нар
нара
нарва
наре
нарк
нарка
нарл
нарлан
нарлать
нарне
народ
народа
народная
народного
народное
народнои
народные
народныи
народных
народов
народу
народы
нарсем
нарсене
нарспи
нас
наса
насан
населе
население
населения
населенных
насем
наследие
наследия
наследники
насси
наст
настоящее
настоящем
настя
нат
натали
наталия
наталья
наташа
натри
натуралл
нать
наук
наука
наукам
науке
науки
наукова
наум
наумов
наумова
наумович
науч
научн
научная
научно
научного
научное
научнои
научные
научныи
научных
наушои
нах
находится
находка
нац
наци
нации
нацил
нацилле
нацин
национальная
национально
национального
национальнои
национальностеи
национальные
национальныи
национальных
нацисен
начал
начала
начале
начало
начальник
начальствующему
начар
начинается
наш
наша
наше
нашего
нашеи
наши
наших
ная
наҫҫе
нберг
нвар
нгарка
ндр
не
неаполь
небо
нева
невеста
невскии
него
недели
неделя
недра
нее
неи
неизвестныи
некасси
неке
некен
некене
некере
некесем
некесен
некесене
некесенче
неки
некин
некине
некинче
некисем
некисен
некисене
неккар
некоторые
некоторых
некрасов
некрасова
некролог
нелинеи
нелле
нелли
нельзя
нельсон
нем
неман
немецкии
немецкого
немцев
немцы
нен
нене
ненец
нену
неолит
неон
неопр
непал
нептун
нер
нерв
нере
неретниеце
нерл
нерлекен
нерлен
нерль
нерне
нерон
нерпе
нерпу
нерте
нерти
нерҫе
нерҫи
нес
несе
несколько
нестер
нестеров
нестерова
нестор
нет
нетн
нетсе
нету
нефертити
нефтеюганск
нефть
нефтьпе
нех
нехт
ни
ниагара
нигер
нигери
нигсберг
нидда
нидерл
нидерланд
нидерландсем
нидерландсен
нидерланды
ние
ниже
нижегородскои
нижнее
нижние
нижнии
нижняя
нии
ник
ника
никам
никама
никарагуа
нике
ники
никита
никитин
никитина
никитич
никитович
никифор
никифоров
никифорова
никифорович
никколо
ников
никогда
никола
николаев
николаева
николаевич
николаевка
николаевна
николаенко
николаи
николая
никольскии
никто
никулин
нил
ним
ниме
нимле
нин
нина
нине
нинчен
нипе
нисем
нисене
нисеп
них
ница
ницше
ничего
нк
нка
нквд
нкун
нл
нла
нлав
нлава
нлавпа
нлавсем
нлавсене
нлавсенчен
нлан
нлана
нланд
нланма
нланмалла
нланса
нлантаракан
нлантарма
нлантарн
нлантарни
нлантарса
нлантару
нласа
нле
нлисен
нм
нма
нмал
нмалла
нмалли
нман
нманл
нманни
нмас
нмасть
нме
нмелле
нмен
нми
нн
нна
нная
нне
нни
ннин
ннине
ннипе
ннипех
ннисем
нного
ннои
нные
нныи
нных
но
нобель
нов
нова
новая
новгород
новеи
новелл
новелла
новиков
новикова
новицкого
нович
новна
ново
нового
новодевичье
новое
новои
новороссии
новосибирск
новостеи
новости
новые
новыи
новым
новых
ногаи
ногинск
ного
ное
нои
нок
ноль
ном
номер
номерл
номером
номиналл
номинацире
нон
нор
нора
норвег
норвеги
норвегин
норд
норм
норма
норман
норманди
ночи
ночнои
ночь
ночью
нояб
ноябрь
ноября
нпа
нпе
нпур
нра
нран
нре
нрех
нри
нс
нса
нсан
нсе
нсем
нсемпе
нсен
нсене
нсенче
нська
нськоі
нт
нта
нтал
нтан
нтанпа
нтар
нтара
нтаракан
нтарать
нтарма
нтарн
нтарни
нтарса
нтах
нтв
нте
нтер
нтере
нтереи
нтерет
нтерм
нтерме
нтерн
нтерни
нтерсе
нтерсен
нтеру
нти
нтр
ну
нуар
нугуш
нужно
нук
нуклид
нуклич
нуклонсар
нуклонсарла
нул
нулл
нуль
нум
нумаи
нумаях
нур
нура
нуриман
нурлат
нус
нусем
нусен
нусене
нухаи
нухрат
нхи
нхир
нц
нч
нча
нче
нчел
нчен
нчене
нченпе
нчере
нчерен
нчери
нчех
нчи
нчин
нчине
нчинче
нчипе
нчипех
нчисем
нш
нше
нштеи
нъял
ны
ные
ныи
ных
нь
нью
ньютон
ньял
нюра
нюрнберг
о
оазис
оао
об
обеспечению
обзор
обком
обл
обла
области
область
облаҫе
ободзинскии
обозрение
оборона
обороны
образ
образование
образовании
образования
образовательныи
обращения
обряды
обсерватории
обсуждение
обучения
общ
общая
общеи
общения
обществ
общества
обществе
общественно
общественного
общественное
общественные
общественныи
общество
общие
общии
община
общини
объе
объект
объекта
объектов
объектсем
объектсен
объектсене
объекты
объекч
обыкновенная
обыкновенныи
обь
обьсалехард
ова
овидии
овчинников
ога
огаи
огиз
оглы
огне
огни
огня
огоне
огонь
огуз
огюст
од
одер
одесс
одесса
один
одна
однажды
однако
одно
одного
однои
одном
одри
ожегов
оз
озвучил
озе
озера
озеро
озеф
ои
ок
ока
окато
океан
океана
океане
океани
океанне
океанри
оки
оккупацилен
около
округ
округа
округне
округов
оксана
оксич
оксфорд
окт
октавиан
октябрь
октябрьски
октябрьскии
октября
окуджава
ол
ола
оле
олег
олега
олеся
оливье
олимп
олимпиада
олимпии
олма
ольга
ольги
оля
ом
оман
омега
омон
омск
омь
он
она
оне
онега
онегин
они
оникс
онлаи
онн
онне
оно
онов
онсем
онсене
онта
онтарио
онти
ону
оон
ооо
оп
опер
опера
оперативл
оператор
операторсем
операци
операцие
операции
операцине
операцинче
операцисем
операцисене
операция
оперетта
опери
оперин
оперы
описание
описания
опись
определение
определения
определитель
оптик
оптика
опубликован
опубликования
опубликовано
опыт
опять
ор
орбит
орбита
орган
организ
организаци
организации
организацин
организацисем
организация
организм
организма
организмсем
организмсен
органик
органика
органов
органсем
орден
ордена
ордене
орденне
орды
оре
оренбург
оренбургскои
орест
орехово
оригинал
оринов
орк
оркестр
оркестром
оркра
оркри
орлеан
орлов
орлова
орловка
оруди
орудин
оружие
оружия
орфеи
орфографи
орфографии
орхидеи
орша
ос
осака
освобождение
осень
осети
осетин
осиновка
осип
осипов
осипова
осипович
оскар
осло
осман
основа
основания
основе
основные
основы
особенности
остин
остров
острова
островскии
от
отв
ответы
отд
отдел
отдела
отделени
отделение
отделенин
отелло
отель
отец
отечества
отечественная
отечественного
отечественнои
отечественные
открытие
открытии
открытия
открытое
отличник
относительности
отношение
отношении
отношения
отпишитесь
отра
отражение
отряд
отряда
отряч
отставк
отто
отца
отче
отчет
офис
офицер
офицерсем
офицерскому
официалл
официалла
официальная
официального
официальном
официальныи
официант
офорт
оффис
охота
охотник
оценка
очаги
очень
очерк
очерки
очерксем
ош
ошибка
ошкар
ою
п
па
пав
павел
павильон
павл
павла
павлов
павлова
павлович
павловка
павловна
павлово
павлодар
падеж
падение
паи
пак
пакистан
пакша
пал
пала
палан
паланла
палартн
палата
палатин
палеолит
палестин
палестина
палл
палла
паллах
паллашать
паллашма
паллашн
палли
паллин
паллине
паллинчен
паллипе
паллисем
паллисемпе
паллисен
паллисене
палтиел
пальма
пама
памалла
паман
памасть
памир
памяти
памятник
памятники
памятников
памятные
память
пан
пана
панама
пани
панин
панине
панипе
панк
панорама
панорами
пантелеи
пантеон
панулми
панфилов
пап
папа
паппи
папуа
пар
пара
парагваи
парад
паракан
параллелл
парамет
параметр
параметров
парамонов
параппан
парас
парасси
парать
парач
параҫҫе
парень
париж
парижа
парижра
парижран
парижри
парикмахер
парис
париса
парисра
парисре
парисри
парк
парка
парке
парламент
парламенч
парма
парн
парне
парнелев
парнелен
парнене
парнесем
парнесемпе
парни
парнин
парнине
парнипе
парнисем
паром
парса
парсан
парта
парти
партизан
партизансем
партии
партин
партине
партисем
партма
партн
партне
партни
парторг
партса
пархатарл
пархи
пархоменко
пас
пасар
пасарл
пасарла
паскаль
пасна
паспорт
паспортра
паспортри
паспорч
пассажир
пассажирка
пастернак
пат
пата
пате
патент
патирек
патне
патнелле
патра
патракл
патри
патриарх
патрик
патриции
патт
патта
паттар
патша
патшал
патшала
патшалах
патшан
патшана
патшасем
патшасен
патши
патшин
патшине
патшисем
патшисен
паулу
пауль
пах
паха
пахал
пахала
пахмутова
пахча
пахчари
пахчи
пач
пачах
паша
паюта
пая
паян
паянкун
паянкуна
паянкунхи
паянхи
пб
пво
пвс
пг
пе
певец
певица
пед
педагог
педагогика
педагогики
педагогического
педагогсем
педро
пеи
пек
пекех
пекин
пекрех
пел
пелепее
пелепеи
пеме
пен
пене
пенз
пенза
пензенская
пенсильвани
пер
первая
первого
первое
первои
первом
первомаи
первые
первыи
первых
пере
перев
перевод
перевода
переводе
переводчик
переводы
перед
передач
передача
передачи
передняя
переи
переизд
перекет
перен
перенаправление
переписи
переписка
перепись
перераб
перестрои
переулок
перечень
пери
период
периода
периодик
пермь
перне
пернет
перни
пернии
пернин
пернине
пернинче
пернинчи
пернисем
перро
перс
персе
персеи
персем
перси
персона
персонаж
персонажсем
персоналии
перспективы
перссем
перу
песен
песков
песни
песнь
песня
пет
петер
петербург
петербурга
петербурге
петербургра
петербургри
петр
петра
петренко
петров
петрова
петрович
петровка
петровна
петровская
петровски
петровскии
петроград
петрозаводск
петропавловск
петя
пех
пехил
пехот
пехота
печати
печор
печора
пи
пианист
пижма
пии
пик
пике
пикенет
пикенн
пикшик
пил
пиле
пилеш
пилл
пилот
пим
пин
пине
пинл
пинн
пинрен
пиньинь
пионер
пир
пирамид
пирамида
пират
пиратсем
пирваи
пире
пиренеи
пирки
пирогов
писателе
писателеи
писатели
писатель
писателя
писем
письма
письменности
письменность
письмо
пит
пите
питер
питех
питл
пифагор
пич
пичет
пичете
пичетле
пичетлеме
пичетлен
пичетлене
пичетленет
пичетленн
пичетленсе
пичетлесе
пичетлет
пичетре
пичетрен
пичкере
пичч
пичче
пишпу
пк
пка
пке
пкп
пкс
пл
пла
плазма
плакат
план
плана
планет
планета
планиметри
планк
планне
пласа
пластик
платина
плато
платон
платона
платонов
платформ
платформа
платформи
пле
плебеи
пленн
пленсе
плете
плетекен
плетет
плетме
плетмен
плетн
плетне
плетсе
плету
пловдив
плотников
площади
площадь
плутарх
плутон
плюс
плюсл
пляж
пне
пневматика
пни
пно
по
побег
победа
победу
победы
повар
пове
поведение
поведения
поверхностных
повести
повесть
поводу
поволжье
поволжья
поворот
погодин
под
подарок
подбассеи
подборка
подвиг
подгот
подготовка
подполковник
подробная
подруга
пое
поезд
поезда
поездка
пожалуи
позвоночные
позици
позиции
позкарта
познания
пои
поиск
поисках
поиски
пока
покровка
покровскии
пол
поле
полевая
полевои
полигон
полина
полином
полипов
политбюро
политехника
политиздат
политик
политика
политике
политики
политикин
политикине
политиксем
политическая
политические
политическии
политических
политическои
политолог
политологи
политрук
полицеи
полици
полиции
полк
полка
полковник
полковника
полная
полное
полныи
поло
половина
половине
половины
положение
полоцк
полтава
полуи
полхар
поль
польш
польша
полюс
поля
поляк
поляков
поляксем
поляксен
поляна
поляр
померани
помещик
помощи
помощник
помощь
помощью
помпеи
понимание
пономаре
понтон
понятие
понятии
понятия
поп
попечителеи
попов
попова
популярл
популярная
популярныи
попытка
порт
портал
портале
порталта
портнов
портр
портрет
портреты
портреч
портсем
португал
португали
поручик
порфирии
порфирьевич
порч
порче
порядка
порядок
посад
посвяще
посвященнои
посвященныи
посе
поселение
поселении
поселения
поселок
после
последнее
последние
последнии
последняя
последствия
пособие
пособии
посол
поспелов
пост
постановка
постановление
постановщик
постран
постчен
посуда
посібник
потапов
поте
потенциал
поттер
похви
похищение
поход
похождения
похороны
поцелуи
поче
почему
почт
почта
почти
поэзи
поэзии
поэзия
поэм
поэма
поэми
поэмине
поэмы
поэт
поэта
поэтика
поэч
пп
ппи
ппипех
пписем
пписене
пр
пра
прав
права
правда
прави
правил
правила
правин
правине
прависене
правители
правительств
правительства
правительстви
правительствин
правительствине
правительство
правлени
правлении
право
православи
православие
православии
православная
православнои
православныи
праву
праг
прага
прадеш
праздник
праздники
праи
практ
практик
практика
практики
практическои
пралл
пралук
прапорщик
прасем
праски
прасковья
пре
предания
предисл
предисловие
предков
предложения
предприяти
предприятии
предприятисем
председател
председателе
председатель
президент
президента
президентне
президентсен
президенч
президенче
президиум
президиума
прекрасная
прел
преми
премии
премин
премине
премисем
премия
премьер
премьера
премьери
прен
преподавания
преподаватель
преподобныи
пресмыкающиеся
пресс
пресса
преступление
префектура
префектури
префикс
при
приангарья
прибор
приволжского
прие
приз
приказ
прикладная
прикладнои
приключени
приключения
прил
приложение
приложения
прим
применение
применения
примере
примерно
примеч
примечания
прине
принц
принцесса
принцип
принципы
припять
природа
природе
природы
присвоении
присвоено
присем
притчи
приуралье
приуралья
прихут
про
проблем
проблема
проблеме
проблемы
прованс
проверено
провинци
провинции
провинцин
провинцине
провинцинче
провинцинчи
провинцисем
программ
программа
программе
программи
программине
программипе
программы
прогресс
продавец
продавщица
продолжение
продукци
продукч
продюсер
продюсерсем
проезд
проект
проекта
проекте
проектирование
проектне
проектсем
проекту
проекч
проз
проза
прозаик
прозы
прои
произведении
произведения
производства
производство
происхождение
происхождении
происхождения
происшествие
проконсул
прокопии
прокопьев
прокопьева
прокопьевич
прокофьев
прокофьевич
прокурор
пролив
пром
прометеи
промы
промышленности
промышленность
пропаганда
просвещение
просвещения
просмотр
проспект
проспекч
просто
пространства
пространстве
пространство
протазанов
протестант
против
протоиереи
протока
протокол
протон
прототип
проф
професси
профессии
профессилл
профессилле
профессине
профессионал
профессисем
профессисемпе
профессор
профессора
профессоре
профилактика
профиль
прохор
прохоров
процент
процес
процесс
процесса
процессе
процессов
процессы
прошкин
прошлого
прошлое
прощаи
прусси
пс
пса
псевдоним
псем
психика
психолог
психологи
психологии
психология
псков
псоу
пт
птиц
птица
птицы
птолемеи
птушко
пу
публ
публии
публикации
публикацисем
публикация
публицист
публицистика
публицисч
пугаче
пугачев
пуговкин
пуи
пукан
пукане
пукрав
пул
пула
пулаи
пулакан
пулас
пуласл
пуласси
пулат
пулать
пулаясл
пулаҫҫе
пулеме
пулин
пулла
пулма
пулмалла
пулман
пулмасан
пулмасть
пулн
пулна
пулни
пулнине
пулнипе
пулнисем
пулса
пулсан
пулт
пултара
пултараи
пултаракан
пултарат
пултарать
пултараҫҫе
пултарн
пултарна
пултарни
пултарнине
пултару
пултарул
пултарула
пултарулл
пултарулла
пултатарть
пулу
пулх
пулч
пуль
пульниц
пульници
пункт
пунктов
пункты
пункч
пупле
пуплев
пуплер
пур
пура
пурин
пуринчен
пурл
пурла
пурн
пурна
пурнакан
пурнать
пурне
пурп
пурри
пуррине
пуррипе
пурт
пурте
пурчуваши
пус
пуса
пусарн
пусать
пусм
пусма
пусми
пусн
пусса
пусть
пут
путарн
путеводитель
путене
путешествие
путешествии
путешествия
пути
путин
путина
путл
путн
путь
пух
пуха
пухакан
пухать
пухма
пухмач
пухн
пухса
пухтел
пуху
пуххи
пуххине
пуххисем
пуш
пушар
пушк
пушкин
пушкина
пушмак
пушхир
пуэрто
пуян
пуянкасси
пуянл
пуҫ
пуҫла
пуҫлама
пуҫлана
пуҫланна
пуҫласа
пуҫне
пфальц
пх
пхк
пху
пхули
пциг
пч
пчак
пчаксем
пче
пчев
пчеве
пчевлену
пчевсем
пчекен
пчеме
пчен
пчени
пченипе
пчес
пчесе
пчет
пш
пшанк
пыжиков
пыи
пыл
пылак
пылакс
пыма
пымак
пымалли
пын
пына
пыни
пынине
пынипе
пыр
пыра
пыракан
пыракансем
пырас
пырать
пырса
пырсан
пырш
пыс
пыса
пытанса
пытарма
пытарн
пытарнисем
пышм
пьемонт
пьер
пьес
пьеса
пьесе
пьеси
пьесине
пьесипе
пьесисем
пьесы
пяти
пятиязычныи
пятыи
пять
р
ра
рабинович
рабовладельческои
работ
работа
работе
работник
работы
рабочи
рабочии
рав
равенна
равус
ради
радиаци
радио
радиоактивл
радиобиологи
радиов
радиокала
радиопа
радиостанции
радиостанцисем
радиотехника
радиохастар
радист
радисч
радиус
радищев
радон
радости
радуга
раз
разбитых
разбои
разведка
разведки
разведчик
развитие
развитии
развития
разговор
раздел
разин
различных
размышления
разные
разных
разъезче
раи
раиса
рак
рака
ракалл
ракан
ракет
ракета
ракети
ракеты
ралла
рам
ран
рана
ранг
рангри
ранее
раннего
ранняя
ранпа
ранса
рансем
рансен
рансене
рантаракан
рантарать
рантарн
ранхи
ранч
рар
рара
рарах
рас
раса
расизм
распространение
распутин
рассвет
расселение
расселения
расси
рассказ
рассказы
рассоха
растении
растения
расче
рат
рата
ратать
ратин
ратма
ратн
ратне
ратса
ратуша
рать
раф
рафаэль
рах
раха
рахакан
рахать
рахимов
рахма
рахман
рахн
рахса
рахут
рационалл
рач
рача
раче
рачинскии
рачкав
раш
рашид
раштав
раштавра
рая
раҫҫе
раҫҫеи
рб
рбк
рв
рваш
рвун
рггу
ре
реактор
реакци
реакции
реализм
реальность
реальныи
ребе
ребята
рев
ревизор
ревл
револьвер
революци
революции
революцилл
революцин
революцине
революционер
революциччен
революцичченхи
революция
регент
регион
региона
региональная
региональнои
регионе
регионне
регионри
регионсем
регионсемпе
регистр
регистрацилен
ред
редактор
редакци
редакциеи
редакции
редакцилен
редакция
редкол
редколлегия
реест
реестр
реж
режим
режиссе
режиссер
резеда
резерв
резиденции
результат
результаты
резус
реи
рек
река
реквием
реке
рекел
рекен
рекенсем
рекенсен
реки
рекл
реклама
рекомендации
реконструкции
ректор
рел
религии
религия
релиз
релл
релле
рельеф
рельс
релятивизм
релятивизмла
рем
ремарк
рембрандт
реме
ремелли
рен
рене
ренекен
ренекенсем
ренет
рени
ренме
ренмелли
ренн
ренне
ренни
ренпе
ренпур
ренсе
рент
ренте
рентев
рентекен
рентекенсем
рентекенсен
рентес
рентет
рентме
рентмелли
рентн
рентни
рентсе
ренту
рену
репертуар
репин
репортаж
репорте
репрессилен
репрессиленисем
рептилии
рер
рерих
рес
ресе
ресем
респ
республик
республика
республике
республики
республикин
республикине
республикинче
республикинчи
республикипе
республикисем
республикисен
ресторан
ресурс
ресурсы
рет
рете
ретл
ретн
ретне
ретри
ретро
ретч
реутов
референдум
реформ
рех
рецензия
реч
рече
речи
речка
речь
реш
реше
решекен
решение
решении
решения
решетке
решме
решн
решни
решу
реҫҫе
ржев
ри
риа
ривер
риг
рига
рид
рии
рика
рико
рим
рима
риман
риме
римлянсем
римма
римра
римре
римри
римсем
римскии
рин
рине
ринк
ринпе
ринче
ринчен
ринчи
рио
рипе
рис
рисем
рислинг
рита
ритм
ритуал
рихард
ричард
риччен
риш
рк
рка
ркаи
ркалав
ркас
рке
ркев
ркел
ркеле
ркелев
ркелекен
ркелеме
ркелен
ркелене
ркеленет
ркелени
ркеленн
ркеленсе
ркелену
ркелес
ркелесе
ркелет
ркелл
ркелу
ркене
ркепе
ркере
ркесем
ркесене
рки
ркин
ркине
ркипе
ркисем
ркисене
ркка
ркке
ркп
рку
ркунне
рл
рла
рлав
рлама
рлан
рлана
рланать
рлани
рланн
рланса
рласа
рлатн
рлату
рлать
рлахи
рлач
рлачра
рле
рлев
рлекен
рлел
рлеме
рлемелли
рлемес
рлен
рлене
рлени
рленн
рленч
рлес
рлесе
рлесси
рлет
рлетме
рлетн
рлету
рлех
рлехи
рлеш
рлеше
рлешет
рлешинчен
рлешн
рлешнинчен
рлешсе
рлештер
рлештерекен
рлештерет
рлештерме
рлештерн
рлештерсе
рлешу
рли
рлисем
рлисен
рм
рма
рмав
рмаи
рмалл
рмалла
рмалли
рман
рмана
рманкас
рманкасси
рманл
рмансем
рмансенче
рманта
рманти
рмар
рмах
рмашн
рмаях
рме
рмел
рмен
рмене
рмере
рмерен
рми
рн
рна
рнар
рнас
рнатт
рная
рне
рнелл
рнерен
рнеҫ
рни
рнин
рнине
рнинчи
рнипе
рнисем
рного
рное
рныи
ро
робер
роберт
роберто
робинзон
ров
ровно
роговая
род
рода
роджер
родившиеся
родился
родина
родину
родион
родионов
родионова
родная
родник
роднои
родные
родов
родос
рожанскии
рождение
рождения
рождественски
рождественскии
роз
роза
розов
розы
рои
рок
рокоссовскии
рокфеллер
рол
ролан
роланд
роле
роли
ролл
роль
рольне
рольсем
рольсене
рольсенче
рольте
ром
рома
роман
романа
романне
романов
романова
романович
романс
романсем
романтизм
романтик
романья
ромашкин
ромеи
ромео
ромм
рон
рона
рональд
рос
росс
россии
россини
россию
россия
росспэн
ростислав
ростов
ростоцкии
рот
рота
роти
ротин
ротор
роттердам
ротшильд
рощин
рп
рпа
рпе
рпи
рпу
рр
рре
ррелл
ррем
рреме
рремеш
ррехинче
рри
ррин
ррине
рринче
рринчен
рринчи
ррипе
ррис
ррисем
ррисемпе
ррисен
ррисене
рричен
рриччен
рс
рса
рсалатл
рсан
рсдрп
рсе
рсем
рсемпе
рсен
рсене
рсенче
рсенчен
рсенчи
рсфср
рт
рта
ртав
ртавар
ртакан
ртакран
ртам
ртан
ртанн
ртарах
ртас
ртать
ртаҫҫе
ртвые
рте
ртекен
ртен
ртенпе
ртес
ртесси
ртет
ртех
рти
рткаи
ртл
ртла
ртлану
ртма
ртмалла
ртмалли
ртман
ртме
ртмелле
ртмелли
ртмен
ртмес
ртн
ртна
ртне
ртнех
ртни
ртнипе
ртр
ртран
ртрах
ртре
ртса
ртсе
ртсем
ртсен
ртстан
ртстанри
ртт
ртта
рттан
рттанл
рту
ртура
ртусем
ртыи
ру
руанда
рубин
рубинштеи
рубле
рубцова
рудольф
руж
рузвельт
рук
руки
руководитель
руководства
руководство
рукопись
рулми
румын
румыни
румянцев
румянцева
рун
рунет
руниверс
рупра
рур
рура
рус
руси
руслан
русск
русская
русски
русские
русскии
русских
русско
русского
русское
русскои
русском
руссо
руст
русь
руф
рухадзе
ручеи
ручка
руш
рушл
рушла
рушс
рф
рх
рхавсем
рхама
рхан
рхатарусем
рхи
рч
рча
рчен
рчетни
рчи
рчисем
рчун
рчуне
рчунсем
рчунсемпе
рчунсен
рчунсене
рччен
рш
рша
рше
рши
ршш
ршше
ршшипе
ршшипех
ршыв
ршыва
ршыве
ршывне
ршывра
ршыври
ршывсем
ршывсен
ршывсенче
ршывш
ръел
ръял
ры
рыбаков
рыбинск
рыбкин
рыбников
рыбы
рыжии
рыжов
рынок
рыц
рыцарь
рь
рьел
рьял
рэи
рядовои
рядовому
рядом
рязанов
рязань
рҫа
рҫи
с
са
саар
сабун
сав
сава
савва
савелии
савельев
савельева
савельевич
савн
савни
савои
савр
савра
савруши
савут
савутра
савуч
савченко
сага
сад
сада
садаи
садне
садовых
садыкова
саи
саид
сак
сакк
сакки
саккун
саккуна
саккуне
саккунл
саккунне
саккунпа
саккунсем
сакмара
саксони
сала
салават
салам
салампи
саланн
саланса
салат
салатн
салатса
салдакаево
салехард
сали
салине
салинче
салмин
салон
салтак
салтака
салтаксем
салтаксен
салтаксене
салтакьел
салтыков
салым
сальвадор
салют
сам
самаи
самана
саманара
самани
саманинче
самант
саманта
самантра
самантран
саманч
самар
самара
самари
самарская
самарские
самарскии
самарского
самарскои
самарском
самарта
самарти
самая
самаях
самои
самоле
самолет
самоуправления
самсон
самсонов
самуил
самураи
самые
самыи
самых
сан
сана
санкт
сант
санта
сантиметр
сантьяго
сап
сапа
сапаланав
сапе
сапер
сапи
сапл
саплык
сапожников
сапсан
сар
сара
сараи
саракан
саралн
саранск
сарас
саратов
саратовская
саратовские
саратуштра
сардини
сарлак
сарлака
сарма
сарн
сарпи
сарри
сарса
сарт
сартр
сас
саса
сасарт
саспалли
саспаллипе
саспаллисем
сасс
сасса
сасси
сата
сатира
сатирик
сатка
сатн
сатур
сатурн
сауд
сафин
сах
саха
сахал
сахалин
сахалрах
сахалтан
сахалтарах
сахара
сахаров
сач
саша
сб
сберг
сборник
сборнике
св
свадьба
сванети
сведении
сведения
свердлов
свердловск
свет
света
свете
светлана
свобода
свободы
свое
своеи
свои
своих
свою
связи
связь
свято
святого
святои
святослав
святых
священник
сделать
се
сеанс
себастьян
себе
себя
севастополе
севастополь
север
севера
северная
северного
севернои
северныи
северо
северодвинск
севилья
сегодня
седов
сезар
сезон
сеи
секен
секенсем
секенсен
секрет
секретар
секретарь
секс
секст
сектор
секции
сел
села
селе
селевк
селевкидсен
селиванов
село
сельская
сельскии
сельских
сельского
сельское
сельскохозяи
сельсовет
сем
семантика
семе
семеи
семен
семенов
семенова
семенович
сементер
семех
семи
семинарии
семинарине
семинаринче
семиотика
семит
семл
семпе
семс
семш
семше
семь
семье
семьи
семья
сен
сена
сенат
сенатор
сенгилеи
сене
сенегал
сенкер
сент
сента
сентябрь
сентября
сенче
сенчен
сенчи
сер
сера
серафим
серафима
серб
серби
сервер
сервис
серге
сергеев
сергеева
сергеевич
сергеевна
сергеи
сергея
сергиевои
сергии
сердца
сердце
сере
серебряныи
сержант
сержантскому
сержанч
сери
сериал
сериала
серии
серилл
серия
серов
сессии
сестра
сестры
сет
сети
сеть
сеул
сех
сехет
сехетре
сехеч
сече
си
сибири
сибирская
сибирскии
сибирь
сив
сиве
сивлек
сивухин
сигнал
сиднеи
сидоров
сидорова
сиен
сиенл
сии
сикки
сиксе
сил
сила
силези
силикат
силу
силы
сильва
силэм
сим
симаков
симбирская
симбирско
симбирскои
символ
символизм
символпа
символсем
символы
симе
симметри
симон
симонов
симфони
симфония
син
синг
сингапур
сингл
синдром
сине
синельников
синематограф
синер
синичкин
синкер
синкерл
синоним
синонимсем
синтаксис
синтез
синтезлан
синь
синьцзян
сипл
сиплев
сир
сире
сири
сирире
сироткин
сирп
сирсе
сис
систем
система
систематика
систематики
системе
системи
системин
системине
системинче
системинчи
системипе
системисем
системисен
системы
сити
ситуация
сицили
ск
ска
сказание
сказка
сказки
сказуем
скала
скалярла
скандинави
скасси
ская
сквер
сквозь
скворцов
скворцова
ске
скен
скер
скере
скерех
скерне
скерсем
скерсен
скерсене
ски
ские
скии
ским
ских
ско
ского
ское
скои
ском
скотт
скрипка
скрябин
скульптор
скульптура
скумин
скуратов
сл
сла
слав
слава
славы
славян
славянсем
славянсен
славянских
славянскои
слаи
слакпу
слан
слах
сле
слев
слева
слевҫи
след
следам
следователь
следствие
следует
слекен
слекенсенчен
слеме
слен
слене
сленекен
сленет
слени
сленн
сленсе
слесарь
слесе
слет
слисем
слобода
слов
слова
словак
словаки
словакин
словаксем
словар
словаре
словари
словарь
словаря
словени
словник
слово
слон
служба
службы
случае
случаи
см
сма
сме
смел
смена
смерти
смерть
смет
смете
сметне
сметре
сметрен
сметри
смеч
сми
смирнов
смирнова
смит
смоктуновскии
смоленск
смулен
смысл
сн
снаи
снг
сне
снег
сни
снип
снова
сны
со
соавт
соавтор
соавторстве
собака
собаки
соболев
собор
собора
соборне
собрание
собрании
собрания
событии
события
сов
совесть
совет
совета
совете
советник
советсен
советская
советски
советскии
советских
советского
советское
советскои
совиньон
совм
совместно
современная
современник
современников
современного
современное
современнои
современном
современностъ
современность
современные
современныи
современных
совхоз
содержание
создания
сознания
сои
соим
соискание
сокол
соколов
соколова
сократ
сократа
сокровища
солдат
солдаты
солист
солисч
солнца
солнце
солнцем
соло
соловеи
соловье
соловьев
соломин
соломон
соль
сомов
сон
соната
соня
сообщение
сообщении
сообщения
сообщества
сообщество
сооружения
сопрано
сопредельных
сорок
сорокин
сорт
сортран
сорч
сосед
соседка
сосновка
сост
состав
состава
составе
составители
составитель
составу
состояние
состоянии
состояния
сосьва
сотрудник
сотрудники
софи
софии
софия
софья
сохранился
социал
социализм
социализмла
социалистических
социалл
социалла
социальная
социально
социальнои
социальные
социолингвистика
социологи
социологии
социология
соч
сочи
сочинение
сочинении
сочинения
союз
союза
союзе
союзмультфильм
союзне
союзри
сп
спа
спаржа
спарта
спартак
спасибо
спб
спбгу
спе
спектак
спектакл
спектакле
спектакль
спектакльсем
спектакля
спектр
специалист
специалисч
спиноза
спиридон
спиридонов
спиридонович
спирт
спирч
списке
списки
список
списокра
спорт
спорта
спортсмен
спорч
справ
справа
справка
справочная
справочник
спустя
спутник
спутника
спутникл
спутникне
сра
сравнительно
сран
сре
сред
среда
среди
средневековои
средневековья
среднего
среднеи
среднем
средние
среднии
средняя
средств
средства
среды
срен
срех
сри
сс
сса
ссаи
ссе
ссем
ссемпе
ссен
ссене
сси
ссипе
сскп
сср
ссрп
ссрс
ссср
сссра
сссрта
сстан
ссылк
ссылка
ссылки
ст
ста
ставки
ставрополь
стадион
стаи
стал
стала
сталан
сталана
стали
сталин
сталина
сталинград
стамбул
стан
стандарт
стандартл
стандарч
станислав
станиславскии
становление
станок
станци
станции
станцин
станцине
станцинчен
станьял
стар
старая
стареи
старик
старина
старица
старого
старое
старои
старшии
старшина
старшини
старые
старыи
стат
статеи
стати
статистик
статистика
статистики
статистическии
статуи
статус
статуса
статусне
стать
статье
статьи
статьисем
статью
статья
статьян
статьяна
статьяра
статьяри
статьясем
статьясен
статьясене
стб
ств
ства
стве
ствие
ствии
ствия
ство
сте
стекольна
стекольныи
стена
степ
степан
степанов
степанова
степанович
степановна
степен
степени
степень
степеньл
степи
степь
стер
стере
стерекен
стереометри
стереотипное
стерет
стерлитамак
стерлитамакскии
стерме
стерн
стерсе
стефан
стефанович
сти
стив
стивен
стил
стиле
стиль
стисем
стихи
стихов
стихотворении
стихотворения
сто
стокгольм
столетия
столица
столяр
столяров
сторона
сторону
стороны
стр
стран
страна
странам
стране
страниц
страница
странице
страници
страницисем
страницы
странник
страны
страсбург
страсти
стратеги
стратегии
стратегилл
стратегия
страха
страховани
стреи
стрела
стрелок
стрелоксен
строение
строи
строитель
строительства
строительство
стронци
структур
структура
структури
структуры
стс
студ
студент
студентов
студентсен
студентсене
студенч
студи
студии
студин
студине
студинче
студире
студия
стульев
стюарт
су
суахили
субтропик
субъект
субъекч
сувар
суваризм
суваро
суворов
суворова
суд
суда
судан
судьба
судьбы
судья
суздаль
суи
сукк
сукмак
сул
сула
сулавеси
сулак
сулахаи
сулахаялла
сулеи
сулланусем
сулланусен
султан
сум
сумл
сумм
сумма
сумми
сун
сунар
сунара
сунтал
сунч
сунчелеево
сунь
суп
сур
сура
суранланн
суриков
сут
сута
сутакан
сутана
сутма
сутн
сутса
суту
суффект
сухона
суч
сущность
суэц
суя
сфер
сфера
сферинче
схем
схема
схеми
схпк
сцена
сценари
сценарии
сценарисем
сценарисемпе
сценарист
сценаристсем
сценарисч
сцене
сцени
сцены
сципион
счастливыи
счастье
счастья
счах
счахсем
счахсен
сче
сша
съе
съезд
съезда
съезч
сыв
сывл
сывла
сызрань
сыктывкар
сылт
сылта
сыма
сын
сына
сыня
сып
сыпа
сыппис
сыр
сыры
сысна
сытина
сыхлав
сыхлакан
сыхлан
сыхланн
сыхланнин
сыхланса
сыхлас
сыхласа
сыче
сэм
сэнгер
сэр
сюжет
сюжеч
сюнь
сюр
ся
сяо
т
та
табаков
табл
таблиц
таблица
таблици
таблицы
табор
тав
тава
тавар
тавлашу
тавлашулл
тавлашусем
тавр
тавра
таврал
таврала
тавралах
таврап
таврари
тавраш
тавраше
таврашне
таганрог
таджик
таджикистан
таз
таи
таиланд
так
така
такан
такана
такас
такая
также
таки
такие
такмак
такое
такои
такси
таксист
таксономи
тактика
тал
талант
талантл
талвир
талиев
талкк
талла
таллин
талп
талыш
тальони
там
тамара
тамбов
тамран
тан
танаи
танах
танго
танзани
тани
танич
танк
танка
танкино
танкист
танксене
танл
танлашать
танлашн
танлаштар
танлаштарма
танлаштарни
танлаштарса
танлаштарсан
танлаштару
танлаштарул
танлаштарулл
танмарл
тант
таня
тап
тапа
тапма
таппи
таппинчен
тапранать
тапранн
тапранса
тапса
тапх
тапха
тар
тара
таракан
таран
таранах
таранччен
тарас
тарасов
тарать
таривердиев
тарин
тарк
тарка
тарковскии
тарма
тарн
тарни
таро
тарса
тарт
тарта
тартакан
тартас
тартать
тартма
тартмалли
тартман
тартн
тартна
тартни
тартнипе
тартса
тарту
тартулл
тартусем
таршш
таса
тасал
тасс
тат
тата
татар
татарская
татарскии
татарского
татарское
татарскои
татарстан
татарстана
татары
татах
татищев
татм
татса
татти
тать
татьяна
тафаев
тах
тахар
тахо
тахтал
тахтала
тацит
тач
тача
таш
таше
ташкент
ташши
таянса
таяпа
таҫе
тбилиси
тв
тве
тверь
твои
творчества
творчестве
творчество
те
теат
театр
театра
театре
театрне
театрпа
театрсем
театрта
театрти
тебе
тебя
теветкел
тезаврус
тезисы
теи
тек
текен
текенни
текенсем
текст
текста
текстиль
текстне
текстов
текстологи
текстсем
текстсене
тексты
тексч
текумсе
тел
тела
теле
телевидени
телеграф
телеерту
телеи
телек
телеканал
телеканала
телекур
телекурав
телесериал
телесериалсем
телескоп
телеспектакль
телефильм
телефильмсем
телефон
телеяр
тель
тем
тема
тематик
теме
темелле
темен
темешк
темза
теми
темисем
темиҫе
темле
темников
температур
температура
температури
темтеп
тен
тенант
тенанта
тенанч
тенденции
тене
тени
тенин
тенине
тенинчен
тенипе
тенисем
тенисемпе
тенисене
тенк
тенке
теннесси
теннис
теннисисч
тенор
тень
теодор
теодорих
теорема
теореми
теоретик
теоретическая
теоретические
теоретическои
теори
теории
теорилл
теорилле
теорин
теорине
теорипе
теорисем
теорию
теория
теп
тепе
теперь
тепре
тепри
теприне
теприсем
тер
терапии
тере
терек
терекен
терентьев
терентьевич
терес
терет
тери
терл
терме
термен
термин
термина
терминов
терминологи
терминологии
терминпа
терминсем
термины
термодинамик
термодинамика
термодинамики
терн
терне
терни
терра
территори
территориального
территориальное
территорие
территории
территорилл
территорин
территорине
территоринче
территоринчи
территорипе
территорире
территорисем
территория
террор
терса
терсе
терсен
тес
тесе
тесен
тесл
тесле
тессем
тесь
тет
тете
тетел
тетелте
тетте
тех
техас
техник
техника
техники
техникин
техникум
техникумне
техническая
технические
техническии
технологи
технологии
технологипе
технологисем
технология
течч
теш
теҫҫе
ти
тиберии
тибет
тив
тиве
тивекен
тивет
тивн
тигр
тиев
тик
тикеш
тикк
тикки
тил
тим
тиме
тимерлек
тимеш
тимл
тимор
тимофеев
тимофеева
тимофеевич
тимофеи
тимошенко
тимошкино
тимуков
тимур
тимухха
тимушкел
тин
тинг
тине
тип
типа
типе
типография
типсе
типы
тир
тираж
тире
тирек
тиркев
тироль
тирпеи
тискер
тит
титан
титов
титрах
титрсенче
титрта
титул
титула
титулне
тихии
тихомиров
тихон
тихонов
тихонова
тихонович
тициан
тишкер
тишкерекен
тишкерет
тишкерн
тишкерсе
тишкеру
тк
тка
тл
тла
тлав
тлан
тланать
тланн
тлев
тленн
тленсе
тма
тмах
тме
тмен
тн
тне
тни
тнипе
то
тоба
тобоев
тобои
тобол
тов
товарищ
товарища
товарищество
товарныи
того
тодоровскии
тои
ток
токарев
токио
толковыи
толстого
толстои
только
тольятти
том
тома
томас
томах
томл
томск
томь
тон
тони
тонн
тонна
тоннел
топ
топливо
топологи
топология
топоним
топонимии
топонимика
топонимическии
топонимсем
тор
торговои
тори
торн
торонто
торпед
торпеда
торф
тоска
тоскана
тот
тото
точка
точки
тпа
тпе
тр
тра
трагеди
трагедии
трагедия
традиции
традиционная
традиционныи
традиция
трак
трактат
трактор
тралл
трамваи
тран
транснептун
транспорт
транспорта
транспорч
трах
траштар
траштармалла
траян
тре
треи
трел
трелл
трен
тренер
тренч
третии
третье
третьего
третья
третьяков
третьяковская
три
трибун
тригонометрилле
триллер
триумф
трифонов
трифонова
трое
трои
троица
троицкии
троллеи
трон
тронл
тропик
трофим
трофимов
трофимович
троцкии
трубина
труд
труда
трудов
труды
тс
тса
тсе
тсем
тсемпе
тсен
тсене
тсенче
тся
тт
ттан
тте
тти
ту
туалет
туберкуле
туи
тук
тукаи
тукан
тукташ
тул
тула
тулать
тулаш
тулашри
тулл
тулли
туллин
тулпас
тултарн
тултарнине
тултарсан
тулуза
тум
тума
тумалла
тумалли
туман
тумба
тумлам
тумтир
тун
туна
тунгус
тунгуска
тундра
туни
тунине
тунипе
тунис
тунисем
туп
тупа
тупаи
тупас
тупать
тупма
тупмалли
тупн
тупна
тупни
туполев
тупс
тупса
туптан
тур
тура
тураев
турам
туран
турат
туратти
турач
тургау
тургенев
тури
туризм
турин
туркаи
туркестан
туркк
туркмен
туркменистан
турнир
турнояс
турочак
турра
турри
туррисем
турт
турта
туртать
туртса
турттаракан
турттарма
турул
турхан
турци
турцин
турципе
турцире
турцири
тус
туса
тусан
тусем
тусемпе
тусене
тусл
туссем
тустарн
тут
тута
тутар
тутаркас
тутарла
тутарсем
тутарсемпе
тутарсен
тутарстан
тутарстанра
тутарстанри
тутарстанти
тути
тутине
тутл
тух
туха
тухаи
тухакан
тухас
тухатм
тухать
тухма
тухмалла
тухмалли
тухман
тухманова
тухн
тухна
тухни
тухнине
тухнипе
тухнисем
тухр
тухса
тухсан
тухсат
тухт
туянать
туянма
туянн
тчен
тченех
тчик
ты
тыва
тыг
тыл
тым
тымар
тын
тыр
тырново
тыс
тыт
тыта
тытакан
тытам
тытать
тытк
тыткалар
тытма
тытмалли
тытн
тытна
тытни
тытса
тьмы
тэи
тюльпан
тюмень
тюринги
тюрки
тюрко
тюрколог
тюркских
тюрнясево
тя
тянь
у
уаи
уао
уап
убии
убои
уводь
уганда
уголовного
угр
удар
удачи
удк
удмурт
удмурти
удмуртсем
удэ
уезда
уес
уесне
уесре
уефа
уже
узбек
узбекистан
узень
уи
уильям
уильямс
ук
указ
указали
указан
указана
указатель
указом
укие
укки
уккине
уккипе
укл
укп
укр
украин
украина
украине
украинсем
украины
украі
укса
укҫа
ул
ула
улан
уланк
улат
улатакка
улатим
улах
улица
улице
улицы
улк
улки
улкинче
улкинчен
улл
улла
уллахи
улма
улми
улне
улпа
улпу
улсем
улсемпе
улсен
улсене
улсенче
улсенчен
улсенчи
улсерен
улт
улта
ултав
ултал
ултан
ултанпа
ултах
улти
ултт
улус
улхаш
улхи
улхине
улчен
улччен
улш
улша
улшу
ульянов
ульянова
ульяновец
ульяновск
ульяновская
ульяновские
ульяновскои
ум
ума
умберто
уме
умер
умершие
умкур
умл
умне
умс
ун
уна
унакан
унат
унатл
унатлисем
унач
унашкал
унежма
универсалл
университет
университета
университете
университетне
университетра
университеч
университече
унитарл
унк
унки
унни
унпа
унран
унс
унса
унта
унтан
унтарн
унтарса
унтах
унти
унчен
унченхи
унччен
унчченхи
унш
уп
упа
упакасси
упи
упр
упра
управ
управлени
управление
управлении
управленин
управлению
управления
упракан
упрама
упрамалли
упран
упрана
упранакан
упранать
упранн
упранса
упраса
ур
ура
уравнении
уравнения
ураи
урал
урала
уралать
уралл
уралн
урални
уралнисем
урало
уралса
уралсан
уральскии
уральского
урам
урама
урамра
урамри
урамсем
урамсен
урамсене
уран
урана
урапа
урарту
урасем
ураскилт
уратн
уратса
уржум
ури
урисем
уркунне
урл
урла
урлан
урма
урок
уроки
урпа
урпаш
урри
урринче
урсс
урт
урта
уртан
урташ
уртне
уртра
уртсем
уртсен
уртсене
уртт
уругваи
урукова
урутрав
урхах
урхи
урч
ус
уса
усал
усем
усене
усенче
услам
условия
условиях
услон
успенскии
успехи
усрав
усрава
усран
усср
уссури
уста
устав
устава
установлении
устрои
усть
устье
усул
ут
ута
утар
утатса
утверждении
ути
утк
уткин
утл
утм
утомле
утрав
утрава
утраве
утравне
утравсем
утравсене
утро
утса
утта
уфа
уфимскии
уфн
ух
ухалать
ухалн
ухатать
ухатн
ухатса
ухату
ухатусем
ухли
уходит
ухр
ухсаи
уч
учала
участие
участием
участии
участковыи
участник
участники
участок
учащихся
уче
учеб
учебник
учебники
учебно
учебное
учебных
учен
учение
учения
ученои
ученые
ученыи
ученых
училищ
училище
училищи
училищин
училищине
училищинче
учителеи
учитель
учительница
учительсен
учреждении
ушаков
ушакова
ушк
ушка
уэи
уэльс
уяв
уява
уявла
уявлан
уявне
уявсем
уяр
уҫа
уҫна
ф
фа
фабии
фабрика
фабрики
фадеев
фаз
фаза
фаи
фаина
факт
фактор
факториал
фактсем
факты
факультет
факультета
факультетне
факультеч
фан
фантастик
фантастика
фарадеи
фараон
фараоне
фараонсем
фарида
фасо
фауна
фауны
фауст
фашизм
фе
февр
февраль
февраля
федералл
федеральныи
федераци
федерации
федерацин
федерацинче
федерико
федор
федоров
федорова
федорович
федоровка
федоровна
федоровскии
федотов
федотова
федотович
феи
фел
феликс
феллини
фельдмаршал
фельдшер
феникс
феномен
феодал
феодосии
феофан
фердинанд
ферма
ферми
фестивал
фестивале
фестиваль
фестивальне
фз
фигаро
фигур
фигура
фидель
фиджи
физик
физика
физике
физики
физикин
физико
физиксем
физиологи
физиологии
физическая
физическии
физических
физическои
физкультура
физматлит
фил
филатов
филиал
филимонов
филип
филипп
филиппин
филиппов
филиппова
филиппович
филол
филолог
филологи
филологии
филологических
филология
философ
философе
философи
философии
философин
философия
философсем
философская
философские
философскии
философское
фильм
фильма
фильме
фильмов
фильмографи
фильмография
фильмра
фильмри
фильмсем
фильмсен
фильмсене
фильмсенче
фильмш
фильмы
фимов
фин
финал
финанс
финлянди
финляндин
финляндире
финн
финно
фирма
фитиль
фиц
фишер
фк
флавии
флаг
флагификация
флагман
флакк
флеи
флинт
флора
флоренци
флори
флорида
флот
флота
флотне
флоч
фокин
фолк
фольклор
фольклорист
фома
фоменко
фомин
фомич
фон
фонареи
фонд
фонда
фондне
фондч
фонетик
фонетика
фонологи
фонтан
фонч
форд
форм
форма
формалл
формате
форми
формине
формипе
формирование
формирования
формисем
формул
формула
формули
формы
форсаи
форт
фортепиано
фортификаци
форум
фот
фото
фотогалерея
фотограф
фотографи
фотографии
фотографисем
фотография
фотографсем
фотопух
фотоу
фр
фрагмент
фрагменты
фраи
фраки
фран
франк
франклин
франко
франкони
франксем
франксен
франкфурт
франс
франсуа
франц
франци
францие
франции
францин
францине
франципе
францире
францири
франциск
франциско
франция
француз
французла
французсем
французсен
французскии
французского
французскои
франческо
фрг
фредди
фредерик
фреи
френкель
фридрих
фриц
фролов
фролова
фронт
фронта
фронтне
фронтра
фронч
фрунзе
фрэнк
фрэнсис
фу
фукс
фульвии
фульда
фун
функци
функцие
функции
функцин
функцине
функцисем
функцисен
функцисене
функция
фут
футбол
футболист
футболисч
фхх
фэнтези
х
ха
хабаров
хабаровск
хаббл
хавал
хавас
хавасл
хазар
хаи
хак
хака
хакал
хакан
хаканл
хакаси
хакл
хакла
хаклав
хаклан
хал
хала
халал
халаллан
халалласа
халап
халапл
халапла
халапсем
халах
халдеи
хале
халиков
халиф
халиччен
халичченех
халл
халь
хальмер
хальхи
хам
хама
хан
хана
ханл
ханс
хант
ханты
хань
хао
хаос
хап
хапа
хапав
хапалл
хапи
хапр
хапс
хапха
хапхи
хар
хара
характер
характеристика
характеристики
харитонов
харитонова
харкамл
харп
харпа
харрис
харс
харьков
хасан
хасар
хасарсем
хасарсен
хастар
хастарл
хастарр
хат
хате
хатерлен
хатра
хать
хаус
хах
хач
хаяр
хаярл
хаярр
хв
хваттер
хвет
хе
хевтел
хевтелл
хеи
хельсинки
хемингуэи
хен
хеп
хепбе
херсон
херц
хетта
хех
хи
хиврел
хилл
хими
химии
химик
химилле
химипе
химире
химическая
химические
химических
химия
хин
хинди
хине
хир
хирбю
хире
хирлеп
хирлеппу
хирпу
хирте
хирти
хирург
хирурги
хисеп
хисепе
хисепл
хисепле
хисеплен
хисепленекен
хисеплесе
хисепне
хисеппе
хисепре
хисепсем
хисепсемпе
хисепсен
хисепсене
хистен
хистенипе
хистет
хит
хитре
хк
хл
хла
хлан
хларах
хле
хлеб
хлебников
хма
хмалла
хмас
хмельницкии
хн
хна
хне
хни
хо
ход
ходасевич
хозяи
хозяин
хои
хокинг
хоккеи
хоккеисч
холдинг
холл
холм
холмс
хопе
хор
хора
хорват
хорвати
хорм
хорми
хорошо
хосе
хоспит
хочу
хпа
хпе
хра
храм
храма
храмне
храмов
хран
хранитель
храх
хре
хрен
хрестоматия
хресчен
хресченсем
хресченсен
хри
христа
христиан
христианл
христиансем
христиансен
христианского
христианства
христианство
христос
христоса
христофор
христофоров
хроника
хроники
хронологи
хронологии
хронологическо
хронология
хрусталь
хруще
хс
хса
хсан
хсем
хсемпе
хсен
хсене
хсенче
хсенчен
хсенчи
хтам
хти
ху
хуан
худож
художественная
художественного
художественнои
художественныи
художник
художника
художники
художников
хузангаево
хузангаи
хуи
хул
хула
хулан
хулана
хулапа
хулара
хуларан
хулари
хуласем
хуласемпе
хуласен
хуласене
хуласенче
хулаш
хули
хулин
хулине
хулинче
хулинчен
хулинчи
хулинчишыв
хулипе
хулисем
хулисемпе
хулисен
хулисене
хулисенче
хулисенчен
хуличчен
хум
хума
хумалла
хумалли
хумл
хумсем
хумсен
хумхан
хун
хуна
хунав
хуни
хунк
хунну
хунсем
хунсен
хунсене
хуп
хупа
хупать
хупласа
хупн
хуппи
хупса
хур
хура
хурав
хуракан
хуракасси
хурал
хуралту
хурамал
хуран
хурас
хурасан
хурать
хурах
хури
хуриччен
хуркаи
хурл
хурса
хурт
хурч
хурчка
хурчки
хурҫа
хусан
хусана
хусанкаи
хусанта
хусантан
хусанти
хут
хута
хутаи
хутар
хутк
хутл
хутла
хутлав
хутлавл
хутне
хутор
хутра
хутран
хутсем
хутчен
хутш
хутша
хуть
хух
хуч
хуш
хуша
хушамат
хушаматл
хушаматне
хушаматпа
хушаматсем
хушамач
хушать
хушма
хушн
хушни
хушнипе
хушса
хушу
хушши
хушшине
хушшинче
хушшинчи
хущ
хуҫала
хх
ххи
ххисем
хш
хы
хывакан
хывн
хыпар
хыпара
хыпарл
хыпарлан
хыпарлать
хыпарпа
хыпарс
хыпарсем
хыпарсемпе
хыпарсен
хыпарсене
хыпса
хыр
хыра
хырла
хысак
хысакл
хысна
хыт
хыта
хытарк
хыҫҫа
хэ
хэи
ц
ца
цамо
цар
царе
цареи
цари
царин
царире
царири
царицына
царицыно
цария
царская
царское
царства
царство
царь
царя
цв
цвет
цветаева
цветков
цветок
цветы
цев
цева
цезарь
цези
цеи
целина
цензура
центр
центра
центральная
центральнои
центральныи
центре
центрне
центрполиграф
цер
церкви
церковь
цех
цзин
цзинь
цзы
ци
цивилизаци
цивилизации
цивилизация
цикл
цикла
циклон
цилиндр
цильма
цин
цинк
цинь
циолковскии
циолковского
цирк
цирка
цирюльник
цитат
цитрус
цифр
цифра
цицерон
цк
цна
цска
цукен
цунами
цы
цюрих
цянь
ч
ча
чавар
чаваш
чавса
чад
чаи
чак
чакать
чакма
чакн
чакса
чал
чалл
чалла
чамлык
чан
чао
чап
чапа
чапаев
чапаева
чапл
чапла
чаплин
чар
чара
чарать
чарл
чарлан
чарли
чарльз
чарма
чарн
чарса
чарыш
час
часах
часов
часср
части
частныи
часть
частях
часы
чат
чаш
чашк
чгигн
чгпу
чгу
че
чебоксар
чебоксарах
чебоксарскии
чебоксарского
чебоксары
чего
чеи
чек
чекмакуш
челепи
челны
человек
человека
человеке
человечества
челябинск
чем
чемпион
чемпионат
чемпионач
чен
чепунов
через
черек
черемшанского
черкас
черкес
черкки
черная
чернигов
черниговская
чернов
чернова
черногори
чернушка
черных
черчилль
честь
четве
четыре
чех
чехи
чехов
чехова
чехословаки
чехсем
чечек
чечеке
чечеклисем
чечексем
чечен
чеченсем
чеченсене
чечня
чжан
чжао
чжоу
чи
чие
чиешне
чик
чикаго
чикан
чикансем
чике
чикинчен
чикичченне
чикки
чиккине
чиккинче
чиккинчен
чиккисем
чиккисене
чиккичен
чиккчен
чикм
чикме
чиксе
чили
чин
чингисхан
чиндыков
чиновник
чипер
чир
чире
чирк
чирке
чирку
чирл
чирлен
чирлесе
чирсем
чисел
числа
числе
численности
численность
число
чистаи
чистовка
чита
чичканов
чишма
чишминскии
чк
чкалов
чкаловски
чкеи
чл
чланать
член
члене
членов
чнии
чнк
чпг
чпу
чр
чрезвычаи
чрен
чсене
чтение
чтения
что
чтобы
чу
чув
чуваш
чувашах
чувашеи
чуваши
чувашии
чувашия
чувашорум
чувашская
чувашские
чувашскии
чувашских
чувашско
чувашского
чувашское
чувашскои
чувашском
чувашскому
чувств
чудо
чужая
чужои
чуи
чук
чукал
чуковскии
чукотка
чукун
чул
чулка
чулл
чулман
чулран
чулсем
чулхула
чулхулара
чулхулари
чулым
чулымран
чумакова
чуманкасси
чумыш
чун
чуна
чунл
чунне
чупакан
чупса
чура
чурал
чурач
чуста
чутаи
чух
чухл
чухле
чухне
чухнех
чухнехи
чухраи
чч
ччен
чченех
чченхи
чылаи
чылаях
чын
чыс
чыса
чысл
чысла
чыслав
чыславсем
чыславсемпе
чыслан
чыслани
чысланисем
чысласа
чысне
чышма
ш
ша
шаблон
шаблона
шаблонпа
шаблонсем
шаблоны
шав
шавл
шаг
шаи
шакан
шал
шала
шаламов
шалл
шалланн
шалне
шалпа
шалта
шалти
шалу
шаляпин
шаман
шамиль
шампань
шан
шанса
шанхаи
шанч
шань
шаньюи
шапа
шапи
шапиро
шапка
шапкино
шапошников
шар
шаран
шардоне
шаркурни
шаркурнисем
шарлак
шарлотта
шарль
шартлама
шать
шаферан
шаффхаузен
шах
шахмат
шахназаров
шахт
шахте
шая
шварц
швед
шведсем
швеи
швеци
швецин
швиц
ше
шевле
шевченко
шего
шеи
шекспир
шекспира
шел
шелепи
шельф
шенче
шепси
шер
шерлок
шестаков
шести
шет
шетм
шешкел
ши
шие
шии
шин
шина
широков
шифрин
ших
шишкин
шк
шка
шкап
шкасси
шки
шкин
шкине
шкипе
шкловскии
школ
школа
школе
школы
шкул
шкула
шкуле
шкулне
шкулсем
шкулсенче
шкулта
шкултан
шкулти
шл
шла
шлав
шлакан
шлан
шлани
шласа
шле
шлезвиг
шли
шлисем
шлюз
шм
шма
шман
шмана
шманран
шмен
шмест
шмидт
шн
шна
шнаи
шне
шни
шнипе
шолохов
шор
шоссе
шотланд
шотланди
шоу
шофе
шп
шпа
шпалер
шпе
шпион
шпицберген
шпу
шра
шран
шре
шри
шрифч
шс
шса
шсе
шсем
шсемпе
шсен
шсене
шт
штаб
штабс
штадт
штаи
штандарч
штаракан
штарать
штарма
штарн
штарни
штарса
штат
штатсем
штах
штач
штаче
штеи
штерн
шти
штиль
шторм
штраус
штук
штурм
штурман
штурмлакан
штутгарт
шу
шуи
шук
шукшин
шукшина
шулл
шултра
шумер
шунтал
шупашкар
шупашкара
шупашкарта
шупашкартан
шупашкарти
шупка
шупу
шур
шура
шурик
шуркасси
шурл
шуррисем
шуррисен
шурча
шурш
шуса
шут
шута
шуте
шутл
шутла
шутлав
шутлавл
шутлама
шутлан
шутлана
шутланакан
шутланать
шутлани
шутланипе
шутланн
шутланна
шутласа
шутласан
шутлать
шутне
шутпа
шутра
шух
шуха
шуч
шуче
шчен
шш
шши
шшин
шы
шыв
шыва
шываи
шывам
шыве
шывл
шывне
шывпа
шывра
шывран
шыври
шыврисем
шывсем
шывсенче
шывуправ
шывуправенчч
шырав
шырама
шыраса
шырать
щ
ще
щепкин
щербаков
щукин
щучья
ъ
ы
ыв
ыва
ыджыд
ыи
ыл
ылмаш
ылт
ылта
ылтт
ын
ына
ыне
ынл
ынн
ынна
ынни
ыннин
ыннине
ыннисем
ыннисемпе
ыннисен
ыннисене
ыннисенчен
ынпа
ынран
ынсем
ынсемпе
ынсен
ынсене
ынсенчен
ып
ыр
ыра
ырав
ыравл
ыравпа
ыракан
ырал
ыран
ыранне
ыранпа
ыранпе
ырас
ырасси
ырать
ыраш
ырл
ырла
ырлан
ырли
ырлисем
ырма
ырмалла
ырмалли
ырман
ырмапу
ырми
ырмисем
ырн
ырни
ырнине
ырнипе
ырнисем
ырнисен
ырнисене
ырса
ырсатуху
ырсатухупа
ыру
ырул
ырулл
ырупа
ырура
ырусем
ырьят
ыт
ыта
ытарл
ытла
ытларах
ытлах
ытлашши
ытти
ыттисем
ыттисемпе
ыттисен
ыттисене
ыттисенчен
ых
ыхра
ыхрав
ыхса
ыххи
ыш
ыша
ышанакан
ыше
ышл
ышне
ышра
ышран
ышри
ышсем
ышсен
ышши
ышшисем
ышшисен
ь
э
эволюци
эволюции
эволюция
эгеи
эдвард
эдгар
эдинбург
эдисон
эдо
эдуард
эжен
эи
эквадор
экватор
эквивалентл
экз
экзамен
экземпляр
экзюпери
экипаж
экологи
экологии
экология
экономик
экономика
экономики
экономикин
экономист
экономисч
экономическая
экономическои
экран
экранизациленисем
экс
эксмо
экспедици
экспедиции
экспедицине
эксперимент
экспериментл
экспериментсенчен
эксперт
экспресс
эл
элам
эле
элек
электрика
электричество
электро
электродинамика
электромагнит
электромагнитла
электрон
электроника
электронл
электронла
электронная
электроннои
электронныи
электротехника
элем
элемент
элемента
элементарл
элементарная
элементарнои
элементов
элементсем
элементсен
элементы
элеменч
элизабет
элкел
элкер
элли
эллинизм
элмен
элмет
элн
элпу
элтеш
элч
элчел
элчи
элчисем
элшел
эль
эльба
эльвира
эльдар
эльзас
эльмень
эльшеи
эмбинскии
эмблеми
эмел
эмили
эмилии
эмилия
эмиль
эмине
эмир
эмма
эммануил
эмми
эн
энгельс
энд
эндемиксем
эндрю
энергетика
энерги
энергии
энергия
энн
энтль
энтони
энтри
энцикл
энциклопеди
энциклопедии
энциклопединче
энциклопедире
энциклопедири
энциклопедисем
энциклопедическии
энциклопедия
энциклопедиякультурное
эп
эпе
эпизод
эпизодри
эпизодсенче
эпир
эпос
эпоха
эпохи
эпоху
эппин
эпштеи
эр
эра
эраччен
эрех
эрехе
эрехсем
эрехт
эреш
эрешмен
эри
эрик
эрих
эрлихман
эрмен
эрмени
эрменсем
эрмитаж
эрне
эрнере
эрнест
эрнст
эро
эрч
эс
эсер
эсерсем
эсир
эскадрильин
эскадрилья
эскадрон
эсминец
эсперанто
эссе
эссеи
эст
эстамп
эстетика
эстон
эстони
эстонире
эстонири
эстония
эстрада
эсхель
эта
этап
этем
этеме
этемл
этеп
этепл
эти
этика
этикет
этикета
этимологи
этимологии
этимологическии
этимология
этих
эткер
этмен
этническая
этническои
этно
этногенез
этнограф
этнографи
этнографии
этнографические
этнографическии
этнографическое
этнография
этнологи
этноним
этнос
этнотерриториальных
это
этого
этои
этом
этот
эфиопи
эфир
эфирл
эффективл
эффекч
эх
эхер
эхо
эшелон
эшпаи
ю
юань
юбилеи
юбка
ювелир
юг
юган
юго
югослави
югра
юдин
юдифь
южная
южнои
южныи
юи
юкон
юл
юла
юланут
юлать
юлашки
юлашкинчен
юлашкисем
юлиан
юлии
юлия
юлл
юлма
юлман
юлн
юлна
юлташ
юлташл
юля
юм
юман
юманл
юмарт
юмах
юмахсем
юмор
юн
юна
юнашар
юнашарах
юнеско
юникод
юнко
юнл
юность
юнтапа
юпа
юпан
юпитер
юппи
юппии
юппин
юппинчен
юпписем
юпписен
юптару
юр
юра
юраман
юрамасть
юрат
юрата
юратакан
юратать
юратн
юратса
юрату
юратупа
юрать
юри
юрибеи
юридици
юридическая
юридическии
юрии
юрилле
юрист
юристъ
юрисч
юрия
юрк
юркин
юркки
юрла
юрлакан
юрлама
юрлан
юрлани
юрлать
юрр
юрра
юрри
юррине
юррисем
юррисен
юррисене
юрьев
юрьевич
юрьевна
юсав
юсаса
юстиниан
юстици
ют
юх
юха
юхакан
юхан
юханшыв
юханшыва
юханшыван
юханшыве
юханшывес
юханшывне
юханшывран
юханшывс
юханшывсем
юханшывсемс
юханшывсен
юхать
юхма
юхн
юхса
юхтарса
юшк
юшкевича
я
яв
ява
явап
явапл
явапла
явления
является
явн
явни
яворскии
яга
ягафова
ягун
ядерл
ядерла
ядерная
ядерного
яз
язык
языка
языкам
языках
языке
языки
языков
языковои
языкознание
языкознания
языку
языческие
яи
як
яка
якаел
якку
якоб
яков
яковлев
яковлева
яковлевич
яковлевна
якуб
якуркел
якут
якути
якутск
якушкино
ял
яла
ялав
ялава
ялавне
ялавсем
ялан
яланах
яланхи
яланхилле
ялгир
яле
ялк
ялкир
ялне
ялпа
ялсем
ялсемпе
ялсен
ялсене
ялсенче
ялсенчи
ялт
ялта
ялтан
ялти
ялху
ялчувашская
яма
ямаи
ямал
ямалла
яман
ямаш
ямщиков
ян
яна
янаул
янв
январ
январь
января
яндекс
яни
янис
янисем
янк
янка
янкас
янковскии
янрав
янт
янташ
янташсем
яп
япа
япала
япалал
япалан
япалана
япаласем
япаласемпе
япаласен
япаласене
япали
япалисем
япалисене
япон
япони
японие
японии
японин
японире
японири
япония
яппун
япун
япунсем
яр
яра
яракан
ярань
ярать
ярм
ярослав
ярослава
ярославль
ярса
ярсан
яру
ясак
ясм
ят
ята
ятарл
ятарла
ятарласа
ятл
ятла
ятне
ятпа
ятран
ятс
ятсем
ятсемпе
ятсене
яуза
яун
ях
яха
яч
яче
яш
яшка
яшки
яшл
є
і
ім
ін
љ
ґ
ғ
қ
ң
ҫ
ҫа
ҫав
ҫава
ҫавна
ҫавнашкал
ҫавра
ҫак
ҫака
ҫакна
ҫамра
ҫапа
ҫапла
ҫар
ҫаре
ҫе
ҫен
ҫех
ҫеҫ
ҫи
ҫиелтен
ҫии
ҫиме
ҫине
ҫинче
ҫинчен
ҫинчи
ҫире
ҫите
ҫити
ҫитне
ҫла
ҫлана
ҫле
ҫлекен
ҫлеме
ҫлене
ҫлет
ҫне
ҫнелле
ҫпа
ҫран
ҫре
ҫри
ҫсе
ҫсем
ҫта
ҫу
ҫук
ҫул
ҫула
ҫуле
ҫулла
ҫулсем
ҫулсен
ҫулсенче
ҫулсенчи
ҫулта
ҫултала
ҫултан
ҫултанпа
ҫулхи
ҫулччен
ҫулҫу
ҫума
ҫуме
ҫумне
ҫура
ҫурална
ҫурла
ҫурт
ҫурче
ҫурҫе
ҫута
ҫутҫантала
ҫухра
ҫчене
ҫыва
ҫын
ҫына
ҫыне
ҫынна
ҫынни
ҫыннисем
ҫынсем
ҫынсен
ҫынсене
ҫыра
ҫыравҫа
ҫыравҫи
ҫыран
ҫыране
ҫырна
ҫырса
ҫыру
ҫыха
ҫҫ
ү
һ
ӈ
ә
ө
ְ
ִ
ַ
ָ
ֹ
ּ
ׁ
ב
ד
ל
נ
ר
ש
ת
ا
َ
ّ
ٓ
ٔ
ܵ
ܼ
ँ
ं
क
ग
च
ज
ड
त
द
न
प
म
य
र
ल
व
श
ष
स
ह
ा
ि
ी
ु
ू
ृ
े
ै
ो
्
।
ট
ল
়
া
ি
ে
্
ક
પ
ય
ા
િ
ી
ો
્
ட
ப
ா
ி
ு
்
ಿ
ം
ക
ാ
ി
്
ක
ල
්
ා
ි
ก
พ
ย
ว
ั
ิ
ี
ู
่
้
์
་
‌
‍
‎
‏
‐
‑
‒
–
—
―
‘
’
‚
“
”
„
†
‡
•
…
‰
′
″
‹
›
€
№
←
↑
→
↔
↷
−
≈
≤
≥
③
④
⑦
─
│
└
├
⺀
⺄
⺆
⺈
⺊
⺌
⺕
⺝
⺸
⺼
⿰
⿱
⿲
⿳
⿴
⿵
⿶
⿷
⿸
⿹
⿺
⿻
、
。
『
』
〢
い
う
か
き
く
し
す
そ
た
て
と
な
の
は
よ
る
れ
ん
゙
゚
ア
ィ
カ
ク
コ
サ
シ
ス
タ
ッ
テ
ト
ユ
ラ
リ
ル
ン
・
ー
㇁
㇂
㇄
㇇
㇈
㇉
㇓
㐁
㐄
㐅
㐌
㐫
㐬
㐭
㐮
㐱
㑒
㒵
㒸
㒼
㓁
㓞
㔾
㕛
㕣
㖾
㘝
㚅
㚇
㚔
㚘
㝉
㝡
㝴
㝵
㞋
㞢
㞷
㠩
㠭
㠯
㡀
㡭
㡿
㢲
㢴
㣇
㣺
㥯
㪅
㫄
㫐
㫒
㫺
㬅
㬎
㬥
㬰
㲋
㳄
㷠
㸒
㸚
㸦
㼌
㼲
㽞
㿟
䀠
䂞
䍃
䏍
䒑
䖍
䖒
䖝
䖵
䙴
䚻
䜌
䝿
䡛
䧹
䪞
一
丁
丂
七
丄
丅
丆
万
丈
三
上
下
丌
不
与
丏
丐
丑
专
且
丕
世
丘
丙
业
东
丞
丢
丣
两
严
並
丨
丩
个
丫
丬
中
丮
丰
丱
串
丵
丶
丷
丸
丹
为
主
丽
丿
乀
乂
乃
久
乆
乇
么
义
之
乌
乍
乎
乏
乐
乑
乔
乖
乗
乘
乙
乚
乛
乜
九
乞
也
习
乡
乳
乾
亀
亅
了
亇
予
争
事
二
亍
于
亏
亐
云
互
亓
五
井
亘
亚
亜
亞
亟
亠
亡
亢
交
亥
亦
产
亨
亩
享
京
亭
亮
亯
亰
亲
亳
亶
亷
人
亻
亼
亾
仁
今
介
仌
从
仐
仑
仒
仓
仕
他
付
仝
代
令
以
任
企
伊
伏
伐
休
会
伯
但
位
何
佘
余
作
佥
使
來
侈
侌
侖
侯
侵
便
俄
保
俞
信
修
倉
倍
候
倠
備
傳
僉
僕
儿
兀
允
兂
元
兄
充
兆
兇
先
光
兊
克
兌
免
兑
兒
兓
兔
党
兜
兟
入
全
兩
兪
八
公
六
兮
兰
共
关
兵
其
具
典
兹
兼
冀
冂
冃
冄
内
冈
冉
冊
冋
册
再
冎
冏
冐
冒
冓
冖
冗
冘
军
农
冝
冡
冥
冫
冬
冷
几
凡
凢
凵
凶
凷
凸
凹
出
函
凾
刀
刁
刂
刃
刄
刅
分
切
刍
刑
刕
刖
列
刘
则
初
別
利
别
到
制
刺
則
削
剌
前
剡
剽
劉
力
功
加
劦
助
劫
劳
劵
勃
勇
勉
勒
動
務
勞
勤
勹
勺
勻
勾
勿
匀
匂
包
匆
匈
匊
匋
匍
匕
化
北
匚
匝
匡
匪
匱
匸
匹
区
医
匽
匿
區
十
卂
千
卄
卅
卆
升
午
卉
半
卌
华
卑
卒
卓
单
卖
南
卜
卝
卞
占
卡
卢
卣
卤
卦
卩
卪
卬
卯
印
危
即
却
卵
卷
卸
卻
厂
厃
厄
历
厈
厉
厌
厓
厘
厚
原
厤
厥
厨
厭
厲
厶
厷
厸
去
厼
厽
叀
参
參
叅
又
叉
及
友
双
反
叐
发
叒
叔
叕
取
受
叚
叜
叟
口
古
句
另
叩
只
召
可
台
叱
史
右
叵
号
司
叹
吂
各
吅
合
吉
吊
吋
同
名
后
吏
向
吕
君
吝
吞
否
含
启
吳
吴
吹
吾
呂
呆
呈
告
员
呙
周
命
咅
和
咎
咠
咢
咨
咸
咼
哀
品
哉
員
哥
哲
唐
商
啇
問
啚
啬
啻
善
喜
喬
單
喿
嗇
噩
嚴
囊
囗
囘
囙
囚
四
回
囟
因
囧
囬
困
囱
囷
固
国
圂
圅
國
圍
圓
土
圡
圣
圥
在
圭
地
圶
圼
坐
坒
坚
坴
垂
垔
垚
埀
埋
埶
執
基
堂
堅
堆
堇
堯
塞
墨
壘
士
壬
壯
声
壳
壴
壹
壺
壽
夂
处
夅
夆
备
夊
夋
夌
复
夏
夒
夕
外
夗
夘
多
夜
夢
大
夨
天
太
夫
夬
夭
央
失
夲
头
夷
夸
夹
夻
夾
奂
奄
奇
奈
奉
奎
奏
奐
契
奓
奔
奚
奞
奠
奢
奥
奭
女
奴
奻
好
如
妄
妙
妟
妥
妻
妾
姑
委
姜
威
娄
婁
婴
嬰
嬴
子
孑
孔
孕
孖
字
存
孚
孛
孝
孟
季
孤
学
孫
孱
學
宀
宁
宂
它
宅
宇
守
安
宋
完
宏
宓
宗
官
定
宛
宜
宝
客
宣
室
宮
宰
害
家
容
宾
宿
寄
寅
密
富
寒
察
寧
審
寫
寬
寮
寸
对
寺
寻
寽
対
寿
封
尃
射
将
將
專
尉
尊
尋
尌
對
小
少
尒
尓
尔
尖
尗
尚
尞
尢
尣
尤
尧
尨
尭
就
尸
尹
尺
尻
尼
尽
尾
尿
局
居
屈
屋
屎
屏
屑
展
屖
屚
属
屠
屡
屬
屮
屯
屰
山
屵
屾
岁
岂
岑
岡
岩
岳
岸
峯
島
崇
崑
崔
崖
崙
崩
嵬
嶲
巂
巛
川
州
巟
巠
巢
巤
工
左
巧
巨
巩
巫
差
己
已
巳
巴
巷
巸
巻
巽
巾
巿
帀
市
布
希
帚
帛
帝
带
師
席
帶
常
干
平
年
幵
并
幷
幸
幺
幻
幼
幽
幾
广
広
庄
床
底
店
庚
府
度
庫
庭
庶
康
庸
廉
廌
廛
廣
廩
廴
延
廷
建
廾
廿
开
弁
弃
弄
弇
弋
式
弓
弔
引
弗
弘
弜
弟
弥
弦
弱
張
強
强
彊
彌
彎
彐
彑
当
彔
录
彖
彗
彡
形
彥
彦
彧
彭
彳
役
彼
往
待
律
徒
得
徙
從
復
微
徵
德
心
忄
必
忌
忍
志
忝
忠
忩
快
念
忽
忿
思
怠
急
怱
恆
恒
恩
恭
息
悉
患
悤
悲
悶
惠
惡
惢
愁
愈
意
愛
感
慈
慧
慮
憂
憲
應
戀
戈
戉
戊
戋
戌
戍
戎
成
我
戒
戔
或
戚
戠
戢
截
戲
戶
户
戹
戼
戾
房
所
扁
扇
手
扌
才
打
托
执
承
折
拉
拜
拿
掌
推
提
摩
支
攴
攵
收
攸
改
放
政
敄
敏
敕
敖
敗
敝
敞
敢
散
敦
敫
敬
数
敷
數
斂
文
斉
斊
斗
斤
斥
斩
斬
斯
新
方
於
施
斿
旁
旋
族
无
旡
既
旣
日
旦
旧
旨
早
旬
旱
旲
时
旾
昆
昇
昌
昍
明
昏
易
昔
昗
昜
星
春
昬
是
昱
昴
昷
時
晃
晋
晏
普
景
晶
智
暑
暴
曇
曩
曰
曲
曳
更
曷
書
曹
曼
曾
替
最
朁
會
月
有
朋
服
朔
朕
朗
望
朝
木
朩
未
末
本
札
朮
术
朱
朵
朶
朿
杀
杏
杜
束
条
来
東
杲
杳
松
板
析
林
枚
果
枝
枲
枼
某
柔
查
柬
柰
柴
栗
桀
桑
桼
梁
條
梟
梨
棘
棠
棥
森
楚
業
楽
榮
樂
樊
模
欠
次
欣
欮
欲
欶
欽
款
歆
歇
歛
止
正
此
步
武
歨
歪
歮
歯
歰
歲
歴
歷
歸
歹
歺
死
殳
段
殷
殸
殹
殺
殻
殿
毋
毌
母
每
毒
比
毕
毚
毛
毳
氏
氐
民
气
氣
水
氵
氶
氷
永
氺
氾
求
汝
汞
江
沃
沓
沙
沝
泉
法
波
泣
泥
泰
洛
洪
活
派
流
浦
浪
浮
海
淡
淮
清
渚
渠
湯
滿
漸
火
灬
灭
灰
灵
灷
炅
炎
炏
炗
炙
炭
為
烈
烏
烝
焉
無
焦
焱
然
煞
熊
熏
燕
營
燮
爪
爫
爭
爯
爰
爱
爲
爵
父
爻
爽
爾
爿
片
版
牙
牚
牛
牜
牟
牢
牧
物
牪
特
牽
犀
犬
犭
犮
狂
狄
狊
独
狺
猋
猒
猪
献
獻
玄
率
玉
王
玟
玨
珎
班
理
琴
瑟
瑩
瓜
瓦
甘
甚
生
産
用
甫
甬
田
由
甲
申
电
甶
男
甸
甹
画
甾
畀
界
畏
畐
留
畜
畟
畢
畧
畨
番
畫
異
畱
當
畺
畾
疊
疋
疌
疑
疒
疾
癶
癸
癹
登
發
白
百
皀
皃
的
皆
皇
皋
皐
皕
皮
皷
皿
盃
盆
盇
盈
益
盍
盎
监
盒
盖
盛
盡
監
盤
盧
目
直
相
盾
省
眇
眉
看
眔
眞
真
眷
眼
眾
着
睘
睪
睿
瞏
瞢
瞿
矍
矛
矞
矢
矣
知
矦
短
石
破
碎
磊
磨
示
礻
礼
祐
祟
票
祭
禀
禁
禸
禹
禺
离
禽
禾
禿
秀
秃
秉
秋
科
秝
秦
移
稟
穀
穌
穴
究
穹
空
穿
突
窄
窒
立
竒
竜
竝
竟
章
童
竹
笑
笠
筆
等
答
箕
算
箴
節
篤
篭
米
粉
粛
粟
粤
粦
粲
糞
糸
糹
系
約
納
素
索
紫
累
細
絜
絫
絲
維
綿
縣
繇
纍
纟
维
缶
网
罒
罔
罕
罗
罙
罡
罢
罪
署
罷
羅
羊
羌
羍
美
羔
羕
羗
羞
羡
羣
群
義
羲
羸
羽
翁
翏
習
翕
翟
翠
翼
老
耂
考
者
耆
而
耎
耑
耒
耳
耴
耶
耷
聂
聊
聖
聚
聶
聿
肀
肃
肅
肉
肖
肙
肥
肩
肯
育
肴
胃
背
胡
胥
能
脊
脩
膚
臣
臤
臧
自
臬
臭
臯
臱
至
致
臺
臼
臽
臾
臿
舀
舂
舄
與
興
舉
舌
舍
舛
舜
舞
舟
般
艮
良
色
艸
艹
艾
芒
芔
芬
芮
花
芳
芺
芻
苔
苗
苟
若
苦
英
茶
茸
荅
草
荒
荣
荼
莆
莧
莫
莽
菆
菊
菐
華
萬
落
葉
著
葛
董
葵
蒙
蒦
蒼
蓋
蓬
蓺
蔑
蔡
蕉
蕭
薄
薛
薦
薰
藍
藏
藥
蘭
虍
虎
虐
虒
虔
處
虖
虗
虘
虚
虛
虜
虞
虫
虽
蚤
蚩
蜀
蜜
蟲
蠡
血
行
衍
衛
衣
衤
表
衮
衰
袁
袞
褭
褱
襄
襾
西
覀
要
覃
見
規
覓
覧
親
覽
见
角
解
言
訁
訇
計
詹
語
誩
諸
讠
语
谷
豆
豈
豊
豐
豕
豖
豙
象
豦
豩
豪
豸
貇
貝
貞
貟
負
貢
貧
貪
貫
責
貳
貴
買
費
賁
資
賈
賏
賓
賔
賛
賞
賢
賣
質
賴
贊
贝
贡
责
贯
贲
贵
赖
赞
赤
赦
走
越
趙
足
路
蹇
身
躬
車
軍
軎
軟
輦
车
辛
辜
辞
辟
辥
辰
辱
農
辵
辶
边
达
过
近
连
迷
追
退
送
逆
逐
通
速
造
逢
連
逮
進
遀
遂
過
道
達
遣
適
遷
遺
邊
邑
邕
那
邦
邪
郎
部
郭
都
鄉
酉
酋
配
酓
釆
采
里
重
野
量
金
釒
錢
钅
長
镸
长
門
閃
閉
開
閏
閑
閒
間
閔
閵
閻
闌
门
问
间
闷
阑
阜
阝
阿
降
陳
隆
隊
隋
隡
隨
隱
隶
隹
隺
隻
隼
隽
难
雀
雁
集
雈
雋
雍
雐
雔
雙
雚
雜
雝
離
難
雨
雩
雪
雲
零
雷
需
霍
霜
霝
霞
霸
靈
靑
青
非
靡
面
靣
革
韋
韦
韭
韯
韱
音
頁
頃
項
須
頗
頡
頻
顛
页
風
风
飛
飞
食
飠
養
饣
首
香
馬
馮
駦
马
骨
高
髟
鬥
鬯
鬲
鬼
魚
魯
鮮
鱼
鲁
鳥
鳳
鸟
鹵
鹿
麃
麗
麥
麦
麻
黃
黄
黍
黎
黑
黒
黨
黹
黽
黾
鼎
鼓
鼠
鼻
齊
齋
齐
齒
齿
龍
龙
龜
龟
龠
龰
龱
龴
龵
龶
龷
龸
龹
者
艹
︠
︡
（
）
，
：
？
�
𠀁
𠀃
𠀆
𠀉
𠀎
𠀐
𠁁
𠁣
𠂆
𠂇
𠂈
𠂉
𠂊
𠂋
𠂎
𠂒
𠂔
𠂛
𠂡
𠂢
𠂤
𠂬
𠂭
𠂹
𠃊
𠃋
𠃌
𠃍
𠃎
𠃑
𠃓
𠃔
𠃜
𠄌
𠄎
𠄠
𠄢
𠆢
𠆥
𠇍
𠈌
𠌵
𠓜
𠔉
𠔥
𠔼
𠔽
𠔿
𠕀
𠕁
𠕋
𠘧
𠘨
𠙻
𠙼
𠚏
𠚒
𠚤
𠚪
𠣏
𠤎
𠤕
𠥓
𠦄
𠦑
𠦝
𠧒
𠧗
𠧪
𠩺
𠪚
𠫓
𠫔
𠫤
𠬛
𠬝
𠬞
𠬢
𠬤
𠬶
𠮛
𠮦
𠮷
𠯑
𠱠
𠳮
𠷎
𡈼
𡉀
𡉵
𡌥
𡍮
𡏳
𡕒
𡕩
𡕰
𡖅
𡗗
𡗜
𡘆
𡘤
𡧱
𡨄
𡩧
𡬠
𡭽
𡰣
𡰥
𡰪
𡰯
𡰱
𡷈
𡸁
𡿨
𡿩
𡿪
𡿺
𢀖
𢀛
𢀩
𢁙
𢆉
𢆰
𢆶
𢇁
𢇇
𢉖
𢌬
𢌿
𢏚
𢑑
𢑚
𢖻
𢙣
𢛳
𢦏
𢦒
𢧵
𢼄
𢾕
𣁋
𣄼
𣅀
𣅽
𣍘
𣎳
𣎵
𣏋
𣏼
𣗥
𣥂
𣥖
𣦵
𣦼
𣧄
𣪊
𣪠
𣬉
𣳾
𣶒
𤇾
𤊽
𤐫
𤓰
𤔔
𤕨
𤣩
𤰇
𤰔
𤰞
𤴓
𤴔
𤽄
𥁑
𥁕
𥃦
𥃩
𥃭
𥇡
𥑟
𥘅
𥘈
𥝢
𥫗
𥱡
𦈢
𦉪
𦉬
𦉼
𦍌
𦍒
𦎧
𦐇
𦓔
𦔮
𦘒
𦙃
𦚏
𦣝
𦣞
𦣻
𦥑
𦥔
𦥯
𦨉
𦭝
𦰩
𧆞
𧈧
𧘇
𧰨
𧴪
𧴮
𧵩
𧾷
𨸏
𨾴
𩙿
𩠐
𩫏
𩵋
𪉷
𪜀
𪟽
𪠲
𪩲
𫇦
𫔭
𫜸
𫝀
𫠣
𫠩
𫢉
𫥞
𫩏
𫩠
𫪡
𫲽
𫶧
𬀷
𬐘
𬗌
𬙙
𬛸
𬜯
𬟩
𬯁
𬴘
𬺻
𬼉
𬼖
𭀰
𭁈
𭁨
𭅰
𭑈
𭕄
𭗼
𭤨
𭥫
𭻾
𮅕
𮊿
𮍌
𮍏
𮓗
𮥼
𮧮
廾
𰀁
𰀄
𰀈
𰀉
𰀕
𰀠
𰀡
𰀢
𰀪
𰁜
𰃮
𰆊
𰆘
𰋙
𰕎
𰢴
𰧭
𰯲
000--
001--
01--
014--
02--
03--
03010000112--
03010000212--
0302010011210--
03020100212103--
03020100312103--
030203005--
03020300512103--
0303000011210--
030300002--
03030000312103--
0304000011210--
0305010011210--
03050100212103--
030502001--
03050200112103--
030503001--
03050300112103--
0306000011210--
04--
05--
05010300112--
06--
0602000111--
07--
07020000712108--
08--
080102001121--
080102004121--
08010300112--
08010500212--
09--
090102001121--
090102004121--
09010300712--
0901030081211--
09010301112--
100--
100102007121111000--
100102010--
100102013--
100102015--
100102016--
100103002--
100103003--
100103004--
100103005--
101--
102--
103--
104--
105--
106--
107--
108--
109--
110--
11010000412112--
11010000512112--
11010001612112--
111--
112--
113--
114--
115--
116--
117--
118--
119--
120--
12010000612112--
121--
122--
123--
124--
126--
127--
129--
130--
130101002--
130101003--
130102002121--
130102003--
130102005121--
130102006121--
130102007121--
130103001121--
130105001121--
130106001121--
130107001121--
130108001121--
130109001121--
130111001121--
130111002121--
132--
133--
134--
135--
138--
139--
140--
140105019121--
140106001121--
141--
142--
143--
144--
145--
146--
147--
150--
1502010011211530002--
150203002121--
150203003121--
150400002121--
150500002121--
151--
152--
160--
162--
164--
167--
429--
450--
452--
453--
64--
69--
70--
71--
72--
73--
74--
75--
76--
77--
78--
79--
80--
802--
802338--
802348--
802358--
802378--
802388--
802418--
802438--
802448--
802488--
802498--
802508--
802518--
802528--
802538--
802548--
802568--
802578--
802588--
80259--
81--
82--
83--
84--
85--
86--
87--
88--
89--
90--
900--
91--
92--
93--
94--
95--
96--
97--
978--
98--
99--
a--
aa--
ab--
ac--
ad--
add--
adve--
aer--
af--
ag--
ah--
ai--
air--
ak--
al--
alex--
all--
am--
ami--
an--
anat--
ange--
anim--
anti--
app--
append--
ar--
arc--
archaeo--
as--
astr--
at--
au--
aus--
av--
ax--
az--
b--
ba--
bal--
balt--
bam--
bar--
be--
bel--
ber--
bey--
bi--
bibl--
bil--
bio--
biogra--
bl--
blo--
bo--
bos--
bou--
br--
bre--
bro--
bu--
bul--
bur--
bure--
by--
c--
ca--
cal--
calcu--
camp--
can--
car--
cara--
cat--
cau--
ce--
cele--
cent--
cer--
ch--
cha--
cham--
char--
che--
cho--
chri--
ci--
cir--
cl--
cle--
co--
col--
com--
communi--
con--
contri--
coor--
copy--
cor--
cou--
coun--
cr--
crea--
cris--
cro--
cry--
cu--
cy--
d--
da--
dal--
de--
decimal--
deg--
demografi--
di--
dia--
dicti--
dig--
dis--
distri--
do--
dou--
dr--
draw--
du--
dur--
dy--
dyna--
e--
ea--
eco--
ed--
el--
ele--
elec--
em--
en--
eng--
engl--
environ--
ep--
eq--
equ--
equa--
er--
es--
et--
eu--
eve--
ex--
exi--
expl--
exte--
ey--
f--
fa--
fac--
fal--
far--
fe--
fer--
fi--
fis--
fla--
fle--
flo--
flu--
fo--
fol--
foot--
for--
format--
fr--
fre--
frei--
fu--
fund--
g--
ga--
gains--
gal--
gam--
gar--
gau--
gaz--
ge--
gene--
geo--
geog--
ger--
get--
gi--
gia--
gil--
gio--
gl--
go--
gra--
gramm--
gre--
gri--
grif--
gro--
gru--
grund--
gu--
h--
ha--
ham--
har--
hau--
he--
hel--
heli--
her--
hi--
high--
hit--
hl--
ho--
hol--
hr--
hu--
hy--
i--
ia--
ice--
id--
il--
illu--
im--
in--
inde--
indu--
ing--
inne--
inter--
io--
ip--
ir--
is--
it--
j--
ja--
je--
jo--
joy--
ju--
k--
ka--
ke--
kha--
ki--
kla--
klu--
ko--
kon--
kra--
kri--
ku--
l--
la--
lam--
le--
lehr--
lew--
lexi--
li--
lite--
lo--
lt--
lu--
ly--
m--
ma--
mac--
mag--
mai--
mamm--
man--
mar--
max--
mc--
me--
meas--
mel--
mem--
mer--
meta--
mi--
micr--
mil--
mili--
mis--
miss--
mo--
mon--
mona--
mont--
mor--
mos--
mou--
mu--
muni--
mur--
my--
mytho--
n--
na--
nav--
navi--
nc--
nd--
ne--
new--
ng--
ni--
nico--
no--
nor--
not--
nt--
nu--
num--
ny--
o--
ob--
obl--
obs--
od--
of--
om--
on--
op--
open--
or--
orie--
os--
ott--
out--
over--
p--
pa--
pal--
par--
pe--
per--
pha--
phi--
philo--
pho--
phy--
pi--
pl--
play--
po--
pol--
poli--
poly--
popu--
pr--
pre--
pro--
prop--
pu--
pur--
py--
q--
qu--
qua--
r--
ra--
re--
recon--
ref--
reg--
rei--
relation--
remo--
render--
res--
result--
rey--
ri--
rn--
ro--
rou--
row--
ru--
s--
sa--
sal--
sau--
sca--
sce--
sch--
scho--
scien--
sco--
scr--
se--
sec--
selec--
sen--
ser--
seve--
sh--
si--
sig--
silv--
sk--
sl--
slo--
so--
sol--
sp--
spe--
spo--
ss--
st--
ste--
stu--
su--
sub--
sv--
sw--
swe--
swit--
sy--
sylv--
sym--
symp--
synt--
t--
ta--
tal--
tata--
tax--
te--
teac--
tech--
tele--
temp--
ter--
text--
th--
thom--
ti--
to--
topo--
tor--
tou--
tr--
tra--
trans--
tri--
ts--
tt--
tu--
tur--
u--
uk--
ult--
um--
un--
up--
ur--
us--
v--
va--
ve--
ver--
vi--
viki--
vil--
vio--
vla--
vo--
voca--
vor--
w--
wa--
wal--
we--
wel--
whi--
whit--
wiki--
wil--
win--
wis--
wo--
wri--
x--
xi--
y--
ya--
yayı--
yu--
z--
za--
ze--
zh--
zoo--
zts--
zu--
λ--
ν--
π--
ρ--
а--
аб--
аба--
аббревиа--
абдр--
абду--
абл--
абсо--
абу--
ав--
авант--
авер--
авиа--
авл--
австр--
авто--
аг--
ага--
агаф--
аги--
аглом--
агр--
агрип--
агу--
ад--
адел--
адорат--
аз--
аза--
ази--
аи--
ак--
ака--
аквар--
акк--
актив--
актиноид--
акту--
акци--
ал--
ала--
але--
али--
алко--
алл--
алт--
аль--
альметьев--
ам--
ама--
ами--
ампл--
амф--
ан--
ана--
андр--
андриа--
андрю--
анже--
ани--
анимаци--
анк--
ано--
антве--
анти--
антич--
антр--
антре--
антроп--
антропо--
анф--
ань--
ао--
ап--
апа--
апат--
апп--
аппа--
апт--
апу--
ар--
ара--
араб--
арбу--
аргу--
арес--
ари--
арм--
армян--
арте--
ас--
аса--
асап--
асаплан--
ассак--
ассо--
ассоциа--
аст--
астро--
ат--
ата--
ау--
ауди--
аудио--
аф--
афа--
афе--
афор--
афр--
ах--
ац--
ач--
ача--
аш--
ашха--
аэро--
аяк--
б--
ба--
баг--
багр--
бад--
баже--
бак--
бал--
бала--
балаба--
баль--
бам--
бан--
бар--
бараба--
бас--
бах--
башки--
башкирс--
бе--
бед--
без--
безымян--
бек--
бел--
белин--
бель--
бен--
бер--
берд--
бере--
бери--
бесп--
беспа--
бесс--
беше--
би--
биби--
био--
биобиблио--
бирю--
бит--
бл--
бла--
благо--
бли--
ближ--
блок--
бо--
боб--
бог--
богат--
бод--
бол--
болот--
боль--
больша--
бон--
бор--
ботв--
бояр--
бр--
бра--
брас--
брат--
брау--
бре--
брет--
бри--
брод--
брон--
брош--
бру--
бры--
бу--
буб--
буд--
буду--
бук--
бул--
була--
булы--
буль--
бун--
бунде--
бур--
бус--
бут--
бух--
буш--
бы--
быстр--
бь--
бэ--
бю--
бюр--
в--
ва--
ваг--
важ--
вак--
вал--
вам--
ван--
вар--
вара--
вас--
ват--
вах--
вац--
ваш--
вв--
вве--
вви--
вги--
вдо--
ве--
веб--
ведом--
ведь--
век--
вел--
велиз--
великоб--
вен--
венге--
вер--
вернад--
вертин--
весе--
вест--
вет--
веч--
веще--
вз--
взаимо--
взят--
ви--
вид--
видео--
виз--
вики--
вил--
виль--
вин--
виол--
вир--
вирту--
вис--
вит--
вк--
вклю--
вл--
вла--
влади--
вне--
вну--
во--
вод--
водо--
воен--
вож--
воз--
возду--
возник--
воинс--
вол--
волж--
воло--
волок--
волшеб--
волы--
воль--
вор--
ворот--
воротын--
вос--
воск--
восп--
восточ--
вось--
вот--
вр--
врон--
вс--
все--
вспо--
встре--
вт--
ву--
вул--
вун--
вы--
вызы--
выр--
высо--
выст--
выступ--
вь--
вяз--
вязо--
вят--
ві--
г--
га--
габ--
габду--
газ--
гали--
галь--
гам--
ган--
ганг--
гапло--
гар--
гарм--
гастр--
гау--
гво--
ге--
геб--
гели--
гель--
ген--
гео--
геопол--
гер--
ги--
гиб--
гидр--
гидро--
гиль--
гиля--
гин--
гирос--
гл--
глад--
глаз--
глин--
глоб--
глобаль--
глос--
глу--
глубо--
гне--
го--
год--
гол--
голов--
голь--
гольд--
гомо--
гон--
гор--
горь--
гос--
гот--
гоф--
гр--
гра--
грав--
град--
гре--
греб--
гребен--
грен--
гри--
гроз--
грос--
гру--
грюн--
гряз--
гу--
губерн--
гуд--
гуль--
гун--
гур--
гусь--
гутен--
гю--
д--
да--
дак--
дал--
дан--
дани--
дар--
дач--
две--
движ--
дву--
де--
дев--
дево--
девч--
девят--
дед--
дежур--
дек--
декаб--
декоратив--
дель--
демо--
демокра--
ден--
дер--
деревян--
держа--
деся--
дет--
деф--
дж--
джан--
джен--
джентль--
джо--
джор--
джун--
дзю--
ди--
диа--
диас--
дивер--
дик--
диноз--
диок--
дирек--
дис--
диск--
диффе--
дифференци--
длин--
дми--
до--
доб--
дов--
дог--
дого--
дож--
док--
дол--
долж--
должно--
дом--
дон--
допол--
дополни--
дор--
дорож--
дост--
досто--
достоев--
др--
дра--
драгоцен--
драк--
древ--
древне--
древнерус--
дро--
дру--
друж--
ду--
дуб--
дубо--
дуд--
дун--
дунаев--
духов--
ды--
дь--
дьяв--
дэ--
дю--
дяги--
дядю--
е--
ев--
еванге--
евро--
евсе--
ед--
еди--
един--
ек--
ел--
елиз--
елхо--
ель--
ем--
ен--
ене--
еп--
ер--
ере--
ерме--
еры--
ес--
естестве--
ет--
ефр--
ех--
еш--
ж--
жа--
жак--
жан--
же--
желез--
железнодорож--
желт--
женс--
жи--
живо--
живот--
жид--
жизне--
жизнен--
жол--
жу--
жур--
з--
за--
заве--
заво--
завоева--
зага--
заимств--
закр--
зал--
зальц--
зам--
заме--
замес--
зан--
зап--
запис--
зарубеж--
засе--
заслуже--
захор--
защ--
заяв--
зван--
зве--
звезд--
зво--
зву--
звягин--
зд--
зе--
зеб--
зелин--
зен--
зер--
зи--
зиг--
зло--
зна--
знамен--
зо--
зол--
золот--
зри--
зу--
зы--
и--
иа--
иб--
ибе--
ив--
иг--
игр--
игу--
ид--
иде--
ие--
иезуи--
иж--
из--
изби--
избран--
изд--
изложе--
излу--
изоб--
изобретат--
изот--
ик--
ил--
иле--
или--
илл--
иллю--
илт--
иль--
им--
име--
ими--
иммигран--
имп--
ин--
инв--
индук--
ине--
иници--
инн--
инос--
интел--
интелли--
интен--
интер--
инфра--
ио--
ион--
ип--
ир--
ире--
ирт--
ис--
исп--
испол--
исполни--
исполь--
испыта--
ист--
исче--
ит--
ите--
их--
ич--
иш--
к--
ка--
каб--
кав--
кад--
каж--
каз--
каза--
кази--
как--
кал--
каль--
кам--
камен--
кан--
кап--
капит--
кар--
кара--
кардио--
карто--
карус--
кас--
касат--
кат--
каф--
ках--
каче--
каш--
каҫ--
кв--
квад--
кварк--
ке--
кель--
кем--
кен--
кер--
кет--
ки--
кив--
киев--
кил--
килогр--
ким--
кин--
кино--
кир--
кисл--
кит--
киш--
кки--
кл--
кла--
клавиа--
клан--
кле--
клю--
км--
кн--
кня--
княже--
ко--
коб--
ков--
когни--
кож--
кожев--
коз--
кози--
кок--
кол--
колоколь--
коломен--
колы--
коль--
ком--
кон--
консер--
контр--
конц--
коор--
коп--
кор--
коро--
корона--
корос--
корот--
кос--
кот--
котля--
коч--
кошевер--
коэффициент--
кр--
кра--
крав--
краеведче--
красно--
крачковс--
кре--
кри--
крипто--
кро--
крот--
круп--
кры--
крым--
кс--
ку--
куб--
куга--
куз--
кузне--
кузь--
кук--
кул--
кулин--
кум--
кун--
кунс--
куп--
кур--
кут--
куҫ--
куҫар--
кш--
кы--
кь--
кэр--
кю--
л--
ла--
лав--
лаз--
лак--
лам--
лан--
лани--
лап--
лас--
лат--
лау--
лах--
лаш--
ле--
лебе--
лев--
лег--
лез--
лезгин--
лек--
лекарстве--
лекн--
лекци--
лем--
лен--
лени--
лео--
лес--
лет--
леш--
ли--
либ--
либе--
ливер--
лигур--
лик--
лим--
лин--
линг--
лингвистиче--
лингво--
лис--
лисса--
лит--
лич--
лк--
лке--
лку--
лл--
лла--
лле--
ллев--
лли--
лмач--
ло--
лоба--
лов--
логиче--
лод--
лок--
лос--
лпа--
лт--
лта--
лу--
луго--
луж--
лун--
луч--
лха--
лч--
лы--
ль--
лю--
люб--
любов--
люд--
ля--
лі--
м--
ма--
мавр--
маг--
маге--
маго--
мад--
маз--
мак--
макро--
мал--
малинов--
мало--
малы--
маль--
мам--
мамон--
ман--
мар--
мари--
марц--
мас--
мат--
маф--
мах--
мг--
ме--
мег--
мед--
медиа--
меж--
мез--
мел--
мелод--
мель--
мему--
мен--
мер--
мероприят--
мес--
место--
мет--
мета--
метал--
меф--
мех--
мец--
меш--
ми--
миг--
микр--
микро--
микроб--
микрос--
мил--
миль--
мин--
мир--
митр--
мих--
миц--
мк--
мл--
мла--
мле--
мми--
мн--
мне--
мно--
много--
мо--
моби--
моги--
модиф--
мол--
молда--
молиб--
мон--
моно--
мор--
морд--
мордо--
морс--
мпа--
мс--
му--
муж--
мул--
муль--
муниципал--
муниципаль--
мур--
мус--
муссо--
мусуль--
мусульман--
мух--
мы--
мэ--
мю--
мя--
мяг--
мясни--
н--
на--
наблю--
нав--
нага--
нагор--
наград--
над--
надеж--
наз--
назы--
наи--
нам--
нан--
напи--
нар--
нас--
насле--
наслед--
нат--
нау--
национа--
наше--
нд--
не--
неандер--
небе--
невероят--
недоступ--
неж--
нез--
неза--
неи--
некр--
нем--
нен--
необ--
неосу--
непо--
нер--
нес--
нет--
неф--
ни--
нидваль--
ниж--
ниже--
ник--
николь--
нин--
нк--
нка--
нла--
нлан--
нле--
нн--
нни--
но--
нов--
ново--
ном--
номенкла--
номина--
номинаци--
нор--
ноч--
нс--
нт--
ну--
нуж--
нумиз--
нур--
нче--
нчи--
ны--
нь--
нью--
ню--
нюр--
ня--
о--
об--
обер--
обеспе--
обит--
обнов--
обозна--
обор--
обраще--
обря--
обсер--
обсуж--
общ--
обще--
объя--
объясне--
обы--
обыкновен--
обыч--
ов--
ога--
огл--
огне--
од--
одеж--
одно--
ожи--
оз--
озву--
озе--
ои--
ок--
ока--
оки--
окси--
оксид--
ол--
оле--
оль--
ом--
он--
оно--
онто--
оп--
опас--
опис--
оптим--
ор--
оре--
орие--
орни--
ору--
орфо--
ос--
осво--
осен--
основ--
остго--
от--
ответ--
отече--
откр--
откро--
отли--
отно--
отоб--
оф--
официа--
оформ--
ох--
охлобы--
охо--
оцен--
ош--
оши--
п--
па--
пак--
пал--
пала--
палео--
палла--
паль--
памят--
пан--
пап--
пар--
пара--
парус--
пас--
пат--
пата--
пау--
пах--
пач--
пе--
пев--
пед--
пек--
пекки--
пел--
пен--
пензен--
пенси--
пер--
перво--
пере--
пес--
пет--
пех--
печ--
печат--
пи--
пиг--
пик--
пил--
пин--
пир--
писа--
писто--
письмен--
пит--
пиц--
пище--
пк--
пка--
пл--
пла--
план--
пласт--
плац--
пле--
племян--
пло--
площ--
пнев--
по--
победи--
пове--
погиб--
пого--
под--
подоль--
подроб--
пое--
пожа--
пожарс--
поз--
позд--
пози--
показа--
покл--
покр--
покро--
пол--
поли--
полик--
полит--
политиче--
полу--
поль--
пон--
поне--
поп--
популяр--
пор--
после--
посме--
пост--
появ--
пр--
пра--
право--
пре--
пред--
предложе--
предо--
предста--
презе--
препод--
преступ--
прже--
при--
приго--
приз--
про--
прове--
прогу--
продук--
произве--
производ--
прокура--
пропа--
пропорци--
просвет--
прота--
прото--
проф--
проц--
прощ--
пру--
пря--
пс--
псих--
психиа--
психо--
психот--
пт--
пу--
пудо--
пул--
пулать--
пулит--
пур--
пура--
пус--
пуса--
пут--
путешес--
пуш--
пуҫ--
пш--
пы--
пыр--
пыта--
пь--
пьет--
пя--
пяр--
пят--
р--
ра--
раб--
рабо--
рав--
рад--
радио--
раз--
разно--
разум--
рак--
рако--
рам--
ран--
рас--
распи--
распро--
рат--
рах--
рациона--
рв--
ре--
реаби--
реабилитаци--
реаль--
рев--
регу--
регуля--
ред--
режис--
рез--
рези--
резуль--
рек--
рекон--
рекорд--
религиоз--
релик--
рем--
рен--
рес--
рет--
рец--
реч--
реш--
ри--
рим--
римля--
рис--
риш--
рк--
рка--
рке--
рки--
рла--
рма--
рме--
рми--
рн--
рне--
ро--
род--
рож--
рожде--
роз--
розен--
рок--
рос--
рот--
рпе--
рр--
рс--
рт--
рта--
рте--
рту--
ру--
руб--
руд--
руко--
рус--
рф--
рх--
рхат--
рч--
рчет--
рчи--
рш--
ры--
рыб--
рыж--
рь--
рэ--
ря--
рязанс--
с--
са--
саб--
сав--
сад--
садов--
сак--
саксо--
сала--
сам--
само--
сан--
сана--
санди--
санит--
сап--
сапа--
сар--
сафр--
сах--
сб--
св--
свадеб--
све--
свен--
свет--
свид--
свиде--
свидетель--
своб--
свобод--
связ--
свят--
свяще--
сві--
се--
сев--
сед--
седь--
сек--
сел--
сель--
сем--
семи--
сен--
сент--
сер--
серб--
сереб--
серебр--
сет--
сех--
си--
сиби--
сив--
сик--
сил--
силь--
сим--
симферо--
син--
сис--
ск--
ска--
скан--
ске--
ски--
скиф--
ско--
скоро--
скри--
скуль--
скульпт--
сл--
сла--
слав--
сле--
след--
сло--
слоб--
слобод--
слож--
слу--
служ--
см--
сме--
сми--
смор--
сн--
снеж--
сни--
сно--
со--
соб--
соби--
сов--
согл--
содер--
сое--
созд--
солнеч--
соля--
сон--
сооруже--
соответ--
сорб--
софр--
сп--
спа--
спасс--
спе--
сперан--
специ--
спир--
спло--
сра--
сравни--
средне--
сс--
ст--
ста--
стаби--
стар--
старообрядче--
стаци--
ств--
стве--
сте--
сти--
сто--
стр--
страш--
стрел--
стриже--
студи--
су--
суб--
суббо--
суд--
судеб--
сул--
сум--
сун--
суп--
супер--
сур--
сухо--
суще--
сц--
сы--
сыв--
сыр--
сых--
сычу--
сыщ--
сь--
сью--
сэ--
сю--
сюн--
сюр--
ся--
т--
та--
таб--
табас--
тав--
таинстве--
так--
тал--
талис--
таль--
там--
тан--
тап--
тар--
тара--
таса--
тат--
тау--
таш--
тв--
тверс--
творче--
те--
тек--
тел--
теле--
телерадио--
тем--
тен--
тензор--
теоретиче--
теп--
тепло--
тер--
термо--
тес--
тет--
техниче--
техно--
теш--
ти--
тив--
тим--
тин--
тип--
типо--
тир--
тиф--
тк--
тка--
тл--
тма--
тн--
то--
ток--
толс--
том--
тон--
топ--
топо--
тор--
торго--
торже--
тот--
точ--
тр--
тра--
трав--
традици--
траек--
тран--
транс--
тре--
требо--
трен--
три--
триго--
трило--
тро--
трон--
троп--
тру--
труп--
ту--
тук--
тул--
тум--
тун--
туп--
тур--
туристиче--
турт--
тус--
тух--
ты--
тыр--
тыт--
ть--
тэ--
тю--
тюм--
тюмен--
тюрк--
тюрь--
тют--
тя--
у--
уверт--
уга--
угл--
уголов--
угор--
уди--
уе--
уес--
уз--
уи--
уинс--
ук--
укр--
ул--
ула--
улы--
уль--
ультра--
ум--
уме--
ун--
унив--
универса--
уол--
уор--
уот--
уп--
упа--
ур--
ура--
ури--
урма--
уро--
урт--
ус--
услов--
успен--
уст--
установ--
ут--
ута--
утверж--
ути--
утрав--
утта--
уфим--
ух--
ухин--
уч--
учред--
учреж--
уэл--
уҫ--
ф--
фа--
фаб--
фад--
фаль--
фан--
фарма--
фаши--
фашистс--
фе--
федер--
федо--
фельц--
феокт--
фер--
фи--
физ--
физич--
фик--
фил--
филад--
фило--
филь--
фин--
фир--
фли--
фло--
флю--
фок--
фон--
фор--
фос--
фосф--
фото--
фр--
фра--
фразе--
фрак--
фрактал--
френ--
фри--
фрид--
фу--
фуку--
фунда--
фундамен--
фізи--
х--
ха--
хав--
хавхала--
хавша--
хад--
хал--
хам--
хан--
ханжон--
хар--
хат--
хв--
хе--
хен--
хетт--
хи--
химиче--
хин--
хир--
хит--
хитек--
хищ--
хл--
хла--
хо--
хоб--
ход--
холод--
хор--
хорео--
хоро--
хри--
хроно--
хс--
ху--
хул--
хун--
хуп--
хуска--
хут--
хуш--
ххи--
хы--
хыр--
хь--
хэ--
ц--
ца--
цар--
цв--
це--
цел--
цен--
ценз--
цеп--
цер--
церем--
цз--
цзе--
ци--
цильнин--
цин--
цита--
цифр--
цы--
ч--
ча--
чак--
чан--
чар--
чара--
час--
чат--
че--
чебо--
чек--
человече--
чем--
чен--
черв--
чере--
черем--
черн--
чест--
чех--
чеч--
чечек--
чж--
чи--
чик--
чин--
чир--
чирл--
чист--
чиче--
чк--
чл--
чу--
чул--
чун--
чура--
ш--
ша--
шал--
шам--
шан--
шапо--
шар--
шах--
швед--
ше--
шев--
шевл--
шел--
шем--
шер--
ши--
шин--
ших--
шк--
шка--
школь--
шкул--
шл--
шла--
шле--
шм--
шма--
шман--
шн--
шо--
шор--
шос--
шп--
шпа--
шриф--
шт--
штат--
шти--
штрас--
шу--
шуль--
шур--
шут--
шы--
шыв--
шыва--
щ--
ще--
ъ--
ы--
ыв--
ывхар--
ыл--
ылмаш--
ын--
ыр--
ыра--
ыру--
ыта--
ых--
ыш--
ь--
э--
эб--
эвакуаци--
эвер--
эвр--
эд--
эди--
эк--
экз--
экос--
экс--
эксплу--
экспо--
эл--
эле--
электриче--
электро--
эль--
эм--
эмб--
эмбл--
эмиг--
эмо--
эн--
энд--
энерге--
энерго--
эп--
эр--
эри--
эс--
эскимос--
эст--
эт--
этниче--
этно--
этр--
этрус--
эть--
эф--
эфр--
эффек--
эх--
ю--
юби--
юг--
юж--
юл--
юла--
юли--
юлн--
юм--
юн--
юпа--
юр--
юридиче--
юриспру--
ют--
юх--
я--
яв--
яг--
ядер--
ядрин--
яз--
як--
яка--
ял--
ям--
ян--
яна--
янк--
янт--
яп--
япон--
яр--
яра--
ярм--
яру--
ят--
ях--
яш--
і--
ң--
ҫ--
ҫа--
ҫар--
ҫе--
ҫи--
ҫла--
ҫле--
ҫта--
ҫу--
ҫуру--
--0
--00
--000
--01
--02
--03
--04
--05
--06
--07
--08
--09
--1
--10
--11
--12
--13
--14
--15
--16
--17
--18
--19
--2
--20
--21
--22
--23
--24
--25
--26
--27
--28
--29
--3
--30
--31
--32
--33
--34
--35
--36
--37
--38
--39
--4
--40
--41
--42
--43
--44
--45
--46
--47
--48
--49
--5
--50
--51
--52
--53
--54
--55
--56
--57
--58
--59
--6
--60
--61
--62
--63
--64
--65
--66
--67
--68
--69
--7
--70
--71
--72
--73
--74
--75
--76
--77
--78
--79
--8
--80
--81
--82
--83
--84
--85
--86
--87
--88
--89
--9
--90
--91
--92
--93
--94
--95
--96
--97
--98
--99
--a
--ach
--ad
--ade
--ado
--ae
--aft
--age
--ah
--ai
--ais
--ak
--al
--ala
--ale
--alis
--am
--ama
--an
--ana
--ania
--anic
--ans
--ant
--anus
--ao
--ap
--ar
--ard
--ari
--aries
--arum
--ary
--arı
--as
--at
--ata
--ate
--ation
--ations
--au
--aw
--ay
--b
--ba
--be
--berg
--bia
--ble
--bon
--burg
--bus
--c
--ca
--cal
--ce
--ceae
--ces
--ch
--chi
--cht
--ci
--cio
--ck
--cks
--co
--cs
--ct
--cted
--ction
--ctor
--cus
--cy
--d
--da
--dae
--data
--de
--ded
--di
--dition
--do
--dra
--ds
--dt
--duction
--dy
--e
--ea
--eae
--eau
--ec
--ect
--ed
--ee
--ei
--ek
--el
--ela
--ell
--els
--em
--ement
--en
--ens
--ensis
--ent
--entity
--eo
--er
--era
--ern
--ers
--ersity
--ert
--erte
--erted
--ery
--es
--et
--eth
--ets
--eur
--eus
--ev
--ever
--ex
--ey
--ez
--f
--fe
--fen
--ff
--fs
--ft
--ful
--g
--ga
--ge
--gen
--ger
--ges
--ggio
--gh
--ght
--gi
--gic
--ging
--gne
--go
--gram
--graph
--graphy
--gs
--gth
--gton
--h
--ha
--ham
--han
--he
--hes
--hi
--hing
--hn
--ht
--hy
--i
--ia
--ial
--ian
--iation
--ic
--ica
--ical
--ich
--ico
--ics
--icum
--icus
--id
--ida
--idae
--ie
--iel
--ien
--ier
--ies
--ig
--ii
--ik
--il
--im
--in
--ina
--ine
--ing
--ings
--ini
--ino
--io
--ion
--ions
--ir
--ire
--irs
--is
--ish
--ision
--ism
--ist
--ists
--it
--ita
--ite
--ity
--ium
--ius
--ive
--ix
--iya
--iz
--j
--ja
--je
--k
--ka
--ke
--ken
--ker
--ki
--ko
--ks
--ku
--ky
--l
--la
--land
--lar
--ld
--le
--ler
--ley
--lf
--li
--lia
--lie
--lin
--lis
--lk
--ll
--lla
--lle
--llo
--lls
--lly
--lm
--lo
--ls
--lt
--lus
--ly
--m
--ma
--man
--mb
--me
--mer
--mes
--mi
--mic
--mis
--mo
--ms
--mus
--my
--n
--na
--naire
--nas
--nate
--nc
--nce
--nces
--ncy
--nd
--nds
--ne
--nen
--ner
--nes
--ng
--ngen
--ni
--nia
--nian
--nie
--nik
--ning
--nio
--nis
--nk
--nn
--nna
--nne
--no
--ns
--nse
--nsis
--nt
--nta
--nte
--nti
--nts
--num
--nus
--ny
--o
--ock
--od
--oe
--of
--ok
--ol
--ola
--oli
--om
--omy
--on
--one
--onia
--onic
--ons
--oon
--or
--ora
--ore
--orie
--ors
--orus
--os
--ot
--ous
--ov
--ova
--ow
--ows
--p
--pa
--pe
--ph
--phy
--plex
--ps
--q
--r
--ra
--rc
--rd
--re
--rea
--record
--ren
--rg
--ri
--ric
--rie
--ries
--rior
--ris
--rise
--rm
--rn
--ro
--ron
--ros
--rov
--rry
--rs
--rt
--rth
--ru
--rum
--ry
--s
--sa
--sc
--sco
--scribe
--se
--sed
--sen
--ser
--ses
--sh
--si
--sia
--sion
--sions
--sis
--sk
--skaya
--ski
--sm
--so
--son
--sov
--ss
--sse
--st
--ster
--sus
--sy
--t
--ta
--tal
--tan
--tary
--te
--ted
--ter
--tes
--th
--thing
--thy
--ti
--tia
--tic
--ties
--tin
--ting
--tion
--tions
--tive
--tle
--tm
--to
--ton
--tor
--ts
--tt
--tta
--tte
--tus
--ty
--type
--tz
--u
--ua
--ual
--uck
--uction
--ud
--ue
--ula
--uld
--um
--un
--ung
--ungen
--ur
--ura
--ure
--urg
--urs
--us
--ut
--ux
--v
--va
--ve
--ved
--vel
--ver
--vi
--vity
--vo
--vy
--w
--wa
--wn
--wood
--ws
--x
--y
--ya
--yd
--ye
--ys
--z
--za
--ze
--ı
--α
--ι
--ο
--ς
--υ
--а
--аб
--ав
--аг
--ад
--ада
--адзе
--ади
--ае
--аев
--аево
--ает
--аж
--аз
--аи
--ак
--акан
--аков
--ал
--ала
--але
--ализм
--алка
--алл
--алов
--аль
--альная
--альныи
--ам
--ама
--ами
--амика
--ан
--ана
--анг
--анд
--андра
--ани
--ание
--ания
--анн
--ано
--анов
--ант
--ану
--аны
--ань
--ао
--апи
--апия
--ар
--ард
--аре
--арев
--аров
--арь
--ас
--аса
--асов
--ась
--ат
--ата
--ативл
--атка
--атн
--атов
--атор
--ать
--ау
--аф
--ах
--ахов
--аци
--ации
--ацилен
--ация
--ач
--аче
--аш
--ашов
--аэдр
--аю
--ают
--ающих
--ая
--аян
--б
--ба
--баев
--база
--бан
--бат
--бах
--баш
--ббс
--бе
--бель
--бер
--берт
--бет
--би
--бо
--бр
--бри
--бу
--бцов
--в
--ва
--вает
--ваи
--вак
--вание
--вания
--вар
--вая
--ве
--вед
--веде
--веи
--вес
--вец
--ви
--вие
--визор
--вик
--вич
--вия
--вка
--вки
--вл
--вление
--вли
--вна
--во
--вого
--вое
--вои
--вок
--вом
--впа
--вр
--вск
--вская
--вскии
--вского
--ву
--вцов
--вы
--вые
--вым
--вых
--г
--га
--гал
--ган
--гар
--гари
--гат
--гауз
--гач
--гва
--гд
--ге
--гель
--ген
--гер
--ги
--гиз
--гин
--гина
--гир
--гис
--гия
--го
--гов
--гон
--гр
--град
--гс
--гтон
--гу
--гуа
--гул
--гут
--д
--да
--дам
--де
--ден
--дж
--джа
--джер
--джи
--дзе
--ди
--дии
--дин
--дине
--дия
--дка
--дки
--дл
--до
--дов
--дорф
--дот
--дпа
--др
--дра
--дро
--дс
--дсем
--дсен
--дт
--ду
--дук
--дун
--ды
--дык
--дыш
--дь
--дье
--дя
--е
--еб
--ев
--ева
--евич
--евка
--ево
--евои
--евых
--ег
--ед
--еда
--едение
--ее
--еев
--еева
--еж
--ез
--ези
--еи
--ек
--ека
--ел
--ела
--еле
--елеи
--елении
--ели
--елия
--елл
--ель
--еля
--ем
--ема
--еме
--емпе
--ен
--ена
--ене
--ени
--ение
--ении
--ения
--енка
--енко
--енн
--енном
--енными
--енов
--ент
--енч
--енче
--ень
--енька
--ер
--ера
--ератор
--ери
--ерин
--ерл
--ерн
--еров
--ерс
--еры
--ес
--есе
--еская
--еские
--ескии
--еских
--еского
--ескои
--есс
--есса
--есси
--ест
--ества
--ество
--ет
--ета
--ети
--етик
--етика
--етка
--етов
--етри
--ется
--етт
--етта
--етти
--еты
--еть
--еф
--ех
--ец
--ецкая
--ецкии
--ецсем
--еч
--еш
--ея
--ж
--жа
--жде
--жды
--же
--жения
--жи
--жин
--жка
--жо
--жу
--з
--за
--зас
--затор
--заци
--зации
--зв
--здат
--зе
--зи
--зии
--зин
--зит
--зия
--зм
--зма
--змы
--зо
--зу
--зы
--зь
--зя
--и
--иа
--иад
--иалл
--иан
--иана
--иач
--иб
--ив
--ивл
--ивная
--иг
--ид
--ида
--идзе
--идов
--идор
--идсен
--иды
--ие
--иев
--иеи
--ием
--из
--изаци
--изации
--изацилен
--изацилени
--изация
--изм
--изма
--изов
--ии
--ик
--ика
--икан
--ике
--ики
--икин
--ико
--иков
--ил
--ила
--илась
--или
--илии
--илл
--илов
--им
--има
--имая
--имов
--имости
--имость
--имые
--имыи
--ин
--ина
--инаци
--инг
--ингтон
--ине
--ини
--инии
--инка
--ино
--инов
--инова
--инои
--инф
--инче
--ины
--инь
--иня
--ио
--ип
--ипа
--ипе
--ир
--ире
--ири
--ис
--иса
--исем
--исен
--исене
--иск
--ист
--истика
--истов
--истсем
--исч
--ись
--ит
--ита
--ите
--итов
--ится
--ить
--иус
--иф
--ифт
--их
--иха
--иц
--ица
--ици
--иции
--ицкая
--ицкии
--ицы
--ицын
--ич
--ича
--ичев
--иченко
--ическая
--ические
--ическии
--ических
--ического
--ическое
--ическои
--ичества
--ичи
--ичка
--иш
--ишь
--ию
--ия
--к
--ка
--каи
--кал
--кан
--кас
--касси
--ках
--кач
--кая
--ке
--кевич
--кел
--кен
--кенсем
--кер
--кеш
--ки
--кие
--кии
--кин
--кино
--кипе
--ких
--кк
--кка
--ккаи
--кке
--кки
--кл
--ко
--ков
--кова
--ково
--кого
--кое
--кои
--ком
--крат
--кс
--кса
--кт
--ку
--кун
--кции
--кч
--л
--ла
--лав
--лама
--лан
--лани
--ланч
--лар
--ласа
--лать
--лая
--ле
--леги
--леи
--леме
--лен
--лени
--ление
--ленко
--лесе
--лет
--леч
--ли
--лизм
--лик
--лин
--лине
--лич
--лка
--лл
--лла
--лле
--лли
--лло
--лн
--ло
--лов
--лог
--логи
--логия
--лом
--лон
--лса
--лся
--лу
--лы
--лыи
--лык
--ль
--льд
--лье
--лько
--льная
--льно
--льного
--льное
--льнои
--льные
--льныи
--льных
--льон
--льт
--ля
--лян
--ляр
--м
--ма
--ман
--мар
--матика
--маци
--маш
--ме
--меи
--мен
--мея
--ми
--мии
--мика
--мит
--мо
--мов
--мон
--мор
--мос
--мп
--мпе
--му
--мут
--мы
--мье
--мэ
--мя
--н
--на
--наи
--нак
--нал
--ная
--нг
--нга
--нд
--нда
--нджи
--нди
--не
--неи
--нер
--нец
--ни
--ние
--низм
--нии
--ник
--ника
--ники
--нин
--нине
--нипе
--нис
--нисем
--нисен
--них
--ниц
--ница
--ницы
--нию
--ния
--ниях
--нк
--нка
--нке
--нки
--нко
--нков
--нл
--нн
--нна
--нная
--нни
--нно
--нное
--нном
--нности
--нность
--нные
--нным
--нных
--но
--нов
--нова
--новка
--ного
--ное
--нои
--ном
--ному
--ности
--ность
--нпа
--нс
--нса
--нсе
--нси
--нск
--нская
--нски
--нские
--нскии
--нского
--нское
--нскои
--нт
--нта
--нтеи
--нтии
--нтл
--нтн
--ну
--ную
--нца
--нцев
--нцы
--нч
--нче
--нчен
--нчи
--ны
--ные
--ныи
--ным
--ными
--ных
--нь
--ньга
--ня
--няк
--нял
--няя
--о
--оа
--об
--ов
--ова
--ование
--ованию
--ования
--овая
--ове
--овед
--оведения
--овец
--овик
--ович
--овк
--овка
--овки
--овлении
--овна
--ово
--ового
--овое
--овои
--овом
--овпа
--овск
--овская
--овские
--овскии
--овских
--овского
--овское
--овском
--ову
--овы
--овые
--овыи
--овым
--овых
--овья
--ог
--оги
--огия
--ого
--оград
--ографи
--од
--ода
--оди
--оды
--ое
--оз
--оза
--ои
--оид
--оидсем
--ок
--око
--оков
--окс
--ол
--оли
--олин
--оло
--олог
--ологи
--ологии
--ология
--оль
--ольск
--ом
--ома
--омах
--ому
--он
--она
--онал
--онализм
--онд
--оне
--они
--онии
--онка
--онная
--онно
--онного
--оннои
--онные
--онныи
--онт
--оны
--онь
--оп
--опа
--опад
--опи
--опов
--ополь
--ор
--ора
--орд
--ори
--ории
--орин
--оров
--ором
--орт
--орым
--ос
--оса
--оснабжения
--осов
--ост
--оста
--ости
--ость
--ось
--от
--ота
--оти
--отик
--отин
--отип
--ото
--оты
--оу
--ох
--охов
--оч
--очка
--очки
--очно
--ош
--ою
--оя
--п
--па
--пе
--пех
--пи
--писи
--пл
--по
--пс
--псон
--пт
--пу
--пы
--р
--ра
--раж
--рак
--рал
--ран
--рат
--рах
--раци
--рации
--рд
--ре
--рев
--рен
--рех
--ри
--рии
--рик
--рин
--риус
--рия
--рк
--рка
--рл
--рма
--рме
--рн
--рные
--рных
--ро
--ров
--рова
--рование
--рои
--рс
--рса
--рск
--рскии
--рт
--рта
--ру
--руи
--рх
--рц
--рч
--ры
--рыв
--рь
--рю
--ря
--ряд
--с
--са
--сал
--сан
--сар
--сбах
--сбург
--се
--сем
--семпе
--семш
--сен
--сене
--сенче
--сенчен
--сенчи
--сец
--сея
--си
--сии
--син
--сине
--сипе
--сит
--сия
--ск
--ска
--ская
--скер
--ски
--ские
--скии
--ским
--скин
--ских
--ско
--ского
--ское
--скои
--ском
--скому
--скую
--сл
--сли
--сло
--слу
--сна
--со
--сов
--сон
--сор
--сс
--сса
--сси
--ссин
--ссине
--ст
--ста
--ств
--ства
--ство
--ству
--сти
--стика
--стная
--стнои
--стов
--стсем
--стсен
--сты
--сть
--стях
--су
--сч
--сш
--сы
--сык
--сь
--ся
--т
--та
--таев
--таж
--таи
--тал
--тан
--тар
--тас
--тау
--тая
--тв
--тва
--тво
--те
--теи
--тели
--тель
--теля
--тен
--тер
--тет
--ти
--тие
--тизм
--тии
--тик
--тика
--тики
--тин
--тино
--тисем
--тия
--тка
--тки
--тков
--тл
--тла
--тма
--тн
--тна
--тная
--тне
--тно
--тного
--тное
--тности
--тные
--тных
--то
--тов
--тологи
--тон
--тор
--тп
--тпа
--тр
--тра
--трик
--тро
--тса
--тсем
--тт
--тто
--ту
--тур
--туры
--тч
--ты
--тые
--тыи
--ть
--тье
--тьев
--ться
--тья
--тэ
--тюк
--у
--уа
--уалл
--уаци
--уб
--уг
--уга
--уги
--уд
--уда
--уди
--ует
--уз
--узен
--уи
--ук
--ука
--уков
--укци
--укция
--ул
--улин
--улл
--уль
--ум
--ун
--унов
--унь
--уп
--ур
--ура
--ург
--уров
--уры
--ус
--уси
--ут
--уум
--ух
--уха
--ухин
--ухов
--уции
--уч
--уш
--уши
--ушк
--уэр
--ую
--уют
--ующии
--ующих
--уя
--ф
--фа
--фе
--фер
--фи
--фии
--фикаци
--фикации
--фия
--фо
--фор
--фт
--фф
--фы
--фьев
--х
--ха
--хе
--хи
--хн
--хов
--хова
--хон
--ху
--хы
--хэ
--ц
--ца
--цать
--це
--цев
--цзян
--ци
--цие
--цизм
--ции
--цилен
--цилл
--цине
--цио
--ципе
--ция
--цк
--цкая
--цки
--цкии
--цкого
--цкое
--цкои
--цо
--цов
--цова
--цу
--ццо
--цы
--цын
--ч
--ча
--чая
--че
--чев
--чен
--ченко
--ченхи
--чер
--ческая
--ческие
--ческии
--ческим
--ческих
--ческого
--ческое
--ческои
--ческом
--чи
--чии
--чик
--чка
--чки
--чков
--чная
--чно
--чности
--чность
--чо
--чок
--чу
--чук
--чч
--ччен
--чь
--чье
--чья
--ш
--ша
--шая
--ше
--шев
--шенко
--ши
--шин
--шино
--шир
--шк
--шка
--шко
--шл
--шн
--шнии
--шов
--шок
--шу
--шш
--шь
--щ
--ща
--щая
--ще
--щев
--щенко
--щи
--щик
--щиков
--щина
--щих
--щица
--ъ
--ъе
--ъю
--ъял
--ы
--ыг
--ые
--ыз
--ыи
--ык
--ым
--ыма
--ыми
--ын
--ынь
--ып
--ыр
--ыс
--ыт
--ых
--ыч
--ыш
--ь
--ьбе
--ьва
--ьга
--ьд
--ьда
--ье
--ьев
--ьел
--ьер
--ьи
--ьино
--ьк
--ька
--ьки
--ько
--ьм
--ьма
--ьн
--ьна
--ьная
--ьне
--ьник
--ьно
--ьного
--ьное
--ьнои
--ьные
--ьныи
--ьным
--ьных
--ьо
--ьон
--ьпе
--ьс
--ьсем
--ьск
--ьская
--ьскии
--ьскои
--ься
--ьт
--ьтанч
--ьте
--ьц
--ьцы
--ью
--ья
--ьяк
--ьял
--ьян
--ьянов
--э
--эи
--эл
--эль
--эм
--эн
--ю
--юга
--юи
--юк
--юка
--юр
--юс
--юсь
--ют
--ютин
--ются
--юх
--юш
--юша
--юшев
--ющие
--ющии
--ющих
--я
--ябр
--ябре
--яд
--яев
--яется
--яж
--яи
--як
--ял
--яль
--ям
--ями
--ян
--янов
--яны
--яр
--яс
--ят
--ять
--ях
--яци
--яч
--яш
--ящ
--ящая
--яя
--і
--ів
--іи
--ія
--ја
--ҫ
--ҫа
--ҫе
--ҫи
--ҫна
--ҫҫе
--ә
--ن
