!
"
#
##a
##aa
##ab
##ac
##ad
##ae
##af
##ag
##ah
##ai
##aj
##ak
##al
##am
##an
##ao
##ap
##aq
##ar
##as
##at
##au
##av
##aw
##ax
##ay
##az
##b
##ba
##bb
##bc
##bd
##be
##bf
##bg
##bh
##bi
##bj
##bk
##bl
##bm
##bn
##bo
##bp
##bq
##br
##bs
##bt
##bu
##bv
##bw
##bx
##by
##bz
##c
##ca
##cb
##cc
##cd
##ce
##cf
##cg
##ch
##ci
##cj
##ck
##cl
##cm
##cn
##co
##cp
##cq
##cr
##cs
##ct
##cu
##cv
##cw
##cx
##cy
##cz
##d
##da
##db
##dc
##dd
##de
##df
##dg
##dh
##di
##dj
##dk
##dl
##dm
##dn
##do
##dp
##dq
##dr
##ds
##dt
##du
##dv
##dw
##dx
##dy
##dz
##e
##ea
##eb
##ec
##ed
##ee
##ef
##eg
##eh
##ei
##ej
##ek
##el
##em
##en
##eo
##ep
##eq
##er
##es
##et
##eu
##ev
##ew
##ex
##ey
##ez
##f
##fa
##fb
##fc
##fd
##fe
##ff
##fg
##fh
##fi
##fj
##fk
##fl
##fm
##fn
##fo
##fp
##fq
##fr
##fs
##ft
##fu
##fv
##fw
##fx
##fy
##fz
##g
##ga
##gb
##gc
##gd
##ge
##gf
##gg
##gh
##gi
##gj
##gk
##gl
##gm
##gn
##go
##gp
##gq
##gr
##gs
##gt
##gu
##gv
##gw
##gx
##gy
##gz
##h
##ha
##hb
##hc
##hd
##he
##hf
##hg
##hh
##hi
##hj
##hk
##hl
##hm
##hn
##ho
##hp
##hq
##hr
##hs
##ht
##hu
##hv
##hw
##hx
##hy
##hz
##i
##ia
##ib
##ic
##id
##ie
##if
##ig
##ih
##ii
##ij
##ik
##il
##im
##in
##io
##ip
##iq
##ir
##is
##it
##iu
##iv
##iw
##ix
##iy
##iz
##j
##ja
##jb
##jc
##jd
##je
##jf
##jg
##jh
##ji
##jj
##jk
##jl
##jm
##jn
##jo
##jp
##jq
##jr
##js
##jt
##ju
##jv
##jw
##jx
##jy
##jz
##k
##ka
##kb
##kc
##kd
##ke
##kf
##kg
##kh
##ki
##kj
##kk
##kl
##km
##kn
##ko
##kp
##kq
##kr
##ks
##kt
##ku
##kv
##kw
##kx
##ky
##kz
##l
##la
##lb
##lc
##ld
##le
##lf
##lg
##lh
##li
##lj
##lk
##ll
##lm
##ln
##lo
##lp
##lq
##lr
##ls
##lt
##lu
##lv
##lw
##lx
##ly
##lz
##m
##ma
##mb
##mc
##md
##me
##mf
##mg
##mh
##mi
##mj
##mk
##ml
##mm
##mn
##mo
##mp
##mq
##mr
##ms
##mt
##mu
##mv
##mw
##mx
##my
##mz
##n
##na
##nb
##nc
##nd
##ne
##nf
##ng
##nh
##ni
##nj
##nk
##nl
##nm
##nn
##no
##np
##nq
##nr
##ns
##nt
##nu
##nv
##nw
##nx
##ny
##nz
##o
##oa
##ob
##oc
##od
##oe
##of
##og
##oh
##oi
##oj
##ok
##ol
##om
##on
##oo
##op
##oq
##or
##os
##ot
##ou
##ov
##ow
##ox
##oy
##oz
##p
##pa
##pb
##pc
##pd
##pe
##pf
##pg
##ph
##pi
##pj
##pk
##pl
##pm
##pn
##po
##pp
##pq
##pr
##ps
##pt
##pu
##pv
##pw
##px
##py
##pz
##q
##qa
##qb
##qc
##qd
##qe
##qf
##qg
##qh
##qi
##qj
##qk
##ql
##qm
##qn
##qo
##qp
##qq
##qr
##qs
##qt
##qu
##qv
##qw
##qx
##qy
##qz
##r
##ra
##rb
##rc
##rd
##re
##rf
##rg
##rh
##ri
##rj
##rk
##rl
##rm
##rn
##ro
##rp
##rq
##rr
##rs
##rt
##ru
##rv
##rw
##rx
##ry
##rz
##s
##sa
##sb
##sc
##sd
##se
##sf
##sg
##sh
##si
##sj
##sk
##sl
##sm
##sn
##so
##sp
##sq
##sr
##ss
##st
##su
##sv
##sw
##sx
##sy
##sz
##t
##ta
##tb
##tc
##td
##te
##tf
##tg
##th
##ti
##tj
##tk
##tl
##tm
##tn
##to
##tp
##tq
##tr
##ts
##tt
##tu
##tv
##tw
##tx
##ty
##tz
##u
##ua
##ub
##uc
##ud
##ue
##uf
##ug
##uh
##ui
##uj
##uk
##ul
##um
##un
##uo
##up
##uq
##ur
##us
##ut
##uu
##uv
##uw
##ux
##uy
##uz
##v
##va
##vb
##vc
##vd
##ve
##vf
##vg
##vh
##vi
##vj
##vk
##vl
##vm
##vn
##vo
##vp
##vq
##vr
##vs
##vt
##vu
##vv
##vw
##vx
##vy
##vz
##w
##wa
##wb
##wc
##wd
##we
##wf
##wg
##wh
##wi
##wj
##wk
##wl
##wm
##wn
##wo
##wp
##wq
##wr
##ws
##wt
##wu
##wv
##ww
##wx
##wy
##wz
##x
##xa
##xb
##xc
##xd
##xe
##xf
##xg
##xh
##xi
##xj
##xk
##xl
##xm
##xn
##xo
##xp
##xq
##xr
##xs
##xt
##xu
##xv
##xw
##xx
##xy
##xz
##y
##ya
##yb
##yc
##yd
##ye
##yf
##yg
##yh
##yi
##yj
##yk
##yl
##ym
##yn
##yo
##yp
##yq
##yr
##ys
##yt
##yu
##yv
##yw
##yx
##yy
##yz
##z
##za
##zb
##zc
##zd
##ze
##zf
##zg
##zh
##zi
##zj
##zk
##zl
##zm
##zn
##zo
##zp
##zq
##zr
##zs
##zt
##zu
##zv
##zw
##zx
##zy
##zz
$
%
&
'
(
)
*
+
,
-
.
/
0
00
000
0001
0002
001
002
00232
003
004
005
00536
006
00643
007
008
009
01
010
011
013
014
015
016
018
01883
019
02
022
026
03
033
038
039
04
043
05
06
07
0793756
08
09
0a
0b
0c
0d
0e
0f
0g
0h
0i
0j
0k
0l
0m
0n
0o
0p
0q
0r
0s
0t
0u
0v
0w
0x
0y
0z
1
10
100
1000
10000
100000
1006
1007
101
1016
102
103
104
105
106
107
108
109
11
110
1100
111
1118
112
113
114
115
116
117
118
119
12
120
1200
121
122
123
1236
124
125
126
127
1279
128
129
13
130
1300
131
132
133
134
135
136
137
138
1380
139
14
140
1400
1404
141
142
143
144
145
146
147
148
1488
149
1492
15
150
1500
1504
151
152
153
154
1547
155
1551
1552
1555
156
1565
157
158
159
1590
1596
16
160
1600
1603
1606
1609
161
1610
1611
162
163
1630
1632
1636
164
1640
1642
1648
165
1650
1654
166
1660
1667
167
1670
168
169
17
170
1700
1707
1708
171
1710
1719
172
1720
1721
1722
1723
1725
1727
1728
173
1730
1735
1737
174
1740
1741
1744
1745
1747
1748
175
1750
1753
1755
1756
1758
176
1760
1762
1763
1764
1766
1767
1768
1769
177
1770
1771
1772
1773
1774
1775
1776
1777
1778
1779
178
1780
1781
1782
1783
1784
1785
1787
1788
1789
179
1790
1791
1792
1793
1794
1795
1796
1797
1798
1799
18
180
1800
1801
1802
1803
1804
1805
1806
1807
1808
1809
181
1810
1811
1812
1813
1814
1815
1816
1817
1818
1819
182
1820
1821
1822
1823
1824
1825
1826
1827
1828
1829
183
1830
1831
1832
1833
1834
1835
1836
1837
1838
1839
184
1840
1841
1842
1843
1844
1845
1846
1847
1848
1849
185
1850
1851
1852
1853
1854
1855
1856
1857
1858
1859
186
1860
1861
1862
1863
1864
1865
1866
1867
1868
1869
187
1870
1871
1872
1873
1874
1875
1876
1877
1878
1879
188
1880
1881
1882
1883
1884
1885
1886
1887
1888
1889
189
1890
1891
1892
1893
1894
1895
1896
1897
1898
1899
19
190
1900
1901
1902
1903
1904
1905
1906
1907
1908
1909
191
1910
1911
1912
1913
1914
1915
1916
1917
1918
1919
192
1920
1921
1922
1923
1924
1925
1926
1927
1928
1929
193
1930
1931
1932
1933
1934
1935
1936
1937
1938
1939
194
1940
1941
1942
1943
1944
1945
1946
1947
1948
1949
195
1950
1951
1952
1953
1954
1955
1956
1957
1958
1959
196
1960
1961
1962
1963
1964
1965
1966
1967
1968
1969
197
1970
1971
1972
1973
1974
1975
1976
1977
1978
1979
198
1980
1981
1982
1983
1984
1985
1986
1987
1988
1989
199
1990
1991
1992
1993
1994
1995
1996
1997
1998
1999
1a
1b
1c
1d
1e
1f
1g
1h
1i
1j
1k
1l
1m
1n
1o
1p
1q
1r
1s
1t
1u
1v
1w
1x
1y
1z
2
20
200
2000
20000
2001
2002
2003
2004
2005
2006
2007
2008
2009
201
2010
2011
2012
2013
2014
2015
2016
2017
2018
2019
202
2020
2021
2022
203
2030
204
205
206
207
208
209
21
210
211
212
213
214
215
216
217
218
219
22
220
221
222
223
2231
224
225
226
227
228
229
23
230
231
232
233
234
235
236
237
238
239
24
240
241
242
243
244
245
246
247
248
249
25
250
2500
25000
251
252
253
254
255
256
257
258
259
26
260
261
262
263
264
265
266
267
268
269
27
270
271
272
273
274
275
276
277
278
279
28
280
281
282
283
284
285
286
287
288
289
29
290
291
292
293
294
295
296
297
298
299
2a
2b
2c
2d
2e
2f
2g
2h
2i
2j
2k
2l
2m
2n
2o
2p
2q
2r
2s
2t
2u
2v
2w
2x
2y
2z
3
30
300
3000
301
302
303
304
305
306
307
308
309
31
310
311
312
313
314
315
316
317
318
319
32
320
321
322
323
324
325
326
327
328
329
33
330
331
332
333
334
335
336
337
338
339
34
340
341
342
3422008322
343
344
345
346
347
348
349
35
350
351
352
353
354
355
356
357
358
359
36
360
361
362
363
364
365
366
367
368
369
37
370
371
372
373
374
375
376
377
378
379
38
380
381
382
383
384
385
386
387
388
389
39
390
391
392
393
394
395
396
397
398
399
3a
3b
3c
3d
3e
3f
3g
3h
3i
3j
3k
3l
3m
3n
3o
3p
3q
3r
3s
3t
3u
3v
3w
3x
3y
3z
4
40
400
4000
401
402
403
404
405
406
407
408
409
41
410
411
412
413
414
415
416
417
418
419
42
420
421
422
423
424
425
426
427
428
429
43
430
431
432
433
434
435
436
437
438
439
44
440
441
442
443
444
445
446
447
448
449
45
450
451
452
453
454
455
456
457
458
459
46
460
461
462
463
464
465
467
468
469
47
470
471
472
475
476
478
479
48
480
482
483
484
485
486
487
488
489
49
490
491
492
493
494
495
496
497
498
4a
4b
4c
4d
4e
4f
4g
4h
4i
4j
4k
4l
4m
4n
4o
4p
4q
4r
4s
4t
4u
4v
4w
4x
4y
4z
5
50
500
5000
50000
501
502
503
504
505
506
508
509
51
510
511
512
515
516
518
519
52
520
521
523
524
525
526
527
528
529
53
530
532
533
534
535
536
538
539
54
540
542
543
544
545
546
548
55
550
551
552
553
555
558
56
560
562
564
565
567
568
569
57
570
571
572
573
574
575
576
58
581
584
585
587
588
59
591
592
599
5a
5b
5c
5d
5e
5f
5g
5h
5i
5j
5k
5l
5m
5n
5o
5p
5q
5r
5s
5t
5u
5v
5w
5x
5y
5z
6
60
600
6000
603
604
606
608
61
612
616
617
618
619
62
620
621
623
624
627
63
630
631
633
635
639
64
640
642
645
648
649
65
650
651
655
656
657
66
660
662
664
667
67
670
672
673
675
676
679
68
680
681
685
688
69
691
696
699
6a
6b
6c
6d
6e
6f
6g
6h
6i
6j
6k
6l
6m
6n
6o
6p
6q
6r
6s
6t
6u
6v
6w
6x
6y
6z
7
70
700
7000
703
704
705
71
711
713
72
720
729
73
735
736
737
74
743
75
750
752
7525
756
76
760
7670
768
7695
77
770
78
784
79
7975
7a
7b
7c
7d
7e
7f
7g
7h
7i
7j
7k
7l
7m
7n
7o
7p
7q
7r
7s
7t
7u
7v
7w
7x
7y
7z
8
80
800
8018
81
814
82
8243
83
84
840
85
850
85270
86
87
87317
87691
88
88167
89
8a
8b
8c
8d
8e
8f
8g
8h
8i
8j
8k
8l
8m
8n
8o
8p
8q
8r
8s
8t
8u
8v
8w
8x
8y
8z
9
90
900
91
911
92
922
9221
93
93264
94
944
949
95
950
9524
9533
95382
955
957
96
960
9614
965
966
97
978
98
98229
985
99
992
9965
9a
9b
9c
9d
9e
9f
9g
9h
9i
9j
9k
9l
9m
9n
9o
9p
9q
9r
9s
9t
9u
9v
9w
9x
9y
9z
:
;
<
=
>
?
@
[
[CLS]
[MASK]
[PAD]
[SEP]
[UNK]
\
]
^
_
`
a
a0
a1
a2
a3
a4
a5
a6
a7
a8
a9
aa
ab
abc
about
abstract
ac
aca
academia
academic
academy
acc
accessed
accipiter
ace
action
ad
adam
adams
addison
adobe
adsl
ae
af
africa
after
ag
agabazar
age
agency
agrostis
agyptischen
agyptologische
ah
ai
air
aj
ak
al
alan
albert
alexander
alfred
algebra
all
alla
allen
allmovie
alnus
alpha
als
alt
altertumswissenschaft
alyga
am
ame
america
american
amore
amsterdam
an
analysis
anatomy
ancient
and
andrew
animal
animation
ankara
ann
anna
anne
antonio
ao
aoc
ap
apache
apple
applications
applied
approach
april
aq
ar
architecture
archive
archives
arctg
are
army
array
art
arthur
article
articles
arts
arxiv
as
ascii
asia
asp
aspx
association
astronomical
astronomy
at
atlantic
atlas
atomic
au
audi
audio
auf
aufl
auflage
august
aus
austen
australia
australian
aut
author
av
avant
avena
aw
award
awards
ax
ay
az
b
b0
b1
b2
b3
b4
b5
b6
b7
b8
b9
ba
back
background
bad
band
bank
banners
based
basic
battle
bb
bbc
bc
bd
be
beatles
beckerath
begin
bei
bell
benjamin
berkeley
berlin
bersillon
best
beta
between
bezirk
bf
bg
bh
bi
big
billboard
biography
biology
bird
birds
bis
bitter
bj
bk
bl
blachot
black
blackwell
blanc
blog
blood
blue
bm
bmatrix
bn
bo
board
boiss
book
books
border
boston
botanical
bowie
box
bp
bq
br
brian
brief
brill
britain
britannica
british
bromus
brookesia
broughton
brown
bruce
bs
bt
bu
bulletin
bureau
business
but
bv
bw
bx
by
bz
c
c0
c1
c2
c3
c4
c5
c6
c7
c8
c9
ca
calculator
calculus
california
calvados
cambridge
campbell
camus
can
canada
canadian
cap
carex
carl
case
cases
casuistry
cat
catalogue
catholic
cb
cc
cca
cce
cd
cdot
cdots
ce
cec
cece
census
centaurea
center
central
centre
century
cf
cg
ch
change
channel
chapter
charles
chateau
che
cheilopogon
chemical
chemistry
cherokee
chicago
china
chinese
choose
christian
christopher
chronicle
chuvash
ci
cia
cinema
cite
city
civilization
cj
ck
cl
class
classical
classification
classischen
club
cm
cms
cn
co
code
collapse
collection
college
collins
columbia
com
commission
committee
common
community
companion
company
comparative
complete
comprehensive
computer
congress
conseil
conservation
contemporary
content
convolvulus
corporation
corps
cos
cote
council
country
course
court
cp
cq
cr
crc
critical
crocodylus
cross
cs
css
ct
cu
cultural
culture
current
cv
cw
cx
cy
cynoglossum
cz
d
d0
d1
d2
d3
d4
d5
d6
d7
d8
d9
da
daily
dan
daniel
dans
dark
darwin
das
data
database
david
day
days
db
dc
dd
de
death
dec
decay
december
definition
del
dell
della
delta
den
department
der
des
description
design
det
detail
deutsch
deutsche
deutschen
deutscher
deux
development
df
dg
dh
di
dictionary
dictionnaire
die
digital
directed
directory
discovery
disney
displaystyle
diversity
division
dj
djvu
dk
dl
dll
dm
dmoz
dn
do
doc
documents
doi
don
donald
dots
double
dover
down
dp
dq
dr
ds
dt
du
dunal
dv
dvd
dw
dx
dy
dynamics
dz
e
e0
e1
e2
e3
e4
e5
e6
e7
e8
e9
ea
early
earth
east
eastern
eb
ec
ecc
ecce
ece
economic
ed
edinburgh
edited
edition
editions
editor
eds
edu
education
edward
ee
ef
eg
egypt
egyptian
eh
ei
ein
eine
einfuhrung
einstein
ej
ek
el
electronic
element
elementary
elements
elizabeth
em
empire
en
encyclopaedia
encyclopedia
encyclopædia
end
energy
engineering
england
english
entry
eo
eol
ep
eq
er
eric
es
essays
est
et
etc
ethics
ethnic
ethnologue
eu
europa
europe
european
ev
evaluation
evans
evidence
evolution
ew
ex
excel
express
ey
ez
f
f0
f1
f2
f3
f4
f5
f6
f7
f8
f9
fa
facebook
factbook
facts
fall
family
faq
fb
fc
fd
fe
feat
february
felis
felix
femme
festival
ff
fg
fh
fi
field
figures
file
files
film
filter
filterimage
firefox
first
fj
fk
fl
flash
fleming
flora
fm
fn
fo
font
for
forbes
foreign
forum
foundation
four
fp
fq
fr
frac
francais
france
francis
francisco
francois
frank
franklin
franz
free
freebsd
french
friedrich
from
fs
ft
ftp
fu
full
function
fur
fusion
future
fv
fw
fx
fy
fz
g
g0
g1
g2
g3
g4
g5
g6
g7
g8
g9
ga
gallery
game
gamma
gas
gb
gc
gd
ge
general
genius
genus
geo
geographic
geometry
georg
george
georgia
german
germany
geschichte
gf
gg
gh
gi
gif
gj
gk
gl
glasgow
global
glossary
gm
gmbh
gn
gnu
go
gold
golden
good
google
gov
government
gp
gq
gr
grammar
grammatik
grand
grande
grant
graphs
gray
great
greatest
greek
green
greenwood
grin
group
groups
gruyter
gs
gt
gu
guardian
guide
gv
gw
gx
gy
gz
h
h0
h1
h2
h3
h4
h5
h6
h7
h8
h9
ha
hall
hand
handbook
handbuch
hans
harold
harper
harry
harvard
has
have
haven
hb
hc
hd
he
health
heart
heidelberg
hello
henri
henry
her
heracleum
here
heritage
hermann
hero
heroes
hf
hg
hh
hi
high
hill
hindi
his
histoire
historia
historical
history
hj
hk
hl
hm
hms
hn
ho
home
homo
hopkins
horse
hot
house
how
howard
hp
hq
hr
hrsg
hs
ht
htm
html
http
https
hu
hudson
human
hv
hw
hx
hy
hz
i
i0
i1
i2
i3
i4
i5
i6
i7
i8
i9
ia
ian
iana
iau
ib
ibm
ic
icarus
ice
id
ie
if
ig
ih
ii
iii
ij
ik
il
illustrated
im
image
images
imdb
in
inc
includes
including
independent
index
india
indian
indiana
indo
info
information
infty
institut
institute
instrumental
int
interactive
international
internet
interview
into
introduction
inula
io
ip
ipod
iq
ir
irish
is
isbn
island
iso
israel
issn
issue
it
italia
italian
its
iu
iupac
iv
iw
ix
iy
iz
j
j0
j1
j2
j3
j4
j5
j6
j7
j8
j9
ja
jack
jackson
jacques
james
jan
jane
january
japan
japanese
java
javascript
jb
jc
jd
je
jean
jf
jg
jh
ji
jim
jj
jk
jl
jm
jn
jo
joan
johannes
john
johns
johnson
jones
joomla
joseph
joshua
journal
jp
jpg
jpl
jq
jr
js
jsp
jt
ju
july
june
juniperus
jurgen
jv
jw
jx
jy
jz
k
k0
k1
k2
k3
k4
k5
k6
k7
k8
k9
ka
kansas
karl
kb
kc
kd
ke
kenneth
kf
kg
kh
khan
ki
king
kingdom
kino
kj
kk
kl
kladr
km
kn
knapp
ko
konigsnamen
kp
kq
kr
ks
kt
ku
kunst
kunstverlag
kv
kw
kx
ky
kz
l
l0
l1
l2
l3
l4
l5
l6
l7
l8
l9
la
laboratory
lady
land
lang
language
languages
large
last
late
latest
latin
law
lawrence
lb
lc
ld
ldots
le
learning
leben
lecture
lectures
led
lee
left
legacy
leiden
leipzig
lenta
les
letters
lewis
lexikon
lf
lg
lh
li
lib
libr
library
life
light
like
lim
limited
limits
line
linear
linguistic
linguistics
link
links
linnaeus
linux
list
literary
literature
lito
little
live
livejournal
lj
lk
ll
lm
ln
lo
location
log
london
long
look
lord
los
louis
love
lp
lq
lr
ls
lt
ltd
lu
lv
lw
lx
ly
lyga
lz
m
m0
m1
m2
m3
m4
m5
m6
m7
m8
m9
ma
mac
machine
macmillan
madagascar
magazine
magic
magistrates
mail
main
major
make
making
mammal
mammals
man
management
mantella
many
map
maps
mar
march
maria
marie
mario
mark
martin
mary
mass
materials
math
mathbb
mathbf
mathematical
mathematics
mathnet
mathrm
mathsf
mathworld
matrix
matter
max
may
mb
mc
mcgraw
md
me
mechanics
media
mediawiki
medical
medicine
medieval
melilotus
men
mennonite
menu
meta
method
methods
mf
mg
mh
mi
michael
michel
microsoft
middle
mil
military
miller
mind
minor
mit
mj
mk
ml
mm
mn
mo
mod
models
modern
molecular
moon
moore
more
morning
morton
moscow
most
motion
movie
mozilla
mp
mq
mr
ms
mt
mu
mull
munchen
munchner
murray
museum
music
mv
mw
mx
my
mysql
mz
n
n0
n1
n2
n3
n4
n5
n6
n7
n8
n9
na
nach
name
names
napoleon
narod
nasa
nation
national
nations
native
natural
nature
nb
nc
nd
ne
neq
net
netscape
network
neue
new
news
newton
next
nf
ng
nh
ni
nicholas
night
nil
nj
nk
nl
nm
nn
no
nobel
nomenclature
non
nord
north
northern
not
notes
november
now
np
nq
nr
nrcs
ns
nt
nu
nubase
nuclear
nuclphysa
number
nv
nw
nx
ny
nz
o
o0
o1
o2
o3
o4
o5
o6
o7
o8
o9
oa
ob
objects
observations
oc
ochoa
oclc
october
od
oe
of
office
official
og
oh
oi
oj
ok
ol
old
om
omega
on
one
online
oo
op
open
openoffice
opera
operatorname
oq
or
oral
orchestra
order
org
organization
origin
original
origins
os
ot
other
otto
ou
our
out
ov
over
overview
ow
ox
oxford
oy
oz
p
p0
p1
p2
p3
p4
p5
p6
p7
p8
p9
pa
pacific
page
pages
paper
papers
par
paris
park
part
partial
particle
party
past
path
paul
pays
pb
pc
pd
pdf
pe
peace
penguin
pennsylvania
people
peoples
per
period
persian
perspective
peter
pf
pg
ph
phi
philip
philosophy
photo
photos
php
phylogeny
phys
physical
physics
physik
pi
pictures
pierre
pj
pk
pl
place
planck
planet
planetary
planets
plant
plants
plus
pm
pmid
pn
png
po
poa
podvignaroda
point
political
politics
polygonum
popular
population
portal
portrait
post
pour
power
pp
pq
pr
prentice
present
press
prince
princeton
principles
print
prize
pro
probability
problem
problems
proceedings
profile
program
project
properties
ps
psychology
pt
pu
pub
public
publication
publications
published
publishers
publishing
pulmonaria
pure
pv
pw
px
py
pz
q
q0
q1
q2
q3
q4
q5
q6
q7
q8
q9
qa
qb
qc
qd
qe
qf
qg
qh
qi
qj
qk
ql
qm
qn
qo
qp
qq
qr
qs
qt
qu
quad
quantum
quarterly
que
queen
quercus
qv
qw
qx
qy
qz
r
r0
r1
r2
r3
r4
r5
r6
r7
r8
r9
ra
radiation
radio
rambler
random
ray
rb
rc
rd
re
read
real
realencyclopadie
record
records
red
ref
reference
references
region
regnum
related
relativity
religion
rembrandt
renaissance
report
republic
research
resource
resources
result
results
retrieved
rev
review
revised
revolution
rf
rg
rh
rho
ri
richard
right
rightarrow
rio
river
rj
rk
rl
rm
rn
ro
robert
rock
roma
roman
rome
rose
roshev
ross
routledge
royal
rp
rq
rr
rs
rss
rsssf
rt
ru
rus
rusactors
ruskino
russia
russian
rv
rw
rx
ry
rz
s
s0
s1
s2
s3
s4
s5
s6
s7
s8
s9
sa
saint
samuel
san
sarah
sb
sc
school
schuster
sci
science
sciences
scientific
scotland
scott
sd
se
sea
search
sec
second
section
see
selection
september
series
server
service
services
set
sf
sg
sh
shakespeare
ship
short
show
shtml
si
siam
simon
simple
sin
sir
site
size
sj
sk
skype
sl
sm
small
smith
sn
so
soc
social
society
software
solanum
solar
solaris
solid
some
son
song
sons
sound
source
sources
sous
south
southern
soviet
sp
space
spaces
special
species
spermophilus
sprache
spring
springer
sq
sqrt
sr
ss
ssp
st
stanbul
standard
stanford
star
state
states
statistical
statistics
stephen
steve
stone
stories
story
street
structure
stub
studien
studies
studio
study
stuttgart
style
su
subsp
suggestion
sum
summer
sun
super
sur
surface
survey
susan
sv
sw
sx
sy
symbols
syn
system
systems
sz
t
t0
t1
t2
t3
t4
t5
t6
t7
t8
t9
ta
table
tables
tablesl
taxonomy
taylor
tb
tc
td
te
teatr
technical
technology
terms
test
texas
text
texte
texts
tf
tg
th
thames
that
the
theatre
their
theorie
theory
there
thermodynamics
they
thibault
third
this
thomas
thompson
three
through
ti
tilia
time
times
title
tj
tk
tl
tm
tn
to
today
tom
tool
top
toronto
tour
tp
tq
tr
tradition
trans
translated
translation
tree
trel
triangle
ts
tt
tu
turk
turkish
tutorial
tv
tw
twitter
two
tx
ty
typ
type
tz
u
u0
u1
u2
u3
u4
u5
u6
u7
u8
u9
ua
ub
uber
uc
ud
ue
uf
ug
uh
ui
uj
uk
ul
ulmus
um
un
una
und
under
une
unesco
unicode
union
united
units
univ
universal
universe
university
unix
uo
up
uq
ur
url
urtica
us
usa
usda
use
user
using
ussr
ut
utc
utf
uu
uv
uw
ux
uy
uz
v
v0
v1
v2
v3
v4
v5
v6
v7
v8
v9
va
value
van
var
varphi
vb
vc
vd
vdots
ve
vec
vector
verlag
version
vf
vg
vh
vi
via
victoria
video
vie
view
vii
viii
ville
vita
vj
vk
vl
vm
vn
vo
vol
vols
volume
vom
von
vp
vq
vr
vs
vt
vu
vulpes
vv
vw
vx
vy
vz
w
w0
w1
w2
w3
w4
w5
w6
w7
w8
w9
wa
wales
walker
wall
walter
wapstra
war
warszawa
was
washington
watch
water
waterloo
way
wayback
wb
wc
wd
we
web
webcitation
webelements
website
weekly
wesley
west
western
wf
wg
wh
what
when
which
white
who
whois
why
wi
wien
wiesbaden
wiki
wikia
wikibooks
wikileaks
wikimedia
wikipedia
wild
wiley
wilhelm
will
william
williams
wilson
windows
wine
winter
with
wj
wk
wl
wm
wn
wo
wolfgang
wolfram
women
word
work
works
world
wp
wq
wr
wrapper
ws
wt
wu
wv
ww
www
wx
wy
wz
x
x0
x1
x2
x3
x4
x5
x6
x7
x8
x9
xa
xb
xc
xd
xe
xf
xg
xh
xhtml
xi
xii
xiii
xiv
xix
xj
xk
xl
xm
xml
xn
xo
xp
xq
xr
xs
xt
xu
xv
xvi
xvii
xviii
xw
xx
xxi
xxii
xxx
xy
xz
y
y0
y1
y2
y3
y4
y5
y6
y7
y8
y9
ya
yale
yandex
yb
yc
yce
yd
ye
year
years
yf
yg
yh
yi
yj
yk
yl
ym
yn
yo
york
you
young
your
youtube
yp
yq
yr
ys
yt
yu
yv
yw
yx
yy
yz
z
z0
z1
z2
z3
z4
z5
z6
z7
z8
z9
za
zakupki
zb
zc
zd
ze
zeitschrift
zeppelin
zf
zg
zh
zi
zip
zj
zk
zl
zm
zn
zo
zp
zq
zr
zs
zt
zu
zum
zur
zv
zw
zx
zy
zz
{
|
}
~
§
©
«
¬
®
¯
°
±
²
³
´
·
»
½
×
ß
æ
ð
ø
þ
đ
ı
ł
ŋ
œ
ɐ
ɑ
ɒ
ɔ
ə
ɛ
ɡ
ɣ
ɨ
ɪ
ɾ
ʀ
ʁ
ʂ
ʃ
ʊ
ʌ
ʐ
ʒ
ʔ
ʙ
ʰ
ʲ
ʹ
ˈ
ˌ
ː
α
β
γ
δ
ε
ζ
η
θ
ι
κ
λ
μ
ν
ξ
ο
π
ρ
ς
ςς
σ
τ
υ
φ
χ
ψ
ω
ϕ
а
абаев
абакан
абдрашитов
абдулино
абдулла
абель
абляскино
абрам
абрамов
абрамович
абрикосов
абруков
абрыскино
абсолютл
абстрактл
абу
абхаз
абхази
ав
ава
авал
авалл
авалтан
авалтанах
авалхи
аван
авангард
авар
аварсем
авах
авахл
авг
август
августа
авдеев
аверьянов
авест
авеста
авиаполк
авиаци
авиации
авиацин
авив
авл
авланн
авна
авнашкал
авр
авра
авраам
аврак
аврака
аврелии
аври
аврора
австрали
австралире
австри
австрире
австро
авт
автан
авто
автобус
автоматчик
автоматчиксен
автомобил
автомобиль
автомобиля
автономи
автономии
автономин
автономия
автономл
автономла
автономнои
автор
автора
авторе
автореф
автореферат
автореферач
авторов
авторсем
авторсен
авторы
агаков
агакова
агафонов
агеев
агеева
агент
агентстви
агентство
агенч
агивер
агни
агриппа
агриппина
агроном
ад
ада
адам
адамович
адвокат
адер
аджи
административл
административла
административно
администратор
администратора
администраци
администрации
администрацилл
администрацин
администрация
адмирал
адольф
адрес
адреса
адресе
адриатика
адыг
адыгеи
азамат
азаров
азбука
азерб
азербаиджан
азербаиджана
азербаиджансем
ази
азии
азин
азине
азипе
азире
азирен
азири
азия
азов
азот
аи
аиги
аидаш
аизман
аил
аин
аине
аирес
аирис
аист
аит
аитар
аиф
аихи
ак
ака
акад
академи
академии
академик
академика
академин
академине
академинче
академическии
академия
акалч
акалчан
акан
акансем
акансен
акатуи
аквариум
аквитани
аки
акивер
аким
акимов
акимова
акимович
акк
акка
аккад
акн
акна
акнашкал
акса
аксаков
аксар
аксем
аксене
аксенов
аксиом
аксу
аксубаево
аксубаевскии
аксубаевского
аксумла
акт
акташ
актер
актера
актеры
активл
актини
актрис
актриса
актриси
актрисы
актуальные
акты
акушер
акции
акч
акшар
ал
ала
алан
аланн
алапу
албан
албани
алгебр
алгебра
алгебры
алгоритм
алевтина
алеи
алеиников
алекс
алекса
александр
александра
александри
александров
александрова
александрович
александровка
александровна
алексеев
алексеева
алексеевич
алексеевка
алексеевна
алексеевски
алексеенко
алексеи
алексея
алексин
ален
алена
алетеия
алеша
алешин
алешкин
алжир
али
алиев
аликовская
аликовскому
алина
алиса
алкоголь
алл
алла
алли
аллине
аллинче
алма
алмаз
алмантаи
алманч
алмас
алматы
алпатов
алран
алт
алтаи
алтая
алти
алфавит
алфавита
алфавитне
алфавич
аль
альберт
альбина
альбом
альбома
альбрехт
алькеевского
альманах
альп
альпина
альфа
альфред
алюмини
аляск
аляска
ам
ама
амазонка
амак
амал
аманн
амаше
америк
америка
американ
американсем
американскии
америкара
америки
ами
амня
амр
амстердам
амундсен
амур
амфибии
амфора
ан
ана
анализ
анализа
аналитик
аналитика
аналитическая
аналог
ананьев
ананьева
анастасия
анат
анатарах
анаткас
анаткасси
анатоли
анатолии
анатольевич
анатольевна
анатомии
анатомия
анатомія
анатоміі
анатри
анать
анах
ангара
ангел
ангелина
англ
англи
англии
англиискии
англииского
англииском
англин
англире
ангола
андельфинген
андерсен
андре
андреев
андреева
андреевич
андреевка
андреевна
андреи
андрея
андрианов
андриян
андрющенко
ани
аникин
аниме
анисимов
анисимович
анискин
анк
анкинович
анл
анла
анн
анна
анне
анненков
анни
аннотированныи
анны
анохин
анри
анс
анса
ансамбл
ансамбль
ансат
ант
антал
антанта
антарктид
антарктида
антарктика
антарн
антеи
анти
антика
антиох
антиохи
антипин
антипов
античная
античнои
античности
античность
антологии
антология
антон
антонии
антонин
антонина
антонио
антонов
антонова
антонович
антропологи
антропологии
антропология
антуан
антуанетта
ануи
анхи
анч
анчах
аня
ао
аос
ап
апа
апат
апата
апатлану
апать
апах
апач
апаш
апла
аплах
апн
аполлон
апостол
апп
аппа
аппак
аппаково
аппарат
аппарач
аппенцелль
апр
апрель
апреля
апса
апт
апу
апш
апшра
ар
ара
араб
арав
арави
арагон
аракан
арал
арам
арама
араме
арамеи
аран
арап
арапсем
арапу
аратн
арать
арга
аргентин
аргентина
аргументы
ардатов
ардон
ареал
ареслен
ари
аристарх
аристотель
арифметик
арифметика
арк
арка
аркадии
аркадьевич
аркадьевна
аркан
арканать
арканн
арканса
аркансан
аркану
арката
аркатать
аркатма
аркатн
аркатса
арки
арктик
арктика
арл
арлан
арланова
арм
арма
армавир
армалли
арман
армен
армени
армии
армия
арн
арне
арни
арнольд
арнольдов
арпа
арпу
арса
арсан
арсем
арсен
арсене
арсении
арсентии
арсентьевич
арсеньев
арт
арта
артамонов
артан
артем
артеменко
артемович
артемьев
артемьева
артемьевич
арти
артиллери
артиллерии
артист
артиста
артистка
артистки
артистсем
артисты
артисч
артур
ару
арх
архангел
архангельск
археолог
археологи
археологии
археологические
археология
археологсем
архив
архива
архиве
архивировано
архивлан
архивлен
архивная
архиври
архивы
архиепископ
архимед
архип
архипелаг
архипов
архипова
архипович
архитектор
архитекторы
архитектура
архитектури
архитектуры
арча
арья
ас
аса
асаил
асаилусем
асам
асамат
асамл
асанне
асап
асатте
асбассеин
асеев
асем
асл
асла
аслалахесен
асламас
аслан
аслати
аслах
аслашш
асли
аспарух
аспект
аспекты
аспирантур
асра
асран
асси
ассири
ассистент
ассистенч
ассоциации
ассоциация
асср
аст
асталана
астахов
астероид
асти
астрель
астроном
астрономи
астул
астула
астулне
астулра
астулран
астулта
асфальт
ася
ат
ата
атак
атал
аталан
аталанать
аталанма
аталанн
аталанса
аталантарас
аталантарма
аталантарн
аталантарса
аталану
атаман
атикасси
атлант
атлантида
атлантика
атлас
атмосфер
атмосфера
атнер
атом
атомиздат
атомл
атомсен
атра
атракасси
атри
атсем
атсенче
атте
аттил
аттила
ать
аудио
аул
ауновская
афанасии
афанасьев
афанасьева
афанасьевич
афган
афганистан
афганистанра
афин
афина
афиша
африк
африка
африкан
африкара
африке
африки
аффикс
ах
ахаль
ахах
ахматова
ахмед
ахмедов
ахмет
ахметов
ахметово
ахп
ахпурт
ахрат
ахун
ач
ача
ачал
ачалл
ачана
ачаран
ачаранах
ачасем
ачасен
ачасене
ачи
ачине
ачисем
ачисен
ачисене
аш
аша
ашк
ашкеров
ашмарин
ашмаринские
ашш
ашше
аэродром
аэропорт
аэропорч
аэс
аяк
аякра
аякри
аяларах
аялти
б
ба
баба
бабаев
бабак
бабаян
бабкин
бабушка
бабушкин
бавари
бавлинского
багдашкино
баден
баженов
баз
база
базе
базель
бази
базин
базинче
базинчен
базовые
базу
базы
баи
баидарата
баикал
баиков
баиконур
баирон
баканов
баксан
баку
бал
балакирев
баланда
баландин
балашов
балерина
балет
балета
балетмеистер
балеч
балкан
балкар
баллада
балти
балтика
балхаш
бангладеш
бандитскии
банк
банка
баннеров
бань
бар
барабанов
баранов
баранова
барбара
баргузин
барда
бардымского
баренц
бари
баринов
барков
барнаул
барокко
барон
барс
барселона
барсуков
барыш
бас
басилов
баск
баскаков
баскетбол
басов
бассеин
бассеина
бассеине
баста
баталов
батальон
батареи
батареин
батарея
батист
батор
батыревская
бах
бахтин
башгу
башкирии
башкиров
башкирская
башкирскои
башкортостан
башкортостана
башня
баян
ббк
беда
бедныи
бежит
без
безопасности
безруков
беи
беибарс
бек
бел
белару
беларус
беларуси
беларусь
белая
белгород
белград
беликов
белинскии
белла
белов
белова
белого
белое
белок
белору
белорус
белоруси
белоруссем
белоруссии
белоусов
белые
белыи
бельги
бельгин
белявскии
беляев
беляков
беме
бен
бенедикт
бенуа
берг
бергман
бердь
берег
берега
берегах
берегу
березин
березина
березкин
березовая
березовка
беринг
берия
беркли
берлин
берлина
берн
бернар
бернард
беседа
беседы
беспалов
бессмертныи
бессонов
бета
бетон
бетховен
би
библи
библиогр
библиографическии
библиография
библиоссылке
библиотек
библиотека
библиотеке
библиотеки
бизнес
бизнесмен
билет
билл
биляр
биобиблиографическии
биографи
биографии
биографическая
биографическии
биография
биол
биолог
биологи
биологии
биологилле
биологическии
биология
бирж
биржа
биржи
бирюков
бит
битва
бить
бичурин
бия
бияпа
бк
благодаря
блан
бланш
близ
блинов
блог
блок
блока
блокада
блюз
бо
боб
бобина
бобков
бобров
бог
богатство
богатырев
богатырь
богдан
богданов
богданович
богема
богов
боголюбов
богомолов
бодров
боевик
боевои
боевые
бои
боико
боицов
болг
болгар
болгари
болгарии
болгарин
болгария
болгаро
болгарскии
болгарских
болгарского
болгарскои
болгары
более
болезни
болезнь
боливи
болотов
болтовского
боль
больнои
больных
большаков
большая
больше
большевик
большевиксем
большевиксен
большевиксене
большие
большим
большинстве
большинство
большого
большое
большои
бомб
бомба
бомблакан
бон
бонгард
бондарев
бондаренко
бондарчук
бондарь
бор
бордо
бори
борис
бориса
борисенко
борискин
борискино
борисов
борисова
борисович
борисовна
боркин
боровков
бородин
бортинженер
борьба
борьбе
борьбы
босни
боспор
бостон
бот
ботаник
ботаника
ботаническии
боуи
бочарников
бочаров
бочкарев
брагин
бразили
браиан
брак
бран
бранденбург
брат
брата
братислава
брать
братья
браузер
браун
брежнев
брест
бретань
бретонь
бригад
бригада
бригади
бригадин
бригадир
брик
британ
британи
британие
британин
британипе
британире
брод
бродскии
брокгауза
брокгаузпа
бронз
бронза
бронь
бруно
брэ
брюс
брюссель
брянск
бсэ
бугера
будапешт
будда
буддизм
будем
буденныи
будет
будто
будут
будущего
будущее
будущем
буинского
бук
букв
буквар
букварь
буквы
букер
булат
булатов
булгаков
булгар
булгаризм
булгаро
булгары
булдаков
булычев
бульвар
бумага
бур
буран
бурбон
бургдорф
бургунди
буржуази
буркина
бурмистров
буров
бурцев
бурят
бутаиха
бутан
бухара
бухгалтер
буш
бушуева
буэнос
бы
бывшая
бывшего
бывшии
бык
быков
быковскии
был
была
были
было
быстро
быстров
быстром
быт
бытия
бытовые
быть
бычков
бэкон
бюджет
бюллетень
бюро
бюров
в
ва
вавилов
вавилова
вавилон
ваг
вагин
вагнер
вагон
вагриус
вадим
ваза
вазов
ваи
ваиа
ваила
ваит
вак
вакал
вакан
вакансем
вакансен
вакарч
вакун
вал
вала
валаса
валдаи
вале
валеев
валем
валентин
валентина
валентинович
валериан
валерии
валерия
валерьевич
валерьевна
вали
валла
валли
валь
вальс
вальтер
валюта
валя
вам
вами
ван
вана
ванин
ванл
ванла
вансем
вантер
ваня
вап
вапа
вапл
вар
вара
варам
варан
варас
варать
варвара
вари
вариант
варианч
варл
варлам
варма
варман
варн
варна
варни
варпа
варри
варрине
варринче
варринчен
варринчи
варса
варсем
вартан
варшав
варшава
варҫа
варҫи
вас
васан
васи
василевскии
василенко
василии
василиса
василия
василь
васильев
васильева
васильевич
васильевка
васильевна
васин
васл
васнецов
васса
васси
васюган
васюганран
вася
ват
вата
ватам
ватаҫер
ватерлоо
ватикан
ватк
ваткал
ватл
ватне
ватт
ваттисем
ваттисен
вать
вах
вахат
вахатенче
вахатра
вахатрах
вач
ваш
ваша
вашего
вашем
вашингтон
вашка
вашкино
вашл
вашла
вашра
вашран
вашсем
вашсемпе
вашсен
вашсене
вая
вв
вва
введение
введенскии
введите
вверх
ввести
вви
ввине
ввисем
ввисемпе
ввисене
вдова
вдовенко
вдоль
вдруг
ве
веб
вебер
ведерников
ведомости
ведут
ведущии
ведь
везер
век
века
веках
веке
веков
вектор
векторла
вел
велан
веле
велен
велерне
великая
великие
великии
великих
великого
великои
великорусского
величества
величин
величко
велл
велосипед
велтух
вельяминов
вен
вена
венгр
венгри
венгрсем
венера
венесуэл
венесуэла
венето
венеци
вениамин
вениаминович
вепс
вер
вера
вербицкии
верди
вере
верен
веренне
веренсе
верену
вермахт
вернадскии
вероника
вероятностеи
верре
версаль
верси
версии
версине
версипе
версия
вертикалл
вертолет
верхнее
верхние
верхнии
верховного
веры
веселая
веселов
веселые
весем
весен
весене
весенчен
весна
веспасиан
вест
вестготсен
вести
вестн
вестник
вестфали
весь
вет
ветер
ветеран
ветеранов
ветеринари
ветлуга
веттер
вече
вечер
вечера
вечернии
вечером
вечныи
веществ
вещества
вещество
вещи
вещь
веҫен
веҫенче
взаимодеиствия
взвод
взвоч
взгляд
взрыв
взять
ви
виа
вивьен
вид
вида
виде
видел
видео
видеоканал
видеохостинг
видеть
видов
виды
византи
визит
вика
вики
викиампарта
викивулав
викик
викимедиа
википеди
википедие
википедии
википедин
википедине
википединче
википедире
википедия
викис
викицитатникре
виктор
виктора
виктори
виктория
викторов
викторович
викторовна
вил
виле
вилет
виличчен
виллине
вилн
вилне
вилни
вилнисем
вилнисен
вилсе
вилсен
вилт
вильгельм
вильнюс
вильям
вильямс
вин
винберг
вине
винник
вино
виноградов
виноградова
винокуров
винсент
винтертур
винче
винчи
виолетта
вир
виртуалл
виртуальныи
вирус
вирьял
вис
висанти
виска
виски
вит
виталии
витальевич
витальевна
витебск
витем
витер
витлев
витн
витти
вице
вицин
вич
вичк
вишера
вишневая
вишневскии
вища
виҫе
виҫҫемеш
вк
включая
вком
вконтакте
вкп
вкус
вл
вла
влади
владивосток
владимир
владимира
владимиров
владимирова
владимирович
владимировна
владислав
влас
власенко
власов
власова
власти
власть
влияние
влксм
вместе
вместо
вна
вне
внесении
вниз
внимание
внутри
во
вод
вода
воде
водител
водитель
водка
водного
водныи
водных
водои
водород
воду
воды
воеводин
воен
воениздат
военная
военно
военного
военное
военнои
военные
военныи
военных
вож
воз
возвр
возвращение
воздух
воздушных
возможно
возможности
возможность
возникновение
возникновения
возраст
возрождение
возрождения
вои
воин
воина
воине
воинов
воины
воиск
воиска
воити
вокал
вокзал
вокруг
волга
волгателеком
волге
волги
волгин
волго
волгоград
волжская
волжские
волжских
волжскои
волк
волков
волкова
волны
вологда
володин
володя
волости
волосы
волошин
волхов
волынь
вольта
вольфа
вольфганг
вольфрам
воля
вон
вообще
вопр
вопрос
вопросов
вопросу
вопросы
вор
воробьев
воробьева
воронеж
воронин
воронков
воронов
воронцов
воронцова
воропаев
воропаева
ворот
ворота
ворошилов
восемь
воскресенье
воспитани
воспоминания
воспоминаниях
воспроизвести
восстание
восток
востока
востоке
востоковедение
восточная
восточного
восточнои
восточные
восточныи
восточных
востриков
вот
впервые
вперед
впереди
вр
врач
времен
времена
временем
времени
время
врубель
вс
всадник
все
всеволод
всеволодович
всегда
всего
всеи
вселенная
вселеннои
всем
всеми
всемирная
всемирнои
всему
всеобщая
всерос
всероссииская
всероссиискои
всесоюзная
всех
вслух
встреча
встречи
вступ
вступил
всю
вся
вт
вторая
второго
второе
второи
вузов
вул
вула
вулав
вулакан
вулама
вулан
вуласа
вулать
вулкан
вульф
вун
вуникк
вунн
вунп
вунт
вуншар
вуппер
вут
вутлан
вучах
вцик
вчера
вы
выберите
выбор
выборов
выбрать
выгодскии
вызов
вызывать
выикин
выити
выл
выль
выля
выляв
вылякан
выляма
вылямалли
вылян
выляса
вылять
вып
выпуск
выр
выражает
выран
выране
выранне
выранта
выранти
вырас
вырасла
вырн
вырна
вырнаҫна
вырнаҫтарна
вырсарни
вырсарникун
вырт
вырта
выртакан
выртать
выртн
высоцкии
выставка
выставки
выступление
высш
высшая
высшего
высшеи
высших
выход
вычегд
выше
вышла
вьетн
вьетнам
вэи
вюртемберг
вязовка
вязьма
вялыи
вятка
вячеслав
г
га
габдулла
габриэль
гаваии
гавриил
гаврил
гаврилов
гаврилова
гаврилович
гавриш
гагарин
гагарина
газ
газа
газета
газете
газеты
газпа
газпром
гаи
гаидаи
гаитан
гаитанкино
гаити
галактик
галактика
галереи
галереии
галереинче
галерея
галилеи
галин
галина
галицкии
галич
галкин
галкина
галл
галя
гамбург
гамлет
гамма
гана
ганза
ганнибал
ганс
гарик
гарин
гаркуша
гарнизон
гаронна
гарри
гартман
гаспаров
гаубица
гаусс
гафаров
гафни
гварди
гвардии
гвардия
гвинеи
гвоздика
гг
где
гдр
ге
гевара
гектар
гектарсемче
гельбке
ген
гена
генеалогические
генеалогия
генезис
генерал
генерала
генералам
генералл
генералов
генетика
гении
геннадии
геннадьевич
геноцид
генри
генрих
генуя
гео
географ
географи
географии
географические
географическии
географических
география
геоинформаци
геокар
геолог
геологи
геология
геометри
геометрии
геометрилле
геометрире
геометрия
георг
георги
георгиевич
георгиевна
георгии
георгия
геральдика
герасим
герасименко
герасимов
герасимова
герасимович
герб
герберт
гербне
гердт
герман
германи
германие
германии
германик
германин
германипе
германире
германири
германия
геродот
героев
герои
героя
герцеговина
герцен
герцог
гессен
ги
гибель
гидрологи
гидрологическая
гидрометеоиздат
гидротехнических
гидроузел
гильберт
гималаи
гимн
гимнази
гимназии
гимназире
гинзбург
гипе
гипотез
гипотеза
гиппократ
гитара
гитис
гитлер
гиттл
гл
глав
глава
главе
главная
главного
главное
главнои
главном
главныи
главным
главы
глагол
глагола
гладков
глаз
глаза
глазами
глазах
глазков
глазов
глазунов
гларус
глеб
глебов
глинка
глобус
глухов
гнездо
гнеи
го
гоби
говори
говорит
говорить
говоров
говорухин
говорят
гог
гоген
гоголь
год
года
годах
годов
году
годунов
годы
гол
голиков
голланд
голланди
голова
головачев
головин
головкин
голову
головченко
голод
голос
голоса
голосов
голосования
голуб
голубев
голубков
голубовскии
голубои
голубь
гольбеин
гомель
гомер
гонконг
гончаренко
гончаров
гор
гора
горбач
горбачев
горбунов
гордеев
гордиенко
гордон
горе
горелик
горелов
гори
горизонт
горин
горн
горныи
горобец
горов
город
города
городам
городах
городе
городище
городов
городок
городских
городского
городскои
городу
горохов
горскии
горчаков
горшков
горы
горькии
горького
горюнов
горячев
гос
господин
гост
гость
гостях
государств
государства
государственная
государственного
государственное
государственнои
государственные
государственныи
государственными
государственных
государство
готсем
гр
гравер
гравитаци
гравитацилле
гравюра
градус
граждан
гражданин
гражданл
гражданла
граждансен
гражданская
гражданскои
грам
грамм
грамматик
грамматика
грамматике
грамматики
грамота
грамоти
гран
гранд
грани
границ
граница
границы
грант
граубюнден
граф
графа
график
графика
графики
графиня
графл
грачев
грек
греков
грексем
грексен
гренланди
греци
греции
грецин
грецире
грецири
греч
гречко
гриб
грибов
грибоедов
грибы
григории
григорович
григорьев
григорьева
григорьевич
григорьевна
гример
грин
гриценко
гришин
гришко
грищенко
гродно
грозныи
гром
громко
громов
громова
гроссмеистер
грошев
груз
грузи
грузин
грузинсем
грузире
групп
группа
группи
группине
группы
грязи
грязнов
грязнушка
грязныи
грязь
гс
гт
гтрк
гу
губ
губа
губанов
губарев
губернатор
губернии
губерния
губерниях
губин
гулаг
гуляев
гуманит
гуманитар
гуманитари
гуманитарные
гуманитарныи
гуманитарных
гумилев
гун
гуннов
гуревич
гурии
гуров
гурьев
гурьянов
гусаров
гусев
гусеинов
густав
гутенберг
гущин
гыдан
гэс
гюго
д
да
давать
давид
давиденко
давидович
давлекан
давно
давыдов
давыдова
давыдович
дагестан
даже
дакар
дал
далее
далеко
далекого
дали
даль
дальнего
дальнии
дальше
дама
дан
даная
данелия
дани
даниил
данилин
данилов
данилова
данилович
даниэль
данном
данные
данныи
данныисем
данным
данных
данте
дао
даревскии
дарья
дат
дата
дати
датисем
даттисем
даты
дать
даша
два
двадцать
дважды
две
двенадцать
дверь
двигатель
двигаться
движение
движении
движения
двина
двое
двоиник
двор
дворец
дворов
дворян
двудольные
двумя
двух
де
дебют
девочка
девушка
девушки
девять
дегтярев
дед
дедушка
дедушкин
деиствие
деиствии
деиствия
дек
декабрь
декабря
декан
декарт
декоративных
декреч
дел
дела
делакруа
делам
делать
деле
деление
делла
дело
дель
дема
дементьев
деметрии
демидов
демин
демократи
демократилл
демоскоп
демченко
демьяненко
демьянович
денег
дени
деникин
денис
денисенко
денисов
денисова
денисович
день
деньги
департамент
департаментсем
департаменч
департаменче
департаменчен
депутат
депутатов
депутач
дер
дербент
дерева
деревень
деревне
деревни
деревню
деревня
дерево
деревья
деревянко
деревянная
десант
десна
десять
дет
детеи
детектив
дети
детская
детскии
детства
детство
деятели
деятель
деятельности
деятельность
дж
джаз
джеимс
джеин
джек
джексон
джерси
джим
джимми
джин
джо
джоан
джобс
джованни
джозеф
джоис
джон
джонатан
джонс
джонсон
джордж
джузеппе
джульетта
дза
дзюба
ди
диагностика
диак
диакон
диал
диалект
диалектика
диалекч
диалог
диаметр
диана
диапазон
диаспора
диаспори
диван
дивизи
дивизии
дивизин
дивизион
дидро
диего
дизаин
дизаинер
дизель
дии
дик
дикая
дикии
диктатор
диктор
димитриев
димитриевич
дин
дина
динамик
динамика
динамики
динамо
династи
династии
династиие
династииен
династин
династине
династия
диоген
диплом
дипломат
дипломати
дипломач
дипломне
директор
директора
дирижер
дис
диск
дискретл
дисс
диссертаци
диссертации
диссертацине
диссертация
дистанции
дисциплин
дифференциалл
для
дмитриев
дмитриева
дмитриевич
дмитриевна
дмитрии
дмитрия
дневник
дневники
днеи
днем
днепр
днепропетровск
днестр
дни
днк
дня
до
добавить
добро
добровольскии
добронравов
добрыи
довженко
довлатов
довольно
договор
дождь
дождя
доил
док
докл
доклад
докладов
доклады
доктор
доктора
документ
документа
документальныи
документах
документл
документов
документсем
документсене
документсенче
документы
докуменч
докучаев
долг
долгии
долго
долгов
должен
должно
должности
должность
должны
долина
долл
доллар
доля
дом
дома
домашнего
доме
домен
домициан
домов
домои
дон
донец
донецк
донскои
дону
доп
дополнение
дополнения
дополненное
дорог
дорога
дороге
дороги
дорогои
дорогу
дорофеев
доска
достаточно
достоевскии
достопримечательности
доступ
доступа
досье
доценко
доцент
доценч
дочери
дочь
др
драм
драма
драматург
драматургии
драми
древнего
древнеи
древнеиших
древние
древнии
древних
древностеи
древности
древняя
древо
дрожжановского
дроздов
дроздовская
дрофа
друг
друга
другая
другие
другим
другими
других
другого
другое
другои
другом
дружба
дружбы
дружинин
дружно
друз
друзья
ду
дуб
дубинин
дубна
дубровин
дубровскии
дуглас
дудин
дума
думи
думин
думка
думы
дунаев
дунаи
дуров
дух
духовная
духовное
духовнои
душ
душа
души
душу
дуэль
дуэт
дыбо
дым
дьявол
дьяков
дьяконов
дьяченко
дьячков
дэ
дэвид
дю
дюим
дюма
дядя
дятлов
е
ев
ева
евгении
евгения
евгеньевич
евгеньевна
евдокимов
евдокимова
евдокимович
евдокия
еве
евер
еверле
евич
евклид
евклидла
еврази
евразии
евразия
евреи
евреисем
евреисен
евреиская
евро
европ
европа
европан
европара
европари
европе
европеискии
европеиского
европеискои
европи
европы
евсеев
евстафии
евстафьев
евстафьевич
евстигнеев
евтушенко
евфрат
ега
еган
егарт
егип
египет
египетри
египта
его
егор
егоркино
егорлык
егоров
егорова
егорович
еделево
единая
единение
единица
единицы
единыи
ее
ежегодник
ежов
еи
еипе
еире
еирен
еири
еиу
ек
екатерина
екатеринбург
екатерины
екен
еккунт
екурав
екуравпа
ел
елаур
елга
еле
елен
елена
елены
елец
ели
еливанова
елизавета
елизаров
елик
елисеев
елл
елле
елховка
елч
ель
ельцин
ем
емельян
емельянов
емельянович
емен
емер
емерен
емерте
емерти
емии
емиинче
ему
емье
емьере
емьи
емьин
емьине
емьинче
емьинчи
ен
ене
енекасси
енен
енепе
енисеи
енисея
енл
енне
еннелле
еннче
енпе
енре
енри
енсем
ентеш
енти
енхир
енциклопедія
енч
енче
енчен
енчи
еншик
енькка
еп
епархии
епархин
епе
епископ
епле
еплерех
епху
ер
ерагин
ере
ереван
ерекен
ерем
еремеев
еременко
еремин
ерепкино
ерепьел
ерех
ерк
ермак
ермаков
ермакова
ермолаев
ермолаевич
ерн
ерофеев
ерохин
ерсе
ерт
ертсе
ерту
ертул
ертуҫи
ершов
ес
есем
есемпе
есен
есенин
если
естествознания
есть
ет
етке
еткер
еткерл
ефим
ефименко
ефимов
ефимова
ефимович
ефреитор
ефрем
ефремов
ефремова
ефремович
ефрон
ефрона
ех
ехрем
еш
еще
еҫ
еҫе
еҫесем
еҫлекен
еҫлеме
еҫлене
еҫлет
еҫне
еҫре
еҫчене
ж
жак
жан
жанеиро
жанна
жанр
жар
жарков
жаров
жданов
же
желание
железная
железныи
желтов
жен
жена
женева
женитьба
жених
женская
женщин
женщина
женщины
жены
женя
жерар
жеребцов
жертва
жж
жзл
живет
живого
живои
живописец
живописи
живопись
животные
животных
живут
жидков
жидкости
жизни
жизнь
жил
жили
жилин
жилина
жителеи
жители
житие
житомир
жить
жозеф
жолудев
жорж
жук
жуков
жукова
жуковскии
журавлев
журба
журнал
журнала
журнале
журналист
журналистика
журналистики
журналистсен
журналисч
журналра
журналсем
журналсенче
журналта
журналу
жэтф
жюль
жюри
з
за
заведении
заведующии
завещание
зависит
завод
завода
заводра
заволжье
заволжья
завоч
завтра
загадка
загадки
заговор
заголовок
загрузить
задач
задача
задачи
заицев
заицева
закон
закона
законы
зал
зале
залив
заломнов
зам
заметки
замечательных
замок
замуж
заниматься
зао
зап
запад
запада
западная
западного
западнои
западныи
запас
запах
записи
записки
запись
заповедник
запорожье
заречныи
зарождение
зарубежных
зархи
заря
заслуженныи
застава
затем
захар
захаров
захарова
захарович
захарченко
зачем
защита
защиту
защиты
заяц
звание
званипе
звания
звезд
звезда
звезды
звенигород
звено
звук
звука
звуки
здание
здании
здания
здесь
здоровье
здоровью
здоровья
здравствуи
зевс
зееберг
зеланди
зеленая
зеленыи
зелинского
земель
земле
земли
землю
земля
земляки
земноводные
земского
земство
зеркало
зерна
зефиров
зефтиген
зима
зимин
зимняя
зинаида
зиновии
зиссах
зла
знает
знак
знаки
знамени
знаменитые
знамя
знание
знании
знания
знатоки
знать
знач
значение
значения
значит
знаю
зов
золотая
золотица
золотница
золотницкии
золото
золотов
золотова
золотое
золотои
золотурн
золотухин
золотые
золушка
зон
зона
зоол
зоологи
зоопарк
зорге
зоя
зрения
зубков
зубов
зубченко
зуево
и
иа
иала
иан
иах
иахе
иахен
ибн
ибрагим
ив
ива
иван
ивана
ивано
иванов
иванова
иванович
ивановича
ивановка
ивановна
иваново
ивлев
ивр
иврит
иглаикино
иглин
игль
игнат
игнатии
игнатьев
игнатьева
игнатьевич
игол
игоревич
игорь
игоря
игра
играть
игры
игыи
ид
идеал
идеалла
идеи
идел
идеологи
идет
идея
идиш
идти
идут
ие
иелтен
иемен
иен
иер
иеркелен
иеркелене
иерусалим
иет
иех
ижевск
ижма
из
изабелла
избранное
избранные
изв
известия
известно
известныи
известных
изд
издавать
издание
издании
издания
издатель
издательскии
издательства
издательстви
издательствин
издательствинче
издательство
изделия
измаилов
изменение
изменении
изменения
изменить
изменять
изображение
изображении
изображения
изобразительное
изомер
изоркин
изотоп
израил
израиль
изучение
изучении
изучению
изучения
изученность
ии
иии
ииисем
ииисен
ииисене
ииисенче
иисус
ик
ике
икк
иккемеш
иккен
иккенне
икона
икс
ил
иле
илеимен
илек
илекен
илем
илемл
илемле
илемлетн
илепер
илер
илес
илесси
илесш
илет
илеҫҫе
или
илл
илларионов
илларионович
илле
иллиноис
иллюстрированная
иллюстрированныи
илме
илмелле
илмелли
илмен
илмес
илн
илне
илни
илнипе
илнисем
илпек
илсе
илсем
илсен
илт
илте
илтерет
илу
илч
илыч
иль
ильдеряково
ильи
ильин
ильина
ильинична
ильич
ильича
ильминскии
илья
илюткино
илюхин
им
име
имеет
имеется
имели
имен
имена
именем
имени
именкасси
именно
именуется
иметь
имеющии
ими
имп
император
императора
императоре
императорского
императорскои
императрица
импери
империи
империие
империиен
империн
империне
империнче
империя
импрессионизм
импульс
имя
ин
инв
ингрид
ингуш
инд
индеи
индекс
индексы
инди
индии
индин
индире
индири
индоевропа
индокитаи
индонези
индрик
индустри
ине
инелле
инженер
инженери
инке
инкек
инкубатор
инн
инна
иннокентии
иностраннои
иностранных
инспектор
институт
института
институтне
институтра
институч
инструктор
инструмент
инструменч
интеграл
интегралл
интелвак
интеллект
интеллигенции
интервью
интерес
интерлакен
интернат
интернационал
интернет
интернета
интернете
интернетра
интернетри
интерпретации
интерфакс
интерфеис
интерфеиса
информатика
информаци
информацие
информации
информацине
информационно
информационное
информационные
информационныи
информаципе
информацию
информация
инфра
инче
инчен
инчи
иня
ио
иоаким
иоанн
иоанна
иога
иоганн
иод
иозеф
иоль
ион
иона
иордан
иорк
иоркра
иоркри
иосиф
иосифа
иосифович
иосифовна
иошкар
ип
ипа
ипе
ипполит
ир
ира
ираида
ирак
ирака
иракалл
иран
ирана
иранра
иргиз
ире
ирек
ирекле
ирен
ирех
ири
ирина
ирис
иркут
иркутск
иркутска
иркутскои
ирланд
ирланди
ирод
ирт
ирте
иртекен
иртере
иртерн
иртет
иртеш
иртмест
иртн
иртне
иртни
иртнине
иртр
иртсе
иртсен
ирттер
ирттере
ирттерекен
ирттерет
ирттерме
ирттерн
ирттерне
иртыш
ирхи
ирхине
ирышран
ис
исаак
исады
исаев
исакл
исе
исем
исемпе
исен
исене
исенчен
исеть
иск
искать
искра
искусств
искусства
искусствана
искусстве
искусство
ислам
ислама
исланди
исмуков
исп
испан
испани
испании
испанин
испанире
испанири
исповедь
использование
использования
использовать
использоваться
используется
используются
испр
исправленное
испытывать
исса
иссл
исслед
исследование
исследовании
исследования
исследователи
исследователь
исследовательскии
ист
истина
истины
исток
истоки
истоков
истори
историе
истории
историк
историко
историксем
историлл
историлле
историн
историне
историнче
историографии
историография
историпе
историре
историри
историческая
исторические
историческии
исторических
исторического
историческое
историческои
историческом
историю
история
источник
источниках
источники
источников
истр
истра
истребитель
исхаков
исчезнувших
исчисление
исчисления
ит
итал
итали
италие
италин
италире
италири
италия
итальян
ите
ител
итере
итерет
итерме
итерн
итес
итет
ити
итиччен
итле
итлеме
итм
итме
итмен
итменл
итн
итнине
итоги
итр
итсе
итсен
иу
иудаизм
иудеи
иудея
иун
их
ич
ичч
иччен
иш
ишек
ишим
ишимпаи
ишл
ишлеи
ишсе
иыв
иывар
иываҫ
иыт
иытти
иыхрав
иыш
иыша
иышанакан
иышанать
иышанна
иыше
иышен
иышл
иышне
иышра
иышри
иышсен
иышши
иышшисем
иышшисен
июль
июля
июнь
июня
июпак
ия
к
ка
кабарда
кабелл
кабель
каберне
кабинет
кабинеч
кав
кавал
кавалер
кавалери
кавалеры
кавар
кавказ
кавказа
кавказе
кавказра
кавказри
каган
кадастра
кадр
кадров
кадры
каждого
каждои
каждыи
каз
казак
казаки
казаков
казан
казани
казанка
казанов
казанова
казанская
казанскии
казанского
казанскои
казанском
казань
казах
казахсем
казахстан
казахстана
казахстанра
казахстанри
казым
каи
каиак
каиаксен
каииччен
каима
каималла
каиман
каимасть
каими
каин
каина
каини
каинине
каинипе
каир
каиран
каиранхи
каире
каири
каиса
каисан
как
какаи
какая
какие
каким
какое
какои
кал
кала
калабри
калав
калавсем
калавсен
калакан
калаканниш
калама
каламалла
каламалли
калан
калана
калани
каланине
каланинчен
каланипе
калар
каларакан
каларама
каларна
каларса
калас
каласа
каласан
калать
калашников
календар
календарь
кали
калигула
калинин
калининград
калиновка
калифорни
каллех
калм
калпак
калта
калтаси
калуга
кальвадос
кальк
кальци
кам
кама
камбоджа
каменка
каменныи
камень
камео
камера
камикадзе
камиловна
камит
камич
кампа
кампани
камское
камчатк
камчатка
камышла
кан
кана
канад
канада
канал
канала
канаш
канашен
канашл
канашлу
канашне
канашри
канд
кандидат
кандидата
кандидач
каникулы
канин
канл
канма
канмалли
канн
канон
канс
кант
кантар
кантон
кантона
кантонне
кантонсем
кану
канцлер
канюков
канюкова
кап
капаш
капашл
капитал
капитализм
капитализма
капитан
капитана
капица
капк
капкан
капла
каплам
каплан
капланч
капсен
кар
кара
караван
караи
карамзин
каран
карап
карапа
карапаш
карапне
карапсем
карапсен
карапсене
карас
караульная
карач
карачаево
карачаи
кардинал
карел
карели
карелия
карен
каренина
кариб
карл
карла
карлач
карлик
карло
кармал
карман
кармана
карманне
кармаскал
кармаскали
кармен
карнавал
каролина
карп
карпат
карпов
карпова
карпович
карт
карта
карте
карти
картин
картина
картине
картинки
картины
картиш
картла
картография
картофель
карточка
карточки
картт
картти
карты
карфаген
карч
карьерине
карягин
карягина
кас
касак
касакан
касаксем
касимов
касма
касн
каспи
касса
касси
кастили
кат
каталог
каталога
каталоге
каталогов
катар
катартна
катастрофа
категори
категории
категоринче
категория
катек
катер
катерина
катехизис
кати
католик
католиксем
католици
катунь
кать
катя
кафе
кафедр
кафедра
кафедри
кафедрин
кафедрине
кафедринче
кафедры
ках
каховскии
кач
качаел
качака
качеево
качестве
качч
качча
каччи
каш
каша
кашгари
кашира
кашк
кашни
кашнин
кашт
каюра
кая
каякан
каялла
каярах
каярахпа
каяс
каят
каять
каяш
кб
кв
квант
квантла
квантовая
квантовои
квартал
квартира
квас
квинт
квт
кг
кгб
ке
кеиу
кел
келл
келли
кельн
кельт
кем
кембридж
кемел
кемерово
кемеровскои
кен
кене
кенеке
кенеки
кени
кент
кеосаян
кепе
кер
керамика
керекен
керенскии
керет
кереҫҫе
кермен
кермене
керменне
керменчук
керн
керсе
кертне
керч
керчь
кеске
кет
кетрен
кеть
кеҫен
кзыл
ки
кибернетика
кив
киве
кивелн
кивьял
киги
киев
киеври
киклепуҫ
кил
киле
килекен
килет
килиыш
килме
килмен
килмест
килн
килне
килни
килограмм
километр
километрта
килсе
килсен
килт
килте
килтер
килти
килч
киль
ким
кимми
киммисем
киммисен
кин
кинг
кинель
кинематограф
кинематографи
кино
киноактер
киноальманах
кинопа
кинора
кинорежиссер
киностуди
киностудии
киностудире
киностудия
кинотеатр
кинотеатре
кинофестивал
кинофильм
кинциг
кипек
кипеч
кипр
кир
кира
киргизи
киревс
кирек
киремет
киреметь
кирибати
кирилл
кирилла
кириллиц
кириллица
кириллов
кириллова
кириллович
кирл
кирле
киров
кирп
кирпичнаи
кирпичное
кисан
киселев
киселева
кислород
кит
китае
китаи
китаипа
китаира
китаиран
китаири
китаисем
китаискии
китая
китл
кихот
киш
кишинев
киів
кк
кки
ккинче
ккисем
кл
кла
клавдии
клавдия
кладбище
клан
кланма
кланн
клара
кларк
клас
класа
класл
класра
класс
класса
классем
классенче
классик
классика
классики
классификаци
классификации
классификация
классицизм
классическая
классических
классическои
классов
классовых
клаус
клах
кле
клевл
клеин
клементьев
клен
кленет
кленн
клеопатра
клесе
клет
клетка
клиент
клим
климат
климач
климент
климов
клин
клиника
клип
клод
клоун
клуб
клуба
ключ
ключевых
ключи
клязьма
км
кмк
кн
кне
книг
книга
книгах
книге
книги
книгу
книжка
книжки
книжное
книжныи
кнопку
кнунянц
князев
князь
князя
ко
кобальт
кобра
ковалев
ковальчук
ковров
когда
кого
код
кода
кодекс
коды
кое
кожа
козлов
козлова
козловскии
коипер
кокель
кол
кола
колва
колесников
колесо
количество
коллегии
колледж
коллектив
коллекции
коллекция
колмогоров
коломна
колони
колонии
колонна
колос
колумб
колумби
колхоз
колхоза
колхозник
колхозра
колчак
колчурино
кольца
кольцо
кольцов
коля
ком
команд
команда
команди
командир
командира
командирне
команду
командующии
комаров
комбинат
комбинач
комеди
комедия
комендант
комет
комета
коми
комиссар
комиссаров
комисси
комиссии
комиссин
комиссия
комитет
комитета
комитетне
комитеч
комм
коммент
комментарии
комментарисем
коммерсантъ
коммерци
коммун
коммуна
коммунар
коммуни
коммунизм
коммунист
коммунистическои
коммунистсен
коммунисч
коммуны
компани
компание
компании
компанин
компанине
компанисем
компания
компас
комплекс
комплексл
композитор
композитора
композиторсем
композици
композиции
компонент
компонента
компонентов
компоненты
компоненч
компьютер
компьютера
комсомол
комсомолец
комсомольская
комсомольски
комсорг
кому
кон
конан
конвенция
конвои
конго
конгрес
конгресс
конда
кондитер
кондома
кондратьев
кондратьева
кондратьевич
конев
конец
конечно
конкурс
конкурса
коновалов
конольфинген
кононов
конрад
конспект
констант
константи
константин
константина
константинов
константинович
константиновна
константт
конституци
конституции
конституцин
конституцине
конституционное
конституционному
конституция
конструктор
конструкци
конструкции
консул
консулсем
консультант
контакты
контексте
контент
контента
континент
континентл
континенч
контр
контроль
конус
конф
конференци
конференции
конференцинче
конференция
конфесси
конфессиональная
конца
конце
концепции
концепция
концерн
концерт
концерч
кончаловскии
конь
коньяк
кооператив
координат
координатсем
координатсен
координач
копенгаген
копи
копия
кор
корабли
корабль
коралл
кореи
корень
корея
коридор
корн
корнеевич
корнеи
корнелии
корни
корнилов
корол
короле
королев
королева
королевство
королл
король
короля
коротаева
короткометражныи
корпус
корпусне
корреспондент
корреспонденч
корсаков
корсика
коса
космонавт
космонавтика
космонавч
космос
космоса
космосл
косово
коста
костер
кострома
костюм
костюма
костюмер
костя
косьва
косью
кот
котлеев
которая
которого
которое
которои
котором
которую
которые
которыи
которым
которых
кофе
коч
кошка
кошки
кошкин
кошкинскии
коэффициенч
кп
кпа
кпе
кпсс
кр
кра
кравченко
крае
краеведени
краеведческии
краи
кран
красавица
красиво
красивыи
красная
красноармеец
красноармеиски
краснов
краснова
красного
краснодар
красное
краснои
красномаиски
красномаискии
красноярск
красные
красныи
красота
красоты
кратер
краткая
краткии
крах
крачковская
краю
края
кре
кредит
креисер
кремл
кремль
крен
крепости
крепость
крестьян
крестьяне
крестьянин
крестьянская
крех
крешш
кри
кривои
кризис
кризиса
крик
криминал
кристалл
кристиан
кристина
кристофер
крит
критик
критика
критическии
крови
кровь
крокодил
кролик
кроме
кронштадт
круг
круглыи
кругосвет
кружок
крузо
крупныи
крупных
крутои
крылов
крылья
крым
крыма
крымра
крю
крюков
крючков
кс
ксем
ксемпе
ксен
ксене
ксения
ксенофонтов
ксенче
ксенчен
кто
ку
куб
куба
кубань
кубен
кубена
кубла
кубок
куда
куданова
кудрявцев
кузнецов
кузнецова
кузьма
кузьмин
кузьмина
кузьмич
куибышев
кук
кука
кукам
кукамаи
кукарча
кукк
кукка
куккук
кукшату
кул
куланаи
куле
куликов
кулле
куллен
кулленхи
кулли
куллинчен
кулмек
кулмекне
куль
культ
культовая
культур
культура
культурапа
культуре
культури
культурин
культурине
культурипе
культурная
культурно
культурного
культурное
культурные
культурныи
культурология
культуру
культуры
кум
кума
кун
куна
кунах
кунашкал
кунл
кунне
кунпа
кунран
кунс
кунсем
кунсенче
кунсерен
кунт
кунта
кунтан
кунтах
кунти
кунччен
кунчченех
куп
купала
купаласа
купер
купрат
куприенко
купрієнко
купса
кур
кура
курав
куравлев
кураев
курак
куракан
куракансем
куракансене
куракла
куракьел
курас
курасси
куратп
курать
кураҫҫе
курган
курет
кури
курил
курма
курмалли
курман
курн
курна
курнав
курни
курнине
курорт
курорч
курс
курса
курсан
курск
курсне
курт
курчатов
курш
куршанак
курши
курьер
куславка
куславкка
куснар
куст
кустантин
кут
кутузов
кутулук
кухня
куча
кучер
куш
кушак
кушаке
кушар
кушк
кушки
кушлав
кушнаренко
куюрка
куҫарна
кхи
кхр
кш
кызыл
кэтрин
кюри
л
ла
лаба
лабиринт
лаборатори
лаборатории
лаборатория
лав
лавка
лавкасем
лавкка
лавкки
лавр
лаврентии
лаврентьевич
лавров
лагер
лагере
лагерь
ладога
ладомир
лазарев
лазарь
лазер
лаи
лаиах
лаин
лак
лакан
лакасси
лам
лама
ламалли
лампа
лан
лана
ланакан
ланать
лангедок
ланд
ландау
лани
ланине
ланк
ланка
ланн
ланса
лансан
ланч
лаос
лап
лапа
лапам
лапк
лапка
лапсар
лапт
лаптак
лаптаке
лапу
лапч
лар
лара
ларав
ларакан
ларас
ларасси
ларать
лари
ларионов
лариса
ларма
лармалли
ларман
ларн
ларна
ларни
ларри
ларса
ларсан
ларт
ларта
лартакан
лартать
лартма
лартмалла
лартмалли
лартн
лартна
лартни
лартса
лару
ларч
лас
ласа
ласан
ласково
лат
латви
латин
латиниц
латиница
латинла
латинскии
латн
латтин
латук
латынь
латыш
лать
лаура
лауреат
лауреач
лауреаче
лах
лач
лачака
лаш
лаша
лашасем
лаши
ле
лебедев
лебедева
лебедь
лев
левашов
левиафан
левин
левина
левитан
левл
левне
легенда
легенды
легион
легко
лед
леди
леи
леибниц
леипциг
леитенант
леитенанта
леитенанч
лек
лекарственные
леке
лекен
лекенсем
лекенсен
лекет
лекн
лексен
лексик
лексика
лексики
лексикон
лекции
лекция
лем
леме
лемелли
лемен
лемест
лемур
лен
лена
лене
ленет
лени
лениздат
ленин
ленина
ленингр
ленинград
ленинграда
ленинградра
ленинградри
ленинградская
ленинградского
ленинградскои
ленине
лениногорск
ленме
ленн
ленсен
ленскии
лента
лентул
ленты
лену
ленфильм
ленче
лень
лео
леон
леонард
леонардо
леонид
леонидович
леонидовна
леонов
леонович
леонтии
леонтьев
леонтьевич
лепид
лепс
лер
лере
лерет
лерех
лерме
лермонтов
лерн
лерни
лес
леса
лесе
лесен
лесная
леснои
лесов
лесси
лесу
лет
лета
летать
летие
летию
летке
летки
леткин
леткине
летнии
летняя
лето
летом
летопись
летчик
лех
лечение
леш
лешсем
лешьен
ли
либо
либретто
ливан
ливи
ливии
лига
лиги
лидер
лидия
лиза
лии
лик
лилия
лиман
лимон
лин
лина
лингв
лингве
лингвистик
лингвистика
лингвистическии
лине
лини
линии
линилл
линилле
линия
линкольн
лион
липе
липецк
лира
лирик
лирика
лисем
лисене
лисина
лист
листе
листы
листья
лисч
лит
литва
литератур
литература
литературе
литератури
литературин
литературине
литературинче
литературная
литературного
литературное
литературнои
литературные
литературныи
литературовед
литературоведческих
литературы
литр
лифшиц
лихачев
лихтенштеин
лиц
лица
лицеи
лицо
лицом
личности
личность
личные
лишь
лия
лк
лка
лкан
лке
лки
лку
лл
лла
ллакан
ллан
ллать
лле
ллев
ллевл
ллевпе
ллевч
ллекен
ллен
ллехи
лли
ллисем
лм
лма
лмак
лман
лмач
лме
лмел
лмен
лмест
лми
лн
лне
лнелле
лни
лнине
лнипе
ло
лобачевскии
логарифм
логик
логика
логинов
логос
логотип
лодка
лодки
ложь
локомотив
ломбарди
ломоносов
лонг
лондон
лондона
лондонра
лондонри
лопатин
лор
лорд
лос
лосев
лоуренс
лох
лошадеи
лошади
лошадь
лп
лпа
лпе
лпу
лпулу
лс
лса
лсан
лсе
лсем
лсен
лсене
лт
лта
лтав
лтавпа
лтавсене
лтан
лтат
лте
лтен
лтер
лтере
лтерекен
лтерет
лтерме
лтерн
лтерни
лтернипе
лтеру
лти
лу
луара
луга
лугано
луганск
луза
луи
луиза
луис
лук
лука
лукашенко
луки
лукин
лукич
луков
лукьянов
лукьянович
лул
лун
луна
луначарскии
луне
луны
лутра
луции
луч
лучше
лучшие
лучшии
лх
лха
лхав
лхава
лхавне
лханн
лхар
лхара
лхари
лхарсем
лхарсемпе
лхарсен
лхарсене
лхе
лхелл
лхем
лхен
лхене
лхепе
лхере
лхерен
лхери
лхесем
лхесемпе
лхесен
лхесене
лхесенче
лхесенчен
лхи
лхилл
лхин
лхине
лхинче
лхинчен
лхинчи
лхипе
лхисем
лхисемпе
лхисен
лхисене
лхисенче
лхисенчен
лч
лча
лчан
лчанла
лчансем
лчансемпе
лчансен
лчечек
лысенков
ль
льва
львов
львович
львів
льевич
льман
льмансем
льюис
лю
люба
любви
любимая
любимов
любимыи
любит
любителеи
любить
любичев
любкер
люблю
любов
любовь
любовью
любои
люда
людвиг
людеи
люди
людина
людини
людмила
людовик
людям
люк
люксембург
люся
лютерансем
люцерн
ля
лямин
м
ма
маас
мавзолеи
магадан
магазин
магистр
магистрал
магистраль
магнетизм
магни
магнит
магнитла
магницкии
мадагаскар
мадам
мадрид
мадуров
мажор
маи
маикл
маикоп
маил
маила
маилаш
маилаштарн
маин
маина
маиор
маипа
маира
маисем
маисемпе
маия
мак
мака
макар
макаров
макарова
макарович
макед
македон
македони
македонскии
макиавелли
макимов
макс
максвелл
максим
максима
максимилиан
максимов
максимова
максимович
мал
мала
малаи
малаизи
малалал
малалла
малалли
маларах
малашл
малашне
малашнехи
малая
маленькая
маленькии
мали
малка
малла
малли
мало
малов
малое
малонисогорская
малс
малта
малтан
малтанах
малтанхи
малти
малые
малыи
малышев
мальбек
мальта
мальцев
мальчик
мам
мама
мамаи
мамак
мами
мамыково
ман
мана
мани
манифест
манн
манса
манси
мансуров
манш
маныч
маньчжур
мао
мар
мара
марат
марафон
маргарет
маргарита
мари
марии
мариискии
мариискои
марина
марино
марио
марисем
мария
марк
марка
марки
маркиз
маркин
маркки
марко
марков
маркова
маркович
марковои
маркс
марксизм
марл
марна
марокко
марс
марсель
март
марта
мартан
мартин
мартина
мартинсон
мартисем
мартынов
мартынова
мартынович
марфа
марцелл
марш
маршал
маршала
маршалл
маршрут
маршрута
маршруч
марьино
марья
мас
масар
маска
маслов
масс
масса
масси
массив
мастер
мастера
мастерская
масть
масштаб
мат
матак
матаки
матвеев
матвеева
матвеевич
матвеи
матем
математик
математика
математике
математики
математическая
математические
математическии
математических
математического
математическое
математическои
матери
материал
материала
материалам
материале
материалл
материалов
материалсем
материалсене
материалы
материальная
материк
материя
матриц
матрица
матрос
матросов
маттур
матч
мать
мах
маха
махачкала
махл
махмуд
махне
махно
махпа
махра
махран
махсар
махсарсем
махсарта
махсартан
махсарти
махсем
махсемпе
махсен
махсене
махсенче
махсенчен
маша
машин
машина
машини
машиностроение
машины
машшын
мая
маяк
маяковскии
мвд
мвт
мг
мгу
ме
мег
мегафон
мед
медал
медале
медали
медаль
медальне
медальпе
медальсем
медальсене
медведев
медведева
медведица
медведь
медвежья
медиа
медиафаил
медицин
медицина
медицини
медицинская
медичи
медленно
медлительныи
медсестра
медянка
межвузовскии
межд
между
междунар
международная
международного
международное
международнои
международные
международныи
межэтнические
мезень
мексик
мексика
мел
мелекес
мелеу
мелкии
мелл
мелле
мелли
мелодия
мелодрама
мелпе
мельников
мельхиор
мемориал
мемуары
мен
менделеев
мендельсон
мене
менеджер
менеджера
менеджмент
менее
менича
менле
менча
менчи
меншен
меньше
меньшиков
меньшинств
меню
меня
мер
мере
меречен
меридиан
мерло
мертвые
мерчен
меры
мес
меслет
меслете
меслетпе
меслетсем
меслетсемпе
меслеч
мест
места
месте
местного
место
месть
месяц
мет
метал
металл
металлов
металлурги
метафизика
метеорологи
метод
методика
методики
методические
методология
методы
метр
метра
метрик
метрика
метро
метрополитен
метртан
мефодии
мефодия
мефодьев
механиз
механизм
механик
механика
механики
мехико
меч
меча
мечет
мечта
меш
меше
мешенче
мешенчен
мешок
ми
миасс
миг
микеланджело
микола
микрораион
микротопонимсем
микулаи
микули
мил
милан
милици
милиции
милиционер
миллер
милли
миллиард
миллион
миллиона
милыи
миль
мильон
мин
мина
мине
минерал
мини
минист
министерства
министерстви
министерствин
министерство
министр
министров
министрсен
минович
миномет
минор
минск
минус
минусл
минут
мир
мира
мираж
мире
мирза
мирл
мирныи
мировая
мирового
мировои
мирон
миронов
миронова
миронович
мисима
мисс
миссионер
миссис
миссисипи
миссия
миссури
мистер
митрополит
митрофан
митрофанович
митта
миттов
митя
миф
мифологии
мифологическии
мифология
мифы
мих
миха
михаи
михаил
михаила
михаило
михаилов
михаилова
михаилович
михаиловка
михаиловна
михаиловскии
михалков
михеев
михеевич
мич
мичиган
мичман
мичурин
миша
мишель
мишер
мишки
мишши
мишшин
мияки
мк
мкасси
мл
мла
младшии
млан
млекопитающие
млет
млетн
млн
млрд
мм
мми
ммин
мн
мне
многие
многих
много
множеств
множество
мнои
мо
мови
мог
могила
могилев
могу
могут
мода
модел
модели
модель
модерн
модул
модулеи
модули
модуль
модуля
моды
мое
моего
моеи
может
можете
можно
мозель
мои
моисеев
моисеевич
моисеи
мокшино
мол
молдави
молдова
молекул
молекула
молибден
молога
молодая
молодежи
молодежная
молодежь
молодои
молодость
молодые
молодых
молоко
молома
моль
мольер
момент
мон
монако
монарх
монархи
монастырь
монастыря
монах
монг
монгол
монголи
монголо
монголсем
монголсен
монет
монеты
монографи
монографическое
монография
мономах
монтаж
монтажер
монте
монтень
мор
мораль
моргаушскии
мордва
мордвасем
мордвы
мордовскии
мордухаи
море
морис
мороз
морозов
морозова
морские
морского
морскои
морфем
морфема
морфологи
морфологии
морфология
моря
моряк
моск
москва
москве
москву
москвы
московская
московские
московскии
московского
московскои
мост
мосфильм
мосфильма
мотив
мотоперев
мотор
моторлан
мотострелок
мотострелоксен
мотоцикл
моцарт
мошков
моя
мп
мпа
мпе
мпех
мпи
мпу
мр
мра
мрамор
мран
мрах
мре
мрен
мри
мс
мса
мсалл
мсан
мсах
мсем
мсемпе
мсен
мсене
мсенче
мсенчен
мси
мстислав
мтс
му
муж
мужчина
мужчины
муз
муза
музее
музеи
музеие
музеине
музея
музык
музыка
музыкальная
музыкальныи
музыкант
музыканты
музыке
музыки
мул
мулкач
мультипликаци
мультфильм
муниципалитет
муниципалитета
муниципалл
муниципального
муниципальных
мунча
мур
муравьев
муратов
муркаш
мурман
мурманск
мус
муса
мускав
мускава
мускавпа
мускавра
мускавран
мускаври
мускат
мусульман
мутная
мухаммед
мухин
мухтав
мухтавл
мучар
мучи
мфти
мха
мцнмо
мш
мшеш
мы
мысли
мысль
мышкина
мышления
мьянма
мэн
мэр
мэри
мэрии
мюзикл
мюллер
мюнхен
мягкии
н
на
набережная
набор
нав
навсегда
навч
награда
наградами
награднои
наградном
наградные
награды
награжден
награждении
награжденных
над
надежда
надежды
надо
надым
надя
нажмите
назад
назаров
назарова
назарович
название
названием
названии
названия
называется
называют
назым
наи
наиболее
наидено
наиман
наити
накан
накансем
накансен
накансене
накануне
налук
нальчик
нам
нама
нами
нан
нана
нанг
наполеон
наполеона
напр
например
нар
нара
нарас
нарва
нарк
нарл
нарлан
нарлать
нарне
народ
народа
народная
народного
народное
народнои
народности
народные
народныи
народных
народов
народу
народы
нарсем
нарсене
нарспи
нас
наса
насекомых
население
населения
населенные
населенных
насем
наследие
наследия
наст
настоящее
настоящем
настроение
настроики
настя
нат
натали
наталия
наталья
наташа
натри
натуралл
нать
наук
наука
наукам
науке
науки
наукисен
наукова
наум
наумов
наумова
науч
научн
научная
научно
научного
научное
научнои
научные
научныи
научных
наушои
нах
находится
нац
наци
нации
нацил
нацилле
нацин
национальная
национально
национального
национальнои
национальностеи
национальности
национальность
национальные
национальныи
национальных
нацисен
начал
начала
начале
начали
начало
начальник
начальствующему
начар
начинается
наш
наша
наше
нашего
нашеи
наши
наших
нг
нгарка
ндр
не
неаполь
неба
небе
небеса
небо
небольшои
нева
неверныи
невеста
невскии
невшатель
него
негус
недели
неделя
недоступная
недра
нее
нежныи
независимая
неи
неива
неизвестныи
неитралл
неитрон
неитронл
неке
некен
некене
некепе
некере
некесем
некесен
некесене
некесенче
неки
некин
некине
некинче
некисем
некисене
неккар
некоторые
некоторых
некрасов
некролог
нелле
нелли
нельзя
нельсон
нем
неман
немецкии
немецкого
немного
немцев
немцы
нен
ненец
ненз
необходимо
неодим
неожиданно
неолит
неон
неопр
непал
неповоротливыи
нептун
нер
нерв
нерль
нерон
нерпу
нерута
нес
нескольких
несколько
несмотря
нестер
нестеров
нестор
нет
нетер
нетн
нетсе
неуклюжии
нефертити
нефтеюганск
нефти
нефть
нефтьпе
нех
ни
нибудь
нигер
нидда
нидерл
нидерланд
нидерландсем
нидерландсен
ние
ниепле
ниже
нижегородскои
нижнее
нижние
нижнии
нижняя
низовых
нии
ник
ника
никак
никам
никама
никанорович
никеслевҫи
никеслене
никита
никитин
никитина
никитич
никитович
никифор
никифоров
никифорова
никифорович
никогда
никола
николаев
николаева
николаевич
николаевка
николаевна
николаенко
николаи
николая
никольскии
николюкина
никонов
никонович
никонорович
никто
никулин
нил
нильс
ним
ниме
нимеҫ
ними
нимле
нин
нина
нине
нинчен
нипе
нисем
нисене
них
ница
ницше
ничего
нк
нквд
нкрав
нкун
нл
нла
нлав
нлава
нлавпа
нлавсем
нлавсене
нлавсенчен
нлан
нланма
нланмалла
нланса
нлантарма
нлантарн
нлантарни
нлантарса
нласа
нле
нм
нма
нмал
нмалла
нмалли
нман
нманл
нманни
нмар
нмас
нмасть
нме
нмелле
нми
нн
нна
нне
нни
ннин
ннине
ннипе
ннипех
ннисем
ннисене
но
нобель
нов
нова
новая
новгород
новеишая
новелл
новелла
новиков
новикова
новицкого
нович
нового
новое
новои
новом
новосибирск
новостеи
новости
новочебоксарск
новую
новые
новыи
новых
ногами
ноги
ногинск
нои
ноль
ном
номенклатура
номер
номерл
номером
номинацире
нон
нор
норв
норвег
норвеги
норм
норма
норман
норманди
нормативно
нос
носить
ночи
ночнои
ночь
ночью
нояб
ноябрь
ноября
нп
нпа
нпе
нпо
нпур
нра
нран
нрах
нрех
нри
нс
нса
нсан
нсе
нсем
нсемпе
нсен
нсене
нсенче
нт
нта
нтал
нтан
нтанпа
нтар
нтара
нтаракан
нтарать
нтарма
нтарн
нтарни
нтарса
нтах
нтв
нтер
нтере
нтерет
нтерм
нтерме
нтерн
нтерсе
нтеру
нти
нтц
ну
нуар
нугуш
нужна
нужно
нук
нукерч
нуклид
нуклич
нуклонсар
нуклонсарла
нул
нулл
нуль
нум
нумаи
нумаик
нумаил
нумаирах
нумаихысакл
нумаях
нур
нура
нуриман
нурл
нурлат
нус
нусем
нусен
нусене
нухаи
нухрат
нхи
нхир
нч
нче
нчен
нчене
нченпе
нчере
нчерен
нчери
нчех
нчи
нчин
нчине
нчинче
нчипе
нчипех
нчисем
нш
нъял
ныда
ныне
нь
нью
ньютон
ньял
о
оао
об
обзор
обком
обл
обла
облака
области
областнои
область
ободзинскии
обозрение
оборона
обороны
обработки
образ
образование
образовании
образования
образовательныи
образом
обратите
обратно
обращение
обращения
обряд
обряды
обсерватории
обучения
общ
общая
общего
общедоступныи
общее
общеи
общения
обществ
общества
обществе
общественная
общественно
общественного
общественное
общественные
общественныи
общественным
общественных
общество
общие
общии
общин
община
общини
общины
объединение
объект
объекта
объектов
объектсем
объектсен
объектсене
объекч
обыкновенная
обыкновенныи
обычаи
обычно
обь
обьсалехард
овидии
овраг
овчинников
огаио
огиз
оглы
огне
огня
огонек
огонь
огуз
огюст
одеваться
одежда
одежды
одесс
одесса
один
одна
однажды
однако
одним
одно
одного
однои
одном
одну
одри
ожегов
оз
озера
озерная
озеро
ои
оиконимсемпе
оияи
ок
ока
окато
океан
океана
океане
океанри
оккупацилен
окна
окно
около
округ
округа
округне
округов
оксана
оксич
оксфорд
окт
октавиан
октмо
октябрь
октябрьски
октябрьскии
октября
ол
ола
олег
олега
оливье
олимп
олимпиад
олимпиада
олма
ольга
оля
ом
оман
омега
омон
омск
омь
он
она
онега
онегин
они
оникс
онлаин
оно
онтарио
оон
ооо
оп
опер
опера
оперативл
оператор
операторсем
операци
операции
операцине
операцинче
операцисем
операцисене
операция
опери
оперы
опечаткои
описание
описания
опись
определение
определения
определено
определитель
оптик
оптика
опубликован
опубликования
опубликовано
опыт
опыта
опять
ор
орбит
орбита
орган
организ
организаци
организации
организацин
организацисем
организация
организм
организма
организмсен
органик
органика
органов
орда
орден
ордена
ордене
орденне
орденом
орды
орел
оренбург
оренбургскои
орест
орехово
оригинал
оринов
оркестр
оркестром
орлеан
орлов
орлова
орловка
оруди
орудин
оружие
оружия
орфографи
орфографии
орхидеи
освобождение
осень
осенью
осети
осетин
осиновка
осип
осипов
осипович
оскар
осман
основа
основание
основании
основания
основе
основнои
основном
основные
основных
основы
особенно
особенности
особо
остается
остальные
остаться
остин
остров
острова
островскии
от
отв
ответ
ответственныи
отд
отдел
отдела
отделени
отделение
отделенин
отделения
отдельно
отдельные
отдельных
отдыха
отец
отечества
отечественная
отечественного
отечественнои
отечественные
открытие
открытии
открытия
открытое
открыть
откуда
отличие
отличник
относительности
отношение
отношении
отношения
отношениях
отображает
отображать
отображения
отпишитесь
отпуск
отра
отражение
отряд
отряда
отряч
отс
отставк
отто
отца
отчества
отчество
отчет
офис
офицер
офицерскому
официалл
официалла
официальная
официального
официальном
официальныи
официальных
офорт
оффис
оффициалл
охота
охотников
охоты
оценка
очаги
очень
очерк
очерки
очерксем
ошибка
ошибки
ошибкои
ою
п
па
паблишер
пав
павел
павл
павла
павлов
павлова
павлович
павловка
павловна
павлово
павлодар
падеж
падение
паз
паи
паивыр
паие
паиен
паиенче
паил
паила
паилама
паилан
паилана
паиланать
паилани
паиланн
паиланса
паиласа
паилать
паимен
паине
паип
паир
паиран
паисем
паитах
паиташ
паиташе
паиташесем
паитукан
пак
пакет
пакистан
пакша
пал
пала
палак
палан
паланла
паларнашан
палартн
палартна
палартнисене
палата
палестин
палестина
палл
палла
паллах
паллашать
паллашма
паллашн
палли
паллин
паллине
паллинчен
паллипе
паллисем
паллисемпе
паллисен
паллисене
палтиел
пальма
пальник
пальто
пама
памалла
паман
памасть
памир
памяти
памятник
памятники
памятников
памятные
память
пан
пана
панама
панели
панель
пани
панин
панине
панипе
панорама
пантелеимон
пантелеимонович
пантеон
панулми
панфилов
пап
папа
паппи
папуа
пар
пара
парабель
парагваи
парад
паракан
параллелл
параметр
параметров
параметры
парамонов
параппан
парас
парасла
парасси
парать
парах
параҫҫе
парень
париж
парижа
парижра
парижран
парижри
парис
парисре
парисри
парк
парка
парламент
парламенч
парма
парн
парне
парнелен
парнене
парни
парнин
парнине
парнипе
парнэ
пароль
паром
парса
парсан
парта
парти
партизан
партии
партин
партине
партисем
партия
партма
партн
партнер
парторг
партса
пару
парфенович
пархатарл
пархи
пас
пасар
пасарл
паскаль
пасна
паспорт
паспортра
паспортри
паспорч
пассажир
пастернак
пат
пата
патент
патенче
патирек
патне
патнелле
патра
патриарх
патрик
патриции
патт
паттар
патша
патшал
патшалах
патшалахе
патшалахен
патшан
патшана
патши
патшин
патшине
патшисем
пауль
пах
паха
пахал
пахма
пахса
пахча
пахчи
пач
пачах
паша
паюта
пая
паян
паянкун
паянкуна
паянкунхи
паянхи
пб
пво
пвс
пг
пе
певец
певица
пед
педагог
педагогика
педагогики
педагогического
педро
пеза
пеизаж
пек
пекех
пекин
пекки
пекрех
пел
пелагея
пелепее
пелепеи
пелтерет
пелтерешле
пелтерне
пелу
пеме
пен
пенза
пензенская
пензенскои
пер
первая
первого
первое
первои
первом
первомаиски
первые
первыи
первым
первых
пере
перев
перевод
перевода
переводе
переводчик
переводчика
переводы
перед
передач
передача
передачи
передняя
переидите
переити
перекет
перен
переписи
переписка
перепись
перераб
переулок
переход
перечень
перечне
пери
перинпе
период
периода
периодик
перле
перлехен
пермского
пермскому
пермь
перне
пернет
перни
пернии
пернин
пернине
пернинчи
перремеш
перс
персе
персеи
перси
персик
персонаж
персоналии
перспективы
перссем
пертен
перу
песен
песни
песнь
песню
песня
песок
песчаная
песчанка
пет
петем
петемешле
петер
петербург
петербурга
петербурге
петербургра
петербургри
петербургского
петербургское
петерне
петипа
петр
петра
петренко
петро
петров
петрова
петрович
петровка
петровна
петровская
петровски
петровскии
петроград
петропавловск
петь
петя
пеу
пех
пехил
пехота
печати
печатныи
печек
печор
печора
печь
пи
пианист
пива
пиво
пижма
пик
пикассо
пике
пикенет
пикенн
пикшик
пил
пилек
пилеш
пилл
пилот
пим
пин
пине
пинл
пинн
пинрен
пиньинь
пионер
пир
пирамида
пират
пирваихи
пире
пирен
пиренеи
пирки
пирогов
писател
писателеи
писатели
писатель
писателя
писать
писем
письма
письменности
письменность
письмо
пит
пите
питер
питех
питл
питне
питт
пифагор
пич
пичет
пичетле
пичетлеме
пичетлен
пичетленет
пичетленн
пичетленсе
пичетлесе
пичетлет
пичетрен
пичке
пичкере
пичч
пичче
пишпулек
пк
пл
пла
плагины
пламя
план
плана
планет
планета
планеты
планк
планне
пласа
плата
платина
плато
платон
платона
платонов
платонович
платье
плебеи
племен
племена
плен
пленн
пленсе
плете
плетекен
плетет
плетме
плетн
плетсе
плинии
плотников
плохо
плохои
площади
площадь
плутарх
плюс
пне
пно
по
побег
победа
победу
победы
повар
пове
поведение
поверхности
поверхностных
повести
повесть
поводу
поволжье
поволжья
поворот
погов
погода
погодин
под
подарок
подбассеин
подборка
подвиг
подводные
подгот
подготовка
подкумок
подобно
подольск
подполковник
подр
подражание
подробная
подруга
подход
поезд
поезда
поездка
поел
поет
позволяет
позвоночные
позже
позиции
познания
поиск
поиска
поисках
поиски
пока
показано
показателеи
показывает
поколение
поколения
покровка
покровскии
покрываться
покрытосеменные
пол
пола
поле
полевая
полевои
полет
полета
полигон
полигр
поликарпович
полина
полином
полит
политехника
политиздат
политик
политика
политике
политики
политикин
политикине
политическая
политические
политическии
политических
политическои
политрук
полици
полиции
полк
полка
полковник
полковника
полная
полное
полностью
полныи
поло
половина
половине
половины
положение
положения
полосы
полоцк
полтава
полуи
получил
получить
полхар
поль
пользователеи
пользователь
пользователя
польш
польша
полюс
поля
поляк
поляков
поляксем
поляксен
поляна
поляр
помещик
помощи
помощь
помощью
помпеи
понимание
пономарев
понтекорво
понтон
понуд
понятие
понятии
понятия
понять
поп
попало
попов
попова
популярл
популярная
популярные
популярныи
попытка
пор
породы
порт
портал
портале
порталта
портнов
портр
портрет
портреты
портреч
португал
португали
поручик
порфирии
порфирьевич
порч
порядка
порядке
порядок
пос
посад
посвященнои
посвященныи
поселение
поселении
поселения
поселка
поселкам
поселок
поселоке
поскольку
посл
после
последнее
последние
последнии
последних
последняя
последствия
пособие
поспелов
пост
поставить
постановка
постановление
постановщик
постепенно
постоянно
постоянного
постран
постчен
посуда
посібник
потапов
потенциал
потерять
потом
потому
похви
похвистнево
похлебкин
поход
почему
почт
почта
почти
почтовые
поэзи
поэзии
поэзия
поэм
поэма
поэми
поэмине
поэмы
поэт
поэта
поэтика
поэтому
поэты
поэч
появились
пп
ппи
ппипех
пписем
пписене
пр
пра
прав
права
правда
прави
правил
правила
правилам
правило
правители
правительств
правительства
правительстви
правительствин
правительствине
правительство
правлени
правлении
право
правовые
православи
православие
православная
православнои
православныи
праву
прага
праздник
праздники
практ
практик
практика
практики
практически
практическои
пралл
пралук
прана
праски
прасковья
пре
пред
предания
пределах
предисл
предисловие
предки
предков
предложени
предложение
предложении
предложения
предмет
предприяти
предприятии
предприятисем
предс
председател
председателе
председатель
представление
представления
прежде
президент
президента
президентне
президенч
президенче
президиум
президиума
прекрасная
прел
преми
премии
премин
премине
премия
премьер
премьера
премьери
прен
преподавания
преподаватель
преподобныи
пресмыкающиеся
пресс
пресса
префектура
префектури
префикс
при
приангарья
прибор
приведены
приводится
приводить
приволжскии
приволжского
приз
призрак
приказ
прикладная
прикладнои
приключени
приключения
прил
приложение
приложения
прим
применение
применения
пример
примере
примерно
примеч
примечание
примечания
прине
принц
принцесса
принцип
принципы
принять
припять
природа
природе
природы
присвоении
присвоено
присем
приток
притчи
приуралье
приуралья
приходить
прихут
причины
пришел
про
проблем
проблема
проблеме
проблемы
прованс
проверено
проверка
провести
провинци
провинции
провинцин
провинцине
провинцинче
провинцинчи
провинцисем
проводить
программ
программа
программе
программи
программине
программипе
программы
прогресс
продолжение
продюсер
продюсерсем
проезд
проект
проекта
проекте
проектне
проекту
проекч
проз
проза
прозаик
прозы
произведение
произведении
произведения
производить
производства
производство
произношение
происхождение
происхождении
происхождения
прокопии
прокопьев
прокопьева
прокопьевич
прокофьев
прокофьевич
прокурор
пролетариат
пролив
пром
прометеи
промы
промышленно
промышленности
промышленность
пропаганда
просвещение
просвещения
просмотр
проспект
проспекч
прост
просто
простои
пространства
пространстве
пространство
против
протоиереи
протока
протокол
протон
прототип
проф
професси
профессилл
профессине
профессионал
профессор
профессора
профессоре
профиль
прохор
прохоров
прохорова
прохорович
процент
процес
процесс
процесса
процессе
процессов
процессы
прочитаите
прошкин
прошлого
прошлое
прошлом
прощаи
прусси
прямо
прямои
пс
пса
псевдоним
псем
психика
психолог
психологи
психологии
психология
псков
псоу
псэ
пт
птиц
птица
птицы
птолемеи
пу
публ
публии
публикаци
публикации
публикация
публицист
публицистика
публицисч
пугачев
пугачева
пуи
пукан
пукане
пукрав
пул
пула
пулакан
пулас
пуласл
пуласси
пулат
пулать
пулашу
пулаясл
пулаҫҫе
пуле
пулемет
пулеметчик
пулемеч
пулер
пулин
пулла
пулма
пулмалла
пулман
пулмасан
пулмасть
пулн
пулна
пулни
пулнине
пулнипе
пулса
пулсан
пулт
пултар
пултара
пултараиман
пултараимасть
пултаракан
пултарат
пултарать
пултараҫҫе
пултарн
пултарна
пултарни
пултарнине
пултару
пултарул
пултарулах
пултарулл
пултатарть
пулх
пулч
пуль
пульниц
пульници
пункт
пунктов
пункты
пункч
пуп
пупле
пуплев
пуплер
пур
пура
пуранакан
пуранать
пуранаҫҫе
пуранна
пуре
пурин
пуринчен
пурл
пурн
пурна
пурнакан
пурнакансенчен
пурнать
пурнаҫ
пурнаҫе
пурне
пурп
пурри
пуррине
пуррипе
пурт
пурте
пуртре
пурч
пус
пусарн
пуске
пусм
пусма
пусми
пусн
пусса
пустыни
пусть
пут
путарн
путеводитель
путем
путене
путешествие
путешествии
путешествия
пути
путин
путина
путн
путь
пух
пухакан
пухать
пухма
пухмач
пухн
пухса
пухтел
пуху
пуххи
пуххине
пуш
пушар
пушк
пушкин
пушкина
пушмак
пушхир
пуэрто
пуян
пуянкасси
пуянл
пуҫ
пуҫламашенче
пуҫлана
пуҫланна
пуҫласа
пуҫлахе
пуҫне
пфальц
пх
пхк
пху
пхули
пч
пчак
пче
пчев
пчевлену
пчевсем
пчекен
пчеме
пчен
пчени
пченипе
пчес
пчесе
пчет
пш
пшада
пшанк
пыжиков
пыл
пылак
пылакс
пылч
пыль
пыма
пымак
пымалли
пын
пына
пыни
пынине
пынипе
пыр
пыра
пыракан
пыракансем
пырас
пырать
пырне
пырса
пырсан
пыс
пысак
пысаках
пысакашепе
пысакрах
пытанса
пытарн
пьемонт
пьер
пьес
пьеса
пьесе
пьеси
пьесине
пьесипе
пьесы
пяти
пятиязычныи
пятыи
пять
р
ра
рабинович
рабовладельческои
работ
работа
работает
работал
работать
работают
работе
работник
работу
работы
рабочи
рабочии
рабочисен
рабочих
рав
равенна
равл
равус
ради
радиаци
радио
радиов
радиокала
радиопа
радиостанции
радиохастар
радисч
радиус
радищев
радон
радости
радость
радуга
раз
разбитых
разве
разведка
разведки
разведчик
развитие
развитии
развития
разг
разговор
раздел
разделе
раздельнолепестные
разин
различного
различных
размер
размещение
размышления
разнообразие
разные
разных
разработчиков
разум
разъезд
разъезче
раи
раизман
раиком
раио
раион
раиона
раионам
раионах
раионе
раионен
раионенчи
раионн
раионне
раионов
раионсем
раионсене
раионта
раионти
раиону
раионы
раиса
раих
раицентра
рак
рака
ракан
ракет
ракета
ракети
ракетки
ракеты
ралла
рам
рама
рамблер
ран
рана
ранг
рангри
ранее
раннего
ранняя
ранпа
ранса
рансем
рансен
рантара
рантарать
рантарн
ранч
раньше
рар
рарах
рас
раса
распространение
распутин
рассвет
расселение
расселения
рассказ
рассказы
рассмотрим
рассоха
раствор
растении
растения
растет
расчет
расчеч
расширение
расширении
расширения
рат
рата
ратл
ратн
ратса
рать
рафаэль
рах
раха
рахакан
рахать
рахимов
рахма
рахман
рахн
рахса
рахут
рационалл
рач
рача
рачкав
рашид
раштав
раштавра
раҫҫеи
раҫҫеири
рб
рбк
рв
рваш
рвун
рггу
ре
реактор
реакци
реакции
реализм
реальныи
ребенка
ребенок
ребята
рев
ревизор
революци
революции
революцилл
революцин
революцине
революционер
революциччен
революцичченхи
революция
рег
регент
регион
региона
региональная
региональнои
регионе
регионен
регионенче
регионне
регистр
регистра
регистрацилен
ред
редактор
редактора
редакци
редакциеи
редакции
редакцилен
редакция
редкие
редкол
редколлегия
реест
реестр
реестры
реж
режим
режима
режиссер
режиссера
режиссерсем
резеда
резерв
резко
резонанс
результат
результате
результаты
реид
реимен
реин
реинланд
реис
реитинг
рек
река
реквием
реке
рекел
рекен
реки
рекл
реклама
рекомендации
реконструкции
ректор
рел
религии
религия
релл
релле
рельеф
рельс
рем
рембрандт
реме
ремм
ремонт
рен
рене
ренекен
ренекенсем
ренет
рени
ренме
ренмелли
ренн
ренпе
ренпур
ренсе
рент
рентген
ренте
рентев
рентекен
рентекенсен
рентес
рентет
рентме
рентмелли
рентн
рентни
рентсе
ренту
рену
репертуар
репин
репортаж
репортер
репрессилен
рептилии
рер
рерих
рес
респ
республик
республика
республике
республики
республикин
республикине
республикинче
республикинчи
республикипе
республикисен
ресторан
ресурс
ресурсов
ресурсы
рет
ретн
ретне
ретри
ретро
реутов
референдум
реформа
реформи
рех
рецензия
реч
речи
речка
речки
речь
реш
решекен
решение
решении
решения
решетке
решме
решн
решу
ржев
ри
риа
ривер
риг
рига
рид
рии
рик
рико
рим
рима
риман
римлянсем
римма
римра
римре
римри
римсем
римскии
рин
рине
ринпе
ринче
ринчен
ринчи
рио
рис
рисем
рислинг
рита
ритм
ритуал
рихард
ричард
риччен
рк
рка
ркалав
ркас
рке
ркев
ркел
ркеле
ркелев
ркелекен
ркелеме
ркелен
ркеленет
ркеленн
ркеленсе
ркелену
ркеленул
ркелес
ркелесе
ркелет
ркелл
ркелу
ркене
ркепе
ркере
ркесем
ркесене
рки
ркин
ркине
ркипе
ркисем
ркисене
ркка
ркке
ркп
рку
ркунне
рл
рла
рлан
рланать
рлани
рланн
рласа
рлат
рлатн
рлать
рлахи
рлач
рлачра
рле
рлев
рлекен
рлеме
рлемес
рлен
рлене
рленн
рленч
рлес
рлесе
рлесси
рлет
рлех
рлехи
рлеш
рлеше
рлешет
рлешинчен
рлешн
рлешнинчен
рлешсе
рлештерекен
рлештерет
рлештерн
рлештерсе
рлешу
рлешулл
рли
рлисем
рлисен
рм
рма
рмав
рмаи
рмаихи
рмак
рмалл
рман
рмана
рманкас
рманкасси
рманл
рмансем
рмансенче
рманта
рманти
рмар
рмах
рмашн
рмаях
рме
рмене
рмере
рми
рн
рна
рнар
рнатт
рне
рнерен
рни
рнин
рнине
рнинчи
рнр
ро
робер
роберт
робинзон
ровно
роговая
род
рода
роджер
родился
родина
родину
родины
родион
родионов
родионова
родионович
родная
родник
родного
роднои
родные
родос
рожанскии
рождение
рождения
рождественски
рождественскии
роза
розы
рои
рок
рокоссовскии
рокфеллер
рол
ролан
роланд
роле
роли
ролл
роль
рольне
рольсене
рольсенче
рольте
ром
рома
роман
романа
романне
романов
романова
романович
романс
романтизм
романтик
романья
ромашкин
ромм
рона
рональд
рос
росс
россии
россииская
россииские
россиискии
россииских
россииского
россииское
россиискои
россини
россию
россия
росспэн
рост
роста
ростислав
ростов
ростоцкии
рот
рота
роти
ротин
ротор
ротшильд
роу
роща
рп
рпа
рпе
рпи
рпу
рпури
рр
рре
ррем
рремеш
ррехинче
рри
ррин
ррине
рринче
рринчен
рринчи
ррипе
ррис
ррисем
ррисемпе
ррисене
рричен
рриччен
рс
рса
рсалатл
рсан
рсдрп
рсе
рсем
рсемпе
рсен
рсене
рсенче
рсенчен
рсенчи
рсфср
рт
рта
ртав
ртакан
ртакран
ртам
ртан
ртанн
ртарах
ртас
ртат
ртаттар
ртать
рте
ртекен
ртен
ртенпе
ртес
ртесси
ртет
ртех
рти
рткаи
ртл
ртма
ртмалла
ртман
ртме
ртмен
ртмес
ртн
ртнех
ртни
ртнипе
ртр
ртран
ртрах
ртре
ртса
ртсе
ртсем
ртсен
ртстан
ртстанри
ртт
рттан
рттанл
рту
ртулл
ртура
ру
рубен
рубин
рубинштеин
рублев
рублеи
рубцова
руда
рудольф
руж
рук
рука
руки
руководитель
руководство
рукопись
руку
рул
рулл
рулми
румын
румыни
румянцев
румянцева
рунет
руниверс
рур
рус
руси
руслан
русск
русская
русски
русские
русскии
русским
русскими
русских
русско
русского
русское
русскои
русском
русскому
руссо
руст
русь
руф
ручеи
ручка
руш
рушл
рушла
рушс
рф
рфгм
рх
рхавсем
рхама
рхан
рхи
рч
рчен
рчет
рчи
рчисем
рчисен
рчун
рчунсем
рчунсен
рчунсене
рччен
рш
рши
ршш
ршшипе
ршшипех
ршыв
ршыва
ршывне
ршывра
ршыври
ршывсем
ршывсен
ршывсенче
ръел
ръял
ры
рыба
рыбаков
рыбинск
рыбкин
рыбников
рыбы
рыжии
рыжов
рынок
рыц
рыцарь
рь
рьел
рьял
рэи
рябицев
ряд
рядовои
рядовому
рядом
рязанов
рязань
с
са
сабун
сав
сава
савапла
савасем
сават
савва
саввич
саввович
савелии
савельев
савельева
савельевич
савин
савн
савни
савр
савраш
савруши
савут
савутра
савуч
савченко
сага
сад
сада
садаи
садовых
садык
садыкова
саид
саира
саирарах
саит
саита
саите
саитов
саитра
саитри
саиты
саихах
саич
саиче
сак
сакк
сакки
саккун
саккуна
саккунл
саккунне
саккунпа
сакмара
саксон
саксони
сала
салават
салам
салампи
саланн
саланса
салат
салатн
салатса
салдакаево
салехард
сали
салине
салинче
салмин
сало
салпада
салтак
салтака
салтаксем
салтаксен
салтаксене
салтакьел
салтыков
салым
сальвадор
салют
сам
самаи
самана
саманара
саманинче
самант
саманта
самантра
самантран
саманч
самар
самара
самари
самарканд
самарская
самарские
самарскии
самарского
самарскои
самарском
самарта
самарти
самах
самахран
самая
самаях
сами
самого
самое
самои
самоилов
самолет
самолета
самолетне
самолетсем
самолеч
самом
самоуправления
самсон
самсонов
самуил
самураи
самые
самыи
самых
сан
сана
санкт
сант
санта
сантиметр
сантьяго
сап
сапа
сапер
сапи
сапл
саплык
сапоги
сапсан
сар
сара
сараи
саракан
саралн
сарална
саралса
саранск
сарас
саратов
саратовская
саратовские
саратовскои
саратуштра
сардини
сарлак
сарлака
сарма
сарн
сарпи
сарри
сарса
сарт
сартр
сас
саса
сасарт
саспалли
саспаллипе
саспаллисем
сасс
сасса
сасси
сатира
сатирик
сатка
сатн
сатур
сатурн
сауд
сафин
сафронович
сах
саха
сахал
сахалин
сахалрах
сахалтан
сахалтарах
сахар
сахара
сахаров
сач
саша
сб
сборник
сборнике
св
свадьба
сванети
сведении
сведения
свердлов
свердловск
свет
света
свете
светлана
светлая
свобода
свободно
свободы
свод
свое
своего
своеи
своем
своему
свои
своим
своими
своиства
своих
свою
своя
связи
связь
свято
святого
святои
святослав
святых
священник
свіридов
сделать
се
сеанс
себастьян
себе
себя
севастополь
север
севера
северная
северного
севернои
северныи
северо
северодвинск
сегодня
сед
седа
седов
сезар
сезон
сеи
сеим
сеичас
секен
секретар
секретарь
секс
секст
сектор
секции
сел
села
селе
селевк
селении
селения
селиванов
село
сельская
сельскии
сельских
сельского
сельское
сельскои
сем
семантика
семеиныи
семеиства
семеиство
семен
семена
семенов
семенова
семенович
семеновна
сементер
семин
семинарии
семиотика
семит
семл
семпе
семс
семш
семь
семье
семьи
семья
сен
сена
сенат
сенатор
сенгилеи
сене
сенегал
сенкер
сенне
сент
сентябрь
сентября
сенче
сенчел
сенчен
сенчи
сер
серафим
серафима
серб
серби
сервер
сервера
сервере
сервис
серге
сергеев
сергеева
сергеевич
сергеевна
сергеи
сергея
сергии
сердца
сердце
серебряныи
середине
середины
сережа
сержант
сержантскому
сержанч
сери
сериал
сериала
серии
серилл
серия
серов
сессии
сестра
сестры
сет
сети
сеть
сех
сехет
сехетре
сече
си
сибири
сибирская
сибирскии
сибирь
сив
сивлек
сивухин
сигнал
сидеть
сиднеи
сидоров
сидорова
сидорович
сиен
сиенл
сии
сиксе
сил
сила
силу
силы
сильно
сильныи
силэм
сим
симаков
симбирская
симбирско
симбирского
симбирскои
символ
символов
символпа
символы
симес
симметри
симон
симонов
симфони
симфония
синг
сингапур
сингл
синдром
сине
синельников
синер
синии
синкер
синоним
синонимсем
синтаксис
синтез
сипл
сиплев
сир
сира
сире
сири
сирире
сироткин
сирп
сирсе
сис
систем
система
систематика
системе
системи
системин
системине
системинче
системинчи
системипе
системисем
системисен
систему
системы
сити
ситуации
ситуация
сих
сихтерма
сицили
ск
ска
сказал
сказание
сказать
сказка
сказки
сказуем
скала
скалярла
скандинави
скасси
сквер
сквозь
скворцов
скворцова
ске
скен
скер
скерне
скерсем
скерсен
ски
сколько
скоро
скорости
скорость
скот
скота
скотт
скрипка
скрипта
скрябин
скульптор
скульптура
скумин
скуратов
сл
сла
слабыи
слав
слава
славы
славян
славянсем
славянсен
славянские
славянских
славянскои
слаи
слакпу
слан
слах
сле
слев
след
следам
следователь
следствие
следует
следующие
следующии
слезы
слекен
слеме
слемен
слен
сленекен
сленет
слени
сленн
сленсе
слесарь
слесе
слет
слишком
слов
слова
словак
словаки
словакин
словаксем
словар
словаре
словари
словарь
словаря
словах
словен
словени
словник
слово
служба
службы
случае
случаи
см
сма
смена
смерти
смерть
смет
смете
сметне
сметре
сметрен
смех
смеч
сми
смирнов
смирнова
смит
смог
сможете
смоктуновскии
смоленск
смотреть
смулен
смысл
сн
снаипер
снаряд
сначала
снг
сне
снег
сни
снова
сносок
сны
со
соавт
соавторстве
собака
собаки
собачья
собир
собои
соболев
собор
собрание
собрании
собрания
событии
события
сов
совершенно
совесть
совет
совета
совете
советник
советов
советсен
советская
советски
советские
советскии
советских
советского
советское
советскои
советском
совеч
совиньон
совм
совместно
современная
современник
современников
современного
современное
современнои
современном
современностъ
современность
современные
современныи
современных
совсем
совхоз
согласно
содержание
содержащии
содержимого
содержимое
содержит
соединения
создавать
создание
создании
создания
создать
сознание
сознания
соим
соискание
сок
сокол
соколов
соколова
сократ
сокровища
солдат
солдаты
солисч
солнца
солнце
солнцем
соло
соловьев
соловьева
соломин
соломон
соломонович
соль
сомов
сон
соня
сообщение
сообщении
сообщения
сообщества
сообщество
сооружении
сооружения
соотв
соответствии
соответствующего
сопрано
сопредельных
сор
сорок
сорокин
сорт
сортран
сорум
сорч
сосновка
сост
состав
составе
составители
составитель
составу
состояние
состоянии
состояния
сосьва
сотрудник
сотрудники
софи
софия
софья
сохранения
сохранить
социал
социализм
социализма
социалистических
социалл
социалла
социальная
социально
социальнои
социальные
социологи
социологии
социология
соч
сочи
сочинении
сочинения
союз
союза
союзе
союзен
союзне
союзри
спа
спаржа
спарта
спартак
спасибо
спасскии
спб
спбгу
спе
спектак
спектакл
спектакле
спектакль
спектр
спенсер
спец
специалист
специалисч
специально
специальныи
спиноза
спиридон
спиридонов
спиридонович
спирт
спирч
списка
списке
списки
список
списокра
спокоино
спорт
спорта
спортсмен
спорч
способ
справ
справка
справочная
справочник
справочное
спустя
спутник
спутника
спутникл
ср
сра
сравнительно
сразу
сран
сре
сред
среда
среди
средневековои
средневековья
среднего
среднеи
среднем
средние
среднии
средняя
средств
средства
средство
среды
срен
срех
сри
срок
сс
сса
ссаи
ссе
ссем
ссемпе
ссен
ссене
сси
ссипе
сскп
сср
ссрп
ссрс
ссср
сссрта
ссылк
ссылка
ссылки
ссылку
ссылок
ст
ста
ставить
ставрополь
стадион
стаи
стал
стала
сталан
стали
сталин
сталина
сталинград
сталкер
стало
сталь
стамбул
стан
стандарт
стандартл
стандарч
станислав
станиславскии
становится
становиться
становление
станок
станци
станции
станциие
станцин
станцине
станцинчен
станция
станьял
стар
старая
старик
старина
старица
старого
старое
старои
старуха
старшии
старшина
старшини
старые
старыи
стат
статеи
статии
статистик
статистика
статистики
статистическии
статистических
статус
статуса
статусне
статусом
стать
статьи
статью
статья
статьяна
статьяра
статьясем
статьясен
статьясене
стб
стекло
стекольнаи
стекольныи
стена
степ
степан
степанов
степанова
степанович
степановка
степановна
степанян
степен
степенеи
степени
степень
степеньл
степи
степин
степь
стер
стереотип
стереотипное
стерлитамак
стерлитамакскии
стерн
стефан
стефанович
сти
стив
стивен
стил
стиле
стиль
стисем
стих
стиха
стихи
стихов
стихотворении
стихотворения
сто
стоит
стокгольм
стол
столб
столетия
столица
столяров
сторона
сторону
стороны
стр
стран
страна
странах
стране
страниц
страница
странице
страници
страницу
страницы
странник
страны
страсбург
страсти
стратеги
стратегилл
страха
страховани
стрелок
стрелоксен
строение
строи
строииздат
строитель
строительства
строительство
строке
строки
стронци
структура
структуры
студ
студент
студентов
студентсен
студентсене
студенч
студи
студии
студине
студинче
студире
студия
стюарт
су
суахили
субъекч
сувар
суваризм
сувары
суворов
суворова
суд
суда
судан
судьба
судьбы
судья
суздаль
суила
суилав
суилама
суилан
суиланн
суиласа
сук
сукачев
сукк
сукмак
сул
сула
сулавеси
сулак
сулахаи
сулеиман
султан
сум
сумл
сумма
сумми
сун
сунар
сунара
сунтал
сунчелеево
сунь
суп
сур
суран
суранланн
суриков
суры
сус
сут
сута
сутакан
сутана
сутма
сутн
сутса
сутсе
суту
суффект
суха
сухал
сухан
сухои
сухона
сухоруков
суч
существительные
существительными
существует
существующих
сущность
суя
сфер
сфера
схема
схпк
сцена
сценари
сценарии
сценарист
сценаристсем
сценарисч
сцени
сцены
сципион
счастливыи
счастье
счастья
счах
счахсем
счет
сша
съезд
съезда
съезч
сыв
сывл
сывлаш
сызрань
сылт
сыма
сын
сына
сыня
сып
сыппис
сыр
сыры
сысна
сытина
сыхлав
сыхлакан
сыхлан
сыхланнин
сыхланса
сыхлас
сыхласа
сэм
сэнгер
сэр
сюда
сюжет
сюжеч
сюнь
сюр
ся
т
та
табак
табаков
табл
таблиц
таблица
таблицы
тав
тава
таван
тавар
тавас
тавата
тавлашу
тавр
тавра
таврал
тавралахе
тавралахен
таврап
таврари
тавраш
таврашне
таганрог
таджик
таджикистан
таз
таи
таивань
таига
таил
таиланд
таимыр
таин
таина
таиная
таины
так
така
такан
такана
такас
такая
также
таки
такие
таким
такмак
такое
такои
таксон
тактика
тал
талант
талантл
талах
талвир
талиев
талкк
талла
таллин
талп
талыш
тальони
там
тама
тамара
тамбов
тампа
тамран
тан
тана
танаи
танах
танго
тани
танк
танка
танкист
танксене
танл
танлашать
танлашн
танлаштар
танлаштарма
танлаштарса
танлаштарсан
танлаштару
танлаштарул
танлаштарулл
танмарл
тант
таня
тап
тапма
таппи
таппинчен
тапранать
тапранса
тапратн
тапса
тапх
тапхар
тапхарен
тар
тара
таракан
таран
таранах
таранччен
тарас
тарасов
тарасович
тарать
тарах
тарахе
тараҫҫе
тарин
тарк
тарка
тарковскии
тарма
тарн
тарнас
тарни
таро
тарса
тарт
тарта
тартакан
тартас
тартать
тартма
тартман
тартн
тартни
тартнипе
тартса
тарту
тартусем
тару
таршш
таршше
таса
тасал
тасалать
тасата
тасс
тат
тата
татар
татарами
татарская
татарские
татарскии
татарских
татарского
татарское
татарскои
татарстан
татарстана
татары
татах
татищев
татм
татса
татти
тать
татьяна
тафаев
тах
тахар
тахо
тахтал
тахтала
тацит
тач
таш
ташкент
ташла
ташши
таянса
таяпа
тбилиси
тв
тверь
твои
творчества
творчестве
творчество
те
теат
театр
театра
театральная
театре
театрне
театрпа
театрта
тебе
тебя
теветкел
тег
тега
тегов
тезаврус
тезисы
теи
тек
текен
текенни
текенсем
текермел
текст
текста
текстне
текстов
текстсем
текстсене
тексты
тексч
текумсе
тел
тела
теле
телевидени
телевизор
телеграф
телеерту
телеи
телеил
телек
телеканал
телекур
телекурав
телесериал
телеспектакль
телефильм
телефон
телешпе
телеяр
теллеве
телне
тело
тель
тем
тема
теме
темелле
темен
темешк
теми
темипе
темиҫе
темле
темников
температур
температура
температури
тему
тен
тенденции
тене
тени
тенин
тенине
тенинчен
тенипе
тенисем
тенисене
тенк
тенке
теннесси
теннис
теннисисч
тенор
тенче
тенчери
тень
теодор
теодорих
теорема
теореми
теоретик
теоретическая
теоретические
теоретическои
теори
теории
теорилл
теорилле
теорин
теорине
теорипе
теорию
теория
теп
тепе
тепер
теперь
тепло
тепре
тепри
теприне
теприсем
тепчев
тер
тере
терек
терекен
терентьев
терентьева
терентьевич
терес
терет
тери
терл
терле
терме
термен
термин
термина
терминов
терминологии
терминпа
терминсем
термины
термодинамик
термодинамика
терн
тернеҫ
терни
терра
территори
территориального
территориальное
территориальныи
территорие
территории
территорилл
территорин
территорине
территоринче
территоринчи
территорипе
территорире
территория
террор
терса
терсе
терсен
тес
тесе
тесен
тесесем
тесл
тесле
теслехрен
тесне
тессем
тест
тет
тетел
тетелте
тетте
тетя
тех
техас
техник
техника
техники
техникин
техникум
техникумне
технические
техническии
технолог
технологи
технологии
технологипе
технология
течение
течч
теш
теҫҫе
ти
тиберии
тибет
тив
тивекен
тивет
тивеҫле
тивеҫне
тивн
тигр
тиев
тик
тикеш
тикк
тил
тим
тимер
тимерлек
тимеш
тимл
тимофеев
тимофеева
тимофеевич
тимофеевна
тимофеи
тимошенко
тимошкино
тимуков
тимур
тимухха
тимушкел
тин
тинес
тип
типа
типе
типов
типография
типология
типсе
типы
тир
тираж
тире
тирек
тиркев
тискер
тит
титан
титов
титович
титрах
титрсенче
титрта
титул
титула
титулне
тихии
тихо
тихомиров
тихон
тихонов
тихонова
тихонович
тициан
тишкер
тишкерекен
тишкерет
тишкерн
тишкерсе
тишкеру
тк
ткань
тл
тлан
тланать
тланн
тленн
тленсе
тм
тма
тмах
тме
тмен
тн
тне
тни
то
тоба
тобои
тобол
тов
товар
товарищ
товарища
товарищество
товарныи
тогда
того
тодоровскии
тоже
тои
ток
тока
токарев
токио
толковыи
толстого
толстои
только
тольятти
том
тома
томас
томах
томл
томпсон
томск
тому
томь
тонн
тонна
топ
топливо
топологи
топология
топоним
топонимии
топонимическии
топоров
тор
торговои
торн
торонто
торпеда
торф
тоска
тоскана
тот
точка
точки
точно
тпа
тпе
тр
тра
трава
трагеди
трагедии
трагедия
традиции
традиционная
традиционныи
традиция
трак
трактат
трактор
трамваи
тран
транспорт
транспорта
транспорч
трах
траштар
траштармалла
траян
тре
трел
трен
тренер
тренч
третии
третье
третьего
третья
третьяков
третьяковская
трех
три
трибун
триер
триумф
трифонов
трифонова
трое
троица
троицкии
троллеибус
тропик
трофим
трофимов
трофимович
троцкии
трубина
труд
труда
трудно
трудов
трудовои
труды
тс
тса
тсе
тсем
тсен
тсенче
тт
тти
ту
туалет
туда
туи
туима
туиса
тук
тукаи
тукташ
тул
тула
тулать
тулаш
тулашри
тулев
тулевс
тулесе
тулл
тулли
туллии
туллин
тулпас
тултар
тултарн
тултарнине
тултарсан
тулуз
тум
тума
тумалла
тумалли
туман
тумба
тумлам
тумлан
тумтир
тумтире
тун
туна
тунгус
тунгуска
туни
тунине
тунис
туп
тупа
тупаиман
тупас
тупать
тупе
тупене
тупере
тупери
тупи
тупма
тупмалли
тупн
тупна
туполев
тупс
тупса
туптан
тур
тура
тураев
турам
туран
турат
турач
тургау
тургенев
туре
турем
турех
тури
туризм
турин
турк
туркаи
туркестан
туркк
туркмен
туркменистан
турл
турлетме
турлету
турнир
турнояс
турочак
турр
турра
турри
турт
туртать
туртса
турттаракан
турул
турхан
турци
турцин
турципе
турцире
турцири
тус
туса
тусан
тусем
тусл
туссем
тустарн
тут
тута
тутар
тутаркас
тутарла
тутарсем
тутарсемпе
тутарсен
тутарстан
тутарстанра
тутарстанри
тутарстанти
тути
тутл
тух
туха
тухакан
тухас
тухатм
тухать
тухма
тухмалла
тухмалли
тухман
тухн
тухна
тухни
тухнине
тухнипе
тухнисем
тухр
тухса
тухсан
тухсат
тухт
тухтар
туя
туянать
туянма
туянн
тчен
тченех
ты
тыг
тыл
тым
тымар
тын
тыр
тырпул
тыс
тысяч
тысячи
тыт
тыта
тытакан
тытать
тытк
тытма
тытмалли
тытн
тытни
тытса
ть
тюмень
тюринги
тюрки
тюрко
тюрколог
тюркские
тюркских
тюрнясево
тяжело
тяжелыи
тянь
у
уаит
уао
уап
убииство
убоиная
увидеть
увидите
уводь
угол
уголь
удар
ударение
удачи
удел
удк
удмурт
удмурти
удэ
уезд
уезда
уездах
уезде
уес
уесне
уесре
уефа
уж
уже
уза
узб
узбек
узбекистан
узел
узень
уи
уиарса
уиах
уиахен
уиахенче
уигур
уикас
уильям
уильямс
уир
уира
уиралса
уирам
уирамах
уири
ук
указ
указан
указана
указание
указания
указатель
указать
указе
указом
уке
укер
укерн
укерне
укерсе
укеру
укерч
укерчек
укет
укие
укки
уккине
уккипе
укл
укн
укр
украин
украина
украине
украинсем
украины
украшение
украіни
украінська
украінськоі
уксамла
укҫа
ул
ула
улан
уланк
улат
улатакка
улатим
улах
улаштарма
уле
улев
улелле
улерех
улиц
улица
улице
улицы
улк
улки
улкинче
улкинчен
улл
улла
уллахи
улма
улми
улму
улне
улпа
улпу
улпут
улсем
улсен
улсене
улсенче
улсенчен
улсенчи
улсерен
улт
улта
ултав
ултал
ултан
ултанпа
ултах
улте
улти
ултт
улус
улхаш
улхи
улчен
улччен
улш
улы
уль
ульянов
ульянова
ульяновск
ульяновская
ульяновские
ульяновскои
ум
ума
умберто
умение
уменче
умер
умл
умне
умолчанию
умри
умс
ун
уна
унакан
унан
унат
унатл
унать
унач
унашкал
унежма
унер
унере
унерл
унерлен
унерпе
унерҫе
унерҫи
универсалл
университет
университета
университете
университетне
университетра
университеч
университечен
унк
унки
унпа
унран
унс
унса
унсар
унта
унтан
унтарн
унтарса
унтах
унти
унчен
унченхи
унччен
унчченхи
унш
уп
упа
упакасси
упи
упке
упр
упра
управ
управлени
управление
управлением
управлении
управленин
управления
управлять
упракан
упрама
упрамалли
упран
упрана
упранакан
упранать
упранн
упранса
упраса
ур
ура
уравнении
уравнения
ураи
урал
урала
уралать
уралл
уралн
урални
уралнисем
урало
уралса
уральскии
уральского
урам
урама
урамра
урамсем
урамсен
урамсене
уран
урана
урапа
урасем
ураскилт
уратн
уратса
урах
урахла
уре
урев
уревл
урекен
урекенсен
уреме
урен
урени
урет
уржум
ури
урисем
уркунне
урл
урла
урлан
урма
уровень
урожаи
урок
уроки
урпа
урпаш
урри
урринче
урсс
урт
урта
урташ
уртне
уртра
уртсем
уртсен
уртсене
уртт
уругваи
урукова
урутрав
урхах
урхи
урч
ус
уса
усал
усе
усекен
усекенсен
усем
усен
усене
усент
усентаран
усентарансен
усенче
усет
усил
услам
условии
условия
условиях
усме
усн
успенскии
успехи
успешно
усра
усрав
усрама
усран
уссе
усср
уссури
уст
уста
устав
установить
установка
установке
установки
установлении
устер
устере
устерекен
устерет
устерме
устерн
устерсе
устинович
устроиства
устроиство
усть
устье
усул
ут
ута
утар
утатса
утверждении
ути
утка
уткин
утл
утм
утрав
утрава
утраве
утравне
утравсем
утравсене
утро
утром
утса
утта
уфа
уфн
ух
ухалать
ухалн
ухат
ухатать
ухатн
ухатса
ухату
ухе
ухли
ухр
ухсаи
уч
учала
участие
участием
участок
учащихся
учеб
учебник
учебники
учебно
учебное
учебных
учен
учение
учения
ученого
ученои
ученые
ученыи
ученых
училищ
училища
училище
училищи
училищин
училищине
училищинче
учителеи
учитель
учительница
учительсен
учителя
учреждении
ушаков
ушакова
ушел
ушк
ушкан
ушкане
ушканен
уэльс
уяв
уява
уявла
уявне
уяр
уҫа
уҫна
ф
фа
фабии
фабрика
фабрики
фадеев
фадлан
фаз
фаза
фаил
фаила
фаилов
фаилсене
фаилы
фаина
факс
факт
фактор
факты
факультет
факультета
факультетне
факультеч
фамилии
фамилия
фан
фантастика
фарадеи
фараон
фараоне
фарида
фасмер
фасо
фауна
фауны
фауст
фашизм
февр
феврал
февраль
февраля
федералл
федеральнои
федеральныи
федераци
федерации
федерацииен
федерацин
федерацинче
федерико
федор
федора
федоров
федорова
федорович
федоровка
федоровна
федоровскии
федосеевич
федотов
федотова
федотович
феликс
феллини
фельдмаршал
фельдшер
феникс
феномен
феодал
феодосии
феофан
фердинанд
ферм
ферма
ферми
фестивал
фестивале
фестиваль
фестивальне
фз
фигаро
фигура
фиджи
физ
физик
физика
физике
физики
физикин
физико
физиологи
физическая
физические
физическии
физических
физическои
физкультура
физматлит
фикшн
фил
филатов
филиал
филимонов
филимонович
филип
филипп
филиппин
филиппов
филиппова
филиппович
филол
филолог
филологи
филологии
филологических
филология
филос
философ
философе
философи
философии
философия
философская
философские
философскии
философское
фильм
фильма
фильме
фильмов
фильмография
фильмра
фильмри
фильмсем
фильмы
фимов
фин
финал
финанс
финики
финлянди
финляндии
финляндире
финн
финно
финнсем
фирма
фитиль
фк
флавии
флаг
флагман
флакк
флеита
флетчер
флинт
флора
флоренци
флорида
флот
флота
флотне
флоч
фо
фокин
фолк
фольк
фольклор
фольклорист
фома
фоменко
фомин
фомич
фон
фонареи
фонд
фонда
фондч
фонема
фонетик
фонетика
фонтан
фонч
форд
форм
форма
формалл
формат
формате
форматл
форме
форми
формине
формипе
формирование
формирования
формисем
форму
формул
формула
формули
формы
форсаит
форт
фортепиано
форум
фосфор
фот
фото
фотогалерея
фотограф
фотографи
фотографии
фотографисем
фотография
фотоукерч
фр
фрагмент
фрагменты
фраки
фран
франк
франклин
франко
франкони
франксем
франксен
франкфурт
франс
франсуа
франц
франци
францие
франции
францин
францине
франципе
францире
францири
франциск
франциско
франция
француз
французла
французсем
французсен
французская
французскии
французского
французскои
франческо
фрг
фредерик
френкель
фридрих
фриц
фрол
фролов
фролова
фролович
фронт
фронта
фронтне
фронтра
фронч
фрунзе
фрэнк
фрэнсис
фу
фукс
фульвии
фульда
функци
функцие
функции
функцин
функцисем
функцисен
функцисене
функция
футбол
футболист
футболисч
фізіологіі
х
ха
хабаровск
хабиров
хавал
хаварна
хаварт
хавас
хавасл
хадыта
хазар
хаи
хаидеггер
хаидеггера
хаиен
хаилав
хаилава
хаилавне
хаилавсем
хаилан
хаилать
хаине
хаип
хаисен
хаисене
хаихи
хак
хакал
хакан
хаканл
хакаси
хакл
хакла
хаклав
хаклан
хал
халал
халаллан
халалласа
халап
халапл
халаплахенчи
халапсем
халах
халахе
халахен
хале
халиков
халиф
халиччен
халичченех
халл
халь
хальмер
хальхи
хам
хама
хамар
хамашла
хамрр
хан
хана
ханл
ханс
ханства
хант
хань
хао
хаос
хап
хапав
хапалл
хапи
хапр
хапха
хапхи
хар
хара
характер
характера
характеристика
характеристики
харвест
харвута
харитонов
харитонова
харкамл
харп
харрис
харс
харута
харьков
харьковри
хасан
хасар
хасарсем
хасарсен
хастар
хастарл
хастарр
хат
хатер
хатерлен
хатерлене
хатра
хать
хах
хач
хаш
хашпер
хаяр
хаярл
хв
хваттер
хвет
хвостова
хе
хевел
хевеланаҫ
хевелтухаҫ
хевтелл
хеифиц
хельсинки
хен
хеп
хепберн
хер
херарам
хере
херес
херле
херринче
херсон
херц
хетта
хех
хи
хиврел
хим
хими
химии
химик
химилле
химипе
химическая
химические
химических
химия
хинвиль
хинди
хине
хир
хирбю
хире
хиреҫ
хирл
хирлеп
хирлеппу
хирте
хирти
хирург
хирурги
хисеп
хисепе
хисепл
хисепле
хисеплен
хисепленекен
хисеплесе
хисепне
хисеппе
хисепре
хисепсем
хисепсен
хисепсене
хистенипе
хистет
хит
хитре
хк
хл
хла
хлан
хларах
хле
хлеб
хлеба
хлебников
хма
хмалла
хмас
хмель
хмельницкии
хн
хне
хни
хо
ходасевич
ходить
хозяин
хозяиства
хозяиство
хои
хокинг
хоккеи
хоккеисч
холдинг
холл
холм
холмс
хопер
хоперпа
хор
хора
хорв
хорват
хорвати
хорм
хорошии
хорошо
хосе
хоспит
хотите
хоть
хотя
хочу
хпа
хпе
хр
хра
храм
храма
храмне
храмов
хран
хранения
хранитель
храх
хре
хрен
хрестоматия
хресчен
хресченсем
хресченсен
хри
христа
христиан
христианл
христиансем
христиансен
христианского
христианства
христианство
христос
христоса
христофор
христофорович
хроника
хроники
хронологии
хронологическо
хронология
хрущев
хс
хса
хсан
хсем
хсемпе
хсен
хсене
хсенче
хсенчен
хсенчи
хтам
хти
ху
хуан
худож
художественная
художественного
художественнои
художественные
художественныи
художник
художника
художники
художников
хузангаево
хузангаи
хуих
хул
хула
хулан
хулана
хулапа
хулара
хуларан
хулари
хуласем
хуласемпе
хуласен
хуласене
хуласенче
хуласенчен
хулаш
хули
хулин
хулине
хулинче
хулинчен
хулинчи
хулинчишыв
хулипе
хулисем
хулисемпе
хулисен
хулисене
хулисенче
хулисенчен
хуличчен
хум
хума
хумалла
хумалли
хуме
хуми
хумл
хумсем
хун
хуна
хунав
хуни
хунк
хунну
хунсем
хунсен
хунсене
хуп
хупа
хупать
хупн
хуппи
хупса
хур
хура
хурав
хуравне
хуракан
хуракасси
хурал
хуралт
хуралту
хурама
хурамал
хуран
хурас
хурасан
хурать
хурах
хуре
хурелл
хури
хуриччен
хурл
хурса
хурт
хурч
хурчка
хурчки
хусан
хусана
хусанкаи
хусанта
хусантан
хусанти
хут
хута
хутаи
хутар
хутл
хутла
хутлав
хутне
хутор
хутра
хутран
хутсем
хутсенче
хутчен
хутш
хутшанна
хуть
хух
хуч
хуш
хуша
хушамат
хушаматл
хушаматне
хушаматпа
хушамач
хушать
хушма
хушн
хушнипе
хушса
хушу
хушши
хушшине
хушшинче
хушшинчи
хущ
хх
ххи
ххисем
хш
хы
хыв
хывакан
хывн
хыпар
хыпара
хыпарл
хыпарлать
хыпарпа
хыпарс
хыпарсем
хыпарсемпе
хыпарсене
хыпса
хыр
хыркасси
хырла
хысак
хысакл
хыт
хыта
хытарк
хытса
хыҫҫан
ц
цареи
царицыно
царская
царское
царства
царство
царь
царя
цв
цвет
цвета
цветаева
цветков
цветок
цветы
цезарь
цези
цель
цемент
цена
центр
центра
центральная
центральнои
центральныи
центре
центрне
центрполиграф
церкви
церковно
церковь
цех
цзин
цзы
ци
цивилизации
цивилизация
цикл
цикла
циклон
цилиндр
цильма
цин
цинк
цинь
циолковскии
цирк
цирка
цирюльник
цитат
цитрус
цифр
цифра
цицерон
цк
цна
цска
цунами
цюрих
ч
ча
чаваш
чавашла
чавашсем
чавса
чаган
чад
чаика
чаики
чаиковскии
чак
чака
чакать
чакма
чакн
чакса
чал
чалл
чалла
чамлык
чан
чао
чап
чапа
чапаев
чапл
чапла
чаплин
чар
чара
чарл
чарли
чарльз
чарма
чарн
чарса
чаршав
чарыш
час
часах
часов
часср
частеи
части
частиц
частица
частности
частныи
часто
часть
частью
частях
часы
чат
чаш
чаще
чгигн
чгпу
чгу
че
чебоксар
чебоксарах
чебоксарскии
чебоксарского
чебоксары
чего
чее
чеи
чекмакуш
чел
челепи
челны
человек
человека
человеке
человечества
челхе
челхи
челхин
челхине
челхинчен
челхипе
челябинск
чем
чемпион
чемпионат
чемпионач
чему
чен
ченне
чепунов
чере
через
черек
черемшанского
черкес
черкки
черная
чернигов
чернов
чернова
черного
черногори
черное
чернушка
черные
черныи
черных
черт
черты
черчун
черчунсен
честь
четвертыи
четыре
четырех
чех
чехи
чехов
чехова
чехословаки
чехсем
чечек
чечеке
чечекл
чечексем
чечен
чеченсем
чечня
чжоу
чи
чие
чиешне
чик
чикаго
чикан
чикансем
чике
чикинчен
чикиччен
чикки
чиккине
чиккинче
чиккинчен
чиккисем
чиккисене
чиккичен
чиккчен
чикм
чикме
чиксе
чили
чин
чингисхан
чиндыков
чиновник
чипер
чир
чире
чирк
чирку
чиркулл
чиркуре
чирл
чирлен
чирлесе
чисел
числа
числе
численности
численность
число
чистаи
чистовка
чита
читать
чичканов
чишма
чк
чкалов
чкаловски
чкеи
чл
член
члене
членов
чнии
чнк
чпг
чпу
чр
чрен
чсене
чтения
что
чтобы
чу
чув
чуваш
чувашами
чувашах
чувашеи
чуваши
чувашии
чувашия
чувашорум
чувашская
чувашские
чувашскии
чувашских
чувашско
чувашского
чувашское
чувашскои
чувашском
чувашскому
чувашскую
чувство
чугун
чудеса
чудо
чужая
чужои
чуи
чук
чукал
чуковскии
чукотка
чукун
чул
чулка
чулл
чулман
чулран
чулхула
чулхулара
чулхулари
чулым
чулымран
чумакова
чумыш
чун
чуна
чунл
чунне
чуп
чупать
чупса
чура
чурал
чурач
чурече
чуста
чутаи
чуть
чух
чухл
чухле
чухне
чухнех
чухнехи
чч
ччен
чченех
чченхи
чылаи
чылаирах
чылаях
чын
чыс
чыса
чысл
чысла
чыслав
чыслан
чысласа
чысне
чышма
ш
ша
шаблон
шаблона
шаблонов
шаблонра
шав
шавл
шаг
шаи
шаилашул
шаине
шаира
шаири
шак
шакан
шал
шала
шаламов
шалан
шалл
шалланн
шалне
шалпа
шалти
шалу
шаляпин
шамиль
шампань
шан
шанн
шанса
шанч
шаньюи
шап
шапа
шапи
шапиро
шапка
шапкино
шапошников
шар
шара
шаран
шардоне
шарлак
шарлотта
шарль
шартлама
шатра
шать
шаффхаузен
шах
шахмат
шахназаров
шахт
шахтер
шая
шв
шварц
швед
шведсем
швеицар
швеицари
швеицарии
швеицарин
швеицарире
швеицарири
швеицер
швеци
швиц
ше
шевченко
шекспир
шекспира
шел
шелепи
шем
шенче
шепси
шер
шереметьево
шерлок
шестаков
шести
шесть
шет
шетм
шешкел
ши
шимкевич
шин
шинель
широков
шишкин
шк
шка
шкадов
шкап
шкасси
шки
шкипе
шкловскии
школ
школа
школе
школу
школы
школьная
школьныи
шкул
шкула
шкулне
шкулсем
шкулсенче
шкулта
шкултан
шкулти
шл
шла
шлав
шлакан
шлан
шласа
шле
шли
шлюз
шм
шма
шман
шмана
шманран
шмен
шмест
шмидт
шн
шне
шни
шнипе
шолохов
шор
шоссе
шота
шотланд
шотланди
шоу
шофер
шп
шпа
шпе
шпион
шпу
шр
шра
шран
шре
шри
шрифт
шрифч
шс
шса
шсе
шсем
шсемпе
шсен
шсене
шт
штаб
штара
штарать
штарма
штарн
штарса
штат
штатсем
штах
штач
штачен
штерет
шти
шторм
штук
штурм
штурман
штурмлакан
шу
шуга
шуиттан
шук
шукшин
шукшина
шулл
шултра
шум
шумер
шуметь
шумом
шунтал
шуп
шупашкар
шупашкара
шупашкарта
шупашкартан
шупашкарти
шупка
шупу
шур
шура
шурик
шуркасси
шурл
шуррисем
шуррисен
шурут
шурча
шуса
шут
шута
шутенче
шутл
шутла
шутлав
шутлавл
шутлама
шутлан
шутлана
шутланакан
шутланать
шутланн
шутланна
шутласа
шутласан
шутлать
шутне
шутпа
шутра
шух
шухашласа
шуч
шуче
шучепе
шчен
шш
шши
шшин
шы
шыв
шыва
шываи
шывам
шывл
шывне
шывпа
шывра
шывран
шыври
шывсем
шывсенче
шывуправ
шывуправенчч
шыр
шырав
шырама
шырани
шыраса
шырать
щ
щербаков
щит
щукин
щучья
ъ
ы
ыв
ывале
ыджыд
ыит
ыитать
ыитн
ыитнипе
ыитса
ыиту
ыитупа
ыитусем
ыитусемпе
ыитусене
ыих
ыл
ылмаш
ылт
ылтан
ылтт
ын
ына
ыне
ынл
ынн
ынна
ынни
ыннин
ыннине
ыннисем
ыннисемпе
ыннисен
ыннисене
ынпа
ынран
ынсем
ынсемпе
ынсен
ынсене
ынсенчен
ып
ыр
ыра
ырав
ыравл
ыравпа
ыракан
ырал
ыран
ырана
ыранне
ыранпа
ыранпе
ырас
ырасси
ыратать
ырать
ыраш
ырл
ырла
ырлан
ырли
ырлисем
ырма
ырмалли
ырман
ырмапу
ырми
ырн
ырни
ырнине
ырнинчен
ырнипе
ырнисем
ырнисен
ырнисене
ырса
ырсатуху
ырсатухупа
ыру
ырул
ырулл
ырупа
ырура
ырусем
ырьят
ыт
ытарл
ытла
ытларах
ытлах
ытлашши
ытти
ыттисем
ыттисемпе
ыттисен
ыттисене
ыттисенчен
ых
ыхра
ыхса
ыххи
ь
э
эвенк
эволюци
эволюции
эволюция
эгеи
эдвард
эдгар
эдинбург
эдмунд
эдо
эдуард
эжен
эи
эилер
эинштеин
эипе
эк
эквадор
экватор
эквивалентл
экз
экзамен
экземпляр
экзюпери
экипаж
эко
экологи
экология
экономик
экономика
экономики
экономист
экономисч
экономическая
экономические
экономическии
экономического
экономическои
экран
экс
эксмо
экспедици
экспедиции
экспедиция
эксперимент
экспериментсенчен
эксперт
экспорт
экспресс
эл
элам
элек
электрика
электричество
электро
электродинамика
электромагнит
электромагнитла
электрон
электроника
электронл
электронла
электронная
электроннои
электронныи
электротехника
элемент
элемента
элементарл
элементарная
элементарнои
элементов
элементсем
элементсен
элементы
элеменч
элизабет
элкел
элкер
элле
элли
эллинизм
элмен
элмет
элтеш
элч
элчел
элчи
элчисем
элшел
эль
эльба
эльдар
эльзас
эльзе
эльмень
эльшеи
эмбинскии
эмел
эмили
эмилии
эмиль
эмине
эмир
эмма
эммануил
эн
энгельс
эндрю
энергетика
энерги
энергии
энергия
энн
энтль
энтони
энтри
энцикл
энциклопеди
энциклопедии
энциклопединче
энциклопедире
энциклопедири
энциклопедическии
энциклопедия
эп
эпизод
эпир
эпос
эпоха
эпохи
эпоху
эппин
эр
эра
эраччен
эрех
эрехе
эрехсем
эрехт
эреш
эрешмен
эри
эрик
эрих
эрлихман
эрм
эрмен
эрмени
эрменсем
эрмитаж
эрмитажа
эрне
эрнере
эрнест
эрнст
эрч
эс
эсбе
эсер
эсир
эскадрильин
эскадрилья
эскадрон
эсперанто
эссе
эст
эстетика
эстон
эстони
эстонире
эстрада
эсхель
эта
этап
этапы
этем
этеме
этемл
этеп
этепл
эти
этика
этим
этимологи
этимологии
этимологическии
этимология
этих
эткер
этмен
этническая
этническои
этно
этногенез
этнограф
этнографи
этнографии
этнографические
этнографическии
этнографическое
этнография
этноним
этнос
этноса
этнотерриториальных
это
этого
этои
этом
этот
эту
эфиопи
эфир
эфирл
эффективл
эффекч
эх
эхер
эхо
эшпаи
ю
юань
юбилеи
юбка
ювелир
юг
юга
юган
юго
югослави
югра
юдин
юдифь
южная
южнои
южныи
южных
юл
юла
юланут
юлать
юлашки
юлашкинчен
юлашкисем
юлиан
юлии
юлия
юлл
юлма
юлман
юлн
юлна
юлса
юлташ
юлташл
юлч
юм
юман
юманади
юманл
юмарт
юмах
юмахсем
юн
юна
юнашар
юнашарах
юнашарти
юнеско
юнии
юнко
юнл
юность
юнтапа
юп
юпа
юпан
юпи
юпитер
юппи
юппии
юппин
юппинчен
юпписем
юпписен
юптару
юр
юра
юраман
юрамасть
юрат
юрата
юратакан
юратать
юратн
юратса
юрату
юратупа
юрать
юри
юрибеи
юридици
юридическая
юридическии
юрии
юрилле
юрист
юристъ
юрисч
юрия
юрк
юркин
юркки
юрл
юрла
юрлакан
юрлама
юрлан
юрласа
юрлать
юрр
юрра
юрри
юррине
юррисем
юррисен
юррисене
юрьев
юрьевич
юрьевна
юс
юсав
юсан
юсаса
юстиниан
юстици
юстиции
ют
юх
юха
юхакан
юхан
юханшыв
юханшыва
юханшыван
юханшыве
юханшывес
юханшывне
юханшывран
юханшывс
юханшывсем
юханшывсемс
юханшывсен
юхать
юхма
юхн
юхса
юхтарса
юшк
я
яблоко
яв
ява
явап
явапл
явление
явления
является
являются
яворскии
яга
ягафова
ягун
ядерл
ядерла
ядерная
ядро
яз
язык
языка
языкам
языках
языке
языки
языков
языковои
языкознание
языкознания
языком
языку
языческие
яица
як
яка
якаел
якку
якоб
яков
яковлев
яковлева
яковлевич
яковлевна
якуркел
якут
якути
якутск
якушкино
ял
яла
ялав
ялавар
ялавлани
ялавне
ялан
яланах
яланл
яланхи
яланхилле
ялгир
яле
яленче
ялк
ялкир
ялне
ялпа
ялсем
ялсен
ялсене
ялсенче
ялсенчи
ялт
ялта
ялтан
ялти
ялху
яма
ямаика
ямал
яман
ямаш
ямпах
ямщиков
ян
яна
янаул
янах
янв
январ
январь
января
яндекс
яни
янис
янк
янка
янкас
янковскии
янрав
янт
янташ
яп
япала
япалал
япалан
япалана
япаласем
япаласен
япаласене
япали
япалисем
япалисене
япон
япони
японии
японин
японире
япония
яппун
япун
яр
яра
яракан
ярань
ярать
яреи
ярослав
ярославль
ярса
ярсан
яру
ясак
ясм
ясная
ят
ята
ятарл
ятарла
ятарласа
ятл
ятла
ятне
ятпа
ятран
ятс
ятсем
ятсемпе
ятсене
яуза
яун
ях
яха
яхан
яхт
яч
яче
ячелле
ячепе
яш
яшка
яшки
ящук
ђ
є
і
іван
іванович
ім
ін
ј
љ
њ
ћ
џ
ѣ
ҏ
ґ
ғ
ҕ
җ
ҙ
қ
ҡ
ң
ҥ
ҧ
ҫ
ҫав
ҫаван
ҫаванпа
ҫавна
ҫавнашкал
ҫак
ҫака
ҫакан
ҫакна
ҫамрак
ҫамраксен
ҫапла
ҫар
ҫене
ҫеньял
ҫер
ҫертме
ҫершыв
ҫершыва
ҫершыван
ҫех
ҫеҫ
ҫимеҫ
ҫине
ҫинче
ҫинчен
ҫинчи
ҫиреп
ҫиреплетне
ҫити
ҫитне
ҫу
ҫук
ҫул
ҫула
ҫуле
ҫулле
ҫулсем
ҫулсен
ҫулсенче
ҫулсенчи
ҫулта
ҫулталак
ҫултан
ҫултанпа
ҫулти
ҫулхи
ҫулччен
ҫуменчи
ҫумне
ҫурална
ҫурене
ҫурла
ҫурт
ҫурҫер
ҫута
ҫутҫанталак
ҫывах
ҫын
ҫынна
ҫынни
ҫыннисем
ҫынсем
ҫынсен
ҫынсене
ҫыравҫи
ҫыран
ҫыраненче
ҫырна
ҫырса
ҫыханна
ҫҫ
ү
ұ
ҳ
ҷ
һ
ӈ
ӏ
ә
ө
ԋ
ԓ
ա
բ
գ
դ
ե
զ
է
ը
թ
ի
լ
խ
ծ
կ
հ
ղ
մ
յ
ն
շ
ո
չ
պ
ջ
ռ
ս
վ
տ
ր
ց
ւ
ք
և
א
ב
ג
ד
ה
ו
ז
ח
ט
י
כ
ל
ם
מ
ן
נ
ס
ע
פ
צ
ק
ר
ש
ת
ء
ا
ب
ة
ت
ث
ج
ح
خ
د
ر
ز
س
ش
ص
ض
ط
ظ
ع
غ
ف
ق
ك
ل
م
ن
ه
و
ى
ي
پ
چ
ک
گ
ہ
ۇ
ی
ە
ܐ
ܘ
ܪ
अ
क
ग
ज
त
द
ध
न
प
ब
म
य
र
ल
व
श
स
ह
ব
র
ল
க
ക
ങ
ന
മ
യ
ര
ല
ള
വ
า
་
ა
ბ
გ
დ
ე
ვ
ზ
თ
ი
კ
ლ
მ
ნ
ო
რ
ს
ტ
უ
ფ
ქ
ღ
ყ
შ
ც
ძ
წ
ხ
ჯ
ᄀ
ᄃ
ᄅ
ᄇ
ᄋ
ᄌ
ᄒ
ᅡ
ᅢ
ᅥ
ᅩ
ᅮ
ᅵ
ᆨ
ᆫ
ᆼ
ᠠ
ᠲ
‐
‑
‒
–
—
―
‖
‘
’
‚
“
”
„
†
•
…
‰
′
″
‹
›
€
ℏ
№
←
↑
→
↔
↷
⇒
∀
∂
∅
∇
∈
∏
∑
−
∗
∘
∞
∣
∫
∬
∼
≈
≡
≤
≥
⊗
⋅
⋮
⋯
⋱
③
④
⑦
─
│
┌
└
├
△
►
◊
⟶
⩽
⩾
⺀
⺄
⺆
⺈
⺊
⺌
⺕
⺝
⺸
⺼
⿰
⿱
⿲
⿳
⿴
⿵
⿶
⿷
⿸
⿹
⿺
⿻
、
『
』
〢
い
き
く
し
と
な
の
る
ん
コ
シ
ス
ト
ユ
ル
ン
・
ー
㇁
㇂
㇄
㇇
㇈
㇉
㇓
㐁
㐄
㐅
㐌
㐫
㐬
㐭
㐮
㐱
㑒
㒵
㒸
㒼
㓁
㓞
㔾
㕛
㕣
㖾
㘝
㚅
㚇
㚔
㚘
㝉
㝡
㝴
㝵
㞋
㞢
㞷
㠩
㠭
㠯
㡀
㡭
㡿
㢲
㢴
㣇
㣺
㥯
㪅
㫄
㫐
㫒
㫺
㬅
㬎
㬥
㬰
㲋
㳄
㷠
㸒
㸚
㸦
㼌
㼲
㽞
㿟
䀠
䂞
䍃
䏍
䒑
䖍
䖒
䖝
䖵
䙴
䚻
䜌
䝿
䡛
䧹
䪞
一
丁
丂
七
丄
丅
丆
万
丈
三
上
下
丌
不
与
丏
丐
丑
专
且
丕
世
丘
丙
业
东
丞
丢
丣
两
严
並
丨
丩
个
丫
丬
中
丮
丰
丱
串
丵
丶
丷
丸
丹
为
主
丽
丿
乀
乂
乃
久
乆
乇
么
义
之
乌
乍
乎
乏
乐
乑
乔
乖
乗
乘
乙
乚
乛
乜
九
乞
也
习
乡
乳
乾
亀
亅
了
亇
予
争
事
二
亍
于
亏
亐
云
互
亓
五
井
亘
亚
亜
亞
亟
亠
亡
亢
交
亥
亦
产
亨
亩
享
京
亭
亮
亯
亰
亲
亳
亶
亷
人
亻
亼
亾
仁
今
介
仌
从
仐
仑
仒
仓
仕
他
付
仝
代
令
以
任
企
伊
伏
伐
休
会
伯
但
位
何
佘
余
作
佥
使
來
侈
侌
侖
侯
侵
便
保
俞
信
修
倉
倍
候
倠
備
傳
僉
僕
儿
兀
允
兂
元
兄
充
兆
兇
先
光
兊
克
兌
免
兑
兒
兓
兔
党
兜
兟
入
全
兩
兪
八
公
六
兮
兰
共
关
兵
其
具
典
兹
兼
冀
冂
冃
冄
内
冈
冉
冊
冋
册
再
冎
冏
冐
冒
冓
冖
冗
冘
军
农
冝
冡
冥
冫
冬
冷
几
凡
凢
凵
凶
凷
凸
凹
出
函
凾
刀
刁
刂
刃
刄
刅
分
切
刍
刑
刕
刖
列
刘
则
初
別
利
别
到
制
刺
則
削
剌
前
剡
剽
劉
力
功
加
劦
助
劫
劳
劵
勃
勇
勉
勒
動
務
勞
勤
勹
勺
勻
勾
勿
匀
匂
包
匆
匈
匊
匋
匍
匕
化
北
匚
匝
匡
匪
匱
匸
匹
区
医
匽
匿
區
十
卂
千
卄
卅
卆
升
午
卉
半
卌
华
卑
卒
卓
单
卖
南
卜
卝
卞
占
卡
卢
卣
卤
卦
卩
卪
卬
卯
印
危
即
却
卵
卷
卸
卻
厂
厃
厄
历
厈
厉
厌
厓
厘
厚
原
厤
厥
厨
厭
厲
厶
厷
厸
去
厼
厽
叀
参
參
叅
又
叉
及
友
双
反
叐
发
叒
叔
叕
取
受
叚
叜
叟
口
古
句
另
叩
只
召
可
台
叱
史
右
叵
号
司
叹
吂
各
吅
合
吉
吊
吋
同
名
后
吏
向
吕
君
吝
吞
否
含
启
吳
吴
吹
吾
呂
呆
呈
告
员
呙
周
命
咅
和
咎
咠
咢
咨
咸
咼
哀
品
哉
員
哥
哲
唐
商
啇
問
啚
啬
啻
善
喜
喬
單
喿
嗇
噩
嚴
囊
囗
囘
囙
囚
四
回
囟
因
囧
囬
困
囱
囷
固
国
圂
圅
國
圍
圓
土
圡
圣
圥
在
圭
地
圶
圼
坐
坒
坚
坴
垂
垔
垚
埀
埋
城
埶
執
基
堂
堅
堆
堇
堯
塞
墨
壘
士
壬
壯
声
壳
壴
壹
壺
壽
夂
处
夅
夆
备
夊
夋
夌
复
夏
夒
夕
外
夗
夘
多
夜
夢
大
夨
天
太
夫
夬
夭
央
失
夲
头
夷
夸
夹
夻
夾
奂
奄
奇
奈
奉
奎
奏
奐
契
奓
奔
奚
奞
奠
奢
奥
奭
女
奴
奻
好
如
妄
妙
妟
妥
妻
妾
姑
委
姜
威
娄
婁
婴
嬰
嬴
子
孑
孔
孕
孖
字
存
孚
孛
孝
孟
季
孤
学
孫
孱
學
宀
宁
宂
它
宅
宇
守
安
宋
完
宏
宓
宗
官
定
宛
宜
宝
客
宣
室
宮
宰
害
家
容
宾
宿
寄
寅
密
富
寒
察
寧
審
寫
寬
寮
寸
对
寺
寻
寽
対
寿
封
尃
射
将
將
專
尉
尊
尋
尌
對
小
少
尒
尓
尔
尖
尗
尚
尞
尢
尣
尤
尧
尨
尭
就
尸
尹
尺
尻
尼
尽
尾
尿
局
居
屈
屋
屎
屏
屑
展
屖
屚
属
屠
屡
屬
屮
屯
屰
山
屵
屾
岁
岂
岑
岡
岩
岳
岸
峯
島
崇
崑
崔
崖
崙
崩
嵬
嶲
巂
巛
川
州
巟
巠
巢
巤
工
左
巧
巨
巩
巫
差
己
已
巳
巴
巷
巸
巻
巽
巾
巿
帀
市
布
希
帚
帛
帝
带
師
席
帶
常
干
平
年
幵
并
幷
幸
幺
幻
幼
幽
幾
广
広
庄
床
底
店
庚
府
度
庫
庭
庶
康
庸
廉
廌
廛
廣
廩
廴
延
廷
建
廾
廿
开
弁
弃
弄
弇
弋
式
弓
弔
引
弗
弘
弜
弟
弥
弦
弱
張
強
强
彊
彌
彎
彐
彑
当
彔
录
彖
彗
彡
形
彥
彦
彧
彭
彳
役
彼
往
待
律
徒
得
徙
從
復
微
徵
心
忄
必
忌
忍
志
忝
忠
忩
快
念
忽
忿
思
怠
急
怱
恆
恒
恩
恭
息
悉
患
悤
悲
悶
惠
惡
惢
愁
愈
意
愛
感
慈
慧
慮
憂
憲
應
戀
戈
戉
戊
戋
戌
戍
戎
成
我
戒
戔
或
戚
戠
戢
截
戲
戶
户
戹
戼
戾
房
所
扁
扇
手
扌
才
打
托
执
承
折
拉
拜
拿
掌
推
提
摩
支
攴
攵
收
攸
改
放
政
敄
敏
敕
敖
敗
敝
敞
敢
散
敦
敫
敬
数
敷
數
斂
文
斉
斊
斗
斤
斥
斩
斬
斯
新
方
於
施
斿
旁
旋
族
无
旡
既
旣
日
旦
旧
旨
早
旬
旱
旲
时
旾
昆
昇
昌
昍
明
昏
易
昔
昗
昜
星
春
昬
是
昱
昴
昷
時
晃
晋
晏
普
景
晶
智
暑
暴
曇
曩
曰
曲
曳
更
曷
書
曹
曼
曾
替
最
朁
會
月
有
朋
服
朔
朕
朗
望
朝
木
朩
未
末
本
札
朮
术
朱
朵
朶
朿
杀
李
杏
杜
束
条
来
東
杲
杳
松
析
林
枚
果
枝
枲
枼
某
柔
查
柬
柰
柴
栗
桀
桑
桼
梁
條
梟
梨
棘
棠
棥
森
楚
業
楽
榮
樂
樊
欠
次
欣
欮
欲
欶
欽
款
歆
歇
歛
止
正
此
步
武
歨
歪
歮
歯
歰
歲
歴
歷
歸
歹
歺
死
殳
段
殷
殸
殹
殺
殻
殿
毋
毌
母
每
毒
比
毕
毚
毛
毳
氏
氐
民
气
氣
水
氵
氶
氷
永
氺
氾
求
汉
汝
汞
江
沃
沓
沙
沝
沢
河
泉
法
波
泣
泥
泰
洛
洪
活
派
流
浦
浪
浮
海
淡
淮
清
渚
渠
湯
滿
漢
漸
火
灬
灭
灰
灵
灷
炅
炎
炏
炗
炙
炭
為
烈
烏
烝
焉
無
焦
焱
然
煞
熊
熏
燕
營
燮
爪
爫
爭
爯
爰
爱
爲
爵
父
爻
爽
爾
爿
片
版
牙
牚
牛
牜
牟
牢
牧
牪
牽
犀
犬
犭
犮
狂
狄
狊
独
狺
猋
猒
猪
献
獻
玄
率
玉
王
玟
玨
珎
班
琴
瑟
瑩
瓜
瓦
甘
甚
生
産
用
甫
甬
田
由
甲
申
电
甶
男
甸
甹
画
甾
畀
界
畏
畐
留
畜
畟
畢
畧
畨
番
畫
異
畱
當
畺
畾
疊
疋
疌
疑
疒
疾
癶
癸
癹
登
發
白
百
皀
皃
的
皆
皇
皋
皐
皕
皮
皷
皿
盃
盆
盇
盈
益
盍
盎
监
盒
盖
盛
盡
監
盤
盧
目
直
相
盾
省
眇
眉
看
眔
眞
真
眷
眼
眾
着
睘
睪
睿
瞏
瞢
瞿
矍
矛
矞
矢
矣
知
矦
短
石
破
碎
磊
磨
示
礻
礼
社
祟
票
祭
禀
禁
禸
禹
禺
离
禽
禾
禿
秀
秃
秉
秋
科
秝
秦
移
稟
穀
穌
穴
究
穹
空
穿
突
窄
窒
立
竒
竜
竝
竟
章
童
竹
笑
笠
第
筆
等
答
箕
算
箴
節
篤
篭
米
粉
粛
粟
粤
粦
粲
糞
糸
糹
系
約
納
素
索
紫
累
細
絜
絫
絲
維
綿
縣
繇
纍
纟
缶
网
罒
罔
罕
罗
罙
罡
罢
罪
署
罷
羅
羊
羌
羍
美
羔
羕
羗
羞
羡
羣
群
義
羲
羸
羽
翁
翏
習
翕
翟
翠
翼
老
耂
考
者
耆
而
耎
耑
耒
耳
耴
耶
耷
聂
聊
聖
聚
聶
聿
肀
肃
肅
肉
肖
肙
肥
肩
肯
育
肴
胃
背
胡
胥
能
脊
脩
膚
臣
臤
臧
自
臬
臭
臯
臱
至
致
臺
臼
臽
臾
臿
舀
舂
舄
與
興
舉
舌
舍
舛
舜
舞
舟
般
艮
良
色
艸
艹
艾
芒
芔
芬
芮
花
芳
芺
芻
苔
苗
苟
若
苦
英
茶
茸
荅
草
荒
荣
荼
莆
莧
莫
莽
菆
菊
菐
華
萬
落
葉
著
葛
董
葵
蒙
蒦
蒼
蓋
蓬
蓺
蔑
蔡
蕉
蕭
薄
薛
薦
薰
藍
藏
藥
蘭
虍
虎
虐
虒
虔
處
虖
虗
虘
虚
虛
虜
虞
虫
虽
蚤
蚩
蜀
蜜
蟲
蠡
血
行
衍
衛
衣
衤
表
衮
衰
袁
袞
褭
褱
襄
襾
西
覀
要
覃
見
規
覓
覧
親
覽
见
角
解
言
訁
訇
計
詹
語
誩
諸
讠
语
谷
豆
豈
豊
豐
豕
豖
豙
象
豦
豩
豪
豸
貇
貝
貞
貟
負
貢
貧
貪
貫
責
貳
貴
買
費
賁
資
賈
賏
賓
賔
賛
賞
賢
賣
質
賴
贊
贝
贡
责
贯
贲
贵
赖
赞
赤
赦
走
越
足
路
蹇
身
躬
車
軍
軎
軟
輦
车
辛
辜
辞
辟
辥
辰
辱
農
辵
辶
边
达
过
近
连
迷
追
退
送
逆
逐
通
速
造
逢
連
逮
進
遀
遂
過
道
達
遣
適
遷
遺
邊
邑
邕
那
邦
邪
郎
部
郭
都
鄉
酉
酋
配
酓
釆
采
里
重
野
量
金
釒
錢
钅
長
镸
长
門
閃
閉
開
閏
閑
閒
間
閔
閵
閻
闌
门
间
闷
阑
阜
阝
阿
降
陳
隆
隊
隋
隡
隨
隱
隶
隹
隺
隻
隼
隽
难
雀
雁
集
雈
雋
雍
雐
雔
雙
雚
雜
雝
離
難
雨
雩
雪
雲
零
雷
需
霍
霜
霝
霞
霸
靈
靑
青
非
靡
面
靣
革
韋
韦
韭
韯
韱
音
頁
頃
項
須
頗
頡
頻
顛
页
風
风
飛
飞
食
飠
養
饣
首
香
馬
馮
駦
马
骨
高
髟
鬥
鬯
鬲
鬼
魚
魯
鮮
鱼
鲁
鳥
鳳
鸟
鹵
鹿
麃
麗
麥
麦
麻
黃
黄
黍
黎
黑
黒
黨
黹
黽
黾
鼎
鼓
鼠
鼻
齊
齋
齐
齒
齿
龍
龙
龜
龟
龠
龰
龱
龴
龵
龶
龷
龸
龹
者
艹
？
�
𠀁
𠀃
𠀆
𠀉
𠀎
𠀐
𠁁
𠁣
𠂆
𠂇
𠂈
𠂉
𠂊
𠂋
𠂎
𠂒
𠂔
𠂛
𠂡
𠂢
𠂤
𠂬
𠂭
𠂹
𠃊
𠃋
𠃌
𠃍
𠃎
𠃑
𠃓
𠃔
𠃜
𠄌
𠄎
𠄠
𠄢
𠆢
𠆥
𠇍
𠈌
𠌵
𠓜
𠔉
𠔥
𠔼
𠔽
𠔿
𠕀
𠕁
𠕋
𠘧
𠘨
𠙻
𠙼
𠚏
𠚒
𠚤
𠚪
𠣏
𠤎
𠤕
𠥓
𠦄
𠦑
𠦝
𠧒
𠧗
𠧪
𠩺
𠪚
𠫓
𠫔
𠫤
𠬛
𠬝
𠬞
𠬢
𠬤
𠬶
𠮛
𠮦
𠮷
𠯑
𠱠
𠳮
𠷎
𡈼
𡉀
𡉵
𡌥
𡍮
𡏳
𡕒
𡕩
𡕰
𡖅
𡗗
𡗜
𡘆
𡘤
𡧱
𡨄
𡩧
𡬠
𡭽
𡰣
𡰥
𡰪
𡰯
𡰱
𡷈
𡸁
𡿨
𡿩
𡿪
𡿺
𢀖
𢀛
𢀩
𢁙
𢆉
𢆰
𢆶
𢇁
𢇇
𢉖
𢌬
𢌿
𢏚
𢑑
𢑚
𢖻
𢙣
𢛳
𢦏
𢦒
𢧵
𢼄
𢾕
𣁋
𣄼
𣅀
𣅽
𣍘
𣎳
𣎵
𣏋
𣏼
𣗥
𣥂
𣥖
𣦵
𣦼
𣧄
𣪊
𣪠
𣬉
𣳾
𣶒
𤇾
𤊽
𤐫
𤓰
𤔔
𤕨
𤣩
𤰇
𤰔
𤰞
𤴓
𤴔
𤽄
𥁑
𥁕
𥃦
𥃩
𥃭
𥇡
𥑟
𥘅
𥘈
𥝢
𥫗
𥱡
𦈢
𦉪
𦉬
𦉼
𦍌
𦍒
𦎧
𦐇
𦓔
𦔮
𦘒
𦙃
𦚏
𦣝
𦣞
𦣻
𦥑
𦥔
𦥯
𦨉
𦭝
𦰩
𧆞
𧈧
𧘇
𧰨
𧴪
𧴮
𧵩
𧾷
𨸏
𨾴
𩙿
𩠐
𩫏
𩵋
𪉷
𪜀
𪟽
𪠲
𪩲
𫇦
𫔭
𫜸
𫝀
𫠣
𫠩
𫢉
𫥞
𫩏
𫩠
𫪡
𫲽
𫶧
𬀷
𬐘
𬗌
𬙙
𬛸
𬜯
𬟩
𬯁
𬴘
𬺻
𬼉
𬼖
𭀰
𭁈
𭁨
𭅰
𭑈
𭕄
𭗼
𭤨
𭥫
𭻾
𮅕
𮊿
𮍌
𮍏
𮓗
𮥼
𮧮
廾
𰀁
𰀄
𰀈
𰀉
𰀕
𰀠
𰀡
𰀢
𰀪
𰁜
𰃮
𰆊
𰆘
𰋙
𰕎
𰢴
𰧭
𰯲
0--
000--
001--
01--
014--
02--
03--
03010--
0302010011210--
03020100212103--
03020100312103--
030203005--
03020300512103--
0303000011210--
030300002--
03030000312103--
0304000011210--
0305010011210--
03050100212103--
030502001--
03050200112103--
030503001--
03050300112103--
0306000011210--
04--
05--
05010300112--
06--
06020000712108--
06020001112108--
06030000312109--
07--
0702000011--
07020000712108--
08--
080102001121--
080102004121--
080103001121100--
08010500212--
09--
090102001121--
090102004121--
0901030081211--
09010301112--
1--
100102002121111--
100102007121111--
100102010121111--
100102013121111--
100102015121111--
100102016121111--
100103002--
100103003--
100103004--
100103005--
102--
103--
107--
108--
109--
110--
11010000412112--
11010000512112--
111--
112--
115--
120--
12010000612112--
130--
130101002--
130101003--
130102002--
130102003--
130102003121151--
130102005--
130102006--
130102007--
130102007121152--
130103001--
130105001121152--
130106001121152--
130107001121152--
130108001--
130109001--
130111001--
130111002--
140102001--
140105019--
140105022--
140106001121153--
150--
1502010011211530002--
167--
2--
3--
4--
429--
450--
452--
453--
5--
51--
55--
57--
58--
59--
6--
60--
61--
62--
63--
66--
68--
69--
7--
70--
71--
72--
73--
74--
75--
76--
77--
78--
79--
8--
80--
8025883--
81--
82--
83--
84--
85--
86--
87--
88--
89--
9--
90--
91--
92--
93--
94--
95--
96--
97--
978--
98--
99--
aa--
ab--
ac--
ad--
admini--
adve--
ae--
af--
ag--
ah--
ai--
air--
ak--
al--
alba--
alex--
all--
am--
an--
anal--
anat--
ange--
anthropo--
anti--
anto--
ap--
appe--
aq--
ar--
arch--
as--
astr--
astrop--
at--
au--
av--
ax--
az--
azer--
ba--
balt--
barc--
be--
bern--
bh--
bi--
bibl--
biblio--
biogra--
biol--
bl--
bloo--
bo--
bour--
br--
brea--
bu--
buil--
bulg--
by--
ca--
calc--
came--
camp--
caro--
cast--
cat--
cc--
ce--
cele--
cent--
ch--
cham--
chan--
char--
chil--
chri--
chrono--
ci--
circ--
citi--
cl--
cn--
co--
coll--
colo--
com--
communi--
conc--
cond--
conf--
conn--
cons--
cont--
conv--
corr--
cosmo--
coun--
cr--
crea--
crit--
cs--
cu--
cy--
da--
dd--
de--
demo--
demons--
di--
dial--
diff--
differ--
dire--
disc--
dist--
distri--
do--
dr--
du--
dy--
ea--
eb--
ec--
ed--
ee--
ef--
eg--
ei--
el--
elec--
elli--
else--
em--
en--
engl--
enviro--
ep--
eq--
equa--
equi--
er--
es--
et--
eu--
ev--
ever--
eversm--
ex--
expl--
exte--
ey--
fa--
fe--
fi--
fisc--
fl--
fo--
foot--
for--
fr--
fran--
fred--
frei--
fu--
fund--
ga--
gala--
gall--
ge--
gene--
geo--
gh--
gi--
gl--
gm--
go--
gott--
gr--
gram--
grif--
gu--
ha--
he--
hein--
her--
hi--
ho--
holl--
hr--
ht--
hu--
hy--
hydr--
ia--
ic--
id--
iden--
ie--
ig--
il--
illust--
im--
in--
indi--
indu--
infl--
inst--
inter--
inve--
io--
ip--
ir--
is--
iso--
it--
iu--
iv--
ja--
je--
ji--
jo--
ju--
just--
ka--
kara--
ke--
kh--
ki--
kl--
kn--
know--
ko--
kr--
ku--
la--
le--
lehr--
leon--
les--
li--
lite--
lith--
ll--
lo--
lu--
ly--
ma--
mac--
magn--
mala--
man--
mar--
mate--
maur--
mc--
me--
meas--
mech--
memo--
mess--
metrop--
mi--
mich--
micr--
mini--
miss--
mo--
mono--
mont--
monu--
move--
mu--
mult--
my--
myth--
na--
navi--
nb--
ne--
news--
ni--
no--
nu--
nume--
ny--
ob--
ober--
obse--
oc--
od--
oe--
of--
og--
oh--
ok--
ol--
om--
on--
op--
open--
or--
orie--
os--
ot--
pa--
pant--
par--
patr--
pe--
per--
ph--
phi--
philo--
phylog--
pi--
pl--
plat--
po--
poli--
poly--
port--
pr--
prac--
pres--
prim--
pro--
ps--
pu--
py--
qa--
qu--
ra--
raph--
re--
recons--
regi--
rein--
rela--
reli--
retr--
rf--
rh--
ri--
ro--
rota--
ru--
ry--
sa--
san--
sate--
sc--
scha--
schl--
scho--
schr--
schw--
se--
sele--
sh--
si--
silv--
simu--
sk--
sl--
slov--
sm--
sn--
so--
sp--
spec--
sq--
sr--
st--
stan--
stat--
stoc--
stra--
stru--
su--
subs--
sum--
sv--
sw--
sy--
syn--
sz--
ta--
tata--
taxo--
te--
teac--
tele--
temp--
terr--
text--
th--
ti--
to--
tr--
trans--
trea--
ts--
tu--
tw--
ty--
ug--
uk--
ul--
um--
un--
up--
ur--
us--
ut--
va--
vale--
var--
ve--
vi--
vo--
vy--
wa--
war--
we--
web--
wh--
wi--
wiki--
wissen--
wo--
wort--
wr--
wy--
xa--
xx--
ya--
ye--
yo--
yu--
za--
ze--
zh--
zi--
zo--
zt--
zu--
zw--
а--
аб--
аба--
аббревиа--
абду--
абсо--
абу--
ав--
авант--
авар--
авер--
авиа--
авл--
австр--
авто--
аг--
ага--
аги--
аглом--
агр--
агро--
агу--
ад--
адел--
адриа--
адъют--
аз--
аза--
аи--
аикки--
аит--
ак--
ака--
академ--
аквар--
аки--
акк--
акку--
актив--
акту--
акц--
акци--
акцион--
ал--
ала--
але--
алес--
али--
алл--
алт--
алф--
аль--
ам--
ама--
амари--
аменхо--
ами--
амо--
ан--
ана--
андер--
андж--
андр--
анже--
ани--
анк--
анла--
ано--
ант--
анти--
анто--
антро--
антропо--
анф--
ань--
ао--
ап--
апа--
апат--
апол--
апп--
апт--
апу--
ар--
ара--
арбу--
аргу--
арес--
ари--
арл--
арм--
армян--
арт--
ару--
арх--
ас--
аса--
асап--
асаплан--
аспир--
ассамб--
ассо--
ассоциа--
аст--
астро--
ат--
ата--
ау--
ауди--
аудио--
аур--
аф--
афо--
ах--
ахтя--
ач--
ача--
аш--
аэр--
аэро--
аяк--
аҫ--
б--
ба--
баб--
баг--
бад--
баи--
бак--
бал--
балаба--
балы--
баль--
бам--
бан--
бар--
бас--
бах--
бе--
бед--
беж--
без--
безопас--
беи--
бек--
бел--
бело--
бель--
бен--
бер--
берд--
бере--
беро--
берт--
бес--
бесе--
беспо--
бет--
бех--
беш--
би--
биб--
библеи--
био--
бирю--
бит--
бл--
бла--
благо--
ближ--
блок--
бо--
боб--
бог--
бого--
богус--
бод--
бож--
божест--
бол--
болез--
боло--
бон--
бор--
боро--
бос--
бот--
бояр--
бр--
бра--
бре--
брез--
брет--
бри--
брилли--
бро--
броне--
бронет--
брош--
бру--
бры--
брыз--
бу--
буб--
буга--
буде--
будущ--
будь--
буз--
буи--
бук--
бул--
буль--
бун--
бур--
бус--
бут--
бух--
буч--
бы--
быв--
быто--
бь--
бюр--
в--
ва--
важ--
ваз--
ваи--
вак--
вал--
ван--
вар--
вара--
вас--
ват--
вах--
ваш--
вве--
вви--
вво--
вдо--
ве--
веде--
веж--
вез--
век--
вел--
великоб--
вен--
вене--
вер--
верен--
верни--
веро--
верхо--
вет--
веч--
вещ--
веҫ--
вз--
вза--
взаимо--
взят--
ви--
вид--
видео--
виз--
визу--
вики--
вил--
виль--
вин--
вир--
вирту--
вис--
вит--
вк--
вклю--
вл--
вла--
влад--
влади--
влюб--
вне--
вну--
во--
вод--
водо--
вож--
воз--
вои--
вол--
волж--
воло--
володи--
волшеб--
волын--
воль--
воор--
вор--
вос--
воск--
воскресен--
воспо--
восс--
вось--
вот--
воя--
впа--
вр--
вра--
врон--
вс--
все--
вспо--
встре--
вся--
вт--
втор--
ву--
вук--
вул--
вун--
вур--
вхо--
вхож--
вы--
выб--
выби--
выдающ--
выз--
вып--
выпол--
выра--
высо--
высоком--
выст--
выступ--
вь--
вьен--
вяз--
вят--
ві--
г--
га--
гаа--
габ--
газ--
гаи--
гале--
гали--
галу--
галь--
гам--
ган--
ганг--
гар--
гарм--
гварде--
ге--
геб--
гель--
ген--
гео--
гер--
герш--
ги--
гиб--
гибра--
гидр--
гидро--
гиза--
гиль--
гиля--
гине--
гл--
глин--
гло--
глоб--
глу--
глубо--
гне--
гни--
го--
гол--
голо--
гон--
гор--
горба--
горо--
горь--
гос--
гоф--
гр--
гра--
граб--
град--
гре--
греб--
гребен--
грен--
гри--
гро--
гру--
гря--
гряз--
гу--
губ--
гуд--
гуз--
гуль--
гун--
гусь--
гуц--
д--
да--
давл--
даим--
дал--
дан--
дат--
дв--
две--
двига--
движ--
де--
дев--
девят--
дед--
деж--
дез--
деист--
деиствит--
дек--
декаб--
дел--
демо--
демокра--
демон--
дер--
держ--
деся--
дет--
деф--
дефек--
деят--
дж--
джа--
джен--
джиб--
джо--
джор--
джул--
дз--
дзержин--
ди--
диа--
диас--
дивер--
дик--
дими--
диноз--
дирек--
дис--
диск--
диско--
диф--
дифференци--
дми--
днев--
до--
доб--
доба--
добро--
дов--
дог--
дож--
доз--
док--
доказа--
доль--
дом--
домо--
дон--
доп--
дополни--
доро--
дорож--
дости--
досто--
др--
дра--
драк--
древ--
древне--
дрез--
дро--
дрожж--
ду--
дуб--
дубров--
дуд--
дуда--
дун--
духов--
ды--
дь--
дэ--
дю--
дяги--
е--
ев--
еванг--
евро--
ед--
еди--
единст--
еж--
еже--
ез--
еи--
ек--
екатерино--
ел--
еле--
ели--
ело--
ель--
ем--
емер--
ен--
ене--
еп--
ер--
ере--
еро--
еры--
ес--
ет--
ех--
еш--
еҫ--
еҫе--
ж--
жавор--
жал--
же--
желез--
железно--
желт--
жем--
жен--
жер--
жерт--
жест--
жи--
жив--
живот--
жига--
жигу--
жид--
жиз--
жизне--
жир--
жо--
жол--
жу--
жуж--
з--
за--
заб--
заболев--
забы--
зав--
заве--
заво--
завоева--
загр--
заж--
заимство--
закр--
зал--
зам--
заме--
замес--
зан--
заним--
занимат--
зап--
запис--
зарубеж--
засл--
зац--
защит--
зво--
звон--
звуч--
звягинц--
здо--
здр--
зеб--
зем--
зен--
зиг--
зим--
зин--
зиновь--
злато--
зло--
зме--
зна--
зо--
зол--
золот--
зон--
зоотех--
зор--
зри--
зу--
зуб--
и--
иа--
иб--
ив--
игр--
игу--
ид--
ие--
иезуи--
иер--
иж--
из--
изв--
изг--
изготов--
изд--
изло--
изоб--
изобретат--
изот--
ии--
ик--
икк--
ил--
иле--
или--
илл--
иллюс--
ило--
илт--
иль--
им--
име--
иммуни--
имп--
импер--
имущ--
ин--
инв--
индо--
индук--
ине--
инерци--
иници--
ино--
интелли--
интен--
интер--
инф--
инфра--
инци--
ио--
ион--
ип--
ир--
ире--
ирт--
ис--
иск--
искан--
исклю--
испол--
исполни--
исполь--
испыт--
испытат--
ист--
исче--
исчез--
ит--
ите--
ито--
иу--
иун--
их--
ич--
иш--
иыт--
к--
ка--
каб--
каба--
кабар--
кав--
кад--
каж--
каз--
каи--
как--
кал--
кала--
калли--
каль--
кам--
кама--
камен--
камер--
кан--
кап--
капит--
кар--
кара--
кардио--
карто--
кас--
касат--
кат--
каф--
ках--
кац--
кач--
каш--
каҫ--
кв--
квад--
кварк--
ке--
кел--
кель--
кем--
кен--
кенигс--
кер--
кет--
ки--
кив--
киз--
кил--
киле--
кило--
ким--
кин--
кино--
кир--
кист--
кит--
киш--
кк--
кки--
кл--
кла--
клавиа--
клан--
кле--
клю--
км--
кн--
книж--
кня--
княж--
княже--
ко--
коб--
ков--
когни--
кож--
коже--
кожев--
коз--
козь--
кок--
кол--
колеба--
колы--
коль--
ком--
комби--
кон--
конве--
конде--
конденсиро--
кондр--
конс--
консер--
консерватор--
контр--
конц--
коор--
кор--
кораб--
коро--
корона--
корот--
коршу--
косм--
космиче--
космо--
кост--
кот--
котло--
коч--
коше--
коэффициен--
кр--
кра--
крав--
красно--
кре--
кри--
крипто--
кро--
круп--
кры--
крым--
кс--
ку--
куб--
кув--
кудр--
куз--
кузне--
кузь--
кук--
кул--
кулин--
кум--
кун--
куп--
кур--
кура--
куст--
кут--
куш--
куҫ--
куҫар--
кх--
кш--
кы--
кып--
кыргыз--
кь--
кэр--
л--
ла--
лав--
лад--
лаз--
лаи--
лак--
лам--
лан--
лап--
лар--
лас--
лат--
лах--
лаш--
ле--
леб--
лебе--
лев--
лег--
лед--
леж--
лез--
лезги--
леи--
лек--
лекарст--
лекци--
лем--
лен--
лени--
лео--
лепе--
лес--
лет--
леш--
ли--
либ--
либер--
ливер--
лигу--
лик--
лим--
лин--
лит--
лито--
лиценз--
лич--
лк--
лла--
лли--
лмач--
ло--
лоба--
лод--
лож--
лоз--
лок--
лом--
лос--
лох--
лпа--
лт--
лта--
лу--
луго--
луж--
луиз--
лук--
лун--
луч--
лха--
лч--
лы--
лыж--
лых--
ль--
лю--
люб--
люд--
ля--
лягу--
лі--
м--
ма--
мавр--
маг--
маге--
маго--
мад--
маз--
маи--
маил--
мак--
мал--
мало--
малы--
маль--
мам--
мамон--
ман--
манда--
мануфак--
мар--
мари--
мас--
мат--
маф--
мах--
мач--
мая--
мг--
ме--
мег--
мед--
медиа--
меж--
мез--
мел--
мело--
мель--
мему--
мен--
мер--
мероприят--
мес--
месопот--
место--
мет--
мета--
мех--
мещ--
мещер--
ми--
миг--
миз--
микр--
микро--
микроб--
мил--
мило--
мин--
мир--
миро--
митри--
мих--
мк--
мл--
мла--
мми--
мн--
мне--
много--
мо--
моби--
мог--
модиф--
мож--
моз--
мол--
молда--
моло--
мон--
моно--
монре--
монумен--
мор--
морд--
моро--
мохо--
мощ--
мпа--
мс--
му--
муж--
мул--
муль--
мун--
муници--
муниципал--
мур--
мус--
муссо--
мух--
мушк--
мш--
мы--
мэ--
мюз--
мюс--
мя--
мяг--
мяк--
н--
на--
наб--
наби--
наблю--
нав--
нага--
нагр--
над--
наж--
наз--
наза--
назыв--
наи--
накат--
накл--
нали--
нало--
нам--
намес--
нан--
напи--
напол--
нар--
нас--
наслаж--
наступ--
нат--
нау--
нах--
национа--
нг--
ндро--
не--
неандер--
неб--
невз--
невр--
нега--
недо--
неж--
нез--
неза--
неи--
неиз--
неки--
некр--
нем--
нен--
нео--
необ--
непо--
непос--
непри--
нер--
нерав--
нес--
нет--
неу--
неф--
нефт--
ни--
ниж--
ниже--
низ--
ник--
никес--
николь--
ним--
нин--
нищ--
нк--
нла--
нлан--
нле--
нн--
но--
нов--
ново--
новоде--
новоро--
новот--
нож--
номин--
нор--
нос--
ноч--
нра--
нс--
нт--
ну--
нуж--
нумиз--
нур--
нч--
нче--
нь--
нью--
ню--
нюр--
ня--
няр--
о--
об--
обер--
обеспе--
обит--
облаҫ--
обнов--
обо--
обоз--
обозна--
обор--
оборудо--
обращ--
обсер--
обслуж--
обстоят--
обу--
общ--
обще--
объ--
объе--
объя--
объяв--
обы--
обыкно--
обязат--
ов--
ог--
ога--
огл--
огр--
оде--
одеж--
одно--
ожид--
оз--
озв--
озвуч--
озна--
ои--
ок--
ока--
окон--
окончат--
окси--
ол--
олек--
оль--
ом--
он--
оно--
онто--
оп--
опис--
опол--
оппози--
опред--
оптим--
ор--
орг--
ориен--
орни--
ору--
осв--
осен--
оси--
оск--
осл--
осно--
основ--
осо--
ост--
оста--
от--
отд--
отказ--
откр--
откро--
отли--
относ--
отоб--
отобра--
отс--
оф--
офици--
оформ--
ох--
охв--
охлобы--
охо--
оцен--
оче--
оши--
п--
па--
паб--
пав--
паи--
пак--
пал--
пала--
палео--
палла--
паль--
пам--
пан--
пап--
пар--
пара--
паро--
пас--
пат--
пата--
пау--
пах--
паха--
пахму--
пач--
пб--
пе--
пед--
пек--
пел--
пен--
пер--
перво--
первон--
пере--
пери--
пет--
петро--
печ--
пещ--
пи--
пик--
пил--
пин--
пир--
пись--
пит--
пих--
пиц--
пич--
пищ--
пк--
пл--
пла--
плаги--
план--
плат--
племян--
пло--
плов--
плодо--
плот--
площ--
плут--
пля--
пнев--
по--
поб--
побе--
пове--
повт--
под--
подраз--
пое--
пож--
пожало--
пожар--
поз--
позд--
пози--
поклон--
покр--
покровс--
пол--
полик--
полит--
полицеи--
поло--
полу--
получ--
помер--
помещ--
пон--
поне--
поним--
поп--
популяр--
пор--
пора--
поро--
пос--
посет--
после--
посмо--
пост--
потре--
потреб--
похв--
похищ--
похож--
поц--
поч--
поче--
поя--
появ--
пр--
пра--
праз--
празд--
пре--
превращ--
пред--
предна--
преж--
преобра--
преодо--
препод--
преступ--
прже--
при--
привлекат--
приго--
приготов--
прием--
прим--
приоб--
присо--
прист--
про--
прогу--
продолж--
продук--
прож--
произ--
произве--
производи--
прокура--
просвет--
прото--
проф--
проц--
проч--
прощ--
пру--
пря--
пс--
псих--
психиа--
психо--
психот--
пт--
пу--
пуго--
пуз--
пул--
пула--
пуле--
пур--
пура--
пус--
пут--
путешествен--
пух--
пуш--
пуҫ--
пчело--
пш--
пы--
пыр--
пыт--
пь--
пьет--
пя--
пяр--
пят--
р--
ра--
раб--
рабо--
рав--
рад--
радио--
радо--
раз--
разно--
раи--
раион--
рак--
рам--
ран--
рас--
распи--
располо--
распред--
рассмот--
рат--
рах--
рациона--
рв--
ре--
реаби--
реали--
реаль--
рев--
ревиз--
револь--
рег--
ред--
режис--
рез--
резид--
резь--
рек--
рекон--
релятив--
рем--
реме--
рен--
рес--
рет--
реф--
рефлек--
рец--
реценз--
рецеп--
реч--
реш--
ри--
рик--
рим--
римля--
рис--
рисо--
риф--
рк--
рка--
рке--
рки--
рла--
рлат--
рлеш--
рма--
рман--
рме--
рми--
рна--
рне--
рни--
ро--
род--
родст--
рож--
рожде--
роз--
розен--
ромо--
рос--
рот--
рр--
ррис--
рс--
рте--
ртл--
рту--
ру--
руб--
руба--
рубе--
руд--
руз--
руко--
рум--
рус--
руч--
рф--
рх--
рхат--
рч--
рш--
ры--
рыб--
рыж--
рь--
рюм--
ря--
ряби--
ряз--
с--
са--
саб--
саба--
сав--
сад--
садо--
садов--
саит--
сак--
сала--
саль--
сам--
само--
сан--
сана--
санит--
сап--
сапа--
сапож--
сар--
сара--
сас--
сах--
сб--
св--
све--
свер--
сверк--
свид--
свияж--
своб--
свое--
связ--
свят--
свящ--
се--
севас--
седь--
сеи--
сек--
сел--
сель--
сельскохозя--
сем--
сен--
сент--
сень--
сер--
сере--
сереб--
серебр--
сереж--
сет--
сех--
си--
сиби--
сибирс--
сив--
сии--
сик--
сикк--
сил--
силь--
сим--
син--
синемато--
сини--
сино--
сис--
ск--
ска--
скан--
ске--
ски--
скиф--
скри--
скры--
сл--
сла--
слав--
сле--
сло--
слобод--
слож--
слу--
служ--
слы--
см--
смеш--
сми--
смор--
сн--
сни--
сно--
со--
соб--
собст--
собствен--
сов--
сог--
согл--
содер--
сое--
сож--
соз--
созда--
создат--
сол--
сон--
сор--
сорев--
соро--
сосед--
софр--
сочет--
спа--
спе--
спец--
спи--
спир--
спл--
спло--
спо--
ср--
сра--
сравни--
сре--
средне--
сс--
ст--
ста--
стар--
старо--
стаци--
стек--
стен--
сти--
сто--
сторо--
стр--
стрем--
стри--
струк--
стуч--
су--
суб--
субъ--
субъек--
сугму--
судо--
суз--
сул--
суллан--
сум--
сун--
суп--
супер--
сур--
сус--
сухо--
сущ--
сущес--
существо--
сфер--
схе--
сход--
сц--
съ--
съем--
сы--
сыв--
сыз--
сып--
сыр--
сыт--
сых--
сыщ--
сь--
сэ--
сю--
сюн--
сюр--
ся--
т--
та--
таб--
табас--
тав--
таи--
так--
тал--
таль--
там--
тан--
тап--
тар--
тат--
тах--
таш--
тв--
твер--
твор--
творче--
те--
тез--
теи--
тек--
текто--
тел--
теле--
телерадио--
тем--
тен--
тео--
теп--
тепче--
тер--
термо--
тес--
тет--
техниче--
теш--
ти--
тив--
тивеҫ--
тил--
тим--
тин--
тип--
типо--
тир--
тирпе--
тиф--
тк--
тл--
тме--
то--
тои--
ток--
толко--
толс--
том--
топ--
топо--
тор--
тот--
тощ--
тр--
тра--
трав--
традицион--
траек--
транс--
тре--
требо--
трен--
три--
триго--
тридц--
тро--
тру--
труп--
тря--
ту--
туберк--
туи--
тук--
тул--
тум--
тун--
туп--
тур--
турт--
тус--
тух--
туя--
ты--
тыр--
тыт--
ть--
тэ--
тю--
тюл--
тюль--
тюм--
тюмен--
тюр--
тюрк--
тюрь--
тют--
тя--
тяже--
у--
убеди--
уби--
увелич--
уга--
уган--
угл--
угло--
угор--
угр--
уда--
удивит--
удо--
удоб--
удовлет--
уес--
уж--
уз--
уи--
ук--
укр--
ул--
ула--
улуч--
улш--
уль--
ум--
ун--
унив--
уник--
унич--
уол--
уор--
уп--
упа--
упом--
употреб--
ур--
ура--
ури--
уро--
урт--
ус--
успен--
уст--
установ--
устраи--
ут--
ута--
утеш--
ути--
утом--
утрав--
утта--
уфим--
ух--
ухо--
уч--
участ--
участво--
учред--
учреж--
ущ--
уэи--
уяв--
уҫ--
ф--
фа--
фаб--
фад--
фаз--
фаль--
фан--
фанта--
фаши--
фашист--
фе--
федер--
федо--
феи--
фен--
фео--
феодо--
феокт--
фер--
фес--
фет--
фи--
фигу--
физ--
физичес--
фил--
филад--
филат--
фило--
филь--
фильм--
фин--
фир--
фиш--
фли--
флю--
фо--
фон--
фото--
фр--
фра--
фрак--
фреи--
френ--
фрид--
фу--
фуку--
фундамен--
фіз--
х--
ха--
хаб--
хав--
хавхал--
хавхалант--
хавшак--
хаи--
хак--
хал--
хам--
хан--
хап--
хар--
хат--
хатер--
хаҫ--
хв--
хво--
хе--
хен--
хер--
хетт--
хеҫ--
хи--
хим--
хир--
хит--
хитек--
хл--
хла--
хле--
хо--
ход--
хозя--
хозяист--
холо--
хор--
хорео--
хоро--
хр--
хри--
хромо--
хроно--
хс--
ху--
хул--
хум--
хун--
хуп--
хур--
хуска--
хут--
хух--
хуч--
хуш--
хуҫ--
ххи--
хы--
хыр--
хэ--
хэи--
ц--
цап--
цар--
цв--
це--
цеза--
цеи--
цел--
цен--
ценз--
цз--
ци--
цивиль--
цин--
цы--
цыга--
цып--
ч--
ча--
чаиковс--
чака--
чан--
чар--
чара--
час--
часту--
чат--
че--
чеи--
чел--
чело--
чем--
чемо--
чен--
черв--
чере--
черн--
черны--
чесн--
четв--
чехо--
чеч--
чж--
чи--
чиж--
чик--
чин--
чир--
чирл--
числ--
чист--
чисто--
чиче--
чл--
чо--
чон--
чор--
чрезвы--
чу--
чуж--
чук--
чул--
чуман--
чун--
чуп--
чура--
чух--
ш--
ша--
шаб--
шав--
шаи--
шак--
шал--
шам--
шамб--
шан--
шап--
шар--
шаф--
шах--
шв--
ше--
шев--
шевл--
шел--
шем--
шер--
ши--
шин--
шк--
шка--
шкул--
шл--
шла--
шле--
шли--
шм--
шма--
шн--
шнаи--
шо--
шок--
шол--
шор--
шп--
шпа--
шпиц--
шре--
шт--
штан--
штат--
шти--
штрас--
шу--
шум--
шур--
шут--
шухаш--
шыв--
шыр--
щ--
ще--
щедр--
щел--
щеп--
щер--
щет--
ъ--
ы--
ыв--
ывхар--
ыит--
ыл--
ылмаш--
ын--
ыр--
ыра--
ыру--
ыт--
ых--
ь--
э--
эб--
эвр--
эд--
эди--
эи--
эизен--
эиф--
эк--
экви--
экз--
эко--
экс--
эксплу--
экспо--
эл--
эле--
электро--
эль--
эмб--
эмиг--
эмо--
эн--
энерге--
энерго--
эп--
эпид--
эпидем--
эр--
эрз--
эри--
эс--
эскимо--
эст--
эт--
эти--
этниче--
этно--
этр--
эф--
эффек--
эх--
ю--
юби--
юж--
юз--
юл--
юла--
юлн--
юм--
юмор--
юн--
юно--
юп--
юпа--
юпи--
юр--
юра--
юридиче--
юс--
ют--
юх--
юха--
юшк--
я--
яб--
ябло--
яв--
яг--
ядр--
ядрин--
яз--
языч--
языче--
як--
яка--
яку--
якубо--
ял--
яле--
ялт--
ям--
ян--
яна--
янк--
янт--
яп--
яр--
яра--
яро--
яру--
ят--
ях--
яче--
яш--
ящ--
ђ--
і--
ҫ--
ҫав--
ҫал--
ҫалкуҫ--
ҫар--
ҫен--
ҫер--
ҫии--
ҫип--
ҫите--
ҫу--
ҫул--
ҫура--
ҫыв--
ҫых--
ال--
--0
--0
--00
--001
--002
--003
--004
--005
--006
--01
--02
--03
--04
--05
--06
--07
--08
--09
--1
--1
--10
--11
--12
--13
--14
--15
--16
--17
--18
--19
--2
--2
--20
--21
--22
--23
--24
--25
--26
--27
--28
--29
--3
--3
--30
--31
--32
--33
--34
--35
--36
--37
--38
--39
--4
--4
--40
--41
--42
--43
--44
--45
--46
--47
--48
--49
--5
--5
--50
--51
--52
--53
--54
--55
--554
--56
--57
--58
--59
--6
--6
--60
--61
--62
--63
--64
--65
--66
--67
--68
--69
--7
--7
--70
--71
--72
--73
--74
--75
--76
--77
--78
--79
--8
--8
--80
--81
--82
--83
--84
--85
--86
--87
--870
--88
--89
--9
--9
--90
--91
--914
--92
--93
--94
--95
--96
--97
--98
--99
--a
--able
--ac
--ach
--ad
--ade
--ae
--age
--ah
--ai
--ail
--ain
--ais
--ak
--al
--ale
--alis
--am
--an
--ana
--ance
--ani
--anic
--ano
--ans
--ant
--ap
--aph
--aphy
--ar
--ara
--ard
--ari
--ary
--as
--ase
--at
--ata
--ate
--ated
--ation
--ations
--au
--aux
--av
--ay
--b
--ba
--be
--ber
--berg
--ble
--box
--by
--c
--ca
--cal
--ce
--ceae
--ced
--cer
--ces
--ch
--chi
--cht
--ci
--ck
--co
--con
--cs
--ct
--cts
--cum
--cus
--cy
--d
--da
--dae
--de
--di
--dia
--do
--dra
--ds
--duction
--dy
--e
--ea
--ean
--eau
--eb
--ec
--ect
--ed
--edia
--ee
--ei
--ek
--el
--ela
--ell
--els
--em
--eme
--ement
--en
--ence
--ens
--ense
--ensis
--ent
--ental
--ents
--eo
--er
--era
--ere
--ered
--erg
--eri
--ern
--ers
--ert
--erte
--ery
--es
--ess
--et
--etic
--ets
--ett
--eur
--eus
--ev
--ever
--ex
--ey
--ez
--f
--fe
--ff
--g
--ga
--ge
--gen
--ger
--ges
--ght
--gle
--go
--graphy
--gs
--gton
--h
--ha
--haft
--ham
--he
--hen
--hes
--hi
--hin
--hing
--ht
--hts
--hy
--i
--ia
--ial
--ic
--ica
--ical
--ich
--ick
--ico
--ics
--icum
--id
--ida
--idae
--ide
--ie
--ied
--iel
--ien
--ier
--ies
--ig
--ige
--ii
--ik
--il
--ile
--ill
--im
--in
--ina
--ine
--ing
--ings
--ini
--ino
--ins
--io
--ion
--ional
--ione
--ions
--ious
--ique
--ir
--ire
--irs
--is
--ise
--ish
--ision
--ism
--ist
--ists
--it
--itan
--ite
--ites
--ities
--ity
--ium
--ius
--ive
--ix
--j
--ja
--k
--ka
--ke
--ken
--ker
--kh
--ki
--ko
--kov
--ks
--ky
--l
--la
--land
--lar
--las
--ld
--le
--len
--ler
--let
--ley
--li
--lia
--lie
--lin
--lis
--ll
--lla
--lle
--lli
--lly
--lo
--ls
--lt
--lus
--ly
--m
--ma
--man
--me
--mer
--mes
--mi
--mic
--mo
--ms
--my
--n
--na
--nas
--nce
--nd
--nda
--nds
--ne
--nen
--ner
--nes
--ness
--ney
--ng
--ngen
--ngs
--ni
--nia
--nic
--nik
--ning
--nis
--nment
--nn
--nna
--nne
--no
--ns
--nse
--nsis
--nt
--nta
--ntal
--nts
--nus
--ny
--o
--ock
--od
--oe
--ogie
--ogy
--ok
--ol
--ola
--oli
--olia
--olm
--olo
--ology
--om
--ome
--on
--ona
--onal
--ong
--ons
--ont
--ony
--ood
--or
--ora
--ord
--ore
--orm
--ormes
--ors
--ort
--ory
--os
--ot
--ous
--out
--ov
--ova
--ow
--ox
--p
--pa
--pe
--port
--ps
--q
--r
--ra
--ral
--ram
--rd
--re
--ren
--res
--ret
--rey
--rg
--ri
--ria
--rie
--ris
--rix
--rn
--ro
--ron
--rov
--rs
--rt
--ru
--rum
--ry
--s
--sa
--sch
--sche
--schen
--se
--sen
--ser
--ses
--sh
--si
--sia
--sian
--sion
--sis
--sk
--ska
--ski
--sky
--sm
--so
--son
--sov
--ss
--sse
--st
--ster
--sty
--sus
--t
--ta
--tal
--tan
--tary
--te
--ted
--ten
--ter
--ters
--tes
--th
--thy
--ti
--tial
--tic
--ties
--tik
--tin
--ting
--tion
--tions
--tive
--tn
--to
--ton
--tor
--tory
--ts
--tt
--tta
--tte
--tu
--tum
--tus
--ty
--tz
--u
--ua
--ual
--ud
--ue
--uel
--ues
--uit
--ul
--ula
--ule
--ult
--um
--un
--ung
--ungen
--ur
--ura
--ure
--ures
--urg
--urs
--us
--ut
--ux
--v
--va
--ve
--vo
--w
--wa
--well
--wil
--x
--y
--ya
--yn
--ys
--z
--za
--ze
--zer
--ı
--α
--η
--ις
--ον
--ος
--ς
--а
--аб
--ав
--аве
--ави
--авление
--авлении
--авления
--авне
--аг
--ага
--ад
--ада
--адзе
--аев
--ает
--ается
--аж
--аз
--аи
--ак
--акан
--аков
--аково
--акт
--ал
--ала
--алар
--але
--али
--ализм
--алка
--алл
--алла
--ало
--алов
--алось
--ался
--алы
--аль
--альная
--альнои
--альные
--альныи
--ам
--ама
--аме
--ами
--ан
--ана
--анг
--анд
--ани
--ание
--ании
--ания
--анка
--анма
--анн
--ано
--анов
--анова
--ант
--ану
--аны
--ань
--анья
--ао
--ап
--апи
--апии
--апия
--ар
--ара
--ард
--аре
--арев
--ари
--аринче
--аров
--арь
--ас
--аса
--асен
--асов
--асси
--ась
--ат
--ата
--атель
--ати
--ативл
--ативныи
--атка
--атн
--ато
--атов
--атор
--атыи
--ать
--аться
--ау
--аф
--афи
--ах
--аха
--ахе
--ахен
--ахне
--аци
--ации
--ацилен
--ация
--ач
--ачев
--аш
--аше
--ашев
--ашне
--аэдр
--аю
--ают
--аются
--ающии
--ающих
--ая
--аҫҫе
--б
--ба
--бад
--баев
--баи
--бан
--бат
--бах
--баш
--ббс
--бе
--бер
--бери
--бет
--беч
--би
--бик
--бин
--бка
--бл
--бные
--бныи
--бо
--бол
--бр
--бу
--бург
--бут
--в
--ва
--вает
--ван
--вание
--ват
--вать
--вают
--вая
--ве
--вед
--ведов
--ведческие
--веи
--венная
--венныи
--венных
--вер
--вес
--вец
--вець
--ви
--вие
--вии
--вик
--вица
--вич
--вка
--вке
--вки
--вкин
--вку
--вл
--вли
--влять
--вн
--вно
--вныи
--во
--вов
--вого
--вое
--вои
--вок
--вом
--впа
--вск
--вскии
--ву
--вцов
--вшие
--вшии
--вы
--вые
--выи
--вым
--вых
--г
--га
--гал
--гали
--ган
--гар
--гари
--гас
--гат
--гать
--гауз
--гач
--гачев
--ге
--гель
--ген
--гер
--ги
--гиев
--гиз
--гии
--гин
--гина
--гия
--го
--гов
--говыи
--гон
--гр
--град
--гсем
--гу
--гуа
--гул
--гут
--гута
--д
--да
--дам
--дар
--даш
--де
--дев
--деи
--дем
--ден
--дер
--десят
--дж
--джа
--джи
--дзе
--дзи
--дзь
--ди
--дин
--дия
--дка
--дки
--дл
--дная
--днеи
--дно
--дного
--дное
--дные
--дныи
--до
--дов
--дова
--дор
--дора
--дорф
--дос
--дот
--дпа
--др
--дра
--дри
--дро
--дс
--дсем
--дсен
--дствии
--дт
--ду
--дук
--дуков
--дукт
--дукци
--дукции
--дукч
--дун
--дур
--ды
--дыи
--дык
--дыш
--дь
--дье
--дья
--дюк
--дя
--е
--еб
--ебныи
--ев
--ева
--еве
--евич
--евка
--ево
--евои
--евскии
--евского
--евые
--евыи
--ег
--ед
--еда
--едение
--ее
--еев
--еева
--еж
--ежныи
--ез
--еи
--еии
--еика
--еин
--ек
--ека
--еке
--екен
--еки
--еккеи
--ел
--ела
--еле
--ели
--елка
--ело
--елы
--ель
--ельно
--ельные
--ельныи
--еля
--ем
--ема
--еме
--еми
--емпе
--емы
--ен
--ена
--енд
--ене
--ени
--ение
--ением
--ении
--ению
--ения
--енка
--енко
--енков
--енкова
--енн
--енная
--енно
--енного
--енное
--еннои
--енном
--енности
--енные
--енныи
--енным
--енных
--ено
--енов
--енок
--енсе
--енск
--енскии
--енское
--ент
--енц
--енцов
--енче
--енчен
--енчи
--ены
--ень
--еньга
--ео
--еон
--еп
--епе
--епи
--ер
--ера
--ерат
--ератор
--ерг
--ери
--ерии
--ерин
--ерл
--еро
--еров
--ерс
--еры
--ес
--еса
--есе
--есем
--есемпе
--есен
--есене
--есенче
--есенчен
--еские
--ескии
--еских
--ескои
--есс
--есса
--есси
--ест
--еств
--ества
--ество
--ести
--естные
--ет
--ета
--ете
--ети
--етии
--етик
--етика
--етики
--етка
--етки
--етн
--етов
--ется
--етт
--етта
--етти
--еты
--еть
--ех
--ехал
--ец
--ецкии
--ецсем
--еч
--ечка
--ечныи
--еш
--ешь
--ея
--еҫ
--еҫҫе
--ж
--жа
--жды
--же
--жи
--жина
--жка
--жки
--жная
--жные
--жныи
--жо
--жоу
--жу
--жья
--з
--за
--заков
--зан
--зания
--зас
--затор
--зать
--заци
--зации
--зация
--зв
--здат
--зе
--зен
--зер
--зи
--зии
--зин
--зина
--зит
--зия
--зка
--зм
--зма
--змы
--зные
--зных
--зо
--зу
--зы
--зь
--зя
--и
--иа
--иал
--иальная
--иан
--иана
--иат
--иач
--иб
--ив
--ивать
--иваться
--ивл
--ивная
--ивное
--ивныи
--ивных
--иво
--ивыи
--иг
--ига
--игин
--ид
--ида
--идер
--идзе
--идсен
--иды
--ие
--иев
--иеи
--ием
--из
--изаци
--изации
--изацилен
--изация
--изд
--издат
--изм
--изма
--ии
--ик
--ика
--икат
--ике
--ики
--икин
--ико
--иков
--ил
--ила
--илась
--или
--илии
--ились
--илл
--ило
--илов
--илось
--ился
--иль
--им
--има
--иман
--имасть
--имен
--ими
--имо
--имов
--имость
--имые
--имыи
--ин
--ина
--иная
--инг
--ингтон
--ине
--ини
--инии
--иник
--инка
--ино
--инов
--инова
--иное
--инои
--инскии
--инского
--ину
--инче
--ины
--иные
--иныи
--иным
--иных
--инь
--иня
--ио
--иолог
--ион
--ип
--ипе
--ипов
--ир
--ире
--ири
--ирование
--ирования
--ированные
--ировать
--ировка
--ис
--иса
--исем
--исен
--исене
--иск
--иская
--иские
--искии
--иских
--иского
--иское
--искои
--ист
--истика
--истическая
--истические
--истических
--истическое
--истическои
--истов
--истсем
--исты
--исч
--ись
--ит
--ита
--ите
--итет
--итов
--итон
--итор
--ится
--иты
--ить
--иться
--иус
--иф
--их
--иха
--ихин
--ихон
--иц
--ица
--ицеи
--ици
--иции
--ицкая
--ицкии
--ицы
--ицын
--ич
--ичев
--иченко
--ическая
--ически
--ические
--ическии
--ическим
--ических
--ического
--ическое
--ическои
--ическом
--ична
--ичная
--ично
--ичные
--ичныи
--иш
--ишь
--ище
--ищев
--ию
--ия
--иях
--к
--ка
--каи
--кал
--ками
--кан
--кас
--касси
--ках
--кая
--ке
--кевич
--кеи
--кел
--кен
--кенсем
--кер
--кеш
--ки
--кие
--кии
--кин
--кина
--кино
--кипе
--ких
--кк
--кка
--ккаи
--кке
--ккеи
--кки
--кл
--клад
--ко
--ков
--кова
--ково
--ковскии
--ковыи
--кого
--кои
--ком
--коп
--кс
--кса
--кт
--ку
--кул
--кур
--кус
--кции
--кша
--кян
--л
--ла
--лав
--лама
--лан
--лана
--лани
--ланма
--лар
--ласа
--лась
--лать
--лах
--лаха
--лахе
--лая
--ле
--лев
--левскии
--леги
--леме
--лен
--ление
--ленко
--лесе
--лет
--летсе
--лех
--ли
--ливо
--ливыи
--лизм
--лии
--лин
--лине
--лис
--лисен
--лись
--лка
--лл
--лла
--лле
--лли
--ллине
--лн
--лна
--ло
--лов
--лова
--ловка
--лог
--логи
--логии
--логия
--лои
--лом
--лон
--лось
--лся
--лу
--лы
--лые
--лыи
--лык
--лым
--ль
--льд
--льная
--льно
--льного
--льное
--льнои
--льные
--льныи
--льных
--льченко
--ля
--ляет
--ляли
--лян
--ляр
--лять
--м
--ма
--мад
--мал
--ман
--мар
--мас
--мат
--маци
--маш
--мб
--ме
--меи
--меистер
--мек
--мен
--меннои
--ми
--мик
--мит
--мка
--мне
--мни
--мо
--мов
--мпе
--мскои
--му
--мум
--мут
--мы
--мыш
--мэ
--н
--на
--наи
--нак
--нал
--нах
--ная
--нг
--нга
--нген
--нд
--нда
--ндеев
--не
--нев
--нее
--неи
--нелле
--нение
--нер
--нец
--ни
--ние
--нии
--ник
--ника
--ники
--ников
--никова
--нин
--нине
--нипе
--нисем
--нисен
--них
--ниц
--ница
--ницкии
--ницы
--ничать
--нию
--ния
--нк
--нка
--нке
--нки
--нко
--нков
--нл
--нма
--нн
--нна
--нная
--нни
--нно
--нного
--нное
--ннои
--нности
--нные
--нныи
--нным
--нных
--но
--нов
--нова
--новка
--новскии
--ного
--ное
--нои
--нок
--ном
--ному
--ностеи
--ности
--ность
--нпа
--нс
--нса
--нск
--нская
--нски
--нские
--нскии
--нского
--нскои
--нт
--нтеи
--нтл
--нто
--ну
--нуть
--ную
--нц
--нцев
--нцы
--нч
--нче
--нчен
--нчи
--нчук
--ны
--ные
--ныи
--ным
--ными
--ных
--нь
--нья
--нюк
--нюю
--ня
--нял
--няли
--нять
--няя
--о
--об
--обныи
--ов
--ова
--ован
--ование
--овании
--ованию
--ования
--овать
--овая
--ове
--овед
--оведения
--овец
--овик
--овица
--ович
--овк
--овка
--овке
--овки
--овлении
--овления
--овна
--овного
--овные
--овныи
--овня
--ово
--ового
--овое
--овои
--овом
--овпа
--овск
--овская
--овски
--овские
--овскии
--овских
--овское
--овскои
--овском
--ову
--овую
--овы
--овывать
--овые
--овыи
--овым
--овых
--овья
--ог
--ога
--оги
--огии
--огия
--ого
--огов
--огр
--оград
--ографи
--од
--ода
--оди
--одить
--одка
--одныи
--одных
--оду
--оды
--ое
--ож
--ожныи
--ожня
--оз
--оза
--озов
--ои
--оид
--ок
--оки
--око
--оков
--окол
--окс
--ол
--оле
--оли
--олнить
--олнять
--оло
--олог
--ологи
--ологии
--ологические
--ологическии
--ология
--оль
--ольское
--оля
--ом
--ома
--оми
--омо
--ому
--он
--она
--онал
--онализм
--онг
--онд
--оне
--они
--онии
--онка
--онная
--онного
--онное
--оннои
--онные
--онныи
--онных
--онт
--оны
--онь
--оп
--опа
--опи
--опов
--ополь
--ор
--ора
--ораци
--орд
--оре
--ори
--ории
--орин
--ория
--орка
--орт
--оры
--ос
--оса
--осец
--оси
--осса
--ости
--ость
--ось
--от
--ота
--оти
--отик
--отин
--ото
--отов
--оты
--оть
--оться
--оу
--офон
--ох
--охин
--оч
--очка
--очки
--очкин
--очная
--очно
--очное
--очные
--очныи
--очных
--очь
--ош
--оша
--ошь
--ою
--оя
--оящии
--п
--па
--паи
--пах
--пе
--пеи
--пен
--пех
--пи
--пис
--писеи
--писи
--пкии
--пл
--по
--пов
--пс
--пт
--пу
--пы
--р
--ра
--рад
--ран
--рах
--рации
--рд
--ре
--рев
--реи
--рек
--рен
--рех
--ри
--рии
--рин
--рипе
--рит
--рих
--рия
--рк
--рка
--рл
--рма
--рме
--рн
--рни
--рные
--рныи
--рных
--ро
--ров
--рова
--рование
--ровании
--рования
--ровать
--рович
--ровка
--роика
--роить
--рон
--роне
--роп
--рс
--рса
--рск
--рскии
--рт
--рта
--ру
--рф
--рх
--рц
--рч
--ры
--рыв
--рь
--ря
--с
--са
--саи
--сал
--сан
--сар
--сбах
--се
--сем
--семпе
--семш
--сен
--сене
--сенче
--сенчен
--сенчи
--сер
--си
--сие
--сии
--син
--сина
--сине
--сипе
--сит
--сить
--сиш
--сия
--ск
--ска
--ская
--скер
--ски
--ские
--скии
--ским
--скими
--скин
--ских
--ско
--ского
--ское
--скои
--ском
--скому
--ску
--скую
--сл
--сли
--сло
--слу
--сна
--со
--сов
--сон
--сп
--сс
--сса
--сси
--ссин
--ссине
--ст
--ста
--ств
--ства
--стве
--стви
--ствие
--ствия
--ство
--ством
--ству
--стеи
--сти
--стка
--стного
--стов
--стсем
--стсен
--сты
--стыи
--сть
--стях
--су
--сч
--сш
--сы
--сык
--сь
--ськии
--сья
--ся
--т
--та
--таев
--таж
--таи
--тан
--тар
--тас
--тау
--тая
--тв
--тва
--тво
--те
--теи
--тели
--тель
--теля
--тен
--тер
--тет
--ти
--тиер
--тизм
--тии
--тик
--тика
--тики
--тин
--тино
--тис
--тисем
--тись
--тическая
--тическии
--тия
--тка
--тки
--тко
--тл
--тла
--тле
--тли
--тма
--тн
--тна
--тная
--тне
--тно
--тного
--тное
--тные
--тныи
--тных
--то
--тов
--това
--тович
--тон
--тона
--тор
--тп
--тпа
--тр
--тров
--тса
--тсем
--тскии
--тся
--тт
--ттан
--ттар
--ту
--тур
--туры
--туш
--тч
--ты
--тые
--тыи
--тых
--ть
--ться
--тью
--тья
--тэ
--тюк
--тя
--у
--уа
--уар
--уаци
--уб
--убе
--ув
--уг
--уга
--уги
--уд
--уда
--ует
--уз
--узен
--уи
--ук
--ука
--укан
--уков
--укци
--укции
--укция
--ул
--ули
--улин
--улл
--улярл
--улятор
--ум
--умныи
--умов
--ун
--унов
--унок
--уны
--унь
--уп
--ур
--ура
--ург
--уров
--ус
--уси
--уся
--ут
--уть
--уф
--ух
--уха
--ухин
--ухов
--уции
--уч
--уш
--уша
--ушк
--ушка
--ушкин
--уэр
--ую
--уют
--ующие
--уя
--ф
--фа
--фе
--фер
--фи
--фии
--фикаци
--фикации
--фикация
--фин
--фия
--фт
--фф
--фы
--х
--ха
--хе
--хи
--хин
--хн
--хне
--хов
--хова
--ход
--ходит
--ху
--хы
--хэ
--ц
--ца
--цать
--це
--цев
--цево
--цзян
--ци
--цие
--цизм
--ции
--циле
--цилен
--цилл
--цин
--цине
--ционныи
--ципе
--цисем
--цию
--ция
--цк
--цкая
--цки
--цкии
--цкого
--цкое
--цо
--цов
--цова
--цовка
--цу
--ццо
--цы
--цын
--ч
--ча
--чая
--че
--чев
--чева
--чевскии
--чек
--чен
--ченко
--чер
--ческая
--ческие
--ческии
--ческим
--ческих
--ческого
--ческое
--ческои
--ческом
--ческую
--чет
--чи
--чивыи
--чии
--чик
--чика
--чиков
--чиха
--чица
--чка
--чки
--чков
--чная
--чно
--чного
--чное
--чности
--чные
--чныи
--чным
--чных
--чо
--чок
--чу
--чук
--чч
--ччен
--чь
--чья
--ш
--ша
--шан
--шая
--ше
--шев
--шевскии
--шего
--шеи
--шен
--шепе
--ши
--шие
--шии
--шин
--шир
--ших
--шк
--шка
--шкин
--шко
--шл
--шн
--шна
--шне
--шни
--шнии
--шняя
--шов
--шок
--штеин
--шу
--шую
--шш
--шь
--щ
--ща
--щая
--ще
--щев
--щение
--щенко
--щи
--щик
--щиков
--щина
--щица
--щные
--ъ
--ъю
--ъял
--ы
--ыв
--ывает
--ывать
--ыг
--ыгин
--ые
--ыи
--ык
--ыков
--ыл
--ыль
--ым
--ыма
--ыми
--ын
--ынь
--ып
--ыр
--ыс
--ыт
--ыта
--ыто
--ытыи
--ых
--ыч
--ыш
--ышев
--ыя
--ь
--ьбе
--ьва
--ьга
--ьд
--ьда
--ье
--ьев
--ьевна
--ьел
--ьем
--ьер
--ьера
--ьи
--ьк
--ька
--ьки
--ькии
--ькка
--ько
--ьков
--ьм
--ьма
--ьми
--ьн
--ьная
--ьник
--ьников
--ьно
--ьного
--ьное
--ьнои
--ьном
--ьные
--ьныи
--ьным
--ьных
--ьо
--ьон
--ьпе
--ьс
--ьск
--ьская
--ьскии
--ьских
--ьского
--ьское
--ьскои
--ьском
--ься
--ьт
--ьте
--ьф
--ьц
--ьцев
--ьцов
--ьцы
--ью
--ья
--ьяк
--ьял
--ьян
--ьянов
--ьянова
--э
--эи
--эл
--эль
--эм
--эн
--ю
--юг
--югин
--юи
--юк
--юка
--юков
--юн
--юр
--юрт
--юс
--ют
--ютин
--ются
--юх
--юхин
--юш
--юшев
--ющая
--ющего
--ющие
--ющии
--ющих
--я
--ябр
--яг
--ягин
--яд
--яев
--яет
--яется
--яж
--яи
--як
--якин
--ял
--яли
--яль
--ям
--ями
--ян
--янныи
--янов
--яр
--ярная
--яров
--яс
--ят
--ятно
--ятныи
--ятся
--ять
--яться
--ях
--яш
--ящие
--ящии
--ђе
--і
--ів
--іи
--іч
--ія
--ҫ
--ҫа
--ҫе
--ҫен
--ҫи
--ҫла
--ҫна
--ҫу
--ҫҫе
--ә
--ән
