!
"
#
##0
##1
##10
##11
##12
##13
##14
##15
##16
##17
##18
##19
##2
##20
##21
##22
##23
##24
##25
##26
##27
##28
##29
##3
##30
##31
##32
##33
##34
##35
##36
##37
##38
##39
##4
##40
##41
##42
##43
##44
##45
##46
##47
##48
##49
##5
##50
##51
##52
##53
##54
##55
##56
##57
##58
##59
##6
##60
##61
##62
##63
##64
##65
##66
##67
##68
##69
##7
##70
##71
##72
##73
##74
##75
##76
##77
##78
##79
##8
##80
##81
##82
##83
##84
##85
##86
##87
##88
##89
##9
##90
##91
##92
##93
##94
##95
##96
##97
##98
##99
$
%
&
'
(
)
*
+
,
-
.
/
0
00
000
000085
001
002
003
004
005
006
007
008
01
010
011
012
013
014
015
016
017
018
019
02
021
023
024
025
026
027
028
029
03
030
031
032
033
034
035
037
038
039
04
041
042
044
045
046
047
048
049
05
051
052
053
056
057
058
059
06
060
061
062
065
067
07
070
071
072
073
075
076
077
079
08
080
081
082
083
084
085
088
089
09
090
091
092
094
095
096
097
098
099
1
10
100
1000
1001
1007
101
1010
1012
101207543
1014
101490
1015
1019
102
1020
1021
1024
103
1030
10304263
104
104244355
105
1050
1054
1059
106
1068
107
107212659
107343683
107456632
1075
1078
108
1080
10855166
109
1093
1095
11
110
1100
110250907
111
11148
112
113
11305732
1135
1136
1137
114
1146
1147
114752493
1148
115
1150
1151
1152
1154
1155
1157
1158
116
1160
1165538
1167
117
1170
1175
118
1184
1185
11896574
119
12
120
1200
1201876
1206
121
1212
1214
12148
1216
1217
122
1220
1222
1224
1225
1227
123
1230
1232629
1234
1235
1237
1238
1239
124
1240
1241
1246
1248
125
1250
1252
1253
126
1263
1265
1266
1268
127
1270
1275
1276
128
1280
1283
1285
1288
129
1290
1293
1295
1297
1299
13
130
1300
1307356
1308
131
1310
1312
1314
132
1320
1322
1323
1324
1325
1326
1328
133
1336
1339
134
1340
1341
1345
1346
1348
1349
135
1350
1352
1353
1354
13550863
1356
1359
136
1360
1362
1364
1366358
1368
137
1371
1373513
1377
138
1380
1382
1387
1389
139
1390
1394
14
140
1400
1403
1408
141
1410
142
1420342
1429
143
1430
1431
1434
144
1440
1448
145
1450
1452
1453
1453477
1457
1459
1459210
146
1460
1462
1466106
1468
1469
147
1470
1471
1474
1475
1478
148
1480
1483
1485
149
1492
1493
1494
1495
1496
1497
1499
15
150
1500
1501
1502
1503
1504
1505
1506
151
1510
1512
1513
1514
1515
1519
152
1520
1521
1522
15222191
1524
15241312
1525
1526
1528
1529
153
1531
1532
1533
1535
1536
1537
1538
1539
154
1540
1541
1542
1543
1545
1547
1547776
1548
155
1550
1551
1552
1553
1555
1556
1558
156
1560
1561
1563
1564
1565
1566
1567
1569
157
1570
15706812
1571
1572
1573
1575
1576
1577
1578
158
1580
1581
1583
1584
1586
1589
159
1590
1593
1594
1595
1596
1597
1598
1599
16
160
1600
1603
1605
1606
1608
1609
161
1610
1611
1612
1613
1614
1615
1616
1617
1618
1619
162
1620
1621
1622
1623
1624
1626
1627
1628
1629
163
1630
1631
1632
16323066
1634
1635
1636
1637
1638
1639
164
1640
1641
1642
1643
1644
1645
1646
1647
1648
1649
165
1650
1652
1653
1654
1655
1656
166
1660
1661
1662
1663
1664
1665
1666
1667
1668
1669
167
1670
1671
1672
1673
1674
1675
1676
1678
1679
168
1680
1681
1682
1683
1684
1685
1686
1687
1689
169
1690
1691
1693
1694
1695
1696
1697
1698
16983137
1699
17
170
1700
1701
170109
1702
1703
1704
1706
1707
1708
1709
171
1710
1711
1712
1713
1714
1716
1717
1718
1719
172
1720
1721
1722
1723
1724
1725
1726
1727
1728
1729
17299517
173
1730
1732
1733
1734
1735
1736
1737
17373699
17378135
1738
1739
174
1740
1741
1742
1743
1744
1745
1746
1747
1748
1749
175
1750
1751
1752
1753
1754
1755
1756
17565097
1757
1758
1759
176
1760
1761
1762
1763
1764
1765
1766
1767
1768
1768199
1769
177
1770
1771
1772
1773
1774
1775
1776
1777
1778
1779
178
1780
1781
1782
1783
1784
1785
1786
1787
1788
1789
179
1790
1791
1792
1793
1794
1795
1796
1797
1798
1798125
1799
18
180
1800
1801
1802
1803
1804
1805
1806
1807
1808
1809
181
1810
1811
1812
1813
1814
1815
1816
1817
1818
1819
182
1820
1821
1822
1823
1824
1825
1826
1827
1828
1829
183
1830
1831
1832
1833
1834
1835
1836
1837
1838
1839
184
1840
1841
1842
1843
1844
1845
1846
1847
1848
1849
185
1850
1851
1852
1853
1854
1855
1856
1857
1858
1859
186
1860
1861
1862
1863
1864
1865
1866
1867
1868
1868372
1869
18696256
187
1870
1871
1872
1873
1874
1875
1876
1877
1878
1879
188
1880
1881
1882
1883
1884
1885
1886
1887
1888
1889
189
1890
1891
1892
1893
1894
1895
1896
1897
1898
1899
19
190
1900
1901
1902
19025604
1903
1904
1905
1906
1907
1908
1909
191
1910
1911
1912
1913
1914
1915
1916
1917
1918
1919
192
1920
1921
1922
1923
1924
1925
1926
1927
19276262
1928
1929
193
1930
1931
1932
1933
1934
1935
193563
1936
19368470
1937
1938
1939
194
1940
1941
1942
1943
1944
1945
1946
1947
1948
1949
195
1950
1951
1952
1953
1954
1955
1956
1957
1958
1959
196
1960
1961
1962
1963
1964
1965
1966
1967
1968
1969
197
1970
1971
1972
1973
1974
1975
1976
1977
1978
1979
198
1980
1981
1982
1983
1984
19847326
19847329
1985
1986
1987
1988
1989
199
1990
19908137
1991
1992
1993
19938912
19939115
1994
1995
1996
1997
1998
1999
2
20
200
2000
2001
2002
2003
2004
2005
20056651
2006
2007
2008
2009
201
2010
2011
2012
2013
2014
2015
2016
2017
2018
2019
202
2020
2021
2022
2023
2024
2025
203
204
205
2050
206
207
208
20824348
209
21
210
211
212
213
214
21401824
21431157
21491701
215
216
217
217595
218
219
2199
22
220
221
222
223
224
225
2256716
226
22681075
227
228
229
23
230
2300
23023088
231
232
233
234
235
236
237
237227
238
239
24
240
2400
241
242
24255573
243
244
2449070
245
246
2464
247
248
249
24933120
2494649
25
250
2500
251
252
253
254
255
25504413
256
256507
257
258
2586178
259
26
260
261
262
2629164
263
264
265
266
2664168
267
268
269
27
270
2700
271
2714676
272
2720582
273
27302
274
2743906
275
276
277
278
279
28
280
2800
2807
281
2818964
282
283
284
2846567
285
286
287
2876969
2877812
288
2886420
289
29
290
291
292
293
294
295
296
297
298
29861311
299
3
30
300
3000
30059240
301
302
302817
303
304
304037
305
3055
306
307
308
309
31
310
3100478
311
3118641
312
313
314
315
316
317
318
319
31964
32
320
3200
321
322
323
324
324303
325
326
327
328
329
33
330
331
332
333
334
3343389
335
336
3362041
337
338
339
34
340
3407324
341
342
34217
343
344
345
346
347
348
349
35
350
3500
351
352
353
354
355
356
3561957
357
358
359
36
360
3600
361
362
3621644
363
364
365
36578
366
367
368
369
37
370
371
372
373
37312
374
375
376
377
378
379
38
380
3803714
381
382
383
384
384602
385
386
387
388
389
39
390
391
392
393
394
395
396
397
398
39845173
399
4
40
400
4000
401
402
403
404
405
406
4065721
407
408
409
41
410
411
412
413
4135787
414
414110
415
41599984
416
41640909
417
418
419
42
420
4200
421
422
423
4239850
424
4249594
425
426
427
428
429
43
430
431
432
433
434
435
436
437
438
439
44
440
441
442
443
444
445
446
447
448
449
45
450
451
452
453
454
455
456
457
458
459
46
460
461
462
463
464
464633
465
466
467
468
469
47
470
471
472
473
474
475
476
477
478
479
48
480
481
482
483
484
485
486
487
488
489
49
490
491
492
493
494
495
496
496126
497
498
499
5
50
500
5000
501
502
503
504
504063
505
506
5061737
507
508
509
51
510
511
512
513
51343652
514
5145336
515
517
518
519
52
520
5200
521
522
523
523660
524
525
526
527
528
529
53
530
531
532
533
534
535
536
537
5375741
538
539
54
540
541
542
543
544
545
546
547
547473
548
54837
549
55
550
551
552
553
554
555
556
557
55740543
558
559
56
560
5607942
561
562
563
564
565
566
56691875
567
568
569
57
570
571
572
573
574
575
576
577
579
58
580
581
582
583
584
585
586
587
588
589
59
590
591
592
593
594
595
596
597
598
599
6
60
600
6000
601
602
6023365
602358
603
604
605
606
607
608
609
61
610
611
612
613
61356138
614
615
616
617
618
619
62
620
621
622
6229
623
624
625
626
627
628
629
63
630
63056
631
632
633
634
635
637
638
639
64
640
641
642
643
644
645
646
647
648
648625
649
65
650
6500
651
652
653
654
655
656
657
658
659
66
660
661
662
664
665
666
667
668
669
67
670
671
67129259
672
673
674
675
676
677
678
679
68
680
681
682
683
683543
683713
686
687
688
689
69
690
691
692
693
694
694826
695
696
697
698
7
70
700
7000
701
702
704
705
706
707
708
709
71
710
711
712
713
714
715
716
717
718
719
719880
72
720
721
722
723
724
725
726
727
728
729
73
730
731
732
73268604
733
734
735
737
738
739
74
740
741
742
743
744
745
746
746368
747
748
749
75
750
751
752
753
754
755
756
75653886
757
758
759
76
760
762
763
764
765
766
767
768
769
77
770
771
772
773
774
775
77541206
776
777
778
779
78
780
781
782
783
784
785
786
787
788
789
79
790
791
792
794
795
797
7979
798
799
8
80
800
8000
801
803
804
805
806
807
808
809
81
810
810196
811
812
813
814
815
816
817
818
819
82
820
821
822
823
824
826
827
828
829
83
830
832
833
834
835
83552
837
838
839
84
840
841
842
843
844
845
846
847
848
849
85
850
851
852
853
854
855
856
857
858
859
86
860
8601
861
862
863
864
865
866
867541
868
869
87
870
871
872
873
874
875
876
877
878
879
88
880
88170
882
883
884
884446
8848
885
887
888
889
89
890
891
892
893
894
895
896
897
899
9
90
900
9000
902
903
904
905
906
907
908
909
91
910
911
912
912887
913
914
915
916
917
918
919
92
920
921
922
923
924
925
926
927
928
929
93
930
932
933
934
935
936
937
938
939
94
940
941
942
943
944
945
946
948
949
95
950
951
952
955
956
957
958
959
96
960
961
962
963
964
965
966
967
968
9684
969
97
970
971
972
973
974
975
976
977
977378
978
9780198606697
9781884446054
979
98
980
981
982
983
984
985
986
987
98769076
988
98818
989
99
990
991
992
993
994
996
997
999
:
;
<
=
>
?
@
[
\
]
^
_
`
a
aa
aaron
aas
ab
aba
abai
abak
abakan
abal
aban
abaui
abaz
abazilaiz
abbasidoiden
abc
abdel
abdul
abdulla
abe
abeb
abekirj
aberta
abh
abhazii
abhazijan
abhis
abhishek
abhu
abi
abierta
abinskan
abja
about
abraham
abramov
abramovan
absolu
abu
abud
abudz
abuhu
abuis
abul
abun
abunik
abunikan
abunke
abuta
abutab
abutadas
abuti
abutiba
abutused
abutuseks
abutusiden
abutuz
ac
acade
academia
academic
academy
accademiadellescienze
ace
acer
ack
ackan
acoustic
act
actekiden
action
actor
actress
ad
adab
adam
adaman
adamha
adams
adamsan
adan
adanke
adaptacii
adas
adatok
addis
adelaid
adenan
adi
adig
adigei
adigeisk
adigejan
adiglaiz
aditiv
adiv
adivpert
adivpertid
adivpertin
adjektiv
adjektividen
adm
admin
administracii
administracijad
administracijale
administracijan
administracijanke
administracijoidenke
administrativine
administrativis
administrativiz
admiral
admiralan
admiralteiskii
admsakhalin
ado
adol
adonis
adrenaline
adres
adrian
adriana
adriano
adriatiz
adrinsk
adrinskan
adub
adui
aduihe
adumiz
adused
aduseks
adusen
adusenke
adusid
adusidenke
adust
aduz
adventistoiden
adventures
advokatan
adz
ae
aero
aerodrom
aerokosmiz
aeroport
aeroportad
aes
aev
af
afelii
afganistan
afganistanan
afganistananke
afganistanas
afina
afinad
afiniden
afinis
afn
africa
afrik
afrika
afrikaans
afrikaiz
afrikalaiz
afrikan
afrikaniz
afrikas
afrikaspa
afrodita
afroditan
aftan
after
ag
aga
again
agat
age
aged
agent
agentused
agentusen
agentuses
agentuz
agglu
agidel
agino
agj
agjad
agjaha
agjahasai
agjahine
agjahiz
agjaks
agjal
agjale
agjan
agjanke
agjas
agjaspa
agjatoi
agjatomas
agjha
agjhasai
agjoid
agjoiden
agjoidenke
agjoil
agjois
aglomeracii
aglomeracijad
aglomeracijan
aglomeracijas
aglomeracijha
agnes
agnez
agnija
agnostikad
agod
agodos
agonar
agostini
agrarine
agrariz
agregatad
agressiviz
agriz
agrobiznesan
agrostis
agrotegimis
agrotehnine
agrotehniz
agrotehnologijoiden
agrotehnologine
agrotehnologiz
ah
aha
ahana
ahav
ahid
ahmat
ahmed
ahmedabad
ahruh
ahtarskan
ahthas
ahti
ahtil
ahtin
ahtinsk
ahtis
ahtisaari
ahto
ahtub
ahtubinskan
ahunj
ahven
ahvenanman
ai
aid
aidan
aidoitud
aig
aigad
aigaine
aigaiz
aigaks
aigal
aigale
aigaline
aigaliz
aigalpa
aigan
aiganke
aigas
aigaspa
aigemba
aigha
aighasai
aigkirj
aigkirjan
aigkirjas
aigkirjois
aiglehtesen
aiglehteses
aiglehtesis
aiglehtez
aigoid
aigoiden
aigoidme
aigoil
aigoin
aigois
aigtego
aigtegod
aigtegoid
aigtegoiden
aigtegois
aigtegon
aigvo
aik
aikovskii
aikovskijan
ailaiz
aimar
aimaran
aime
ain
ainalaiz
ainan
aine
ainformacii
aipur
air
airbus
aires
airesan
airliner
airport
ais
aise
aisk
aiskan
aivoiden
aiz
aja
ajab
ajada
ajadas
ajaden
ajaimiden
ajamha
ajan
ajas
ajatud
aje
ajeleb
ajelemha
ajeli
ajeliba
ajeltas
ajenan
ajennad
ajevsk
ajevskan
ajoged
ajogel
ajogen
ajogenke
ajogi
ajogid
ajogiden
ajogidenke
ajogil
ajoi
ajud
ajuga
ajumi
ajun
ak
akad
akadeemia
akademii
akademijan
akademijas
akademikan
akademine
akademiz
akahid
akaks
akal
akale
akan
akanis
akanishi
akanke
akapul
akart
akartan
akaspa
akaz
akbar
akcijoiden
akcionerine
akimatan
akira
akkr
akkumula
akkuzativ
akl
aklin
akomo
akov
akovan
akraborti
akronim
aks
aksai
aksain
akt
akti
aktinii
aktinoidad
aktinoidoiden
aktivine
aktivis
aktivist
aktivistad
aktiviz
aktobe
aktris
aktrisad
aktrisaks
aktrisan
aktrisanke
aktualiz
aku
akul
akus
akvinlaine
al
ala
alaa
alaavstrii
alabam
alaerik
alaerikod
alaerikoid
alagir
alagiran
alagruppas
alah
alahaine
alahaiz
alahaks
alahamb
alahan
alahanpa
alahas
alaiga
alaine
alaiz
alaja
alajagadas
alajagase
alajagasois
alajagusen
alajaguz
alajoksmusen
alajoksmuses
alajoksmuz
alakaman
alaklass
alakodi
alakodihe
alakodin
alal
alalidnan
alalomov
alam
alamad
alamaiden
alamais
alamalaine
alamalaiz
alaman
alan
alang
alangis
alangoikaz
alangois
alangos
alanijan
alanke
alapagin
alapajevskan
alapala
alapalas
alas
alasaksonii
alasaksonijan
alasald
alasaldan
alasergid
alasergin
alastui
alastunu
alasugukundad
alatagil
alatagilan
alatip
alatir
alatirin
alatur
alaturan
alau
alaudinsk
alauz
alavitad
alaz
alb
alba
albanii
albanijalaiz
albanijan
albanijanke
alberto
album
albus
aldan
aldanan
alde
ale
alei
aleisk
aleks
aleksandr
aleksandra
aleksandran
aleksandrii
aleksandrijan
aleksandrov
aleksandrovan
aleksandrovic
aleksandrovna
aleksandrovsk
aleksandrovskan
aleksandrovskii
alekseev
aleksei
aleksejevic
aleksin
aleksinan
alemb
alemba
alen
ales
aleutiz
alexander
alfred
algat
algonkiniz
alhagi
ali
alice
alija
alin
alina
alis
alisa
alive
alkindi
alkogolin
alkogoline
alkogolitomad
alkogolitomiden
alkogoliz
all
alla
allah
allahabad
allativ
alle
allei
allekirjutab
allekirjutadud
allekirjuti
allen
aller
allgemeines
alli
allin
allmusic
allotropis
allu
alma
almati
almaz
almeida
alo
aloi
aloin
alone
alova
alpa
alpha
alrosa
als
alsu
altai
altaisk
altaiskan
altajan
alu
aluiz
alus
alused
aluseks
alusel
alusen
alusenke
alusenno
alusenpandud
alusenpanend
alusenpanendan
alusenpanendaspa
alusenpanii
alusenpanijad
alusenpanijaks
alusenpanijan
alusenpanijoiden
alusenpanijois
aluses
alusespa
alusid
alusiden
alusil
alust
aluz
aluzkund
aluzkundad
aluzkundaks
aluzkundan
aluzkundas
aluzkundoid
aluzkundoiden
aluzkundoiks
aluzkundoil
aluzkundois
alves
alz
alzamai
am
amal
aman
amanda
amar
amazon
amazonas
amazonasan
ambui
ambund
ame
amen
america
american
americana
americii
amerik
amerikaine
amerikaiz
amerikalaine
amerikalaiz
amerikan
amerikas
amerikaspa
amerikha
amfiteatr
amh
amhar
amin
amir
amitabh
amman
ammu
amn
amor
amore
amos
amour
amptihe
amptud
amritsar
ams
amsterdam
amsterdaman
amu
amudarj
amuine
amuiz
amujud
amujuiden
amujun
amujunke
amundsen
amur
amural
amuran
amursk
amurskan
amus
amussai
an
ana
anad
anadir
anadirin
analitine
analiz
analizan
analog
anan
anand
ananke
anap
anapan
anarhizm
anarhizman
anas
anastada
anastadud
anastajad
anastandan
anastasija
anasti
anastiba
anastihe
anastusen
anatol
anatolii
anatolijan
anb
anbe
anc
anchusa
ancient
and
anda
andab
andad
andaks
andamanan
andan
andase
anders
andersen
anderson
andes
andhra
andiden
andimed
andiz
andmaha
andmebaas
andmete
andmiz
andmused
andmusid
andmusiden
andmuzbazas
andoi
andoiba
andoihe
andorr
andorra
andorran
andra
andre
andrea
andreapol
andreas
andrei
andrejevic
andrejevna
andusel
andusele
anduseline
anduseliz
andusen
anduses
andushe
andusiden
andust
anduz
anduzkolledz
anduzkul
anduzmas
anduzprodukcijan
anduzrajonal
anduzrajonan
anduztehnikan
anduztehnikum
anduztehnikuman
anduzz
andy
andz
aneiro
anemone
ang
angar
angaran
angarsk
angarskan
angel
angelad
angeles
angelina
angeloiden
angels
anggun
angie
angl
anglii
anglijaks
anglijalaine
anglijalaiz
anglijan
anglijankel
anglijas
anglikaniz
angline
angliz
ango
angol
angola
angolan
angun
angustifolium
anhai
anhal
ani
aniku
anil
animacine
anime
animen
animistad
animizm
anin
anine
anita
anivan
ank
anka
ankar
anke
ankel
anklav
ankoi
ankoridz
anlaine
anlaiz
anluidz
anma
anmaha
anmaine
anmalaiz
anman
anmanke
anmas
ann
anna
annan
anne
anni
annuaire
annual
ano
anov
anr
anrad
anran
anras
anri
anroiden
anrois
ans
ansambl
ansamblin
anser
ansk
anskan
anst
ant
antal
antan
antarktid
antarktidan
antarktidas
antarktikas
antarktiz
anthriscus
anti
antigua
antiguan
antikaigan
antimonii
antiz
antkoi
antocianad
anton
antoni
antonin
antonio
antsl
antsla
antslan
antta
anttas
antti
anttihe
anttud
antuan
antverpen
anupam
anus
anusan
anushka
anvuic
anz
ao
ap
apa
apai
apajevskan
apakkivi
apakod
apakut
aparteidan
apatit
apatitad
apatitoiden
apel
apera
aperti
apligin
aplin
apollon
aponline
apostolan
apostoline
apostoloiden
apparat
apparatad
apple
approksimativ
aprelevk
aps
aptas
apteryx
aptud
aquila
ar
ara
arab
arabalaiz
araban
arabankel
arabialaiz
arabii
arabijan
arabijanke
arabine
arabiz
aradan
arahis
arahisan
aram
aramil
aramilin
aran
ararat
aras
arash
arat
arati
arbor
arc
archive
archives
archivio
arctostaphylos
ard
ardatov
ardatovan
ardon
ardz
are
area
areal
arealan
areas
aren
arena
ares
aresan
arestan
argentin
argentina
argentinan
argentinanke
argentinas
argon
argun
argunan
argvoi
argvoin
argvoitegim
arhangel
arhangelan
arheologijan
arheologine
arheologiz
arhimedan
arhitektor
arhitektorad
arhitektoran
arhitektur
arhitekturan
arhitekturine
arhitekturiz
arhiv
arhivas
ari
ariana
ariatan
ariel
arif
aripovon
aristotel
arizon
arj
arjan
ark
arkad
arkadak
arkadakan
arkadii
arkanzas
arkin
arkitekter
arktik
arktikan
arktikas
arktine
arktiz
arl
arli
arlott
arlstaun
arm
arma
arman
armas
armasta
armastad
armastada
armastan
armastusele
armastusen
armastuses
armastusespa
armastushe
armastust
armastuz
armatur
armavir
armaviran
armaz
armen
armenia
armenii
armenijalaiz
armenijan
armenijanke
armenijas
armenine
armeniz
armii
armijad
armijan
armijas
armijha
arms
armstrong
arni
arnol
arntor
aro
aron
arora
around
arov
array
arrondissement
ars
arsen
arsenan
arsk
arskan
art
arta
artas
arterreisid
article
articles
artikl
artist
artistan
artists
arto
artois
arts
artur
artut
artutin
arv
arvensis
arvlahjad
arvlahjan
arvlahjoid
arvlahjoiden
arvnimed
arvnimen
arvnimenke
arvnimi
arvod
arvoid
arvoiden
arvoimiz
arvoine
arvoiz
arvokaz
arvon
arvonke
arvostadud
arvuz
arvznamoidenke
arz
arzamas
arzamasan
as
asad
asagami
asamblea
asan
asatro
asbest
asbestan
asfal
asin
asino
asleep
asmar
asoun
asouna
aspa
aspektoid
asper
aspigudenke
aspiguz
aspx
assamblei
assemble
assemblee
assembleia
assembly
assimila
associacii
associacijad
associacijan
associacijois
association
astan
astat
asteroid
asthan
astii
astin
astjad
astjoid
astjoiden
astomaraiz
aston
astrahan
astrahanin
astronom
astronomii
astronomijas
astronomine
astronomiz
astronomy
astta
asu
asud
asuid
asuiden
asuks
asuncio
asunsjon
asunsjonan
asus
at
ata
atak
atamanan
atas
atatu
ateistad
ateizm
ateizman
atihe
atk
atkal
atkan
atkarsk
atkla
atlant
atlantine
atlantis
atlantiz
atlas
atmosfer
atmosferad
atmosferan
atmosferas
atmosferine
atmosferiz
atoll
atollal
atollan
atom
atomad
atoman
atombombad
atombomban
atomelektrostancii
atomelektrostancijad
atomenergetikas
atomine
atomiz
atommass
atommassanke
atomoiden
atomreaktoris
atov
atovan
atribut
atributad
atriplex
att
attack
atterdz
attik
atud
atur
aturan
atvira
au
audhari
auf
aug
augotadas
augotaden
augotase
augoti
augotihe
augotis
augotiz
augud
augus
auguspa
august
augusto
auhan
aul
aulad
aur
aurora
aus
australia
australis
austria
auteurs
author
authorities
authority
auto
av
avac
avadim
avaidab
avaidase
avaidusen
avaidusiden
avaidust
avaiduz
avaiduzsild
avaita
avaitas
avaitihe
avaitud
avaiz
avan
avanport
avar
avarad
avaran
avaras
avarod
avaroid
avaron
avaros
avaruden
avarudes
avaruz
avasthi
avatud
avedamad
avedamiden
aves
avgust
avgustin
avhasai
avia
aviabaz
aviacii
aviacijan
aviasauvomiz
aviategimen
aviatehnine
avic
avicii
avier
avin
aviv
avivha
avla
avoimen
avoin
avoinmel
avoinuden
avol
avraam
avraamiz
avril
avrora
avstralii
avstralijalaiz
avstralijan
avstralijas
avstralijha
avstraline
avstraliz
avstrii
avstrijalaine
avstrijalaiz
avstrijan
avstrijanke
avstrijas
avstrine
avstriz
avstroneziz
avto
avtobiografine
avtobus
avtobusad
avtobusal
avtobusan
avtobusmars
avtobusoid
avtobusoiden
avtobusoil
avtobusstancii
avtobusu
avtod
avtodetaliden
avtoid
avtoiden
avtoil
avtol
avtoliz
avtomagistral
avtomas
avtomatik
avtomatine
avtomatiz
avton
avtonomii
avtonomijad
avtonomijan
avtonomine
avtonomis
avtonomiz
avtopalad
avtopaloiden
avtor
avtorad
avtoran
avtorengaz
avtoriz
avtos
avtosauvomine
avtosauvomiz
avtostancii
avtostancijad
avtote
avtoted
avtotedme
avtotegim
avtotegimel
avtotegimen
avtotegimis
avtoteid
avtoteiden
avtoteidme
avtoteil
avtotekeskust
avtotel
avtoten
avtotenke
avtotesauvondan
avtotesild
avtotesildad
avtotesol
avtotespa
avtotrass
avtotrassadme
avtou
avtovoibis
avu
awake
award
awards
away
ax
az
azan
azartva
azbest
azeg
azegeks
azegid
azegis
azekhiden
azektud
azerb
azerbaidz
azi
azihe
azii
azijalaine
azijalaiz
azijan
azijas
azijaspa
azimut
aziz
aziza
azj
azjad
azjaha
azjaline
azjaliz
azjan
azjas
azjoid
azjoiden
azjois
aznakajevon
aznoic
azot
azotan
azotanke
azov
azovan
azovmeren
azovmerhe
azovmeri
azur
azərbaycan
b
ba
baahubali
bab
baba
babajevo
babajevon
baban
babarm
babarmon
babax
babelio
babli
baboi
baboid
babu
baburova
babus
baby
babymetal
bac
bachchan
back
backseat
bad
baden
badenan
badz
bagaman
bagdad
bah
bahai
bahamas
bahc
bahn
bahr
bahrein
bahreinan
bai
baiden
baikal
baikalan
baikalantagaine
baikalantagaiz
baikerad
baikonur
bairon
bajarin
bajaris
bakal
bakalavran
bakan
bakken
baks
baksan
baku
bakun
bal
bala
balabanov
balabanovo
balahn
balahnan
balakovo
balakovon
balas
balaton
balaz
balet
baletan
balk
balkanan
balkarijalaiz
balkarijan
ballad
ballaiz
ballhasai
baltii
baltiisk
baltiiskan
baltiiskii
baltijan
baltijanmeren
baltika
baltimor
bam
bamako
ban
bananad
band
bandar
bandcamp
bandera
bandung
bang
bangalor
bangaloran
bangalore
bangi
banglades
bangsoitod
bank
bankad
bankan
banknotad
bankoiden
bankoil
bankok
bankrotnendan
bankı
banti
bantu
banz
bao
baotou
bapshaiz
baptistad
baptistoiden
baptizm
baptizman
barabanad
barabananva
barabansoitod
barabinsk
barabinskan
barack
barak
baran
baranov
barbad
barbados
barbadosan
barbara
barbarea
barboil
barbud
barbudan
barcelona
bard
bardan
bardveic
barencan
barfi
barhat
barii
barijan
baris
barnaul
barnaulan
barnaulhasai
barokkon
baron
barrio
barros
bars
barselon
bas
base
basgitar
bashkortostan
basingstoke
bask
baskalaiz
baskan
baso
bass
bassein
basseinad
basseinan
basseinanke
basseinas
basseinha
basseinoiden
basseinoihe
baster
bastos
basu
bat
bataisk
batalov
batist
batt
battal
battuta
batum
bavarii
bavarijan
bavli
bavlin
bayerische
baz
bazad
bazaks
bazal
bazel
bazine
baziruis
baziz
bb
bbc
bd
be
beast
beat
beatles
beatris
beatriz
beats
beautiful
beauty
bed
before
begavan
begin
bei
beijo
being
beirut
bek
bekes
bel
bela
belebein
belgique
belgorod
belgorodan
belgorodhasai
belgrad
believe
belih
belii
belinskii
belinskijan
beliz
belizan
belize
bell
bells
belo
belogorsk
belogorskan
belojarskan
belojarskii
belomorsk
belomorskan
beloozo
belorec
beloreck
beloreckan
belousovo
belovo
belovon
belozersk
belozerskan
bembel
bembelu
ben
bendrand
bendrandad
benedikta
benezit
beng
bengalan
bengalii
bengalijan
bengaliz
benin
beninan
benz
benzin
benzinta
ber
berber
berberad
berberan
bercelius
berci
bercin
berdsk
bereg
berezniki
berg
bergen
bergman
berillii
beringan
berkli
berklii
berklijad
berliini
berlin
berlinan
berlinas
berlington
berlinha
berlinhasai
bern
bernan
bernar
bernard
bernardo
bernd
berners
bernhardt
bero
berry
bert
berto
bes
besedoic
beslan
best
beste
bet
beta
bethoven
betid
betin
beton
betonan
betontegim
better
betula
beverli
beweb
beyer
bez
bf
bg
bh
bha
bhatt
bhosle
bi
biblii
biblijan
biblijas
bibliographisches
biblioteca
bibliothe
bic
bid
biden
bidgos
bidz
big
bihar
bijsk
bijskan
bikin
bikov
bil
bilan
bilibinon
bill
billi
biman
bin
bina
bingen
binsk
binskan
binskhasai
bio
biogra
biograafiline
biografii
biografijan
biographie
biography
biohimii
biohimijan
biohimiz
biolog
biologii
biologijan
biologine
biologis
biologiz
biotehnologii
biotehnologijoiden
bipa
bipas
bir
birobidz
birskan
birth
birthday
biru
birz
bis
bisau
bisaun
biskaiz
bislama
bitab
bitadas
biti
biz
biznes
biznesan
bizneskeskuz
biznesmen
biznesmenale
biznesmenan
biznesnaine
bj
bjanka
bjo
bk
bla
black
blackpink
blagodarnii
blagodarnijan
blagodat
blagoves
blakagir
blaz
blek
blekmetal
blica
blin
blinan
bln
blo
blog
blok
blokad
blokadan
blokan
blokiruidud
blood
blu
blue
bmg
bmw
bn
bnf
bo
bob
bobad
bobaine
bobaiz
bobanvuic
bobbi
bobrinskii
bobrov
bobrovan
bobus
bod
bodaibo
bodaibon
bodenja
body
bogdanovic
bogolu
bogorodick
bogorodickan
bogorodsk
bogorodskan
bogota
bogotol
boguc
bohai
bojarskii
bok
boks
boksitad
boksitogorsk
boksitogorskan
bol
bolad
bolan
bolanke
bolen
bolenan
bolg
bolgarii
bolgarijalaine
bolgarijalaiz
bolgarijan
bolgarijanke
bolgarijas
bolhov
bolhovan
bolivar
bolivii
bolivijan
bolivijas
bollivud
bollivudan
bollywood
bolobolk
bologoje
bologojen
bolohovo
bolohovon
bolotnoje
bols
bolv
bom
bomad
bomale
boman
bomas
bomaspa
bombardiruindale
bombardiruindan
bombei
bombein
bomoiden
bomois
bon
bonn
bonus
bonustrek
book
books
boom
bor
boran
borcui
borcuind
borcuindan
bordo
borii
boris
borislav
borisoglebsk
borisoglebskan
borisov
borkum
born
borodino
borovic
borovsk
borovskan
bors
borz
borzin
bos
bosn
bosnii
bosnijan
boss
boston
bostonan
botanine
botniz
botsvan
botsvanan
botswana
bouche
bov
bovo
box
boy
boys
br
bra
braganza
brahmaputra
braian
braierli
brajan
brams
brand
brandenburg
brandenburgan
bras
brasil
brassica
bratislav
bratsk
bratskan
braun
brauns
brazilia
brazilii
brazilijan
brazilijanke
brazilijas
brazilijaspa
braziline
braziliz
brazzavil
break
bremen
bremenan
brendan
bretanin
brez
bridge
bridz
bril
brill
brin
brisben
britain
britanii
britanijalaine
britanijalaiz
britanijan
britanijanke
britanijas
britanijaspa
britanijha
britanine
britaniz
britannica
british
brno
bro
broadway
brockhaus
broken
brom
bronnici
bronz
bronzaig
bronzaigan
bronzan
brooklyn
brother
brown
bru
bruna
brunei
brunein
bruno
brus
brusad
brusan
brut
bs
bu
buc
bud
budapes
budapest
buddistad
buddizm
buddizman
budo
budogos
buenos
buffon
bugatti
bugri
bugrin
bugul
buguruslan
buguruslanan
buhar
buharan
buharest
buharesthasai
buhein
bui
buin
buinskan
bukac
bukmol
bukoi
bul
bumag
bumagan
bumagfabrik
bumagfabrikal
bumagkanghiden
bumbak
bumbakod
bumbakon
bur
bura
burad
burak
buran
buraudamiz
bureau
burg
burgas
burgundijan
burhahk
burkina
burn
burs
burundi
burundin
burz
burzum
bus
business
but
butan
butanan
butleg
buturlinovk
buturlinovkan
buz
buzuluk
bw
bx
by
byron
bzdusen
bɑ
c
ca
cad
cadillac
caerulescens
caesar
cafe
calamagrostis
cale
calling
caltech
caltha
cambridge
can
canada
canadian
canis
cannes
cap
capital
captain
car
carbon
carduus
carelia
carex
carfolio
caricin
carid
cariden
cariks
carin
carl
carnivora
carrie
carskoje
cat
catalana
catalog
catalogue
catch
catholic
cause
cb
cc
cd
ce
ceh
cehad
cehal
cel
celebrity
celentano
cellu
cement
cementan
cementantegim
cementtegim
cen
census
censusindia
centad
center
central
centre
century
cenzuran
cerambycidae
cerasus
cerii
cerkov
cervantes
cetine
cev
cezar
cezii
ch
cha
chagoda
chance
change
chanson
chapter
charlene
charles
che
chennai
cheri
cherinfo
chi
chicago
child
children
chile
china
chinatown
chisholm
chopin
chopra
chris
christian
christmas
christopher
chrysler
chrysomelidae
ci
cia
ciconia
cii
cijad
cijan
cijanal
cijas
cijha
cikl
ciklonad
cimla
cin
cincinnati
cingad
cinin
cink
cinkan
ciolkovskii
cioner
cioneran
cirk
cirkan
cirkartist
cirkonii
cities
citta
city
ciudad
civil
civiline
civilis
civiliz
civilizacii
civilizacijan
ciz
ck
cl
classics
claudia
cle
cleistocactus
close
closer
club
cm
cn
cnanjogen
cnn
co
coast
coca
coi
coil
cola
cold
cole
collection
college
colonia
colours
com
comalies
come
comedy
comiclopedia
comme
commonwealth
commune
communications
community
company
comune
con
concours
congo
congreso
congress
conseil
consiglio
constitucio
constituency
constituteproject
constitution
content
contest
corporation
corte
corvus
costa
council
countdown
country
county
court
cov
cover
cr
crazy
crne
crown
cruz
cs
csa
cso
cu
cuid
cultural
culture
cupressus
cuscuta
cut
cv
cvetajeva
cy
cybaeota
cygnus
cz
cza
czech
czi
czin
czu
d
da
dab
dabad
dabi
dabin
dac
dad
dada
dados
dag
dagestanan
daggubati
dai
daiba
daigaine
daigaiz
daigo
daily
daisuke
dajad
dajan
dajiden
dajis
dajov
dakar
dakk
dakkan
daks
dal
dali
dallas
dalmatovo
dalmatovon
dam
damask
damb
dambad
dame
damha
damian
damine
damiz
dan
dana
dance
dancer
dancing
dand
dandad
dandal
dandale
dandan
dandanke
dandas
dandha
dane
dani
daniel
daniela
danii
daniil
danijalaine
danijalaiz
danijan
danijas
danilov
danilovan
dank
dankarang
danke
dankov
dankovan
danmark
dans
danvuic
danych
dar
dara
darg
darginalaiz
darhan
dari
dark
darkness
darms
darvinan
darwin
das
dase
dasois
dat
data
database
datad
dataks
datal
datan
dataplattform
dataspa
date
dati
datiruis
datos
datu
datumoj
daugavpils
davi
david
davlat
davlekanovo
davlekanovon
davos
day
days
db
dd
de
dead
death
debora
deborra
debrecen
debu
december
ded
dedan
dedovsk
deep
deg
degli
degoic
degta
dehe
dehesai
dei
dek
dekabristoiden
dekan
deklaracii
deklaracijad
deklaracijan
dekorativine
dekorativiz
del
delano
delarge
dele
delegat
delegation
deli
delihe
delin
delirium
delis
dell
della
delon
dem
demensk
demetran
demidov
demidovan
demo
demoal
demografiz
demokratijan
demokratijanke
demokratine
demokratiz
demon
den
deniel
denis
denisov
denni
dennis
denver
deol
departament
departamentad
departamentaks
departamentan
departamentas
departamentha
departamento
department
depo
depod
deportacijan
deportiruidud
deportiruihe
depressijan
deputat
deputatad
deputatan
deputatanke
deputataspa
deputatoiden
der
derbent
derbentan
derejiz
dereva
derri
derz
des
deschise
desertan
desireless
desn
desnan
desnogorsk
despa
det
detalid
detaliden
detalis
detektiv
detroit
detroitan
deutsche
dev
deva
devanagari
devdas
development
devgan
devi
devid
devil
devis
deviz
dez
dharam
dharmendra
dhavan
dhe
di
dia
dialekt
dialektad
dialektal
diamagnetik
diamant
diamantad
diamantoid
diamantoiden
diametr
diametral
diametran
diametras
diamond
diamonds
diana
dianthus
diapazon
dias
diba
dic
diccionario
dictionary
dictionnaire
did
didz
die
diego
dies
dieter
dietiz
differencializ
diftongad
diftongid
digital
digitaline
digitaliz
digor
dihe
diksit
diktatoran
dil
dilan
diler
dili
dima
dimitrii
dimitrovgrad
din
dina
dinamine
dinar
dinarad
dinastii
dinastijan
dinastijaspa
dine
dinger
dinovo
dinovon
dion
dipika
diplomad
diplomat
diplomatiz
diputados
direktor
direktoran
dirham
diriz
dis
disciplinad
disco
discogs
discovery
disk
diskal
diskan
disko
diskografii
diskoid
diskon
diskz
disnei
disney
dispetc
displaystyle
disprozii
dissertacijad
distancii
district
distrito
diter
ditions
divan
divehi
diz
dizain
dizainan
dizainer
dizel
dizionario
dj
djibouti
dk
dla
dlaiz
dm
dmars
dme
dmila
dmitri
dmitrii
dmitrijev
dmitrov
dmitrovan
dmitrovsk
dn
dna
dnaindia
dnepr
dnepran
dnestran
dni
dnipro
dno
do
dobra
dobric
doctor
dod
dodom
does
dog
doh
doi
doid
doiden
doil
dois
doktor
doktoran
dokument
dokumentad
dokumentaline
dokumentaliz
dokumentas
dokumentiruidud
dokumentoid
dokumentoiden
dokumentois
dol
dolganan
dolgoprudnii
dolinsk
dollar
dollarad
dollaroid
dolli
dolomit
dom
domain
domen
domenad
domenal
domenan
domenas
domennimed
domennimen
domennimes
domennimi
domennimid
domennimiden
domenoiden
domesticus
domingo
dominica
dominik
dominikan
dominikanine
dominikaniz
dominirui
dominirujan
dominirujanke
domodedovo
don
donal
donan
donbassan
donc
doncan
doneck
doneckan
donetsk
donha
donland
donne
donni
donskoi
donskoin
dor
dora
dorf
doris
dorogobuz
dorova
dorovic
dorovna
dos
dostojevskii
dostojevskijan
double
douglas
douson
down
dpiduzline
dpiduzliz
dr
dragana
dragon
drakonad
drakonan
dram
draman
dramatiz
dramaturg
dramfil
drammen
dramteatr
drav
dre
dream
dreams
dressirui
drezden
drezn
drift
dru
drug
druz
druzad
ds
dtaho
dtahod
dtegii
du
dual
duarte
dub
dubai
dubais
dubindsubstancijad
dubindsubstancijaks
dublin
dublinan
dubn
dubnan
dubnas
dubovkan
dud
dudergofan
due
duet
duetal
duetan
duglas
duhovs
dulo
dulut
dum
duma
duman
dumatoi
dumatoman
dumps
dun
dunai
dunain
duomenu
durban
durec
durov
durr
durran
dus
dused
dusel
dusen
duses
dusid
dusiden
dusis
dust
dut
dutch
duty
duz
dva
dvd
dvedhe
dvig
dvin
dvinan
dvojurodnii
dvorz
dy
dylan
dz
dzerz
dzi
dzin
dzo
dzongke
dzu
də
e
early
earth
east
eastern
eb
ebarkul
ebin
ebna
eboksarad
eboksaran
eboksarhasai
eboksarsk
eboksarskan
eburas
ec
eci
ecib
ecijad
ecin
ecinan
ecind
eckan
eckii
ecma
ecmiz
ed
edahaine
edahaiz
edahaks
edahan
eddi
edehe
edehepa
edehko
edel
edelespa
edeline
edelis
edeliz
edelka
edelmatkai
edelpa
edelstrokuiz
edemba
edembaiz
eden
edes
edesine
edesiz
edestab
edestada
edestadas
edestadud
edestai
edestajad
edesti
edheotai
edheotaikundan
edheotajad
edheotajan
edheotand
edheotandad
edheotandal
edheotandan
edheotandoid
edheotandoiden
edheotandoil
edheotandois
edhuz
edinburg
edinburgan
edip
edison
edit
edition
edme
edo
edu
eduard
eduardo
education
eduru
edusite
edvard
edvin
edward
edz
ee
eesti
ef
eff
effekt
effektad
effektiviz
efiopii
efiopijan
efiopijanke
efirha
efirvoid
eg
egad
egan
egd
egdan
egeiz
egem
eger
egipt
egiptalaine
egiptalaiz
egiptan
egiptanke
egiptas
egiptaspa
egiptine
eglai
ego
egorsk
egov
egut
egutan
egzempla
egzotiz
eh
ehalaine
ehalaiz
ehan
ehanma
ehanman
ehanmas
ehe
ehii
ehijan
ehir
ehonjen
ehoslovakijan
ehov
ehovan
eht
ehtad
ehtal
ehtatim
ehtatimed
ehtatimel
ehtatimenke
ehtatimid
ehtma
ehtnu
ehtta
ehzade
ei
eih
eik
eilat
eile
eims
ein
eine
einfu
eins
einstein
eipop
eir
eira
eison
eisselmer
eiz
eizens
ek
eka
ekalin
ekan
ekaterina
ekeskeine
eki
ekipaz
ekologijan
ekologine
ekologiz
ekonomik
ekonomikan
ekonomine
ekonomist
ekonomiz
ekraniziruidud
ekranoile
eks
eksaz
eksklu
eksn
eksnan
ekson
eksonvill
ekspedicijan
eksperimentaline
eksperimentaliz
eksport
eksportad
eksportaks
eksportal
eksportan
eksportirui
eksporto
ekspress
ekstraordinariz
ekstremumad
ekvador
ekvadoran
ekvator
ekvatorad
ekvatoral
ekvatoralpa
ekvatoran
ekvatorialine
ekvatorializ
ekvivalentas
ekzempla
el
ela
elan
elastiz
elder
ele
eleanor
electronics
elefant
elefantad
elefantan
elefantanvuic
elefantoiden
elefterija
elegil
elegis
elehov
elektra
elektrificiruidud
elektrine
elektriz
elektro
elektrodad
elektroenergetine
elektrogorsk
elektrojoksusen
elektrojonused
elektrokabeliden
elektrola
elektroladimed
elektroladimiden
elektroladimis
elektrolikutimed
elektrolizan
elektromagnitiz
elektromas
elektromehanine
elektromehaniz
elektron
elektronad
elektronan
elektronid
elektroniden
elektronik
elektronikan
elektronikas
elektronine
elektronis
elektroniz
elektrostal
elektrostalin
elektrostancii
elektrostancijad
elektrostancijal
elektrota
elektrotehnikan
elektrotehnikas
elektrotehnine
elektrotehniz
elektrougli
elektrusel
elektrusen
elektrust
elektruz
element
elementad
elementaks
elementan
elementarine
elementaris
elementariz
elementoid
elementoiden
elementoidenke
elementois
elena
elentano
elephas
eles
elesan
elesas
elesha
elevator
eleze
eleznodoroz
eleznogorsk
eleznogorskan
eleznovodsk
elgav
eli
elias
eliba
elihe
elika
elim
elin
elinsk
elis
elist
elizabet
elizavet
elizavetan
ell
ella
elle
ellen
elli
ellipsanvuic
elo
elod
eloho
elokahad
elokahan
elokaz
eloku
elokud
elokuhusai
elokul
elokun
elokus
elokuspa
elole
elon
elonform
elonmahtusen
elonmahtuz
elonpu
elos
elospa
elsi
elv
elvis
em
ema
emakume
emb
embad
embaks
emban
embas
embid
embiden
embis
emden
eme
emed
emehe
emeks
emeku
emel
emen
emenden
emendes
emendest
emendestos
emendez
emenz
emeral
emes
emespa
emetos
emevoc
emha
emhas
emi
emigracijan
emil
emilio
emindam
emir
emiran
emiratad
emiratan
emiratoiden
emiz
emma
emmanuel
emoi
empion
empionat
empionatan
empire
en
ena
enaiz
enalaiz
enamb
enamba
enamban
enambis
enambusel
enambusen
enambuses
enambust
enambuz
enan
enarne
enc
encan
enciclope
enciclopedia
enciklopedii
enciklopedija
enciklopedijas
encyclopaedia
encyclope
encyclopedia
encyclopædia
end
endad
endaks
endal
endale
endan
endanke
endas
endaspa
endata
ende
endemik
endemikad
endevanh
endevanhad
endevanhan
endha
endi
ending
endis
endkund
endless
endministr
endministrusen
endministruz
endoid
endoiden
endoidenke
endoihe
endoil
endois
endpert
endpertid
endru
ends
endsija
endtarhad
endu
endustada
endustai
endustajad
endustajal
endustajan
endustused
endustusen
endustuz
endva
endz
ener
eneran
energetik
energetikan
energetine
energetiz
energii
energija
energijad
energijan
energomas
energy
enerine
eneriz
enev
enevan
enevas
engel
england
english
enijan
enjan
enjogen
enjoy
enk
enke
enko
enkon
enn
ennai
ennain
enner
enni
ennifer
enno
ennoks
enough
enov
enovan
enrike
enriko
ensk
enskai
enskan
enskhasai
enskii
enso
entertainment
entomolog
entoni
entsu
enu
enus
envastaine
envastaiz
envuic
enzne
enzyklopa
eohjandusen
eohjastusen
eohjastusenke
ep
epan
eparhijan
epc
epeck
epid
epiiz
episkopan
episode
epizod
epizodad
epos
eposan
equus
er
era
erad
erafettin
eraldo
eran
eras
erased
erasen
erasid
erasiden
erasidenke
erasihe
erasil
erasis
erast
erasti
eraz
erazvuic
erazvuitte
erazvuittus
erbii
erc
erdenet
erdevk
erdinin
ereduis
erel
eremetjevo
erepanovo
erepovec
erepovecan
erg
ergenc
ergill
eri
eric
erif
erigoic
erigoitab
erigoitai
erigoitihe
erigoitmine
erigoitmiz
erigoittas
erigoittihe
erigoittud
erik
erika
erikod
erikoid
erikoiden
erikoil
erikois
erikoks
erikol
erikon
erikonke
erikospa
eriline
erilis
eriliz
erind
erindas
erindha
erine
erineb
erineda
erinedas
erineden
erinend
erinendad
erinendoid
erinii
eris
eritrei
eritrejan
eriz
erk
erkasad
erkassk
erkasskan
erkesalaiz
erkesijan
erkessk
erlok
ermitaz
erna
ernandes
ernest
ernesto
ernigovan
ernis
ernogolovk
ernogorskan
ernst
ernus
ero
eronan
eronskan
erortzen
eros
erozijad
erri
ers
ersi
ersk
ertil
ertilin
erz
erza
es
esaten
esaz
ese
eska
eskai
eskimosalaiz
eskimosiz
eskis
esko
eskobar
esky
eslav
esois
esox
espa
espan
esperanto
espoo
ess
essen
essika
est
estadi
este
ester
estergom
estilaiz
estimates
estin
estinma
estinman
estinmanke
estinmas
estonia
estradan
estuarii
estuarijan
esu
esus
esvatini
esvatinin
et
eta
etad
etada
etahtol
etamine
etamiz
etan
etap
etase
etasois
ethereal
ethnologue
etid
etijan
etilspirt
etilspirtan
etimologii
etin
etiz
etnine
etnis
etniz
etnografijan
etnografine
etnografiz
etoi
etomad
etti
eu
europa
europaea
europaeus
europe
european
eurovision
euskaldun
ev
eva
evakuiruidud
evakuiruihe
evan
evangelii
evangelistad
evangelistoiden
evangeliz
evans
evenalaiz
evenan
evenkalaiz
evenkan
ever
everest
everett
everybody
everything
evgenii
evind
evk
evo
evoi
evolu
evon
evr
evrazii
evrazijadme
evrazijalaine
evrazijan
evrazijas
evrejalaiz
evrejan
evrejiz
evro
evrod
evrodens
evrodensgrupp
evrodisko
evron
evrop
evropadme
evropalaine
evropalaiz
evropan
evropas
evropaspa
evropha
evropii
evropine
evropiz
evropop
evrovizii
evrovizijan
evsk
evskaja
evskan
evskhasai
evskii
evuic
ex
exit
expe
explain
expo
express
eyes
ez
ezdran
eze
ezenke
ezennoks
eziauguine
eziauguiz
eziaugus
ezika
ezikuctud
ezikuvaks
ezilidn
ezilidnad
ezilidnaks
ezilidnan
ezilidnas
ezilidnelektrojonused
ezilidnha
ezilidnjonused
ezilidnoiden
ezilidnoidenke
ezilidnoihe
ezilidnois
ezima
ezimal
ezimehed
ezimeheks
ezimehen
ezimeletab
ezimeletaden
ezimeletadud
ezimeleti
ezimest
ezimez
ezine
ezineb
ezinenas
ezinendan
ezini
ezipartijan
ezirivenva
ezis
ezisanad
ezitab
ezitadud
ezitai
ezitaikund
ezitajad
ezitajaks
ezitajan
ezitajanke
ezitajid
ezitajiden
ezitajil
ezitat
ezitatad
ezitegesed
eziti
ezitihe
eziva
ezkaluis
ezma
ezmaiz
f
fa
fabrik
fabrikad
fabrikal
fabrikan
fabrikanno
fabrikatad
fabrikoil
face
facebook
facto
factory
facts
fail
faina
faith
faktad
faktine
faktiz
fakto
faktoiden
faktor
faktorad
fakul
fal
fall
falling
family
fan
faner
faneran
fansait
fantastic
fantastikan
fantastine
fantasy
fantazii
fao
far
faraday
faradei
faraonan
fareran
farida
farmaceftine
farmaceftiz
fartal
fartalad
fartalaks
fartalha
fas
fashion
faso
fason
fasonke
fast
fat
fater
faterad
fateranke
fatez
father
fatima
fatma
faz
fc
fe
fear
feat
federacii
federacijan
federacijanma
federacijanman
federacijanmas
federacijas
federal
federaline
federalis
federaliz
federativine
federativiz
federiko
feel
feeling
feels
fehervar
feisbuk
fejer
fel
feliks
felipe
fellini
fem
fembio
feodaliz
feodosii
fer
ferb
ferdinand
fergan
ferganan
ferm
fermi
fermii
fernanda
fernandes
fernandez
fernando
ferrari
ferreira
ferrer
ferro
ferrou
ferto
fes
festival
festivalid
festivalin
fevral
ff
fi
fiction
fidz
fiel
fields
fight
figur
figurad
fii
fiji
fiksiruidud
fil
filadel
filarmonii
files
filial
filialad
filialan
filip
filipendula
filipp
filippinad
filippinoiden
film
filmportal
films
filosof
filosofad
filosofan
filosofii
filosofijad
filosofijan
filosofijas
filosofine
filosofiz
fin
final
finalas
financial
finansine
finansis
finansiz
finansoiden
find
fine
finikijalaiz
finikijan
finiks
finla
finland
finnougoria
fire
first
fis
fitingad
five
fizik
fizikan
fizikantedomehen
fizikantedomehiden
fizikantedomez
fizikas
fizine
fiziologiz
fiziz
fizkul
fj
fjord
fjordan
fk
flag
flagad
flagan
flandrii
flavia
flavio
fle
flinn
flo
flor
flora
florencii
florencijan
florencijas
flores
florid
floridan
flu
fly
fm
fmv
fo
fobii
fobijan
fobijoiden
fobos
fokino
fol
folk
follow
fomin
fominsk
fominskan
fon
fonarnii
fond
fondan
fondbirz
fonetik
fonetikan
fonetikas
fonseka
fontan
fontank
food
foorumi
for
ford
forest
forever
forget
form
formad
formal
formaline
formaliz
forman
formanke
formas
format
formatas
former
formid
formiden
formiruib
formiruidas
formiruihe
formiruind
formiruindan
formiruis
formis
formosana
formul
formulirui
forsaz
forss
fort
fortad
fortepianon
fortepjanol
fortepjanon
fortum
forum
fos
fosfatad
fosfor
fosforad
fosforan
fosforitad
fosforitoiden
foto
fotod
fotograf
fotokuva
fotokuvad
fotokuvid
fotomodel
fotosintez
fotosintezan
foundation
four
fr
fra
fragile
frakijalaiz
frakijan
fram
framan
franc
francan
france
francii
francijad
francijadme
francijaks
francijalaine
francijalaiz
francijan
francijanke
francijankel
francijas
francijaspa
francijha
francine
francis
francisco
francisko
franciskon
franciz
frangula
frank
frankfurt
frankfurtan
frankfurter
frankfurtha
franklin
franko
frans
fransisko
fransua
frauendatenbank
fred
freddi
frederik
free
freebase
freid
freidan
freiheit
frenk
frensis
fresno
freud
fri
frida
friderik
fridrih
friedrich
friends
friske
friz
fro
frolovo
frolovon
from
front
frontan
fructus
frukt
fruktad
frunzen
fsb
ftor
fu
fuchsia
fudz
fuji
fukujama
fukuok
full
fun
fund
fundamentaliz
funikulo
funkcii
funkcijad
funkcijoid
funkcijoiden
funkcijoil
funkcionaliz
funtad
furmanov
furmanovan
furnituran
futbol
futbolan
futbolc
futbolist
futbolklub
futbolkluban
futor
futorad
futoran
future
g
ga
gabat
gabbani
gabon
gabonan
gaborone
gabriel
gabriela
gackt
gad
gadot
gadz
gagarin
gagarina
gagarinan
gai
gaidai
gain
gajan
gajanan
gakt
gal
gala
galaktik
galaktikan
galena
galerei
galic
galilei
galileo
galina
galle
gallii
gallijan
gallus
galogen
galogenidenke
gama
gambii
gambijan
gamburg
gamburgan
game
games
gamle
gamma
gan
ganan
gandi
gandin
gang
ganga
gangan
ganguli
ganin
gannover
ganpa
gans
ganter
ganvil
ganzan
gao
gar
garant
garblon
garbol
garden
gari
garik
garmonii
garnizonan
garri
garsia
garsija
garvardan
gas
gastroliruib
gat
gatc
gaudi
gauri
gauss
gaussan
gaved
gavedid
gavediden
gavedil
gavedin
gavriil
gavrilov
gaz
gazad
gazaks
gazal
gazan
gazanveim
gazanveimen
gazanveimiden
gazanveimtransport
gazanvuic
gazaspa
gazbeton
gazeta
gazetteer
gazi
gazoid
gazoiden
gazois
gazprom
gc
gd
gdan
gdov
gdovan
ge
geb
geba
gec
ged
gedad
gedan
gedas
gedoiden
gehe
gei
geidel
gekaz
geks
geksagonaline
geksagonaliz
gektar
gektarad
gel
gelaiz
gelan
gelendz
gelii
gelijan
geline
geliz
gelpa
gelzoittud
gemeinsame
gemine
gemiz
gemois
gemps
gen
gena
gend
gendab
gendad
gendan
genduses
genduz
genealogics
geneastar
general
generaline
generaliz
generation
genetine
genetiz
genista
genitiv
genke
gennadii
genno
genoc
genpa
genri
genrih
gent
genta
genui
genujan
genzi
geografii
geografijan
geografijas
geografine
geografis
geografiz
geologii
geologijan
geologine
geologiz
geometrijan
geometrijas
georg
george
georgetown
georgii
georgijevsk
georgijevskan
geotedis
ger
gera
gerakl
geral
geran
geranium
gerasimova
gercegovin
gercegovinan
gercog
gercogan
gercogkund
gercogkundan
geri
gerkules
germ
german
germanii
germanijalaine
germanijalaiz
germanijan
germanijas
germanine
germaniz
germes
geronimo
ges
geschichte
gespa
gessen
gest
gestab
gestada
gestai
gestajad
gesti
gestija
gestused
gestusen
gestusenkandajan
gestust
gestuz
get
geta
getas
geten
gev
gevad
gevaks
gevara
gevaran
gevuden
gevudenke
gevut
gevuz
gg
gh
gha
ghana
ghe
ghetulii
ghetulijaks
ghibli
ghine
ghis
ghiz
ghos
ghost
gi
gibrid
gibridad
gibridizacii
gibridoid
gid
giden
gidenkeskeiz
gidme
gidravliz
gidroelektrostancii
gidroelektrostancijad
gidroelektrostancijal
gidroelektrostancijan
gidroenergetik
gidroenergii
gidrologiz
gigijenan
gihe
gii
gijan
gijanke
gijas
gikaz
giku
gil
gilbertan
gile
gilidn
gilmor
gimalajad
gimalajiden
gimalajis
gimar
gimarin
gimehed
gimeheks
gimehen
gimehiden
gimehile
gimez
gimme
gimn
gimnan
gimnazii
gimnazijan
gimnazijas
gin
gina
gine
ginga
ginino
ginnessan
gino
gipautkil
giplatol
girajonad
girajonis
girl
girls
gis
gisel
gisisteman
gisuks
gisuksed
gisuksiden
gita
gitab
gitada
gitadas
gitahondas
gitahondois
gitamiz
gitan
gitar
gitaral
gitarist
gitazangis
gitegim
gitis
gitler
gitomil
gitungendan
give
gives
giz
gizan
gks
gla
gladiolus
glauca
glazgo
glazov
glazovan
glazunov
gleb
glenn
glinde
glipa
global
globaliz
globo
globus
glorija
glovo
glu
glus
gm
gma
gmaine
gmaiz
gmbh
gminan
gnd
gnik
gnikad
go
gob
gocman
god
goes
gofriruidud
gogh
gogol
goi
goiden
goinpo
goja
gol
golad
gold
golden
golicino
goll
golla
gollivudan
gollivudas
gollu
golos
gomel
gomelin
gomeran
gomes
gon
gonc
gonduras
gondurasan
gone
gonna
gonolulu
gonsales
gonsalves
good
goodbye
google
gopal
gor
gora
gorbac
gorbatov
gordon
gore
gori
gork
gorky
gorna
gorno
gornozavodsk
gornozavodskan
goro
gorod
gorodec
gorodecan
gorodis
gorodok
gorohovec
gorohovecan
gorsovet
gos
gost
got
gotland
gott
gouv
gov
govan
government
govt
goz
gp
gr
gra
grac
grad
gradskii
gradusad
gradushasai
graf
grafan
grafikan
grafikanpirdai
grafine
grafit
grafiz
grafkund
grafkundad
grafkundan
grafkundas
gramm
grammad
grammas
grammatik
grammatikan
grammatiz
grammhasai
grammofon
gran
grand
grande
grandi
granit
grant
grao
grave
gravii
gravirui
grazib
grazii
grazijan
grazindan
great
greatest
grec
grei
greis
grek
grekalaine
grekalaiz
grekan
grekanma
grekanman
grekanmanke
grekanmas
grekine
grekiz
grema
gremmi
grenad
grenadan
grenadinad
grenadinoiden
grenland
grenlandan
grenlandas
grenobl
gres
gribojedovan
grigor
grigorianiz
grigorii
grigorjevskai
grin
grinvic
gris
grodaiz
grodno
grodnon
gromov
group
grove
grover
groznii
grozniihasai
groznijan
gru
gruntan
grup
grupo
grupp
gruppad
gruppaks
gruppal
gruppan
gruppanke
gruppas
gruppaspa
gruppha
gruppid
gruppiden
gruppihe
gruppiruind
grus
gruyter
gruz
gruzii
gruzijalaine
gruzijalaiz
gruzijan
gruzijanke
gruzijas
gs
gsm
gt
gu
guajakil
guan
guanc
guaran
guaranin
guardian
guatemala
guavto
guavtod
guavtoiden
guavton
gub
gubah
gubernator
gubernatorad
gubernatoraks
gubernatoral
gubernatorale
gubernatoran
gubernii
gubernijan
gubernijas
gubernijha
gubernijois
gubernine
gubkin
gubkinskii
gud
gudas
gudermes
gudermesan
gudz
guerra
gui
guid
guide
guiden
guine
guinea
guiz
gujad
guk
gukovo
gukovon
gul
gulag
gulendimport
gumanitarine
gumanitariz
gumbol
gun
gundan
gunke
gunnar
guo
guport
gur
gureisid
guru
gus
guse
gused
gusen
gusev
gushe
gusid
gusiden
gust
gustav
gustavo
gut
gutenberg
gutoitmiz
gutonnoid
gutte
guy
guys
guz
gv
gvadalahar
gvardeisk
gvatemal
gvatemalan
gvinei
gvinejan
gvinejanke
gvinejas
gy
gyo
gz
h
ha
haapaja
haapasalo
haapavezi
haapsalu
hab
habad
habaine
habarduz
habarovsk
habarovskan
habarovskhasai
habikod
habinod
habuk
habukan
hac
had
hadiz
hadz
hafiz
hag
hahk
hahkad
hahkan
hahktin
hahktinan
hahkvauvaz
hahkvihand
hahm
hai
haid
haidai
haidarabad
haidu
hain
hait
haiti
haitin
haiz
hajao
hajastani
hajdu
hajenu
haju
hajud
hajukaz
hajun
hajunke
hajuta
hak
hakasijan
hakaslaiz
hakat
hal
hala
halad
halflife
halid
halifa
halisko
halit
hall
halle
halo
haloid
halonen
ham
hama
hamad
haman
hamar
hamas
hamasaki
hambaz
hambhad
hambhiden
hamburg
hamid
han
hanan
hanau
hanc
hani
hankaja
hanko
hankundan
hanna
hannover
hanoi
hans
hant
hanti
hantilaiz
hantin
haosan
hapandusen
hapandusid
hapandust
hapanduz
hapanik
hapanikad
hapanikan
hapanikanke
hapneb
happy
haqqında
har
hara
harabalin
harag
haragaine
haraganha
harakterine
harakteristikad
harakteriz
harakterizuib
harakterizuidas
harakterizuis
harare
hard
hardrok
hari
harj
harju
harlok
harovsk
harovskan
harper
harri
harris
hartum
hartzen
haruma
harv
harvad
harvamb
harvas
harvemb
harvemba
harvoid
harvoiden
harvoin
harvois
has
hasai
hasan
hasavu
hasina
hat
hatang
hatrad
hatta
hatun
haudub
haug
haugod
haugoid
haulan
haus
hauttud
havad
havajad
havajan
havan
have
hawking
hayao
haz
haze
he
head
health
hear
heart
heartache
heartbeat
heartbreak
hearts
heat
heaven
hebei
hebo
hebod
heboiden
hebol
hebon
hebonva
hed
hedera
hegel
hei
heid
heiden
heidenke
heil
heile
heilu
heiluncza
heim
heimd
heimho
heimkel
heimkund
heimkundan
heimkundas
heimkundaspa
heimod
heimoid
heimoiden
heimois
heimolaiz
heimon
heimos
heimospa
hein
heina
heine
heinid
heiniden
heinku
heinkud
heinkuhusai
heinkul
heinkun
heinkus
heinkuspa
heinz
heis
heita
heitab
heitac
heitandad
heiti
heitihe
heitmaha
heitta
heittas
heittihe
heittud
heiz
hel
helen
heli
helictotrichon
heline
heliz
hell
hello
hellveto
helsinki
helu
hema
hemb
hemba
hembaine
hembaiz
hembusen
hembusis
hemfri
hen
hendusen
henduz
heneb
heneg
henegiden
heng
hengaiduz
henged
hengele
hengeline
hengeliz
hengen
hengenavaidamiz
henges
henghe
hengiden
hengis
heni
henni
henod
henoid
henoil
henomb
henos
henri
henry
her
heras
herba
here
hered
heredamb
heredan
heredas
heretused
heretusid
heretusiden
heritage
herkhil
herneh
hernehhein
hero
hesa
hesad
hesai
hesaks
hesal
hesan
hesandes
hesandest
hesandez
hesanz
hesas
hesasadad
hesaspa
hesatos
hesavoc
hesha
hessen
het
hetartust
hetartuz
hetud
heves
hey
heze
hf
hg
hgornii
hh
hi
hibj
hibjad
hibjan
hibjankaic
hibjanke
hibjas
hibjoiden
hibused
hid
hiden
high
higher
hihe
hihtandsport
hihtandsportan
hijam
hijamad
hijaman
hijamiden
hikaru
hikone
hil
hilel
hilen
hill
hilla
hills
hillu
hilok
himac
himii
himijan
himijas
himik
himikad
himine
himis
himiz
himki
himkin
himo
himoic
himokaclijan
hina
hindi
hindikel
hindustantimes
hine
hiphop
hir
hired
hiren
hirojuki
hiros
hirs
his
histoire
historia
historic
history
hit
hitad
hitchcock
hitoiden
hitparadas
hits
hiz
hj
hjitadud
hjitihe
hjitusen
hju
hjuston
hk
hkad
hkan
hkheiniden
hkid
hkim
hkjaiz
hkmed
hkmen
hkmid
hkmiden
hkmil
hkmis
hkmuded
hkmut
hloce
hlor
ho
hoban
hobart
hobed
hobedad
hobedaiz
hobedakahad
hobedakaz
hobedan
hobedanke
hodz
hogahtusen
hogahtuz
hoik
hoikad
hoikan
hoking
hokkaido
hokkaidon
hol
holitadas
holitamha
holitis
holitusel
holitusen
holituz
holl
hollywood
holm
holmogori
holms
holmsk
holunic
holunican
homaic
homaitud
home
homendesel
homendez
homendezbokas
homnine
homo
homoi
hon
hond
hondod
hong
honiar
honkong
honkongan
honkongas
hons
honusen
honuses
honuz
honuzliz
hope
hopr
hor
horan
horhe
horv
horvatan
horvatii
horvatijalaiz
horvatijan
horvatijanke
horvatijas
hos
hose
hot
hotel
hotkas
houkuiden
houkul
houkunverkon
houlett
houndmills
hour
house
housing
hovic
hovs
how
hr
hram
href
hristan
hristanuskojad
hristanuskojid
hristanuskojiden
hristanuskond
hristanuskondad
hristanuskondaliz
hristanuskondan
hristanuskondas
hristianiz
hristofor
hristos
hrithik
hrom
hrsg
hrung
hrus
hrustal
ht
hta
htajad
htajid
htan
htast
htaz
htazkundan
htazmatk
hte
hteb
hted
htejic
htejitte
hteks
htel
htele
htelmasel
htelmasen
htelmaz
hten
htenaigas
htend
htendad
htendan
htendel
htenden
htendes
htenke
htennimine
htennimis
htennimiz
htent
htenz
htenzoitab
htenzoitai
htenzoitase
htenzoitasois
htenzoiti
htenzoitihe
htenzoitmaha
htenzoitta
htenzoittas
htenzoittihe
htenzoittud
htenzoitusel
htenzoitusen
htenzoitust
htenzoituz
htes
htespa
htetas
hthad
hthaine
hthaiz
hthaks
hthan
hthasiz
hthe
hthejoksmusel
hthejoksmusen
hthejoksmusenno
hthejokstas
hthekeitandan
hthekeradamine
hthekeradamiz
hthema
hthesuladused
hthesuladusid
hthesuladusiden
hthesuladusis
hthesuladuz
htheze
hthid
hthiden
hthine
hthis
hthiz
htis
htleb
htli
htm
html
htmudel
htmuden
htmut
htmuz
htneb
htneda
htnedas
htnend
htnendad
htnendan
htnendanke
htnendoid
htnendoiden
htnendois
htnenu
htni
htniba
htnii
htnijad
htnijaks
htnijan
htnijanke
htnijaspa
htnijoid
htnijoiden
htnijoiks
htnijoil
htnijoile
htnijois
htnik
htnikad
htnikaks
htnikan
htnikas
htnikaspa
htnikha
htnikho
htnikoid
htnikoiden
htnikoiks
htnikois
htnu
htta
httas
http
https
hu
hua
huan
huanhe
huanhen
huares
huba
hubei
hubilai
hubin
huded
huden
hudr
hudz
hugo
hul
hulad
hulan
hulas
huldutamiz
hum
humaine
humalikaz
human
hun
hura
hurad
hural
hurale
huralpa
huran
hurapol
huras
huridenke
hurricane
hus
hussein
hut
huttinen
huz
hva
hvalinskan
hvan
hve
hyundai
i
ia
iana
iazjoiden
ib
iba
ibadan
ibm
ibn
ibragim
ibuti
ibutin
ibutis
ibve
ibven
ic
ican
ice
ich
id
ida
idd
idealiz
idei
idejad
idejan
iden
idenke
idenno
identiz
ideologii
idhlig
idiotad
idme
ido
idris
idu
idused
iduz
ie
if
ifunkcionaline
ig
iga
igan
iganalaiz
iganan
igark
igic
igling
igor
igri
iguasu
igulo
ih
ihan
ihani
ihara
ihastuses
ihastuz
ihe
ihesai
ihlikoid
ihodai
ihodamine
ihodamis
ihodamiz
ihozi
ihuandi
ihun
ii
iii
iisalmi
iisus
iisusan
ija
ijad
ijaks
ijan
ijeroglifoid
ijevon
ijitad
ijoid
ijoiden
ijoile
ik
ika
ikaalinen
ikad
ikago
ikagon
ikalaiz
ikan
ikanke
ikeda
ikel
ikera
ikerad
ikeran
ikeranlo
ikerdoic
ikerdoitas
ikeroiden
ikhasai
ikistan
ikistanan
ikl
iknad
iknoiden
ikohtun
ikoi
ikov
ikova
ikovan
iks
iksugun
il
ilaine
ilaiz
ilajas
ile
ileana
ileck
ilho
ilhosai
ili
ilimal
ilimsk
ilimskan
ilin
ilis
ilk
ilkan
ill
illa
illativ
illegitimiz
illinois
illu
ilo
ilod
iloid
iloiden
iloidenke
ilois
iloitelend
iloiz
ilokaz
iloks
ilole
ilon
ilonke
ilonno
ilopa
ilos
ilospa
ilpa
ilugu
ilugud
iluguiz
ilugus
im
ima
imaman
iman
imbai
imbain
imdb
imeb
imed
imehe
imel
imen
imenke
imes
imetaiz
imetalliz
imic
imiden
imidz
imin
imine
imis
imiz
imkent
iml
immanuel
immi
immigracijan
immigrantad
imperator
imperatorad
imperatorale
imperatoran
imperatorine
imperatoriz
imperatornaine
imperatornaiz
imperii
imperijad
imperijaks
imperijan
imperijas
imperijaspa
imperijha
importan
in
ina
inad
inan
inansauvomine
inansauvomiz
inc
ind
indan
indejalaiz
indejine
indejiz
indeks
independent
index
india
indian
indianapolis
indianexpress
indiatimes
indii
indijalaine
indijalaiz
indijan
indijanke
indijas
indijaspa
indijha
indine
individualiz
indiz
indoevropine
indoevropiz
indokitain
indonesia
indonez
indonezii
indonezijan
indonezijanke
indonezijas
indostan
induistad
induizm
induizman
industrial
industrialine
industrializ
industrii
industrijal
industrijan
industrijas
indz
ine
inec
inen
inertine
inertiz
infla
info
informacii
informacijad
informacijan
informacine
informaciz
information
infrastruktur
infrastrukturan
ingermanlandijalaiz
ingi
ingotada
ingotadas
ingotadud
ingotai
ingotajan
ingotamha
ingotas
ingotase
ingotasois
ingotesele
ingotesen
ingotesenke
ingoteses
ingoteshe
ingotest
ingotez
ingoti
ingotihe
ingrijan
ington
ingtonan
ingtonas
ingus
inhasai
ini
iniciativan
inikant
inin
inis
inke
inkel
inkerila
inkerman
inkiden
inkubatoras
inma
inman
inmas
inn
inna
innopolis
innovacine
ino
inoi
inoid
inoiden
inoidensauvomine
inok
inon
inoue
inovo
insar
insaran
insbruk
inside
insk
inskai
inskan
inskii
inskijan
insoiden
inspekcijad
inspektor
instagram
institut
institutad
institutan
institutas
institutaspa
institute
instituto
instrument
instrumentad
instrumentaliz
instrumentan
instrumentoid
int
intan
integim
intensivine
intensiviz
inter
intermedia
internacional
internat
international
internet
internetan
internetas
interv
into
introduciruidud
introduction
inu
inuktitut
inupiatun
invazivine
invaziviz
invest
investicijoiden
investicine
investiciz
invuic
inz
inzan
io
ioann
iogann
iolend
ion
iona
ionad
ionan
ioniden
ioniz
ioniziruidud
iordanijanke
iosif
iosifan
ip
ipa
ipac
ipas
ipatijan
ipatovo
ipatovon
ipcig
ipcigan
ipoidenke
iprodukt
iproduktan
iprofil
ipsilon
ipsoiden
iq
ir
irad
irahvahaline
irak
irakan
iran
iranan
irananke
iranas
iranke
irao
irbit
irbitan
ird
irdad
irdal
irdale
irdaliz
irdan
irdma
irdna
irdoid
irdoiden
irdpol
irdpolel
irdpolespa
ire
ireann
ireg
ireland
irga
iridii
irina
irine
irinovskii
iris
irish
irjonuz
irkutsk
irkutskan
irkutskhasai
irl
irlandii
irlandijalaine
irlandijalaiz
irlandijan
irlandijas
irlandiz
irlendim
irnovsk
irnovskan
iro
iroid
iroiden
irplatform
irracionaline
irraudtestancii
irreisid
irrfan
irrigacine
irskai
irskii
irstancii
irtis
iru
iruine
iruiz
irving
is
isa
isaak
isaakijan
isabel
isabela
isan
isarain
isarakoine
isarakoiz
isbn
iset
isetin
isfahan
ishq
isik
isil
isk
iskan
iskitim
iskitiman
isl
islam
islamabad
islaman
islamanuskojad
islamanuskojid
islamanuskojiden
islamha
islamine
islamiz
islandii
islandijan
islands
ismail
iso
isp
ispanii
ispanijaks
ispanijalaine
ispanijalaiz
ispanijan
ispanijanke
ispanijankel
ispanijas
ispanijaspa
ispanijha
ispanine
ispaniz
iss
issik
issn
isso
ist
istituto
istiz
istopolin
istorii
istorijad
istorijan
istorijanedeline
istorijanedeliz
istorijas
istorik
istorikan
istorine
istoriograf
istoris
istoriz
istr
istran
it
ita
ital
italia
italiana
italiano
italii
italijadme
italijalaine
italijalaiz
italijan
italijanke
italijas
italijaspa
italijha
italine
italiz
itan
itau
itel
ithasai
itigran
itke
its
itterbii
itti
ittrii
itukuine
itukuiz
itukun
iu
iupac
iv
iva
ivadz
ival
ivan
ivanan
ivangorod
ivanov
ivanova
ivanovic
ivanovna
ivanovo
ivanovohosai
ivanovon
ivanovsk
ivanovskan
ivantejevk
ivanus
ivat
ivatad
ivatan
ivatis
ivatoid
ivatoiden
ivatoil
ivatoile
ivatois
ivatvodind
ivatvodindan
ivdel
iveded
iveden
iveronan
ivesen
iveses
ivest
ivet
ivez
ivezi
iveziden
ivha
ivid
ividen
ivil
ivis
ivkodi
ivkodid
ivlaskm
ivlaskmad
ivlaskmaine
ivlaskmaiz
ivlaskmal
ivlaskman
ivlaskmas
ivlaskmaspa
ivlaskmha
ivlaskmman
ivlaskmpol
ivlaskmpolehe
ivlaskmpolel
ivlaskmpoles
ivmuna
ivnouzm
ivnouzmad
ivnouzmaine
ivnouzmaiz
ivnouzmal
ivnouzman
ivnouzmas
ivnouzmaspa
ivnouzmha
ivnouzmma
ivnouzmman
ivnouzmmas
ivnouzmmeri
ivnouzmpol
ivnouzmpolehe
ivnouzmpolel
ivnouzmpolen
ivnouzmpoles
ivnouzmpolespa
ivoc
ivoi
ivoikaz
ivozne
ivrit
ivuaran
ivuaranke
ix
iz
iza
izabel
izabella
izan
izberbas
izbirkom
izborsk
izdr
izmir
izmit
izo
izobil
izola
izoliruidud
izoma
izotop
izotopad
izotopan
izotopaspa
izotopoid
izotopoiden
izrail
izrailin
izrailinke
izrailis
j
ja
jablok
jablokoiden
jablokpu
jablonovskii
jac
jackie
jackson
jacques
jad
jadrinan
jagab
jagada
jagadas
jagadud
jagamatoi
jagamiz
jagand
jagase
jagasois
jagatihe
jagatud
jago
jagoiba
jagoihe
jagon
jaguar
jagused
jagusen
jaguses
jagusespa
jagust
jaguz
jah
jahrhundert
jahrom
jai
jaine
jaiz
jak
jakarta
jakob
jakov
jakovlev
jakut
jakutalaiz
jakutan
jakutijan
jakutsk
jakutskan
jakutskhasai
jal
jalaim
jalos
jalt
jaltan
jalutorovsk
jam
jamaica
jamaik
jamaikan
jamalan
jamamoto
jaman
jamato
james
jamhuri
jamusukro
jan
jana
janami
janan
janaul
janaulan
janczi
janczin
jandi
jandin
jane
janenko
jangon
janino
janke
janos
janov
janovsk
janovskan
janovskhasai
jantad
january
jao
jap
japan
japon
japonan
japonankel
japonii
japonijalaine
japonijalaiz
japonijan
japonijas
japonijha
japonine
japoniz
jar
jaralaiz
jaran
jaranma
jaranman
jaranmanke
jaranmas
jaransk
jaranskan
jaras
jarc
jarcevo
jarine
jarmank
jarmankad
jarmankal
jarmankoid
jarmankoil
jaroslav
jaroslavic
jaroslavl
jaroslavlihesai
jaroslavlin
jaroslavlis
jarovoje
jartal
jas
jasnii
jasnogorsk
jasnogorskan
jassi
jattaran
jatti
jattin
jaugad
jaugnikoiden
jaugoil
jaugva
jauh
jauhkombinat
jauhod
jauhon
jauhtegim
jaunde
jav
javan
je
jean
jed
jef
jefremov
jefremovan
jegonsk
jegonskan
jegor
jegorsk
jegorskan
jehovan
jei
jeisk
jeiskan
jekaterina
jekaterinan
jekaterinburg
jekaterinburgan
jekaterinburganke
jekaterinburghasai
jel
jelabug
jelabugan
jelec
jelecan
jelena
jelizaveta
jelizovo
jemanz
jemel
jemen
jemenan
jen
jenaral
jenaralan
jenisei
jenisein
jent
jer
jera
jerad
jeran
jeras
jeremia
jeremian
jerevan
jerevanan
jermahtusel
jermi
jermolino
jero
jers
jerusalim
jerusaliman
jerusalimas
jerusalimha
jes
jesad
jesenija
jesid
jessentukad
jessica
jet
jeugdliteratuur
jev
jeva
jevan
jevgenii
jevic
jevk
jevlanov
jevna
jevpatorii
jevsk
jevskan
jevskii
jez
jezoensis
jfalu
ji
jic
jid
jiden
jidenke
jidis
jido
jigevan
jihe
jihvi
jiks
jil
jile
jimmy
jin
jinskii
jired
jirkap
jis
jj
jo
joan
joann
joannan
job
jod
joda
jodan
jodas
joe
joga
jogahine
jogahiz
joganedal
jogapa
jogavoc
jogavozne
joged
jogedme
jogehe
jogehesai
jogeihut
jogel
jogen
jogenke
jogenno
jogensu
jogensud
jogensuhusai
jogensun
jogensunno
jogensus
jogensuspa
jogentagaine
joges
jogespa
jogi
jogialangis
jogid
jogiden
jogidenkeskeiz
jogil
jogilaivad
joginis
jogiport
jogiportad
jogiportal
jogiportan
jogis
jogistancii
jogitransport
jogivaldmad
jogo
johan
johann
johanna
johannes
johannesburg
john
johnny
johnson
johtutesed
johtutez
joki
joko
jokoham
jokseb
joksmusen
joksmusenke
joksmuses
joksmuz
joksta
jokstas
joksten
jokstes
jom
jomad
jomaks
joman
jomid
jomiden
jomiz
jon
jonad
jonan
jonas
jondveden
jondz
jono
jonod
jonoid
jonoiden
jonoikaz
jonol
jonon
jonos
jonospa
jonused
jonusel
jonusen
jonusid
jonusiden
jonust
jonuz
jor
jordan
jordanii
jordanijan
jork
jorkan
jorkas
jorkha
jorub
jos
jose
joseph
jota
joucen
joudai
joudan
joudjad
joudjaks
joudjal
joudjaline
joudjaliz
joudjan
joudjas
joudjuden
joudjut
joudjuz
joudutadud
jouk
joukhu
joukud
joukuid
joukuil
joukun
joukus
journal
journey
jov
joy
joz
jozef
jp
jpg
jr
jstor
ju
juan
jubilei
jubileinii
jubilejad
jubilejale
jubilejan
judaistad
judaizm
judaizman
judejan
jufit
jug
jugan
jugorsk
jugoslavijan
jugran
juhnov
juho
juki
juko
jukon
jul
julianiz
juliet
julii
julija
julius
july
jumal
jumalad
jumalaiz
jumalale
jumalan
jumalanbembel
jumalanbemblen
jumalankodi
jumalankodid
jumalankodiks
jumalankodikund
jumalankodikundad
jumalankodikundan
jumalankodikundoiden
jumalankodile
jumalankodin
jumalankodinno
jumalankodis
jumalanmaman
jumalanna
jumalanpert
jumalanpertid
jumalanpertiden
jumalanpertin
jumalanpertinke
jumalanpertis
jumalanradnikoic
jumalansa
jumalantedomehen
jumalaspa
jumalha
jumalnaine
jumalnaiz
jumalneiz
jumaloid
jumaloiden
jumalois
juminkeko
jumorist
jumoristiz
jump
jun
junnan
junost
jupiter
jupiteran
jur
juraiz
jure
jured
juren
jurenno
jurespa
jurg
jurgii
jurgijan
juri
jurid
juriden
juridenke
juridine
juridiz
jurii
juril
juris
jurist
juristan
jurjevecan
jurmal
jurt
juru
jus
just
juvelirine
juveliriz
juz
juzi
k
ka
kaarin
kaarlo
kab
kabal
kabardalaiz
kabardinijan
kabel
kabela
kabhi
kabir
kabjz
kabo
kabul
kabulan
kabuto
kac
kaceg
kacegespa
kacegiden
kacelta
kacleb
kaclemiz
kaclend
kaclese
kaclim
kacmata
kacta
kactas
kacten
kactes
kacu
kacub
kacujid
kad
kadag
kadirov
kadirovan
kadmii
kadnikov
kadnikovan
kadob
kadoda
kadodas
kadoi
kadoiba
kadomiz
kadondan
kadonu
kadonuded
kadonuden
kadotab
kadotada
kadotadud
kadoti
kadui
kadujan
kadun
kadz
kafe
kafedr
kafedraline
kafedraliz
kafka
kagl
kaglan
kaglhal
kaglhan
kagr
kagrand
kaha
kahesa
kahesad
kahesaks
kahesaku
kahesan
kahesanden
kahesandes
kahesandest
kahesandestos
kahesandez
kahesanz
kahesas
kahesaspa
kahesatos
kahesavoc
kahesha
kahk
kahkod
kaht
kahteks
kahtel
kahtele
kahten
kahtendeks
kahtendel
kahtenden
kahtendes
kahtenke
kahtent
kahtentos
kahtenz
kahtes
kahtespa
kahthe
kahtiden
kahtis
kai
kaic
kaid
kaidad
kaidan
kaidas
kaidlehtesine
kaidraiz
kaif
kaigad
kaik
kaiked
kaikedme
kaikeks
kaikel
kaikele
kaiken
kaikenaigaine
kaikenaigaiz
kaikenaigas
kaikenvuic
kaikenvuitte
kaikes
kaikid
kaikiden
kaikidenke
kaikihe
kaikil
kaikile
kaikis
kaikiz
kaikjal
kaikta
kaikuc
kaikus
kaikutte
kaikuttus
kaili
kaimdai
kaimdailidn
kaimdailidnaks
kaimdailidnois
kaimdajad
kaimdajid
kaimdajiden
kaimlois
kainu
kair
kairan
kaita
kaitas
kaitud
kaiv
kaivai
kaivajiden
kaivandusid
kaivandusiden
kaivandusil
kaivatusiden
kaivuded
kaivuden
kaivudenno
kaivut
kaivuz
kaivuzid
kaivuziden
kaivuzmas
kaivuzmetallurgiz
kaivuztegimis
kaivuztehnikum
kaivuztehnine
kaivuzz
kajag
kajani
kakao
kakaon
kakaonbabud
kaks
kaksin
kaksitadud
kal
kala
kalac
kalad
kalaidai
kalaidajad
kalaidajiden
kalaiz
kalajogen
kalajogi
kalajoki
kalan
kalanikoiden
kalankazvatusel
kalankazvatusen
kalankazvatuz
kalanke
kalanpu
kalanu
kalas
kalategim
kalatez
kaleb
kaleig
kaleigan
kalendarin
kalendaris
kalevala
kalevalan
kalgari
kalhasai
kali
kalifornii
kalifornijan
kalii
kaliisol
kalijad
kalijan
kalik
kalimantan
kalin
kalinin
kalininan
kaliningrad
kaliningradan
kaliningradhasai
kalininsk
kalinsk
kalinskan
kalita
kalitv
kalitvan
kall
kallis
kalliz
kalm
kalmikalaiz
kalmikan
kalmikii
kalmikijan
kaloid
kaloiden
kalovsk
kalovskan
kalpana
kaltan
kalu
kalud
kalug
kaluga
kalugan
kalughasai
kaluid
kaluiden
kaluis
kalutadud
kam
kama
kamal
kaman
kamanjogen
kambark
kambarkan
kambodz
kamc
kamenk
kamenkan
kamennogorsk
kamenogorsk
kamensk
kamenskan
kameo
kamerun
kamerunan
kamerunanke
kames
kamilla
kamini
kamis
kamiza
kampal
kampanii
kampos
kampus
kan
kana
kanabra
kanad
kanadadme
kanadalaine
kanadan
kanadas
kanadha
kanadine
kanadiz
kanal
kanalad
kanaladme
kanalal
kanalan
kanalas
kanaliden
kanaloiden
kanaloil
kanamunad
kanan
kanar
kanaran
kanariz
kanas
kanber
kanc
kancela
kancler
kand
kandab
kandai
kandajad
kandalaks
kandatez
kandeb
kandem
kanden
kandi
kandidat
kandidatad
kandidataks
kandidatan
kandidatoid
kandidatois
kandidaturad
kandidaturiden
kandis
kandoine
kangana
kangaz
kanghad
kanghan
kanghid
kanghiden
kanghis
kankaanpa
kanke
kanman
kann
kannad
kanno
kannus
kano
kanoid
kansk
kanskan
kant
kanta
kanto
kanton
kantonaks
kantonan
kantri
kantta
kanz
kanzad
kanzaline
kanzaliz
kanzalline
kanzan
kanzanke
kanzannimed
kanzannimen
kanzannimi
kanzas
kanzaspa
kanzha
kanzi
kanziba
kanzihe
kanzoid
kanzoiden
kaolin
kap
kapan
kapital
kapitalizman
kapitan
kapitanan
kapitolovo
kapitula
kapoor
kapos
kaps
kapur
kapust
kapustin
kapustiz
kar
kara
karabanovo
karabas
karac
karagandi
karakas
karan
karanke
karas
karasuk
karasukan
karc
kardas
kardashian
karel
karelia
karen
karenina
karg
kargadai
kargaida
kargaidai
kargat
karged
kargnik
kargopol
kargopolin
kargud
karguiden
kari
kariban
karin
karina
karis
karizma
karj
karjal
karjala
karjalaine
karjalaiz
karjalan
karjalas
karjalha
karjalu
karksi
karl
karla
karlan
karleus
karlo
karlos
karlson
karm
karma
karmacode
karmen
karnatak
karnaval
karolin
karolina
karolinan
karotin
karpatiden
karpinsk
karpinskan
kars
kart
kartad
kartal
kartali
kartalin
kartankarv
kartje
kartohk
kartohkad
kartohkan
kartohkanke
kartohkoid
kartoiden
kartoil
karton
kartonan
kartte
karusel
karv
karvakahad
karvakaz
karval
karvan
karvaspa
karvha
karzn
kas
kasablank
kasim
kasimov
kasimovan
kaskad
kaskado
kaskez
kaskinen
kasli
kaslin
kaspa
kaspii
kaspiisk
kaspiiskan
kaspijan
kassel
kastehein
kastel
kastelemha
kastelendan
kastorii
kastri
kastro
kat
kata
katab
kataisk
kataiskan
katalan
katalizator
katalizatoraks
katalonii
katar
kataran
katas
katase
katastrof
katav
katavan
kate
kategorii
kategorijad
kategorijan
kater
katesemniz
katihe
katilmas
katken
katl
katmandu
kato
katolikad
katoline
katoliz
katovice
katrina
kattab
kattas
kattud
katun
katusen
katussamba
katuz
katuzmaterialad
kauc
kauged
kaugedraudad
kaugedraudan
kaugedraudaspa
kaumis
kaumuz
kaumz
kaunas
kaunasan
kauppala
kaupunki
kaur
kaus
kavag
kaver
kavkaz
kavkazal
kavkazan
kavkazine
kavkaziz
kavkazkabel
kaz
kazah
kazahan
kazahlaiz
kazahstan
kazahstanan
kazahstananke
kazahstanas
kazan
kazanihesai
kazanin
kazanskii
kazda
kazdas
kazino
kazinod
kazmused
kazmuseks
kazmusel
kazmusen
kazmusid
kazmusiden
kazmusil
kazmusis
kazmust
kazmuz
kaznu
kaznuded
kaznudeks
kaznuden
kaznuziden
kaznuziks
kazuko
kazv
kazva
kazvab
kazvand
kazvandan
kazvatab
kazvatada
kazvatadas
kazvatadihe
kazvatadud
kazvatai
kazvatajad
kazvatajiden
kazvatajidenke
kazvatamha
kazvatand
kazvatandal
kazvatandan
kazvateliz
kazvati
kazvatihe
kazvatusen
kazvatuz
kazvis
kazvoi
kazvoiba
kazvol
kbr
kc
kdt
ke
keblavik
kebn
kebnad
kebnal
kebnan
kebnas
kebnavto
kebnavtoiden
kebnemb
kebnenzoittud
kebnoid
kec
ked
keda
kedrovii
keep
kehker
kehkrad
kehkran
kehkruz
kehr
kehundla
kei
keiko
keil
kein
keins
keipop
keiptaun
keiroz
keit
keita
keitandan
keitandsol
keitandsolad
keitandsolan
keitimpolen
keitis
keitiz
keitta
keittas
keittud
kek
kekahad
kekar
kekkonen
kel
kelastuz
keled
keleks
kelel
kelen
kelenkandajad
kelenke
kelentedomez
kelentedon
keles
kelespa
kelid
keliden
kelidenke
kelihe
kelil
kelis
kellc
kelli
kem
kemal
kembridz
kemerovo
kemerovohosai
kemerovon
kemet
kemi
kemija
kemin
ken
kenaluine
kenaluiz
kend
kenda
kendad
kendall
keneks
kenel
kenen
keng
kenga
kengiden
kenii
kenijan
kenijanke
kenijas
kenke
kent
kentegim
kentukki
kenya
kepler
kera
keradab
keradai
keradamha
keradase
keradusis
keraduz
keral
keramik
keramikan
keramine
keramiz
kerata
keratas
keratihe
keratud
kerav
kerazi
kerazihe
kerc
kerdad
kerdaine
kerdaiz
kerdalaz
kerdan
kerdha
kerdoid
kerekan
keric
kerteh
kerthel
kerthenke
kertla
kervac
kerz
kes
kesk
keskafrikan
keskaigaine
keskaigaiz
keskaigaliz
keskaigan
keskaigaspa
keskdunain
kesked
keskel
kesken
keskes
keskespa
kesketi
keskhesai
keskitadud
keskjoksmusen
keskjoksmuses
keskjoksmuz
keskkorktusel
keskla
keskma
keskmeren
keskmeri
keskneze
kesko
keskopendusen
keskopendust
keskopenduz
keskpa
keskpalas
keskpohjanma
kesks
kesksidod
kesksuomenma
keskuralan
keskused
keskuseks
keskusel
keskusen
keskusenke
keskuses
keskusespa
keskushesai
keskusiks
keskusil
keskusis
keskust
keskustad
keskustaine
keskustal
keskustan
keskustas
keskustaspa
keskustoid
keskustoil
keskustoittud
keskuz
keskuzalis
keskuzamerikan
keskuzamerikas
keskuzazii
keskuzazijan
keskuzazijas
keskuzbank
keskuzbankan
keskuzbu
keskuzkirjis
keskuzkomitetan
keskuzla
keskuzline
keskuzliz
keskuzmakedonii
keskuzpala
keskuzpalad
keskuzpalan
keskuzpalas
keskuzpuis
keskuzrajon
keskuzrajonan
keskuzrajonas
keskuztaho
keskuztorg
keskuztorgul
keskuzu
keskvepsa
ket
ketalaiz
keto
ketrin
kettunen
keuruu
keuruun
keva
kevan
kevic
key
keza
kezaaigan
kezaku
kezakud
kezakuhusai
kezakul
kezakun
kezakus
kezakuspa
kezal
kezalind
kezalindud
kezaline
kezaliz
kezan
kezanke
kezaolimpiadan
kezerdusen
kezr
kezrad
kezroiden
kezroil
kg
kha
khan
khanna
khein
kher
khmer
ki
kibed
kibo
kibu
kibud
kibuid
kic
kid
kiden
kidz
kielen
kigali
kii
kijan
kijev
kijevan
kijevas
kijevhasai
kil
kilad
kildinsaamen
kilimandz
kilingi
kill
killer
kilogrammad
kilogrammas
kilogrammhasai
kilometr
kilometrad
kilometraks
kilometran
kilometras
kilometrhasai
kilometrid
kilometrine
kilometris
kilometriz
kilt
kim
kimovsk
kimri
kimura
kin
kina
kinad
kinan
kindhad
kindred
kinel
kinelin
kinematografan
kines
king
kingan
kingdom
kinged
kingisepp
kingiseppan
kingitadud
kingston
kinktas
kino
kinoakt
kinoaktris
kinod
kinofestival
kinofestivalil
kinofil
kinokar
kinokomedii
kinomel
kinon
kinopoisk
kinoprodu
kinorez
kinos
kinostudijan
kinotarinantegii
kinoteatr
kins
kioto
kiparis
kipina
kipr
kipran
kir
kiralaiz
kiran
kirejevsk
kirejevskan
kirensk
kirenskan
kirg
kirgizlaiz
kirgizstan
kirgizstanan
kirgizstanas
kirh
kirhan
kirhuliz
kiribati
kiribatin
kirijan
kirill
kirillan
kirillical
kirillican
kirilline
kirilliz
kirillov
kirillovan
kiris
kirj
kirjad
kirjaine
kirjakamari
kirjaks
kirjal
kirjam
kirjamed
kirjamele
kirjamen
kirjamespa
kirjamid
kirjamiden
kirjamil
kirjamis
kirjan
kirjankel
kirjankelen
kirjankor
kirjant
kirjas
kirjaspa
kirjav
kirjeine
kirjeiz
kirjes
kirjha
kirjis
kirjkel
kirjkelel
kirjkelen
kirjoid
kirjoiden
kirjois
kirjutab
kirjutada
kirjutadas
kirjutadud
kirjutai
kirjutajad
kirjutajan
kirjutajiden
kirjutamha
kirjutamine
kirjutamiz
kirjutandan
kirjutanu
kirjutase
kirjutesed
kirjutez
kirjuti
kirjutihe
kirjutused
kirjutusen
kirjutuses
kirjutusid
kirjutusiden
kirjutust
kirjutuz
kirk
kirkorov
kirov
kirovan
kirovgrad
kirovo
kirovsk
kirovskan
kirs
kirsan
kirsanov
kirsanovan
kiruhavtobusad
kiruhavtote
kiruhjonused
kiruhjonuz
kiruhraudte
kiruhso
kiruhte
kiruhted
kiruhtramvai
kiruhtramvaid
kirun
kirz
kis
kiselo
kislovodsk
kislovodskan
kiss
kisses
kit
kita
kitagava
kitai
kitaidme
kitaihe
kitain
kitaine
kitainke
kitais
kitajalaine
kitajalaiz
kitajan
kitajine
kitajiz
kitan
kitee
kiteen
kito
kitoiden
kiton
kits
kitsan
kived
kivehe
kiven
kivendod
kivendoid
kivendoiden
kivendon
kivendospa
kivespa
kivi
kiviaig
kiviaigan
kivid
kividen
kivihil
kivihilen
kivin
kivine
kivis
kivisaren
kivivoi
kivivoid
kivivoihimine
kivivoihimiz
kivivoimas
kivivoin
kivivoinhimine
kivivoinhimiz
kivivoinu
kivivoinveim
kiviz
kiwi
kiz
kizel
kizelan
kizil
kizilu
kizla
kk
kka
kkal
kken
kkiliz
kkivend
kkivendod
kl
kla
klad
klaiped
klaiz
klan
klang
klaprot
klar
klara
klass
klassad
klassan
klassas
klassha
klassicizman
klassificiruidas
klassifikacii
klassifikacijan
klassik
klassine
klassiz
klaudia
klaudio
klaus
klei
kleid
kleidu
klejad
klejal
klejatud
klepikin
kler
klimat
klimatad
klimatan
klimatas
klimatiz
klin
klinan
klincad
klinine
klivlend
klo
klod
klodan
klopeedia
kloran
klu
klub
kluban
kluz
km
kmt
kna
knardalr
knaw
kne
knight
knorkator
know
ko
koalicii
koalicijan
kobal
kobe
kobraku
koc
kod
koda
kodai
kodi
kodiaren
kodid
kodiden
kodiema
kodifikacijan
kodihe
kodihimii
kodihimijan
kodiiz
kodija
kodikaz
kodikel
kodikeleks
kodikelen
kodikoic
kodikoittud
kodiks
kodiku
kodilezi
kodima
kodimaiz
kodimale
kodiman
kodin
kodine
kodinsk
kodinskan
kodipu
kodirandan
kodirandantedis
kodis
koditehnik
koditehnikan
kodiz
kodvi
kodvib
kodviden
kodzi
koefficient
kofe
kofed
kofen
kofi
kogalim
kogod
kogodused
kogodusespa
kogodust
kogoduz
kogoho
kogonaine
kogonaiz
kogonaz
kogoneb
kogoni
kogosu
kogota
kogotas
kogotud
kohei
kohendusel
kohendusen
kohenduses
kohendusid
kohendusiden
kohendusidenke
kohenduz
kohenduzdepo
kohenduzmehaniz
kohetud
kohli
kohm
kohman
kohtaiz
kohtas
kohtha
kohtla
koi
koid
koiden
koidenke
koil
koimbr
koir
koirad
koirala
koiran
koiranvuic
koiriden
kois
koiv
koivikod
koivisto
koivuine
koivuiz
koivun
kok
kokandan
kokema
kokkol
kokospa
kokospal
koks
kokteine
kokus
kol
kola
kolad
kolan
kolas
kolaspa
kolbasan
kolda
kole
koleb
kolendma
kolha
koli
koliba
kolim
koliman
kolis
kolizei
kolkat
kolkata
kolkatan
kolkatas
kolledz
kollegad
kollegidenke
kollegii
kollektiv
kollektivad
kollektivan
kolmatoi
kolmu
kolnu
kolnuded
kolnut
kolnuziden
kologrivan
koloiden
kolois
kolombo
kolomn
kolomnan
kolon
kolonia
kolonializ
kolonii
kolonijad
kolonijaks
kolonijan
kolonijoiden
kolonizacijan
kolopendajan
kolorado
kolpas
kolpino
kolpinon
koltegim
koltus
kolumb
kolumban
kolumbii
kolumbijan
kolumbijanke
kolumbijas
kolumbus
kom
koma
komaki
komarom
kombainad
kombinat
kombinatad
kombinatal
kombinatan
kombiniruidud
kombiso
komedas
komedii
komedijan
komfortiz
komi
komilaiz
komin
komissar
komitativ
komitet
komitetad
komitetan
kommercijan
kommertine
kommertis
kommertiz
kommun
kommunad
kommunaks
kommunaliz
kommunan
kommunar
kommunas
kommune
kommunha
kommunistine
kommunistiz
komoran
kompanii
kompanijad
kompanijal
kompanijan
kompanijha
kompanijoiden
kompanijoil
kompanijoile
kompartijan
kompila
kompjuter
kompjuterad
kompjuteran
kompjuteriz
kompjuterprogramiden
kompjuterva
kompleks
kompleksad
kompleksal
kompleksan
kompleksas
kompleksiz
komplektad
komplimentarine
komponent
komponentad
komponentoiden
kompozicii
kompozicijad
kompozicijan
kompressorad
kompressorstancii
komsomol
komsomolan
kon
konakovo
konakovon
konakri
koncentracii
koncentratad
koncepcijad
koncepcijan
koncernan
koncert
koncertad
koncertal
koncertan
koncertine
koncertzal
konde
kondi
konditerine
konditeriz
kondjad
kondjan
kondom
kondopog
kondopogan
kondrovo
konfederacii
konfederacijan
konferencii
konferencijan
konfiguracii
konflikt
konfucijan
kong
kongo
kongon
kongress
kongressan
konke
konkistador
konkretiz
konkurs
konkursal
konkursan
konkursha
konnektikut
konnor
konor
konoru
konos
konseps
konservacijas
konservad
konservatorii
konservatorijan
konservatorijas
konservtegim
konsonantad
konstanc
konstantin
konstantinan
konstantinovsk
konstantinovskan
konstitucii
konstitucijad
konstitucijan
konstitucijha
konstitucine
konstituciz
konstrukcijad
konstrukcijoiden
konstruktorbu
konsul
konsuluz
kontaktoiden
konte
konteinerid
konteinerterminal
kontinent
kontinentad
kontinental
kontinentaline
kontinentaliz
kontinentan
kontinentanke
kontinentansu
kontinentas
kontinentaspa
kontinentiden
kontinentil
kontor
kontraktad
kontraktan
kontrol
kontrolid
kontrolin
kontroliruib
kontroliruis
konurbacijas
konvejerad
konvencii
konz
kooperacijan
kooperativine
kooperativiz
koordinatad
kopeisk
kopeiskan
kopenhagen
kopernicii
kopii
kopijoid
kopr
kor
kora
korablino
koranan
korbu
korc
kordil
kordiljerad
kordov
kordovan
koreatimes
korei
korejalaine
korejalaiz
korejan
korejankel
korejas
korejine
korejiz
korel
koren
korenke
korenovsk
korenovskan
kores
korged
koric
korkino
korkinon
korktad
korktal
korktan
korktanke
korktas
korkte
korktemb
korktemba
korktoid
korktoiden
korktoil
korktused
korktusel
korktusen
korktusenke
korktusespa
korktushesai
korktusiden
korktusidenke
korktusil
korktuz
kornan
kornelius
kornuoll
koroc
korol
korolo
koror
korporacii
korporacijad
korporacijan
korporacijoiden
korpus
korrea
korreia
korreliruib
korrozijanvastaiz
kors
korsakov
kortes
kortni
kortom
kortomha
kortostan
kortostanan
kortte
korv
korvad
kos
kosan
kosketi
kosketusid
kosketusiden
kosketusis
koskhaiz
koskimsoitod
koskub
kosmetikan
kosmine
kosmiz
kosmodrom
kosmonavt
kosmonavtoiden
kosmos
kosmosan
kosmosas
kosmosha
kosov
kosovo
kosovon
kost
kosta
kostamuks
kostarik
kostarikan
kostero
kosto
kostrom
kostroman
kostu
kot
kota
kotel
kotk
kotkan
kotlas
kotlasan
kotlin
kotonu
kotovo
kotovon
kotovsk
kotte
kottedz
koumandel
koumanden
koumandes
koumandesen
koumandest
koumandestos
koumandez
koumant
koumanz
koumas
koume
koumed
koumekerdaine
koumeks
koumeku
koumel
koumen
koumenke
koumepa
koumepalaiz
koumes
koumesaumnikan
koumespa
koumetos
koumevoc
koumhe
koumhesai
kourad
kouroiden
kourtney
kouvol
kov
kova
kovad
kovaks
koval
kovan
kovanke
kovas
kovdor
kovdoran
kover
koverikahiden
koverikaz
koveritoi
koveritomad
kovid
kovilkino
kovilkinon
kovo
kovon
kovrov
kovrovan
kovskai
kovskii
kovtp
koz
koza
kozakad
kozakis
kozakoiden
kozakoil
kozel
kozlov
kozlovk
kozlovkan
kp
kr
kra
krakov
krand
krandan
krasavino
krasavinon
krasnaja
krasnii
krasnoarmeisk
krasnoarmeiskan
krasnodar
krasnodaran
krasnodaras
krasnodaraspa
krasnodarhasai
krasnogorsk
krasnogorskan
krasnogvardeiskii
krasnojarsk
krasnojarskan
krasnojarskha
krasnojarskhasai
krasnoje
krasnokamensk
krasnokamsk
krasnokamskan
krasnoperekopsk
krasnosel
krasnoslobodsk
krasnoslobodskan
krasnoturjinskan
krasnoufimskan
krasnoural
krasnovis
krasnozavodsk
krasnozavodskan
krasnoznamensk
krasnoznamenskan
krater
krc
krdt
krec
krefel
krem
kremenc
kremenki
kreml
kremlin
kremlis
kremo
kreolad
krepind
krepindanke
krestovskii
krid
krilov
krim
kriman
krimantatarlaiz
kriminaline
kriminaliz
krimsk
krimskan
kripton
kris
kristall
kristallad
kristalline
kristallis
kristalliz
kristi
kristian
kristiano
kristina
kristobal
kristof
kristofer
krit
kritik
kritine
krivii
krizis
krizisan
kroikoi
kroikoinvuic
krokodil
kromaine
kroman
kron
kronan
krons
kropotkin
kross
krris
krskstate
krt
kru
krug
krum
krus
kruz
ks
ksemb
ksemburg
ksemburgan
ksemburgas
ksenic
ksenican
ksenija
ksenon
ksi
ksiba
ksihe
ksin
ksk
ksma
ksna
ksp
ksta
kstovo
kstovon
kstud
ksushe
kta
ktad
ktas
ktuvim
ku
kuala
kub
kuba
kuban
kubanin
kubas
kuben
kubenanja
kubenansun
kubha
kubine
kubink
kubiz
kubrick
kuc
kuch
kucta
kuctas
kuctud
kucub
kucui
kucuiba
kucuihe
kucund
kucundan
kucundnimi
kucuse
kud
kudamb
kudambad
kudambal
kudamban
kudambas
kudambaspa
kudambha
kudambid
kudambiden
kudambil
kudambis
kudan
kudeks
kudel
kuden
kudenden
kudendes
kudendest
kudendestos
kudendez
kudenke
kudenz
kudes
kudespa
kudhe
kudimkar
kudinovo
kudmaine
kudmaiz
kudmas
kudondaigan
kudrovo
kugalaine
kuhmo
kuhusai
kuibis
kuid
kuidas
kuiden
kuidme
kuidud
kuidun
kuiv
kuivad
kuivahk
kuivaigad
kuivaigan
kuivamb
kuivan
kuivatas
kuivateztegim
kuivatud
kuivid
kuivil
kuivis
kuivma
kuivmadme
kuivman
kuivsezon
kuivsezonan
kuivsezonanke
kuiz
kujo
kujod
kuk
kukazja
kukerduz
kukhad
kukhal
kukhan
kukhanpa
kukhid
kukhiden
kukhikahal
kukhikahas
kukhikaz
kukhil
kukkaz
kukkazsel
kukmor
kukoi
kukruzan
kuks
kukuruz
kul
kula
kuld
kulda
kuldad
kuldaine
kuldaiz
kuldan
kuldas
kuldasine
kuldsa
kule
kulebaki
kulebakin
kulemine
kulemiz
kulikov
kulikovon
kulin
kulinarijan
kulinarijas
kulpa
kulu
kulub
kulud
kuluiden
kulun
kulund
kulundad
kulundan
kulundoid
kulundoiden
kulus
kulutadas
kulutajiden
kulutamiz
kulutuz
kulutuzma
kum
kuman
kumanjogen
kumar
kumasi
kumertaun
kumikad
kumikalaiz
kun
kuna
kund
kundad
kundaks
kundale
kundaline
kundalis
kundaliz
kundan
kundanke
kundas
kundaspa
kundelta
kundha
kundlijoiden
kundlimed
kundoid
kundoiden
kundoidenke
kundoihe
kundoiks
kundois
kungur
kunguran
kuni
kunigahaks
kunigahal
kunigahan
kunigahiden
kunigahusen
kunigahuses
kunigahuz
kunigaz
kunigazline
kunigazliz
kunigaznaine
kunigaznaiz
kunstide
kunstindeks
kuopio
kupan
kupavn
kupc
kupe
kupino
kupk
kur
kuran
kurb
kurc
kurdiz
kurgan
kurganan
kurganhasai
kurganinsk
kurganinskan
kurihara
kurikk
kurilan
kurk
kurlovo
kuro
kurod
kuroki
kurol
kurort
kurortaks
kurortal
kurortan
kurortine
kurortlidn
kurortz
kurospa
kurovskoje
kurs
kursad
kursan
kursk
kurskan
kurskhasai
kurt
kurtamis
kuruv
kus
kused
kuspa
kut
kutan
kuti
kutna
kuusamo
kuusamon
kuva
kuvad
kuvadab
kuvadase
kuvadasois
kuvagalerei
kuvahaine
kuvahaiz
kuvan
kuvandik
kuvanke
kuvapatsaz
kuvapatshan
kuvastadas
kuvatadud
kuvatai
kuvatas
kuvatihe
kuvatud
kuvazi
kuveit
kuveitan
kuverz
kuvid
kuviden
kuvil
kuvis
kuvs
kuz
kuzbassan
kuzed
kuzedejevo
kuzen
kuzid
kuznec
kuzneck
kuzneckan
kuzneckii
kuzneckijan
kuznecov
kvame
kvarc
kvarcitku
kvebek
kvinslend
kvon
kvt
kwame
kya
kylie
kz
kɑ
kə
l
la
lab
laba
labinsk
labinskan
labitnangi
laboratorijan
laboratorijas
lac
laciniata
lacio
lacuna
lad
ladi
ladii
ladim
ladimed
ladimensauvomine
ladimensauvomiz
ladimid
ladimiden
ladimis
ladlused
ladluz
ladog
ladogan
ladoganja
ladogha
ladogja
ladud
laduliz
ladun
ladus
ladv
ladva
ladvan
lady
lag
lagan
lagi
lago
lagos
lahdenpohj
lahdenpohjan
lahj
lahjakahut
lahjoic
lahjoitud
lahn
lahnad
lahor
laht
lahted
lahtedme
lahten
lahtenke
lahtes
lahtespa
lahthe
lahti
lai
laine
lainhed
lainhen
lainhiden
lainis
lais
laiv
laivad
laival
laivan
laivankohendusen
laivankohenduztegim
laivansauvomine
laivansauvomiz
laivis
laivjogeks
laivjogen
laivjogi
laivoid
laivoiden
laivoil
laiz
lajib
lak
lakalaiz
lakan
lake
laki
lakinsk
laks
lam
laman
lambare
lambaz
lambhad
lambhan
lambhid
lambiek
lamborghini
lamiaceae
lan
lancetanvuic
land
lands
lang
langenii
langenijad
langenijan
langenijoiden
langepas
langeta
langetas
language
languages
lanka
lanksi
lanktas
lankte
lankteb
lankten
lanktend
lanktendad
lanktendan
lanktendanno
lanktushe
lantan
lantanoidoiden
lao
laos
laosan
lapac
lapak
lapakoiktad
lapakoiktas
lapakonke
lapenrand
laplandii
laplandijan
laps
lapsed
lapseks
lapsele
lapseline
lapsen
lapsenke
lapses
lapsespa
lapsessai
lapsetoman
lapsid
lapsiden
lapsidenke
lapsidenkeskuz
lapsidens
lapsile
laptalagruppas
laptaliz
laptas
laptevoiden
lapua
lara
largest
larisa
larissa
larix
lars
larus
las
laserpitium
laske
laskeb
laskend
laskendad
laskendan
laskese
laski
lasktas
lasktihe
lasktud
lasso
last
lat
lata
latin
latinan
latinankel
latinical
latinine
latinis
latiniz
latv
latvii
latvijalaiz
latvijan
latvijas
laud
laudad
laudal
laudan
laudkund
laudkundad
laudkundan
lauk
laukad
laukan
laukkera
laukoid
launches
laura
laureat
laureatan
lauri
lav
lava
laval
lavan
lavanheitand
lavas
lavastadud
lavastusen
lavin
lavrentijan
lavrov
lavuazje
lavut
law
lazarevan
lb
ldk
ldots
le
leal
lebeda
lebedeva
leben
lebun
lebupa
lebutaho
lebutahoihe
lebutahoiz
lebutahoks
lebuturizmal
lec
ledi
lee
left
legend
legendad
legendan
legendarine
legendiden
legendine
legislative
leh
lehm
lehma
lehmuz
leht
lehtesed
lehtesen
lehtesenso
lehteses
lehtesid
lehtesiden
lehtesidenke
lehtesil
lehtesis
lehtesiz
lehtest
lehtez
lehtezmec
lehtezmez
lehtezpuiden
lehtis
lehtkuz
lehtpol
lehtpoled
lehtpolid
lei
leib
leiba
leibkombinat
leiblal
leibproduktoiden
leibtegesed
leibtegim
leibtegimel
leiden
leidenan
leidz
leiktuz
leipzig
leitnant
lek
lekar
lekarin
leksikon
lemb
lemba
lembaine
lembaiz
len
lenan
lend
lenda
lendab
lendahtamiz
lendai
lendajan
lendajiden
lendamha
lendand
lendandan
lendands
lendas
lendi
lendim
lendimed
lendimel
lendimen
lendimid
lendimiden
lendimpo
lendimport
lendimportad
lendimportal
lendimportan
lendimportanke
lendimportas
lendimportaspa
lendimporthasai
lendint
lendusen
lenduz
lenin
leninan
leningrad
leningradan
leningradas
leningradha
leninogorsk
leninogorskan
leninsk
leninskii
lenka
lenoblinvest
lenpa
lensk
lent
lenta
lental
leo
leon
leonard
leonardo
leone
leonen
leonid
leonov
leont
leopol
lepai
leps
lepus
lermontov
lermontovan
les
leskiak
leskusenvastaiz
leskuz
lesnoi
lesosibirsk
lesoto
lesoton
lesotos
lesozavodskan
leste
let
leta
letab
letas
letavertes
lete
letemad
leten
letetazangis
letetorokad
leti
leticija
letihe
letked
letken
letkesine
letkesiz
letud
letzte
lev
levad
levan
levanpoigaine
leved
levedad
levedali
levedamb
levedas
levedlehtesiz
levedusen
levedust
leveduz
levette
levigandeb
levigandmiz
levigandusen
leviganduz
leviganzi
leviganziba
levigatas
levin
levineb
levinedas
levitadas
levitadud
levitandan
levitase
levitasois
levitihe
levu
lez
lezg
lezgilaiz
lezgin
lezginalaiz
lezjogen
lezvig
lg
lhas
li
lia
liam
lian
lib
libakoiden
liberaliz
liberec
liberia
liberii
liberijan
library
librevil
libris
libu
libub
libuda
libudas
libui
libuiba
libuihe
libund
libundad
libundal
libundan
libundanke
libundas
libutimed
libutimiden
lic
licei
licein
liceis
lid
liden
lidenke
lider
liderad
lideraks
lideran
lidija
lidn
lidnad
lidnadme
lidnaglomeracii
lidnaglomeracijad
lidnaglomeracijan
lidnaglomeracijas
lidnaglomeracijha
lidnaine
lidnaiz
lidnaks
lidnal
lidnalaine
lidnalaiz
lidnalas
lidnale
lidnalpa
lidnan
lidnanke
lidnankund
lidnankundad
lidnankundaks
lidnankundan
lidnankundas
lidnankundha
lidnanlaptad
lidnanlaptaks
lidnanlaptas
lidnanlaptha
lidnanno
lidnannoks
lidnanpa
lidnansauvomiz
lidnanu
lidnanvuic
lidnanvuitte
lidnanvuittus
lidnanznam
lidnanznamal
lidnanznaman
lidnas
lidnaspa
lidneihut
lidnelektrojonused
lidnelektrojonusid
lidnfartaliden
lidnfartaloiden
lidnha
lidnhasai
lidnkundan
lidnkundha
lidnoid
lidnoiden
lidnoidenke
lidnoihe
lidnoihesai
lidnoiks
lidnois
lidnrajonad
lidnrajonaks
lidnrajonha
lidnrajoniden
lidnrajoniks
lidnu
lidnudeks
lidnuden
lidnudes
lidnused
lidnuseks
lidnusen
lidnusenke
lidnusenno
lidnuses
lidnusespa
lidnust
lidnut
lidnuz
lids
lie
liebe
life
liftad
ligas
light
lights
liha
lihad
lihakombinat
lihan
lihanso
lihanu
lihaproduktad
lihasiden
lihategim
lihe
lihoslavl
lihtens
liig
lik
lika
like
likino
likkudas
likkuimed
likkuimiden
liko
likub
likui
likujad
likumiz
likund
likundad
likundan
likundas
likundha
likutim
likutimed
likutimen
likutimenke
likutimid
likutimiden
likvidacii
likvidacijan
likvidiruidud
likvidiruihe
lil
lila
lilaiz
lill
lilongve
lim
lima
liman
limited
limon
limonan
lin
linan
lincoln
lind
linda
lindberg
linde
lindfabrik
lindferm
lindud
linduid
linduiden
linduine
lindun
lindunpoigaiz
line
lingala
lingvo
linii
linijad
linijal
linijan
link
linkol
linmail
linn
linnaeus
linne
linneb
linned
linnei
linnen
linni
linniba
linniz
linux
lion
lipeck
lipeckan
lipeckhasai
lipin
lipkaine
lipkaiz
lipki
lippe
lir
lirik
lis
lisa
lisic
lisicina
liski
liskin
liskovon
lissabon
lissel
list
litab
liteinii
literatur
literaturan
literaturas
literature
literaturine
literaturiz
litii
litkarino
litrad
little
litud
litv
litvalaiz
litvan
litvanma
litvanman
litvanmanke
litvanmas
livan
livanan
livanov
live
livejournal
liverpool
liverpul
livia
liviesk
livii
livijan
livijanke
livin
livni
livnin
livonijan
livv
livvin
liz
liza
lk
ll
lla
ller
llis
lloid
llu
lm
ln
lo
lobac
lobez
lobn
local
locomotion
lod
lodeh
lodehel
lodehen
lodehes
lodehespa
lodeheze
lodehline
lodehliz
lodehpoles
lodz
log
logan
logik
logikan
logikas
logine
logistik
logistikal
logistikan
logistine
logistiz
logiz
lohi
lohj
loic
loimaa
loimijoki
lol
lolita
lome
lomonosov
lomonosovan
lond
londad
londan
londoid
londoiden
londoile
londois
london
londonan
londonas
londonderri
londonha
londonhasai
londuseline
londuselis
londuseliz
londusen
londusentedoidai
londusentedon
londuses
londuz
lonely
long
longibokas
lonicera
lonin
look
lop
lopes
lophu
lophusai
lopi
lopib
lopihe
lopind
lopindad
lopindan
lopindas
lopis
lopma
lopmiz
lopstancii
lopstancijaks
loptu
lopud
lopuks
lopul
lopuline
lopuliz
lopun
lopus
lopuspa
lorak
lord
lordan
lordi
lorenco
lorenso
lorin
los
lose
losing
losino
lost
lota
loud
louhin
louie
louis
louise
loun
lourensii
lov
lovan
lovat
love
lover
lovon
loz
lozbumagaine
lozbumagaiz
lozbumagas
lozine
lp
lpa
lpp
lpz
ls
lt
ltd
lu
luand
luar
luaran
luc
luci
luciano
lucky
lud
ludeghein
ludwig
lug
lugan
lugansk
luganskan
lugeb
lugeda
lugedas
lugeden
lugemata
lugemiz
lugend
lugendan
lugendlehtesen
lugendlehteses
lugendlehtez
lugese
lugesois
lugeta
lugetas
lugetihe
lugi
lugiba
lugii
lugu
lugud
luguhu
luguid
luguiden
luguine
luguiz
luguks
lugul
luguma
lugun
lugus
lugusana
luguspa
lugustusen
luhovici
luhovicin
luhtoil
lui
luid
luiden
luidz
luis
luiz
luiza
luja
lujad
lujan
lujanke
lujas
lujemb
lujembad
lujeneb
lujeni
lujetud
lujid
lujiden
luk
luka
lukan
lukas
luke
luki
lukin
lukoil
lukojanov
lukojanovan
lumarj
lumedme
lumekaz
lumen
lumenke
lumenla
lumens
lumi
lumikate
lumimarjanpenzaz
lumotlar
lumpur
lun
luna
lund
lundan
lundgren
lundy
lunt
lupin
lupinus
lupus
lusak
lusia
lusiden
luspa
luxembourg
luxor
luz
luzan
lv
lva
lvast
lvaz
lvhan
ly
lyon
lɑ
lɔ
lɪ
m
ma
maa
maakond
maardu
maas
mac
mactutor
macumoto
mad
madagaskar
madagaskaran
madal
madalad
madalal
madalamb
madalambad
madalan
madalanke
madalid
madaliden
madalil
madam
madandoid
made
madeh
madeir
madhu
madhuri
madme
madod
madoil
madras
madrid
madridan
madridha
madz
mafijan
magadab
magadan
magadanan
magaduzrajonaks
magaduzsijaks
magas
magata
magdalena
magdeburg
magdeburgan
maged
magedad
mageina
magellan
magic
magii
magistral
magistraliz
magistran
magnii
magnitine
magnitiz
magnitogorsk
magnitogorskan
magnitoiden
magnitud
magnitudanke
magnum
magomed
magu
magud
magun
magunke
maguta
magutesed
maguteseks
magyar
magyarorsza
maha
mahac
mahal
mahalla
mahanadi
mahapandud
maharas
mahasai
mahatma
maht
mahta
mahtab
mahtod
mahtoi
mahtoid
mahttas
mahtused
mahtusel
mahtusen
mahtusid
mahtusiden
mahtust
mahtuz
mahusel
mahusen
mahuses
mahusespa
mahusid
mahusil
mahust
mahuz
mai
maid
maiden
maidenke
maidkombinat
maidme
maidod
maidon
maidproduktad
maidte
maidtegim
maidtegimel
maidten
maihe
maihutuzkeskust
maija
maik
maikl
maikop
maikopan
mail
main
mainal
mainc
maine
mainitadas
mainitadud
mainitas
mainitase
mainitasois
mainitez
mainiti
mainitihe
mairhen
mairiz
mais
maiskii
maiskijan
maiz
maja
majag
majagan
majak
majakovskii
majami
majamihe
majamis
majlis
major
mak
makarjev
makarjevan
makaronad
makarov
make
makeba
maked
makedonii
makedonijalaine
makedonijalaiz
makedonijan
makejevk
makes
makgregor
makiavelli
makio
makkenzi
makne
makod
makon
makron
maks
maksab
maksarv
maksim
maksimilian
maksimov
maksimum
maksline
maksmine
maksmiz
maksoi
makstas
maksutoi
maksvell
makund
makundad
makundan
makundas
makundha
makus
mal
mala
malabo
malagas
malain
malaine
malaiz
malaizii
malaizijan
malajalam
malakkan
malavi
malavin
malawi
male
malferma
malgobek
malhotra
mali
malik
malin
malini
malinke
malis
malkoc
mall
mallu
malmiz
malo
maloarhangel
malojaroslavec
malta
malu
malus
mam
mama
mamad
mamadis
mamaks
maman
mamanke
mamankel
mamankeleks
mamankelel
mamankelen
mametall
mametallad
mammuthus
mamoi
man
mana
managua
manah
manahad
manalaine
manalaiz
manalas
manaluiz
manam
manaus
manc
mandela
mandz
manga
mangan
mangas
manges
manhetten
manic
manil
manis
manitusen
manke
mankoren
manmehed
manmehen
manmehiden
mann
manna
mannoks
manpa
manpidajan
manpol
manradandan
manrehkaidused
manrehkaidusen
manrehkaiduses
manrehkaidusid
manrehkaidusiden
manrehkaidust
manrehkaiduz
mans
mansiisk
mansiiskan
mansiiskhasai
mansilaiz
mansin
mansodan
mansur
mantazole
mante
manted
manten
manturovo
manu
manuel
manuela
manufaktur
manzikaine
mao
maor
maori
maorilaiz
maorin
maplod
maplodud
maploduid
maploduiden
mapolis
maputu
mar
mara
marakai
marakaibo
marat
marc
marcelo
marchantia
marco
mare
mareiguis
marganc
margaret
margarita
mari
maria
mariana
marianna
maric
marie
marii
mariinsk
mariinskii
marija
marijampole
marijan
marilaiz
marilyn
marin
marina
marine
marino
marinon
mario
mariupol
marj
marjad
marjoid
marjoiden
marjoidenke
marjois
mark
markad
markan
markes
markku
marko
markos
markova
marks
marksan
marksizman
markutan
maro
marok
marokon
marokos
marri
marriage
mars
marsan
marsel
marta
martan
martanan
marti
martin
martines
martinik
martins
martirosa
martti
marumenc
marx
mary
mas
masaharu
masako
maseru
maskat
maspa
mass
massac
massad
massan
massine
massinformacijan
massiz
mast
mastani
mastar
mastarid
master
mat
mata
matc
matematik
matematikan
matematikantedomez
matematikas
matematine
matematiz
material
materialad
materialaks
materialan
materialid
materialiden
materialine
materialis
materializ
materialoid
materialoiden
materialois
materijan
matfejansel
mathematics
mathur
matir
matisse
matk
matkad
matkadai
matkadajad
matkadajan
matkadajiden
matkan
matkas
matkazi
matknikoid
matknikoiden
matkoiden
matoi
matondkar
matricaria
matthew
matu
matud
mauno
maunt
maurice
mavaldkundro
mavrikii
mavrikijan
mavritanii
mavritanijan
mavzolei
max
maxi
may
maz
mb
mba
mbabane
mbaz
mbei
mbitamiz
mbitusen
mbituz
mbri
mbrik
mbrikacundan
mbrikho
mbrikirjutab
mbrikirjutadud
mbrikirjutand
mbrikirjutandan
mbrikirjutase
mbrikirjuti
mbrikirjutiba
mbrikod
mbrikodme
mbrikoid
mbrikoiden
mbrikoidenke
mbrikoihe
mbrikoiks
mbrikois
mbrikoita
mbrikoks
mbrikol
mbrikon
mbrikonke
mbrikos
mbrikospa
mbriradai
mbriradajad
mbriradajal
mbriradajan
mbriradajil
mbriradamha
mbriradmine
mbriradmiz
mbriratas
mbriratud
mbris
mbrusen
mc
mcensk
mcenskan
md
mdand
mdandan
mdandha
mdase
mdihe
mdud
me
mebel
mebla
meblid
meblin
mec
mecad
mecadab
mecadamha
mecal
mecamez
mecan
mecanc
mecanro
mecanu
mecas
mecatas
mecerikod
mecha
mechas
mechoz
meciz
mecja
meckombinat
meclind
mecnik
mecnikad
mecoi
mecoid
mecoiden
mecoil
mecois
mecpallis
mecpilindan
mecpilindtegim
mecstepin
mecstepis
mectegimis
mectunu
mectusen
mectuz
mecz
meczonas
med
medan
medel
meden
medenkandai
media
medicin
medicinan
medicinas
medicine
medicinine
mediciniz
medin
medkolledz
mednikova
mednogorskan
medrese
meds
medvedev
medvedic
medvez
medz
megamiks
megamix
megion
megye
mehanik
mehanikan
mehanikantedomez
mehanine
mehaniz
mehanizacijan
mehanizm
mehed
meheks
mehel
mehele
meheline
mehen
mehenke
mehid
mehiden
mehidenke
mehiko
mehikon
mehiks
mehil
mehile
mehis
mehra
mei
meid
meiden
meidzi
meile
mein
meis
meisa
meitel
meitelan
mek
mekk
mekkan
meklenburg
mekong
meks
meksik
meksikaine
meksikaiz
meksikalaiz
meksikan
meksikanke
meksikas
meksikha
meksiko
mel
mela
meladze
meled
melekess
melel
melen
meles
melestegii
melestehtud
meletada
meletadas
meletai
meletamiz
meletandan
meletoi
meletomuz
meletuz
meleuz
meleuzan
melev
melid
meliden
melioracijan
meliorativnijan
melis
melissa
melo
melodii
members
memfis
memorial
memorialine
memories
men
menalaiz
menan
mendelejev
mendelejevan
mendes
mendos
mendoza
menedz
mengan
menid
menihesai
menikad
menikoid
menin
menlakso
menlidn
mens
mensch
mentan
mentha
menu
menzelinsk
menzelinskan
menzoittud
mephi
mer
mera
merad
meran
mercedes
mercy
mere
mered
meredme
mereks
merel
meren
merenke
merenproduktad
merenrandaine
merenrandaiz
merenrandaline
merenrandaliz
merentagaiz
mererand
mererandad
mererandal
mererandaline
mererandaliz
mererandan
mererandanno
mererandatoi
mererandis
mererandpol
mererandpolel
meres
merespa
merhe
meri
merian
meriden
meridian
merii
merijan
merikar
merikarad
merikaran
merikaranno
merikaras
merilaivis
merilend
merilin
merimatkadai
merimatkadajan
merin
merine
meriport
meriportad
meriportaks
meriportal
meriportan
meriportanke
merirandan
merirazbainik
meriro
meris
merite
merivaldmad
meriveden
merivedes
meriz
merkurii
merkurijan
merospa
mersedes
mert
mes
mest
mestizo
met
metafizik
metal
metall
metallad
metallal
metallan
metallanu
metallaspa
metallica
metalline
metallis
metalliz
metallkonstrukcijad
metallkonstrukcijoiden
metalloid
metalloiden
metalloidenke
metallois
metalltegesiden
metallum
metallurg
metallurgii
metallurgijal
metallurgijan
metallurgijas
metallurgine
metallurgis
metallurgiz
metan
metanan
meteorologii
metod
metodad
metodan
metodoid
metoiden
metoks
meton
metr
metrad
metran
metras
metrhasai
metrid
metris
metriz
metro
metrod
metron
metropolijan
metropoliten
metropolitenan
metropoliteniz
metrostancii
metrostancijad
metrostancijan
metsa
mett
metz
mez
mezen
mezenin
mezi
mezja
mezo
mg
mgimo
mglin
mha
mhemb
mhovo
mhovon
mi
mia
miass
miassan
mic
michael
microsoft
mid
mida
middle
miden
midnight
midural
mie
mifan
mifi
mifiz
mifologii
mifologijan
mifologijas
mig
migel
migracii
migracijan
miguel
mihael
mihail
mihailov
mihailovan
mihailovic
mihailovk
mihailovkan
mihailovna
mihailovsk
mihailovskan
mihailovskii
mihe
mii
miime
mijadzaki
mijavi
mijla
mik
mikel
mikele
mikhail
mikki
mikod
mikoi
mikoid
mikoiden
mikroelement
mikronezijalaiz
mikronezijan
mikrorajon
mikrorajonad
mikrorajonaks
mikrorajonan
mikrorajonas
mikrorajonha
mikroshemad
miks
mikulai
mikulain
mikun
mil
mila
milan
milanan
milanas
mile
milicijan
mill
millais
mille
miller
millerovo
milliardad
millimetrad
millimetraspa
millimetrhasai
million
millionad
millionaspa
millioner
millionerad
millionerlidn
millionhasai
millioniz
mills
milo
miluoki
min
mina
minai
minas
mind
mindai
mine
minei
mineral
mineralad
mineralan
mineraline
mineraliz
mineraloid
mineraloiden
mineralveden
mineralvezi
mineralveziden
minho
minial
miniatu
minibusad
minii
minijan
minijantegim
minijantegimel
minijasiz
minimaline
minimaliz
minimum
miniserial
ministe
minister
ministr
ministrad
ministraks
ministran
ministranke
ministre
ministrid
ministriden
ministris
ministro
ministrused
ministrusen
ministruses
ministruz
minneapolis
minnesot
minoug
minsk
minskan
minun
minunke
minus
minusinsk
minusinskan
minutad
minutas
minute
minutes
mir
mira
miran
miranda
miraz
miriam
mirnii
mirnijan
mironov
mirun
mirus
mirza
mis
miski
miskolc
miss
missii
missijan
missing
mississipi
mississipin
missuri
mister
mit
mita
mitc
mithun
mitis
mitte
mittus
miura
miut
mix
miyavi
miyazaki
miz
mja
mjanm
mjanmar
mjanmaran
mk
mkombinat
mku
mkud
mkuhusai
mkul
mkun
mkus
mkuspa
ml
mliz
mln
mlrd
mm
mn
mne
mned
mnehe
mnehesai
mnekilometrine
mneks
mnen
mnendel
mnenden
mnendes
mnendest
mnendez
mnent
mnenz
mnes
mnespa
mnevoc
mnevozne
mnid
mo
moa
mobiline
mobiliz
moc
mod
modaiz
modan
modas
model
modelid
modeliden
modeliks
modelin
modem
modern
moderne
modernizman
modificiruidud
modifikacii
modifikacijad
modifikacijas
modifikacijoid
modod
modon
modpolis
mogilo
mogoc
mohamed
mohammad
mohammed
mohan
moi
moid
moiden
moik
moima
moin
moinvastaiz
moipalo
moipalod
moipalon
moipalonvastaine
moipalos
mois
moisejan
moite
mokic
moknikan
moknikoiden
moks
mol
moldov
moldovalaiz
moldovan
moldovas
molekul
molekula
molembad
molembid
molembiden
molembil
molembis
molibden
molibdenan
moll
mollu
molog
mon
mona
monaco
monako
monakolaiz
monakon
monarh
monarhad
monarhan
monarhii
monarhijan
monc
mondo
monedula
mong
mongolii
mongolijan
mongolijanke
mongolijas
mongoline
mongoliz
monika
mono
monografijad
monorel
monoteizm
monreal
monrealihe
monro
monster
mont
montana
montaz
monte
montenegro
monterrei
montevideo
montevideon
monument
moon
mopan
mor
mora
moral
moralin
morandi
mordovii
mordovijan
mordvinalaiz
more
moreno
mori
morii
morijad
morijoid
morim
moris
morkofk
mormonad
morning
moroz
morozko
morozov
morris
morrison
mors
mort
morz
mos
mosal
moscow
moskovii
moskovskii
moskv
moskvad
moskvalaiz
moskvan
moskvanaluine
moskvanjogen
moskvanke
moskvas
moskvaspa
moskvha
moskvhasai
most
mostar
mostotrest
mostotrestan
mot
motion
motociklad
motor
motors
mouchein
mouckiven
mouckivespa
mouckivi
mougotil
mountain
movicen
movie
movies
movsk
movskii
movskijan
moz
mozambik
mozambikan
mozambikanke
mozdok
mozdokan
mp
mpo
mprodukt
mr
mramor
mramoran
mramoriz
mri
mrs
ms
msa
msija
msk
msu
mt
mta
mtavaroiden
mtegimis
mto
mtv
mu
mua
muc
much
mud
muded
mudel
muden
mudenke
muga
mugaz
muglidenke
muglmetall
mugoi
mugoine
mugoiz
mugomad
mugoman
mugomid
mugomiden
mugos
mugulad
muguloid
muguloiden
muhafaz
muhammad
muhammed
muhu
muiged
muigotandma
muigotub
muiktad
muiktoid
muiktused
muiktusen
muiktusenma
muiktusid
muiktusiden
muiktusidenke
muiktuz
muiktuzgaz
muiktuzgazan
muiktuzma
muil
muilan
muit
muite
muja
mujand
mujandad
mujandoiden
mujezerskijan
muju
mujud
mujuherneh
mujuid
mujuiden
mujuil
mujuiz
mujukaz
mujul
mujumetalloiden
mujun
mujuta
mujutadud
mujutimed
mujutimid
mujutoi
mujutuz
muk
mukes
mukherdz
mul
mulatad
mumbai
mumbaihe
mumbain
mumbais
mun
muna
munad
munan
munanvuic
munanvuitte
munaric
munas
munasan
munda
muni
munib
municipal
municipaline
municipalis
municipalitet
municipalitetad
municipalitetaks
municipalitetan
municipalitetanke
municipalitetas
municipalitetha
municipalitetoiden
municipalitetoiks
municipaliz
municipio
munid
munindas
munis
munna
munzinger
mur
murahaiz
muras
murat
muravlenko
muraz
murdoiden
murenda
murendab
murendai
murendajad
murendusen
murendusid
murenduz
mureni
mureniba
murenziba
murenzihe
mureta
muretas
muretihe
muretud
murino
murinon
murman
murmansk
murmanskan
murmanskhasai
murom
muroman
muroran
murray
murteista
murud
mus
musca
musen
museum
music
musica
musik
musique
musson
mussonine
mussoniz
must
mustad
mustafa
mustaks
mustan
mustas
mustikaine
mustikaiz
mustm
mustma
mustmeren
mustmerhe
mustmeri
mustoiden
mut
muti
muugotid
muugotil
muupa
muz
muza
muzabur
muzaveriz
muzavihand
muzei
muzejad
muzejan
muzejas
muzejha
muzejiden
muzelektrokeskusel
muzelektrostancii
muzik
muzikad
muzikal
muzikaline
muzikaliz
muzikan
muzikankirjutai
muzikankirjutajad
muzikankirjutajan
muzikant
muzikantad
muzikantan
muzikantoiden
muzikanva
muzikas
muzikfestivalihe
muzikfil
muzikgrupp
muzikgruppad
muzikgruppan
muzikgruppas
muzikha
muzikkar
muzikkollektivan
muzikprodu
muzikprojekt
muziks
muziksa
muziktorgudele
muzikvideo
muzizola
muzmas
muzvedim
muzvedimed
mv
mva
mvoi
mvt
mvu
mx
my
myosurus
myspace
mystery
mystic
mz
mzi
mzihe
mɐ
mɔ
mə
məlumat
n
na
naantali
naba
nabakehkruden
naban
nac
nacein
naceine
naceinuden
nach
nacijoiden
nacional
nacionaline
nacionalis
nacionalistine
nacionaliz
nacionalizm
nacionalna
nacistine
nacistiz
nacistoiden
nacistoil
nad
nadez
nadi
nadim
nadu
nagoi
nagr
nagra
nagrab
nagrhen
nagrhenke
nagriz
nahic
nahin
nahk
nahkad
nahkan
nahkaspa
nahkoid
nahkoiden
nahktegim
nahktegimel
nahotk
nahotkan
nai
naida
naimatoi
naimatoman
naimiz
naind
naindan
naindas
naindaspa
naindata
naine
nainu
naip
nairobi
naiz
naja
nak
naku
nal
nalaiz
nale
naloz
nam
namangan
namaste
name
names
namibii
namibijan
namibijanke
nan
nana
nanalaiz
nancy
nankin
nanvuic
napoleon
napolin
napri
naprib
napriba
napridas
naprihe
naprind
naprindad
naprindan
naprindoid
nar
narajanke
nardad
narendra
naro
narod
narv
narva
narvan
nas
nasa
nasinu
nassau
nassaun
nastoi
nat
natal
natalia
natalija
natan
natas
nath
national
nationalbibliothek
nationale
nationalencyklopedin
nations
nato
natrii
natrijan
naturaline
naturaliz
nature
nauru
naurun
nausika
nausori
navaho
naval
navas
navedi
navedib
navedii
navedin
navetta
navettu
navigacijan
navoloki
nazarova
nazarovo
nazivajevsk
nazran
nb
nbc
nc
nd
nda
ndab
ndad
ndai
ndajad
ndajaks
ndajan
ndajiden
ndal
ndan
ndanke
ndas
ndase
ndasois
ndaspa
ndast
ndaz
nded
ndehe
ndeks
ndel
nden
ndes
ndest
ndestos
ndez
ndfartal
ndfartalad
ndha
ndi
ndiba
ndihe
ndijan
ndikahan
ndikahanbut
ndikahiden
ndikaz
ndkodi
ndkodid
ndkodiden
ndkodin
ndkodis
ndled
ndlid
ndma
ndmaha
ndmahas
ndmiz
ndnu
ndnuded
ndnundan
ndnus
ndnuzid
ndod
ndoid
ndoiden
ndoihe
ndois
ndom
ndoman
ndon
ndos
ndospa
ndpert
ndpertid
ndpunkt
ndpunktad
ndpunktaks
ndpunktan
ndpunktas
ndpunktha
ndpunktoid
ndpunktoiden
ndpunktoidenke
ndpunktoiks
ndpunktois
ndsija
ndsijad
ndskii
ndtahod
ndtavarad
ndtavaraks
ndtavaroid
ndtavaroiden
ndub
ndudas
ndui
nduiba
nduihe
nduman
ndun
ndund
ndundad
ndundan
ndundas
ndundaspa
ndundpa
ndused
ndusenke
nduses
ndusid
ndusiden
ndusil
ndusis
ndutada
ndutadas
ndutadud
ndutamha
ndutamine
ndutamiz
ndutand
ndutandma
ndutase
ndutesen
nduti
ndutihe
nduz
ndz
ne
neb
neburg
nece
necel
necen
neche
necida
necil
necis
ned
nedal
nedalid
nedalil
nedalin
nedalis
nederlanden
nedheotand
need
needs
neemian
neeson
nefta
neftegorsk
neftegorskan
neftejugansk
neftekamsk
neftekumskan
negativine
negativiz
neha
nehru
nei
neic
neidis
neighborhood
neil
neitraline
neitraliz
neitroniden
neiz
nek
nekamsk
nekamskan
nekrasov
nektarad
nel
nele
nelevator
nelidovo
nell
nella
nellha
nellik
nellikkilometrad
nellikkilometrid
nellikon
nelson
nem
neman
nemel
nemen
nen
nena
nenc
nencalaiz
nencan
nenciden
nend
nendmetall
nendtaho
nene
nened
nenid
neniden
nenidenke
nenihe
nenil
nenis
nenke
nensi
neodim
neoheresy
neolitan
neon
nepal
nepalan
nepalas
nepali
neps
nepsad
nepsoid
nepsoil
nepsois
nepsudenke
nepsut
nepsuz
neptun
neptunii
ner
nerc
nerec
nereht
nero
neru
nes
nespa
nestab
nestadas
nestle
nestusel
nestuz
net
netab
netadud
netamiz
neti
netoitab
netoitand
netoitandan
netoiti
netto
netused
netusidenke
network
neue
nev
neva
nevad
nevalaine
nevalaiz
nevan
nevartovsk
nevartovskan
nevel
never
neviim
nevinnomissk
nevinnomisskan
nevis
nevisan
nevjansk
nevjanskan
nevoi
nevondan
nevondkund
nevondkundad
nevondkundal
nevondkundale
nevondkundaline
nevondkundalis
nevondkundaliz
nevondkundan
nevondkundha
nevondkundoiden
nevzorov
new
news
newton
nez
nf
nfst
ng
nganasanan
ngc
nged
ngel
ngido
ngri
ngua
nh
nhe
nhen
nhk
nho
ni
niamei
niba
nic
nicc
nick
nid
niden
nietzsche
nietzsches
nigamanke
niger
nigeran
nigeranke
nigeria
nigerii
nigerijan
nigerijas
night
nights
nigra
nigrum
nigsberg
nih
nihonii
nii
niid
niiden
niidenke
niihe
niil
niile
niinisto
niis
niita
nija
nijan
nijois
nik
nika
nikad
nikan
nikanke
nikaragua
nikaraguan
nikel
nikelin
niken
niki
nikita
nikitin
nikkeri
nikki
nikkolo
niklehtesed
niklehtesiden
niklehtest
nikod
nikoic
nikoid
nikoiden
nikoidenke
nikoil
nikoile
nikoine
nikois
nikoitas
nikoiz
nikol
nikola
nikolai
nikolajev
nikolajevan
nikolajevic
nikolajevsk
nikolajevskan
nikolajevskoje
nikolas
nikolo
nikon
nikonan
nikonz
nikos
nikov
nikused
nikuseks
nikusen
nikusid
nikust
nikuz
nil
nilan
nimed
nimeks
nimel
nimen
nimenke
nimespa
nimetoi
nimi
nimic
nimid
nimida
nimiden
nimikirjutesen
nimikirjuteses
nimikirjuteshe
nimikirjutez
nimil
nimis
nimitada
nimitadas
nimitadud
nimitamha
nimitas
nimitase
nimitasois
nimiti
nimitiba
nimitihe
nimittus
nimitused
nimitusen
nimitusenke
nimitusespa
nimitushe
nimitusid
nimitust
nimituz
nimme
nin
nina
nine
ninen
ninev
ninevuz
ninga
ningoi
ningois
nint
niobii
nippon
nis
nison
nit
nitid
nitiden
nitmar
nitmarin
nitud
nituid
nituil
nitvan
nivea
nivhalaiz
nivhan
niz
nja
njogen
nju
njufaundlend
njuton
nk
nkan
nke
nkel
nkombinat
nkombinatal
nkruma
nkrumah
nkul
nl
nliha
nlm
nm
nma
nman
nn
nna
nnavedii
nndb
nno
nnov
nnovsk
nnovskan
nnrot
nnu
nnuden
no
noa
nobel
nobela
noe
nog
nogailaiz
nogain
nogi
noginsk
noginskan
nogorsk
nograd
noi
noibrandenburg
noid
noidak
nojabr
noje
nok
nokia
nol
nola
nolan
nolinsk
nolinskan
nom
nomer
nomerad
nomeranke
nomeruidud
nominalanke
nominaline
nominativ
non
noosfere
nor
nora
nord
nored
noremb
norembad
norembaine
norembaiz
noremban
noren
noressai
norge
norid
noriden
noriko
noril
noris
norm
norma
normad
normaline
normaliz
norman
normdatei
norsk
norske
nort
north
northern
noruden
norudes
norv
norvegii
norvegijalaiz
norvegijan
norvegijas
norvegine
norvegiz
nos
noskov
noskovan
not
nothing
notked
nous
nov
nova
novan
novatek
novi
novikova
novo
novoanninskijan
novoc
novodvorskaya
novohopo
novokubansk
novokubanskan
novokuibis
novokuzneck
novokuzneckan
novomic
novomoskovsk
novomoskovskan
novopavlovskan
novorossiisk
novorz
novos
novosibirsk
novosibirskan
novosibirskha
novosibirskhasai
novosil
novosilin
novosokol
novotroick
novoul
novoural
novouzensk
novouzenskan
novovoronez
now
nowhere
noz
nozol
nozolan
nozoltadud
nozoluded
nozoluden
nozoluz
np
npa
nproduktad
nproduktoiden
ns
nsi
nsk
nskan
nskhasai
nso
nst
nstlerlexikon
nstu
nsulatusen
nt
ntegesed
ntegim
ntegimel
nter
ntgenii
ntor
ntta
nttud
ntv
nu
nuadibu
nuaks
nuded
nueva
nuia
nukus
number
nur
nureddin
nurlat
nurlatan
nurmes
nus
nuuk
nuziden
nvastaiz
nvauktusen
nvauktust
nvuic
nvuitte
nvuittus
ny
nya
nyc
nyi
nysassiske
nytimes
nz
nzid
nziden
nzihe
nzil
nzis
nzoitab
nzoitmaha
nzoittud
nɑ
nə
o
oan
oao
oar
oazisas
ob
obama
oberoi
obi
obil
obin
obinjogen
obis
obituary
objekt
objektad
objektaks
objektan
objektoid
objektoiden
objektoil
oblast
obluc
obninsk
obninskan
obois
obojan
obojanin
obovata
obra
obrazcova
obrazovanie
obvodnii
oc
occidentalis
ocean
och
ocha
ochiq
ocseina
october
od
odav
odel
oder
oderan
odess
odessan
odin
odincovo
odincovon
odissei
odnako
odnoklassniki
odprte
odvad
odz
of
off
office
official
officinalis
oficaline
oficer
oficeriden
oficialine
oficialis
oficialitoi
oficialitomas
oficialitomiks
oficializ
ofis
ofisad
ofisan
ofispert
ofissauvuz
ofs
og
oga
ogaha
ogajo
ogakaz
ogas
ogata
ogernikan
ogeruz
ogibal
oglu
oguri
oguz
oh
ohan
ohansk
ohanskan
ohar
ohjandab
ohjandai
ohjandaikund
ohjandajad
ohjandajaks
ohjandajan
ohjandajiden
ohjandi
ohjandimed
ohjandimid
ohjandimiden
ohjandused
ohjandusel
ohjandusen
ohjandust
ohjanduz
ohjanduzkund
ohjanduzkundan
ohjanzi
ohjastab
ohjastada
ohjastai
ohjastajan
ohjasti
ohjastiba
ohjastusel
ohjastusele
ohjastusen
ohjastusenke
ohjastuses
ohjastust
ohjastuz
ohjatas
ohotskan
oht
oi
oid
oiden
oidenke
oidkiven
oidkivi
oidme
oidud
oiduid
oiduiden
oiduis
oidul
oidun
oidus
oiduspa
oiged
oigedpol
oigedsaumaine
oigedsaumaiz
oigendab
oigendamha
oigendamiz
oigendase
oigendusen
oigenduses
oigendusiden
oigendusis
oigenduz
oigenduzkund
oigenduzkundad
oigenduzkundan
oigenu
oigenzi
oigenziba
oigenzihe
oigeta
oigetas
oigetihe
oigetud
oigu
oihe
oikahad
oikaz
oiks
oiktad
oiktaha
oiktal
oiktale
oiktalpa
oiktan
oiktanke
oiktas
oiktastuseks
oikti
oiktoid
oiktoiden
oiktoil
oiktused
oiktusekaz
oiktusen
oiktusenke
oiktusid
oiktusiden
oiktusidenke
oiktusis
oiktust
oiktuz
oiktuzline
oiktuzliz
oil
oin
ois
oiteldas
oitele
oiteleb
oitelematomad
oitelemha
oja
ojad
ojama
ojan
ojat
ojatin
ojid
ojiden
ok
oka
okai
okaidud
okan
okanjogen
okanjogi
okas
okei
okino
okinon
okkervil
okkoim
okkoimen
okkoint
okkupacii
okkupacijan
okkupirui
okkupiruidud
okkupuruidud
oklahom
oklahoma
oklend
oklendan
okolad
okoladan
okoladfabrik
okrug
oks
oksad
oksana
oksford
oksfordan
oksiden
oksitanan
oksuine
oksuiz
okta
oktavian
okulovk
okun
okvezoil
ol
ola
olakivi
olan
old
olda
olden
oldes
ole
oled
oleg
oleite
oleksijan
oleldas
olele
oleleb
oleli
oleliba
olem
olemine
olemiz
olen
olend
olendad
olendan
olendas
olendaspa
olendois
olendsija
olenegorsk
olenegorskan
oles
oleskeldas
oleskele
oleskeleb
oleskeli
oleskeliba
olet
olgoi
olhav
olhavan
oli
oliba
olii
olijad
olijoid
olijoiden
olijois
olimp
olimpalaiz
olimpiadan
olimpiadva
olimpine
olimpiz
oliva
oliveira
oliver
olivija
oliz
olkovo
olkovon
oll
olli
olmas
olmatomuden
olmatomuz
olnu
olnuded
olo
olomouc
oloncan
olonecan
olsson
olud
oluden
oludentegim
oludtegim
oludtegimel
olut
olympics
om
oma
omac
omad
omaks
omakulu
omal
omaluiz
omamaht
omamahtoiden
omamahtoine
omamahtoiz
omamahtoline
omamahtoliz
omamahton
omamahtos
oman
omanan
omanas
omanke
omar
omas
omblend
omblendan
omblendedheotandoil
omblendfabrik
omblendfabrikad
omblendfabrikal
omblendtegimis
omega
omid
omiden
omikron
omil
omin
omis
omitadas
omitadud
omitesed
omitesiden
omkara
omnia
omnibus
omod
omolungm
omsk
omskan
omskportal
omsu
omuden
omutninsk
omutninskan
omuz
on
ona
onan
onas
once
ondrii
ondrijan
one
oneg
onegan
onego
ong
ongrad
onho
onikidzen
onlain
online
only
onni
onov
ons
onson
ontario
onthisday
ontology
oo
oomph
op
opalahine
opalas
opc
ope
open
openda
opendab
opendai
opendajan
opendajiden
opendamha
opendamine
opendamiz
opendata
opendusen
opendusenke
openduses
opendust
openduz
openduzkeskuseks
openduzkeskuz
openik
openikad
openikan
openikoid
openikoiden
openoffice
openuda
openui
openumha
openzi
openzihe
oper
opera
operacii
operacijad
operacijoiden
operad
operan
operas
operator
operpajatai
opeta
opetas
opete
opeten
opoc
oppozicijan
opra
opron
optikan
optikas
optimal
optine
optiz
opus
or
ora
orad
orahaiz
oraks
oral
oralaiz
oran
oranijenbaum
oranz
orav
orb
orbitan
orbitstancii
ordan
orden
ordenad
ordenan
ordz
oredez
orehovo
orel
orelan
orelhasai
orenburg
orenburgan
orenburghasai
orfografii
org
organ
organad
organiz
organizacii
organizacijad
organizacijan
organizacijoiden
organization
organizm
organizmad
organizman
organizmas
organizmiden
organizuidud
organoiden
orhal
ori
orientalis
original
originalan
originaline
originaliz
orijalaiz
orijan
orin
orivezi
orjad
orjiden
orjusen
orkestr
orkestran
orkestranke
orl
orlan
orlean
orleanan
orlov
orlova
orlovan
ornella
oro
oroiden
ors
orsk
orskan
ortodoksine
ortodoksiz
oryza
orz
os
osak
osan
oset
osetijan
osetinalaiz
osijek
osinniki
osinnikin
oskar
oskol
oskolan
oslo
osman
osmanan
osmii
osmijan
oso
osob
ost
osta
ostas
osti
ostin
ostmiz
ostrogoz
ostrov
ostrovan
ostta
osttud
osval
ot
ota
otab
otad
otand
otandad
otandan
otas
otepa
otevr
other
oti
otiba
otl
otlandii
otlandijalaine
otlandijalaiz
otlandijan
otlandiz
otmaha
otnu
otnuded
otnus
oton
otradnoje
otta
ottas
ottase
ottav
ottiba
ottihe
otto
ottomanan
otton
ottud
otvorenih
otvorenog
otvoreny
otwartych
ou
oud
ouhu
ouk
oul
oula
oulainen
oulu
oulun
oun
oup
our
ous
out
outarv
outarven
outja
outokumpu
ouvertes
ov
ova
ovad
ovan
ovanna
ovanni
over
ovidii
ovk
ovo
ovsk
ovskan
own
oxford
oxycoccus
oy
oz
oza
ozad
ozahuden
ozahuziden
ozaitelemiz
ozaiz
ozakaz
ozan
ozav
ozavale
oze
ozef
ozo
ozoitez
ozr
ozrikkiven
ozrikkivespa
ozrikkivi
ozutab
ozutada
ozutadas
ozutadud
ozutai
ozutajad
ozutamha
ozutandan
ozutandata
ozutase
ozutelend
ozutelendad
ozutelendan
ozutesed
ozuteseks
ozutesen
ozutesiks
ozutez
ozuti
ozutiba
ozutihe
p
pa
paan
pablo
pac
pacific
pad
padosein
padoseina
padoseinid
padoseiniden
padoseinil
padui
padukone
pagan
paganic
paganusen
pagast
page
pageni
pagenikoiden
pagenu
pagewanted
pagin
paginad
paginaks
paginal
paginan
paginas
paginha
paginkel
paginoid
paginoiden
paginoil
paginois
pagis
pagiz
paha
pahad
pahal
pahamel
pahan
pahatuk
pahoin
pahuden
pahut
pai
paidad
paimio
paimnen
pain
painab
paindas
paindud
paineg
painend
painmiz
painudel
painuden
painuz
pais
pajan
pajata
pajatab
pajatada
pajatadas
pajatai
pajatajad
pajatajaks
pajatajal
pajatajan
pajatajanke
pajatajis
pajati
pajo
pajod
pajoid
pajoiden
pajoidenke
pajois
pajoiz
pajoks
pajole
pajon
pajonke
pajos
pak
pakaine
pakaiz
pakic
pakistan
pakistanan
pakistanas
pako
paks
paksjogi
paksud
paksuid
paksumb
paksumba
paksus
paksuz
paksuzile
pakuine
pakuitesen
pakuitez
pakuiz
pakus
pal
pala
palab
palad
palaeoloxodon
palaha
palahiz
palahtelend
palahtelendad
palaine
palaiz
palakahad
palakaz
palaks
palakund
palakundad
palakundan
palakundas
palal
palamiz
palan
palandan
palanke
palaruvi
palas
palaspa
palatez
palatoi
palau
palaun
paldiski
paleoazijalaiz
paleolitan
palermo
palestinan
palic
palik
palikir
pall
palladii
pallasovk
pallis
palm
paloi
paloiba
paloid
paloiden
paloihe
paloiks
paloil
paloin
palois
paltna
paluoja
pan
pana
panam
panama
panaman
panamas
panc
panda
pandas
pandi
pandud
pandz
paneb
panelid
panemha
panend
panes
panese
panevez
pani
paniba
panihe
pank
panteleimon
panteleimonan
pantheon
panthera
pap
papa
papan
papin
papua
papus
par
para
parad
paragvai
paragvain
parahim
parahimad
parahiman
parahimas
parahimid
parahimiden
parahimidenke
paraiso
parallelid
paralleliz
paramagnetik
paramaribo
parametrad
paran
paras
parc
parded
paremb
paremba
parembad
paremban
paremboic
paremboittud
parfu
pariniti
paris
parish
paritetan
pariz
park
parkano
parlament
parlamentad
parlamentaks
parlamental
parlamentale
parlamentan
parlamentanke
parlamentas
parlamentha
parlamentine
parlamentiz
parlamento
parliament
parm
parma
paroid
paroil
part
partement
participant
partii
partijad
partijan
partijanke
partijaspa
partijha
partijoiden
partitiv
partizanoiden
partizansk
partno
party
parus
parzid
parziden
parzis
pas
paskac
pasklindunvuic
paslo
paso
pasport
passatine
passaz
past
pasternak
pasteur
pastor
pat
patekar
patel
patentad
patria
patrisija
paugud
paul
paula
paulo
pauloi
pauloin
paulu
pautked
pautkel
pautken
pautkenno
pautkid
pautkidenno
pautkidme
pautkil
pautkilpa
pavel
pavlan
pavlodaran
pavlov
pavlovic
pavlovna
pavlovo
pavlovon
pavlovsk
pavlovskan
pavlovskii
pays
paz
pazjar
pazjaren
pb
pc
pd
pdf
pe
peace
pec
pedagog
pedagogikan
pedagogine
pedagogiz
pedai
pedaiz
pedajikod
pedr
pedrad
pedran
pedranvodind
pedro
pedroi
pedroid
pedroiden
pedroin
peerage
pehmdad
pehmdanke
pehmed
peipusja
peitab
peitoic
peitol
peitsija
peittud
peitused
peituz
peizaz
pekin
pekka
pekstud
pektinad
pel
pen
pendz
pened
peneks
penel
penemb
penemba
penembha
penembis
penen
penenke
penes
penid
peniden
penidenke
penikaine
penikaiz
penil
penis
pensil
penz
penzan
penzaz
penzhad
penzhaine
penzhaiz
penzhan
penzhasai
penzhid
penzhiden
penzhis
people
pepsi
per
pera
perc
perdix
pereh
perehes
perehespa
pereheze
pereira
perejaslavl
pereslavl
peresvet
perevoz
perigelii
period
periodas
periodha
periodika
periodiz
perkussii
perm
permarea
permihesai
permin
permiz
pers
persijan
persiz
perskes
person
personad
personalan
personaline
personalis
personaliz
personan
personaz
personen
personenlexikon
personid
personoiden
personoile
pert
pertid
pertiden
pertidenke
pertihe
pertiks
pertin
pertinke
pertinsauvondan
pertis
peru
perun
perunke
perus
pervomaisk
pervomaiskii
pervoural
pes
peso
pesoc
pesta
pestovo
peta
peter
petergof
petergofan
petersburg
petit
petkloiz
petl
petr
petran
petri
petrodvorecan
petroglifad
petrogradan
petropavlovsk
petropavlovskan
petroskoi
petroskoihe
petroskoihesai
petroskoin
petroskois
petrov
petrovic
petrovna
petrovsk
petrovskii
petrovskoje
petrus
petseri
petserin
petuhov
petuhovo
petus
pevek
pez
peza
pezad
pezas
pezeb
pezend
pezha
pezoid
pezoiteldas
pezoitelese
pfal
pg
pgc
ph
pharaoh
phen
phh
philosophie
philosophy
phleum
pho
php
pi
piaf
pianist
pianonva
piattaforma
pic
picbergen
picc
picea
picture
pid
pida
pidab
pidada
pidadas
pidai
pidaiz
pidajad
pidajan
pidajiden
pidamha
pidand
pidase
pidatadud
pidatusen
pidegen
pidemb
pidembad
piden
pidestunuded
pidetud
pidi
pidihe
pidusel
pidusen
pidust
piduz
piduzline
piduzliz
pieksa
pierre
pifagoran
pigai
piguden
pigudenke
pigut
piguz
pihl
pihla
pihllind
piht
piidab
piiri
pikalo
pikc
piku
pil
pilar
pilindal
pilindmaterialad
pilindmaterialoihe
pilis
pilitis
piltsamaan
pilv
pilvan
pimed
pimedusen
pimeduses
pimeduz
pin
pinan
pind
pindad
pindal
pindale
pindan
pindanke
pindanno
pindaspa
pindha
pindoil
pinds
pine
ping
pinsk
pinskan
pionerskii
pir
pirahan
piramid
piramidad
piramidan
piramidanvuitte
pird
pirdad
pirdai
pirdajad
pirdajan
pirdajiden
pirdajis
pirdan
pirdand
pirdandan
pirdaspa
pirdi
pirdoid
pirdoidenke
pirei
pirenejan
pirg
pirgaine
pirgaiz
pirgoid
pirit
pirkanma
pirs
pirtud
pis
pisin
pisma
pit
pitalovo
piter
piterid
piterihe
piterihesai
piterilaiz
piterin
piterinke
piteris
pitka
pitte
piz
pizza
pjedras
pjer
pk
pked
pl
plac
plakac
plan
planad
planan
planet
planetad
planetan
planetoiden
planiruidud
planiruihe
planiruind
planiruindan
planiruis
planning
planoid
planois
plantacijad
plastan
plastik
plastikan
plastikaspa
plastikpakuitesen
plastiktegesed
plastiktegesiden
plastiktorved
plastine
plastiz
plat
plata
platad
plataforma
platan
plateforme
platform
platforma
platformad
platforması
platformja
platformo
platformu
platin
platinan
plato
platol
platon
plattform
platvormi
plavsk
plavskan
play
plaza
plazm
plazman
pleistocen
plema
plenha
ples
pleseck
pletindan
pleven
plo
plod
plodud
ploduid
ploduiden
ploduis
plodukahusen
plodun
plos
plovdiv
plu
plus
pluton
plutonii
plutonijad
plutonijan
pm
pmo
pnompen
pnzreg
po
pobeda
poblacio
poc
podataka
podatke
podgoric
podkumk
podol
podporoz
podsolnus
poem
poemad
poemiden
pohj
pohjal
pohjan
pohjanma
pohjanno
pohjoine
pohjoiz
pohjos
pohvistnevo
poig
poigad
poigaiz
poigaks
poigale
poigan
poiganpoig
poigantu
poigas
poigid
poigindam
poikpoli
poimda
poimdu
poimetis
poimind
point
pois
pojav
pojavad
pojavid
pojavuden
pokac
pokerserijan
pokrov
pokrovan
pokrovsk
pol
pola
pole
poled
polehe
poleks
polel
polen
polendusen
poleneb
poleni
polenke
polenpidai
polenpidajad
polenpidajan
polenpidajid
polenpidajiden
poles
polespa
polessk
poletas
poleti
polevskoi
polhe
poli
policii
policijalaine
policijan
polid
poliden
poligon
polihe
poliklinik
polil
polimerad
polimeriden
polina
polinezijas
polis
polisajevo
politehnikum
politehnikuman
politehnine
politehniz
politeizm
politics
politik
politikad
politikan
politikanmehed
politikanmehen
politikanmez
politikas
politine
politiz
polk
polkan
polknik
polknikan
polo
polon
polonii
poltiba
polttihe
polttud
poltuseks
poltusen
poltust
poltuz
polu
pomeranii
pomes
pomon
pomona
pomorjen
pompad
pompiden
pon
ponpei
pont
pontan
pop
popfolkpajatai
popgrupp
popmuzikan
popov
popovan
poppajatai
popula
populariz
population
populus
por
porcellanan
pord
pordaigaiz
pordaigaline
pordaigaliz
pordaz
pordhad
pordhan
pordhiden
pordhil
pordhis
pordod
pordoks
pordol
pordon
pordonke
pordos
porec
porhan
porhov
porhovan
pori
porin
poronaisk
poros
port
portad
portaks
portal
portalal
portalaspa
portan
portanke
porthasai
portlend
porto
portois
portrait
portret
portretoid
portsmut
portu
portugalii
portugalijalaine
portugalijalaiz
portugalijan
portugalijankel
portugalijas
portugalijaspa
portugaline
portugaliz
portuguesa
porvoo
pos
posad
posadan
poseidon
poseidonan
pospolitai
post
postindustrialine
potas
potencial
potencializ
potsdam
poud
poukahtihe
poukahtusel
poukahtusen
poukahtuz
pour
pova
povorino
power
poz
pozitivine
pozitiviz
poznan
pp
ppen
ppib
pr
pra
prabhas
prades
prag
pragan
praghasai
praha
prai
prajagradz
prakas
praktine
praktiz
pramozl
pramozlal
prangatist
pratap
pratense
pravdinsk
praznik
praznikad
praznikambus
praznikan
praznikeht
praznikoic
praznikois
praznuic
pre
prefektur
prefekturad
prefekturan
prefekturas
preliminary
prem
premier
premii
premijad
premijan
premium
pres
present
presidence
presidencia
presidency
president
presidente
presidentti
preslava
presli
press
prestiz
pretorii
pretorijas
pretty
prezident
prezidentad
prezidentaks
prezidental
prezidentale
prezidentan
prezidentine
prezidentiz
pri
pride
priha
prihad
prihaine
prihaiz
prihan
prihoiden
prija
prijanka
primature
prime
primitivine
primorsk
primorsko
princ
princan
princess
princessan
principaute
prinsipi
prinsipin
prionego
priozersk
priozerskan
pris
prisa
priti
private
privatine
privatis
privatiz
privolz
pro
problem
problemad
problemoid
proceduras
procent
procentad
procenthasai
process
processad
processan
processas
processid
processiden
processoid
processor
produ
productions
produkcii
produkcijad
produkcijan
produkt
produktad
produktan
produktoid
produktoiden
produktois
prof
professijad
professijan
professionaline
professionalis
professionaliz
professor
professoran
profiedu
profil
profila
profile
profkolledz
proflicei
profopendusen
profs
proftehnologijoiden
profu
prognoziruidud
program
programad
programan
programholitusen
programid
programiden
programiruind
programm
progress
proharc
prohladnii
prohladnijan
project
projekt
projektad
projektan
projektas
projektirui
projektiruidud
projektiruihe
projektiruindan
projektiruis
projektoid
projektoiden
prokopjevsk
prokopjevskan
prokudin
prolativ
proleksis
proletarskan
promotiruindan
pronominad
propan
proporcii
prosopographique
prospekt
prospektad
prospektal
prospektan
prospektaspa
protaktinii
protect
protektoratan
protestantad
protestantine
protestantizm
protestantizman
protestoiden
protv
protvino
provaiderad
provans
province
provincia
provincii
provincijad
provincijaks
provincijan
provincijas
provincijha
provincijoiden
provisional
proz
prozad
prozan
prunella
prunus
prussii
prussijan
prust
prz
ps
psad
psevdonim
psevdonimad
psevdoniman
psevdonimanke
psi
psihine
psihiz
psihoanalizan
psiholog
psihologii
psihologijan
psihologiz
pskov
pskovan
pskovhasai
psneb
psnedas
psnendan
pt
pterorhinus
ptor
ptur
pu
puatje
public
publicist
publikoic
publikoitihe
publikoitud
publine
publique
publishing
publiz
puc
pud
pudasja
pudotadud
pudotez
pudoz
pudr
pudz
puebl
puerto
pugac
puhtast
puhtastada
puhtastamha
puhtastandan
puhtaz
puhthan
puhthas
puhthut
puhub
puid
puiden
puil
puine
puis
puiz
pukur
pul
pulo
pulod
pumaterial
pumaterialad
pumaterialaks
pumaterialan
pumaterialid
pumaterialiden
pun
punit
punkt
punktad
punolendimed
punolendimiden
punolendimil
punondan
punose
punu
pur
puran
purde
pure
puri
purpurine
purpuriz
purtked
purtkeks
purtken
purtkid
purtkiden
purtkidenke
purtkil
purtkis
puru
purumas
purun
puruvedim
pus
pusan
puspa
pussy
pust
pustola
pustos
put
putegesed
putin
putkotadud
putta
puttas
putub
putui
putuiba
puvill
puvillan
puvillkanghiden
puzu
puzua
puzud
puzuhu
puzuiz
py
pyar
pyha
pɔ
q
qadınlar
qua
que
queen
qui
quito
qırım
r
ra
raahe
raat
rabarbar
rabat
rac
raccastai
race
rachal
rad
rada
radab
radai
radajad
radajiden
radas
raddha
radha
radhika
radho
radhonuses
radhonuz
radializ
radii
radinpa
radio
radioaktivine
radioaktivis
radioaktiviz
radioelektronikan
radion
radiopalad
radiotegim
radiotegimel
radiotoksine
radius
radkalu
radmaha
radmaspa
radmata
radmine
radmiz
radnik
radnikad
radnikan
radnikoic
radnikoid
radnikoiden
radnikoile
radnikusel
radnikusele
radnikusen
radnikusid
radnikusil
radnikusile
radnikust
radnikuz
radnikz
radod
radoi
radoiba
radoic
radoid
radoiden
radoihe
radol
radon
radonez
radonmahtoiden
radonoigendai
radonoigendajan
rados
radsijad
radsijal
radsijha
radsijid
raduz
radva
radz
rafael
raffaele
raghen
ragiz
raha
rahaazjoiden
rahad
rahau
rahkoi
rahman
rahoid
rahoiden
rahoiks
rahoil
rahois
rahuded
rahul
rahuzid
rahvahad
rahvahal
rahvahale
rahvahaline
rahvahalis
rahvahaliz
rahvahalugemiz
rahvahan
rahvahandeputatoiden
rahvahanikad
rahvahanikan
rahvahanikoid
rahvahanikoiden
rahvahanikusenke
rahvahanikust
rahvahanikuz
rahvahankel
rahvahankul
rahvahanlugemine
rahvahanlugemiz
rahvahanpramozloiden
rahvahansa
rahvahanva
rahvahas
rahvahaspa
rahvahatoi
rahvahatomad
rahvahatoman
rahvahatomas
rahvahid
rahvahiden
rahvahidenkeskeine
rahvahidenkeskeiz
rahvahidenkeskes
rahvahis
rahvahuden
rahvahudenke
rahvast
rahvaz
rai
raic
raid
raidaiz
rain
rainbow
raine
raining
raipur
rais
raisa
raisio
rait
raiz
rajan
rajijs
rajon
rajonad
rajonadme
rajonaks
rajonal
rajonan
rajonanke
rajonankeskuz
rajonas
rajonaspa
rajonha
rajonid
rajoniden
rajonidenke
rajonidme
rajonihe
rajoniks
rajonis
rajonkeskuseks
rajonkeskusen
rajonkeskushesai
rajonkeskuz
rak
rakanvuic
rakaspa
rakes
raket
raketoiden
raks
rakvere
ral
ram
rama
ramallah
ramazzotti
ramenskoje
ramenskojen
rammstein
ramon
ramos
rampal
ramuzis
ramzan
ran
rana
ranbir
ranc
rand
randad
randadme
randaine
randaks
randal
randale
randaliz
randalpa
randan
randanke
randanno
randanpird
randanpirdanke
randas
randaspa
randha
randhasai
randhir
randi
randird
randirdad
randirdal
randirdan
randirdanke
randis
randoid
randoiden
randoidenno
randoidme
randoil
randois
randpol
randpolel
randpolen
randpolil
randz
ranenburg
rani
ranke
ranu
ranvir
rao
raphanus
rapl
ras
raseborg
rasputina
rasskazovo
rastafarilaiz
rastorgujevo
rasul
rat
rata
ratas
rattemata
ratud
ratus
raud
raudad
raudaig
raudan
raudantegint
raudasine
raudasiz
raudbeton
raudbetonan
raudbetonantegim
raudbetonaspa
raudbetonine
raudbetoniz
raudbetonkonstrukcijad
raudbetontegesed
raudbetontegesiden
raudbetontegim
raudic
raudkivend
raudkivendod
raudkivendon
raudmetallurgijan
raudte
raudted
raudtedme
raudtegim
raudteid
raudteiden
raudteil
raudtejono
raudtejonod
raudtejonol
raudtekeskust
raudtekeskustal
raudtekeskustan
raudtel
raudten
raudteplatform
raudteplatformad
raudteradnikoiden
raudtesarak
raudtesarakod
raudtesarakon
raudtesild
raudtesildad
raudtesol
raudtestancii
raudtestancijad
raudtestancijaks
raudtestancijal
raudtestancijan
raudtestancijanke
raudtestancijanno
raudtestancijaspa
raudtestancijhasai
raudtetehnikum
raudtetransport
raudtetransportan
raudteu
raudtez
raudu
rauhad
rauk
raul
raum
ravahanlugemiz
ravaz
ravi
ravl
ray
rayon
razbainikad
razv
razvad
rb
rbhaiz
rc
rd
rdab
rdajad
rdajan
rdajiden
rdamha
rdi
rdihe
rdl
rdub
rdui
rdumine
rdumiz
re
rea
ready
reagiruib
reagiruidas
reakcii
reakcijad
reakcijoid
reakcijoiden
reaktivine
reaktiviz
real
realine
realiz
realizm
realizman
reas
rebekka
reboi
reboid
reboiden
reboil
reboin
rec
recept
record
records
red
redad
redakcii
redaks
redaktor
redaktoran
redal
redamb
redambad
redamban
redambis
redan
redanke
redas
rede
rediff
redoid
redoiden
redoidenke
redoihe
redoil
reduku
redukud
redukuhusai
redukul
redukun
redukus
redukuspa
redustadud
redz
reference
referendum
referendumal
referenduman
referendumis
reform
reformad
reforman
reformiden
reg
regalado
regima
regina
region
regionad
regionaks
regionaline
regionaliz
regionan
regionanke
regionas
regionaspa
regionha
regioniden
regionidenkeskeiz
regionidme
regionis
regions
registiruidud
registracii
registracijad
registracijan
registracijas
registriruida
registriruidas
registriruidud
registriruihe
reglamentiruidud
regula
regulatory
regulirui
reguliruidas
reguliruindorganizacii
reguliruindorganzacii
reguliruis
rehein
rei
reig
reigan
reigud
reigun
reikjavik
reiko
rein
reinan
reinland
reins
reis
reisad
reisid
reisiden
reiting
reja
rekha
reklaman
reklamas
rekomendui
rekomenduidas
rekonstruiruidud
rekonstrukcii
rekonstrukcijan
rekonstrukcijas
rekord
rekul
rekviem
rel
rela
religii
religijad
religijan
religijatomad
religijoiden
religijois
religiozine
religioziz
reljef
reljefan
rembrandt
remedios
remeik
remiks
remix
ren
renbaum
rene
renessansan
rengaz
rengazavtote
rengazavtotehesai
rengazavtoten
renghad
renghal
renghan
renghaze
reni
renii
renkan
reno
rensu
rep
repan
repin
report
reppajatai
representatives
repu
republic
republik
republika
republiky
res
research
resifi
reskveden
reskvedenke
reskvezi
reskvezis
restavracijan
restavriruidud
restoran
restoranad
restoranois
resurs
resursad
ret
return
reutov
revd
revdan
reveals
reverie
reverse
review
revolu
revolution
rez
rezerfordii
rezervan
rezidencii
rezidencijad
rezidencijaks
rezul
rg
rga
rgad
rgaine
rgan
rged
rgel
rgeline
rgeliz
rgenduseliz
rgendusen
rgenduses
rgendust
rgenduz
rghiz
rgkerdan
rgvalic
rha
rhapandud
rhapanend
rhapanendad
rhapanendata
rheum
rhinanthus
ri
ria
ribeiro
ribes
ribinsk
ribinskan
ribnoje
ric
rica
ricar
ricarid
ricariden
richard
ricordi
rid
rida
ridan
ridasine
ride
rideltas
riden
riders
ridevi
ridz
rience
rig
rigan
righasai
right
rih
rihan
rihard
rihe
rihteran
rii
rija
rijad
rijan
rik
rikardo
riket
riki
rikin
rikki
riko
rikob
rikoi
rikoiba
rikoihe
rikond
rikondan
riks
rikta
riktud
ril
rilank
rilankan
rim
rimalaine
rimalaiz
riman
rimas
rimma
rin
rina
rindal
rindatada
rindataden
rindati
rindatuses
rindatuz
rindaz
rindhal
rine
rio
riot
ripmata
ripmatoi
ripmatomad
ripmatoman
ripmatomuden
ripmatomudes
ripmatomut
ripmatomuz
ripmatont
rippub
rippui
rippujad
riptas
ris
risan
rise
rist
ristad
ristan
ristikoic
ristikoitas
ristit
ristithusai
ristitis
ristitkund
ristitkundale
ristitkundan
ristitkundas
ristitud
ristituid
ristituiden
ristituidenke
ristituil
ristituile
ristituis
ristitul
ristitule
ristitun
ristitunke
ristituspa
ristoiden
risttel
ristutud
rita
ritas
rites
ritihe
ritik
ritud
riu
rivastav
rived
riven
river
rivera
rives
rivi
rivid
rivis
riz
rizvan
rj
rk
rkan
rkdartists
rkiz
rko
rkperiodika
rks
rkursk
rkəmli
rlidnad
rm
rma
rmatud
rmingem
rn
rnai
rnberg
rness
rnii
rnije
rnu
rnun
ro
road
rob
robert
roberto
robil
robinson
robot
roc
rock
rod
rodina
rodniki
rodnikin
rodriges
rodrigez
rodrigo
rodul
rodun
roduspa
rodz
roff
rogohein
rogosahar
rogoz
roh
rohan
rohit
rohitan
rohked
roi
rok
rokgrupp
rokgruppan
rokki
rokpajatai
rol
rolid
roliden
rolin
rolis
roll
rom
roma
roman
romanad
romanan
romance
romanid
romanii
romanijalaine
romanijalaiz
romanijan
romanijanke
romanijas
romanine
romaniz
romanov
romans
romantic
romantiz
romantizm
romantizman
romeo
ron
ronal
rope
ros
rosa
rosario
rosatom
rose
roshan
roslavl
roslavlin
rosneft
ross
rossan
rossi
rossija
rossos
rosstat
rostov
rostovan
rostovhasai
rotterdam
roudusen
roug
rougun
routas
routud
rov
rovanem
rovii
royal
roz
roza
rozad
rozanvuic
rozmehein
rozo
rpes
rpis
rr
rs
rsk
rskan
rskii
rt
rta
rtan
rtas
rte
rtemberg
rten
rtis
rtmenvuitte
rtmudel
rtmuden
rtmudes
rtmuz
rtmuziden
rtu
rtud
rtused
rtusen
rtusid
rtust
rtuz
ru
rual
ruan
ruand
ruandan
rubcovsk
rubcovskan
rubens
rubi
rubidii
rubl
rubla
rublid
rubus
rud
rudn
rudol
ruf
rugiz
ruhtinased
ruhtinasel
ruhtinasen
ruhtinasiden
ruhtinaz
ruhtinazkund
ruhtinazkundan
ruhtinazkundha
rui
ruinad
rujohein
rujoheina
ruk
rukh
rula
ruletk
ruma
rumex
run
rundas
runo
runod
runoid
runoiden
runoil
runois
runokirj
runokirjutai
runokirjutajad
runokirjutajan
runokirjutajiden
runokogoduz
rur
rural
rurs
rus
rusal
rusked
ruskedpakuine
ruskedpakuiz
ruskedsinine
ruskedsiniz
ruskedvauvaz
ruskedvauvhad
ruskedvauvhan
ruslan
russia
russian
russkii
rusttad
rusttaha
rusttaks
rusttal
rusttan
rusttanke
rusttas
rut
rutad
rutenii
ruti
rutilus
ruttaksid
rutu
rutulalaiz
ruz
ruza
ruzajevk
ruzajevkan
ruzan
ruzvel
rv
rva
rve
rved
rvedme
rvel
rven
rvenke
rvenno
rvenojan
rvenpa
rves
rvespa
rvf
rvhe
rvhesai
rvi
rvid
rviden
rvihe
rvil
rvin
rvintegim
rvis
ryan
ryazangov
rz
rzad
rzi
rzihe
rzte
rɑ
rə
s
sa
saam
saamalaiz
saamen
saarbru
saarde
saare
saarija
saavedra
sab
sabah
sabol
sac
sacramento
sad
sada
sadad
sadahasai
sadakund
sadal
sadale
sadan
sadas
sadaspa
sadavoc
sadeged
sadegid
sadegiden
sadhasai
sadoid
sadoiden
sadoil
sadois
sadud
saduis
sadun
sadunkazvatusen
sadus
safonovo
sag
sagedmaid
sagedmaiden
sagud
saguden
sagudtegim
saha
sahalin
sahalinal
sahalinan
sahar
saharad
saharan
saharanke
saharas
saharaspa
saharrogon
saharsvo
sahartegim
sahel
sahni
sai
saiba
said
saif
saihe
saiman
saint
sait
saitad
saital
saitan
saitoiden
sajad
sajan
sajanan
sajanogorsk
sajansk
sajid
sakha
sakhalin
saki
sakramento
saks
saksalaine
saksalaiz
saksan
saksankel
saksanma
saksanmaha
saksanman
saksanmanke
saksanmas
saksena
saksonii
saksonijan
sal
salairan
salam
salat
salatoihe
salavat
salavatan
sald
saldan
saldat
saldatad
saldatan
saldatoiden
sale
salehard
salehardhasai
salim
salis
salix
saliz
salman
salo
salonikid
salto
salvador
salzburgwiki
sam
samai
samar
samaran
samarhasai
samarii
samarkand
sambnu
sambnuden
samha
samine
samir
samis
samiz
samlon
sammler
samoa
samoaks
samoan
samodiz
samoilova
samsung
samucevic
samuel
samuil
samurai
san
sana
sanaa
sanad
sanada
sanal
sanan
sananke
sanantu
sanas
sanaspa
sanatorii
sanatorijad
sanatorijan
sanc
sand
sandan
sanderlend
sanderson
sandra
sandz
sangadz
sanged
sanha
sanimetrhasai
sankt
sanktad
sankte
sanktusenke
sanktuz
sanni
sanoid
sanoiden
sanoidenke
sanoil
sanoin
sanois
sanremon
sanskr
sanskrit
sanskritan
santa
santi
santiago
santimetrad
santimetraspa
santimetrhasai
santjago
santo
santos
santus
sanu
sanub
sanuda
sanudas
sanugoi
sanui
sanutesed
sanutesen
sanutesid
sanutesiden
sanutest
sanutez
sapna
sapporo
sar
sara
sarah
sarahein
sarajevo
sarak
sarakho
sarakod
sarakoic
sarakoid
sarakoiden
sarakoihe
sarakoiks
sarakoil
sarakois
sarakoitas
sarakol
sarakon
sarakos
saraktehnologijoiden
saran
saransk
saranskan
saranskhasai
sarapul
saratov
saratovan
saratovhasai
sardinii
sared
saredme
sarehe
sarel
sarele
sarelpa
saren
sarenke
sarespa
sarg
sarganke
sargsa
sarid
sariden
saridenke
sarihe
saril
saris
sarita
sarkar
sarn
sarnad
sarnipu
sarnoiden
sarov
sarovalaiz
sarovan
sart
sarun
sas
sase
sasik
sasmi
sasois
sasovo
sasovon
sastamal
sat
satai
satatadud
satatesid
satatesis
satatest
satiriz
satis
sativa
sativus
satjadz
satk
satkan
satmar
satu
saturn
satused
satusekahad
satusekahambis
satusekahan
satusekahas
satusekaz
satuseks
satusen
satusenke
satusenladind
satusenma
satusennoks
satusetoi
satusid
satusiden
satusis
satust
satuz
sau
saubaline
sauda
saudan
saudas
saudihe
saudud
saue
saul
saum
saumad
saumal
saupsihe
sauptihe
sauptud
saur
sauvoi
sauvoiba
sauvoihe
sauvojiden
sauvomas
sauvomha
sauvomine
sauvomis
sauvomiz
sauvond
sauvondad
sauvondal
sauvondan
sauvondanke
sauvondas
sauvondedheotandoil
sauvondgips
sauvondkivi
sauvondkolledz
sauvondmas
sauvondmaterialad
sauvondmaterialid
sauvondmaterialiden
sauvondmaterialoiden
sauvondmujud
sauvondmujuiden
sauvondsegoitused
sauvondtegesiden
sauvondtehnikum
sauvondtehnikuman
sauvos
sauvose
sauvused
sauvusen
sauvusenke
sauvusenno
sauvuses
sauvusespa
sauvusid
sauvusiden
sauvusis
sauvust
sauvuz
sav
savaji
savannad
savannan
savante
save
saved
savel
saven
savic
savihein
savin
savo
savonlidn
savoy
say
saŋ
sb
sberbank
sbt
sc
scania
scatman
scen
scenal
scenarii
scenarijan
scenarist
scenois
scha
scho
school
schrenkiana
schwarzenegger
schweiz
science
sciences
scirpus
sciurus
score
sd
se
seal
sebast
sebez
sebr
sebra
sebran
sebranik
sebranikad
sebranikoiden
sebranikoidenke
sebrusen
sebruz
sebruzlidnad
second
seconds
secret
see
seged
segez
seglusenke
segluz
segoib
segoitada
segoitadas
segoitadud
segoitez
segoitused
segoituz
seic
seikh
seikhed
seikhel
seikhen
seikhid
seikhis
seim
sein
seina
seinid
seiniden
seinik
seinil
seinjogi
seis
seiz
sek
sekcii
sekes
sekoimiz
sekretar
sekretariat
sekretariatan
sekretarin
seksard
seksualiz
sektor
sektorad
sektoran
sektorha
sekula
sekundad
sekundariz
sekundas
sel
selekcijan
selen
selengan
self
selim
selin
selo
sem
semei
semendan
semendku
semendkud
semendkuhusai
semendkul
semendkun
semendkus
semendkuspa
sement
semetas
semikarakorsk
semiluki
seminarii
semitiz
semned
semnid
semniden
semnidenke
semnikaz
semnil
semnis
semo
semu
sen
sena
senado
senat
senatan
senate
sendai
sendak
sendi
sendvic
sened
senegal
senegalan
senegalanke
senegalas
senen
sengilein
seniden
senke
sennheiser
senno
sent
senu
senzafine
sep
sepium
september
ser
serad
serafim
serafimovic
seran
serb
serbalaiz
serban
serbii
serbijan
serbijanke
serbijas
serbine
serbiz
serdobsk
serdobskan
serdz
serebra
sergac
sergei
sergejev
sergejevic
sergejevna
sergii
sergijev
seri
serial
serialan
serialas
serialoiden
serialois
serii
serijad
serijan
serijas
serov
serovan
serpuhov
serpuhovan
sertolovo
service
servisan
serz
ses
sesoto
sestrikaine
sestrikaiz
sestroreck
seth
seul
seulan
seulha
sevastopol
sevastopolin
severdha
severnii
severobaikal
severodvinsk
severomorsk
severoural
seversk
severskan
severskii
severt
severz
severzid
severziden
severzihe
severzis
sevil
sevin
sex
sexy
sezon
sezonad
sezonan
sezonas
sezonine
sezoniz
sezonreisid
sfd
sfer
sferad
sferal
sferan
sferas
sg
sha
shadows
shah
shake
shallow
sharma
shasai
she
sheeran
sheila
shinee
shodn
short
shot
should
show
shqipe
shroff
shtml
si
siaman
sian
sibai
sibain
sibir
sibirica
sibirihe
sibirin
sibirine
sibiris
sibiriz
siborg
sibylla
sic
sicilii
sid
sida
side
sident
sidharth
sidnei
sido
sidod
sidoda
sidodas
sidodud
sidoi
sidoid
sidoiden
sidois
sidon
sidotud
sidzuok
sie
siemens
sierra
siga
sigale
sigan
sigankorv
sigarad
signal
signalad
sihe
sihepa
sihesai
sihote
sii
sija
sijad
sijadase
sijadasois
sijaduseks
sijadusen
sijadushe
sijadust
sijaduz
sijaine
sijaks
sijal
sijale
sijaline
sijalis
sijaliz
sijan
sijanno
sijas
sijaspa
sijata
sijatas
sijatud
sijazihe
sijazisois
sijha
sijhasai
sijid
sijiden
sijidenke
sijidme
sijihe
sijil
sijis
sikart
sikhad
siks
siktivkar
siktivkaran
siktivkarha
siktivkarhasai
sil
sild
sildad
sildaks
sildal
sildan
sildanno
sildaspa
sildoid
sildoiden
sile
siled
siledad
silence
silene
silezijan
silikatine
sillama
sille
siloi
silva
sim
sima
siman
simeon
simferopol
simferopolihesai
simferopolin
simfonii
simfonijad
simfoniz
simi
simmons
simon
simone
simonov
simpson
simran
simranan
simvol
simvolad
simvolaks
simvolis
simvoliziruib
simvolizuruib
simvolizuruidas
simvolois
sin
sina
sinai
sinan
sindai
sindhu
sindi
sindzo
sine
sinei
sing
singal
singalad
singapur
singapuran
singer
singh
singl
singlad
singlan
single
singloiden
sinha
sinine
sinis
sinivauvaz
sinivauvhan
siniz
sinkansen
sinki
sinkihe
sinkihesai
sinkin
sinkinke
sinkis
sinna
sino
sinonim
sinonimad
sintetine
sintetiz
sintez
sintezan
sinteziruindan
sintipop
sinun
sinunke
sinuta
sio
sir
sirdab
sirdand
sirdandad
sirdandan
sirdanuded
sirdanuzil
sirdarj
sirdase
sirdi
sirdiba
sirdihe
sirdmiz
sirdnikad
sirdnikoil
sires
siric
sirii
sirijalaiz
sirijan
sirijanke
sirin
siro
sirta
sirtas
sirtihe
sirtud
sirui
sis
sisert
sisertin
sisol
sistem
sistemad
sisteman
sistemanke
sistemas
sistemha
sistemiden
sister
sisu
sit
sita
site
siti
sitmarjad
sittud
situacii
situacijan
siz
sizar
sizared
sizaren
sizart
size
sizran
sizranin
sja
sjerra
sju
sjudad
sk
ska
skad
skai
skaja
skan
skandii
skandinavii
skandinavijan
skandinavijas
skandinaviz
skanke
skas
skaspa
ske
skha
skhasai
ski
skid
skii
skijan
skin
sklodovskaja
skmez
sknik
sknikan
sko
skoje
skojen
skolkovo
skone
skopin
skopinan
skopje
skott
skovorodino
skryvwyse
sku
skul
skused
skusen
skusenandai
skusenandajan
skusenandmiz
skusid
skusiden
skusihe
skusis
skust
skuz
skuzkirjan
skuzkund
skuzkundaline
skuzkundaliz
skuzkundan
skuzkundas
skver
sky
sl
slabad
slabadad
slabadaks
slabadan
slabadas
slanci
slancin
slava
slavgorod
slavgorodan
slavilaiz
slavine
slaviz
slavsk
sleep
sliven
slobodskoin
slokostta
slokosttu
slovak
slovakalaiz
slovakan
slovakii
slovakijan
slovakijanke
slovakijas
sloven
slovenii
slovenijalaiz
slovenijan
slovenijanke
slovenijas
slow
slu
sluz
sm
small
smap
smi
smile
smit
smith
smol
smolensk
smolenskan
smolenskhasai
smolina
sms
smtown
sn
snac
snez
so
soares
soba
sobad
soban
sobanrivi
sobat
sobatal
sobatan
sobc
sobid
sobiden
sobink
sobinkan
sobory
sobral
sobranie
sobrarbe
soc
socialine
socialis
socialistine
socialistiz
socializ
socializm
socializman
society
sociologii
sociologijan
sod
soda
sodaaviacijan
sodabaz
sodad
sodagarnizon
sodaha
sodahos
sodail
sodaka
sodakaumis
sodakomissariat
sodakukerdused
sodakukerdusen
sodakukerduz
sodalendimport
sodalidnut
sodamehed
sodamehen
sodamehiden
sodamehile
sodamemorial
sodameribaz
sodameribazad
sodamerilaivis
sodameriva
sodamez
sodan
sodapa
sodapost
sodas
sodategendoiden
sodategimis
sodau
sodava
sodaveikundan
sodaveikundha
sodavejan
sodaz
sodha
sodoid
sodoiden
sodoihe
sodunu
sodunuzid
sofi
sofii
sofija
sofijan
soged
sognametal
sognariket
sogndal
sogneriket
soho
soi
soid
soiden
soidme
soil
sois
soit
soitod
soitoiden
soitoil
soitoine
soitoiz
soiton
soiverduz
soja
sojan
sok
sokaz
sokol
sokolan
sokolov
sokratan
sol
sola
solad
solakahan
solakahuz
solakaz
solan
solange
solid
soliden
soligalic
solikamsk
soline
solis
solist
solistad
solistan
soliz
solnec
solo
sologitar
solomon
solomonan
solov
soluna
solunalaiz
solz
som
somal
somali
somalin
somero
something
somuzlaud
son
sonaks
sonatad
sonchus
soned
song
songs
sonia
sonija
sonu
sony
soprano
sor
sorani
sorghum
soroc
sorok
sort
sortaval
sortavalan
sortiruindstancii
sortud
sortuid
sortuiden
sos
sosn
sosnogorsk
sosnovii
sosnovk
sosnovoborsk
soso
sotnikova
sotonan
soul
south
souza
sov
sovet
sovetsk
sovetskan
sovetskii
sp
spa
space
spas
spasan
spasib
spassk
spasskan
spasskii
spasskoje
spb
special
specialine
specialist
specializ
specializacijanke
specializiruidud
specifiz
speculative
speed
spein
spektraline
spektraliz
spektran
spektras
spellbound
spenser
spiraline
spirit
spirt
spirttegim
split
spo
sport
sportan
sportazi
sportivine
sportiviz
sportkeskuz
sportkompleks
sportkompleksad
sportnik
sportnikad
sportpert
sports
spra
spravitadas
spravitajan
spravitamha
spravitandan
springer
springs
sputnik
square
sr
sredneural
sretenjan
sretenskan
sri
sridevi
ss
ssai
ssel
sso
st
sta
staatsbibliothek
stab
stabiline
stabilis
stabiliz
stadion
stadionan
stadt
stadtbezirk
stadtteil
stadud
stai
stajad
stajas
stajiden
stajis
stal
stalin
stalinan
stalingrad
stalingradan
stallone
stambul
stambulan
stambulha
stamha
stamiz
stan
stancii
stancijad
stancijal
stancijan
stancijanke
stancijanno
stancijaspa
stancijoiden
stand
standad
standal
standan
standanke
standard
standart
standartad
standartan
standartine
standartiz
standas
standkodi
standkodil
standkodin
standkodis
stanic
stanicad
stanicaks
stanican
stanislav
stanley
star
staric
starican
starin
starinad
starinoic
starinoid
starinoitas
stars
stas
stat
state
statehouse
states
station
statistical
statistics
statistik
statistikan
statistikas
statistine
statistiz
statj
statjaks
statjaline
statjaliz
statjas
statjoid
statjois
stats
statsfiji
statsminister
status
statusad
statusan
statusanke
statusata
statut
stauc
stavropol
stavropolihesai
stavropolin
stay
stefan
stefani
stegodon
stenli
step
stepan
stephen
stepid
stepin
stepis
sterlitamak
sterlitamakan
sti
stica
stihe
stil
stilid
stilin
stilis
stilizuidud
still
sting
stiv
stiven
stm
stmaha
stnik
stnikaks
stnikan
stnus
sto
stoitand
stoitandan
stokhol
stolbovon
stop
stora
store
storico
story
stounhendz
stranded
strangers
strasburg
strategine
strategiz
stravinskii
strez
strip
strogals
stroganovan
stroi
stroican
stroicanpa
stroitel
strok
strokud
strokuiden
strokuks
strokul
strokun
strokunke
stroncii
stronghold
strub
strubad
struban
struktur
strukturad
strukturan
strukturha
strunino
sts
stta
sttas
sttase
sttihe
sttud
stu
studii
studijan
studijanal
studijas
studine
studio
studis
studiz
stumatoi
stupino
stupinon
stusen
stuttgart
stuz
su
suah
suahili
subal
subarktine
subarktiz
subdialect
subekvatorialine
subekvatorializ
subjekt
subjektad
subjektaks
subjektan
subjektas
subjektoiden
subjektois
subkul
subsp
substancii
substancijad
substancijan
substancijoid
substancijoiden
substancijoidenke
substantivad
substantividen
subtitrad
subtropine
subtropiz
success
sud
sudak
sudan
sudanan
sudananke
sudanas
sudarus
sudii
sudijad
sudijaspa
sudijoid
sudogd
sudogdan
sudz
suecan
suffiks
suffiksad
suffiksoid
suga
sugu
sugud
sugudimorfizm
suguid
suguiden
suguine
suguiz
suguku
sugukund
sugukundan
sugukundas
sugukundaspa
sugukundha
sugun
sugupol
suhinic
suhis
suhoi
suhon
suhonan
suhorukov
suhu
suhum
suim
suimad
suimal
suiman
suimas
suimha
suimiden
suimil
suite
sukarno
sukre
suks
suksed
suksid
suksiden
suksil
sul
sula
suladandla
sulaku
sulakud
sulakuhusai
sulakul
sulakun
sulakus
sulakuspa
sulasa
suleiman
sulin
sulinan
suline
suliz
sultan
sultanan
sumad
suman
sumatr
sumeg
sumgajit
summer
sumosine
sun
sund
sunidhi
sunnitad
sunz
suo
suom
suomalaine
suomalaiz
suomen
suomenkel
suomenma
suomenmadme
suomenmaha
suomenman
suomenmanke
suomenmas
super
supermarket
superstar
supra
sur
suradz
suran
surat
suraz
surb
sured
surehk
sureks
surel
surele
suremb
surembad
surembaks
suremban
surembanke
surembas
surembaspa
surembid
surembis
suren
sureneb
surenke
surenzoittud
sures
surgut
surgutan
surhe
surid
suriden
surihe
suril
surinam
surinaman
suriname
suris
surm
surmad
surmaline
surman
surmanja
surmas
surmaspa
surmhasai
surmic
surmitud
surovikino
surovikinon
sursk
surt
surtte
suruded
surudel
suruden
surut
suruz
survive
survivor
sus
susedad
susedkundaks
susedliz
suspa
susumu
suugad
suugiden
suugil
suur
suv
suvehe
suvel
suvemb
suven
suves
suvespa
suvhe
suvi
suviafrik
suviafrikan
suviafrikas
suvialt
suviamerik
suviamerikan
suviamerikas
suviazijan
suviazijas
suvievropas
suvikarolin
suvikorei
suvikorejalaine
suvikorejan
suvikorejas
suvikorejine
suvikorejiz
suvimeren
suvimeri
suvinaba
suvine
suvipa
suvipala
suvipalad
suvipalan
suvipalas
suvipohjanma
suvipol
suvipolehe
suvipoles
suvirandad
suvirandal
suvirandpolel
suviro
suvis
suvisahalinsk
suvisahalinskhasai
suvisavo
suvisudan
suvisudanan
suvisudananke
suvitu
suviu
suviuel
suviural
suviuralan
suvivepsa
suvivepsla
suviz
suvorov
suvorovan
suzdal
suzdalin
sva
sveltana
sventoks
sverdlovan
sverdlovsk
sverdlovskan
sverige
svetlana
svetlii
svetlogorsk
svetlograd
svetlogradan
svetogorsk
svijag
svirsk
svo
svobodnii
swamped
swartz
sweden
sweet
sy
sydney
sylvestris
symphoricarpos
syn
system
systems
sz
szczecin
sze
szeged
szolnok
sɐ
sɑ
sɛ
t
ta
tab
tabada
tabak
tabakan
tabakfabrikal
tabakon
taban
tabasaranalaiz
tabata
tables
tabluden
tabludes
tablut
tabu
tac
taci
tacta
tactud
tad
tada
tadas
taden
tadt
tadtalaiz
tadtan
tadud
tadz
taga
tagalog
tagama
tagamal
tagaman
taganrog
taganrogan
tagapa
tagaz
tagaze
tagil
tagilan
tagodud
tagokaz
tagol
tagolan
tagor
taguic
tagut
tahkkeskustoittud
tahkoiz
tahkoncentriruidud
taho
tahod
tahoid
tahoiden
tahoidme
tahoil
tahois
tahoiz
tahoks
tahol
taholine
taholiz
tahon
tahond
tahondad
tahondan
tahondas
tahondha
tahondoid
tahondois
tahos
taht
tahtaz
tahthaspa
tahtod
tahtoi
tahtoib
tahtoiba
tahtoid
tahtoidas
tahtoin
tahton
tai
taibei
taig
taigan
taiger
taigin
tail
tailand
tailandan
tailandas
tailer
taimir
taimiran
tain
tais
taivan
taivaz
taivazma
taivhal
taivhaline
taivhaliz
taivhan
taivhanro
taivhas
taivhaspa
taivhaze
taiz
tajad
tajal
tajan
tak
take
takes
taks
taksid
taksin
takuja
tal
talaiz
taldom
talican
talid
talk
talking
tallidn
tallidnan
tallidnas
tallidnhasai
tallii
tallinn
tam
tama
tamanna
tamara
tambov
tambovan
tambovhasai
tamby
tamha
tamil
tamilad
tamilan
tamine
tamiz
tamm
tammut
tampereh
tamperehen
tamsalu
tamt
tamtan
tan
tana
tanah
tanaz
tand
tandad
tandan
tandfonline
tandmuzei
tandmuzejan
tandoid
tanganjik
tangerang
tango
tanhal
tanhaliz
tani
tank
tanke
tantal
tantalan
tanzania
tanzanii
tanzanijan
tanzanijanke
tanzwut
tap
tar
tara
tarabos
taran
tarbhaic
tarbhaine
tarbhaiz
tarbhas
tarbiz
tarh
tarhad
taric
tarif
tariz
tarja
tarkan
tarkas
tarkoiged
tarkoiktad
tarkoiktas
tarkoiktemb
tarkoikti
tarkosale
tarkust
tarnogan
tarttas
tartu
tartub
tartun
tarus
tarusan
tarzan
tas
tase
tasmanii
tasmanijan
tass
tat
tataban
tatad
tataks
tatal
tatam
tatan
tatanke
tatanmaine
tatanmaiz
tatanman
tatar
tataran
tatarine
tatarlaiz
tatarsk
tatarskan
tatarstan
tatarstanan
tatas
tataspa
tatha
tatis
tativiz
tatjana
tatoi
tatoid
tatoiden
tatois
tatu
tatun
tau
taugan
taun
taurage
tavar
tavarad
tavaroid
tavaroiden
tavd
tavi
tavul
tazangis
taze
tazo
tazolugud
tazoma
tazopind
tazopindad
tazopindal
tazopindan
tazopindanke
tazopindoil
tazostadud
tazovaldkund
tazovaldkundad
tazovaldkundaks
tazovaldkundal
tazovaldkundaliz
tazovaldkundan
tazovaldkundanke
tazovaldkundas
tazovaldkundaspa
tazovaldkundha
tazovaldkundoiden
tazovaldkundois
tazvedandan
tbilis
te
tears
teatr
teatraline
teatraliz
teatran
teatras
teatrha
teatrois
teberd
teborg
technology
tecii
tecuja
tecuro
ted
teda
tedab
tedad
tedai
tedis
tedmata
tedme
tedo
tedoakademii
tedoakademijan
tedod
tedodoktoran
tedoid
tedoidab
tedoidai
tedoidajad
tedoidajan
tedoidajiden
tedoidamha
tedoidase
tedoiden
tedoidused
tedoidusen
tedoiduses
tedoidusid
tedoidusiden
tedoidusil
tedoidusis
tedoiduz
tedoiduzkeskusen
tedoiduzkeskuz
tedoinstitut
tedoinstitutad
tedoinstitutal
tedoinstitutan
tedoitas
tedoitud
tedoiz
tedokeskusel
tedokeskusen
tedokeskuz
tedoks
tedokund
tedokundad
tedokundal
tedolang
tedolidn
tedolidnan
tedoline
tedoliz
tedomehed
tedomehen
tedomehiden
tedomehil
tedomez
tedon
tedonaine
tedonandmine
tedos
tedotadud
tedotegimis
tedoti
tedotihe
tedoto
tedotusen
tefan
tege
tegeb
tegend
tegendad
tegendan
tegendoid
tegendoiden
teges
tegese
tegesed
tegesid
tegesiden
tegesois
tegi
tegiba
tegihe
tegii
tegijad
tegijan
tegijoiden
tegim
tegimed
tegimel
tegimen
tegimenno
tegimennoks
tegimes
tegimid
tegimiden
tegimil
tegimis
tegint
tegod
tegoiden
tegos
tegu
tegusigal
teh
tehas
tehasan
tehmaha
tehmine
tehmis
tehmiz
tehnecii
tehnik
tehnikad
tehnikan
tehnikum
tehnikumad
tehnikuman
tehnine
tehniz
tehnologii
tehnologijad
tehnologijan
tehnologijoiden
tehnologine
tehnologiz
tehnopark
tehnus
tehran
tehta
tehtas
tehtes
tehtihe
tehtud
teid
teiden
teidme
teikovo
teikovon
teil
teile
teilor
tein
teinan
teinii
teis
tekoi
tekst
tekstad
tekstan
tekstas
tekstil
tekstilin
tekstiline
tekstiliz
tekstoid
tekstoiden
tektoniz
tel
tele
telecommunications
telefon
telefonad
telefonan
telegram
telegraph
telekanalal
telekanalan
telekommunikacijoiden
telend
telendan
teleoigendusen
televizii
televizijal
televizijan
televizijas
telii
tell
tellur
teltas
telug
telugun
telustab
telustadas
tem
temad
tematiz
temnikov
temnikovan
temoiden
tempo
temps
temru
temudz
ten
tennessi
tennessin
tenu
teo
teodor
teorem
teoreman
teoretik
teoretine
teoretiz
teorii
teorijad
teorijan
teorijas
ter
tera
terad
teran
teranad
teranine
teraniz
teraraudan
terasen
terasespa
terashe
terasine
terast
terav
teravad
teravamb
teravamba
teravan
teravas
teraz
terbii
terek
terekan
teres
tereza
terje
termaliz
termin
terminad
terminal
terminalad
terminan
terminativ
terminator
ternativine
ternativiz
terra
territorialine
territorialis
territorializ
territorii
territorijad
territorijadme
territorijaks
territorijal
territorijan
territorijanke
territorijas
territorijaspa
territorijha
territorijoid
territorijoiden
territorijoidme
territorijoil
territorijois
ters
tervazhein
terveh
tervehtamha
tervehtamiz
tervhen
tervhin
tervhuden
tervhudenkaic
tervhudes
tervhut
tervhuz
tes
tesauvondan
tesla
tet
teta
tetab
tetabad
tetabaks
tetabamb
tetabambad
tetabambis
tetaban
tetabid
tetabiden
tetabis
tetabut
tetabuz
tetad
tetal
tetan
tetas
tetihe
tetpaiz
tetpas
tetra
tetraedr
tetu
tetum
teveril
tevtonan
texas
tez
tezi
tfil
tfrac
tg
th
tha
than
thasai
that
the
theguardian
their
thejo
themin
there
thi
this
tho
thomas
thosai
ti
tiago
tiba
tiban
tibetan
tica
tiesan
tiger
tigorsk
tigorskan
tigr
tigran
tigrinja
tigris
tihe
tihed
tihedas
tiheduz
tihon
tihoreckan
tihuan
tihvin
tihvinan
tijan
tik
tikod
tikv
til
tilia
till
tiltukaine
tim
timan
timas
timati
time
timed
times
timesofindia
timis
timofei
timofeik
timofejevic
timor
timoran
timos
timur
tin
tina
tinad
tinan
tinativine
tind
tine
tint
tio
tip
tipad
tipan
tipine
tipiz
tipografii
tiran
tiranan
tiraz
tirii
tirnovo
tirpi
tirreniz
tirui
tirvan
tis
tisel
tit
titan
titanan
titanoiden
tivine
tiviruidas
tiviz
tiz
tj
tjuring
tk
tkan
tkeks
tkeline
tkeliz
tkemb
tkemba
tkembad
tkemban
tken
tkino
tkod
tksi
tksihe
tktab
tktas
tktase
tktasois
tkte
tktuz
tku
tkurs
tkustub
tkustui
tl
tlehtpol
tlehtpolid
tlemha
tlese
tlesois
tm
tmatoi
tmbreg
tmed
tmele
tmen
tmiz
tn
tnic
tnik
tnikad
tnikaks
tnikoid
tnikoiden
tnt
to
tob
tobago
tobagon
tobj
tobjad
tobjan
tobjas
tobjemb
tobjimalaz
tobmad
tobman
tobmas
tobmiden
tobmin
tobmudehe
tobmudel
tobmudele
tobmuden
tobmut
tobmuz
tobol
tobolan
toc
tod
toda
todas
today
todd
todeks
todesine
todesiz
todesti
todis
todme
todo
todud
todusen
toduz
toei
togo
togon
toguc
toh
tohesiz
toi
toiba
toid
toiden
toidenke
toidme
toiged
toihe
toiktad
toil
toimetagoi
toine
tois
toitab
toiti
toitiba
toitihe
toitmine
toitta
toittud
toituses
toiv
toiz
tok
tokaz
tokio
tokioho
tokion
tokios
toks
toksine
toksiz
toksovo
tokugava
tokyo
tol
tole
toledo
toline
toliz
tolmac
tolokonnikova
tolpa
tolstoi
tolstoin
tom
tomad
tomas
tome
tomen
tomha
tomijama
tomin
tomis
tommi
tommot
tomsk
tomskan
tomskhasai
tomson
ton
tonad
tond
tondan
tong
tonga
tongalaiz
tongan
toni
tonight
tonke
tonnad
tonnas
tonnelid
tonnhasai
tonno
tonnoid
tonsauvomine
tonsauvomiz
too
top
tophiks
topic
topinambur
topki
topkin
topol
toponim
toppaz
tor
tora
torac
torad
toradamha
torafil
torahein
toran
toras
torata
toraziba
toreh
torg
torgovan
torgovanad
torgovanan
torgovanoiden
torgovanoil
torgud
torguihe
torguimiz
torguind
torguindad
torguindal
torguindan
torguindas
torguindkeskused
torguindkeskuz
torguindlidn
torguindlidnaks
torguindmark
torguindmarkan
torguindmarkanke
torguindmas
torguindmeriport
torguindpartno
torguindrived
torguindrivid
torguindrividen
torguindteiden
torguindteil
torguindtel
torguindu
torguindz
torguindznamoic
torgul
torgun
torgusel
torgusen
torguspa
torguz
torhudeks
torhudel
torhuden
torhudespa
torhut
torhuz
torid
toriden
torii
torijan
tornio
torok
torokad
torokan
toroknik
toronto
torontoho
toronton
toropec
toropecan
torres
tort
torun
torvarmatur
torved
torviden
torvut
torvveimiden
torz
tos
toskan
toskanan
toslav
tosno
tosnon
tospa
tot
tota
total
totaran
totarlaiz
totma
toto
touch
tour
tous
tovar
town
towns
toyota
toz
tozi
tozimel
tpacaz
tpachad
tr
tra
trabzon
track
trad
tradicijan
tragedii
trahmal
trahmalad
trahmalan
traht
train
trakt
traktal
traktan
traktorad
tramvai
tramvaid
tramvain
trance
transaktinoidine
transfermarkt
transformatorad
transit
transkripcii
translated
transmissii
transplutonine
transport
transportad
transportaks
transportan
transportine
transportiruind
transportiz
transportmas
transportsol
transportteiden
transporttesol
transsib
transsibad
transsibal
transsiban
trass
trassad
trassadme
trassan
trassanke
trassanno
travel
travib
travidas
travii
travijad
travijoid
tre
treccani
tred
tree
treks
tren
trener
trenpoig
trentu
tres
trevor
tri
tribunal
trier
trikotaz
triller
trilogii
trilogijan
trinidad
trinidadan
trio
trip
tripoli
triumfaline
trivialis
trln
tro
trofimov
troick
troickan
troickoje
trolleibusad
tromso
trongzund
tronheim
tropikoiden
tropikois
tropine
tropiz
trotuarad
tru
trubaduran
trubc
trus
truth
ts
tsvan
tsvanan
tt
tta
ttas
ttaz
tte
ttepajo
tti
ttihe
ttu
ttub
ttud
ttudas
ttugoi
ttui
ttujad
ttujan
ttujid
ttundan
ttutab
ttutaden
ttutoitud
tu
tuapse
tuapsen
tub
tuberkulo
tuc
tud
tuda
tudas
tudud
tuh
tuha
tuhad
tuhaiz
tuhal
tuhan
tuhas
tuhaspa
tuhazesai
tuhk
tuhkan
tuho
tui
tuiba
tuihe
tuimazi
tukuil
tukuman
tul
tula
tulan
tularegion
tulda
tuldas
tule
tuleb
tuleban
tulebas
tulen
tulend
tulendad
tulendaks
tulendan
tulendanke
tulendanno
tulendas
tulendha
tules
tulgat
tulhasai
tuli
tuliba
tulic
tulihe
tulii
tulijad
tulijan
tulijoid
tullei
tulleid
tulleikaz
tulleil
tulleile
tullein
tulleis
tulnu
tulnuded
tulun
tuluz
tuluzan
tum
tumha
tun
tundad
tundan
tundis
tundmatoi
tundmatoman
tundmust
tundoid
tundoiden
tundr
tundran
tundras
tundsija
tundused
tundusen
tundusiden
tunduz
tungusiz
tunis
tunisan
tuntken
tunu
tunuded
tunuziden
tunuzile
tur
turad
turaks
tural
turan
turas
turbaz
turbhan
turbinad
turbis
turdus
turha
turin
turine
turinsk
turistad
turistine
turistiz
turistlaivoiden
turistoid
turistoiden
turiz
turizm
turizmal
turizman
turja
turk
turkad
turkan
turkanma
turkanmaha
turkanman
turkanmanke
turkanmas
turkazmuseks
turkeskusen
turkeskuz
turkiz
turkmen
turkmenalaiz
turkmenan
turkmenbas
turkmenistan
turkmenistanan
turkodi
turkoid
turkolledz
turku
turkun
turner
turoid
turoiden
turois
turpert
turrevolu
tursebran
tus
tused
tusel
tusen
tusenke
tuses
tusespa
tuseta
tushe
tusid
tusiden
tusk
tust
tutab
tutabad
tutabaks
tutada
tutadas
tutadud
tutajev
tutajevan
tuttgart
tuusulan
tuv
tuvalaiz
tuvalu
tuvalulaiz
tuvalun
tuvan
tuz
tuzkeskuz
tuzkompleks
tv
tvad
tver
tverc
tverihesai
tverin
tvitter
tvoiden
twitter
two
tyo
typha
tz
tzon
tə
u
ua
uaks
uan
uaz
ub
ubert
uc
ucoz
ud
uda
udab
udac
udai
udan
udand
udase
ude
uded
udegelaiz
udehe
udehesai
udeks
udel
udele
uden
udenke
udenma
udenno
udes
udesnimitadud
udesnimiti
udesnimitihe
udessaudihe
udessaudud
udessu
udhe
udho
udin
udis
udit
udja
udm
udmiz
udmurt
udmurtalaiz
udmurtan
udmurtii
udmurtijan
udod
udoid
udoiden
udoil
udois
udokaz
udol
udoml
udon
udonsa
udos
udovo
udping
udub
udz
ueils
uel
uest
uf
ufahasai
ufalei
ufalein
ufan
ug
ugan
ugand
uganda
ugandan
ugandanke
ugar
ugino
uginon
ugja
uglegorsk
uglic
ugol
ugres
ugrilaine
ugrilaiz
ugun
uhan
uhi
uhloman
uho
uhoku
uhokud
uhokuhusai
uhokul
uhokun
uhokus
uhokuspa
uht
uhtan
uhundused
uhundusen
uhundusenke
uhunduses
uhunduz
ui
uid
uiden
uielem
uil
uill
uine
uinston
uis
uiskoje
uit
uitod
uitoid
uitoiden
uitois
uiton
uiz
ujad
ujan
ujar
ujelii
ujelijad
ujub
ujuda
ujudas
ujuden
ujui
ujumaha
ujund
ujundan
ujundbassein
uk
uka
ukac
ukaine
ukaiz
ukan
ukas
ukaspa
ukc
ukla
ukotkan
ukov
ukova
ukovan
ukovskii
ukr
ukrain
ukrainalaine
ukrainalaiz
ukrainan
ukrainanke
ukrainas
ukrainaspa
ukrainha
ukrainiz
uks
uksed
uksiden
uksine
ul
ula
ulaiz
ulan
ulanbatar
uli
uliana
ulija
ulim
uliman
ulkoiden
ulmus
ultimate
ulus
ulusan
um
uma
uman
umbezjur
umbis
umbur
umerl
umerlin
umhurijat
umih
umis
umm
umrao
un
una
unad
unadusid
unadusita
unaks
unal
unan
unanke
unanno
unantagaiz
unanverine
unanveriz
unas
unaspa
unatab
unatadas
unatud
unatusita
uncin
und
undad
undakt
undaktan
undan
undas
undaspa
under
underground
undkirjutesen
undkirjutez
undkodi
undkodid
undkodin
undkodis
undoid
undoiden
undsa
undtaho
une
unec
uned
uneit
unen
unes
unesco
unhasai
unhed
unheilig
unhenvuic
unhis
uni
unihein
unikuva
unikuvad
unikuviden
union
unis
unitarine
united
univ
universal
universaline
universalis
universaliz
universe
universidad
universite
universitet
universitetad
universitetan
universitetas
universitetaspa
universitetha
universitetine
universitetiz
universitetoiden
universitetois
university
unke
unkeira
unleashed
unlidnuz
unmal
unman
unohta
unohtada
unohtadud
unoid
unoiden
unoidenke
unoidme
unoil
unois
unotest
unotez
unpa
uns
untegim
untranslated
unz
uoker
uolt
up
upar
upiaq
upm
upotadud
upotihe
uppsal
uppsalan
ups
upsi
ur
ura
urad
uradusel
uradusen
uraduses
uradusis
uradust
uraduz
urai
ural
uralal
uralan
uraline
uraliz
uralma
uran
uranad
uranan
urankivend
uratud
urbad
urban
urdu
uren
urengoi
urengoin
urenin
urikan
urin
urinsk
urinskan
uriz
urmila
urokoid
ursi
uru
urud
urugvai
urugvain
uruid
urun
urunvuic
urunvuitte
urupolis
urus
urz
us
usa
usadib
usadibad
usadibaks
usadiban
used
usen
usenke
uses
usespa
usetoi
usets
ushe
usid
usiden
usinsk
usis
uskmatoi
usko
uskod
uskojad
uskojid
uskojiden
uskon
uskond
uskondad
uskondan
uskondata
uskondoiden
usman
usmanin
usol
usovai
usovoi
usovoin
uspa
ussuri
ussuriisk
ussuriiskan
ussurin
ust
uste
ustii
ustjan
ustje
ustu
ut
uta
utada
utadud
utai
utajaks
utamha
utan
utas
utc
utest
utez
utezpunkt
utihe
utken
utkenke
utmis
utmiz
utrehtan
uttar
uttas
uttihe
uttud
utud
uu
uuk
uukkanghiden
uuktel
uunan
uusikaarlepu
uv
uva
uvalad
uvarovo
uvarovon
uvas
uvnouzmas
uy
uz
uzb
uzbekad
uzbekalaiz
uzbekan
uzbekistan
uzbekistanan
uzbekistananke
uzen
uzi
uziba
uzid
uziden
uzihe
uzin
uzis
uzlovai
uzlovajan
v
va
vac
vaccinium
vad
vadim
vador
vadoran
vaduc
vag
vagahaiz
vagan
vagars
vagner
vago
vagod
vagon
vagonad
vagonan
vagonansauvomiz
vagondepo
vagonoid
vagonoiden
vagzal
vagzalan
vahdat
vahn
vahv
vahvis
vahvuz
vai
vaig
vaigan
vaihed
vaihel
vaihen
vaihespa
vaihid
vaihiden
vaihis
vais
vaitti
vajaguden
vajeh
vajehnik
vajehnikad
vajehnikan
vajeht
vajehtab
vajehtada
vajehtadas
vajehtadud
vajehtamata
vajehtamha
vajehtamiz
vajehtase
vajehti
vajehtiba
vajehtihe
vajehtimeks
vajehtub
vajehtui
vajehtujanke
vajehtused
vajehtuseks
vajehtusen
vajehtuseta
vajehtusid
vajehtusiden
vajehtusidenke
vajehtusita
vajehtust
vajehtuz
vajil
val
valaam
valaaman
valadas
valahijan
valamiz
valatoitab
valatoitai
valatoitandad
valatoitandanke
valatoiti
valatoitiba
valatoittas
valatoitusen
valatusiden
vald
valdai
valdain
valdan
valdatused
valdatusid
valdatusiden
valdatusidenke
valdis
valdkund
valdkundad
valdkundadme
valdkundaks
valdkundal
valdkundale
valdkundaline
valdkundalis
valdkundaliz
valdkundan
valdkundanke
valdkundas
valdkundaspa
valdkundha
valdkundkel
valdkundkeled
valdkundkelespa
valdkundkelis
valdkundmaksoiden
valdkundmehen
valdkundmehid
valdkundmehiden
valdkundmez
valdkundoid
valdkundoiden
valdkundoidenke
valdkundoidme
valdkundoihe
valdkundoil
valdkundois
valdkundro
valdkundvalu
valdkundznam
valdkundznaman
valdmad
valdmered
valdmeren
valdmerenke
valdmererandan
valdmererandatoi
valdmeres
valdmerespa
valdmerhe
valdmeri
valdmeriden
valdmerimaiden
valdmerimais
valdmerimalaiz
valdmerine
valdmeriz
valdmert
valdmoid
valdmoidenno
valdoic
vale
valencia
valensii
valensijan
valentin
valentina
valeria
valerii
valerija
valfar
valg
valgan
valic
valio
valita
valitas
valitihe
valitud
valkeakoski
vall
valletta
valu
valuikad
valuikan
van
vana
vanadii
vanadijan
vanadzor
vanessa
vang
vanh
vanhad
vanhal
vanhan
vanhas
vanhemb
vanhemba
vanhembad
vanhemban
vanhid
vanhtunuden
vanhuskolaiz
vanii
vanil
vankuver
vanoikahas
vanoikaz
vantaa
vanuatu
vanuatun
var
vara
varad
varadase
varadusen
varaezimehen
varaezimest
varaezimez
varagubernator
varagubernatorad
varaida
varaiduz
varaikoi
varaita
varalendimport
varamest
varan
varapa
varapalad
varaprezident
varaprezidentad
varaprezidentaks
varaprezidentan
varasta
varastadas
varastamata
varatoitab
varatoitamha
varatoiti
varatoitmaha
varatud
varaz
varcenegger
varded
vardel
varden
vardenke
vardeta
vardo
varela
vargas
vargasta
vargastadud
vargastamatoi
varghuz
varha
varhapandas
varhapanemha
varhapanend
varhapanendal
varhapanendan
vari
variant
variantad
variantal
variantan
variantois
variety
varija
varis
varjoic
varma
varmdad
varmdoid
varmdust
varmduz
varmed
varmitadud
varmitamha
varmitez
varmitihe
varmitusen
varn
varoid
varoiden
vars
varu
varud
varuitoi
varuitomuden
varuitomut
varukaz
varuline
varuliz
varun
varvara
varz
varzil
vas
vasad
vasco
vasil
vasileostrovskii
vasilii
vaskma
vasko
vast
vastaimiz
vastaiti
vastaiz
vastal
vastata
vastc
vaste
vastha
vasthalibund
vasthalibundan
vasthapa
vasthein
vastkarin
vastma
vastmel
vastrandal
vastsi
vasttab
vasttahtod
vasttas
vasttase
vasttuz
vastusid
vastust
vastustajad
vastustajan
vastustelendan
vastustusen
vastustuz
vastuz
vatanabe
vatikan
vatikanan
vatikanas
vatjerra
vatken
vatson
vaug
vauged
vaugedja
vaugedjogen
vaugedmeren
vaugedvena
vaugedveriz
vauktad
vauktaks
vauktal
vauktan
vauktanke
vauktoiden
vauktus
vauktusen
vauktust
vauktustusen
vauktuz
vauktuzvozid
vaumic
vaumis
vaumita
vaumitadas
vaumitas
vaumitihe
vaumitud
vaumiz
vauvaz
vavilonan
vaz
vaza
vcik
vdub
vdudas
ve
veb
veber
ved
veda
vedab
vedada
vedadas
vedadud
vedai
vedajad
vedajan
vedamha
vedamiz
vedand
vedandan
vedas
vedase
vedatadas
vedatamha
veded
vedel
veden
vedenalaine
vedenalaiz
vedenke
vederistmiden
vedes
vedespa
vedhe
vedhuden
vedhudetoi
vedhuz
vedi
vediba
vedihe
vedim
vedimdepo
vedimdepod
vedimed
vedimen
vedimiden
vedusen
vedusenke
vedust
vedutte
veduz
vegas
vegetacijan
vegetacine
vegetativiz
vegetti
vei
veiba
veic
veicarii
veicarijan
veicarijanke
veicarijas
veihe
veik
veimar
veimed
veimid
veimiden
vejad
vejan
veks
vel
veldes
vele
velg
velgad
velgha
velgsanad
velgsanoid
velgusenta
velgusiden
velgusidme
velgusine
velgusis
velgusiz
velikije
veliko
veline
veliz
vell
vella
velled
vellen
vellenke
vellesed
velleskaum
vellest
velliden
vellindam
vellington
velosipedad
velosipediden
velvet
vemb
vemha
ven
vena
venan
venc
vencad
vencan
vencastusen
vencut
vend
vendan
venecii
venecijan
venecijha
veneh
venehed
venehen
venehes
venehid
venemaa
vener
veneral
veneran
venesuel
venesuelan
veniamin
venke
veno
venod
venon
venos
ventila
venub
venudas
venui
venus
veps
vepsa
vepsla
ver
vera
verai
verajad
verakrus
veraz
verazmaiz
verazmalaiz
verazplanetalaiz
verb
verbad
verblu
verboid
verboiden
verboil
verd
verdad
verdan
verde
verden
verdi
verdoin
vereb
veren
veres
veresed
veresid
verestai
verez
verf
verhad
verhas
verhid
verhiden
verhis
verhiz
verhoturje
verhoturjen
verhovaz
veri
verilerin
verk
verkkamer
verkod
verkoiden
verkon
verkos
verksamma
verlag
verma
verner
vernon
vero
verod
veroid
veroiden
verois
veroline
verolis
veroliz
veron
veronika
versii
versijad
versijan
versijas
versijoid
versijois
version
vert
very
ves
vesenvastaine
veski
vesnuhheiniz
vespa
vesprem
vest
vestern
vestfalii
vesti
vestibu
vestminsteran
vestr
vet
veterinarine
vetkan
vetlug
vetlugan
vetme
vez
veza
vezad
vezi
vezic
vezid
veziden
vezijagandal
vezikod
vezilanktend
vezilanktendad
vezile
vezinik
vezinikad
vezinikan
vezinikaspa
vezinikoiden
vezinouzendan
vezipudr
vezipuru
vezipurun
vezis
vezite
veziten
vezivalu
vezivaradim
vezivaradimed
vezivaradimen
vezivaradimespa
vezivaradimhe
vezivaradimiden
vezivaradint
veziz
vezoid
vezoil
vf
vgik
vhe
vhesai
vi
via
viborg
viborgan
viburnum
vic
vicente
vicia
victor
victoria
victory
vid
vida
vidal
videks
videl
viden
videnden
videndes
videndest
videndestos
videndez
videnke
vident
videnz
video
videoklip
vides
videspa
vidhe
vidnoje
vidov
vidz
vie
vieira
vig
viga
vigoid
viha
vihand
vihandad
vihandaks
vihandan
vihandoiden
vihanikoiden
vihankandajad
vihe
vihm
vihmad
vihmakaz
vihman
vihmmecoiden
vihmoiden
vihmsezon
vihmsezonad
vihmsezonan
vihmub
vihorevk
vihos
vii
viii
viipur
viipurin
vijan
vik
vikiaitas
viking
vikingoiden
vikipedii
vikipedijad
vikipedijan
vikipurtkis
vikitekas
vikram
viks
viksan
viktor
viktoria
viktorii
viktorija
viktorovic
vil
vila
vilg
vilgan
vili
vill
villa
villad
villan
ville
villem
vilppul
vilu
vilua
vilud
vilugoitimed
vilugoitimiden
vilugoittud
viluhein
viluhk
viluku
vilukud
vilukul
vilukun
vilukus
vilukuspa
vilul
vilumb
vilun
vilus
vilusodan
viluspa
vin
vina
vinad
vinan
vinc
vincent
vindhuk
vingl
vinglan
vinmarj
vinmarjan
vinod
vinsent
vinsentan
vintaz
vintegim
viola
violine
violiz
vip
vir
vira
viradz
virat
virginii
viri
virifabrik
virkand
virkandan
virkeh
virkmine
virktas
virtual
virtualine
viru
virun
virzud
virzuid
vis
viskonsin
visl
vislan
vismut
visockii
vit
vita
vitalii
vitamin
vitaminad
vitaminoid
vitebsk
vitebskan
vitegr
vitegran
viti
vitim
vitis
vitk
vitkos
vitoria
vivek
viz
vizantii
vizantijan
vizualine
vjetn
vjetnam
vjetnaman
vjetnamas
vk
vkontakte
vku
vkud
vkul
vkun
vkus
vkuspa
vl
vlada
vladikavkaz
vladikavkazhasai
vladimir
vladimiran
vladimirhasai
vladimirovic
vladimirovk
vladimirovna
vladislav
vladivostok
vladivostokan
vladivostokhasai
vll
vlpa
vlspa
vltav
vn
vnfst
vo
vobl
voc
vocal
voded
vodehesai
vodeks
vodel
vodele
vodelpa
voden
vodenke
vodenkeskeine
vodes
vodespa
vodhe
vodhesai
vodilaiz
vodin
vodkan
vodos
voi
voib
voiba
voibis
voibuiz
voice
void
voidas
voigoi
voikud
voikuva
voimujupirdai
voimujupirdandan
voimused
voimusenke
voimuseta
voimusetoi
voimusid
voimusine
voimusiz
voimust
voimuz
voin
voinad
voinan
voind
vois
voitegim
voix
voiz
vojevodin
vokal
vokalid
vokaliden
vokaline
vokalist
vol
vola
volc
volg
volgan
volgas
volgaveren
volgha
volgodonsk
volgodonskan
volgograd
volgogradan
volgogradhasai
volgorec
volhov
volhovan
volhovstroi
volimpiadan
volkov
volkswagen
voloc
voloda
volodarsk
volodimir
volof
vologd
vologda
vologdan
vologdhasai
volok
volokolamsk
volokolamskan
volosovo
volosovon
volost
volostid
volostihe
volostiks
volostin
volostis
volz
von
vor
vorkut
vorob
voron
voronez
voros
vorsm
vos
voskresensk
voskresenskan
vot
votkinsk
votkinskan
vottus
vous
vov
vovan
voyage
voz
vozid
voziden
vozihesai
vozil
vozile
vozis
vozne
voznesen
voznesenjan
vri
vs
vsevolod
vsevoloz
vsk
vskan
vsodan
vspa
vu
vuda
vui
vuitte
vujan
vul
vulgaris
vulkan
vulkanad
vulkanan
vulkaniz
vulkanoiden
vulkanoil
vulpes
vun
vund
vundan
vuoks
vutab
vutada
vutadas
vutadud
vutai
vutajad
vutajid
vutamas
vutamha
vutamine
vutamiz
vutand
vutandad
vutandan
vutandanke
vutandas
vutandata
vutandha
vutas
vutase
vutasois
vuti
vutiba
vutihe
vv
vybory
vz
w
wa
wagner
wahrheit
waiting
walk
walker
wall
walt
walter
wanna
want
war
ward
ware
warning
warriors
wars
was
wash
washington
wat
watch
water
way
we
web
webelements
welcome
welt
werk
west
western
what
when
where
white
who
why
wi
wide
wie
wien
wiki
wikidata
wikimedia
wikipedia
wild
wiley
wilhelm
will
willem
william
win
wind
windir
windows
wings
winston
winter
wipo
wir
wissen
with
within
without
wolfgang
woman
women
won
word
work
works
world
worry
wu
wwe
www
x
xa
xi
xii
xiii
xiv
xix
xk
xn
xt
xvi
xviii
xx
y
ya
yahoo
yandex
yar
yb
ye
year
yearbook
years
yeh
york
you
young
your
yours
yourself
youtube
ys
ytteita
yu
z
za
zabaikal
zaborkrif
zad
zadonsk
zadonskan
zagreb
zags
zaharova
zai
zaiceva
zainskan
zakamenskan
zakir
zaksen
zal
zalesskii
zalesskijan
zambezi
zambii
zambijan
zambijanke
zamk
zamkad
zamkan
zan
zanevk
zanevkan
zanihesai
zanin
zaozer
zaozo
zapola
zaporoz
zara
zaraisk
zaraiskan
zarec
zaria
zas
zastav
zato
zavet
zavetan
zavetas
zavetoic
zavitinsk
zavod
zavodi
zavodib
zavodiba
zavodida
zavodidas
zavodihe
zavodind
zavodindad
zavodindan
zavodindas
zavodis
zavodoukovsk
zavolz
zavotta
zavottihe
zda
zdviz
ze
zebra
zei
zeit
zeiten
zejan
zel
zelandii
zelandijan
zelandijas
zelandijha
zelenodol
zelenogorsk
zelenograd
zelenskii
zell
zella
zellid
zelliden
zelmer
zelo
zemplen
zemskii
zen
zenit
zenitan
zepetrovsk
zepetrovskan
zerklod
zerkol
zernogradan
zero
zet
zevo
zevs
zevsan
zh
zho
zi
zid
ziden
zigins
zigmund
zihe
zii
zil
zim
ziman
zimbabve
zimbabven
zimbabwe
zin
zinaida
zinan
zine
zino
zinta
zintehniz
zip
zira
ziradajiden
zis
zit
zita
zitan
zito
zivine
ziz
zku
zlatoust
zlatoustan
zline
zliz
zm
zn
znam
znamad
znaman
znamasine
znamasis
znamasiz
znamensk
znamoic
znamoid
znamoita
znamoitas
znamoitud
znikad
znikan
zo
zoja
zolotuhhein
zon
zonad
zonaks
zonal
zonan
zonas
zonha
zonois
zoolog
zoopark
zor
zori
zovec
zovecan
zovk
zovskii
zovskijan
zr
zu
zub
zubcov
zubr
zubrad
zuerat
zui
zujevk
zujevo
zujevon
zulun
zumha
zumiz
zund
zundad
zundoid
zundois
zur
zus
zuta
zutab
zutadud
zutai
zutamha
zutand
zutandan
zutandas
zuti
zutihe
zvenigorod
zvenigorodan
zverevo
zvo
zw
zz
{
|
}
~
«
­
°
±
²
³
·
»
½
¿
×
ß
æ
ð
ðe
÷
ø
đ
ı
ık
ıq
ł
ŋ
œ
ƛ
ɐ
ɑ
ɔ
ɕ
ə
ən
ɛ
ɜ
ɡ
ɡa
ɤ
ɪ
ɵ
ɹ
ɾ
ʁ
ʃ
ʉ
ʊ
ʌ
ʒ
ʒɑ
ʔ
ʰ
ʱ
ʲ
ʷ
ʻ
ʼ
ʼʼ
ʾ
ʿ
ˀ
ˁ
ˈ
ˌ
ː
ːˈ
ˑ
ˠ
ˣ
ˤ
˥
ˮ
̀
́
̂
̃
̄
̆
̇
̈
̉
̊
̋
̌
̓
̔
̛
̝
̞
̟
̠
̣
̥
̦
̧
̨
̩
̪
̯
̱
͂
ͅ
͡
α
ανοικτω
ας
β
βος
γ
γος
δ
δεδομε
δης
ε
ει
ευ
ζ
η
θ
ι
κ
κα
και
λ
λα
μ
μα
μω
ν
νων
ξ
ο
ος
ου
π
πλατφο
πο
ρ
ρμα
ς
σ
τ
τα
το
υ
φ
φο
χ
ψ
ω
ϒ
ϰ
а
адкрытых
адм
администрация
аз
аи
ала
александр
александрович
алексеи
алсу
альбом
ан
анатольевич
андреевскии
андреи
анна
анне
арте
асыҡ
атлас
ачык
аша
ашық
аэропорт
б
ба
баи
балтии
банк
башҡортостан
без
беларусь
белая
белыи
бен
бере
берег
берегу
бетон
блинова
блиновои
бо
боз
больно
большая
больше
большои
бор
борис
ботанико
брат
бродскии
брокгауз
буду
буи
буряад
была
быстрая
быть
в
ва
вам
василии
васильевич
васильевна
ваш
ве
великии
вепсов
вепсская
вепсскии
вепсского
вепсское
вепсскои
вепсском
вепсы
вески
видатних
виктор
викторович
вка
владение
владимир
владимирович
владимировна
во
вои
вопросы
времени
время
все
вск
вы
выбирать
выборы
выдающихся
відкритих
г
газета
галина
гг
где
ген
георгиевскии
герои
гл
глава
го
год
года
гол
гом
гора
горка
город
городе
городище
городок
городского
горы
гост
государственныи
гражданство
григорьевна
гу
гӏала
д
да
даи
дали
даних
данни
даннои
данных
даных
два
дворец
де
демографических
день
депутатов
деревня
деректер
для
дмитрии
до
додаҳои
дом
дорога
достоевскии
др
древностеи
древо
друг
дск
дума
е
ево
евск
его
егор
елена
ефрон
ж
жанна
же
жена
женщинах
жизни
жизнь
жон
жінок
з
за
забаи
завод
заи
западная
зве
звезда
зеле
зелинскии
зу
зырянских
зьвестак
и
иван
иванович
ивановна
игорь
ижкар
из
изд
ил
или
ильич
илья
институт
истории
исторических
история
их
к
ка
кадуи
казаки
как
кальскии
канал
кандидатур
кар
карелии
карелия
карл
ки
кино
классических
классическои
книга
ко
ково
ковскии
кого
кои
коми
константин
коренных
короля
краи
красная
красныи
краткая
крепость
крим
крым
ксения
ку
культура
культурных
культуры
куторга
къалэ
къырым
кыв
л
ла
ладва
ле
леи
лен
ленинградскои
лердиҥ
леса
лесов
лет
ли
литературная
лович
лодеи
лок
лу
лы
ль
льск
любви
любкер
любкеру
люблю
любов
любовь
люди
людмила
м
ма
маалыматтарды
маи
малая
малочисленных
малыи
малюмат
мама
мар
марии
марина
мария
марта
материалы
ме
меладзе
менделеев
менск
меня
мережковскии
ми
мир
михаи
михаил
мне
мо
мои
море
москва
мост
моя
мск
музеи
музыка
муллонен
муниципального
муниципальное
муниципальным
мы
мэдээллии
мәғлүмәт
н
на
над
наи
народов
народы
нас
население
населения
населенных
наталья
наука
национальное
национальныи
национальных
наша
не
ни
нижнии
никола
николаевич
николаи
никольскии
ницше
но
нов
новая
новгород
ново
новое
новые
новыи
носков
нохчии
ночи
ночь
нск
нскии
нты
ны
ныи
нь
нээлттэи
нюша
о
об
области
область
образования
образованиям
общественныи
общество
общие
один
озе
озеро
округ
округа
ола
олег
оло
он
она
оне
они
особенностях
остров
острог
от
отворени
отворените
отвореног
отдельным
открытых
ош
оять
п
па
павлович
пе
певица
педагогики
пер
первыи
переулок
песни
песня
петрозаводск
петростат
платформ
платформа
платформазы
платформаи
платформасы
платформаһы
площадь
плятформа
по
погост
под
података
податоци
поле
посе
поселение
поселения
пособие
поэма
правительство
праздник
представительное
преслава
при
прибалтии
приключения
принцессы
пристань
про
проблемы
пророка
проспект
просто
протва
прохоров
пу
пунктов
пышма
р
ра
разбои
раи
ран
рандал
растения
ргу
реальныи
ред
река
рени
република
республик
республика
республикасы
республики
республіка
решение
рк
рка
рныи
ро
роднои
родному
россии
россия
ростов
рск
русские
русскии
ручеи
рф
с
са
самая
самыи
санкт
сборник
св
се
севера
сеи
село
сельского
сельское
семе
сергеевич
сергеи
сердце
си
ск
ская
ские
скии
ско
ское
скои
слобода
словарь
слэн
смерти
смерть
снег
со
собрание
совет
совета
советская
созыва
солнце
соль
сортавала
сосна
состав
соьлжа
спасск
спб
справ
справка
справочник
срб
ссср
ст
стал
станица
станция
старост
старыи
стат
стать
сто
стола
столу
су
субъектам
съм
ся
т
та
тавцан
таи
так
там
татарстан
татьяна
твои
твоя
те
теб
тебе
тебя
территории
технические
ти
тимофеевич
типа
то
только
тр
тре
третьего
три
трубадура
тура
ты
у
удмурт
украі
улица
условия
устав
усть
устье
усьтэм
утверждении
ф
фармакогностическии
фе
федерации
филологии
философии
финно
флаг
фридрих
фриске
х
ха
хем
хи
хото
хочу
художник
художники
ц
цева
цк
цы
ч
чаган
чаи
часть
че
чего
чем
численность
что
чудо
ш
ша
шахар
ше
шексна
школа
шуи
шура
щ
ще
ъ
ы
ь
э
экс
эл
энциклопедическии
энциклопедия
это
этот
ю
юрии
юрьевна
я
язык
языка
языками
языке
языки
языку
яковлева
января
є
інформаціі
ѡ
ѱ
қазақстан
ҥ
ӄ
ӈ
ә
әты
ө
ӷ
ӽ
բաց
հայաստանի
շտեմարան
տվյալների
ְ
ִ
ֵ
ֶ
ַ
ָ
ֹ
ּ
ׁ
ׂ
א
ב
ד
ה
ו
ז
ח
ט
י
ים
כ
ל
ם
מ
ן
נ
ס
ע
פ
ק
ר
ש
ת
׳
ا
افغانستان
الا
البحرين
الجزاي
الجمهورية
العربية
المتحدة
المملكة
النواب
اوپن
بن
ة
جمهورية
خليفة
د
دولة
ر
ري
ع
فارم
ل
مارات
مجلس
محمد
يس
َ
ُ
ِ
ّ
ٓ
ٔ
ٕ
پلیٹ
ڈیٹا
ی
ܼ
ހ
ނ
ރ
އ
ވ
މ
ދ
ލ
ގ
ސ
ޔ
ޖ
ަ
ާ
ި
ީ
ު
ޫ
ެ
ޭ
ް
ं
ई
क
कप
कर
ख
ग
घ
च
छ
ज
ट
ड
ण
त
थ
द
ध
न
नद
प
फ
ब
भ
म
य
र
रत
ल
व
श
ष
स
ह
़
ा
ि
ी
ु
ू
ृ
े
ै
ॉ
ो
ौ
्
॰
ং
ক
খ
গ
জ
ট
ঠ
ত
দ
ধ
ন
প
ব
ম
য
র
ল
শ
ষ
স
হ
়
া
ি
ী
ু
ে
্
ਗ
ਦ
ਪ
ਬ
ਮ
ਰ
ਲ
ਸ
਼
ਾ
ਿ
ੀ
ੁ
੍
ੰ
ੱ
ં
દ
ન
મ
સ
ા
િ
ી
ો
્
இலங
க
ங
ச
ட
த
ந
ன
ப
ம
ர
ல
ள
ழ
வ
ஸ
ஹ
ா
ி
ீ
ு
ூ
ெ
ே
ை
்
ం
క
ఖ
గ
ట
ద
న
బ
మ
ర
స
హ
ా
ి
ు
ూ
ె
ే
్
ಕ
ಟ
ತ
ನ
ಪ
ರ
ಶ
ಾ
ಿ
ು
ೆ
್
ೕ
ം
ച
ട
പ
ള
വ
ാ
ി
ു
െ
േ
്
ං
ක
ග
ට
ණ
ත
ද
න
ප
ම
ය
ර
ල
ශ
ස
්
ා
ි
ී
ු
ෙ
ก
ง
จ
ช
ด
ต
ท
น
บ
ผ
พ
ภ
ม
ร
ล
ว
ส
อ
ะ
ั
ิ
ี
ื
ุ
ู
็
่
้
๊
์
ັ
་
།
ག
ང
ན
པ
ཚ
ཡ
ར
ལ
ས
ི
ུ
ེ
ོ
ྒ
ྡ
ྱ
ྲ
ྷ
င
ဆ
ည
တ
န
ပ
မ
ာ
ိ
ု
ေ
ံ
္
်
ြ
ა
მონაცემები
პლატფორმა
ღია
ជ
ណ
ន
ព
រ
ា
ុ
ះ
្
ᶻ
῾
​
‌
‍
‎
‏
–
—
―
‘
’
“
”
„
†
•
…
‬
‰
′
″
⁄
⁡
⁽
⁾
₂
€
№
←
→
↔
↷
⇄
−
≈
⋅
⋮
⍳
③
④
⑦
☆
☉
☿
♀
♂
♃
♄
♣
⟨
⟩
ⴰ
ⴱ
ⴷ
ⴻ
ⴼ
ⵉ
ⵍ
ⵎ
ⵏ
ⵓ
ⵔ
ⵖ
ⵙ
ⵜ
ⵟ
ⵢ
⺀
⺄
⺆
⺈
⺊
⺌
⺕
⺝
⺸
⺼
⿰
⿱
⿲
⿳
⿴
⿵
⿶
⿷
⿸
⿹
⿺
⿻
、
『
』
【
】
〜
〢
あ
い
え
か
き
く
け
こ
さ
し
す
せ
た
ち
っ
つ
て
と
な
に
の
は
ひ
ふ
へ
ほ
み
め
ゆ
よ
ら
り
る
れ
ろ
わ
を
ん
゙
゚
ア
ィ
イ
ゥ
ウ
エ
オ
カ
キ
ク
コ
サ
シ
ス
セ
タ
ッ
テ
ト
ナ
ニ
ネ
ノ
ハ
ヒ
フ
ヘ
ホ
マ
ミ
ム
メ
モ
ャ
ヤ
ュ
ユ
ラ
リ
ル
レ
ロ
ワ
ン
・
ー
㇁
㇂
㇄
㇇
㇈
㇉
㇓
ㇰ
㐁
㐄
㐅
㐌
㐫
㐬
㐭
㐮
㐱
㑒
㒵
㒸
㒼
㓁
㓞
㔾
㕛
㕣
㖾
㘝
㚅
㚇
㚔
㚘
㝉
㝡
㝴
㝵
㞋
㞢
㞷
㠩
㠭
㠯
㡀
㡭
㡿
㢲
㢴
㣇
㣺
㥯
㪅
㫄
㫐
㫒
㫺
㬅
㬎
㬥
㬰
㲋
㳄
㷠
㸒
㸚
㸦
㼌
㼲
㽞
㿟
䀠
䂞
䍃
䏍
䒑
䖍
䖒
䖝
䖵
䙴
䚻
䜌
䝿
䡛
䧹
䪞
一
丁
丂
七
丄
丅
丆
万
丈
三
上
下
丌
不
与
丏
丐
丑
专
且
丕
世
丘
丙
业
东
丞
丢
丣
两
严
並
丨
丩
个
丫
丬
中
丮
丰
丱
串
丵
丶
丷
丸
丹
为
主
丽
丿
乀
乂
乃
久
乆
乇
么
义
之
乌
乍
乎
乏
乐
乑
乔
乖
乗
乘
乙
乚
乛
乜
九
乞
也
习
乡
乳
乾
亀
亅
了
亇
予
争
事
二
亍
于
亏
亐
云
互
亓
五
井
亘
亚
亜
亞
亟
亠
亡
亢
交
亥
亦
产
亨
亩
享
京
亭
亮
亯
亰
亲
亳
亶
亷
人
亻
亼
亾
仁
今
介
仌
从
仐
仑
仒
仓
仕
他
付
仝
代
令
以
仲
任
企
伊
伏
伐
休
会
伝
伯
但
位
何
佘
余
作
佥
使
來
侈
侌
侖
侯
侵
便
保
俞
信
修
俳
倉
倍
候
倠
備
傳
僉
僕
優
儿
兀
允
兂
元
兄
充
兆
兇
先
光
兊
克
兌
免
児
兑
兒
兓
兔
党
兜
兟
入
全
兩
兪
八
公
六
兮
兰
共
关
兵
其
具
典
兹
兼
冀
冂
冃
冄
内
円
冈
冉
冊
冋
册
再
冎
冏
冐
冒
冓
冖
冗
冘
军
农
冝
冡
冥
冫
冬
冷
几
凡
凢
凵
凶
凷
凸
凹
出
函
凾
刀
刁
刂
刃
刄
刅
分
切
刍
刑
刕
刖
列
刘
则
初
別
利
别
到
制
刺
則
削
剌
前
剡
剽
劉
力
功
加
劦
助
劫
劳
劵
勃
勇
勉
勒
動
務
勝
勞
勤
勹
勺
勻
勾
勿
匀
匂
包
匆
匈
匊
匋
匍
匕
化
北
匚
匝
匡
匪
匱
匸
匹
区
医
匽
匿
區
十
卂
千
卄
卅
卆
升
午
卉
半
卌
华
卑
卒
卓
单
卖
南
卜
卝
卞
占
卡
卢
卣
卤
卦
卩
卪
卬
卯
印
危
即
却
卵
卷
卸
卻
厂
厃
厄
历
厈
厉
厌
厓
厘
厚
原
厤
厥
厨
厭
厲
厶
厷
厸
去
厼
厽
县
叀
参
參
叅
又
叉
及
友
双
反
叐
发
叒
叔
叕
取
受
叚
叜
叟
口
古
句
另
叩
只
召
可
台
叱
史
右
叵
号
司
叹
吂
各
吅
合
吉
吊
吋
同
名
后
吏
向
吕
君
吝
吞
否
含
启
吳
吴
吹
吾
呂
呆
呈
告
员
呙
周
命
咅
和
咎
咠
咢
咨
咸
咼
哀
品
哉
員
哥
哲
唐
商
啇
問
啚
啬
啻
善
喜
喬
單
喿
嗇
噩
嚴
囊
囗
囘
囙
囚
四
回
囟
因
囧
囬
困
囱
囷
固
国
圂
圅
國
圍
圓
土
圡
圣
圥
在
圭
地
圶
圼
坐
坒
坚
坡
坴
垂
垔
垚
垣
埀
埋
城
埶
執
基
堂
堅
堆
堇
堯
報
塞
墨
壘
士
壬
壯
声
壳
壴
壹
壺
壽
夂
处
夅
夆
备
夊
夋
夌
复
夏
夒
夕
外
夗
夘
多
夜
夢
大
夨
天
太
夫
夬
夭
央
失
夲
头
夷
夸
夹
夻
夾
奂
奄
奇
奈
奉
奎
奏
奐
契
奓
奔
奚
奞
奠
奢
奥
奭
女
奴
奻
好
如
妄
妙
妟
妥
妻
妾
姑
委
姜
威
娄
婁
婴
嬰
嬴
子
孑
孔
孕
孖
字
存
孚
孛
孝
孟
季
孤
学
孫
孱
學
宀
宁
宂
它
宅
宇
守
安
宋
完
宏
宓
宗
官
宙
定
宛
宜
宝
客
宣
室
宮
宰
害
家
容
宾
宿
寄
寅
密
富
寒
察
寧
審
寫
寬
寮
寸
对
寺
寻
寽
対
寿
封
尃
射
将
將
專
尉
尊
尋
尌
對
小
少
尒
尓
尔
尖
尗
尚
尞
尢
尣
尤
尧
尨
尭
就
尸
尹
尺
尻
尼
尽
尾
尿
局
居
屈
屋
屎
屏
屑
展
屖
屚
属
屠
屡
屬
屮
屯
屰
山
屵
屾
岁
岂
岑
岡
岩
岳
岸
峯
島
崇
崎
崑
崔
崖
崙
崩
嵬
嶲
巂
巛
川
州
巟
巠
巢
巤
工
左
巧
巨
巩
巫
差
己
已
巳
巴
巷
巸
巽
巾
巿
帀
市
布
希
帚
帛
帝
带
師
席
帶
常
干
平
年
幵
并
幷
幸
幺
幻
幼
幽
幾
广
庁
広
庄
床
底
店
庚
府
度
庫
庭
庶
康
庸
廉
廌
廛
廣
廩
廴
延
廷
建
廾
廿
开
弁
弃
弄
弇
弋
式
弓
弔
引
弗
弘
弜
弟
弥
弦
弱
張
強
强
彊
彌
彎
彐
彑
当
彔
录
彖
彗
彡
形
彥
彦
彧
彭
彳
役
彼
往
待
律
後
徒
得
徙
從
復
微
徵
心
忄
必
忌
忍
志
忝
忠
忩
快
念
忽
忿
怖
思
怠
急
怪
怱
恆
恐
恒
恩
恭
息
悉
患
悤
悪
悲
悶
惠
惡
惢
愁
愈
意
愛
感
慈
慧
慮
憂
憲
應
戀
戈
戉
戊
戋
戌
戍
戎
成
我
戒
戔
或
戚
戠
戢
戦
截
戲
戶
户
戹
戼
戾
房
所
扁
扇
手
扌
才
打
托
执
承
折
拉
拓
拜
拿
掌
推
提
摩
撃
支
攴
攵
收
攸
改
攻
放
政
敄
敏
敕
敖
敗
教
敝
敞
敢
散
敦
敫
敬
数
敷
數
斂
文
斉
斊
斎
斗
斤
斥
斩
斬
斯
新
方
於
施
斿
旁
旋
族
无
旡
既
旣
日
旦
旧
旨
早
旬
旱
旲
时
旾
昆
昇
昌
昍
明
昏
易
昔
昗
昜
星
春
昬
是
昱
昴
昷
時
晃
晋
晏
普
景
晶
智
暑
暴
曇
曩
曰
曲
曳
更
曷
書
曹
曼
曾
替
最
朁
會
月
有
朋
服
朔
朕
朗
望
朝
木
朩
未
末
本
札
朮
术
朱
朵
朶
朿
杀
李
杏
村
杜
束
条
来
杰
東
杲
杳
松
析
林
枚
果
枝
枲
枼
某
柔
查
柬
柰
柴
栗
桀
桑
桼
梁
條
梟
梨
棘
棠
棥
森
楚
業
楽
榮
樂
樊
橋
機
欠
次
欣
欮
欲
欶
欽
款
歆
歇
歛
止
正
此
步
武
歨
歪
歮
歯
歰
歲
歴
歷
歸
歹
歺
死
殳
段
殷
殸
殹
殺
殻
殿
毋
毌
母
毎
每
毒
比
毕
毚
毛
毳
氏
氐
民
气
気
氣
水
氵
氶
氷
永
氺
氾
求
汉
汝
汞
江
決
沃
沓
沙
沝
河
治
泉
泊
法
波
泣
泥
泰
洛
津
洪
洲
活
派
流
浜
浦
浪
浮
海
消
涙
淡
淮
深
清
渚
渠
渡
渭
港
湯
满
滿
演
漸
澤
激
濱
火
灬
灭
灰
灵
灷
炅
炎
炏
炗
炙
炭
為
烈
烏
烝
焉
無
焦
焱
然
煞
熊
熏
燃
燕
營
燮
爆
爪
爫
爭
爯
爰
爱
爲
爵
父
爻
爽
爾
爿
片
牙
牚
牛
牜
牟
牢
牧
牪
特
牽
犀
犬
犭
犮
狂
狄
狊
独
狺
猋
猒
猪
献
獣
獻
玄
率
玉
王
玟
玨
珎
班
球
琴
瑟
瑩
瓜
瓦
甘
甚
生
産
用
甫
甬
田
由
甲
申
电
甶
男
甸
甹
画
甾
畀
界
畏
畐
留
畜
畟
畢
畧
畨
番
畫
異
畱
當
畺
畾
疊
疋
疌
疑
疒
疾
癶
癸
癹
発
登
發
白
百
皀
皃
的
皆
皇
皋
皐
皕
皮
皷
皿
盃
盆
盇
盈
益
盍
盎
监
盒
盖
盛
盡
監
盤
盧
目
直
相
盾
省
眇
眉
看
県
眔
眞
真
眷
眼
眾
着
睘
睪
睿
瞏
瞢
瞿
矍
矛
矞
矢
矣
知
矦
短
石
破
碎
磊
磨
示
礻
礼
社
神
祟
票
祭
禀
禁
福
禸
禹
禺
离
禽
禾
禿
秀
秃
秉
秋
科
秝
秦
移
稟
穀
穌
穴
究
穹
空
穿
突
窄
窒
立
竒
竜
竝
竟
章
童
竹
笑
笠
筆
等
答
箕
算
箴
節
篤
篭
米
粉
粛
粟
粤
粦
粲
糞
糸
糹
系
約
納
素
索
紫
累
細
結
絜
絫
絲
維
綿
総
縣
繇
纍
纟
缶
网
罒
罔
罕
罗
罙
罡
罢
罪
署
罷
羅
羊
羌
羍
美
羔
羕
羗
羞
羡
羣
群
義
羲
羸
羽
翁
翏
習
翕
翟
翠
翼
老
耂
考
者
耆
而
耎
耑
耒
耳
耴
耶
耷
聂
聊
聖
聚
聞
聶
聿
肀
肃
肅
肉
肖
肙
肥
肩
肯
育
肴
胃
背
胡
胥
能
脊
脩
膚
臣
臤
臧
自
臬
臭
臯
臱
至
致
臺
臼
臽
臾
臿
舀
舂
舄
與
興
舉
舌
舍
舛
舜
舞
舟
般
艮
良
色
艸
艹
艾
芒
芔
芬
芭
芮
花
芳
芸
芺
芻
苔
苗
苟
若
苦
英
茶
茸
荅
草
荒
荣
荼
莆
莧
莫
莽
菆
菊
菐
華
萬
落
葉
著
葛
董
葵
蒙
蒦
蒼
蓋
蓬
蓺
蔑
蔡
蕉
蕭
薄
薛
薦
薰
藍
藏
藤
藥
蘭
虍
虎
虐
虒
虔
處
虖
虗
虘
虚
虛
虜
虞
虫
虽
蚤
蚩
蜀
蜜
蟲
蠡
血
行
衍
衛
衣
衤
表
衮
衰
袁
袞
褭
褱
襄
襾
西
覀
要
覃
見
規
覓
覧
親
覽
见
角
解
言
訁
訇
計
詩
詹
語
誩
説
諸
謎
議
讠
语
谷
豆
豈
豊
豐
豕
豖
豙
象
豦
豩
豪
豸
貇
貝
貞
貟
負
貢
貧
貪
貫
責
貳
貴
買
費
賁
資
賈
賊
賏
賓
賔
賛
賞
賢
賣
質
賴
贊
贝
贡
责
贯
贲
贵
赖
赞
赤
赦
走
越
足
路
蹇
身
躬
車
軍
軎
軟
輝
輦
车
辛
辜
辟
辥
辰
辱
農
辵
辶
边
辽
达
过
近
连
迷
追
退
送
逆
逐
通
速
造
逢
連
逮
進
遀
遂
過
道
達
遣
適
遷
遺
邊
邑
邕
那
邦
邪
郎
部
郭
都
鄉
酉
酋
配
酓
釆
采
里
重
野
量
金
釒
鉄
銀
銃
錢
钅
長
镸
长
門
閃
閉
開
閏
閑
閒
間
閔
閵
閻
闌
闘
门
间
闷
阑
阜
阝
阿
降
院
陳
陽
隆
隊
隋
隡
隨
隱
隶
隹
隺
隻
隼
隽
难
雀
雁
雅
集
雈
雋
雍
雐
雔
雙
雚
雜
雝
離
難
雨
雩
雪
雲
零
雷
需
霍
霜
霝
霞
霸
靈
靑
青
静
非
靡
面
靣
革
韋
韓
韦
韭
韯
韱
音
響
頁
頃
項
須
頗
頡
頻
顛
页
風
风
飛
飞
食
飠
養
饣
首
香
馬
馮
駅
駦
駿
马
骨
高
髟
鬥
鬯
鬲
鬼
魔
魚
魯
鮮
鱼
鲁
鳥
鳳
鸟
鹵
鹿
麃
麗
麥
麦
麻
黃
黄
黍
黎
黑
黒
黨
黹
黽
黾
鼎
鼓
鼠
鼻
齊
齋
齐
齒
齿
龍
龙
龜
龟
龠
龰
龱
龴
龵
龶
龷
龸
龹
ꜜ
者
艹
３
９
：
？
～
𐎢
𐤀
𐤓
𐤕
𠀁
𠀃
𠀆
𠀉
𠀎
𠀐
𠁁
𠁣
𠂆
𠂇
𠂈
𠂉
𠂊
𠂋
𠂎
𠂒
𠂔
𠂛
𠂡
𠂢
𠂤
𠂬
𠂭
𠂹
𠃊
𠃋
𠃌
𠃍
𠃎
𠃑
𠃓
𠃔
𠃜
𠄌
𠄎
𠄠
𠄢
𠆢
𠆥
𠇍
𠈌
𠌵
𠓜
𠔉
𠔥
𠔼
𠔽
𠔿
𠕀
𠕁
𠕋
𠘧
𠘨
𠙻
𠙼
𠚏
𠚒
𠚤
𠚪
𠣏
𠤎
𠤕
𠥓
𠦄
𠦑
𠦝
𠧒
𠧗
𠧪
𠩺
𠪚
𠫓
𠫔
𠫤
𠬛
𠬝
𠬞
𠬢
𠬤
𠬶
𠮛
𠮦
𠮷
𠯑
𠱠
𠳮
𠷎
𡈼
𡉀
𡉵
𡌥
𡍮
𡏳
𡕒
𡕩
𡕰
𡖅
𡗗
𡗜
𡘆
𡘤
𡧱
𡨄
𡩧
𡬠
𡭽
𡰣
𡰥
𡰪
𡰯
𡰱
𡷈
𡸁
𡿨
𡿩
𡿪
𡿺
𢀖
𢀛
𢀩
𢁙
𢆉
𢆰
𢆶
𢇁
𢇇
𢉖
𢌬
𢌿
𢏚
𢑑
𢑚
𢖻
𢙣
𢛳
𢦏
𢦒
𢧵
𢼄
𢾕
𣁋
𣄼
𣅀
𣅽
𣍘
𣎳
𣎵
𣏋
𣏼
𣗥
𣥂
𣥖
𣦵
𣦼
𣧄
𣪊
𣪠
𣬉
𣳾
𣶒
𤇾
𤊽
𤐫
𤓰
𤔔
𤕨
𤣩
𤰇
𤰔
𤰞
𤴓
𤴔
𤽄
𥁑
𥁕
𥃦
𥃩
𥃭
𥇡
𥑟
𥘅
𥘈
𥝢
𥫗
𥱡
𦈢
𦉪
𦉬
𦉼
𦍌
𦍒
𦎧
𦐇
𦓔
𦔮
𦘒
𦙃
𦚏
𦣝
𦣞
𦣻
𦥑
𦥔
𦥯
𦨉
𦭝
𦰩
𧆞
𧈧
𧘇
𧰨
𧴪
𧴮
𧵩
𧾷
𨸏
𨾴
𩙿
𩠐
𩫏
𩵋
𪉷
𪜀
𪟽
𪠲
𪩲
𫇦
𫔭
𫜸
𫝀
𫠣
𫠩
𫢉
𫥞
𫩏
𫩠
𫪡
𫲽
𫶧
𬀷
𬐘
𬗌
𬙙
𬛸
𬜯
𬟩
𬯁
𬴘
𬺻
𬼉
𬼖
𭀰
𭁈
𭁨
𭅰
𭑈
𭕄
𭗼
𭤨
𭥫
𭻾
𮅕
𮊿
𮍌
𮍏
𮓗
𮥼
𮧮
廾
𰀁
𰀄
𰀈
𰀉
𰀕
𰀠
𰀡
𰀢
𰀪
𰁜
𰃮
𰆊
𰆘
𰋙
𰕎
𰢴
𰧭
𰯲
104--
106--
112--
238--
266--
337--
a--
aa--
ab--
abh--
abi--
abstrak--
abu--
ac--
ace--
ad--
adap--
adm--
adus--
advo--
ae--
aero--
af--
afro--
ag--
aga--
agj--
agregat--
agricul--
ah--
ai--
aid--
aig--
air--
aja--
aje--
ak--
aks--
akt--
akti--
akva--
al--
ala--
alahei--
alang--
ale--
ali--
alle--
aly--
am--
ame--
an--
anas--
and--
anduz--
ang--
ani--
ano--
ant--
anti--
antof--
any--
ao--
aopen--
ap--
apa--
ar--
arbi--
arbo--
ard--
are--
arheolo--
arhi--
arhijere--
ari--
aristokra--
ark--
arl--
arm--
armas--
armot--
aro--
arsk--
art--
arv--
arvost--
as--
asau--
aspir--
associa--
astro--
at--
ata--
atom--
atomelektro--
atomreak--
au--
aug--
aus--
auto--
av--
avaid--
avar--
avia--
avstral--
avto--
avtobus--
avtol--
az--
azot--
b--
ba--
bab--
bad--
bagra--
bagrationov--
bah--
bai--
bajar--
bakter--
bal--
balk--
ban--
bang--
bankrotn--
barb--
bari--
barr--
bas--
bat--
baz--
be--
bek--
bel--
belo--
ben--
beng--
ber--
beton--
bh--
bha--
bi--
biatlo--
bibli--
bil--
bio--
bir--
bis--
bo--
bob--
bok--
bol--
bom--
bon--
bor--
bos--
botani--
br--
bra--
brya--
bs--
bu--
bul--
bumag--
bur--
but--
by--
c--
ca--
can--
cap--
car--
cast--
cat--
ce--
celeb--
cement--
cen--
ch--
cha--
che--
ci--
citrus--
cl--
co--
colo--
colu--
com--
con--
cr--
cre--
cu--
cy--
cz--
d--
da--
dag--
dai--
dan--
dar--
darus--
dat--
daug--
de--
ded--
dei--
dek--
demo--
demon--
den--
des--
det--
di--
dia--
diag--
dic--
die--
din--
dis--
discipl--
divnog--
do--
dol--
dolgoprud--
dom--
don--
dor--
dovu--
dr--
du--
dub--
dun--
dy--
dz--
e--
eb--
ec--
econ--
ed--
edes--
edu--
ee--
ef--
eg--
egods--
eh--
eht--
ei--
ek--
ekes--
eks--
ekskava--
ekspe--
ekspedic--
el--
elec--
elektro--
eli--
elo--
eloho--
eloka--
elon--
em--
ema--
emi--
emoc--
en--
ency--
end--
ener--
ep--
equise--
er--
eredu--
eri--
ero--
erozi--
es--
est--
et--
eta--
etimolo--
etrus--
eu--
ev--
every--
evk--
evr--
ex--
ez--
ezik--
ezilidn--
ezipa--
ezita--
f--
fa--
fak--
fan--
faner--
far--
fas--
faz--
fe--
federat--
fem--
feod--
fer--
fi--
fil--
fin--
flav--
fle--
fo--
folk--
fon--
for--
foto--
fr--
fra--
fri--
fro--
fst--
fu--
funkc--
futbol--
g--
ga--
gabro--
gad--
gaf--
gal--
gala--
gan--
gar--
garmon--
gas--
gaz--
ge--
ged--
gel--
gen--
gend--
geolo--
georgi--
ger--
ges--
gest--
gev--
ghe--
gi--
gid--
gidro--
gidrom--
gijal--
gikar--
gil--
gimass--
gipo--
gis--
gitun--
gla--
gli--
gm--
go--
gofro--
goll--
gor--
got--
gr--
gra--
graf--
graiv--
grupp--
gs--
gu--
guad--
gub--
guber--
gul--
gus--
gv--
h--
ha--
hab--
had--
hahk--
haju--
hal--
ham--
han--
hapan--
har--
has--
hat--
he--
hei--
hein--
hemb--
hen--
her--
het--
hetart--
hi--
hibus--
hid--
hil--
hill--
hir--
hiren--
his--
hit--
hj--
hk--
ho--
hol--
home--
hon--
hor--
hot--
hrva--
ht--
hte--
hthe--
hu--
huik--
hul--
hum--
hun--
hut--
hy--
i--
ia--
ib--
ice--
id--
ide--
ideolo--
idu--
ie--
ig--
ih--
ihas--
ii--
ijo--
ik--
ika--
iker--
iksug--
il--
ili--
illeg--
ilo--
im--
ima--
immi--
imong--
imper--
in--
ina--
ind--
indo--
indok--
infra--
ini--
inn--
inspek--
int--
io--
ip--
ir--
ird--
irid--
iroke--
is--
isa--
isem--
isinba--
isl--
isp--
ist--
it--
ital--
ittri--
ituk--
iu--
iv--
ivit--
ivnouz--
ivnouzm--
iz--
izo--
izum--
j--
ja--
jaga--
jal--
jam--
jan--
japan--
jar--
jas--
jaug--
je--
jel--
jen--
jer--
jev--
jez--
ji--
jo--
jogi--
joht--
joks--
joksi--
jon--
jouc--
joud--
ju--
jun--
jur--
k--
ka--
kab--
kac--
kacli--
kacu--
kad--
kagr--
kah--
kai--
kaimd--
kaiv--
kaivat--
kaivuz--
kal--
kala--
kalifor--
kam--
kan--
kana--
kanfe--
kangaz--
kant--
kap--
kar--
karpat--
kart--
karton--
kas--
kat--
kate--
kato--
kau--
kauha--
kauk--
kaum--
kauni--
kaz--
kazva--
ke--
kebn--
kedr--
keh--
kei--
keita--
kel--
kelen--
kello--
kem--
ken--
kensuladuz--
kera--
kerd--
kert--
kesk--
keskuz--
ket--
keza--
kha--
khu--
ki--
kino--
kir--
kirj--
kis--
kiuru--
kive--
kivivoi--
kivivoin--
kl--
kla--
klan--
klin--
klo--
km--
kno--
ko--
kod--
kodi--
kohen--
koht--
koi--
koiran--
koje--
kok--
koksan--
kol--
koli--
kolle--
kom--
kompjuter--
kompozic--
kon--
koncen--
koncentra--
kong--
konser--
konserva--
konson--
konst--
konsti--
konurbac--
koper--
kopi--
kor--
kora--
kork--
kormad--
korv--
kos--
kosket--
kot--
kouk--
koume--
kov--
koverit--
kr--
kra--
krei--
kristiinan--
ks--
ku--
kub--
kud--
kuid--
kuiv--
kuivatoi--
kuk--
kuker--
kukhi--
kukhika--
kul--
kuld--
kulu--
kulund--
kum--
kun--
kur--
kurki--
kurul--
kus--
kut--
kuva--
kuz--
kvan--
ky--
l--
la--
lab--
lac--
lag--
lai--
laiv--
laivan--
lak--
lam--
lan--
lank--
lapt--
las--
lasic--
lat--
latin--
lav--
lavas--
laze--
le--
lebai--
lebu--
legi--
legis--
lehtez--
leib--
lek--
len--
les--
let--
lete--
lev--
li--
lib--
libak--
libu--
licenzi--
lidn--
lidnan--
lif--
liha--
lik--
likutim--
lim--
lin--
lis--
lju--
ll--
lo--
lop--
lov--
loz--
lt--
lu--
lug--
lugend--
luht--
lujen--
luk--
lumi--
lun--
lv--
lvhan--
m--
ma--
mac--
mad--
mag--
magaduz--
magd--
magi--
magnit--
mah--
maha--
mai--
maid--
major--
mak--
malafe--
mam--
man--
manrehk--
mar--
mark--
mas--
mat--
maur--
mavri--
maz--
mb--
mbita--
mbri--
mbrikirju--
mc--
md--
me--
meblin--
mec--
med--
mega--
mehe--
meht--
meitn--
mek--
mel--
melet--
melio--
melo--
men--
mer--
meri--
mes--
met--
metab--
metal--
metall--
meteoro--
mezi--
mg--
mi--
mia--
mic--
mik--
mikro--
min--
mir--
mis--
miss--
mitro--
mk--
mm--
mn--
mo--
moipalo--
mol--
mon--
mono--
mont--
mor--
mos--
mot--
motor--
moz--
mp--
ms--
mu--
mug--
mugo--
mugul--
muig--
muik--
mujez--
muju--
mul--
mur--
mus--
must--
muz--
muza--
muze--
muzik--
my--
myrt--
n--
na--
nahk--
nai--
nak--
nam--
nambruz--
nan--
nar--
nas--
nat--
nc--
nd--
nda--
ndekvar--
ndi--
ne--
neb--
neder--
nefte--
neg--
negla--
nei--
nek--
nekro--
nellik--
nem--
neoli--
neps--
nes--
net--
nev--
nevond--
ng--
ni--
nic--
nik--
nikto--
nil--
nimi--
nin--
nis--
nit--
nju--
nk--
nn--
nnu--
no--
noi--
nom--
nor--
norma--
nos--
nov--
novo--
nsula--
nt--
ntgen--
nu--
ny--
nzoi--
o--
oazi--
observa--
obuho--
oc--
od--
og--
oga--
oger--
oh--
ohjan--
ohjas--
oi--
oid--
oiged--
oigend--
oika--
oiktus--
ok--
oka--
oks--
ol--
ola--
ole--
oly--
om--
oma--
omb--
omblend--
omit--
on--
one--
onetom--
op--
open--
openduz--
oppozic--
or--
orb--
orfograf--
ori--
oro--
orts--
os--
ost--
ot--
ota--
otrad--
ou--
ov--
oz--
oza--
ozr--
ozuta--
p--
pa--
pac--
pad--
pai--
paimen--
pain--
pak--
pal--
pala--
pale--
pan--
panam--
pank--
pap--
par--
para--
part--
pas--
past--
pat--
paut--
pe--
peda--
peh--
pehmd--
peit--
peitsi--
pen--
per--
perif--
petr--
pez--
ph--
pi--
pid--
pida--
piikez--
pil--
pilind--
pione--
pir--
pirene--
pis--
pit--
pk--
pl--
plan--
plastmas--
ple--
plo--
pnev--
po--
pol--
poli--
pomp--
pon--
pop--
por--
pord--
port--
pos--
poukaht--
pozic--
pr--
pra--
prazn--
pre--
prem--
prezen--
pri--
pro--
profess--
pronom--
protek--
protestan--
prus--
ps--
psiho--
pu--
pub--
puc--
pudot--
pul--
pun--
purtk--
puru--
put--
q--
r--
ra--
rabindr--
rac--
rad--
radia--
radin--
radio--
radot--
raff--
rah--
raha--
rahva--
rahvahan--
rahvahat--
rajonkesk--
raket--
ram--
ran--
rand--
ras--
rat--
ratna--
raud--
raudan--
raudte--
raug--
raz--
razbai--
razv--
rb--
rd--
re--
rea--
reagi--
reak--
reakc--
rebi--
red--
redak--
redust--
reg--
rei--
reig--
rekonst--
relig--
ren--
rep--
res--
resk--
respub--
restav--
rez--
rezer--
reziden--
rg--
rha--
ri--
rid--
rig--
rik--
rim--
rin--
rind--
rindhan--
ripm--
ripmatom--
ripp--
rippu--
rist--
rituz--
rk--
rm--
rn--
ro--
rod--
roh--
roi--
rok--
ron--
ros--
rosa--
rosttumat--
rt--
rtu--
ru--
ruht--
rujo--
run--
rupi--
rus--
rut--
rve--
rz--
s--
sa--
sab--
sad--
sada--
sag--
sai--
sakra--
sal--
salo--
sam--
samal--
san--
sankc--
sanu--
sapk--
sar--
sas--
sat--
satuse--
sau--
saum--
saund--
saupt--
sauvo--
sauvond--
sauvu--
sav--
sc--
sch--
se--
sebruz--
segoi--
sek--
sekund--
sem--
sen--
sep--
ser--
ses--
sha--
shi--
sho--
shr--
si--
sie--
sik--
sil--
sim--
sin--
sir--
sirdan--
sirdani--
sirdni--
sit--
situa--
sk--
ske--
ski--
sku--
skuz--
sl--
slobod--
slok--
sm--
sn--
so--
soda--
sodameri--
soi--
sok--
sola--
som--
son--
sor--
sos--
sp--
spa--
spektak--
spektro--
spir--
sport--
spra--
sr--
ss--
st--
sta--
staci--
stan--
stand--
stego--
ster--
sto--
stoit--
strogan--
stron--
stu--
su--
sub--
substanti--
sud--
suho--
sula--
suo--
suonen--
sur--
sus--
suug--
suvi--
sy--
sz--
t--
ta--
tab--
tae--
taga--
taht--
tai--
taiv--
tak--
tal--
tam--
tan--
tand--
tar--
tarkoik--
tat--
tau--
taz--
tazo--
te--
ted--
tedo--
tedoiduz--
teh--
tel--
tele--
tem--
ten--
teo--
ter--
teraz--
termod--
terno--
terri--
terro--
tet--
th--
tha--
the--
tho--
ti--
tikah--
til--
tim--
tip--
tir--
tirn--
tis--
tit--
tk--
tku--
tm--
tmark--
to--
tob--
tod--
todest--
toi--
toik--
tok--
tol--
tom--
ton--
top--
tor--
torg--
torguind--
torok--
torvu--
tozi--
tpac--
tra--
traged--
traktor--
trans--
tre--
tri--
tro--
trollei--
tru--
ts--
ttu--
tu--
tualet--
tuh--
tullei--
tun--
tundm--
tur--
turk--
tus--
tuz--
tv--
twe--
twi--
ty--
u--
ua--
ub--
ud--
udenzelandija--
udm--
udoka--
uf--
ug--
uhk--
uhun--
ui--
ujel--
uju--
uk--
uklo--
ul--
ula--
ulim--
ulk--
um--
uma--
umbi--
umhu--
un--
una--
und--
unhe--
uni--
uor--
up--
ur--
ura--
urad--
ural--
uru--
us--
usko--
ust--
ut--
utiliza--
uuk--
uv--
uva--
uz--
v--
va--
vac--
vago--
vagon--
vaht--
vai--
val--
valatoi--
vald--
van--
vanh--
var--
vara--
varuit--
varuitom--
vas--
vast--
vate--
vauh--
vauk--
vaum--
vauv--
vdunds--
ve--
ved--
veda--
vedhudet--
vehk--
vei--
velg--
veloteh--
ven--
ver--
veren--
verhan--
ves--
vet--
vezi--
vi--
via--
vie--
viha--
vihm--
vii--
vik--
vikiped--
vil--
vill--
vilugoi--
vin--
vir--
vis--
visit--
visok--
vit--
vl--
vo--
voi--
vol--
von--
vos--
vu--
vuk--
vul--
vut--
vuta--
vv--
w--
wa--
war--
we--
x--
xi--
xx--
y--
ya--
ye--
z--
za--
zai--
zalae--
zavot--
ze--
zerk--
zi--
zin--
zm--
zmeinog--
znam--
zo--
zon--
zu--
zvenig--
zw--
æ--
ð--
ə--
ɡ--
ɣ--
ɪ--
ɾ--
ʁ--
α--
β--
βασιλ--
γ--
δ--
ελ--
κ--
λ--
μ--
ν--
π--
ρ--
σ--
τ--
φ--
а--
аба--
абра--
авто--
автоном--
ак--
ал--
алек--
ан--
ана--
арсе--
аст--
б--
ба--
баже--
бе--
би--
бо--
бре--
бу--
в--
ва--
ве--
вепс--
ви--
вики--
во--
вологод--
володи--
вы--
вячес--
г--
ге--
гл--
го--
гор--
государ--
гр--
д--
да--
де--
ди--
до--
ду--
е--
ев--
ека--
ж--
з--
за--
здо--
зе--
зи--
зо--
и--
иг--
ин--
искус--
к--
ка--
каре--
ке--
ки--
кир--
клюк--
ко--
кон--
кр--
крас--
ку--
куз--
кур--
къ--
кы--
л--
ле--
лес--
ли--
ло--
лыт--
ль--
люб--
м--
ма--
ман--
ме--
мед--
ми--
мо--
мор--
моско--
му--
н--
на--
наз--
народ--
наци--
не--
ни--
нико--
ня--
о--
об--
осе--
от--
ох--
оче--
п--
па--
пас--
пе--
петро--
по--
пос--
президен--
примо--
пу--
пя--
р--
ра--
разви--
рас--
ре--
реч--
ри--
ро--
род--
ру--
рус--
рх--
ря--
ряза--
с--
са--
свет--
сви--
се--
сегеж--
си--
сло--
со--
ст--
ста--
сы--
т--
та--
те--
тер--
ти--
то--
ту--
ты--
у--
ун--
ф--
фе--
фи--
х--
ха--
хо--
ху--
ц--
цве--
це--
ч--
че--
чи--
чу--
ш--
ше--
ы--
э--
ю--
я--
י--
ا--
ال--
م--
अ--
क--
ख--
ग--
ब--
म--
ल--
व--
श--
स--
ப--
น--
เ--
--0
--1
--2
--3
--4
--5
--54
--58
--6
--7
--8
--83
--9
--91
--99
--a
--aa
--ab
--ac
--acii
--acijad
--acijan
--acijata
--ad
--ada
--ade
--adme
--adud
--ae
--ag
--ah
--aha
--ai
--aig
--aine
--aiz
--aja
--ajad
--ajaks
--ajid
--ak
--aka
--aki
--aks
--al
--alaine
--alaiz
--ale
--ali
--aline
--alis
--aliz
--am
--amatoi
--amb
--amha
--amiz
--an
--and
--andai
--andajad
--andu
--anke
--anno
--ao
--ap
--ar
--ard
--arijad
--arine
--ariz
--ary
--as
--asi
--asiz
--aspa
--asso
--ast
--at
--ata
--atad
--atan
--atesen
--ath
--ati
--atine
--atiz
--ato
--atoi
--ator
--atosen
--atuz
--au
--av
--ava
--avod
--ay
--az
--b
--ba
--baz
--be
--bi
--bl
--blokad
--bo
--boa
--bomb
--bu
--bur
--burg
--by
--c
--ca
--ce
--cea
--ceae
--ceh
--ch
--che
--ci
--cii
--cijal
--cijoid
--cijois
--cine
--cional
--cit
--ciz
--co
--cu
--cus
--d
--da
--dad
--dal
--dan
--das
--de
--ded
--deh
--deks
--del
--den
--denke
--des
--dha
--dhi
--di
--dii
--dijan
--djid
--dme
--do
--dr
--dra
--dro
--ds
--du
--dud
--duz
--dy
--dz
--e
--ea
--eae
--eb
--ec
--ect
--ed
--eda
--edan
--eg
--eged
--egen
--eh
--ei
--eid
--ein
--eiz
--ejan
--ejiz
--ek
--eks
--el
--ela
--em
--en
--eng
--enke
--enko
--ens
--ensis
--ent
--entiz
--eo
--epo
--er
--erdz
--ere
--ert
--es
--esai
--esan
--ese
--esen
--esid
--esine
--esis
--espa
--est
--et
--ett
--etud
--eus
--ev
--ey
--ez
--ezi
--f
--fa
--fax
--fi
--fijad
--fil
--fly
--ft
--fu
--ful
--fy
--g
--ga
--gal
--gan
--gazan
--ge
--ger
--gesed
--gha
--gi
--gim
--gint
--gir
--giz
--gn
--go
--gof
--goi
--gton
--gua
--guay
--h
--ha
--had
--hamn
--han
--has
--hasai
--he
--hed
--hein
--hel
--hem
--hen
--hes
--hesai
--hi
--him
--hin
--his
--hiz
--ho
--hosai
--hov
--hs
--ht
--hta
--hu
--husai
--i
--ia
--iad
--ial
--ian
--iano
--ias
--iau
--ib
--iba
--ic
--ica
--ice
--icii
--ico
--id
--idan
--idas
--iden
--idme
--idoid
--idud
--ie
--ier
--ihe
--ii
--iine
--iis
--ija
--ijad
--ijadme
--ijaks
--ijal
--ijalaiz
--ijan
--ijas
--ijaspa
--ije
--ijha
--ijoihe
--ijoil
--ijois
--ijoita
--ik
--ikacijan
--ikan
--ikas
--iki
--ikod
--iks
--il
--ila
--ild
--ile
--ilu
--im
--in
--ina
--ind
--ine
--ing
--ini
--inii
--ino
--inz
--io
--ion
--ip
--ique
--ir
--ira
--irin
--irk
--iro
--irui
--iruib
--iruidas
--iruidud
--iruimha
--iruind
--is
--ische
--ist
--istad
--it
--ita
--itab
--itad
--itas
--iti
--itud
--ity
--iu
--ium
--ius
--iv
--iva
--ivad
--ive
--ivia
--ivine
--iviz
--iz
--izm
--izman
--j
--ja
--jad
--jaks
--jal
--jalaiz
--jale
--jan
--jas
--jaspa
--je
--jev
--jha
--jid
--jine
--jiz
--jo
--jogen
--jogi
--joid
--joiden
--joil
--ju
--k
--ka
--kad
--kal
--kan
--kandajaks
--kas
--kaz
--kcijois
--ke
--kel
--ker
--keskeine
--keskeiz
--keskuz
--ki
--kii
--kirj
--kko
--ko
--kod
--koi
--koje
--kom
--koric
--kov
--ks
--ksan
--ku
--kui
--kul
--kund
--kundan
--l
--la
--lad
--laine
--laiz
--lan
--le
--ler
--li
--lid
--lii
--lina
--line
--ling
--lis
--liz
--ll
--lle
--lli
--lo
--loiden
--lon
--lu
--lur
--lus
--ly
--m
--ma
--maa
--mad
--man
--mas
--mat
--matoi
--mb
--me
--med
--mel
--mez
--mha
--mi
--mik
--mikan
--mis
--miz
--mo
--montaz
--mov
--ms
--mu
--mus
--n
--na
--nad
--nai
--naine
--namoic
--nan
--nc
--nce
--nd
--ndad
--ndan
--ndas
--ne
--neft
--net
--ng
--ni
--nic
--nii
--nik
--niz
--nja
--nke
--nn
--no
--noks
--ns
--nsis
--nt
--nu
--ny
--nz
--o
--ob
--obl
--obr
--oc
--od
--odas
--odsk
--og
--ogii
--ogiz
--oi
--oic
--oid
--oiden
--oihe
--oiks
--oil
--oile
--ois
--oita
--oitas
--oitud
--oja
--oje
--ojen
--ok
--okaz
--oko
--oks
--ol
--ola
--om
--omb
--on
--ond
--oni
--onii
--onijas
--onna
--ons
--ont
--op
--or
--oriden
--oru
--os
--osa
--ospa
--ot
--oto
--otud
--otuz
--ou
--ous
--ov
--ova
--ovan
--ovic
--ovna
--ovo
--ovon
--ow
--oz
--p
--pa
--pe
--pedia
--ph
--pird
--pk
--pn
--po
--pop
--port
--pot
--pov
--pu
--pus
--q
--r
--ra
--radmis
--raf
--ran
--rar
--re
--ri
--rie
--ries
--rijha
--ris
--riz
--rk
--rm
--ro
--rou
--rov
--rs
--rt
--ru
--rui
--ruidud
--rum
--ry
--s
--sa
--sad
--sai
--san
--se
--sed
--sel
--sen
--sh
--she
--si
--sia
--sible
--sija
--sis
--siz
--sk
--ska
--skai
--skan
--skeine
--skeiz
--skii
--skoe
--skoje
--so
--sol
--spa
--ss
--ssa
--ssiv
--st
--stad
--stancijoil
--sti
--stub
--su
--t
--ta
--tab
--tad
--tagaine
--tagaiz
--tai
--tajid
--tajis
--tan
--tanu
--tas
--tase
--tc
--te
--teb
--ted
--tedai
--tedo
--tedon
--tegim
--tegimel
--tegint
--tehnik
--ten
--ter
--tes
--th
--ti
--tic
--ticus
--tii
--tija
--tik
--tikan
--tim
--tine
--tis
--tiv
--tiz
--to
--toi
--ton
--tor
--tos
--tr
--ts
--tta
--tten
--tu
--tud
--tur
--tuseks
--tusis
--tuz
--ty
--tz
--u
--ua
--ual
--uarembo
--ub
--uc
--ud
--uda
--uden
--ue
--ugu
--uh
--ui
--uid
--uida
--uiden
--uidud
--uihe
--uiks
--uil
--uile
--uis
--uiz
--uk
--uki
--uko
--uks
--ul
--ule
--um
--ume
--umha
--un
--unu
--uo
--ur
--uras
--urg
--uri
--uro
--us
--used
--useks
--usel
--usele
--usen
--uses
--ushe
--usid
--usihe
--usil
--usis
--uskoi
--ust
--ut
--uta
--utesid
--ux
--uz
--uzan
--uzil
--v
--va
--vad
--valamiz
--van
--vastaine
--vc
--ve
--veimen
--vena
--veren
--vet
--vi
--vic
--vii
--vo
--vu
--vud
--vuic
--w
--wa
--wer
--x
--xe
--y
--ya
--z
--za
--zacii
--ze
--zer
--zi
--zid
--ziden
--zil
--zis
--zm
--zo
--zoid
--ł
--ɐ
--ɑ
--ə
--ɪ
--α
--η
--ι
--λη
--ς
--υ
--а
--ам
--ан
--ая
--б
--бе
--в
--ва
--вая
--вич
--вия
--во
--вье
--г
--га
--гия
--го
--д
--да
--дж
--ди
--ды
--е
--ев
--ева
--евич
--еи
--ет
--ж
--жи
--жная
--з
--зи
--и
--ие
--ии
--ин
--их
--ич
--ия
--к
--ка
--ков
--кс
--л
--ли
--ло
--лов
--ль
--ля
--м
--ми
--н
--на
--ни
--ние
--нии
--ния
--нка
--нко
--нс
--нт
--ну
--ны
--нь
--о
--ов
--ова
--ович
--овна
--ого
--ое
--ои
--ом
--п
--пп
--р
--ра
--рга
--ре
--рез
--рии
--рия
--рная
--ро
--рс
--ры
--рю
--ря
--с
--си
--ск
--сов
--ста
--сти
--сь
--ся
--т
--та
--ть
--у
--ф
--фия
--х
--ц
--ца
--ция
--ч
--ча
--чь
--ш
--шь
--ще
--ы
--ыл
--ь
--ю
--я
--ء
--ان
--ر
--ن
