!
"
#
##0
##1
##10
##11
##12
##13
##14
##15
##16
##17
##18
##19
##2
##20
##21
##22
##23
##24
##25
##26
##27
##28
##29
##3
##30
##31
##32
##33
##34
##35
##36
##37
##38
##39
##4
##40
##41
##42
##43
##44
##45
##46
##47
##48
##49
##5
##50
##51
##52
##53
##54
##55
##56
##57
##58
##59
##6
##60
##61
##62
##63
##64
##65
##66
##67
##68
##69
##7
##70
##71
##72
##73
##74
##75
##76
##77
##78
##79
##8
##80
##81
##82
##83
##84
##85
##86
##87
##88
##89
##9
##90
##91
##92
##93
##94
##95
##96
##97
##98
##99
$
%
&
'
(
)
*
+
,
-
.
/
0
00
000
000085
001
002
003
004
005
006
007
008
009
01
010
011
012
013
014
015
016
017
018
019
02
020
021
023
024
025
026
027
028
029
03
031
032
033
034
035
037
038
039
04
041
044
045
047
048
049
05
051
052
056
058
059
06
060
061
062
065
067
07
070
071
072
073
075
076
079
08
080
081
083
084
085
086
088
09
090
091
092
094
095
097
098
099
1
10
100
1000
1001
101
1010
1015
1019
102
1020
1021
1024
103
104
105
1050
1054
106
1068
107
1075
1078
108
109
1095
11
110
1100
111
112
113
1135
1137
114
1146
1147
1148
115
1150
1151
1152
1154
1155
116
117
1170
1175
118
1184
119
12
120
1200
121
1212
1214
1216
1217
122
1220
1222
1225
1227
123
1230
1234
1238
1239
124
1240
1241
1246
1248
125
1250
1252
1253
126
1263
1265
127
1270
1271
1275
1276
128
1280
1283
1285
129
1290
1291
1293
1295
1297
13
130
1300
1308
131
1310
1312
1314
132
1320
1322
1323
1324
1325
1326
133
1339
134
1340
1341
1346
1348
1349
135
1350
1356
1359
136
1360
1364
1368
137
1371
138
1380
1382
1389
139
1390
1394
14
140
1400
1408
141
1410
142
1420
1429
143
1430
1431
1434
144
1440
145
1450
1452
1453
146
1460
1462
1468
1469
147
1471
1473
1474
1475
1478
148
1483
1485
149
1490
1491
1492
1493
1494
1495
1496
1497
1499
15
150
1500
1502
1503
1504
1505
151
1510
1512
1513
1514
1519
152
1520
1521
1522
1525
1526
1528
1529
153
1531
1532
1533
1535
1536
1538
1539
154
1540
1541
1543
1545
1547
155
1550
1552
1553
1555
1556
1558
156
1560
1561
1563
1564
1565
1566
1567
1569
157
1570
1571
1572
1573
1575
1576
1577
1578
158
1580
1581
1583
1584
1586
1589
159
1590
1592
1593
1594
1596
1597
1598
1599
16
160
1600
1603
1605
1606
1608
1609
161
1610
1611
1612
1613
1614
1615
1616
1617
1618
1619
162
1620
1621
1622
1623
1624
1625
1626
1627
1628
1629
163
1630
1631
1632
1633
1635
1636
1637
1638
1639
164
1640
1641
1642
1643
1644
1645
1646
1647
1648
1649
165
1650
1652
1653
1655
1656
166
1660
1661
1662
1663
1664
1665
1666
1667
1668
1669
167
1670
1671
1672
1674
1675
1676
1678
1679
168
1680
1681
1682
1683
1684
1685
1686
1687
1688
1689
169
1690
1691
1694
1695
1697
1698
1699
17
170
1700
1701
1702
1703
1704
1706
1707
1708
1709
171
1710
1711
1712
1713
1714
1716
1717
1718
1719
172
1720
1721
1722
1723
1724
1725
1726
1727
1728
1729
173
1730
1731
1732
1733
1734
1735
1736
1737
1738
1739
174
1740
1741
1742
1743
1744
1745
1746
1747
1748
1749
175
1750
1751
1752
1753
1754
1755
1756
1757
1758
1759
176
1760
1761
1762
1763
1764
1765
1766
1767
1768
1769
177
1770
1771
1772
1773
1774
1775
1776
1777
1778
1779
178
1780
1781
1782
1783
1784
1785
1786
1787
1788
1789
179
1790
1791
1792
1793
1794
1795
1796
1797
1798
1799
18
180
1800
1801
1802
1803
1804
1805
1806
1807
1808
1809
181
1810
1811
1812
1813
1814
1815
1816
1817
1818
1819
182
1820
1821
1822
1823
1824
1825
1826
1827
1828
1829
183
1830
1831
1832
1833
1834
1835
1836
1837
1838
1839
184
1840
1841
1842
1843
1844
1845
1846
1847
1848
1849
185
1850
1851
1852
1853
1854
1855
1856
1857
1858
1859
186
1860
1861
1862
1863
1864
1865
1866
1867
1868
1869
187
1870
1871
1872
1873
1874
1875
1876
1877
1878
1879
188
1880
1881
1882
1883
1884
1885
1886
1887
1888
1889
189
1890
1891
1892
1893
1894
1895
1896
1897
1898
1899
19
190
1900
1901
1902
1903
1904
1905
1906
1907
1908
1909
191
1910
1911
1912
1913
1914
1915
1916
1917
1918
1919
192
1920
1921
1922
1923
1924
1925
1926
1927
1928
1929
193
1930
1931
1932
1933
1934
1935
1936
1937
1938
1939
194
1940
1941
1942
1943
1944
1945
1946
1947
1948
1949
195
1950
1951
1952
1953
1954
1955
1956
1957
1958
1959
196
1960
1961
1962
1963
1964
1965
1966
1967
1968
1969
197
1970
1971
1972
1973
1974
1975
1976
1977
1978
1979
198
1980
1981
1982
1983
1984
1985
1986
1987
1988
1989
199
1990
1991
1992
1993
1994
1995
1996
1997
1998
1999
2
20
200
2000
2001
2002
2003
2004
2005
2006
2007
2008
2009
201
2010
2011
2012
2013
2014
2015
2016
2017
2018
2019
20190705
202
2020
2021
2022
2023
2024
2025
203
2030
204
205
2050
206
207
208
209
21
210
211
212
213
214
215
216
217
218
219
2199
22
220
2200
221
222
223
224
225
226
227
228
229
23
230
2300
231
232
233
234
235
236
237
238
239
24
240
2400
241
242
243
244
245
246
247
248
249
25
250
2500
251
252
253
254
255
256
257
258
259
26
260
261
262
263
264
265
266
267
268
269
27
270
2700
271
272
273
274
275
276
277
278
279
28
280
2800
281
282
283
284
285
286
287
288
289
29
290
291
292
293
294
295
296
297
298
299
3
30
300
3000
301
302
303
304
305
306
307
308
309
31
310
311
312
313
314
315
316
317
318
319
32
320
3200
321
322
323
324
325
326
327
328
329
33
330
331
332
333
334
335
336
337
338
339
34
340
341
342
343
344
345
346
347
348
349
35
350
3500
351
352
353
354
355
356
357
358
359
36
360
3600
361
362
363
364
365
366
367
368
369
37
370
371
372
373
374
375
376
377
378
379
38
380
381
382
383
384
385
386
387
388
389
39
390
391
392
393
394
395
396
397
398
399
4
40
400
4000
401
402
403
404
405
406
407
408
409
41
410
411
412
413
414
415
416
417
418
419
42
420
4200
421
422
423
424
425
426
427
428
429
43
430
431
432
433
434
435
436
437
438
439
44
440
441
442
443
444
445
446
447
448
449
45
450
451
452
453
454
455
456
457
458
459
46
460
461
462
463
464
465
466
467
468
469
47
470
471
472
473
474
475
476
477
478
479
48
480
481
482
483
484
485
486
487
488
489
49
490
491
492
493
494
495
496
497
498
499
5
50
500
5000
501
502
503
504
505
506
507
508
509
51
510
511
512
513
514
515
517
518
519
52
520
521
522
523
524
525
526
527
528
529
53
530
531
532
533
534
535
536
537
538
539
54
540
541
542
543
544
545
546
547
548
549
55
550
551
552
553
554
555
556
557
558
56
560
561
562
563
564
565
566
567
568
569
57
570
571
572
573
574
575
576
577
579
58
580
581
582
583
584
585
586
587
588
589
59
590
591
592
593
594
595
596
597
598
599
6
60
600
6000
601
602
603
604
605
606
607
608
609
61
610
611
612
613
614
615
616
617
618
619
62
620
621
622
623
624
625
626
627
628
629
63
630
631
632
633
634
635
637
638
639
64
640
641
642
643
644
645
646
647
648
649
65
650
6500
651
652
653
654
655
656
657
658
659
66
660
664
665
666
667
668
67
670
671
672
673
674
675
676
678
679
68
680
681
682
683
686
687
688
689
69
690
691
692
693
694
695
696
697
698
7
70
700
7000
701
702
704
705
706
707
708
709
71
710
711
712
713
714
715
716
717
718
719
72
720
721
722
723
724
725
727
728
729
73
730
731
732
733
734
735
737
738
739
74
740
741
742
743
744
745
746
747
748
749
75
750
751
752
753
754
755
756
757
758
759
76
760
762
763
764
765
766
767
768
769
77
770
771
772
773
774
775
776
777
779
78
780
781
782
783
784
785
786
787
788
789
79
790
791
792
795
797
798
799
8
80
800
8000
801
803
804
805
806
807
808
809
81
810
811
812
813
814
815
816
817
818
819
82
820
821
822
823
826
827
829
83
830
832
833
834
835
837
838
839
84
840
841
842
843
844
845
846
847
848
849
85
850
851
852
853
854
855
856
858
859
86
860
8601
861
862
863
864
865
866
868
869
87
870
871
872
873
874
876
877
878
879
88
880
88170
882
883
884
8848
885
887
888
889
89
890
893
894
895
896
897
9
90
900
9000
901
902
903
904
905
906
907
908
909
91
910
911
912
913
914
915
916
917
918
919
92
920
921
922
923
924
925
926
927
928
929
93
930
932
933
934
936
937
938
94
940
941
942
943
944
945
946
948
949
95
950
951
952
955
956
957
958
959
96
960
961
962
963
964
965
966
967
968
969
97
970
972
973
974
975
976
977
978
979
98
980
981
982
983
984
985
986
987
988
989
99
990
991
993
994
996
997
999
:
;
<
=
>
?
@
\
^
_
`
a
aa
aaron
aas
ab
aba
abai
abak
abakan
aban
abaui
abaz
abazilaiz
abba
abbas
abbatusen
abbatuz
abc
abdel
abdul
abdulla
abe
abekirj
abessiv
abhazii
abhazijan
abhis
abhu
abin
abja
ablativ
ablon
ablonad
ablonan
about
above
abraham
abram
abramov
abramovan
absolu
abtei
abu
abud
abudz
abuhu
abuis
abul
abun
abunik
abunikan
abunke
abuta
abutab
abutadas
abutamha
abuti
abutiba
abutused
abutuseks
abutusiden
abutuz
ac
academy
ace
ack
ackan
acoustic
act
actekiden
action
actm
actor
ad
ada
adab
adac
adam
adaman
adamha
adams
adan
adanke
adaptacii
adas
addis
adelaid
adessiv
adi
adigei
adigeisk
adigejan
adiglaiz
aditiv
adiv
adivpert
adivpertid
adivpertin
adivpertis
adjektiv
adjektivad
adjektividen
adm
admin
administracii
administracijad
administracijale
administracijan
administracijanke
administration
administrativine
administrativis
administrativiz
admiral
admiralteiskii
admsakhalin
ado
adol
adonis
adrenaline
adres
adrian
adriana
adriano
adriatiz
adrinsk
adrinskan
adub
adui
aduihe
adumiz
adused
aduseks
adusen
adusenke
adusid
adusidenke
adust
aduz
adventistoiden
adventures
advokatan
adz
ae
aerial
aero
aerokosmiz
aeroport
aes
aev
af
afar
afelii
afganistan
afganistanan
afganistananke
afganistanas
afina
afinad
afiniden
afinis
afn
afonso
afraid
africa
african
africana
africanus
afrik
afrika
afrikaans
afrikaine
afrikaiz
afrikalaiz
afrikan
afrikanine
afrikaniz
afrikas
afrikaspa
afrikha
afroazijalaiz
afrodita
afroditan
aft
aftan
after
ag
aga
again
agat
agent
agentused
agentusen
agentuses
agentuz
agglu
agidel
agj
agjad
agjaha
agjahasai
agjahine
agjahiz
agjaks
agjal
agjale
agjan
agjanke
agjas
agjaspa
agjatoi
agjha
agjhasai
agjoid
agjoiden
agjoidenke
agjois
aglomeracii
aglomeracijad
aglomeracijan
aglomeracijas
aglomeracijha
agnes
agnez
agnija
agod
agodos
agrarine
agrariz
agregatad
agressiviz
agricultural
agriz
agrobiznesan
agrostis
agrotegimis
agrotehnine
agrotehniz
agrotehnologijoiden
agrotehnologine
agrotehnologiz
ah
aha
ahal
ahan
ahav
ahaztu
ahemenidoiden
ahid
ahmat
ahmatova
ahmed
ahruh
ahtarskan
ahthas
ahti
ahtil
ahtin
ahtinsk
ahtis
ahtisaari
ahunj
ahven
ahvenanman
ai
aid
aidan
aidoitud
aig
aigad
aigaha
aigaine
aigaiz
aigaks
aigal
aigale
aigaline
aigaliz
aigalpa
aigan
aiganke
aigas
aigaspa
aigemba
aigha
aighasai
aigkirj
aigkirjas
aigkirjois
aiglehtesed
aiglehtesen
aiglehteses
aiglehtesis
aiglehtest
aiglehtez
aigoid
aigoiden
aigoidme
aigoil
aigoin
aigois
aigtego
aigtegod
aigtegoid
aigtegoiden
aigtegois
aigtegol
aigtegon
aigvo
aik
aikovskii
aikovskijan
ailaiz
aimaran
aime
ain
ainalaiz
ainan
aine
ainformacii
aipur
air
airbus
aires
airesan
airliner
airport
ais
aise
aisk
aiskan
aivod
aivoiden
aiz
aja
ajab
ajada
ajadas
ajaden
ajaimiden
ajamha
ajan
ajas
ajatud
ajeleb
ajelemha
ajeli
ajeltas
ajenan
ajennad
ajevsk
ajevskan
ajoged
ajogel
ajogen
ajogenke
ajogi
ajogid
ajogiden
ajogidenke
ajoi
ajud
ajuga
ajumi
ajun
ak
akad
akademii
akademijan
akademijas
akademikan
akademine
akademiz
akahid
akaks
akal
akale
akan
akanis
akanke
akart
akartan
akaspa
akaz
akbar
akcijoiden
akiline
akimatan
akira
akkr
akkumula
akkuzativ
ako
akomo
akov
akovan
akraborti
aks
aksai
akt
aktad
aktan
akti
aktinii
aktinoidoiden
aktivine
aktivis
aktivist
aktivistad
aktiviz
aktobe
aktris
aktrisad
aktrisaks
aktrisan
aktrisanke
aktualine
aku
akul
akulad
akus
akustikofobii
akvinlaine
akvitanii
al
ala
alaa
alaavstrii
alabam
alaerik
alaerikod
alaerikoid
alaerikon
alagir
alagruppas
alah
alahaine
alahaiz
alahaks
alahamb
alahan
alahanpa
alahas
alaheimkund
alaiga
alaine
alaiz
alaja
alajagadas
alajagase
alajagasois
alajagusen
alajaguz
alajoksmusen
alajoksmuses
alajoksmuz
alakaman
alaklass
alaklassad
alakodi
alakodihe
alakodin
alal
alalidnan
alalomov
alam
alamad
alamaiden
alamaine
alamais
alamaiz
alamalaine
alamalaiz
alaman
alan
alang
alangis
alangoikaz
alangois
alangos
alanijan
alanke
alapajevskan
alapala
alapalas
alas
alasaksonii
alasaksonijan
alasald
alasergid
alasergin
alasilezijan
alaska
alasti
alastoi
alastui
alastunu
alasugukundad
alatagil
alatagilan
alatip
alatir
alatirin
alatur
alaturan
alau
alaudinsk
alauz
alavitad
alavus
alba
albania
albanii
albanijalaiz
albanijan
alberto
albina
album
albus
alcedo
aldan
aldanan
alde
aldi
ale
alehandro
aleks
aleksander
aleksandr
aleksandra
aleksandran
aleksandrii
aleksandrov
aleksandrovan
aleksandrovic
aleksandrovsk
aleksandrovskan
aleksandrovskii
aleksei
aleksin
alemania
alemb
alemba
alen
ales
aleutiz
alexander
algat
algonkiniz
alhagi
ali
alice
alija
alin
alina
alis
alisa
alive
alkogolin
alkogoline
alkogolitomad
alkogoliz
all
alla
allahabad
allan
allativ
alle
allegro
allei
allekirjutadud
allekirjuti
allen
aller
alles
alli
allin
allmusic
allotropis
allu
alma
almati
almaz
almeida
alo
aloin
alone
alpa
alpha
alpina
alpinum
alps
alrosa
als
also
alsu
alt
altai
altaisk
altajan
altar
altaril
altarin
altaysk
alto
altstadt
alu
aluiz
alus
alused
aluseks
alusel
alusen
alusenke
alusenno
alusenpandud
alusenpanend
alusenpanendan
alusenpanendanke
alusenpanendaspa
alusenpanii
alusenpanijad
alusenpanijaks
alusenpanijan
alusenpanijoiden
alusenpanijois
aluses
alusespa
alusid
alusiden
alusil
alust
aluz
aluzkund
aluzkundad
aluzkundaks
aluzkundan
aluzkundas
aluzkundoid
aluzkundoiden
aluzkundoiks
aluzkundoil
aluzkundois
alves
alz
alzamai
am
amadeus
amal
aman
amanda
amar
amaral
amarillisaiz
amazon
amazonas
amazonasan
amber
ambitions
ambui
ambund
amen
america
american
americii
amerik
amerikadme
amerikaine
amerikaiz
amerikalaine
amerikalaiz
amerikan
amerikas
amerikaspa
amerikha
amfiteatr
amfiteatran
amh
ami
amin
amir
amitabh
amman
ammu
amor
amos
amour
amptud
amritsar
ams
amsterdam
amsterdaman
amsterdamas
amu
amudarj
amuine
amuiz
amujud
amujuiden
amujun
amujunke
amundsen
amur
amural
amuran
amursk
amus
amussai
an
ana
anad
anadir
analitine
analiz
analizan
analog
anan
anand
ananke
anap
anapa
anapan
anarhizm
anarhizman
anas
anastada
anastadud
anastasija
anasti
anastiba
anastihe
anastusen
anatol
anatolii
anatolijan
anatomografijan
anbe
anc
anchusa
and
anda
andab
andad
andaks
andamanan
andan
andase
andeiz
anders
andersen
anderson
andiden
andiz
andmaha
andmiz
andmused
andmusid
andmusiden
andmuzbazas
andoi
andoiba
andoihe
andorr
andorran
andr
andra
andrade
andre
andrea
andreapol
andreas
andrei
andusel
andusele
anduseline
andusen
anduses
andushe
andust
anduz
anduzkolledz
anduzkul
anduzmas
anduzprodukcijan
anduzrajonal
anduzrajonan
anduztehnikan
anduztehnikum
anduztehnikuman
anduzz
andz
ane
aneiro
anemone
anfiteatro
angar
angaran
angarsk
angel
angela
angelad
angelina
angeloiden
angels
angie
angl
angle
anglii
anglijaks
anglijalaine
anglijalaiz
anglijan
anglijankel
anglijas
anglijha
anglikaniz
angline
angliz
ango
angol
angolan
angun
anhai
anhal
ani
aniku
anil
animacii
animacijan
animacijanke
animacine
animated
animation
anime
animemul
animen
animeserialad
animistad
anin
anine
anita
anivan
ank
ankar
anke
ankel
anklav
ankoridz
anlaiz
anma
anmaha
anmaine
anmalaiz
anman
anmanke
anmas
ann
anna
annan
anne
anni
anniversary
annual
ano
another
anov
anr
anrad
anran
anras
anri
anroiden
anrois
ans
ansambl
ansamblin
anser
ansicht
ansk
anskan
anst
ant
antal
antan
antarktid
antarktidan
antarktidas
antarktikas
antarktiz
anthriscus
anti
antigua
antiguan
antikaigan
antimonii
antiz
antkoi
antocianad
anton
antoni
antonii
antonin
antonio
antonov
antsl
antsla
antslan
antta
anttas
antti
anttihe
anttud
antuan
antunes
antverpen
anus
anusan
anvuic
anz
ao
aoraki
apa
apai
apajev
apakkivi
apakod
apakut
aparteidan
apatit
apatitad
apatitoiden
apel
apligin
aplin
apollo
apollon
apostolan
apostoline
apostoloiden
apparat
apparatad
apparatan
appelativsubstantivad
apple
approksimativ
aprelevk
april
aps
aptas
aptud
aquila
ar
ara
arab
arabalaiz
araban
arabankel
arabialaiz
arabii
arabijan
arabijanke
arabine
arabiz
arad
aragon
arahis
aram
aramil
aramilin
aran
aranz
ararat
aras
arat
arati
arbor
arc
archive
archives
arctic
ard
ardatov
ardon
ardz
are
area
areal
arealan
areas
areena
aren
arena
ares
arestan
argentatus
argentin
argentinan
argentinanke
argentinas
argon
argun
argvoi
argvoin
argvoitegim
arhangel
arhangelan
arheologii
arheologijan
arheologine
arheologiz
arhitektor
arhitektorad
arhitektoral
arhitektoran
arhitektur
arhitekturan
arhitekturine
arhitekturiz
arhiv
arhivas
ari
ariana
ariatan
ariel
arif
aristotel
arizon
arizonan
arj
arjan
ark
arkad
arkadak
arkadakan
arkadii
arkanzas
arktik
arktikan
arktikas
arktine
arktiz
arl
arli
arlott
arlotta
arma
arman
armando
armas
armasta
armastab
armastad
armastada
armastan
armastusele
armastusen
armastusenke
armastuses
armastusespa
armastushe
armastust
armastuz
armatur
armavir
armaviran
armaz
armenia
armenii
armenijalaiz
armenijan
armenijanke
armenijas
armenine
armeniz
armii
armijad
armijal
armijan
armijas
armijha
arms
armstrong
army
arni
arnol
arntor
aro
aron
arora
around
arov
array
ars
arsen
arsk
arskan
art
arta
artas
artemida
arterreisid
arthur
articles
artikl
artist
artistad
artistan
artistoiden
arto
artois
arts
artur
artut
artutin
arv
arvensis
arvlahjad
arvlahjoid
arvlahjoiden
arvnimed
arvnimen
arvnimenke
arvnimi
arvod
arvoid
arvoiden
arvoimiz
arvoine
arvoiz
arvokahad
arvokaz
arvon
arvonke
arvostadud
arvuz
arvznamoidenke
arz
arzamas
arzamasan
as
asad
asagami
asan
asatro
asbest
asbestan
ascari
ascension
asfal
ashipunov
asin
asino
asmar
asoun
asouna
aspa
aspektoid
asper
aspigudenke
aspiguz
assamblei
assamblejan
assemble
assemblee
assembly
associacii
associacijan
associacijois
association
asta
astan
astat
asteroid
asteroidad
asteroidan
asthan
astii
astjad
astjoid
astjoiden
astomaraiz
aston
astrafobii
astrahan
astrahanin
astrakhan
astronavt
astronom
astronomad
astronomii
astronomijas
astronomine
astronomiz
astta
astui
astuz
asu
asud
asuid
asuiden
asuidenke
asuks
asunsjon
asunsjonan
asus
asv
at
ata
atak
atakam
atas
atatu
ateistad
ateizm
ateizman
atihe
atk
atkal
atkan
atkarsk
atlant
atlantine
atlantis
atlantiz
atlas
atmosfer
atmosferad
atmosferan
atmosferas
atmosferine
atmosferiz
atoll
atollal
atollan
atom
atomad
atoman
atombombad
atombomban
atomelektrostancii
atomenergetikas
atomine
atomiz
atommass
atommassanke
atomoiden
atomreaktoris
atov
atovan
atributad
atriplex
attack
attacus
atterdz
atthis
attik
atud
atur
aturan
au
audhari
audio
audiocite
auf
aug
augotaden
augotase
augoti
augotihe
augotis
augotiz
augud
augun
augus
auguspa
august
augusto
auhan
aul
aulad
aur
aurora
aus
australis
aut
authority
auto
autonomous
av
avac
avaida
avaidab
avaidase
avaidused
avaidusen
avaiduses
avaidust
avaiduz
avaiduzsild
avaita
avaitas
avaitihe
avaitud
avaiz
avan
avanport
avant
avar
avarad
avaran
avaras
avarod
avaroid
avaron
avaros
avaruden
avarudes
avarut
avaruz
avas
avasthi
ave
avedamad
avenu
avers
aves
avgust
avgustin
avhasai
avia
aviabaz
aviacii
aviacijan
aviakompanijan
aviasauvomiz
aviatehnine
avic
avier
avila
avin
aviv
avivha
avoin
avoinmel
avoinuden
avoinudenke
avol
avraam
avraamiz
avril
avrora
avstralii
avstralijalaine
avstralijalaiz
avstralijan
avstralijas
avstralijha
avstraline
avstraliz
avstrii
avstrijalaine
avstrijalaiz
avstrijan
avstrijanke
avstrijas
avstrine
avstriz
avstroneziz
avto
avtobus
avtobusad
avtobusan
avtobusmars
avtobusoid
avtobusoiden
avtobusstancii
avtobusu
avtod
avtodetaliden
avtoid
avtoiden
avtoil
avtol
avtoliz
avtomas
avtomatik
avtomatine
avtomatiz
avton
avtonomii
avtonomijad
avtonomijan
avtonomine
avtonomis
avtonomiz
avtopalad
avtopaloiden
avtor
avtorad
avtoran
avtorengaz
avtos
avtosauvomine
avtosauvomiz
avtostancii
avtostancijad
avtote
avtoted
avtotedme
avtotegim
avtotegimel
avtotegimen
avtotegimis
avtoteid
avtoteiden
avtoteidme
avtoteil
avtotekeskust
avtotel
avtoten
avtotenke
avtotesauvondan
avtotesild
avtotesildad
avtotesol
avtotespa
avtou
avtovaz
avtovoibis
avtovoibuiz
avu
awake
award
awards
away
ax
az
azan
azartva
azbest
azeg
azeged
azegeks
azegid
azegis
azekhiden
azektud
azerbaidz
azerbaiya
azevedo
azi
azihe
azii
azijalaine
azijalaiz
azijan
azijas
azijaspa
azimut
aziz
azj
azjad
azjaha
azjaline
azjaliz
azjan
azjas
azjoid
azjoiden
azjois
aznoic
azot
azotan
azotanke
azotimiden
azov
azovan
azovmeren
azovmeri
azsar
azur
b
ba
baahubali
bab
baba
babajevo
babajevon
baban
babarm
babarmon
babli
baboi
baboid
babu
baburova
babus
baby
bac
back
backseat
bad
baden
badenan
badz
bagaman
bagdad
bah
bahai
bahamas
bahc
bahi
bahn
bahr
bahrein
bahreinan
bai
baikal
baikalan
baikalantagaine
baikalantagaiz
baikerad
baikonur
bairon
bajarin
bajaris
bakal
bakalavran
bakan
bakken
baks
baksan
baku
bakun
bal
bala
balabanov
balabanovo
balahn
balakhna
balakovo
balas
balaton
balatonfu
balaz
balet
baletan
bali
balkanan
balkarijan
ballad
ballaiz
ballhasai
baltii
baltiisk
baltiiskan
baltijan
baltijanmeren
baltika
baltimor
bam
bamako
ban
bananad
band
bandar
bandcamp
bandung
bang
bangalor
bangaloran
bangalorha
banglades
bangsoitod
bangutez
bank
bankad
bankan
banknot
banknotad
bankoiden
bankoil
bankok
bankrotnendan
banti
bantu
bantun
banz
bao
baobab
baotou
bapshaiz
baptistad
baptistoiden
baptizm
baptizman
bar
barabanad
barabananva
barabansoitod
barabinsk
barak
baran
barbad
barbados
barbadosan
barbara
barbarea
barbosa
barbud
barbudan
barcelona
bard
bardan
bardveic
barencan
barfi
barhat
barii
baris
bark
barnaul
barnaulan
barnaulhasai
barokko
barokkon
baron
barrio
barros
bars
barselon
barselonas
barz
bas
base
basgitar
bashkortostan
baskalaiz
baskan
baso
bass
bassein
basseinad
basseinan
basseinanke
basseinas
basseinha
basseinoiden
basseinoihe
baster
bastos
basu
bat
bataisk
batist
batista
batt
battle
batum
bavarii
bavarijan
bavlin
bay
baz
bazad
bazaks
bazal
bazilikjumalanpert
bazilikpa
bazine
baziruis
baziz
bb
bbc
bd
be
beach
bear
beast
beat
beatris
beatriz
beats
beautiful
beauty
bed
bee
before
begiratu
behar
behind
bei
beijing
beinn
beirut
bek
bekes
bel
bela
beldur
belebein
belfort
belgorod
belgorodan
belgorodhasai
belgrad
believe
belii
belinskii
belinskijan
beliz
belizan
bell
belle
bells
belo
belogorsk
belogorskan
belojarskii
belomorsk
belomorskan
beloozo
belorec
beloreck
beloreckan
belousovo
belovo
belovon
belozersk
belozerskan
belt
bembel
bembelu
ben
bend
bendrand
bendrandad
bendrandal
bendrandan
bene
bengalan
bengalii
bengalijan
bengaliz
benin
beninan
bento
benz
benzin
ber
berberan
berci
bercin
berd
berdsk
bereg
berezniki
berg
bergen
bergman
bergtocht
berillii
beringan
berkli
berklii
berli
berlin
berlinan
berlinas
berlington
berlinha
berlinhasai
bern
bernan
bernar
bernard
bernardo
bernhard
bernhardt
bero
bert
berto
bes
besedoic
beslan
best
beste
bet
beta
bete
bethoven
bethovenan
betid
betin
beton
betontegim
better
betti
betula
between
beverli
bez
bf
bg
bh
bha
bi
bianca
biblii
biblijan
biblijas
bibliografii
bibliografijas
bic
bid
bide
biden
bidgos
bidz
big
bigifil
bihar
bii
bija
bikin
bikov
bil
bilan
bild
bilibinon
bill
billed
billi
bin
bina
bingen
binomio
binsk
binskan
binskhasai
biografii
biografijan
biohimii
biolog
biologad
biologii
biologijan
biologine
biologis
biologiz
biosferan
biosferine
bipa
bipas
bir
birobidz
birskan
birth
biru
birz
bis
bisau
bisaun
biskaiz
bislama
bitab
bitadas
biti
biysk
biz
bizi
biznes
biznesan
bizneskeskuz
biznesmen
biznesmenan
biznesnaine
bj
bjanka
bjo
bk
bla
black
blackpink
blagodat
blagoves
blakagir
blaz
blek
blekmetal
blekmetalgruppad
blender
blica
blick
blin
blinan
bln
blo
bloem
blok
blokad
blokadan
blokan
blood
blota
blu
blue
blues
bmg
bmw
bn
bo
bob
bobad
bobaine
bobaiz
bobanvuic
bobbi
bobrov
bobus
bod
bodaibon
bodenja
body
boeing
bogdanovic
bogolu
bogorodick
bogorodsk
bogorodskan
bogota
bogotol
boguc
bohai
bojarskii
bok
bokma
boksitad
boksitogorsk
boksitogorskan
bol
bolad
bolan
bolanke
bolen
bolenan
bolg
bolgar
bolgarii
bolgarijalaine
bolgarijalaiz
bolgarijan
bolgarijanke
bolgarijas
bolgarijha
bolhov
bolivar
bolivia
bolivii
bolivijan
bolivijas
bollivud
bollivudan
bollywood
bolobolk
bologoje
bolohovon
bols
bolv
bom
bomad
bomale
boman
bomas
bomaspa
bomb
bombardiruindale
bombei
bombein
bomoiden
bomois
bon
bond
bonfim
bonn
bonus
bonustrek
book
books
boom
bor
boran
borcui
borcuind
borcuindan
border
bordo
borghini
borii
boris
borisoglebsk
borisoglebskan
born
borodino
borovic
borovsk
borovskan
bors
borz
bos
bosn
bosnii
bosnijan
boss
boston
bostonan
botanine
botaniz
botel
botniz
bots
botsuana
botsvan
botsvanan
bottom
bouche
bov
bovo
box
boy
boys
bp
br
bra
braganza
braian
braierli
brajan
brams
branch
brand
brandenburg
brandenburgan
bras
brasil
bratislav
bratsk
bratskan
braun
brauns
brazilia
brazilii
brazilijan
brazilijanke
brazilijas
braziline
braziliz
brazzavil
break
bremen
bremenan
brendan
bretanin
brez
bridge
bridz
brill
brin
brisben
britanii
britanijalaine
britanijalaiz
britanijan
britanijanke
britanijas
britanijaspa
britanijha
britanine
britaniz
britannica
british
brno
broken
brom
bronnici
bronz
bronzaigan
bronzan
brooklyn
bros
brotan
brother
brothers
brown
bru
bruklin
bruklinan
bruna
brunei
brunein
bruno
brus
brusad
brusan
brut
bs
bu
buc
bud
budapes
budapest
buddistad
buddizm
buddizman
budo
budogos
buenos
bugatti
bugri
bugrin
bugul
buguruslan
buharan
buharest
buhein
bui
building
buildings
buin
buinskan
bukac
bukmol
bukoi
bul
bulgaria
bulu
bumag
bumagal
bumagan
bumagfabrik
bumagkanghiden
bumbak
bumbakod
bumbakon
bunin
bunker
bur
bura
burad
burak
buran
burg
burgas
burgundii
burgundijan
burkina
burn
burs
burundi
burundin
burz
burzum
bus
business
but
butan
butanan
butleg
buturlinovk
buz
buzuluk
bw
bx
by
bzdusen
bɑ
c
ca
cad
cadillac
caerulescens
caesar
cafe
caffer
calamagrostis
calatayud
california
calling
caltech
caltha
cambridge
campus
can
canada
canal
candace
canina
canis
canterbury
cap
cape
capital
car
carbon
carduus
carelia
carex
carfolio
caricin
carid
cariden
cariks
carin
carl
carrie
cars
caryocatactes
casa
castle
cat
catch
catedral
category
cathedral
caudata
causa
cause
cburg
cburgan
cc
cd
ce
ceh
cehad
cehal
cel
cell
cellu
cement
cementan
cementantegim
cementtegim
cen
census
centad
center
central
centre
century
cenzuran
ceo
cerambycidae
cerasus
cerii
cerkov
cev
cezar
cezii
cf
ch
cha
chagoda
chameleon
chance
change
chapter
charaxes
charlene
charles
charts
che
chelyabinsk
cheri
cherinfo
chi
chicago
children
chile
china
chinatown
chinese
chita
chobe
chopin
christ
christchurch
christmas
christopher
chrysler
chukotka
church
ci
cia
ciconia
cii
cijad
cijal
cijan
cijanal
cijas
cikl
ciklan
ciklonad
cilindriz
cimla
cin
cincinnati
cingad
cinin
cink
cinkan
ciolkovskii
cioner
cioneran
circle
circus
cirk
cirkan
cirkonii
cities
city
ciudad
civil
civiline
civilis
civiliz
civilizacii
civilizacijan
ciz
ck
cke
cl
class
classics
close
closer
clouds
club
cm
cn
cnanjogen
co
coast
coat
cobar
coca
coi
coil
cola
cold
collection
college
cologne
color
colors
colours
columbia
com
comalies
come
comma
comme
commemo
common
commons
communications
company
comparison
compilation
complex
composite
comune
con
concert
congo
constituteproject
constitution
contes
contra
cook
coracias
coronavirus
corporation
corvus
corythornis
cosmic
council
countdown
country
county
coup
court
cov
cover
covid
cr
crazy
creative
crew
cristatus
cristo
croacia
crop
cropped
crossing
crown
crush
cruz
cry
cs
csa
css
cu
cucurbita
cuid
cuidud
cultural
culture
cup
cupressus
current
cuscuta
cut
cv
cvetajeva
cy
cygnus
cyprus
cz
cza
czech
czedun
czi
czin
d
da
dab
dabad
dabas
dabi
dabin
dac
dad
dada
dag
dagestan
dagestanan
dagestaniz
daggubati
dai
daigaine
daigaiz
daily
daisuke
daiz
dajad
dajan
dajiden
dajis
dakar
dakk
dakkan
daks
dal
dali
dallas
dallol
dalmatovo
dalmatovon
dam
damask
damb
dambad
dame
damha
damian
damine
damiz
dan
dana
dance
dancer
dancing
dand
dandad
dandal
dandale
dandan
dandanke
dandas
dandha
dangerous
dani
daniel
daniela
danii
daniil
danijalaine
danijalaiz
danijan
danijas
danilov
daniz
dankarang
danke
dankov
dans
dante
danvuic
daphne
dar
dara
darginalaiz
darhan
dari
dark
darkness
darms
dart
darvin
darvinan
darwin
das
dase
dasois
dat
data
database
datad
dataks
datal
datan
dataspa
datiruis
daugavpils
davi
david
davlekanovo
day
days
db
dd
de
dead
death
debora
debrecen
debu
decade
december
ded
dedan
dedovsk
dee
deep
deg
deged
degiden
degoic
degta
dehe
dehesai
dei
deiv
dek
dekabristoiden
deklaracii
deklaracijad
deklaracijan
dekorativine
dekorativiz
del
delano
dele
delegat
delegation
delhi
deli
delihe
delin
delirium
delis
dell
della
delta
deluxe
dem
demetran
demidov
demidovan
demo
demoal
demografii
demografiz
demokratijan
demokratijanke
demokratine
demokratiz
demon
demonstracii
den
denali
deniel
denis
denni
dennis
denver
deol
departament
departamentad
departamentaks
departamentan
departamentas
departamentha
department
depo
depod
deportacijan
deportiruidud
deportiruihe
depot
depressijan
deputatad
deputatan
deputatanke
deputatoiden
der
dera
derbent
derbentan
derejiz
dereva
dernekamp
dersu
derz
des
desertan
desire
desireless
desn
desna
desnan
desnogorsk
despa
det
detail
detalid
detaliden
detalis
detektiv
detektivine
detroit
deus
deutsche
dev
deva
devanagari
devdas
development
devi
devid
devil
devis
deviz
dez
dha
dharam
dharmendra
dhe
di
dia
dialekt
dialektad
dialektal
diamagnetik
diamant
diamantad
diamantoid
diamantoiden
diametr
diametral
diametran
diametras
diamond
diamonds
diana
dianthus
diapazon
dias
diavol
diba
dic
dictionary
did
didz
die
diego
diegues
diem
dies
dietiz
diftongad
diftongid
digital
digitaline
digitaliz
dihe
diksit
diktatoran
dil
diler
dili
dima
dimitrii
dimitrovgrad
din
dina
dinamine
dinar
dinastii
dinastijan
dinastijaspa
dinovo
dinovon
dio
dion
dipika
diplomad
diplomat
diplomatad
diplomatiz
diputados
direct
direktor
direktoran
dirham
diriz
dis
disco
discogs
discovery
disk
diskad
diskal
diskan
disko
diskografii
diskon
diskz
disnei
disnein
disney
dispetc
disprozii
dissertacijad
distancii
district
distrito
diter
divad
divan
divehi
divnogorsk
diz
dizain
dizainan
dizainer
dizainerad
dizaineran
dizel
dj
dji
dk
dla
dm
dme
dmila
dmitrii
dmitrijev
dmitrov
dmitrovan
dmitrovsk
dn
dna
dnaindia
dnepr
dnepran
dnepropetrovskan
dnestran
dnipro
dno
do
dobra
dobric
doctor
dod
does
dog
doh
doid
doiden
doil
dois
doktor
doktoran
dokument
dokumentad
dokumentaline
dokumentaliz
dokumentas
dokumentiruidud
dokumentoid
dokumentoiden
dokumentois
dol
dolganan
dolinsk
dollar
dollarad
dolli
dolomit
dom
domain
domen
domenad
domenal
domenan
domennimed
domennimen
domennimes
domennimi
domennimid
domennimiden
domingo
dominik
dominikan
dominikanine
dominikaniz
dominirujan
dominirujanke
domodedovo
don
dona
donal
donan
donc
doncan
doneck
doneckan
donha
donland
donskoi
dor
dora
dorf
dorog
dorogobuz
dorovic
dorovna
dortmund
dos
dostojevskii
dostojevskijan
double
down
doz
dpiduz
dpiduzline
dpiduzliz
dr
dragon
drakonad
drakonan
drakoniden
dram
drama
draman
dramatine
dramatiz
dramaturg
dramaturgad
dramfil
drammen
dramteatr
dre
dream
dreams
dress
dressirui
drezden
drezn
drezna
drift
drive
dronan
dronaspa
drone
drug
drums
druz
ds
dsc
dscf
dtaho
dtahod
dtahon
dtahos
dtan
du
dual
duarte
dub
dubai
dubain
dubais
dubindsubstancijad
dubindsubstancijaks
dublin
dublinan
dubn
dubnan
dubnas
dud
dudergofan
dudu
duet
duetal
duetan
duglas
dugu
duhovs
duisburg
duk
dulo
dulut
dum
duma
duman
dumas
dumatoi
dun
dunai
dunain
durec
during
durov
durr
dus
dused
dusel
dusen
duses
dusid
dusiden
dusis
dusk
dust
dut
dute
duz
duzkalad
duzu
duzue
dvar
dvd
dvedhe
dvig
dvin
dvinan
dvojurodnii
dvorz
dy
dyke
dz
dzerz
dzi
dzin
dzo
dzu
də
e
eagle
early
earth
east
eastern
eating
eb
ebarkul
ebekinon
ebin
ebna
eboksarad
eboksaran
eboksarhasai
eboksarsk
eburas
ec
eci
ecib
ecin
ecinan
ecind
eclipse
ecma
ecmiz
ecta
ecuador
ed
edahaine
edahaiz
edahaks
edahan
eddi
edehe
edehepa
edehko
edel
edelespa
edeline
edelis
edeliz
edelka
edelmatkai
edelpa
edelstrokuiz
edemba
edembaiz
edenendan
edes
edesine
edesiz
edestab
edestada
edestadas
edestadud
edestai
edestajad
edesti
edestiba
edestuses
edestuz
edgar
edheotai
edheotaikundan
edheotajad
edheotajan
edheotand
edheotandad
edheotandal
edheotandan
edheotandoid
edheotandoiden
edheotandoil
edheotandois
edhuz
edinburg
edinburgan
edison
edit
edition
edme
edo
edu
eduard
eduarda
eduardo
education
edusite
edvard
edvin
edz
ee
een
eesti
ef
eff
effekt
effektad
effektiviz
effersonan
efiopii
efiopijan
efiopijanke
efirha
efirvoid
efremov
eg
egad
egan
egd
egdan
egeiz
egem
eger
egin
egipt
egiptalaine
egiptalaiz
egiptan
egiptas
egiptaspa
egiptine
eglai
ego
egon
egressiv
egut
egutan
egzempla
eh
ehalaine
ehalaiz
ehan
ehanma
ehanman
ehanmas
ehe
ehem
ehijan
ehir
ehonjen
ehov
ehovan
eht
ehtad
ehtal
ehtatim
ehtatimed
ehtatimel
ehtha
ehtma
ehtnu
ehtta
ehzade
ei
eiffel
eih
eik
eilat
eile
eims
ein
eine
einfu
eins
eipop
eir
eira
eison
eisoptrofobii
eisselmer
eiz
ek
eka
ekalin
ekan
ekaterina
ekeskeine
eki
ekologii
ekologijan
ekologine
ekologiz
ekonomik
ekonomikan
ekonomine
ekonomist
ekonomistad
ekonomiz
ekranizacii
ekraniziruidud
ekranoile
eks
eksaz
eksklu
eksn
eksnan
ekson
ekspedicijad
ekspedicijan
eksperimentaline
eksperimentaliz
ekspiran
eksport
eksportad
eksportaks
eksportal
eksportan
eksporto
ekspress
ekstraordinariz
ekstremumad
ekvador
ekvadoran
ekvator
ekvatorad
ekvatoral
ekvatoralpa
ekvatoran
ekvatorialine
ekvatorializ
ekvivalentas
ekzempla
el
ela
elan
elastiz
elativ
ele
electric
electronics
elefant
elefantad
elefantan
elefantanvuic
elefantoid
elefantoiden
elefterija
elegans
elegis
elehov
elektrificiruidud
elektrine
elektriz
elektro
elektroenergetine
elektrogorsk
elektrojoksusen
elektrojonused
elektrojonuz
elektrola
elektroladimed
elektroladimiden
elektroladimis
elektrolizan
elektromagnitiz
elektromas
elektromehanine
elektromehaniz
elektronad
elektronan
elektroniden
elektronik
elektronikan
elektronikas
elektronine
elektronis
elektroniz
elektrostal
elektrostancii
elektrostancijad
elektrota
elektrotehnik
elektrotehnikan
elektrotehnine
elektrotehniz
elektrougli
elektrusen
elektrust
elektruz
element
elementad
elementaks
elementan
elementariz
elementoid
elementoiden
elementoidenke
elementois
elena
elentano
elephas
eles
elesan
elesas
elesha
elevator
eleze
eleznodoroz
eleznogorsk
eleznogorskan
eleznovodsk
eli
elias
eliba
elihe
elika
elikui
elim
elin
elisa
elist
elista
elizabet
elizavet
elizavetan
ell
ella
elle
ellen
elli
ellipsan
ellipsanvuic
elo
elod
eloho
elokahad
elokahan
elokaz
eloku
elokud
elokuhusai
elokul
elokun
elokus
elokuspa
elole
elon
elonform
elonlad
elonmaht
elonmahtusen
elonmahtuz
elonpu
elos
elospa
elota
elsi
elv
elvis
em
ema
emakume
emb
embad
embaks
emban
embas
embiden
embis
emden
eme
emed
emehe
emeks
emeku
emel
emen
emenden
emendes
emendest
emendestos
emendez
emenz
emeral
emes
emespa
emetos
emevoc
emha
emhas
emi
emid
emigracijan
emil
emilio
emindam
emir
emiran
emirat
emiratad
emiratan
emiratoiden
emiz
emma
emmanuel
emoi
empion
empionat
empionatan
empionatas
empire
ems
emu
en
ena
enaiz
enalaiz
enamb
enamba
enamban
enambis
enambusel
enambusen
enambuses
enambust
enambuz
enan
enc
encan
enciklopedii
end
endad
endaks
endal
endale
endan
endanke
endas
endaspa
endata
ende
endeavour
endemik
endemikad
endemiz
endevanh
endevanhad
endevanhan
endha
endhasai
endi
ending
endis
endless
endministr
endministrusen
endoid
endoiden
endoidenke
endoihe
endoil
endois
endorganizacii
endpert
endpertid
endru
ends
endsija
endtarhad
endu
endustai
endustajad
endustajal
endustajan
endustused
endustusen
endustuz
endva
endz
ener
enerad
eneran
energetik
energetikan
energetine
energetiz
energii
energija
energijad
energijan
energomas
enerine
eneriz
enev
enevan
enevas
engel
england
english
enijan
enjan
enjogen
enjoy
enk
enke
enko
enkon
enn
ennai
ennain
enner
enni
ennifer
enno
ennoks
enough
enov
enovan
enrike
enriko
ensk
enskai
enskan
enskhasai
enskii
enso
entertainment
entomolog
entoni
entrance
entzun
enu
enus
envastaine
envastaiz
envuic
enzne
eohjandusen
eohjastusen
eohjastusenke
ep
epan
eparhijan
epc
epeck
epid
epine
episkopan
episode
epizod
epizodad
epos
eposan
eps
equus
er
era
erad
eraldo
eran
eras
erased
erasen
erasid
erasiden
erasidenke
erasihe
erasil
erasis
erast
erasti
eraz
erazvuic
erazvuitte
erazvuittus
erbii
erc
erdenet
erdevk
erdinin
ereduis
erel
erepovec
erepovecan
erg
ergill
eri
eric
erigoic
erigoitab
erigoitihe
erigoitmine
erigoitmiz
erigoitta
erigoittas
erigoittihe
erigoittud
erih
erik
erika
erikod
erikoid
erikoiden
erikoil
erikois
erikoks
erikol
erikon
erikonke
erikospa
eriline
erilis
eriliz
erind
erindas
erindha
erine
erineb
erineda
erinedas
erineden
erinend
erinendad
erinendoid
erinii
eris
eritrei
eritrejan
eriz
erkasad
erkassk
erkasskan
erkesalaiz
erkesijan
erkessk
erlok
ermita
ermitaz
erna
ernandes
ernest
ernesto
ernigovan
ernis
ernogolovk
ernogorskan
ernovcin
ernst
ernus
ero
eronan
eronskan
erori
erortzen
eros
erosi
erri
ers
ersi
erza
erzac
es
esa
esaten
esaz
esc
escale
ese
eska
eskai
eskimosalaiz
eskimosiz
eskis
esko
eskobar
esku
eslav
eso
esois
espa
espan
esperanto
espoo
espoon
ess
essen
essika
essiv
est
estadi
estados
estatal
este
ester
estergom
esteves
estilaiz
estin
estinma
estinman
estinmanke
estinmas
estonia
estradan
estuarii
estuarijan
esu
esus
esvatini
esvatinin
et
eta
etad
etada
etahtol
etamine
etamiz
etan
etap
etase
etasois
etehtud
ethereal
ethiopia
ethnologue
etid
etijan
etilspirt
etilspirtan
etimologii
etin
etis
etiz
etnine
etnis
etniz
etnografijan
etnografine
etnografiz
etoi
etomad
etorri
etti
etxe
etxeak
eu
eurocantica
europa
europe
european
eurovision
ev
eva
evakuiruidud
evan
evangelii
evangelistad
evangeliz
evelin
evenalaiz
evenan
evenkalaiz
evenkan
ever
everest
every
everybody
everything
evgenii
evk
evo
evoi
evolu
evon
evrazii
evrazijadme
evrazijalaine
evrazijan
evrazijas
evrejalaiz
evrejan
evrejine
evro
evrod
evrodens
evrodensgrupp
evrodensgruppad
evrodisko
evron
evrop
evropadme
evropalaine
evropalaiz
evropan
evropas
evropaspa
evropha
evropine
evropiz
evropop
evropopgruppad
evrovizii
evrovizijan
evsk
evskaja
evskan
evskii
evuic
ex
exit
expe
explorer
expo
express
extended
eye
eyes
ez
ezdran
eze
ezenke
eziauguine
eziauguiz
eziaugus
ezika
ezikuctud
ezikuvaks
ezilidn
ezilidnad
ezilidnaks
ezilidnan
ezilidnas
ezilidnelektrojonused
ezilidnha
ezilidnjonused
ezilidnoiden
ezilidnoidenke
ezilidnoihe
ezilidnois
ezima
ezimal
ezimehed
ezimeheks
ezimehen
ezimeletab
ezimeletaden
ezimeletadud
ezimeleti
ezimest
ezimez
ezine
ezineb
ezinenas
ezinend
ezinendad
ezinendan
ezini
ezipartijan
ezirivenva
ezis
ezisanad
ezitab
ezitada
ezitadud
ezitai
ezitaikund
ezitajad
ezitajaks
ezitajan
ezitajanke
ezitajid
ezitajiden
ezitajil
ezitat
ezitatad
ezitegesed
eziti
ezitihe
eziva
ezkaluis
ezma
ezmaiz
ezva
ezwa
f
fa
fabio
fabrik
fabrikad
fabrikal
fabrikan
fabrikanno
fabrikatad
fabrikoil
facade
face
facebook
facto
factor
factory
factum
fadejev
fagundes
fail
failan
fair
faktad
faktine
faktiz
fakto
faktoiden
faktor
faktorad
fakul
fal
falabella
falcon
fall
falling
falls
famberhorst
familijad
family
fan
faner
fansait
fantastikan
fantastine
fantastiz
fantasy
fantazii
fao
far
faradei
faraonan
fareran
farida
farmaceftine
farmaceftiz
fars
fartal
fartalad
fartalaks
fartalha
fas
fashion
faso
fason
fasonke
fat
fater
faterad
fateran
fateranke
fatez
fatima
fatma
faz
fazaniz
fc
fe
feat
february
fed
federacii
federacijan
federacijanma
federacijanmad
federacijanman
federacijanmas
federacijas
federal
federaline
federalis
federaliz
federativine
federativiz
federiko
feel
feeling
feels
fehervar
feisbuk
fejer
fel
felder
feliks
felipe
fellini
fem
female
fen
feodosii
ferbenks
ferdinand
ferenc
fergan
ferganan
ferm
ferman
fermi
fermii
fernan
fernanda
fernandes
fernandez
fernando
ferrari
ferraz
ferreira
ferrou
ferto
fes
fest
festival
festivalid
festivalil
festivalin
fete
fevral
ff
fgang
fi
fidz
fiel
field
figeiredo
fight
figur
figurad
fii
fiksiruidud
fil
filadel
filarmonii
file
filial
filialad
filialan
filip
filipe
filipendula
filipp
filippinad
filippinoiden
fillah
film
filologijan
filosof
filosofad
filosofan
filosofii
filosofijad
filosofijan
filosofijas
filosofine
filosofiz
filsad
fin
final
finalas
financial
finansine
finansiz
finansoiden
finikijan
finiks
finland
finnougoria
fire
fireworks
first
fis
fish
five
fizik
fizikan
fizikantedomehed
fizikantedomehen
fizikantedomehiden
fizikantedomez
fizikas
fizine
fiziologii
fiziz
fizkul
fj
fjord
fjordan
fk
flac
flag
flagad
flagan
flandrii
flavia
flavio
fles
fletc
flevoland
flight
flo
flor
flora
florencii
florencijan
florencijas
flores
florid
floridan
flower
flowers
flu
fly
flying
fm
fmv
fo
fobii
fobijad
fobijan
fobijoiden
fobos
fog
fokino
fokusiruindal
fol
folk
follow
fomin
fominsk
fominskan
fon
fonarnii
fond
fondan
fondbirz
fonetik
fonetikan
fonseka
fontan
fontank
fontoura
food
for
foran
force
ford
forest
forever
forget
form
formad
formal
formaline
formaliz
forman
formanke
formas
format
formatas
former
formid
formiden
formiruib
formiruidas
formiruihe
formiruind
formiruindan
formiruis
formosana
formul
formulirui
forsaz
forss
fort
fortepianon
fortepjano
fortepjanol
fortepjanon
fortress
fortum
forum
fos
fosfatad
fosfor
fosforad
fosforitad
foster
foto
fotod
fotograf
fotografan
fotokuva
fotokuvad
fotokuval
fotokuvan
fotokuvid
fotomodel
fotomodelid
foton
fotosintezan
fotospa
foundation
fountain
four
fr
fra
fragile
fragment
fragmentad
frakijalaiz
fram
framan
franc
francan
france
frances
francii
francijad
francijaks
francijalaine
francijalaiz
francijan
francijanke
francijankel
francijas
francijaspa
francijha
francine
francis
francisco
francisko
franciskon
franciskos
franciz
frangula
frank
frankfurt
frankfurtan
frankfurtas
frankfurtha
frankivskan
franklin
franko
frans
fransisko
fransua
frazad
fred
freddi
frederik
frederiko
free
frei
freid
freidan
freiheit
frenk
frensis
fresh
fresno
fric
frica
frida
friderik
fridrih
friend
friends
fringe
friske
frislandii
friz
fro
frog
frolovo
from
front
frontan
frota
fru
frukt
fruktad
frunzen
ft
ftor
fu
fuchsia
fudz
fudzi
fuji
fukuok
fukuokan
full
fun
fund
fundamentaliz
funikulo
funkcii
funkcijad
funkcijoid
funkcijoiden
funkcijoil
funkcionaliz
furmanov
furnituran
futbol
futbolan
futbolc
futbolist
futbolistad
futbolklub
futbolklubad
futbolkluban
futor
futorad
future
g
ga
gabon
gabonan
gaborone
gabriel
gabriela
gabriella
gabus
gad
gadz
gagarin
gagarina
gagarinan
gai
gajan
gajanan
gakt
gal
gala
galaktik
galaktikad
galaktikan
galapagosan
galena
galerei
galf
galic
galich
galilei
galileo
galina
galle
gallery
gallii
galogenidenke
gambii
gambijan
gamburg
gamburgan
game
games
gamil
gamle
gamma
gan
ganan
gandi
gandin
gang
ganga
gangan
ganguli
gannover
gannoveran
gannoveras
ganpa
ganter
ganzan
gao
gaptofobii
gar
garant
garblon
garbol
garc
garden
gardi
garik
garmonii
garnizonan
garol
garri
garsez
garsia
garsija
garvardan
gas
gaspar
gaston
gastroliruib
gat
gatc
gatchina
gate
gatoz
gauri
gaussan
gavan
gaved
gavedid
gavediden
gavedil
gavedin
gavriil
gavrilov
gaz
gazad
gazaks
gazal
gazan
gazanveim
gazanveimen
gazanveimiden
gazanveimtransport
gazanvuic
gazetteer
gazi
gazoid
gazoiden
gazois
gazprom
gazte
gc
gd
gdan
gdov
gdovan
ge
geb
geba
gec
ged
gedad
gedamb
gedan
gedas
gedes
gedoiden
gehe
gei
gekaz
geksagonaline
geksagonaliz
gektarad
gel
gelaine
gelaiz
gelaltar
gelan
gelderland
gelendz
gelii
gelijan
geline
geliz
gelpa
gelzoittud
gemine
gemiz
gemps
gen
gena
gend
gendab
gendad
gendan
genduses
genduz
general
generaline
generaliz
generation
genetiz
genista
genitiv
genke
gennadii
genno
genoc
genpa
genri
genrih
gent
genta
genui
genujan
geoglifad
geografii
geografijan
geografijas
geografine
geografiz
geologii
geologijan
geologine
geologiz
geometrijan
geometrijas
georg
george
georgia
georgii
georgijevsk
georgijevskan
geotedis
ger
gera
geral
geran
geranium
gerasimova
gerbert
gercegovin
gercegovinan
gercog
gercogan
gercogkund
gercogkundad
gercogkundan
geri
germ
german
germanii
germanijalaine
germanijalaiz
germanijan
germanijas
germanine
germaniz
germes
geronimo
ges
geschichte
gespa
gessen
gestab
gestada
gestai
gestajad
gesti
gestija
gestused
gestusen
gestusenkandajan
gestust
gestuz
get
geta
getas
geten
getting
gev
geva
gevad
gevaks
gevara
gevuden
gevudenke
gevut
gevuz
gg
gge
gh
gha
ghe
ghetulii
ghetulijaks
ghibli
ghine
ghis
ghiz
ghos
ghost
gi
giant
gibrid
gibridad
gibridizacii
gibridoid
gid
giden
gidenke
gidenkeskeiz
gidme
gidravliz
gidroelektrostancii
gidroelektrostancijad
gidroelektrostancijal
gidroelektrostancijan
gidroenergetik
gidroenergii
gidrologii
gidrologiz
gif
gigijenan
gihe
gii
gijan
gijanke
gijas
gijom
gikaz
giku
gil
gilbert
gilbertan
gile
gilidn
gilofobii
gimalajad
gimalajiden
gimarin
gimehed
gimehen
gimehiden
gimez
gimme
gimn
gimnan
gimnazii
gimnazijan
gimnazijas
gin
gina
gine
ginino
ginnessan
gino
gipautkil
giplatol
girajonad
girajonis
girl
girls
gis
gisel
gisisteman
gisuks
gisuksed
gisuksiden
gita
gitab
gitada
gitahondas
gitahondois
gitamiz
gitan
gitar
gitaral
gitarist
gitaristad
gitazangis
gitler
gitomil
gitungend
gitungendan
give
gives
giz
gizan
gj
gje
gks
gla
glacialis
glaciar
gladiolus
glass
glauca
glazgo
glazov
glazovan
glazunov
glazunovan
gleb
glenn
glinde
glipa
global
globaline
globaliz
globo
globus
gloria
glorija
glovo
glu
gm
gma
gmaine
gmaiz
gmbh
gmt
gnik
gnikad
go
gob
god
goes
gofriruidud
gogh
gogoko
gogol
goi
going
goinpo
goja
gol
golad
gold
golden
golicino
goll
golla
gollivudan
gollu
golos
gomel
gomelin
gomeran
gomes
gon
gonc
gonduras
gondurasan
gone
gonna
gonolulu
gonsales
gonsalves
good
goodbye
google
gor
gora
gorbac
gorbatov
gordon
gori
gorky
gorna
gorno
gornozavodsk
goro
gorod
gorodec
gorodecan
gorodis
gorodok
gorohovec
gorsovet
gose
gost
got
gotikan
gotine
gotiz
gotlib
gott
gouv
gov
government
govt
goz
gp
gr
gra
grac
grad
gradusad
gradushasai
graecas
graf
grafan
grafik
grafikan
grafikanpirdai
grafine
grafit
grafiz
grafkund
grafkundad
grafkundan
grafkundas
grammad
grammatik
grammatikan
grammatiz
grammhasai
gran
grand
grande
grandi
granit
grant
graubu
gravii
gravirui
gravitacijan
gravitaciz
gravu
gray
grazib
grazii
grazijan
grazindan
great
greatest
grec
greece
green
grei
greis
grek
grekalaine
grekalaiz
grekan
grekanma
grekanmaha
grekanman
grekanmanke
grekanmas
grekine
grekiz
grema
gremmi
grenad
grenadan
grenadinad
grenadinoiden
grenland
grenlandan
grenlandas
grenobl
gres
greta
gribojedovan
griffit
grigor
grigorianiz
grigorii
grigorjevskai
grin
grinvic
grodaiz
grodno
grodnon
grosse
grosu
group
grover
groznii
gru
gruntan
grupp
gruppad
gruppaks
gruppal
gruppan
gruppanke
gruppas
gruppaspa
gruppha
gruppid
gruppiden
gruppihe
gruppiruind
gruppoiden
grus
gruzii
gruzijalaine
gruzijalaiz
gruzijan
gruzijanke
gruzijas
gs
gt
gu
gua
guajakil
guan
guanc
guandun
guaranin
guavto
guavtod
guavtoiden
guavton
gub
gubah
gubernator
gubernatorad
gubernatoraks
gubernatoral
gubernatorale
gubernatoran
gubernii
gubernijan
gubernijas
gubernijha
gubernijois
gubernine
gubkin
gubkinskii
gud
gudas
gudermes
gudermesan
gudz
guerra
gui
guid
guiden
guihe
guine
guitar
gujad
guk
gukovo
gul
gumanitarine
gumanitariz
gumbol
gun
gundan
gunke
gunnar
guo
guport
gur
gureisid
guru
gus
guse
gused
gusen
gusev
gushe
gusid
gusiden
gust
gustav
gustavo
gut
gutenberg
gutoitmiz
gutte
guy
guys
guz
gv
gvadalahar
gvadalaharan
gvatemal
gvatemalan
gvinei
gvinejan
gvinejanke
gvinejas
gy
gyo
gz
h
ha
haapaja
haapsalu
hab
habad
habaine
habarduz
habarovsk
habarovskan
habarovskhasai
habbl
habinod
habuk
habukaiz
habukan
hac
had
hadiz
hadson
hadz
hafiz
hag
hahk
hahkad
hahkan
hahktin
hahktinan
hahkvauvaz
hahlakaz
hahm
hai
haid
haidai
haidarabad
haidu
hailigengraben
hain
haiti
haitin
haiz
hajao
hajastani
hajdu
hajenu
haju
hajukaz
hajun
hajunke
hajuta
hakasijan
hakaslaiz
hakat
hal
hala
halad
halflife
halifa
halisko
halit
hall
halli
hallstatt
halo
haloid
halonen
ham
hama
hamad
haman
hamar
hamas
hamasaki
hambhad
hambhiden
hamburg
hameleon
hamid
han
hanan
hanau
hanc
hands
hanh
hanhed
hani
hanko
hankundan
hanna
hannover
hanoi
hans
hansa
hanti
hantilaiz
hantin
haosan
hapandusen
hapandusid
hapandust
hapanduz
hapanik
hapanikad
hapanikan
hapanikanke
happy
har
hara
harag
haragaine
harakterine
harakteristik
harakteristikad
harakteriz
harakterizuib
harakterizuidas
harakterizuis
harbour
hard
hardrok
hardrokgruppad
hare
haren
hari
harj
harju
harlok
harol
harovsk
harovskan
harper
harri
harris
hartum
hartzen
harv
harvad
harvamb
harvas
harvemb
harvemba
harvoid
harvoiden
harvoin
has
hasai
hasan
hasavu
hat
hate
hatrad
hatun
haudub
haug
haugod
haugoid
haus
hausdu
hautsi
hauttud
havajad
havajan
havan
have
hawk
haz
haze
hazi
hd
hdr
he
head
headquarters
health
hear
heart
heartache
heartbeat
heartbreak
hearts
heat
heaven
hebo
hebod
heboiden
hebol
hebon
hebonkel
hebonva
hebos
hed
hedera
hei
heid
heiden
heidenke
heil
heile
heiligengrabe
heilu
heiluncza
heim
heimd
heimho
heimkel
heimkund
heimkundan
heimkundaspa
heimod
heimoid
heimoiden
heimois
heimolaiz
heimon
heimos
heimospa
hein
heina
heine
heinid
heinku
heinkud
heinkuhusai
heinkul
heinkun
heinkus
heinkuspa
heinolan
heinregi
heinz
heis
heita
heitab
heitac
heitand
heitandad
heitandan
heiti
heitihe
heitmaha
heitta
heittas
heittihe
heittud
heiz
hel
helen
helena
heli
helictotrichon
heline
heliz
hell
hello
hellveto
helsinki
helu
hema
hemb
hemba
hembaine
hembaiz
hembusen
hemfri
hen
hendusen
hendusiden
henduz
heneb
heneg
henegiden
henemiz
heng
hengaiduz
henged
hengele
hengeline
hengeliz
hengen
hengenavaidamiz
henghe
hengid
hengiden
hengis
heni
henke
henod
henoid
henoil
henos
henri
henry
her
heras
herba
here
hered
heredamb
heredan
heredas
heretused
heretusiden
heritage
herkhil
hermana
herneh
hernehhein
hero
heron
hesa
hesad
hesai
hesaks
hesan
hesandes
hesandest
hesandez
hesanz
hesas
hesasadad
hesaspa
hesatos
hesavoc
hesperia
het
hetartui
hetartuiz
hetartujad
hetartust
hetartuz
hetfield
hetud
heves
hey
heze
hf
hg
hgornii
hh
hi
hibj
hibjad
hibjan
hibjankaic
hibjas
hibused
hid
hiden
high
higher
highway
hihtandsport
hihtandsportan
hiiumaa
hijam
hijamad
hijaman
hijamas
hikaru
hikone
hil
hiled
hilel
hilen
hill
hilla
hills
hillu
hilok
himac
himantopus
himii
himijan
himijas
himik
himikad
himine
himis
himiz
himki
himo
himoic
himokaclijan
hina
hindi
hindikel
hindin
hine
hiphop
hir
hired
hiren
hirojuki
hiros
hirosi
hirs
his
histo
histoire
history
hit
hitad
hitoiden
hitparadas
hits
hitz
hiz
hj
hjitadud
hjitihe
hjitusen
hju
hjuston
hjuz
hk
hkan
hkheina
hkheiniden
hkim
hkjaiz
hkmed
hkmen
hkmid
hkmut
hle
hloce
hlor
hmel
ho
hobart
hobed
hobedad
hobedaiz
hobedakahad
hobedakaz
hobedan
hobedanke
hodz
hogahtusen
hogahtuz
hoik
hoikad
hoikan
hoking
hokkaido
hokusai
hol
hole
holiday
holitab
holitadas
holitamha
holitis
holitusel
holitusen
holituz
holl
hollywood
holm
holmogori
holms
holmsan
holmsk
holunic
holunican
holy
homaic
homaitud
home
homen
homencel
homendesel
homendez
homendezbokas
homezliz
homnine
homoi
hon
hond
hong
honiar
honkong
honkongan
honkongas
honkongha
hons
honusen
honuses
honuz
honuzliz
hoone
hope
hopr
hor
horan
horhe
horse
hortus
horvatan
horvatii
horvatijalaiz
horvatijan
horvatijanke
hos
hose
hospital
hot
hotel
hotkas
houk
houkud
houkuiden
houlett
hour
house
hovic
hovs
how
hr
hram
hristan
hristanuskojad
hristanuskojiden
hristanuskond
hristanuskondad
hristanuskondaliz
hristanuskondan
hristanuskondas
hristanuskondpraznikad
hristianiz
hristofor
hristos
hrom
hrung
hrustal
hs
ht
hta
htajid
htan
htast
htaz
htazkundan
htazmatk
hte
hteb
hted
htejic
htejitte
hteks
htel
htele
htelmasen
htelmaz
hten
htenaigas
htend
htendad
htendan
htendel
htenden
htendes
htenke
htennimine
htennimis
htennimiz
htent
htenz
htenzoitab
htenzoitase
htenzoitasois
htenzoiti
htenzoitmaha
htenzoitta
htenzoittas
htenzoittihe
htenzoittud
htenzoitusel
htenzoitusen
htenzoitust
htenzoituz
htes
htespa
htetas
hthad
hthaine
hthaiz
hthan
hthasiz
hthe
hthejoksmusel
hthejoksmusen
hthejoksmusenno
hthejoksmuz
hthejokstas
hthekeitandan
hthekeradamine
hthekeradamiz
hthema
hthesuladused
hthesuladusid
hthesuladusiden
hthesuladusis
hthesuladuz
htheze
hthid
hthiden
hthine
hthis
hthiz
htis
htleb
htli
htmudel
htmuden
htmut
htmuz
htneb
htneda
htnedas
htnemha
htnemiz
htnend
htnendad
htnendan
htnendanke
htnendoid
htnendoiden
htnendois
htnenu
htni
htniba
htnii
htnijad
htnijaks
htnijan
htnijanke
htnijaspa
htnijoid
htnijoiden
htnijoiks
htnijoil
htnijoile
htnijois
htnik
htnikad
htnikaks
htnikan
htnikha
htnikho
htnikoiden
htnikoiks
htnikois
htnu
htta
httas
http
hu
hua
huan
huanhe
huba
hubblecast
hubei
hubilai
hubin
huded
hudr
hul
hulad
hulan
hulas
huldutamiz
hum
humaine
humalikaz
human
hun
hunga
hura
hurad
hural
hurale
huralpa
huran
hurapol
huras
hurricane
hussein
hut
huttinen
hva
hvalinskan
hve
i
ia
iana
iazjoiden
ib
iba
ibex
ibm
ibn
ibragim
ibuti
ibutin
ibutis
ibve
ic
ican
ice
iceland
ich
icon
id
ida
idd
idealiz
idei
idejad
iden
idenke
idenno
identiz
ideologii
idhlig
idme
idu
idused
idusel
idusen
iduz
ie
ies
if
ifunkcionaline
iga
igan
iganalaiz
iganan
igark
igic
iglesia
igor
iguasu
igulo
ih
ihan
ihani
ihastuses
ihastuz
ihe
ihesai
ihlikoid
ihodai
ihodamine
ihodamiz
ihozi
ihuandi
ii
iii
iisalmi
iisus
iisusan
ija
ijad
ijaks
ijan
ijeroglifoid
ijevon
ijitad
ijoid
ijoiden
ijoile
ik
ika
ikaalinen
ikad
ikago
ikagon
ikalaiz
ikan
ikanke
ikasi
ikeda
ikel
ikera
ikerad
ikeran
ikeranlo
ikerdaiz
ikerdoic
ikerdoitas
ikeroiden
ikistan
ikistanan
iknad
iknan
iknoiden
ikohtun
ikoi
ikov
ikova
ikovan
iks
iksugun
ikun
ikusi
ikusten
ikuzi
il
ila
ilaine
ilaiz
ile
ilho
ilhosai
ili
ilimal
ilimsk
ilimskan
ilin
ilis
ilk
ill
illa
illativ
illegitimiz
illinois
illu
ilo
ilod
iloid
iloiden
iloidenke
ilois
iloitelend
iloiz
ilokaz
iloks
ilole
ilon
ilonke
ilonno
ilos
ilospa
ilpa
ilugu
ilugud
iluguiz
ilugus
im
ima
image
imago
imaman
iman
imbai
imbain
imdb
imeb
imed
imehe
imel
imen
imenke
imes
imetaiz
imetalliz
img
imic
imiden
imidz
imin
imine
imis
imiz
imkent
iml
immi
immigracijan
immigrantad
imperativ
imperator
imperatorad
imperatorale
imperatoran
imperatoriz
imperatornaine
imperatornaiz
imperii
imperijad
imperijaks
imperijan
imperijas
imperijaspa
imperijha
importan
in
ina
inad
inan
inanke
inansauvomine
inansauvomiz
inc
increment
ind
indan
indejalaiz
indejine
indejiz
indeks
india
indian
indianapolis
indianexpress
indiatimes
indii
indijalaine
indijalaiz
indijan
indijanke
indijas
indijaspa
indijha
indikativ
indine
individualiz
indiz
indoevropine
indoevropiz
indokitain
indonesia
indonezii
indonezijan
indonezijas
induistad
induizm
induizman
industrial
industrialine
industrializ
industrii
industrijal
industrijan
industrijas
indz
ine
inec
inen
inertine
inertiz
inessiv
infiks
info
informacii
informacijad
informacijan
informacine
informaciz
information
infrastruktur
infrastrukturan
ingermanlandijalaiz
ingotada
ingotadas
ingotadud
ingotai
ingotajan
ingotamha
ingotas
ingotase
ingotasois
ingotesele
ingotesen
ingotesenke
ingoteses
ingoteshe
ingotest
ingotez
ingoti
ingotihe
ingrijan
ington
ingtonan
ingtonas
ingus
ini
iniciativan
inin
inis
inist
inistad
inistan
inke
inkel
inkerila
inkerman
inkiden
inkubatoras
inma
inmaha
inman
inmas
inn
inna
innenansicht
innenraum
innopolis
innovacine
ino
inoi
inoid
inoiden
inoidensauvomine
inok
inon
inoue
inovo
insar
insbruk
inside
insk
inskai
inskan
inskii
inskijan
inspekcijad
inspektor
instagram
installa
institut
institutad
institutan
institutas
institutaspa
institute
instituto
instruktiv
instrument
instrumentad
instrumental
instrumentan
int
intan
intensivine
intensiviz
inter
intermedia
internacional
internat
international
internet
internetan
internetas
interv
into
introduciruidud
introduction
inu
inupiatun
invazivine
invaziviz
invest
investicijoiden
investicine
investiciz
invuic
inz
io
ioann
iogann
iolend
ion
ionad
ionan
ioniden
ioniz
ioniziruidud
iosif
iosifan
ip
ipa
ipac
ipas
ipatijan
ipatovo
ipcig
ipcigan
ipcigas
iprodukt
iproduktan
iprofil
ipsoiden
iq
ir
ira
irad
irahvahaline
irak
irakan
iran
iranan
irananke
iranas
iraniz
iranke
irao
iras
iraz
irbit
irbitan
ird
irdad
irdal
irdaline
irdaliz
irdalpa
irdan
irdkosketused
irdma
irdna
irdoid
irdoiden
irdpol
irdpolel
irdpolespa
ire
ireg
irga
irguz
iridii
irina
irine
irinovskii
iris
irises
irish
irkutsk
irkutskan
irkutskhasai
irlandii
irlandijalaine
irlandijalaiz
irlandijan
irlandijas
irlandiz
irlendim
irnovskan
iro
iroid
iroiden
iron
irplatform
irracionaline
irraudtestancii
irreisid
irrfan
irtis
iru
iruine
iruiz
irving
is
isa
isaak
isaakijan
isabel
isabela
isarain
isarakoine
isarakoiz
isatatez
isbn
iset
isetin
isfaha
isfahan
ishq
isil
isk
iskan
iskitim
isla
islam
islamabad
islaman
islamanuskojad
islamanuskojiden
islamine
islamiz
island
islandii
islandijan
islands
islas
ismail
iso
isp
ispanii
ispanijaks
ispanijalaine
ispanijalaiz
ispanijan
ispanijankel
ispanijas
ispanijaspa
ispanijha
ispanine
ispaniz
israel
isrc
iss
isso
ist
istan
istanbul
istorii
istorijad
istorijan
istorijanedeline
istorijanedeliz
istorijas
istorik
istorikad
istorikan
istorine
istoris
istoriz
istr
istran
it
ita
ital
italia
italiana
italiano
italii
italijalaine
italijalaiz
italijan
italijanke
italijas
italijaspa
italijha
italine
italiz
itan
itel
ithasai
itigran
itke
itkeb
its
itterbii
ittrii
itukuine
itukuiz
itukun
itzarri
iu
iupac
iv
iva
ivadz
ivan
ivanan
ivangorod
ivangorodan
ivano
ivanov
ivanova
ivanovic
ivanovna
ivanovo
ivanovohosai
ivanovon
ivanovskan
ivantejevk
ivanus
ivat
ivatad
ivatan
ivatis
ivatoid
ivatoiden
ivatoil
ivatoile
ivatois
ivatvodind
ivatvodindan
ivdel
iveded
iveronan
ivesen
iveses
ivest
ivet
ivez
ivezi
iveziden
ivha
ivid
ividen
ivil
ivis
ivkodi
ivkodid
ivlaskm
ivlaskmad
ivlaskmaine
ivlaskmaiz
ivlaskmal
ivlaskman
ivlaskmas
ivlaskmaspa
ivlaskmha
ivlaskmman
ivlaskmpol
ivlaskmpolehe
ivlaskmpoles
ivnouzm
ivnouzmad
ivnouzmaine
ivnouzmaiz
ivnouzmal
ivnouzman
ivnouzmas
ivnouzmaspa
ivnouzmha
ivnouzmma
ivnouzmman
ivnouzmmas
ivnouzmmeri
ivnouzmpol
ivnouzmpolehe
ivnouzmpolel
ivnouzmpolen
ivnouzmpoles
ivnouzmslaviz
ivoc
ivoi
ivoikaz
ivozne
ivrit
ivuar
ivuaran
ix
iz
izabel
izabella
izan
izberbas
izbirkom
izborsk
izdr
izmir
izmit
izo
izobil
izola
izoliruidud
izoma
izotop
izotopad
izotopan
izotopaspa
izotopoid
izotopoiden
izrail
izrailin
izrailis
j
ja
jablok
jablokoiden
jablokpu
jablonovskii
jack
jackie
jacques
jad
jagab
jagada
jagadas
jagadud
jagamatoi
jagamiz
jagand
jagase
jagasois
jagatud
jago
jagoiba
jagoihe
jagon
jaguar
jagused
jagusen
jagusespa
jagust
jaguz
jah
jahrom
jaine
jaiz
jak
jakarta
jakob
jakobstad
jakov
jakovlev
jakutalaiz
jakutan
jakutijan
jakutsk
jakutskhasai
jal
jalaim
jalos
jalt
jaltan
jalutorovsk
jam
jamaik
jamaikan
jamalan
jamamoto
jaman
jamato
james
jams
jamusukro
jan
jana
janan
janaul
janczi
janczin
jandi
jandin
jane
jangon
janino
janke
janos
janov
janovsk
janovskan
jantad
january
jap
japan
japanese
japonan
japonankel
japonii
japonijalaine
japonijalaiz
japonijan
japonijas
japonijha
japonine
japoniz
jar
jaralaiz
jaran
jaranma
jaranman
jaranmanke
jaranmas
jaranskan
jaras
jarc
jarcevo
jarine
jarmank
jarmankad
jarmankal
jarmankoid
jarmankoil
jarmat
jaroslav
jaroslavl
jaroslavlihesai
jaroslavlin
jaroslavlis
jarovoje
jarri
jartal
jas
jattaran
jatti
jaug
jaugad
jaugaiz
jaugnikoiden
jaugoil
jaugva
jauh
jauhkombinat
jauhod
jauhon
jauhtegim
jaunde
jav
javan
jazz
je
jean
jed
jef
jefremov
jegonsk
jegonskan
jegor
jegorsk
jegorskan
jehovan
jeisk
jeiskan
jekaterina
jekaterinan
jekaterinburg
jekaterinburgan
jekaterinburghasai
jel
jelabugan
jelec
jelecan
jelena
jelizaveta
jemanz
jemen
jemenan
jen
jenaral
jenaralan
jenisei
jenisein
jent
jer
jera
jerad
jeran
jeras
jerevan
jerevanan
jermi
jermo
jermolino
jero
jers
jerusalim
jerusaliman
jerusalimas
jerusalimha
jes
jesad
jesan
jesenija
jesid
jessentukad
jessica
jet
jev
jeva
jevgenii
jevgenija
jevic
jevna
jevsk
jevskan
jevskii
jez
jfalu
ji
jic
jid
jiden
jidenke
jidis
jido
jigevan
jihe
jihvi
jiks
jil
jile
jin
jini
jired
jirkap
jis
jj
jo
joan
joann
joannan
job
jod
joda
jodan
jodas
joe
joga
jogahiz
joganedal
jogapa
jogavoc
jogavozne
joged
jogedme
jogehe
jogehesai
jogeihut
jogel
jogen
jogenke
jogenno
jogensu
jogensud
jogensuhusai
jogensun
jogensunno
jogensus
jogensuspa
jogentagaine
joges
jogespa
jogi
jogialangis
jogid
jogiden
jogidenkeskeiz
jogilaivad
joginis
jogiport
jogiportal
jogis
jogistancii
jogitransport
jogivaldmad
jogo
johan
johann
johanna
johannan
johannes
john
johnny
johnson
johtutesed
johtutez
joki
joko
jokoham
jokseb
joksed
joksend
joksmusen
joksmusenke
joksmuses
joksmuz
joksta
jokstas
joksten
jokstes
joksusen
joll
jom
jomad
joman
jomid
jomiden
jomiz
jon
jonan
jondveden
jondz
jono
jonod
jonoid
jonoiden
jonoikaz
jonol
jonon
jonos
jonospa
jonused
jonusel
jonusen
jonusid
jonusiden
jonust
jonuz
jor
jordan
jordanii
jordanijan
jork
jorkan
jorkas
jorkha
jorks
jos
jose
jota
joucen
joucned
joucnen
joudai
joudan
joudjad
joudjaks
joudjal
joudjaline
joudjaliz
joudjan
joudjas
joudjuden
joudjut
joudjuz
joudutadud
jouk
joukhu
joukud
joukuid
joukuil
joukun
joukus
journey
jov
joy
jozef
jp
jpeg
jpg
jr
jsza
ju
juan
jubileinii
jubilejad
jubilejale
jubilejan
jud
judaistad
judaizm
judaizman
judejan
judz
jug
jugan
jugorsk
jugoslavijan
jugran
juhnov
juho
juis
juki
jukon
jul
julianiz
juliet
julii
julija
julius
july
jumal
jumalad
jumalaiz
jumalale
jumalan
jumalanbembel
jumalanbemblen
jumalankodi
jumalankodid
jumalankodiks
jumalankodikund
jumalankodikundad
jumalankodikundan
jumalankodikundoiden
jumalankodile
jumalankodin
jumalankodinno
jumalankodis
jumalanmaman
jumalanna
jumalanpert
jumalanpertid
jumalanpertidc
jumalanpertin
jumalanpertinke
jumalanpertinno
jumalanpertis
jumalanradnikoic
jumalansa
jumalantedomehen
jumalha
jumalnaine
jumalnaiz
jumalneiz
jumaloid
jumaloiden
jumalois
juminkeko
jumoristiz
jump
jun
junaiz
june
jungle
junnan
junost
jupiter
jupiteran
jur
juraiz
jure
jured
jurenno
jurespa
jurgii
jurgijan
juri
jurid
juriden
juridenke
juridine
juridiz
jurii
juril
juris
jurist
juristad
juristan
jurmal
jurt
juru
jus
just
juveliriz
juvenile
juz
jva
k
ka
kaarin
kaarina
kab
kabal
kabardalaiz
kabardinijan
kabel
kabela
kabir
kabjz
kabo
kabul
kabulan
kabuto
kac
kaceg
kacegespa
kacegiden
kacelta
kacleb
kaclemiz
kaclend
kaclim
kaclimen
kacmata
kacta
kactas
kacten
kactes
kacu
kacub
kacujad
kacujid
kad
kadag
kadavoor
kadirov
kadirovan
kadnikov
kadob
kadoda
kadoi
kadoiba
kadomiz
kadondan
kadonu
kadonuded
kadonuden
kadotab
kadotada
kadotadud
kadoti
kadr
kadrad
kadraspa
kadui
kadujan
kadun
kadz
kafe
kafedr
kafedraline
kafedraliz
kagl
kaglan
kaglaz
kaglhan
kagr
kagrand
kaha
kahesa
kahesad
kahesaks
kahesaku
kahesan
kahesanden
kahesandes
kahesandest
kahesandestos
kahesandez
kahesanz
kahesas
kahesaspa
kahesatos
kahesavoc
kahesha
kahk
kaht
kahteks
kahtel
kahtele
kahten
kahtendeks
kahtendel
kahtenden
kahtendes
kahtenke
kahtent
kahtentos
kahtenvuitte
kahtenz
kahtes
kahtespa
kahthe
kahtiden
kahtis
kai
kaic
kaid
kaidad
kaidan
kaidas
kaidlehtesine
kaidraiz
kaigad
kaik
kaiked
kaikedme
kaikeks
kaikel
kaikele
kaiken
kaikenaigaine
kaikenaigaiz
kaikenaigas
kaikenvuic
kaikenvuitte
kaikes
kaikid
kaikiden
kaikidenke
kaikidme
kaikihe
kaikil
kaikile
kaikis
kaikjal
kaikta
kaikuc
kaikutte
kaikuttus
kaili
kaimdai
kaimdailidn
kaimdajad
kaimdajan
kaimdajaspa
kaimdajid
kaimdajiden
kainu
kaio
kair
kairan
kaita
kaitas
kaitud
kaiv
kaivai
kaivajiden
kaivandused
kaivandusid
kaivandusiden
kaivandusil
kaivatused
kaivatusiden
kaivuded
kaivuden
kaivudenno
kaivut
kaivuz
kaivuzid
kaivuziden
kaivuzmas
kaivuzmetallurgiz
kaivuztegimis
kaivuztehnikum
kaivuzz
kajag
kajani
kakao
kakaon
kaks
kaksidu
kaksitadud
kal
kala
kalac
kalad
kalahari
kalaidai
kalaidajad
kalaidajiden
kalaidajis
kalaiz
kalajogen
kalajogi
kalajoki
kalan
kalanikoiden
kalankazvatusel
kalankazvatusen
kalankazvatuz
kalanke
kalanpu
kalanu
kalatajud
kalategim
kalatez
kaleb
kaleig
kaleigan
kalendarin
kalendaris
kalevala
kalevalan
kalgari
kalhasai
kali
kalifornii
kalifornijan
kalifornijas
kalifornine
kalii
kaliisol
kalijan
kalimantan
kalin
kalinin
kalininan
kaliningrad
kaliningradan
kaliningradhasai
kalininsk
kalinskan
kalita
kalitv
kalitvan
kall
kallaste
kallis
kalliz
kalmikalaiz
kalmikan
kalmikii
kalmikijan
kaloid
kaloiden
kaltan
kalu
kalud
kalug
kaluga
kalugan
kalughasai
kaluid
kaluiden
kaluis
kalun
kalutadud
kam
kama
kamal
kaman
kamanjogen
kamargo
kambark
kambarkan
kambodz
kamc
kamenk
kamennogorsk
kamensk
kamenskan
kameo
kamer
kameran
kamerun
kamerunan
kamerunanke
kames
kamila
kamilla
kamis
kamiza
kampal
kampanii
kampanijan
kampos
kampus
kan
kana
kanabra
kanad
kanadadme
kanadalaine
kanadan
kanadas
kanadha
kanadine
kanadiz
kanagavan
kanal
kanalad
kanaladme
kanalal
kanalan
kanalas
kanaliden
kanaloiden
kanan
kanar
kanaran
kanariz
kanas
kanber
kanc
kancela
kancler
kancleran
kand
kandab
kandai
kandajad
kandalaks
kandatez
kandeb
kandem
kanden
kandi
kandidat
kandidatad
kandidataks
kandidatan
kandidatoid
kandidatois
kandidaturad
kandidaturiden
kandis
kandustadas
kangaz
kanghad
kanghan
kanghid
kanghiden
kanghis
kankaanpa
kanke
kanman
kannad
kannoiden
kannus
kanoid
kansk
kanskan
kanta
kanton
kantonan
kantri
kanz
kanzad
kanzaline
kanzaliz
kanzan
kanzanke
kanzannimen
kanzannimi
kanzas
kanzaspa
kanzha
kanzi
kanziba
kanzihe
kanzoid
kaolin
kap
kapan
kapitalizman
kapitan
kapitanan
kapitolovo
kapitula
kapoor
kapos
kaps
kapur
kapust
kapustin
kapustiz
kar
kara
karabanovo
karabas
karabulak
karac
karakas
karan
karas
karasuk
karasukan
karc
kardas
kardoso
karel
karelia
karen
karg
kargadai
kargaida
kargaidab
kargaidai
kargat
karged
kargnik
kargnikad
kargopol
kargopolin
kargud
karguiden
kargun
kari
kariban
karin
karina
karintii
karis
karizma
karj
karjal
karjala
karjalaine
karjalaiz
karjalan
karjalas
karjalha
karjalu
karksi
karl
karla
karlan
karleus
karlo
karlos
karlson
karm
karma
karmacode
karmen
karnatak
karnaval
karol
karolin
karolina
karolinan
karpatad
karpatan
karpatantagaine
karpatantagaiz
karpinsk
karpiz
kars
kart
kartad
kartaiz
kartal
kartali
kartan
kartankarv
kartje
kartohk
kartohkad
kartohkan
kartohkanke
kartohkaspa
kartohkoid
kartoil
karton
kartonan
kartte
karusel
karv
karvakahad
karvakaz
karval
karvan
karvaspa
karvha
karvmarjanvuic
karvuzpletindan
karzn
kas
kasablank
kashan
kasimov
kasimovan
kaskad
kaskado
kaskinen
kasli
kaslin
kaspa
kaspii
kaspiisk
kaspiiskan
kaspijan
kassel
kassiano
kassio
kastehein
kastel
kastelemha
kastelendan
kastellini
kastilii
kastillo
kastri
kastro
kastroneves
kat
kata
katab
katalizator
katalizatoraks
katalonii
katar
kataran
katas
katase
katav
katavan
kate
kategorii
kategorijad
kategorijan
kater
kath
kathmandu
katilmas
katken
katl
katmandu
katolikad
katoline
katoliz
kattab
kattas
kattud
katusen
katusenaluiz
katussamba
katuz
katuzmaterialad
kauc
kauged
kaugedraudad
kaugedraudan
kaugedraudaspa
kauman
kaumis
kaumuz
kaumz
kaunas
kaunasan
kauniainen
kaupungintalo
kaupunki
kaur
kaus
kavag
kaver
kavkaz
kavkazal
kavkazan
kavkazine
kavkaziz
kaz
kazahan
kazahlaiz
kazahstan
kazahstanan
kazahstananke
kazahstanas
kazan
kazanihesai
kazanin
kazanskii
kazda
kazdas
kazino
kazinod
kazmused
kazmuseks
kazmusel
kazmusen
kazmusid
kazmusiden
kazmusil
kazmusis
kazmust
kazmuz
kaznu
kaznuded
kaznudeks
kaznuden
kaznuziden
kaznuziks
kazv
kazva
kazvab
kazvand
kazvandan
kazvatab
kazvatada
kazvatadas
kazvatadihe
kazvatadud
kazvatai
kazvatajad
kazvatajiden
kazvatajidenke
kazvatamha
kazvatand
kazvatandal
kazvatandan
kazvateliz
kazvati
kazvatihe
kazvatusen
kazvatuz
kazvis
kazvoi
kazvoiba
kazvol
kb
kbr
kc
kdt
ke
kebn
kebnad
kebnal
kebnan
kebnas
kebnavto
kebnavtod
kebnavtoiden
kebnemb
kebnenzoittud
kebnoid
kec
ked
keda
kedrpedailind
keep
kefermarkt
kehker
kehkrad
kehkran
kehkruz
kehr
kehub
kehundla
kei
keiko
keil
keila
kein
keins
keipop
keiptaun
keiptaunan
keiroz
keit
keita
keitand
keitandan
keitandsol
keitandsolad
keitandsolan
keitimpol
keitimpolen
keitis
keitiz
keitoz
keitta
keittas
keittud
kek
kekar
kekkonen
kel
kelastuz
keled
keleks
kelel
kelen
kelenkandajad
kelenke
kelentedo
kelentedomehed
kelentedomez
kelentedon
kelenva
keles
kelespa
kelid
keliden
kelidenke
kelihe
kelikorendan
kelil
kelis
kell
kellc
kelli
kellod
kelloiden
kem
kemal
kembridz
kemerovo
kemerovohosai
kemerovon
kemet
kemi
kemija
kemin
kempbell
ken
kenaluine
kenaluiz
kend
kenda
kendad
kendall
kendoiden
keneks
kenel
kenen
kenenke
keng
kenga
kengiden
kenii
kenijan
kenijas
kennedin
kent
kentegim
kenterberi
kentukki
kepler
keradab
keradai
keradamha
keradusen
keradusespa
keraduz
keral
keramik
keramikan
keramine
keramiz
kerata
keratas
keratihe
keratud
kerav
kerazi
kerazihe
kerc
kerdad
kerdaine
kerdaiz
kerdalaz
kerdan
kerdha
kerdoid
kerekan
keric
kerman
kerteh
kerthel
kertla
kervac
kes
kesk
keskafrikan
keskaigaine
keskaigaiz
keskaigaliz
keskaigan
kesked
keskel
kesken
keskes
keskespa
kesketi
keskhesai
keskitadud
keskjoksmusen
keskjoksmuses
keskkorktusel
keskla
keskma
keskmeren
keskmeri
keskneze
kesko
keskopendusen
keskopendust
keskopenduz
keskpa
keskpalas
keskpohjanma
kesks
kesksidod
kesksuomenma
keskuralan
keskused
keskuseks
keskusel
keskusen
keskusenke
keskuses
keskusespa
keskushe
keskushesai
keskusiks
keskusis
keskust
keskustad
keskustaine
keskustal
keskustan
keskustas
keskustaspa
keskustoid
keskustoil
keskustoittud
keskuz
keskuzalis
keskuzamerikan
keskuzamerikas
keskuzazii
keskuzazijan
keskuzazijas
keskuzbank
keskuzbankan
keskuzkirjis
keskuzkomitetan
keskuzline
keskuzliz
keskuzmakedonii
keskuzpala
keskuzpalad
keskuzpalan
keskuzpalas
keskuzpuis
keskuzrajon
keskuzrajonan
keskuzrajonas
keskuztorg
keskuztorgul
keskuzu
keskvepsla
ket
ketalaiz
keti
keto
ketrin
kettunen
keuruu
keuruun
keva
kevic
kevin
key
keza
kezaaigan
kezaku
kezakud
kezakuhusai
kezakul
kezakun
kezakus
kezakuspa
kezal
kezalind
kezaline
kezaliz
kezan
kezanke
kezerdusen
kezr
kezrad
kezran
kezroiden
kezroil
kfil
kg
kha
khabarovsk
khan
khanty
khein
kher
ki
kibed
kibo
kibu
kibud
kibuid
kic
kid
kiden
kidz
kielen
kii
kijan
kijev
kijevan
kijevas
kijevha
kijevhasai
kil
kilad
kilimandz
kilingi
kill
killer
kilogrammad
kilogrammas
kilogrammhasai
kilometr
kilometrad
kilometraks
kilometran
kilometras
kilometrhasai
kilometrid
kilometrine
kilometris
kilometriz
kilt
kim
kimovsk
kimri
kimura
kin
kina
kinan
kind
kinel
kinematografan
kines
king
kingan
kinged
kingfisher
kingisepp
kingiseppan
kingitadud
kingston
kinktas
kino
kinoakt
kinoaktris
kinod
kinofestival
kinokar
kinokomedii
kinon
kinopoisk
kinoprodu
kinorez
kinos
kinoscenaristad
kinostudijan
kinotarin
kinoteatr
kins
kioto
kioton
kiparis
kipina
kipr
kipran
kir
kiralaiz
kiran
kirche
kirchspiel
kirejevsk
kirejevskan
kirensk
kirgizlaiz
kirgizstan
kirgizstanan
kirh
kirhs
kirhuliz
kiribati
kiribatin
kirijan
kirik
kirill
kirillical
kirillican
kirilline
kirilliz
kirillov
kirillovan
kiris
kirj
kirjad
kirjaine
kirjaks
kirjal
kirjam
kirjamed
kirjamen
kirjamespa
kirjamid
kirjamil
kirjamis
kirjan
kirjankel
kirjankelen
kirjant
kirjas
kirjaspa
kirjasto
kirjav
kirjeine
kirjeiz
kirjes
kirjha
kirjis
kirjkel
kirjkelel
kirjkelen
kirjoid
kirjoiden
kirjois
kirjserii
kirjutab
kirjutada
kirjutadas
kirjutadud
kirjutai
kirjutajad
kirjutajan
kirjutajiden
kirjutamha
kirjutamine
kirjutamiz
kirjutandan
kirjutanu
kirjutase
kirjutesed
kirjutez
kirjuti
kirjutiba
kirjutihe
kirjutused
kirjutusen
kirjutuses
kirjutusid
kirjutusiden
kirjutust
kirjutuz
kirk
kirkko
kirkorov
kirkorovan
kirotud
kirov
kirovan
kirovgrad
kirovo
kirovsk
kirovskan
kirs
kirsanov
kiruhavtobusad
kiruhavtote
kiruhjonused
kiruhraudte
kiruhso
kiruhte
kiruhted
kiruhtramvai
kiruhtramvaid
kirun
kirvhel
kirz
kis
kiselo
kislovodsk
kiss
kisses
kit
kita
kitagava
kitai
kitaidme
kitaihe
kitain
kitaine
kitainke
kitais
kitajalaine
kitajalaiz
kitajan
kitajankel
kitajine
kitajiz
kitan
kitanvuic
kitee
kiteen
kito
kitoiden
kiton
kits
kitsan
kived
kiven
kivendod
kivendoid
kivendoiden
kivendon
kivendospa
kivespa
kivi
kiviaig
kiviaigan
kivid
kividen
kivihil
kivihilen
kivin
kivine
kivis
kivisaren
kivivoi
kivivoid
kivivoihimine
kivivoihimiz
kivivoimas
kivivoin
kivivoinhimine
kivivoinhimiz
kivivoinu
kivivoinveim
kiviz
kiwi
kiz
kizel
kizelan
kizil
kizilu
kizla
kk
kka
kkal
kken
kkiliz
kkivend
kkivendod
kl
kla
klad
klaiped
klan
klar
klara
klaspa
klass
klassad
klassan
klassas
klassha
klassicizman
klassifikacii
klassifikacijan
klassine
klassiz
klaudia
klaudio
klei
kleid
klejad
klejatud
kleo
klepiki
kler
klimat
klimatad
klimatan
klimatas
klimatha
klimatine
klimatiz
klin
klinan
klincad
klinine
klivlend
klod
kloran
kloster
klu
klub
kluban
kluz
km
kna
knardalr
kne
knight
knorkator
know
known
ko
koalicii
koalicijan
kobal
kobe
koc
kod
koda
kodak
kodi
kodiaren
kodid
kodiden
kodielon
kodiema
kodihe
kodihimii
kodihimijan
kodiiz
kodija
kodikaz
kodikel
kodikeleks
kodikelen
kodikoic
kodikoittud
kodiks
kodiku
kodilezi
kodima
kodimaiz
kodimale
kodiman
kodin
kodine
kodinsk
kodinskan
kodipu
kodirandan
kodirandantedis
kodis
koditehnik
koditehnikan
kodiz
kodv
kodvi
kodvib
kodviden
kodzi
koefficient
koel
kofe
kofed
kofen
kofi
kogalim
kogo
kogodused
kogodusen
kogodusespa
kogodust
kogoduz
kogoho
kogonaine
kogonaiz
kogonaz
kogoneb
kogoni
kogosu
kogota
kogotas
kogotud
kohei
kohendusel
kohendusen
kohenduses
kohendusiden
kohendusidenke
kohenduz
kohenduzmehaniz
kohetud
kohli
kohm
kohtaiz
kohtas
kohtha
kohtla
kohtusen
koi
koid
koiden
koidenke
koil
koimbr
koir
koirad
koiran
koiranvuic
koirid
koiriden
kois
koiv
koivikod
koivisto
koivuine
koivuiz
koivun
kojeg
kok
kokandan
kokema
kokkol
kokospa
koks
kokteine
kokus
kol
kola
kolad
kolan
kolas
kolaspa
kolb
kolbasan
kolda
koleb
kolendma
kolha
koli
koliba
kolim
koliman
kolis
kolkat
kolkatas
kolledz
kollegad
kollegidenke
kollegii
kollektiv
kollektivan
kolmatoi
kolmatomuden
kolmu
kolnikoiden
kolnu
kolnuded
kolnuden
kolnut
kolnuziden
kologriv
kologrivan
koloiden
kolois
kolombo
kolomn
kolomnan
kolon
kolonializ
kolonii
kolonijad
kolonijaks
kolonijan
kolonijoiden
kolonizacijan
kolonnad
kolopendajan
kolorado
kolpas
kolpino
kolpinon
koltegim
koltus
kolumb
kolumban
kolumbii
kolumbijan
kolumbijanke
kolumbijas
kolumbus
kom
koma
komarom
kombinat
kombinatad
kombinatal
kombinatan
kombiniruidud
kombiso
komedas
komedii
komedijan
komedine
komfortiz
komi
komilaiz
komin
komissar
komitativ
komitet
komitetad
komitetan
komitetas
kommercijan
kommertine
kommertis
kommertiz
kommun
kommunad
kommunaks
kommunaliz
kommunan
kommunar
kommunas
kommune
kommunha
kommunistine
kommunistiz
komoran
kompanii
kompanijad
kompanijal
kompanijan
kompanijaspa
kompanijha
kompanijoiden
kompanijoil
kompanijoile
kompartijan
kompila
kompjuter
kompjuterad
kompjuteran
kompjuterine
kompjuteriz
kompjuterprogramiden
kompjuterva
kompleks
kompleksad
kompleksal
kompleksan
kompleksas
kompleksiz
komplektad
komplimentarine
komponent
komponentad
komponentaks
komponentoiden
kompozicii
kompozicijad
kompozicijan
kompressorstancii
komsomol
komsomolan
kon
konakovo
konakri
koncentracii
koncernan
koncert
koncertad
koncertal
koncertan
koncertine
koncertiz
koncertzal
konde
kondi
kondicional
konditerine
konditeriz
kondjad
kondjan
kondopog
kondopoga
kondopogan
kondrovo
konfederacii
konfederacijan
konferencii
konferencijan
konfiguracii
konfucijan
kong
kongo
kongon
kongress
kongressan
konke
konkistador
konkretiz
konkurs
konkursad
konkursal
konkursan
konkursha
konnektikut
konnor
konor
konoru
konos
konrad
konservacijas
konservad
konservatorii
konservatorijan
konservatorijas
konservtegim
konsonantad
konstanc
konstantin
konstantinan
konstantinovskan
konstitucii
konstituciivn
konstitucijad
konstitucijan
konstitucijha
konstitucine
konstituciz
konstrukcijad
konstrukcijoiden
konstruktorbu
konsul
konsulused
konsuluz
kontaktoiden
konte
konteinerad
kontinent
kontinentad
kontinental
kontinentaline
kontinentaliz
kontinentan
kontinentanke
kontinentansu
kontinentas
kontinentaspa
kontinentiden
kontinentil
kontor
kontraktan
kontrol
kontrolid
kontrolin
kontroliruib
kontroliruis
kontur
konurbacijas
konvencii
konz
kooperativine
koordinatad
kopeiskan
kopenhagen
kopenhagenan
kopernicii
kopii
kopijoid
kor
kora
korablino
koranan
korc
kordiljerad
kordov
kordovan
koreatimes
korei
korejalaine
korejalaiz
korejan
korejankel
korejas
korejine
korejiz
koren
korenke
korenovsk
korenovskan
kores
korfu
korged
koric
koridor
korkino
korkinon
korktad
korktal
korktan
korktanke
korktas
korkte
korktemb
korktemba
korktoid
korktoiden
korktoil
korktused
korktusel
korktusen
korktusenke
korktusespa
korktushesai
korktusiden
korktusil
korktuz
kornan
kornuoll
koroc
korol
korolo
korondic
koror
korporacii
korporacijad
korporacijan
korporacijoiden
korpus
korpusan
korrea
korreia
kors
korsakov
kortehed
kortes
kortni
kortom
kortomha
kortostan
kortostanan
kortte
korv
korvad
kos
kosan
kosketi
kosketused
kosketusid
kosketusiden
kosketusis
kosketuz
koskhaiz
koskimsoitod
koskub
kosmetikan
kosmine
kosmiz
kosmonavt
kosmonavtad
kosmos
kosmosan
kosmosas
kosmosaspa
kosmosha
kosmosstancii
kosov
kosovo
kosovon
kost
kosta
kostamuks
kostarik
kostarikan
kosto
kostrom
kostroma
kostroman
kostu
kot
kotel
kotk
kotkan
kotlas
kotlasan
kotlin
kotonu
kotovo
kotovsk
kotte
kottedz
koumandel
koumanden
koumandes
koumandesen
koumandest
koumandestos
koumandez
koumant
koumanz
koumas
koume
koumed
koumekerdaine
koumeks
koumeku
koumel
koumen
koumenke
koumepa
koumepalaiz
koumes
koumesaumnikan
koumespa
koumetos
koumevoc
koumhe
koumhesai
kourad
kouto
kouvol
kov
kova
kovad
kovaks
koval
kovan
kovanke
kovas
kovdor
kover
koverikaz
koveritoi
koveritomad
kovid
kovilkino
kovilkinon
kovo
kovon
kovrov
kovskii
kovtp
koz
koza
kozakad
kozakis
kozakoiden
kozakoil
kozel
kozlov
kozlovk
kozlovkan
kp
kr
kra
krai
kraistc
krakov
krand
krandan
krasavino
krasavinon
krasnaja
krasnii
krasnoarmeisk
krasnodar
krasnodaran
krasnodaras
krasnodaraspa
krasnodarhasai
krasnogorsk
krasnogorskan
krasnogvardeiskii
krasnojarsk
krasnojarskan
krasnojarskha
krasnojarskhasai
krasnoje
krasnokamensk
krasnokamsk
krasnosel
krasnoslobodsk
krasnoslobodskan
krasnoturjinskan
krasnoural
krasnovis
krasnoyarsk
krasnozavodsk
krasnoznamensk
krasnoznamenskan
krater
krateran
kray
krc
krdt
krefel
krem
kremenc
kreml
kremlin
kremlis
krepind
krepindanke
krestovskii
krid
krik
krilov
krim
kriman
krimantatarlaiz
kriminaline
kriminaliz
krimsk
kripton
kris
krishna
kristall
kristallad
kristalline
kristalliz
kristi
kristian
kristiana
kristiano
kristiinankaupunki
kristin
kristina
kristobal
kristof
kristofer
krit
kritik
kritine
krivii
krizis
krizisan
kro
kroikoi
kroikoinvuic
krokodil
kromaine
kroman
kron
kronan
krons
kropotkin
kross
krris
krt
kru
krus
kruz
ks
ksemburg
ksemburgan
ksemburgas
ksenic
ksenican
ksenija
ksenon
ksi
ksiba
ksin
ksma
ksna
ksofor
ksoforan
ksp
kspa
ksta
kstovo
kstud
ksushe
kta
ktad
ktas
ktuvim
ku
kuala
kub
kuba
kuban
kubanin
kubas
kubenanja
kubenansun
kubha
kubine
kubink
kubiz
kuc
kucta
kuctas
kuctud
kucub
kucui
kucund
kucundan
kucundnimi
kucuse
kud
kudamb
kudambad
kudambal
kudamban
kudambas
kudambaspa
kudambha
kudambid
kudambiden
kudambil
kudambis
kudan
kudeks
kuden
kudenden
kudendes
kudendest
kudendestos
kudendez
kudenke
kudenz
kudes
kudespa
kudhe
kudiana
kudimkar
kudmaine
kudmaiz
kudmas
kudomaha
kudrovo
kugalaine
kuhmo
kuhusai
kuibis
kuid
kuidas
kuiden
kuidme
kuidud
kuidun
kuil
kuiv
kuivad
kuivahk
kuivaigan
kuivamb
kuivan
kuivatas
kuivatud
kuivid
kuivil
kuivis
kuivma
kuivmadme
kuivman
kuivsezon
kuivsezonan
kuiz
kujo
kujod
kuk
kukan
kukazja
kukerduz
kukhad
kukhal
kukhan
kukhanpa
kukhid
kukhiden
kukhikahal
kukhikahas
kukhikaz
kukhil
kukkaz
kukkazsel
kukmor
kukoi
kukruzan
kuks
kukuruz
kul
kula
kuld
kulda
kuldad
kuldaine
kuldaiz
kuldan
kuldas
kuldsa
kule
kulebaki
kulemine
kulemiz
kulic
kulikov
kulin
kulinarijan
kulpa
kulu
kulub
kulud
kuluiden
kulun
kulund
kulundad
kulundan
kulundoid
kulundoiden
kulus
kulutadas
kulutajiden
kulutamiz
kulutuz
kulutuzma
kum
kuman
kumanjogen
kumar
kumardelend
kumardelendan
kumasi
kumertaun
kumikad
kumikalaiz
kumplon
kun
kuna
kund
kunda
kundad
kundaks
kundale
kundaline
kundalis
kundaliz
kundan
kundanke
kundas
kundaspa
kundelta
kundha
kundlimed
kundoid
kundoiden
kundoidenke
kundoiks
kundois
kungur
kunguran
kuni
kunigahaks
kunigahal
kunigahan
kunigahiden
kunigahusen
kunigahuz
kunigaz
kunigazline
kunigazliz
kunigaznaine
kunigaznaiz
kuopio
kupan
kupavn
kupe
kupino
kupk
kuprin
kur
kuran
kurb
kurc
kurdiz
kuressaare
kurgan
kurganan
kurganhasai
kurilan
kurk
kuro
kurod
kuroki
kurol
kurort
kurortad
kurortaks
kurortal
kurortan
kurortha
kurortlidn
kurortz
kurospa
kurovskoje
kurs
kursad
kursan
kursk
kurskan
kurskhasai
kurtamis
kuruv
kus
kused
kuspa
kut
kutan
kuti
kuusamo
kuusamon
kuva
kuvad
kuvadab
kuvadase
kuvadasois
kuvaduz
kuvagalerei
kuvahaine
kuvahaiz
kuval
kuvan
kuvandoic
kuvanke
kuvapatsaz
kuvapatshad
kuvapatshan
kuvaspa
kuvastub
kuvastuz
kuvatadud
kuvatai
kuvatas
kuvatud
kuvazi
kuveit
kuveitan
kuverz
kuvid
kuviden
kuvil
kuvis
kuvs
kuz
kuzed
kuzen
kuzid
kuznec
kuzneck
kuzneckan
kuzneckii
kuzneckijan
kuznecov
kvame
kvarc
kvarcitku
kvazulu
kvebek
kvinslend
kvon
kvt
kylie
kyoto
kz
kɑ
kə
l
la
lab
laba
labinsk
labinskan
labitnangi
laboratorijas
lac
lacio
lacuna
lad
ladakh
ladi
ladii
ladim
ladimed
ladimensauvomiz
ladimid
ladimiden
ladimis
ladlused
ladluz
ladog
ladogan
ladoganja
ladogha
ladogja
ladud
laduliz
ladun
ladus
ladv
ladva
ladvan
lady
lagen
lager
lagi
lago
lagos
laguna
lahdenpohj
lahdenpohjan
lahj
lahjad
lahjakahut
lahjoic
lahjoitud
lahn
lahnad
lahor
laht
lahted
lahtedme
lahten
lahtenke
lahtes
lahtespa
lahthe
lahti
lai
laidal
laila
laine
laineh
lainhed
lainhen
lainhiden
lainis
lais
laiv
laivad
laivan
laivankohendusen
laivankohenduztegim
laivansauvomine
laivansauvomiz
laivis
laivjogeks
laivjogi
laivoid
laivoiden
laivoidenlikund
laivoil
laiz
lajib
lak
lakalaiz
lakan
lake
lakinsk
laman
lambaz
lambhad
lambhid
lamborghini
lamiaceae
lan
land
landing
lands
landschaftspark
lane
lang
lange
langenii
langenijad
langenijan
langepas
langeta
langetas
language
languages
lanka
lanksi
lanktas
lankte
lankteb
lankten
lanktend
lanktendad
lanktendan
lanktendanno
lanktushe
lantan
lantanoidoiden
lao
laos
laosan
lapac
lapak
lapakoiktad
lapakoiktas
lapakonke
lapenrand
laplandii
laplandijan
laps
lapse
lapsed
lapseks
lapsele
lapsen
lapsenakt
lapsenke
lapses
lapsessai
lapsetoman
lapsid
lapsiden
lapsidenke
lapsidens
lapsile
laptalagruppas
laptaliz
laptas
laptevoiden
lapua
lapuan
lara
lardot
large
largest
larios
larisa
larissa
larix
lars
larus
las
laserpitium
laske
laskeb
laskend
laskendad
laskendan
laskese
laski
laskihe
laskm
laskman
lasktas
lasktihe
lasktud
last
lat
lata
latin
latinan
latinankel
latinical
latinine
latinis
latiniz
latvii
latvijalaiz
latvijan
latvijas
laud
laudad
laudal
laudan
laudanva
laudkund
laudkundad
laudkundan
laudruzuid
laugh
lauk
laukad
laukan
laukoid
launch
launches
laura
laureat
laureatad
laureatan
lauri
lav
lava
laval
lavan
lavanheitand
lavanheitandan
lavas
lavastadud
lavastusen
lavastuz
lavin
lavrentijan
lavrov
lavuazje
layer
laz
lazarevan
lbs
lc
ldots
ldva
le
leaf
leal
leave
lebeda
lebedeva
leben
lebun
lebupa
lebutaho
lebutahoihe
lebutahoiz
lebutahoks
lebuturizmal
ledi
left
legend
legendad
legendan
legendarine
legendiden
legendine
leh
lehm
lehma
lehmuz
leht
lehtesed
lehtesen
lehtesenso
lehtesid
lehtesiden
lehtesidenke
lehtesil
lehtesis
lehtesiz
lehtest
lehtez
lehtezmec
lehtezmehed
lehtezmez
lehtis
lehtkuz
lehtpol
lehtpoled
lehtpolen
lehtpoliden
leib
leiba
leibkombinat
leiblal
leibtegesed
leibtegim
leibtegimel
leiden
leiktuz
leipzig
leitnant
lek
lekar
lekarid
lekariden
lekarin
lemb
lemba
lembaine
lembaiz
lemon
len
lenan
lend
lenda
lendab
lendahtamiz
lendai
lendajad
lendajan
lendajiden
lendamha
lendand
lendandan
lendands
lendas
lendi
lendim
lendimed
lendimel
lendimen
lendimid
lendimiden
lendimpo
lendimport
lendimportad
lendimportal
lendimportan
lendimportanke
lendimportas
lendimportaspa
lendimporthasai
lendint
lendusen
lenduz
lenin
lenina
leninan
leningrad
leningradan
leningradas
leningradha
leninogorsk
leninsk
leninskii
lenka
lenoblinvest
lenpa
lensk
lent
lenta
lental
leo
leon
leonard
leonardo
leone
leonen
leonid
leonov
leont
leopol
lepai
leps
lepus
lermontov
lermontovan
les
leskiak
leskusenvastaiz
leskuz
lesnoi
lesosibirsk
lesoto
lesoton
lesotos
let
leta
letab
letas
letavertes
lete
leten
letetazangis
letetorokad
leti
leticija
letihe
letisija
letked
letken
letkesine
letkesiz
letter
letud
letzte
lev
levad
levan
leved
levedad
levedali
levedamb
levedas
levedusen
levedust
leveduz
levette
levigandeb
levigandmiz
levigandusen
leviganduz
leviganzi
leviganziba
levigatas
levin
levineb
levinedas
levitab
levitadas
levitadud
levitandan
levitase
levitasois
levitihe
levu
lez
lezgilaiz
lezgin
lezginalaiz
lezjogen
lezvig
lg
lhas
lhoiden
li
liam
lian
lib
libakoiden
liber
liberaliz
liberii
liberijan
library
librivox
libu
libub
libuda
libudas
libui
libuiba
libuihe
libund
libundad
libundal
libundan
libundanke
libundas
libutimed
libutimiden
lic
licei
licein
liceis
licht
lichter
lid
liden
lidenke
lider
liderad
lideraks
lideran
lidija
lidn
lidnad
lidnadme
lidnaglomeracii
lidnaglomeracijad
lidnaglomeracijan
lidnaglomeracijas
lidnaglomeracijha
lidnaine
lidnaiz
lidnaks
lidnal
lidnalaine
lidnalaiz
lidnalas
lidnale
lidnalpa
lidnan
lidnanke
lidnankund
lidnankundad
lidnankundaks
lidnankundan
lidnankundas
lidnankundha
lidnanlaptad
lidnanlaptaks
lidnanlaptha
lidnanno
lidnannoks
lidnanpa
lidnansauvomiz
lidnanu
lidnanvuic
lidnanvuitte
lidnanvuittus
lidnanznam
lidnanznamad
lidnanznamal
lidnanznaman
lidnas
lidnaspa
lidneihut
lidnelektrojonused
lidnfartaliden
lidnfartaloiden
lidnha
lidnhasai
lidnkundan
lidnkundha
lidnoid
lidnoiden
lidnoidenke
lidnoihe
lidnoihesai
lidnoiks
lidnois
lidnrajonad
lidnrajonaks
lidnrajonha
lidnrajoniden
lidnu
lidnudeks
lidnuden
lidnudes
lidnuseks
lidnusen
lidnusenke
lidnuses
lidnusespa
lidnust
lidnut
lidnuz
lids
lie
liebe
life
lift
ligas
light
lights
liha
lihad
lihakombinat
lihan
lihanso
lihanu
lihaproduktad
lihasiden
lihategim
lihe
lihoslavl
lihtens
liig
lik
lika
like
likino
likkub
likkudas
likkuimed
likkuimen
likkuimiden
liko
likui
likujad
likumiz
likund
likundad
likundan
likundas
likundha
likundrivi
likutim
likutimed
likutimen
likutimenke
likutimiden
likutimveneh
likvidacii
likvidiruidud
likvidiruihe
lil
lila
lilaiz
lillian
lilongve
lim
lima
liman
limanad
limited
limon
limonan
lin
linan
lind
linda
lindberg
linde
lindfabrik
lindferm
lindud
linduid
linduiden
linduine
lindun
lindunpoigaiz
line
linegrey
lines
lingvo
linii
linijad
linijal
linijan
link
linkol
linmail
linnaeus
linne
linneb
linned
linnei
linnem
linnen
linni
linniba
linniz
lins
linux
lion
lipeck
lipeckan
lipeckhasai
lipin
lipkaine
lipkaiz
lipki
lir
lirik
lirine
lis
lisa
lisic
liski
lissabon
lissel
list
listen
litab
liteinii
literatur
literaturan
literaturas
literaturine
literaturiz
litii
litografii
litrad
little
litud
litv
litvalaiz
litvan
litvanma
litvanman
livan
livanan
live
liverpul
livia
liviesk
livii
livijan
livijanke
livin
livni
livonijan
livvin
liz
liza
ljubljana
lk
lkirjutez
ll
lla
ller
llis
llo
lloid
llu
lm
lmen
lmener
ln
lo
lobac
lobez
lobn
lobo
lobos
local
locatie
locomotion
locomotive
lodeh
lodehen
lodehes
lodehespa
lodeheze
lodehline
lodehliz
lodehpoles
lodu
lodz
log
logan
logik
logikan
logikas
logistik
logistikal
logistikan
logistine
logotip
lohi
lohj
lohja
loic
loimaa
lol
lolita
lombardii
lome
lomonosov
lomonosovan
lond
londad
londan
londoid
londoiden
londois
london
londonan
londonas
londonderri
londonha
londonhasai
londuseline
londuselis
londuseliz
londusen
londusenkaic
londusentedoidai
londusentedon
londuses
londuz
londuzpuis
lonely
long
longibokas
lonicera
lonin
loo
look
lop
lopes
lophu
lophusai
lopi
lopihe
lopind
lopindad
lopindan
lopindas
lopis
lopma
lopmiz
loppa
lopstancii
lopstancijaks
loptu
lopud
lopuks
lopul
lopuline
lopuliz
lopun
lopus
lopuspa
lorak
lord
lordi
lorena
lorenso
lori
lorin
los
lose
losino
lost
lota
lotus
loud
louhin
louie
louis
loun
lourensii
lov
lovan
love
lover
loves
loxodonta
loz
lozbumagaine
lozbumagaiz
lozbumagas
lp
lpa
lpp
lpz
lr
lt
ltd
lu
luand
luar
luaran
luc
luciano
lucky
lud
ludeghein
lug
lugan
lugansk
luganskan
lugeb
lugeda
lugedas
lugeden
lugemata
lugemine
lugemiz
lugend
lugendan
lugendlehtesen
lugendlehteses
lugese
lugeta
lugetas
lugetihe
lugi
lugiba
lugii
lugijad
lugo
lugu
lugud
luguhu
luguid
luguiden
luguidme
luguine
luguiz
luguks
lugul
luguma
lugun
lugus
lugusana
lugusanad
lugusanha
luguspa
lugustusen
luhovici
luhtas
luhtoil
lui
luiden
luidz
luis
luisa
luiz
luiza
luizian
luja
lujad
lujan
lujanke
lujas
lujemb
lujembad
lujeneb
lujeni
lujeta
lujetud
lujid
lujiden
luk
luka
lukas
luke
luki
lukin
lukoil
lukojanovan
lumarj
lumedme
lumen
lumenla
lumens
lumi
lumikate
lumikatken
lumimarjanpenzaz
lumineiz
lumpur
lun
luna
lunad
lund
lundan
lune
lunt
lupin
lupinus
lupus
lus
lusel
lusia
lusiden
lut
luxembourg
luxor
luz
luzikad
lv
lva
lvast
lvaz
lvhaine
lvhan
lvm
ly
lɑ
lɪ
m
ma
maakond
maardu
maas
mac
machine
macht
macumoto
mad
madagaskar
madagaskaran
madal
madalad
madalal
madalamb
madalan
madalanke
madalid
madaliden
madalil
madam
madame
made
madeh
madeir
madh
madhja
madhuri
madme
mado
madod
madoiden
madoil
madonna
madras
madrid
madridan
madridha
madz
mafijan
magadab
magadan
magadanan
magaduzrajonaks
magaduzsijaks
magaduzsijan
magas
magata
magdeburg
magdeburgan
maged
magedad
magellan
magic
magii
magistral
magistraliz
magistran
magnii
magnitine
magnitiz
magnitogorsk
magnitogorskan
magnitoiden
magnitud
magnitudanke
magnum
magomed
magu
magun
magunke
maguta
magutesed
maguteseks
magyar
maha
mahac
mahal
mahalla
mahapandud
mahapanendan
maharas
mahasai
mahatma
maht
mahta
mahtab
mahtad
mahtod
mahtoi
mahtoid
mahttas
mahtused
mahtusel
mahtusen
mahtusid
mahtusiden
mahtust
mahtuz
mahusel
mahusen
mahuses
mahusespa
mahushe
mahusid
mahusil
mahust
mahuz
mai
maid
maiden
maidenke
maidkombinat
maidme
maidod
maidon
maidproduktad
maidte
maidtegim
maidtegimel
maidten
maihe
maihutuzkeskust
maija
maik
maikl
maikop
maikopan
mail
mailz
main
mainal
mainc
maine
mainitab
mainitadas
mainitadud
mainitas
mainitase
mainitasois
mainitez
mainiti
mainitihe
mairiz
mais
maisa
maiskii
maite
maiz
maja
majak
majakovskii
majami
majamihe
major
mak
makarjev
makaronad
makarov
make
makeba
makeban
makedonii
makedonijalaine
makedonijalaiz
makedonijan
makes
makgadikgadi
makio
maklaud
makod
makron
maks
maksab
maksarv
maksim
maksimilian
maksimum
maksline
maksmine
maksmiz
maksoi
maksutoi
maksvell
makund
makundad
makundan
makundas
makundha
makus
mal
mala
malabo
malain
malaine
malaiz
malaizii
malaizijan
malakkan
malavi
malavin
male
malgobek
malhotra
mali
malik
malin
malini
malinke
malis
malkoc
mall
mallnitz
malmiz
malo
maloarhangel
malojaroslavec
mam
mama
mamad
mamadis
mamaks
maman
mamanke
mamankel
mamankeleks
mamankelel
mamankelen
mametall
mametallad
mammuthus
mamoi
man
mana
managua
manah
manahad
manalaine
manalaiz
manalas
manali
manaluine
manaluiz
manam
manaus
manc
mandel
mandela
mandz
manga
mangan
mangas
mangeim
manges
manhetten
manic
manif
manifestacii
manil
manis
manitusen
manke
mankoren
manmehed
manmehen
manmehiden
mann
manna
mannoks
manoela
manpa
manpidajan
manpol
manpoled
manradandan
manrehkaidused
manrehkaidusen
manrehkaiduses
manrehkaidusid
manrehkaidusiden
manrehkaiduz
mans
mansi
mansiisk
mansiiskan
mansiiskhasai
mansilaiz
mansin
mansodan
mantazole
mante
manted
manten
manturovo
manu
manuel
manuela
manufaktur
manzikaine
mao
maori
maorilaiz
maorin
map
maplod
maplodud
maploduid
maploduiden
mapolis
maputu
mar
mara
marafon
marakaibo
marc
marcelo
march
marchantia
marche
mare
marganc
margarita
mari
maria
mariana
marianna
marii
mariinsk
mariinskii
marija
marijan
marilaiz
marin
marina
marine
marino
marinon
mario
mariupol
marj
marjad
marjoid
marjoiden
marjoidenke
marjois
mark
markad
markan
markes
market
marko
markos
markova
marks
marksan
markutan
maro
marok
marokon
marokos
marriage
mars
marsan
marsel
marta
martan
martanan
marti
martin
martinan
martines
martins
martirosa
martti
marumenc
mas
masako
masdz
mask
maskat
maspa
mass
massac
massad
massan
massine
massinformacijan
massiz
mast
mastani
mastar
mastarid
mastarin
master
mat
mata
matc
matematik
matematikan
matematikantedomehed
matematikantedomez
matematikas
matematine
matematiz
material
materialad
materialan
materialid
materialiden
materialine
materialis
materializ
materialoid
materialoiden
materialois
materijan
mathur
mating
matk
matkad
matkadai
matkadajad
matkadajan
matkadajiden
matkajiden
matkan
matkas
matkazi
matknikoid
matknikoiden
matkoiden
matoi
matricaria
matta
matu
matud
mauno
maunt
maurisiu
mavaldkundro
mavrikii
mavrikijan
mavritanii
mavritanijan
mavzolei
max
maxi
may
maz
mb
mba
mbabane
mbaz
mbei
mbitamiz
mbitusen
mbituz
mbri
mbrik
mbrikacund
mbrikacundan
mbrikho
mbrikirjutab
mbrikirjutadud
mbrikirjutand
mbrikirjutandan
mbrikirjutase
mbrikirjuti
mbrikirjutiba
mbrikod
mbrikoid
mbrikoiden
mbrikoidenke
mbrikoiks
mbrikois
mbrikoita
mbrikoks
mbrikon
mbrikonke
mbrikos
mbrikospa
mbripagiz
mbriradai
mbriradajad
mbriradajal
mbriradajan
mbriradamha
mbriradmine
mbriradmiz
mbriratas
mbriratud
mbris
mbrusen
mc
mcensk
mcenskan
md
mdand
mdandan
mdase
mdihe
mdud
me
mebel
mebla
meblin
mec
mecad
mecadab
mecadamha
mecal
mecamez
mecan
mecanro
mecanu
mecas
mecatas
mecerikod
mecha
mechas
mechoz
meciz
meckombinat
meclind
meclindud
mecnik
mecnikad
mecnikoiden
mecoi
mecoid
mecoiden
mecoil
mecois
mecpilindan
mecstepin
mectegimis
mectunu
mectusen
mectuz
mecz
meczonas
med
medeiros
medel
meden
medenkandai
media
medicin
medicinan
medicinas
medicinine
mediciniz
medijan
medin
medkolledz
mednikova
mednogorsk
medrese
medvedev
medvedic
medvez
medz
mega
megamiks
megamix
megion
megye
mehanik
mehanikan
mehanikantedomehed
mehanikantedomez
mehanine
mehaniz
mehanizacijan
mehanizm
mehanizman
mehed
meheks
mehel
mehele
meheline
mehen
mehenke
mehid
mehiden
mehidenke
mehiko
mehikon
mehiks
mehil
mehile
mehis
mehra
mei
meid
meida
meiden
meidzi
meile
mein
meisa
meitel
meitelan
mek
mekkan
meklenburg
mekong
mekongan
meks
meksik
meksikaine
meksikalaiz
meksikan
meksikas
meksikha
meksiko
mel
mela
meladze
meled
melel
melen
meles
melestegii
melestegijad
melestehtud
meleta
meletada
meletadas
meletai
meletandan
meletoi
meletomuz
meletuz
meleuz
meleuzan
melev
melid
meliden
meliorativnijan
melis
melissa
mellic
mello
melo
melodii
mem
memfis
memorial
memorialine
memorializ
memories
men
menalaiz
menan
mendelejev
mendelejevan
mendes
menedz
mengan
menid
menihesai
menikad
menikoid
menin
menlakso
menlidn
mens
mensch
mentan
mentha
menu
menzoittud
mer
mera
merad
meran
mercedes
mercury
mercy
mere
mered
meredme
mereks
merel
merelpa
meren
merenke
merenproduktad
merenrandaine
merenrandaiz
merenrandaline
merenrandaliz
merentagaine
mererand
mererandad
mererandal
mererandaline
mererandaliz
mererandan
mererandanno
mererandatoi
mererandis
mererandpol
mererandpolel
meres
merespa
merhe
meri
meriden
meridian
merii
merijan
merikar
merikarad
merikaran
merikaranno
merikaras
merilahten
merilaivis
merilend
merilin
merima
merimatkadai
merimatkadajad
merimez
merin
meriport
meriportad
meriportaks
meriportal
meriportan
meriportanke
meriportas
merirazbainik
meriro
meris
merivaldmad
meriveden
merivedes
meriz
merkurii
merkurijan
merry
mersedes
mert
mes
mess
mest
mestizo
met
metal
metalgruppad
metall
metallad
metallal
metallan
metallanu
metallaspa
metallica
metalline
metallis
metalliz
metallkonstrukcijad
metalloid
metalloiden
metalloidenke
metallois
metalltegesiden
metallurg
metallurgii
metallurgijal
metallurgijan
metallurgijas
metallurgine
metallurgiz
metan
meteor
meteorologii
meteorologiz
metod
metodad
metodan
metodoid
metoiden
meton
metr
metrad
metran
metras
metrhasai
metrid
metriz
metro
metrod
metron
metropolijan
metropoliten
metropolitenan
metropoliteniz
metrostancii
metrostancijad
metrostancijan
metsa
mett
metz
mez
mezen
mezenin
mezereum
mezi
mezikazmused
mezikazmuz
mezja
mezo
mezquita
mg
mha
mhemb
mhnt
mhovo
mhovon
mi
mia
miass
miassan
mic
mich
michael
microsoft
mid
mida
middle
miden
midnight
midural
mif
mifi
mifiz
mifologii
mifologijan
mifologijas
mifologiz
mig
migel
migracijan
miguel
mihael
mihai
mihail
mihailov
mihailovan
mihailovic
mihailovk
mihailovsk
mihailovskii
mihe
mii
miime
mijavi
mijla
mik
mikel
mikele
mikhail
mikki
mikod
mikoi
mikoin
mikronezijan
mikrorajon
mikrorajonad
mikrorajonaks
mikrorajonan
mikrorajonas
mikroshemad
miks
mikulai
mikulain
mikun
mil
mila
milan
milanan
milanas
milanha
mile
milicijan
military
mill
mille
miller
millerovo
milliardad
millimetrad
millimetraspa
millimetrhasai
million
millionad
millioner
millionerad
millionerlidn
millionhasai
mills
milo
miluoki
min
mina
minai
mind
mindai
mine
minei
mineral
mineralad
mineralan
mineraline
mineraliz
mineraloid
mineraloiden
mineralveden
mineralvezi
mineralveziden
minho
mini
minial
miniatu
minii
minijan
minijantegim
minijasiz
minimaline
minimaliz
minimum
miniserial
minister
ministr
ministrad
ministraks
ministran
ministranke
ministre
ministrid
ministriden
ministris
ministrused
ministrusen
ministruses
ministruz
minneapolis
minnesot
minnesotan
minor
minoug
minsk
minskan
minun
minunke
minus
minusinsk
minusinskan
minutad
minutas
minute
minutes
mir
mira
miranda
mirandan
miraz
miriam
mirnii
mirnijan
mirun
mirus
mirza
mis
mishelle
miski
miss
missii
missijad
missijan
missing
mission
mississipi
mississipin
missuri
mister
mit
mita
mitc
mitis
mitte
mittus
miura
miut
mix
miz
mja
mjanmar
mjanmaran
mk
mkazmused
mkombinat
mku
mkud
mkuhusai
mkul
mkun
mkus
mkuspa
ml
mliz
mln
mlrd
mm
mn
mne
mned
mnehe
mnekilometrine
mneks
mnen
mnendel
mnenden
mnendes
mnendest
mnendez
mnent
mnenz
mnes
mnespa
mnevoc
mnevozne
mnid
mo
moa
mobiline
mobiliz
mod
modaiz
modaliz
modan
mode
model
modelid
modeliden
modeliks
modelin
modem
modern
moderne
modernizman
modi
modificiruidud
modifikacii
modifikacijad
modifikacijas
modod
modon
modpolis
mogilo
mogoc
mografii
mohamed
mohammad
mohammed
moi
moic
moid
moiden
moik
moima
moin
moinvastaiz
moipalo
moipalod
moipalon
moipalonvastaine
moipalos
mois
moisejan
moite
mokic
moknikan
moknikoiden
moks
mol
moldov
moldovalaiz
moldovan
moldovas
molekul
molekula
molekulan
molembad
molembid
molembiden
molembil
molembis
molibden
molibdenan
moll
mollu
molog
mon
mona
monako
monakon
monarh
monarhad
monarhan
monarhii
monarhijan
monasterio
monastery
monbel
monc
mondo
monedula
mong
mongolii
mongolijan
mongolijanke
mongolijas
mongoliz
monika
monorel
monoteizm
monreal
monrealihe
monro
monster
mont
montan
montaz
montbe
monte
montenegro
monterrei
montevideo
montevideon
montreal
monument
moon
mor
moraes
moral
morandi
mordovii
mordovijan
mordvinalaiz
more
morena
moreno
morfologii
mori
morii
morijad
morim
moris
morkofk
mormonad
morning
moroz
morozov
morris
morrison
mors
morsad
morz
mos
mosal
moscow
moscu
moskovii
moskovskii
moskv
moskvad
moskvalaiz
moskvan
moskvanaluine
moskvanjogen
moskvanke
moskvas
moskvaspa
moskvha
moskvhasai
mosque
most
mostotrest
mostotrestan
mot
moth
mother
motion
motor
motors
motorvagon
mouchein
mouckiven
mouckivi
mount
mountain
mountains
moura
move
movicen
movie
movies
movsk
movskii
movskijan
moz
mozambik
mozambikan
mozambikanke
mozdok
mozdokan
mp
mpo
mprodukt
mr
mramor
mramoran
mramorine
mramoriz
mri
mrs
ms
msa
msk
msu
mt
mtegimis
mto
mtv
mu
mua
muc
much
mud
muded
mudel
muden
mudenke
mudenpidajad
muga
mugaz
muglidenke
muglmetall
mugoi
mugoine
mugoiz
mugomad
mugoman
mugomid
mugomiden
mugos
mugulad
muguloid
muguloiden
muhafaz
muhammad
muhammed
muhu
muiged
muigotandma
muigotub
muiktad
muiktoid
muiktused
muiktusen
muiktusenma
muiktusid
muiktusiden
muiktusidenke
muiktuz
muiktuzgaz
muiktuzgazan
muiktuzma
muil
muilan
muit
muite
muja
mujaden
mujand
mujandad
mujandoiden
mujezerskijan
muju
mujud
mujuherneh
mujuhu
mujuid
mujuiden
mujuil
mujuiz
mujukaz
mujul
mujumetalloiden
mujun
mujuta
mujutadud
mujutimed
mujutoi
mukes
mukherdz
mul
mulatad
mumbai
mumbaihe
mumbain
mumbais
mun
muna
munad
munan
munanvuic
munanvuitte
munas
munasan
muni
munib
munich
municipal
municipaline
municipalis
municipalitet
municipalitetad
municipalitetaks
municipalitetan
municipalitetas
municipalitetha
municipalitetoiden
municipalitetoiks
municipaliz
municipio
munid
muniz
munna
murahaiz
mural
muras
murat
muravlenko
muraz
murdoiden
murenda
murendad
murendai
murendajad
murendusen
murendusid
murenduz
mureni
mureniba
murenziba
murenzihe
mureta
muretas
muretihe
muretud
murilo
murilu
murino
murinon
murman
murmansk
murmanskan
murmanskhasai
murom
muroman
mus
musca
musen
museo
museum
music
musica
musson
mussonan
mussonine
must
mustad
mustafa
mustan
mustas
mustikaine
mustikaiz
mustma
mustmeren
mustmerhe
mustmeri
mustoiden
mut
muugotid
muugotil
muupa
muz
muza
muzabur
muzasiniz
muzaveriz
muzavihand
muzei
muzejad
muzejan
muzejas
muzejha
muzelektrostancii
muzik
muzikad
muzikal
muzikaline
muzikaliz
muzikan
muzikankirjutai
muzikankirjutajad
muzikankirjutajal
muzikankirjutajan
muzikant
muzikantad
muzikantan
muzikantoiden
muzikanva
muzikas
muzikfil
muzikgrupp
muzikgruppad
muzikgruppan
muzikha
muzikkollektivan
muzikprodu
muzikprojekt
muziks
muziksa
muziktorgudele
muzikva
muzikvideo
muzizola
muzkult
muzvedim
muzvedimed
mv
mva
mvoi
mvt
mvu
mx
my
myosurus
myspace
mystery
mystic
mz
mzi
mzihe
mɐ
mə
n
na
naantali
naantalin
naar
naba
naban
nac
nacein
naceine
nach
nacht
nacijoiden
nacional
nacionaline
nacionalis
nacionaliz
nacionalizm
nacistine
nacistiz
nacistoiden
nacistoil
nad
nadez
nadi
nadim
nadu
nagoi
nagr
nagra
nagrab
nagrhen
nagrhenke
nagriz
nahi
nahin
nahiz
nahk
nahkad
nahkaiz
nahkan
nahkaspa
nahkoid
nahkoiden
nahktegim
nahotk
nai
naida
naimatoman
naimiz
naind
naindan
naindas
naindaspa
naindata
naine
nainu
naip
nairobi
naiz
naja
nak
nakhodka
naku
nal
nalaiz
nale
naloz
nam
namaste
name
namib
namibia
namibii
namibijan
namibijas
nan
nana
nanalaiz
nancy
nankin
nanvuic
napoleon
napolin
napri
naprib
napriba
napridas
naprihe
naprind
naprindad
naprindoid
nar
narajanke
nardad
narendra
naro
narod
narv
narva
narvan
nas
nasa
nasir
nask
nassaun
nastoi
nat
natal
natalia
natalija
natan
natas
nath
national
nationale
nations
nativity
nato
natrii
natrijan
naturaline
naturaliz
nature
naukluft
nauru
naurun
nausika
naval
navas
navbox
navedi
navedib
navedii
navedijoiden
navedin
navetta
navettu
navigacijan
navy
nazarovo
nazca
nazivajevsk
nazran
nb
nberg
nc
ncbi
nd
nda
ndab
ndad
ndai
ndajad
ndajal
ndajan
ndajiden
ndal
ndale
ndan
ndanke
ndas
ndase
ndasois
ndaspa
ndast
ndaz
nde
nded
ndeks
ndel
nden
ndes
ndest
ndestos
ndez
ndfartalad
ndi
ndiba
ndihe
ndikahan
ndikahiden
ndikaz
ndkodi
ndkodid
ndkodiden
ndkodin
ndled
ndlid
ndluz
ndmaha
ndmiz
ndnu
ndnuded
ndnundan
ndnus
ndnuzid
ndod
ndoid
ndoiden
ndoihe
ndois
ndom
ndoman
ndon
ndos
ndpert
ndpertid
ndpunkt
ndpunktad
ndpunktaks
ndpunktan
ndpunktas
ndpunktoid
ndpunktoiden
ndpunktoidenke
ndpunktoihe
ndpunktoiks
ndpunktois
ndsija
ndsijad
ndta
ndtahod
ndtavarad
ndtavaroid
ndtavaroiden
ndub
ndudas
ndui
nduiba
nduihe
ndun
ndund
ndundan
ndundas
ndundpa
ndused
nduses
ndusid
ndusiden
ndusil
ndusis
ndutada
ndutadas
ndutadud
ndutamha
ndutamine
ndutamiz
ndutandma
ndutase
ndutesen
nduti
ndutihe
nduz
ndz
ne
near
neb
neburg
nece
necel
necen
neche
necida
necil
necis
ned
nedal
nedalid
nedalil
nedalin
nedalis
nedheotand
need
needs
nef
neffex
nefta
neftegorsk
neftejugansk
neftekamsk
neftekumsk
negativine
negativiz
negro
nei
neic
neidis
neighborhood
neitraline
neitraliz
neiz
nek
nekamsk
nekamskan
nekkar
nekrasov
nektarad
nel
nele
nelevator
nelidovo
nell
nella
nellha
nellik
nellikkilometrad
nellikkilometrid
nellikon
nelson
nem
neman
nemel
nemen
nen
nena
nenalo
nencalaiz
nencan
nenciden
nend
nendmetall
nendtaho
nene
nened
nenid
neniden
nenidenke
nenihe
nenil
nenis
nenke
nensi
neodim
neoheresy
neolitan
neon
nepal
nepalan
nepalas
nepali
neps
nepsad
nepsoid
nepsoil
nepsois
nepsudenke
nepsut
nepsuz
neptun
neptunii
ner
nerc
nereht
nero
neru
nes
nespa
nestab
nestadas
nestle
nestusel
net
netab
netadud
netamiz
neti
netiba
netoitab
netoitand
netoitandan
netoiti
netto
netused
netusen
netuz
neue
nev
neva
nevad
nevalaiz
nevan
nevartovsk
nevartovskan
nevel
never
neviim
nevinnomissk
nevinnomisskan
nevis
nevisan
nevjansk
nevoi
nevondan
nevondkund
nevondkundad
nevondkundal
nevondkundale
nevondkundaline
nevondkundalis
nevondkundaliz
nevondkundan
nevondkundha
new
news
nez
nf
nfst
ng
nganasanan
ngc
nged
ngido
ngri
nh
nhe
nhen
nhenan
nhenas
nho
ni
niamei
niba
nic
nicc
nicholas
nicht
nick
nid
niden
nie
nietzsche
nig
nigamanke
niger
nigeran
nigeranke
nigerii
nigerijan
nigerijas
night
nights
nigrum
nigsberg
nih
nii
niid
niiden
niidenke
niihe
niil
niile
niis
niita
nijan
nijois
nik
nika
nikad
nikan
nikanke
nikaragua
nikaraguan
nikel
nikelin
niken
niki
nikita
nikitin
nikki
niklehtesed
niklehtest
nikod
nikoic
nikoid
nikoiden
nikoidenke
nikoil
nikoile
nikois
nikoitas
nikoiz
nikol
nikola
nikolai
nikolain
nikolajev
nikolajevan
nikolajevic
nikolajevsk
nikolajevskan
nikolas
nikon
nikonan
nikonz
nikos
nikov
nikova
niktofobii
nikused
nikusen
nikuz
nil
nilan
nimed
nimeks
nimel
nimen
nimenke
nimespa
nimeta
nimetoi
nimi
nimic
nimid
nimida
nimiden
nimikirjutesed
nimikirjutesen
nimikirjuteses
nimikirjuteshe
nimikirjutez
nimil
nimitada
nimitadas
nimitadud
nimitamha
nimitas
nimitase
nimitasois
nimiti
nimitiba
nimitihe
nimittus
nimitused
nimitusen
nimitusenke
nimitusespa
nimitushe
nimitusid
nimitust
nimituz
nimme
nin
nina
nine
ninen
ninevuz
ninga
ningoi
ningois
nino
nint
niobii
nirvana
nis
nison
nit
nitid
nitiden
nitmarin
nitud
nituen
nituid
nituil
nitvan
nivalan
nivea
nivhalaiz
niz
nizhny
njogen
nju
njuton
nk
nkan
nke
nkel
nkombinat
nkombinatal
nkruma
nkul
nl
nliha
nlm
nma
nman
nn
nna
nnavedii
nno
nnov
nnovsk
nnovskan
nnrot
nnu
nnuden
nnudes
no
noaa
nobel
nobela
noe
nogailaiz
nogain
nogi
noginsk
noginskan
nogorsk
nograd
noi
noid
noidak
noidustai
noiduz
noir
nojabr
noje
nok
nokia
nokian
nol
nola
nolan
nom
nomen
nomer
nomerad
nomeran
nomeranke
nomeruidud
nominalanke
nominaline
nominativ
non
nonstop
nor
nora
nord
nored
noremb
norembad
norembaine
noremban
noren
norid
noriden
noril
noris
norm
norma
normad
normaliz
norman
nort
north
northern
noruden
norudes
norv
norvegii
norvegijalaiz
norvegijan
norvegijas
norvegine
norvegiz
norway
nos
noskov
noskovan
not
nota
notgel
nothing
notked
notoc
notr
notre
nous
nouzm
nouzman
nov
nova
novan
november
novgorod
novi
novikov
novikova
novo
novoanninskijan
novoc
novodvinsk
novohopo
novokuibis
novokuzneck
novokuzneckan
novomic
novomoskovsk
novomoskovskan
novorossiisk
novorz
novos
novosibirsk
novosibirskan
novosibirskha
novosibirskhasai
novosil
novosilin
novotroick
novotroitsk
novoul
novoural
novouzensk
novovoronez
now
nowhere
noz
nozol
nozolan
nozoltadud
nozoluded
nozoluden
nozoluz
np
npa
nproduktoiden
ns
nsi
nsk
nskan
nskhasai
nso
nst
nster
nstu
nsu
nsulatusen
nt
ntegim
ntegimel
nter
ntgenii
ntta
nttud
ntv
nu
nuadibu
nuaks
nuar
nucifraga
nuded
nuestra
nug
nuia
nukus
number
numberof
nur
nurlann
nurlat
nurmes
nus
nuuk
nvastaiz
nvauktusen
nvauktust
nvuic
nvuitte
nvuittus
ny
nya
nyi
nynorsk
nz
nzid
nziden
nzihe
nzil
nzis
nzoitmaha
nzoittud
nɑ
nə
o
oan
oana
oao
oar
oazisas
ob
obama
obe
oberoi
obi
obin
obinjogen
objekt
objektad
objektaks
objektan
objektoid
objektoiden
obl
oblast
oblezjanan
obluc
obninsk
obninskan
obois
obojan
obra
obrazovanie
observatorii
observatorijaspa
obvodnii
oc
occidentalis
ocean
och
ocsein
ocseina
oct
october
od
odav
odel
oder
oderan
odess
odessan
odete
odin
odincovo
odincovon
odissei
odvad
odz
of
off
office
official
oficaline
oficer
oficialine
oficialis
oficialitoi
oficialitomiks
oficializ
ofis
ofisad
ofisan
ofispert
ofissauvuz
ofs
og
oga
ogaha
ogajo
ogajon
ogakaz
ogas
ogeruz
ogg
ogibal
ogibalad
oglu
ogu
ogv
oh
ohan
ohansk
ohar
ohjandab
ohjandai
ohjandaikund
ohjandajad
ohjandajaks
ohjandajan
ohjandi
ohjandimed
ohjandimid
ohjandimiden
ohjandused
ohjandusel
ohjandusen
ohjandust
ohjanduz
ohjanduzkund
ohjanduzkundan
ohjastab
ohjastada
ohjastai
ohjastajan
ohjasti
ohjastiba
ohjastused
ohjastusel
ohjastusele
ohjastusen
ohjastuses
ohjastust
ohjastuz
ohjatas
ohne
ohotskan
oht
oi
oid
oiden
oidenke
oidkiven
oidkivi
oidme
oidud
oiduid
oiduiden
oiduis
oidul
oidun
oidus
oiduspa
oiged
oigedpol
oigedsaumaine
oigedsaumaiz
oigendab
oigendamha
oigendamiz
oigendase
oigendused
oigendusen
oigenduses
oigendusis
oigenduz
oigenduzkund
oigenduzkundad
oigenduzkundan
oigenu
oigenzi
oigenziba
oigenzihe
oigeta
oigetas
oigetihe
oigetud
oigu
oihe
oikahad
oikaz
oiktad
oiktaha
oiktal
oiktale
oiktalpa
oiktan
oiktanke
oiktas
oiktastuseks
oikti
oiktoid
oiktoiden
oiktoil
oiktused
oiktusekaz
oiktusen
oiktusenke
oiktusid
oiktusiden
oiktusidenke
oiktusis
oiktust
oiktuz
oiktuzline
oiktuzliz
oil
oin
ois
oiteldas
oitele
oiteleb
oitelematomad
oitelemha
oja
ojama
ojan
ojat
ojatin
ojid
ojiden
ok
oka
okai
okaidud
okan
okanjogen
okanjogi
okas
okavango
okei
okha
okinavan
okino
okinon
okkervil
okkoim
okkoimen
okkoint
okkupacii
okkupacijan
okkupirui
okkupiruidud
oklahom
oklahoma
oklend
oklendan
okolad
okoladan
okoladfabrik
okrug
oks
oksad
oksal
oksana
oksford
oksfordan
oksiden
oksitanan
oksitanii
oksuine
okta
oktavian
okuiz
okulovk
okun
okvezoil
ol
ola
olan
old
olda
olden
ole
oled
oleg
oleldas
olele
oleleb
oleli
oleliba
olem
olemiz
olen
olend
olendad
olendan
olendas
olendois
olendsija
olenegorsk
oles
oleskeldas
oleskele
oleskeleb
oleskeli
oleskeliba
oleskelijad
olet
olgha
olgoi
olhav
oli
oliba
olii
olijad
olijan
olijoid
olijoiden
olijois
olimp
olimpalaiz
olimpiadva
olimpine
olimpiz
oliv
oliva
oliveira
oliver
olivija
oliz
olkovo
olkovon
oll
olmas
olmatomuden
olmatomuz
olmos
olnu
olnuded
olo
olohov
olomouc
oloncan
olonecan
olor
olud
oluden
oludentegim
oludtegim
olut
om
oma
omac
omad
omaks
omakulu
omal
omale
omaluiz
omamaht
omamahtoiden
omamahtoine
omamahtoiz
omamahtol
omamahtoline
omamahtoliz
omamahton
omamahtos
oman
omanan
omanas
omanke
omar
omas
omblemha
omblend
omblendan
omblendedheotandoil
omblendfabrik
omblendfabrikad
omblendfabrikal
omblendtegimis
omega
omid
omiden
omikron
omil
omin
omis
omitadas
omitadud
omitesed
omnia
omnibus
omod
omolungm
omon
omsk
omskan
omskportal
omsu
omtaxobox
omuden
omutninsk
omuz
on
onan
onas
once
ondrii
ondrijan
one
oneg
onegan
onego
onetomas
ong
ongrad
onho
onikidzen
onlain
online
only
onni
onov
ons
onson
ontario
oo
oomph
op
opalas
ope
open
openda
opendab
opendai
opendajan
opendajiden
opendamha
opendamine
opendamiz
opendusen
opendusenke
openduses
opendust
openduz
openduzfil
openduzkeskuseks
openduzkeskuz
openik
openikad
openikan
openikoid
openikoiden
openoffice
openuda
openui
openumha
openzi
openzihe
oper
opera
operacii
operacijad
operacijoiden
operad
operan
operas
operaspa
operator
operpajatai
opeta
opetas
opete
opeten
opoc
opochka
oppozicijan
opra
opron
optical
optik
optikan
optikas
optimal
optine
optiz
opus
or
ora
orad
oraks
oral
oralaiz
oran
oranijenbaum
oranke
oranz
oras
orav
orb
orbit
orbital
orbitan
orbitstancii
ordan
orden
ordenan
ordz
oredez
oregon
orehovo
orel
orelan
orelhasai
orenburg
orenburgan
orenburghasai
orfografii
org
organ
organad
organal
organan
organiz
organizacii
organizacijad
organizacijan
organizacijoiden
organization
organizm
organizmad
organizman
organizmas
organizmiden
organizui
organizuidud
organoiden
orgel
orhal
ori
oriden
orientalis
orientation
original
originalan
originaline
originaliz
orijalaiz
orijan
orionan
orjad
orjusen
orkestr
orkestran
orkestranke
orl
orlan
orlean
orlov
orlova
orlovan
oro
oroiden
ors
orsk
orskan
ortiz
ortodoksine
ortodoksiz
oryza
orz
os
osak
osaka
osakan
osetijan
osetinalaiz
osijek
osinniki
osiris
oskar
oskol
oskolan
oslo
osmanan
osmii
osmijan
oso
ost
osta
ostas
osti
ostin
ostmiz
ostrogoz
ostrov
ostta
osttud
osval
ot
ota
otab
otad
otago
otand
otandan
otas
otavio
otepa
other
oti
otiba
otlandii
otlandijalaine
otlandijalaiz
otlandijan
otlandiz
otmaha
otnu
otnus
oto
oton
otradnoje
otta
ottas
ottase
ottav
otten
ottiba
ottihe
otto
ottomanan
otton
ottud
ou
oud
ouen
ouhu
ouk
oul
oulainen
oulu
oulun
oun
our
ous
out
outarv
outarven
outja
outokumpu
ov
ova
ovan
ovanna
ovanni
over
overn
ovidii
ovk
ovo
ovsk
ovskan
own
oy
oz
oza
ozad
ozahuden
ozaitelemiz
ozaiz
ozakaz
ozan
ozav
ozavale
oze
ozef
ozo
ozoitesed
ozoitez
ozr
ozrikkivespa
ozrikkivi
ozutab
ozutada
ozutadas
ozutadud
ozutai
ozutajad
ozutamha
ozutand
ozutandan
ozutandata
ozutase
ozutasois
ozutelend
ozutelendan
ozutesed
ozuteseks
ozutesen
ozutesiks
ozutez
ozuti
ozutiba
ozutihe
p
pa
pablo
pac
pacher
pad
padosein
padoseina
padoseiniden
padoseinil
padui
padukone
pagan
paganic
paganusen
pagast
page
pageni
pagenijoiden
pagenu
pagin
paginad
paginaks
paginal
paginan
paginas
paginha
paginkel
paginoid
paginoiden
paginoil
paginois
pagis
pagiz
pago
pagos
paha
pahad
pahal
pahamel
pahan
pahatuk
pahoin
pahuden
pahut
pai
paidad
paide
paimio
paimnen
pain
painab
paindas
paindud
paineg
painegen
painend
painmiz
painudel
painuden
painuz
pais
pajan
pajata
pajatab
pajatada
pajatadas
pajatai
pajatajad
pajatajaks
pajatajal
pajatajan
pajatajanke
pajatajis
pajatand
pajati
pajo
pajod
pajoid
pajoiden
pajoidenke
pajois
pajoiz
pajoks
pajole
pajon
pajonke
pajos
pak
pakaine
pakaiz
pakic
pakistan
pakistanan
pakistanas
pako
paks
paksjogen
paksjogi
paksud
paksuid
paksumb
paksumba
paksus
paksuz
pakuine
pakuitesen
pakuitez
pakuiz
pakus
pal
pala
palab
palace
palacio
palad
palaeoloxodon
palah
palaha
palahiz
palahtelend
palaine
palaiz
palakahad
palakaz
palaks
palakund
palakundad
palakundan
palakundas
palal
palamiz
palan
palandan
palanke
palaruvi
palas
palaspa
palat
palatez
palatoi
palatomad
palau
palaun
paleoazijalaiz
paleolit
paleolitan
palermo
palestin
palestinan
palic
palik
pall
palladii
pallasovk
pallis
palm
palo
paloi
paloiba
paloid
paloiden
paloihe
paloiks
paloil
paloin
palois
palomnikoiden
paltin
paltna
paluoja
palustris
pan
panam
panama
panaman
panamas
panc
panda
pandas
pandemijan
pandi
pandud
pandz
paneb
panel
panelid
panemha
panend
panes
panese
pangong
pani
paniba
panihe
panoram
panorama
panoramio
pans
pantanal
panteleimon
panthera
pap
papa
papan
paper
papilio
papin
papua
papus
par
para
parad
parade
paragvai
paragvain
parahim
parahimad
parahimas
parahimiden
parahimis
parainen
paraiso
parallelid
paralleliz
paramagnetik
paramaribo
parametr
parametrad
paran
paras
parc
parden
paremb
paremba
parembad
paremboic
parfu
paris
paritetan
pariz
park
parkano
parlament
parlamentad
parlamentaks
parlamental
parlamentale
parlamentan
parlamentanke
parlamentas
parlamentha
parlamentine
parlamentiz
parlamento
parliament
parm
parma
paroil
parque
part
partii
partijad
partijan
partijanke
partijaspa
partijha
partijoiden
partitiv
partizansk
partno
party
parzid
parziden
parzis
pas
paskac
paskalino
pasklindunvuic
paslo
paso
pasport
pass
passatine
passaz
past
pasternak
pastor
pat
patel
patentad
pathe
patria
patrik
patriotine
patrisija
paugud
paul
paula
paulo
pauloi
pauloin
paulu
pautked
pautkel
pautken
pautkenno
pautkid
pautkidenno
pautkidme
pautkil
pavel
pavil
pavlan
pavlov
pavlovic
pavlovna
pavlovo
pavlovon
pavlovsk
pavlovskan
pavlovskii
paz
pazjar
pazjaren
pb
pc
pd
pdf
pe
peace
pec
pedagog
pedagogikan
pedagogine
pedagogiz
pedai
pedaiz
pedajikod
pedr
pedrad
pedran
pedranvodind
pedro
pedroi
pedroid
pedroiden
pedroin
pehmdad
pehmdanke
pehmed
peipusja
peitab
peitoic
peitol
peitsija
peittud
peitused
peituz
peizaz
pekin
pekinan
pekstud
pektinad
pel
pella
pen
pendz
pened
peneks
penel
penemb
penemba
penembha
penembis
penen
penenke
penes
penid
peniden
penidenke
penikaiz
penil
penis
pensil
penz
penza
penzan
penzaz
penzhad
penzhaine
penzhaiz
penzhan
penzhasai
penzhid
penzhiden
penzhis
people
pepsi
per
pera
perc
pereh
perehes
pereheze
pereira
pereslavl
peresvet
perevoz
perfect
performance
performed
perigelii
period
periodas
periodha
periodika
periodiz
perkussii
perm
permihesai
permin
permiz
perri
persijan
persiz
perskes
person
personad
personalan
personalijad
personaline
personaliz
personan
personaz
personid
personoiden
personoile
pert
pertid
pertiden
pertihe
pertiks
pertile
pertin
pertinke
pertinno
pertinsauvondan
pertis
peru
perun
perus
pervomaisk
pervomaiskii
pervoural
pes
peso
pesoc
pesta
pestas
pestovo
peta
peter
petergof
petergofan
petersburg
petit
petkloiz
petr
petran
petri
petrin
petrodvorecan
petroglifad
petrogradan
petropavlovsk
petropavlovskan
petroskoi
petroskoihe
petroskoihesai
petroskoin
petroskois
petrov
petrovic
petrovna
petrovsk
petrovskii
petrovskoje
petrozavodsk
petrus
petrvu
petseri
petserin
petuhov
petuhovo
petus
peugeot
pevek
pez
peza
pezad
pezas
pezeb
pezend
pezoid
pezoiteldas
pezoitelese
pfal
pfarrkirche
pg
pgc
ph
phacochoerus
phen
phh
philosophie
phineas
phleum
photo
pi
pia
pianist
pianistad
piano
pianonva
pic
picbergen
picc
picea
picture
pictures
pid
pida
pidab
pidada
pidadas
pidai
pidaiz
pidajad
pidajan
pidajiden
pidamha
pidand
pidase
pidatadud
pidatusen
pidatuz
pidemb
pidembad
piden
pidestunuded
pidetud
pidi
pidihe
pidusel
pidusen
pidust
pidustad
piduz
piduzline
piduzliz
pieksa
pieris
pigai
piguden
pigudenke
pigut
piguz
pihl
pihla
pihllind
piht
piidab
piiri
pikalo
pikc
piku
pil
pilar
pilindal
pilindmaterialad
pilindmaterialoihe
pilis
pilitis
piltsamaan
pilv
pilvan
pimed
pimedas
pimedusen
pimeduses
pimenta
pimitez
pin
pinan
pind
pindad
pindadme
pindal
pindale
pindan
pindanke
pindanno
pindaspa
pindha
pindoid
pindoil
pine
pink
pino
pinskan
pintos
pionerskii
pir
pirahan
piramid
piramidad
piramidan
piramidanvuitte
piran
pird
pirdad
pirdai
pirdajad
pirdajan
pirdajiden
pirdan
pirdand
pirdandan
pirdi
pirdoid
pirdoidenke
pirei
pirenejad
pirenejan
pirg
pirgad
pirgaine
pirgaiz
pirgoid
pirit
pirkanma
pirs
pirtas
pirtud
pis
pisin
pit
pitanga
pitbull
piter
piterihe
piterihesai
piterin
piterinke
piteris
pitte
piz
pizza
pjedras
pjer
pk
pked
pl
plac
plakac
plan
planad
planan
planet
planetad
planetal
planetan
planetoiden
planiruidud
planiruihe
planiruind
planiruindan
planiruis
planoid
planois
plans
plant
plastik
plastikan
plastikaspa
plastikpakuitesen
plastiktegesed
plastiktegesiden
plastiktorved
plastine
plat
platad
platan
platform
platformad
platforman
platin
platinan
plato
platon
plavsk
play
playing
plaza
plazm
plazman
please
plema
plenha
ples
pletindan
pleven
plo
plod
plodud
ploduid
ploduiden
ploduidenke
ploduis
plodukahusen
plodun
plotdata
plovdiv
plu
plus
plutonii
plutonijan
pm
pn
png
pnompen
pnzreg
po
pobeda
poblacio
poc
podgoric
podol
podporoz
podsolnus
poem
poemad
pohj
pohjal
pohjan
pohjanma
pohjanno
pohjoine
pohjoiz
pohjos
pohvistnevo
poig
poigad
poigaine
poigaiz
poigale
poigan
poiganpoig
poigantu
poigas
poigid
poigindam
poikpoli
poimda
poimdu
poimetis
poimind
point
pois
pojav
pojavad
pojavan
pojavas
pojavid
pokac
pokerserijan
pokerva
pokrov
pokrovsk
pol
pola
poled
polehe
poleks
polel
polen
polendusen
poleneb
poleni
polenke
polenpidai
polenpidajad
polenpidajan
polenpidajiden
poles
polespa
poletas
poleti
polevskoi
polhe
police
policii
policijalaine
policijalaiz
policijan
polid
poliden
poligon
polihe
poliklinik
polil
polimerad
polimeriden
polina
polis
polisajevo
politehnikuman
politehnine
politehniz
politeizm
politik
politikad
politikan
politikanmehed
politikanmehen
politikanmez
politikas
politine
politiz
polk
polkan
polknik
polknikan
polloi
polo
polon
polonia
polonii
poltab
poltavan
poltiba
polttud
poltuseks
poltusen
poltust
poltuz
polu
polyphon
pomeranii
pomes
pomon
pomorjen
pompad
pompiden
pon
ponc
ponce
pond
ponpei
pont
pontan
pop
popfolkpajatai
popgrupp
popgruppad
popmuzikan
popov
poppajatai
poppajatajad
popula
populariz
population
populus
por
porcellanan
pord
pordaigaiz
pordaigaline
pordaigaliz
pordaz
pordhad
pordhan
pordhiden
pordhil
pordhis
pordod
pordoks
pordol
pordon
pordonke
pordos
porec
porhovan
pori
porin
poronaisk
porsche
port
porta
portad
portaks
portal
portalal
portan
portanke
portas
porter
porthasai
portland
portlend
porto
portrait
portret
portretoid
portsmut
portu
portugalii
portugalijalaine
portugalijalaiz
portugalijan
portugalijankel
portugalijas
portugalijaspa
portugaline
portugaliz
porvoo
pos
posad
posadan
poseidon
pospolitai
possessiviz
post
poster
postindustrialine
potas
potencial
potencializ
potsdam
potsdaman
poud
poukahtusel
poukahtusen
poukahtuz
pour
pova
povorino
power
poz
pozicii
pozitivine
pozitiviz
poznan
pp
ppib
ppii
pr
pra
prabhas
prades
prag
pragan
pragas
prague
praha
prai
prajagradz
prakas
praktine
praktiz
pramozl
pramozlal
prangatist
pratap
pratense
pravdinsk
praznik
praznikad
praznikambus
praznikan
praznikeht
praznikoic
praznikois
praznuic
praznuis
pre
prefektur
prefekturad
prefekturan
prefekturas
prefekturha
prem
premier
premii
premijad
premijan
premium
pres
present
presidence
presidencia
presidency
president
preslava
presna
press
prestes
prestiz
pretorii
pretty
prezens
prezensan
prezensas
prezident
prezidentad
prezidentaks
prezidental
prezidentale
prezidentan
prezidentine
prezidentiz
pri
pride
priha
prihad
prihaine
prihaiz
prihan
prihoiden
prija
prijanka
prime
primitivine
primorsk
primorsko
princ
princan
prince
princess
princessan
prinsipi
prinsipin
prionego
priozersk
priozerskan
pris
priti
privatine
privatis
privatiz
privolz
pro
problem
problemad
problemoid
proceduras
procent
procentad
procenthasai
process
processad
processan
processas
processid
processiden
processoid
produ
productions
produkcii
produkcijad
produkcijan
produkt
produktad
produktan
produktoid
produktoiden
produktois
prof
professijad
professijan
professionaline
professionalis
professionaliz
professor
professoran
profil
profila
profilaktikan
profkolledz
profopendusen
profs
proftehnologijoiden
profu
prognoziruidud
program
programad
programan
programholitusen
programid
programiden
programm
progress
proharc
prohladnii
project
projekt
projektad
projektan
projektas
projektirui
projektiruidud
projektiruihe
projektiruind
projektiruindan
projektiruis
projektoid
projektoiden
prokopjevsk
prokopjevskan
prolativ
promise
promotiruindan
pronominad
proporcii
prospekt
prospektad
prospektal
prospektan
protaktinii
protect
protektoratan
protest
protestantad
protestantine
protestantizm
protestantizman
protestoiden
protv
protvino
provaiderad
provans
provincii
provincijad
provincijaks
provincijan
provincijas
provincijha
provincijoiden
proz
prozad
prozan
prunella
prussii
prussijan
prust
prz
ps
psad
psevdonim
psevdonimad
psevdoniman
psevdonimanke
psi
psihine
psihiz
psiholog
psihologii
psihologijan
psihologiz
pskov
pskovan
pskovhasai
psneb
psnedas
pt
pta
ptor
ptur
pturad
pu
puatje
public
publicist
publikoic
publikoitud
publine
publishing
publiz
puc
puck
pud
pudasja
pudotadud
pudotez
pudoz
pudr
pudz
puerto
pugac
puhtast
puhtastamha
puhtastandan
puhtaz
puhthan
puhthanke
puhthas
puhu
puhub
puid
puiden
puil
puine
puis
puiz
pukur
pul
pula
pulo
pulod
pumaterial
pumaterialad
pumaterialaks
pumaterialan
pumaterialiden
pun
punkt
punktad
punleiktand
punolendim
punolendimed
punolendimiden
punondan
punose
punu
pur
puran
purana
purde
purdet
pure
puri
purpurine
purpuriz
purtked
purtkeks
purtken
purtkid
purtkiden
purtkidenke
purtkil
purtkis
puru
purumas
purun
puruvedim
pus
pusan
puspa
pussy
pust
pustola
pustos
put
putegesed
putin
putkotadud
putta
puttas
putub
putui
putuiba
puvill
puvillan
puvillkanghiden
puzu
puzua
puzuhu
puzuiz
px
py
pyar
pyha
pɔ
q
que
queen
qui
quito
r
ra
raahe
rabarbar
rabat
rac
raccastai
race
rachal
rad
rada
radab
radai
radajad
radajiden
radar
radas
raddha
radha
radho
radhonuses
radhonuz
radii
radinpa
radio
radioaktivine
radioaktivis
radioaktiviz
radioelektronikan
radion
radiotegim
radiotoksine
radius
radkalu
radmaha
radmaspa
radmata
radmine
radmiz
radnik
radnikad
radnikan
radnikoic
radnikoid
radnikoiden
radnikoile
radnikusel
radnikusele
radnikusile
radnikust
radnikuz
radnikz
radod
radoi
radoiba
radoic
radoid
radoiden
radoihe
radol
radon
radonez
radonmahtoiden
radonoigendai
radonoigendajan
rados
radsijad
radsijal
radsijha
radsijid
raduz
radva
radz
raekoda
rafael
raffaele
raftsundet
raghen
raha
rahaazjoiden
rahad
rahau
rahkoi
rahkoid
rahman
rahoid
rahoiden
rahoil
rahois
rahuded
rahul
rahut
rahvahad
rahvahal
rahvahale
rahvahaline
rahvahalis
rahvahaliz
rahvahalugemiz
rahvahan
rahvahandeputatoiden
rahvahanikad
rahvahanikan
rahvahanikoid
rahvahanikoiden
rahvahanikusenke
rahvahanikust
rahvahanikuz
rahvahaniz
rahvahankel
rahvahankul
rahvahanlugemine
rahvahanlugemiz
rahvahanpramozloiden
rahvahansa
rahvahanva
rahvahas
rahvahaspa
rahvahatoi
rahvahatomad
rahvahatoman
rahvahatomas
rahvahid
rahvahiden
rahvahidenkeskeine
rahvahidenkeskeiz
rahvahidenkeskes
rahvahis
rahvahuden
rahvahudenke
rahvast
rahvaz
rai
raic
raid
raidaiz
raidan
rail
railroad
railstation
railway
rain
rainbow
raine
raining
raipur
raisa
raisio
rait
raiz
rajan
rajijs
rajon
rajonad
rajonadme
rajonaks
rajonal
rajonan
rajonanke
rajonas
rajonaspa
rajonha
rajonid
rajoniden
rajonidenke
rajonidme
rajonihe
rajoniks
rajonis
rajonkeskuseks
rajonkeskushesai
rajonkeskuz
rakanvuic
rakaspa
rakes
raket
raketan
raketoiden
raks
rakvere
ral
ralfr
ram
rama
ramallah
ramazzotti
ramenskoje
ramenskojen
ramirez
rammstein
ramon
ramos
ramuzis
ramzan
ran
rana
ranbir
ranc
rand
randad
randadme
randaks
randal
randale
randaliz
randan
randanke
randanno
randanpird
randanpirdanke
randas
randaspa
randha
randhasai
randhir
randi
randird
randirdad
randirdal
randirdan
randirdanke
randirdanno
randis
randoid
randoiden
randoidenno
randoidme
randoil
randpol
randpolel
randpolen
randpolil
randz
range
rangel
rani
ranke
ranu
ranunculus
ranvir
rao
raphanus
rapl
rapla
raplan
ras
raseborg
raspa
rasputina
rasskazovo
rastafarilaiz
rasul
rat
rata
ratas
rathaus
rattemata
ratud
ratus
raud
raudad
raudaig
raudan
raudantegint
raudasine
raudasiz
raudbeton
raudbetonan
raudbetonantegim
raudbetonaspa
raudbetonine
raudbetoniz
raudbetonkonstrukcijad
raudbetontegesed
raudbetontegesiden
raudic
raudkivend
raudkivendod
raudkivendon
raudmetallurgijan
raudte
raudted
raudtedme
raudtegim
raudteid
raudteiden
raudteil
raudtejono
raudtejonod
raudtejonol
raudtekeskust
raudtekeskustal
raudtekeskustan
raudtel
raudten
raudteplatform
raudteplatformad
raudteradnikoiden
raudtesarak
raudtesarakod
raudtesarakon
raudtesild
raudtesildad
raudtesol
raudtestancii
raudtestanciivl
raudtestancijad
raudtestancijaks
raudtestancijal
raudtestancijan
raudtestancijanke
raudtestancijanno
raudtestancijaspa
raudtestancijhasai
raudtetransport
raudtetransportan
raudteu
raudu
rauhad
rauk
raul
rauman
rautatieasema
ravahanlugemiz
ravaz
ravel
ravi
ravl
raw
ray
rayon
razbainikad
razv
razvad
rb
rbhaine
rbhaiz
rc
rd
rdab
rdajad
rdajan
rdajiden
rdamha
rdi
rdihe
rdub
rdui
rdumine
rdumiz
re
ready
reagiruib
reakcii
reakcijad
reakcijoid
reakcijoiden
reaktiviz
real
realine
realiz
realizm
realizman
rebekka
rebitadud
reboi
reboid
reboil
reboin
rec
recept
records
red
redad
redakcii
redaks
redaktor
redaktorad
redaktoran
redal
redamb
redambad
redamban
redambis
redan
redas
rede
rediff
redoid
redoiden
redoidenke
redoihe
redois
redud
reduku
redukud
redukuhusai
redukul
redukun
redukus
redukuspa
redustadud
redz
referendum
referendumal
referenduman
referendumis
reformad
reforman
reg
regima
regina
region
regionad
regionaks
regionaline
regionalis
regionaliz
regionan
regionanke
regionas
regionaspa
regionha
regioniden
regionidme
regionis
registracii
registracijad
registracijan
registracijas
registriruida
registriruidas
registriruidud
registriruihe
reglamentiruidud
regnum
regula
regulirui
reguliruidas
reguliruindorganizacii
reguliruindorganzacii
reguliruis
rehein
rei
reig
reigan
reigud
reigun
reigunke
reikjavik
reiko
rein
reina
reinan
reinland
reins
reis
reisad
reise
reisid
reisiden
reiting
reja
rekha
reklaman
reklamas
rekomendui
rekomenduidas
rekonstruiruidud
rekonstruiruihe
rekonstrukcii
rekonstrukcijad
rekonstrukcijan
rekonstrukcijas
rekord
rekordad
rekul
rekviem
rel
rela
religii
religijad
religijan
religijas
religijatomad
religijoiden
religijois
religiozine
religioziz
reljef
reljefan
rembo
remedios
remeik
remiks
remix
remixed
remixes
ren
renata
renato
renault
rene
renessansan
rengaz
rengazavtote
rengazavtotehesai
rengazavtoten
renghad
renghal
renghan
renghaze
reni
renii
renijan
renkan
reno
rensu
rep
repan
repin
report
reppajatai
representatives
repu
republic
res
research
resifi
reskveden
reskvedenke
reskvezi
reskvezis
restavracii
restavracijan
restavriruidud
restoran
restoranad
resurs
resursad
ret
return
reu
reutov
revd
revdan
reve
reveals
reverie
revolu
revolution
rez
rezende
rezerford
rezerfordii
rezervan
rezidencii
rezidencijad
rezidencijaks
rezul
rg
rga
rgad
rgaine
rgan
rgb
rgeline
rgeliz
rgenduseliz
rgendusen
rgenduses
rgendust
rgenduz
rghiz
rgkerdan
rgvalic
rha
rhamnus
rhapandud
rhapanend
rhapanendad
rhapanendata
rheum
rhinanthus
ri
ria
rian
ribeiro
ribes
ribinsk
ribinskan
ric
rica
ricar
ricarid
ricariden
richard
rid
rida
ridan
ride
rideltas
riden
riders
ridevi
riding
ridz
rience
rig
rigan
righasai
right
rih
rihan
rihard
rihe
rii
rija
rijad
rijan
rik
rikardo
riki
rikin
rikki
riko
rikob
rikoi
rikoiba
rikoihe
rikojan
rikond
rikondan
riks
rikta
riktud
ril
rilank
rilankan
rim
rimalaine
rimalaiz
riman
rimas
rimha
rin
rina
rindal
rindatada
rindataden
rindati
rindatuz
rindaz
rindhal
rine
ring
ringii
rio
riot
ripmata
ripmatoi
ripmatomad
ripmatoman
ripmatomuden
ripmatomudes
ripmatomut
ripmatomuz
ripmatont
rippub
rippui
rippujad
riptas
ris
risan
rise
rising
rist
ristad
ristan
ristikoic
ristikoitas
ristit
ristitis
ristitkund
ristitkundale
ristitkundan
ristitkundas
ristitud
ristitudvena
ristituid
ristituiden
ristituidenke
ristituil
ristituile
ristituis
ristitul
ristitule
ristitun
ristitunke
ristituspa
ristoiden
ristte
risttel
ristutud
rita
ritas
rites
ritihe
ritik
ritud
riu
riv
rivastav
rived
riven
river
rivera
rives
rivi
rivid
rivis
riz
rizvan
rj
rk
rkan
rkiz
rkperiodika
rks
rkursk
rlidnad
rm
rma
rmatud
rmingem
rn
rnberg
rnii
rnije
rnik
rnste
rnu
rnun
ro
road
rob
robert
roberto
robil
robin
robinson
robot
roc
rock
rod
rodina
rodniki
rodriges
rodrigez
rodrigo
rodul
rodun
roduspa
rodz
roff
roger
rogohein
rogosahar
rogoz
roh
rohan
rohit
rohitan
rohked
roi
rok
rokgrupp
rokgruppad
rokgruppan
rokki
rokpajatai
rokpajatajad
rol
rolid
roliden
rolin
rolis
roll
rom
roma
roman
romanad
romanan
romance
romanid
romanii
romanijalaine
romanijalaiz
romanijan
romanijanke
romanijas
romanine
romaniz
romanov
romans
romantic
romantine
romantiz
romantizm
romantizman
romeo
ron
ronal
ronaldo
room
rope
ros
rosa
rosario
rose
roseicollis
roshan
rosi
roslavl
rosneft
ross
rossan
rossi
rossija
rossos
rosstat
rostov
rostovan
rostovhasai
rotang
rotterdam
rouc
roudusen
roug
rouge
rougun
routas
routud
rov
rovanem
rover
royal
roz
roza
rozad
rozanvuic
rozmehein
rpes
rr
rs
rsk
rskan
rskii
rt
rta
rtas
rte
rtemberg
rten
rtis
rtmenvuitte
rtmudel
rtmuden
rtmudes
rtmuz
rtmuziden
rton
rtu
rtud
rtused
rtusen
rtusid
rtust
rtuz
ru
ruan
ruand
ruandan
rub
rubcovsk
rubcovskan
rubens
rubidii
rubina
rubl
rubla
rubus
rud
rudis
rudn
rudol
ruf
rugiz
ruhtinased
ruhtinasel
ruhtinasen
ruhtinasiden
ruhtinaz
ruhtinazkund
ruhtinazkundan
ruhtinazkundha
rui
ruinad
rujohein
rujoheina
ruk
rula
ruletk
ruma
rumani
run
rundan
rundas
runo
runod
runoid
runoiden
runoil
runois
runokirj
runokirjutai
runokirjutajad
runokirjutajan
runokirjutajiden
runokogoduz
ruptured
rur
rural
rurs
rus
ruse
rusia
rusked
ruskedpakuine
ruskedpakuiz
ruskedsinine
ruskedsiniz
ruskedvauvaz
ruskedvauvhad
ruskedvauvhan
ruslan
russa
russia
russian
russkii
rustam
rusttad
rusttal
rusttan
rusttanke
rusttas
rut
rutad
rutenii
ruti
rutilus
rutoiden
ruttaksid
rutu
rutulalaiz
ruz
ruza
ruzajevk
ruzajevkan
ruzan
ruzvel
rv
rva
rve
rved
rvedme
rvel
rven
rvenke
rvenno
rvenpa
rves
rvespa
rvf
rvhe
rvhesai
rvi
rvid
rviden
rvil
rvin
rvintegim
rvis
ryan
ryazan
ryazangov
rybnoe
rz
rzad
rzd
rzihe
rzte
s
sa
saamalaiz
saamen
saarbru
saarde
saare
saarija
sab
sabah
sabana
sabol
sad
sada
sadad
sadahasai
sadakund
sadal
sadale
sadan
sadas
sadaspa
sadavoc
sadeged
sadegid
sadegiden
sadhasai
sadoid
sadoiden
sadoil
sadois
sadud
saduiden
saduis
sadun
sadunkazvatusen
sadus
safonovo
sag
sagedmaiden
sagud
saguden
saha
sahalin
sahalinal
sahalinan
sahar
saharad
saharan
saharanke
saharas
saharaspa
saharrogon
sahartegim
sahel
sahni
sai
saiba
said
saihe
saiman
saint
sait
saitad
saital
saitan
saitoiden
sajad
sajan
sajanan
sajanogorsk
sajid
sakha
sakhalin
saki
sakraline
sakramento
saks
saksalaine
saksalaiz
saksan
saksankel
saksanma
saksanmaha
saksanman
saksanmanke
saksanmas
saksena
saksonii
saksonijan
sal
salairan
salam
salar
salat
salatoihe
salavat
sald
saldan
saldat
saldatad
saldatan
saldatoiden
sale
salehard
salehardhasai
salim
salis
salix
saliz
salles
salman
salo
salon
salonikid
salu
salvador
salvatto
sam
samai
samaldusiden
samar
samara
samaran
samarhasai
samarii
samarkand
sambnu
samha
samine
samir
samis
samiz
samlon
samoa
samoaks
samoan
samodiz
samsung
samucevic
samuel
samuil
samurai
san
sana
sanaa
sanad
sanada
sanal
sanan
sananke
sanantu
sanas
sanaspa
sanatorii
sanatorijad
sanatorijan
sanc
sand
sandal
sandan
sanderlend
sandra
sandro
sandz
sangadz
sanged
sanha
sanimetrhasai
sankt
sanktad
sankte
sanktuz
sanni
sanoid
sanoiden
sanoin
sanois
sanskrit
sanskritan
santa
santi
santiago
santimetrad
santimetran
santimetraspa
santimetrhasai
santjago
santo
santorin
santos
santoskoi
santus
sanu
sanub
sanuda
sanudas
sanugoi
sanui
sanutesed
sanutesen
sanutesid
sanutesiden
sanutest
sanutez
sanutud
sapna
sapporo
sar
sara
saragosan
sarah
sarahein
saraiva
sarajevo
sarak
sarakod
sarakoic
sarakoid
sarakoiden
sarakoihe
sarakoiks
sarakoil
sarakois
sarakoitas
sarakol
sarakon
sarakos
saraktehnologijoiden
saran
saransk
saranskan
sarapul
saratov
saratovan
saratovhasai
sardinii
sared
saredme
sarel
sarele
sarelpa
saren
sarenke
sarennoks
sarespa
sarg
sargsa
sarid
sariden
saridenke
sarihe
saril
saris
sarita
sarkar
sarn
sarnad
sarnaliz
sarnan
sarnipu
sarnoiden
sarov
sarovalaiz
sarovan
sars
sart
sas
sase
sasik
sasois
sasovo
sat
satai
satatadud
satatesid
satatesis
satatest
satc
satchmo
satiriz
sativa
sativus
satk
satkan
satmar
satu
saturn
saturnan
satused
satusekahad
satusekahambis
satusekahan
satusekahas
satusekaz
satuseks
satusen
satusenke
satusenladind
satusenma
satusennoks
satusid
satusiden
satusis
satust
satuz
sau
saubaline
sauda
saudan
saudas
saudihe
saudud
saue
saul
saum
saumad
saumaiz
saupsihe
sauptihe
sauptud
sauvoi
sauvoiba
sauvoihe
sauvojiden
sauvomas
sauvomha
sauvomine
sauvomis
sauvomiz
sauvond
sauvondad
sauvondal
sauvondan
sauvondanke
sauvondas
sauvondedheotandoil
sauvondgips
sauvondkivi
sauvondkolledz
sauvondmas
sauvondmaterialad
sauvondmaterialid
sauvondmaterialiden
sauvondmaterialoiden
sauvondmujud
sauvondmujuiden
sauvondtehnikum
sauvondtehnikuman
sauvos
sauvose
sauvused
sauvusen
sauvusenke
sauvusenno
sauvuses
sauvusespa
sauvusid
sauvusiden
sauvusis
sauvust
sauvuz
sauvuzvl
savaji
savannad
savannan
save
saved
savedra
savel
saven
savic
saviheiniz
savin
savo
savun
say
says
sb
sberbank
sbt
sc
scania
scatman
scen
scenal
scenarii
scenarijan
scenarist
scenaristad
scenes
scenoid
schloss
scho
school
science
scirpus
sciurus
scotland
scott
sd
se
sea
seal
sebast
sebastiao
sebez
sebr
sebra
sebran
sebranik
sebranikad
sebranikoiden
sebranikoidenke
sebrusen
sebruz
sebruzlidnad
sec
second
seconds
secret
section
see
seged
segez
segezha
seglusenke
segluz
segoib
segoitada
segoitadas
segoitadud
segoitez
segoitused
segoituz
segundo
seibhad
seic
seikh
seikhed
seikhel
seikhen
seikhid
seim
sein
seina
seinid
seiniden
seinik
seinil
seinjogi
seis
seiz
sek
sekcii
sekes
sekoimiz
sekretar
sekretariat
sekretariatan
sekretarin
seksard
seksualiz
sektor
sektorad
sektorha
sekula
sekundad
sekundariz
sekundas
sekundine
sel
selekcijan
selen
selengan
self
selim
selo
sem
semantiz
semei
semen
semendku
semendkud
semendkuhusai
semendkul
semendkun
semendkus
semendkuspa
sement
semetas
semikarakorsk
semiluki
seminarii
semned
semnid
semniden
semnidenke
semnikaz
semnil
semnis
semo
semu
sen
sena
senado
senat
senatan
senate
send
sendai
sendvic
sened
senegal
senegalan
senegalanke
senegalas
sengilein
sengiley
seniden
senke
sennheiser
senno
sent
senu
senzafine
seoul
sep
sept
september
ser
serad
serafim
serafimovic
seraks
seran
serbalaiz
serban
serbii
serbijan
serbijanke
serbijas
serbine
serbiz
serdobsk
serdobskan
serdz
serebra
sergac
sergei
sergejev
sergejevic
sergejevna
sergii
sergijev
seri
serial
serialad
serialan
serialas
serialoid
serialoiden
serialois
serii
serijad
serijan
serijas
serijaspa
serov
serovan
serpuhov
serpuhovan
serro
sertolovo
service
servisan
serz
ses
sesar
sesoto
sestrikaine
sestrikaiz
sestroreck
set
seth
seul
seulan
seulas
seulha
sevastopol
sevastopolin
severnii
severobaikal
severodvinsk
severomorsk
severoural
seversk
severskan
severskii
severt
severz
severzid
severziden
severzihe
severzis
sevil
sevilla
sevin
sex
sexy
sezon
sezonad
sezonan
sezonas
sezonine
sezoniz
sezonreisid
sfer
sferal
sferan
sferas
sg
sha
shadows
shah
shake
shallow
shasai
shatura
she
sheila
shem
shematine
shift
shinee
ship
shiraz
shopping
short
shot
should
show
shroff
shy
si
siaman
sian
sib
sibain
sibir
sibirica
sibirihe
sibirin
sibirine
sibiris
sibiriz
sic
sicilii
sid
sida
side
sidnei
sidnein
sidney
sido
sidod
sidoda
sidodud
sidoid
sidois
sidon
sidotud
sidzuok
sie
siemens
sietl
siga
sigad
sigan
sign
signal
signalad
sihe
sihesai
sihote
sii
sija
sijad
sijadase
sijadasois
sijaduseks
sijadusen
sijadust
sijaduz
sijaine
sijaks
sijal
sijaline
sijalis
sijaliz
sijan
sijanno
sijas
sijaspa
sijata
sijatud
sijazihe
sijazisois
sijha
sijhasai
sijid
sijiden
sijidenke
sijidme
sijihe
sijil
sijis
sikhad
siks
siktivkar
siktivkaran
siktivkarhasai
sil
sild
sildad
sildaks
sildal
sildan
sildanno
sildaspa
sildoid
sildoiden
sile
siled
siledad
silence
silene
silent
silezijan
silikatine
sille
siloi
silver
silvia
sim
sima
siman
simeon
simferopol
simferopolihesai
simfonii
simfonijad
simfoniz
simmons
simon
simone
simonov
simpson
simran
simvol
simvolad
simvolaks
simvolis
simvoliziruib
simvolizuruib
simvolizuruidas
simvolois
sin
sina
sinai
sinan
sind
sindai
sindi
sindzu
sine
sinei
sing
singapur
singapuran
singapuras
singer
singh
singl
singlad
singlan
single
singles
singloiden
sinha
sinine
sinis
sinivauvaz
sinivauvhan
siniz
sinkansen
sinki
sinkihe
sinkihesai
sinkin
sinkinke
sinkis
sinna
sino
sinonim
sintetine
sintetiz
sintez
sintezan
sinteziruindan
sintija
sintipop
sintipopgruppad
sinun
sinunke
sinuta
sio
sirdab
sirdand
sirdandad
sirdandan
sirdanuded
sirdanuzil
sirdarj
sirdase
sirdi
sirdiba
sirdihe
sirdmiz
sirdnikoil
sires
siric
sirii
sirijalaiz
sirijan
sirijanke
siro
sirta
sirtas
sirtihe
sirtud
sirui
sis
sisert
sistem
sistemad
sisteman
sistemanke
sistemas
sistemha
sistemiden
sister
sisu
site
siti
sitmarjad
sittud
situacii
situacijan
situacijoiden
six
siz
sizar
sizared
sizaren
sizart
sizran
sizranin
sjerra
sju
sjudad
sk
skad
skai
skaja
skan
skandii
skandinavii
skandinavijan
skandinavijas
skandinaviz
skas
skaspa
ske
skelet
skha
skhasai
ski
skid
skii
skijan
skin
sklodovskaja
skmez
sknik
sknikan
sko
skoje
skolkovo
skone
skopin
skopje
skorpion
skott
skovorodino
skrudz
skryvwyse
skta
sku
skul
skused
skusen
skusenandai
skusenandajan
skusenandmiz
skusid
skusiden
skusis
skust
skuz
skuzkirjan
skuzkund
skuzkundad
skuzkundaline
skuzkundaliz
skuzkundan
skuzkundas
skver
sky
skyline
sl
slabad
slabadaks
slabadan
slabadas
slanci
slancin
slav
slava
slavgorod
slavilaiz
slavine
slaviz
sleep
sliven
slokostind
slokostindan
slokostta
slokosttu
slovakalaiz
slovakan
slovakii
slovakijan
slovakijanke
slovakijas
slovenia
slovenii
slovenijalaiz
slovenijan
slovenijanke
slovenijas
slow
slu
sluz
sm
small
smap
smi
smile
smit
smol
smolensk
smolenskan
smolenskhasai
smolina
sms
smtown
sn
snez
snow
so
soares
soba
sobad
soban
sobanrivi
sobat
sobatal
sobatan
sobc
sobid
sobiden
sobihe
sobinkan
sobor
sobory
sobranie
soc
socialine
socialis
socialistine
socialistiz
socializ
socializm
socializman
sociologii
sociologijan
sod
soda
sodabaz
sodad
sodaha
sodahos
sodail
sodakaumis
sodakomissariat
sodakukerdused
sodakukerdusen
sodakukerduz
sodalendimport
sodalidnut
sodamatkad
sodamehed
sodamehen
sodamehiden
sodamehile
sodamemorial
sodameribaz
sodameribazad
sodamerilaivis
sodameriva
sodamez
sodan
sodapa
sodapost
sodas
sodategendoiden
sodato
sodava
sodaveikund
sodaveikundan
sodaveikundha
sodavejan
sodaz
sodha
sodoiden
sodunu
sodunuzid
sofi
sofia
sofii
sofija
sofijan
soged
sognariket
sogndal
soho
soi
soid
soiden
soidme
soil
sois
soit
soitod
soitoiden
soitoil
soitoine
soitoiz
soiton
soiverduz
soja
sojan
sok
sokaz
sokazmused
sokhas
sokol
sokolan
sokolov
sokurg
sol
sola
solac
solad
solakahan
solakahuz
solakaz
solan
solange
solar
solav
solavan
solid
soliden
soligalic
soligalich
solikamsk
soline
solis
solist
solistan
soliz
solnec
solo
sologitar
solomon
solomonan
solov
soluna
solunalaiz
solz
som
somali
somalin
somero
somuzlaud
son
sonatad
sonchus
soned
song
songs
sonia
sonija
sonu
sony
soprano
sor
sorbus
sorghum
soria
soroc
sorok
sorokin
sort
sortaval
sortavalan
sortiruindstancii
sortud
sortuid
sortuiden
sortun
sorz
sorzanvuic
sos
sosn
sosnogorsk
sosnovii
sosnovk
sosnovoborsk
soso
sossusflei
sossusvlei
sotnikova
sotonan
soul
sound
south
southern
souza
sov
sovet
sovetsk
sovetskan
sovetskaya
sovetskii
sp
spa
space
spacex
spas
spasan
spasib
spassk
spasskan
spasskoje
spb
special
specialine
specialist
specializ
specializacijanke
specializiruidud
species
speed
spektr
spektraliz
spektran
spektras
spektrofobii
spellbound
spenser
spero
spinning
spiral
spiraline
spiraliz
spirit
spirttegim
spit
spiti
split
spo
sport
sportan
sportazi
sportivine
sportiviz
sportkeskuz
sportkompleks
sportkompleksad
sportnik
sportnikad
sportpert
sports
spotted
spra
spravitadas
spravitajan
spravitamha
spravitandan
spring
springs
spumans
sputnik
square
sr
sredneural
sretenjan
sretenskan
sri
ss
ssai
ssel
sselin
ssi
st
sta
stab
stabiline
stabiliz
stadion
stadionad
stadionan
stadium
stadt
stadtbezirk
stadtteil
stadud
stage
stai
stajad
stajan
stajas
stajiden
stajis
stal
stalin
stalinan
stalingradan
stallone
stambul
stambulan
stambulha
stamha
stamiz
stamp
stan
stancii
stancijad
stancijal
stancijan
stancijanke
stancijanno
stancijaspa
stancijoiden
stancijoil
stand
standad
standal
standan
standanke
standart
standartad
standartan
standartine
standartis
standartiz
standkodi
standkodil
standkodin
standkodis
stanic
stanicad
stanicaks
stanican
stanislav
star
starican
starin
starinad
starinoic
starinoid
starinoitas
stars
start
stas
stat
state
statehouse
states
station
statistical
statistics
statistik
statistikad
statistikadwikipedia
statistikan
statistikas
statistine
statistiz
statj
statjaks
statjaline
statjaliz
statjan
statjas
statjoid
statjois
stats
statsfiji
statue
status
statusad
statusan
statusanke
statusata
stauc
stav
stavropol
stavropolihesai
stavropolin
stay
steel
stefan
stefanan
stefani
stegodon
stella
stenli
step
stepan
stephen
stepid
stepin
stepis
sterlitamak
sterlitamakan
sti
stica
stift
stihe
stil
stilid
stilin
stilis
stilizuidud
still
stiv
stiven
stl
stmaha
stnik
stnikaks
stnikan
stnus
sto
stockholm
stokhol
stone
stop
stora
storm
story
stounhendz
stranded
strangers
strasburg
strategine
strategiz
stravinskii
street
strez
strogals
stroganovan
stroi
stroican
stroicanpa
stroitel
stroj
strok
strokud
strokuiden
strokuks
strokun
strom
stroncii
stronghold
strubad
struban
struktur
strukturad
strukturan
strukturha
strunino
sts
stta
sttas
sttase
sttihe
sttud
stu
studii
studijan
studijanal
studijas
studine
studio
studiz
stumatoi
stupino
stusen
stuttgart
stuz
su
suah
suahili
subal
subarktine
subarktiz
subdialect
subekvatorialine
subekvatorializ
subjekt
subjektad
subjektan
subjektas
subjektoiden
subjektois
subkul
subsp
substancii
substancijad
substancijan
substancijoid
substancijoiden
substancijoidenke
substancijois
substantivad
substantividen
subtitrad
subtropine
subtropiz
subway
success
sud
suda
sudak
sudan
sudanan
sudananke
sudarus
sudii
sudijad
sudijoid
sudz
suecan
suffiks
suffiksad
suffiksoid
suga
sugu
sugud
suguid
suguiden
suguine
suguiz
suguku
sugukund
sugukundad
sugukundan
sugukundas
sugukundaspa
sugukundha
sugun
sugupol
suhinic
suhis
suhoi
suhon
suhonan
suhu
suhum
suim
suimad
suimal
suiman
suimas
suimha
suimid
suimiden
suimil
suite
sukre
suks
suksed
suksid
suksiden
suksil
sul
sula
suladandla
sulaku
sulakud
sulakuhusai
sulakul
sulakun
sulakus
sulakuspa
sulasa
suleiman
sulin
sulinan
suline
suliz
sultan
sultanan
sum
sumad
suman
sumatr
sumeg
sumeges
sumegusen
sumeguz
sumgajit
summer
sumosine
sun
sund
sunnitad
sunrise
sunset
sunz
suom
suomalaine
suomalaiz
suomen
suomenkel
suomenma
suomenmaha
suomenman
suomenmanke
suomenmas
super
superkupk
supermarket
superstar
sur
suran
surat
suraz
surb
sured
surehk
sureks
surel
surele
suremb
surembad
surembaks
surembal
suremban
surembanke
surembas
surembaspa
surembid
surembis
suren
surenke
surenzoittud
sures
surgut
surgutan
surhe
surid
suriden
surihe
suril
surinam
surinaman
suris
surm
surmad
surmaline
surman
surmanja
surmhasai
surmic
surmitud
surovikino
surovikinon
sursk
surt
surtte
suruded
surudel
suruden
surut
suruz
survive
survivor
sus
susana
susedad
susedkundaks
susedliz
suspa
suug
suugad
suugiden
suugikaz
suugil
suv
suvehe
suvel
suvemb
suven
suves
suvespa
suvhe
suvi
suviafrik
suviafrikan
suviafrikas
suviamerik
suviamerikan
suviamerikas
suviazijan
suviazijas
suvievropas
suvigollandii
suvikarolin
suvikorei
suvikorejalaine
suvikorejan
suvikorejas
suvikorejine
suvimeren
suvimeri
suvine
suvipa
suvipala
suvipalad
suvipalan
suvipalas
suvipohjanma
suvipol
suvipolehe
suvipoles
suvirandal
suvirandpolel
suviro
suvis
suvisahalinsk
suvisahalinskhasai
suvisavo
suvisudan
suvisudanan
suvisudananke
suviu
suviuel
suviural
suviuralan
suvivepsa
suviz
suvorov
suvorovan
suzdal
suzdalin
sv
sva
sventoks
sverdlovan
sverdlovsk
sverdlovskan
svetlana
svetlii
svetlogorsk
svetlograd
svetlogradan
svetogorsk
svg
svirsk
svo
svobodnii
sw
swamped
swan
sweet
sylvestris
symphony
symphoricarpos
syn
system
systems
sz
szczecin
sɑ
sɛ
t
ta
tab
tabad
tabada
tabak
tabakan
tabakon
taban
tabas
tabasaranalaiz
tabata
tables
tabluden
tabludes
tablut
tac
taci
tacta
tactud
tad
tada
tadas
taden
tadt
tadtan
tadud
tadz
taga
tagamal
tagaman
taganrog
taganrogan
tagapa
tagapolel
tagaz
tagaze
tagil
tagilan
tagodud
tagoi
tagokaz
tagol
tagolan
tagor
taguic
tagut
tahkoiz
taho
tahod
tahoid
tahoiden
tahoidme
tahoil
tahois
tahoiz
tahoks
tahol
taholiz
tahon
tahond
tahondad
tahondan
tahondas
tahondoid
tahondois
tahos
taht
tahtaz
tahtod
tahtoi
tahtoib
tahtoiba
tahtoid
tahtoin
tahton
tai
taibei
taig
taigan
taiger
taigin
tailand
tailandan
tailed
tailer
taimir
taimiran
tain
taipei
tais
taivan
taivaz
taivazma
taivhad
taivhal
taivhaline
taivhaliz
taivhan
taivhanro
taivhas
taivhaspa
taivhaze
taiz
tajad
tajan
tak
takaib
takaiz
take
takes
taks
taksid
taksin
taksonan
takuja
tal
talaiz
taldom
tales
talican
talid
talk
talking
tallidn
tallidnan
tallidnas
tallidnhasai
tallii
tallinn
talo
tam
tama
tamara
tambov
tambovan
tamby
tamha
tamil
tamilad
tamilan
tamine
tamiz
tamm
tammut
tampereh
tamperehen
tamsalu
tamt
tamtan
tan
tana
tanah
tanan
tanaz
tand
tandad
tandan
tandmuzei
tandmuzejan
tandoid
tanganjik
tangerang
tango
tanhal
tanhaliz
tani
tank
tanke
tantal
tantalan
tanz
tanzanii
tanzanijan
tanzanijanke
tanzwut
tap
tapia
taprobanis
tar
tara
tarabos
taran
tarbhaic
tarbhaine
tarbhaiz
tarbhas
tarbiz
tarh
tarhad
tarhan
taric
tarif
tariz
tarja
tarkan
tarkas
tarkoiged
tarkoiktas
tarkoiktemb
tarkoikti
tarkoiktusenke
tarkosale
tarkust
tarnogan
tarttas
tartu
tartub
tartun
tarus
tarusa
tarzan
tas
tase
tasman
tasmanii
tasmanijan
taspa
tat
tata
tataban
tatad
tataks
tatam
tatan
tatanke
tatanmaine
tatanmaiz
tatanman
tatar
tataran
tatarine
tatarsk
tatarstan
tatarstanan
tatas
tataspa
tatesed
tatha
tatis
tativiz
tatiz
tatjana
tatoi
tatoid
tatoiden
tatois
tatt
tatu
tau
tauern
taugaspa
taun
tavarad
tavares
tavaroid
tavaroiden
tavd
tavi
tazangis
taze
tazo
tazolugud
tazoma
tazopind
tazopindad
tazopindal
tazopindan
tazopindanke
tazopindoil
tazoristte
tazostadud
tazovaldkund
tazovaldkundad
tazovaldkundaks
tazovaldkundal
tazovaldkundaline
tazovaldkundaliz
tazovaldkundan
tazovaldkundanke
tazovaldkundas
tazovaldkundaspa
tazovaldkundha
tazovaldkundoiden
tazovaldkundois
tazvedand
tazvedandan
tbilis
tbilisi
tc
te
tears
teatr
teatrad
teatraline
teatraliz
teatran
teatras
teatrha
teatrois
teau
teborg
technology
tecii
ted
teda
tedab
tedad
tedai
tedan
tedis
tedmata
tedme
tedo
tedoakademii
tedoakademijan
tedod
tedodoktoran
tedoid
tedoidab
tedoidai
tedoidajad
tedoidajiden
tedoidamha
tedoidase
tedoiden
tedoidused
tedoidusen
tedoiduses
tedoidusid
tedoidusiden
tedoidusil
tedoidusis
tedoiduz
tedoiduzkeskusen
tedoiduzkeskuz
tedoinstitut
tedoinstitutad
tedoinstitutal
tedoinstitutan
tedoitas
tedoitud
tedoiz
tedokeskusel
tedokeskusen
tedokeskuz
tedokundad
tedolang
tedolidn
tedolidnad
tedolidnan
tedoline
tedoliz
tedomehed
tedomehen
tedomehiden
tedomehil
tedomez
tedon
tedonaine
tedonandmine
tedos
tedotadud
tedoti
tedotihe
tedoto
tedotusen
tefan
tege
tegeb
tegend
tegendad
tegendan
tegendoid
tegendoiden
teges
tegese
tegesed
tegesid
tegesiden
tegesois
tegi
tegiba
tegihe
tegii
tegijad
tegijan
tegijoiden
tegim
tegimed
tegimel
tegimen
tegimenno
tegimes
tegimid
tegimiden
tegimil
tegimis
tegint
tegod
tegoiden
tegos
tegu
tegusigal
tehas
tehasan
tehera
tehmaha
tehmine
tehmis
tehmiz
tehnecii
tehnik
tehnikad
tehnikan
tehnikum
tehnikumad
tehnikuman
tehnine
tehniz
tehnologii
tehnologijad
tehnologijan
tehnologijanke
tehnologijoiden
tehnologine
tehnologiz
tehnopark
tehnus
tehran
tehta
tehtas
tehtes
tehtihe
tehtud
tehut
teid
teiden
teidme
teikovo
teikovon
teil
teile
teilor
tein
teinan
teinii
teis
tekoi
tekst
tekstad
tekstan
tekstas
tekstil
tekstilin
tekstiline
tekstiliz
tekstoid
tektoniz
tel
tele
telecommunications
telefon
telefonad
telefonan
telekanalal
telekanalan
telekommunikacijoiden
telend
telendan
telescope
teleskop
teleskopan
televizii
televizijal
televizijan
televizijas
telii
tell
tellur
teltas
telugun
telustab
telustadas
tem
temad
tematiz
temnikovan
temperature
template
temple
temru
temz
ten
tenerife
tennessi
tennessin
tenu
teo
teodor
teorem
teoretik
teoretiz
teorii
teorijad
teorijan
teorijas
ter
tera
terad
teran
teranad
teranine
teraniz
teraraudan
terasen
terasespa
terasine
terasiz
terast
terav
teravad
teravamb
teravamba
teravan
teravas
teraz
terbii
terek
terekan
teres
tereza
terje
termaliz
termin
terminad
terminal
terminalad
terminan
terminativ
tern
ternativiz
terra
territorialine
territorialis
territorializ
territorii
territorijad
territorijadme
territorijaks
territorijal
territorijan
territorijanke
territorijas
territorijaspa
territorijha
territorijoid
territorijoiden
territorijoidme
territorijoil
territorijois
ters
tervazhein
terveh
tervehtamha
tervehtamiz
tervhen
tervhin
tervhuden
tervhudenkaic
tervhut
tervhuz
tes
tesauvondan
tesla
test
tet
teta
tetab
tetabad
tetabaks
tetabamb
tetabambad
tetabambis
tetaban
tetabanke
tetabid
tetabiden
tetabis
tetabut
tetabuz
tetad
tetal
tetan
tetas
tetihe
tetpaiz
tetpas
tetraedr
tetu
teveril
tevtonan
texas
text
tez
tezi
tfil
tfrac
tg
th
tha
than
thasai
that
the
theater
theatre
their
thejo
themin
theotokos
there
they
this
tho
thomas
thosai
three
through
thumb
thumbnail
ti
tiago
tiba
tiban
tibet
tibetan
tif
tiger
tight
tigorsk
tigorskan
tigr
tigran
tigriden
tigris
tihe
tihed
tihedas
tiheduz
tihon
tihuan
tihvin
tihvinan
tii
tijaiz
tijan
tik
tikhvin
tikod
tikv
tikvan
til
tilia
till
tilliiz
tiltukaine
tim
timan
timas
timati
time
timed
timelapse
times
timesofindia
timis
timofei
timofeik
timor
timoran
timos
timur
tin
tina
tinan
tinativine
tind
tine
tint
tip
tipad
tipan
tipine
tipiz
tiplikacine
tippud
tir
tiran
tiranan
tiraz
tirii
tirol
tirpi
tirreniz
tirui
tirvan
tis
tisel
tit
titan
titanan
titanoiden
tivine
tiviruidas
tiviz
tiz
tj
tjuring
tk
tkan
tkeks
tkeline
tkeliz
tkemb
tkemba
tkembad
tkemban
tken
tkino
tkod
tkonor
tksi
tksihe
tktab
tktas
tktase
tkte
tktuz
tku
tkurs
tkustub
tkustui
tl
tlehtpol
tlehtpolid
tlemha
tlese
tlesois
tlugemiz
tm
tmatoi
tmed
tmen
tmiz
tn
tnic
tnik
tnikad
tnikaks
tnikan
tnikoid
tnikoiden
tnt
to
tob
tobago
tobagon
tobj
tobjad
tobjan
tobjas
tobjimalaz
tobmad
tobman
tobmas
tobmiden
tobmin
tobmudehe
tobmudel
tobmudele
tobmuden
tobmut
tobmuz
tobol
tobolan
toc
tod
toda
todas
today
todd
todeks
todesine
todesis
todesiz
todesti
todis
todme
todud
todusen
toduz
toei
together
togo
togon
toguc
toh
tohesiz
toi
toiba
toid
toiden
toidenke
toiged
toihe
toiktad
toil
toine
tois
toist
toitab
toiti
toitiba
toitihe
toitta
toittud
toituses
toituz
toiv
toivod
toivon
toiz
tok
tokaz
tokio
tokioho
tokion
tokios
toks
toksine
toksiz
toksovo
tokugava
tokyo
tol
tole
toledo
toline
toliz
tolmac
tolokonnikova
tolpa
tolstoi
tolstoin
tom
tomad
toman
tomarad
tomas
tome
tomen
tomha
tomijama
tomin
tommi
tommot
tomsk
tomskan
ton
tond
tondan
tong
tonga
tongan
toni
tonight
tonke
tonnad
tonnas
tonnel
tonnelid
tonnhasai
tonno
tonnoid
tonsauvomine
tonsauvomiz
too
top
tophiks
topki
topografine
topol
toponim
toppaz
tor
tora
torac
torad
toradajiden
toradamha
torafil
toran
toras
torata
toraziba
torg
torgovan
torgovanad
torgovanan
torgovanoiden
torgovanoil
torgud
torguihe
torguimiz
torguind
torguindal
torguindan
torguindas
torguindkeskused
torguindkeskusen
torguindkeskuz
torguindlidn
torguindlidnaks
torguindmark
torguindmarkad
torguindmarkan
torguindmas
torguindmeriport
torguindpartno
torguindrived
torguindrivid
torguindrividen
torguindted
torguindteiden
torguindteil
torguindu
torguindz
torgul
torgun
torgusel
torgusen
torguspa
torguz
torhudeks
torhudel
torhuden
torhudespa
torhut
torhuz
toriden
torii
torijan
tornio
torok
torokad
torokan
toroknik
toronto
toronton
toropec
toropecan
torres
tort
torun
torv
torved
torviden
torvut
torvveimiden
torz
tos
toslav
tosno
tosnon
tospa
tot
tota
total
totaran
totarlaiz
totma
toto
touch
tough
tour
tower
town
towns
toy
toyota
toz
tozi
tozimel
tpacaz
tpachad
tr
tra
trad
trade
tradicijan
tragedii
tragedijan
trahmal
trahmalan
trail
trailer
train
trakt
traktal
traktan
traktorad
tramvai
tramvaid
tramvain
trance
transaktinoidine
transfiguration
transformatorad
transit
transkripcii
translativ
transmissii
transplutonine
transport
transportad
transportaks
transportan
transportine
transportiruind
transportiz
transportmas
transportsol
transportteiden
transporttesol
transsib
transsibad
transsibal
transsiban
trass
trassadme
trassan
trassanke
trasse
travel
travi
travib
travii
travijad
travijoid
tre
tred
tree
trees
treiler
treks
tren
trener
trenpoig
trentu
tres
trevor
tri
trier
trikotaz
triller
trillerad
trilleran
trilogijan
trinidad
trinidadan
trinity
trio
trip
tripoli
trir
triumfaline
trln
tro
trofimov
troick
troickan
troickoje
trolleibusad
tromso
tronheim
tropikois
tropine
tropiz
trotuarad
tru
trubaduran
trubc
true
trujillo
trus
truth
ts
tserialad
tso
tsvanan
tt
tta
ttas
tte
tten
ttepajo
tti
ttihe
ttingen
ttu
ttub
ttud
ttudas
ttui
ttujad
ttujan
ttujid
ttutab
ttutaden
ttutoitud
tu
tuapse
tuapsen
tub
tuberkulo
tuc
tud
tuda
tudas
tudud
tuh
tuha
tuhad
tuhaiz
tuhal
tuhan
tuhas
tuhaspa
tuhazesai
tuhiden
tuhk
tuhkan
tuho
tui
tuiba
tuihe
tuimazi
tukuil
tukuiz
tul
tula
tulan
tularegion
tulda
tuldas
tule
tuleb
tuleban
tulebas
tulen
tulend
tulendad
tulendaks
tulendan
tulendanno
tulendas
tulendha
tules
tulese
tulgat
tulhasai
tuli
tuliba
tulihe
tulii
tulijad
tulijan
tulijas
tulijoid
tullei
tulleid
tulleikaz
tulleil
tulleimellic
tullein
tulleis
tulnu
tulnuded
tulun
tuluzan
tum
tumha
tun
tundad
tundal
tundan
tundis
tundmatoi
tundmatoman
tundmust
tundoid
tundoiden
tundr
tundran
tundras
tundsija
tundused
tundusen
tundusiden
tunis
tunisan
tuntken
tunu
tunuded
tunuziden
tunuzile
tur
tura
turad
turaks
tural
turan
turas
turbaz
turbhan
turbis
turdus
turha
turin
turine
turinsk
turistad
turistine
turistiz
turistoid
turistoiden
turiz
turizm
turizmal
turizman
turja
turk
turkad
turkan
turkanma
turkanmaha
turkanman
turkanmanke
turkanmas
turkazmuseks
turkeskusen
turkeskuz
turkey
turkmenalaiz
turkmenbas
turkmenistan
turkmenistanan
turku
turkun
turm
turoid
turoiden
turois
turpert
turrevolu
turus
tus
tused
tusel
tusen
tusenke
tuses
tusespa
tuseta
tushe
tusid
tusiden
tusk
tust
tutab
tutabaks
tutada
tutadas
tutadud
tutajev
tutand
tutandan
tuttgart
tuv
tuvalaiz
tuvalu
tuvalun
tuvan
tuz
tuzkeskuz
tuzlan
tv
tvad
tvardovskii
tver
tverihesai
tverin
tvitter
tvoiden
twice
twicecoaster
twitter
two
typha
tyumen
tz
tza
tzon
tə
u
ua
uait
uaks
uan
uaz
ub
uban
ubert
uc
ucoz
ud
uda
udab
udac
udan
udand
udase
ude
uded
udegelaiz
udehe
udeks
udel
udele
uden
udenke
udenma
udenno
udes
udesnimitadud
udesnimiti
udesnimitihe
udessaudihe
udessaudud
udessu
udhe
udho
udis
udit
udja
udmiz
udmurt
udmurtalaiz
udmurtan
udmurtijan
udod
udoid
udoiden
udoil
udois
udokahas
udokaz
udol
udoml
udon
udonsa
udos
udovo
udub
uduk
udz
ueils
uel
uells
uert
uest
uf
ufa
ufahasai
ufalei
ufalein
ufan
ug
ugan
ugand
ugandan
ugar
uginon
ugja
uglegorsk
uglic
ugol
ugrilaine
ugrilaiz
ugun
uhan
uhloman
uhoku
uhokud
uhokuhusai
uhokul
uhokun
uhokus
uhokuspa
uht
uhtan
uhundused
uhundusen
uhundusenke
uhunduses
uhundusespa
uhundust
uhunduz
ui
uid
uiden
uidenke
uil
uile
uill
uilson
uine
uinston
uis
uit
uitod
uitoid
uitois
uiton
uitos
uiz
ujad
ujan
ujar
ujelii
ujelijad
ujiden
ujub
ujuda
ujudas
ujuden
ujui
ujumaha
ujund
ujundan
ujundbassein
uk
uka
ukac
ukaine
ukaiz
ukan
ukas
ukc
ukotkan
ukov
ukova
ukovan
ukovskii
ukr
ukrain
ukrainalaine
ukrainalaiz
ukrainan
ukrainanke
ukrainas
ukrainaspa
ukrainha
ukrainine
ukrainiz
uks
uksed
uksiden
ul
ula
ulaiz
ulan
ulanbatar
uli
uliana
ulija
ulijo
ulim
uliman
ulkoiden
ulm
ulmus
ultimate
ulus
ulusan
um
uma
uman
umbemeren
umbezjur
umbis
umbur
ume
umeda
umerl
umerlin
umhurijat
umih
umis
umm
un
una
unad
unadusid
unadusita
unaks
unal
unan
unanke
unanno
unantagaiz
unanverine
unanveriz
unas
unaspa
unatab
unatadas
unatud
unatusita
unborn
uncin
und
undad
undakt
undaktan
undan
undas
undaspa
under
underground
underside
undkirjutesen
undkirjutez
undkodi
undkodin
undkodis
undoid
undoiden
undtaho
une
unec
uned
unen
unes
unesco
unhasai
unhed
unheilig
unhis
uni
unidos
unihein
uniheiniz
unik
unikuva
unikuvad
unikuviden
union
unior
unis
unit
unitarine
united
universal
universaline
universaliz
universe
universitet
universitetad
universitetan
universitetas
universitetaspa
universitetha
universitetiz
universitetoiden
universitetois
university
unke
unkeira
unleashed
unma
unman
unohta
unohtada
unohtadud
unoid
unoiden
unoidenke
unoidme
unoil
unois
unotest
unotez
unpa
unplugged
uns
untegim
unter
unz
uolt
uolter
up
upar
upiaq
upotadud
uppsal
uppsalan
ups
upsi
ur
ura
urad
uradused
uradusel
uradusen
uraduses
uradusis
uradust
uraduz
ural
uralal
uralan
uraline
uraliz
uralma
uran
uranad
uranan
urankivend
uraspa
uratud
urbad
urban
urbid
urdu
uren
urengoi
urengoin
urho
urikan
urin
urinsk
urinskan
url
urmila
urokoid
ursi
uru
urud
urugvai
urugvain
uruid
uruiz
urun
urunvuic
urunvuitte
urupolis
urus
urz
us
usa
usadib
usadibad
usadiban
use
used
usen
usenke
userbox
uses
usespa
usetoi
usets
usetsan
ushe
usid
usiden
usinsk
usis
uskmatoi
usko
uskojad
uskojid
uskojiden
uskon
uskond
uskondad
uskondan
uskondoiden
usktas
usman
usol
usolye
usovai
usovoi
usovoin
uspa
uss
ussuri
ussuriisk
ussuriiskan
ust
uste
ustjan
ustje
ustu
usuan
ut
uta
utada
utadud
utai
utajaks
utamha
utan
utas
utc
utest
utez
utezpunkt
utihe
utkenke
utmis
utmiz
utrehtan
uttar
uttas
uttihe
uttud
utud
uu
uuk
uukkanghiden
uuktel
uunan
uusikaarlepu
uusikaupunki
uv
uva
uvalad
uvarovo
uvas
uy
uz
uzbekad
uzbekalaiz
uzbekan
uzbekistan
uzbekistanan
uzbekistanha
uzen
uzeppe
uzi
uziba
uzid
uziden
uzihe
uzin
uzis
uzlovai
v
va
vac
vaccinium
vad
vadim
vador
vadoran
vag
vagahaiz
vagner
vago
vagod
vagolindunvuic
vagon
vagonad
vagonan
vagondepo
vagonoid
vagonoiden
vagzal
vagzalan
vahn
vahv
vahvis
vahvuz
vai
vaig
vaigan
vaihed
vaihel
vaihen
vaihespa
vaihid
vaihiden
vaihis
vais
vaitti
vajaguden
vajeh
vajehnik
vajehnikad
vajehnikan
vajeht
vajehtab
vajehtada
vajehtadas
vajehtadud
vajehtamata
vajehtamha
vajehtamiz
vajehtase
vajehti
vajehtiba
vajehtihe
vajehtimeks
vajehtub
vajehtui
vajehtused
vajehtuseks
vajehtusen
vajehtuseta
vajehtusid
vajehtusiden
vajehtusidenke
vajehtusita
vajehtust
vajehtuz
vajil
val
valaam
valaaman
valadas
valamiz
valatajan
valatoitab
valatoitai
valatoitandad
valatoitandanke
valatoiti
valatoitiba
valatoitusen
vald
valdai
valdain
valdan
valdatused
valdatusid
valdatusiden
valdatusidenke
valdis
valdkund
valdkundad
valdkundadme
valdkundaks
valdkundal
valdkundale
valdkundaline
valdkundalis
valdkundaliz
valdkundan
valdkundanke
valdkundas
valdkundaspa
valdkundha
valdkundkel
valdkundkeled
valdkundkelespa
valdkundmaksoiden
valdkundmehed
valdkundmehen
valdkundmehid
valdkundmehiden
valdkundmez
valdkundoid
valdkundoiden
valdkundoidenke
valdkundoidme
valdkundoihe
valdkundoil
valdkundois
valdkundro
valdkundvalu
valdkundznam
valdkundznamad
valdkundznaman
valdmad
valdmered
valdmeren
valdmerenke
valdmererandan
valdmererandatoi
valdmeres
valdmerespa
valdmerhe
valdmeri
valdmeriden
valdmerimad
valdmerimaiden
valdmerimais
valdmerine
valdmeriz
valdmert
valdmoid
valdmoiden
valdmoidenno
valdoic
vale
valensii
valensijan
valentin
valentina
valerian
valerii
valerija
valfar
valg
valga
valgan
valic
valita
valitas
valitihe
valitud
valkeakoski
vall
valle
vallenato
valley
valu
valud
value
valuikad
vampir
van
vana
vanadii
vanadijan
vanadzor
vanessa
vang
vangogh
vanh
vanhad
vanhal
vanhan
vanhas
vanhemb
vanhemba
vanhembad
vanhemban
vanhid
vanhtunuden
vanhuskolaiz
vanii
vanijan
vank
vankuver
vanoikahas
vanoikaz
vantaa
vanuatu
vanuatun
vanuim
var
vara
varad
varadase
varadusen
varaezimest
varaezimez
varagubernator
varagubernatorad
varaida
varaiduz
varaikoi
varaita
varalendimport
varamest
varan
varapa
varapalad
varaprezident
varaprezidentad
varaprezidentan
varasta
varastadas
varastamata
varastusen
varatoitab
varatoitamha
varatoitandata
varatoitmaha
varaz
varcenegger
varded
vardel
varden
vardo
varela
vargasta
vargastadud
vargastamatoi
vargaz
varghuz
varha
varhapandas
varhapanemha
varhapanend
varhapanendal
varhapanendan
vari
variant
variantad
variantal
variantan
varija
various
varis
varjoic
varkaus
varma
varmdad
varmdust
varmduz
varmed
varmitadud
varmitamha
varmitez
varmitihe
varmitusen
varmituzkompanijan
varn
varoid
varoiden
vars
varu
varud
varuitoi
varuitomuden
varuitomut
varukaz
varuline
varuliz
varun
varvara
varz
varzil
vas
vasad
vasil
vasileostrovskii
vasilii
vasilijan
vaskma
vasko
vast
vastaimiz
vastaiti
vastaiz
vastal
vastata
vastc
vaste
vastha
vasthalibundan
vasthapa
vasthein
vastkarin
vastma
vastmel
vastrandal
vastsi
vasttab
vasttahtod
vasttas
vasttase
vasttuz
vastust
vastustajad
vastustelendan
vastustusen
vastustuz
vastuz
vatanabe
vatikan
vatikanan
vatjerra
vatken
vatson
vauged
vaugedja
vaugedjogen
vaugedmeren
vaugedvena
vaugedveriz
vauktad
vauktaks
vauktal
vauktan
vauktanke
vauktoiden
vauktus
vauktusen
vauktuses
vauktust
vauktustusen
vauktuz
vauktuzvozid
vaumic
vaumis
vaumita
vaumitadas
vaumitas
vaumitihe
vaumitud
vaumiz
vauvaz
vavilonan
vaz
vaza
vcik
vd
vdub
ve
veb
veber
ved
veda
vedab
vedada
vedadas
vedadud
vedai
vedajad
vedajan
vedamha
vedamiz
vedand
vedandan
vedas
vedase
vedatadas
vedatamha
veded
vedel
veden
vedenalaine
vedenalaiz
vedenke
vedes
vedespa
vedhe
vedhuden
vedhudetoi
vedhuz
vedi
vediba
vedihe
vedim
vedimdepo
vedimed
vedimen
vedimiden
vedint
vedusen
vedusenke
vedust
vedutte
veduz
vegas
vegetacijan
vegetacine
vegetativiz
vei
veiba
veic
veicarii
veicarijan
veicarijanke
veicarijas
veicarine
veicariz
veihe
veik
veimar
veimaran
veimed
veimid
veimiden
vejad
vejan
veks
vel
velaskez
vele
velg
velgad
velgha
velgsanad
velgsanoid
velgusenta
velgusid
velgusiden
velgusidme
velgusine
velgusis
velgusiz
velikije
veliko
veline
veliz
velizh
vell
velled
vellen
vellenke
vellesed
velleskaum
vellest
velliden
vellindam
vellington
velosipedad
velosipedan
velosipediden
velovoibuiz
velvet
vemb
vemha
ven
vena
venan
venas
venc
vencad
vencan
vencastusen
vencut
vend
vendan
venecii
venecijan
venecijas
venecijha
veneh
venehed
venehen
venehid
venehiden
vener
venera
veneral
veneran
venesuel
venesuelan
veniamin
venke
veno
venon
venos
ventila
ventura
venub
venudas
venui
venus
vep
veps
vepsa
vepsla
ver
vera
verai
verajad
verajan
verajanno
verakrus
veraz
verazmaiz
verazmalaiz
verazplanetalaiz
verb
verbad
verblu
verboid
verboiden
verboidenke
verboil
verd
verdad
verde
verden
verdi
verdoin
verel
veren
veres
veresed
veresid
verestai
verez
verf
verhad
verhas
verhid
verhiden
verhis
verhiz
verhoturje
verhovaz
veri
verk
verkkamer
verkod
verkoiden
verkon
verkos
verma
vermont
verner
vero
verod
veroid
veroiden
verois
veroline
verolis
veroliz
veron
veronika
verotego
versii
versijad
versijan
versijas
versijoid
versijois
version
vert
very
ves
vesenvastaine
veski
vesnuhheiniz
vespa
vesprem
vest
vestern
vestfalii
vesti
vestibu
vestminsteran
vestr
vet
vetlug
vetme
vez
veza
vezad
vezi
vezic
vezid
veziden
vezijagandal
vezikod
vezilanktend
vezilanktendad
vezilanktendan
vezile
vezinik
vezinikad
vezinikan
vezinikaspa
vezinouzendan
vezipuru
vezipurun
vezis
vezite
veziten
vezivalu
vezivaradim
vezivaradimed
vezivaradimen
vezivaradimespa
vezivaradimhe
vezivaradint
veziz
vezoid
vezoil
vf
vhe
vhesai
vi
via
viborg
viborgan
viburnum
vic
vicente
vicenza
vicia
victoria
victory
vid
vida
vidal
videks
videl
viden
videnden
videndes
videndest
videndestos
videndez
videnke
vident
videnz
video
videod
videoklip
videoklipad
videon
videos
vides
videspa
vidhe
vidnoje
vidz
vie
vieira
view
views
vig
viga
vigoid
viha
vihand
vihandad
vihandaks
vihandan
vihandoiden
vihanikoiden
vihankandajad
vihe
viher
vihm
vihmad
vihmakaz
vihman
vihmmecoiden
vihmoiden
vihmsezon
vihmsezonan
vihmub
vihos
vii
viii
viipur
viipurin
vik
viki
vikiaitas
vikimedii
vikimedijan
viking
vikingoiden
vikipedii
vikipedijad
vikipedijan
vikipedijas
vikipurtkis
vikram
viks
viksan
viktor
viktoria
viktorii
viktorija
viktorijan
viktorovic
vil
vila
vilgan
vili
viljandi
vill
villa
villad
village
villan
villas
ville
villem
vilppul
vilu
vilud
vilugoitimed
vilugoitimiden
vilugoittud
viluhein
viluhk
viluku
vilukud
vilukul
vilukun
vilukus
vilukuspa
vilumb
vilun
vilus
vilusodan
vin
vina
vinad
vinan
vinc
vincent
vindhuk
vingl
vinglan
vinmarj
vinmarjan
vinmarjz
vinnic
vinnican
vinod
vinsent
vinsentan
vintaz
vintegim
vinyl
vio
viol
viola
violine
violiz
vip
vir
vira
virdz
virgin
virginii
viri
virifabrik
virkand
virkeh
virkmine
virktas
virrat
virtualine
virtualiz
viru
virun
virusad
virusan
virusoiden
virzud
virzuid
vis
viskonsin
visl
vislan
vismut
visockii
vista
vit
vita
vitalii
vitamin
vitaminad
vitaminoid
vitebsk
vitebskan
vitegr
vitegran
viti
vitis
vitk
vitkos
vitkotud
vitor
vitoria
viva
vival
viviane
viz
vizantii
vizantijan
vizualine
vizualizacii
vjetnam
vjetnaman
vjetnamas
vk
vkontakte
vku
vkud
vkul
vkun
vkus
vkuspa
vl
vlada
vladikavkaz
vladikavkazhasai
vladimir
vladimiran
vladimirhasai
vladimirovic
vladimirovk
vladimirovna
vladislav
vladivostok
vladivostokan
vladivostokhasai
vll
vlpa
vlspa
vltav
vn
vnfst
vo
vobl
voc
vocal
voce
voded
vodehesai
vodeks
vodel
vodele
vodelpa
voden
vodenke
vodenkeskeine
vodes
vodespa
vodhe
vodhesai
vodilaiz
vodin
vodkan
voi
voib
voiba
voibis
voibuiz
voice
void
voidas
voigoi
voik
voikud
voikuva
voimujupirdai
voimujupirdajad
voimujupirdandan
voimused
voimusenke
voimuseta
voimusetoi
voimusid
voimusine
voimusiz
voimust
voimuz
voin
voinad
voinan
voind
voinuiz
vois
voitegim
voix
voiz
vojevodin
vokal
vokalid
vokaliden
vokaline
vokalist
vokzal
vol
vola
volc
volcano
volg
volga
volgan
volgas
volgaveren
volgha
volgodonsk
volgograd
volgogradan
volgogradhasai
volgorec
volhov
volhovan
volhovstroi
volimpiadan
volkhov
volkov
volkswagen
voloc
volodarsk
vologd
vologda
vologdan
vologdhasai
volok
volokolamsk
volokolamskan
volosovo
volosovon
volost
volostid
volostihe
volostin
volostis
volume
volvo
volz
von
vor
vorkut
vorob
voron
voronez
voronezh
voros
vorsm
vos
voskresensk
voskresenskan
vot
votkinsk
votkinskan
vottus
vov
vovan
voyage
voz
vozhega
vozid
voziden
vozihesai
vozil
vozile
vozis
vozne
voznesen
voznesenjan
vp
vr
vroclav
vroclavan
vs
vsevolod
vsevoloz
vsk
vskan
vsodan
vspa
vu
vub
vud
vuda
vudu
vui
vuitte
vujan
vul
vulgaris
vulkan
vulkanad
vulkanan
vulkaniz
vulkanoiden
vulkanoil
vulpes
vun
vund
vundan
vuoks
vutab
vutada
vutadas
vutaden
vutadud
vutagoi
vutai
vutajad
vutajid
vutajiden
vutamas
vutamha
vutamine
vutamiz
vutand
vutandad
vutandan
vutandanke
vutandas
vutandata
vutandha
vutas
vutase
vutasois
vuti
vutiba
vutihe
vv
vybory
vz
w
wa
waaf
wahrheit
walk
walking
wall
wanna
want
war
ward
warning
warriors
wars
warsaw
was
wash
washington
wat
watch
water
way
we
weather
web
webelements
webm
weg
wegue
weiße
welcome
wells
welt
werk
west
western
what
whc
when
where
white
who
why
wi
wide
width
wie
wien
wiki
wikimania
wikimedia
wikipedia
wikispecies
wild
wildpark
will
willem
william
win
wind
windir
window
windows
wing
wings
winter
wipo
wir
wish
with
within
without
wka
wolf
wolfgang
woman
women
won
wood
word
works
world
worry
wr
wroclaw
wu
wwe
www
x
xa
xiii
xiv
xix
xv
xvi
xx
y
ya
yaki
yandex
yar
yaroslavl
yb
ye
year
years
yeh
yellow
yes
york
you
young
your
yours
yourself
youtube
ytteita
yu
yyyy
z
za
zabaikal
zad
zadonsk
zagreb
zags
zai
zaiceva
zainskan
zaksen
zal
zalan
zalas
zalesskii
zambezi
zambii
zambijan
zambijanke
zamk
zamkad
zamkan
zan
zanevk
zanevkan
zanihesai
zanin
zaozer
zaozo
zapola
zaporoz
zara
zaraisk
zarec
zas
zastav
zato
zavet
zavetan
zavetoic
zavod
zavodi
zavodib
zavodiba
zavodida
zavodidas
zavodihe
zavodind
zavodindad
zavodindan
zavodindas
zavodindaspa
zavodis
zavodoukovsk
zavolz
zavotta
zavottihe
zavottu
zda
zdf
zdviz
ze
zealand
zei
zeit
zeiten
zejan
zel
zelandii
zelandijan
zelandijas
zelandijha
zelenodol
zelenogorsk
zelenograd
zelenogradsk
zelenskii
zell
zella
zellid
zelliden
zelmer
zelo
zemplen
zemskii
zen
zenit
zenitan
zenvo
zepetrovskan
zerklod
zerkol
zernograd
zero
zev
zevs
zevsan
zh
zho
zi
zid
ziden
zigmund
zihe
zii
zijad
zikirjutuz
zil
zim
zimbabve
zimbabven
zin
zinaida
zinan
zine
zinger
zino
zinta
zip
zira
ziradajiden
zis
zit
zita
zitan
zito
ziz
zlatoust
zlatoustan
zline
zliz
zm
zn
znam
znamad
znamaks
znaman
znamasine
znamasis
znamasiz
znamensk
znamoic
znamoid
znamoita
znamoitas
znamoitud
znikan
zo
zoja
zolotuhhein
zolus
zon
zonad
zonaks
zonal
zonan
zonas
zone
zonha
zonois
zoo
zoofobijan
zoolog
zoopark
zooparkas
zoopuis
zor
zori
zorro
zos
zovec
zovecan
zovskii
zovskijan
zr
zu
zub
zubcov
zubr
zubrad
zugoi
zui
zujevo
zujevon
zulun
zum
zumha
zumiz
zund
zundad
zundoid
zundois
zur
zuta
zutab
zutadud
zutai
zutajan
zutamha
zutand
zutandan
zutandas
zutihe
zvenigorod
zverevo
zvo
zw
zwar
zwei
{
|
}
~
«
°
±
²
³
´
·
»
½
¿
×
ß
æ
ð
ðe
÷
ø
đ
ł
ŋ
œ
ƛ
ɐ
ɑ
ɔ
ɕ
ə
ən
ɛ
ɜ
ɡ
ɡa
ɤ
ɪ
ɵ
ɹ
ɾ
ʁ
ʃ
ʉ
ʊ
ʌ
ʒ
ʔ
ʰ
ʱ
ʲ
ʷ
ʻ
ʼ
ʼʼ
ʾ
ʿ
ˀ
ˁ
ˈ
ˌ
ː
ːˈ
ˑ
ˠ
ˣ
ˤ
˥
̀
́
̂
̃
̄
̆
̇
̈
̉
̊
̋
̌
̓
̔
̝
̞
̟
̠
̣
̥
̦
̧
̨
̩
̪
̯
̰
̱
͂
ͅ
͡
α
β
βος
γ
δ
ε
ει
ζ
η
θ
ι
κ
και
λ
μ
μα
μω
ν
ξ
ο
ου
π
ρ
ς
σ
σου
τ
το
τω
υ
φ
φο
χ
ψ
ω
ϒ
ϰ
а
абрикосов
августа
автовокзал
адм
административное
администрации
администрация
адыгеи
аз
академия
александр
александра
аллея
алтаи
альбом
ан
анне
ансамбль
арена
аэропорт
б
баи
бассеи
башня
без
белая
белыи
берега
берегу
бетон
блинова
блиновои
богородицы
божиеи
божьеи
бои
больница
больно
большая
большои
ботанико
братская
бродскии
будет
буду
буи
бывшии
была
быть
в
века
великои
вепсов
вепсскии
вепсского
вепсское
вепсскои
вепсском
вепсы
вернусь
вески
вечныи
вид
владение
владимир
во
вов
водонапорная
водохранилище
вознесенскии
вои
воинам
вокзал
вокзала
вопросы
воскресения
воскресенскии
времени
время
все
всех
вход
выбирать
выборы
г
гагарина
газета
где
ген
герои
гимназия
гл
главныи
год
года
году
годы
гора
город
города
городе
городская
городского
городскои
горы
горького
господня
гост
гостиница
государственныи
гражданство
границы
грэс
гусиноозе
гэс
д
да
даи
два
двор
дворец
дворца
де
демографических
день
депо
депутатов
детская
дк
для
до
дом
дома
дорога
др
драматическии
драмтеатр
друг
дума
е
его
едно
ж
жд
же
железнодорожная
железнодорожного
железнодорожныи
жена
жизни
жизнь
жон
з
за
забаи
завод
завода
заи
замок
зве
звезда
здание
зимои
и
из
изд
иконы
или
им
имени
имя
институт
искам
искусств
истории
историко
исторических
история
исчисления
к
ка
кадуи
казаки
казанская
казанскои
как
кальскии
камень
кандидатур
карелии
карелия
карьер
кафедральныи
кино
кинотеатр
киров
кирова
кла
клуб
книга
когда
кок
колледж
комбинат
коми
комплекс
копеи
коренных
короля
корпус
краеведческии
краи
красная
красныи
кремль
крепость
кузнецкии
культура
культурных
культуры
купца
л
ла
ледовыи
лекарственные
лен
ленин
ленина
ленинградскои
ленинск
ленину
лет
летнии
лок
любви
люблю
любов
любовь
люди
м
ма
магазин
маи
малая
малочисленных
мама
марии
матери
ме
мемориал
мене
меня
мечеть
ми
мир
мира
мне
мо
могила
мои
молчи
монастырь
монастыря
мордовия
море
москва
мост
мріи
музеи
музыка
муллонен
муниципального
мы
мэрия
н
на
набережных
навсегда
над
наи
нам
народов
народы
нас
население
населения
населенных
наука
национальное
национальныи
национальных
ная
не
неба
невского
нижневартовск
нижнии
николаи
николая
никольскии
ницше
но
нов
новая
новыи
носков
ночи
ночнои
ночь
ны
ныне
няма
о
оао
об
обелиск
обичам
обл
облаками
области
область
образования
общии
огонь
один
озеро
округа
он
она
оне
онныи
опа
особенностях
остров
от
отдельным
отель
оять
п
павла
памяти
памятник
панорама
парк
паровоз
пер
переулок
песни
песня
петербург
петра
петрозаводск
петростат
пл
площади
площадь
по
победы
погибших
под
поездка
покрова
покровская
поле
поликлиника
порт
порядке
посе
поселение
поселения
после
последнии
пособие
постановление
поэма
пр
праздник
представительное
преображения
преображенскии
пресвятои
при
привокзальная
про
проспект
просто
проходная
птица
пунктов
путь
пчеловода
р
развлекательныи
раи
ран
рандал
растения
революции
ред
река
реки
республика
республики
речнои
решение
рныи
родному
рождества
россии
россия
рск
русскии
рф
рынок
рядом
ряды
с
санатории
санкт
сборник
св
сверху
свои
свято
святого
святои
святых
се
севера
северныи
сеи
село
сельского
сельское
сельхозгиз
семе
сентября
сердце
си
сила
сити
ск
ская
ске
ские
скии
ско
скои
слобода
словарь
смерти
смерть
снег
со
собор
собора
соборная
собрание
совет
совета
советская
советскии
солнце
соль
сон
сортавала
сост
состав
спаса
спасо
спб
спорта
спортивныи
справ
справка
справочник
срб
сретенскии
ссср
ст
стадион
станции
станция
старост
стат
ства
стела
стоп
стороны
страна
субъектам
суд
съм
ся
т
та
таи
так
там
татарстан
твое
твоеи
твои
творчества
твоя
те
театр
теб
тебе
тебя
территории
техникум
технические
техническии
ти
типа
то
торговые
тре
третьего
три
троицкая
троицкии
троицы
трубадура
трц
тся
ты
тэц
у
удэ
украі
ул
улан
улица
университет
усадьба
условия
успенскии
усть
устье
утверждении
училище
ф
фабрика
фармакогностическии
фасад
федерации
федосов
филармония
философии
финно
фонтан
фото
х
хочу
храм
храма
христова
ц
цева
центр
центральная
центральныи
церкви
церковь
ч
чаи
час
часовня
часовых
часть
че
челнах
челябинская
через
честь
что
чудо
чудотворца
ш
шаблон
шахте
ше
шексна
школа
щ
ще
ъ
ы
ь
э
эл
энциклопедия
это
этот
ю
юбилеи
южно
я
язык
языка
языками
языке
языку
яковлева
є
і
ѡ
ѱ
ҥ
ӄ
ӈ
ө
ӷ
ӽ
ְ
ִ
ַ
ָ
ּ
ה
ל
،
ا
د
ّ
ٓ
ٔ
ٕ
ހ
ރ
އ
މ
ލ
ގ
ސ
ޔ
ޖ
ަ
ާ
ި
ު
ެ
ް
ँ
ं
क
ख
ग
च
ज
त
द
न
प
फ
ब
म
य
र
ल
व
श
स
ह
़
ा
ि
ी
ु
ृ
े
ै
ो
ौ
्
ং
ব
ম
য
র
ল
়
া
ি
ু
ে
্
க
ப
ய
ர
வ
ா
ி
ு
்
ಟ
ೆ
ി
്
ก
ง
จ
ช
ด
ต
ท
น
บ
พ
ภ
ม
ร
ล
ว
ส
อ
ะ
ั
า
ิ
ี
ื
ุ
ู
็
่
้
๊
์
་
ག
ན
ཚ
ར
ལ
ས
ི
ུ
ོ
ྒ
ྱ
ა
ᶻ
​
‍
‎
‏
–
—
―
‘
’
“
”
„
†
•
…
‰
′
″
⁄
⁽
⁾
₂
€
№
←
→
↔
↷
−
≈
⋅
⍳
③
④
⑦
☆
☉
☿
♀
♂
♃
♄
♣
⟨
⟩
⺀
⺄
⺆
⺈
⺊
⺌
⺕
⺝
⺸
⺼
⿰
⿱
⿲
⿳
⿴
⿵
⿶
⿷
⿸
⿹
⿺
⿻
、
《
》
『
』
〜
〢
あ
い
え
か
き
く
け
こ
さ
し
す
せ
た
ち
っ
つ
て
と
な
に
の
は
ひ
ふ
へ
ほ
め
よ
ら
り
る
れ
ろ
わ
を
゙
゚
ア
ィ
イ
ゥ
ウ
オ
カ
キ
ク
コ
サ
シ
ス
セ
タ
ッ
ツ
テ
ト
ネ
ハ
フ
ヘ
ホ
マ
メ
モ
ュ
ユ
ラ
リ
ル
レ
ロ
ワ
ン
・
ー
㇁
㇂
㇄
㇇
㇈
㇉
㇓
ㇰ
㐁
㐄
㐅
㐌
㐫
㐬
㐭
㐮
㐱
㑒
㒵
㒸
㒼
㓁
㓞
㔾
㕛
㕣
㖾
㘝
㚅
㚇
㚔
㚘
㝉
㝡
㝴
㝵
㞋
㞢
㞷
㠩
㠭
㠯
㡀
㡭
㡿
㢲
㢴
㣇
㣺
㥯
㪅
㫄
㫐
㫒
㫺
㬅
㬎
㬥
㬰
㲋
㳄
㷠
㸒
㸚
㸦
㼌
㼲
㽞
㿟
䀠
䂞
䍃
䏍
䒑
䖍
䖒
䖝
䖵
䙴
䚻
䜌
䝿
䡛
䧹
䪞
一
丁
丂
七
丄
丅
丆
万
丈
三
上
下
丌
不
与
丏
丐
丑
专
且
丕
世
丘
丙
业
东
丞
丢
丣
两
严
並
丨
丩
个
丫
丬
中
丮
丰
丱
串
丵
丶
丷
丸
丹
为
主
丽
丿
乀
乂
乃
久
乆
乇
么
义
之
乌
乍
乎
乏
乐
乑
乔
乖
乗
乘
乙
乚
乛
乜
九
乞
也
习
乡
乳
乾
亀
亅
了
亇
予
争
事
二
亍
于
亏
亐
云
互
亓
五
井
亘
亚
亜
亞
亟
亠
亡
亢
交
亥
亦
产
亨
亩
享
京
亭
亮
亯
亰
亲
亳
亶
亷
人
亻
亼
亾
仁
今
介
仌
从
仐
仑
仒
仓
仔
仕
他
付
仝
代
令
以
仲
任
企
伊
伏
伐
休
会
伯
但
位
何
佘
余
作
佥
使
來
侈
侌
侖
侯
侵
便
保
俞
信
修
倉
倍
倒
候
倠
備
傳
僉
僕
儿
兀
允
兂
元
兄
充
兆
兇
先
光
兊
克
兌
免
児
兑
兒
兓
兔
党
兜
兟
入
全
兩
兪
八
公
六
兮
兰
共
关
兵
其
具
典
兹
兼
冀
冂
冃
冄
内
円
冈
冉
冊
冋
册
再
冎
冏
冐
冒
冓
冖
冗
冘
军
农
冝
冠
冡
冥
冫
冬
冷
几
凡
凢
凵
凶
凷
凸
凹
出
函
凾
刀
刁
刂
刃
刄
刅
分
切
刍
刑
刕
刖
列
刘
则
初
別
利
别
到
制
刺
則
削
剌
前
剡
剽
劉
力
功
加
劦
助
劫
劳
劵
勃
勇
勉
勒
動
務
勞
勤
勹
勺
勻
勾
勿
匀
匂
包
匆
匈
匊
匋
匍
匕
化
北
匚
匝
匡
匪
匱
匸
匹
区
医
匽
匿
區
十
卂
千
卄
卅
卆
升
午
卉
半
卌
华
卑
卒
卓
单
卖
南
卜
卝
卞
占
卡
卢
卣
卤
卦
卩
卪
卬
卯
印
危
即
却
卵
卷
卸
卻
厂
厃
厄
历
厈
厉
厌
厓
厘
厚
原
厤
厥
厨
厭
厲
厶
厷
厸
去
厼
厽
县
叀
参
參
叅
又
叉
及
友
双
反
叐
发
叒
叔
叕
取
受
叚
叜
叟
口
古
句
另
叩
只
召
可
台
叱
史
右
叵
号
司
叹
吂
各
吅
合
吉
吊
吋
同
名
后
吏
向
吕
君
吝
吞
否
含
启
吳
吴
吹
吾
呂
呆
呈
告
员
呙
周
命
咅
和
咎
咠
咢
咨
咸
咼
哀
品
哉
員
哥
哲
唐
商
啇
問
啚
啬
啻
善
喜
喬
單
喿
嗇
噩
嚴
囊
囗
囘
囙
囚
四
回
囟
因
囧
囬
困
囱
囷
固
国
圂
圅
國
圍
圓
土
圡
圣
圥
在
圭
地
圶
圼
坐
坒
坚
坴
垂
垔
垚
埀
埋
城
埶
執
基
堂
堅
堆
堇
堯
場
塞
墨
壘
士
壬
壯
声
壳
壴
壹
壺
壽
夂
处
夅
夆
备
夊
夋
夌
复
夏
夒
夕
外
夗
夘
多
夜
夢
大
夨
天
太
夫
夬
夭
央
失
夲
头
夷
夸
夹
夻
夾
奂
奄
奇
奈
奉
奎
奏
奐
契
奓
奔
奚
奞
奠
奢
奥
奭
女
奴
奻
好
如
妄
妙
妟
妥
妻
妾
姑
委
姜
威
娄
婁
婴
嬰
嬴
子
孑
孔
孕
孖
字
存
孚
孛
孝
孟
季
孤
学
孫
孱
學
宀
宁
宂
它
宅
宇
守
安
宋
完
宏
宓
宗
官
定
宛
宜
宝
客
宣
室
宮
宰
害
家
容
宾
宿
寂
寄
寅
密
富
寒
察
寧
審
寫
寬
寮
寸
对
寺
寻
寽
対
寿
封
尃
射
将
將
專
尉
尊
尋
尌
對
小
少
尒
尓
尔
尖
尗
尚
尞
尢
尣
尤
尧
尨
尭
就
尸
尹
尺
尻
尼
尽
尾
尿
局
居
屆
屈
屋
屎
屏
屑
展
屖
屚
属
屠
屡
屬
屮
屯
屰
山
屵
屾
岁
岂
岑
岡
岩
岳
岸
峯
島
崇
崑
崔
崖
崙
崩
嵬
嶲
巂
巛
川
州
巟
巠
巢
巤
工
左
巧
巨
巩
巫
差
己
已
巳
巴
巷
巸
巽
巾
巿
帀
市
布
希
帚
帛
帝
带
師
席
帶
常
干
平
年
幵
并
幷
幸
幺
幻
幼
幽
幾
广
広
庄
床
底
店
庚
府
度
庫
庭
庶
康
庸
廉
廌
廛
廣
廩
廴
延
廷
建
廾
廿
开
弁
弃
弄
弇
弋
式
弓
弔
引
弗
弘
弜
弟
弥
弦
弱
張
強
强
彊
彌
彎
彐
彑
当
彔
录
彖
彗
彡
形
彥
彦
彧
彭
影
彳
役
彼
往
待
律
後
徒
得
徙
從
復
微
徵
心
忄
必
忌
忍
志
忝
忠
忩
快
念
忽
忿
怖
思
怠
急
怪
怱
恆
恐
恒
恩
恭
息
悉
患
悤
悪
悲
悶
情
惠
惡
惢
愁
愈
意
愛
感
慈
慧
慮
憂
憲
應
戀
戈
戉
戊
戋
戌
戍
戎
成
我
戒
戔
或
戚
戠
戢
戦
截
戲
戶
户
戹
戼
戾
房
所
扁
扇
手
扌
才
打
托
执
承
折
拉
拍
拓
拜
拿
掌
推
提
摩
撃
擊
支
攴
攵
收
攸
改
攻
放
政
敄
敏
敕
敖
敗
教
敝
敞
敢
散
敦
敫
敬
数
敷
數
斂
文
斉
斊
斗
斤
斥
斩
斬
斯
新
方
於
施
斿
旁
旋
族
无
旡
既
旣
日
旦
旧
旨
早
旬
旱
旲
时
旾
昆
昇
昌
昍
明
昏
易
昔
昗
昜
星
春
昬
是
昱
昴
昷
時
晃
晋
晏
普
景
晶
智
暑
暴
曇
曩
曰
曲
曳
更
曷
書
曹
曼
曾
替
最
朁
會
月
有
朋
服
朔
朕
朗
望
朝
木
朩
未
末
本
札
朮
术
朱
朵
朶
朿
杀
李
杏
村
杜
束
条
来
杰
東
杲
杳
松
析
林
枚
果
枝
枲
枼
某
柔
查
柬
柰
柴
栗
桀
桑
桼
梁
條
梟
梨
棘
棠
棥
森
楚
業
楽
榮
樂
樊
橋
機
欠
次
欣
欮
欲
欶
欽
款
歆
歇
歛
止
正
此
步
武
歨
歪
歮
歯
歰
歲
歴
歷
歸
歹
歺
死
殳
段
殷
殸
殹
殺
殻
殿
毋
毌
母
每
毒
比
毕
毚
毛
毳
氏
氐
民
气
気
氣
水
氵
氶
氷
永
氺
氾
求
汉
汝
汞
江
決
沃
沓
沙
沝
泉
法
波
泣
泥
泰
洛
津
洪
活
派
流
浦
浪
浮
海
消
涙
淡
淮
清
渚
渠
港
湯
滿
漸
激
濱
灣
火
灬
灭
灰
灵
灷
炅
炎
炏
炗
炙
炭
為
烈
烏
烝
焉
無
焦
焱
然
煞
熊
熏
燃
燕
營
燮
爆
爪
爫
爭
爯
爰
爱
爲
爵
父
爻
爽
爾
爿
片
牙
牚
牛
牜
牟
牢
牧
牪
特
牽
犀
犬
犭
犮
狂
狄
狊
独
狺
猋
猒
猪
献
獣
獻
玄
率
玉
王
玟
玨
珎
班
現
球
琴
瑟
瑩
瓜
瓦
甘
甚
生
産
用
甫
甬
田
由
甲
申
电
甶
男
甸
甹
画
甾
畀
界
畏
畐
留
畜
畟
畢
畧
畨
番
畫
異
畱
當
畺
畾
疊
疋
疌
疑
疒
疾
癶
癸
癹
発
登
發
白
百
皀
皃
的
皆
皇
皋
皐
皕
皮
皷
皿
盃
盆
盇
盈
益
盍
盎
监
盒
盖
盛
盡
監
盤
盧
目
直
相
盾
省
眇
眉
看
眔
眞
真
眷
眼
眾
着
睘
睪
睿
瞏
瞢
瞿
矍
矛
矞
矢
矣
知
矦
短
石
破
碎
磊
磨
示
礻
礼
神
祟
票
祭
禀
禁
福
禸
禹
禺
离
禽
禾
禿
秀
秃
秉
秋
科
秝
秦
移
稟
穀
穌
穴
究
穹
空
穿
突
窄
窒
立
竒
竜
竝
竟
章
童
竹
笑
笠
第
筆
等
答
箕
算
箴
節
篤
篭
米
粉
粛
粟
粤
粦
粲
粵
糞
糸
糹
系
約
納
素
索
紫
累
細
絜
絫
絲
維
綿
縣
繇
纍
纟
维
缶
网
罒
罔
罕
罗
罙
罡
罢
罪
署
罷
羅
羊
羌
羍
美
羔
羕
羗
羞
羡
羣
群
義
羲
羸
羽
翁
翏
習
翕
翟
翠
翼
老
耂
考
者
耆
而
耎
耑
耒
耳
耴
耶
耷
聂
聊
聖
聚
聶
聿
肀
肃
肅
肉
肖
肙
肥
肩
肯
育
肴
胃
背
胡
胥
能
脊
脩
膚
臣
臤
臧
自
臬
臭
臯
臱
至
致
臺
臼
臽
臾
臿
舀
舂
舄
與
興
舉
舌
舍
舛
舜
舞
舟
航
般
艮
良
色
艸
艹
艾
芒
芔
芬
芮
花
芳
芺
芻
苔
苗
苟
若
苦
英
茶
茸
荅
草
荒
荣
荼
莆
莧
莫
莽
菆
菊
菐
華
萬
落
葉
著
葛
董
葵
蒙
蒦
蒼
蓋
蓬
蓺
蔑
蔡
蕉
蕭
薄
薛
薦
薰
藍
藏
藥
蘭
虍
虎
虐
虒
虔
處
虖
虗
虘
虚
虛
虜
虞
號
虫
虽
蚤
蚩
蜀
蜜
蟲
蠡
血
行
衍
衛
衣
衤
表
衮
衰
袁
袞
褭
褱
襄
襲
襾
西
覀
要
覃
見
規
覓
覧
親
覽
见
角
解
言
訁
訇
計
記
詹
誕
語
誩
諸
謎
議
讀
讠
语
谷
豆
豈
豊
豐
豕
豖
豙
象
豦
豩
豪
豸
貇
貝
貞
貟
負
貢
貧
貪
貫
責
貳
貴
買
費
賁
資
賈
賏
賓
賔
賛
賞
賢
賣
質
賴
賽
贊
贝
贡
责
贯
贲
贵
赖
赞
赤
赦
走
越
足
路
蹇
身
躬
車
軍
軎
軟
輝
輦
輪
车
辛
辜
辟
辥
辰
辱
農
辵
辶
边
达
过
近
连
迷
追
退
送
逆
逐
通
速
造
逢
連
逮
進
遀
遂
過
道
達
遣
適
遷
遺
邊
邑
邕
那
邦
邪
郎
部
郭
都
鄉
酉
酋
配
酓
釆
采
里
重
野
量
金
釒
鋒
錢
钅
長
镸
长
門
閃
閉
開
閏
閑
閒
間
閔
閵
閻
闌
闘
门
间
闷
阑
阜
阝
阿
降
陳
陽
隆
隊
隋
隡
隨
隱
隶
隹
隺
隻
隼
隽
难
雀
雁
集
雈
雋
雍
雐
雔
雙
雚
雜
雝
離
難
雨
雩
雪
雲
零
雷
需
霍
霜
霝
霞
霸
靈
靑
青
非
靡
面
靣
革
韋
韓
韦
韭
韯
韱
音
響
頁
頃
項
須
頗
頡
頻
顛
页
風
颱
风
飛
飞
食
飠
養
饣
首
香
馬
馮
駦
马
骨
高
髟
鬥
鬯
鬲
鬼
魔
魚
魯
鮮
鯉
鱼
鲁
鳥
鳳
鸟
鹵
鹿
麃
麗
麥
麦
麻
黃
黄
黍
黎
黑
黒
黨
黹
黽
黾
鼎
鼓
鼠
鼻
齊
齋
齐
齒
齿
龍
龙
龜
龟
龠
龰
龱
龴
龵
龶
龷
龸
龹
ꜜ
者
艹
，
：
？
𐎢
𐤀
𐤓
𐤕
𠀁
𠀃
𠀆
𠀉
𠀎
𠀐
𠁁
𠁣
𠂆
𠂇
𠂈
𠂉
𠂊
𠂋
𠂎
𠂒
𠂔
𠂛
𠂡
𠂢
𠂤
𠂬
𠂭
𠂹
𠃊
𠃋
𠃌
𠃍
𠃎
𠃑
𠃓
𠃔
𠃜
𠄌
𠄎
𠄠
𠄢
𠆢
𠆥
𠇍
𠈌
𠌵
𠓜
𠔉
𠔥
𠔼
𠔽
𠔿
𠕀
𠕁
𠕋
𠘧
𠘨
𠙻
𠙼
𠚏
𠚒
𠚤
𠚪
𠣏
𠤎
𠤕
𠥓
𠦄
𠦑
𠦝
𠧒
𠧗
𠧪
𠩺
𠪚
𠫓
𠫔
𠫤
𠬛
𠬝
𠬞
𠬢
𠬤
𠬶
𠮛
𠮦
𠮷
𠯑
𠱠
𠳮
𠷎
𡈼
𡉀
𡉵
𡌥
𡍮
𡏳
𡕒
𡕩
𡕰
𡖅
𡗗
𡗜
𡘆
𡘤
𡧱
𡨄
𡩧
𡬠
𡭽
𡰣
𡰥
𡰪
𡰯
𡰱
𡷈
𡸁
𡿨
𡿩
𡿪
𡿺
𢀖
𢀛
𢀩
𢁙
𢆉
𢆰
𢆶
𢇁
𢇇
𢉖
𢌬
𢌿
𢏚
𢑑
𢑚
𢖻
𢙣
𢛳
𢦏
𢦒
𢧵
𢼄
𢾕
𣁋
𣄼
𣅀
𣅽
𣍘
𣎳
𣎵
𣏋
𣏼
𣗥
𣥂
𣥖
𣦵
𣦼
𣧄
𣪊
𣪠
𣬉
𣳾
𣶒
𤇾
𤊽
𤐫
𤓰
𤔔
𤕨
𤣩
𤰇
𤰔
𤰞
𤴓
𤴔
𤽄
𥁑
𥁕
𥃦
𥃩
𥃭
𥇡
𥑟
𥘅
𥘈
𥝢
𥫗
𥱡
𦈢
𦉪
𦉬
𦉼
𦍌
𦍒
𦎧
𦐇
𦓔
𦔮
𦘒
𦙃
𦚏
𦣝
𦣞
𦣻
𦥑
𦥔
𦥯
𦨉
𦭝
𦰩
𧆞
𧈧
𧘇
𧰨
𧴪
𧴮
𧵩
𧾷
𨸏
𨾴
𩙿
𩠐
𩫏
𩵋
𪉷
𪜀
𪟽
𪠲
𪩲
𫇦
𫔭
𫜸
𫝀
𫠣
𫠩
𫢉
𫥞
𫩏
𫩠
𫪡
𫲽
𫶧
𬀷
𬐘
𬗌
𬙙
𬛸
𬜯
𬟩
𬯁
𬴘
𬺻
𬼉
𬼖
𭀰
𭁈
𭁨
𭅰
𭑈
𭕄
𭗼
𭤨
𭥫
𭻾
𮅕
𮊿
𮍌
𮍏
𮓗
𮥼
𮧮
廾
𰀁
𰀄
𰀈
𰀉
𰀕
𰀠
𰀡
𰀢
𰀪
𰁜
𰃮
𰆊
𰆘
𰋙
𰕎
𰢴
𰧭
𰯲
05--
a--
aa--
ab--
aba--
abe--
abin--
abori--
abraziv--
absor--
abstrak--
abu--
ac--
acad--
ace--
act--
ad--
ada--
adapt--
adiv--
adm--
administrac--
adria--
aduz--
adven--
advo--
ae--
aero--
af--
afro--
aft--
ag--
aga--
agj--
agra--
agregat--
agro--
ah--
ahtub--
ahven--
ai--
aid--
aig--
ain--
ainas--
air--
ais--
aja--
ajel--
aju--
ak--
akkom--
ako--
akra--
akro--
aks--
akt--
akti--
aktua--
aku--
akva--
al--
ala--
alaja--
alang--
alasuguk--
ale--
alekse--
alen--
ales--
alexand--
ali--
alle--
alo--
alt--
alu--
alz--
am--
amblu--
ambu--
ambund--
amfi--
ami--
ammia--
amu--
an--
ana--
anas--
anc--
and--
andel--
andre--
anduz--
ane--
ani--
ank--
ann--
ano--
ant--
anti--
antof--
antro--
antropo--
any--
ao--
aopen--
apa--
apen--
aph--
apk--
apo--
apol--
app--
apt--
ar--
ara--
arbo--
arc--
ard--
arhe--
arheolo--
arhi--
arhiepiskop--
arhijere--
ari--
aripo--
aristo--
ark--
arl--
armot--
aro--
arsk--
art--
artill--
arv--
arvoka--
arvost--
arvostuz--
as--
asau--
aspiran--
assas--
assim--
associa--
astro--
at--
ata--
atom--
atomelektro--
atomreakt--
au--
audi--
aug--
aur--
aus--
aut--
auto--
av--
avaid--
avar--
ave--
avedam--
avia--
avstral--
avto--
avtobus--
avtol--
avtor--
avtostan--
avtote--
az--
azeg--
azek--
azi--
aznaka--
azot--
azov--
b--
ba--
bab--
bac--
back--
bad--
baga--
bagrationov--
bah--
bai--
bakter--
bakterijan--
bal--
bale--
balet--
bam--
ban--
bang--
bank--
bankrotn--
bapt--
bar--
barbo--
bard--
bas--
basket--
bat--
bau--
bay--
baz--
be--
bed--
bei--
bek--
bel--
belo--
belojar--
bemb--
bemblen--
ben--
ber--
bes--
bet--
beton--
bez--
bg--
bh--
bha--
bi--
biatlo--
bibli--
bic--
big--
bij--
bil--
bilib--
bin--
bio--
bioh--
biohim--
bioteh--
biotehnolog--
bir--
bis--
biznes--
bj--
bla--
blagod--
ble--
blo--
blok--
bo--
bob--
bod--
bogosl--
bok--
boksi--
bol--
boloh--
bolot--
bom--
bomb--
bon--
bor--
bos--
botanikan--
boul--
br--
bra--
brah--
bre--
bri--
briga--
brit--
brod--
bron--
bru--
brus--
bs--
bu--
buc--
bud--
buff--
bui--
bul--
bulga--
bumag--
bumagan--
bur--
bus--
but--
butul--
by--
bz--
c--
ca--
camp--
can--
cap--
car--
carni--
cat--
ce--
cel--
celeb--
cement--
cen--
cere--
ch--
cha--
che--
cherk--
chi--
chlo--
choc--
chry--
ci--
cia--
cij--
cilind--
cin--
cirk--
cirkon--
citrus--
city--
cityof--
cl--
co--
colo--
com--
con--
cor--
cr--
cre--
cs--
cu--
cult--
cv--
cy--
cycl--
cz--
d--
da--
dah--
dai--
dal--
dam--
dan--
dar--
dat--
daug--
day--
de--
deci--
decl--
ded--
deg--
dei--
dek--
del--
deli--
dem--
demo--
demon--
den--
deput--
deputat--
der--
des--
det--
dev--
dha--
dhe--
di--
dia--
diag--
dic--
die--
diff--
differencia--
dikta--
dil--
dimor--
din--
dingha--
dio--
diplo--
dis--
discipl--
diur--
dj--
dk--
dm--
dmit--
dn--
do--
documen--
dod--
dol--
dolgoprud--
dom--
domen--
don--
dor--
doz--
dr--
dre--
ds--
du--
dub--
dud--
duet--
dum--
duma--
dun--
dus--
dy--
dz--
e--
eb--
eber--
ec--
eci--
econ--
ed--
edel--
eden--
edes--
edesta--
edhe--
edu--
ee--
ef--
eff--
efiopi--
efir--
eg--
ego--
egy--
egzo--
eh--
ehe--
eht--
ei--
ein--
ek--
ekes--
ekosist--
eks--
ekskava--
ekspe--
ekspedic--
eksper--
ekspluata--
ekspozic--
el--
ela--
ele--
elec--
elek--
elektro--
eli--
elo--
eloho--
eloka--
elon--
em--
ema--
emb--
eme--
emi--
emoc--
emocion--
en--
ena--
enc--
encik--
encikloped--
encycl--
end--
endu--
ener--
enu--
ep--
episkop--
er--
era--
eraz--
ereb--
eremetj--
erg--
eri--
erigoi--
erini--
erno--
ero--
erozi--
ers--
es--
esc--
eschr--
ess--
est--
et--
eta--
etimolo--
etno--
etnos--
etrus--
etxe--
eu--
euph--
euro--
euskal--
ev--
eva--
evaku--
evan--
evk--
evro--
evsk--
ex--
expl--
ez--
eze--
ezid--
ezik--
ezilidn--
ezip--
ezipa--
ezit--
ezita--
f--
fa--
fabi--
fac--
fail--
fak--
fal--
fan--
faner--
far--
fas--
fat--
faz--
fe--
fed--
fel--
fem--
fen--
feod--
feodos--
fer--
ferm--
fermen--
ferr--
feu--
fi--
fiksi--
fil--
filar--
filial--
fin--
fis--
fitin--
fiziolo--
fj--
fla--
flav--
flavon--
fle--
fo--
fol--
folk--
fon--
for--
fos--
foto--
fr--
fra--
frau--
frei--
friedr--
frit--
fro--
frukt--
fst--
ftor--
fu--
fun--
funkc--
funkcion--
futbol--
g--
ga--
gabrodia--
gad--
gaf--
gai--
gal--
gala--
galli--
gan--
gar--
garmon--
gas--
gat--
gaz--
gazan--
gbp--
gd--
ge--
geb--
ged--
gei--
gekta--
gel--
gen--
gend--
genera--
genzo--
genzoit--
geog--
geogra--
geolo--
geomet--
ger--
gerasim--
ges--
gesta--
get--
gev--
gg--
gh--
ghe--
gi--
gid--
gidro--
gidroelektro--
gidrom--
gigan--
gigi--
gil--
gimass--
gin--
gipo--
gips--
gis--
gita--
gite--
gla--
gle--
gli--
glo--
gm--
go--
god--
gofro--
goi--
gol--
goll--
gon--
gor--
gorod--
got--
gotik--
gov--
gp--
gr--
gra--
grad--
graf--
graiv--
gramm--
gran--
grid--
groz--
gru--
gs--
gu--
gua--
gub--
guber--
gud--
gudz--
gui--
gul--
gumat--
gun--
gur--
gus--
gutoi--
guz--
gv--
gvard--
gy--
gymn--
h--
ha--
haapa--
hab--
had--
hag--
hahk--
hai--
haili--
haju--
hal--
ham--
hama--
hambaz--
han--
hapa--
hapan--
har--
hara--
harj--
harjoi--
hart--
harv--
has--
hat--
haud--
haus--
havad--
haz--
he--
hebon--
hei--
heim--
hel--
hemb--
hen--
heng--
her--
here--
hesa--
het--
hetart--
hevi--
hi--
hibus--
hid--
hihta--
hil--
hill--
himoit--
hindust--
hiphop--
hir--
hiren--
hirur--
his--
hit--
hiz--
hj--
hk--
ho--
hobed--
hoch--
hol--
holod--
hon--
honuz--
hor--
hos--
hot--
houkun--
hr--
hristan--
hristia--
hrom--
hs--
ht--
hta--
htaz--
hte--
htend--
htha--
hthe--
hu--
hua--
huik--
hul--
hum--
hun--
hura--
hut--
hva--
hy--
hyper--
hyu--
i--
ia--
ib--
iba--
ic--
id--
ida--
ide--
iden--
ideolo--
ideologi--
idio--
idu--
ie--
if--
ig--
igu--
ih--
ihas--
ihod--
ii--
ijo--
ik--
ika--
ikoht--
il--
ila--
ile--
ili--
ill--
illeg--
ilo--
im--
ima--
iman--
immi--
imong--
imper--
imperia--
in--
ina--
inc--
ind--
indep--
indo--
infekc--
informa--
infra--
ing--
ingis--
ingot--
ini--
inn--
innoken--
inspek--
institut--
instruk--
int--
integ--
inter--
inu--
invalid--
io--
ion--
ip--
ipaland--
ir--
ira--
irak--
ird--
irid--
iro--
iroke--
irrigac--
iru--
is--
isa--
isara--
isem--
isinba--
islaman--
iso--
isp--
ist--
istop--
it--
ital--
ittri--
ituk--
itxa--
iu--
iv--
ivat--
ivit--
ivita--
ivnouz--
ivnouzm--
iz--
izo--
izum--
j--
ja--
jad--
jaga--
jagamat--
jah--
jak--
jal--
jam--
jan--
japon--
jar--
jas--
jaug--
jauh--
je--
jel--
jeliz--
jen--
jenaral--
jer--
jes--
jev--
jez--
ji--
jin--
jo--
jod--
joga--
jogen--
jogi--
joht--
joks--
joksi--
jom--
jon--
jond--
jor--
jos--
joud--
jov--
ju--
jud--
jude--
jug--
jul--
jumalan--
jun--
jur--
juri--
jus--
juvel--
juvelir--
jy--
k--
ka--
kab--
kac--
kacli--
kacu--
kad--
kadmi--
kadon--
kadot--
kadr--
kagr--
kah--
kahesa--
kai--
kaid--
kaik--
kaiv--
kaivuz--
kal--
kala--
kalan--
kam--
kamenog--
kamer--
kan--
kana--
kand--
kanfe--
kangas--
kangaz--
kanz--
kap--
kapit--
kappadok--
kar--
kara--
karavan--
karg--
karpat--
kart--
karton--
karv--
kas--
kat--
kata--
kate--
katoli--
katov--
kau--
kauha--
kauk--
kaum--
kaup--
kaut--
kaval--
kaver--
kaz--
kazmuzhonuz--
kazva--
ke--
kebla--
kebn--
ked--
kegonpani--
keh--
kehk--
kei--
keit--
kek--
kel--
kelen--
kelikor--
kem--
ken--
kensuladuz--
kent--
kerad--
kerada--
kerd--
kere--
kert--
kerthu--
kes--
kesk--
keskuz--
ket--
keza--
kezerduz--
kh--
kha--
khu--
ki--
kid--
kil--
kilog--
kim--
kin--
kinemato--
kino--
kir--
kirj--
kirjav--
kirjuta--
kis--
kit--
kiuru--
kive--
kivi--
kivivoi--
kivivoin--
kk--
kl--
kla--
klan--
klavd--
kle--
klim--
klin--
km--
kno--
ko--
kod--
koda--
kodi--
kodv--
kodvind--
kogo--
kohen--
kohenduz--
koht--
koi--
koir--
koiran--
koiv--
kok--
koksan--
kol--
koli--
kolle--
kollegi--
kolon--
kom--
komi--
kompjuter--
kon--
konce--
koncen--
koncentra--
koncepc--
koncert--
kondj--
konf--
konfes--
konflik--
konfu--
kong--
konser--
konserva--
konson--
konst--
konsti--
konstitucii--
konstruk--
kontak--
kontra--
konurbac--
konve--
koopera--
koor--
koper--
kopi--
kor--
kora--
korall--
kork--
kormad--
korres--
korrozijan--
kors--
korte--
korv--
kos--
kosket--
koskm--
kosmod--
kosmos--
kot--
kouk--
koum--
koume--
kour--
kov--
koverit--
koz--
kp--
kr--
kra--
krasn--
krasnogvardei--
krasnoufi--
kre--
krei--
krep--
kru--
kruiz--
ks--
ksi--
ku--
kub--
kuc--
kud--
kudon--
kuid--
kuiv--
kuivatez--
kuk--
kuker--
kukhika--
kul--
kuld--
kulda--
kulu--
kulund--
kum--
kun--
kund--
kunst--
kur--
kurk--
kurki--
kurul--
kus--
kut--
kuva--
kuz--
kvan--
ky--
l--
la--
lab--
labir--
labora--
lac--
lad--
ladimen--
lai--
laiv--
laivan--
lak--
lamb--
lamp--
lan--
lance--
lank--
lapak--
lapast--
lapp--
lapsen--
lapt--
las--
lasic--
lat--
latif--
latin--
laud--
lav--
lavas--
laz--
le--
lebai--
lebu--
legi--
legis--
leh--
lehm--
leht--
lehtez--
leib--
leik--
lek--
len--
lenan--
lend--
lendimport--
leo--
lept--
les--
let--
lete--
lev--
levan--
leved--
levigan--
lg--
li--
lib--
libre--
libu--
licenzi--
lid--
lidn--
lidnan--
lidneih--
lidnelektro--
liha--
lik--
likvida--
lil--
lim--
lin--
lind--
lipo--
lis--
litk--
lk--
ll--
lo--
log--
loimi--
londusen--
lop--
lou--
lov--
loz--
lt--
lu--
luc--
lud--
ludhi--
lug--
lugend--
lugu--
lugus--
luht--
lujen--
luk--
lumi--
lun--
lus--
lut--
luz--
lv--
lvaz--
lvhan--
ly--
m--
ma--
mac--
mad--
madal--
mag--
magaduz--
magd--
magi--
magis--
magni--
magnit--
mah--
maha--
mahu--
mai--
maid--
mair--
mais--
major--
mak--
maksut--
mal--
malafe--
mam--
man--
mann--
manrehk--
map--
mar--
mari--
marj--
mark--
mas--
mask--
mass--
mat--
matfe--
matk--
maur--
mavr--
mavzole--
maz--
mb--
mbit--
mbita--
mbituz--
mbri--
mbrikirju--
mc--
md--
me--
meblin--
mec--
mecpilind--
med--
media--
mediter--
mega--
meh--
mehe--
meht--
mei--
meitn--
mek--
mel--
meles--
melet--
melio--
melo--
mem--
men--
menzel--
menzo--
mer--
meren--
meri--
mes--
met--
metab--
metafiz--
metal--
metall--
metro--
mex--
mez--
mezi--
mg--
mi--
mia--
mic--
mich--
mid--
mig--
mik--
mikro--
mil--
milo--
min--
mini--
minii--
minut--
mir--
mira--
mis--
miss--
mit--
mitro--
mitropol--
miz--
mk--
ml--
mm--
mn--
mne--
mo--
mod--
modifikac--
moi--
moipalo--
mol--
mon--
monografi--
monoh--
monop--
monotei--
mont--
mor--
mordo--
mori--
mos--
mot--
motocik--
motor--
mouc--
moug--
moz--
mp--
mr--
ms--
mt--
mu--
mud--
muden--
mug--
mugo--
mugul--
mui--
muigot--
muik--
muil--
muju--
mul--
mun--
muni--
murd--
muren--
murg--
muro--
mus--
musik--
must--
mut--
muz--
muza--
muze--
muzelektro--
muzik--
my--
myrt--
myst--
n--
na--
naba--
nac--
nagy--
nahk--
nahkan--
nai--
nak--
nam--
naman--
nambruz--
nan--
nar--
nas--
nat--
naus--
naza--
nb--
nc--
nd--
nda--
ndi--
ndta--
nduta--
ne--
neb--
neder--
nefte--
neg--
negla--
neglo--
nei--
nek--
nekro--
nellik--
nem--
nen--
nend--
neoli--
neop--
neps--
ner--
nes--
net--
nev--
neva--
nevon--
nevond--
new--
nf--
ng--
ni--
nic--
nick--
nie--
nig--
nihon--
nii--
nik--
nil--
nimed--
nimi--
nin--
niobi--
nis--
nit--
niv--
nju--
njufaund--
nk--
nn--
no--
noi--
noid--
nol--
nom--
nor--
nord--
norma--
nos--
not--
nous--
nov--
novo--
nozol--
np--
ns--
nsu--
nt--
ntgen--
nu--
nur--
ny--
nya--
nz--
nzoi--
o--
oak--
oazi--
ob--
obe--
oblez--
observa--
oc--
od--
of--
off--
oficiali--
ofis--
og--
oga--
oger--
oh--
ohjan--
ohjanduz--
ohjas--
ohjasta--
oi--
oibal--
oid--
oiged--
oigend--
oik--
oika--
oiktus--
oja--
ojan--
ok--
oka--
okai--
okan--
okku--
oks--
ol--
ola--
old--
ole--
olend--
olet--
oli--
olmatom--
oly--
om--
oma--
omb--
omblend--
omit--
omsk--
on--
one--
onetom--
ong--
ons--
oo--
op--
ope--
open--
openduz--
oper--
opera--
oppozic--
or--
ora--
oran--
orfografi--
orhide--
ori--
oro--
ortod--
os--
ost--
ot--
ota--
oto--
otrad--
ou--
out--
ov--
over--
ox--
oxy--
oxyco--
oz--
oza--
ozahu--
ozr--
ozrik--
ozut--
ozuta--
ozy--
p--
pa--
pac--
pad--
pageni--
pagin--
pah--
pai--
paimen--
pain--
pajo--
paju--
pak--
pakitoi--
pal--
pala--
palah--
palat--
pan--
panam--
pap--
par--
para--
park--
parod--
part--
partizan--
parve--
pas--
past--
pat--
paut--
pautkus--
pavl--
pavlod--
pay--
paz--
pe--
pec--
peda--
pedai--
peh--
pehmd--
peit--
peitsi--
pel--
pen--
penzii--
per--
perif--
perm--
perse--
pertid--
pes--
pez--
pfe--
pfen--
ph--
phy--
pi--
pia--
pid--
pida--
pidatim--
pifa--
pil--
pilaz--
pilind--
pimit--
pin--
pione--
pipk--
pir--
pird--
pis--
pit--
piter--
pk--
pl--
plak--
plantac--
plas--
plastik--
plastmas--
ple--
pleisto--
plena--
plo--
plod--
plu--
pnev--
po--
pod--
poem--
pohj--
poik--
poim--
pol--
poli--
polic--
polim--
polimer--
polipropil--
polit--
politeh--
polk--
poltuz--
poly--
pomp--
pon--
pop--
por--
pord--
porno--
pos--
post--
poukaht--
poukahtuz--
pozic--
pp--
pr--
pra--
prak--
pre--
prem--
prezen--
pri--
privileg--
pro--
procedu--
prof--
program--
proleta--
pronom--
protek--
ps--
psihiat--
psiho--
pt--
pu--
pub--
puc--
pud--
pudot--
puht--
puhu--
pul--
pun--
pur--
pure--
pureh--
purtk--
puru--
put--
puvill--
puze--
py--
pyrr--
q--
qu--
qua--
que--
r--
ra--
rac--
racca--
rad--
radia--
radin--
radio--
radon--
radoto--
rah--
raha--
rahu--
rahva--
rahvahan--
rahvahat--
rai--
rajad--
rajon--
rajonkesk--
raket--
ral--
ram--
ran--
rand--
ranen--
rari--
ras--
rat--
ratna--
rau--
raud--
raudan--
raudte--
raug--
rauzi--
raz--
razbai--
razv--
rb--
rd--
rda--
rdmat--
re--
reabili--
reagiru--
reak--
reakt--
rec--
red--
redak--
redust--
reflec--
reg--
rehk--
rei--
reig--
rekla--
rekord--
religii--
remb--
remem--
ren--
rengaz--
rengh--
rep--
repan--
reptil--
res--
resk--
restavrac--
ret--
revmatiz--
rez--
rezer--
reziden--
rg--
rha--
ri--
ric--
rid--
rida--
rift--
rig--
rih--
rik--
rikond--
rim--
rin--
rindat--
rio--
ripm--
ripmatom--
ripp--
rippu--
ris--
rist--
ristitud--
rituz--
riv--
riz--
rizac--
rk--
rkom--
rm--
rma--
rn--
ro--
rob--
rod--
rogo--
roh--
rohk--
roi--
rok--
rol--
rom--
roman--
ron--
ros--
rosttumat--
rov--
roz--
rr--
rs--
rt--
rte--
rtu--
ru--
rub--
rud--
ruf--
ruht--
rujo--
run--
runo--
rupi--
rus--
rusk--
rustt--
rut--
rv--
rve--
rven--
rya--
rz--
s--
sa--
sab--
sacr--
sad--
sada--
sadun--
sag--
saged--
sagud--
sahar--
sai--
sait--
sal--
salz--
sam--
samal--
san--
sand--
sankc--
sankt--
sanu--
sapk--
sar--
sara--
sarak--
sarg--
sarn--
sas--
sat--
satat--
satusek--
satuset--
sau--
saum--
saund--
saupta--
sauvo--
sauvond--
sauvu--
savan--
save--
savu--
sb--
sc--
scale--
sch--
schat--
se--
sea--
sebr--
sebruz--
sec--
see--
seglu--
segoi--
seh--
seib--
sein--
sek--
sekoi--
sekund--
sel--
sem--
semen--
sen--
sent--
sep--
ser--
ses--
set--
sezon--
sg--
sha--
she--
shi--
sho--
shr--
si--
sib--
sic--
sid--
sie--
siga--
siget--
sih--
sija--
sik--
sikhiz--
sil--
sild--
sile--
sim--
simfon--
sin--
sira--
sird--
sirdan--
sirdani--
sirt--
sis--
situac--
sk--
skan--
ske--
ski--
sko--
sku--
skuz--
sky--
sl--
slav--
slobod--
slok--
slov--
sm--
smai--
smol--
sn--
so--
socio--
sod--
soda--
sodakuker--
sodameri--
sog--
soi--
sok--
sol--
sola--
solo--
solsb--
som--
somuz--
son--
sor--
sortiruind--
sos--
sov--
sp--
spa--
spe--
spec--
spektak--
spir--
spo--
sport--
spra--
sr--
ss--
st--
sta--
stacion--
stan--
stand--
star--
stav--
ste--
sten--
ster--
sti--
sto--
stoit--
strateg--
stro--
strogan--
stron--
stu--
sty--
su--
sub--
subprefek--
substan--
substanti--
sud--
sugu--
suho--
sul--
sula--
sum--
sun--
suonen--
super--
sur--
surm--
surro--
sus--
sused--
suv--
suvi--
sv--
sva--
svet--
svo--
sw--
sy--
symp--
synag--
sz--
t--
ta--
tab--
tabak--
tad--
tadt--
taga--
tahk--
taht--
tai--
tak--
takson--
tal--
talis--
talli--
tam--
tamer--
tan--
tand--
tap--
tar--
tarh--
tarkoik--
tartu--
tat--
tau--
tavar--
tavu--
tax--
tay--
taz--
tazo--
te--
tech--
ted--
tedo--
tedoiduz--
tegimel--
teh--
tehne--
tehnikum--
tehno--
tehu--
tel--
tele--
televiz--
tem--
temat--
ten--
teo--
ter--
tera--
teraz--
termo--
terri--
terro--
terv--
tervhu--
tes--
test--
tet--
tetra--
tez--
th--
tha--
the--
tho--
thud--
ti--
tif--
tihorec--
tik--
tikah--
til--
tilgun--
tim--
timofe--
tin--
tina--
tip--
tiplika--
tipografi--
tir--
tis--
tit--
titan--
tj--
tk--
tkompl--
tku--
tl--
tm--
tmark--
tn--
to--
tob--
tod--
todest--
toh--
toi--
toik--
toitm--
toiv--
tojo--
tok--
tol--
tom--
tomat--
ton--
top--
tor--
tora--
torg--
torguind--
torok--
torv--
tos--
tot--
tox--
tozi--
tpac--
tr--
tra--
trab--
traek--
traged--
traktor--
tramvai--
trans--
trav--
tre--
tri--
tro--
trollei--
tropi--
tru--
ts--
tsen--
tt--
ttu--
ttumat--
tu--
tualetm--
tuged--
tuh--
tuhk--
tui--
tul--
tullei--
tum--
tun--
tundm--
tur--
turist--
turizm--
turk--
turm--
turni--
tus--
tuus--
tuz--
tv--
twe--
twi--
txa--
ty--
u--
ua--
uan--
ub--
uc--
ud--
uda--
ude--
udenzelandija--
udes--
udim--
uf--
ufan--
ug--
uh--
uhk--
uhun--
ui--
uil--
uit--
ujel--
uju--
uk--
uklo--
uks--
ul--
ula--
ulim--
um--
uma--
ume--
umhu--
un--
una--
und--
une--
ung--
unhe--
unhen--
uni--
univer--
unma--
uok--
uol--
uor--
up--
ur--
ura--
urad--
ural--
uru--
us--
use--
usko--
uspen--
ust--
ustavzo--
ut--
uta--
utiliza--
utmat--
uu--
uudi--
uuk--
uv--
uva--
uw--
uz--
v--
va--
vac--
vag--
vagon--
vagonan--
vah--
vaht--
vai--
val--
valah--
valat--
valatoi--
vald--
valdkund--
vale--
valu--
van--
vanh--
vanund--
var--
vara--
varatoi--
varmd--
varu--
varuit--
varuitom--
vas--
vast--
vastha--
vastusen--
vate--
vau--
vauh--
vauk--
vaum--
vauv--
vauvhat--
vd--
vdund--
ve--
veb--
ved--
veda--
veden--
vedhudet--
vegeta--
vehk--
vei--
vek--
vel--
velg--
veloteh--
ven--
venc--
vend--
ver--
veraz--
verb--
verd--
veren--
verhan--
verho--
verk--
ves--
vest--
vet--
veteri--
vezi--
vi--
via--
vic--
vid--
video--
vie--
vig--
viga--
viha--
vihankan--
vihm--
vii--
vik--
viki--
vil--
vill--
vilu--
vilugoi--
vin--
vinan--
vir--
viri--
vis--
visit--
visok--
vit--
viz--
vk--
vl--
vn--
vo--
voi--
voimuju--
voin--
vol--
volks--
von--
vor--
vos--
vp--
vr--
vs--
vu--
vui--
vuk--
vul--
vv--
vved--
vya--
w--
wa--
war--
was--
we--
west--
white--
wi--
wie--
wil--
wild--
win--
won--
wor--
wr--
wu--
wy--
x--
xx--
y--
ya--
yar--
ye--
yu--
z--
za--
zahar--
zai--
zal--
zalae--
zaless--
zan--
zanzi--
zavot--
ze--
zel--
zen--
zerk--
zh--
zi--
zim--
zin--
zira--
zm--
zmeinog--
zn--
znam--
zo--
zon--
zoo--
zoroas--
zr--
zu--
zub--
zund--
zveni--
æ--
ð--
ɑ--
ɒ--
ə--
ɛ--
ɡ--
ɣ--
ɦ--
ɪ--
ɾ--
ʁ--
ʃ--
ʊ--
ʋ--
ʒ--
ʔ--
γ--
δ--
ε--
κ--
λ--
μ--
ν--
π--
ρ--
σ--
τ--
φ--
а--
аб--
ав--
авгу--
авто--
ак--
ал--
алек--
аль--
ам--
аму--
ан--
ана--
ар--
архангель--
ат--
б--
ба--
бе--
белозе--
би--
благовещен--
бо--
бог--
бол--
боль--
бор--
бр--
бра--
брат--
бу--
бы--
быв--
в--
ва--
ве--
вел--
вепс--
вер--
ви--
вик--
вики--
вла--
вме--
во--
воен--
воз--
вол--
вор--
вы--
г--
га--
гал--
ге--
гео--
георгиев--
гер--
ги--
гим--
гл--
глав--
го--
гол--
гор--
гос--
госпи--
гр--
гру--
гу--
губ--
д--
да--
де--
дет--
дж--
ди--
дми--
до--
дра--
ду--
ды--
е--
ека--
ес--
ж--
же--
желез--
жен--
жи--
жу--
з--
за--
запи--
зе--
зем--
зо--
зол--
зырян--
и--
ив--
иг--
из--
ик--
ил--
ин--
интер--
ис--
исследов--
историче--
ию--
к--
ка--
казан--
каль--
камчат--
кан--
кар--
карель--
квадра--
кварцит--
ке--
ки--
кир--
кл--
клю--
кн--
ко--
ков--
кол--
комму--
комсомоль--
кон--
кор--
кр--
кра--
крас--
красно--
кре--
кри--
крым--
ку--
куз--
культур--
куп--
кург--
кы--
кыр--
л--
ла--
ле--
лес--
ли--
ло--
лу--
луч--
ль--
лю--
люб--
м--
ма--
ман--
мар--
мари--
ме--
между--
меч--
ми--
микро--
мо--
моло--
москов--
му--
муезе--
муж--
муниципаль--
мурман--
мы--
мэ--
н--
на--
набереж--
назв--
нар--
народ--
науч--
наци--
не--
нев--
нерчин--
ни--
ник--
николь--
но--
ново--
новосиби--
новочебокса--
нь--
ню--
о--
обр--
обще--
од--
ок--
октябрь--
ол--
ор--
ос--
ост--
от--
ош--
п--
па--
павлов--
пара--
пе--
пев--
пет--
петров--
пи--
пл--
пла--
по--
побе--
пожар--
пол--
поли--
поляр--
пра--
правитель--
пре--
при--
примо--
пу--
пья--
пя--
пятиго--
р--
ра--
раб--
рад--
раз--
разви--
рас--
расск--
ре--
рев--
ро--
род--
роди--
роз--
рос--
ру--
рус--
ря--
с--
са--
сахалин--
сви--
свя--
се--
север--
сель--
сераф--
си--
ск--
сл--
сло--
со--
совре--
спа--
спас--
ст--
стерли--
стор--
су--
съ--
сы--
сэ--
т--
та--
тата--
те--
тер--
ти--
то--
тр--
тра--
ту--
тър--
у--
удмур--
улья--
управ--
ур--
успен--
усс--
уч--
ф--
фев--
фи--
фин--
фор--
фри--
х--
ха--
хл--
хо--
холм--
хрис--
ху--
ц--
цве--
це--
ч--
че--
чер--
чи--
чу--
ш--
ша--
шах--
ше--
шк--
шу--
ще--
ы--
э--
ю--
юр--
я--
янв--
қ--
افغ--
ก--
า--
เ--
--0
--00
--03
--06
--1
--17
--18
--2
--24
--3
--30
--4
--5
--6
--62
--7
--8
--84
--9
--91
--a
--aa
--aari
--ab
--abad
--ac
--ach
--acii
--acijad
--acijal
--acijale
--acijan
--acijas
--acijata
--acijoil
--aciz
--ad
--ada
--aden
--ades
--adm
--adme
--ado
--adud
--ae
--afo
--ag
--age
--agin
--ago
--agoi
--ah
--aha
--ai
--aig
--ail
--aine
--ait
--aita
--aiz
--aja
--ajad
--ajal
--ajan
--ajid
--ajis
--ajo
--ak
--aka
--akahad
--akaz
--aki
--aks
--al
--ala
--alad
--alaine
--alaiz
--alaz
--ald
--ale
--aline
--alis
--aliz
--alpa
--am
--amata
--amatoi
--amb
--amha
--amis
--amiz
--an
--ana
--ancii
--and
--andai
--andajad
--ang
--anha
--anke
--anno
--annoks
--ant
--antegim
--anu
--ao
--ap
--ar
--ard
--ari
--arii
--arijha
--arine
--aris
--ariz
--arm
--ary
--as
--ase
--asi
--asiz
--asois
--aspa
--ast
--at
--ata
--atad
--atan
--ate
--ath
--ati
--ation
--ativine
--ativiz
--atiz
--ato
--atoi
--ator
--atum
--atus
--atuz
--au
--aud
--av
--ava
--avi
--avod
--aw
--ay
--aya
--az
--aze
--b
--ba
--babud
--bank
--bar
--bas
--baum
--baz
--be
--beck
--berg
--bi
--bird
--bl
--ble
--bo
--boi
--boil
--bol
--boo
--border
--bruk
--bst
--bu
--buk
--bur
--burg
--busad
--but
--by
--c
--ca
--cal
--can
--cape
--cast
--ce
--ceae
--cel
--cern
--ch
--che
--cht
--church
--ci
--cii
--cija
--cijaks
--cijha
--cijoid
--cine
--cio
--cit
--city
--ciz
--ck
--ckan
--cks
--cle
--co
--cov
--ct
--ction
--cu
--cus
--cy
--d
--da
--dab
--dad
--dae
--dai
--dal
--dan
--das
--day
--de
--ded
--deh
--deks
--del
--den
--denke
--depo
--der
--des
--dest
--di
--dia
--dict
--dii
--dijad
--dijan
--dik
--din
--dine
--ding
--dir
--dis
--dita
--diz
--dl
--dle
--dm
--dme
--do
--dom
--don
--dov
--dr
--dra
--dro
--ds
--dsk
--dt
--du
--dud
--dushe
--duz
--dy
--dz
--dze
--e
--ea
--eae
--ean
--eau
--eb
--ec
--eca
--ecan
--eck
--ed
--eda
--edan
--edi
--edijas
--ediz
--ee
--eev
--eg
--ege
--eged
--egen
--egi
--egid
--egim
--egis
--eh
--ehe
--ehk
--ei
--eid
--eil
--eim
--ein
--eina
--eisk
--eiz
--eja
--ejan
--ejiz
--ek
--eke
--eks
--el
--ela
--ele
--eli
--em
--emb
--en
--ena
--ence
--end
--eng
--enga
--eni
--enin
--enke
--enko
--enno
--ens
--ensis
--ent
--entad
--ente
--entiz
--ento
--eo
--eon
--ep
--epa
--epo
--er
--era
--ere
--eres
--eri
--ering
--erl
--ern
--ero
--ers
--ert
--eru
--erus
--ery
--es
--esai
--esan
--ese
--esel
--esen
--eses
--esid
--esine
--esk
--espa
--est
--et
--eta
--ete
--eti
--ets
--etsk
--ett
--etta
--ette
--etud
--eu
--eum
--eus
--ev
--eva
--eve
--evic
--evna
--evo
--ex
--ey
--ez
--ezan
--eze
--ezi
--f
--fa
--fan
--fe
--fel
--fer
--ff
--fi
--fil
--fild
--fiz
--fly
--fo
--frid
--ft
--fu
--ful
--fur
--g
--ga
--gad
--gal
--gan
--gas
--gat
--gaz
--gazan
--gdon
--ge
--gel
--gen
--ger
--ges
--gesed
--gha
--ght
--gi
--giev
--gii
--gim
--gio
--gir
--gis
--giz
--gjan
--gl
--gma
--gn
--go
--gof
--goi
--gos
--gov
--gr
--grad
--gram
--graph
--ground
--gry
--gs
--gton
--gu
--gue
--gy
--h
--ha
--had
--hak
--haks
--hal
--han
--has
--hasai
--haspa
--he
--hed
--hein
--hel
--hem
--hen
--hes
--hesai
--hev
--hevo
--hi
--hia
--hian
--hid
--hidme
--hii
--hik
--hika
--hiks
--hil
--him
--hima
--hin
--hino
--hinsk
--hip
--his
--hiz
--hk
--hka
--hki
--hkin
--hl
--hm
--hma
--hn
--hniy
--ho
--hod
--hof
--hos
--hosai
--hov
--hra
--hs
--hsk
--ht
--hta
--hti
--htub
--hu
--hus
--husai
--hut
--huz
--i
--ia
--iad
--iadan
--ial
--ian
--iana
--iard
--ias
--ib
--iba
--ible
--ic
--ica
--icad
--ical
--ice
--ici
--icii
--ico
--ics
[...]
