!
"
#
##0
##1
##10
##11
##12
##13
##14
##15
##16
##17
##18
##19
##2
##20
##21
##22
##23
##24
##25
##26
##27
##28
##29
##3
##30
##31
##32
##33
##34
##35
##36
##37
##38
##39
##4
##40
##41
##42
##43
##44
##45
##46
##47
##48
##49
##5
##50
##51
##52
##53
##54
##55
##56
##57
##58
##59
##6
##60
##61
##62
##63
##64
##65
##66
##67
##68
##69
##7
##70
##71
##72
##73
##74
##75
##76
##77
##78
##79
##8
##80
##81
##82
##83
##84
##85
##86
##87
##88
##89
##9
##90
##91
##92
##93
##94
##95
##96
##97
##98
##99
$
%
&
'
(
)
*
+
,
-
.
/
0
00
000
0000
001
002
003
0037
004
005
006
0061
007
008
009
01
010
011
0111
012
013
014
015
016
017
018
019
02
020
0200
021
022
023
024
025
026
027
028
029
03
030
0302
0309
031
032
033
034
035
036
037
038
039
04
040
041
042
043
044
045
046
047
048
049
05
050
051
052
053
054
055
056
057
058
059
06
060
061
062
063
064
065
066
067
068
069
07
070
071
072
073
075
076
077
078
079
08
080
081
082
083
084
085
087
088
089
09
090
091
092
093
094
095
096
097
099
1
10
100
1000
10000
100000
1001
1003
1005
1006
101
1013
1018
102
1023
103
1034
104
105
1050
106
1065
107
108
109
1091
1099
11
110
1100
11000
111
1114
112
1128
1133
114
1148
115
116
117
1170
118
119
1196
12
120
1200
12000
121
122
123
1230
124
125
126
127
12738
128
129
13
130
13000
131
133
1332
1337
134
1340
1342
1345
135
1352
1354
136
1362
1365
1366
1368
1369
137
1370
1372
1373
1374
1375
1376
1377
1378
1379
138
1380
1381
1382
1383
1384
1385
1386
1387
1388
1389
139
1390
1391
1392
1393
1394
1395
1396
1397
1398
1399
14
140
1400
14000
141
142
143
144
145
1453
146
1467
147
148
149
15
150
1500
15000
151
1519
152
1525
153
1531
154
155
156
1566
157
158
159
15919
15924
16
160
1600
16000
161
1615
162
1620
1632
1635
164
1640
1642
165
166
1665
167
168
1683
169
17
170
1700
17000
171
1717
172
1720
17257
1731
174
1740
1747
175
1750
1754
1756
176
1760
1766
177
1770
1775
1779
1782
1785
1787
1788
1789
179
1791
18
180
1800
1808
181
1813
1814
1819
182
1829
183
1838
184
185
1850
1851
1853
1855
1858
1860
1861
1862
1863
1865
1867
1868
187
1873
1875
1876
1877
1878
188
1880
1882
1883
1886
1888
1889
189
1890
1893
1894
1895
1896
1897
1898
1899
19
190
1900
1901
1902
1903
1904
1906
1907
1908
1909
191
1910
1911
1912
1913
1914
1915
1917
1918
192
1920
1922
1928
1929
1930
1935
1937
1938
1939
194
1940
1942
1943
1945
1948
1949
195
1950
1952
1953
1954
1955
1956
1957
1958
1959
196
1960
1961
1962
1963
1964
1965
1966
1967
1968
1969
197
1970
1971
1972
1973
1974
1975
1976
1977
1978
1979
198
1980
1981
1982
1983
1984
1985
1986
1987
1988
1989
1990
1991
1992
1993
1994
1995
1996
1997
1998
1999
2
20
200
2000
20000
2001
2002
2003
2004
2005
2006
2007
2008
2009
201
2010
2011
2012
2013
2014
2015
2016
2017
2018
2019
202
2020
2021
2022
2023
204
205
206
206189462
207
209
21
210
2100
211
213
214
215
216
219
22
220
2200
22000
221
222
22222
223
224
225
226
228
229
23
230
2300
231
232
233
234
235
236
237
238
239
24
240
2400
24000
242
243
244
245
246
247
248
249
25
250
2500
25000
251
252
253
254
255
256
257
258
259
26
260
2600
26000
261
262
263
264
265
267
268
268876608
268921163
269
27
270
2700
27000
271
273
274
275
276
277
278
28
280
2800
281
282
284
285
28500
287
289
29
290
2900
29000
291
292
293
294
295
296
297
298
299
3
30
300
3000
301
302
303
304
305
306
308
309
31
310
3100
311
312
313
314
315
31635
3166
319
32
320
3200
322
323
324
325
326
327
328
33
330
3300
331
333
334
336
337
338
339
34
340
3400
341
342
343
344
345
346
347
348
349
35
350
3500
351
353
354
355
356
357
36
360
3600
36000
3602
361
363
364
365
366
367
368
37
370
3700
371
372
373
374
375
378
38
380
3800
39
390
3900
393
394
395
396
397
4
40
400
4000
401
402
403
404
406
407
41
4100
412
413
415
416
418
419
42
420
4200
421
422
424
425
426
427
428
43
430
4300
431
432
435
436
439
44
440
4400
44000
441
443
445
448
449
45
450
4500
452
453
454
455
456
457
458
459
46
460
4600
461
463
464
467
469
47
470
4700
471
475
476
477
478
48
480
4800
483
484
485
486
488
49
490
4900
494
495
496
499
5
50
500
5000
501
502
503
507
508
51
510
5100
512
513
515
516
518
52
520
5200
521
522
524
525
527
528
53
5300
531
532
534
535
537
538
539
54
540
5400
541
544
546
547
548
55
550
5500
551
552
553
555
556
5566
557
559
56
560
5600
565
57
570
571
573
574
575
576
578
5780
58
580
5800
581
582
585
588
589
59
590
5900
591
592
594
595
6
60
600
6000
601
602
603
604
606
609
61
610
614
617
618
62
620
6200
621
624
625
626
63
630
6300
631
636
637
6389
639
64
640
6400
644
645
647
648
65
650
65000
66
663
664
666
668
67
670
6700
671
673
674
675
679
68
680
6800
686
69
6900
691
697
7
70
700
7000
706
708
7098
71
710
711
712
714
716
72
720
7200
727
73
730
731
732
734
736
738
739
73916
74
7456
749
75
750
7500
753
76
7600
77
7700
778
78
780
784
788
789
79
793
794
797
798
799
8
80
800
803
806
809
81
815
816
817
82
8200
821
823
825
828
83
8300
838
84
8400
842
843
847
8476
849
85
850
856
86
8600
87
871
878
88
8800
882
883
884
8841
885
886
887
89
897
898
9
90
900
9000
908
91
910
9100
92
9200
93
94
9400
95
951
953
96
960
964
97
974
978
98
980
9800
986
99
990
9932
995
9999
:
;
<
=
>
?
@
\
^
_
`
a
aa
aaa
aad
aaf
ab
abbas
abbasabad
abbreviation
abc
abd
abdullah
abe
abf
ability
abkhasian
able
ablo
ablon
ablona
ablonas
ablono
about
above
abovebelow
abovecell
abovestyle
abraham
absent
absolute
abstract
abu
abuse
abusefilter
ac
academic
academy
accent
acceptable
acceptance
accepted
accepting
accepts
access
accessed
accessibility
accessible
according
accordingly
account
accounts
acd
ace
ache
achieve
across
act
action
actions
active
activist
activities
activity
actual
actuales
actualidad
actualidade
actualita
actualitat
actualitates
actualite
actually
acute
ad
ada
adam
add
addcat
addcategory
addclass
added
adding
addition
additional
additionally
additions
addkey
addnamed
addnewline
addoptionalheader
addportletlink
addpositional
addr
address
addresses
adds
addtablerow
addwarning
adem
adi
adjective
adjust
adlm
admin
administration
administrative
administrator
administrators
admins
adminship
adolf
adopted
adult
advance
advanced
advocate
ae
aec
aed
aer
aerial
af
aff
affairs
affect
affected
affects
affiliate
affiliates
afghan
afghanistan
africa
african
after
ag
again
against
agdama
age
agency
agenda
aggregator
aghu
ago
agra
agree
agreement
agta
ahead
ahmet
ahom
ahref
ai
aid
aide
aim
aims
ain
ainu
air
aircraft
aired
airport
ais
aix
aizi
aja
ajax
ak
aka
aktual
aktualite
aktuality
aktualnos
aktuella
aktuelle
aktuelno
al
ala
alan
alba
albanian
albarradas
albert
albisteak
alborz
album
ale
alef
aleksandr
alert
aleut
alexander
alexandra
alexis
alfred
alg
algebra
algerian
algonquian
ali
aliabad
alias
aliases
alice
align
aligned
alignment
alireza
all
allah
allcat
alleborgobot
alliance
allman
allow
allowed
allowing
allows
almaty
almost
alnum
along
alpapraana
alpha
alphabet
alphabetical
already
als
also
alt
alta
altai
alternate
alternative
alternativemap
although
alto
alu
always
am
ama
amami
amba
ambassade
ambassador
ambassadors
ambox
ame
amendment
america
american
ami
amin
amir
among
amount
amp
amsterdam
amuzgo
amy
an
ana
analysis
anarchism
anastasia
ancash
anchor
ancient
and
anderson
andothers
andre
android
ang
angal
angeles
angle
anglo
angola
ani
animal
aniversa
anjoman
anjum
anna
anne
anniversaries
announce
announced
announcement
announcements
announcing
annual
anonymous
another
answer
answers
anthology
anthony
antipope
antique
antiquity
antonio
anunsyo
anusvara
any
anyone
anything
ao
ap
apache
ape
api
apocalyptic
apologies
apologize
apostrophe
app
appeal
appear
appearance
appeared
appears
append
appendchild
applicable
applicants
application
applications
applied
applies
apply
applyonselection
appointed
appreciate
appreciated
appreciation
approach
appropriate
approval
approximately
apr
april
aquatica
ar
ara
arab
arabia
arabian
arabic
arago
aramaic
ararat
arbitrary
arbre
arc
archaic
architecture
archive
archived
archives
are
area
areas
aren
arg
argentina
argkeys
args
argsk
argsprefix
argsv
argtables
argument
arguments
ari
arin
aristotle
armenia
armenian
armenians
armi
armn
army
around
arp
arr
array
arrow
arrowhead
ars
art
artes
arthur
article
articles
artist
arts
arz
as
ash
ashe
asia
asian
ask
asked
asking
asmat
asp
aspects
aspx
ass
assemble
assembleoutput
assembly
assign
assigned
assist
assistance
assisted
associated
association
assume
ast
astronomy
asu
at
ata
athlete
athletes
atlas
atm
atomic
atratus
atta
attached
attack
attacks
attempt
attemptorder
attention
attr
attribute
attributes
atuais
au
audience
audio
auf
august
australia
australian
australis
austria
author
authority
auto
autocollapse
autoconfirmed
automatic
automatically
autonomous
autoreview
autualidat
auxiliary
av
ava
avagraha
availability
available
ave
avenue
avn
avoid
avril
avst
avv
aw
awa
award
awards
aware
awareness
away
awyu
axe
axis
ay
ayb
aye
ayi
aymara
ayta
ayx
az
azerbaijan
azerbaijani
b
ba
baa
baad
baba
babel
baboli
baby
bacharach
back
background
backtranslate
backwards
bacon
bad
badab
bade
bag
baga
bahasa
bahrain
bahram
bai
baie
bainouk
baku
bakus
bal
balance
bale
bali
balinese
ball
balochi
bamerde
bamerden
bamu
ban
banda
bandera
bangkok
bangladesh
bank
banned
banner
banners
bannertemplate
bans
banvishti
bar
barat
barbara
barcelona
bardha
bare
bareli
barnes
barred
barree
bars
bart
bas
basa
base
baseball
based
baseline
basestyle
basic
basics
basin
basis
basketball
basque
bass
bassa
bat
bata
bataille
batak
bath
bati
battle
batu
batumi
bau
bay
baye
bayte
bb
bba
bbc
bc
bca
bcd
bce
bcl
bclower
bcp
bd
be
bea
beach
bearman
beaver
because
beck
become
becomes
becoming
bed
bee
been
before
begin
beginning
begins
begivenheder
begun
beh
behalf
behaves
behavior
behavioral
behaviour
behind
bei
being
bel
belarus
belgium
beli
belief
beliefs
believe
belimpas
bell
below
belowstyle
ben
benefit
beng
bengali
benin
benjamin
ber
bera
berawan
berber
beri
berlin
bernard
bertrand
bes
best
bestval
bet
beta
betawiki
betsimisaraka
better
between
beyond
beza
bf
bg
bh
bha
bhasa
bhks
bho
bhojpuri
bhoti
bi
bianquis
biao
bible
biblical
bibliographisches
bid
bidayuh
bie
big
bikol
bila
bild
bill
billion
bin
binary
bine
biographies
biography
birds
birgit
birth
bishnupriya
bishop
bit
biya
biye
biz
bjn
bjt
black
blacklist
blacklisted
blacklistentry
blacklisting
blackwell
blade
blank
blast
blica
block
blocked
blocks
blog
blogfa
blogs
blp
blue
blurb
blurbobj
bm
bn
bo
boa
board
boat
bobby
bobo
bodo
body
bodyrow
bodystyle
bohr
boi
boilerplate
bokma
bold
bolded
bolivian
bontok
book
bookmark
books
boolean
bopo
bor
bora
border
bordered
borj
borjian
born
boro
boston
bosworth
bot
botflags
both
botmaster
botmultichill
bots
botstatus
bottle
bottom
bow
box
boxargs
boxes
boxtable
boy
bozo
bp
bpd
bpy
br
bra
bracket
brackets
brah
brain
branch
brasil
brazil
brazilian
break
breaking
breaks
breed
breton
breve
brian
bridal
bridge
brief
brill
bring
britain
britannica
british
broad
brockhaus
broken
brooklyn
brother
brown
browser
browsers
bru
bruce
brunei
brussels
bs
bst
bu
bua
bud
bug
bugs
build
builder
building
built
bulgaria
bulgarian
bull
bullet
bulletin
bum
bun
bundesarchiv
bune
bunu
bureau
bureaucrat
buriat
burkina
burma
burmese
buryat
bus
business
but
button
buttongenerator
buttonhtmlgenerator
buttonlabel
buttons
buyang
bw
bxr
by
bye
c
ca
cab
cabaret
cabinet
cabo
cac
cache
cactions
cafe
calan
calendar
california
call
called
calling
callparserfunction
calls
calstrings
cambridge
cameroon
camp
campaign
campidanese
can
canada
canadian
candidacy
candidate
candidates
candra
candrabindu
cang
cannabina
cannot
cans
canvas
canyon
cao
cap
capacity
cape
capital
caption
captured
captures
car
card
cardinal
cards
carduelis
care
career
cari
caribbean
carolina
caron
carrier
casa
cascade
cascades
case
cases
casillas
caspian
cast
castle
castro
cat
catala
catalan
catalogne
catalonia
catalun
catalunya
catch
cate
categoria
categories
categorisation
categorise
categorization
category
categoryhandler
categorytoc
cathedral
catlinks
cats
cattitle
caucasian
caucasus
cause
causes
caveat
cb
cbc
cbk
cc
ccat
ccc
ccccff
ccd
cd
cdo
ce
cea
ceb
cedilla
cel
cell
cellcount
cells
census
cent
center
centered
centering
central
centralnotice
centre
centro
centuries
century
ceremony
certain
cest
cf
cfg
ch
cha
chad
chadian
chair
chairmanship
challenge
cham
championship
chan
chance
change
changed
changes
changing
channel
chapter
character
characters
charge
charles
charlottesville
charter
chastity
chat
chatino
che
check
checkarchives
checkarg
checked
checking
checklist
checks
checktype
checkuser
checkvalue
cheers
chemical
chemistry
cher
cherokee
chetti
chg
chi
chicago
chief
child
children
chile
chilean
chillu
chin
china
chinantec
chinese
chiricahua
cho
chontal
choose
chosen
chr
christ
christian
christianity
christmas
christopher
chrome
chronology
chu
church
chy
ci
cia
cias
cinema
circle
circumflex
circumstances
citation
citations
cite
cities
citoid
city
civil
civilization
cjk
ckb
ckoerner
claim
claims
clarity
clark
class
classes
classic
classical
classics
classification
classname
cldr
clean
clear
cleopatra
cleric
click
clickable
clicked
clicking
client
cliff
clinical
clio
close
closed
closes
cloud
club
cluster
cm
cmbox
cnn
co
coalition
coast
coastal
coatla
cochrane
cod
code
codepoint
codes
cognitive
coin
col
colclass
collaborate
collaboration
collaborative
collapse
collapsed
collapsible
collapsibleclass
collected
collection
collections
collective
college
collins
colombia
colon
color
colorado
colors
colours
cols
colspan
colspans
colspansi
colstyle
columbia
column
columnmethods
columns
com
combat
combatant
combatants
combination
combinations
combining
combustion
come
comedy
comer
comfortable
comic
coming
comma
command
commander
comment
commentary
comments
commission
committee
common
commonly
commons
commonwealth
communicate
communication
communism
communist
communities
community
comorian
compact
companion
company
compare
comparelink
compareurl
comparison
compass
compat
compatibility
competition
complaint
complaints
complete
completed
completely
completion
complex
complexity
compliance
component
composition
compresssparsearray
computer
con
concat
concerns
concert
concise
condition
conduct
confederacy
confederalism
confederate
conference
confidence
config
configtables
configuration
configure
confirmed
conflict
conflicting
conflicts
confusion
congo
congress
conjunction
consensus
consequnces
consider
consistency
consistent
console
constitution
construction
consultation
consultations
contact
contain
contained
container
containerid
containing
contains
contemporary
content
contentmodel
contents
contest
context
continent
continue
continuum
contract
contrast
contribs
contribute
contribution
contributions
contributor
contributors
control
conversation
conversations
conversion
conversions
convert
converted
cook
cookies
cooper
cooperation
coord
coordinate
coordinates
coordinator
cop
copied
copleston
copt
coptic
copy
copyright
core
corn
corner
cornish
corona
corporation
correct
correctly
corresponding
corresponds
costa
costume
cot
could
council
count
counter
countries
country
county
coupe
couple
course
court
cover
covered
covering
cow
cp
cprt
cr
crab
craig
crc
create
created
createelement
createtextnode
creating
creation
creative
credit
credits
cree
creek
creole
crh
crimea
criteria
critical
criticism
croatia
croatian
crop
cropped
cross
crowd
crowe
crown
cruz
cry
crystal
cs
csa
csb
css
csstext
ctype
cu
cua
cuba
cult
cultural
culture
cuneiform
cup
cur
curl
curly
currency
current
currentdisambiguationpattern
currently
currentprot
currentversion
curry
cursai
cursor
custom
cut
cv
cy
cycle
cyprus
cyrillic
cyrl
cz
czech
d
da
dab
dablink
dad
dag
dage
dai
daily
daju
daketun
dal
dalai
dali
dallas
dam
damavand
dame
damma
dan
danas
dance
dances
dani
daniel
danish
dans
dar
dare
dari
dark
darkness
das
dash
data
database
dataset
datatype
datavalue
date
dates
datestuff
datum
david
davis
daw
day
days
daysinmonth
db
dbf
dc
dd
dda
ddd
ddddff
ddha
de
dead
deadline
deal
dealer
dean
dear
death
debug
debugmessagelist
debut
dec
december
decide
decided
decimal
decimalprecision
decimaltodms
decision
decisions
declaration
declares
decode
deep
deepcopy
deer
def
default
defaultkey
defaults
define
defined
definition
deg
degree
degruyter
deh
dei
dek
del
delacroix
delaware
delay
dele
delete
delft
delivered
delivery
delta
dem
demo
democracy
democratic
demonstration
demopage
demospace
den
dene
denmark
denny
density
dep
department
dependencies
dependent
depending
deploy
deployed
deployment
deployments
deprecated
der
deres
derest
derk
derya
deryac
des
desc
descender
descent
described
description
descriptions
design
designation
designed
desirable
desired
desktop
destacadas
deste
detail
detailed
details
detect
detected
determine
determines
deutsch
deutschland
deva
devanagari
develop
developed
developer
developers
development
device
devices
df
dha
di
dia
diaeresis
diak
dialect
dialects
dialog
dialogue
dialytika
dictionary
did
dida
die
died
dienos
dies
diesel
diff
difference
differences
different
diffraction
diffs
dig
diga
digit
digital
digits
digraph
dili
dim
dime
dimli
din
dinka
diplomacy
diq
dir
direct
direction
directly
director
directory
dirham
dirty
disable
disabled
disagree
disambig
disambiguation
disambiguationpattern
disambiguator
disaster
discovery
discuss
discussed
discussion
discussions
disease
disorder
disp
display
displayed
displaying
displays
displayyear
dispute
disputes
disruption
dissemination
distance
distinction
distribute
distributed
distribution
district
dit
div
divdir
diverse
diversity
divided
divine
division
divisions
divs
dje
djk
dk
dkar
dl
dmo
dms
dmy
dna
dne
do
doc
doccfg
docpage
doctitle
document
documentation
documentelement
documents
doe
does
doesn
dog
dogon
doi
doing
dom
domain
dome
don
donald
donation
done
dong
donzel
door
dora
dos
dot
dotless
dots
dotted
douard
double
down
dozens
dprec
dq
dr
draft
drafting
drag
dragon
dream
drop
dropdown
dropped
drug
drz
dsb
dsm
dt
dts
dtxt
dtype
du
dubai
duchess
due
duke
dupl
duplicate
durango
durant
during
dusun
dutch
dv
dwarf
dx
dyu
dz
dza
dze
dzɔdzɔm
dərya
e
ea
eaba
each
eagle
earlier
early
earth
easier
easily
east
eastern
easy
eb
ebchecked
ebsco
ec
echo
economic
economics
ecuador
ed
ede
eden
edge
edit
edited
editform
editing
editintro
edition
editlink
editnotice
editor
editorial
editors
editpage
editrequest
edits
editsection
edittools
edo
eds
edt
edu
education
edvard
edward
edwards
edwin
edłoga
edłoha
ee
eee
eerdmans
ef
efeme
efenealde
effect
effective
effects
efficient
effort
efforts
effraim
eg
egy
egypt
egyptian
ei
eid
eiffel
eight
ein
einstein
either
ek
ekspozycje
el
elder
election
elections
electronic
element
elements
eligibility
eligible
elitre
elizabeth
elk
ell
elm
else
elseif
em
ema
email
embahada
embassy
embera
emergency
emigration
emperor
empire
empty
en
enable
enabled
enables
enabling
encarta
enclosed
encode
encodeuricomponent
encounter
encourage
encouraged
encyclopaedia
encyclopedia
encyclopædia
end
endash
ending
endorsement
endpos
ends
energy
enforce
enforcement
eng
engage
engagement
engine
engineering
england
english
enhance
ensure
enter
entered
entertainment
entete
entire
entities
entity
entityid
entrance
entries
entry
env
envfuncs
environment
enwiki
eo
epic
epilogue
episode
episodes
epsilon
equal
equals
equity
equivalent
er
era
erhman
eric
eritrea
error
errors
ervenec
es
escape
escapepattern
escudo
ese
esh
esmaeil
eso
espan
especial
especially
esperanto
essential
est
estemrari
estonian
et
eta
etc
ethi
ethics
ethiopia
ethnic
ethnologue
etta
eu
euge
eugene
euro
europe
european
eva
evaluate
evaluation
evangelist
eve
even
evenodd
evenstyle
event
eventonan
eventos
events
eventually
ever
every
everyday
everyone
everything
everywhere
evidence
evolution
ewing
ex
exact
example
examples
except
exception
exceptions
excerpt
excited
exclamation
exclude
exclusion
excuse
execution
executive
exhibition
exist
existing
exists
exit
expand
expanded
expanding
expandtemplate
expansion
expect
expected
expecttype
expensive
experience
experienced
experiment
experimental
experiments
expertise
expiry
explaining
explanation
explanationblurb
explanationsaction
explanationtext
explicitly
explorer
expo
exponential
export
exports
exposition
expression
ext
extended
extendedconfirmed
extendeddisambiguation
extension
extensions
extensiontag
external
extra
extraclasses
extract
eye
ez
ezh
f
fa
faa
fac
face
facebook
facilitate
facing
fact
factbook
factor
faculty
fad
faf
fair
fairy
faith
fali
fall
fallback
falls
false
fam
familia
family
familytree
famname
famous
fan
fang
faq
far
faraday
fargs
fariborz
farlow
farme
fars
farsi
farsnews
fas
fascism
fashion
faso
faster
fat
fate
fatha
father
fauna
favorite
fazeli
fb
fbtbl
fc
fcff
fd
fdate
fdc
fe
fear
feature
featured
features
feb
february
fechos
federation
fee
feedback
feel
feet
feh
felix
fellow
fellowship
female
feminism
fera
festival
festivals
fetch
fetches
fetchvalue
fetchwikidata
few
ff
ffdbdb
ffe
fff
fi
fia
fiction
field
fieldname
fields
fifa
fight
figure
figures
file
fileexporter
filename
files
filippo
fill
filled
film
filter
fin
final
finally
financial
find
findlang
finds
fine
finish
finished
finland
finnish
fire
firefox
first
firstchild
firstheading
firstofmonth
firstweekday
firuz
fish
fit
fitna
fitnah
fiu
five
fix
fixed
fixing
fj
flag
flagged
flags
flemish
fleurs
float
floor
flow
flower
fly
fmbox
fmt
fo
foarloage
focus
focused
foetens
folk
folklore
follow
followed
following
followqid
follows
fon
font
fontfamily
fontstyle
foo
food
football
footer
footnote
footnotes
for
forbes
force
foreign
forest
forget
fork
form
format
formatdate
formatinlanguage
formatmessage
formatnum
formats
formatstring
formatted
formatting
formatvalue
former
formula
fort
forum
forward
found
foundation
four
fourth
fox
fr
fra
frac
fraction
fragment
frame
frameless
framework
franc
franca
france
francis
francisco
francium
frank
frankish
franz
frederick
free
freedom
freezes
french
friday
friedrich
friendly
friesland
frisia
frisian
frm
from
front
frp
frr
frs
fruit
ft
fu
fulfulde
full
fulltext
fullurl
fully
fun
func
function
functionality
functions
fund
funding
fundraising
funds
fur
further
futuna
future
fy
g
ga
gaa
gab
gabon
gadaba
gadget
gadgets
gaelic
gaf
gag
gal
galaxy
gale
gallery
gallurese
gambia
game
games
gamma
gan
ganjavi
gao
gap
garden
gas
gat
gate
gates
gateway
gather
gaty
gay
gb
gbaya
gbe
gd
gdp
ge
gecorene
gel
gelao
gem
gemynddagas
gen
gender
genderspan
gendersymbol
gene
genealo
general
generally
generate
generated
generates
generator
generic
genocide
genus
geo
geographic
geographical
geography
geor
george
georgia
georgian
gerardm
german
germanic
germany
geschichte
geschiedenis
gesture
get
getallstatements
getargs
getbeststatements
getboolean
getcategories
getcommonslink
getcontentlanguage
getcurrentframe
getcurrenttitle
getdisambiguation
getelementbyid
getelementsbytagname
getentityidforcurrentpage
getenvironment
getexpandedmessage
getitemlangcode
getlabel
getnamespaceparameters
getparameters
getparammappings
getparent
getpropertyids
getpropofprop
gets
getsitelink
getsumofparts
getting
gettitle
gettitleobject
getty
getvalue
getvaluebyqual
gey
gez
gfdl
gha
ghale
ghana
ghe
gi
giant
gif
gilun
gina
girl
girls
girona
git
give
given
givenmonth
gives
gje
gl
glag
glargs
glk
global
globals
globalsiteid
globe
glottal
gmail
gmt
gn
gnome
go
goa
goal
god
godis
goes
goethe
gogh
going
gol
gold
goldi
golestan
gomez
gondi
gone
gong
gonm
good
google
gop
gor
gordon
gorge
gospel
got
gov
governance
government
governor
gradient
graham
grammar
gran
grand
grandchild
grande
grant
granted
grants
grape
graph
grateful
grave
gray
grc
great
greater
greatest
grebo
greece
greek
green
greenland
greetings
gregg
gregory
grek
grey
grid
griffin
group
groupn
groups
groupstyle
growth
gru
gsub
gsw
gter
gu
gua
guantanamo
guarani
guarantee
guardian
guest
guevara
guidance
guide
guidebook
guidelines
guillaume
guinea
guiyang
gujarati
gujari
gujr
gul
gula
gulf
gum
gun
gur
gurmukhi
guru
gus
guy
guyana
gv
h
ha
haa
habib
hack
had
haden
haft
hah
haida
haitian
hak
hakenen
hakerde
hakerden
hakka
hakərde
half
hali
hall
ham
hamshahrionline
hamza
han
hand
handbook
handle
handler
handling
hang
hangout
hangul
hani
hano
hans
happen
happening
happens
happy
harassment
haravi
harbour
hard
hari
harper
harvard
harwood
has
hasan
hasclass
hase
hassan
hasse
hat
hatamian
hatnote
hatr
hau
hauptseite
havasupai
have
haven
having
haw
hawai
haystack
hbar
hbo
he
head
header
headerrow
headers
headertext
heading
headings
headline
headpiece
heads
health
healthy
hear
heard
heart
hebr
hebrew
hegemony
heh
height
heina
heinrichs
heisenberg
hekarden
held
hell
hello
help
helped
helper
helpful
helping
helps
hem
hendingar
henri
henry
her
herdenkings
here
heritage
hesse
het
hezbollah
hh
hi
hidden
hide
hierarchy
hieroglyphs
hierotable
high
higher
highest
highland
highlight
highlighted
highlighting
highlights
highly
highway
hill
him
hindi
hindko
hira
hiragana
his
historia
historic
historical
histories
history
hit
hitler
hittite
hiw
hl
hlist
hmng
hmnp
hmong
hnj
ho
hoan
hockey
hold
holder
holding
holds
hole
hollande
holocaust
holy
home
hong
hood
hook
hope
horizon
horizontal
horn
horse
hospital
host
hosted
hosting
hot
hotcat
hotel
hour
hours
house
hover
how
howard
however
hr
href
hsb
ht
htm
html
http
https
hu
hua
huasteca
huave
hub
hubble
hubs
huge
hugo
huishui
huitoto
hukumet
human
humanities
hun
hundred
hung
hungarian
hungary
hunger
hunting
hus
husam
husserl
hut
hy
hz
i
ia
ian
iana
ibn
ibu
icd
ice
iceland
icelandic
icon
icons
id
ida
idea
ideal
idealab
ideas
identical
identified
identity
ideograph
ideology
idi
idiom
idioma
ido
ids
idx
ie
ietf
if
ifugao
ig
ignore
ignoreblank
ii
iii
ije
ijo
ik
il
ila
ile
ilgar
ili
ill
illuminated
illustrated
illustration
ilo
im
image
imagecell
imagecelldiv
imageemptycell
imagefilename
imageleft
imageleftcell
imagelink
imageright
imagerightcell
imagerightnone
images
imageurl
imam
imbox
imc
imdb
ime
imf
img
imi
impact
impera
imperial
imperialism
implement
implementation
implemented
implementing
implements
implied
import
importance
important
imported
improve
improved
improvement
improvements
improving
imran
imwin
in
ina
inactive
inatta
inc
incipit
include
included
includemetatable
includes
including
inclusion
inclusive
income
incorrect
incorrectly
increase
increased
increment
ind
indef
indefinite
indefinitely
indent
independent
index
indexed
indexing
indexnavigationbar
indexof
india
indian
indiana
indic
indicator
indices
individual
individuals
indo
indonesia
indonesian
indus
industry
ine
infinite
infinity
inflation
info
infoarg
infobox
infoboxes
infoboximage
infoboxstyle
infoplease
inform
information
informed
infrastructure
inga
inh
inherit
ini
init
initial
initialise
initially
initiative
inline
inn
innerhtml
innocent
input
inqela
ins
insects
insensitive
insert
insertbefore
inserted
inserttags
inset
inside
insight
inspire
instance
instances
instead
institut
institute
institution
instr
instructions
integer
integrated
integration
intelligence
intended
intention
interact
interest
interested
interesting
interface
interim
interior
interlanguage
interlingua
internal
international
internet
interpretation
interview
interviews
interwiki
interwikis
into
intro
introblurb
introduction
introfragment
inuktitut
invalid
invariant
invert
inverted
investigation
invisible
invitation
invite
invited
inviting
invocation
invoke
invoked
invoker
invoking
involved
involvement
io
ion
iota
iotified
ip
ipa
ipac
ipairs
ipv
iq
ir
ira
iran
iranian
iranica
iranicaonline
iraq
irc
ire
ireland
iri
irish
iron
is
isa
isabbreviated
isadjectivevalid
isbn
iscollapsed
isfahani
islabel
islam
islamic
island
islands
isn
isna
isnan
isnotempty
iso
israel
isseasonnumbervalid
issmall
issn
issubpage
issue
issues
ist
istalkpage
istanbul
istemporary
isthmus
isu
isvalid
isyearvalid
it
ita
italian
italic
italics
italy
item
itemid
items
itemstyle
iterate
iti
itneg
its
itself
iu
iulie
iv
ivoire
iyo
izabrane
izbrane
j
ja
jack
jackson
jahrestage
jakarta
jalil
jam
jamaican
jamal
james
jan
janeiro
january
japan
japanese
java
javaheri
javanese
javascript
jbo
je
jean
jeem
jeh
jennifer
jenots
jersey
jerusalem
jesus
jet
jethrobt
jeu
jewish
jha
jhsbot
jihan
jill
jim
jo
job
jobs
joe
johan
johann
johanna
johannes
john
johnson
join
joined
joining
jones
jose
joseph
journal
journals
jp
jpeg
jpg
jquery
js
json
jst
jstor
ju
jua
juan
judeo
jul
julai
julho
juli
julian
julie
julij
julio
juliol
july
jump
jun
june
junior
jur
just
justify
juǀ
jv
k
ka
kaa
kaapor
kab
kaba
kaboudwall
kac
kadazan
kaf
kai
kaili
kaj
kala
kalapuya
kalinga
kallahan
kalmyk
kam
kamikaze
kan
kana
kandahar
kannada
kanum
kanuri
kar
kara
karabakh
karen
karl
karo
karsh
kasalukuyang
kasra
katakana
kategori
kathmandu
katib
kayah
kayan
kck
ke
kee
keegan
keep
keeping
keheh
kela
kele
kelvin
ken
kene
kenya
kepler
kept
kerde
kern
kerry
kes
keur
key
keyboard
keycode
keyevt
keyhole
keypos
keys
kg
kha
kham
khamsa
khan
khar
khazar
khmer
khmr
kho
khoey
khumi
ki
kia
kid
killing
kills
kim
kin
kinaray
kind
king
kingdom
kinnauri
kirghiz
kirmani
kiss
kk
kl
km
kn
knda
knight
knots
know
knowledge
known
ko
koi
kok
kol
kolbadi
koli
kom
kombuva
komi
kommun
kon
kong
konkani
kono
koord
koppa
korea
korean
koro
kort
kota
kpelle
kr
krc
kriol
kristen
krit
kru
krumen
ks
ksh
ku
kua
kudeta
kui
kuku
kuman
kumite
kuo
kurd
kurdish
kurdistan
kurdistane
kurds
kurmanji
kurt
kurumba
kuuta
kv
kven
kw
kwa
ky
kyrgyz
l
la
label
labelorid
labels
lack
lacroix
lad
lady
lag
lak
lake
lala
lalo
lam
lama
lamp
lamu
lan
lana
land
landing
landscape
lang
langcode
langle
langname
lango
langobj
language
languages
langue
lao
laoo
laos
large
larger
largest
larry
las
last
lat
late
later
latest
latestdatequalifier
latin
latitude
latn
laton
latvian
lau
launch
launched
laundry
laurent
law
layer
layout
lazily
lb
lbe
lbl
lc
lccn
le
lea
lead
leader
leaders
leadership
leading
league
leaman
learn
learned
learning
least
leave
led
lee
left
leg
lega
legacy
legal
legend
lele
len
length
lengua
lenin
leo
leon
leonardo
leone
lepc
les
less
let
lets
letter
letters
level
levels
levine
lewis
lez
lg
lhamte
li
lia
liaison
lib
liberation
liberia
liberland
libertarianism
liberty
library
libraryutil
libyan
license
lid
lie
liepos
life
liftoff
ligature
light
ligue
ligurian
lij
like
likely
lil
limb
limba
lime
limit
limitation
limitations
limited
lin
lina
linb
lincoln
line
linear
linenum
lines
linesep
lingua
linguistic
link
linked
linkeditem
linking
linkprefix
linkredir
links
linkstonum
lion
lions
lip
list
listcell
listed
listing
listitem
listn
listnum
listofepisodesarticle
lists
liststyle
listtype
lisu
lit
literary
literature
lith
lithuanian
little
liv
live
lives
living
lje
lka
ll
lla
llc
lle
lleida
ller
llla
lmo
ln
lnk
lo
load
loaddata
loaded
loader
loading
loc
local
localisation
localise
localised
localising
localizacio
localization
localize
locally
localval
located
location
locations
lock
locomotive
log
logan
logged
logia
logo
logos
logudorese
loma
london
long
longer
longitude
look
looking
looks
lookup
loop
lopez
los
loss
lost
lot
lots
louis
love
loves
low
lower
lowercase
lowland
lp
lpost
lpre
lt
ltd
ltr
ltu
lu
lua
luc
lucy
lue
lui
lumangsung
lunate
luo
luri
luther
luwian
luxembourg
lv
lydi
lydia
lyon
lyrics
m
ma
mac
macedonian
macmillan
macrolanguage
macron
mad
madagascar
madda
made
madonna
madrid
mag
magazine
magazines
mah
mahaapraana
mahak
mahal
mahan
mai
maidu
mail
mailing
main
maincat
maincfg
mainly
mainsnak
maint
maintain
maintainers
maintenance
major
majority
mak
make
makebannertext
makecategorylink
makefullurl
makeinvokefunc
makelist
makeordinal
maker
makes
makesimplecell
maketoolbar
makeurllink
makewikilink
makewikitexterror
makewrapper
makhuwa
making
mal
mala
malagasy
malawi
malay
malayalam
malayo
malaysia
male
mali
mall
malline
malta
maltese
mama
man
manage
management
manager
mand
manda
mandaic
mani
maninka
maninkakan
manipuri
manobo
manual
manually
manuscript
many
mao
maori
map
mapframe
mapping
mappings
mappingskey
maps
mar
mara
marat
marc
march
mardem
margaret
margin
marguments
mari
maria
marino
mark
marker
market
marks
markup
maroon
marriage
mars
marseille
marti
martin
marwari
mary
maryam
mas
maseeh
masela
mashan
masjid
mask
mass
massmessage
master
masters
match
matches
matchesblacklist
matching
material
materials
math
matrix
matter
matthew
mawa
max
maximum
maxvals
may
maya
mayan
maybe
mayi
mayo
mazandaran
mazandarani
mazanderani
mazanderanish
mazatec
mazenderanish
mazerun
mazeruni
mazi
mazmaz
mba
mbe
mbo
mbox
mc
mcgraw
mdennis
mdy
me
mea
mean
meaning
means
meantime
measurement
mechanics
mecles
med
medal
media
medialist
median
mediawiki
medical
medici
medicine
medieval
mediterranean
medium
meem
meet
meeting
meetings
meets
mehdi
mehditalk
mel
melanau
melissa
melli
member
members
membership
memorial
men
mend
mende
mentha
mention
menu
mer
merc
mercosur
mercury
merge
merged
mero
meroitic
merriam
mescalero
message
messagebox
messages
messi
messier
messih
met
meta
metaargs
metaargskey
metadata
metatable
method
methods
metro
mexico
mg
mgo
mh
mhnt
mhr
mi
mia
miami
miao
michael
michelangelo
microformat
mid
middle
middot
midpoint
mien
might
migration
miguel
mil
mila
military
mill
millennium
million
min
mind
minerva
mini
minimize
minimum
minister
ministry
minor
minority
minus
minute
minutes
mirror
mirza
mis
mishmi
missing
mission
mississippi
mit
miwok
mix
mixe
mixed
mixtec
mixtepec
mjbmr
mk
ml
mlt
mlym
mm
mn
mnadzikiewicz
mni
mnong
mo
mobile
mode
model
modern
modes
modi
modifier
modify
module
moduleprot
modules
mohamadhosein
mohammad
moi
moldova
molo
mom
moment
mon
monaj
monastery
monde
money
mong
mongolia
mongolian
monitor
monitoring
mono
monobook
monte
month
monthandyear
monthly
monthnames
months
montreal
montserrat
monument
moon
mor
moral
more
mori
morning
moroccan
mos
moscow
mosque
most
mostafa
mostly
mosul
mother
motion
mount
mountain
mountains
move
moved
movement
movements
moves
moving
moz
mp
mr
mrj
mro
mroo
mru
ms
msc
msfc
msg
mshared
msn
msnbc
mt
mtabletools
mtei
mu
much
mud
mudhahhib
muhammad
muji
mule
mult
multi
multichill
multidatastyle
multilingual
multimedia
multiple
mun
muna
munch
municipality
mur
muria
murut
mus
musa
muse
museum
music
musical
muslim
must
mw
mww
my
myanmar
mylanguage
mymelo
mymr
myth
mythology
mzn
mzv
mæ
n
na
nacional
nader
nag
naga
nago
nagorno
nah
nahuatl
nam
nama
name
named
names
namespace
namespaces
naming
nan
nand
nap
nar
narrow
nasa
nastaleeq
nation
national
nations
native
nato
natural
nature
nav
navbar
navbox
navboxes
navchild
navcontent
navframe
navigation
navigational
navpic
navtoggle
navy
naxi
naþ
nb
nba
nbat
nc
nchen
ncia
ncolumns
nd
nda
ndataset
nde
ndebele
ndelser
ndez
nds
ndu
ne
near
nearest
nebula
necessary
need
needed
needle
needs
negative
nek
nema
nements
nen
neo
nepal
nepali
nested
net
netherlands
network
neutral
neuve
never
new
newa
newari
newclasses
newcomers
newdiv
newer
newindex
newline
news
newsectionlink
newsletter
newspaper
newspapers
next
nextsibling
ney
nfl
ng
nga
ngbaka
ngc
nge
ngjarjet
ni
nia
nicholas
nickmard
nicobarese
nietzsche
nieuws
niger
nigeria
nigerian
night
nik
nil
nilargs
nilargskey
nimr
nine
ninka
nisi
nisu
nizami
nj
nje
nji
njice
nko
nkoo
nl
nlinks
nn
nna
nnnnnn
nnu
no
noactive
nobel
nocat
node
nodyn
noeditsection
noexpiry
noflip
noicon
nolinks
nomatch
nominate
nomination
nominations
non
nondefault
none
nonstandard
nonumtoc
noon
nor
nord
normal
norman
north
northeast
northeastern
northern
northwest
northwestern
norway
norwegian
nos
not
notation
note
notes
nothing
noti
notice
notification
notifications
notify
notoc
nou
noufo
nov
nova
november
novicah
now
nowiki
nowrap
nowruz
nps
nr
ns
nscategory
nse
nsid
nsname
nso
nstable
nstext
nsw
nte
nu
nuco
nuik
nukta
null
num
number
numbering
numbers
nume
numeral
numerator
numerical
numparam
nums
nun
nuntii
nusiwo
nut
nuujs
nv
nw
nwc
ny
nya
nyanga
nyasa
nye
nyi
nynorsk
nyo
nytimes
nzst
o
oaxaca
obama
obj
object
objection
objections
objective
objects
obletnice
oc
ocaasi
occitan
occur
october
odd
oddstyle
odham
odia
oe
of
off
offer
offered
office
officer
official
officinalis
offline
often
og
ogg
ogonek
ogooue
oil
oirat
ois
oj
ojibwa
okinawan
oko
ol
old
oldid
olive
oliver
olo
olympic
olympics
om
oman
ombox
ombuds
ombudsperson
omega
omitted
on
ona
once
one
onepage
ones
online
only
onlycat
onlysourced
onlysrc
oo
op
open
opened
opening
opens
opera
operation
operations
operator
operators
opie
opinion
opinions
opportunities
opportunity
oppose
opposite
opposition
opt
option
optional
optionalcolumns
options
or
ora
oracle
orange
orbis
order
ordered
orders
ordinal
ordsuffix
org
organization
organize
organized
organizing
ori
oriental
orig
origargs
origin
original
origins
oriya
oro
oromo
orthographic
orthography
orwell
orya
os
osd
oslo
other
others
otherwise
oto
otomi
otter
ottoman
ou
ouest
our
out
outdated
outdent
outer
outidx
outline
output
outreach
outside
over
overall
overflow
overlap
overlay
overridden
override
overridecode
overrides
oversight
overview
owl
own
oxford
oxus
p
pa
package
padding
padlock
page
pagename
pageobject
pages
pagesep
pagessep
pagetype
pagetypes
pageviews
pahari
paharia
pahawh
pahlavi
pai
paid
painter
painting
pair
pairs
pak
pakistan
pakistani
paku
pal
palace
palau
palaung
palawano
palestine
palestinian
pali
palm
pam
pame
pamukkale
pan
panel
pangyayari
panjabi
pano
panorama
panoramio
pantheon
pao
pap
paper
papua
par
para
param
parameter
parameterfuncs
parameters
params
paraset
parent
parentheses
parenthetical
parentnode
pargs
paris
parish
park
parkuhi
parlament
parliament
parm
parrotia
parseinput
parseparam
parser
parsi
part
parthava
parthian
partial
partially
participants
participate
participated
participating
participation
particular
particularly
parties
partisi
partner
partners
partnerships
parts
party
pas
pasco
pashayi
pashto
paspasamak
pass
passed
passiflora
passion
password
passwords
past
pat
patent
path
pathoschild
patrick
patrol
patrono
pattern
patterni
patterns
pau
paul
pavilion
pay
paykar
paymanonline
pb
pbs
pc
pcall
pd
pdc
pdf
pdt
pe
peace
peak
pear
pedro
peh
pei
pen
pencil
pending
penguin
peninsula
pennsylvania
people
peoples
pepper
per
percent
pere
perform
performance
period
peristiwa
permission
permissions
perrow
perse
persepolis
persia
persian
persianwikitools
persianyecharcode
persica
person
personal
personality
perspective
perspectives
pes
peso
peter
pfl
pg
pha
phaa
phabricator
phase
phases
phenomenology
phi
philadelphia
philip
philippe
philippines
philosopher
philosophers
philosophical
philosophies
philosophy
phli
phlp
phnx
pho
phoenician
phonetic
photo
photograph
photography
photos
phowa
php
phragmites
phu
physical
physics
physik
pi
piano
piazza
pick
picto
picture
pictures
pid
pidgin
pie
pierre
pih
pilihan
pilla
pilot
pin
ping
pink
pintscher
pinyin
pipe
pipedlink
pipep
pipepbot
piro
pis
pkk
pl
pla
place
placed
placeholder
places
plain
plainidx
plainlinks
plainlinksneverexpand
plainlist
plains
plan
plane
planet
planned
planning
plans
plant
planti
plantilla
plateau
platform
play
player
playmate
plays
please
pleased
plrd
plural
plus
pm
pms
pn
pnb
png
pnt
po
pocket
pod
podatki
poem
point
pointer
pointing
points
pojman
poland
police
policies
policy
polish
political
politician
politics
poll
poly
pomo
pop
pope
popes
popoloca
popoluca
popular
population
popup
popups
port
porta
portaal
portail
portal
portals
portrait
portrett
portugal
portuguese
pos
position
positional
positions
positive
possible
possibly
post
posted
postfix
posting
postponed
postscript
pot
potential
potwari
pound
poverty
power
powers
pp
ppelberg
pr
pra
practice
pre
preamble
prec
precedence
precision
predefinic
predloga
predloz
prefer
preference
preferences
preferred
prefix
prefixed
prefixedtext
prefixes
prefsection
preload
premier
prentice
prepare
preparing
preprocess
presence
present
presentation
preserve
presidency
president
presidential
press
presstv
pretitle
prevent
preview
previews
previous
previously
prevp
prevqid
pri
primarily
primary
prime
prince
princess
princeton
principal
principle
principles
print
printed
prior
priorities
priority
prison
prisoner
privacy
private
privileged
prize
prizes
pro
probably
problem
problems
process
processes
processing
procession
proctor
prod
produce
produced
producer
produces
product
production
professional
profile
profit
program
programming
progress
project
projection
projects
promote
proof
prop
proper
properly
properties
property
propertyid
propertyvalueandquals
prophet
proposal
proposals
propose
proposed
props
proptbl
propval
prose
prostitution
prot
protaaddbutton
protcatname
protect
protected
protection
protectionblurb
protectionblurbs
protectioncategories
protectiondate
protectionlevel
protectionlevels
protectionlog
protectionobj
protests
proto
protocol
prototype
prov
provenc
provi
provide
provided
provides
providing
province
provinces
provincia
provincial
proyeutu
prti
ps
psd
psi
psu
psychiatry
psychological
psychology
pt
ptsd
pu
pub
public
publications
publish
published
publisher
publishers
publishing
puebla
pump
punan
punctuation
punjabi
purbo
purge
purodha
purple
purpose
purposes
push
put
puyol
puzzle
pval
pwo
px
python
pyu
pywikibot
pywikipedia
pywikipediabot
q
qa
qaf
qatar
qiandong
qid
qids
qlist
qm
qodret
qqualid
qu
qual
qualid
qualifier
qualifiers
quality
quals
quantenmechanik
quantities
quantity
quantum
quarry
quarter
que
quechua
queen
query
question
questions
quiche
quichua
quick
quickly
quiddity
quotation
quote
quotebox
quoted
quotes
quotient
qur
quran
qux
qv
qval
qvals
qvalue
r
ra
race
rade
radhakrishnan
radical
radio
radius
rafael
rah
rail
rain
rainbow
raise
raised
rajai
rajon
ralph
ran
random
randomfilenode
rang
range
ranges
rangle
rank
ranks
rap
rar
ras
rate
rather
ratification
rating
ratings
raw
ray
rd
rde
rdel
re
reach
reaction
read
readability
reader
readers
reading
readings
ready
real
reality
really
reason
reasons
reatha
receive
received
recent
recentchanges
recently
recognize
recommend
recommendations
recommended
record
recorded
rect
red
redirect
redirects
redirecttarget
reduce
reduced
ref
refer
reference
references
referendum
reg
regarding
regards
regexp
region
regional
regions
registered
registration
regular
reh
reich
reid
rejang
rel
related
relations
relative
relatively
release
released
relevant
reliable
reliably
relief
religion
religious
rem
remaining
remember
reminder
removalnotice
remove
removeblanks
removed
removeidx
removes
removing
renaissance
render
rendered
renderpercombatant
renders
rendersnak
rendertrackingcategories
repeat
replace
replaced
replacement
replaces
replacetext
reply
report
reports
repository
represent
represented
republic
reqranks
request
requested
requesting
requests
requesttype
require
required
requirements
requires
rer
res
research
reset
resian
resket
resolution
resource
resources
respectively
respublika
rest
result
results
ret
retrieved
retroflex
rets
return
returned
returns
returnval
retval
reuters
reverse
reversed
revert
review
reviewed
reviewing
reviews
revised
revision
revisions
revisionslider
revolution
rez
reza
rfc
rgb
rha
ri
ria
riang
rica
rice
rich
richard
rides
right
rights
rika
rile
ring
rio
ripuarian
risk
riu
river
rk
rm
rn
rna
ro
roa
road
robert
roc
rochester
rock
rocznice
roger
roglai
rohg
rohingya
role
roles
roll
rom
roma
roman
romani
romania
romanian
romanization
romano
romanovs
romansh
rome
ron
ronaldo
roof
room
rooster
root
rooz
rose
rostam
roughly
round
rounded
rounding
roundto
route
routledge
row
rownums
rows
rowstyle
royal
rozaj
rr
rra
rsi
rss
rt
rtags
rtl
ru
rugby
rules
rum
run
runa
runi
running
runs
rup
rupee
rus
russell
russia
russian
ruz
rw
ryu
s
sa
sabah
sabet
sable
sablon
sac
sad
saddle
safari
safe
safety
saffron
sagrada
sah
saharan
saint
sal
salang
salish
salt
salvador
sam
sama
samafomot
samaritan
samba
same
sami
samo
sample
sampletext
samr
samuel
san
sandalwood
sandbox
sandboxtitle
sandwich
sango
sans
sanskrit
sant
santa
santiago
santo
sao
sar
sara
sardinian
sari
sarvepalli
sassarese
sat
satellite
saturday
saudi
save
saw
sax
saxon
say
says
sb
sc
scale
scenic
schedule
scheduled
scheme
scholarly
scholarship
scholarships
school
schwa
science
sciences
scientific
scn
sco
scope
score
scotland
scott
scottish
screen
screens
screenshot
scribunto
script
scripts
scroll
scrolltop
sd
se
sea
search
searching
season
seasonnumber
seasonnumberdiff
seasontype
sec
second
secondary
seconds
secretary
sect
section
sections
securepoll
security
sede
seds
see
seeking
seems
seen
seg
selam
select
selected
selectedmonth
selecting
selection
selectionend
selectionstart
selector
selena
self
selfref
seltext
sema
semasa
semi
semitic
sen
send
sending
senoufo
sense
sent
sentence
sentinel
sep
separate
separated
separation
separator
september
seq
ser
serbia
serbian
sere
series
serif
serve
server
service
serving
session
sessions
set
setattribute
setmetatable
setranks
sets
setting
settings
settlement
setup
seu
seven
several
sex
sexual
sg
sga
sgnw
sgrabarczuk
sh
sha
shackle
shad
shadow
shah
shall
shams
share
shared
she
sheet
shema
shepherd
shi
shift
shin
ship
shipibo
short
shortcut
shortcuts
shortdisambiguation
shorter
shortname
shot
should
shouldn
show
showcharwarning
showing
showinvalidtypeerror
shown
showname
shownamemodified
shows
shtml
si
siamak
sib
sickroom
siddham
siddiqi
side
sidebar
sidebars
sie
siebot
siebrand
siege
sierra
sig
sigma
sign
signes
significant
signs
signup
signups
silver
similar
simon
simple
simpler
simply
sin
since
sincerely
sind
sindhi
singapore
singer
single
sinh
sinhala
sint
sio
sir
sister
site
sitelink
sites
sitesub
situation
six
size
sizes
sjabloon
sk
ska
skabelon
ski
skills
skin
skins
skip
sky
skyline
sl
sla
slash
slave
slavic
slavonic
slink
slovene
slovenia
slovenian
slower
sm
small
smaller
smart
smartphone
smg
smith
sn
snak
snake
snaktype
snið
snow
so
social
socialism
socialist
society
sock
sod
software
sogdian
sol
solid
solomon
solution
solve
some
someone
something
sometimes
somewhere
son
song
songhay
sonny
soon
sop
sophia
sora
sorbian
sorenan
sorry
sort
sorted
sortkey
sortpreparation
sotho
sou
sound
source
sourced
sources
south
southeast
southeastern
southern
southwest
southwestern
sovereign
soviet
sp
spa
space
spacer
spacerside
spaces
spacing
spain
span
spanish
speak
special
specific
specifically
specified
specifies
specify
speech
speed
speedy
spelling
sphere
spider
spiritual
splat
split
splitedinterwiki
sport
sports
spread
spring
springs
sq
squad
square
sr
src
sri
srpnja
ss
ssa
ssss
st
sta
stable
stacked
stadium
staff
stage
stahleck
staircase
stampa
stamps
standalone
standard
standards
stands
stanford
stanley
star
starry
stars
start
startbox
started
starting
startpos
starts
state
statement
statements
states
static
station
statistical
statistics
stats
statue
status
statustext
stay
std
step
stephen
steven
steward
stewards
stewart
still
stone
stop
stopped
store
stored
stories
story
stq
str
straight
strait
strange
strategy
street
string
strings
strip
stripmarker
strodt
stroke
strong
strongly
strout
structure
stub
stubadd
student
studies
study
stuff
style
styles
styling
su
sub
subanen
subdivision
subgroup
subject
subjectns
subjectspace
subjoined
submission
submit
subpage
subpages
subpagetext
subscribe
subscribed
subscription
subset
subst
substituted
substituteparameters
substitution
substring
subtables
subtag
subtags
subtemplate
subversion
success
successful
succession
such
sud
sudan
sue
suffix
suggest
suggested
suggestions
suicide
suite
sukun
sul
sula
sulawesi
sultan
sum
summarized
summarizes
summary
summarytext
summer
sun
sundanese
sunflower
sung
sunset
sup
super
superscript
supplement
supplementary
supplied
supplying
support
supported
supporting
supports
suppress
suppressed
suppressfields
suppression
supreme
sur
sure
surrounded
surt
survey
sus
sustainability
sutherland
sv
svenska
svg
svn
sw
swahili
sweden
swedish
swiss
switch
switching
switzerland
swo
sword
sydney
syllable
symbol
syncing
synonym
syntax
synthebot
syrc
syria
syriac
syrian
sysop
system
systemmessages
szablon
szl
t
ta
tab
tabarestan
tabasco
table
tableroot
tables
tabletools
tack
tag
tagb
tagbanwa
tagclose
tagged
tagopen
tags
tah
tahoma
tahun
tai
tail
taiwan
taj
take
taken
takes
taking
tal
tale
tales
talk
talkpage
talkpagetitle
talks
talktext
talktitle
talu
tam
taman
tamang
tamazight
tamil
taml
tan
tang
tango
tangut
tanishme
tanzania
tap
tapuria
tara
tarahumara
tarask
target
targets
tarragona
tas
task
tasmanian
tat
tatar
tay
taylor
tbl
tc
td
te
tea
team
teams
teborg
tebyan
tech
technical
technology
ted
tee
teh
tehran
teke
tel
telegraph
television
tell
telu
telugu
tem
temp
temperature
templat
template
templatecat
templatecategory
templatedata
templateeditor
templateerrorcategory
templatename
templates
templatestyles
templatetitle
temple
temporary
ten
tengah
tennis
tepehua
tepehuan
ter
terkini
term
terms
terrain
territory
terror
terrorism
terrorist
tes
test
testament
testcases
testcaseslink
testcaseslinks
testcasestitle
tested
testfunc
testing
tests
tet
texas
text
textarea
textcell
textcelldiv
textpart
texts
textstyle
tey
tfng
tg
th
tha
thaa
thaana
thai
thailand
than
thank
thanks
tharu
that
the
their
them
thematic
theme
themes
themselves
then
theory
therapy
there
therefore
these
they
thing
things
think
thinking
third
this
tho
thomas
thorn
those
though
thought
thoughts
thousand
thousands
thread
threadid
three
through
thu
thumb
thumbnail
thumbnails
thursday
thus
ti
tibetan
tibt
ticket
tidyval
tie
tif
tigris
tila
tilde
till
time
timeline
times
timothy
tin
tip
tit
title
titlebar
titlecell
titlecolspan
titlecolumnwidth
titleformats
titleobj
titlepart
titlepiece
titles
titlestyle
tiv
tiwa
tk
tkl
tl
tlheader
tmbox
tmcid
tmdb
tmp
tn
tnavbar
tnt
to
toba
tobebot
toc
toclevel
toclimit
today
todo
toe
together
toggle
togo
tol
tom
tomb
ton
tone
tong
tonga
tonos
tonumber
too
tool
toolbar
toolkit
tools
toolserver
tooltip
tooltipfragment
top
topic
topics
toro
tostring
total
toto
totonac
touch
tour
tourism
tournament
tout
toward
towards
tower
town
tpi
tpt
tr
track
trackdata
tracking
tracklisting
tracks
tractor
trade
trademark
tradition
traffic
trailer
trailing
train
trans
transcluded
transcluding
transclusion
transcription
transfer
transfermarkt
transformation
transistor
transition
transl
translate
translated
translates
translatewiki
translating
translation
translations
translator
translators
translit
transliteration
transmission
transparent
transwiki
trap
travel
traveller
tread
treasure
treat
treatment
treaty
tree
triangle
tribune
tribute
trick
trim
trimmed
trimwhitespace
trinidad
trio
triple
triqui
trohi
trophy
trotter
trouble
trt
true
trump
trust
trusted
trustee
trustees
try
trying
ts
tsa
tse
tsheg
tt
tta
ttha
tu
tue
tuenen
tuesday
tum
tun
tunebo
tunisian
tunnel
tur
turkey
turkic
turkish
turks
turn
turned
turning
tv
tvl
tw
twi
twin
twitter
twl
two
txantiloi
txt
txtarea
txtlang
ty
type
typedata
typeof
types
typical
typically
typing
typography
tyv
u
uabbr
ubl
uc
ucayali
ucla
ucoc
udm
ue
ug
uga
uganda
ui
uighur
uiquipedia
uitgesoekte
uk
ukrainian
ul
ulang
uli
ulmus
uls
ultimate
um
uma
un
una
unasur
unblock
unbulleted
uncertainty
uncoded
uncontroversial
und
undefined
undelete
under
understand
understanding
une
unesco
unexpected
unfortunately
ung
unicode
unified
union
unit
united
units
unity
univ
universal
universe
university
unje
unknown
unless
unnamed
unnecessary
unpack
unprotected
unrecognized
unregistered
unset
until
up
upcoming
update
updated
updates
upload
uploads
upon
upper
upright
upsilon
upwards
ur
ura
urdu
uri
url
urls
uru
us
usa
usability
usage
usan
usd
use
usecollapsibletextfields
used
useful
uselbl
user
userbox
userlinks
username
users
uses
using
ustring
usual
usually
ut
uta
utc
utcliveclockconfig
util
uu
uutisarkisto
uz
uzb
uzbek
uzbekistan
uztaila
v
va
vai
val
valencia
valencian
valg
vali
valid
validate
validatecountryadjective
validateseasonnumber
validatetwoparameters
validateyear
validation
validationtypelist
validdisambiguationtypelist
valley
valuable
value
valuefunc
values
van
vand
vanda
vandal
vandalism
vanuatu
var
vari
variable
variables
variant
variants
variety
various
vase
vast
vav
ve
vec
vector
ved
vedic
vegas
veidne
veil
vel
ven
vene
venus
verandi
vermeer
vernadsky
version
versions
vertical
vertically
very
ves
veser
veshun
vi
via
vic
vicipaedia
vicipe
victor
victoria
victory
video
videos
vie
vienna
viet
vietnam
view
viewer
viewing
views
vii
viii
vikipedi
vikipedio
vikipediya
vila
villa
village
vincent
vinci
viola
violence
violin
viquipe
virama
virgin
virtual
vis
visarga
visible
vision
visit
visiting
vista
visual
visualeditor
vith
vladimir
vls
vnm
vo
voa
vocalic
voice
void
vol
volapu
volleyball
vols
volume
volumes
volunteer
volunteers
von
vorlage
vote
voted
voter
voters
votes
voting
vowel
voyage
vqualifiersv
vro
vs
vulture
vvaw
vy
vybrana
vykiai
vəne
w
wa
wadi
wait
wake
walapai
wales
wall
walters
want
wanted
wants
war
wara
waray
ward
warg
warn
warnemu
warning
warnings
warriors
wars
was
washington
wat
watch
watchlist
watchlists
water
waterfall
waterfalls
watut
wau
waw
wax
way
ways
we
wear
weather
web
webkit
website
webster
wednesday
week
weekday
weekly
weeks
weight
welcome
well
welsh
were
west
western
wgnamespacenumber
what
whatamidoing
whatever
wheeler
when
where
whether
which
whig
while
white
whitelist
whitelisting
whitespace
who
whole
whose
why
wichi
wide
wider
widget
width
wien
wife
wik
wiki
wikibase
wikicode
wikidata
wikidataib
wikify
wikilink
wikilinked
wikilinks
wikimania
wikimedia
wikimedians
wikinoveles
wikipe
wikipedia
wikipedian
wikipedians
wikipedias
wikipedie
wikipedija
wikiproject
wikiprojekt
wikis
wikitable
wikitech
wikitext
wiktionary
wild
wiley
will
willem
william
willing
wilson
win
window
windows
wine
wing
winners
winscroll
winter
wish
wishes
wishlist
witch
witches
with
within
without
wiy
wl
wm
wmde
wmf
wo
wolf
wolfgang
wom
woman
women
won
wonder
word
words
work
worked
workflow
working
works
world
worldwide
would
wp
wpsave
wpsummary
wptextbox
wrap
wrapped
wrapper
wrappers
wrapping
wrestling
write
writer
writing
writings
written
wrong
wuu
www
x
xa
xal
xale
xan
xar
xas
xaver
xavi
xe
xeno
xfd
xh
xi
xico
xml
xojali
xsux
xullo
xunetu
xvi
xx
y
ya
yadkar
yahoo
yak
yaka
yale
yali
yan
yana
yang
yangum
yao
yar
yat
yate
yau
yavapai
yaw
ye
year
years
yeh
yellow
yemen
yerevan
yes
yesno
yet
yezi
yi
yiddish
yig
yin
yir
yis
yo
york
you
young
your
youth
youtube
ypg
yttro
yu
yua
yucatec
yue
yuf
yug
yun
yupik
yus
yut
z
za
zain
zam
zambia
zap
zapotec
zayd
zazaki
ze
zea
zealand
zen
zero
zeruni
zh
zha
zhe
zhu
zhuang
zi
ziapour
zik
zilei
zinh
zivun
ziwan
ziwanan
zone
zones
zoo
zoom
zoque
zoroastrian
zu
zur
zwnj
zyyy
{
|
}
~


¡
§
¨
©
ª
«
¬
­
®
¯
°
±
²
²¹
³
´
¶
·
¹
º
»
¼
½
¾
¿
×
æ
÷
ø
đe
ı
ǂ
ɐ
ə
ʲ
ʻ
ʼ
ʿ
ˆ
ˇ
ˈ
ː
˘
̀
́
̂
̃
̄
̆
̇
̈
̉
̊
̋
̌
̍
̓
̔
̛
̣
̦
̧
̨
̩
̮
̯
̱
̸
͂
͡
α
βικιπαι
γεγονο
δεια
ε
επιλεγμε
η
ιουλι
κυ
λ
λη
ν
να
ο
ου
προ
πυ
ρ
ρια
ς
τ
τα
της
τρε
τυπο
χοντα
ψ
а
актуално
ағымдағы
бягучыя
в
википедия
википедија
вікіпедія
вікіпэдыя
дан
данашњи
день
дня
догађаји
догодило
з
зура
и
к
л
липня
н
на
начална
оқиғалар
падзеі
портал
проект
се
события
страница
сүүлии
текущие
у
уикипедия
х
хыпарсем
цеи
ш
шабле
шаблон
э
юли
явдлууд
історіі
јул
үеии
үи
ә
է
ְ
ִ
ֵ
ַ
ָ
ֹ
ּ
ׁ
א
אקטועלע
ב
בהיסטוריה
ביולי
געשענישן
ד
ה
היום
ו
ויקיפדיה
ח
י
כ
ם
מ
נ
ס
ע
ף
פארטל
ר
ש
ת
תבנית
،
؛
؟
ء
ا
اب
اباد
ابالیش
ابایل
ابتدا
ابتدای
ابتدایی
ابتلا
ابتکار
ابد
ابداع
ابدی
ابر
ابراز
ابراهیم
ابراهیمی
ابررسانایی
ابرقدرت
ابرقهرمونی
ابرو
ابری
ابریشم
ابریشمی
ابزار
ابزارهای
ابزارون
ابزاری
ابعاد
ابـ
ابل
ابلین
ابن
ابندان
ابنیه
ابهام
ابهر
ابو
ابوالحسن
ابوالحسین
ابوالعباس
ابوالفتح
ابوالفداء
ابوالفضل
ابوالقاسم
ابوبکر
ابوجعفر
ابوجهل
ابوریحان
ابوسفیان
ابوسهل
ابوطالب
ابوظبی
ابوعبدالله
ابوعلی
ابولحسن
ابولفضل
ابومسلم
ابومنصور
ابوموسی
ابوکالیجار
ابی
ابیض
ات
اتا
اتابکون
اتاشون
اتاق
اتاي
اتاکمه
اتتا
اتتی
اتجا
اتجور
اتحاد
اتحادیه
اتخله
اتر
اترجشو
اترک
اتریس
اتریش
اتریشی
اتریکس
اتسری
اتصال
اتـ
اتفاق
اتفاقا
اتفاقات
اتفاقاتی
اتفاقون
اتفاقی
اتلتیکو
اتم
اتمام
اتمی
اتنا
اتنده
اته
اتهام
اتهامات
اتو
اتوبوس
اتوبیوگرافی
اتومبیل
اتچی
اتک
اتکمه
اتکه
اتکینسون
اتی
اتین
اتیوپی
اثار
اثبات
اثر
اثرات
اثرون
اثری
اثنی
اثیر
اجاره
اجارودشرقی
اجارودشمالی
اجارودغربی
اجازه
اجاق
اجبار
اجبارا
اجباری
اجتماع
اجتماعات
اجتماعي
اجتماعی
اجتماي
اجتناب
اجداد
اجرا
اجراء
اجرام
اجراي
اجرای
اجرایی
اجزای
اجسام
اجلاس
اجماع
اجیک
احادیث
احترام
احتمال
احتمالا
احتمالی
احتیاج
احتیاط
احداث
احزاب
احساس
احساسات
احساسی
احسان
احشام
احمد
احمدا
احمدسرگوراب
احمدی
احمدیه
احوال
احکام
احیا
احیاء
احیای
اخبار
اختتامیه
اختراع
اختراعات
اختصار
اختصارا
اختصاری
اختصاص
اختصاصی
اختلاف
اختلافات
اختلافاتی
اختلال
اختلالات
اختلالاي
اختلالهای
اختیار
اختیارات
اختیاراتی
اختیاری
اخذ
اخراج
اخطار
اخلاق
اخلاقی
اخوان
اخیر
اخیرا
اد
ادا
ادارات
اداره
اداری
ادامه
ادب
ادبی
ادبیات
ادراک
ادریس
ادعا
ادعای
ادغام
ادلب
ادم
ادمون
ادموند
ادمی
ادن
ادوار
ادوارد
ادواردز
ادوین
ادگار
ادی
ادیان
ادیب
ادیبون
ادیسون
ادینبورگ
اذان
اذیت
ار
ارابه
ارادتمند
اراده
اراضی
ارامنه
اران
اراي
اراک
ارایه
ارباب
اربابون
اربابی
اربد
اربیل
ارتباط
ارتباطات
ارتباطی
ارتدوکس
ارتدوکسون
ارتدکس
ارتش
ارتشون
ارتشی
ارتشیون
ارتعاش
ارتفاع
ارتفاعات
ارتقا
ارتقاء
ارتودوکس
ارتودکس
ارتکاب
ارتیفاع
ارث
ارثی
ارجاع
ارجمند
اردبیل
اردستان
اردشیر
اردلان
اردن
اردو
اردوغان
اردوگاه
اردکان
اردیبهشت
ارز
ارزا
ارزروم
ارزش
ارزشمند
ارزقان
ارزون
ارزیابی
ارس
ارسال
ارسطو
ارسطوی
ارسلان
ارش
ارشاد
ارشد
ارشق
ارضی
ارقام
ارلانگن
ارم
ارمنستان
ارمنستون
ارمنون
ارمنی
ارمنیان
ارمنیون
ارمون
ارنست
ارنو
اره
ارهمن
ارو
اروتیک
اروج
اروس
ارومیه
اروه
اروپا
اروپاي
اروپای
اروپایی
اروپاییان
اروپاییون
اروگوي
اروین
ارکان
ارکستر
ارکه
ارگ
ارگان
ارگیل
اری
اریتره
اریک
از
ازارسی
ازافه
ازای
ازبک
ازبکستون
ازبکون
ازبکي
ازبکی
ازت
ازجمله
ازدواج
ازواد
ازگیل
اس
اسا
اساء
اساتید
اسارت
اساره
اساس
اساسا
اساسنامه
اساسي
اساسی
اساطیر
اساطیری
اسالم
اسامه
اسامی
اسانس
اساي
اسای
اسایی
اسب
اسباب
اسبق
اسبه
اسبوکلا
است
استاتین
استاد
استادی
استادیوم
استار
استارت
استالین
استامبول
استامبولی
استان
استانبول
استاندار
استاندارد
استانداردون
استانداری
استانفورد
استانهای
استانون
استانی
استانیسلاو
استانیسلوفسکی
استاي
استبدادی
استتار
استثنا
استثنایی
استحکام
استخدام
استخر
استخراج
استدلال
استر
استرا
استراباد
استراتژی
استراتژیک
استراحت
استراسبورگ
استرالیا
استرالیای
استرالیایی
استرس
استعاره
استعداد
استعفا
استعفاء
استعفای
استعمار
استعمارک
استعمارکرون
استعماری
استعمال
استفاده
استفان
استقبال
استقرار
استقلال
استمراری
استن
استناد
استنفورد
استنلی
استوا
استوار
استوارت
استوارتون
استوایی
استودیویی
استون
استونی
استونیایی
استویا
استکا
استکای
استکهلم
استیت
استیضاح
استیفاده
استیل
استیو
استیون
اسحاق
اسحاقی
اسحق
اسد
اسدالله
اسدی
اسراي
اسراییل
اسراییلی
اسری
اسطوره
اسعد
اسفاهی
اسفراین
اسفند
اسفندیار
اسفندیاری
اسفیورد
اسقف
اسلام
اسلامبول
اسلامی
اسلاو
اسلاوی
اسلحه
اسلو
اسلوانی
اسلواکی
اسلونی
اسلوونی
اسم
اسماعیل
اسماعیلیه
اسماعیلیون
اسمون
اسمی
اسمیت
اسناد
اسنادی
اسنودن
اسه
اسون
اسوه
اسپ
اسپارتاکوس
اسپانیا
اسپانیایی
اسپانیولی
اسپرانتو
اسپرز
اسپرم
اسپرینگ
اسپند
اسپه
اسپهبد
اسپهبدون
اسپهبدی
اسپهبدیه
اسپوتنیک
اسپین
اسپینوزا
اسپینیجی
اسک
اسکات
اسکاتلند
اسکاتلندی
اسکار
اسکان
اسکاندیناوی
اسکلت
اسکله
اسکناس
اسکندر
اسکندریه
اسکوبار
اسکودریا
اسکی
اسکیزوفرنی
اسکینر
اسید
اسیر
اسیرون
اش
اشارات
اشاره
اشباع
اشتاین
اشتبا
اشتباه
اشتباها
اشتباهات
اشتباهی
اشتراک
اشتغال
اشتیفا
اشخاص
اشراف
اشرافی
اشرف
اشرفی
اشرفیه
اشش
اشعار
اشعاری
اشعه
اشغال
اشلایفن
اشمار
اشمارنه
اشمیت
اشناس
اشناسمبی
اشناسن
اشناسننه
اشناسنه
اشناسی
اشناسینه
اشنه
اشوان
اشک
اشکار
اشکاری
اشکال
اشکالات
اشکالی
اشکان
اشکانی
اشکانیان
اشکانیون
اشکم
اشکین
اشیا
اشیاء
اصالت
اصالتا
اصحاب
اصدار
اصرار
اصطلاح
اصطلاحا
اصطلاحات
اصطلاحي
اصطلاحی
اصغر
اصفهان
اصفهانی
اصفهون
اصل
اصلا
اصلاح
اصلاحات
اصلاحاتی
اصلاحی
اصلاحیه
اصلاندوز
اصلي
اصلی
اصول
اصولا
اصولی
اصیل
اضافه
اضافی
اضداد
اضطراب
اضطرابی
اضطراری
اطاعت
اطاق
اطاقور
اطراف
اطرافیون
اطلاع
اطلاعات
اطلاعاتی
اطلاعی
اطلاعیه
اطلاق
اطلس
اطمینان
اظهار
اعاده
اعتبار
اعتدال
اعتراض
اعتراضات
اعتراف
اعترافات
اعتصاب
اعتقاد
اعتقادات
اعتماد
اعتیاد
اعداد
اعدام
اعراب
اعزام
اعزامی
اعصاب
اعضا
اعضاء
اعضای
اعطا
اعطاء
اعظم
اعظمی
اعلام
اعلامیه
اعلان
اعلی
اعم
اعمال
اغلب
اغلو
اغوز
اف
افت
افتاد
افتادن
افتاده
افتتاح
افتتاحیه
افتخار
افتخارات
افتخاری
افتیتاح
افخاني
افر
افراد
افرادی
افراسیاب
افراطی
افراچال
افراکتی
افرد
افروز
افریقا
افزار
افزارون
افزاری
افزایش
افزودن
افزوده
افسانه
افسر
افسران
افسرده
افسردگي
افسردگی
افسرون
افشار
افشاریون
افشونی
افعال
افغان
افغانستان
افغانستون
افغانون
افغانی
افق
افقی
افكاري
افلاطون
افلاطونی
افلک
افکار
افیون
اقامت
اقبال
اقتباس
اقتدار
اقتصاد
اقتصاددان
اقتصاددون
اقتصادی
اقتیصاد
اقدام
اقدامات
اقلا
اقلیت
اقلیتون
اقلیتی
اقلید
اقلیدس
اقلیم
اقوام
اقوز
اقیانوس
اقیانوسیه
ال
الا
الات
الازهر
الاسلام
الاسلامی
الامم
الان
الانه
الاهلی
الاول
الایام
الب
الباقی
البته
البرادعی
البرز
البشیر
البطنه
البلاد
البلاغه
البلدان
البورز
البیان
البیضاء
التحصیل
التزامی
التواریخ
الثانی
الجارية
الجبال
الجبور
الجزایر
الجزیره
الجمیلیه
الجه
الجهراء
الحاق
الحجه
الحریری
الحسن
الحسین
الحق
الحکم
الخط
الد
الدار
الدعوه
الدوله
الدین
الر
الرضا
الریان
الزمان
السادات
الساقی
السالوادور
السد
السلام
السلطنه
السوریة
السیسی
الشام
الشعرای
الشیخ
الطارق
الظ
العابدین
العاده
العالم
العامة
العبادی
العجم
العرب
العربية
العربی
العربیة
العربیه
العظمی
العلم
العماره
العمل
العیون
الف
الفبا
الفباء
الفبای
الفبایی
القاعده
القاژییه
القدس
القعده
اللفظی
الله
اللهی
الم
الما
الماس
المالکی
المان
المثل
المدن
المدی
المسلمین
المعارف
المعالی
المقدس
الملل
المللی
الملوک
الملک
الملی
الممالک
المنافع
المندب
المهدی
المو
الموت
الموتی
المپ
المپیاد
المپیک
الناصر
النصره
الننه
النه
النهار
النهرین
اله
الهادی
الهام
الهه
الهی
الهیات
الهیي
الو
الوار
الواقع
الوزرایی
الوکره
الوی
الویس
الي
الک
الکبیر
الکتاب
الکترا
الکترومغناطیس
الکترومغناطیسی
الکترون
الکترونیک
الکترونیکی
الکتریک
الکتریکی
الکساندر
الکساندرا
الکسی
الکسیس
الکل
الکویت
الکی
الگو
الگوهای
الگوي
الگوی
الگویی
الی
الیاس
الیاف
الیت
الیزابت
الیزه
الیسم
الیه
الیوت
الیکایی
ام
اما
امارات
امارت
امام
امامزاده
امامعلی
امامی
امامیه
امان
امانوي
اماکن
امبا
امبار
امتحان
امتداد
امتیاز
امتیازات
امثال
امداد
امر
امرای
امرداد
امره
امروز
امروزه
امروزی
امری
امریکا
امریکای
امریکایی
امریکن
امسال
امشب
امضا
امضاء
امضای
املاک
املای
املش
امن
امنیت
امنیتی
امه
امهری
امواج
اموال
امور
امورخارجه
امون
امونه
اموي
امویان
امویون
امپدوکلس
امپراتور
امپراتوران
امپراتوری
امپراطوری
امپریالیستی
امپریالیسم
امکان
امکانات
امکون
امی
امید
امیدنیک
امیدوار
امیدوارم
امیدوارمه
امیر
امیرا
امیرالمومنین
امیرحسین
امیرسلیمانی
امیرشهر
امیرعباس
امیرمو
امیرنشین
امیرون
امیرکبیر
امیرکلا
امیری
امیل
امیلیانو
امین
امینی
امیه
ان
انابد
انار
انبار
انباره
انبارون
انبس
انبسی
انبوه
انتاریو
انتحاری
انتخاب
انتخابات
انتخاباتی
انتخابی
انتشار
انتشارات
انتشارت
انتصاب
انتظار
انتظامی
انتقاد
انتقادات
انتقادون
انتقادی
انتقال
انتقالی
انتقام
انتها
انتهای
انتهایی
انتیخاب
انجام
انجامنا
انجمن
انجوم
انجومن
انجيل
انجیرلو
انجیل
انجیلی
انحراف
انحصار
انحلال
اند
انداز
اندازه
اندازی
اندام
اندر
اندرو
اندروز
اندروید
اندلس
انده
اندونزی
اندونزیایی
اندکی
اندیس
اندیشمندانه
اندیشه
انرجی
انرژی
انریکو
انزلی
انسان
انسانگرایی
انسانی
انستیتو
انسون
انصار
انصارالله
انصراف
انعقاد
انفال
انفجار
انفجارون
انفجاری
انقراض
انقلاب
انقلابی
انقلابیون
اننه
انه
انواع
انواي
انور
انوشیروان
انکار
انگار
انگشت
انگشتان
انگشتدان
انگلس
انگلستان
انگلستون
انگلند
انگلیس
انگلیسی
انگلیسیج
انگلیسیون
انگوت
انگور
انگوس
انگیر
انگیز
انگیزه
انی
انیشتین
انیمیشن
اهالی
اهداف
اهل
اهلی
اهم
اهمیت
اهواز
اهیمه
او
اوا
اواخر
اواریست
اواس
اواسط
اواي
اوایل
اوباما
اوبامای
اوبر
اوت
اوتا
اوتاق
اوتریش
اوج
اوجا
اوجالان
اوجی
اود
اور
اوراسیا
اورال
اورانوس
اورانیوم
اوربان
اورتگا
اوردون
اورست
اورسی
اورشلیم
اورلي
اورن
اورول
اوروپا
اوروپایی
اوروگوي
اورگن
اوری
اوریسا
اوریه
اوزبکستون
اوزبکي
اوزبکی
اوزن
اوزی
اوس
اوساکا
اوستا
اوستاء
اوستان
اوستانای
اوستانه
اوستانون
اوستانی
اوستایی
اوسترالیا
اوستش
اوستوایی
اوستون
اوستیا
اوستیای
اوسکار
اوشار
اوشو
اوضاع
اوقات
اوقیانوس
اوقیانوسیه
اول
اولا
اولاند
اولتیماتوم
اولش
اولمپیک
اولویت
اولي
اولين
اولگا
اولی
اولیاءالله
اولیاالله
اولین
اولیه
اولیویرا
اولیویه
اومید
اون
اونا
اونان
اونانی
اونایی
اونتا
اونتاریو
اونتای
اونتی
اونجا
اونجاهان
اونجه
اونه
اونو
اونوره
اونچه
اونچی
اونکه
اونگادر
اونی
اونیل
اوه
اوهایو
اوورنی
اوي
اوپک
اوژن
اوک
اوکا
اوکایاما
اوکراین
اوکراینی
اوکلاهاما
اوکیناوا
اوگ
اوگاندا
اوگاندای
اوگووي
اوی
اویل
اوین
اي
ايران
ايراني
ايرنيوس
اين
اينتا
اينجانب
اينجه
اينكه
اپ
اپرا
اپرای
اپل
اپوزیسیون
اچ
اژدها
اژه
اک
اکا
اکانت
اکبر
اکبری
اکتاو
اکتبر
اکتشاف
اکتشافات
اکثر
اکثرا
اکثریت
اکران
اکراه
اکراین
اکراینی
اکرم
اکس
اکسام
اکسترامادورایی
اکسترمادورا
اکسل
اکسپو
اکسیژن
اکشن
اکنون
اکو
اکوادر
اکوادور
اکوسیستم
اکونومیست
اگر
اگرچه
اگزابایت
اگزوپری
اگم
اگه
اگوست
اگون
ای
ایارنه
ایاز
ایال
ایالات
ایالت
ایالتای
ایالتون
ایالتی
ایام
ایان
ایباراکی
ایبتیدایی
ایبری
ایبریایی
ایت
ایتا
ایتالي
ایتالیا
ایتالیای
ایتالیایی
ایتزا
ایتصال
ایتفاق
ایجاد
ایجاهان
ایجتیماي
ایجرا
ایجه
ایحداث
ایختیلاف
اید
ایدامه
ایدز
ایده
ایدو
ایدي
ایر
ایراد
ایرادی
ایران
ایرانشهر
ایرانی
ایرانیا
ایرانیان
ایرانیج
ایرانیون
ایرانیکا
ایرانیکی
ایرتیباط
ایرتیفاع
ایرج
ایرلند
ایرلندی
ایرن
ایرنا
ایرنیوس
ایروان
ایرون
ایرونی
ایزابل
ایزابلا
ایزاک
ایزد
ایزدبانوی
ایزدشهر
ایزده
ایزدواج
ایزدی
ایزدیار
ایزدیون
ایزر
ایزوتوپ
ایست
ایستاده
ایستر
ایستفاده
ایستگاه
ایستیفاده
ایسراي
ایسراییل
ایسراییلی
ایسفندیار
ایسلام
ایسلامی
ایسلند
ایسلندی
ایسم
ایسمای
ایسمی
ایسنا
ایسپانیا
ایسپانیای
ایسپانیایی
ایسپانیاییون
ایسپانیولی
ایسپهبد
ایسپهبود
ایسکندر
ایشاره
ایشان
ایشیکاوا
ایصطلاح
ایصلاحات
ایضافه
ایطلاعات
ایطیلاعات
ایعتیقاد
ایعلام
ایفا
ایفل
ایقتصاد
ایقتصاددونا
ایقتصادی
ایقتیصاد
ایقتیصادی
ایل
ایلام
ایلان
ایلخانون
ایلیاد
ایلینوی
ایلینویز
ایم
ایمارات
ایمام
ایمامت
ایمامزاده
ایمامون
ایمامی
ایمان
ایمضا
ایمن
ایمنی
ایمون
ایمپراتور
ایمپراتوری
ایمیل
این
اینا
اینان
اینانه
اینبار
اینتا
اینتاسر
اینتاي
اینتای
اینتخاب
اینتر
اینترلیت
اینترنت
اینترنتی
اینتی
اینتیخاب
اینتیشار
اینتیشارات
اینجا
اینجه
اینجور
اینجوری
اینحال
ایندرا
ایندیانا
ایندیرا
اینستاگرام
اینسه
اینشتین
اینقلاب
اینقیلاب
اینه
اینچنینی
اینچه
اینکا
اینکاي
اینکه
اینگ
اینگلیس
اینگلیسی
اینگلیسیون
اینگونه
اینگیلیس
اینگیلیسی
ایهان
ایو
ایواته
ایوان
ایوانف
ایوبی
ایوبیون
ایوتایا
ایوتایای
ایوسیف
ایولت
ایولین
ایون
ایونیه
ایوون
ایژدیها
ایکر
ایکس
ایکه
ایگور
ایی
اییون
ب
با
باارزش
بااین
باب
بابا
بابایی
بابت
بابـ
بابل
بابلرود
بابلسر
بابلسری
بابلکنار
بابلی
بابک
بابکان
بابی
بات
باتاویان
باتری
باتل
باتمه
باتن
باتنه
باته
باتیستا
باتیو
باج
باخ
باختر
باختری
باخی
باد
بادان
بادرنجبویه
بادسری
باده
بادوم
بادی
بادیس
بار
باران
بارانی
باراک
باربد
باربر
باربی
بارت
بارتلمی
بارتن
باردار
بارداری
بارز
بارزانی
بارسلون
بارسلونا
بارسلونای
بارفروش
بارفروشی
بارم
بارن
باره
بارها
باروری
بارون
بارژاول
بارگذاری
باری
باریر
بارین
باریک
باز
بازار
بازارای
بازارجمعه
بازارون
بازاری
بازبینی
بازتاب
بازخوانی
بازداشت
بازدید
بازدیدکان
بازرسی
بازرگان
بازرگانون
بازرگانی
بازرگون
بازساجی
بازسازی
بازم
بازماندگان
بازنشست
بازنشسته
بازنشستگی
بازنگری
بازه
بازو
بازوي
بازوی
بازپس
بازگشایی
بازگشت
بازی
بازیابی
بازیهای
بازیون
بازیکر
بازیکرون
بازیکن
بازیکنان
بازیکوناي
بازیگر
بازیگران
بازیگرون
بازیگری
باستان
باستانی
باستون
باستونی
باسواد
باسک
باسکی
باش
باشد
باشن
باشند
باشه
باشگاه
باشگاهی
باشگاي
باشی
باشید
باشیم
باطل
باع
باعث
باعیث
باغ
باغداری
باغشاه
باغهای
باغچه
باغی
بافت
بافی
باقر
باقری
باقی
بال
بالا
بالاتر
بالاترین
بالاته
بالاخره
بالاخیابان
بالالاریجان
بالان
بالاي
بالای
بالایی
بالتیک
بالزاک
بالغ
بالغلو
بالله
بالون
بالي
بالکان
بالینی
بام
بامداد
بامشي
بامشی
بان
بانتو
باند
بانو
بانوان
بانوی
بانویشتی
بانک
بانکدارون
بانکداری
بانکوک
بانکی
بانی
باهاما
باهم
باو
باوجود
باور
باورنه
باورون
باول
باوم
باوند
باونديون
باوندی
باوندیان
باوندیون
باوه
باویر
باویم
باي
باپتیست
باک
باکالیجار
باکتامون
باکتری
باکجه
باکز
باکو
بای
بایت
باید
بایدن
بایرن
بایستی
بایه
بایک
بایگانی
بایی
بباختنه
بباخته
ببخشه
ببخشی
ببخشید
ببر
ببرند
ببینید
بت
بتتر
بتتره
بتترین
بتته
بترتیب
بترکانینه
بترکسته
بترین
بتننی
بته
بتو
بتواند
بتوم
بتومبه
بتومبی
بتومی
بتون
بتوندنی
بتونده
بتوندی
بتوندیم
بتونستنه
بتونسته
بتونسنه
بتونسه
بتونن
بتوننه
بتوننی
بتونه
بتونی
بتونیم
بتیست
بتیم
بجا
بجار
بجاي
بجای
بجز
بجنگ
بجنگستن
بجنگستنه
بجنگسته
بجنگه
بحث
بحر
بحرارم
بحران
بحرین
بخا
بخاتن
بخاته
بخار
بخارا
بخارد
بخاردن
بخاردنه
بخاردنی
بخارده
بخارست
بخارن
بخاره
بخاز
بخاست
بخاستنه
بخاسته
بخاستی
بخاطر
بخاه
بخاي
بخت
بختیاری
بخرد
بخردن
بخردنه
بخردنی
بخرده
بخره
بخری
بخرینه
بخش
بخشای
بخشایی
بخشداری
بخشش
بخشنی
بخشون
بخشی
بخصوص
بخواسنه
بخواهین
بخواي
بخون
بخوند
بخوندست
بخوندستن
بخوندستنه
بخوندسته
بخوندن
بخونده
بخوندیم
بخوندین
بخونس
بخونستن
بخونسته
بخونسن
بخونسه
بخونه
بخونین
بخیر
بد
بدا
بدارن
بداره
بداشت
بدان
بدانه
بداي
بدایع
بدبختی
بدبین
بدتر
بدته
بدجور
بدخشان
بدر
بدرالدین
بدرد
بدزدی
بدس
بدست
بدعت
بدل
بدلیل
بدن
بدنسازی
بدنه
بدنی
بده
بدهد
بدهند
بدهی
بدون
بدونستن
بدونستنه
بدونسته
بدونه
بدونیم
بدونین
بدی
بدیع
بدیمه
بدین
بدینه
بدینی
بدیه
بر
برا
برابر
برابری
برابهم
براتیسلاوا
براثر
براحتی
برادر
برادران
برادری
برار
برارزا
برارزاء
برارون
براری
برازاویل
برازیلیا
براساس
برام
براندو
برانکو
برانگیختگی
برانگیز
براهام
براون
براي
برای
برایان
برایتون
برایم
براین
بربری
بربریون
بربه
برت
برتر
برتران
برتراند
برتری
برترین
برتون
برج
برجام
برجسته
برجی
برجیان
برخلاف
برخورد
برخوردار
برخی
برد
بردار
برداری
برداشت
برداشتن
برداشته
بردسکن
بردعه
بردن
برده
بردگاردنی
بردگردسته
بردگرستن
بردگرستنه
بررسی
بررسیهای
برروی
برزخ
برزند
برزگر
برزیل
برزیلی
برست
برسمیت
برسن
برسنن
برسنه
برسنی
برسنین
برسنینه
برسنیه
برسه
برسی
برسیم
برسین
برسینه
برسیه
برشور
برطرف
برعهده
برعکس
برف
برق
برقرار
برقراری
برقی
برلوسکونی
برلین
برم
برمه
برمودا
برن
برنار
برنارد
برنامه
برنج
برنخواهد
برند
برنده
برنز
برنهارد
برنومه
بره
برهان
برهم
برو
بروت
بروتن
بروته
برودسکی
بروز
برون
برونته
بروند
برونو
بروني
برونی
بروک
بروکسل
بروی
برپا
برپایه
برپایی
برچسب
برژنف
برکت
برکلی
برکنار
برکناری
برگ
برگذار
برگردان
برگردنه
برگردون
برگرفته
برگزار
برگزاری
برگزیده
برگسون
برگشت
برگه
برگوزار
برگوزاری
بری
بریتاني
بریتانی
بریتانیا
بریتانیاي
بریتانیای
بریتانیایی
بریتانیاییون
بریتانیکا
بریتنی
بریتیش
برید
بریده
بریزبن
بریستول
بریم
بریمانی
بریمی
برین
برینگ
بریکس
بریگاد
بز
بزا
بزابي
بزاي
بزایی
بزبان
بزرگ
بزرگتر
بزرگترین
بزرگداشت
بزرگراه
بزرگون
بزرگی
بزن
بزند
بزنم
بزنن
بزنه
بزنی
بزنید
بزنیم
بزنین
بزه
بزو
بزودی
بزومی
بزونه
بزوي
بس
بسات
بساتمه
بساتن
بساتنه
بساته
بساتي
بساجن
بساجه
بساجیم
بساز
بسازم
بسازن
بسازه
بسازیم
بسازین
بست
بستا
بستر
بستری
بسته
بستگی
بسرد
بسط
بسطام
بسفر
بسم
بسه
بسوتن
بسوته
بسپارسته
بسکتبال
بسکتوال
بسکون
بسیار
بسیاری
بسیج
بش
بشار
بشارها
بشتن
بشتنه
بشته
بشر
بشرزاد
بشری
بشریت
بشسن
بشمارده
بشمارسه
بشناستن
بشناسته
بشناسه
بشناسی
بشناسینه
بشناسیه
بشنه
بشنی
بشکس
بشکستن
بشکسته
بشکل
بشکنه
بشکنی
بشکنینه
بشکه
بشیر
بصره
بصورت
بطلمیوس
بطور
بعث
بعد
بعدا
بعداز
بعدته
بعدش
بعدن
بعدها
بعدی
بعزي
بعضا
بعضي
بعضی
بعضیا
بعضیایی
بعضیون
بعلاوه
بعلت
بعنوان
بعهده
بعید
بغا
بغداد
بغدادی
بغض
بـ
بفتا
بفره
بفهمستمه
بفهمستن
بفهمستنه
بفهمسته
بفهمن
بفهمه
بقاع
بقایا
بقتل
بقدرت
بقراط
بقعه
بقیه
بكار
بل
بلا
بلاروس
بلاروسی
بلاروسیه
بلاغ
بلاغی
بلافاصله
بلان
بلاگر
بلجیک
بلخ
بلد
بلدنه
بلدنی
بلده
بلدید
بلر
بلز
بلشویک
بلشویکی
بلعمی
بلغارستان
بلغارستون
بلغارون
بلغاری
بلقسم
بلن
بلند
بلندای
بلندتر
بلندترین
بلندته
بلنده
بلندپایه
بلندی
بلننی
بلنی
بله
بلو
بلوا
بلوار
بلور
بلورین
بلوز
بلوطی
بلوغ
بلوچ
بلوچستان
بلوچستون
بلوچی
بلوک
بلژیک
بلژیکی
بلک
بلکه
بلگراد
بلی
بلیران
بلیز
بلیس
بلیل
بلیم
بلین
بلیندا
بم
بماند
بمب
بمباران
بمبارون
بمبي
بمرد
بمردن
بمردنه
بمرده
بمردون
بمردە
بمه
بمو
بموبی
بموبینه
بمومه
بمون
بموند
بموندست
بموندستن
بموندستنه
بموندسته
بموندسه
بمونده
بمونس
بمونسنه
بمونسه
بمونه
بمونی
بموي
بمیره
بن
بنا
بنابر
بنابراین
بنابرین
بنات
بنادر
بنافت
بنام
بنان
بناهای
بناي
بناپارت
بنای
بنت
بنجامين
بنجامین
بند
بندان
بندانگشتی
بندبن
بندر
بندرعباس
بندرون
بندرگز
بندرگزی
بندری
بنده
بندون
بندپی
بندی
بندیکت
بنشنه
بنشو
بنظر
بنفش
بنفشه
بنفع
بنلوکس
بنه
بنوا
بنوشته
بنوم
بنومستنه
بنومسته
بنومه
بنويشت
بنويشتن
بنويشته
بنویس
بنویسم
بنویسن
بنویسه
بنویسی
بنویسید
بنویسیم
بنویسین
بنویش
بنویشت
بنویشتمه
بنویشتمی
بنویشتن
بنویشتنه
بنویشته
بنویشتوي
بنویشتکر
بنویشتی
بنویشنه
بنژامن
بنگال
بنگالی
بنگلادش
بنی
بنیاد
بنیادی
بنیامین
بنیان
بنیانگذار
بنیتو
بنیز
بنین
بنینی
به
بهاءالدوله
بهاءالله
بهاالدین
بهادری
بهار
بهاران
بهارستان
بهاره
بهاری
بهانه
بهاي
بهای
بهایی
بهاییت
بهبود
بهبودی
بهتر
بهتره
بهتری
بهترین
بهته
بهداد
بهداشت
بهداشتی
بهرام
بهرحال
بهره
بهروز
بهروش
بهزاد
بهستون
بهشت
بهشتی
بهشهر
بهشهری
بهم
بهمن
بهمنی
بهنام
بهنمیر
بهی
بهیت
بهیتن
بهیته
بهینه
بهیه
بهییه
بو
بوا
بوابة
بواش
بواشن
بواشه
بواي
بوت
بوتان
بوتسوانا
بوتن
بوتنه
بوته
بوتو
بوجود
بوحران
بوخار
بود
بودا
بودار
بوداي
بوداپست
بودای
بودایی
بوداییون
بودجه
بودلر
بودم
بودن
بودند
بوده
بودیسم
بودیم
بور
بورا
بوربون
بورد
بوردمه
بوردن
بوردنه
بورده
بوردی
بورس
بورن
بوره
بوروس
بوروندی
بوروني
بورژه
بورژوا
بورکینافاسو
بورگوین
بوری
بوریتن
بوریس
بوریم
بورین
بوزچه
بوس
بوستان
بوستون
بوسنی
بوسنیایی
بوسهل
بوسکه
بوسیله
بوش
بوشه
بوشهر
بوشهری
بوعلی
بوف
بوفون
بوقلمونی
بول
بولز
بولیوار
بولیوی
بوم
بومارشه
بومب
بومی
بومیون
بون
بونان
بوندس
بوندسلیگا
بونصر
بونفوا
بوننه
بونه
بونو
بونیان
بونیانگوذار
بونیفاس
بوه
بوهم
بوو
بووشه
بووم
بوون
بووه
بووي
بوویه
بوي
بوک
بوکسور
بوکمال
بوکوحرام
بوگو
بوی
بویراحمد
بویم
بوین
بوینس
بوینه
بوینین
بویه
بویو
بویژه
بویی
بي
بيتتره
بيتن
بيته
بيرون
بيست
بيشتر
بين
بينج
بينه
بيه
بيي
بپت
بپتن
بپته
بپذیرد
بپرداخته
بپرسم
بچا
بچه
بک
بکار
بکارت
بکاردن
بکاردنه
بکاش
بکاشتن
بکاشتنه
بکاشته
بکاشن
بکاشه
بکت
بکتری
بکر
بکران
بکردنه
بکرده
بکرسوباشی
بکسر
بکش
بکشه
بکشی
بکشین
بکشینه
بکشیه
بکلست
بکن
بکوشت
بکوشتن
بکوشتنه
بکوشته
بکوشه
بگاي
بگذارد
بگذارید
بگذرنی
بگذرونی
بگذرونیه
بگذشتن
بگذشته
بگذشتی
بگردستن
بگردستنه
بگردسته
بگردسن
بگشای
بگفته
بگم
بگو
بگیر
بگیرد
بی
بیا
بیابان
بیابون
بیابونی
بیات
بیاتی
بیار
بیارد
بیاردمه
بیاردن
بیاردنه
بیارده
بیاردی
بیارن
بیاره
بیاریم
بیارین
بیان
بیانات
بیانیه
بیبو
بیبی
بیت
بیتتر
بیتتره
بیتترین
بیتلز
بیتمه
بیتن
بیتنه
بیته
بیتی
بیجار
بیداری
بیدگل
بیر
بیرق
بیرم
بیرمنگام
بیرن
بیره
بیروت
بیرون
بیرونی
بیریم
بیرین
بیزار
بیزانس
بیس
بیساي
بیسبال
بیست
بیستم
بیستمین
بیستوم
بیستون
بیسمارک
بیش
بیشت
بیشتر
بیشتری
بیشترین
بیشتن
بیشتنه
بیشته
بیشه
بیشکک
بیضوی
بیضی
بیعت
بیفزایید
بیل
بیلباي
بیله
بیلی
بیلیون
بیم
بیمار
بیماران
بیمارستان
بیمارستون
بیمارون
بیماری
بیمه
بیمو
بیمونه
بیمونی
بیموي
بیمی
بین
بینایی
بینج
بینجستون
بینجکری
بیندیشید
بینش
بینم
بیننده
بینه
بینی
بیه
بیهار
بیهقی
بیو
بیون
بیوه
بیوگرافی
بیي
بیپ
بیژن
بیک
بیکاری
بیکن
بیکینی
بیگ
بیگاری
بیگانه
بیگلو
بیگم
بیگی
بیی
بییت
بییتن
بییتنه
بییته
بییرن
بییره
بیینه
بییه
بەلەننی
ة
ت
تا
تااسا
تاب
تابس
تابستان
تابستانی
تابستون
تابستونی
تابش
تابع
تابعیت
تابلو
تابلوي
تابلوی
تابناک
تابوت
تات
تاتار
تاتاری
تاترک
تاتورک
تاتی
تاتیانا
تاثیر
تاثیرگذارترین
تاج
تاجر
تاجرون
تاجگذاری
تاجیک
تاجیکستان
تاجیکستون
تاجیکی
تاخت
تاخیر
تار
تاريخ
تارکوفسکی
تاری
تاریخ
تاریخدون
تاریخدونا
تاریخدونون
تاریخچه
تاریخی
تاریک
تاریکی
تازه
تازگی
تاس
تاسا
تاسمانی
تاسیس
تاسیسات
تاشون
تاشکند
تالاب
تالار
تالس
تالش
تالشون
تالشی
تالکین
تالیف
تالیفات
تالین
تام
تامسون
تامل
تامیل
تامیلی
تامین
تان
تاندر
تانزانیا
تانزانیای
تانک
تانگ
تانگانیکا
تانگو
تاهوا
تاون
تاووش
تاي
تاپ
تاچر
تاکتیک
تاکسی
تاکسیرانی
تاکسین
تاکنون
تاکید
تاگانروک
تای
تایتان
تایتانیک
تایلر
تایلند
تایلندی
تایم
تایمز
تایوان
تایوون
تایپ
تایپه
تایی
تایید
تب
تبادل
تبار
تبارنه
تبارون
تبت
تبتی
تبدیل
تبرستان
تبرستون
تبرستونی
تبري
تبری
تبریز
تبریزی
تبریک
تبس
تبعه
تبعیت
تبعید
تبعیدی
تبعیض
تبعیضات
تبلت
تبلیغ
تبلیغات
تبلیغاتی
تبوک
تبي
تبیان
تبیین
تتلو
تتوک
تثبیت
تج
تجار
تجارب
تجارت
تجارتی
تجاری
تجاوز
تجدد
تجدید
تجدیدنظر
تجربه
تجربی
تجربیات
تجزیه
تجسمی
تجلیل
تجمع
تجن
تجنک
تجهیزات
تجویز
تجینه
تحت
تحریر
تحریف
تحریم
تحریمون
تحریک
تحسین
تحصيل
تحصیل
تحصیلات
تحصیلی
تحفة
تحقیق
تحقیقات
تحقیقاتی
تحقیقی
تحلیل
تحلیلی
تحمل
تحمیل
تحول
تحولات
تحویل
تخت
تخته
تخریب
تخصص
تخصصی
تخلص
تخلفات
تخلیه
تخم
تخمین
تخیلی
تد
تدابیر
تداخل
تداعی
تداوم
تدبیر
تدریج
تدریجا
تدریس
تدوین
تر
ترا
ترابایت
ترابری
ترابی
تراش
ترافیک
ترامبله
ترامپ
ترانزیت
ترانزیتی
ترانزیستور
ترانس
ترانسوال
ترانسیلوانیا
ترانه
تراورتنی
تراکتور
تراکتورسازی
تراکم
تربت
تربچه
تربیت
تربیتی
ترتیب
ترجمة
ترجمه
ترجومه
ترجیح
تردید
ترس
ترسناک
ترسنه
ترسی
ترسیم
ترسینه
ترش
ترشیاری
ترغیب
ترقی
ترك
تركان
تركمنستان
ترم
ترنسلیت
ترنه
تره
ترو
تروا
تروتسکی
ترور
تروریست
تروریستون
تروریستی
تروریسم
ترومن
تروی
ترویج
ترين
ترک
ترکا
ترکان
ترکستون
ترکمن
ترکمنستان
ترکمنستون
ترکمنون
ترکمني
ترکمون
ترکمونستون
ترکمونون
ترکمونی
ترکون
ترکی
ترکیب
ترکیبات
ترکیبی
ترکیه
تری
تریاک
تریستان
تریلیون
ترین
ترینیداد
تریک
تزار
تزاری
تزریق
تزه
تزي
تزیین
تسالونیکی
تست
تسخیر
تسلط
تسلیت
تسلیحات
تسلیحاتی
تسلیم
تسمیه
تسنن
تسه
تسوک
تسوکون
تسي
تسکا
تسکین
تش
تشخیص
تشخیصی
تشدید
تشریح
تشریفات
تشریفاتی
تشعشع
تشعشعی
تشفشون
تشفشونی
تشكر
تشنج
تشویق
تشکده
تشکر
تشکیل
تشکیلات
تشی
تشیع
تشییع
تصادف
تصادفی
تصاویر
تصاویری
تصحیح
تصدی
تصرف
تصفیه
تصمیم
تصمیمات
تصنیف
تصور
تصوف
تصوير
تصویب
تصویر
تصویری
تضعیف
تضمین
تظاهرات
تعادل
تعارض
تعارضای
تعاریف
تعالی
تعاون
تعبیر
تعبیری
تعجب
تعداد
تعدادی
تعريف
تعریف
تعصب
تعطیل
تعطیلات
تعطیلی
تعقیب
تعلق
تعلیق
تعلیقه
تعلیم
تعمید
تعمیر
تعهد
تعویض
تعیین
تغذیه
تغيير
تغییر
تغییرات
تغییراتی
تغییرمسیر
تغییرون
تغییری
تـ
تفاهم
تفاوت
تفاوتون
تفاوتی
تفرج
تفریح
تفریحی
تفسیر
تفسیری
تفصیل
تفلیس
تفنگ
تفنگی
تفکر
تفکرات
تفکیک
تقابل
تقارن
تقاضا
تقاضای
تقدس
تقدیر
تقدیم
تقريبا
تقریبا
تقریبن
تقریبی
تقسیم
تقسیمات
تقلب
تقلید
تقوی
تقویت
تقویم
تقی
تل
تلا
تلاش
تلاف
تلافی
تلانتا
تلانتیک
تلخ
تلسکوپ
تلف
تلفات
تلفظ
تلفن
تلفنی
تلفون
تلفیق
تلقی
تلمبار
تلمبارون
تله
تلور
تلوزیون
تلویزون
تلویزیون
تلویزیونی
تلگراف
تلگرام
تلی
تلیه
تم
تماس
تماشا
تماشاچیون
تماشاگه
تماشای
تمام
تماما
تمامی
تمامیت
تمان
تمانی
تمایل
تمبر
تمبک
تمجید
تمدن
تمدون
تمرکز
تمرین
تمرینات
تمش
تمشک
تمن
تموم
تمومی
تمون
تمیز
تمیزکاری
تمیشه
تن
تناسخ
تناسلی
تناوبی
تنب
تنباکو
تنبیه
تند
تندیس
تنزین
تنسی
تنش
تنظیم
تنظیمات
تنقلات
تنه
تنها
تنهایی
تنوع
تنک
تنکابن
تنکابنی
تنکابونی
تنگ
تنگه
تنگی
تنی
تنیس
ته
تهدید
تهران
تهرانی
تهرون
تهماسب
تهمت
تهمورس
تهه
تهوع
تهيه
تهی
تهیه
تو
توابع
توافق
توان
توانا
تواناي
توانایی
تواند
توانست
توانید
توانیم
تواین
توبه
توتو
توتوری
توتون
توتوهاکنین
توتکابن
توتی
توجه
توجهی
توجیه
توحید
توحیدی
توده
تور
تورات
توران
تورج
تورس
تورم
تورنتو
تورنمنت
تورک
تورکمن
تورکمنستون
تورکون
تورکی
تورکیه
توری
توریست
توریستون
توریستی
توریسم
تورین
توریوم
توزیع
توس
توسط
توسعه
توسوط
توسکا
توسکانی
توسیفی
توصيفي
توصیف
توصیفی
توصیه
توضیح
توضیحات
توضیحی
توطي
توفان
توفیق
توقف
توقیف
تول
تولد
تولستوی
تولوز
تولی
تولید
تولیدات
تولیدک
تولیدی
توم
توما
توماس
تومان
تومبی
تومه
تومي
تومی
تون
توندنی
تونده
توندی
تونز
تونس
تونستنه
تونسته
تونسنه
تونسه
تونل
تونن
توننه
تونني
توننی
تونه
توني
تونگ
تونگا
تونگای
تونی
توهم
توهین
توون
توي
توپ
توپخانه
توپخنه
توپوگرافی
توپوگرافیک
توپی
توچیگی
توکل
توکلاي
توکلی
توکوشیما
توکویل
توکیو
توگو
توی
تویاما
توین
توییتر
تي
تير
تيلور
تپش
تپه
تپورستان
تپورستون
تپورون
تپوری
تک
تکامل
تکانه
تکثیر
تکذیب
تکرار
تکراری
تکریت
تکله
تکلو
تکلیف
تکمیل
تکنولوژی
تکنیک
تکه
تکون
تکیه
تگ
تگزاس
تی
تیاتر
تیار
تیان
تیت
تیتان
تیتراژ
تیر
تیران
تیراندازی
تیراژ
تیرما
تیرماه
تیرنو
تیرنگ
تیره
تیرکلا
تیرکن
تیرکیا
تیری
تیسا
تیغ
تیغه
تیفوس
تیفون
تیل
تیلفون
تیلور
تیم
تیمبرولوز
تیمور
تیموری
تیموریان
تیموریون
تیمون
تیمی
تینار
تیناری
تینش
تیول
تیوله
تیپ
تیک
تیکنولوژی
تیکه
تیگره
ث
ثابت
ثار
ثارش
ثارون
ثاری
ثالث
ثانی
ثانیا
ثانیه
ثاي
ثبات
ثبت
ثر
ثروت
ثروتمند
ثروتمندترین
ثعالبی
ثلاث
ثور
ثیر
ثیرات
ثیرگذار
ج
جا
جاء
جابجایی
جابز
جابه
جات
جاجرم
جاده
جادو
جادوگر
جادوگری
جادویی
جادکت
جاذبه
جار
جارکند
جاری
جاز
جاستین
جاسوس
جاسوسی
جالب
جالبه
جالبی
جام
جاماسب
جاماي
جامد
جامع
جامعه
جامه
جامو
جامی
جان
جاناتان
جانب
جانبه
جانبی
جاندار
جاندارون
جانسون
جانشین
جانشینی
جانور
جانورون
جانوری
جانگ
جانی
جاها
جاهان
جاهای
جاوا
جاوااسکریپت
جاودان
جاوه
جاوید
جاي
جاپون
جاپونی
جاپونیج
جاکارتا
جای
جایزه
جایگاه
جایگزین
جایی
جبار
جبال
جبر
جبران
جبراي
جبری
جبل
جبهه
جت
جد
جدا
جداول
جداگانه
جدایی
جده
جدول
جديد
جدی
جدید
جدیدا
جدیدترین
جدیدی
جذاب
جذب
جر
جراح
جراحی
جرالد
جرایم
جرج
جرجان
جرجانی
جرم
جري
جری
جریان
جریب
جریر
جریمه
جریون
جز
جزء
جزاي
جزایر
جزو
جزوه
جزي
جزیره
جزیروي
جست
جستار
جستارهای
جستارون
جستجو
جستجوی
جسد
جسم
جسمانی
جسمی
جسی
جشن
جشنواره
جشنی
جعبه
جعفر
جعفرا
جعفری
جعفریه
جعل
جعلی
جغرافی
جغرافیا
جغرافیای
جغرافیایی
جـ
جـانـویـه
جـولای
جـون
جفت
جفتی
جفرسون
جل
جلال
جلالی
جلالیون
جلاویه
جلب
جلد
جلدی
جلسات
جلسه
جلفا
جلفای
جلو
جلوه
جلوگیری
جلوی
جلگه
جلیل
جم
جمادی
جماعت
جمال
جماهیر
جمبوری
جمشید
جمع
جمعا
جمعه
جمعی
جمعیت
جمعیتی
جملات
جمله
جمه
جمهور
جمهورون
جمهوری
جمهوریخواه
جمهوریون
جمي
جمیت
جمیعت
جمیعتی
جمیل
جن
جناب
جنابعالی
جناح
جنازه
جنایات
جنایت
جنایی
جنبش
جنبشون
جنبه
جنجال
جنجالی
جنده
جنس
جنسی
جنسیت
جنسیتی
جنوا
جنوب
جنوبشرقی
جنوبگان
جنوبی
جنون
جنگ
جنگا
جنگای
جنگجو
جنگجوي
جنگستنه
جنگسته
جنگل
جنگلای
جنگلون
جنگلی
جنگلیون
جنگنده
جنگنه
جنگون
جنگی
جنیفر
جنین
جنینگز
جه
جهاد
جهادی
جهان
جهانبخش
جهانسوز
جهانگیر
جهانی
جهت
جهرم
جهش
جهنم
جهون
جهونگردون
جهونگیر
جهونی
جو
جوا
جواب
جوابی
جواد
جوامع
جوان
جوانا
جوانان
جوانمرد
جوانی
جواهر
جواهرات
جواهرده
جوایز
جوبار
جوجه
جور
جورج
جورجیا
جورجیو
جورواجور
جوري
جوری
جوزا
جوزانی
جوزف
جوستارای
جوش
جوغرافی
جوغرافیا
جوغرافیای
جوغرافیایی
جول
جولای
جولبون
جوله
جولی
جولیا
جولیان
جومعه
جومله
جومه
جومور
جومورون
جوموری
جوموریچچن
جومونگ
جون
جونبش
جوندارون
جونز
جونور
جونورون
جونگ
جونیان
جونیور
جوهر
جووانی
جوون
جوونای
جوونایی
جوونون
جوونی
جوي
جوگی
جوگیون
جوی
جویبار
جویباری
جویی
جي
جک
جکسون
جی
جیانگ
جیبوتی
جیبی
جیحون
جید
جیر
جیردستون
جیرنده
جیسون
جیش
جیغ
جیل
جیم
جیمز
جیمس
جیمی
جین
جینگ
جینی
جیوه
جیک
جیگان
ح
حاتم
حاج
حاجی
حادثه
حاشیه
حاصل
حاضر
حافظ
حافظه
حال
حالا
حالت
حالتی
حالی
حالیکه
حامد
حامل
حامی
حامیون
حاوی
حاي
حاکم
حاکمون
حاکمیت
حاکی
حبس
حبشه
حبوبات
حبیب
حبیبی
حتا
حتما
حتمن
حتمی
حتی
حج
حجاب
حجاز
حجازی
حجت
حجره
حجم
حد
حداث
حداقل
حداکثر
حدس
حدود
حدودا
حدودالعالم
حدودی
حدی
حدیث
حذف
حذفی
حراج
حرارت
حرام
حرف
حرفا
حرفای
حرفه
حرفون
حرفی
حرم
حرمت
حرمسرا
حروف
حروفی
حرکات
حرکت
حرکتی
حریری
حریف
حریفا
حریفون
حریق
حریم
حزب
حزبون
حزبی
حس
حساب
حسابی
حساس
حسام
حسب
حسن
حسنی
حسودی
حسکه
حسی
حسین
حسینعلی
حسینقلی
حسینی
حسینیه
حشرات
حشره
حشروي
حشو
حشیش
حصار
حصر
حضرت
حضرمی
حضور
حفاری
حفاظت
حفره
حفظ
حفیظ
حق
حقایق
حقوق
حقوقدان
حقوقدون
حقوقی
حقیقت
حقیقتا
حقیقی
حل
حلا
حلب
حلبچه
حلقه
حللا
حلی
حماس
حماسه
حماسی
حمام
حماه
حمایت
حمبوم
حمد
حمزه
حمص
حمل
حملات
حمله
حموسو
حموم
حمید
حمیدرضا
حنا
حنبلی
حنجره
حنفی
حه
حوا
حوادث
حواری
حواریون
حواس
حواشی
حوالی
حوثی
حوثیون
حوزه
حوزوی
حوسن
حوسین
حوصله
حوض
حول
حولی
حومه
حوکومت
حویق
حک
حکام
حکایت
حکم
حکما
حکمت
حکوم
حکومت
حکومتون
حکومتی
حکیم
حیات
حیاتی
حیاط
حیث
حیثیت
حیدر
حیدری
حیران
حیرت
حیساب
حیطه
حیله
حیمایت
حین
حیوان
حیوانات
حیوون
حیوونا
حیوونای
حیوونون
خ
خا
خاتمه
خاتمی
خاتون
خاخ
خاخر
خاخرون
خاد
خادش
خادشون
خادم
خادکاشی
خادکشی
خادی
خار
خاربنویشته
خارج
خارجه
خارجی
خارجیون
خاردنه
خارده
خارشت
خارشید
خارشیدی
خارطوم
خارنه
خاره
خارک
خارکش
خاری
خازن
خاس
خاستنه
خاسته
خاستگاه
خاستی
خاسنه
خاسه
خاش
خاشه
خاشک
خاشکی
خاص
خاصه
خاصي
خاصی
خاصیت
خاطر
خاطرات
خاطره
خال
خالد
خالص
خالق
خاله
خالی
خام
خامبه
خامبی
خامنه
خامه
خاموش
خامی
خان
خانات
خاندان
خاندون
خانقاه
خانقین
خانم
خانندبیل
خاننه
خاننی
خانه
خانواده
خانوادگی
خانوار
خانوم
خانون
خانک
خانگی
خانی
خاه
خاهون
خاهی
خاور
خاورمیانه
خاورمیونه
خاویار
خاویاری
خاي
خاک
خاکستر
خاکستری
خاکی
خب
خبر
خبرنگار
خبرگان
خبرگزاری
خبری
خت
ختم
خجستانی
خجیر
خد
خدا
خدابنده
خداحافظی
خدافظی
خداوند
خداي
خدای
خدایی
خدش
خدمات
خدمت
خدمتکارون
خدمه
خدکار
خدگردون
خذ
خر
خرا
خراب
خرابه
خرابکاری
خرابی
خراج
خراسان
خراسانی
خراسون
خرالزمان
خرالزمون
خراک
خرای
خرج
خرد
خرداد
خردادبه
خرده
خرس
خرسر
خرسری
خرش
خرم
خرمادی
خرمدین
خرنه
خرهای
خروج
خروجی
خروس
خروشچف
خرون
خرچنگ
خری
خرید
خرین
خزانه
خزاي
خزر
خزران
خزرها
خزرون
خزنده
خزندگون
خس
خسارات
خسارت
خسته
خستگی
خسرو
خسروپرویز
خسروی
خش
خشت
خشتی
خشم
خشمگین
خشن
خشونت
خشک
خشکبیجار
خشکرود
خشکه
خشکی
خشی
خصوص
خصوصا
خصوصی
خصوصیات
خصوصیت
خط
خطا
خطاب
خطاطون
خطاطی
خطای
خطبه
خطر
خطرناک
خطه
خطوط
خطی
خـ
خل
خلا
خلاء
خلاصتا
خلاصه
خلاف
خلافت
خلاقیت
خلال
خلبان
خلبون
خلج
خلجستون
خلخال
خلدون
خلع
خلعت
خلعتبری
خلف
خلفا
خلفای
خلق
خلقون
خله
خلوت
خلوي
خلی
خلیج
خلیفه
خلیل
خلیلی
خم
خماتوا
خماتووا
خمر
خمرون
خمس
خمسه
خمینی
خنابدون
خناتون
خنثی
خنجر
خندق
خنده
خنه
خنواده
خني
خنگی
خه
خو
خوا
خواب
خوابگاه
خواجه
خواخ
خواخر
خوار
خوارج
خوارزم
خوارزمشاهیون
خوارزمی
خواره
خواری
خواست
خواستار
خواسته
خواسنه
خواص
خواف
خوان
خواندن
خوانده
خوانسار
خواننده
خوانندگان
خوانه
خوانی
خواه
خواهان
خواهد
خواهر
خواهش
خواهشا
خواهم
خواهند
خواهون
خواهی
خواهید
خواهیم
خواي
خوب
خوبه
خوبی
خوجالی
خوجه
خود
خودا
خودت
خودتان
خودداری
خودرو
خودسرانه
خودش
خودشان
خودشون
خودم
خودمان
خودمختار
خودمختاری
خودکار
خودکشی
خودگردان
خور
خورا
خوراسان
خوراک
خوراکی
خورخه
خورد
خوردترین
خوردن
خورده
خورش
خورشيدي
خورشید
خورشیدا
خورشیدی
خورنگار
خورون
خورگزاری
خورگزاریون
خورگوزاری
خوری
خوزستان
خوزستون
خوزه
خوسروپرویز
خوش
خوشبختی
خوشمزه
خوشه
خولیو
خون
خوند
خوندسته
خوندن
خوندنه
خونریزی
خونش
خونشکر
خونشکرون
خونشکری
خونشگر
خوننده
خونندگی
خوننی
خونه
خونواده
خونی
خونین
خووننده
خوي
خويي
خوی
خویش
خيلي
خی
خیا
خیابان
خیابون
خیابونی
خیال
خیالی
خیام
خیانت
خیر
خیرالدین
خیرالنساء
خیریه
خیز
خیل
خیلی
خیمه
خینه
د
دا
داب
دابودشت
دابوی
دابویه
دابویگون
دات
داخل
داخلی
داد
دادستان
دادستون
دادمهر
دادن
دادند
داده
دادگا
دادگان
دادگاه
دادگستری
دار
دارا
داراب
دارالسلام
دارالفنون
داران
داراي
دارای
دارایی
دارترین
دارد
داردانل
دارفور
دارم
دارمبی
دارمه
دارمی
دارن
دارند
دارننه
دارننی
دارنه
دارنی
داره
دارو
داروخانه
دارون
دارونما
داروهای
داروی
داروین
دارویی
دارک
داری
دارید
داریم
دارین
داریوش
دازمهر
دازور
داس
داستان
داستانای
داستانون
داستانی
داستایوسکی
داستون
داش
داشت
داشتم
داشتن
داشتند
داشتنه
داشتنی
داشته
داشنه
داعش
داعشی
داعشیون
داعی
داغ
داغستان
داغستون
دال
دالاس
دالای
دالایی
دام
داماد
دامادی
دامداری
دامز
دامغان
دامنه
دامون
دان
دانا
دانان
دانایی
دانته
دانزینگ
دانش
دانشجو
دانشجوي
دانشجوی
دانشجویان
دانشجویون
دانشجویی
دانشمند
دانشمندان
دانشمندون
دانشمندونی
دانشنامه
دانشنومه
دانشکده
دانشگا
دانشگاء
دانشگاه
دانشگاههای
دانشگاهون
دانشگاهی
دانشگاي
دانشی
دانلود
دانم
دانمارک
دانمارکی
دانند
داننه
دانه
دانوب
دانگ
دانیشگاه
دانیل
داهه
داهون
داهونه
داود
داودخان
داوری
داوطلب
داوطلبان
داوطلبون
داوطلبی
داوود
داوودی
داوید
داوینچی
داي
داينه
داکا
داکوتا
داگلاس
دای
دایر
دایرةالمعارف
دایره
دایمی
دایننه
داینه
دایه
دایی
دب
دباره
دباش
دباغی
دبدا
دبداي
دبستان
دبلیو
دبورد
دبوردن
دبورده
دبی
دبیر
دبیران
دبیرستان
دبیرستون
دبیرکل
دبیری
دبین
دت
دتا
دتر
دجله
دخالت
دخانیات
دختر
دختران
دخیل
در
درا
دراز
درازای
درازکلا
درازی
دراصل
درام
دراماتورژ
درانه
دراویدی
دراویش
دراین
دراینه
درب
دربار
درباره
درباریون
دربر
دربرگیرنه
دربمو
دربمونه
دربموي
دربند
دربورده
دربي
دربی
دربیاردنه
دربیارده
دربیاره
درجه
درحال
درحالی
درحالیکه
درخاست
درخت
درختان
درخشان
درخشون
درخواست
درخواستی
درد
دردسر
درزنی
درزی
درزیکلا
درس
درست
درسته
درستي
درستی
درسدن
درسون
درسی
درسیم
درشی
درصد
درصدد
درصورتی
درضمن
درعا
درعوض
درفش
درفشی
درق
درم
درمان
درمانی
درمبی
درمه
درمورد
درمون
درمونی
درمی
درن
درنظر
درننه
درنه
درنهایت
درنی
دره
درها
درهم
درو
دروازبان
دروازه
درواقع
درود
دروس
دروغ
دروم
درون
درونه
درونی
دروه
درویش
درویشون
درویشی
دريا
درياي
درک
درکا
درکاي
درکای
درگا
درگاه
درگذشت
درگیر
درگیری
درگیریون
دری
دریا
دریاتیک
دریارده
دریارنه
دریاسالار
دریافت
دریامونا
دریاموناي
دریامونای
دریان
دریانورد
دریانوردون
دریانوردی
دریاي
دریاچه
دریای
دریایی
دریم
درین
دریو
دریوي
دریوچه
دریوک
دریوی
دریویی
دریچه
دزا
دزد
دزدون
دزدی
دزدینه
دس
دسامبر
دست
دستان
دستاورد
دستای
دسترس
دسترسی
دسته
دستور
دستورای
دستوری
دستگاه
دستگیر
دستگیری
دستی
دستیابی
دستیار
دسه
دسوری
دشت
دشتی
دشم
دشمن
دشمنون
دشمنی
دشو
دشوار
دعا
دعای
دعوا
دعواي
دعوت
دف
دفاتر
دفاع
دفاعی
دفاعیات
دفاعیه
دفتر
دفترچه
دفع
دفعه
دفن
دفه
دقت
دقیق
دقیقا
دقیقه
دقیقی
دكته
دكشي
دل
دلا
دلار
دلاری
دلاواله
دلاویر
دلایل
دلایلی
دلبر
دلتا
دلخواه
دلر
دلشدگان
دلفین
دلم
دلند
دله
دلو
دلوي
دلی
دلیر
دلیل
دلیلش
دلیلی
دم
دما
دماسته
دماغ
دماغه
دماوند
دماوندی
دمای
دمبال
دمباله
دمبدا
دمبدانه
دمبداي
دمبده
دمبدیم
دمبه
دمت
دمدنه
دمشق
دمه
دمون
دمونی
دموکرات
دموکراتها
دموکراتون
دموکراتیک
دموکراسی
دموکریتوس
دمکرات
دمکراتیک
دمکراسی
دمی
دمیت
دمیتری
دمیرتاش
دمیرچی
دمیزاد
دمیزاي
دن
دنبال
دنبالتر
دنباله
دنباوند
دندان
دنده
دندون
دننه
دننی
دنه
دنور
دنگ
دنی
دنیا
دنیابموي
دنیابیموي
دنیای
دنیایی
دنیرو
دنینه
دنیه
دنیوی
ده
دهاده
دهخدا
دهد
دهدر
دهستان
دهستون
دهلی
دهم
دهمین
دهن
دهند
دهنده
دهندگان
دهه
دهوم
دهومین
دهون
دهکده
دهی
دهیاری
دهید
دهیم
دو
دوا
دواره
دواز
دوازده
دوازدهم
دوازدهمین
دواش
دواشه
دوام
دوانی
دواي
دوایت
دوایی
دوبار
دوباره
دوبلاژ
دوبله
دوبلین
دوبو
دوبوا
دوبی
دوتا
دوتار
دوحه
دود
دودانگه
دودمان
دوده
دور
دوراس
دوران
دورانت
دوربین
دورة
دورترین
دوردست
دورر
دورسونخواجه
دوره
دورود
دورون
دوری
دوزی
دوس
دوسا
دوست
دوستا
دوستان
دوستانه
دوستم
دوستنه
دوسته
دوستی
دوسلدورف
دوسه
دوش
دوشمن
دوشنبه
دوشیزه
دول
دولار
دولامارتین
دولت
دولتای
دولتمردون
دولتون
دولتی
دولف
دوم
دوما
دومبه
دومبی
دومه
دومی
دومین
دومینیک
دومینیکن
دون
دونا
دونالد
دونتسک
دوندنه
دونده
دوندی
دونس
دونستن
دونستنه
دونستنی
دونسته
دونسنه
دونسه
دونش
دونشجه
دونشنومه
دونشگا
دونشگاه
دونم
دونن
دوننه
دوننی
دونه
دونون
دونگ
دونگه
دونی
دونیا
دونیس
دونیم
دونین
دوه
دوهزار
دوو
دوور
دووشه
دووم
دوومی
دوون
دووي
دوي
دوچار
دوک
دوکات
دوکتر
دوکترای
دوکتور
دوگانه
دوگل
دوی
دویست
دویچه
دي
ديوار
ديپلم
ديگر
ديگران
ديگه
دپاشنی
دپت
دپوشنی
دپیت
دپیته
دچار
دچی
دچین
دچینیم
دچینین
دچیه
دژ
دک
دکارت
دکارده
دکاشت
دکاشتن
دکاشتنه
دکال
دکت
دکتر
دکترا
دکترای
دکترون
دکتری
دکتن
دکتنه
دکته
دکتون
دکتی
دکش
دکشی
دکشینه
دکفن
دکفه
دکل
دکلستنه
دکلستونه
دکلمه
دکمه
دگاردست
دگاردسته
دگاردن
دگاردنی
دگاردنینه
دگر
دگرگون
دگرگونی
دگه
دی
دیا
دیات
دیار
دیاربکر
دیاره
دیاری
دیاس
دیاله
دیالوگ
دیاکونوف
دیب
دیتا
دیتابیس
دیترویت
دیتریش
دیجیتال
دید
دیدار
دیداری
دیداس
دیدن
دیدنی
دیده
دیدگاه
دیدگاهی
دیر
دیرالزور
دیرباز
دیروز
دیری
دیرینه
دیز
دیزنی
دیس
دیسکاوری
دیسیم
دیفار
دیفارون
دیلم
دیلمان
دیلمستون
دیلمون
دیلمی
دیلمیون
دیلی
دیم
دیملی
دیمه
دیمون
دیمی
دین
دینا
دینار
دینه
دینون
دینگوي
دینی
دیه
دیهستون
دیو
دیوار
دیواره
دیوارهای
دیوارون
دیواری
دیوان
دیوانه
دیوانگی
دیود
دیوهی
دیوون
دیوونه
دیوژن
دیوید
دیویس
دیي
دیپلم
دیپلمات
دیپلماتیک
دیپلماسی
دیک
دیکتاتور
دیکتاتوری
دیکتاتوریون
دیکنز
دیگ
دیگر
دیگران
دیگرون
دیگری
دیگه
دیگو
دیگوي
دیی
دیینه
دییه
ذ
ذا
ذات
ذبیح
ذبیحی
ذخایر
ذخیره
ذر
ذرات
ذربایجان
ذربایجانی
ذربایجون
ذربایجونی
ذرت
ذرماه
ذره
ذرولاش
ذری
ذغال
ذهن
ذهنی
ذوالفقار
ذوب
ذوق
ذوقه
ذکر
ذی
ذیل
ذین
ر
را
راء
راب
رابرت
رابط
رابطه
رابین
رابینو
راجر
راجع
راح
راحات
راحت
راحتی
راخانه
راد
رادان
رادرفورد
رادکان
رادیو
رادیوفردا
رادیوم
رادیوی
رادیویی
رادیکال
رار
رارات
رارم
راز
رازی
راس
راست
راستش
راسته
راستکی
راستی
راسل
راسون
راسین
راشد
راشدین
راضی
راغون
رافاي
راق
راقاضی
رال
رالف
رام
راما
رامسر
رامسری
رامش
راموز
راموس
رامون
رامگاه
رامی
رامیان
رامین
رامیوو
ران
راند
رانما
راننده
رانکوه
رانی
راه
راهب
راهبند
راهبه
راهنما
راهنماي
راهنمای
راهنمایی
راههای
راهون
راهپیمایی
راهی
راهیابی
راوندی
راوی
راي
راپورت
راک
راکتز
راکفلر
راکون
راکی
راگون
راگونی
رای
رایانه
رایت
رایتل
رایج
رایجه
رایری
رایس
رایش
راین
رایه
رایگان
رایگون
رایی
رب
ربات
رباتون
رباتی
رباط
رباعیات
ربخوندست
ربری
ربط
ربطی
ربع
ربعه
ربموي
ربن
ربوت
ربوتن
ربوده
ربورده
ربون
ربی
ربیارده
ربیع
رةالمعارف
رت
رتبه
رتساخ
رتمیس
رته
رتو
رتور
رتی
رتیکوس
رج
رجا
رجال
رجانتین
رجایی
رجب
رجعت
رجه
رجوع
رجون
رحم
رحمانی
رحمت
رحیم
رحیمی
رخ
رخت
رخه
رد
ردا
ردن
ردنه
رده
ردها
ردگ
ردگرسته
ردی
ردیف
رز
رزم
رزمی
رزو
رزون
رزوهای
رزوی
رس
رسالة
رساله
رسانا
رساند
رساندند
رسانده
رسانش
رسانه
رسانی
رستاق
رستم
رستمدار
رستمی
رسته
رستوران
رستگار
رستگاری
رسد
رسم
رسما
رسمی
رسمیت
رسن
رسنال
رسنه
رسنی
رسنینه
رسه
رسول
رسوم
رسون
رسونی
رسکت
رسی
رسید
رسیدن
رسیدند
رسیدگی
رسیدیم
رسینه
رش
رشت
رشته
رشتی
رشد
رشه
رشوه
رشی
رشید
رشیدوک
رشیو
رصد
رضا
رضاخان
رضازاده
رضاشا
رضاشاء
رضاشاه
رضاقلی
رضایا
رضایت
رضایی
رضوان
رضوانشهر
رضوانیه
رضوی
رضی
رطوبت
رعايت
رعایت
رعد
رغم
رف
رفاه
رفاهی
رفت
رفتار
رفتارای
رفتارهای
رفتارون
رفتارگراي
رفتاری
رفتست
رفتن
رفتند
رفته
رفخ
رفخون
رفراندوم
رفسنجانی
رفع
رفق
رفقون
رفی
رفیخون
رفیع
رفیق
رفیقون
رفیقی
رق
رقابت
رقابتون
رقابتی
رقد
رقص
رقم
رقه
رقیب
رقیبون
رم
رما
رمادی
رمان
رمانتیک
رماویر
رمز
رمضان
رمضانپور
رمضانی
رمضون
رمنت
رمون
رمی
رمین
رن
رنار
رناس
رنج
رنجبر
رند
رندی
رنسانس
رنه
رنو
رنکینگ
رنگ
رنگار
رنگای
رنگهای
رنگون
رنگی
رنگین
رنی
ره
رها
رهاک
رهاکردنه
رهاکرده
رهاکنن
رهایه
رهایی
رهبر
رهبران
رهبرون
رهبری
رهنما
رهنمون
رو
روا
روابط
رواج
روار
رواقیون
روان
رواندا
روانشناختی
روانشناس
روانشناسی
روانه
رواني
روانپزشكي
روانپزشکی
روانکاوی
روانی
روایات
روایت
روایتی
روبات
روبر
روبرت
روبرو
روبل
روبن
روبه
روبوت
روبیک
روت
روتنه
روته
روج
روجا
روجای
روح
روحانی
روحانیان
روحی
روحیه
روخ
روخنه
رود
رودا
رودبار
رودبست
رودبنه
رودخان
رودخانه
رودریگز
رودریگو
رودز
رودزیا
رودزیای
رودسر
رودلف
رودن
روده
رودون
رودپی
روز
روزا
روزافزون
روزانه
روزمره
روزنامه
روزنامە
روزنه
روزنومه
روزه
روزها
روزهای
روزولت
روزون
روزگار
روزگاران
روزی
روزیست
روس
روسا
روستا
روستاها
روستاهای
روستاي
روستای
روستایی
روستم
روسو
روسون
روسی
روسیه
روسیون
روش
روشد
روشن
روشنایی
روشنفکرون
روشنه
روشنگری
روشنی
روشه
روشون
روشی
روغن
روف
روقت
رول
رولان
رولن
رولینگ
روم
رومان
رومانی
رومانیایی
رومن
رومي
رومگا
رومگاه
رومی
رومیان
رومیون
رون
رونالد
رونالدو
رونالدینیو
رونتگن
روند
رونسانس
رونق
رونما
رونمایی
رونی
روو
روون
روونه
روونی
رووی
روي
روپونچه
روپیه
روژ
روژاوا
روژاوای
روژه
روی
رویا
رویال
رویان
رویانی
رویترز
رویداد
رویدادهای
رویدادون
روین
رویه
رویپونش
رویکرد
رویی
رویین
ري
ريشه
ريكا
رپ
رپاد
رپر
رژانتین
رژانتینی
رژه
رژیم
رک
رکان
رکانزاس
رکن
رکود
رکورد
رگ
رگه
رگو
رگوزاری
رگون
ری
ریا
ریادنه
ریاست
ریاض
ریاضی
ریاضیات
ریاضیدون
ریاضیدونا
ریال
ریان
ریانووستی
ریایی
ریاییون
ریتم
ریخت
ریخته
رید
ریدلی
ریز
ریزشگاه
ریزنه
ریزه
ریزونا
ریزی
ریس
ریستوفان
ریش
ریشار
ریشتر
ریشتری
ریشه
ریف
ریل
ریم
ریمون
ریموند
ریمیکس
رین
رینالدو
رینه
رینگو
رینیر
ریه
ریو
ریور
ریورا
ریوس
ریچارد
ریچل
ریچموند
ریک
ریکا
ریکاي
ریکای
ریکوتی
ریگ
ریگا
ریگان
ریگی
رییس
رییسی
ز
زا
زات
زاد
زادانه
زادراکارتا
زادروز
زادشهر
زادلو
زاده
زادگان
زادگاه
زادگله
زادی
زادیبخش
زار
زارع
زارم
زاری
زازا
زازاستون
زازاي
زازاکی
زاغمرز
زال
زامبیا
زامنهوف
زانا
زانو
زاهدان
زاویه
زاي
زاپاتا
زاکسن
زاگرب
زاگرس
زاید
زاینده
زبان
زبانان
زبانهای
زبانی
زبون
زبونه
زبونون
زبیده
زبیر
زتابایت
زتکون
زحل
زحمات
زحمت
زخم
زخمی
زخمیون
زد
زدایی
زدن
زده
زدگی
زدی
زدینه
زر
زراب
زراعت
زرتشت
زرتشتی
زرتشتیان
زرتشتیون
زرج
زرد
زردشت
زردکیجا
زرقاء
زرمهر
زرمیخ
زرهی
زرگری
زری
زرین
ززم
زشت
زلزله
زلنسکی
زم
زمان
زمانه
زمانی
زمایش
زمایشات
زمایشگاه
زمایشی
زمبه
زمبی
زمس
زمستان
زمستون
زمستونی
زمسون
زمور
زمون
زمونه
زمونی
زمينه
زمی
زمین
زمینای
زمینه
زمینی
زن
زنا
زنان
زنانه
زناي
زنای
زنایی
زنبور
زنجان
زنجیره
زند
زندان
زندانی
زندانیان
زندانیون
زندنه
زنده
زندون
زندونی
زندونیون
زندگانی
زندگي
زندگی
زندگینامه
زندگینومه
زندیه
زندیون
زننه
زنه
زنون
زنونه
زنگ
زنگبار
زنگی
زنی
زنیم
زه
زهر
زهرا
زهره
زهی
زو
زوال
زود
زودتر
زودته
زودرس
زودی
زور
زورپشتی
زورپـ
زوری
زوریخ
زوف
زولا
زوندی
زونه
زونگ
زوون
زوونا
زوونای
زوونه
زوونون
زوونونی
زوونی
زوي
زي
زير
زک
زکات
زی
زیاد
زیادنه
زیاده
زیادی
زیار
زیارت
زیاری
زیاریون
زیبا
زیباترین
زیباي
زیباکلام
زیبای
زیبایی
زیتون
زیج
زید
زیدی
زیدیه
زیدیون
زیر
زیرا
زیربخش
زیرزمین
زیرزمینی
زیرساخت
زیرساختون
زیرشاخه
زیرصفحه
زیرمجموعه
زیرو
زیرپوش
زیرچل
زیرگونه
زیست
زیستگاه
زیستی
زیمبابوه
زیمباوه
زین
زینب
زینتی
زیوون
زیک
زیکا
زیگموند
س
سا
سابق
سابقا
سابقه
سات
ساتراپی
ساتن
ساتنه
ساته
ساج
ساجن
ساجنده
ساجنه
ساجی
ساحل
ساحلی
ساخاروف
ساخالین
ساخت
ساختار
ساختارون
ساختاری
ساختمان
ساختمانهای
ساختمون
ساختمونای
ساختمونی
ساختن
ساخته
سادات
ساده
سادوك
سادوي
سادگی
سار
سارا
ساراگوسا
سارایوو
سارتر
ساردنی
ساره
ساروج
سارون
ساروی
سارویه
ساري
سارک
سارکل
سارکوزی
ساری
ساز
سازان
سازمان
سازماندهی
سازمانی
سازمون
سازن
سازنده
سازندگی
سازنه
سازه
سازها
سازهای
سازون
سازگار
سازی
ساسان
ساسانی
ساسانیان
ساسانیون
ساسی
ساع
ساعات
ساعت
ساعتی
سافت
ساقط
ساقه
ساقی
سال
سالا
سالات
سالار
سالاری
سالازار
سالانه
سالای
سالت
سالروز
سالزبورگ
سالم
سالمون
سالن
سالنامه
ساله
سالها
سالهای
سالوادور
سالون
سالونه
سالگرد
سالگی
سالی
سالیان
سالیونه
سام
سامان
سامانه
سامانی
سامانیون
سامرا
ساموا
سامورایی
سامون
سامونه
سامونون
سامونی
ساموي
سامگوک
سامی
سامیون
سان
سانتا
سانتر
سانتو
سانتوس
سانتی
سانتیاگو
سانتیمتر
سانحه
ساندرز
سانز
سانسور
سانسکریت
سانفرانسیسکو
سانچز
سانچہ
سانژ
سانی
ساوالان
ساواک
ساوت
ساوجبلاغ
ساي
سايت
ساپورت
ساپینس
ساک
ساکاشویلی
ساکرامنتو
ساکن
ساکنان
ساکنون
ساکنین
ساکورا
ساکی
ساگا
ساگرادا
ساگینیان
سای
سایت
سایتاما
سایتون
سایتونی
سایتی
سایر
سایرس
سایرین
ساینس
سایه
سایپا
سایی
سباستین
سبب
سبد
سبز
سبزه
سبزوار
سبزی
سبزیجات
سبك
سبلان
سبک
سبکون
ست
ستا
ستاد
ستار
ستارا
ستارای
ستاره
ستارگان
ستارگون
ستان
ستانه
ستایش
ستد
ستراخان
ستم
ستن
ستنه
سته
ستوده
ستوری
ستوریاس
ستون
ستونه
ستونی
ستی
ستیزی
ستین
سجاد
سجادرود
سحابی
سحر
سخت
سخته
سختی
سخن
سخنان
سخنرانی
سخنگو
سخنگوی
سد
سده
سر
سرا
سراج
سرارم
سراسر
سراسری
سراغ
سراق
سرامیک
سران
سرانجام
سرانجوم
سرانه
سرای
سراینده
سرایی
سرب
سرباز
سربازا
سربازان
سربازای
سربازها
سربازون
سربازی
سربدارون
سرت
سرتاسر
سرتاسری
سرجا
سرجمع
سرخ
سرخاب
سرخس
سرخه
سرخوش
سرخپوست
سرخپوستون
سرخپوستی
سرخی
سرد
سردابه
سردار
سردارون
سرداری
سردبیر
سردبیری
سردر
سردرد
سرده
سردی
سرزمین
سرزمینای
سرزمینونی
سرزمینی
سرزنش
سرساب
سرسبز
سرسبزی
سرست
سرسلسله
سرش
سرشار
سرشت
سرشماری
سرشماریون
سرشناس
سرشناسی
سرشوماری
سرطان
سرطانی
سرعت
سرعین
سرلشکر
سرما
سرماخوردگی
سرمایه
سرمربی
سرنشین
سرنوشت
سرنگون
سرنگونی
سره
سرهم
سرهنگ
سرو
سروا
سروانتس
سرواژه
سرود
سروده
سرور
سروسامون
سروش
سروقت
سرون
سرویس
سري
سرپا
سرپرست
سرپرستی
سرچشمه
سرژ
سرک
سرکردگی
سرکوب
سرکوبی
سرکیسیان
سرگذشت
سرگرم
سرگرمی
سرگي
سری
سریال
سریالون
سریانی
سریع
سریعا
سریلانکا
سزار
سزر
سزیم
سس
سسات
سسه
سسون
سطح
سطحی
سطر
سطوح
سعادت
سعد
سعدالدوله
سعدالدین
سعدی
سعود
سعودی
سعی
سعید
سعیدی
سغدی
سـت
سـه
سفارت
سفارتخنه
سفارش
سفال
سفالت
سفالته
سفانه
سفت
سفر
سفرنامه
سفرنومه
سفره
سفرون
سفری
سفلی
سفید
سفیدا
سفیر
سفیرون
سقانفار
سقراط
سقراطی
سقز
سقط
سقف
سقوط
سل
سلاح
سلاحون
سلاسی
سلاطین
سلام
سلامت
سلامتی
سلب
سلبریتی
سلت
سلتی
سلتیکز
سلجوقی
سلجوقیان
سلجوقیون
سلسله
سلطان
سلطنت
سلطنتی
سلطه
سلطون
سلف
سلفچگون
سلفی
سلمان
سلمون
سلنا
سلو
سلول
سلولی
سلوی
سلیقه
سلیم
سلیمان
سلیمانی
سلیمانیه
سلیمون
سلیمی
سم
سما
سماء
سماموس
سمان
سمانی
سمبل
سمبورو
سمت
سمرقند
سمسکنده
سمشکه
سمنان
سمنانی
سمنو
سمنون
سمون
سمونی
سمی
سمیر
سمیرا
سمیرم
سن
سنا
سناتور
سناتورون
سناتوری
سنار
سنای
سنباد
سنبله
سنبوری
سنت
سنتا
سنتر
سنتز
سنتی
سنجار
سنجبدشرقی
سنجبدشمالی
سنجبدغربی
سنجد
سنجر
سنجی
سند
سندسلام
سندی
سنندج
سنه
سنوات
سنگ
سنگال
سنگاپور
سنگر
سنگسر
سنگسری
سنگون
سنگی
سنگین
سنگینی
سنی
سنین
سه
سهام
سهامی
سهراب
سهل
سهم
سهمی
سهند
سهیل
سهیلا
سهیم
سو
سوء
سوا
سوابق
سواحل
سواحلی
سواحی
سواد
سوادکوه
سوادکوهی
سوار
سوارز
سواره
سوارون
سواری
سوازیلند
سوال
سوالات
سوالی
سوایی
سوبوتکا
سوت
سوتا
سوته
سوتین
سوج
سوخت
سوخته
سوخرا
سوخراي
سوخوتای
سوخومی
سود
سودان
سودانی
سودی
سور
سوراخ
سورانی
سورت
سورتیجی
سورري
سورعت
سوره
سورود
سورک
سوری
سورینام
سوریه
سوز
سوزان
سوزن
سوزی
سوسن
سوسیال
سوسیالیست
سوسیالیستون
سوسیالیستی
سوسیالیسم
سوفسطاي
سوفی
سوفیا
سوق
سول
سولاخ
سولاریس
سولاوسی
سولی
سوم
سومالی
سومر
سومی
سومین
سون
سونا
سونتی
سونسیون
سوننی
سونگ
سونگاری
سونگاس
سونی
سوهارتو
سووا
سووال
سووستر
سوومی
سوي
سوپر
سوپرجام
سوپرکاپ
سوپریور
سوچی
سوکارنو
سوگند
سوی
سویا
سویاتوسلاو
سویی
سوییس
سي
سياسي
سيب
سيد
سپاس
سپاسگزاری
سپاه
سپاهان
سپاهی
سپاهیون
سپتا
سپتامبر
سپر
سپرد
سپرده
سپری
سپرین
سپس
سپه
سپهدار
سپهر
سپهری
سپهسالار
سپیده
سپیرین
سک
سکایی
سکته
سکس
سکنه
سکنی
سکه
سکو
سکوت
سکودری
سکولار
سکولاریسم
سکونت
سکی
سگ
سگالان
سگور
سگی
سی
سیا
سیاتل
سیارات
سیاره
سیارک
سیاست
سیاستای
سیاستمدار
سیاستمداران
سیاستمدارون
سیاستمدارونی
سیاستون
سیاستی
سیاسی
سیاسیون
سیال
سیام
سیامی
سیانی
سیاه
سیاهرود
سیاهه
سیاهکل
سیاوش
سیای
سیایی
سیب
سیبری
سیتی
سید
سیدا
سیدمحله
سیدنی
سیده
سیدون
سیدکلا
سیر
سیرا
سیرالي
سیره
سیروس
سیری
سیریلیک
سیز
سیزده
سیزدهم
سیزدهمین
سیزدهوم
سیزه
سیس
سیسات
سیستان
سیستانی
سیستم
سیستماتیک
سیستمون
سیسیل
سیشل
سیصد
سیف
سیفی
سیل
سیلا
سیلزی
سیلوا
سیلوستر
سیلویو
سیم
سیما
سیمای
سیمجور
سیمرغ
سیمز
سیمنون
سیموس
سیمون
سیمپل
سیمین
سین
سینا
سیناترا
سینما
سینماي
سینمای
سینمایی
سینه
سینوهه
سینگ
سینی
سیه
سیو
سیوا
سیوای
سیونیک
سیوي
سیوپوست
سیوپوستون
سیپاه
سیپراس
سیچوان
سیک
سیکا
سیکسرز
سیگار
ش
شا
شاء
شاءزاده
شاءصفی
شاءعباس
شاب
شابلون
شابلونا
شابلونون
شابک
شاتوبریان
شاخ
شاخص
شاخه
شاد
شادمهر
شادی
شار
شارانت
شارتیه
شاردن
شارل
شارلوت
شارنت
شارون
شازده
شاعباس
شاعر
شاعران
شاعرانه
شاعرون
شاعرونی
شاعری
شافعی
شال
شالکه
شالی
شام
شامل
شاملو
شامپانی
شامپاین
شامی
شان
شانتال
شانزده
شانزدهم
شانس
شانه
شانگهای
شاه
شاهان
شاهد
شاهرخ
شاهرود
شاهزاده
شاهنامه
شاهنشاهی
شاهنشاي
شاهنومه
شاهون
شاهکار
شاهکارون
شاهی
شاهین
شاو
شاي
شاپ
شاپور
شاگرد
شاگردون
شاگردی
شای
شایان
شاید
شایسته
شایع
شایعات
شایعه
شایی
شب
شبانه
شباهت
شبه
شبهه
شبکه
شبیخون
شبیه
شت
شتاب
شتر
شتن
شتنه
شته
شتی
شتیانی
شجاع
شجاعت
شجاعی
شجره
شجریان
شحال
شخسیت
شخص
شخصا
شخصی
شخصیت
شخصیتون
شخصیتی
شد
شدت
شدم
شدن
شدند
شدنی
شده
شدگان
شدید
شدیدا
شدیدی
شر
شراب
شرایط
شرایطی
شربت
شرح
شرط
شرطی
شرع
شرعی
شرف
شرق
شرقي
شرقی
شرقیه
شركت
شرلی
شرم
شرمن
شرمنده
شرو
شروء
شروان
شروط
شروع
شرون
شروین
شروینه
شرک
شرکت
شرکتای
شرکتون
شرگو
شرگوي
شریعت
شریف
شریفی
شریک
شریکی
شست
شش
ششصد
ششم
ششمین
شصت
شطرنج
شعار
شعاع
شعبان
شعبانخانی
شعبده
شعبه
شعبون
شعر
شعرا
شعرانی
شعرای
شعرخوانی
شعرها
شعرهای
شعرون
شعری
شعور
شغال
شغل
شغلی
شـ
شفا
شفافیت
شفاهی
شفت
شفته
شفق
شفیع
شفیعی
شل
شلاق
شلسویگ
شلفین
شلمان
شلوغ
شلوغه
شلیک
شم
شما
شماخی
شمار
شماره
شماری
شمال
شمالی
شمان
شمایل
شمس
شمسی
شمشیر
شمشیری
شمع
شمن
شمنون
شمه
شمیران
شمیرانات
شمیرون
شن
شنا
شناخت
شناخته
شناختی
شناس
شناسا
شناسان
شناسایی
شناسته
شناسد
شناسن
شناسنامه
شناسه
شناسون
شناسي
شناسی
شناسینه
شناي
شنایی
شنبه
شند
شنه
شنود
شنگ
شنگن
شنی
شه
شهاب
شهابی
شهباز
شهبند
شهدا
شهر
شهرا
شهرام
شهراندونزی
شهرای
شهربانو
شهربانی
شهرت
شهردار
شهرداری
شهردویر
شهرسازی
شهرستان
شهرستانون
شهرستانی
شهرستون
شهرستونای
شهرنشین
شهرنوم
شهره
شهرها
شهرهای
شهرهند
شهرو
شهرون
شهروند
شهروندون
شهروندی
شهرونی
شهرک
شهری
شهریار
شهریور
شهسوار
شهسواری
شهلا
شهمیرزاد
شهمیرزادی
شهناز
شهنه
شهید
شهیدا
شهیدان
شهیدی
شو
شوا
شوارتس
شواش
شوال
شوالیه
شواهد
شواهدی
شوب
شوخی
شود
شور
شورا
شوراب
شوراده
شوراي
شورای
شورش
شورشون
شورشی
شورشیون
شوروری
شوروی
شوری
شوریان
شوریدند
شوریون
شوش
شوعبه
شوم
شوماخر
شومار
شوماره
شومارگون
شومال
شومالی
شون
شوند
شونزده
شونزدهم
شونزه
شونزهم
شونزهمین
شوننه
شونه
شونگ
شونی
شوهرت
شووب
شوي
شوپر
شوپه
شوکا
شوی
شویتس
شوید
شي
شيوع
شپزی
شک
شکار
شکارچی
شکارگاه
شکاری
شکایت
شکر
شکرا
شکری
شکست
شکسته
شکسپیر
شکل
شکلک
شکلی
شکم
شکن
شکنجه
شکنی
شکوفا
شکوفایی
شکوفنده
شکوفه
شکوه
شکی
شگفت
شگفتی
شی
شیاده
شیب
شیخ
شیخی
شیدایی
شیر
شیرا
شیراز
شیرازی
شیران
شیراک
شیرج
شیرون
شیروون
شیرویه
شیرکت
شیرگاه
شیری
شیرین
شیرینی
شیزوي
شیش
شیشصد
شیشم
شیشمین
شیشه
شیشوم
شیشومین
شیشک
شیطون
شیطونی
شیعه
شیعی
شیعیان
شیعیون
شیفته
شیل
شیلا
شیله
شیلی
شیلیایی
شیمانه
شیمی
شیمیایی
شیمیدون
شیمیدونا
شیمیي
شین
شیناس
شیناسی
شینزو
شینه
شیه
شیوه
شیکاگو
شیکست
شیکل
شیگا
شەنه
ص
صابر
صاحاب
صاحب
صادر
صادرات
صادق
صادقلو
صادقی
صارمی
صاف
صالح
صالحی
صالحیان
صامت
صاي
صبا
صباح
صبح
صبر
صحابه
صحبت
صحت
صحرا
صحرای
صحنه
صحیح
صخره
صد
صدا
صدابردار
صدارت
صداقت
صدام
صداوسیما
صداپیشگان
صداپیشگون
صدای
صدایی
صدتا
صدر
صدراعظم
صدراعظمون
صدراعظمی
صدف
صدمه
صدمین
صدها
صدور
صدیقه
صرب
صربستان
صربستون
صربون
صربی
صرف
صرفا
صص
صعده
صعود
صغیر
صف
صفا
صفاری
صفاریون
صفت
صفحات
صفحه
صفر
صفری
صفه
صفوی
صفویان
صفویه
صفویون
صفی
صلاح
صلاحیت
صلح
صلحنومه
صله
صلوات
صلیب
صلیبی
صمدی
صمصام
صنايع
صنایع
صندلی
صندوق
صنعا
صنعای
صنعت
صنعتی
صواحی
صوتی
صور
صورت
صورتون
صورتی
صوفی
صوفیون
صول
صولح
صومعه
صوه
صیادی
صید
صیدا
ض
ضامن
ضبط
ضحاک
ضد
ضرب
ضربه
ضرر
ضرورت
ضروری
ضعف
ضعیف
ضمن
ضمنا
ضمه
ضمیر
ضمیمه
ضیاء
ضیاءپور
ضیاالدین
ط
طارق
طاعون
طاق
طاقت
طالب
طالبا
طالبان
طالبانی
طالبون
طالبی
طالش
طالع
طالقان
طالقانی
طالقونی
طاها
طاهباز
طاهر
طاهري
طاهری
طاهریون
طاي
طایفه
طب
طبابت
طباطباي
طباطبایی
طبرستان
طبرستون
طبرسی
طبری
طبع
طبق
طبقات
طبقاتی
طبقه
طبیب
طبیعت
طبیعی
طر
طرابلس
طراح
طراحان
طراحی
طرح
طرحون
طرحی
طرز
طرزی
طرطوس
طرف
طرفدار
طرفداران
طرفدارون
طرفداری
طرفه
طرفونه
طرفی
طرفین
طریق
طعم
طعمه
طعنه
طغرل
طلا
طلاق
طلال
طلاي
طلای
طلایی
طلب
طلبان
طلبون
طلبی
طلعت
طلوع
طلیسچی
طمع
طنز
طنزپرداز
طه
طهاهري
طهماسب
طهماسبی
طور
طوری
طوس
طوسی
طوفان
طول
طولانی
طي
طی
طیب
طیبة
طیبی
طیر
طیف
ظ
ظالم
ظاهر
ظاهرا
ظاهری
ظرف
ظرفیت
ظریف
ظلم
ظهر
ظهور
ظهیرالدین
ع
عاج
عادت
عادل
عادی
عارضه
عارف
عاروسک
عاروسی
عازم
عاشق
عاشقانه
عاشقنه
عاشقونه
عاشقی
عاشورا
عاصمه
عاطفی
عاقل
عالم
عالمیان
عالی
عالیشاه
عالیه
عام
عامر
عامل
عامه
عامو
عامی
عامیانه
عایشه
عبادت
عبادی
عبارات
عبارت
عبارتند
عبارتنه
عبارته
عبارتی
عباس
عباسعلی
عباسی
عباسیان
عباسیون
عبد
عبدالجبار
عبدالحسین
عبدالحق
عبدالحمید
عبدالرحمان
عبدالرحمن
عبدالرحیم
عبدالرضا
عبدالعزیز
عبدالعظیم
عبدالعلی
عبدالفتاح
عبدالله
عبدالمالک
عبدالمالکی
عبدالمجید
عبدالمطلب
عبدالملک
عبدالملکی
عبدالمناف
عبدالناصر
عبدالکریم
عبدی
عبرت
عبری
عبور
عبوری
عبیدة
عتبة
عتیق
عثمان
عثمانی
عثمانیا
عثمانیان
عثمانیون
عجایب
عجم
عجیب
عدالت
عدد
عددون
عدسی
عدل
عدلیه
عدم
عدن
عده
عدی
عذاب
عذرخاهی
عراق
عراقی
عرب
عربستان
عربستون
عربستونی
عربون
عربي
عربی
عربیسم
عرصه
عرض
عرضه
عرفات
عرفان
عرفانی
عرق
عروس
عروسی
عزا
عزاداری
عزالدین
عزت
عزل
عزیز
عسل
عسلی
عسکری
عسگری
عسیر
عشایر
عشرت
عشری
عشق
عشقی
عصب
عصبانی
عصبانیت
عصبی
عصر
عضدالدوله
عضو
عضوه
عضوون
عضویت
عط
عطا
عطار
عطاران
عطارد
عطر
عظمت
عظیم
عفرین
عفو
عفونت
عقاب
عقابها
عقاید
عقب
عقبه
عقد
عقده
عقرب
عقل
عقلی
عقیده
عقیقی
عقیلی
عكس
عل
علاء
علاءالدوله
علاقه
علام
علامت
علامه
علاوه
علاي
علایم
علت
علف
علل
علم
علما
علمای
علمي
علمی
علمیه
علنا
علنی
علوم
علوی
علویه
علویون
على
علی
علیا
علیرضا
علیرغم
علیزاده
علیشاه
علیشمس
علیقلی
علیمراد
علیه
علیپور
عم
عماد
عمادالدوله
عمادالدین
عمادی
عمارت
عمارتون
عمال
عمان
عمانی
عمدتا
عمده
عمر
عمرالبشیر
عمران
عمرانی
عمرش
عمرو
عمق
عمل
عملا
عملکرد
عملگر
عملی
عملیات
عملیاتون
عملیاتی
عمو
عمودی
عموم
عموما
عمومی
عمومیت
عمید
عمیق
عناصر
عناوین
عنايت
عنایت
عنبران
عنصر
عنصری
عنوان
عنکبوت
عهد
عهدنامه
عهدنومه
عهده
عوارض
عواطف
عوام
عوامل
عواید
عوثمان
عوثمانی
عوثمانیا
عوثمانیون
عود
عوض
عوضویت
عولوم
عومان
عومر
عونوان
عوهده
عکاس
عکاسی
عکس
عکسا
عکسای
عکسون
عکسی
عیب
عید
عیدون
عیدی
عیراق
عیسی
عین
عینا
عینی
عیید
غ
غا
غاج
غار
غارت
غارون
غاز
غازگر
غازی
غازین
غافل
غالب
غالبا
غامحمدخان
غبار
غده
غدیر
غذا
غذاي
غذای
غذایی
غرامت
غرب
غربت
غربي
غربی
غربیون
غرق
غروب
غرور
غریب
غریبه
غزل
غزلیات
غزنوی
غزنویون
غزه
غزوه
غسان
غسل
غش
غصب
غلات
غلاف
غلامحسین
غلامرضا
غلامعلی
غلامون
غلبه
غلت
غلط
غلطه
غلوم
غم
غنا
غناي
غنی
غو
غوز
غول
غیب
غیبت
غیر
غیرا
غیراساره
غیررسمی
غیرطبیعی
غیرفعال
غیرقابل
غیرقانونی
غیرمتعهدون
غیرمجاز
غیرمستقیم
غیرنظامی
غیرنظامیون
غیره
ـ
ــ
ـــر
ــه
ــی
ـل
ـه
ـوکـتـوبـر
ـگ
ف
فا
فاتح
فاتحه
فاجعه
فاحشه
فار
فارابی
فارادی
فارس
فارسي
فارسکی
فارسی
فارسیج
فارسیه
فارغ
فارو
فاروق
فارویی
فارک
فارگو
فاز
فاشیست
فاشیستون
فاشیستی
فاشیسم
فاصله
فاضل
فاضلی
فاطمه
فاطمی
فاطمیون
فاعل
فاعلی
فاقد
فال
فالا
فاله
فالکلند
فامیل
فامیلای
فامیلون
فامیلی
فان
فانجیو
فانون
فانی
فاي
فاکس
فاکنر
فایده
فایل
فبلمهای
فت
فتا
فتاب
فتابگردون
فتابی
فتح
فتحعلی
فتحه
فتعلی
فتنه
فتوحات
فجر
فحش
فخر
فخرالدوله
فخرالدین
فدا
فدایی
فدراسیون
فدرال
فدرالی
فدرالیسم
فدریکو
فدک
فدیه
فر
فرا
فرات
فرار
فرارهاکرده
فرارو
فراری
فراز
فراساخته
فرافکنی
فراماسونری
فرامرز
فراموش
فراموشی
فران
فرانتس
فرانس
فرانسه
فرانسوا
فرانسواز
فرانسوی
فرانسویان
فرانسویون
فرانسیس
فرانسیسکو
فرانسیم
فرانك
فرانچسکو
فرانک
فرانکا
فرانکفورت
فرانکل
فرانکلین
فرانکو
فرانکوفونی
فرانکوی
فراهانی
فراهم
فراوان
فراوانی
فراوون
فراوونی
فراگیر
فراگیری
فرایندای
فرج
فرح
فرخ
فرخان
فرخزاد
فرخی
فرد
فردا
فردای
فردریک
فردوس
فردوسی
فردی
فردینان
فردیناند
فردینه
فرزاد
فرزانه
فرزند
فرزندان
فرستاد
فرستاده
فرستنده
فرسودگی
فرش
فرشته
فرشوادگر
فرصت
فرض
فرضیه
فرعون
فرعی
فرق
فرقه
فرقی
فرم
فرمان
فرماندار
فرمانداری
فرمانده
فرماندهون
فرماندهی
فرمانروا
فرمانروای
فرمانروایی
فرمایش
فرمت
فرمودید
فرمول
فرمون
فرموندار
فرمونداری
فرمونده
فرموندهی
فرموندي
فرمونروا
فرمونرواي
فرمونروای
فرمونروایی
فرناندز
فرناندو
فرنگ
فرنگی
فره
فرهاد
فرهادخان
فرهادی
فرهنگ
فرهنگخنه
فرهنگستان
فرهنگستون
فرهنگسرا
فرهنگنومه
فرهنگون
فرهنگي
فرهنگی
فرهود
فرو
فروانیه
فرود
فرودگا
فرودگاه
فرودیته
فروردین
فروزش
فروش
فروشان
فروشای
فروشنده
فروشگاه
فروشی
فروع
فروغ
فرونسه
فرونسي
فروهر
فروپاشی
فروید
فري
فری
فریاد
فریب
فریبا
فریبرز
فریخا
فریخای
فریخایی
فرید
فریدا
فریدریش
فریدنی
فریدون
فریدونکنار
فریزی
فریقا
فریقای
فریقایی
فریم
فرین
فرینش
فریکانس
فساد
فستیوال
فسفر
فسیل
فش
فشار
فشرده
فشم
فشن
فصل
فصلنامه
فصلون
فصلی
فصوص
فصول
فضا
فضانورد
فضاهای
فضاي
فضاپیما
فضاپیمای
فضای
فضایی
فضل
فطر
فع
فعال
فعالون
فعالی
فعالیت
فعالیتای
فعالیتهای
فعالیتون
فعل
فعلا
فعلی
فـه
فقدان
فقر
فقط
فقه
فقهی
فقیر
فقیرترین
فقیرون
فقیری
فقیه
فكر
فلات
فلاح
فلاسفه
فلان
فلاند
فلاندر
فلاندی
فلانی
فلج
فلز
فلزات
فلزی
فلسطین
فلسطینی
فلسفه
فلسفی
فلوبر
فلورانس
فلوریدا
فلک
فلکی
فلیسیته
فلیپ
فلیکر
فلیکس
فمنیسم
فمینیست
فمینیستی
فمینیسم
فن
فناخسرو
فناوری
فنلاند
فنلاندی
فنه
فنون
فنی
فنیقی
فه
فهرست
فهرستی
فهم
فهمنه
فهیمه
فهیمیان
فو
فواصل
فواید
فوبه
فوت
فوتبال
فوتبالیست
فوتسال
فوتوال
فوتوالیست
فوتوالیستون
فوج
فوجی
فور
فورا
فوربز
فوربس
فورد
فورنیه
فوريه
فوری
فوریه
فوشه
فوق
فولاد
فولادلوی
فولادی
فولکلور
فومن
فون
فونت
فوکو
فوکوشیما
فوکوي
في
فک
فکر
فکرون
فکری
فی
فیات
فیبر
فیثاغورس
فیجی
فید
فیدل
فیدون
فیروز
فیروزا
فیروزان
فیروزجاه
فیروزه
فیروزکوه
فیروزکوهی
فیروزی
فیزیولوژی
فیزیولوژیک
فیزیک
فیزیکدون
فیزیکدونا
فیزیکی
فیس
فیسبوک
فیشار
فیشر
فیصل
فیض
فیضیه
فیفا
فیفتی
فیل
فیلا
فیلادلفیا
فیلبند
فیلتر
فیلد
فیلسوف
فیلسوفان
فیلسوفون
فیلم
فیلمبرداری
فیلمساز
فیلمنومه
فیلمهای
فیلمون
فیلموگرافی
فیلمی
فیلی
فیلیپ
فیلیپین
فیلیپینی
فیمینیسم
فینال
فینیکس
فیودور
ق
قا
قاب
قابل
قابلیت
قابوس
قاتل
قاجار
قاجارون
قاجاری
قاجاریه
قاجاریون
قاجانی
قاخان
قادر
قادسیه
قادی
قادیکلا
قار
قارن
قاره
قاسم
قاسمی
قاسمیان
قاسی
قاصد
قاضی
قاطع
قاطعانه
قاطی
قاعده
قافیه
قالب
قالبون
قالی
قامحمدخان
قانع
قانون
قانونا
قانونی
قاهره
قاي
قاچاق
قاچاقچی
قای
قایان
قایده
قایق
قایم
قباد
قبایل
قبر
قبرس
قبرستون
قبرون
قبضه
قبطی
قبل
قبلا
قبلن
قبله
قبلی
قبول
قبولی
قبیل
قبیله
قت
قتل
قحطی
قد
قدر
قدرت
قدرتمند
قدرتمندترین
قدرتون
قدرتی
قدری
قدس
قدم
قدمت
قدمتی
قدمی
قدیس
قدیم
قدیما
قدیمی
قذافی
قرا
قراتکین
قرار
قرارداد
قراردادی
قرارگاه
قراری
قران
قربان
قربانی
قربانیان
قربانیون
قربون
قربونی
قرص
قرض
قرق
قرقیزستون
قرقیزي
قرقیزی
قرمز
قرن
قرنا
قرنطینه
قره
قرون
قروه
قرچغای
قریب
قریش
قریه
قزاق
قزاقستون
قزاقون
قزاقي
قزاقی
قزل
قزلباش
قزلباشون
قزوين
قزوین
قزوینی
قسطنطنیه
قسم
قسمت
قسمتون
قسمتونی
قسمتی
قشقایی
قشقاییون
قشلاق
قشلاقی
قشنگ
قشنگه
قشنگی
قشون
قصاب
قصد
قصر
قصران
قصرانی
قصه
قصیده
قضاوت
قضاي
قضایی
قضیه
قطار
قطب
قطبی
قطر
قطره
قطری
قطع
قطعا
قطعات
قطعنامه
قطعنومه
قطعه
قطعی
قطعیت
قـ
قفس
قفقاز
قفقازی
قفل
ققنوس
قلا
قلب
قلبی
قلع
قلعه
قلم
قلمرو
قلمروهای
قلمروو
قلمروی
قله
قلی
قلیایی
قلیچ
قم
قمر
قمری
قمع
قمی
قناری
قنبری
قند
قندهار
قندیل
قه
قهرمان
قهرمانان
قهرمانی
قهرمون
قهرمونای
قهرمونون
قهرمونی
قهوه
قو
قوا
قواعد
قوام
قوانین
قوانینی
قوای
قوت
قودرت
قور
قورا
قورچی
قوز
قوس
قول
قوله
قولی
قوم
قومس
قومی
قومیت
قومیتون
قومیتی
قوه
قوچ
قوچان
قوی
قویی
قیاس
قیافه
قیام
قیامت
قید
قیر
قیصر
قیصری
قیمت
قیمتی
قیوم
قیومیت
ك
كا
كار
كاركرد
كاري
كاسپين
كاسپيو
كامل
كانده
كاپلان
كتاب
كرد
كردنه
كرده
كسي
كشور
كشورهاي
كلا
كلمات
كم
كمتر
كند
كننده
كنندگي
كننه
كنه
كنيد
كه
كوردي
كوشش
ل
لا
لااقل
لاباما
لابرادور
لابیرنت
لات
لاتزیو
لاتویا
لاتویای
لاتین
لاتینی
لاج
لاجیم
لادن
لاذقیه
لار
لارن
لارنس
لاری
لاریجان
لاریجانی
لاریم
لازم
لازمه
لاس
لاست
لاسم
لاسکا
لاش
لاشت
لاشه
لال
لاله
لالیگا
لام
لاما
لامبر
لامرد
لامپ
لان
لاند
لانکا
لانگ
لانگدوک
لاهه
لاهور
لاهیجان
لاودا
لاي
لاپ
لاپاز
لاپلاس
لاپلند
لاک
لاگوس
لای
لایت
لاین
لایه
لاییز
لب
لبا
لباس
لباسون
لبالو
لبانی
لبانیایی
لبخند
لبر
لبرت
لبرتو
لبرشت
لبن
لبنان
لبنانی
لبنیات
لبه
لبوم
لبومون
لت
لتایی
لتو
لتونی
لجستیکی
لجه
لحاظ
لحظه
لحن
لخ
لخت
لد
لذا
لذت
لر
لرد
لرزه
لرستان
لرستون
لری
لزاس
لزایمر
لزلی
لزمی
لزوم
لزگی
لس
لسوتو
لسینگ
لشت
لشکر
لشکرستان
لشکرکشی
لشکری
لشکریون
لشگر
لشگرگاه
لطف
لطفا
لطفی
لطمه
لعنتی
لغات
لغت
لغتنامه
لغتنومه
لغو
لغوی
لـ
لف
لفا
لفت
لفرد
لفردو
لفظ
لفور
لفونس
لفونسو
لقب
لل
للبدیات
للم
للملایین
للمیلاد
للنشر
لله
للوا
لم
لماتی
لمان
لمانی
لمانیا
لمانیون
لمبتون
لمراسک
لمون
لمونیج
لمی
لن
لند
لندن
لنده
لنه
لنون
لنکران
لنگ
لنگر
لنگرود
لنگور
لنین
لنینگراد
لنینیست
له
لهاسا
لهجه
لهراسبی
لهستان
لهستانی
لهستون
لهستونی
لو
لوا
لوازم
لواسانی
لوبیا
لوتر
لوتری
لوتوس
لوح
لوده
لودویک
لودویگ
لور
لوران
لورانس
لورن
لورنس
لورکا
لوری
لوزان
لوس
لوساکا
لوسی
لوسین
لوش
لوشان
لوفا
لوقا
لولا
لوله
لوم
لومه
لومومبا
لون
لوندویل
لونسو
لوه
لوور
لووی
لوي
لوپز
لوچ
لوچو
لوک
لوکا
لوکزامبورگ
لوگو
لوگوتراپی
لوگوس
لوگوي
لوگوی
لوی
لویس
لوین
لویی
لي
لپ
لپا
لچر
لک
لکساندر
لکسی
لکه
لکی
لگ
لگیا
لی
لیبرال
لیبرالون
لیبرالیسم
لیبرلند
لیبریا
لیبی
لیتل
لیتوانی
لیتوانیایی
لیتکوه
لیث
لیختن
لیدل
لیدی
لیر
لیره
لیز
لیزر
لیس
لیسار
لیسانس
لیسبون
لیست
لیستی
لیسون
لیسک
لیف
لیل
لیلا
لیلم
لیله
لیلی
لیم
لین
لیندا
لیندون
لینک
لینکلن
لینکون
لینگ
لینگه
لینگون
لینی
لیه
لیورپول
لیون
لیونل
لیک
لیکرز
لیکس
لیکن
لیگ
لیگا
م
ما
ماء
مابین
ماتا
ماتر
ماترون
ماتور
ماتوری
ماتي
ماتیاس
ماتیو
ماجرا
ماد
مادام
ماداگاسکار
مادایا
مادر
مادرید
مادلن
مادلین
ماده
مادو
مادورو
مادون
مادي
مادگی
مادی
مار
مارادونا
مارال
مارت
مارتن
مارتی
مارتین
مارتینیک
مارد
مارس
مارسل
مارسی
مارشال
مارلون
مارمضون
مارمولک
مارن
ماره
مارول
مارون
مارونی
مارپیچی
مارچ
مارک
مارکا
مارکس
مارکسیست
مارکسیستی
مارکسیسم
مارکه
مارکو
مارکوس
مارکی
مارکیز
مارگارت
مارگریت
ماری
ماریا
ماریاما
ماریانا
ماریتیم
مارین
مارینو
مارینوس
مارینوی
ماریو
ماز
مازرون
مازروني
مازرونی
مازرونیون
مازرونے
مازندران
مازندراني
مازندرانی
مازندرون
مازندروني
مازندرونی
مازندنومه
مازنی
مازون
مازیار
ماس
ماسال
ماساچوست
ماست
ماسه
ماسوله
ماسون
ماسک
ماشین
ماضی
ماقبل
مال
مالاوی
مالایی
مالت
مالتی
مالدیو
مالرو
مالزی
مالزیایی
ماله
مالک
مالکی
مالکیت
مالی
مالیات
مالیاتی
مالیه
مام
مامطیر
مامطیری
مامور
مامورون
ماموریت
مامون
مان
ماند
ماندلا
ماندن
مانده
ماندگار
مانش
مانع
مانند
مانو
مانوي
مانکن
مانی
مانیفست
مانیل
ماه
ماهان
ماهر
ماهنامه
ماهنومه
ماهه
ماهواره
ماهور
ماهی
ماهیای
ماهیت
ماهیون
ماهیچه
ماهیگیری
ماوراء
ماي
ماچکل
ماژلان
ماک
ماکان
ماکاي
ماکرون
ماکس
ماکسیم
ماکسیمیلین
ماکیاولی
مای
مایا
مایاي
مایع
مایل
مایلی
مایه
مایک
مایکروسافت
مایکل
مب
مبا
مباحث
مبادرت
مبادله
مبارز
مبارزات
مبارزه
مبارزون
مبارک
مبال
مبانی
مبتلا
مبتنی
مبدا
مبدانه
مبداي
مبر
مبلغ
مبلغون
مبنا
مبنای
مبنی
مبه
مبهم
مبی
متا
متاسفانه
متافیزیک
متال
متحد
متحده
متحدون
متحدین
متحول
متخصص
متخصصون
متداول
متر
مترادف
متراکم
مترجم
مترمربع
متروپولیتن
متری
متز
متزلزل
متشکریم
متشکل
متصل
متضاد
متعارف
متعدد
متعددی
متعلق
متعهد
متغیر
متغییر
متفاوت
متفاوتی
متفرقه
متفقون
متفقین
متفکر
متفکرون
متل
متمایز
متمایل
متمدن
متمرکز
متن
متنوع
متنی
متهم
متوالی
متوجه
متوسط
متوسطه
متوقف
متولد
متولی
متون
متچا
متی
متین
مثابه
مثال
مثالی
مثبت
مثل
مثلا
مثلث
مثلثی
مثلن
مثنوی
مجار
مجارستان
مجارستانی
مجارستون
مجارستونی
مجارون
مجاری
مجاز
مجازات
مجازی
مجالس
مجاهدون
مجاهدین
مجاور
مجاورت
مجبور
مجتبی
مجتمع
مجتمعی
مجدد
مجددا
مجروح
مجری
مجریه
مجریون
مجستمه
مجسمه
مجلات
مجلس
مجلسی
مجله
مجمع
مجموع
مجموعا
مجموعه
مجموعە
مجنون
مجه
مجهز
مجهول
مجوز
مجی
مجید
مجیدا
مجیدی
مجیک
محاسبه
محاصره
محافظ
محافظت
محافظه
محافل
محالف
محاوره
محاکمه
محبت
محبوب
محبوبیت
محترم
محتمل
محتوا
محتوای
محتوی
محتویات
محدود
محدوده
محدودیت
محرم
محرمانه
محروم
محرک
محسن
محسوب
محصول
محصولات
محض
محفظه
محقق
محققون
محققین
محل
محلات
محله
محلول
محلی
محم
محمد
محمدا
محمدامین
محمدباقر
محمدبن
محمدتقی
محمدجواد
محمدحسن
محمدحسین
محمدخان
محمدرضا
محمدصالح
محمدعلی
محمدي
محمدی
محمدیه
محمود
محمودا
محمودی
محموله
محور
محوری
محوطه
محک
محکم
محکمه
محکوم
محکومیت
محکومین
محکگپ
محیط
محیطی
مخابرات
مخابراتی
مخاطب
مخاطبون
مخاطبین
مخالف
مخالفان
مخالفت
مخالفتی
مخالفنه
مخالفه
مخالفون
مخالفین
مخبر
مختار
مختارات
مخترع
مختص
مختصات
مختصر
مختصرا
مختلف
مختلفی
مخدر
مخروطی
مخصوص
مخصوصا
مخصوصی
مخفف
مخفی
مخفیانه
مخفیونه
مخلوط
مخملی
مخی
مد
مدار
مداران
مدارس
مدارون
مدارک
مداری
مدافع
مدافعون
مدال
مدام
مداوم
مداي
مدت
مدترین
مدتی
مدح
مدحاء
مدخل
مدرس
مدرسه
مدرن
مدرک
مدعو
مدعی
مدل
مدن
مدنی
مده
مدودف
مدون
مدگی
مدی
مدیا
مدیاویکی
مدیای
مدیترانه
مدیر
مدیران
مدیرعامل
مدیره
مدیرون
مدیرکل
مدیری
مدیریت
مدیریتی
مدینه
مدیون
مذاهب
مذاکرات
مذاکره
مذهب
مذهبون
مذهبی
مذکور
مذکوره
مر
مرا
مراتب
مراجع
مراجعه
مراحل
مراد
مرادف
مرادلو
مرادی
مراسم
مراسمون
مراسمی
مراقبت
مراه
مراهی
مراکز
مراکش
مربع
مربوط
مربی
مربیون
مربیگری
مرتب
مرتبط
مرتبه
مرتد
مرتضوی
مرتضی
مرتفع
مرتن
مرج
مرجان
مرجع
مرجقل
مرجی
مرحله
مرحوم
مرد
مردا
مرداب
مرداد
مردال
مردان
مرداویج
مردای
مردسالار
مردم
مردمان
مردمون
مردمونی
مردمی
مردن
مردنه
مرده
مردها
مردهای
مردود
مردون
مردونه
مردی
مرز
مرزبان
مرزبون
مرزن
مرزهای
مرزی
مرسدس
مرسوم
مرسی
مرسیا
مرشد
مرض
مرضیه
مرطوب
مرعش
مرعشی
مرعشیون
مرغ
مرغان
مرغانه
مرغنه
مرقد
مرقس
مرل
مرلی
مرمت
مرمر
مرمره
مرن
مره
مرو
مرواری
مروارید
مرور
مرورگر
مروزه
مروزی
مروش
مرویون
مريكا
مرپیچی
مرکب
مرکبات
مرکز
مرکزی
مرکزیت
مرکسور
مرکل
مرگ
مرگش
مرگون
مری
مریتیم
مریخ
مریدون
مریض
مریضی
مریلند
مریم
مریوان
مریکا
مریکاست
مریکای
مریکایی
مریکاییون
مزاج
مزاحم
مزارشریف
مزارع
مزد
مزدک
مزراب
مزرعه
مزرونی
مزمن
مزه
مزین
مس
مسا
مسابقات
مسابقه
مساجد
مساحت
مساعد
مسافر
مسافرت
مسافرون
مساله
مساوی
مساي
مسایل
مست
مستثنی
مستر
مستردام
مستشرقون
مستطیل
مستعار
مستعمرات
مستعمره
مستقر
مستقل
مستقلا
مستقیم
مستقیما
مستمر
مستند
مستندات
مسته
مستوفی
مستی
مسجد
مسجدجامع
مسجدون
مسخ
مسخره
مسدود
مسعود
مسعودی
مسقط
مسلح
مسلحانه
مسلحونه
مسلط
مسلم
مسلمان
مسلمانان
مسلمانون
مسلمه
مسلمون
مسلمونا
مسلمونای
مسلمونون
مسلمین
مسلک
مسمغان
مسموم
مسي
مسير
مسکن
مسکو
مسکونی
مسکوی
مسکویه
مسی
مسیح
مسیحا
مسیحی
مسیحیان
مسیحیت
مسیحیون
مسیر
مسیرای
مسیرون
مسیه
مشابه
مشارکت
مشارکتی
مشاغل
مشاهدات
مشاهده
مشاهیر
مشاور
مشاوره
مشاورون
مشایی
مشت
مشترک
مشترکا
مشتری
مشتق
مشخص
مشخصات
مشخصه
مشخصی
مشرف
مشرق
مشروب
مشروطه
مشروطیت
مشروع
مشروعه
مشروعیت
مشعر
مشغول
مشكل
مشهد
مشهدی
مشهر
مشهری
مشهور
مشهورترین
مشهوره
مشورت
مشورتی
مشکان
مشکل
مشکلات
مشکلاتی
مشکلی
مشکوک
مشکین
مشگین
مشیخ
مصاحبه
مصادره
مصالح
مصدر
مصدق
مصدوم
مصر
مصرف
مصرفی
مصری
مصطفی
مصقله
مصمغان
مصنوعی
مصوب
مصوتون
مصور
مضارع
مضاف
مضامین
مضر
مضمون
مطابق
مطابقت
مطالب
مطالبی
مطالعات
مطالعاتی
مطالعه
مطبوعات
مطبوعاتی
مطرح
مطلب
مطلبون
مطلبی
مطلع
مطلق
مطلقه
مطمي
مطهری
مظاهر
مظفر
مظفری
مظهر
مع
معابد
معابر
معاد
معادل
معادن
معاذ
معارف
معاصر
معالجه
معانی
معاهده
معاون
معاونت
معاویه
معبد
معتاد
معتبر
معتبرترین
معتدل
معترض
معترضون
معتز
معتزله
معتقد
معتقدنه
معتمدی
معجزه
معدن
معدنی
معده
معدود
معذرت
معرض
معرف
معرفة
معرفت
معرفی
معروف
معروفترین
معروفته
معروفنه
معروفه
معروفی
معروفیت
معشوقه
معصوم
معصومه
معلم
معلمی
معلوف
معلوم
معلومه
معمار
معمارون
معماری
معمر
معمول
معمولا
معمولن
معمولی
معنا
معنادرمانی
معناي
معنای
معنایی
معنوی
معنی
معکوس
معیار
معیارون
معین
معینی
مغان
مغرب
مغز
مغزی
مغناطیس
مغناطیسی
مغنیسا
مغول
مغولون
مغولی
مـ
مـارس
مـبـر
مفاتیح
مفاخر
مفاهیم
مفت
مفتی
مفرد
مفعولی
مفلح
مفهوم
مفهومی
مفید
مقابل
مقابله
مقالات
مقالاتی
مقاله
مقام
مقامات
مقامی
مقاومت
مقایسه
مقبره
مقبول
مقتول
مقداد
مقدار
مقداری
مقدس
مقدسی
مقدم
مقدمات
مقدماتی
مقدمة
مقدمه
مقدونی
مقدونیه
مقر
مقرر
مقرن
مقرنس
مقریکلا
مقصد
مقصر
مقصودلوی
مقطع
مقعد
مقننه
مقوم
مقومی
مقیاس
مل
ملا
ملاحظه
ملاصدرا
ملاقات
ملاقاتی
ملاله
ملانی
ملاي
ملاک
ملایم
ملبورن
ملت
ملتون
ملحق
ملزومات
ملقب
ملل
ململ
مله
ملوان
ملوک
ملویل
ملک
ملکان
ملکم
ملکه
ملکی
ملی
ملیت
ملیسوس
ملیون
ملیک
مم
ممالک
ممتاز
ممتنع
ممد
ممدرضا
ممدشاء
ممدعلی
ممدولی
ممرضا
ممفیس
ممكنه
مملکت
ممنوع
ممنوعه
ممنوعیت
ممنون
ممکن
ممکنه
ممی
ممیج
ممیزی
من
منابع
منار
مناره
مناسب
مناسبت
مناسبی
مناطق
مناطقی
مناظر
مناظره
منافع
مناقشه
منبر
منبع
منبعون
منبعی
منتخب
منتسب
منتشر
منتشره
منتظر
منتظری
منتقد
منتقدان
منتقدون
منتقدین
منتقل
منتهی
منجر
منجی
منجیل
منحصر
منحل
مند
مندون
منزل
منزوی
منسوب
منشا
منشور
منشی
منصب
منصفانه
منصوب
منصور
منطق
منطقةالبروج
منطقه
منطقوي
منطقی
منظره
منظم
منظور
منظومه
منع
منعقد
منفجر
منفرد
منفی
منقرض
منلاي
منم
منه
منو
منوچهر
منوچهرخان
منچستر
منچستریونایتد
منکر
منگنز
منی
منین
مه
مهاباد
مهاتیر
مهاجر
مهاجرت
مهاجرون
مهاجرونی
مهاجرین
مهاجم
مهاجمون
مهارت
مهجوری
مهدوی
مهدی
مهر
مهرا
مهرابه
مهراد
مهران
مهراوا
مهربون
مهربونی
مهرداد
مهرماه
مهره
مهرپرست
مهرپرستی
مهرگان
مهری
مهسا
مهشيد
مهشید
مهلب
مهلت
مهم
مهمان
مهماندوست
مهمتر
مهمترین
مهمته
مهمه
مهمون
مهمونی
مهمی
مهندس
مهندسی
مهیار
مهین
مو
موا
مواجه
مواد
موادی
موارد
مواردی
موارک
موازات
موازی
مواضع
مواظب
موافق
موافقت
موافقمه
موافقون
موافقین
مواقع
مواقعی
موانع
موایل
موبارز
موبارزه
موبارزون
موبایل
موبایلی
موبد
موت
موتحد
موتحده
موتزارت
موتعلق
موتوجه
موتور
موثر
موثق
موج
موجاهدین
موجب
موجستمه
موجود
موجودات
موجودیت
موحاصره
موحافظت
موحاکمه
موحد
موحیط
موخالف
موخالفت
موختلف
موختلفی
موخفف
موخچه
مود
مودت
مودتی
مودرن
مودل
مودنا
مودیر
مور
مورا
مورالس
موران
موراویا
موربع
مورخ
مورخون
مورخین
مورد
مورس
مورسی
مورفین
مورل
موره
مورو
موروثی
مورگان
موری
موریت
موریتانی
موریس
موز
موزامبیک
موزش
موزشکده
موزشگاه
موزشی
موزل
موزه
موزون
موزی
موزیک
موس
موسابقات
موسابقه
موستعمره
موستقل
موستقیم
موستقیمن
موسس
موسسات
موسسه
موسلمون
موسلمونا
موسو
موسولینی
موسوم
موسوی
موسکو
موسی
موسیقی
موسیقیایی
موسیقیدون
موشاهده
موشترک
موشخص
موشک
موشکل
موشکلات
موشکلی
موشکی
موصل
موصوف
موضع
موضوع
موضوعات
موضوعاتی
موضوعی
موطالعات
موطالعه
موظف
موعادل
موعاصر
موعاهده
موعاون
موعتاد
موعتبر
موعتدل
موعد
موعود
موغول
موغولون
موغولي
موغولی
موفق
موفقیت
موقابل
موقابله
موقاومت
موقایسه
موقت
موقتا
موقتی
موقدس
موقدماتی
موقع
موقعی
موقعیت
موقي
موقیم
مول
مولا
مولاقات
مولانا
مولتکه
مولداوی
مولداویایی
مولن
مولو
مولود
مولکول
مولی
مولیر
مومکن
مون
مونا
موناسبی
موناي
موناکو
مونای
مونت
مونتانا
مونترا
مونتري
مونتسکیو
مونتشر
مونتظر
مونتقل
مونته
مونتگومری
مونجر
موند
موندسته
موندن
موندنه
مونسورو
مونقرض
مونند
موننه
مونه
مونی
مونیخ
مونیسیپالیتی
مونیکا
موهاجرت
موهاچ
موهم
موهمترین
موهمی
موهندس
موي
موپاسان
موگابه
موی
موید
مي
ميلادي
ميلادی
مپ
مپر
مژده
مک
مکاتب
مکاتبات
مکارم
مکان
مکانای
مکانی
مکانیسم
مکانیک
مکانیکی
مکتب
مکتبون
مکتوب
مکرر
مکرمه
مکزیک
مکزیکو
مکزیکوسیتی
مکزیکی
مکس
مکعب
مکمل
مکنزی
مکه
مکون
مکی
مکیون
مگ
مگالایا
مگر
مگه
می
میا
میادین
میازاکی
میامی
میان
میاندورود
میانرود
میانمار
میانه
میانکاله
میانگین
میانی
میاه
میاگی
میباشد
میت
میتانی
میتر
میترا
میتران
میتراي
میتواند
میتوانید
میثال
میثل
میثم
میخاي
میخوانید
میخواهید
میخی
مید
میدان
میدانی
میدون
میر
میراث
میربزرگ
میربو
میرحسین
میرزا
میرزاجانپور
میرزاخانی
میرزای
میرسد
میرسرروضه
میرقوام
میرنه
میره
میرود
میری
میریام
میز
میزان
میزبان
میزبانی
میزون
میزی
میس
میسوری
میسیساگایی
میسیسیپی
میش
میشاي
میشل
میشه
میشو
میشود
میشوند
میشکا
میشیگان
میل
میلا
میلاد
میلادی
میلان
میلتون
میلر
میلس
میله
میلواکی
میلوش
میلی
میلیارد
میلیاردی
میلیتوس
میلیمتر
میلیون
میلیونا
میم
میمون
مین
مینا
مینارشیسم
مینامی
میناگر
مینداناي
مینستر
مینسوتا
مینسک
مینه
مینو
مینودشت
مینوس
مینوی
مینگ
مینی
مینیاتور
مینیاتوری
میه
میهمان
میهمون
میهن
میهنی
میو
میون
میونجی
میونمار
میونه
میونگین
میونی
میوه
میچکا
میکا
میکرد
میکرو
میکرونزی
میکل
میکند
میکنم
میکنید
میکی
میگل
میگویید
ن
نا
ناا
ناب
ناباکوف
نابرابری
نابغه
نابود
نابودی
نات
ناتل
ناتمام
ناتنی
ناتو
ناتورالیسم
ناتول
ناتولی
ناتومی
ناتوی
ناتینگهام
ناحیه
ناخ
ناخالص
ناخدا
ناخو
ناخودا
ناخون
نادال
نادر
نادرست
نادرشاء
نادرشاه
نادری
نادو
نادی
نادیده
نار
نارا
ناراحت
ناراحتی
ناراضی
نارشیست
نارشیستی
نارشیسم
نارضایتی
نارمی
نارنج
نارنجی
نارنه
نارنگی
ناز
نازل
نازنین
نازک
نازی
نازیسم
نازیون
ناسا
ناسیونال
ناسیونالیست
ناسیونالیستون
ناسیونالیستی
ناسیونالیسم
ناشته
ناشر
ناشناخته
ناشناس
ناشی
ناصر
ناصرالحق
ناصرالدین
ناصرخسرو
ناصری
ناظر
ناظرون
ناظم
نافرمونی
ناقص
ناقوس
نالیز
نام
نامبیا
نامبیای
نامزد
نامش
نامشخص
نامعتبر
نامعلوم
نامعلومی
نامفهوم
نامنظم
نامه
نامهای
نامواره
نامور
ناموفق
نامگذاری
نامی
نامیبیا
نامیده
نان
نانت
نانسی
ناه
ناهوشیار
ناهیتا
ناهید
ناو
ناوارا
ناوبری
ناوگان
ناي
ناپذیر
ناپذیری
ناپل
ناپلي
ناپولی
ناچار
ناکساگوراس
ناکسیماندر
ناکسیمنس
ناکسیگوراس
ناگازاکی
ناگالند
ناگانو
ناگتس
ناگزیر
ناگهانی
ناگورنو
نای
نایب
نایجل
نایروبی
ناینه
نب
نباشید
نباید
نبراسکا
نبرد
نبطیه
نبوت
نبود
نبوده
نبونه
نبوی
نبی
نت
نتا
نتانیاهو
نتایج
نترس
نتز
نتفلیکس
نتن
نتوان
نتوانت
نتومبه
نتومبی
نتون
نتونده
نتونستنه
نتونسته
نتونسنه
نتونسه
نتونن
نتونه
نتونی
نتونیو
نتی
نتیجتا
نتیجه
نتیل
نثر
نجا
نجات
نجار
نجارکلا
نجاریان
نجایی
نجد
نجران
نجف
نجفی
نجل
نجلس
نجم
نجوم
نجومی
نجیب
نحو
نحوه
نحوی
نخ
نخار
نخاستنه
نخاسته
نخاش
نخامبی
نخان
نخانه
نخبه
نخجوان
نخجوون
نخست
نخستین
نخش
نخشه
نخل
نخواهد
نخوستین
نخوندنه
ند
ندا
ندارد
ندارم
ندارمبه
ندارمبی
ندارمه
ندارمی
ندارن
ندارند
ندارننه
ندارنه
نداره
نداشت
نداشتن
نداشتنه
نداشته
ندامان
ندان
ندانه
نداي
نداینه
ندر
ندرانیک
ندرس
ندره
ندرومدا
ندروپوف
ندن
ندننه
ندنه
نده
ندورا
ندومبه
ندومبی
ندومه
ندون
ندونده
ندونستنه
ندونسته
ندوننه
ندونه
ندی
ندیم
ندیمه
نر
نرا
نرخ
نرسن
نرسنه
نرسی
نرسینه
نرسیه
نرم
نرماندی
نرو
نرودا
نرون
نروژ
نروژی
نرگس
نرگسیه
نری
نزد
نزدیک
نزدیکای
نزدیکترین
نزدیکه
نزدیکون
نزدیکی
نزر
نزن
نزنن
نزول
نزیک
نس
نسا
نساجی
نسب
نسبت
نسبتا
نسبی
نسبیت
نستازیا
نستعلیق
نستور
نسخ
نسخه
نسر
نسرین
نسل
نسوم
نسیم
نسیه
نش
نشا
نشاط
نشان
نشانه
نشانی
نشد
نشده
نشر
نشریات
نشریه
نشست
نشناسمه
نشناسی
نشنال
نشنه
نشود
نشون
نشوند
نشونه
نشونگر
نشونی
نشوي
نشی
نشیب
نشین
نشینه
نشینون
نشینی
نص
نصاب
نصب
نصر
نصرا
نصرالله
نصرت
نصرتی
نصف
نصفه
نصیحت
نصیرا
نصیرالدین
نطق
نطنز
نظارت
نظام
نظامی
نظامیان
نظامیون
نظر
نظرا
نظرات
نظراتی
نظرخاهی
نظرخواهی
نظرسنجی
نظرم
نظرها
نظرون
نظری
نظریات
نظریه
نظم
نظمی
نظیر
نعش
نعل
نعمان
نعمت
نغمه
نـ
نـووه
نف
نفت
نفتا
نفتی
نفر
نفرات
نفرجمعیت
نفرشون
نفرنفرنفر
نفره
نفری
نفس
نفع
نفهمن
نفوذ
نفوس
نفیس
نفیسی
نقاره
نقاش
نقاشون
نقاشی
نقاشیون
نقاط
نقد
نقدر
نقدی
نقره
نقش
نقشه
نقشی
نقص
نقض
نقطه
نقل
نقلی
نقوش
نقی
نقیب
نل
نلاین
نلد
نلسون
نلی
نم
نما
نماد
نمادون
نمادی
نمارستاق
نماز
نماشون
نماي
نمای
نمایان
نمایانگر
نماید
نمایش
نمایشنومه
نمایشگا
نمایشگاه
نمایشگاي
نمایشی
نمایند
نماینده
نمایندگان
نمایندگون
نمایندگی
نمایی
نمایید
نمر
نمره
نمه
نمو
نمود
نمودار
نموده
نموندسته
نموندنه
نمونه
نموي
نمي
نمک
نمی
نمین
نن
ننشنه
ننه
ننویسیم
ننویسین
ننویشته
ننی
نه
نها
نهاد
نهادها
نهادهای
نهادون
نهاوند
نهایت
نهایتا
نهایی
نهب
نهج
نهرو
نهضت
نهم
نهمین
نهی
نو
نوا
نواب
نواحی
نواختن
نوادا
نواده
نوادگان
نوادگون
نوار
نوارون
نواز
نوازان
نوازنده
نوازندگون
نوازندگی
نوازی
نواشه
نوامبر
نوان
نوانه
نواي
نوایی
نوبت
نوبخت
نوبل
نوت
نوج
نوجوانان
نوجوانی
نوجوون
نوجوونی
نوح
نود
نوده
نوذر
نور
نورالدین
نورانی
نورثامبریا
نوردیک
نورس
نورسلطان
نورمحمدکندی
نورمن
نورنبرگ
نوروز
نوروزخوانی
نوروزه
نوروزی
نوری
نوز
نوزادون
نوزده
نوزدهم
نوزدهمین
نوزدهوم
نوزلاند
نوزهم
نوس
نوسانگر
نوسخه
نوش
نوشابه
نوشت
نوشتار
نوشتارون
نوشتاری
نوشتن
نوشتنه
نوشته
نوشهر
نوشهری
نوشیدن
نوشیروان
نوشیروانی
نوشین
نوع
نوعی
نوقاط
نوقطه
نوم
نوما
نومدار
نومزه
نومسته
نومن
نومنه
نومه
نومی
نون
نونه
نوه
نوهوم
نوو
نوون
نوونه
نووه
نووو
نووی
نوي
نوپرواز
نوک
نوکنده
نوکوا
نوی
نوید
نویس
نویسان
نویسد
نویسم
نویسمبه
نویسمبی
نویسمی
نویسن
نویسنده
نویسندگان
نویسندگون
نویسندگی
نویسنه
نویسه
نویسون
نویسی
نویسیم
نویسین
نویشت
نویشتن
نویشتنه
نویشته
نوین
نویی
ني
نيز
نيست
نيكخو
نين
نيه
نيوز
نپال
نپالی
نپت
نپتون
نچه
نژ
نژاد
نژادون
نژادپرستی
نژادی
نژندی
نکا
نکارا
نکارد
نکاردن
نکاردنه
نکاردنی
نکارده
نکامبه
نکامبی
نکان
نکانده
نکانن
نکانه
نکانین
نکاچو
نکای
نکایی
نکته
نکرد
نکردنه
نکرده
نکشی
نکمبه
نکن
نکنم
نکننه
نکنه
نکنین
نکه
نگ
نگار
نگارخ
نگارخانه
نگارخنه
نگارسره
نگارش
نگارنده
نگاره
نگاری
نگاه
نگاهی
نگذشته
نگران
نگرانی
نگرش
نگرو
نگرونی
نگروی
نگلا
نگلوساکسون
نگه
نگهبون
نگهداری
نگو
نگولا
نگولای
نگوین
نگین
نی
نیا
نیاردنه
نیارده
نیارنه
نیاز
نیازمند
نیازی
نیای
نیایش
نیبی
نیت
نیته
نیجر
نیجریه
نیر
نیرو
نیروها
نیروهای
نیروي
نیروگاه
نیروی
نیرویی
نیز
نیزه
نیس
نیسبت
نیست
نیستریا
نیستم
نیستند
نیش
نیشابور
نیشت
نیشتنه
نیشتنگا
نیشتنگاء
نیشتنگاه
نیشتنگاي
نیشتنگای
نیشته
نیشتگا
نیشتگاه
نیشتگاهون
نیشتینگا
نیشتەگا
نیشرنه
نیظام
نیظامی
نیل
نیلز
نیلی
نیم
نیما
نیمار
نیمای
نیمایش
نیمایوشیج
نیمایی
نیمروز
نیمه
نیمونه
نیمکره
نیمی
نین
نینه
نینوا
نینورسک
نیه
نیو
نیوتن
نیوجرسی
نیوز
نیوزلند
نیوزیلند
نیومکزیکو
نیویورک
نیچه
نیک
نیکاراگوي
نیکان
نیکخو
نیکز
نیکسون
نیکلا
نیکلاس
نیکلای
نیکول
نیکولا
نیکولای
نیکولو
نیکوپولیس
نیکی
نیکیتا
نیگاتا
نیگارخنه
نیی
نییرنه
نییه
ه
ها
هابز
هابسبورگ
هابل
هابک
هات
هاد
هادا
هادانه
هاداي
هادس
هادم
هادن
هاده
هادی
هادیم
هادین
هاربر
هارت
هارتلی
هارد
هارش
هارشا
هارشاي
هارشاکر
هارشاگر
هارشایی
هارشن
هارشه
هارشی
هارشیم
هارشین
هارمونیک
هاره
هاروارد
هارولد
هارون
هارپسیکورد
هاست
هاسنت
هاسه
هاشم
هاشمی
هافبک
هاكردنه
هاكرده
هاكنيم
هاكنين
هال
هاله
هالی
هالیوود
هامایاک
هامبورگ
هامراسمیت
هامون
هان
هانا
هانتینگتون
هانری
هانس
هانوفرون
هانگر
هانگول
هاوارد
هاوانا
هاواي
هاوایی
هاورکرافت
هاوس
هاوک
هاوکز
هاوکینگ
هاي
هاپ
هاپسبورگ
هاپه
هاک
هاکارد
هاکاردن
هاکاردنه
هاکارده
هاکانه
هاکرد
هاکردبی
هاکردبینه
هاکردمه
هاکردمی
هاکردن
هاکردنه
هاکردنهمقاومت
هاکردنی
هاکرده
هاکردی
هاکن
هاکنم
هاکنن
هاکنه
هاکنی
هاکنیم
هاکنین
هاکی
های
هایتن
هایتنه
هایته
هایدن
هایره
هایزنبرگ
هایش
هایله
هاینریش
هایی
هاییتن
هاییته
هاییتی
هاییر
هب
هت
هتل
هجدهم
هجرت
هجری
هجزو
هجه
هجوم
هجیم
هخامنشی
هخامنشیون
هد
هدا
هدابینه
هدار
هدامه
هدامی
هدانه
هداهن
هداهه
هداي
هدایای
هدایت
هدایتی
هدایی
هدف
هدفی
هدن
هده
هدی
هدیم
هدیه
هذیان
هر
هرا
هرات
هراتی
هراز
هرازپی
هراس
هرالد
هراکلیتوس
هربرت
هرتز
هرتی
هرجا
هرجور
هرد
هردتا
هردوت
هرزگووین
هرزگوین
هرس
هرسال
هرساي
هرستاي
هرسه
هرش
هرشل
هرمان
هرمز
هرمی
هرمیتاژ
هرناندز
هره
هرودوت
هروي
هرویه
هرچن
هرچند
هرچه
هرچی
هرکاجه
هرکاری
هرکامین
هرکجه
هرکدام
هرکس
هرکسی
هرکول
هرکومتا
هرکی
هرگاد
هرگدر
هرگز
هرگونه
هری
هریس
هریسون
هزار
هزاران
هزارتا
هزارجریب
هزارجریبی
هزاره
هزارون
هزینه
هزیود
هس
هسا
هست
هستم
هستمه
هستمی
هستند
هستنه
هستنی
هسته
هستون
هستکا
هستی
هستیا
هستید
هستیم
هسسه
هسمه
هسمی
هسن
هسنه
هسنی
هسه
هسهبر
هسکا
هسی
هسەنه
هشت
هشتاد
هشتادمین
هشتم
هشتمین
هشتوم
هشتپر
هشتگ
هشتگرد
هشدار
هضم
هـ
هفت
هفتا
هفتاد
هفتم
هفتمین
هفته
هفتوم
هفتگی
هفدهم
هكردن
هكردنه
هكرده
هكنن
هكنه
هكنيم
هلال
هلموت
هلن
هلند
هلندی
هلندیون
هلی
هلیوم
هم
همان
همانطور
همانند
همانگونه
هماهنگ
هماهنگی
همایش
همایون
همباز
همبستگی
همت
همجنس
همجنسگراي
همجنسگرایی
همجوار
همخونی
همدان
همدانی
همدردی
همدون
همدیگر
همدیگه
همرا
همراه
همراهون
همراهی
همزمان
همزمون
همزه
همساینون
همسایه
همسایگی
همسر
همسرش
همسود
همشهری
همه
هموار
همواره
همون
همونتا
همونتی
همونجه
همونجور
همين
همينتي
همپتون
همچنان
همچنين
همچنین
همچون
همکاران
همکارون
همکاری
همکف
همگان
همگی
همیشه
همیشک
همیشگی
همیلتون
همین
همینا
همینتا
همینتاسر
همینتای
همینتی
همینجه
همینجور
همینسه
همینگوی
هن
هنتا
هنج
هند
هندسه
هندو
هندواروپایی
هندوانه
هندوراس
هندوستان
هندوستون
هندوي
هندوکش
هندوییسم
هندی
هنر
هنرستون
هنرمند
هنرمندان
هنرمندون
هنرون
هنرپیشه
هنری
هنریک
هنه
هنوز
هنگ
هنگام
هنگامی
هنگر
هنگرکلا
هنگساز
هنگسازی
هنگها
هنگوم
هنگون
هنگی
هنی
هنیش
هنیشت
هنیشتن
هنیشتنه
هنیشته
هنین
هه
هو
هوا
هوادار
هواداران
هوادارون
هوارد
هوانس
هواي
هواپیما
هواپیمای
هواپیمایی
هوای
هوایی
هوتو
هوجی
هود
هور
هورست
هورسی
هورم
هورن
هورنتز
هوریزونته
هوس
هوش
هوشمند
هوشنگ
هوشی
هوشیار
هولا
هولار
هولند
هولندی
هولوبی
هولوکاست
هولی
هومر
هومن
هومو
هون
هوندا
هونر
هونشو
هونگ
هوهانس
هوي
هوکایدو
هوکوساي
هوگو
هوی
هویت
هویدا
هي
هپرنده
هچ
هچکی
هچی
هژبر
هژمونی
هک
هکاردن
هکارده
هکانه
هکانین
هکتار
هکته
هکرد
هکردمه
هکردن
هکردنه
هکرده
هکشی
هکنم
هکنن
هکنه
هکنی
هکنیم
هکنین
هی
هیا
هیات
هیبورو
هیت
هیتلر
هیته
هیتو
هیتی
هیجان
هیجانی
هیجده
هیجدهم
هیجدهوم
هیدروژن
هیدروژنی
هیر
هیروشیما
هیرکانی
هیرکانیا
هیزار
هیستری
هیفدهم
هیفدهوم
هیل
هیلاری
هیمالیا
هیمن
هیندنبورگ
هیود
هیوده
هیوز
هیوستون
هیوگو
هیي
هیپ
هیچ
هیچکس
هیچکی
هیچگونه
هیژده
هیژدهم
هیگاشی
و
وا
واء
واب
وابسته
وابستگی
وات
واتسون
واتیکان
واج
واجارگاه
واجب
واجه
واحد
واحدون
وادار
واده
واديس
وادی
وادیس
وار
وارث
وارد
واردات
واردون
واردی
وارش
وارشون
وارشی
وارطان
وارن
وارنگ
واره
وارک
واری
واریرز
واز
وازه
واس
واسازی
واسطه
واسلاو
واسکو
واسیلی
واش
واشنگتن
واشه
واشینگتن
واضح
واقع
واقعا
واقعه
واقعی
واقعیت
وال
والا
والاس
والاکیا
والاکیای
والت
والتر
والد
والری
والمدن
والنسیا
واله
والونی
والی
والیبال
وام
وامبی
وان
وانبار
وانت
واندر
وانسیان
وانه
وانک
وانگ
وانیا
واي
واپاشی
واپسین
واژه
واژگان
واژگون
واکایاما
واکر
واکنش
واکنشای
واگذار
واگردانی
وای
وایت
وایمار
وایومینگ
وایکینگ
وایکینگون
وایی
وب
وبا
وبر
وبسایت
وبلاگ
وبلاگون
وبگاه
وت
وتمه
وتمی
وتن
وتنه
وته
وتو
وتومه
وتی
وثوق
وجدان
وجه
وجود
وجودی
وجوی
وجین
وحدت
وحش
وحشت
وحشتناک
وحشی
وحی
وحید
وخت
وختا
وختی
وخورشید
ودال
ودایی
ودر
ودور
ودی
ور
وراز
ورامین
ورت
ورتمبرگ
ورد
وردن
وردند
وردنه
ورده
وردگاردسته
وردگاردنی
وردگارده
وردگردستن
وردگردستنه
وردگردسته
وردگرده
وردگرستن
وردگرسته
وردی
ورزا
ورزای
ورزش
ورزشون
ورزشکار
ورزشکاران
ورزشکارون
ورزشگاه
ورزشی
ورزنه
ورسای
ورسک
ورشو
ورشکستگی
ورف
ورق
ورم
ورمجه
ورمر
ورمونت
ورمینا
ورن
ورنده
ورنر
ورننه
ورنه
وره
ورو
ورود
ورودی
وروسیا
ورون
وروپا
وروپایی
وروپاییون
ورژن
ورکانه
ورگ
ورگردنه
ورگون
ورگی
ورگیو
وری
وریا
وریسین
وریـل
وریـه
وریل
وریم
ورین
وز
وزارة
وزارت
وزارتخنه
وزرای
وزن
وزنه
وزير
وزیر
وزیران
وزیرون
وزیری
وس
وساطت
وساي
وسایل
وست
وستنه
وسته
وسر
وسسه
وسط
وسطا
وسطای
وسطی
وسعت
وسل
وسه
وسواس
وسواسی
وسکس
وسیع
وسیعی
وسیله
وش
وشار
وشارون
وشارونی
وشاری
وشان
وشسکو
وشمگیر
وشن
وشنا
وشناي
وشنایی
وشون
وشونا
وشونه
وشونی
وصف
وصل
وصلت
وصیت
وضع
وضعیت
وضوح
وطن
وظایف
وظیفه
وعده
وغ
وف
وفا
وفات
وفادار
وفاداری
وفیل
وقایع
وقت
وقتا
وقته
وقتی
وقف
وقفه
وقوع
ول
ولادیمیر
ولاش
ولاپوک
ولایات
ولایت
ولایتی
ولت
ولتاژ
ولتر
ولدوا
ولز
ولزی
ولس
ولستون
ولفگانگ
ولك
ولنی
وله
ولو
ولوژی
ولوژیک
ولویه
ولي
ولگ
ولگا
ولگای
ولگه
ولگون
ولگونی
ولی
ولیت
ولید
ولیعهد
ولین
ولیک
وم
وماي
ومه
وموری
ومی
ومین
ون
وناردو
ونتی
ونجه
وند
ونداد
وندادهرمز
وندادهورموز
وندال
وندستنه
وندن
وندنه
ونده
وندی
ونزوي
ونسان
ونسه
ونه
ونوس
ونوشه
ونک
ونکوور
ونگ
ونی
ونیز
ونیزی
ونیون
وه
وهسودان
وهمنه
وهمینه
وهوا
وو
ووا
ووشه
وول
وولسی
وولف
وولی
ووم
وون
وونت
ووننه
وونه
ووه
ووهان
وویم
وي
ويرو
ويشتر
ويكي
ويكيبيديا
ويننه
ويژگي
وپ
وپاترا
وپاي
وپولد
وچه
وچون
وچونی
وچوي
وچگی
وچینکلوس
وک
وکا
وکلای
وکچینگ
وکیل
وکیپوس
وگ
وگاس
وگرنه
وگـه
وگو
وی
ویالون
ویان
ویت
ویتامین
ویتنام
ویتنامی
ویج
ویدي
ویدیو
ویدیویی
ویراستار
ویرانی
ویرایش
ویرایشی
ویرجینیا
ویرجینیای
ویرو
ویروس
ویروسون
ویرون
ویرژیل
ویزاردز
ویزون
ویس
ویسه
ویسکانسین
ویشتر
ویشتره
ویشتری
ویشترین
ویشته
ویشه
ویكی
ویل
ویلا
ویلز
ویلسون
ویلم
ویلن
ویلنیوس
ویلهلم
ویلکیج
ویلیام
ویلیامز
ویم
ویمبلدون
ویمبه
ویمبی
وین
وینده
ویندوز
ویندی
وینستون
وینه
وینگوم
وینی
ویه
ویهان
ویو
ویوا
ویولن
ویي
ویژه
ویژوال
ویژگی
ویژگیون
ویکتور
ویکتوریا
ویکتوریای
ویکتورین
ویکی
ویکیفا
ویکیون
ویکیپدیا
ویکیپدیاي
ویکیپدیای
ویکیپدیایون
ویگ
ویگان
ویی
وەشون
ى
ي
يا
ياساي
ياسايي
يانس
يره
يس
يعني
يك
ين
يه
ً
ٌ
ٍ
َ
ُ
ِ
ّ
ْ
ٓ
ٔ
ٕ
ٚ
ٞ
٠
١
١٣
١٣٨
١٧
٢
٢٠٢٢
٣
٤
٥
٦
٧
٨
٩
٪
٫
٬
ٰ
پ
پا
پابلو
پاتر
پاتریس
پاتریک
پاتن
پاتوق
پادشاه
پادشاهان
پادشاهی
پادشاي
پادوسبان
پادوسبانون
پادوسبانی
پادوسبانیون
پادوسبونی
پادوسپان
پادوسپانیون
پادگان
پارادوکس
پارافیلی
پارامتر
پارامترها
پارامترهای
پاراگوي
پارت
پارتاید
پارتایدی
پارتمون
پارتی
پارتیزان
پارس
پارسه
پارسی
پارلمان
پارلمانی
پارلمون
پارلمونی
پارمنیدس
پاره
پارپیرار
پارچه
پارک
پارکر
پارکون
پاری
پاریس
پاز
پازار
پازوار
پازواری
پاس
پاسارگاد
پاساعت
پاساژ
پاسبون
پاسخ
پاسداران
پاسدارون
پاسداری
پاسکال
پاسیفیک
پاشا
پاشاکلا
پاشایی
پاشنه
پافشاری
پال
پالایش
پالرمو
پالمر
پالي
پام
پان
پاناما
پانتر
پانزده
پانزدهم
پانصد
پانویس
پاورقی
پاول
پاولویچ
پاوه
پاي
پايان
پايين
پاپ
پاپاپز
پاپلی
پاپوا
پاپون
پاپیاس
پاچینو
پاک
پاکدشت
پاکسازی
پاکستان
پاکستون
پاکستونی
پاکه
پاکي
پاکی
پای
پایان
پایانی
پایتخت
پایتون
پایدار
پایدشت
پایه
پایون
پایونی
پایگا
پایگاه
پاییز
پایین
پایینی
پت
پتابایت
پتاسیم
پتانسیل
پتر
پترزبورگ
پترو
پتروشیمی
پتشخوارگر
پتقال
پتک
پتی
پج
پجر
پجن
پجنه
پخت
پخش
پخشی
پد
پدا
پدر
پدرش
پدرو
پديا
پدياي
پدیا
پدیاي
پدیای
پدیایی
پدیت
پدید
پدیدا
پدیده
پذیر
پذیرش
پذیرفت
پذیرفته
پذیری
پر
پرادش
پرادو
پراست
پرافتخارترین
پرانتز
پراکنده
پراکندگی
پراگ
پرایا
پربار
پرت
پرتاب
پرتره
پرتغال
پرتغالی
پرتغالیون
پرتقال
پرتقالی
پرتو
پرجمعیت
پرداخت
پرداخته
پرداز
پردازنه
پردازی
پرده
پردیس
پررنگ
پرز
پرزیدنت
پرس
پرست
پرستار
پرستش
پرستی
پرسش
پرسشی
پرسپولیس
پرسی
پرسیده
پرشین
پرطرفدارترین
پرفروش
پرفسور
پرل
پرن
پرنده
پرندوي
پرندگان
پرندگون
پرنس
پرنسس
پرنفوذ
پره
پرهیز
پرو
پرواز
پروانس
پروتستان
پروتستانی
پروتي
پروتکل
پروجه
پرور
پرورش
پرورشگاه
پروس
پروسپه
پروفایل
پروفسور
پرولتاریا
پرون
پرونده
پروو
پروژه
پروی
پرویز
پروین
پريشي
پرچ
پرچم
پرچمدار
پرچممان
پرچمی
پرچیم
پرچین
پرک
پرکار
پرکوه
پری
پریده
پرینسیپ
پریکلس
پزشک
پزشکان
پزشکون
پزشکی
پزو
پس
پست
پستاندار
پستاندارون
پستون
پستوندارون
پسر
پسرش
پسند
پسوند
پش
پشت
پشتو
پشتون
پشتکوه
پشتی
پشتیبانی
پشتیبون
پشتیبونی
پشم
پشو
پشوي
پشیمون
پغوم
پـ
پـتـه
پل
پلا
پلات
پلاس
پلاستیکی
پلان
پلانتاجنت
پلانک
پلنگ
پله
پلوتو
پلوتون
پلود
پلور
پلک
پلی
پلیس
پماد
پمبه
پمپیدو
پن
پنالتی
پناه
پناهندگون
پناهندگی
پناهگاه
پناهی
پنبه
پنج
پنجا
پنجاب
پنجابی
پنجاه
پنجتا
پنجره
پنجشنبه
پنجشیر
پنجم
پنجمین
پنجه
پنجوم
پنجومین
پنسیلوانیا
پنل
پنهان
پنهانی
پنهون
پنوم
پنگ
په
پهلوان
پهلوون
پهلوی
پهن
پهنا
پهنای
پهنه
پهپاد
پو
پواتو
پوتوسی
پوتی
پوتین
پودمان
پور
پورت
پورتال
پورتالون
پورتلند
پورتو
پورتوریکو
پوری
پوریا
پوزش
پوزي
پوس
پوست
پوستر
پوسته
پوستون
پوستی
پوسه
پوش
پوشاک
پوشش
پوشکین
پوشی
پول
پولاک
پولدار
پولدارترینون
پولس
پولو
پولک
پولی
پولیتیکیان
پولیس
پومپ
پونتا
پوند
پونزده
پونزه
پونزهم
پونصد
پوي
پوپر
پوپولیسم
پوک
پویا
پوینت
پي
پيدا
پيش
پيشنهاد
پچ
پچوک
پچیک
پژاک
پژوهش
پژوهشون
پژوهشکده
پژوهشگر
پژوهشگران
پژوهشگرون
پژوهشی
پکره
پکن
پی
پیاده
پیاز
پیام
پیامبر
پیامبرون
پیانو
پیانوی
پیانیست
پیاپی
پیت
پیتاگوراس
پیتاگوراسیون
پیتاگوریسم
پیتر
پیته
پیتون
پیتک
پیتیلوس
پیدا
پیداهاکردن
پیداهاکرده
پیدایش
پیدر
پیدری
پیر
پیرامون
پیراهن
پیرزنا
پیرلو
پیرمردی
پیرنه
پیرنیا
پیرهن
پیرو
پیروان
پیروز
پیروزه
پیروزی
پیرون
پیروون
پیروونش
پیروی
پیری
پیزارو
پیزای
پیزگاه
پیس
پیست
پیستون
پیستونز
پیسرز
پیش
پیشاسقراطی
پیشاسقراطیون
پیشبرد
پیشتاز
پیشتر
پیشدادی
پیشرفت
پیشرفتای
پیشرفته
پیشرو
پیشروی
پیشنهاد
پیشنهادهای
پیشنهادی
پیشه
پیشوا
پیشواز
پیشوای
پیشوند
پیشکش
پیشگام
پیشگامون
پیشگویی
پیشگیری
پیشی
پیشین
پیشینه
پیغام
پیغمبر
پیغوم
پیغومبر
پیـ
پیل
پیمان
پیمایی
پیمون
پین
پینت
پینو
پینوشه
پینک
پینگ
پیوست
پیوسته
پیومبر
پیومبرون
پیوند
پیوندها
پیوندهای
پیوندون
پیوندی
پیچ
پیچک
پیچیده
پیک
پیکابیا
پیکار
پیکاردی
پیکاسو
پیکان
پیکر
پیکسار
پیکسل
پیکوي
پیکچرز
پیگیری
پیی
پییر
پییرسالاری
پییری
چ
چا
چاب
چابکسر
چاتانوگا
چاد
چادر
چار
چارتا
چارد
چارده
چاردهم
چاردهمین
چاردهوم
چارشمبه
چارشنبه
چارصد
چارقد
چارلتون
چارلز
چارلی
چارم
چارمین
چاره
چارهزار
چاروم
چارومین
چارچو
چارچوب
چارگوش
چاشم
چاق
چاقو
چال
چالرز
چالش
چاله
چالوس
چالوسی
چانک
چاه
چاوز
چاووش
چاي
چاپ
چاپخنه
چاپلین
چای
چایی
چت
چتی
چخوف
چرا
چراغ
چراغعلی
چرب
چربی
چرخ
چرخش
چرخند
چرخه
چرنوبیل
چرچیل
چرکس
چرکسی
چری
چریک
چریکون
چریکی
چستر
چش
چشم
چشمه
چغانی
چغمینی
چـ
چفت
چقدر
چل
چلاو
چلاوی
چلاویون
چلسی
چله
چلیک
چم
چمران
چمستان
چمنو
چمپیوز
چمپیونز
چمپیونزلیگ
چن
چنار
چناربن
چنان
چنانچه
چنبار
چنتا
چنتی
چند
چندان
چندتا
چندلر
چنده
چندی
چندین
چنه
چنون
چنونچه
چنگ
چنگال
چنگیزخان
چنین
چه
چهار
چهاردانگه
چهاردهم
چهارراه
چهارشنبه
چهارم
چهارمین
چهره
چهل
چو
چوب
چوبر
چوبی
چورت
چوسان
چوسون
چوله
چون
چونکه
چوي
چوی
چویی
چي
چپ
چپوک
چپکی
چپی
چچن
چچنی
چچی
چک
چکسلواکی
چکش
چکه
چکی
چگالی
چگوارا
چگونه
چگونگی
چی
چیانگ
چیبا
چیتی
چیدن
چیز
چیزا
چیزای
چیزایی
چیزها
چیزهایی
چیزون
چیزونی
چیزی
چیست
چیشی
چین
چیندکا
چینه
چینگ
چینی
چیون
چیچیه
ژ
ژاله
ژان
ژانت
ژاندارم
ژاندارمری
ژانر
ژانس
ژانویه
ژانیرو
ژاوی
ژاپن
ژاپنی
ژاپون
ژاک
ژاکس
ژاکلین
ژرار
ژرمن
ژرمنون
ژرمنی
ژروم
ژرژ
ژن
ژنتیک
ژنتیکی
ژنرال
ژنو
ژنویو
ژنی
ژو
ژورا
ژوزف
ژوزه
ژول
ژولی
ژولیت
ژولین
ژولیو
ژولیوس
ژوهانسبورگ
ژوي
ژي
ژی
ژید
ژیروند
ژیل
ژیلبر
ک
کا
کاء
کابل
کابلی
کابوس
کابین
کابیندا
کابینه
کاتالانی
کاتالونون
کاتالونی
کاتالونیا
کاتالونیای
کاتالونیایی
کاتانیا
کاتب
کاتبون
کاترین
کاترینا
کاته
کاتولیک
کاتولیکون
کاتولیکی
کاتک
کاتی
کاج
کاجه
کاخ
کاختی
کاخون
کادر
کادمی
کادمیک
کادوسی
کادوسیون
کار
کارا
کاراي
کاراکاس
کاراکتر
کارای
کارایی
کاراییب
کاربر
کاربران
کاربرد
کاربردهای
کاربردون
کاربردی
کاربرون
کاربری
کاربورد
کارت
کارتاژ
کارتر
کارتونی
کارتی
کارخانه
کارخنه
کارد
کاردمه
کاردمی
کاردنه
کارده
کاردیف
کارزار
کارزن
کارسی
کارش
کارشناس
کارشناسون
کارشناسی
کارل
کارلا
کارلو
کارلوس
کارمند
کارمندان
کارمندون
کارن
کارناتاکا
کارنامه
کارندیون
کارنومه
کارنوندیون
کاره
کارها
کارهای
کارهایی
کارو
کاروانسرا
کارور
کارورون
کارورونی
کاروری
کارول
کارولین
کارولینا
کارولینای
کارون
کارونی
کاروون
کاروونی
کاري
کارکرد
کارکوپینو
کارکیا
کارگاه
کارگر
کارگران
کارگردان
کارگردانی
کارگردون
کارگردونی
کارگرها
کارگرون
کارگری
کاری
کاریکاتوریست
کاریکام
کازا
کازان
کازه
کاس
کاست
کاستاریکا
کاسترو
کاستلو
کاستیا
کاستیل
کاسم
کاسمولوژی
کاسه
کاسپارف
کاسپاروف
کاسپی
کاسپین
کاسپینی
کاسکید
کاسی
کاسیاس
کاش
کاشان
کاشانی
کاشت
کاشتنه
کاشته
کاشف
کاشمر
کاشن
کاشنه
کاشه
کاشی
کاظم
کاظمی
کاظمین
کاغذ
کافر
کافه
کافکا
کافی
کال
کالا
کالاي
کالج
کاله
کالو
کالوم
کالی
کالیجار
کالیفرنیا
کالیفرنیای
کالیمانتان
کالین
کالینینگراد
کام
کامارا
کامبه
کامبوج
کامبی
کامران
کامرون
کامل
کاملا
کاملن
کامو
کاموس
کامپیوتر
کامپیوترون
کامپیوتری
کامی
کامیار
کامیل
کامین
کامیون
کان
کانادا
کانادای
کانادایی
کانال
کاناگاوا
کانبرا
کانتون
کانجی
کاندس
کاندنه
کانده
کاندوم
کاندی
کاندید
کاندیدا
کاندیداتوری
کاندیدای
کاندیدتوری
کانزاس
کانسرواتیسم
کاننده
کانندگون
کاننه
کانه
کانون
کانی
کاهش
کاهن
کاو
کاواره
کاوالیرز
کاوش
کاوشگر
کاونتری
کاوه
کاووس
کاووسیه
کاوی
کاویان
کاویانی
کاي
کاپ
کاپتان
کاپتاه
کاپریو
کاپلان
کاپیتالیسم
کاپیتان
کاپیتول
کاپیتولاسیون
کاک
کاکر
کاکرون
کاکری
کاکی
کاگاوا
کاگوشیما
کای
کایا
کایر
کایرون
کایری
کب
کباب
کبد
کبوتر
کبود
کبک
کبیر
کبیسه
کت
کتا
کتاب
کتابای
کتابت
کتابخانه
کتابخنه
کتابخونه
کتابشناسی
کتابون
کتابونی
کتابچه
کتابی
کتار
کتاه
کتب
کتره
کتس
کتنه
کتنیس
کته
کتول
کتولی
کتی
کتیبه
کتیفه
کثیف
کجا
کجاست
کجه
کجور
کجوری
کد
کدام
کده
کدو
کدوم
کدومتا
کر
کراد
کرافت
کرالا
کرامول
کرانه
کراچی
کربلا
کربن
کرت
کرج
کرجی
کرد
کردا
کردان
کردخیل
کردستان
کردستون
کردم
کردمحله
کردمه
کردن
کردند
کردنه
کرده
کردها
کردکوی
کردی
کردید
کردیم
کرزی
کرس
کرستین
کرسی
کرم
کرمان
کرمانشاه
کرمانی
کرملین
کرمون
کرنل
کره
کرو
کروات
کرواتی
کرواسی
کروبی
کروتون
کروز
کرون
کرونا
کرونوس
کرونی
کروی
کرچ
کرچه
کرک
کرکس
کرکوک
کرگ
کرگدن
کرگردن
کری
کریس
کریستال
کریستف
کریستفر
کریستو
کریستوف
کریستوفر
کریستی
کریستیانو
کریستین
کریستینا
کریسمس
کریم
کریمه
کریموف
کریمی
کریول
کریک
کریکت
کز
کس
کسانی
کسایی
کسب
کسره
کسروی
کسری
کسفورد
کسل
کسلیان
کسوف
کسون
کسونی
کسکیدز
کسی
کش
کشاورز
کشاورزون
کشاورزی
کشت
کشتار
کشتلی
کشتند
کشته
کشتی
کشتیون
کشتیگیرون
کشد
کشف
کشمیر
کشن
کشند
کشنده
کشنه
کشه
کشور
کشورا
کشورای
کشوره
کشورها
کشورهای
کشورون
کشورونی
کشوري
کشوری
کشک
کشی
کشید
کشیده
کشیش
کشین
کشینه
کشیه
کعبه
کـ
کف
کفا
کفایت
کفش
کفن
کفنه
کفه
کل
کلا
کلاته
کلاج
کلار
کلارا
کلارتی
کلاردشت
کلارستاق
کلارستاقی
کلارک
کلاس
کلاسیک
کلاش
کلاشنیکف
کلاغ
کلاله
کلام
کلامحله
کلامی
کلان
کلاه
کلاوس
کلاویه
کلاچای
کلاک
کلاگرمحله
کلایه
کلبادی
کلخوران
کلر
کلرادو
کلری
کلسیم
کلفت
کلفتی
کلمات
کلماتی
کلمب
کلمبوس
کلمبیا
کلمبیای
کلمبیایی
کلمنت
کلمه
کلموي
کلن
کلنه
کله
کلو
کلوب
کلود
کلودل
کلونی
کلوي
کلوین
کلي
کلک
کلکته
کلی
کلیات
کلیجان
کلید
کلیدهای
کلیدی
کلیسا
کلیساها
کلیساهای
کلیساي
کلیسای
کلیسایی
کلیمانجارو
کلین
کلینتون
کلینیک
کلیه
کلیولند
کلیپرز
کلیک
کم
کما
کمابیش
کمال
کماکان
کمبریج
کمبه
کمبود
کمبی
کمتر
کمتری
کمترین
کمته
کمدی
کمدین
کمر
کمربند
کمربندی
کمرنگ
کمروي
کمل
کمنیتز
کمه
کمون
کمونچه
کمونیست
کمونیستون
کمونیستی
کمونیسم
کمپ
کمپانی
کمپونی
کمپین
کمک
کمکی
کمی
کمیاب
کمیت
کمیته
کمیتون
کمیسیون
کمیل
کمین
کمیک
کن
کنار
کنارشهر
کناره
کنارهکتن
کنارهکته
کناری
کنان
کنت
کنتاکی
کنترل
کنتس
کنتیکت
کند
کندلوس
کندنه
کنده
کندوان
کندی
کنراد
کنزالاسرار
کنس
کنستانتین
کنسرت
کنسول
کنعان
کنفدراسیون
کنفدرالیسم
کنفرانس
کنم
کنند
کننده
کنندگان
کنندگون
کنندگی
کننه
کننی
کنه
کنوانسیون
کنوت
کنون
کنونی
کنکور
کنگ
کنگره
کنگلو
کنگو
کنگوی
کنی
کنیا
کنیای
کنیایی
کنید
کنیز
کنیم
کنیه
کنیپر
که
کهن
کهنه
کهک
کهکشهونون
کهکشون
کهکشونای
کهکشونی
کو
کوا
کوازاري
کوالالامپور
کوانتمی
کوانتوم
کوانتومی
کوب
کوبا
کوبانی
کوبای
کوبایی
کوبلای
کوبیده
کوت
کوتا
کوتاه
کوتاهی
کوتاي
کوتایک
کوتر
کوتن
کوته
کوتوله
کوتی
کوثر
کودتا
کودتای
کودک
کودکان
کودکی
کور
کورا
کوراییم
کورت
کورد
کوردستان
کوردستون
کوردنشین
کوردها
کوردوبا
کوردون
کوردپرس
کوردی
کورسی
کورش
کورمانج
کورمانجی
کورن
کورنی
کوره
کوروش
کورونوس
کوری
کوریل
کوزوو
کوزووی
کوس
کوسان
کوسته
کوسم
کوسه
کوسی
کوش
کوشا
کوشتار
کوشته
کوشش
کوشه
کوشی
کوفه
کوفی
کول
کولا
کولاي
کولای
کولایی
کولت
کولن
کولونی
کولپیتس
کوم
کوماتی
کوماموتو
کومبه
کومتا
کومدی
کومس
کومله
کومه
کومور
کومونیستی
کومپانی
کومک
کومیته
کون
کونته
کوندرا
کونفرانس
کونفوسیوس
کوننده
کونگ
کونگره
کوه
کوهدشت
کوهستان
کوهستانی
کوهستون
کوهستونی
کوهن
کوهنه
کوههای
کوهون
کوهپایه
کوهی
کوي
کوپا
کوپر
کوپرنیک
کوپه
کوپورلو
کوپی
کوچ
کوچصفهان
کوچه
کوچک
کوچکتر
کوچی
کوک
کوکا
کوکاي
کوکایین
کوگندم
کوی
کویت
کویر
کوین
کویویستو
کویی
کي
کپ
کپتاه
کپل
کپلر
کپچا
کپی
کپیولت
کچلیک
کچه
کچيک
کچیک
کی
کیا
کیارستمی
کیاسر
کیاسری
کیاشهر
کیان
کیانگ
کیانی
کیاي
کیاکلا
کیاییان
کیبورد
کیت
کیتا
کیتاب
کیتابای
کیتابون
کیتابونی
کیتابی
کیتن
کیتو
کیجا
کیجاي
کیجای
کیخسرو
کید
کیرشنر
کیس
کیسه
کیش
کیشوت
کیشور
کیف
کیفری
کیفی
کیفیت
کیله
کیلو
کیلوبایت
کیلومتر
کیلومترمترموربع
کیلومترمربع
کیلومترموربع
کیلومتری
کیلومیتر
کیلومیتری
کیلوگرم
کیلوی
کیم
کیمون
کین
کینار
کینخواریه
کینلی
کینه
کینگ
کینگز
کیه
کیهان
کیهون
کیوان
کیوتو
کیوس
کیومرث
کیپ
کیپور
کیکاووس
کیی
کییف
کییفی
کەنەنه
گ
گا
گابریل
گابن
گابون
گات
گاتنه
گاته
گاد
گادر
گادوین
گار
گارد
گاردسته
گاردین
گارسیا
گارم
گارنیه
گارون
گاری
گاز
گازی
گاستون
گاسفن
گال
گالری
گالش
گالشون
گالشی
گالوس
گالیسی
گالیسیا
گالیسیایی
گالیله
گالیپولی
گالیک
گالیکش
گام
گاما
گامبه
گامبی
گامبیا
گامون
گان
گاندی
گاننه
گانه
گانی
گاه
گاهانه
گاهشمار
گاهشماری
گاهی
گاو
گاوباره
گاوباریون
گاوزن
گاوس
گاووس
گاي
گاگا
گاگداری
گایا
گب
گبران
گبری
گت
گتاب
گتترین
گتته
گتنه
گته
گتو
گتون
گتی
گجرات
گجسته
گجگجی
گد
گدایف
گدر
گدری
گدوک
گذ
گذار
گذاران
گذارون
گذاری
گذاشت
گذاشتن
گذاشته
گذر
گذرنه
گذشت
گذشته
گر
گرا
گراد
گراف
گرافیک
گرامر
گرامری
گرامشی
گرامی
گران
گرانادا
گرانادای
گرانت
گراند
گراهام
گراهوم
گراي
گرایان
گرایانه
گرایش
گرایشون
گرایلی
گرایونه
گرایی
گربه
گرته
گرجستان
گرجستون
گرجي
گرجی
گرجیون
گرد
گردا
گردان
گردباد
گردبازو
گردد
گردش
گردشگر
گردشگری
گردن
گردنه
گرده
گردون
گردونده
گردونی
گردی
گردید
گردیزی
گرفت
گرفتار
گرفتن
گرفتند
گرفته
گرم
گرما
گرماب
گرمابه
گرمایی
گرمترین
گرمسار
گرمسیری
گرمی
گرن
گرند
گرنه
گره
گرو
گرون
گرونی
گروه
گروهه
گروهون
گروهی
گروي
گروپ
گروگان
گرچه
گرگ
گرگان
گرگانی
گرگوری
گرگین
گری
گریبان
گریزلیز
گریم
گرین
گرینلند
گرینویچ
گریه
گریگوری
گریگوریان
گز
گزارش
گزارشگر
گزارشگری
گزارشی
گزر
گزنفون
گزنه
گزنوفانس
گزیده
گزینه
گس
گست
گسترده
گستردگی
گسترش
گستره
گسیختگی
گشت
گشته
گشنسف
گشود
گغارکونیک
گـ
گــ
گفت
گفتار
گفتاری
گفتم
گفتن
گفته
گفتگو
گفتگوی
گل
گلابی
گلادیاتور
گلادیاتورون
گلاسکوی
گلام
گلای
گلایه
گلدن
گلر
گلرویی
گلزار
گلزن
گلستان
گلستون
گلسرخی
گلشن
گلشیفته
گلما
گله
گلوب
گلوله
گلوگاه
گلوگاهی
گلپایگان
گلکی
گلی
گلیا
گلیله
گلیم
گم
گمان
گمبرون
گمرکی
گمه
گمون
گمی
گمیشان
گن
گنابادی
گناه
گنبد
گنج
گنجه
گنجوی
گنجینه
گند
گندم
گنش
گنشکر
گنشکرون
گننه
گنه
گنو
گنی
گه
گو
گوا
گواتمالا
گوادلوپ
گوارا
گوارانی
گوانتانامو
گوانگ
گواه
گواهی
گوت
گوتنبرگ
گوتنه
گوته
گوتیه
گوتیک
گودار
گوده
گوذار
گوذاری
گوذر
گوذشته
گور
گوراب
گوران
گورانی
گورباچف
گورجستون
گورجي
گورجی
گورجیون
گورستون
گوروه
گورکانی
گورکانیون
گورکی
گوزارش
گوزنگو
گوزینه
گوست
گوستاو
گوسترش
گوستن
گوستو
گوسفند
گوش
گوشت
گوشته
گوشتی
گوشه
گوشوار
گوشک
گوشکونرج
گوشی
گول
گولدن
گولن
گوم
گومز
گومل
گوموا
گومیلیف
گومیلیوف
گون
گوناگون
گوناگونی
گونبد
گونما
گوننه
گونه
گونی
گوهر
گوي
گويند
گوکزا
گوگ
گوگزا
گوگل
گوگمل
گوگنهایم
گوگوریو
گوگول
گوی
گویا
گویان
گوید
گویش
گویشون
گویند
گویی
گي
گيلون
گينه
گپ
گپون
گپی
گچ
گگ
گگا
گگه
گی
گیا
گیاتسو
گیاه
گیاهان
گیاهخار
گیاهون
گیاهی
گیت
گیتار
گیتاریست
گیتاشناسی
گیتس
گیتنه
گیته
گیتی
گیر
گیرد
گیرمی
گیرن
گیرنده
گیرننه
گیرنه
گیرون
گیری
گیسو
گیفو
گیل
گیلاس
گیلان
گیلانشاه
گیلانی
گیله
گیلون
گیلونی
گیلک
گیلکون
گیلکی
گیم
گیمز
گین
گینه
گیه
گیوتین
گیوم
گیونجو
گیگابایت
ی
یا
یاب
یابی
یات
یاتی
یاد
یادا
یادب
یادبود
یادبودهای
یادبیتن
یادداشت
یادمان
یادواره
یادکرد
یادگار
یادگاری
یادگیری
یار
یاران
یارد
یاردن
یاردنه
یارده
یارشاطر
یارمی
یارنه
یارون
یاری
یاز
یازده
یازدهم
یازدهمین
یازهم
یاس
یاساي
یاسایی
یاسر
یاغی
یافت
یافتن
یافته
یاقوت
یال
یاما
یاماناشی
یاماگاتا
یاماگوچی
یان
یانس
یانه
یانگ
یاهو
یاور
یاي
یاکوب
یاکوزا
یب
یبی
یت
یتا
یتر
یتمه
یتن
یتنه
یته
یتی
یتیم
یثرب
یج
یحتمل
یحیی
یخ
یخبندون
یخچال
یخی
ید
یدا
یداهو
یدلیچکا
یدون
یدی
یدین
یر
یران
یرانی
یرانیا
یرانیون
یرتون
یرس
یرن
یره
یرون
یری
یریم
یرین
یز
یزاک
یزد
یزدان
یزدانی
یزدگرد
یزدی
یزنهاور
یزیانا
یزید
یس
یست
یسراي
یسم
یسن
یسه
یسپاني
یسی
یشت
یشتمه
یشتن
یشتنه
یشته
یعقوب
یعقوبی
یعن
یعنن
یعنی
یغما
یغمایی
یـ
یف
یل
یلان
یلتسین
یلدا
یلس
یلماز
یلمی
یلن
یلند
یلنه
یله
یلوستون
یلی
یلیم
یلین
یلیون
یم
یمن
یمنی
یمه
یمو
یمونه
یموي
یمین
ین
ینات
یند
ینده
ینزلند
ینزو
ینه
ینهشهر
ینهپرنده
ینگ
ینگجه
ینی
یه
یهود
یهودون
یهودی
یهودیان
یهودیت
یهودیون
یو
یوا
یواخیم
یواس
یواشکی
یوان
یوبی
یوتا
یوتابایت
یوتیوب
یوجین
یوحنا
یور
یورتچی
یورش
یورو
یورونیوز
یوروویژن
یوروی
یورک
یوری
یوریس
یوزف
یوسف
یوسفی
یوسیمیتی
یوش
یوشیج
یوفا
یوفای
یولیانی
یوم
یون
یونان
یونانی
یونانیان
یونانیون
یونایتد
یونس
یونسکو
یونسکوی
یونگ
یونی
یوها
یوهان
یوهانس
یوونتوس
یوي
یوکاتان
یوگسلاوی
یوگوسلاوی
یي
یپرم
یچی
یک
یکا
یکاي
یکدیگر
یکسان
یکسره
یکشنبه
یکم
یکمین
یکی
یگ
یگان
یگانه
یی
ییت
ییتن
ییتنه
ییته
یید
ییر
ییرن
ییره
ییل
ییلاق
ییلاقی
یین
یینه
یینگ
یینی
ییه
ے
۔
ە
۰
۰۰
۰۰۰
۰۰۴
۰۰۵
۰۰۶
۰۰۷
۰۰۸
۰۰۹
۰۱
۰۱۱
۰۱۱۱
۰۱۴
۰۱۵
۰۱۸
۰۲
۰۲۲
۰۲۳
۰۲۵
۰۲۶
۰۲۹
۰۳
۰۳۰
۰۳۱
۰۳۲
۰۳۳
۰۳۴
۰۳۵
۰۳۶
۰۴
۰۴۰
۰۴۳
۰۴۴
۰۴۵
۰۴۶
۰۴۷
۰۵
۰۵۱
۰۵۲
۰۵۳
۰۵۶
۰۵۷
۰۶
۰۶۰
۰۶۲
۰۶۴
۰۶۵
۰۶۶
۰۶۷
۰۶۸
۰۶۹
۰۷
۰۷۰
۰۷۵
۰۷۶
۰۷۷
۰۷۹
۰۸
۰۸۲
۰۸۴
۰۸۶
۰۸۷
۰۹
۰۹۲
۰۹۹
۱
۱۰
۱۰۰
۱۰۰۰
۱۰۰۳
۱۰۰۵
۱۰۰۶
۱۰۰۷
۱۰۰۹
۱۰۱
۱۰۱۰
۱۰۱۱
۱۰۱۲
۱۰۱۳
۱۰۱۴
۱۰۱۵
۱۰۱۷
۱۰۱۸
۱۰۲
۱۰۲۰
۱۰۲۱
۱۰۲۲
۱۰۲۳
۱۰۲۴
۱۰۲۶
۱۰۲۷
۱۰۳
۱۰۳۰
۱۰۳۱
۱۰۳۲
۱۰۳۳
۱۰۳۶
۱۰۳۷
۱۰۴
۱۰۴۱
۱۰۴۲
۱۰۴۵
۱۰۴۸
۱۰۵
۱۰۵۴
۱۰۵۵
۱۰۵۸
۱۰۶
۱۰۶۲
۱۰۶۳
۱۰۶۶
۱۰۷
۱۰۷۰
۱۰۷۳
۱۰۷۹
۱۰۸
۱۰۸۴
۱۰۸۸
۱۰۹
۱۰۹۵
۱۰۹۸
۱۰۹۹
۱۱
۱۱۰
۱۱۰۰
۱۱۱
۱۱۱۴
۱۱۱۶
۱۱۱۸
۱۱۲
۱۱۲۶
۱۱۳
۱۱۳۵
۱۱۴
۱۱۴۸
۱۱۵
۱۱۵۰
۱۱۵۷
۱۱۵۹
۱۱۶
۱۱۶۰
۱۱۶۳
۱۱۶۵
۱۱۷
۱۱۷۳
۱۱۷۴
۱۱۷۶
۱۱۸
۱۱۸۰
۱۱۸۹
۱۱۹
۱۱۹۳
۱۱۹۴
۱۱۹۵
۱۱۹۸
۱۱۹۹
۱۲
۱۲۰
۱۲۰۰
۱۲۰۲
۱۲۰۵
۱۲۰۹
۱۲۱
۱۲۱۰
۱۲۱۳
۱۲۱۶
۱۲۱۸
۱۲۲
۱۲۲۲
۱۲۲۳
۱۲۲۴
۱۲۳
۱۲۳۴
۱۲۳۵
۱۲۳۶
۱۲۳۸
۱۲۴
۱۲۴۰
۱۲۴۱
۱۲۵
۱۲۵۳
۱۲۵۶
۱۲۵۷
۱۲۵۸
۱۲۶
۱۲۶۰
۱۲۶۴
۱۲۶۵
۱۲۶۶
۱۲۶۸
۱۲۶۹
۱۲۷
۱۲۷۰
۱۲۷۱
۱۲۷۲
۱۲۷۳
۱۲۷۴
۱۲۷۵
۱۲۷۶
۱۲۷۷
۱۲۷۸
۱۲۸
۱۲۸۱
۱۲۸۲
۱۲۸۳
۱۲۸۴
۱۲۸۵
۱۲۸۶
۱۲۸۷
۱۲۸۸
۱۲۹
۱۲۹۰
۱۲۹۱
۱۲۹۲
۱۲۹۳
۱۲۹۴
۱۲۹۶
۱۲۹۷
۱۲۹۸
۱۲۹۹
۱۳
۱۳۰
۱۳۰۰
۱۳۰۱
۱۳۰۲
۱۳۰۳
۱۳۰۴
۱۳۰۵
۱۳۰۶
۱۳۰۷
۱۳۰۸
۱۳۰۹
۱۳۱
۱۳۱۰
۱۳۱۱
۱۳۱۲
۱۳۱۳
۱۳۱۴
۱۳۱۵
۱۳۱۶
۱۳۱۷
۱۳۱۸
۱۳۱۹
۱۳۲
۱۳۲۰
۱۳۲۱
۱۳۲۲
۱۳۲۳
۱۳۲۴
۱۳۲۵
۱۳۲۶
۱۳۲۷
۱۳۲۸
۱۳۲۹
۱۳۳
۱۳۳۰
۱۳۳۱
۱۳۳۲
۱۳۳۳
۱۳۳۴
۱۳۳۵
۱۳۳۶
۱۳۳۷
۱۳۳۸
۱۳۳۹
۱۳۴
۱۳۴۰
۱۳۴۱
۱۳۴۲
۱۳۴۳
۱۳۴۴
۱۳۴۵
۱۳۴۶
۱۳۴۷
۱۳۴۸
۱۳۴۹
۱۳۵
۱۳۵۰
۱۳۵۱
۱۳۵۲
۱۳۵۳
۱۳۵۴
۱۳۵۵
۱۳۵۶
۱۳۵۷
۱۳۵۸
۱۳۵۹
۱۳۶
۱۳۶۰
۱۳۶۱
۱۳۶۲
۱۳۶۳
۱۳۶۴
۱۳۶۵
۱۳۶۶
۱۳۶۷
۱۳۶۸
۱۳۶۹
۱۳۷
۱۳۷۰
۱۳۷۱
۱۳۷۲
۱۳۷۳
۱۳۷۴
۱۳۷۵
۱۳۷۶
۱۳۷۷
۱۳۷۸
۱۳۷۹
۱۳۸
۱۳۸۰
۱۳۸۱
۱۳۸۲
۱۳۸۳
۱۳۸۴
۱۳۸۵
۱۳۸۶
۱۳۸۷
۱۳۸۸
۱۳۸۹
۱۳۹
۱۳۹۰
۱۳۹۱
۱۳۹۲
۱۳۹۳
۱۳۹۴
۱۳۹۵
۱۳۹۶
۱۳۹۷
۱۳۹۸
۱۳۹۹
۱۴
۱۴۰
۱۴۰۰
۱۴۰۱
۱۴۰۲
۱۴۰۴
۱۴۰۵
۱۴۰۷
۱۴۱
۱۴۱۲
۱۴۱۳
۱۴۱۴
۱۴۲
۱۴۲۰
۱۴۲۳
۱۴۲۴
۱۴۲۵
۱۴۲۸
۱۴۲۹
۱۴۳
۱۴۳۰
۱۴۳۱
۱۴۳۵
۱۴۳۷
۱۴۴
۱۴۴۰
۱۴۴۴
۱۴۴۸
۱۴۴۹
۱۴۵
۱۴۵۰
۱۴۵۲
۱۴۵۳
۱۴۵۶
۱۴۵۷
۱۴۵۸
۱۴۶
۱۴۶۱
۱۴۶۲
۱۴۶۳
۱۴۶۴
۱۴۶۵
۱۴۶۸
۱۴۶۹
۱۴۷
۱۴۷۰
۱۴۷۱
۱۴۷۳
۱۴۷۵
۱۴۷۷
۱۴۷۸
۱۴۸
۱۴۸۰
۱۴۸۳
۱۴۸۷
۱۴۸۸
۱۴۹
۱۴۹۰
۱۴۹۱
۱۴۹۲
۱۴۹۳
۱۴۹۴
۱۴۹۸
۱۴۹۹
۱۵
۱۵۰
۱۵۰۰
۱۵۰۰۰
۱۵۰۱
۱۵۰۲
۱۵۰۳
۱۵۰۴
۱۵۰۵
۱۵۰۶
۱۵۰۷
۱۵۰۸
۱۵۰۹
۱۵۱
۱۵۱۰
۱۵۱۱
۱۵۱۲
۱۵۱۳
۱۵۱۴
۱۵۱۵
۱۵۱۶
۱۵۱۷
۱۵۱۸
۱۵۱۹
۱۵۲
۱۵۲۰
۱۵۲۱
۱۵۲۲
۱۵۲۳
۱۵۲۴
۱۵۲۵
۱۵۲۶
۱۵۲۷
۱۵۲۸
۱۵۲۹
۱۵۳
۱۵۳۰
۱۵۳۱
۱۵۳۲
۱۵۳۳
۱۵۳۴
۱۵۳۵
۱۵۳۶
۱۵۳۷
۱۵۳۸
۱۵۳۹
۱۵۴
۱۵۴۰
۱۵۴۱
۱۵۴۲
۱۵۴۳
۱۵۴۴
۱۵۴۵
۱۵۴۶
۱۵۴۷
۱۵۴۹
۱۵۵
۱۵۵۰
۱۵۵۲
۱۵۵۳
۱۵۵۵
۱۵۵۶
۱۵۵۷
۱۵۶
۱۵۶۰
۱۵۶۱
۱۵۶۳
۱۵۶۴
۱۵۶۵
۱۵۶۶
۱۵۶۷
۱۵۶۸
۱۵۶۹
۱۵۷
۱۵۷۰
۱۵۷۱
۱۵۷۳
۱۵۷۷
۱۵۷۸
۱۵۸
۱۵۸۱
۱۵۸۲
۱۵۸۳
۱۵۸۵
۱۵۸۷
۱۵۸۸
۱۵۸۹
۱۵۹
۱۵۹۰
۱۵۹۲
۱۵۹۳
۱۵۹۴
۱۵۹۵
۱۵۹۶
۱۵۹۷
۱۵۹۸
۱۵۹۹
۱۶
۱۶۰
۱۶۰۰
۱۶۰۱
۱۶۰۲
۱۶۰۳
۱۶۰۴
۱۶۰۵
۱۶۰۶
۱۶۰۷
۱۶۰۸
۱۶۰۹
۱۶۱
۱۶۱۰
۱۶۱۱
۱۶۱۲
۱۶۱۳
۱۶۱۴
۱۶۱۵
۱۶۱۶
۱۶۱۷
۱۶۱۸
۱۶۱۹
۱۶۲
۱۶۲۰
۱۶۲۱
۱۶۲۲
۱۶۲۳
۱۶۲۴
۱۶۲۵
۱۶۲۶
۱۶۲۷
۱۶۲۸
۱۶۲۹
۱۶۳
۱۶۳۰
۱۶۳۲
۱۶۳۵
۱۶۳۶
۱۶۳۸
۱۶۳۹
۱۶۴
۱۶۴۰
۱۶۴۳
۱۶۴۴
۱۶۴۶
۱۶۴۷
۱۶۴۸
۱۶۵
۱۶۵۰
۱۶۵۱
۱۶۵۲
۱۶۵۳
۱۶۵۴
۱۶۵۵
۱۶۵۶
۱۶۵۷
۱۶۵۸
۱۶۵۹
۱۶۶
۱۶۶۰
۱۶۶۱
۱۶۶۲
۱۶۶۳
۱۶۶۵
۱۶۶۶
۱۶۶۷
۱۶۶۸
۱۶۶۹
۱۶۷
۱۶۷۰
۱۶۷۱
۱۶۷۲
۱۶۷۳
۱۶۷۴
۱۶۷۵
۱۶۷۶
۱۶۷۸
۱۶۷۹
۱۶۸
۱۶۸۰
۱۶۸۲
۱۶۸۳
۱۶۸۴
۱۶۸۵
۱۶۸۶
۱۶۸۸
۱۶۸۹
۱۶۹
۱۶۹۰
۱۶۹۱
۱۶۹۳
۱۶۹۴
۱۶۹۵
۱۶۹۶
۱۶۹۷
۱۶۹۸
۱۷
۱۷۰
۱۷۰۰
۱۷۰۱
۱۷۰۳
۱۷۰۴
۱۷۰۶
۱۷۰۷
۱۷۰۹
۱۷۱
۱۷۱۰
۱۷۱۱
۱۷۱۲
۱۷۱۳
۱۷۱۴
۱۷۱۵
۱۷۱۶
۱۷۱۷
۱۷۱۹
۱۷۲
۱۷۲۰
۱۷۲۲
۱۷۲۳
۱۷۲۵
۱۷۲۶
۱۷۲۷
۱۷۲۹
۱۷۳
۱۷۳۰
۱۷۳۲
۱۷۳۴
۱۷۳۵
۱۷۳۶
۱۷۳۷
۱۷۳۸
۱۷۴
۱۷۴۰
۱۷۴۱
۱۷۴۲
۱۷۴۳
۱۷۴۵
۱۷۴۶
۱۷۴۷
۱۷۴۹
۱۷۵
۱۷۵۰
۱۷۵۱
۱۷۵۲
۱۷۵۳
۱۷۵۴
۱۷۵۵
۱۷۵۷
۱۷۵۸
۱۷۵۹
۱۷۶
۱۷۶۰
۱۷۶۱
۱۷۶۲
۱۷۶۳
۱۷۶۴
۱۷۶۵
۱۷۶۶
۱۷۶۷
۱۷۶۸
۱۷۶۹
۱۷۷
۱۷۷۰
۱۷۷۱
۱۷۷۲
۱۷۷۳
۱۷۷۴
۱۷۷۵
۱۷۷۶
۱۷۷۷
۱۷۷۸
۱۷۸
۱۷۸۰
۱۷۸۱
۱۷۸۲
۱۷۸۳
۱۷۸۴
۱۷۸۵
۱۷۸۶
۱۷۸۷
۱۷۸۸
۱۷۸۹
۱۷۹
۱۷۹۰
۱۷۹۱
۱۷۹۲
۱۷۹۳
۱۷۹۴
۱۷۹۵
۱۷۹۶
۱۷۹۷
۱۷۹۸
۱۷۹۸۲
۱۷۹۹
۱۸
۱۸۰
۱۸۰۰
۱۸۰۱
۱۸۰۲
۱۸۰۳
۱۸۰۴
۱۸۰۵
۱۸۰۶
۱۸۰۷
۱۸۰۸
۱۸۰۹
۱۸۱
۱۸۱۰
۱۸۱۱
۱۸۱۲
۱۸۱۳
۱۸۱۴
۱۸۱۵
۱۸۱۶
۱۸۱۷
۱۸۱۸
۱۸۱۹
۱۸۲
۱۸۲۰
۱۸۲۱
۱۸۲۲
۱۸۲۳
۱۸۲۴
۱۸۲۵
۱۸۲۶
۱۸۲۷
۱۸۲۸
۱۸۲۹
۱۸۳
۱۸۳۰
۱۸۳۱
۱۸۳۲
۱۸۳۳
۱۸۳۴
۱۸۳۵
۱۸۳۶
۱۸۳۷
۱۸۳۸
۱۸۳۹
۱۸۴
۱۸۴۰
۱۸۴۱
۱۸۴۲
۱۸۴۳
۱۸۴۴
۱۸۴۵
۱۸۴۶
۱۸۴۷
۱۸۴۸
۱۸۴۹
۱۸۵
۱۸۵۰
۱۸۵۱
۱۸۵۲
۱۸۵۳
۱۸۵۴
۱۸۵۵
۱۸۵۶
۱۸۵۷
۱۸۵۸
۱۸۵۹
۱۸۶
۱۸۶۰
۱۸۶۱
۱۸۶۲
۱۸۶۳
۱۸۶۴
۱۸۶۵
۱۸۶۶
۱۸۶۷
۱۸۶۸
۱۸۶۹
۱۸۷
۱۸۷۰
۱۸۷۱
۱۸۷۲
۱۸۷۳
۱۸۷۴
۱۸۷۵
۱۸۷۶
۱۸۷۷
۱۸۷۸
۱۸۷۹
۱۸۸
۱۸۸۰
۱۸۸۱
۱۸۸۲
۱۸۸۳
۱۸۸۴
۱۸۸۵
۱۸۸۶
۱۸۸۷
۱۸۸۸
۱۸۸۹
۱۸۹
۱۸۹۰
۱۸۹۱
۱۸۹۲
۱۸۹۳
۱۸۹۴
۱۸۹۵
۱۸۹۶
۱۸۹۷
۱۸۹۸
۱۸۹۹
۱۹
۱۹۰
۱۹۰۰
۱۹۰۱
۱۹۰۲
۱۹۰۳
۱۹۰۴
۱۹۰۵
۱۹۰۶
۱۹۰۷
۱۹۰۸
۱۹۰۹
۱۹۱
۱۹۱۰
۱۹۱۱
۱۹۱۲
۱۹۱۳
۱۹۱۴
۱۹۱۵
۱۹۱۶
۱۹۱۷
۱۹۱۸
۱۹۱۹
۱۹۲
۱۹۲۰
۱۹۲۱
۱۹۲۲
۱۹۲۳
۱۹۲۴
۱۹۲۵
۱۹۲۶
۱۹۲۷
۱۹۲۸
۱۹۲۹
۱۹۳
۱۹۳۰
۱۹۳۱
۱۹۳۲
۱۹۳۳
۱۹۳۴
۱۹۳۵
۱۹۳۶
۱۹۳۷
۱۹۳۸
۱۹۳۹
۱۹۴
۱۹۴۰
۱۹۴۱
۱۹۴۲
۱۹۴۳
۱۹۴۴
۱۹۴۵
۱۹۴۶
۱۹۴۷
۱۹۴۸
۱۹۴۹
۱۹۵
۱۹۵۰
۱۹۵۱
۱۹۵۲
۱۹۵۳
۱۹۵۴
۱۹۵۵
۱۹۵۶
۱۹۵۷
۱۹۵۸
۱۹۵۹
۱۹۶
۱۹۶۰
۱۹۶۱
۱۹۶۲
۱۹۶۳
۱۹۶۴
۱۹۶۵
۱۹۶۶
۱۹۶۷
۱۹۶۸
۱۹۶۹
۱۹۷
۱۹۷۰
۱۹۷۱
۱۹۷۲
۱۹۷۳
۱۹۷۴
۱۹۷۵
۱۹۷۶
۱۹۷۷
۱۹۷۸
۱۹۷۹
۱۹۸
۱۹۸۰
۱۹۸۱
۱۹۸۲
۱۹۸۳
۱۹۸۴
۱۹۸۵
۱۹۸۶
۱۹۸۷
۱۹۸۸
۱۹۸۹
۱۹۹
۱۹۹۰
۱۹۹۱
۱۹۹۲
۱۹۹۳
۱۹۹۴
۱۹۹۵
۱۹۹۶
۱۹۹۷
۱۹۹۸
۱۹۹۹
۲
۲۰
۲۰۰
۲۰۰۰
۲۰۰۰۰
۲۰۰۱
۲۰۰۲
۲۰۰۳
۲۰۰۴
۲۰۰۵
۲۰۰۶
۲۰۰۷
۲۰۰۸
۲۰۰۹
۲۰۱
۲۰۱۰
۲۰۱۱
۲۰۱۲
۲۰۱۳
۲۰۱۴
۲۰۱۵
۲۰۱۶
۲۰۱۷
۲۰۱۸
۲۰۱۹
۲۰۲
۲۰۲۰
۲۰۲۱
۲۰۲۲
۲۰۲۳
۲۰۳
۲۰۴
۲۰۵
۲۰۶
۲۰۷
۲۰۸
۲۰۹
۲۱
۲۱۰
۲۱۰۰
۲۱۱
۲۱۲
۲۱۳
۲۱۴
۲۱۵
۲۱۶
۲۱۷
۲۱۸
۲۱۹
۲۲
۲۲۰
۲۲۰۰
۲۲۱
۲۲۲
۲۲۳
۲۲۴
۲۲۵
۲۲۶
۲۲۷
۲۲۸
۲۲۹
۲۳
۲۳۰
۲۳۱
۲۳۲
۲۳۳
۲۳۴
۲۳۵
۲۳۶
۲۳۷
۲۳۸
۲۳۹
۲۴
۲۴۰
۲۴۱
۲۴۲
۲۴۳
۲۴۴
۲۴۵
۲۴۶
۲۴۷
۲۴۸
۲۴۹
۲۵
۲۵۰
۲۵۰۰
۲۵۱
۲۵۲
۲۵۳
۲۵۴
۲۵۵
۲۵۶
۲۵۷
۲۵۸
۲۵۹
۲۶
۲۶۰
۲۶۱
۲۶۲
۲۶۳
۲۶۴
۲۶۵
۲۶۶
۲۶۷
۲۶۸
۲۶۹
۲۷
۲۷۰
۲۷۱
۲۷۲
۲۷۳
۲۷۴
۲۷۵
۲۷۶
۲۷۷
۲۷۸
۲۷۹
۲۸
۲۸۰
۲۸۱
۲۸۲
۲۸۳
۲۸۴
۲۸۵
۲۸۶
۲۸۷
۲۸۸
۲۸۹
۲۹
۲۹۰
۲۹۱
۲۹۲
۲۹۳
۲۹۴
۲۹۵
۲۹۶
۲۹۷
۲۹۸
۲۹۹
۳
۳۰
۳۰۰
۳۰۰۰
۳۰۱
۳۰۲
۳۰۳
۳۰۴
۳۰۵
۳۰۶
۳۰۷
۳۰۸
۳۰۹
۳۱
۳۱۰
۳۱۱
۳۱۲
۳۱۳
۳۱۴
۳۱۵
۳۱۶
۳۱۷
۳۱۸
۳۱۹
۳۲
۳۲۰
۳۲۱
۳۲۲
۳۲۳
۳۲۴
۳۲۵
۳۲۶
۳۲۷
۳۲۸
۳۲۹
۳۳
۳۳۰
۳۳۱
۳۳۲
۳۳۳
۳۳۴
۳۳۵
۳۳۶
۳۳۷
۳۳۸
۳۳۹
۳۴
۳۴۰
۳۴۱
۳۴۲
۳۴۳
۳۴۴
۳۴۵
۳۴۶
۳۴۷
۳۴۸
۳۴۹
۳۵
۳۵۰
۳۵۰۰۰
۳۵۱
۳۵۲
۳۵۳
۳۵۴
۳۵۵
۳۵۶
۳۵۷
۳۵۸
۳۵۹
۳۶
۳۶۰
۳۶۱
۳۶۲
۳۶۳
۳۶۴
۳۶۵
۳۶۶
۳۶۷
۳۶۸
۳۶۹
۳۷
۳۷۰
۳۷۱
۳۷۲
۳۷۳
۳۷۴
۳۷۵
۳۷۶
۳۷۷
۳۷۸
۳۷۹
۳۸
۳۸۰
۳۸۱
۳۸۲
۳۸۳
۳۸۴
۳۸۵
۳۸۶
۳۸۷
۳۸۸
۳۸۹
۳۹
۳۹۰
۳۹۱
۳۹۲
۳۹۳
۳۹۴
۳۹۵
۳۹۶
۳۹۷
۳۹۸
۳۹۹
۴
۴۰
۴۰۰
۴۰۰۰
۴۰۱
۴۰۲
۴۰۳
۴۰۴
۴۰۵
۴۰۶
۴۰۷
۴۰۸
۴۰۹
۴۱
۴۱۰
۴۱۱
۴۱۲
۴۱۳
۴۱۴
۴۱۵
۴۱۶
۴۱۷
۴۱۸
۴۱۹
۴۲
۴۲۰
۴۲۱
۴۲۲
۴۲۳
۴۲۴
۴۲۶
۴۲۷
۴۲۸
۴۲۹
۴۳
۴۳۰
۴۳۱
۴۳۲
۴۳۳
۴۳۴
۴۳۵
۴۳۶
۴۳۷
۴۳۸
۴۳۹
۴۴
۴۴۰
۴۴۱
۴۴۲
۴۴۳
۴۴۴
۴۴۵
۴۴۶
۴۴۷
۴۴۸
۴۴۹
۴۵
۴۵۰
۴۵۱
۴۵۲
۴۵۳
۴۵۴
۴۵۵
۴۵۶
۴۵۷
۴۵۸
۴۵۹
۴۶
۴۶۰
۴۶۱
۴۶۲
۴۶۳
۴۶۴
۴۶۵
۴۶۶
۴۶۷
۴۶۸
۴۶۹
۴۷
۴۷۰
۴۷۱
۴۷۲
۴۷۳
۴۷۴
۴۷۵
۴۷۶
۴۷۷
۴۷۸
۴۷۹
۴۸
۴۸۰
۴۸۱
۴۸۲
۴۸۳
۴۸۴
۴۸۵
۴۸۶
۴۸۷
۴۸۸
۴۸۹
۴۹
۴۹۰
۴۹۱
۴۹۲
۴۹۳
۴۹۴
۴۹۵
۴۹۶
۴۹۷
۴۹۸
۴۹۹
۵
۵۰
۵۰۰
۵۰۰۰
۵۰۱
۵۰۲
۵۰۳
۵۰۴
۵۰۵
۵۰۶
۵۰۷
۵۰۸
۵۰۹
۵۱
۵۱۰
۵۱۱
۵۱۲
۵۱۳
۵۱۴
۵۱۵
۵۱۶
۵۱۷
۵۱۸
۵۱۹
۵۲
۵۲۰
۵۲۱
۵۲۲
۵۲۳
۵۲۴
۵۲۵
۵۲۶
۵۲۷
۵۲۸
۵۲۹
۵۳
۵۳۰
۵۳۱
۵۳۲
۵۳۳
۵۳۴
۵۳۵
۵۳۶
۵۳۷
۵۳۸
۵۳۹
۵۴
۵۴۰
۵۴۱
۵۴۲
۵۴۳
۵۴۴
۵۴۵
۵۴۶
۵۴۷
۵۴۸
۵۴۹
۵۵
۵۵۰
۵۵۱
۵۵۲
۵۵۳
۵۵۴
۵۵۵
۵۵۶
۵۵۷
۵۵۸
۵۵۹
۵۶
۵۶۰
۵۶۱
۵۶۲
۵۶۳
۵۶۴
۵۶۵
۵۶۶
۵۶۷
۵۶۸
۵۶۹
۵۷
۵۷۰
۵۷۱
۵۷۲
۵۷۳
۵۷۴
۵۷۵
۵۷۶
۵۷۷
۵۷۸
۵۷۹
۵۸
۵۸۰
۵۸۱
۵۸۲
۵۸۳
۵۸۴
۵۸۵
۵۸۶
۵۸۷
۵۸۸
۵۸۹
۵۹
۵۹۰
۵۹۱
۵۹۲
۵۹۳
۵۹۴
۵۹۵
۵۹۶
۵۹۷
۵۹۸
۵۹۹
۶
۶۰
۶۰۰
۶۰۰۰۰
۶۰۱
۶۰۲
۶۰۳
۶۰۴
۶۰۵
۶۰۶
۶۰۷
۶۰۸
۶۰۹
۶۱
۶۱۰
۶۱۱
۶۱۲
۶۱۳
۶۱۴
۶۱۵
۶۱۶
۶۱۷
۶۱۸
۶۱۹
۶۲
۶۲۰
۶۲۱
۶۲۲
۶۲۳
۶۲۴
۶۲۵
۶۲۶
۶۲۷
۶۲۸
۶۲۹
۶۳
۶۳۰
۶۳۱
۶۳۲
۶۳۳
۶۳۴
۶۳۵
۶۳۶
۶۳۷
۶۳۸
۶۳۹
۶۴
۶۴۰
۶۴۱
۶۴۲
۶۴۳
۶۴۴
۶۴۵
۶۴۶
۶۴۷
۶۴۸
۶۴۹
۶۵
۶۵۰
۶۵۱
۶۵۲
۶۵۳
۶۵۴
۶۵۵
۶۵۶
۶۵۷
۶۵۸
۶۵۹
۶۶
۶۶۰
۶۶۱
۶۶۲
۶۶۳
۶۶۴
۶۶۵
۶۶۶
۶۶۷
۶۶۸
۶۶۹
۶۷
۶۷۰
۶۷۱
۶۷۲
۶۷۳
۶۷۴
۶۷۵
۶۷۶
۶۷۷
۶۷۸
۶۷۹
۶۸
۶۸۰
۶۸۱
۶۸۲
۶۸۳
۶۸۴
۶۸۵
۶۸۶
۶۸۷
۶۸۸
۶۸۹
۶۹
۶۹۰
۶۹۱
۶۹۲
۶۹۳
۶۹۴
۶۹۵
۶۹۶
۶۹۷
۶۹۸
۶۹۹
۷
۷۰
۷۰۰
۷۰۱
۷۰۲
۷۰۳
۷۰۴
۷۰۵
۷۰۶
۷۰۷
۷۰۸
۷۰۹
۷۱
۷۱۰
۷۱۱
۷۱۲
۷۱۳
۷۱۴
۷۱۵
۷۱۶
۷۱۷
۷۱۸
۷۱۹
۷۲
۷۲۰
۷۲۱
۷۲۲
۷۲۳
۷۲۴
۷۲۵
۷۲۶
۷۲۷
۷۲۸
۷۲۹
۷۳
۷۳۰
۷۳۱
۷۳۲
۷۳۳
۷۳۴
۷۳۵
۷۳۶
۷۳۷
۷۳۸
۷۳۹
۷۴
۷۴۰
۷۴۱
۷۴۲
۷۴۳
۷۴۴
۷۴۵
۷۴۶
۷۴۷
۷۴۸
۷۴۹
۷۵
۷۵۰
۷۵۱
۷۵۲
۷۵۳
۷۵۴
۷۵۵
۷۵۶
۷۵۷
۷۵۸
۷۵۹
۷۶
۷۶۰
۷۶۱
۷۶۲
۷۶۳
۷۶۴
۷۶۵
۷۶۶
۷۶۷
۷۶۸
۷۶۹
۷۷
۷۷۰
۷۷۱
۷۷۲
۷۷۳
۷۷۴
۷۷۵
۷۷۶
۷۷۷
۷۷۸
۷۷۹
۷۸
۷۸۰
۷۸۱
۷۸۲
۷۸۳
۷۸۴
۷۸۵
۷۸۶
۷۸۷
۷۸۸
۷۸۹
۷۹
۷۹۱
۷۹۲
۷۹۳
۷۹۴
۷۹۵
۷۹۶
۷۹۷
۷۹۸
۷۹۹
۸
۸۰
۸۰۰
۸۰۱
۸۰۲
۸۰۳
۸۰۴
۸۰۵
۸۰۶
۸۰۷
۸۰۸
۸۰۹
۸۱
۸۱۰
۸۱۱
۸۱۲
۸۱۳
۸۱۴
۸۱۵
۸۱۶
۸۱۷
۸۱۸
۸۱۹
۸۲
۸۲۰
۸۲۱
۸۲۲
۸۲۴
۸۲۵
۸۲۶
۸۲۷
۸۲۸
۸۲۹
۸۳
۸۳۰
۸۳۱
۸۳۲
۸۳۳
۸۳۴
۸۳۵
۸۳۶
۸۳۷
۸۳۸
۸۳۹
۸۴
۸۴۰
۸۴۱
۸۴۲
۸۴۳
۸۴۴
۸۴۵
۸۴۶
۸۴۷
۸۴۸
۸۴۹
۸۵
۸۵۰
۸۵۱
۸۵۲
۸۵۳
۸۵۴
۸۵۵
۸۵۶
۸۵۷
۸۵۸
۸۵۹
۸۶
۸۶۰
۸۶۱
۸۶۲
۸۶۳
۸۶۴
۸۶۵
۸۶۶
۸۶۷
۸۶۸
۸۶۹
۸۷
۸۷۰
۸۷۱
۸۷۲
۸۷۳
۸۷۴
۸۷۵
۸۷۶
۸۷۷
۸۷۸
۸۷۹
۸۸
۸۸۰
۸۸۲
۸۸۳
۸۸۴
۸۸۵
۸۸۶
۸۸۷
۸۸۸
۸۸۹
۸۹
۸۹۰
۸۹۱
۸۹۲
۸۹۳
۸۹۴
۸۹۵
۸۹۶
۸۹۷
۸۹۸
۸۹۹
۹
۹۰
۹۰۰
۹۰۱
۹۰۲
۹۰۳
۹۰۴
۹۰۵
۹۰۶
۹۰۷
۹۰۸
۹۰۹
۹۱
۹۱۰
۹۱۱
۹۱۲
۹۱۳
۹۱۴
۹۱۵
۹۱۶
۹۱۸
۹۱۹
۹۲
۹۲۰
۹۲۱
۹۲۳
۹۲۴
۹۲۵
۹۲۶
۹۲۷
۹۲۸
۹۲۹
۹۳
۹۳۰
۹۳۱
۹۳۲
۹۳۳
۹۳۴
۹۳۵
۹۳۶
۹۳۷
۹۳۸
۹۳۹
۹۴
۹۴۰
۹۴۱
۹۴۲
۹۴۳
۹۴۴
۹۴۵
۹۴۶
۹۴۷
۹۴۸
۹۴۹
۹۵
۹۵۰
۹۵۱
۹۵۲
۹۵۳
۹۵۴
۹۵۵
۹۵۶
۹۵۷
۹۵۸
۹۵۹
۹۶
۹۶۰
۹۶۱
۹۶۲
۹۶۳
۹۶۴
۹۶۵
۹۶۶
۹۶۷
۹۶۸
۹۶۹
۹۷
۹۷۰
۹۷۱
۹۷۲
۹۷۳
۹۷۴
۹۷۵
۹۷۶
۹۷۷
۹۷۸
۹۸
۹۸۰
۹۸۱
۹۸۲
۹۸۳
۹۸۴
۹۸۵
۹۸۶
۹۸۷
۹۸۸
۹۸۹
۹۹
۹۹۰
۹۹۱
۹۹۲
۹۹۳
۹۹۴
۹۹۵
۹۹۶
۹۹۷
۹۹۸
۹۹۹
ँ
ं
आ
इ
ए
क
ख
ग
घटन
ङ
च
ज
ञ
ट
ठ
ड
ढ
त
थ
द
ध
न
प
ब
भ
म
य
र
ल
व
श
ष
स
सद
ह
हल
़
ा
ि
ी
ु
ू
ृ
े
ै
ो
ौ
्
ঁ
ং
ক
চ
ট
ঠ
ড
ণ
ত
দ
ধ
ন
প
ব
ম
য
র
ল
শ
ষ
স
হ
়
া
ি
ী
ু
ূ
ে
্
ৱ
ਂ
ਖ
ਦ
ਨ
ਲ
਼
ਾ
ਿ
ੀ
ੂ
ੱ
ં
ઓ
ક
ગ
ઘટન
ચ
ડ
ઢ
તમ
દ
ધ
ન
પ
મ
ય
વ
વર
સ
ા
િ
ી
ો
્
ଚ
ଛ
ଞ
ଟ
ମ
ା
େ
୍
க
கள
கழ
ஜ
ட
த
ந
நடப
ன
ப
ய
ர
ற
ல
ழ
வ
ஹ
ா
ி
ீ
ு
ூ
ே
ை
்
ం
క
గ
డ
త
ద
ప
మ
య
ర
ల
వ
స
ా
ి
ీ
ు
ూ
ృ
ె
ొ
ో
ౌ
్
ಂ
ಈ
ಕ
ಟ
ಡ
ದ
ನ
ಪ
ಯ
ರ
ಲ
ವ
ಸ
ಿ
ು
ೆ
್
ೕ
ೖ
ം
അ
ക
ഗ
ച
ഞ
ട
ഡ
ത
ന
പ
ഫലക
യ
ര
റ
ല
ള
വ
സ
സമക
ഹ
ാ
ി
ീ
ു
െ
േ
്
ක
ඩ
ත
න
ප
ය
ල
ව
ස
්
ා
ැ
ි
ී
ු
ෙ
ก
กรกฎาคม
การณ
จ
จจ
ฒ
ด
ต
ธ
น
นน
บ
ป
พ
ม
ย
ร
ล
ว
อ
ั
า
ิ
ี
ื
ุ
ู
เด
เหต
แบบ
แม
ในอด
็
่
้
์
ກ
ພ
ວ
ິ
ີ
່
་
།
ཀ
ག
ཆ
ད
ན
བ
ཡ
ར
ལ
ས
ི
ུ
ོ
ྐ
ྒ
ྱ
ྲ
ྷ
င
စ
ည
တ
ထ
ဒ
န
ပ
မ
ာ
ိ
ီ
ု
ေ
ံ
း
္
်
ြ
ამბები
ახალი
ვიკიპედია
თარგი
პორტალი
역사
오늘의
요즘
월
위키백과
일
틀
화제
គ
ជ
ឌ
ត
ថ
ទ
ន
ប
ព
ភ
ម
យ
រ
ល
វ
ស
ា
ិ
ី
ូ
ួ
ៀ
ែ
ៅ
ំ
់
៌
័
្
ᨁ
ᨕ
ᨗ
ᨘ
​
‌
‍
‎
‏
‐
–
—
‘
’
‚
“
”
„
†
‡
•
…
‪
‫
‬
‭
‮
′
″
‹
›
ⁿ
₃
€
₿
ℂ
ℍ
ℕ
ℙ
ℚ
ℝ
ℤ
ℵ
←
↑
→
↓
↔
↗
↦
↷
⇐
⇒
⇔
∀
∂
∃
∅
∆
∇
∈
∋
∏
∐
∑
−
∓
∗
∘
√
∝
∞
∠
∣
∧
∨
∩
∪
∫
∬
∭
∮
∴
∵
≀
≃
≅
≈
≐
≜
≝
≡
≤
≥
≪
≫
⊂
⊃
⊆
⊇
⊊
⊋
⊕
⊗
⊢
⊣
⊤
⊥
⊧
⊻
⋅
⋈
⋉
⋊
⌈
⌉
⌊
⌋
③
④
⑦
ⓐ
┐
█
□
▶
▻
▼
◀
◅
☆
☉
☿
♀
♂
♃
♄
♆
♇
♐
⚵
⚶
⛢
✋
✍
⟨
⟩
⯓
ⴰ
ⴷ
ⵉ
ⵎ
ⵓ
ⵖ
ⵜ
ⵣ
ⵥ
⺀
⺄
⺆
⺈
⺊
⺌
⺕
⺝
⺸
⺼
⿰
⿱
⿲
⿳
⿴
⿵
⿶
⿷
⿸
⿹
⿺
⿻
、
。
《
》
「
」
【
】
〢
あ
い
う
え
お
か
き
く
こ
さ
し
す
せ
そ
た
ち
つ
て
と
に
ね
の
ひ
ふ
へ
ま
み
め
や
ょ
よ
ら
り
れ
わ
゙
゚
ァ
ア
イ
ウ
ェ
オ
カ
ク
コ
サ
シ
ス
セ
タ
ッ
ツ
テ
ト
ネ
ハ
ヒ
フ
ヘ
ホ
ミ
ム
ヤ
ュ
ユ
ラ
リ
ル
ロ
ン
・
ー
㇁
㇂
㇄
㇇
㇈
㇉
㇓
㐁
㐄
㐅
㐌
㐫
㐬
㐭
㐮
㐱
㑒
㒵
㒸
㒼
㓁
㓞
㔾
㕛
㕣
㖾
㘝
㚅
㚇
㚔
㚘
㝉
㝡
㝴
㝵
㞋
㞢
㞷
㠩
㠭
㠯
㡀
㡭
㡿
㢲
㢴
㣇
㣺
㥯
㪅
㫄
㫐
㫒
㫺
㬅
㬎
㬥
㬰
㲋
㳄
㷠
㸒
㸚
㸦
㼌
㼲
㽞
㿟
䀠
䂞
䍃
䏍
䒑
䖍
䖒
䖝
䖵
䙴
䚻
䜌
䝿
䡛
䧹
䪞
一
丁
丂
七
丄
丅
丆
万
丈
三
上
下
丌
不
与
丏
丐
丑
专
且
丕
世
丘
丙
业
东
丞
丢
丣
两
严
並
丨
丩
个
丫
丬
中
丮
丰
丱
串
丵
丶
丷
丸
丹
为
主
丽
丿
乀
乂
乃
久
乆
乇
么
义
之
乌
乍
乎
乏
乐
乑
乔
乖
乗
乘
乙
乚
乛
乜
九
乞
也
习
乡
乳
乾
亀
亅
了
亇
予
争
事
二
亍
于
亏
亐
云
互
亓
五
井
亘
亚
亜
亞
亟
亠
亡
亢
交
亥
亦
产
亨
亩
享
京
亭
亮
亯
亰
亲
亳
亶
亷
人
亻
亼
亾
仁
今
介
仌
从
仐
仑
仒
仓
仕
他
付
仝
代
令
以
任
企
伊
伏
伐
休
会
传
伯
但
位
住
何
佘
余
作
佥
使
來
侈
侌
侍
侖
侯
侵
便
保
俞
信
修
倉
倍
倒
候
倠
備
僉
僕
儿
兀
允
兂
元
兄
充
兆
兇
先
光
兊
克
兌
免
児
兑
兒
兓
兔
党
兜
兟
入
全
兩
兪
八
公
六
兮
兰
共
关
兵
其
具
典
兹
兼
冀
冂
冃
冄
内
冈
冉
冊
冋
册
再
冎
冏
冐
冒
冓
冖
冗
冘
军
农
冝
冡
冥
冫
冬
冷
准
几
凡
凢
凵
凶
凷
凸
凹
出
函
凾
刀
刁
刂
刃
刄
刅
分
切
刍
刑
刕
刖
列
刘
则
初
別
利
别
到
制
刺
則
削
剌
前
剡
剽
劉
力
功
加
劦
助
劫
劳
劵
勃
勇
勉
勒
動
務
勞
勤
勹
勺
勻
勾
勿
匀
匂
包
匆
匈
匊
匋
匍
匕
化
北
匚
匝
匡
匪
匱
匸
匹
区
医
匽
匿
區
十
卂
千
卄
卅
卆
升
午
卉
半
卌
华
卑
卒
卓
单
卖
南
博
卜
卝
卞
占
卡
卢
卣
卤
卦
卩
卪
卬
卯
印
危
即
却
卵
卷
卸
卻
厂
厃
厄
历
厈
厉
厌
厓
厘
厚
原
厤
厥
厨
厭
厲
厳
厶
厷
厸
去
厼
厽
叀
参
參
叅
又
叉
及
友
双
反
叐
发
叒
叔
叕
取
受
叚
叜
叟
口
古
句
另
叩
只
召
可
台
叱
史
右
叵
号
司
叹
吂
各
吅
合
吉
吊
吋
同
名
后
吏
向
吕
君
吝
吞
否
含
启
吳
吴
吹
吾
呂
呆
呈
告
员
呙
周
命
咅
和
咎
咠
咢
咨
咸
咼
哀
品
哈
哉
員
哥
哲
唐
商
啇
問
啚
啬
啻
善
喜
喬
單
喿
嗇
噩
嚴
囊
囗
囘
囙
囚
四
回
囟
因
囧
囬
困
囱
囷
固
国
圂
圅
國
圍
圓
土
圡
圣
圥
在
圭
地
圶
圼
坊
坐
坒
坚
坴
垂
垔
垕
垚
埀
埋
城
埶
執
基
埼
堂
堅
堆
堇
堯
報
塞
墨
壇
壘
士
壬
壯
声
壳
壴
壹
壺
壽
夂
处
夅
夆
备
夊
夋
夌
复
夏
夒
夕
外
夗
夘
多
夜
夢
大
夨
天
太
夫
夬
夭
央
失
夲
头
夷
夸
夹
夻
夾
奂
奄
奇
奈
奉
奎
奏
奐
契
奓
奔
奚
奞
奠
奢
奥
奭
女
奴
奻
好
如
妄
妙
妟
妥
妻
妾
始
姑
委
姜
威
娄
娜
婁
婴
媛
嬰
嬴
子
孑
孔
孕
孖
字
存
孚
孛
孝
孟
季
孤
学
孫
孱
學
宀
宁
宂
它
宅
宇
守
安
宋
完
宏
宓
宗
官
定
宛
宜
宝
客
宣
室
宮
宰
害
家
容
宾
宿
寄
寅
密
富
寒
察
寧
審
寫
寬
寮
寸
对
寺
寻
寽
対
寿
封
尃
射
将
將
專
尉
尊
尋
尌
對
小
少
尒
尓
尔
尖
尗
尚
尞
尢
尣
尤
尧
尨
尭
就
尸
尹
尺
尻
尼
尽
尾
尿
局
居
屈
屋
屎
屏
屑
展
屖
屚
属
屠
屡
屬
屮
屯
屰
山
屵
屾
岁
岂
岐
岑
岡
岩
岳
岸
峯
島
崇
崎
崑
崔
崖
崙
崩
嵬
嶲
巂
巛
川
州
巟
巠
巢
巤
工
左
巧
巨
巩
巫
差
己
已
巳
巴
巷
巸
巽
巾
巿
帀
市
布
希
帚
帛
帝
带
師
席
帯
帳
帶
常
干
平
年
幵
并
幷
幸
幺
幻
幼
幽
幾
广
庁
広
庄
床
底
店
庚
府
度
庫
庭
庶
康
庸
廉
廌
廛
廣
廩
廴
延
廷
建
廾
廿
开
弁
弃
弄
弇
弋
式
弓
弔
引
弗
弘
弜
弟
弥
弦
弱
張
強
强
彊
彌
彎
彐
彑
当
彔
录
彖
彗
彡
形
彥
彦
彧
彭
彳
役
彼
往
待
律
後
徒
得
徙
從
復
微
徳
徵
心
忄
必
忌
忍
志
忝
忠
忩
快
念
忽
忿
思
怠
急
怱
恆
恒
恩
恭
息
悉
患
悤
悲
悶
情
惠
惡
惢
愁
愈
意
愛
感
慈
態
慧
慮
憂
憲
應
戀
戈
戉
戊
戋
戌
戍
戎
成
我
戒
戔
或
戚
戠
戢
截
戲
戶
户
戸
戹
戼
戾
房
所
扁
扇
手
扌
才
打
托
执
承
折
抹
拉
拜
拿
指
掌
推
提
摩
撃
支
攴
攵
收
攸
改
攻
放
政
敄
敏
敕
敖
敗
敝
敞
敢
散
敦
敫
敬
数
敷
數
斂
文
斉
斊
斗
斤
斥
斩
斬
斯
新
方
於
施
斿
旁
旋
族
无
旡
既
旣
日
旦
旧
旨
早
旬
旱
旲
时
旾
昆
昇
昌
昍
明
昏
易
昔
昗
昜
星
春
昬
是
昱
昴
昷
時
晃
晋
晏
普
景
晶
智
暑
暴
曇
曝
曩
曰
曲
曳
更
曷
書
曹
曼
曾
替
最
朁
會
月
有
朋
服
朔
朕
朗
望
朝
木
朩
未
末
本
札
朮
术
朱
朵
朶
朿
杀
李
杏
村
杜
束
条
来
東
杲
杳
松
板
析
林
枚
果
枝
枲
枼
某
柔
查
柬
柰
柴
査
栃
栄
栈
栗
校
株
核
桀
桑
桜
桶
桼
梁
條
梟
梨
械
棘
棠
棣
棥
森
楚
業
楽
概
榮
樂
樊
樘
標
樹
樺
機
檢
欠
次
欣
欮
欲
欶
欽
款
歆
歇
歛
止
正
此
步
武
歨
歪
歮
歯
歰
歲
歴
歷
歸
歹
歺
死
殳
段
殷
殸
殹
殺
殻
殿
毋
毌
母
毎
每
毒
比
毕
毚
毛
毳
氏
氐
民
气
氣
水
氵
氶
氷
永
氺
氾
求
汉
汝
汞
江
沃
沈
沓
沖
沙
沝
泉
法
波
泣
泥
泰
洛
洪
活
派
流
浦
浪
浮
海
淡
淮
深
清
渚
渠
湯
滋
滝
滿
漢
漸
潘
潟
濱
火
灬
灭
灰
灵
灷
炅
炆
炎
炏
炗
炙
炭
為
烈
烏
烝
焉
無
焦
焰
焱
然
煞
照
熊
熏
熜
熾
燕
營
燮
爆
爪
爫
爭
爯
爰
爱
爲
爵
父
爻
爽
爾
爿
片
牙
牚
牛
牜
牟
牢
牧
物
牪
特
牽
犀
犬
犭
犮
狂
狄
狊
独
狺
猋
猒
猪
献
獻
玄
率
玉
王
玟
玨
珎
班
現
理
琴
瑟
瑩
璋
瓜
瓦
甘
甚
生
産
用
甫
甬
田
由
甲
申
电
甶
男
甸
甹
町
画
甾
畀
界
畏
畐
留
畜
畟
畢
畧
畨
番
畫
異
畱
當
畺
畾
疊
疋
疌
疑
疒
疾
癶
癸
癹
登
發
白
百
皀
皃
的
皆
皇
皋
皐
皕
皮
皷
皿
盃
盆
盇
盈
益
盍
盎
监
盒
盖
盛
盡
監
盤
盧
目
直
相
盾
省
眇
眉
看
県
眔
眞
真
眷
眼
眾
着
睘
睪
睿
瞏
瞢
瞻
瞿
矍
矛
矞
矢
矣
知
矦
短
石
研
破
硬
碎
磊
磨
示
礻
礼
祁
祐
祝
神
祟
票
祭
禀
禁
福
禸
禹
禺
离
禽
禾
禿
秀
秃
秉
秋
科
秝
秦
移
稟
種
穀
穌
穴
究
穹
空
穿
突
窄
窒
立
竒
竜
竝
竟
章
童
端
竹
笑
笠
第
筆
等
答
箕
算
管
箴
節
篤
篭
米
粉
粛
粟
粤
粦
粲
糞
糸
糹
系
約
納
素
索
紫
累
細
結
絜
絫
統
絲
続
維
綿
縄
縣
繁
繇
纍
纟
红
维
缶
网
罒
罔
罕
罗
罙
罡
罢
罪
署
罷
羅
羊
羌
羍
美
羔
羕
羗
羞
羡
羣
群
義
羲
羸
羽
翁
翊
翏
習
翕
翟
翠
翼
老
耂
考
者
耆
而
耎
耑
耒
耳
耴
耶
耷
聂
聊
聖
聚
聞
聶
聿
肀
肃
肅
肉
肖
肙
肥
肩
肯
育
肴
胃
背
胡
胥
能
脊
脩
膚
臣
臤
臧
自
臬
臭
臯
臱
至
致
臺
臼
臽
臾
臿
舀
舂
舄
與
興
舉
舌
舍
舛
舜
舞
舟
般
艮
良
色
艸
艹
艾
芒
芔
芬
芮
花
芳
芺
芻
苔
苗
苟
若
苦
英
茨
茶
茸
荅
草
荒
荣
荼
莆
莧
莫
莽
菆
菊
菐
華
萨
萬
落
葉
著
葛
董
葵
蒙
蒦
蒼
蓋
蓬
蓺
蔑
蔡
蔣
蕉
蕭
薄
薛
薦
薰
藍
藏
藥
蘭
虍
虎
虐
虒
虔
處
虖
虗
虘
虚
虛
虜
虞
號
虫
虽
蚤
蚩
蜀
蜜
蟲
蠡
血
行
衍
衛
衣
衤
表
衮
衰
袁
袞
裏
褭
褱
襄
襾
西
覀
要
覃
見
規
覓
覧
親
覽
见
角
解
言
訁
訇
計
許
詰
話
詹
語
誩
課
調
請
論
諸
謨
讠
诚
话
语
读
谟
谷
豆
豈
豊
豐
豕
豖
豙
象
豦
豩
豪
豸
貇
貝
貞
貟
負
貢
貧
貪
貫
責
貳
貴
買
費
賀
賁
資
賈
賏
賓
賔
賛
賞
賢
賣
質
賴
贊
贝
贡
责
贯
贲
贵
赖
赞
赤
赦
赫
走
越
足
跌
路
蹇
身
躬
車
軍
軎
軟
転
載
輝
輦
车
辛
辜
辟
辥
辰
辱
農
辵
辶
边
达
过
近
连
迷
追
退
送
逆
逐
通
速
造
逢
連
逮
進
遀
遂
過
道
達
遣
適
遷
遺
邊
邑
邕
那
邦
邪
郎
部
郭
都
鄉
酉
酋
配
酓
釆
采
里
重
野
量
金
釒
鈞
鈺
錢
鎮
钅
長
镸
长
門
閃
閉
開
閏
閑
閒
間
閔
閩
閵
閻
闌
门
间
闷
闽
阅
阑
阜
阝
队
阪
阳
阿
陈
降
院
陳
隆
隊
隋
隡
隨
隱
隶
隹
隺
隻
隼
隽
难
雀
雁
集
雈
雋
雍
雐
雔
雙
雚
雜
雝
離
難
雨
雩
雪
雲
零
雷
電
需
霍
霜
霝
霞
霸
靈
靑
青
静
非
靡
面
靣
革
韋
韦
韭
韯
韱
音
頁
頃
項
須
頗
頡
頻
願
顛
页
風
风
飛
飞
食
飠
養
館
饣
首
香
馬
馮
駦
马
骨
體
高
髟
鬥
鬯
鬲
鬼
魚
魯
鮮
鱼
鲁
鳥
鳳
鸟
鹵
鹿
麃
麗
麥
麦
麻
黃
黄
黍
黎
黑
黒
黨
黹
黽
黾
鼎
鼓
鼠
鼻
齊
齋
齐
齒
齢
齿
龍
龙
龜
龟
龠
龰
龱
龴
龵
龶
龷
龸
龹
ꙗ
者
艹
ﭘ
ﭙ
ﭼ
ﮐ
ﮔ
ﮕ
ﮧ
ﯼ
ﯽ
ﯾ
﴾
﴿
️
ﺁ
ﺍ
ﺎ
ﺏ
ﺑ
ﺒ
ﺓ
ﺔ
ﺖ
ﺗ
ﺘ
ﺟ
ﺠ
ﺣ
ﺧ
ﺩ
ﺪ
ﺭ
ﺮ
ﺰ
ﺳ
ﺴ
ﺵ
ﺷ
ﺸ
ﺻ
ﻁ
ﻂ
ﻃ
ﻄ
ﻌ
ﻏ
ﻓ
ﻕ
ﻖ
ﻗ
ﻘ
ﻛ
ﻞ
ﻟ
ﻠ
ﻡ
ﻣ
ﻤ
ﻥ
ﻦ
ﻧ
ﻨ
ﻩ
ﻪ
ﻫ
ﻬ
ﻭ
ﻮ
ﻯ
ﻰ
ﻲ
ﻳ
ﻴ
ﻼ
﻿
（
）
／
３
：
？
｜
￼
𐌰
𐌱
𐌲
𐌹
𐌿
𐍂
𐍃
𐍅
🏻
👩
📞
📲
😁
🙄
🙏
🚀
🜨
🤦
𠀁
𠀃
𠀆
𠀉
𠀎
𠀐
𠁁
𠁣
𠂆
𠂇
𠂈
𠂉
𠂊
𠂋
𠂎
𠂒
𠂔
𠂛
𠂡
𠂢
𠂤
𠂬
𠂭
𠂹
𠃊
𠃋
𠃌
𠃍
𠃎
𠃑
𠃓
𠃔
𠃜
𠄌
𠄎
𠄠
𠄢
𠆢
𠆥
𠇍
𠈌
𠌵
𠓜
𠔉
𠔥
𠔼
𠔽
𠔿
𠕀
𠕁
𠕋
𠘧
𠘨
𠙻
𠙼
𠚏
𠚒
𠚤
𠚪
𠣏
𠤎
𠤕
𠥓
𠦄
𠦑
𠦝
𠧒
𠧗
𠧪
𠩺
𠪚
𠫓
𠫔
𠫤
𠬛
𠬝
𠬞
𠬢
𠬤
𠬶
𠮛
𠮦
𠮷
𠯑
𠱠
𠳮
𠷎
𡈼
𡉀
𡉵
𡌥
𡍮
𡏳
𡕒
𡕩
𡕰
𡖅
𡗗
𡗜
𡘆
𡘤
𡧱
𡨄
𡩧
𡬠
𡭽
𡰣
𡰥
𡰪
𡰯
𡰱
𡷈
𡸁
𡿨
𡿩
𡿪
𡿺
𢀖
𢀛
𢀩
𢁙
𢆉
𢆰
𢆶
𢇁
𢇇
𢉖
𢌬
𢌿
𢏚
𢑑
𢑚
𢖻
𢙣
𢛳
𢦏
𢦒
𢧵
𢼄
𢾕
𣁋
𣄼
𣅀
𣅽
𣍘
𣎳
𣎵
𣏋
𣏼
𣗥
𣥂
𣥖
𣦵
𣦼
𣧄
𣪊
𣪠
𣬉
𣳾
𣶒
𤇾
𤊽
𤐫
𤓰
𤔔
𤕨
𤣩
𤰇
𤰔
𤰞
𤴓
𤴔
𤽄
𥁑
𥁕
𥃦
𥃩
𥃭
𥇡
𥑟
𥘅
𥘈
𥝢
𥫗
𥱡
𦈢
𦉪
𦉬
𦉼
𦍌
𦍒
𦎧
𦐇
𦓔
𦔮
𦘒
𦙃
𦚏
𦣝
𦣞
𦣻
𦥑
𦥔
𦥯
𦨉
𦭝
𦰩
𧆞
𧈧
𧘇
𧰨
𧴪
𧴮
𧵩
𧾷
𨸏
𨾴
𩙿
𩠐
𩫏
𩵋
𪉷
𪜀
𪟽
𪠲
𪩲
𫇦
𫔭
𫜸
𫝀
𫠣
𫠩
𫢉
𫥞
𫩏
𫩠
𫪡
𫲽
𫶧
𬀷
𬐘
𬗌
𬙙
𬛸
𬜯
𬟩
𬯁
𬴘
𬺻
𬼉
𬼖
𭀰
𭁈
𭁨
𭅰
𭑈
𭕄
𭗼
𭤨
𭥫
𭻾
𮅕
𮊿
𮍌
𮍏
𮓗
𮥼
𮧮
廾
𰀁
𰀄
𰀈
𰀉
𰀕
𰀠
𰀡
𰀢
𰀪
𰁜
𰃮
𰆊
𰆘
𰋙
𰕎
𰢴
𰧭
𰯲
07--
08--
09--
11--
13--
141--
16--
17--
18--
19--
20--
21--
22--
24--
26--
27--
28--
285--
30--
31--
32--
33--
35--
36--
37--
38--
39--
40--
41--
42--
43--
44--
45--
453--
46--
47--
48--
49--
50--
51--
52--
53--
54--
55--
56--
57--
58--
59--
60--
604--
606--
609--
61--
62--
63--
64--
65--
66--
67--
68--
69--
70--
71--
72--
73--
74--
75--
76--
77--
78--
79--
80--
81--
82--
83--
84--
85--
86--
87--
88--
89--
90--
91--
92--
93--
94--
95--
96--
97--
978--
98--
99--
a--
aa--
ab--
abe--
absor--
ac--
ace--
ad--
add--
adi--
admi--
advan--
adve--
ae--
aest--
af--
aff--
ag--
agg--
ah--
ai--
air--
ak--
al--
ala--
ale--
alg--
ali--
all--
alu--
am--
ama--
ame--
amol--
amp--
an--
ana--
anar--
and--
ang--
ani--
anti--
anu--
ao--
ap--
apo--
app--
appli--
appro--
ar--
ara--
arc--
arch--
arg--
args--
ari--
arr--
art--
artif--
aru--
as--
ash--
asp--
ass--
ast--
async--
at--
atmosp--
atten--
au--
auto--
av--
ava--
ave--
avo--
aw--
ay--
az--
azərbay--
b--
ba--
bac--
back--
bad--
bag--
bai--
bal--
ball--
ban--
band--
banner--
bapt--
bar--
bat--
bau--
bav--
bay--
be--
bea--
bed--
beg--
beh--
bel--
ben--
benef--
ber--
bet--
bh--
bha--
bi--
bid--
bin--
bir--
biri--
birth--
bit--
bla--
blo--
block--
bloom--
blu--
blue--
bo--
body--
bol--
bom--
bon--
boo--
bor--
bosn--
bou--
boul--
bour--
bout--
box--
boy--
br--
bra--
bre--
brig--
bro--
brom--
bron--
bru--
brush--
bu--
buc--
bud--
budd--
bug--
bum--
bun--
bur--
bus--
but--
bw--
by--
c--
ca--
cab--
calc--
can--
cap--
car--
care--
carni--
casu--
cat--
cc--
cd--
ce--
cea--
cel--
celeb--
cfg--
cha--
char--
chau--
che--
check--
chi--
cho--
chu--
ci--
ciga--
cir--
citi--
cla--
cle--
cli--
clin--
clo--
clu--
co--
coach--
code--
col--
colla--
com--
compe--
compli--
con--
confess--
confi--
cong--
connec--
const--
contr--
cop--
copy--
cor--
corn--
corr--
correspo--
cot--
counter--
cow--
cr--
crafts--
cre--
crea--
create--
cres--
crist--
crit--
cu--
cui--
cur--
cut--
cy--
cyc--
cə--
d--
da--
dag--
dam--
dan--
dar--
data--
date--
daug--
dav--
daw--
day--
de--
dec--
def--
default--
del--
deli--
dem--
demo--
den--
denom--
dep--
des--
desc--
dha--
dho--
di--
dia--
dic--
diffi--
dig--
dim--
dio--
disc--
discip--
discla--
disco--
dish--
diss--
dist--
distr--
dit--
div--
diver--
do--
doc--
doctr--
dom--
done--
door--
down--
dr--
dres--
dro--
du--
duc--
dy--
dz--
e--
ea--
eb--
ec--
ed--
edit--
edu--
ee--
ef--
effective--
eg--
ei--
ek--
el--
ele--
elec--
elo--
ely--
em--
ema--
emer--
emis--
emo--
en--
end--
entom--
enzy--
epi--
equ--
equat--
er--
ero--
es--
est--
et--
eu--
euras--
euro--
eva--
ex--
exclu--
exem--
exer--
exhi--
expe--
expl--
ext--
eye--
f--
fa--
fac--
fam--
fan--
far--
fas--
fat--
favo--
fe--
feder--
ff--
fi--
file--
fire--
fix--
fla--
flat--
flic--
flo--
flu--
fluo--
fo--
fol--
fon--
font--
foo--
foot--
for--
fore--
foun--
fr--
fra--
fre--
free--
frie--
fu--
ful--
full--
fun--
fy--
g--
ga--
gad--
gal--
gan--
gang--
gar--
gas--
gaze--
gb--
ge--
gel--
geo--
get--
getall--
getseason--
gha--
gho--
gi--
gio--
gl--
glit--
glo--
gly--
gn--
go--
god--
good--
gor--
gra--
grand--
gre--
greg--
gri--
gro--
group--
gu--
gua--
guer--
gui--
gul--
gun--
gur--
gwa--
gy--
gymn--
h--
ha--
hag--
hair--
hal--
ham--
han--
hand--
har--
hard--
harpsi--
has--
hat--
he--
head--
hein--
heli--
help--
her--
hesi--
hi--
high--
hill--
him--
hir--
hl--
ho--
home--
homo--
hoss--
hot--
hr--
html--
hu--
hua--
hun--
hur--
hus--
hut--
hy--
hydr--
hyp--
hyper--
hypo--
i--
ia--
ice--
id--
iden--
if--
ig--
ik--
il--
im--
imag--
image--
images--
implicat--
import--
impu--
in--
ina--
inac--
inaug--
inc--
incom--
ind--
ine--
inf--
infan--
infe--
infi--
inhab--
ins--
integ--
inter--
intu--
inva--
investi--
io--
ip--
ir--
iran--
is--
iso--
ist--
istemplate--
it--
iu--
iv--
ix--
iz--
j--
ja--
jam--
jan--
je--
ji--
jia--
jig--
jin--
jo--
jog--
ju--
jud--
judi--
jur--
k--
ka--
kab--
kai--
kaj--
kam--
kan--
kar--
kara--
karve--
kats--
ke--
ken--
ker--
key--
kh--
kha--
kho--
khu--
ki--
kic--
kid--
kil--
kim--
kin--
kinab--
kir--
kl--
kn--
knee--
ko--
koi--
kol--
kom--
kon--
kr--
kra--
ks--
ku--
kung--
kw--
kwa--
ky--
l--
la--
lak--
lam--
lan--
land--
lang--
lar--
last--
lat--
lau--
law--
le--
lea--
lec--
left--
legis--
les--
let--
li--
lib--
life--
light--
lin--
line--
list--
lit--
liv--
lo--
log--
long--
lu--
lua--
luc--
lux--
ly--
lyri--
m--
ma--
mac--
mad--
mag--
mah--
mai--
main--
maj--
mak--
make--
mal--
mam--
man--
mar--
mari--
mas--
mascu--
max--
maza--
mbe--
mbo--
mbu--
mc--
mcdo--
me--
mea--
med--
mehr--
mel--
men--
mer--
mesopo--
met--
meta--
mexi--
mi--
micr--
micros--
mid--
mig--
mil--
min--
mir--
mira--
mirror--
mis--
mit--
ml--
mm--
mo--
moc--
mom--
mon--
mono--
mor--
mos--
move--
moz--
mp--
ms--
msg--
mu--
mud--
multi--
mun--
mur--
mus--
mw--
my--
myst--
n--
na--
nah--
name--
nar--
narra--
nav--
nc--
nd--
ne--
nece--
neder--
neighbor--
ner--
new--
news--
next--
ng--
nga--
ni--
nki--
no--
nob--
noc--
non--
noo--
nor--
nos--
not--
nov--
ns--
nu--
nuc--
num--
nur--
nut--
ny--
nya--
nyi--
nza--
o--
ob--
obs--
obser--
oc--
occa--
occupat--
oe--
of--
off--
og--
ol--
om--
omni--
omo--
on--
oo--
op--
opt--
or--
orche--
org--
oro--
ortho--
os--
ou--
out--
outer--
over--
p--
pa--
paci--
pai--
pal--
pam--
pan--
pap--
par--
para--
parse--
pat--
path--
pau--
paw--
pay--
pe--
pen--
per--
petit--
petr--
phe--
pheno--
phi--
phr--
phu--
phy--
physi--
pi--
pic--
pie--
pin--
pis--
pitc--
pl--
pla--
play--
plea--
po--
pol--
pon--
pop--
pos--
post--
pot--
pra--
pre--
pri--
pro--
prohi--
ps--
pseu--
psy--
psycho--
pt--
pu--
punc--
pur--
put--
px--
py--
q--
qa--
qu--
quad--
que--
quin--
r--
ra--
radio--
rah--
rail--
raj--
ran--
rap--
rati--
raw--
ray--
rd--
re--
read--
reci--
red--
ref--
reg--
rem--
remo--
ren--
render--
requ--
resol--
respo--
ret--
rev--
reve--
revi--
rg--
ri--
rk--
ro--
row--
rr--
ru--
s--
sa--
sac--
sad--
sal--
sales--
sam--
san--
sandbox--
sandk--
sar--
sat--
saw--
sc--
sch--
scien--
scru--
scul--
se--
sea--
sec--
seces--
see--
seg--
sei--
semi--
sen--
sep--
ser--
set--
sh--
sha--
she--
shi--
show--
shu--
si--
side--
sign--
simp--
simpli--
sin--
site--
six--
sk--
ske--
ski--
sl--
sla--
slip--
slo--
slova--
sm--
small--
smo--
sn--
sno--
so--
soci--
sol--
son--
sophisti--
sou--
sp--
spa--
spec--
spo--
sq--
squ--
sr--
st--
sta--
star--
stea--
step--
ster--
stic--
stim--
stip--
sto--
stoc--
str--
streaml--
stu--
stub--
su--
sub--
sul--
sum--
sun--
sup--
super--
sur--
survi--
sus--
sv--
sw--
swea--
sy--
symp--
sync--
sə--
t--
ta--
tab--
table--
tag--
tah--
tai--
tal--
tam--
tan--
tap--
tar--
tat--
tau--
tax--
tc--
te--
tea--
tee--
ten--
tex--
text--
th--
tha--
the--
thu--
ti--
tim--
time--
tin--
tit--
title--
tl--
tn--
to--
toggle--
tol--
tom--
ton--
top--
tor--
tort--
tous--
tr--
tra--
tranqu--
trans--
tri--
trip--
trou--
ts--
tsa--
tt--
tu--
tum--
tun--
tur--
turn--
tw--
twen--
ty--
type--
u--
uc--
ue--
ug--
uk--
ul--
um--
un--
una--
unc--
under--
uni--
univer--
up--
upg--
ur--
url--
uru--
us--
use--
user--
ut--
utop--
v--
va--
val--
valid--
validate--
van--
var--
ve--
ven--
ver--
vi--
view--
viki--
vin--
vir--
vla--
vo--
vol--
vul--
w--
wa--
wah--
waka--
wal--
war--
was--
wat--
water--
way--
we--
web--
wel--
west--
wg--
whe--
whi--
white--
wic--
wiki--
wil--
wine--
wiza--
wo--
wood--
wor--
work--
wp--
wur--
x--
xa--
xan--
xanth--
xe--
xeno--
xero--
xi--
xx--
xy--
xylo--
xylog--
y--
ya--
yachts--
yak--
yan--
yar--
yaw--
ye--
yel--
yes--
yester--
yi--
yin--
yo--
yog--
yoke--
yol--
yong--
yu--
z--
za--
zam--
zara--
ze--
zea--
zen--
zi--
zig--
zir--
zo--
zoantha--
zoc--
zom--
zon--
zoo--
zos--
zu--
zy--
zygo--
zygod--
ı--
œ--
ə--
а--
з--
к--
ا--
اب--
ابر--
ابو--
ابول--
ابی--
ات--
اتا--
اتو--
اجت--
اح--
احمد--
اخت--
اد--
ار--
ارز--
ارس--
ارغ--
ارو--
از--
ازبک--
اس--
اسا--
اسب--
است--
اسم--
اسپ--
اسک--
اش--
اشت--
اشک--
اص--
اط--
اع--
اعتماد--
اف--
افت--
افر--
اق--
ال--
الا--
الب--
الث--
الح--
الد--
الر--
الص--
الع--
الف--
الق--
الم--
الو--
الک--
الگو--
الی--
ام--
امر--
امیر--
ان--
انت--
انتر--
اند--
اندی--
انق--
انی--
اهت--
او--
اوت--
اود--
اور--
اوردو--
اوز--
اوس--
اوغ--
اول--
اون--
اوک--
اوگ--
اوی--
اي--
اپ--
اک--
اکس--
اکو--
ای--
ایر--
ایس--
ایسل--
ایشت--
ایل--
ایم--
ایمتی--
این--
اینتر--
ایو--
ب--
با--
بابا--
بات--
باج--
باخ--
باد--
بار--
باز--
باش--
باغ--
بال--
بالا--
بام--
بان--
باو--
باک--
بای--
بت--
بتو--
بجا--
بح--
بحر--
بخت--
بخش--
بد--
بدر--
بر--
برا--
برت--
برد--
برن--
برو--
برگ--
بری--
بز--
بزرگ--
بس--
بسا--
بش--
بشنا--
بص--
بع--
بـ--
بــ--
بفر--
بق--
بل--
بلا--
بلند--
بلو--
بلی--
بم--
بمع--
بن--
بند--
بندر--
به--
بهی--
بو--
بوا--
بور--
بوس--
بول--
بون--
بوه--
بوک--
بوی--
بي--
بک--
بکار--
بکن--
بگذر--
بی--
بیا--
بیت--
بیس--
بیش--
بیض--
بیل--
بین--
بیو--
بیی--
بە--
ت--
تا--
تاب--
تاج--
تار--
تام--
تان--
تاپور--
تای--
تب--
تج--
تح--
تحق--
تد--
تر--
ترا--
ترس--
ترو--
ترک--
تری--
تس--
تسا--
تسار--
تسو--
تش--
تص--
تع--
تفنگ--
تق--
تل--
تلا--
تم--
تمث--
تن--
تنگ--
ته--
تها--
تو--
توتالی--
تور--
تون--
تونکا--
توپ--
تک--
تگ--
تی--
تیر--
تیس--
تیلوز--
تیم--
ث--
ثر--
ج--
جا--
جار--
جام--
جان--
جاو--
جای--
جدا--
جر--
جز--
جغ--
جل--
جم--
جن--
جه--
جهان--
جو--
جور--
جون--
جک--
جی--
ح--
حج--
حد--
حس--
حق--
حل--
حمد--
حو--
حک--
حکم--
خ--
خا--
خار--
خاس--
خان--
خاور--
خت--
خد--
خدا--
خر--
خرد--
خرم--
خس--
خش--
خشک--
خطا--
خف--
خل--
خم--
خو--
خوا--
خود--
خودم--
خور--
خورد--
خوش--
خون--
خوند--
خی--
د--
دا--
داد--
دار--
دارو--
دام--
دان--
دای--
داینا--
دب--
در--
درا--
دراز--
درب--
دربر--
درن--
درها--
درو--
درون--
دریا--
دزا--
دس--
دست--
دستور--
دف--
دق--
دك--
دل--
دلا--
دله--
دم--
دما--
دن--
دنه--
ده--
دو--
دوا--
دود--
دور--
دوست--
دوق--
دول--
دون--
دي--
دپا--
دژ--
دک--
دکل--
دگر--
دی--
دیا--
دید--
دیز--
دیس--
دیسکو--
دین--
دیو--
دیوان--
ذ--
ذا--
ذر--
ر--
را--
راب--
راد--
رار--
رام--
ران--
راه--
راو--
رای--
رب--
رت--
رج--
رخ--
رد--
ردگ--
ردگرد--
رز--
رس--
رستا--
رسن--
رش--
رصد--
رع--
رف--
رفرن--
رق--
رقد--
رم--
رمز--
رن--
رنگ--
ره--
رو--
روا--
روان--
رود--
روز--
روس--
روش--
روف--
رون--
روو--
ري--
رپ--
رک--
رگ--
رگو--
ری--
ریا--
ریز--
ریو--
ریک--
ز--
زا--
زاد--
زار--
زد--
زر--
زربای--
زرد--
زع--
زغ--
زم--
زن--
زند--
زو--
زي--
زک--
زی--
زیر--
س--
سا--
سات--
سار--
ساز--
سال--
سام--
سان--
ساک--
سای--
سب--
سبح--
ست--
سخت--
سخن--
سد--
سر--
سرا--
سرب--
سرخ--
سرد--
سرو--
سرک--
سرگ--
سری--
سس--
سف--
سفی--
سك--
سل--
سم--
سما--
سن--
سنگ--
سه--
سو--
سوء--
سوار--
سود--
سور--
سوفسط--
سول--
سوم--
سون--
سوپر--
سوی--
سي--
سپاس--
سک--
سگ--
سی--
سیا--
سیاه--
سیب--
سید--
سیر--
سیس--
سیل--
سیو--
سیوا--
سیک--
ش--
شا--
شاء--
شاد--
شار--
شال--
شام--
شان--
شاه--
شب--
شت--
شد--
شده--
شر--
شرف--
شرو--
شش--
شعر--
شل--
شم--
شن--
شه--
شهر--
شو--
شون--
شي--
شپز--
شک--
شی--
شیر--
شیط--
شین--
شە--
ص--
صاحب--
صادر--
صبا--
صح--
صحرا--
صد--
صدا--
صف--
صفا--
صهی--
صی--
ض--
ضد--
ضیاء--
ط--
طال--
طب--
طر--
طه--
ظ--
ع--
عبد--
عبدال--
عرب--
عسگ--
عص--
عض--
عط--
عق--
عل--
علا--
علاقم--
علم--
علی--
عم--
عوم--
عکس--
غ--
غا--
غذا--
غض--
غم--
غو--
غیر--
غیرا--
ـ--
ــ--
ـــ--
ف--
فا--
فار--
فال--
فان--
فت--
فخر--
فدا--
فر--
فرا--
فرد--
فرو--
فری--
فش--
فص--
فض--
فلس--
فمنی--
فن--
فه--
فهم--
فو--
فور--
فون--
في--
فکر--
فی--
فیل--
فیلم--
ق--
قا--
قار--
قام--
قبر--
قد--
قر--
قرا--
قرار--
قزاق--
قش--
قص--
قو--
قور--
ك--
كا--
كار--
كاس--
كم--
كي--
ل--
لا--
لات--
لار--
لال--
لان--
لاپ--
لاک--
لب--
لت--
لح--
لد--
لر--
لس--
لطف--
لل--
لم--
لمی--
لن--
لنگ--
له--
لو--
لوا--
لور--
لوغتن--
لوم--
لون--
لوک--
لوگزام--
لي--
لپ--
لک--
لگ--
لی--
لیگ--
م--
ما--
مات--
مار--
ماز--
مال--
مام--
مان--
ماه--
ماک--
مای--
مب--
مت--
متا--
متد--
متر--
متم--
متو--
مث--
مجا--
مجت--
مجد--
مح--
محج--
محمد--
مخ--
مد--
مدا--
مر--
مرد--
مرز--
مرك--
مرو--
مز--
مس--
مست--
مش--
مشک--
مص--
مض--
مع--
معط--
مغ--
مغول--
مف--
مفت--
مفع--
مق--
مقا--
مقت--
مل--
ملا--
مم--
ممد--
من--
مند--
منس--
منظ--
مه--
مهر--
مو--
موت--
موج--
مود--
مور--
مورا--
موز--
موص--
موع--
موعت--
مون--
مي--
مپ--
مک--
مگ--
می--
میان--
میت--
میخا--
مید--
میر--
میرزا--
میز--
میس--
میل--
میو--
ن--
نا--
ناا--
ناب--
نات--
نار--
نام--
نان--
ناه--
ناو--
نای--
نب--
نت--
نتا--
نتی--
نخ--
ند--
ندا--
ندر--
نر--
نس--
نسا--
نش--
نشا--
نشنا--
نص--
نظر--
نع--
نف--
نفر--
نق--
نقش--
نقط--
نك--
نل--
نم--
نما--
نمی--
نن--
نه--
نو--
نوا--
نوت--
نور--
نوس--
نوم--
نوو--
نوي--
نوی--
ني--
نژ--
نژاد--
نگ--
نگه--
نی--
نیا--
نیر--
نیش--
نین--
نیو--
نیک--
ه--
ها--
هاد--
هاپ--
هاک--
های--
هب--
هت--
هد--
هدا--
هدف--
هر--
هرت--
هری--
هزار--
هس--
هسا--
هسته--
هم--
همت--
هن--
هند--
هندو--
هنر--
هو--
هوا--
هور--
هوس--
هون--
هي--
هچ--
هژبر--
هک--
هکە--
هی--
هیدرو--
هیر--
هیس--
هیل--
هیپ--
هیچ--
و--
وا--
وات--
وار--
وارد--
واز--
واس--
واش--
وال--
وان--
وای--
وب--
وت--
ور--
ورا--
ورد--
ورگ--
وری--
وز--
وس--
وست--
وش--
وف--
ول--
ولو--
ولی--
وم--
ون--
وند--
ونی--
وه--
وو--
وون--
وي--
وپ--
وک--
وگ--
وی--
ویت--
ویس--
ویشتر--
ویل--
وین--
ویو--
وە--
ي--
يا--
يي--
١--
٢--
٢٠--
٩--
پ--
پا--
پاد--
پاس--
پال--
پام--
پان--
پاپ--
پاک--
پای--
پت--
پدر--
پر--
پرت--
پرث--
پرس--
پرو--
پری--
پز--
پس--
پسر--
پش--
پل--
پلا--
پن--
په--
پو--
پوت--
پور--
پوش--
پي--
پچ--
پژو--
پی--
پیدا--
پیر--
پیش--
پە--
چ--
چا--
چار--
چال--
چاپ--
چر--
چس--
چش--
چشم--
چغ--
چل--
چم--
چن--
چند--
چهار--
چهل--
چو--
چي--
چپ--
چک--
چی--
ژ--
ژاپ--
ژن--
ژو--
ژی--
ک--
کا--
کابار--
کاتا--
کار--
کارگز--
کاس--
کاش--
کال--
کام--
کان--
کاو--
کاک--
کای--
کب--
کبود--
کت--
کتاب--
کد--
کر--
کراس--
کران--
کرت--
کرد--
کرو--
کرک--
کری--
کس--
کش--
کشت--
کشتی--
کف--
کل--
کلا--
کلاه--
کلو--
کلک--
کلی--
کم--
کمی--
کن--
کنار--
کنت--
کند--
کنس--
که--
کو--
کوا--
کوب--
کور--
کوز--
کوس--
کول--
کوم--
کون--
کوه--
کوهن--
کوچ--
کوی--
کپ--
کی--
کیا--
کین--
کە--
گ--
گا--
گار--
گاز--
گاس--
گال--
گان--
گاه--
گاو--
گت--
گد--
گذر--
گر--
گرا--
گرد--
گرم--
گرگ--
گری--
گز--
گس--
گشت--
گل--
گلی--
گم--
گن--
گنج--
گو--
گوا--
گوت--
گوذ--
گور--
گوشت--
گول--
گوم--
گون--
گي--
گپ--
گی--
گیل--
ی--
یا--
یاد--
یار--
یاس--
یال--
یب--
یت--
یخ--
یر--
یز--
یس--
یل--
یم--
ین--
یند--
ینه--
یه--
یو--
یور--
یون--
یک--
یی--
۲۲۹--
ম--
--0
--00
--01
--02
--03
--04
--05
--06
--07
--08
--09
--1
--10
--11
--12
--13
--14
--15
--16
--17
--18
--19
--2
--20
--21
--22
--23
--24
--25
--26
--27
--28
--29
--3
--30
--31
--32
--33
--34
--35
--36
--37
--38
--39
--4
--40
--41
--42
--43
--44
--45
--46
--47
--48
--49
--5
--50
--51
--52
--53
--54
--55
--56
--57
--58
--59
--6
--60
--61
--62
--63
--64
--65
--66
--67
--68
--69
--7
--70
--71
--72
--73
--74
--75
--76
--77
--78
--79
--8
--80
--81
--82
--83
--84
--85
--86
--87
--88
--89
--9
--90
--91
--92
--93
--94
--95
--96
--97
--98
--99
--a
--aa
--ab
--aba
--able
--abo
--ac
--ack
--aco
--action
--acy
--ad
--ade
--ado
--ae
--af
--ag
--aga
--age
--agua
--ah
--ai
--aic
--ain
--aire
--aj
--ak
--aki
--al
--ala
--ald
--alism
--ality
--ally
--alo
--alog
--am
--ambu
--an
--ana
--ance
--ancy
--ane
--ang
--anha
--ani
--ano
--anon
--ans
--ant
--anu
--ao
--ap
--apa
--apan
--aq
--ar
--ard
--arg
--args
--ari
--arity
--aru
--ary
--as
--at
--ata
--ate
--ated
--ater
--ates
--ath
--athon
--ati
--ation
--ations
--ative
--ato
--ator
--ature
--au
--aw
--awa
--ay
--aya
--aza
--b
--ba
--back
--bak
--bar
--base
--be
--ber
--berry
--bi
--bia
--bic
--bility
--bird
--ble
--blurb
--bo
--board
--bon
--bone
--book
--box
--boy
--bs
--bt
--bu
--burg
--burn
--button
--by
--bye
--bylang
--c
--ca
--cal
--cat
--category
--ce
--cell
--cence
--cept
--cer
--cern
--ces
--ch
--check
--chi
--ci
--ciation
--cing
--cio
--cist
--ck
--class
--cle
--co
--coat
--code
--colon
--craft
--cript
--cs
--css
--ct
--ction
--cu
--cular
--cus
--cy
--d
--da
--dah
--data
--day
--dayrow
--de
--ded
--der
--dh
--dhi
--di
--dian
--dio
--display
--dium
--dle
--do
--dog
--dom
--dor
--down
--dox
--dra
--ds
--du
--dun
--dy
--e
--ea
--eam
--ean
--eau
--ec
--ect
--ed
--ee
--eed
--een
--eer
--ege
--eh
--ei
--eil
--ein
--ejo
--ek
--el
--ela
--eld
--ele
--ely
--em
--eme
--ement
--en
--ena
--enance
--ence
--ency
--end
--ene
--ense
--ent
--ente
--eo
--ep
--epec
--er
--ere
--eri
--ering
--erity
--ern
--ero
--ers
--ert
--ery
--es
--esa
--ese
--ess
--est
--ester
--et
--ete
--eter
--etry
--ets
--ett
--ette
--ety
--eum
--eur
--ev
--event
--ew
--ex
--expiry
--ey
--f
--fa
--fd
--fe
--fect
--fer
--fessor
--ff
--fied
--field
--fields
--file
--fix
--friend
--ft
--fu
--ful
--g
--ga
--gamy
--gan
--gar
--ge
--ger
--gery
--gga
--gh
--ghi
--ght
--gi
--gia
--gian
--gical
--ging
--gist
--gka
--gle
--gnancy
--go
--gon
--gr
--gra
--gram
--gs
--gu
--gue
--gui
--gwa
--gy
--h
--ha
--hai
--hal
--hand
--he
--head
--hed
--heet
--hen
--her
--hes
--hi
--hin
--hint
--hip
--hn
--ho
--hold
--hood
--hop
--ht
--hu
--hua
--hy
--i
--ia
--iah
--ial
--ian
--ians
--iate
--iation
--ibi
--ibility
--ible
--ibo
--ic
--ica
--ical
--ice
--ich
--ick
--ico
--ics
--ict
--iction
--id
--ide
--idence
--ident
--ids
--ie
--iel
--ien
--ience
--ient
--ier
--ies
--ification
--ified
--ify
--iga
--ight
--igo
--ih
--ii
--ija
--ik
--ika
--ike
--iki
--il
--ility
--im
--ima
--image
--ime
--in
--ina
--ination
--index
--ine
--iness
--ing
--ingo
--ings
--ini
--ino
--iny
--io
--ion
--ions
--ior
--ious
--ip
--ipu
--ique
--ir
--ira
--iro
--is
--isation
--ise
--ised
--ish
--ism
--ist
--ists
--it
--itarianism
--ite
--ith
--ities
--ition
--itor
--itude
--ity
--ium
--ius
--iv
--iva
--ive
--iver
--ivism
--ivity
--iw
--iwa
--iya
--iye
--iz
--ization
--ize
--ized
--j
--ja
--je
--ji
--jki
--jo
--js
--ju
--k
--ka
--kali
--kas
--kat
--kay
--ke
--kecharcode
--kel
--ker
--ket
--key
--kh
--ki
--kie
--kin
--kle
--ko
--ks
--ku
--ky
--l
--la
--lai
--land
--lar
--ld
--le
--lect
--led
--left
--ler
--let
--level
--ley
--lf
--li
--line
--ling
--link
--links
--linkvalid
--lis
--lism
--list
--lity
--lization
--lk
--ll
--lla
--lli
--llo
--lly
--lm
--lo
--loader
--loghint
--logy
--lon
--lor
--ls
--lt
--lty
--lu
--lude
--lum
--ly
--lytic
--m
--ma
--man
--manship
--master
--mate
--mation
--mb
--mba
--mbi
--mble
--me
--men
--ment
--mer
--mi
--mian
--mira
--mma
--mo
--monthname
--mp
--ms
--mu
--my
--n
--na
--nade
--nal
--name
--names
--nas
--nate
--nce
--ncy
--nd
--ndo
--ndra
--ne
--nel
--ner
--nes
--nese
--ness
--net
--ng
--nga
--ngan
--ngi
--ngo
--ngu
--ni
--nia
--nic
--nid
--nin
--ning
--nis
--nist
--nity
--nization
--nja
--nk
--nka
--nn
--nne
--nnial
--no
--non
--ns
--nt
--nth
--nto
--nts
--nu
--num
--nums
--ny
--nzo
--o
--oa
--oan
--oard
--ob
--obj
--oc
--ocity
--ock
--od
--ode
--ody
--oe
--of
--off
--og
--ogy
--oh
--oi
--oid
--ok
--ol
--ola
--ole
--oli
--ology
--om
--oma
--ometer
--omy
--on
--onde
--one
--ong
--onism
--only
--ons
--ony
--oo
--oon
--op
--ope
--ophone
--opy
--or
--ore
--orm
--ors
--ort
--ory
--os
--osa
--osition
--ot
--ota
--ou
--out
--ov
--ow
--owa
--ox
--oy
--oyo
--p
--pa
--pace
--page
--parameter
--path
--payment
--pe
--pec
--pect
--ped
--per
--pet
--ph
--pi
--piece
--piration
--ple
--ply
--po
--pol
--pond
--pot
--ps
--pt
--ption
--pu
--py
--q
--r
--ra
--racy
--rage
--rai
--ral
--ram
--rat
--ration
--rator
--rb
--rch
--rd
--re
--red
--ree
--rel
--ren
--rence
--rf
--rg
--rge
--rgs
--ri
--rian
--ric
--rie
--rier
--rin
--rine
--ris
--rist
--rit
--rity
--rji
--rk
--rl
--rly
--rn
--rno
--ro
--room
--ros
--rous
--row
--rp
--rri
--rs
--rt
--rta
--rth
--ru
--run
--ry
--s
--sa
--sciousness
--se
--sed
--sel
--self
--sen
--ses
--sh
--shi
--ship
--shti
--si
--sia
--side
--sion
--sis
--sistence
--sity
--sive
--sk
--sm
--smen
--so
--son
--sor
--space
--spot
--ss
--sse
--st
--stan
--stand
--ste
--stein
--ster
--stic
--ston
--storm
--stream
--sts
--sty
--style
--su
--sy
--t
--ta
--table
--tag
--tail
--tan
--tar
--tart
--tch
--te
--ted
--tepec
--ter
--teur
--text
--th
--thm
--ti
--tia
--tian
--tic
--tid
--ties
--tik
--til
--time
--ting
--tion
--tions
--tism
--tist
--title
--tive
--tja
--tla
--tle
--tlemen
--tly
--tment
--to
--token
--ton
--tor
--tory
--tra
--tre
--tring
--trings
--try
--ts
--tt
--tte
--tto
--tu
--ture
--tus
--ty
--tyle
--type
--u
--ua
--uan
--uat
--ubtags
--uchi
--ucted
--uction
--ud
--ude
--udu
--ue
--uel
--uence
--uet
--uh
--ui
--uity
--uk
--uku
--ul
--ula
--ulo
--ult
--ulu
--um
--umi
--un
--ung
--uni
--uo
--up
--ur
--ure
--uri
--url
--urn
--ury
--us
--ust
--ut
--ute
--uty
--ux
--uya
--v
--va
--val
--value
--vation
--ve
--ver
--vi
--ville
--ving
--vo
--vu
--vy
--w
--wa
--wai
--walk
--wan
--ware
--way
--we
--wi
--wit
--wl
--wn
--wood
--work
--worthy
--wr
--ws
--x
--xi
--xo
--xy
--y
--ya
--yan
--yard
--ye
--year
--yer
--yi
--yl
--yle
--ym
--yn
--yo
--ype
--yu
--z
--za
--zation
--ze
--zed
--zer
--zi
--zio
--zo
--zy
--zz
--ı
--ə
--ι
--ν
--ς
--а
--и
--к
--ка
--о
--ти
--ты
--я
--ת
--ء
--ا
--اء
--اب
--ابه
--ابی
--ات
--اتسو
--اتی
--اج
--اجی
--اح
--اخ
--اد
--اده
--ادو
--ار
--ارا
--ارت
--ارد
--اردی
--ارک
--اری
--از
--اس
--اش
--اشی
--اط
--اع
--اعی
--اغ
--اف
--اق
--ال
--الیا
--ام
--ان
--انا
--انان
--انای
--انت
--انتس
--انس
--انش
--انه
--انو
--انوس
--انون
--اني
--انژ
--انگ
--انی
--اه
--او
--اي
--ايي
--اپا
--اچی
--اک
--اکی
--اگ
--ای
--ایا
--ایش
--این
--ایی
--ب
--با
--بار
--بت
--بد
--بر
--بل
--بن
--بند
--به
--بو
--بورگ
--بي
--بک
--بی
--بید
--بین
--بینه
--بیگ
--ة
--ت
--تا
--تاش
--تال
--تان
--تای
--تب
--تر
--تره
--تری
--ترین
--تز
--تزی
--تس
--تسا
--تسو
--تع
--تمه
--تن
--ته
--تو
--تور
--تون
--تي
--تک
--تکین
--تی
--تیسم
--تین
--تیو
--تیک
--ث
--ج
--جا
--جان
--جرد
--جش
--جم
--جن
--جنگ
--جه
--جو
--جی
--ح
--حا
--حال
--حة
--حر
--حق
--حله
--حه
--حی
--خ
--خان
--خانه
--خت
--خته
--خر
--خصی
--خنه
--خی
--د
--دا
--داد
--دار
--دان
--دانون
--دة
--در
--دره
--دز
--دس
--دشت
--دل
--دله
--دم
--دن
--دنه
--ده
--دهی
--دو
--دون
--دوي
--دي
--دگان
--دگی
--دی
--دین
--ذ
--ذب
--ر
--را
--رات
--راتی
--رای
--ربی
--رت
--رتا
--رج
--رد
--رده
--ردو
--ردون
--رز
--رزا
--رزی
--رس
--رسان
--رست
--رستی
--رسکی
--رش
--رضا
--رع
--رق
--رك
--رل
--رلو
--رم
--رن
--ره
--رو
--رود
--رون
--ري
--رک
--رکلا
--ری
--ریا
--ریت
--رین
--ریپت
--ز
--زا
--زان
--زای
--زد
--زش
--زل
--زم
--زن
--زه
--زو
--زون
--زپ
--زی
--زیا
--زیم
--زیون
--س
--سا
--سازی
--سال
--سب
--ست
--ستر
--ستمه
--ستن
--سته
--ستون
--ستوي
--ستگی
--ستی
--سد
--سر
--سرا
--سف
--سل
--سلاو
--سلی
--سم
--سمه
--سن
--سنه
--سه
--سو
--سون
--سي
--سپ
--سک
--سکا
--سکی
--سی
--سیت
--سیتی
--سیس
--سین
--سیه
--ش
--شا
--شاء
--شان
--شاه
--شت
--شد
--شن
--شه
--شهر
--شو
--شون
--شک
--شی
--شید
--شین
--ص
--صد
--صر
--صل
--ض
--ضا
--ضه
--ضی
--ط
--طی
--ظ
--ع
--عات
--عت
--عث
--عد
--علی
--عه
--عی
--غ
--غر
--غه
--غی
--ـ
--ـه
--ـون
--ف
--فا
--فات
--فت
--فته
--فر
--فع
--فق
--فل
--فه
--فی
--فیت
--فیق
--فین
--فیک
--ق
--قان
--قب
--قت
--قش
--قلال
--قلی
--قه
--قی
--قیه
--ك
--كن
--كي
--ل
--لا
--لت
--لد
--لدوله
--لدین
--لر
--لز
--لس
--لق
--لم
--لن
--لند
--له
--لو
--لوف
--لوژی
--لي
--لک
--لی
--لیا
--لین
--لیه
--لیو
--م
--ما
--مار
--مارو
--مان
--ماه
--مبه
--مت
--محله
--مر
--مز
--مل
--مم
--من
--منت
--مند
--مه
--مو
--مونا
--مي
--مک
--می
--میر
--مین
--ن
--نا
--ناس
--ناسی
--نامه
--ناک
--نب
--نبرگ
--نة
--نت
--نته
--نج
--ند
--ندم
--نده
--ندگی
--ندی
--نر
--نز
--نزا
--نزی
--نس
--نش
--نق
--نل
--نن
--ننده
--ننه
--نه
--نو
--نومه
--ني
--نچ
--نژ
--نژه
--نک
--نگ
--نگا
--نگی
--نی
--نیا
--نیه
--ه
--ها
--هاي
--های
--هایی
--هسه
--هم
--هن
--هه
--هو
--هون
--هی
--هیم
--و
--وا
--وار
--وال
--وان
--وب
--وبی
--وت
--وج
--وح
--وخ
--ود
--وده
--ور
--ورا
--وران
--وری
--وز
--وزا
--وزو
--وزی
--وزین
--وس
--وسن
--وسو
--وسی
--وش
--وشی
--وص
--وض
--وع
--وف
--وفر
--وق
--ول
--ولا
--ولاي
--ولد
--ولو
--ولی
--وم
--وما
--ومتر
--ومه
--ون
--ونا
--ونت
--وند
--ونز
--ونه
--ونی
--وه
--وو
--ووا
--وویچ
--وي
--وپول
--وک
--وکس
--وکه
--وگای
--وی
--ویا
--ویل
--ویچ
--ویی
--ى
--ي
--يا
--يات
--يان
--ية
--يت
--يج
--يد
--ير
--يز
--يس
--يك
--يل
--يم
--ين
--يه
--يي
--٠
--١
--٢
--٩
--پ
--پا
--پت
--پر
--پرنده
--پل
--پن
--په
--پو
--پور
--پی
--چ
--چا
--چای
--چر
--چل
--چه
--چی
--ژ
--ژه
--ژو
--ژی
--ک
--کا
--کات
--کاتا
--کار
--کان
--کت
--کر
--کرد
--کردن
--کرو
--کز
--کس
--کش
--کشی
--کل
--کلا
--کن
--که
--کو
--کور
--کوس
--کون
--کوه
--کوپ
--کی
--کیون
--گ
--گا
--گار
--گان
--گاه
--گاي
--گای
--گت
--گر
--گرا
--گرای
--گرد
--گرون
--گری
--گل
--گم
--گن
--گه
--گو
--گوس
--گون
--گي
--گيري
--گی
--گیر
--ہ
--ی
--یا
--یان
--یای
--یایی
--یبو
--یة
--یت
--یته
--یتی
--یج
--یح
--ید
--یدن
--یده
--یر
--یرا
--یرو
--یز
--یزاسیون
--یزم
--یزه
--یس
--یست
--یستون
--یستی
--یسم
--یش
--یط
--یق
--یقی
--یل
--یلا
--یم
--یما
--ین
--ینا
--ینال
--ینو
--ینگ
--یه
--یو
--یوز
--یوس
--یول
--یون
--یي
--یپ
--یچ
--یک
--یکی
--یگ
--یگه
--یی
--ے
--ە
--ەنه
--۰
--۰۰
--۰۰۰
--۰۶
--۱
--۲
--۳
--۳۰
--۳۴
--۳۵
--۳۶
--۴
--۵
--۵۵
--۶
--۶۶
--۷
--۷۸
--۸
--۸۰
--۹
--۹۰
